<unk>	0
<s>	0
</s>	0
.	-3.13306
s	-3.30755
e	-3.57992
▁	-3.6823
t	-3.97955
er	-4.05399
en	-4.09599
▁i	-4.11917
▁og	-4.15301
r	-4.5985
▁er	-4.60074
▁av	-4.84103
n	-4.86072
et	-5.00841
a	-5.01084
▁for	-5.1119
▁en	-5.13612
▁som	-5.25898
▁til	-5.28478
▁på	-5.35467
▁med	-5.3799
i	-5.40319
d	-5.5078
▁var	-5.54077
o	-5.58144
▁de	-5.62776
k	-5.63465
▁den	-5.65427
y	-5.68784
ene	-5.70442
ne	-5.76779
▁fra	-5.79242
▁har	-5.79626
m	-5.82992
▁ble	-5.85209
te	-6.00215
▁et	-6.00682
g	-6.01447
▁det	-6.02341
p	-6.03793
l	-6.08965
f	-6.20315
▁han	-6.21964
de	-6.2616
h	-6.28149
▁ved	-6.28906
u	-6.29108
▁å	-6.29924
c	-6.30082
in	-6.32468
us	-6.34609
re	-6.35967
▁også	-6.39219
ing	-6.39244
v	-6.39636
es	-6.44756
▁ut	-6.45821
▁s	-6.47053
le	-6.47473
▁be	-6.49026
▁eller	-6.49319
▁p	-6.50024
▁a	-6.51754
an	-6.52183
na	-6.52875
al	-6.56248
▁under	-6.59786
▁kan	-6.59997
ter	-6.60753
b	-6.63543
▁om	-6.67792
on	-6.68278
▁over	-6.68693
▁to	-6.70525
▁the	-6.71043
z	-6.72762
sk	-6.73171
is	-6.74396
ar	-6.746
▁opp	-6.75155
▁etter	-6.75505
▁18	-6.77819
ri	-6.79295
j	-6.81405
▁at	-6.84625
▁inn	-6.85136
or	-6.86975
▁m	-6.87092
▁d	-6.87217
ia	-6.87772
la	-6.89471
um	-6.89582
ta	-6.89592
w	-6.90187
▁f	-6.9545
ning	-6.96811
▁da	-6.97303
ur	-6.98942
▁g	-6.9942
▁andre	-7.00033
x	-7.03346
▁la	-7.03683
▁b	-7.04048
el	-7.04071
ch	-7.04913
▁an	-7.05156
ende	-7.05284
▁se	-7.06081
der	-7.08774
▁tre	-7.08802
il	-7.08803
▁al	-7.09421
ma	-7.09493
ke	-7.09598
▁ligger	-7.10585
ens	-7.10905
▁c	-7.11226
▁men	-7.12592
ck	-7.12885
▁u	-7.13168
ra	-7.13634
ga	-7.13963
▁re	-7.14726
land	-7.15205
isk	-7.16203
▁1	-7.17317
▁ha	-7.17438
▁mellom	-7.19201
li	-7.1967
é	-7.20204
ul	-7.20592
▁n	-7.21105
▁hadde	-7.22045
da	-7.23107
ng	-7.23186
▁mot	-7.26028
ver	-7.26493
at	-7.27996
lig	-7.28287
ge	-7.28335
▁of	-7.29989
▁blant	-7.30112
ka	-7.30746
▁sin	-7.31345
▁gjennom	-7.31611
▁in	-7.32053
▁h	-7.32107
▁seg	-7.32135
4	-7.32563
ner	-7.32695
▁hans	-7.3284
▁k	-7.32883
to	-7.33185
▁ca	-7.33205
di	-7.33715
nde	-7.34472
ske	-7.34536
ig	-7.3474
bo	-7.34913
ut	-7.3531
ve	-7.36474
▁man	-7.3671
▁her	-7.37386
iske	-7.3804
▁hoved	-7.38127
id	-7.38131
ry	-7.3842
▁l	-7.38896
▁17	-7.38986
os	-7.39049
it	-7.41626
▁v	-7.42069
ger	-7.42198
ol	-7.431
ler	-7.43443
▁16	-7.43885
th	-7.43912
be	-7.44443
▁he	-7.44619
ed	-7.45322
▁sa	-7.45501
nes	-7.45569
▁co	-7.45696
▁2	-7.46249
▁ikke	-7.46702
▁født	-7.46733
as	-7.47888
ff	-7.48182
▁bo	-7.48279
▁nord	-7.48431
▁le	-7.48617
▁dette	-7.48884
▁ba	-7.48889
ja	-7.49456
kk	-7.4951
▁sp	-7.49533
stad	-7.50047
▁and	-7.5023
for	-7.51
lo	-7.51101
▁t	-7.51378
3	-7.52229
ko	-7.5254
mi	-7.53376
ker	-7.53539
▁as	-7.53652
ro	-7.54381
▁ro	-7.54456
ling	-7.5472
▁w	-7.54903
ø	-7.55014
▁ra	-7.55823
den	-7.56043
son	-7.56147
▁vi	-7.5649
ad	-7.56986
▁sammen	-7.57294
ton	-7.57326
▁mar	-7.57413
man	-7.57532
▁første	-7.57547
ic	-7.57969
▁stor	-7.5807
øy	-7.59159
ør	-7.59198
▁flere	-7.59357
▁li	-7.59372
▁st	-7.59991
▁der	-7.60109
▁di	-7.60124
▁hun	-7.60625
▁kinesisk	-7.60694
▁denne	-7.60739
berg	-7.60988
▁du	-7.61426
▁3	-7.61688
▁j	-7.62406
va	-7.62521
▁ma	-7.62744
▁ga	-7.63164
▁15	-7.63456
mo	-7.6395
me	-7.63965
▁no	-7.64167
dal	-7.6417
▁pa	-7.65001
▁do	-7.65342
ha	-7.65814
▁kon	-7.65861
▁ti	-7.66782
by	-7.671
op	-7.67331
ba	-7.67504
ist	-7.68295
ell	-7.68315
▁ny	-7.68562
co	-7.69103
▁na	-7.69191
ment	-7.69224
un	-7.69442
▁by	-7.69953
fikk	-7.70428
erte	-7.70593
je	-7.7069
▁so	-7.70955
▁per	-7.71408
▁ni	-7.71457
lige	-7.71886
ce	-7.7189
ti	-7.72104
si	-7.72473
vi	-7.72641
bi	-7.73002
▁mo	-7.73484
mer	-7.73514
2	-7.73828
▁blir	-7.73882
▁r	-7.74271
▁ta	-7.74287
ik	-7.74507
sjon	-7.75063
▁sch	-7.75214
gen	-7.756
kt	-7.75858
▁5	-7.76066
▁or	-7.76088
vis	-7.7614
▁del	-7.76604
á	-7.76613
▁lo	-7.76672
om	-7.76918
ö	-7.77268
pe	-7.77367
del	-7.77948
▁tidligere	-7.78073
▁o	-7.78318
tre	-7.79996
mann	-7.80108
▁kom	-7.80204
else	-7.80398
▁disse	-7.80429
erne	-7.80474
ir	-7.80485
▁ho	-7.81112
æ	-7.81432
gi	-7.81703
▁annet	-7.82003
▁el	-7.82178
1	-7.8235
▁10	-7.82364
ian	-7.82395
▁ri	-7.82423
å	-7.82692
▁kommune	-7.82741
▁su	-7.83147
itt	-7.83716
ven	-7.83916
▁jo	-7.84129
mp	-7.84356
▁si	-7.84459
▁ko	-7.84844
het	-7.8516
▁am	-7.85474
do	-7.85905
▁bu	-7.86023
▁alle	-7.86259
▁land	-7.86359
rett	-7.86717
men	-7.86865
▁4	-7.87246
▁pi	-7.87592
io	-7.87805
▁samt	-7.87869
▁12	-7.88472
▁byen	-7.88555
▁po	-7.88689
▁mer	-7.89068
▁ka	-7.89091
▁lu	-7.891
ie	-7.89193
lin	-7.89275
au	-7.90267
▁vest	-7.90392
tal	-7.90812
od	-7.90835
▁kalles	-7.90949
ion	-7.91085
pp	-7.9153
go	-7.91658
ho	-7.91666
▁pro	-7.91749
▁kalt	-7.91779
▁bar	-7.91848
ster	-7.92123
▁fri	-7.92393
ina	-7.93041
▁7	-7.93298
▁øst	-7.93383
ca	-7.93485
ov	-7.93731
ni	-7.93893
am	-7.93917
▁mange	-7.94643
▁ned	-7.94664
asjon	-7.95297
kke	-7.95567
▁te	-7.96005
▁finnes	-7.965
ly	-7.96538
pa	-7.96729
im	-7.97273
▁mor	-7.97486
▁sør	-7.9758
ant	-7.98264
ær	-7.98275
vik	-7.98488
ring	-7.98548
over	-7.98562
av	-7.98572
tor	-7.98705
▁norsk	-7.98803
▁me	-7.99007
ting	-7.99364
ikk	-7.99429
ci	-7.99893
ard	-7.99912
▁navn	-8.0009
▁bi	-8.0028
00	-8.00748
lag	-8.00756
▁hvor	-8.01029
nd	-8.01206
▁ei	-8.01239
5	-8.01585
▁bestå	-8.01734
▁går	-8.02034
▁år	-8.02213
bu	-8.02402
ns	-8.02446
▁mens	-8.02463
▁lag	-8.02528
▁14	-8.02551
no	-8.0277
▁far	-8.02827
ang	-8.02857
ä	-8.0348
ering	-8.03498
ningen	-8.03667
▁ru	-8.03741
ong	-8.03744
ste	-8.04471
ok	-8.04532
▁tor	-8.04553
▁6	-8.04996
▁sol	-8.05462
ud	-8.05607
▁dag	-8.05727
▁ofte	-8.05817
▁russisk	-8.05836
skap	-8.06081
▁tra	-8.06291
▁con	-8.06535
▁13	-8.07038
▁fire	-8.0711
▁gu	-8.07173
▁før	-8.0764
tra	-8.08008
gu	-8.08165
tu	-8.08329
▁y	-8.08353
ou	-8.08414
sh	-8.08463
▁gi	-8.08745
í	-8.08764
pi	-8.08822
hold	-8.08994
▁bak	-8.09405
▁være	-8.09415
po	-8.09585
▁navnet	-8.11122
▁9	-8.11209
▁skal	-8.11337
▁mi	-8.11419
▁død	-8.12054
▁fa	-8.12236
▁tilhører	-8.12462
▁sitt	-8.12752
▁pe	-8.12841
▁store	-8.13614
▁8	-8.13944
▁så	-8.13945
▁car	-8.14106
▁ja	-8.14473
hi	-8.145
▁11	-8.14663
hu	-8.14709
▁vann	-8.14892
▁mest	-8.14893
▁ab	-8.15367
▁vil	-8.15643
sel	-8.15699
▁fi	-8.15727
▁ar	-8.15754
hus	-8.1589
art	-8.16004
ag	-8.16041
sta	-8.16046
▁x	-8.16105
▁nå	-8.16267
var	-8.16685
▁hu	-8.17055
sch	-8.1748
tter	-8.17523
▁min	-8.1757
▁hos	-8.17703
▁kr	-8.17844
▁sam	-8.17885
▁frem	-8.18278
ium	-8.18388
ord	-8.18494
und	-8.18743
år	-8.19396
per	-8.19651
▁kjent	-8.19887
▁senere	-8.20189
len	-8.20221
▁ham	-8.20226
▁go	-8.20248
▁tri	-8.20301
ü	-8.20527
▁ju	-8.20649
dag	-8.20825
inyin	-8.2085
▁ad	-8.20863
lu	-8.21431
е	-8.21956
ac	-8.21989
gg	-8.22284
ru	-8.22859
les	-8.23036
▁bra	-8.2343
idae	-8.24094
▁sk	-8.24701
ation	-8.2501
▁hel	-8.25255
▁største	-8.2552
ó	-8.2563
▁kirke	-8.25796
▁noen	-8.25914
verk	-8.26389
sted	-8.2642
ny	-8.26431
▁rundt	-8.26811
▁engelsk	-8.26902
ak	-8.26951
▁selv	-8.27142
▁ch	-8.27272
elle	-8.273
ung	-8.27549
stein	-8.27657
vin	-8.27951
ki	-8.28023
▁lever	-8.28052
ber	-8.28202
ica	-8.28504
▁ge	-8.28558
em	-8.28673
sp	-8.28794
▁0	-8.29364
▁sal	-8.29377
▁siden	-8.29602
ede	-8.29813
ron	-8.30072
▁all	-8.3046
▁mål	-8.30518
ken	-8.30693
dd	-8.307
▁ski	-8.30889
▁mat	-8.30904
▁grunn	-8.31076
ot	-8.31091
kel	-8.31289
ans	-8.31474
kjø	-8.31478
ley	-8.31679
iv	-8.3175
▁fly	-8.3221
ine	-8.32279
▁kar	-8.3233
▁folke	-8.32452
▁john	-8.32631
▁hen	-8.3273
▁syn	-8.33228
▁eks	-8.336
▁va	-8.3389
▁film	-8.34098
▁fo	-8.34911
▁ne	-8.34928
▁ur	-8.35463
inn	-8.35467
▁vant	-8.35478
▁ku	-8.35544
и	-8.35649
dre	-8.35688
ft	-8.35727
▁pre	-8.35996
gang	-8.36563
▁nor	-8.36676
▁ver	-8.37025
▁san	-8.37187
▁pu	-8.37319
9	-8.37678
▁wa	-8.37702
kker	-8.37711
▁lang	-8.37743
gn	-8.37922
ld	-8.38147
▁langs	-8.38252
dalen	-8.38257
▁mai	-8.38379
▁laget	-8.38588
▁små	-8.3878
▁my	-8.38866
▁kina	-8.38947
▁musikk	-8.39056
tur	-8.39098
▁innen	-8.39184
▁ol	-8.39394
▁fem	-8.39396
▁ki	-8.39523
▁både	-8.39962
▁omfatter	-8.40039
▁fram	-8.40165
ll	-8.40184
▁val	-8.40197
bel	-8.40278
▁bro	-8.40279
▁skole	-8.40338
yl	-8.40547
mar	-8.40826
du	-8.40953
▁ord	-8.41368
▁sine	-8.41638
▁wi	-8.41747
ph	-8.41848
▁sønn	-8.42094
ich	-8.42115
о	-8.42497
▁verdens	-8.42545
ier	-8.42611
▁gift	-8.42614
▁km	-8.42661
til	-8.42663
▁hus	-8.42734
følge	-8.42785
▁tro	-8.4291
bb	-8.42947
▁spiller	-8.433
▁tid	-8.43349
gre	-8.43455
▁ag	-8.44116
ow	-8.4437
ab	-8.44374
tion	-8.44561
▁kommer	-8.44574
ā	-8.44702
7	-8.44714
ya	-8.44778
▁kunst	-8.44916
tak	-8.44918
kon	-8.44929
han	-8.44947
▁kultur	-8.45121
▁familien	-8.45192
bar	-8.45585
par	-8.45661
▁området	-8.45795
▁nær	-8.46423
▁sand	-8.46495
▁fjell	-8.46619
tar	-8.46665
vo	-8.46729
ju	-8.46873
fi	-8.46924
tisk	-8.47048
ek	-8.47079
wa	-8.47152
▁art	-8.47198
▁like	-8.47199
▁2002	-8.47328
▁gruppen	-8.47569
ingen	-8.47593
▁leder	-8.47684
mon	-8.47901
▁betyr	-8.48282
▁videre	-8.48301
bl	-8.48316
▁norske	-8.48332
▁19	-8.48501
ill	-8.48525
sten	-8.48566
▁når	-8.48594
ug	-8.48599
▁stein	-8.48856
sson	-8.49059
min	-8.49213
ius	-8.49828
mu	-8.49861
familien	-8.49954
elsen	-8.50146
▁berg	-8.50264
▁provinsen	-8.50473
▁ed	-8.5048
▁ste	-8.50575
▁juli	-8.50685
ator	-8.50789
▁bre	-8.50801
▁gir	-8.50837
ført	-8.50945
▁par	-8.50961
▁we	-8.51051
▁op	-8.51093
ding	-8.51178
▁vært	-8.51257
opp	-8.51609
if	-8.51718
jo	-8.51778
lands	-8.51862
bil	-8.51911
▁sta	-8.52047
bruk	-8.52323
▁mars	-8.52369
tiske	-8.52423
▁parti	-8.52476
ran	-8.5275
dan	-8.53121
▁kor	-8.53333
▁z	-8.53578
▁høy	-8.53598
isme	-8.53766
▁on	-8.54042
tin	-8.54271
ji	-8.54288
heim	-8.5446
fly	-8.54493
▁em	-8.54625
▁ke	-8.54637
mor	-8.54809
stilling	-8.54884
rik	-8.54892
tz	-8.5524
▁lå	-8.55391
nk	-8.55531
▁bru	-8.55655
▁un	-8.55713
▁20	-8.55746
▁com	-8.55768
lan	-8.55827
▁samme	-8.55859
dy	-8.55868
▁norge	-8.55888
▁følgende	-8.56043
▁jan	-8.5606
▁skrev	-8.5611
lse	-8.56182
▁slik	-8.5628
ze	-8.56295
val	-8.56402
itet	-8.5644
fjorden	-8.56575
▁oslo	-8.56868
za	-8.56879
▁bok	-8.56963
folkerepublikken	-8.57115
▁gjen	-8.57236
▁tu	-8.57266
▁hele	-8.57592
▁new	-8.57763
▁folketelling	-8.57862
▁august	-8.57862
mm	-8.58082
▁fu	-8.58224
▁mal	-8.58356
uk	-8.58526
▁jord	-8.58803
let	-8.58917
ip	-8.59325
▁hal	-8.59471
▁kn	-8.59513
tan	-8.5962
▁fast	-8.59714
siden	-8.59804
che	-8.59902
▁sjø	-8.60195
▁øy	-8.60338
and	-8.60342
▁ben	-8.60355
▁vo	-8.60378
▁th	-8.60459
▁mu	-8.60563
vel	-8.60917
▁brun	-8.61275
ologi	-8.61543
▁kl	-8.61601
og	-8.61722
tten	-8.61727
ham	-8.61766
▁kjente	-8.61776
▁ak	-8.62345
▁tv	-8.62635
bre	-8.63182
cu	-8.63189
ale	-8.63339
▁mel	-8.63559
▁inneholder	-8.63638
ana	-8.63877
▁moh	-8.6423
▁bor	-8.64318
zi	-8.64366
chi	-8.64495
▁enn	-8.64847
▁chi	-8.64907
q	-8.65095
ino	-8.65244
▁cl	-8.65306
ninger	-8.65362
pper	-8.65417
ach	-8.65433
▁vin	-8.65483
log	-8.65483
▁cha	-8.65561
▁ser	-8.65602
▁von	-8.65616
we	-8.65843
mat	-8.66043
▁valg	-8.6607
▁brukes	-8.66127
▁rett	-8.66307
ku	-8.6664
▁fransk	-8.66645
▁dem	-8.66664
mål	-8.66668
▁blitt	-8.66792
kar	-8.66896
▁rød	-8.66996
sti	-8.67079
borg	-8.67096
▁mag	-8.67116
su	-8.67161
met	-8.67186
▁fag	-8.6724
▁dr	-8.6753
net	-8.6758
▁vis	-8.67591
▁ber	-8.67621
qu	-8.67645
▁innenfor	-8.67671
▁vel	-8.67683
yn	-8.67683
н	-8.67714
fe	-8.67801
6	-8.67848
▁bil	-8.67848
▁pan	-8.67907
▁midt	-8.67996
▁bruk	-8.68351
ap	-8.68407
inger	-8.6846
▁kommunen	-8.68508
▁kunne	-8.68824
mester	-8.6904
т	-8.69287
л	-8.69311
gel	-8.69416
▁må	-8.69445
ty	-8.69446
▁bl	-8.69552
▁kun	-8.69561
▁hav	-8.69583
form	-8.69836
vet	-8.70026
▁mon	-8.70147
▁sig	-8.70864
▁halv	-8.70886
mb	-8.71257
▁hennes	-8.71332
▁nye	-8.71416
▁opprinnelig	-8.71461
▁van	-8.71523
▁gikk	-8.71594
mme	-8.71595
▁ob	-8.71645
fra	-8.7172
burg	-8.71775
▁fin	-8.71787
ão	-8.71816
▁vei	-8.71841
tid	-8.71848
▁gul	-8.71877
▁af	-8.72062
stand	-8.72135
kor	-8.72153
▁tur	-8.72177
bro	-8.72486
▁hol	-8.72565
▁spilte	-8.726
▁gresk	-8.72664
laget	-8.727
▁lys	-8.72768
▁hy	-8.72768
he	-8.728
▁datter	-8.72923
far	-8.72935
▁br	-8.73285
▁sh	-8.73304
øya	-8.73427
▁natur	-8.73447
ini	-8.73498
▁tysk	-8.73512
▁hver	-8.73635
dyr	-8.73693
▁rekke	-8.73813
▁ren	-8.73859
▁2007	-8.73931
▁verk	-8.73944
▁bri	-8.7397
▁pr	-8.74028
kan	-8.74099
veien	-8.74136
▁lav	-8.74468
▁ulike	-8.74537
est	-8.74561
ska	-8.74589
è	-8.74803
▁heter	-8.74829
▁2010	-8.74876
dom	-8.7515
slag	-8.75182
bok	-8.75208
▁can	-8.75217
▁finn	-8.75297
gar	-8.75768
▁tok	-8.7577
▁liv	-8.7594
van	-8.75942
▁mil	-8.75954
▁norges	-8.76097
▁alt	-8.76129
▁30	-8.76262
▁tar	-8.76453
▁uten	-8.76562
rom	-8.76655
50	-8.76681
▁kong	-8.76685
syn	-8.76695
▁nasjonal	-8.76758
▁skulle	-8.76763
▁god	-8.76886
▁os	-8.77179
▁liste	-8.7738
▁ly	-8.77587
▁nu	-8.77716
isering	-8.77731
ay	-8.77779
ah	-8.77891
▁col	-8.77927
▁rom	-8.7804
▁gull	-8.78092
▁begge	-8.78192
▁red	-8.78353
sto	-8.78739
▁sc	-8.78826
bin	-8.78921
▁lokal	-8.78998
mus	-8.79189
ige	-8.79219
▁selskapet	-8.79302
▁roman	-8.7935
▁gud	-8.79377
р	-8.79565
hr	-8.79676
▁januar	-8.79681
▁2006	-8.79695
sky	-8.79711
fa	-8.79767
▁gar	-8.79776
▁tak	-8.798
▁shi	-8.7983
up	-8.79943
elig	-8.80039
▁luft	-8.8008
▁bli	-8.80132
▁gen	-8.80335
▁sommerfugl	-8.80364
rø	-8.80424
ære	-8.80592
ros	-8.80651
▁skog	-8.80696
▁radio	-8.80769
▁utgitt	-8.80783
løp	-8.80861
▁skrevet	-8.80931
▁dom	-8.80969
pro	-8.80998
▁sto	-8.81042
▁form	-8.81056
sund	-8.81061
▁tillegg	-8.81125
anlegg	-8.81133
▁dan	-8.81147
▁spill	-8.81327
▁språk	-8.81402
▁sen	-8.81448
▁sj	-8.81483
▁juni	-8.81555
▁grav	-8.81664
▁gjerne	-8.81773
leder	-8.81816
skole	-8.81998
ú	-8.82352
▁kinas	-8.82382
▁bare	-8.82396
▁tallet	-8.82499
rat	-8.825
satt	-8.8269
▁tom	-8.82815
▁farge	-8.82857
▁hø	-8.82972
▁ry	-8.83088
▁fiske	-8.83093
ath	-8.83267
▁pri	-8.83536
▁arm	-8.83848
fjord	-8.84071
tel	-8.84278
▁orden	-8.84333
lia	-8.8446
▁står	-8.84528
▁peter	-8.84606
mmer	-8.8461
ix	-8.8468
▁post	-8.84726
▁pol	-8.84833
mark	-8.84896
▁sentral	-8.85078
ris	-8.85083
▁mark	-8.85219
rin	-8.8545
▁arbeids	-8.85481
iz	-8.85592
▁fl	-8.85606
senter	-8.85623
lagt	-8.85718
mel	-8.85725
▁barn	-8.85938
▁anti	-8.86019
gra	-8.86025
▁riks	-8.86042
▁operatør	-8.86146
vei	-8.8617
▁ac	-8.86257
ppe	-8.86277
▁sel	-8.8628
▁støtte	-8.86322
с	-8.86458
▁2005	-8.86509
▁sv	-8.86537
lå	-8.86595
ish	-8.8672
kje	-8.87105
▁au	-8.87214
▁vise	-8.87237
▁mindre	-8.87253
▁sm	-8.87538
▁2008	-8.87574
▁christian	-8.87597
tall	-8.8766
▁kort	-8.87712
▁ji	-8.87742
▁særlig	-8.87964
gan	-8.87985
ice	-8.88153
ð	-8.88277
▁gammel	-8.88278
tes	-8.88528
▁oktober	-8.88637
▁fre	-8.88655
▁000	-8.88828
▁industri	-8.88933
skog	-8.88972
▁gro	-8.89025
▁ø	-8.8909
banen	-8.89237
ble	-8.89287
▁dikt	-8.89443
ving	-8.89467
▁deres	-8.89591
ight	-8.89655
▁rø	-8.89714
▁gamle	-8.89726
▁stats	-8.89773
gh	-8.89934
▁stil	-8.89944
isten	-8.90076
д	-8.90089
spill	-8.90126
▁deretter	-8.90155
▁sang	-8.9017
▁sub	-8.90184
isert	-8.90312
▁ve	-8.90469
enes	-8.90489
▁25	-8.90613
▁mus	-8.90662
▁kur	-8.90736
▁via	-8.90808
▁imidlertid	-8.90823
▁za	-8.90827
▁gra	-8.90928
▁eu	-8.9106
gård	-8.91175
▁seks	-8.91184
▁fred	-8.91305
forening	-8.9135
xi	-8.91376
▁mac	-8.91393
▁noe	-8.91421
råd	-8.91445
derfor	-8.91467
▁bruker	-8.91512
▁eksempel	-8.91517
▁mont	-8.91549
▁kv	-8.91749
all	-8.91887
▁vanligvis	-8.91962
▁para	-8.92198
▁barne	-8.92309
▁litt	-8.9237
▁bergen	-8.92451
är	-8.92458
▁medlem	-8.92527
▁sha	-8.92542
▁ingen	-8.92548
▁ty	-8.92591
▁president	-8.92611
м	-8.92682
▁motor	-8.92832
tri	-8.9294
▁paul	-8.92958
▁band	-8.92978
jen	-8.93002
▁plan	-8.93013
▁innbyggere	-8.93057
▁johan	-8.93058
tiden	-8.93081
▁filmen	-8.93224
▁jeg	-8.93358
▁februar	-8.93435
▁spe	-8.93438
▁ev	-8.93577
zz	-8.93631
res	-8.93631
▁distrikt	-8.93643
ita	-8.93652
▁ind	-8.93675
▁innbyggertall	-8.93814
navn	-8.93952
▁sø	-8.94134
shi	-8.94165
▁kje	-8.94227
ari	-8.94309
▁fe	-8.94485
ida	-8.94564
sett	-8.9458
fl	-8.94583
▁ex	-8.94676
▁stat	-8.94801
▁dy	-8.9484
▁side	-8.94841
▁forskjellige	-8.94959
в	-8.94968
▁meter	-8.95044
ks	-8.95164
▁2009	-8.95364
selskap	-8.95386
▁pl	-8.954
ika	-8.95401
ket	-8.95425
vær	-8.95439
itz	-8.95508
stol	-8.95584
ara	-8.95593
don	-8.95606
▁bal	-8.9561
legg	-8.95693
ī	-8.95728
▁ci	-8.9591
elt	-8.95954
har	-8.95995
pl	-8.96221
anger	-8.96221
▁bur	-8.96278
▁inter	-8.9649
▁tilbake	-8.96515
▁gri	-8.96554
▁bred	-8.96601
hy	-8.96659
▁dia	-8.96666
а	-8.96702
▁you	-8.96854
port	-8.96987
▁siste	-8.97042
elser	-8.97139
▁sil	-8.97152
red	-8.97154
▁slutt	-8.97189
▁fil	-8.97211
▁fal	-8.97219
▁regi	-8.97305
rum	-8.97381
▁stra	-8.9739
▁startet	-8.97423
huset	-8.97445
vern	-8.97458
▁hor	-8.97481
à	-8.97523
dig	-8.97538
▁system	-8.97559
bø	-8.9761
pen	-8.97637
▁september	-8.97683
▁general	-8.97684
vil	-8.97684
som	-8.97786
▁egen	-8.97816
eg	-8.97819
▁gran	-8.97862
ind	-8.98026
▁fr	-8.9807
rud	-8.981
▁følger	-8.98121
▁gang	-8.98145
▁vol	-8.98176
ull	-8.98254
sj	-8.98517
▁konge	-8.98545
eres	-8.98729
▁blå	-8.98731
▁kla	-8.98746
▁svensk	-8.9876
▁sl	-8.98791
▁je	-8.98848
▁inkluderer	-8.98873
▁april	-8.98874
▁bandet	-8.98879
▁robert	-8.98946
▁ten	-8.99161
▁militær	-8.99273
▁nett	-8.99383
▁sak	-8.99602
▁tradisjonell	-8.99748
▁organ	-8.99757
▁gy	-8.99899
▁beste	-8.99935
▁foran	-8.9994
lys	-8.99961
tro	-8.99979
landet	-9.0006
ighet	-9.00127
▁gre	-9.00177
vann	-9.00191
fall	-9.00358
ford	-9.00367
▁svær	-9.00392
10	-9.00476
mannen	-9.00634
án	-9.00658
ola	-9.00692
▁inkludert	-9.00889
▁lyd	-9.01059
▁først	-9.01113
▁fotball	-9.01167
40	-9.01217
▁mad	-9.01237
lene	-9.01272
▁sett	-9.01294
▁1989	-9.0131
20	-9.01365
▁mur	-9.01687
▁samtidig	-9.01708
▁usa	-9.01724
kre	-9.01787
▁ring	-9.01925
bra	-9.01928
▁thor	-9.01949
▁person	-9.01955
▁park	-9.02027
▁basert	-9.02045
▁trans	-9.02183
▁lov	-9.02313
▁hi	-9.02374
spiller	-9.02563
▁les	-9.02577
pre	-9.02693
▁kle	-9.03157
▁bjørn	-9.03174
▁william	-9.03364
pris	-9.03422
tic	-9.03455
▁japansk	-9.03506
▁fla	-9.03511
▁tidlig	-9.03731
cia	-9.03762
lik	-9.03764
pu	-9.03816
▁lin	-9.03888
▁kre	-9.04186
▁sommer	-9.04214
▁rev	-9.04238
▁tekst	-9.04328
▁dis	-9.04393
▁est	-9.04843
▁data	-9.04897
iserte	-9.04965
bud	-9.04989
ano	-9.04999
▁port	-9.05005
ive	-9.05289
kal	-9.0529
▁ky	-9.05362
ski	-9.05373
gl	-9.05467
fri	-9.05627
området	-9.05641
ban	-9.0571
ister	-9.05792
▁ul	-9.05801
▁etablert	-9.05901
▁carl	-9.05918
▁pen	-9.05925
▁viktigste	-9.05927
▁28	-9.06031
▁jon	-9.06069
▁hvit	-9.0617
▁het	-9.0628
band	-9.06308
▁2011	-9.06345
к	-9.06452
rå	-9.06523
ette	-9.06555
▁cor	-9.06593
hl	-9.06884
▁styre	-9.06974
bus	-9.07066
sjøen	-9.07146
▁karl	-9.07174
▁kyst	-9.07245
▁spor	-9.07386
bjørn	-9.07394
get	-9.07435
isere	-9.07541
▁italiensk	-9.07629
▁såkalt	-9.07631
▁21	-9.07672
▁større	-9.07705
▁utenfor	-9.07718
▁stu	-9.07848
båt	-9.07936
▁sangen	-9.0805
jer	-9.08225
age	-9.08323
▁bas	-9.08343
▁lett	-9.08395
α	-9.08504
▁sosial	-9.08515
▁dermed	-9.08559
▁gal	-9.08587
▁nils	-9.08604
kant	-9.08646
▁hånd	-9.08748
▁ras	-9.08867
▁fylke	-9.08889
rike	-9.08907
▁desember	-9.08945
▁året	-9.09044
▁tru	-9.09071
kul	-9.09182
▁opera	-9.09212
▁lille	-9.09326
▁24	-9.09369
pningsseremonien	-9.09387
▁flaggbærer	-9.09387
▁grå	-9.09397
▁lange	-9.09418
bær	-9.09419
▁russland	-9.09458
▁not	-9.09512
▁får	-9.09513
ani	-9.09515
70	-9.09531
zhou	-9.09567
aks	-9.0959
▁blad	-9.09631
byen	-9.09642
š	-9.09831
▁helt	-9.09921
▁topp	-9.09946
lsen	-9.09947
▁elven	-9.09994
▁cu	-9.10028
▁22	-9.10041
▁bon	-9.10078
kin	-9.1013
▁georg	-9.1022
gge	-9.10277
▁november	-9.10278
ider	-9.10343
▁latin	-9.1035
leg	-9.10384
▁kron	-9.10405
▁air	-9.10427
gren	-9.1044
cy	-9.10456
cc	-9.1046
way	-9.10549
у	-9.10726
▁forfatter	-9.10822
▁arkitekt	-9.11101
▁erik	-9.11278
▁zh	-9.11295
lot	-9.11515
våg	-9.116
▁bø	-9.11641
30	-9.11922
elva	-9.11983
▁hovedsakelig	-9.12084
klubb	-9.12086
▁stjerne	-9.12121
▁viser	-9.12133
ild	-9.12197
film	-9.12361
lede	-9.12427
▁ya	-9.12471
▁hei	-9.12512
rus	-9.12607
▁23	-9.12625
▁hår	-9.12638
▁martin	-9.12704
område	-9.12723
▁utviklet	-9.12728
▁samarbeid	-9.12739
fo	-9.12762
fisk	-9.12762
▁xi	-9.12784
ula	-9.12877
▁plass	-9.12938
▁christ	-9.12984
▁klubben	-9.13134
navnet	-9.13241
ect	-9.13328
▁studie	-9.13339
▁region	-9.13356
værende	-9.13409
▁svart	-9.13506
▁full	-9.1353
▁keiser	-9.13534
my	-9.13598
▁und	-9.13697
ther	-9.13704
iet	-9.13763
▁pat	-9.13853
▁tredje	-9.13924
▁wal	-9.14002
zo	-9.14077
asjonen	-9.14219
▁mos	-9.1424
▁egg	-9.14339
ssen	-9.14368
mand	-9.14385
lekt	-9.14469
▁eier	-9.14477
ij	-9.14486
▁herre	-9.14587
wi	-9.14741
▁ska	-9.14832
▁omkring	-9.14857
▁kra	-9.14877
▁lind	-9.14905
▁albumet	-9.14958
▁kamp	-9.14989
ram	-9.14998
▁skolen	-9.15003
ria	-9.15039
▁europa	-9.15041
bane	-9.15042
jev	-9.15204
▁dagen	-9.15251
▁dessut	-9.15328
▁tal	-9.15373
▁bror	-9.15382
▁dra	-9.15431
satte	-9.15516
bas	-9.15641
ille	-9.15658
systemet	-9.15714
fat	-9.15749
lev	-9.15861
▁skuespiller	-9.15868
ib	-9.15965
inne	-9.16058
▁døde	-9.16098
▁2004	-9.16147
▁standard	-9.16272
▁thomas	-9.16293
rak	-9.16334
▁mari	-9.16486
stå	-9.16554
qui	-9.16607
▁ap	-9.16756
plass	-9.16762
▁che	-9.16798
fal	-9.16806
▁dal	-9.16881
med	-9.16936
75	-9.16994
▁johannes	-9.17073
▁kunstner	-9.17122
samling	-9.17128
ova	-9.17183
ved	-9.17209
▁gruppe	-9.17216
▁begynte	-9.17225
▁bør	-9.17259
føre	-9.173
nis	-9.17539
mal	-9.17557
pol	-9.17561
stasjon	-9.17587
▁slekt	-9.17679
ub	-9.17683
oc	-9.17739
are	-9.1779
▁øya	-9.17939
cent	-9.18018
▁don	-9.18049
ller	-9.18049
tøy	-9.18114
▁lege	-9.18165
▁tittelen	-9.1826
▁david	-9.18268
gruppen	-9.18273
▁representerte	-9.18369
▁kh	-9.18586
sak	-9.1865
▁produsert	-9.18674
▁igjen	-9.18675
fin	-9.18727
▁she	-9.18775
▁landets	-9.18891
vig	-9.18965
▁vinter	-9.18979
ai	-9.18989
▁politisk	-9.18995
▁pass	-9.19026
▁gate	-9.19139
tiv	-9.19193
este	-9.19243
▁spilt	-9.19304
ric	-9.19371
ald	-9.195
asjoner	-9.19672
▁kat	-9.197
ala	-9.19716
▁cas	-9.19797
bygd	-9.19935
lær	-9.19981
▁hovedstad	-9.2002
illa	-9.20105
▁sky	-9.20129
12	-9.20162
ød	-9.20205
▁george	-9.20255
▁versjon	-9.2034
▁besto	-9.20377
vert	-9.20419
▁kir	-9.20486
▁familie	-9.206
▁gav	-9.20612
ick	-9.208
▁ok	-9.20876
haug	-9.2098
▁politi	-9.21014
▁2000	-9.21111
side	-9.21128
▁spilles	-9.21159
▁26	-9.21202
▁grønn	-9.21214
▁helse	-9.21215
drag	-9.21224
lis	-9.2135
ische	-9.21408
stykke	-9.21534
ky	-9.21639
▁arter	-9.2173
▁knut	-9.21769
▁overtok	-9.2177
ekte	-9.21783
gjør	-9.21819
▁sy	-9.21873
kommun	-9.2201
the	-9.22155
▁lands	-9.22191
80	-9.22227
ons	-9.2234
▁rock	-9.22448
▁hall	-9.22513
stående	-9.22567
pin	-9.22659
sjef	-9.2266
▁res	-9.22709
▁elva	-9.22764
kraft	-9.22778
føring	-9.22781
8	-9.22796
▁flo	-9.22947
ial	-9.23014
alis	-9.23017
kh	-9.23078
▁mis	-9.2314
▁sverige	-9.23154
bånd	-9.23158
sikt	-9.23164
▁maria	-9.23205
▁gjorde	-9.23439
78	-9.23445
stra	-9.23539
kle	-9.23545
øv	-9.23565
grad	-9.23638
▁fylkesvei	-9.23684
skjell	-9.23818
▁regn	-9.23936
dde	-9.24
gaard	-9.24013
eks	-9.24221
▁bry	-9.24241
▁tegn	-9.24251
▁få	-9.24284
▁teater	-9.24303
▁menneske	-9.24337
ata	-9.24415
▁skr	-9.24488
menn	-9.24505
▁och	-9.24565
▁die	-9.24679
konkurranse	-9.24691
jan	-9.24692
senteret	-9.24712
stan	-9.25011
tok	-9.25059
▁historie	-9.25074
▁wo	-9.25102
valg	-9.25128
dia	-9.25202
▁arbeider	-9.25211
▁måtte	-9.25219
bygg	-9.2524
kjær	-9.25276
▁vår	-9.25286
▁finsk	-9.25289
▁pra	-9.25352
dals	-9.25596
istisk	-9.25678
▁mann	-9.25692
dor	-9.25793
ologisk	-9.25838
liv	-9.2592
▁fle	-9.25946
ativ	-9.25991
vare	-9.26153
▁cap	-9.26173
elli	-9.26235
▁fjern	-9.26274
на	-9.26357
▁miljø	-9.264
fer	-9.26402
▁war	-9.26404
selskapet	-9.265
▁ball	-9.26557
▁fer	-9.26577
68	-9.2659
hal	-9.26613
▁anders	-9.26656
plan	-9.2666
▁pal	-9.26688
▁son	-9.26741
▁olje	-9.26753
full	-9.26764
▁ana	-9.26779
▁sur	-9.26846
▁brukt	-9.26862
minister	-9.26869
▁ek	-9.27003
▁venn	-9.27099
stø	-9.27102
▁super	-9.27106
▁eneste	-9.27144
klar	-9.27256
ū	-9.273
▁mc	-9.2731
lus	-9.27436
▁utgjør	-9.27479
▁universitet	-9.27668
▁blod	-9.27747
▁venstre	-9.27848
▁serien	-9.27906
tatt	-9.28001
▁enkelte	-9.28017
▁ban	-9.2805
▁minne	-9.28278
kov	-9.28297
heng	-9.2831
▁privat	-9.28383
▁krigs	-9.28477
▁ole	-9.28614
▁dekk	-9.28675
▁kol	-9.28692
aksjon	-9.28694
alt	-9.28787
▁internasjonale	-9.28812
lid	-9.28822
▁jernbane	-9.28965
▁kam	-9.28973
▁åtte	-9.2903
▁kj	-9.29049
her	-9.29209
▁meg	-9.29211
organisasjon	-9.29236
system	-9.29268
oli	-9.29311
▁amerikansk	-9.29356
istiske	-9.29411
kri	-9.29524
▁start	-9.29577
▁sted	-9.29644
▁ep	-9.29753
dra	-9.29879
ō	-9.29924
jon	-9.29929
▁nytt	-9.29946
▁distriktet	-9.29957
felt	-9.3004
▁hvert	-9.3007
stedet	-9.30075
stat	-9.30201
▁pla	-9.30281
iner	-9.30298
gul	-9.30301
▁thi	-9.30345
kilden	-9.30388
▁bj	-9.30529
▁serie	-9.30567
▁2001	-9.30579
86	-9.30648
▁tall	-9.30705
que	-9.30888
roll	-9.31001
lighet	-9.31016
▁arbeidet	-9.31056
grav	-9.31057
▁grenser	-9.31072
▁spar	-9.31074
▁modell	-9.31163
▁mod	-9.31169
▁energi	-9.31193
rek	-9.31202
▁sn	-9.31239
løse	-9.31248
ade	-9.31305
las	-9.31442
▁liten	-9.31451
▁jens	-9.31629
п	-9.31646
▁vind	-9.31659
ledning	-9.3172
▁west	-9.31924
stilt	-9.3201
områder	-9.32092
lie	-9.32121
▁world	-9.32202
55	-9.32246
stoff	-9.32247
▁ram	-9.32295
▁ville	-9.32417
▁stemme	-9.32419
▁kal	-9.32564
ssa	-9.32596
▁syd	-9.32675
▁folk	-9.32692
▁kraft	-9.32781
tsj	-9.32795
90	-9.32815
cha	-9.32913
asj	-9.3294
gående	-9.33017
▁bygge	-9.33019
11	-9.33025
▁gitar	-9.33041
▁q	-9.33096
▁yu	-9.33159
▁island	-9.33172
▁sund	-9.33205
sjoner	-9.33446
skip	-9.33488
▁vas	-9.33502
parti	-9.33503
low	-9.33569
▁bort	-9.33601
▁mm	-9.33639
▁mun	-9.3366
▁fall	-9.33741
▁grense	-9.33786
sykl	-9.33806
gle	-9.33817
ν	-9.33887
▁ganske	-9.33955
▁mottok	-9.33972
▁tj	-9.34065
47	-9.34123
lang	-9.34206
▁tr	-9.34222
ming	-9.34233
▁kontroll	-9.34254
fest	-9.34319
mund	-9.34358
rad	-9.34381
ì	-9.34455
bor	-9.34456
nu	-9.34456
▁studert	-9.34476
▁annen	-9.34495
▁win	-9.34542
▁staten	-9.3456
▁aktiv	-9.34565
erende	-9.34651
▁fv	-9.34663
▁historisk	-9.34694
fon	-9.34714
gitt	-9.34741
bri	-9.34754
ografi	-9.34755
60	-9.34804
▁regnes	-9.34854
▁administrasjons	-9.34891
fu	-9.3491
br	-9.34919
▁turn	-9.34993
б	-9.35026
▁oppkalt	-9.35031
▁ran	-9.35059
▁riksvei	-9.35069
bank	-9.35086
▁lund	-9.35165
▁myr	-9.352
▁just	-9.35307
bert	-9.35358
▁driver	-9.354
▁spesielt	-9.35601
arter	-9.35612
▁medlemmer	-9.35679
ér	-9.35753
ras	-9.35788
▁stre	-9.3584
skrift	-9.35848
hn	-9.35856
▁bad	-9.35856
▁rolle	-9.35868
fører	-9.35962
lund	-9.36064
tegn	-9.36142
▁britisk	-9.3621
56	-9.363
▁beskrive	-9.36328
▁anne	-9.36353
▁arabisk	-9.3637
▁ledet	-9.36413
ben	-9.36413
▁slag	-9.36415
▁vir	-9.36536
▁50	-9.36573
▁forut	-9.36607
ies	-9.36613
▁lars	-9.36645
lov	-9.36715
▁fant	-9.36732
etter	-9.36732
▁utvikling	-9.36772
▁høyeste	-9.36777
▁1996	-9.3678
partiet	-9.36835
▁ven	-9.36917
sal	-9.36972
▁ter	-9.37098
▁best	-9.37113
din	-9.37163
tti	-9.37193
85	-9.37212
▁len	-9.37326
▁design	-9.37349
▁mas	-9.37379
▁søster	-9.37413
ella	-9.37419
▁tiden	-9.37432
▁vanlig	-9.37454
▁sag	-9.37614
mid	-9.37654
▁lik	-9.37666
▁ph	-9.37681
stil	-9.37686
▁frank	-9.37706
formet	-9.37736
▁flat	-9.37832
▁student	-9.37894
▁tele	-9.379
ι	-9.37934
▁offentlig	-9.37934
▁direkte	-9.37934
▁brensel	-9.37935
bygging	-9.37958
▁forsvar	-9.38064
▁cro	-9.38307
▁enkelt	-9.38416
prosess	-9.38473
▁bygde	-9.38512
ves	-9.38515
▁international	-9.38525
▁cy	-9.38534
▁lufthavn	-9.38534
tha	-9.38534
▁pris	-9.38544
▁2003	-9.38556
jør	-9.38558
▁lite	-9.38559
brudd	-9.38573
▁black	-9.38595
▁nesten	-9.38652
▁james	-9.38673
▁transport	-9.388
▁holm	-9.3884
of	-9.38855
▁felles	-9.38859
fag	-9.38958
▁kongen	-9.39038
▁bank	-9.39063
▁michael	-9.39121
pet	-9.39135
▁sir	-9.39201
67	-9.39276
▁hjem	-9.39283
▁uni	-9.39323
osa	-9.39415
▁ze	-9.39437
▁album	-9.39442
▁bygget	-9.39511
finner	-9.39566
▁spesial	-9.39574
hol	-9.39598
arbeid	-9.39604
▁eksempler	-9.39719
▁richard	-9.3972
maskin	-9.39732
▁odd	-9.39774
øl	-9.39788
▁handels	-9.3985
last	-9.39861
▁27	-9.39895
▁larvene	-9.40011
▁ang	-9.40036
▁ett	-9.40069
▁ordenen	-9.40107
king	-9.4014
ges	-9.40169
blad	-9.40229
fang	-9.40272
mod	-9.40314
midler	-9.40415
mper	-9.40424
pel	-9.40445
▁gård	-9.40456
▁nam	-9.40489
▁bilde	-9.40548
▁qu	-9.40588
▁årene	-9.40604
kla	-9.40627
▁hovedstaden	-9.40646
▁egne	-9.40685
ien	-9.40692
dt	-9.40881
▁sim	-9.40899
▁tang	-9.40908
▁berlin	-9.40929
▁tyske	-9.40953
sam	-9.40954
▁strøm	-9.41018
ball	-9.41093
▁hell	-9.41156
▁100	-9.41228
▁plat	-9.41259
ón	-9.41269
▁skjer	-9.41398
▁för	-9.41524
́	-9.41538
liggende	-9.41544
▁løper	-9.41576
▁selskap	-9.41608
▁hører	-9.41608
nivå	-9.41625
▁betydning	-9.4164
38	-9.41682
98	-9.41687
▁slekten	-9.41693
72	-9.41713
39	-9.41798
ity	-9.41819
ikken	-9.41827
cht	-9.41841
▁stort	-9.41878
strek	-9.41885
tag	-9.41963
▁fun	-9.41965
99	-9.42015
▁rein	-9.4203
tis	-9.42083
▁sølv	-9.42156
aceae	-9.42168
▁ton	-9.42344
▁veg	-9.42392
▁frukt	-9.42401
▁cal	-9.42447
▁mye	-9.42459
ence	-9.4252
▁mulig	-9.42525
▁dam	-9.42553
nett	-9.42562
▁us	-9.42637
pres	-9.42681
▁amerikanske	-9.42714
▁havn	-9.42767
produksjon	-9.42817
96	-9.42829
▁tildelt	-9.42839
yang	-9.42873
16	-9.42926
▁viktige	-9.4293
syre	-9.42943
48	-9.4296
vit	-9.42982
66	-9.43072
▁tjeneste	-9.43173
▁tyskland	-9.43214
▁gjør	-9.43274
▁nowiki	-9.43389
heten	-9.43397
▁rot	-9.43415
▁29	-9.43429
▁sanger	-9.43488
▁zu	-9.43648
▁grand	-9.43659
▁india	-9.43668
vinger	-9.43719
øst	-9.43759
▁31	-9.43773
dis	-9.43794
▁arne	-9.43798
handling	-9.439
forbund	-9.44007
▁idretts	-9.44013
belteasteroide	-9.44014
▁arten	-9.44015
92	-9.44032
▁hjerte	-9.44051
tun	-9.44167
▁renner	-9.44205
▁rik	-9.44213
oid	-9.44245
▁bind	-9.4428
▁kirken	-9.4431
ismen	-9.44428
kamp	-9.44456
▁kilde	-9.44529
▁arbeid	-9.44557
stikk	-9.44612
▁ganger	-9.44624
▁representerer	-9.44643
▁2012	-9.44668
unt	-9.44782
▁mik	-9.44819
pan	-9.44842
▁salt	-9.44857
09	-9.44903
vid	-9.44931
▁cho	-9.44964
voll	-9.45063
røy	-9.45128
ferd	-9.45136
▁ein	-9.45223
ρ	-9.45276
kast	-9.45336
industri	-9.45391
▁stasjon	-9.45415
▁én	-9.45423
▁bill	-9.45445
▁antall	-9.45452
▁hatt	-9.4551
▁samling	-9.45517
▁will	-9.45556
blomst	-9.45573
arm	-9.45598
fjell	-9.45683
▁verdi	-9.45739
▁vokal	-9.45851
ama	-9.45934
field	-9.45993
▁elv	-9.46033
forbundet	-9.46052
▁type	-9.46116
én	-9.46159
▁kas	-9.46176
nummer	-9.46221
▁vit	-9.46223
▁sho	-9.46244
▁poly	-9.46261
ora	-9.46276
dring	-9.46295
mak	-9.46341
▁hon	-9.46389
▁krist	-9.46481
▁sw	-9.46547
▁ce	-9.46567
▁mak	-9.46575
strøm	-9.46684
▁40	-9.46702
▁tsj	-9.46729
ordet	-9.4673
57	-9.46742
▁pin	-9.46754
punkt	-9.46766
uch	-9.46854
ico	-9.46911
▁reg	-9.46951
▁gun	-9.46972
hjul	-9.4705
▁finland	-9.47141
▁godt	-9.47198
▁national	-9.47201
▁opprettet	-9.47204
▁gjeld	-9.47248
▁deler	-9.47251
▁grunnlagt	-9.47251
▁lek	-9.473
▁trykk	-9.47371
76	-9.47375
13	-9.47415
▁vid	-9.4744
folk	-9.475
▁gitt	-9.47519
▁plante	-9.47568
strand	-9.47628
▁jern	-9.47645
▁hard	-9.47656
▁fortsatt	-9.4766
ansk	-9.47678
feld	-9.47703
▁moderne	-9.47708
ott	-9.47733
▁rh	-9.47792
▁stav	-9.47794
foss	-9.47922
▁fleste	-9.47929
▁maskin	-9.47941
pha	-9.48088
▁brukte	-9.4813
ez	-9.48136
än	-9.48277
nor	-9.48385
▁tung	-9.48404
søk	-9.48481
▁symbol	-9.48506
mir	-9.48573
ney	-9.48604
▁tett	-9.48669
loven	-9.48711
ping	-9.48714
▁blei	-9.48716
88	-9.48788
▁cre	-9.48803
▁lan	-9.48824
▁utgav	-9.48825
krets	-9.48841
ritt	-9.48861
lle	-9.48919
▁tilby	-9.49037
▁stedet	-9.49098
▁stan	-9.49213
▁maur	-9.49231
▁løv	-9.49251
▁smal	-9.49311
teori	-9.49328
dømme	-9.49376
eier	-9.49408
bladet	-9.49424
89	-9.49448
▁santa	-9.49463
▁with	-9.49478
musikk	-9.49496
vatnet	-9.49525
gata	-9.49647
▁kin	-9.49654
gger	-9.49661
▁andreas	-9.49678
▁hed	-9.49683
ins	-9.49709
84	-9.49781
▁ken	-9.49785
▁kull	-9.49803
▁kvinne	-9.49811
ç	-9.49823
▁kategori	-9.49823
▁egentlig	-9.49842
▁dar	-9.49849
▁borg	-9.49868
▁erstatte	-9.49907
▁mørke	-9.49938
58	-9.4994
▁lar	-9.49941
▁skade	-9.50075
▁vekt	-9.50093
▁sau	-9.50119
▁årlig	-9.50166
▁hær	-9.50192
ance	-9.50198
▁elev	-9.50211
▁linje	-9.50227
▁wei	-9.50229
46	-9.50416
gin	-9.50468
▁zi	-9.50497
karakter	-9.5053
▁brann	-9.50546
▁eng	-9.50644
77	-9.50739
▁plate	-9.50786
▁mol	-9.50824
▁nev	-9.50854
▁gla	-9.50897
▁funksjon	-9.50947
97	-9.50948
hel	-9.51013
▁bel	-9.51054
▁varme	-9.51058
nik	-9.51067
stro	-9.51139
zh	-9.51141
havet	-9.51156
▁delstaten	-9.51162
▁knytte	-9.51166
▁typisk	-9.51166
▁våpen	-9.5122
▁nevnes	-9.51237
▁nærings	-9.51237
▁lengde	-9.51311
г	-9.51327
lom	-9.51421
vå	-9.5146
ori	-9.51523
87	-9.51572
kontor	-9.51596
▁dyre	-9.51767
▁vinner	-9.51813
▁mes	-9.51829
▁kjøpt	-9.51838
magasin	-9.51851
virkning	-9.51857
▁1998	-9.51859
▁bille	-9.5188
tus	-9.51882
▁redaktør	-9.51909
▁por	-9.51917
gon	-9.51938
▁star	-9.5196
44	-9.52015
▁albert	-9.52016
▁johann	-9.52052
▁cra	-9.52069
▁borger	-9.521
lly	-9.52255
▁spansk	-9.52289
gjorde	-9.52368
▁nar	-9.52395
▁punkt	-9.52502
rang	-9.52509
▁delt	-9.52521
trykk	-9.52578
▁uk	-9.52588
▁daniel	-9.5263
▁elve	-9.52637
gal	-9.52649
skolen	-9.5269
well	-9.52696
▁henrik	-9.52811
▁multi	-9.52812
ark	-9.52836
▁landsbyen	-9.52916
▁harald	-9.52992
▁klo	-9.53057
▁museum	-9.53171
▁høyre	-9.53199
departementet	-9.53201
▁sentrum	-9.53205
▁blo	-9.53246
▁kristian	-9.53248
foreningen	-9.53377
bry	-9.53473
й	-9.53574
sha	-9.53586
93	-9.53591
delen	-9.53681
▁eid	-9.53718
95	-9.53837
▁bakvingen	-9.53894
▁press	-9.53977
rev	-9.53977
museet	-9.54012
▁sve	-9.54039
hav	-9.54076
organ	-9.54099
▁off	-9.54129
pla	-9.54131
manns	-9.54181
▁bass	-9.54276
trær	-9.54287
▁time	-9.54291
▁års	-9.54566
able	-9.54584
τ	-9.54585
▁omtrent	-9.54585
▁louis	-9.54587
▁2015	-9.54605
utdanning	-9.54615
▁økonomisk	-9.54633
▁app	-9.54642
▁byprefekturet	-9.54654
▁strand	-9.5466
▁internasjonal	-9.54716
▁produsent	-9.54744
▁are	-9.54746
▁indre	-9.54749
plasser	-9.54801
▁kro	-9.54807
ringer	-9.54835
▁jean	-9.54982
▁kors	-9.54989
oy	-9.55011
▁politiker	-9.55013
▁part	-9.55068
▁hind	-9.55085
ann	-9.55112
bilde	-9.55115
lav	-9.5515
▁mørk	-9.55186
hov	-9.55223
sku	-9.55243
▁laur	-9.553
▁1990	-9.5531
motor	-9.5532
▁informasjon	-9.55323
▁ferdig	-9.55375
▁skrift	-9.55425
skij	-9.55435
▁max	-9.55451
▁mø	-9.55556
▁hud	-9.55574
liga	-9.55651
▁ger	-9.55664
lon	-9.55679
▁epi	-9.55733
skudd	-9.55832
ash	-9.55833
▁glo	-9.55906
15	-9.5591
▁metall	-9.55932
▁gru	-9.56002
▁sti	-9.56046
▁regionen	-9.56068
strid	-9.56177
▁natt	-9.56225
ato	-9.56319
ith	-9.56325
gard	-9.56337
hode	-9.56378
▁grunnla	-9.56412
▁kroppen	-9.56493
los	-9.56498
17	-9.5656
▁sul	-9.56601
kro	-9.5662
▁hovedrollene	-9.5672
▁tilhørt	-9.56736
▁power	-9.56748
▁dannet	-9.56763
con	-9.56797
▁web	-9.56817
ical	-9.56826
19	-9.56856
▁gass	-9.56896
▁gil	-9.56923
▁dø	-9.56929
▁svenske	-9.56938
37	-9.56944
vind	-9.57142
▁kropp	-9.57163
tyr	-9.57184
▁spre	-9.57193
▁up	-9.57262
▁nest	-9.57273
gruppe	-9.57277
▁indisk	-9.57382
▁kommunene	-9.57389
▁middelsstor	-9.57412
▁london	-9.57414
▁benyttes	-9.5747
bur	-9.57494
tive	-9.57538
holm	-9.57551
fugl	-9.57582
▁hjemme	-9.57729
kirke	-9.57734
nom	-9.57755
språk	-9.5781
▁forhold	-9.57853
▁tyn	-9.57957
▁avdeling	-9.57995
ob	-9.58037
▁fugle	-9.58054
▁sogn	-9.58054
ο	-9.58127
▁bla	-9.58127
▁60	-9.58132
▁partiet	-9.58146
▁sentrale	-9.58153
▁forenkle	-9.58161
▁dato	-9.58234
gikk	-9.58263
ura	-9.58279
▁mid	-9.58283
vekst	-9.58287
vogn	-9.58288
▁danner	-9.5833
01	-9.5842
▁hvis	-9.5861
▁lær	-9.5864
▁viktig	-9.58676
▁camp	-9.58683
▁eg	-9.5869
▁slike	-9.58712
▁ann	-9.58837
▁2013	-9.58878
ås	-9.58889
rør	-9.58904
løs	-9.58904
året	-9.58926
kanalen	-9.59056
enberg	-9.59063
59	-9.59149
tende	-9.59276
▁stig	-9.59282
▁80	-9.59298
zy	-9.59366
▁japan	-9.59382
kes	-9.59414
grense	-9.59421
▁veien	-9.59534
▁zo	-9.59547
▁that	-9.5963
kur	-9.59655
medalje	-9.59737
ada	-9.598
▁uttrykk	-9.5981
▁daglig	-9.59821
oni	-9.59927
handler	-9.59937
▁sort	-9.60139
▁nasjonale	-9.60144
▁los	-9.6021
▁leg	-9.60218
▁bol	-9.60247
sbe	-9.6025
sang	-9.60273
▁forsknings	-9.60279
08	-9.60291
ε	-9.60322
č	-9.60322
▁comp	-9.60351
▁auto	-9.60369
▁foss	-9.60376
▁div	-9.60417
kaffe	-9.60431
ante	-9.60437
▁jer	-9.60498
▁kall	-9.6052
dorf	-9.60619
samisk	-9.60622
mot	-9.60647
oppgave	-9.60733
▁skje	-9.60775
▁dansk	-9.6095
▁il	-9.60964
stri	-9.60975
я	-9.60983
â	-9.61059
▁drift	-9.6107
▁70	-9.61101
▁munn	-9.61102
▁pave	-9.61109
hall	-9.61257
▁dor	-9.61356
sport	-9.61382
▁real	-9.61401
▁fest	-9.61491
▁long	-9.61516
rup	-9.6158
▁ungdoms	-9.61637
▁din	-9.61707
▁bolig	-9.61764
▁wilhelm	-9.61809
vold	-9.61831
▁1997	-9.61831
▁danmark	-9.61845
▁nordøst	-9.61879
▁esp	-9.61886
medaljen	-9.61927
fil	-9.61948
▁jobb	-9.6195
mas	-9.61981
▁stasjonen	-9.61982
ax	-9.6202
▁ec	-9.62084
wald	-9.62099
▁fylkes	-9.62173
person	-9.6219
▁kraftverk	-9.62334
yo	-9.62358
▁jag	-9.62374
▁sun	-9.6251
ô	-9.6256
▁betydelig	-9.62562
▁1999	-9.62586
▁angrep	-9.62662
▁kjøre	-9.62683
▁tverr	-9.62699
▁brit	-9.627
løst	-9.62718
▁32	-9.62749
▁hul	-9.62855
områdene	-9.62861
▁grad	-9.62892
car	-9.63006
▁aust	-9.63123
bol	-9.63138
▁heste	-9.63146
▁gor	-9.63198
▁litteratur	-9.63231
ł	-9.63269
fond	-9.6328
▁figur	-9.63283
▁helge	-9.63313
teknikk	-9.6332
▁blue	-9.63361
65	-9.6337
▁grev	-9.63384
▁virksomhet	-9.63454
datter	-9.63597
▁adel	-9.63641
klubben	-9.63677
▁produksjon	-9.63705
▁båt	-9.63756
fot	-9.6391
▁offisiell	-9.63921
▁kost	-9.64004
18	-9.64046
▁flor	-9.64141
▁italia	-9.64198
▁danske	-9.64225
▁eget	-9.64296
cheng	-9.64394
sberg	-9.64396
cher	-9.64409
▁makt	-9.64486
▁forbindelse	-9.64507
▁tha	-9.64686
pur	-9.64771
cal	-9.64789
middel	-9.64806
▁steder	-9.6481
▁wu	-9.64814
▁bygd	-9.64821
evne	-9.64828
plassen	-9.6483
▁1994	-9.64851
skjold	-9.64852
messig	-9.64852
▁university	-9.64858
▁с	-9.6488
▁virke	-9.64886
▁rund	-9.64891
▁kul	-9.64974
mit	-9.64985
▁rygg	-9.65025
vekt	-9.65034
▁nan	-9.6505
kop	-9.65051
gne	-9.65081
▁besøk	-9.65145
koll	-9.65195
arbeider	-9.65217
wan	-9.65229
park	-9.65231
▁anna	-9.65325
stripe	-9.65335
trekk	-9.65346
▁kil	-9.65514
sia	-9.65525
våpen	-9.65578
enhet	-9.65588
tek	-9.65622
ē	-9.65626
▁minst	-9.65657
▁kloster	-9.65677
uf	-9.65688
ín	-9.65727
▁mill	-9.65758
▁tank	-9.65816
ов	-9.6582
▁fortsatte	-9.65896
verket	-9.65901
▁oppført	-9.65997
▁king	-9.66011
▁inntil	-9.66026
hen	-9.66079
bakken	-9.66084
▁hjelp	-9.66125
liste	-9.66196
▁luc	-9.66197
▁flytte	-9.66261
spor	-9.66359
eller	-9.66374
▁øverst	-9.66409
▁reise	-9.66448
▁rosen	-9.66465
formen	-9.66525
ali	-9.6662
▁run	-9.66815
▁drama	-9.66841
ique	-9.66906
aya	-9.67032
▁olav	-9.67042
grunn	-9.67132
06	-9.67147
▁stod	-9.67199
▁eiendom	-9.67248
ure	-9.67318
▁konsert	-9.67324
▁love	-9.67343
▁eldre	-9.67348
can	-9.67361
ringen	-9.67411
▁pap	-9.67488
▁cri	-9.67541
▁trekk	-9.67582
71	-9.6759
lut	-9.67606
formede	-9.678
ili	-9.67956
▁møte	-9.6796
skriv	-9.67981
▁edderkopp	-9.67988
▁israel	-9.67989
▁ønske	-9.67994
▁trondheim	-9.68006
▁legge	-9.68017
rød	-9.6804
▁alf	-9.68117
▁middel	-9.68141
merke	-9.68193
▁sten	-9.68277
yuan	-9.68291
▁fry	-9.68349
▁jen	-9.68361
ept	-9.68368
▁sko	-9.68472
ān	-9.68727
com	-9.68751
▁komponist	-9.68789
▁musiker	-9.68793
hjem	-9.688
▁bio	-9.68801
▁bygning	-9.68877
▁sivil	-9.68885
▁gje	-9.689
▁mobil	-9.68938
▁rad	-9.69002
ima	-9.6904
▁seil	-9.69044
▁klasse	-9.69085
▁professor	-9.69099
▁sports	-9.69104
ire	-9.6915
63	-9.69161
▁horn	-9.69171
olo	-9.69231
▁temperatur	-9.69415
▁nabo	-9.69427
gården	-9.69457
▁innehold	-9.69488
35	-9.6949
▁hill	-9.69494
28	-9.6956
ville	-9.69574
▁fredrik	-9.69585
▁service	-9.69595
▁nærmest	-9.69598
▁autonom	-9.69604
▁sven	-9.69615
▁2017	-9.69617
▁1980	-9.69627
øyene	-9.6963
▁north	-9.69747
▁fan	-9.69818
62	-9.69831
hund	-9.69838
▁cm	-9.70012
drift	-9.70041
▁høyde	-9.70058
løpet	-9.70087
81	-9.70159
21	-9.70203
win	-9.70234
dam	-9.70298
▁anton	-9.70321
svik	-9.70351
▁produkt	-9.7038
ømt	-9.70404
riket	-9.70431
avdeling	-9.70463
▁deltok	-9.70525
▁prest	-9.70546
▁gården	-9.70547
▁leir	-9.70603
▁magne	-9.70609
retning	-9.70675
ado	-9.70678
ordenen	-9.70756
prisen	-9.70767
▁senter	-9.70902
mba	-9.70911
▁utstyr	-9.70931
▁komp	-9.70948
▁rå	-9.70977
fart	-9.70989
▁kjell	-9.71006
▁spiss	-9.71036
91	-9.71096
sjø	-9.71105
▁korte	-9.71157
utvikling	-9.71212
▁middelalder	-9.71234
figur	-9.71275
museum	-9.71278
▁fått	-9.71283
25	-9.71304
nia	-9.7133
▁stammer	-9.71342
▁formel	-9.7135
lser	-9.71377
▁tittel	-9.71487
▁råd	-9.71551
79	-9.71571
▁felt	-9.71577
45	-9.71594
▁boken	-9.71603
▁damp	-9.71643
▁test	-9.71644
▁hom	-9.71696
linjen	-9.71719
vesen	-9.71847
vegg	-9.71894
▁kart	-9.72022
myndighet	-9.72054
▁http	-9.72055
▁skapt	-9.7209
cle	-9.72126
▁enhet	-9.72133
▁vær	-9.72327
▁union	-9.7245
▁bærer	-9.72467
▁dyr	-9.72523
▁biskop	-9.72671
▁betegne	-9.72699
typen	-9.72798
▁pop	-9.72806
▁foreldre	-9.7289
▁møtte	-9.72896
▁mannskapet	-9.72898
▁markeds	-9.72945
▁fjord	-9.72975
flue	-9.73028
dro	-9.73032
alder	-9.73144
▁provins	-9.7316
sol	-9.73168
▁haug	-9.73197
isa	-9.7321
rot	-9.73234
▁instrument	-9.73333
▁polsk	-9.73371
▁bay	-9.73379
plante	-9.73458
▁song	-9.73566
14	-9.73618
▁rei	-9.73634
▁gunnar	-9.73731
▁finans	-9.73732
▁øvre	-9.73736
▁1993	-9.73753
▁1988	-9.73757
▁lei	-9.73819
old	-9.73856
▁svarte	-9.73864
▁sterkt	-9.73885
▁bern	-9.73908
▁rør	-9.73923
▁gall	-9.73936
town	-9.73949
korps	-9.73987
lad	-9.74004
▁fremst	-9.74016
▁rob	-9.74158
fyll	-9.74158
▁eli	-9.74219
▁lø	-9.74235
▁hit	-9.7424
▁hopp	-9.74254
row	-9.7426
ios	-9.74275
rådet	-9.74306
▁marine	-9.74353
skapet	-9.74391
▁sku	-9.74472
▁phil	-9.74498
vannet	-9.74528
▁may	-9.74552
ß	-9.74568
ò	-9.74575
▁1982	-9.74575
▁frankrike	-9.74592
▁2014	-9.74595
▁1987	-9.74601
▁1984	-9.74602
firma	-9.74673
▁øvrig	-9.74689
hua	-9.74731
lich	-9.74781
høy	-9.74819
ati	-9.74861
▁steve	-9.74873
chen	-9.74881
▁typer	-9.7489
▁hum	-9.74916
aktig	-9.74945
▁gard	-9.75059
▁larven	-9.75082
aktiv	-9.75083
▁stiftet	-9.75179
▁problem	-9.75181
▁totalt	-9.75264
fabrikk	-9.75304
gå	-9.75346
▁retts	-9.75354
λ	-9.75429
▁tilknytte	-9.7543
▁tilsvarende	-9.7543
▁kulturminner	-9.7543
23	-9.7544
▁charles	-9.75462
▁1970	-9.75469
æl	-9.75607
kler	-9.75609
▁lev	-9.75621
▁angel	-9.75654
▁cur	-9.75839
▁lyse	-9.7585
strå	-9.75882
nad	-9.75914
zar	-9.7598
▁spin	-9.76041
eide	-9.76071
▁direktør	-9.76102
▁nummer	-9.76129
på	-9.76163
elige	-9.76191
▁flyplass	-9.76249
hopp	-9.76271
giver	-9.76291
▁joseph	-9.76292
▁nordvest	-9.76296
▁magnus	-9.76298
▁stavanger	-9.7631
▁1991	-9.76314
▁1995	-9.76318
▁ref	-9.76327
▁vanlige	-9.76339
▁løs	-9.76383
▁økt	-9.76459
▁delta	-9.76573
▁nes	-9.76582
▁pala	-9.76598
▁arn	-9.7663
▁samle	-9.76738
▁europeisk	-9.7678
▁henne	-9.76808
▁interesse	-9.76843
løsning	-9.76851
▁slo	-9.76882
▁bit	-9.76933
lø	-9.76973
▁sju	-9.76993
vor	-9.77147
і	-9.77161
▁victor	-9.77212
▁benyttet	-9.77221
▁kraftig	-9.7726
▁fel	-9.77299
▁merke	-9.77309
▁hå	-9.77385
▁personer	-9.77435
▁henry	-9.77445
▁apo	-9.7769
▁høyt	-9.77837
▁bomb	-9.77853
ра	-9.77905
▁produserer	-9.77916
▁energiselskape	-9.77979
ù	-9.78038
▁anlegget	-9.78086
▁ask	-9.78104
ōng	-9.78157
stid	-9.78286
hai	-9.78326
▁holdt	-9.78344
▁ris	-9.78354
▁yo	-9.78363
arbeidet	-9.78366
▁bob	-9.78395
▁cru	-9.78398
▁påvirke	-9.7846
▁hage	-9.78509
fold	-9.78518
▁syv	-9.7853
▁fisk	-9.78574
▁effekt	-9.78593
▁que	-9.78633
▁lærer	-9.787
▁blomster	-9.78824
▁met	-9.78835
▁flagg	-9.78842
▁arrangere	-9.78925
▁sja	-9.78933
▁allerede	-9.78934
gy	-9.7894
▁ordfører	-9.7896
▁club	-9.78961
▁slott	-9.7901
▁gjøre	-9.79021
levende	-9.79052
▁kalk	-9.79089
▁pot	-9.79108
atet	-9.79123
▁trond	-9.79145
▁innsjøen	-9.79164
▁gram	-9.79221
ary	-9.7924
▁ö	-9.79282
jord	-9.79284
▁nrk	-9.79347
▁troll	-9.79415
▁out	-9.79471
▁mah	-9.79502
ulf	-9.79503
▁åpen	-9.79531
▁snø	-9.79536
▁åpnet	-9.79568
dige	-9.79595
produkter	-9.79621
▁benytte	-9.79727
▁original	-9.79813
▁eldste	-9.79818
▁bydistrikt	-9.79859
▁antenne	-9.79897
▁løp	-9.79958
▁flu	-9.7999
eringen	-9.80075
▁solo	-9.80086
▁gold	-9.80089
▁festival	-9.80095
▁hil	-9.80119
▁skip	-9.80148
politikk	-9.80148
▁tids	-9.80156
fjellet	-9.8019
merket	-9.802
▁akk	-9.80251
off	-9.80264
sis	-9.80286
▁tap	-9.80305
▁stoff	-9.80315
▁skatte	-9.80335
▁barb	-9.80419
▁ali	-9.80502
standen	-9.80554
shire	-9.80565
vari	-9.80648
klassen	-9.80688
yu	-9.80698
▁cell	-9.80711
σ	-9.80717
▁jørgen	-9.80719
▁inngår	-9.8072
▁york	-9.80726
▁33	-9.80743
▁artikkel	-9.80746
▁bronse	-9.80752
▁att	-9.80772
lla	-9.80781
▁behandling	-9.80803
▁høsten	-9.80816
▁cam	-9.80843
san	-9.80852
▁trafikk	-9.80853
▁fylket	-9.80927
▁glass	-9.80931
▁kode	-9.80949
▁marie	-9.80976
analyse	-9.80987
funksjon	-9.81005
bord	-9.81038
celle	-9.81072
kultur	-9.81074
▁delvis	-9.81078
▁meget	-9.81113
ite	-9.81113
▁resultat	-9.81155
▁hvite	-9.81189
22	-9.8122
▁90	-9.81248
▁heng	-9.8134
ernes	-9.81371
war	-9.81444
▁paris	-9.81447
▁hode	-9.8147
▁lokale	-9.81571
▁frø	-9.81626
▁altså	-9.81631
▁prisen	-9.81641
▁betjene	-9.81642
▁nattfly	-9.81652
▁klima	-9.81654
▁fører	-9.81664
▁derimo	-9.81687
▁jazz	-9.81701
▁bygg	-9.81764
rekord	-9.81805
▁drive	-9.8181
02	-9.8182
▁utvide	-9.81834
▁styrke	-9.81973
▁neu	-9.81984
▁but	-9.81989
▁langt	-9.82023
▁kara	-9.82035
▁olsen	-9.82046
cio	-9.82055
▁furu	-9.82071
▁aldri	-9.82209
styrt	-9.82238
▁omfattet	-9.82238
gift	-9.82238
bul	-9.82297
vikler	-9.82352
64	-9.82368
samfunn	-9.82397
▁sat	-9.82439
kka	-9.8244
▁drev	-9.8244
▁univers	-9.82521
▁beijing	-9.82544
▁vinge	-9.82547
▁vä	-9.82558
▁sav	-9.82569
▁perioden	-9.82627
▁vent	-9.82637
▁kampen	-9.8265
▁tann	-9.8269
▁tam	-9.82696
▁hellig	-9.82718
▁franc	-9.82813
▁aur	-9.82868
▁landet	-9.82883
gress	-9.82883
vitenskap	-9.82887
wer	-9.82887
▁jesu	-9.82888
▁dyp	-9.82936
▁skips	-9.83037
dahl	-9.83176
▁from	-9.83219
▁lib	-9.83265
saker	-9.8329
▁uttale	-9.83413
▁sykdom	-9.83444
bare	-9.83466
▁prosent	-9.83479
▁dynastiet	-9.83482
▁statsminister	-9.83495
▁1992	-9.835
▁1986	-9.83504
▁arch	-9.83521
▁uavhengig	-9.83526
stall	-9.83528
▁stol	-9.83555
▁45	-9.83596
36	-9.83607
▁samfunns	-9.83618
▁dj	-9.83708
istene	-9.83737
iva	-9.83752
▁log	-9.83778
ко	-9.83825
vinner	-9.83904
▁turist	-9.83942
▁faren	-9.84033
▁od	-9.8404
kirken	-9.84177
▁fot	-9.84179
anske	-9.84196
▁kalte	-9.84272
tog	-9.84289
▁administrativ	-9.84404
з	-9.84404
▁class	-9.84422
ев	-9.84471
▁likevel	-9.8448
▁oc	-9.84511
slekten	-9.84521
▁buss	-9.84569
▁gå	-9.84649
▁feil	-9.84708
▁områder	-9.84715
lokk	-9.84773
▁mini	-9.84784
▁produksjons	-9.84793
▁niels	-9.84796
▁bølge	-9.84797
rop	-9.84809
utgivelse	-9.84899
▁tradisjon	-9.84912
▁ves	-9.84921
▁reform	-9.85062
▁leon	-9.85086
hø	-9.85094
▁fro	-9.851
▁bestod	-9.85228
▁gren	-9.85282
▁klar	-9.85329
onia	-9.85333
ë	-9.85348
▁1983	-9.85348
▁skrive	-9.85381
▁lyst	-9.85386
▁kai	-9.85406
▁romersk	-9.8543
▁vold	-9.85452
▁tørr	-9.85464
▁luk	-9.85475
▁verden	-9.85476
▁danse	-9.85498
▁has	-9.85523
▁bryst	-9.85562
ål	-9.85606
▁inge	-9.85634
▁char	-9.8564
bs	-9.85646
styrke	-9.85649
snitt	-9.85696
ctor	-9.85737
▁byer	-9.85943
▁program	-9.85973
▁music	-9.86101
▁vet	-9.86197
▁livs	-9.862
▁fed	-9.86232
▁rep	-9.86232
▁høye	-9.86253
▁sco	-9.86259
handel	-9.86267
▁friedrich	-9.863
▁millioner	-9.86301
▁norrøn	-9.86303
ström	-9.86304
▁krets	-9.86305
feltet	-9.86411
▁gui	-9.86444
▁forsøk	-9.86465
åsen	-9.86533
▁ari	-9.86682
▁buk	-9.86725
▁sunn	-9.86752
hånd	-9.86761
▁tegnet	-9.86803
▁sesongen	-9.86822
hør	-9.86851
▁iii	-9.86917
▁vor	-9.86952
▁mennesker	-9.86967
bru	-9.86969
▁unge	-9.86982
▁satt	-9.87002
cho	-9.87176
▁lære	-9.87208
▁teksten	-9.87212
▁regjerings	-9.87248
ă	-9.87261
▁klassisk	-9.87265
▁harry	-9.87297
▁laste	-9.87304
▁omtalt	-9.87304
jar	-9.87337
▁alltid	-9.87351
▁ost	-9.87356
▁svi	-9.87388
ledd	-9.87411
▁award	-9.87421
▁orkester	-9.87488
▁nok	-9.87542
ledende	-9.87613
▁disk	-9.87647
▁forsvars	-9.8767
stig	-9.87682
fre	-9.87704
▁dun	-9.87709
historie	-9.87744
ona	-9.87817
▁tilhøre	-9.87835
idrett	-9.87837
▁dre	-9.87883
24	-9.87906
▁his	-9.8792
▁lot	-9.87928
▁inne	-9.8794
▁petr	-9.8796
▁fulgte	-9.88027
medisin	-9.88126
▁regional	-9.88185
▁elektrisk	-9.88232
▁katolsk	-9.88234
▁xiàn	-9.88242
▁base	-9.88252
gua	-9.88288
▁alfred	-9.88304
▁old	-9.88337
▁førte	-9.88369
▁stål	-9.88393
bei	-9.88457
▁preste	-9.88476
▁team	-9.88573
▁utgi	-9.88587
komme	-9.8862
distrikt	-9.88698
▁kru	-9.88769
▁hoff	-9.88771
▁single	-9.88789
▁36	-9.88851
jö	-9.88882
▁simon	-9.88943
▁qua	-9.88954
flekk	-9.88963
artikler	-9.88981
▁scene	-9.8899
hof	-9.8905
▁whi	-9.8908
▁lim	-9.89098
▁hansen	-9.89101
▁tim	-9.89124
▁polar	-9.89134
det	-9.89135
▁jacob	-9.89138
ς	-9.89206
ñ	-9.89213
▁alternativ	-9.89213
▁kjønn	-9.89216
ingeniør	-9.89227
▁representant	-9.89232
▁utga	-9.89253
▁mei	-9.8934
▁retning	-9.89371
▁mala	-9.89379
lé	-9.89391
▁linjen	-9.89412
▁wen	-9.89415
33	-9.89422
▁led	-9.89432
virke	-9.895
▁syr	-9.89522
mont	-9.89542
▁coll	-9.89546
27	-9.89546
▁aktivitet	-9.89602
zu	-9.89704
bak	-9.89772
▁sar	-9.89802
▁motstand	-9.89809
▁penge	-9.89845
▁plassert	-9.89947
▁dog	-9.89994
anten	-9.90122
folket	-9.90139
▁røde	-9.90145
økonom	-9.90153
▁prefektur	-9.90203
▁ukrainsk	-9.90203
bal	-9.90214
▁qū	-9.9022
▁referere	-9.90224
trop	-9.90224
▁1977	-9.90233
▁varierer	-9.90247
▁canada	-9.90255
▁villa	-9.90269
arkiv	-9.9031
▁vitenskapelig	-9.90325
▁føde	-9.90375
▁ung	-9.90434
snegl	-9.90454
norsk	-9.90478
oksid	-9.90496
amin	-9.90509
▁operasjon	-9.90523
kjede	-9.90596
▁høyere	-9.90623
▁jack	-9.90649
istan	-9.90717
▁exp	-9.90742
▁bell	-9.90766
▁rand	-9.90781
▁omtale	-9.90792
▁hem	-9.90871
▁lam	-9.91126
▁lau	-9.91128
▁lie	-9.91182
ön	-9.91193
▁stockholm	-9.91203
κ	-9.91203
▁sørvest	-9.91206
▁kjemisk	-9.91212
▁bokstav	-9.91218
▁1979	-9.91228
▁35	-9.91252
søkte	-9.91256
▁idrettslag	-9.91315
▁forfatteren	-9.91338
▁gode	-9.91436
▁populær	-9.91439
▁kim	-9.91568
▁moren	-9.91632
▁green	-9.91717
▁rollen	-9.9173
ár	-9.91764
sopp	-9.91822
landskap	-9.91915
ür	-9.91949
▁cer	-9.91987
snes	-9.92066
▁nr	-9.92083
ан	-9.92186
ы	-9.92213
μ	-9.92213
▁kardinal	-9.92213
▁publisert	-9.92213
▁hustru	-9.92216
▁hente	-9.92226
▁1960	-9.92249
▁1985	-9.92249
▁nederlandsk	-9.92254
hem	-9.92259
▁kari	-9.92294
mond	-9.92319
▁universitetet	-9.92343
meter	-9.92396
leie	-9.92399
bakk	-9.92411
▁city	-9.92436
▁selve	-9.92497
▁gli	-9.92524
▁high	-9.92537
▁stift	-9.92555
bein	-9.92581
▁jule	-9.92606
slutt	-9.92706
seth	-9.92779
▁nav	-9.92828
prosjekt	-9.92844
regionen	-9.92851
▁oliv	-9.92906
komst	-9.92921
▁grupper	-9.92929
havn	-9.93023
styre	-9.93023
fekt	-9.93055
▁line	-9.93223
▁dro	-9.93233
tempelet	-9.93233
▁www	-9.93234
utdannet	-9.93241
▁dverg	-9.93251
▁hjerne	-9.93294
grupper	-9.93318
▁trommer	-9.93321
▁tale	-9.93334
▁fjorden	-9.9334
løk	-9.93354
materiale	-9.93378
▁wall	-9.93443
ox	-9.93555
▁organisasjon	-9.93556
▁ark	-9.93617
ward	-9.93628
gro	-9.93704
▁tema	-9.9387
▁fyr	-9.93901
▁teknisk	-9.9394
festival	-9.93944
valget	-9.93952
▁forsker	-9.93986
▁front	-9.93987
▁ledelse	-9.94091
visning	-9.9416
tjeneste	-9.9416
▁kryss	-9.94168
▁spise	-9.9419
▁hotell	-9.94237
forhold	-9.94265
▁relativ	-9.94265
kandidat	-9.94273
▁1968	-9.94304
programmer	-9.94362
▁aas	-9.94372
▁jun	-9.94386
dens	-9.94389
▁had	-9.94414
ifer	-9.94456
▁nasjonalpark	-9.94538
sler	-9.94544
varer	-9.94548
▁festning	-9.94564
▁tettsted	-9.94622
head	-9.94666
tunnelen	-9.94683
▁boy	-9.94685
hagen	-9.94729
▁was	-9.9475
▁tone	-9.94771
▁pil	-9.94814
▁oftest	-9.94818
mur	-9.94835
oma	-9.94867
▁stopp	-9.94877
forfatter	-9.94947
brun	-9.9496
▁total	-9.94983
▁kvinnelig	-9.95006
▁verne	-9.95036
▁naturlig	-9.95142
▁fabrikk	-9.95157
lä	-9.9529
▁records	-9.95306
▁tydelig	-9.95312
▁naturgass	-9.95318
▁gustav	-9.95327
▁josé	-9.95329
▁south	-9.95332
▁2016	-9.95344
▁fordi	-9.95355
▁otto	-9.95378
bach	-9.95539
▁ledd	-9.9563
▁bonde	-9.95662
aria	-9.95665
▁tog	-9.95717
betegnelse	-9.9577
▁syl	-9.95777
▁geo	-9.95784
▁jarl	-9.95809
▁petter	-9.9581
▁nordlige	-9.95856
ough	-9.95901
▁rod	-9.95904
▁200	-9.95932
later	-9.95947
parken	-9.95964
▁utført	-9.95987
▁svak	-9.95996
forbindelse	-9.96039
▁populære	-9.96155
▁kontor	-9.96225
▁chu	-9.96268
gri	-9.96319
▁fremdeles	-9.9636
▁forkortet	-9.96363
▁united	-9.96363
▁dommer	-9.96365
finalen	-9.96366
▁karriere	-9.96379
▁rose	-9.96385
▁betegnelsen	-9.96415
▁kha	-9.96502
bukk	-9.96538
▁befolkningen	-9.96627
▁prof	-9.96698
▁ou	-9.96699
▁jevn	-9.96725
awa	-9.96738
▁tryg	-9.96752
hild	-9.96782
▁familiegruppe	-9.96834
▁holder	-9.969
medlemmene	-9.96904
▁nordisk	-9.96956
▁øre	-9.96969
▁øyene	-9.97018
▁gjeste	-9.97055
▁prosjekt	-9.97081
▁cham	-9.97089
fartøy	-9.97109
▁tettstedet	-9.97113
wood	-9.97126
miljø	-9.97127
rill	-9.97168
▁æres	-9.9718
kunst	-9.97182
▁handling	-9.97195
elv	-9.97198
inae	-9.97208
▁graf	-9.97236
deling	-9.97256
▁ytter	-9.97322
kanten	-9.97364
somme	-9.97393
ч	-9.97398
▁bygda	-9.97419
π	-9.97422
▁egypt	-9.97423
▁regissert	-9.97424
▁spesiell	-9.97424
▁oblast	-9.97454
▁für	-9.97539
▁forvingen	-9.9755
ito	-9.97554
fjellene	-9.97564
▁enten	-9.97629
lum	-9.97633
anda	-9.9772
bedrift	-9.97758
▁kjerne	-9.97808
▁russ	-9.97843
▁ligne	-9.97923
▁ross	-9.97932
dagen	-9.97942
▁hammer	-9.97976
▁cup	-9.98073
vand	-9.98094
hei	-9.98101
verdig	-9.98112
▁patri	-9.98165
krigen	-9.98218
▁fc	-9.98256
komite	-9.98289
▁krav	-9.98293
▁human	-9.98318
▁kanon	-9.98373
▁ye	-9.98421
▁bydelen	-9.98434
▁artene	-9.98446
▁corn	-9.98485
▁begrepet	-9.98498
▁tegneserie	-9.98502
▁royal	-9.98507
▁programmet	-9.9856
ск	-9.98577
▁iso	-9.98589
▁kvart	-9.9877
▁gress	-9.98791
▁fremme	-9.98796
▁areal	-9.98803
▁pel	-9.98813
▁miste	-9.98853
▁bou	-9.98857
▁hä	-9.98887
▁64	-9.98894
trinn	-9.98974
▁åpne	-9.99001
▁emil	-9.99215
nøtt	-9.99215
▁bygningen	-9.9927
skift	-9.99275
▁master	-9.99306
26	-9.99335
produsent	-9.99336
▁personlig	-9.99369
møte	-9.99423
▁gjort	-9.99429
▁im	-9.99491
▁beskytt	-9.99531
▁dobbelt	-9.99562
▁deriblant	-9.99585
▁kilometer	-9.99585
▁københavn	-9.99585
▁american	-9.99585
▁korn	-9.99588
▁dronning	-9.99593
kysten	-9.99595
▁islam	-9.99598
▁1964	-9.99609
▁oscar	-9.99614
▁stamme	-9.99618
▁1976	-9.99619
▁1967	-9.99622
▁1978	-9.99628
▁maler	-9.99636
▁saint	-9.99663
▁michel	-9.99691
▁wel	-9.99738
▁sier	-9.9975
▁bevegelse	-9.9978
▁metal	-9.99786
inntekt	-9.99846
▁sider	-9.99851
lignende	-9.99863
▁einar	-9.99892
▁krysser	-9.99901
▁spp	-9.99936
▁jakt	-10.0001
▁underlagt	-10.0002
aktige	-10.0004
▁fol	-10.0011
▁adam	-10.002
serien	-10.0026
▁ansvar	-10.0027
▁sideelv	-10.0031
▁fjær	-10.0031
▁vik	-10.0033
zon	-10.0039
▁ramme	-10.0045
▁papir	-10.0052
ging	-10.0054
▁formann	-10.0059
▁åpning	-10.0066
friidrettsutøver	-10.0068
kommunikasjon	-10.0068
▁styrmann	-10.0068
▁smith	-10.0071
▁small	-10.0075
dannelse	-10.0084
▁dersom	-10.0087
▁matt	-10.0087
▁hov	-10.009
ppel	-10.0092
offiser	-10.0093
▁kvinner	-10.0093
▁sommeren	-10.0098
bred	-10.0106
▁akt	-10.0109
▁mary	-10.0114
▁hannen	-10.0123
egnet	-10.0124
▁andersen	-10.0132
▁hodet	-10.0136
▁tå	-10.0136
kjempe	-10.0137
verdi	-10.0139
eira	-10.0139
▁følge	-10.014
▁fab	-10.0144
horn	-10.0147
▁fjellet	-10.0153
▁olavs	-10.0155
▁ey	-10.0157
▁ull	-10.0158
virksomhet	-10.016
systemer	-10.0161
▁gitarist	-10.0162
▁material	-10.0164
sand	-10.0168
▁gö	-10.0174
▁profesjonell	-10.0179
▁primær	-10.018
▁element	-10.0181
tårn	-10.0183
▁internett	-10.0183
▁bekrefte	-10.0184
▁tradisjonel	-10.0184
▁1975	-10.0184
kasse	-10.0185
▁gon	-10.0186
▁overflate	-10.0191
skipet	-10.0194
▁alb	-10.0195
▁larsen	-10.0202
holmen	-10.0204
▁oppdrag	-10.0206
▁arve	-10.0207
▁amt	-10.0216
▁trolig	-10.0222
▁dør	-10.0226
bevegelsen	-10.023
▁bydel	-10.0238
mengde	-10.0241
▁hug	-10.0246
ро	-10.025
▁melodi	-10.0253
▁område	-10.0253
▁størrelse	-10.0254
▁kos	-10.0256
▁nicola	-10.0256
post	-10.0257
▁bedre	-10.0261
▁brand	-10.0264
ii	-10.0267
▁skape	-10.0268
forsvar	-10.027
▁betydninger	-10.0273
▁divisjon	-10.0276
▁institut	-10.0278
▁måte	-10.0278
styret	-10.0282
▁bot	-10.0286
▁hunde	-10.0289
▁anim	-10.0291
▁religion	-10.0292
▁nikola	-10.0292
kontrakt	-10.0292
▁himmel	-10.0293
▁atom	-10.03
▁scott	-10.0303
▁sikkerhets	-10.0304
▁east	-10.0304
▁johansen	-10.0311
▁paa	-10.0313
▁vakt	-10.0319
▁prakt	-10.0321
sanger	-10.0322
fyr	-10.0323
▁mikro	-10.0326
▁deles	-10.0327
▁chang	-10.0329
▁vokalist	-10.0335
høgskole	-10.0336
roman	-10.0337
▁khan	-10.0347
skatt	-10.0351
stasjonen	-10.0353
▁wade	-10.0356
▁krigen	-10.0362
basert	-10.0363
▁sjef	-10.0384
posisjon	-10.0392
ovo	-10.0394
periode	-10.04
mber	-10.0403
ekspedisjon	-10.0405
▁sovjetunionen	-10.0405
▁passasjer	-10.0405
▁pasient	-10.0406
▁bøker	-10.0407
▁group	-10.0411
▁sørøst	-10.0412
linjer	-10.0413
språklig	-10.0414
▁video	-10.0415
atur	-10.0417
▁ube	-10.0424
▁institutt	-10.0426
ка	-10.0435
▁ud	-10.0439
▁masse	-10.0439
▁qui	-10.0444
▁elektro	-10.0447
studi	-10.0452
løft	-10.0473
kvalitet	-10.048
næs	-10.0482
punktet	-10.0492
▁irsk	-10.0506
▁hva	-10.0509
▁bane	-10.0515
▁sterke	-10.0519
▁parlament	-10.052
▁1974	-10.052
▁fjerde	-10.052
▁school	-10.0521
▁rektor	-10.0521
▁wil	-10.0524
▁malm	-10.0525
▁munk	-10.0527
▁jordbruk	-10.0529
▁snakke	-10.0532
tjenester	-10.0532
▁slaget	-10.0535
para	-10.054
▁vokser	-10.0542
▁alpin	-10.0548
▁våren	-10.0555
▁latinsk	-10.0562
▁kva	-10.0564
▁leve	-10.0567
ello	-10.0572
▁krig	-10.0576
trafikk	-10.0582
▁500	-10.0588
▁lønn	-10.0593
▁ola	-10.0598
▁wan	-10.0603
▁brenn	-10.0606
▁rute	-10.0628
▁kö	-10.0631
▁sær	-10.0631
▁inspirert	-10.0637
▁sjelden	-10.0637
▁verb	-10.0637
▁prop	-10.0637
ovitsj	-10.0638
iko	-10.0639
▁arkitektur	-10.0661
former	-10.0666
▁sankt	-10.0669
hallen	-10.0676
▁akademi	-10.0685
strup	-10.0689
▁artister	-10.0691
gli	-10.0695
passet	-10.0696
▁herman	-10.07
▁trener	-10.0701
▁kali	-10.0704
▁anta	-10.0706
▁skifte	-10.0711
bia	-10.0712
▁normalt	-10.0714
farget	-10.0716
statu	-10.073
blå	-10.0733
▁stille	-10.0742
▁mitt	-10.0743
▁dahl	-10.0743
▁digital	-10.0754
▁ytterligere	-10.0754
ович	-10.0755
▁frederik	-10.0756
▁1981	-10.0757
▁1972	-10.0758
▁drept	-10.0759
▁organisasjonen	-10.0765
▁popul	-10.0767
onym	-10.0767
▁produsere	-10.0771
▁meta	-10.0773
▁eik	-10.0774
▁offisiel	-10.0779
▁fn	-10.08
▁heller	-10.082
▁sum	-10.0833
plikt	-10.0845
▁carlo	-10.085
▁hjelpe	-10.0864
▁tai	-10.0864
29	-10.0865
hard	-10.0865
▁neste	-10.0871
▁1973	-10.0873
▁opprinnelse	-10.0873
▁etterhvert	-10.0873
▁rolf	-10.0874
▁kjøtt	-10.0874
▁tømmer	-10.0874
▁abd	-10.0875
ль	-10.0875
▁journalist	-10.0876
leir	-10.0876
▁slank	-10.0877
▁nivå	-10.0877
▁funnet	-10.0879
enburg	-10.0881
▁motiv	-10.0883
▁gjenopp	-10.0883
▁mw	-10.0886
▁mangler	-10.0888
▁klubb	-10.0893
▁landsby	-10.0895
▁lyng	-10.0898
▁skriver	-10.0899
▁mong	-10.09
▁dyrke	-10.0902
▁dannes	-10.0903
▁tråd	-10.0908
herre	-10.091
▁birk	-10.0911
ful	-10.0917
▁intel	-10.092
bygningen	-10.0924
▁kreft	-10.0924
▁stad	-10.094
▁bakke	-10.0946
▁kapit	-10.0946
▁nedre	-10.0951
▁histo	-10.0961
▁34	-10.0965
▁grøn	-10.0966
▁koloni	-10.0972
▁bispedømme	-10.0977
▁utnevnt	-10.0981
▁kommuner	-10.0982
▁grunnlegger	-10.0984
▁tan	-10.0993
institusjon	-10.0994
▁vulkan	-10.0994
▁sykehus	-10.0994
▁amerika	-10.0994
▁hvilke	-10.0994
▁episode	-10.0994
▁redusere	-10.0995
▁henholdsvis	-10.0996
▁1971	-10.0997
▁mytologi	-10.0998
▁planter	-10.0999
▁chris	-10.101
▁streng	-10.1011
▁rest	-10.1012
▁inc	-10.1027
▁bosetning	-10.1029
▁gjer	-10.1047
▁holde	-10.105
▁klart	-10.1072
31	-10.1076
▁roger	-10.1078
aki	-10.1096
▁afrika	-10.1096
▁jar	-10.1098
▁150	-10.1104
blom	-10.1105
▁regjeringen	-10.1112
▁økonomi	-10.1114
vang	-10.1116
▁1969	-10.1116
▁company	-10.1116
▁flertall	-10.1116
▁nedenfor	-10.1117
▁dårlig	-10.1117
▁energy	-10.1118
▁1965	-10.1119
▁stam	-10.112
▁stadion	-10.1121
▁skipet	-10.1124
▁filip	-10.1124
▁german	-10.1132
plattform	-10.1136
afrikansk	-10.1136
āng	-10.1137
▁gaten	-10.1137
hunder	-10.1138
áng	-10.1142
▁sete	-10.1143
▁bære	-10.1145
▁samlet	-10.1151
▁lignende	-10.1151
▁hir	-10.1151
▁frei	-10.1153
▁tell	-10.1156
▁tau	-10.1157
▁utføre	-10.1157
▁wood	-10.1161
▁svar	-10.1161
▁osv	-10.1162
komedie	-10.1174
▁xu	-10.1178
▁eide	-10.1183
▁65	-10.1185
▁qi	-10.1186
▁river	-10.1192
hest	-10.1193
galleri	-10.1196
▁kapp	-10.1203
▁kristin	-10.1209
▁aar	-10.1212
▁arg	-10.1221
cup	-10.1221
barn	-10.1222
myr	-10.1228
▁bety	-10.1233
▁båten	-10.1234
rapport	-10.1239
▁introdusert	-10.1239
▁vingespenn	-10.1239
▁demokrati	-10.124
▁dialekt	-10.1243
▁opprør	-10.1243
undersøkelse	-10.1247
▁bord	-10.1248
▁lansert	-10.1249
▁solgte	-10.1251
alitet	-10.1256
▁menighet	-10.1265
▁hydro	-10.1272
▁myk	-10.1274
spir	-10.1278
▁sørlige	-10.128
▁walter	-10.1283
▁avslutte	-10.1285
▁viking	-10.1289
▁torg	-10.1293
▁skjær	-10.1299
▁lyn	-10.1302
uru	-10.1321
▁storm	-10.1321
▁sammenlign	-10.1323
▁hj	-10.1338
▁raf	-10.1343
bytte	-10.1345
▁sit	-10.1347
▁skinn	-10.1347
ар	-10.1349
demokrat	-10.1362
▁tatt	-10.1364
▁alkohol	-10.1364
▁republikken	-10.1366
▁1945	-10.1367
▁1963	-10.1367
flate	-10.1369
▁antonio	-10.1372
▁tyr	-10.1375
stjerne	-10.1383
ла	-10.1383
▁kald	-10.1385
▁pur	-10.1386
▁brygge	-10.1387
▁lån	-10.139
▁teknologi	-10.1394
▁nova	-10.1398
▁kjempe	-10.1401
slett	-10.1402
▁dong	-10.1405
qi	-10.1408
▁sønnen	-10.1408
▁england	-10.141
▁normal	-10.1415
▁jam	-10.1427
▁sara	-10.1434
▁peder	-10.144
▁top	-10.1474
▁jiang	-10.1479
▁artist	-10.1482
▁roma	-10.1483
harmoni	-10.1484
▁try	-10.1486
▁fru	-10.1488
▁millimeter	-10.1491
▁varaordfører	-10.1491
▁alexander	-10.1491
▁sigurd	-10.1491
▁forårsake	-10.1491
▁fett	-10.1493
▁edward	-10.1494
manuel	-10.1495
▁forretnings	-10.1501
ordning	-10.1506
▁bland	-10.1521
vá	-10.1524
botn	-10.1529
▁bibliotek	-10.1534
bekk	-10.1534
vendt	-10.1535
▁bygger	-10.1535
serie	-10.1536
àn	-10.1541
▁driv	-10.1542
▁metode	-10.1544
▁komme	-10.1566
vakt	-10.1569
▁fyrst	-10.1585
jal	-10.1593
▁struktur	-10.1599
næring	-10.1602
farge	-10.1612
ва	-10.1615
▁shanghai	-10.1619
▁1952	-10.1619
▁arrangert	-10.1619
kapasitet	-10.1619
brua	-10.1619
▁edvard	-10.1619
▁moskva	-10.1619
▁college	-10.162
▁studio	-10.1624
▁bakgrunn	-10.1624
ittisk	-10.1626
▁sverd	-10.1626
debut	-10.1626
▁1950	-10.1627
▁då	-10.163
▁dominere	-10.163
▁eksempelvis	-10.1635
▁fungere	-10.1642
medlem	-10.1642
▁180	-10.1645
▁vall	-10.1647
▁ernst	-10.165
▁drikke	-10.1651
bøker	-10.1654
▁liber	-10.1658
▁term	-10.1662
▁bidrag	-10.1664
▁alm	-10.1671
behandle	-10.1672
▁ah	-10.1674
øvelse	-10.1674
▁orient	-10.1677
setting	-10.168
▁livet	-10.1681
linje	-10.1687
▁kaptein	-10.1689
▁innspilling	-10.1689
▁parken	-10.1711
ætt	-10.1712
▁shan	-10.1717
▁mcc	-10.172
▁gott	-10.1729
▁stab	-10.1735
▁måne	-10.1735
▁bach	-10.1741
▁42	-10.1745
▁nederland	-10.1748
▁fødsel	-10.1749
▁trøndelag	-10.1749
▁jakob	-10.1749
ος	-10.175
▁utnytte	-10.1751
▁nådd	-10.1751
▁1962	-10.1752
▁1956	-10.1753
▁straffe	-10.1756
▁vanligste	-10.176
▁aksje	-10.1764
▁skyldes	-10.1768
gjort	-10.1768
struktur	-10.177
▁føl	-10.1772
▁ekstra	-10.1774
▁prins	-10.1783
kort	-10.1783
▁listen	-10.1785
pat	-10.1789
▁fotballklubb	-10.179
behandling	-10.179
▁eie	-10.1793
▁avisen	-10.1795
chel	-10.1795
▁tykk	-10.1797
▁01	-10.1801
▁hyper	-10.1809
▁jø	-10.1815
gått	-10.1821
▁alder	-10.1824
▁verd	-10.1834
blanding	-10.1839
ensis	-10.1847
▁blokk	-10.1849
olje	-10.1862
▁ansvarlig	-10.1872
▁seier	-10.1876
▁1951	-10.1881
▁eventyr	-10.1881
▁tilgjengelig	-10.1881
▁betrakte	-10.1881
▁hurtig	-10.1881
▁kontakt	-10.1882
▁vanskelig	-10.1882
hydr	-10.1884
▁1966	-10.1885
▁forvaltnings	-10.1888
▁corp	-10.1891
▁län	-10.19
▁raskt	-10.1902
▁sæ	-10.1902
▁måned	-10.1909
▁vokste	-10.191
løy	-10.1911
▁singel	-10.1916
▁rosa	-10.1916
▁svein	-10.1918
elius	-10.1923
jiang	-10.1924
▁grov	-10.1925
▁sikte	-10.1933
modell	-10.1939
▁hin	-10.1941
▁kunnskap	-10.1942
▁kata	-10.1955
▁utvikle	-10.1963
▁slett	-10.1964
▁styrker	-10.1964
▁beat	-10.1967
▁kåre	-10.1971
▁billed	-10.1977
▁41	-10.1979
▁az	-10.1982
▁advokat	-10.1985
▁satte	-10.1992
▁nevnt	-10.1994
▁nettverk	-10.2007
journal	-10.2012
▁gile	-10.2012
dynasti	-10.2013
▁forekommer	-10.2014
▁reference	-10.2014
▁integr	-10.2014
▁regjering	-10.2015
▁adresse	-10.2015
mission	-10.2021
▁protest	-10.2021
▁sålede	-10.2023
versjon	-10.2026
▁arkeolog	-10.2027
▁slått	-10.2031
eksamen	-10.2033
▁utvikler	-10.2035
program	-10.2037
forskning	-10.204
▁stadig	-10.2048
▁geir	-10.205
ktig	-10.2056
▁morten	-10.2056
0	-10.2057
▁koll	-10.2063
▁brød	-10.2064
ligste	-10.2065
▁filosof	-10.2065
▁300	-10.2072
▁hunnen	-10.2076
▁vitenskap	-10.2082
turnering	-10.2083
skild	-10.2087
bygning	-10.2119
vatn	-10.213
▁400	-10.2135
▁opphav	-10.2136
▁oversatt	-10.2137
ь	-10.2147
▁sannsynlig	-10.2149
▁1961	-10.2149
▁svømme	-10.2149
▁global	-10.215
▁techn	-10.2151
▁stortings	-10.2152
▁kraftige	-10.2154
▁passerer	-10.2158
tysk	-10.2166
▁yngre	-10.217
▁bevart	-10.217
▁reaksjon	-10.2171
▁bull	-10.2174
▁språket	-10.2174
▁а	-10.2175
▁sendte	-10.2177
direktør	-10.2179
▁life	-10.2182
▁metro	-10.2194
▁ara	-10.2195
▁øke	-10.2198
▁maleri	-10.2202
kompani	-10.2207
▁sovjetisk	-10.221
▁verket	-10.2225
▁yng	-10.2227
▁who	-10.2233
fylt	-10.2245
▁lenger	-10.2261
▁laks	-10.2264
▁mul	-10.2265
▁foto	-10.2271
▁resten	-10.2275
▁forskning	-10.2277
▁intern	-10.2284
▁restaurant	-10.2286
▁dekkvingene	-10.2286
▁studioalbum	-10.2286
▁golf	-10.2287
▁fokus	-10.2287
kommando	-10.2289
arv	-10.2293
bury	-10.2295
▁landskapet	-10.2295
▁innsjø	-10.2301
▁fur	-10.2303
▁kristen	-10.2304
▁sukker	-10.2314
hev	-10.2323
effekt	-10.2324
▁bodde	-10.2324
tromme	-10.2327
▁søke	-10.2328
▁light	-10.2331
▁prøve	-10.2334
lista	-10.2336
zel	-10.2356
▁kau	-10.2358
▁vill	-10.2368
avhengig	-10.2374
vika	-10.2374
toppen	-10.2376
▁eva	-10.2386
hamn	-10.2394
▁romanen	-10.2407
▁politiet	-10.2409
fugler	-10.2415
▁innflytelse	-10.2425
▁noctuidae	-10.2425
spørsmål	-10.2425
▁sistnevnte	-10.2425
▁hverandre	-10.2425
▁generelt	-10.2425
▁fiolin	-10.2425
▁slu	-10.2426
▁skjøn	-10.2426
aire	-10.2427
▁fac	-10.2427
▁brem	-10.2429
▁ungdom	-10.243
▁detalj	-10.243
▁portrett	-10.244
▁veldig	-10.2441
▁hevde	-10.2444
▁filosofi	-10.2457
▁piano	-10.2457
▁planet	-10.2459
amerikanske	-10.2463
▁1000	-10.2463
▁manus	-10.2473
▁your	-10.2475
▁butikk	-10.2483
▁klokke	-10.2488
forsker	-10.2493
▁musk	-10.2507
guan	-10.2511
bygget	-10.2512
cast	-10.2517
▁møter	-10.2527
alistisk	-10.253
▁thu	-10.2534
▁historien	-10.2535
▁pont	-10.2536
isse	-10.2536
▁markert	-10.254
▁øl	-10.2541
▁religiøs	-10.2566
▁storbritannia	-10.2566
▁debutalbum	-10.2566
▁kjærlighet	-10.2566
▁positiv	-10.2566
▁drammen	-10.2566
▁alvorlig	-10.2566
▁periode	-10.2566
▁insekt	-10.2567
▁lengst	-10.2567
▁nak	-10.2568
▁mineral	-10.2569
plate	-10.2569
▁1940	-10.2573
▁poeng	-10.2575
▁luther	-10.2579
▁posisjon	-10.2579
▁signal	-10.2585
▁tenk	-10.2589
▁krever	-10.2593
▁him	-10.2597
administrasjon	-10.2599
problem	-10.2608
politisk	-10.2611
zan	-10.2611
▁havet	-10.2614
▁morgen	-10.2615
print	-10.2616
▁ytre	-10.2617
▁ulik	-10.2619
▁overfor	-10.2621
▁korea	-10.2625
▁wang	-10.2625
veps	-10.2627
▁sesong	-10.2635
▁ankom	-10.264
rock	-10.2643
dommer	-10.2643
▁fritt	-10.2643
hyll	-10.2643
ønne	-10.2655
▁big	-10.2659
iano	-10.2665
▁hur	-10.268
▁kammer	-10.2689
▁carol	-10.2689
▁forbinde	-10.2693
sekretær	-10.2707
▁australia	-10.2709
▁electric	-10.2709
▁elisabeth	-10.2709
▁fengsel	-10.2709
▁arthur	-10.2709
kommisjon	-10.271
▁andré	-10.271
hastighet	-10.271
▁programleder	-10.2711
▁omfattende	-10.2712
▁pad	-10.2714
▁grim	-10.2716
▁tildele	-10.2717
▁snart	-10.2719
▁mølle	-10.2723
▁undervisning	-10.2728
▁hypo	-10.273
▁chan	-10.2742
masse	-10.2755
mennene	-10.2756
▁white	-10.2757
▁asia	-10.277
kall	-10.2783
▁nordland	-10.2823
▁former	-10.2825
▁verneområde	-10.2827
▁bod	-10.2833
▁liberal	-10.2836
▁rau	-10.2836
▁utløp	-10.2848
▁gruppa	-10.2849
fortelling	-10.2851
▁objekt	-10.2853
▁christoph	-10.2854
konferanse	-10.2854
▁netto	-10.2854
▁hertug	-10.2855
▁ridder	-10.2855
▁telefon	-10.2856
▁tolv	-10.2857
▁firmaet	-10.2857
▁skarp	-10.2858
▁1920	-10.2861
▁1900	-10.2873
tveit	-10.2874
▁mira	-10.2874
▁smør	-10.2877
▁skrå	-10.2885
soldat	-10.2888
▁terj	-10.2889
mä	-10.2893
▁begynner	-10.2894
typer	-10.2898
gutt	-10.2903
album	-10.2906
▁melke	-10.2909
front	-10.2909
ин	-10.2914
klasse	-10.2935
▁arc	-10.2936
iana	-10.2944
årig	-10.2961
data	-10.2966
▁skiller	-10.2966
stille	-10.2969
▁dio	-10.2972
kammer	-10.2974
▁tun	-10.2981
▁norman	-10.2981
▁femte	-10.2985
drakt	-10.2996
arrangement	-10.3001
▁1949	-10.3001
▁selvstendig	-10.3001
▁komponert	-10.3001
▁sekund	-10.3001
▁bakterie	-10.3004
▁forteller	-10.3004
terminal	-10.3004
▁kommunist	-10.3004
▁toll	-10.301
▁sammenheng	-10.3015
▁bunn	-10.3016
pass	-10.3019
▁enkle	-10.3019
▁pho	-10.3019
▁euro	-10.3023
▁skan	-10.303
▁night	-10.304
stemt	-10.3043
▁back	-10.3053
kritiker	-10.3054
ugh	-10.3055
▁rulle	-10.306
stell	-10.3069
gass	-10.3073
▁clo	-10.3073
kapital	-10.3077
▁kvit	-10.308
føl	-10.3082
bukta	-10.3092
▁smak	-10.3104
▁cand	-10.3105
enden	-10.3106
ology	-10.3107
▁befolkning	-10.3112
▁voks	-10.3112
inndeling	-10.3113
▁ferr	-10.3119
▁bakkroppen	-10.312
kontroll	-10.3137
vall	-10.3139
cula	-10.3141
▁arv	-10.3141
fotograf	-10.3143
konstruksjon	-10.315
▁eventuel	-10.315
▁væske	-10.315
▁oversettelse	-10.315
vart	-10.315
▁major	-10.315
▁oppdaget	-10.3151
▁henri	-10.3151
▁premier	-10.3151
▁utbredt	-10.3151
▁kveld	-10.3151
▁ekteskap	-10.3152
▁musikkalbum	-10.3152
▁ishockey	-10.3153
▁håkon	-10.3154
▁1959	-10.3154
▁1957	-10.3154
▁bratt	-10.3155
kål	-10.3158
▁skjel	-10.3165
▁effektiv	-10.3167
▁kapell	-10.3168
▁rådgiv	-10.3172
▁bestemt	-10.3174
▁panser	-10.3188
▁reserve	-10.3193
tilstand	-10.3203
▁fortsetter	-10.3205
▁qing	-10.3208
utstyr	-10.3211
▁qa	-10.3211
▁book	-10.3211
▁show	-10.3212
▁beskrevet	-10.3215
▁skille	-10.3215
▁palm	-10.3221
gran	-10.3223
▁ulv	-10.3231
▁marin	-10.3237
▁sym	-10.3241
▁kjøl	-10.3245
gnos	-10.3246
▁rio	-10.325
▁statlig	-10.3264
tjern	-10.3268
forestilling	-10.3285
▁øker	-10.3291
bjørg	-10.3297
▁etterfulgt	-10.3301
▁fullstendig	-10.3301
▁yrkes	-10.3301
▁ekstrem	-10.3302
järvi	-10.3302
▁cirka	-10.3302
▁kanskje	-10.3304
▁håndball	-10.3304
rettigheter	-10.3305
▁sverre	-10.3305
icus	-10.3306
▁lengre	-10.3309
▁mangle	-10.3326
fan	-10.3332
hovedstad	-10.334
▁velge	-10.3345
▁nordre	-10.3347
▁bau	-10.3353
▁kw	-10.336
▁organisert	-10.3368
▁preg	-10.3377
▁game	-10.3397
▁kast	-10.3399
▁mono	-10.3406
▁lenge	-10.341
▁reist	-10.3418
▁mé	-10.3419
seksjon	-10.3441
▁gruve	-10.345
stamme	-10.3453
rykket	-10.3454
▁konkurrere	-10.3455
▁berømte	-10.3455
pedagog	-10.3455
▁bjørk	-10.3456
▁gabriel	-10.3456
mønster	-10.3457
▁pierre	-10.3459
▁1948	-10.346
▁pul	-10.3465
▁viklere	-10.3467
ington	-10.3468
▁oh	-10.3469
▁gjø	-10.3469
▁beina	-10.3487
▁hundre	-10.3494
▁öst	-10.3495
▁voksne	-10.3495
▁jonas	-10.35
▁shu	-10.3503
verv	-10.3508
time	-10.3511
ponent	-10.3513
äll	-10.3515
▁hval	-10.3519
hjelp	-10.3524
▁fløy	-10.3525
▁oppsto	-10.3529
født	-10.3529
▁silke	-10.3538
maleri	-10.3544
▁preget	-10.3545
finn	-10.3548
▁mig	-10.3553
dikt	-10.3558
sentre	-10.3563
formasjon	-10.3571
▁bidra	-10.358
sønn	-10.3584
forvaltning	-10.3603
historiker	-10.361
▁heinrich	-10.3611
▁karakteristisk	-10.3612
▁etterfølger	-10.3613
▁brasil	-10.3616
▁brown	-10.3616
▁kallenavn	-10.3618
▁snu	-10.3619
stipend	-10.362
▁jä	-10.362
▁dokumenter	-10.3624
▁uttalt	-10.3626
batteri	-10.363
▁ltd	-10.3634
▁likhet	-10.3634
▁bibel	-10.3637
▁persisk	-10.3638
▁nød	-10.3643
▁rag	-10.3648
opera	-10.3668
utgave	-10.3673
fik	-10.3677
instrument	-10.3685
provins	-10.3686
▁angi	-10.3691
▁della	-10.3697
katalog	-10.3698
sundet	-10.3703
chan	-10.3705
tropp	-10.3715
tårnet	-10.3715
▁frihet	-10.3721
atus	-10.3725
▁psyko	-10.3747
avgift	-10.3749
dokument	-10.3757
familie	-10.3764
gudinne	-10.3767
▁rig	-10.3769
▁association	-10.377
▁bulgarsk	-10.377
▁trommeslager	-10.377
▁1953	-10.377
▁adolf	-10.377
▁deutsche	-10.377
▁valuta	-10.3771
▁tilsvarer	-10.3773
▁finnmark	-10.3778
utvalget	-10.3781
kost	-10.3781
situasjon	-10.3783
▁verdenskrig	-10.3785
▁potet	-10.3789
▁revolusjon	-10.3796
▁sterk	-10.3797
styring	-10.3798
▁jeff	-10.3798
▁vestlige	-10.3825
styrken	-10.3827
tidsskrift	-10.3828
tjenesten	-10.383
▁kg	-10.3831
holdsvis	-10.3831
▁avtale	-10.3833
▁hauk	-10.3837
▁regel	-10.3844
▁fantes	-10.3849
▁raj	-10.3849
▁ledes	-10.3863
▁tunnel	-10.3867
▁astronom	-10.3878
strømmen	-10.3879
▁athen	-10.388
▁prosjektet	-10.3883
▁musikalsk	-10.3886
halvøya	-10.3891
▁eb	-10.391
radio	-10.3911
▁vingene	-10.3918
▁individ	-10.3931
▁120	-10.3931
▁sjeldne	-10.3931
▁tortricidae	-10.3931
▁windows	-10.3931
▁airlines	-10.3931
▁tabellen	-10.3931
▁unntak	-10.3932
▁tidsskriftet	-10.3933
▁isbn	-10.3934
▁skjedde	-10.3934
▁pedersen	-10.394
automat	-10.3943
▁høst	-10.3948
▁demningen	-10.3952
▁pic	-10.3957
blomsterflue	-10.3961
▁høg	-10.3965
▁lavere	-10.3967
▁mulighet	-10.3969
та	-10.3971
bund	-10.3974
type	-10.3981
▁teolog	-10.3986
▁krim	-10.3996
markedet	-10.4001
resultat	-10.4016
▁status	-10.4028
krig	-10.4037
vegen	-10.4038
▁troms	-10.4044
avisen	-10.4072
avtale	-10.4078
▁hovedrollen	-10.4091
▁foregå	-10.4091
rommet	-10.4094
▁corporation	-10.4095
▁suksess	-10.4095
▁installert	-10.4095
▁erklært	-10.4095
▁sykkel	-10.4096
▁terror	-10.4096
praksis	-10.4096
▁inndelt	-10.4099
▁kommunal	-10.4099
▁programvare	-10.41
▁1939	-10.4101
▁hersker	-10.411
▁skuld	-10.4111
▁karbon	-10.4112
▁plast	-10.4112
▁donau	-10.4113
▁regjer	-10.4116
▁jim	-10.4119
▁elektron	-10.412
støtte	-10.4125
▁guang	-10.4136
▁kongelig	-10.4144
▁did	-10.4156
▁rö	-10.4158
▁modern	-10.4163
mesterskapet	-10.4164
▁oppleve	-10.4167
grå	-10.4168
▁beskrev	-10.4189
tittel	-10.4193
▁overgang	-10.4197
▁hop	-10.4206
spiss	-10.4209
ated	-10.4212
▁kap	-10.4217
▁hö	-10.4218
▁birg	-10.4219
▁má	-10.4219
▁bly	-10.4233
▁brei	-10.426
▁diplomat	-10.4262
▁1942	-10.4262
▁spania	-10.4263
▁naturreservat	-10.4263
▁protein	-10.4264
kombinasjon	-10.4264
▁stiftelsen	-10.4266
▁skotsk	-10.4266
faktor	-10.4267
▁1938	-10.4268
▁stadium	-10.4268
▁jackson	-10.4272
▁zhang	-10.4274
▁bestemme	-10.428
▁egil	-10.4281
▁dvs	-10.4285
psykologi	-10.4286
▁slå	-10.429
▁cour	-10.4298
▁begrense	-10.4299
▁good	-10.43
▁skall	-10.4308
▁43	-10.4312
back	-10.4314
brønn	-10.4333
▁lord	-10.4341
▁arena	-10.4351
phon	-10.4355
▁underfamilien	-10.4357
ection	-10.4357
transport	-10.4358
forsikring	-10.4362
leddet	-10.4371
▁biolog	-10.4407
høyden	-10.4413
konservativ	-10.4432
▁aleksander	-10.4432
▁symptom	-10.4432
▁skulptur	-10.4432
▁1954	-10.4432
▁skottland	-10.4432
▁vesentlig	-10.4432
▁utmerkelse	-10.4432
▁muslim	-10.4432
▁hjørne	-10.4432
▁fiktiv	-10.4433
▁kobber	-10.4433
▁utøver	-10.4433
▁1928	-10.4436
▁rov	-10.4437
▁komposisjon	-10.4438
▁bundes	-10.4438
▁play	-10.444
▁eksport	-10.4445
▁feire	-10.445
flo	-10.4451
▁franz	-10.4452
▁54	-10.4455
▁operere	-10.4459
▁lykke	-10.4461
▁kath	-10.4462
▁trø	-10.4462
▁fritz	-10.4466
drevet	-10.4468
▁arab	-10.4468
▁grønland	-10.4469
▁bow	-10.4472
▁støv	-10.4473
▁debuter	-10.4485
pati	-10.4485
▁gutte	-10.4487
▁philip	-10.4494
▁ettersom	-10.4498
dyktig	-10.4498
▁leif	-10.4519
akademi	-10.4533
historisk	-10.4534
bølge	-10.4538
▁jud	-10.4555
ruten	-10.4561
▁1800	-10.4594
▁giovanni	-10.4604
▁publikum	-10.4604
▁ukraina	-10.4604
▁regissør	-10.4604
▁terreng	-10.4604
▁mekanisk	-10.4604
sekvens	-10.4604
▁skyte	-10.4605
▁theodor	-10.4605
▁kunde	-10.4607
▁1936	-10.4608
▁telemark	-10.4608
▁import	-10.4609
▁lapp	-10.461
▁nærheten	-10.461
▁døgn	-10.4611
▁social	-10.4616
▁jacobsen	-10.4617
▁eksistere	-10.462
relatert	-10.4625
▁divers	-10.4627
▁wild	-10.4629
bæk	-10.4631
▁omhandler	-10.4634
▁grunnlegge	-10.4634
▁160	-10.4649
▁olaf	-10.4654
fred	-10.4658
minne	-10.4666
butikk	-10.4716
parten	-10.4723
kunstner	-10.4726
▁tusen	-10.4749
arafa	-10.476
▁landslag	-10.4767
▁systematikken	-10.4779
▁nødvendig	-10.4779
▁utelukke	-10.4779
▁utgangspunkt	-10.4779
▁århundre	-10.4779
▁symfoni	-10.478
▁belgia	-10.478
▁gråbrun	-10.4781
opplæring	-10.4782
▁1924	-10.4783
▁donald	-10.4784
palasset	-10.4784
apparat	-10.4785
▁1955	-10.4786
▁bidro	-10.4787
▁stabil	-10.4811
▁finale	-10.4834
▁junior	-10.4836
▁etasje	-10.484
▁lunge	-10.4851
tekst	-10.4876
▁bassist	-10.4893
frukt	-10.4894
▁82	-10.4895
aktivitet	-10.4898
▁gjeng	-10.4915
ić	-10.4933
▁fau	-10.4943
tavle	-10.4946
▁planten	-10.4953
▁dirigent	-10.4958
▁initiativ	-10.4958
▁guvernør	-10.4958
▁central	-10.4958
ри	-10.4958
▁ukjent	-10.4958
▁geometri	-10.4958
▁østerrike	-10.4959
straße	-10.4959
▁nærmere	-10.496
▁opptrer	-10.4961
▁1927	-10.4962
▁fuktig	-10.4963
▁1947	-10.4964
▁avledet	-10.4965
▁pettersen	-10.4969
▁skytter	-10.497
▁stiv	-10.4972
▁santo	-10.4973
▁bodø	-10.4977
▁diesel	-10.498
vegetasjon	-10.4981
nemlig	-10.4986
ière	-10.4989
▁alban	-10.499
▁mynt	-10.4992
▁great	-10.5001
fysikk	-10.5005
▁audi	-10.5013
▁ferge	-10.5018
ario	-10.5052
▁irland	-10.5076
bibliotek	-10.5078
salg	-10.5085
▁årsak	-10.5085
kreft	-10.5091
го	-10.5095
messe	-10.5107
llus	-10.5121
møll	-10.5122
▁wol	-10.5123
nettverk	-10.5131
lønn	-10.5133
▁aero	-10.5138
▁konflikt	-10.514
▁1941	-10.514
▁mexico	-10.514
▁science	-10.514
▁amatør	-10.514
▁søndag	-10.514
▁1931	-10.5143
▁francisco	-10.5144
▁kongsberg	-10.5145
▁1930	-10.5148
▁samuel	-10.515
▁allmenn	-10.5152
bebyggelse	-10.5156
▁1910	-10.5157
▁skilt	-10.516
▁strekk	-10.5163
▁call	-10.5163
▁tø	-10.5167
▁eugen	-10.517
holdig	-10.5174
▁nyere	-10.5185
▁1500	-10.5188
▁grend	-10.5199
▁thom	-10.5202
▁tromsø	-10.5209
stemme	-10.5224
recht	-10.5235
vandring	-10.5238
▁beregne	-10.5239
ansett	-10.5243
▁road	-10.5248
▁philipp	-10.5262
fabrik	-10.5297
▁drei	-10.53
sikkerhet	-10.5306
sammen	-10.5306
melding	-10.5308
▁slektning	-10.5311
▁skyld	-10.5313
direktoratet	-10.5325
▁vladimir	-10.5325
▁eksperiment	-10.5325
▁godkjent	-10.5325
▁vunnet	-10.5325
▁ludvig	-10.5325
▁hebraisk	-10.5325
▁nedbør	-10.5325
▁church	-10.5325
▁petersburg	-10.5325
▁lö	-10.5326
▁finskspråklig	-10.5327
▁efter	-10.5327
▁2018	-10.533
▁soldater	-10.5331
▁lokalisert	-10.5337
▁tilfelle	-10.5341
strøk	-10.5344
▁røyk	-10.5344
▁landsforening	-10.5345
▁first	-10.5347
▁rav	-10.5351
▁prosessen	-10.5352
▁glad	-10.5365
kvartett	-10.5365
▁sound	-10.5371
▁seine	-10.5384
▁tapte	-10.5388
mottak	-10.5394
owski	-10.5395
ruter	-10.5396
▁wolf	-10.5397
ologen	-10.5412
bevis	-10.5416
regning	-10.5428
▁slave	-10.543
motiv	-10.5436
▁visse	-10.5452
kompleks	-10.5453
rente	-10.5454
▁handle	-10.5472
mesterskap	-10.5475
▁parallell	-10.5481
▁kval	-10.5491
fordeling	-10.5495
▁klippe	-10.5496
stav	-10.5496
måte	-10.5497
▁glu	-10.5499
▁aksel	-10.5499
vassdraget	-10.5504
grunnsstasjon	-10.5509
▁vedlikehold	-10.5514
▁innebærer	-10.5514
▁erobret	-10.5514
▁ovenfor	-10.5514
førsel	-10.5514
betennelse	-10.5514
▁thailand	-10.5514
▁opplysning	-10.5514
▁jødisk	-10.5515
▁hjort	-10.5515
▁tolkien	-10.5516
▁1929	-10.5517
▁medisinsk	-10.5518
▁novell	-10.5518
▁1946	-10.5519
▁viktor	-10.5523
▁alex	-10.553
▁øks	-10.5531
▁wid	-10.5537
▁hotel	-10.5549
▁oversikt	-10.5561
▁krok	-10.5573
▁følelse	-10.5594
sending	-10.5611
▁olympisk	-10.5613
▁francis	-10.5613
▁font	-10.5619
▁innsats	-10.5625
▁spira	-10.5656
sidig	-10.5692
▁society	-10.5706
▁kollektiv	-10.5706
▁public	-10.5706
▁pakistan	-10.5706
▁fattig	-10.5706
▁tyrkisk	-10.5707
▁frivillig	-10.5707
▁forkortelse	-10.5707
▁kristiansand	-10.5707
▁angripe	-10.5707
▁1918	-10.5711
▁fotballspiller	-10.5712
▁1958	-10.5712
▁bensin	-10.5713
▁down	-10.5713
▁fullført	-10.5715
▁klatre	-10.5734
zhi	-10.5744
▁johnson	-10.5762
▁left	-10.5773
▁sender	-10.5793
▁elektronisk	-10.5801
wick	-10.582
▁blind	-10.5828
orkester	-10.5857
teknologi	-10.5859
▁flyselskap	-10.5883
▁flø	-10.5895
pumpe	-10.5899
▁league	-10.5902
▁jacque	-10.5902
▁monument	-10.5902
▁negativ	-10.5902
veksling	-10.5902
▁konsept	-10.5902
▁regulere	-10.5903
▁definert	-10.5903
▁bøkene	-10.5903
▁bærum	-10.5903
▁automatisk	-10.5903
▁byfylke	-10.5904
worth	-10.5905
▁hørte	-10.5906
▁hjemmebane	-10.5906
▁tibetansk	-10.5906
▁1935	-10.5907
▁stefan	-10.5908
▁work	-10.5909
teater	-10.5909
▁tropisk	-10.591
▁european	-10.592
kampanje	-10.5924
▁deltaker	-10.5925
▁maritim	-10.5928
▁sikre	-10.593
▁johnny	-10.593
kaja	-10.5932
▁plantefamilie	-10.5934
▁forbunds	-10.594
▁tekstil	-10.5944
forsyning	-10.5948
▁sørover	-10.5949
▁oldtid	-10.5952
▁levde	-10.5952
forsamlingen	-10.5952
ий	-10.5993
▁verksted	-10.5996
▁frost	-10.603
kilde	-10.6045
▁sandvik	-10.6068
▁rub	-10.607
lengde	-10.6079
kjerne	-10.6092
▁australsk	-10.6102
▁frigjøring	-10.6102
▁asteroide	-10.6102
▁embets	-10.6102
▁kontinent	-10.6102
▁people	-10.6102
▁ungarsk	-10.6102
▁oppstår	-10.6103
▁josef	-10.6103
▁kriminal	-10.6103
▁generalsekretær	-10.6104
▁separat	-10.6104
▁nepal	-10.6104
▁arendal	-10.6104
▁rednings	-10.6105
▁1919	-10.6108
chuan	-10.6108
brød	-10.6111
strategi	-10.6111
▁pik	-10.6118
▁sørge	-10.6119
▁krag	-10.612
ая	-10.6124
reise	-10.6125
▁eriksen	-10.6132
▁ungdomsskole	-10.6132
▁isteden	-10.6133
ograph	-10.6134
▁utenom	-10.6135
ulykke	-10.6138
cchi	-10.6138
▁modul	-10.6138
▁kå	-10.6143
▁frode	-10.6146
▁tolk	-10.6155
løpere	-10.6157
▁geit	-10.6163
▁ytterst	-10.617
▁oval	-10.618
▁sveits	-10.6195
▁agent	-10.6204
▁representert	-10.623
▁gjennomføre	-10.6247
iansk	-10.6255
▁utenriks	-10.627
▁stru	-10.6274
▁acc	-10.6295
▁elizabeth	-10.6306
▁ferdinand	-10.6306
▁frankfurt	-10.6306
▁maksimal	-10.6306
▁registrert	-10.6306
▁sarpsborg	-10.6306
▁innbyggerne	-10.6306
▁ødelegge	-10.6306
▁alfabet	-10.6306
▁linux	-10.6306
▁geografisk	-10.6306
▁kommunistisk	-10.6306
▁redusert	-10.6307
▁reidar	-10.6307
▁generell	-10.6311
▁skildre	-10.6312
▁1908	-10.6312
▁stengt	-10.6314
kamerat	-10.6315
▁meyer	-10.6315
marked	-10.6323
støl	-10.6325
▁ultra	-10.6326
polis	-10.6327
▁fremført	-10.633
▁ørn	-10.6331
▁mottatt	-10.6335
▁utdannelse	-10.6336
gitar	-10.6339
▁barnehage	-10.6349
▁trenings	-10.6353
▁elias	-10.6361
ugle	-10.637
▁jimm	-10.6401
▁olymp	-10.6406
fast	-10.6416
ørret	-10.6424
▁rab	-10.6435
gjeng	-10.6483
▁lill	-10.6485
løv	-10.6494
cock	-10.6497
▁california	-10.6514
▁lillehammer	-10.6514
▁krevde	-10.6515
▁hyppig	-10.6515
▁fysisk	-10.6515
▁bitumen	-10.6515
▁utdype	-10.6515
▁doktorgrad	-10.6515
▁senior	-10.6515
børste	-10.6516
▁generasjon	-10.6519
▁disney	-10.652
brand	-10.652
▁tommy	-10.6522
▁prinsipp	-10.6523
▁wilson	-10.6526
▁biografi	-10.6528
▁jernbanestasjon	-10.6543
▁motsatt	-10.6554
▁hellas	-10.6557
setninger	-10.6559
▁kjennetegne	-10.6566
produkt	-10.6568
ignal	-10.6569
▁600	-10.657
▁prosti	-10.6573
forretning	-10.6579
nevnte	-10.6579
▁nevro	-10.6637
bian	-10.6644
bahn	-10.6645
øvrig	-10.6699
konsert	-10.6703
▁evangel	-10.6704
▁afghanistan	-10.6727
▁research	-10.6727
▁country	-10.6727
▁unicode	-10.6727
▁charlotte	-10.6727
▁kvadrat	-10.6727
▁serbisk	-10.6728
▁koreansk	-10.673
▁wolfgang	-10.673
ич	-10.6731
fasci	-10.6733
▁undergrunnsbane	-10.6733
▁formula	-10.6737
▁høyesterett	-10.6741
▁fredrikstad	-10.6742
▁nordsamisk	-10.6744
▁lisens	-10.6744
▁hitler	-10.6745
▁personlighet	-10.6749
▁domini	-10.6778
▁grund	-10.6782
▁earl	-10.679
bevegelse	-10.6828
▁konst	-10.6842
▁sveitsisk	-10.6845
regler	-10.6864
skjerm	-10.6888
angrep	-10.692
redaktør	-10.6921
grønn	-10.6921
▁barokk	-10.694
manuskript	-10.6945
▁færøyene	-10.6945
▁østerriksk	-10.6945
▁buddhist	-10.6945
▁tilføyd	-10.6945
▁hordaland	-10.6945
▁unntatt	-10.6945
▁kombinert	-10.6945
▁margaret	-10.6945
▁stephen	-10.6945
▁redigert	-10.6945
▁stortinget	-10.6946
▁axel	-10.6946
byrået	-10.6946
konvensjon	-10.6947
▁barnebarn	-10.6947
▁what	-10.6948
betjent	-10.6948
▁hemmelig	-10.6949
▁1914	-10.695
▁kredit	-10.695
▁avansert	-10.6956
beskyttelse	-10.6956
▁gradvis	-10.6958
▁blank	-10.6962
▁markerer	-10.6968
▁nedlagt	-10.6968
▁herbert	-10.6971
▁våt	-10.6973
▁enorm	-10.6975
▁sammenlagt	-10.6978
schaft	-10.6987
▁forvalte	-10.699
▁young	-10.6992
▁konstantin	-10.6998
▁varemerke	-10.7004
sjön	-10.7011
light	-10.7016
▁hekke	-10.7044
kommende	-10.706
▁klage	-10.7091
▁fase	-10.7131
▁skuespill	-10.7133
▁moll	-10.7148
kroppen	-10.7148
▁anerkjent	-10.7167
▁keyboard	-10.7167
▁republika	-10.7167
forstyrrelse	-10.7167
▁1905	-10.7167
▁opplagstall	-10.7167
▁tønsberg	-10.7167
▁chicago	-10.7167
▁1932	-10.7167
▁krystall	-10.7167
▁pradesh	-10.7167
▁nominert	-10.7167
▁sachsen	-10.7167
▁utbredelse	-10.7167
▁forbedre	-10.7167
▁wagner	-10.7168
▁belgisk	-10.7168
▁gregor	-10.7168
▁unngå	-10.7171
▁1926	-10.7171
fenomen	-10.7174
▁flytende	-10.7177
▁fremstille	-10.7178
▁signert	-10.7179
ław	-10.7181
▁nevø	-10.7185
▁øystein	-10.719
▁onkel	-10.7193
▁forsterke	-10.7195
▁lomme	-10.7195
sikring	-10.7284
▁endelig	-10.7296
ã	-10.7356
▁flyge	-10.7371
institutt	-10.7381
▁vietnam	-10.7394
▁langrennsløper	-10.7394
▁sanskrit	-10.7394
▁virginia	-10.7394
▁utdødd	-10.7394
infeksjon	-10.7394
▁kennedy	-10.7394
▁1934	-10.7394
▁abraham	-10.7394
▁meteorolog	-10.7394
▁tvilling	-10.7394
▁syndrom	-10.7394
▁ålesund	-10.7394
▁egenskaper	-10.7394
▁reklame	-10.7394
▁cappelen	-10.7394
▁ungarn	-10.7395
▁utseende	-10.7395
▁sibir	-10.7396
▁næringsliv	-10.7398
▁nyhets	-10.7398
▁space	-10.7399
▁1922	-10.7399
▁1906	-10.74
▁intens	-10.74
trukket	-10.7403
terapi	-10.7404
▁larvik	-10.7408
forandring	-10.7413
▁benevn	-10.7423
provinshovedstad	-10.7432
aften	-10.744
▁geologi	-10.7449
▁direct	-10.7453
kryp	-10.7455
hvelv	-10.7455
dekning	-10.7455
▁musikal	-10.7459
▁mjø	-10.7472
▁sev	-10.7478
kreps	-10.7509
▁bønn	-10.751
▁øygrupp	-10.7543
investering	-10.7544
▁katedral	-10.7546
givelse	-10.758
▁nordsid	-10.7597
fargede	-10.7609
arkitekt	-10.7617
løype	-10.7622
programmet	-10.7622
representant	-10.7622
▁hovedkvarter	-10.7627
▁ludwig	-10.7627
▁valgdeltakelse	-10.7627
▁beslektet	-10.7627
▁1943	-10.7627
▁vannkraftverk	-10.7627
▁vilhelm	-10.7627
▁erkebiskop	-10.7627
▁utenlandske	-10.7627
▁svovel	-10.7627
▁minutter	-10.7627
▁lørdag	-10.7627
▁bjarne	-10.7627
▁hendelsen	-10.7627
▁heavy	-10.7627
▁dokumentar	-10.7627
▁begynnelsen	-10.7627
kommandant	-10.7627
ifikasjon	-10.7628
▁sosialdemokrat	-10.7629
▁diagnose	-10.763
▁risiko	-10.763
▁igjennom	-10.763
▁debatt	-10.7631
▁1902	-10.7632
kobling	-10.7632
▁1944	-10.7634
vilkår	-10.7635
▁organisere	-10.7635
▁dream	-10.7639
▁riktig	-10.7642
▁know	-10.7646
▁bedriften	-10.7649
▁massa	-10.7654
▁flykte	-10.766
artikkel	-10.7663
klipp	-10.7669
▁hvile	-10.7669
▁europe	-10.7677
brakte	-10.7696
▁hjemmeside	-10.7702
▁komplekse	-10.7702
▁etnisk	-10.7747
▁lamb	-10.7784
fasade	-10.7791
▁otta	-10.7796
drevne	-10.7827
kså	-10.7829
▁sendt	-10.7834
▁bulgaria	-10.7865
▁hviterussisk	-10.7865
▁microsoft	-10.7865
▁kongedømmet	-10.7865
▁gustaf	-10.7865
▁alexandr	-10.7865
▁haakon	-10.7865
▁innskriften	-10.7866
▁presentert	-10.7866
▁etterkommer	-10.7866
▁prinsesse	-10.7867
komité	-10.7867
▁akutt	-10.7867
mouth	-10.7867
▁massiv	-10.7869
▁arbeiderpartiet	-10.7869
jevitsj	-10.7869
▁litterær	-10.787
▁stryk	-10.787
▁1933	-10.787
▁1923	-10.7871
▁1925	-10.7871
karriere	-10.7871
▁enzym	-10.7871
▁1937	-10.7872
▁trenger	-10.7872
▁nkp	-10.7874
underholdning	-10.7875
▁serbia	-10.7878
▁studere	-10.7898
betaling	-10.7901
▁søyle	-10.7903
sentrum	-10.7907
▁salgs	-10.7912
grunnlaget	-10.793
▁glatt	-10.7934
▁virkelig	-10.7939
døde	-10.8032
▁konstant	-10.806
▁brent	-10.8089
▁mediebedriften	-10.8109
▁portugisisk	-10.8109
▁rudolf	-10.8109
▁natrium	-10.8109
▁taylor	-10.8109
▁texas	-10.8109
▁søndre	-10.8109
mønstre	-10.8109
▁dollar	-10.8109
▁rumensk	-10.8109
▁brødrene	-10.811
▁micro	-10.8112
▁historikeren	-10.8115
▁francesc	-10.8118
liknende	-10.8119
▁bernard	-10.812
▁forbruker	-10.8134
▁volks	-10.8136
▁teorien	-10.8141
▁frakte	-10.8143
kirche	-10.817
sjtsj	-10.8187
knapp	-10.8219
▁variert	-10.8221
ović	-10.824
▁kjeve	-10.8251
▁nettside	-10.8254
gruppa	-10.8284
▁betale	-10.8323
▁norwegian	-10.8359
▁aleksandr	-10.8359
▁nacional	-10.8359
▁tsjekkisk	-10.8359
▁ferskvann	-10.8359
▁umiddelbar	-10.8359
▁utslipp	-10.8359
▁oppretthold	-10.8359
▁gælisk	-10.8359
▁antarktis	-10.8359
▁opptrådt	-10.8359
▁sophie	-10.8359
▁rogaland	-10.8359
▁bystatus	-10.8359
▁fantasi	-10.8361
▁temple	-10.8361
▁advent	-10.8362
▁mengder	-10.8365
▁1917	-10.8366
▁style	-10.8368
▁hydrogen	-10.8369
▁betong	-10.8369
▁bedrifter	-10.837
ribbe	-10.8371
▁stråle	-10.8373
sentral	-10.8375
sykdom	-10.8376
▁gamma	-10.838
syssel	-10.839
▁ove	-10.8401
▁invest	-10.846
▁kä	-10.8484
▁nasa	-10.8534
▁løfte	-10.8538
vokst	-10.857
▁administrerend	-10.8587
▁flåte	-10.8591
▁solgt	-10.86
▁færøysk	-10.8615
▁münchen	-10.8615
▁sykepleie	-10.8615
▁arrangør	-10.8615
▁keramikk	-10.8615
▁pattedyr	-10.8615
▁railway	-10.8615
▁oppdatert	-10.8615
▁fjeld	-10.8615
▁support	-10.8615
▁mesteparten	-10.8615
▁trompet	-10.8615
symmetri	-10.8616
▁bernhard	-10.8616
▁dominert	-10.8617
▁misjons	-10.8618
▁trasé	-10.862
▁beholdt	-10.862
▁kritisk	-10.8622
▁western	-10.8622
▁clark	-10.8623
▁gratis	-10.8626
▁østfold	-10.8626
▁utgivelsen	-10.8634
▁rytme	-10.8635
hytta	-10.8642
bunn	-10.865
monopol	-10.865
foretak	-10.8651
vík	-10.8659
▁variasjon	-10.8662
gjest	-10.8668
▁etappe	-10.8677
fellesskap	-10.8747
▁styremedlem	-10.8798
▁elektrisitet	-10.8878
▁aluminium	-10.8878
▁barcelona	-10.8878
▁embeds	-10.8878
▁giuseppe	-10.8878
▁kromosom	-10.8878
▁mountain	-10.8878
▁petroleum	-10.8878
▁renessanse	-10.8878
▁svalbard	-10.8878
▁washington	-10.8878
▁1907	-10.8878
▁douglas	-10.8878
▁favoritt	-10.8878
▁göteborg	-10.8878
▁molekyl	-10.8878
▁respekt	-10.8878
▁foretrekker	-10.8878
▁vietnamesisk	-10.8878
ensemble	-10.8879
▁nelson	-10.8879
▁komplett	-10.8879
▁hjelm	-10.8879
fundament	-10.8879
▁originaltittel	-10.8879
materiell	-10.8879
▁taiwan	-10.888
▁two	-10.888
▁zhao	-10.888
▁cecil	-10.8882
▁charlie	-10.8882
mekanisme	-10.8882
▁sørensen	-10.8883
▁gulbrun	-10.8883
▁tørke	-10.8884
▁1921	-10.8885
gjenstander	-10.8885
▁oberst	-10.8886
reservat	-10.8887
▁moore	-10.8887
gjald	-10.8891
▁fortellingen	-10.8898
▁nederst	-10.8898
▁oppnådd	-10.8905
flåten	-10.8906
skrekk	-10.8911
seminar	-10.8914
åpning	-10.893
gjel	-10.894
▁sovjet	-10.9026
orientert	-10.9032
▁omkom	-10.9092
▁utkom	-10.9105
▁oppnå	-10.9143
helikopter	-10.9148
psykiatri	-10.9148
▁substantiv	-10.9148
▁oppmerksomhet	-10.9148
▁rekrutt	-10.9148
▁tianjin	-10.9148
saksofon	-10.9149
▁kristoffer	-10.9149
▁nøyaktig	-10.9149
▁county	-10.9149
beseiret	-10.9149
▁hybrid	-10.9149
▁kommentar	-10.9149
▁walisisk	-10.9149
▁guinea	-10.915
innehaver	-10.9151
▁grevskapet	-10.9151
▁control	-10.9151
ópolis	-10.9152
▁kråk	-10.9152
▁underveis	-10.9153
▁avgjørelse	-10.9154
▁1915	-10.9157
▁bispe	-10.9161
▁administrere	-10.9178
litteratur	-10.918
asiatisk	-10.9182
finansiert	-10.9183
▁innerst	-10.9208
katedralen	-10.9243
▁blanc	-10.9306
streik	-10.9329
▁fortsette	-10.933
▁doktor	-10.9426
▁network	-10.9426
▁benjamin	-10.9426
klassiker	-10.9426
▁miguel	-10.9426
▁overlevde	-10.9426
▁project	-10.9426
▁referanse	-10.9426
leverandør	-10.9427
kompetanse	-10.9427
sammenslåing	-10.9427
▁selvmord	-10.9427
▁skrivemåte	-10.9427
▁ntnu	-10.9427
▁ordinær	-10.9427
▁visepresident	-10.9428
▁arnold	-10.9429
▁brøt	-10.9429
▁patriark	-10.9429
▁føderal	-10.9429
▁gerhard	-10.9429
bird	-10.9429
▁elleve	-10.943
▁optim	-10.943
▁tvangs	-10.9431
▁ragnar	-10.9432
▁alpene	-10.9436
▁poesi	-10.9436
▁smelte	-10.944
▁krypt	-10.946
klub	-10.9462
bispedømme	-10.9465
divisjon	-10.9466
utenriksminister	-10.9476
ова	-10.9621
sypress	-10.9635
▁omfatte	-10.97
▁development	-10.9712
▁midlertidig	-10.9712
▁tusenårssted	-10.9712
▁hjalmar	-10.9712
▁infanteri	-10.9712
▁orchestra	-10.9712
▁skjult	-10.9712
▁wergeland	-10.9712
▁seremoni	-10.9712
▁kroatia	-10.9712
▁anmelder	-10.9712
▁gjennomsnittlig	-10.9712
▁permanent	-10.9712
konsulent	-10.9712
▁tyrkia	-10.9712
▁claudi	-10.9712
▁flyktning	-10.9712
▁regulert	-10.9712
▁ingrid	-10.9712
▁kommersiell	-10.9712
▁brasiliansk	-10.9713
spesifikk	-10.9713
▁hvem	-10.9713
▁regelmessig	-10.9713
▁prosessor	-10.9713
▁nektet	-10.9714
▁skøyte	-10.9715
▁fungert	-10.972
▁yizh	-10.9722
▁skjøt	-10.9723
dolph	-10.9725
flyvning	-10.9757
størrelse	-10.976
europeisk	-10.976
▁bakkropp	-10.9773
▁slange	-10.9815
ucci	-10.9882
basseng	-10.9894
økning	-11.0004
▁anerkjenne	-11.0006
▁angelsaksisk	-11.0006
▁eksemplar	-11.0006
▁françois	-11.0006
▁jomfru	-11.0006
▁krydder	-11.0006
▁løytnant	-11.0006
▁salvador	-11.0006
▁1904	-11.0006
▁piauí	-11.0006
▁pseudonym	-11.0006
▁division	-11.0006
▁opphørte	-11.0006
▁høyhastighets	-11.0006
▁radikal	-11.0006
▁special	-11.0006
▁alminnelig	-11.0007
▁nabokommunen	-11.0007
▁prince	-11.0007
▁konsesjon	-11.0007
▁kalsium	-11.0007
▁detroit	-11.0007
▁delstats	-11.0007
▁apollo	-11.0008
planlegging	-11.0008
▁lewis	-11.0008
▁søvn	-11.0008
▁nymfe	-11.0009
▁slakt	-11.0009
▁tibet	-11.001
▁hvete	-11.0015
▁keltisk	-11.0025
▁ytelse	-11.0029
slavisk	-11.0037
▁undergrunns	-11.0039
president	-11.0062
▁moderat	-11.0068
ferdig	-11.0094
fløyte	-11.0102
▁luxembourg	-11.0309
▁prestegjeld	-11.0309
▁tilknytning	-11.0309
▁business	-11.0309
▁vurdering	-11.0309
reservoar	-11.0309
▁konstruert	-11.0309
▁operativsystem	-11.0309
▁shandong	-11.0309
▁nobelpris	-11.0309
▁oxford	-11.0309
▁colombia	-11.0309
▁differen	-11.0309
▁haugesund	-11.0309
leksikon	-11.0309
▁individuell	-11.0309
▁claude	-11.0309
▁innkjøp	-11.0309
▁mozart	-11.031
▁brothers	-11.031
▁sandefjord	-11.031
ский	-11.031
▁spirit	-11.031
▁fernand	-11.031
▁bmw	-11.0311
▁christensen	-11.0311
▁uefa	-11.0312
▁fylkeskommune	-11.0312
▁ørken	-11.0312
▁faktisk	-11.0312
kirurgi	-11.0312
▁missil	-11.0312
▁tempo	-11.0315
▁søsken	-11.0315
▁andorra	-11.0318
vytsj	-11.0322
vennlig	-11.0332
embete	-11.0344
▁bøye	-11.0366
▁omdanne	-11.0371
regjering	-11.0375
advokat	-11.0375
papir	-11.0376
universitetet	-11.0377
prøve	-11.0382
kvinne	-11.0519
måke	-11.0563
▁utforske	-11.0601
▁ideologi	-11.0609
▁pseudo	-11.0622
▁oksygen	-11.0622
distribusjon	-11.0622
▁aftenposten	-11.0622
▁basketball	-11.0622
▁bryllup	-11.0622
▁cerambyc	-11.0622
▁football	-11.0622
▁hongkong	-11.0622
▁indonesia	-11.0622
▁inskripsjon	-11.0622
▁jerusalem	-11.0622
▁jesuittordenen	-11.0622
▁jurisdiksjon	-11.0622
▁ortodoks	-11.0622
▁absolut	-11.0622
▁koalisjon	-11.0622
▁ragnhild	-11.0622
▁1903	-11.0622
▁intervju	-11.0622
▁management	-11.0622
▁portugal	-11.0622
▁elefant	-11.0622
▁signatur	-11.0622
▁fjellkjeden	-11.0622
skjelettet	-11.0622
statistikk	-11.0623
▁monroe	-11.0624
klorid	-11.0624
▁marianne	-11.0625
▁forgjenger	-11.0625
▁oppfølger	-11.0625
▁opplevd	-11.0627
▁erfaring	-11.0629
▁romsdal	-11.0631
▁anklage	-11.0631
ekspress	-11.0635
▁xiao	-11.0641
leigh	-11.0641
▁parodi	-11.0654
satsen	-11.0656
skjegg	-11.0687
temperatur	-11.0693
tradisjon	-11.0698
flagg	-11.0708
lokale	-11.0749
craft	-11.0775
metoden	-11.085
krabbe	-11.0858
hockey	-11.0938
▁kronprins	-11.0944
▁puppeperioden	-11.0944
▁toppnivådomene	-11.0944
▁vampyr	-11.0944
flokkurin	-11.0944
▁selvbiografi	-11.0944
▁uttrykt	-11.0944
territorie	-11.0944
▁modifisert	-11.0944
▁bachelor	-11.0944
▁guangdong	-11.0944
▁teoretisk	-11.0944
▁democra	-11.0944
▁mongolia	-11.0944
▁brenselstypen	-11.0944
▁baptist	-11.0944
▁konsernet	-11.0944
▁sylinder	-11.0944
▁testament	-11.0944
▁könig	-11.0944
▁unesco	-11.0945
▁jamaica	-11.0945
▁utnevne	-11.0945
älven	-11.0945
▁kombinere	-11.0945
▁konkurs	-11.0945
▁ronald	-11.0945
▁hippo	-11.0945
▁kjenner	-11.0946
▁trombo	-11.0946
▁sannhet	-11.0947
▁fangst	-11.0947
kostnaden	-11.0951
▁slippe	-11.0954
▁hawk	-11.0957
▁vassdrag	-11.0961
▁størst	-11.0993
▁isaac	-11.1001
▁sørsid	-11.1003
biskop	-11.1033
sammensetning	-11.1061
▁bevege	-11.1262
emskrittspartiet	-11.1278
▁argentina	-11.1278
▁entertainment	-11.1278
▁fakultet	-11.1278
▁generalmajor	-11.1278
▁helsingfors	-11.1278
▁leipzig	-11.1278
▁magazine	-11.1278
▁tsjekkia	-11.1278
▁bladbiller	-11.1278
▁evolusjon	-11.1278
▁kjernekraftverk	-11.1278
▁kvalifisert	-11.1278
▁matematikk	-11.1278
▁musikkvideo	-11.1278
ć	-11.7463
ǎ	-13.0061
