<unk>	0
<s>	0
</s>	0
.	-3.23192
s	-3.49956
e	-3.5714
▁i	-3.74575
▁	-3.86955
▁og	-3.97321
t	-4.10652
er	-4.11386
en	-4.17564
▁av	-4.49595
▁er	-4.58446
r	-4.69211
▁en	-4.71361
▁som	-4.78465
▁for	-4.85017
▁til	-4.88689
n	-4.88708
et	-4.96571
▁på	-4.97773
▁med	-5.06176
a	-5.2074
▁den	-5.2083
▁ble	-5.31311
▁var	-5.33286
▁de	-5.36954
▁det	-5.41568
▁fra	-5.50001
ene	-5.6248
▁har	-5.63552
▁et	-5.64764
▁han	-5.70761
i	-5.72735
▁å	-5.73491
d	-5.77432
k	-5.78742
ne	-5.80837
y	-5.83652
o	-5.91992
g	-6.01706
▁ved	-6.03801
te	-6.07486
▁at	-6.12747
▁også	-6.16895
m	-6.20503
▁om	-6.25658
▁ut	-6.26006
l	-6.27548
de	-6.31768
▁etter	-6.31921
f	-6.35091
re	-6.36132
▁under	-6.38005
▁eller	-6.40591
p	-6.44366
▁kan	-6.48622
▁over	-6.51376
▁to	-6.52581
▁opp	-6.53717
c	-6.56735
▁men	-6.57447
in	-6.57661
▁inn	-6.57906
▁a	-6.58269
us	-6.59966
▁be	-6.60578
u	-6.60677
▁18	-6.60905
es	-6.61556
▁s	-6.61726
v	-6.63469
▁da	-6.65103
▁seg	-6.68982
ing	-6.6916
h	-6.6995
b	-6.71408
al	-6.71843
an	-6.7293
le	-6.738
ter	-6.7506
▁hadde	-6.76003
▁andre	-6.80665
is	-6.80956
▁sin	-6.84535
on	-6.85543
sk	-6.87237
▁ikke	-6.8747
z	-6.89283
▁f	-6.89395
na	-6.89621
▁mot	-6.907
▁mellom	-6.91876
▁født	-6.92555
▁the	-6.92911
ar	-6.93284
ri	-6.96316
▁ha	-6.97119
ende	-6.99428
▁1	-6.99891
▁u	-7.0059
▁dette	-7.03126
▁hans	-7.03828
ia	-7.04036
ch	-7.06639
sen	-7.07151
▁tre	-7.08716
▁første	-7.09698
▁sammen	-7.097
▁m	-7.10035
or	-7.10923
ta	-7.12309
▁hun	-7.12497
▁la	-7.13112
for	-7.13418
▁ligger	-7.13763
▁blant	-7.14305
la	-7.14472
w	-7.15796
▁c	-7.18094
ning	-7.18765
ke	-7.18851
ens	-7.19657
▁k	-7.21076
▁man	-7.23057
ver	-7.23986
el	-7.24277
▁flere	-7.24322
▁fikk	-7.24402
ra	-7.24697
▁re	-7.24756
land	-7.25119
um	-7.25891
▁se	-7.26156
▁nord	-7.26297
ur	-7.27027
▁d	-7.27055
lig	-7.2718
▁17	-7.27209
ck	-7.27331
ør	-7.27512
der	-7.28837
da	-7.28907
▁ca	-7.29768
▁denne	-7.29801
▁gjennom	-7.30548
ma	-7.30603
▁p	-7.30605
▁der	-7.31387
▁an	-7.3278
j	-7.33352
▁al	-7.33365
vis	-7.33732
▁h	-7.34111
nde	-7.34583
id	-7.34608
lo	-7.34838
▁2	-7.3535
il	-7.36671
iske	-7.38044
▁her	-7.38117
▁b	-7.38124
▁alle	-7.3959
isk	-7.39764
ol	-7.39947
tt	-7.4003
▁of	-7.40511
nes	-7.41919
▁år	-7.42091
ut	-7.43301
os	-7.43415
▁bo	-7.43468
▁kom	-7.43698
ro	-7.44852
be	-7.44889
at	-7.45275
ske	-7.45521
x	-7.45687
ig	-7.46483
ner	-7.46705
di	-7.48229
▁stor	-7.48335
ng	-7.48834
it	-7.49013
li	-7.49397
ad	-7.49579
as	-7.49743
é	-7.49821
▁død	-7.49821
▁blir	-7.50073
▁16	-7.50129
den	-7.50248
▁st	-7.50331
▁g	-7.50637
▁kr	-7.50738
▁før	-7.51204
▁hvor	-7.5125
ger	-7.51935
ga	-7.51965
son	-7.52155
▁tidligere	-7.5304
ul	-7.5307
ler	-7.53118
to	-7.53323
▁så	-7.53399
▁3	-7.53713
▁annet	-7.55465
ell	-7.55518
▁ny	-7.55932
▁vi	-7.5641
▁norsk	-7.56581
▁del	-7.56988
▁kommune	-7.5719
▁n	-7.57697
dal	-7.58011
ve	-7.58116
ge	-7.58339
øy	-7.58623
ka	-7.6048
het	-7.60652
▁mange	-7.60764
ha	-7.6106
▁sør	-7.61181
▁ro	-7.61295
ton	-7.61861
▁le	-7.6213
ff	-7.62558
var	-7.63132
▁l	-7.63216
▁byen	-7.63313
▁li	-7.63392
▁senere	-7.6352
stad	-7.63659
▁sa	-7.63671
▁kon	-7.63952
pp	-7.64737
▁t	-7.6512
▁hoved	-7.65532
th	-7.65769
▁mer	-7.65887
▁sitt	-7.66241
▁4	-7.66977
▁ra	-7.67298
▁disse	-7.6768
ø	-7.68321
▁15	-7.68582
▁he	-7.68749
man	-7.68872
▁5	-7.68912
vi	-7.69423
å	-7.69791
▁noen	-7.69855
▁ba	-7.70314
▁by	-7.70784
▁ti	-7.71694
▁være	-7.71779
▁ga	-7.71931
ment	-7.72257
▁di	-7.72929
ist	-7.74322
om	-7.74391
ja	-7.74815
▁co	-7.75897
▁kjent	-7.76086
kt	-7.76151
▁si	-7.76475
mi	-7.7671
bo	-7.76788
ker	-7.76888
ste	-7.76943
▁innen	-7.77123
▁vest	-7.77288
ba	-7.77643
▁siden	-7.77669
▁mar	-7.7826
me	-7.78264
▁mens	-7.78411
am	-7.7858
▁j	-7.78608
▁store	-7.79084
ä	-7.79402
▁ned	-7.79467
▁frem	-7.80327
kk	-7.80574
▁selv	-7.80812
▁du	-7.81072
▁10	-7.81374
ko	-7.82003
erte	-7.82552
▁land	-7.83055
▁per	-7.83082
ö	-7.83336
gi	-7.83606
mp	-7.83997
▁rundt	-7.84063
▁ar	-7.84131
▁ni	-7.84484
berg	-7.84597
▁v	-7.84922
ær	-7.85028
mann	-7.85166
▁w	-7.85255
▁bu	-7.85508
ry	-7.85517
▁na	-7.85822
co	-7.8584
lige	-7.8612
▁lo	-7.86157
▁kalt	-7.86279
▁navnet	-7.86282
▁grunn	-7.8635
▁vil	-7.86481
▁går	-7.86637
skap	-7.86679
▁ofte	-7.86864
▁pa	-7.86909
ling	-7.87086
si	-7.8709
▁samt	-7.87496
▁nå	-7.88005
ti	-7.88214
▁6	-7.88228
▁øst	-7.88306
je	-7.88517
bi	-7.88532
va	-7.88563
ion	-7.88668
▁ta	-7.88799
▁sine	-7.89257
▁tallet	-7.89384
▁dag	-7.89597
gen	-7.8979
▁ol	-7.90139
mo	-7.90409
▁and	-7.90453
iv	-7.91026
▁8	-7.91106
im	-7.91468
▁mest	-7.91569
ik	-7.91816
▁finnes	-7.91873
▁samme	-7.91975
▁sk	-7.92076
▁mi	-7.92681
▁ham	-7.92756
▁vært	-7.93136
by	-7.938
opp	-7.9409
mer	-7.94312
else	-7.94508
▁7	-7.94686
▁12	-7.95544
sh	-7.9558
▁skal	-7.95641
vik	-7.95641
▁norge	-7.95849
▁mai	-7.95989
▁navn	-7.96645
▁no	-7.96873
▁både	-7.9712
ang	-7.97317
▁ka	-7.97353
▁ma	-7.97425
erne	-7.97913
▁sp	-7.98176
▁as	-7.9819
▁fly	-7.98222
ce	-7.98558
▁ho	-7.98583
▁lag	-7.98771
▁o	-7.99189
▁el	-7.99539
pe	-7.99641
▁far	-8.00066
ca	-8.00201
ir	-8.00236
▁nye	-8.00296
▁hos	-8.00803
▁in	-8.00867
▁su	-8.01001
▁enn	-8.01237
▁km	-8.01614
▁fire	-8.01663
▁tid	-8.01815
ven	-8.02175
▁ri	-8.02267
▁fri	-8.02551
bu	-8.02742
▁y	-8.02798
go	-8.0311
▁pi	-8.03174
blitt	-8.03263
av	-8.03632
▁norske	-8.03691
asjon	-8.04116
▁14	-8.04463
po	-8.04616
▁mor	-8.05203
▁største	-8.05242
▁mars	-8.05489
▁august	-8.05521
ster	-8.05602
▁13	-8.06294
▁kirke	-8.06331
rett	-8.06459
á	-8.0665
op	-8.06659
▁gikk	-8.06708
ft	-8.06757
pi	-8.07086
▁9	-8.07149
▁kunne	-8.07362
▁fram	-8.0757
ru	-8.07793
▁mål	-8.08435
nd	-8.08579
tor	-8.08758
ard	-8.09204
▁pro	-8.09376
▁mo	-8.09425
sel	-8.10033
▁so	-8.10145
▁bak	-8.1034
▁go	-8.10379
▁r	-8.10798
▁når	-8.11025
▁oslo	-8.11331
▁do	-8.11347
ic	-8.11442
▁film	-8.11598
▁11	-8.12142
▁ei	-8.12377
ns	-8.12454
min	-8.12466
▁gu	-8.12485
▁bare	-8.12538
▁skulle	-8.12606
▁hver	-8.1277
▁noe	-8.1305
▁ko	-8.13071
ant	-8.13113
▁slik	-8.13472
▁vant	-8.14784
3	-8.14864
ag	-8.14882
▁juli	-8.14978
▁te	-8.1498
do	-8.1514
▁bar	-8.15269
ering	-8.15555
▁bi	-8.15592
les	-8.1616
gu	-8.16289
▁vann	-8.16357
au	-8.16514
▁tok	-8.16521
kke	-8.16625
ok	-8.17121
sta	-8.17251
▁hele	-8.17302
ings	-8.17676
ed	-8.18327
▁hu	-8.18878
sjon	-8.19225
▁sønn	-8.19297
ans	-8.19309
▁engelsk	-8.1942
▁januar	-8.19616
æ	-8.19735
gang	-8.19932
ie	-8.20418
▁gi	-8.20534
ring	-8.20664
▁musikk	-8.20863
ü	-8.21242
▁ab	-8.22158
▁består	-8.22284
▁sol	-8.22299
▁fi	-8.22517
io	-8.22529
lin	-8.22771
▁sam	-8.23014
ni	-8.23212
00	-8.2355
▁me	-8.23737
▁ru	-8.23757
gg	-8.24055
▁sch	-8.24076
▁området	-8.24124
▁siste	-8.24241
pa	-8.24566
▁tor	-8.24815
▁meter	-8.25177
▁dem	-8.25325
▁or	-8.25376
▁gang	-8.25446
▁tilbake	-8.26077
▁po	-8.26165
ina	-8.26252
tal	-8.26265
2	-8.26521
▁nær	-8.26811
ede	-8.269
bar	-8.27269
1	-8.27365
▁lang	-8.2757
▁kong	-8.27572
▁pe	-8.2773
und	-8.27743
▁kultur	-8.28048
▁juni	-8.28165
vin	-8.28355
▁skole	-8.28434
hu	-8.2845
▁ja	-8.28461
▁wa	-8.28486
▁videre	-8.28717
dag	-8.28862
▁utgitt	-8.28995
ov	-8.29071
▁con	-8.29093
ly	-8.29116
tak	-8.29178
▁små	-8.29231
mm	-8.29576
over	-8.29595
siden	-8.2984
del	-8.29845
elle	-8.2987
▁jo	-8.29954
ningen	-8.30064
▁vanlig	-8.30086
ud	-8.30297
▁kunst	-8.3053
▁20	-8.30581
▁bli	-8.3076
▁spilte	-8.30995
ier	-8.31423
tre	-8.31502
hold	-8.31595
år	-8.31973
per	-8.32371
▁ne	-8.32471
lag	-8.32999
▁deres	-8.33045
▁lever	-8.33083
▁lu	-8.33323
▁like	-8.33587
stand	-8.34085
▁kinesisk	-8.34114
ber	-8.34192
tter	-8.34315
▁høy	-8.34335
▁tra	-8.34528
▁john	-8.34796
▁langs	-8.34847
ingen	-8.34894
ci	-8.35353
▁bra	-8.35455
ian	-8.35497
hus	-8.35601
▁form	-8.35681
▁tv	-8.35691
ho	-8.35833
sted	-8.36042
▁rekke	-8.36257
tra	-8.36408
▁tillegg	-8.36584
ks	-8.36602
▁new	-8.36687
▁eksempel	-8.36744
▁fa	-8.36845
no	-8.36917
ny	-8.37138
tiske	-8.37177
▁leder	-8.37262
ium	-8.37498
ord	-8.37502
ot	-8.3763
ren	-8.37899
▁am	-8.37954
▁russisk	-8.3808
▁tri	-8.38091
▁usa	-8.38256
▁kun	-8.38283
▁spiller	-8.38349
▁hel	-8.38381
▁desember	-8.38435
▁oktober	-8.38435
▁san	-8.38551
▁brukes	-8.38803
▁0	-8.38858
dd	-8.391
▁kalles	-8.39231
▁februar	-8.39414
len	-8.39415
od	-8.3945
▁april	-8.39661
▁fem	-8.39817
▁laget	-8.4015
▁rett	-8.40316
▁2008	-8.4041
▁tro	-8.40727
he	-8.40793
▁gift	-8.40832
▁september	-8.40901
▁2010	-8.4116
í	-8.41346
▁pre	-8.4135
▁pr	-8.41413
følge	-8.41413
▁va	-8.41717
▁kommer	-8.41866
▁folke	-8.42064
nder	-8.42624
ksjon	-8.42863
▁ju	-8.43179
sj	-8.43394
▁30	-8.43655
▁ad	-8.43656
ow	-8.43681
▁språk	-8.44213
itt	-8.44395
▁november	-8.44459
dre	-8.44519
▁000	-8.44525
un	-8.44582
▁gruppen	-8.44717
ong	-8.44899
▁ge	-8.45
ll	-8.45195
▁først	-8.45312
▁mindre	-8.45521
▁skrev	-8.45549
stre	-8.45685
satt	-8.4594
▁gjen	-8.46127
▁ulike	-8.4623
▁skrevet	-8.46271
▁x	-8.4629
jø	-8.46964
mb	-8.47081
ku	-8.47199
stein	-8.47254
lu	-8.47469
▁2007	-8.47634
▁parti	-8.47686
ine	-8.4783
▁hennes	-8.48116
ak	-8.48205
▁ch	-8.48391
▁startet	-8.48439
midlertid	-8.4869
▁mat	-8.48718
tur	-8.48748
▁ki	-8.48808
▁gir	-8.48953
▁barn	-8.48955
▁landet	-8.49061
yl	-8.49074
▁ski	-8.49251
ller	-8.49359
▁pu	-8.49412
▁ed	-8.49623
▁je	-8.49841
▁val	-8.50083
ron	-8.50214
▁uten	-8.50415
inn	-8.50758
▁kjente	-8.50792
lse	-8.50802
sch	-8.50831
▁egen	-8.50853
▁bl	-8.51197
kker	-8.51217
kon	-8.51347
▁2009	-8.51427
▁wi	-8.51435
ran	-8.51579
▁alt	-8.51581
ius	-8.51616
slag	-8.5179
▁må	-8.51815
▁all	-8.51904
▁begge	-8.52001
8	-8.52011
▁få	-8.52106
▁par	-8.52107
▁eks	-8.52228
ting	-8.52411
tro	-8.52434
▁plan	-8.5258
▁kina	-8.52627
▁halv	-8.52659
▁begynte	-8.5282
ken	-8.53079
▁igjen	-8.53107
ac	-8.5311
men	-8.53146
ty	-8.5329
▁kl	-8.53315
▁sjø	-8.53426
▁fjell	-8.53444
mon	-8.53528
▁provinsen	-8.53747
ki	-8.53963
▁min	-8.54126
vo	-8.54503
▁verdens	-8.54716
hi	-8.54762
▁opprinnelig	-8.54809
▁derfor	-8.54826
▁bruk	-8.54918
▁art	-8.54953
ou	-8.55025
▁gamle	-8.55097
▁em	-8.5516
▁helt	-8.55484
▁ste	-8.55784
fa	-8.55815
▁særlig	-8.55989
▁2006	-8.56266
ation	-8.5631
▁norges	-8.56388
▁vei	-8.56483
jer	-8.56628
▁th	-8.56635
▁syn	-8.56702
▁vel	-8.56809
ab	-8.57182
▁fast	-8.57264
▁2005	-8.57436
ologi	-8.57532
mel	-8.57604
▁kar	-8.57642
tar	-8.5766
mor	-8.57759
▁nasjonal	-8.57768
itet	-8.57776
▁hus	-8.5781
▁gjorde	-8.57872
jo	-8.57941
▁bro	-8.57954
▁kort	-8.58097
isme	-8.58254
▁lys	-8.58351
▁bil	-8.58495
bb	-8.58559
ley	-8.58645
▁lå	-8.58674
dalen	-8.58716
▁tysk	-8.58821
▁my	-8.58845
verk	-8.5885
▁døde	-8.58903
▁deretter	-8.5893
▁sand	-8.58957
▁bok	-8.58964
▁rom	-8.59188
sson	-8.5924
▁seks	-8.59369
▁president	-8.59542
em	-8.59942
▁beste	-8.60151
▁god	-8.60153
rå	-8.6031
tid	-8.60456
ble	-8.60481
▁car	-8.60598
▁større	-8.60661
▁fu	-8.60712
▁filmen	-8.60778
▁fo	-8.60813
svært	-8.61142
rø	-8.61561
lev	-8.61972
▁amerikansk	-8.62281
▁året	-8.62647
du	-8.62772
sp	-8.62773
kom	-8.62905
kte	-8.63054
▁bandet	-8.63116
ige	-8.63148
and	-8.63185
▁samtidig	-8.63497
ung	-8.63554
let	-8.63988
dig	-8.64014
▁bru	-8.64035
▁stein	-8.64194
borg	-8.64444
▁stat	-8.64466
tisk	-8.64543
▁kn	-8.6461
▁bre	-8.64949
til	-8.65104
ham	-8.65174
mål	-8.6522
yn	-8.65435
▁kor	-8.65506
ære	-8.65574
my	-8.65628
ald	-8.65709
mar	-8.65778
▁sto	-8.65823
su	-8.65887
▁nest	-8.66017
▁ingen	-8.6605
▁familien	-8.66082
▁mye	-8.66144
tu	-8.66194
ator	-8.66291
▁ren	-8.66658
ya	-8.66662
za	-8.6698
ikk	-8.66999
▁øy	-8.67058
▁medlem	-8.67307
ninger	-8.67314
dom	-8.67317
▁brukt	-8.67364
▁dermed	-8.67692
▁pan	-8.67836
lands	-8.67883
form	-8.67903
sten	-8.6797
sett	-8.67971
bre	-8.68023
▁fe	-8.68032
▁europa	-8.68129
▁fag	-8.68143
ill	-8.6818
▁mann	-8.68259
▁fred	-8.68798
▁står	-8.68868
▁vin	-8.69097
▁sv	-8.69415
tan	-8.69533
▁cha	-8.69812
kar	-8.69881
▁gud	-8.69936
▁lav	-8.69967
kan	-8.70143
so	-8.70375
▁ur	-8.70403
val	-8.70474
▁ak	-8.70615
▁innbyggere	-8.70631
▁lov	-8.70762
ds	-8.70967
up	-8.71166
▁selskapet	-8.71279
bro	-8.71579
▁hen	-8.71632
øya	-8.7173
mmer	-8.72025
▁dr	-8.72124
▁ville	-8.7232
▁ord	-8.72427
▁nor	-8.7245
▁hal	-8.72511
▁måtte	-8.72677
▁van	-8.73085
▁ver	-8.73173
▁person	-8.7318
▁kal	-8.73207
▁lokal	-8.73275
ski	-8.73292
▁ganger	-8.73391
▁årene	-8.73401
ris	-8.73429
▁25	-8.73445
elig	-8.73614
▁2002	-8.73723
▁gjerne	-8.73728
▁ku	-8.73787
▁bygget	-8.73861
▁tur	-8.73964
▁22	-8.74089
▁basert	-8.74109
nk	-8.74153
far	-8.74214
tikk	-8.74266
bil	-8.74362
▁on	-8.74401
burg	-8.74425
▁sommer	-8.74552
▁litt	-8.74575
▁sett	-8.74665
▁tiden	-8.74717
▁gresk	-8.74721
▁2011	-8.74756
▁vise	-8.74893
tz	-8.75134
heim	-8.75174
▁liv	-8.75669
▁arbeidet	-8.75716
elt	-8.75745
skole	-8.75837
fe	-8.75841
▁op	-8.75855
▁tilhører	-8.75903
а	-8.75942
▁we	-8.75973
fly	-8.75994
▁gull	-8.76015
▁kommunen	-8.76025
inger	-8.7611
▁sverige	-8.7616
tiden	-8.76219
▁berg	-8.76228
ica	-8.76294
plan	-8.76347
▁mil	-8.7646
▁natur	-8.76654
gel	-8.76728
▁von	-8.76816
▁tyske	-8.76883
▁z	-8.77074
heten	-8.77471
cu	-8.77699
idae	-8.77744
▁21	-8.77748
▁gl	-8.77751
▁roman	-8.77792
▁sangen	-8.77918
syn	-8.78145
▁dikt	-8.78276
▁øya	-8.78375
▁dagen	-8.78436
▁verk	-8.78437
mat	-8.78863
jen	-8.78905
▁lange	-8.79055
▁deltok	-8.7909
▁politisk	-8.7914
net	-8.79148
ive	-8.79225
▁ag	-8.79232
veien	-8.7927
rik	-8.79284
van	-8.79319
▁paul	-8.79343
▁col	-8.79379
tin	-8.79384
ek	-8.79405
и	-8.79405
▁general	-8.79412
▁forskjellige	-8.7953
▁radio	-8.7958
▁jord	-8.79615
lot	-8.79762
▁christian	-8.79795
est	-8.79833
▁ten	-8.79844
▁bor	-8.80059
▁amerikanske	-8.80115
▁sosial	-8.80149
▁hav	-8.80157
▁au	-8.80302
▁brun	-8.80338
fi	-8.80357
heng	-8.80664
▁2004	-8.80735
▁jan	-8.80791
ai	-8.80809
▁meg	-8.8097
uk	-8.81106
▁keiser	-8.81269
ju	-8.81425
▁ty	-8.81463
▁via	-8.81507
▁bruker	-8.81618
▁19	-8.81802
▁tar	-8.81807
kel	-8.8185
▁støtte	-8.81898
familien	-8.82054
ska	-8.82104
ah	-8.82168
▁konge	-8.82286
▁24	-8.82498
vel	-8.82678
▁sal	-8.82757
▁sentral	-8.8276
spill	-8.82844
▁motor	-8.82859
ført	-8.82946
ug	-8.83061
▁ø	-8.83062
▁fransk	-8.83093
▁serien	-8.83207
bruk	-8.83207
▁kur	-8.83435
lan	-8.835
▁skog	-8.83556
▁luft	-8.83585
▁midt	-8.83755
▁forfatter	-8.84013
ps	-8.84035
bel	-8.84121
▁hol	-8.84173
▁styre	-8.84256
▁inneholder	-8.84297
han	-8.84406
▁bygd	-8.84502
elsen	-8.84506
▁spilt	-8.84573
▁cor	-8.84576
▁system	-8.84589
▁bergen	-8.84685
▁fleste	-8.84853
▁industri	-8.84945
che	-8.84959
▁mark	-8.8497
▁pinyin	-8.85071
▁orden	-8.8512
▁spesielt	-8.8585
wa	-8.85923
ding	-8.8622
▁rød	-8.86306
▁perioden	-8.86365
▁sted	-8.86381
▁fotball	-8.865
lat	-8.86714
bok	-8.86724
▁albumet	-8.86741
▁side	-8.86775
▁svensk	-8.86802
▁lands	-8.87068
▁anti	-8.87235
laget	-8.87336
stoff	-8.87357
▁viser	-8.87375
▁sc	-8.88013
6	-8.88044
handling	-8.88094
ó	-8.88221
▁betyr	-8.88229
▁os	-8.88233
dan	-8.88278
dy	-8.88296
▁utenfor	-8.88361
▁ben	-8.88363
zi	-8.88385
gre	-8.88405
▁hi	-8.88453
▁tu	-8.88472
▁28	-8.88483
▁følgende	-8.88518
▁omkring	-8.88629
rom	-8.88657
▁sy	-8.88707
▁stort	-8.88975
værende	-8.89191
spiller	-8.89195
▁bror	-8.89231
▁moh	-8.89584
par	-8.89595
▁vinter	-8.89628
ativ	-8.89653
fra	-8.89656
▁tyskland	-8.8967
▁pl	-8.8973
▁mu	-8.89769
kl	-8.89801
▁annen	-8.89909
▁grav	-8.89996
rede	-8.90063
q	-8.90135
▁mel	-8.90338
red	-8.90544
lit	-8.90566
pper	-8.90594
met	-8.90722
▁23	-8.90965
▁antall	-8.91133
▁com	-8.91259
fjorden	-8.91383
▁slutt	-8.91402
▁mulig	-8.91465
▁ev	-8.91492
art	-8.91503
▁datter	-8.91548
ves	-8.91566
▁elven	-8.91609
▁ledet	-8.91612
▁nytt	-8.91675
gård	-8.91685
dømme	-8.91722
▁prest	-8.91725
▁arbeider	-8.9179
▁london	-8.91901
▁slekt	-8.92052
▁regn	-8.92185
▁sang	-8.92276
▁gitt	-8.92317
▁fylke	-8.92335
▁chi	-8.92406
inne	-8.92538
middel	-8.92564
isert	-8.92745
mark	-8.92776
▁tidlig	-8.92788
▁mal	-8.92816
▁red	-8.9298
film	-8.93105
▁2000	-8.93217
styre	-8.93283
▁gul	-8.93306
iet	-8.93409
if	-8.93551
leder	-8.9368
▁kv	-8.93761
▁tredje	-8.93926
▁utviklet	-8.93999
▁50	-8.94032
▁spille	-8.94033
▁bred	-8.94043
skrift	-8.9405
▁dan	-8.94074
▁deler	-8.94221
▁skolen	-8.94249
dyr	-8.943
▁gammel	-8.94427
jel	-8.94439
plass	-8.94606
skog	-8.94698
▁valgt	-8.94831
bygd	-8.94991
landet	-8.95108
▁mag	-8.95637
▁inkludert	-8.95714
kken	-8.95774
vil	-8.95787
samling	-8.95808
▁grad	-8.9584
▁band	-8.95874
▁foran	-8.96028
rak	-8.96068
▁satt	-8.96232
▁rø	-8.96268
ket	-8.96295
ji	-8.96346
▁fre	-8.96349
sti	-8.96484
▁can	-8.96522
▁arbeids	-8.96556
▁lite	-8.96683
▁fant	-8.96787
og	-8.97011
▁såkalt	-8.97022
▁gr	-8.97023
▁jeg	-8.97104
ana	-8.97278
▁forhold	-8.97327
▁egne	-8.97333
▁lett	-8.97437
▁full	-8.9744
▁fordi	-8.97489
▁karl	-8.97797
▁gav	-8.97805
▁sta	-8.97871
▁omfatter	-8.97898
▁stedet	-8.97902
▁don	-8.9794
▁viktigste	-8.97945
▁arbeid	-8.97946
gh	-8.97996
▁historie	-8.98023
▁klubben	-8.98327
ice	-8.98392
▁ly	-8.98535
hø	-8.98628
▁gar	-8.98771
mal	-8.98899
▁serie	-8.98925
dring	-8.9896
50	-8.9907
▁fiske	-8.99381
▁stre	-8.99682
gar	-8.99772
▁kje	-8.99793
80	-8.99802
▁produsert	-8.99856
▁mont	-8.9992
bri	-8.99966
▁får	-9.00044
anlegg	-9.00112
vann	-9.00208
▁bri	-9.00276
eres	-9.00527
▁liten	-9.00615
▁familie	-9.00651
▁gjør	-9.00798
tes	-9.00833
▁post	-9.00849
▁gate	-9.00849
▁tom	-9.00969
▁betydning	-9.01037
dde	-9.01109
▁fin	-9.01127
▁riks	-9.0123
stilling	-9.0133
kommun	-9.01391
▁tids	-9.0152
pen	-9.01557
vet	-9.01571
▁26	-9.01635
▁eu	-9.01645
▁spor	-9.01655
leg	-9.01672
▁bill	-9.01698
▁delstaten	-9.01769
▁nett	-9.01776
ika	-9.01815
forening	-9.01842
▁ke	-9.01863
fall	-9.0188
båt	-9.01903
▁gruppe	-9.01951
▁minne	-9.02125
▁kla	-9.02129
gren	-9.02252
▁pave	-9.02255
▁ky	-9.02346
▁grunnlagt	-9.02439
ale	-9.0244
chi	-9.02462
▁moderne	-9.02602
7	-9.02685
▁sø	-9.02813
▁2001	-9.02892
▁2003	-9.02894
▁dia	-9.0301
asjonen	-9.0306
▁ek	-9.03101
ild	-9.0324
▁100	-9.03285
ini	-9.03311
som	-9.03332
▁organ	-9.03402
▁farge	-9.03424
▁plass	-9.03477
▁gran	-9.03483
ino	-9.03533
▁staten	-9.03572
ight	-9.03583
▁ser	-9.03773
▁offentlig	-9.03809
vern	-9.03918
▁kat	-9.04099
ach	-9.04168
rin	-9.04207
▁liste	-9.04227
enes	-9.04239
▁bur	-9.04244
▁stra	-9.04275
▁olympisk	-9.04278
▁kongen	-9.04367
anger	-9.04396
▁bort	-9.04628
▁hjem	-9.04634
▁én	-9.04666
løp	-9.04755
▁medlemmer	-9.04809
▁råd	-9.04833
bin	-9.04841
▁pla	-9.04917
fin	-9.05099
▁tru	-9.05174
▁hy	-9.05183
▁viktig	-9.05186
▁italiensk	-9.05224
▁russland	-9.05277
lik	-9.05288
føring	-9.05296
▁johan	-9.05303
▁energi	-9.05377
lle	-9.05458
▁rock	-9.05559
▁stats	-9.05578
▁syk	-9.05597
▁knytte	-9.05702
▁fylkesvei	-9.0571
▁les	-9.05748
anske	-9.0588
▁arm	-9.05962
▁millioner	-9.06003
skje	-9.0606
▁tak	-9.06276
▁valg	-9.06322
lene	-9.06378
▁nu	-9.06525
▁sha	-9.06532
iker	-9.06622
▁res	-9.06657
ð	-9.06659
▁2012	-9.06673
▁ter	-9.06743
▁holdt	-9.06752
▁bjørn	-9.06773
sø	-9.06793
ari	-9.06833
▁jon	-9.06836
▁gen	-9.0691
navn	-9.0692
menn	-9.06997
▁førte	-9.07075
merke	-9.07088
▁ber	-9.07112
▁arter	-9.07155
tall	-9.0717
▁ry	-9.07266
ister	-9.07308
ros	-9.0748
kle	-9.07527
▁helse	-9.07536
▁frankrike	-9.07633
kul	-9.07648
▁etablert	-9.0772
minister	-9.0774
▁gro	-9.07754
▁flo	-9.07837
▁hovedsakelig	-9.08123
kor	-9.08422
▁tildelt	-9.08426
▁sig	-9.08513
▁ex	-9.0854
▁vo	-9.08587
▁27	-9.08651
▁bank	-9.08683
▁lin	-9.08872
▁stil	-9.0892
▁internasjonale	-9.08935
▁hvit	-9.0896
▁tatt	-9.08976
▁svart	-9.08996
ola	-9.09004
unn	-9.09055
▁fjern	-9.09111
▁lyd	-9.09191
ay	-9.09206
mester	-9.09231
▁dom	-9.09236
▁fortsatt	-9.09265
▁veien	-9.09301
stat	-9.0942
istiske	-9.09681
▁eneste	-9.09692
gående	-9.09725
▁bas	-9.09738
▁rev	-9.09743
▁politiker	-9.09873
▁sen	-9.09914
▁bygge	-9.10024
▁slag	-9.10025
stan	-9.10265
så	-9.10503
▁nok	-9.10517
setning	-9.10652
we	-9.10669
▁teater	-9.10698
▁gre	-9.10836
▁tjeneste	-9.10859
port	-9.10977
ap	-9.11007
▁1996	-9.11101
▁mis	-9.11225
tegn	-9.11368
▁handels	-9.11486
▁franske	-9.11487
▁anders	-9.11568
▁hatt	-9.11584
lys	-9.11786
▁mm	-9.1179
sto	-9.11838
▁lik	-9.11911
▁barne	-9.11927
▁godt	-9.12026
stasjon	-9.12092
▁vol	-9.12152
▁af	-9.12175
fri	-9.12271
▁bal	-9.12391
▁versjon	-9.12459
senter	-9.12508
▁mø	-9.12516
▁ul	-9.1253
▁peter	-9.12588
mot	-9.126
▁william	-9.12616
▁opprettet	-9.12619
▁danmark	-9.12634
▁mon	-9.12681
ip	-9.12757
40	-9.12772
▁kirken	-9.12803
gle	-9.1292
30	-9.13094
rud	-9.13123
ial	-9.13161
king	-9.13354
side	-9.13471
▁aktiv	-9.13511
selskap	-9.13538
▁pat	-9.13562
▁ob	-9.13655
▁gra	-9.13705
ford	-9.1376
▁sh	-9.13784
▁kraft	-9.13806
▁krigs	-9.13807
olog	-9.1385
ath	-9.13854
▁fas	-9.13854
▁bør	-9.13863
▁blå	-9.13878
▁ve	-9.13905
▁syd	-9.13944
ā	-9.13986
▁dal	-9.14062
▁britiske	-9.14226
▁høyre	-9.14298
sjøen	-9.14392
ull	-9.14601
liggende	-9.14756
sund	-9.14906
øl	-9.15043
▁mester	-9.15172
▁1999	-9.15214
har	-9.15229
▁fall	-9.15229
▁ap	-9.15235
▁langt	-9.15246
▁blad	-9.15279
skapet	-9.15313
▁olav	-9.15357
▁styrke	-9.15457
bra	-9.15487
ferd	-9.15489
ansk	-9.15536
oc	-9.15636
rus	-9.15659
à	-9.15733
▁tal	-9.15753
lett	-9.15805
▁åpnet	-9.16041
▁ras	-9.16138
ano	-9.16204
hvert	-9.16367
▁india	-9.16381
isering	-9.16421
byen	-9.16429
pro	-9.16698
▁enkelte	-9.16701
▁za	-9.16722
▁folk	-9.16743
▁dessuten	-9.16794
▁sendt	-9.16849
о	-9.16914
▁sesongen	-9.16998
▁thor	-9.17015
vei	-9.17107
kant	-9.17149
▁erik	-9.17153
▁mod	-9.17238
▁fle	-9.17241
▁maria	-9.17245
hr	-9.17288
▁sil	-9.17365
sal	-9.17377
folk	-9.17434
fat	-9.17447
mannen	-9.17455
▁q	-9.17485
elser	-9.17561
▁carl	-9.17642
este	-9.17729
ater	-9.17742
råd	-9.17756
▁universitet	-9.17869
▁1990	-9.17875
▁stjerne	-9.17964
▁eier	-9.18068
▁militær	-9.18164
ismen	-9.1824
▁regi	-9.18261
▁sl	-9.18331
▁best	-9.1836
▁skuespiller	-9.18366
▁utgjør	-9.18397
folkerepublikken	-9.18407
▁1992	-9.18419
området	-9.18482
▁robert	-9.18483
istisk	-9.18525
omme	-9.18545
sjef	-9.18552
▁åtte	-9.18637
▁finner	-9.18712
gruppen	-9.18749
▁kamp	-9.18829
▁hvis	-9.18847
▁krigen	-9.18904
▁29	-9.18944
▁sj	-9.19035
fjord	-9.19125
▁sm	-9.1918
▁tekst	-9.19206
fer	-9.19231
vær	-9.19251
▁tradisjonell	-9.19317
▁port	-9.19322
▁verden	-9.19373
▁mac	-9.1942
▁menneske	-9.19462
rat	-9.1949
▁likevel	-9.19533
▁un	-9.19594
▁kvinne	-9.196
deling	-9.19627
banen	-9.19644
tjeneste	-9.19646
all	-9.19815
stri	-9.19846
▁sentrum	-9.19867
▁tittelen	-9.19892
lsen	-9.19935
▁lars	-9.19946
▁gansk	-9.19953
▁herre	-9.19993
75	-9.20008
hl	-9.20053
▁eldre	-9.20124
punkt	-9.20186
▁lær	-9.20214
xi	-9.20232
departementet	-9.20239
▁gjort	-9.20356
▁felles	-9.20527
▁jernbane	-9.20688
▁data	-9.2071
bane	-9.20725
р	-9.20835
holm	-9.20848
lie	-9.20862
▁forbindelse	-9.20869
▁christ	-9.20999
cha	-9.21018
▁mos	-9.21025
ire	-9.21077
ze	-9.21125
system	-9.21136
sis	-9.21141
▁prosent	-9.21163
▁kra	-9.21185
▁dannet	-9.21193
▁rolle	-9.21356
▁elev	-9.21446
▁time	-9.21464
▁sel	-9.21469
itz	-9.2157
mmen	-9.21644
▁makt	-9.21689
▁partiet	-9.21764
▁historisk	-9.2181
sak	-9.21958
ph	-9.22102
▁personer	-9.22182
▁gård	-9.22223
rop	-9.22258
▁direkte	-9.22276
▁standard	-9.22277
▁england	-9.22305
▁reise	-9.22309
▁svenske	-9.22344
▁forut	-9.22352
asjoner	-9.22387
grav	-9.22408
stilt	-9.22426
▁vår	-9.22518
lø	-9.22535
bygg	-9.22743
▁ac	-9.22775
▁samarbeid	-9.22829
hy	-9.22972
▁overtok	-9.22978
▁sak	-9.22985
▁økonomisk	-9.23
fag	-9.23027
lia	-9.23033
▁grev	-9.2309
lis	-9.23093
log	-9.23231
▁eget	-9.23284
ida	-9.23291
▁dra	-9.23312
▁venstre	-9.23426
▁paris	-9.23505
▁40	-9.23536
▁ordet	-9.23593
▁pop	-9.23669
án	-9.23806
året	-9.23808
▁plante	-9.23832
▁selskap	-9.23841
ú	-9.2398
▁pris	-9.24103
grad	-9.24127
▁hjelp	-9.24183
organisasjon	-9.24203
organ	-9.24244
▁lei	-9.24517
bert	-9.24557
old	-9.2475
dra	-9.24758
▁mas	-9.24784
▁gj	-9.24813
▁br	-9.24827
▁elva	-9.24898
▁kraftverk	-9.24909
▁stasjon	-9.2498
pris	-9.24995
▁samling	-9.25125
▁thomas	-9.25133
▁1994	-9.25144
▁studert	-9.25144
▁1989	-9.25144
det	-9.25215
fl	-9.25232
fest	-9.25274
▁lille	-9.25444
▁dis	-9.25577
stol	-9.25595
▁delen	-9.25742
områder	-9.25918
▁inntil	-9.25989
ix	-9.26013
▁spe	-9.26121
sky	-9.26131
kast	-9.26305
▁mus	-9.26364
20	-9.26463
▁politi	-9.26467
▁sanger	-9.26525
ara	-9.26642
▁berlin	-9.26784
skip	-9.26866
▁minst	-9.26893
▁høyeste	-9.26908
▁drift	-9.26957
▁bj	-9.26962
▁hår	-9.27025
kjempe	-9.27092
▁olje	-9.27109
▁grå	-9.27112
ving	-9.27199
fon	-9.27252
iserte	-9.27437
▁dansk	-9.27463
pet	-9.27464
▁fil	-9.2765
▁kol	-9.27772
▁pra	-9.27797
ringen	-9.27826
▁album	-9.27827
pl	-9.27873
samfunn	-9.27927
▁lokale	-9.28042
▁betydelig	-9.28074
▁tele	-9.28086
zo	-9.28097
▁trekk	-9.28147
mu	-9.28162
▁varme	-9.28287
▁hånd	-9.28307
med	-9.28325
felt	-9.28508
cc	-9.28558
▁storbritannia	-9.28673
▁1997	-9.2868
▁1998	-9.2868
▁len	-9.28758
▁latin	-9.28767
her	-9.28785
dt	-9.28786
▁enkelt	-9.28814
las	-9.28933
▁mur	-9.28995
▁flat	-9.29234
▁svarte	-9.29279
▁distrikt	-9.29451
▁ring	-9.2955
▁finsk	-9.29576
е	-9.29597
▁dy	-9.29649
▁west	-9.29761
▁ferdig	-9.29862
▁spesial	-9.29882
▁oppkalt	-9.29884
▁david	-9.29886
▁verdenskrig	-9.29945
zhou	-9.29969
våg	-9.3
▁hard	-9.30036
▁samle	-9.30041
▁johannes	-9.30048
kal	-9.30071
▁park	-9.30101
▁gal	-9.30307
▁litteratur	-9.30378
ria	-9.30478
▁inter	-9.30505
▁1980	-9.30511
▁george	-9.30559
full	-9.30606
▁tap	-9.3061
rek	-9.3077
▁hjemme	-9.30816
9	-9.30849
▁våpen	-9.30868
▁brø	-9.30869
▁you	-9.30891
▁bir	-9.30913
▁ban	-9.30914
▁sag	-9.31085
▁trans	-9.31093
▁omtrent	-9.31105
▁mennesker	-9.31184
▁henrik	-9.31261
▁uttrykk	-9.31321
70	-9.31404
lei	-9.31433
pu	-9.31527
▁60	-9.31629
▁xi	-9.3166
dige	-9.31675
▁lek	-9.31889
▁linje	-9.31974
akt	-9.32053
stil	-9.32065
▁neste	-9.32097
▁kunstner	-9.3221
4	-9.32263
▁utvikling	-9.32275
tic	-9.32293
▁italia	-9.32355
▁fredrik	-9.32376
asj	-9.32392
ologisk	-9.32516
▁wal	-9.32602
bilde	-9.32706
modell	-9.32761
▁shi	-9.32855
arbeid	-9.32889
▁søk	-9.32978
▁1970	-9.32983
stående	-9.33038
ction	-9.33072
▁super	-9.33081
▁skje	-9.33082
▁blod	-9.33088
▁ji	-9.33157
iz	-9.33206
▁skade	-9.33307
res	-9.33314
▁nordøst	-9.33373
▁design	-9.3357
▁eldste	-9.33597
don	-9.33603
▁stu	-9.33642
ark	-9.33729
navnet	-9.3374
vit	-9.33766
cy	-9.3389
ien	-9.34042
▁bø	-9.3405
trekk	-9.34137
gitt	-9.34153
huset	-9.34208
▁meste	-9.34209
▁kroppen	-9.34234
▁1993	-9.34241
tus	-9.34259
▁løpet	-9.34369
▁felt	-9.34441
brudd	-9.34488
▁gla	-9.34505
▁biskop	-9.34602
▁indre	-9.34612
▁aldri	-9.34638
forsker	-9.34765
▁wo	-9.34789
voks	-9.34845
▁viktige	-9.34857
bygging	-9.34858
mand	-9.34858
▁tilsvarende	-9.34867
▁1984	-9.34877
▁1960	-9.3488
tek	-9.34884
▁martin	-9.34976
▁sogn	-9.34982
▁mari	-9.35089
kj	-9.35207
▁topp	-9.35285
▁arkitekt	-9.35317
▁ep	-9.35424
elva	-9.35497
▁york	-9.35509
igh	-9.35577
▁sla	-9.356
▁hvordan	-9.35601
▁opera	-9.35603
▁krav	-9.35629
▁holde	-9.35641
▁angrep	-9.35659
▁mc	-9.35685
▁regionen	-9.35746
▁hall	-9.35768
65	-9.35795
42	-9.35827
▁vekt	-9.35869
▁miljø	-9.35987
è	-9.36023
▁flyttet	-9.3611
▁grønn	-9.36222
press	-9.36259
▁følger	-9.36318
▁viss	-9.36375
▁universitetet	-9.36404
område	-9.36407
▁henne	-9.36471
▁skip	-9.36532
bø	-9.36552
▁kron	-9.36616
▁brukte	-9.36621
way	-9.36638
▁regnes	-9.36656
▁ram	-9.36663
ban	-9.36713
▁rot	-9.36727
▁slekten	-9.36753
▁statsminister	-9.36819
løse	-9.3682
stra	-9.36894
ledes	-9.36909
mus	-9.37024
▁lege	-9.37045
▁motstand	-9.3709
▁funnet	-9.37119
▁venn	-9.37209
▁plate	-9.37243
▁produkt	-9.37249
▁maskin	-9.37267
▁para	-9.37298
▁trykk	-9.37379
▁boken	-9.37391
valg	-9.37438
▁egentlig	-9.37477
▁klar	-9.37575
ål	-9.37587
▁klart	-9.37607
age	-9.37634
▁natt	-9.37642
▁direktør	-9.37682
▁delt	-9.37734
tårn	-9.37744
▁egg	-9.37759
▁kors	-9.37773
▁tett	-9.37916
fisk	-9.3795
isten	-9.37965
oper	-9.3805
tok	-9.38066
▁2013	-9.38128
eier	-9.38153
▁bern	-9.38178
▁forsøk	-9.38209
lling	-9.38286
▁die	-9.38538
48	-9.38555
▁island	-9.38568
vitenskap	-9.38604
▁verdi	-9.38646
ås	-9.38653
bor	-9.38765
▁1972	-9.38787
▁transport	-9.38806
▁danske	-9.38809
▁års	-9.38881
fo	-9.38921
▁ett	-9.3899
hall	-9.39022
▁gass	-9.3913
45	-9.39188
▁gjøre	-9.39268
ub	-9.39301
get	-9.39453
havet	-9.39664
▁skjer	-9.39688
gjøre	-9.39747
▁ci	-9.39761
▁forsknings	-9.39767
▁dyre	-9.39773
▁utnevnt	-9.40114
▁university	-9.40118
trykk	-9.40125
ita	-9.40149
▁kjøpt	-9.40206
10	-9.40351
▁studie	-9.40372
▁kyst	-9.40407
▁stiftet	-9.40487
pel	-9.40504
lighet	-9.40514
▁steder	-9.40579
▁air	-9.40654
▁utgav	-9.40723
▁høsten	-9.40773
the	-9.40795
▁sommerfugl	-9.40804
▁åpning	-9.40816
▁fange	-9.40836
field	-9.40861
▁sir	-9.41003
▁fått	-9.41005
▁vis	-9.41182
▁fortsatte	-9.41273
forbund	-9.41345
▁fla	-9.41361
64	-9.41435
produksjon	-9.41439
ille	-9.41483
▁seil	-9.41518
▁retning	-9.41557
kraft	-9.41583
▁hei	-9.41605
▁kvinner	-9.41611
ins	-9.4175
formet	-9.41821
zz	-9.41846
▁31	-9.41986
▁sub	-9.41986
▁heter	-9.42084
▁dronning	-9.42161
▁delta	-9.42321
▁komme	-9.42329
▁lærer	-9.42416
ance	-9.42437
▁arten	-9.42576
retning	-9.42759
▁elv	-9.42769
▁skyld	-9.42805
▁prosess	-9.42848
▁1988	-9.42851
▁wh	-9.42889
oll	-9.43021
▁sterkt	-9.43031
86	-9.43173
39	-9.43324
▁konsert	-9.43468
temperatur	-9.4354
▁nils	-9.43591
sjoner	-9.43748
loven	-9.43863
hel	-9.43886
nor	-9.44
▁regjeringen	-9.44008
▁bad	-9.4402
▁she	-9.44065
▁fyr	-9.44078
▁slutten	-9.44092
▁gru	-9.44139
▁populær	-9.44213
▁sølv	-9.44238
▁james	-9.44246
ric	-9.4427
78	-9.44467
▁rund	-9.44554
▁komponist	-9.44558
▁hor	-9.44619
▁ark	-9.44621
85	-9.44655
▁ger	-9.44657
evne	-9.44831
▁årlig	-9.44883
▁kilometer	-9.44942
▁informasjon	-9.44942
messig	-9.44965
▁funksjon	-9.45082
lek	-9.45149
ani	-9.45213
▁start	-9.45234
л	-9.45242
▁kul	-9.45253
▁fv	-9.453
▁lagt	-9.45409
▁strøm	-9.45449
eide	-9.45452
68	-9.45475
medalje	-9.45507
▁nummer	-9.45556
liv	-9.4563
ū	-9.45651
▁2014	-9.45669
last	-9.45674
▁uni	-9.45676
korps	-9.45714
▁høyere	-9.45954
▁finland	-9.46004
▁pol	-9.46014
lang	-9.46064
▁off	-9.46076
ula	-9.46215
60	-9.46306
veld	-9.46323
cia	-9.46366
▁hvilke	-9.46367
▁city	-9.46454
▁mottok	-9.46484
sberg	-9.46525
nivå	-9.4653
uc	-9.46538
▁kontroll	-9.46636
92	-9.46684
vende	-9.4672
▁fest	-9.46737
▁test	-9.46762
▁fro	-9.46795
fører	-9.46844
▁lind	-9.46912
▁vold	-9.46997
▁son	-9.47008
fal	-9.47037
ved	-9.47046
of	-9.4708
gan	-9.47083
▁national	-9.47085
▁1991	-9.47096
▁1985	-9.47101
▁havn	-9.47117
rum	-9.47126
erende	-9.47154
▁knut	-9.47238
▁ska	-9.47257
midler	-9.47286
▁sky	-9.47333
▁bedre	-9.47366
gruppe	-9.47511
qu	-9.47561
▁sørøst	-9.47567
▁iii	-9.47583
grafi	-9.47602
▁jens	-9.47672
▁kinas	-9.47698
lus	-9.47709
▁opprør	-9.47826
▁lengde	-9.47845
▁krig	-9.47913
▁løs	-9.48088
▁hvite	-9.48109
haug	-9.48182
▁dro	-9.48218
▁ansvar	-9.48248
▁ledd	-9.48435
aktig	-9.48491
ping	-9.48531
▁slaget	-9.4854
▁lø	-9.4858
▁søster	-9.48601
▁bestemt	-9.48643
▁cm	-9.48663
▁tall	-9.48671
parti	-9.48672
▁punkt	-9.48857
rike	-9.4888
▁sommeren	-9.48953
nett	-9.48972
aks	-9.49009
43	-9.49059
mas	-9.49068
ben	-9.49133
▁smal	-9.49133
▁type	-9.49146
▁salt	-9.49159
verket	-9.49174
▁sur	-9.49183
ød	-9.49204
▁kardinal	-9.49275
▁trondheim	-9.4928
▁1978	-9.49291
▁romersk	-9.4933
gården	-9.49535
▁rik	-9.49548
▁oppført	-9.49559
graf	-9.49614
▁bel	-9.49627
▁grense	-9.4965
que	-9.4965
▁sau	-9.4965
▁japan	-9.49773
▁just	-9.49826
▁syv	-9.49922
▁slike	-9.49954
▁1995	-9.50026
▁mad	-9.5004
legg	-9.50156
▁renner	-9.50201
▁fjorden	-9.50207
▁strand	-9.5035
▁200	-9.50375
fugl	-9.50382
37	-9.50452
ept	-9.50569
▁drama	-9.50658
89	-9.50679
▁høyt	-9.50762
▁ang	-9.50769
▁1981	-9.50772
▁brasil	-9.50773
virkning	-9.5079
▁måte	-9.50799
ala	-9.50833
▁sørlig	-9.50881
kunst	-9.50956
løs	-9.51
▁80	-9.51012
▁nabo	-9.51038
▁japansk	-9.5104
løper	-9.51114
▁afrika	-9.51119
▁klubb	-9.51124
▁interesse	-9.51126
▁gri	-9.51203
▁bind	-9.51212
ova	-9.51259
▁organisasjon	-9.51274
▁fylkes	-9.51501
▁fjerde	-9.51514
▁drept	-9.51532
▁2016	-9.51534
ann	-9.5154
▁turn	-9.51609
▁harald	-9.51633
drag	-9.51672
55	-9.51688
▁ph	-9.51696
lov	-9.5171
poli	-9.51752
▁mol	-9.51762
▁stod	-9.51798
fang	-9.51874
▁vm	-9.51939
▁fot	-9.52005
▁war	-9.52028
▁pal	-9.52034
▁real	-9.52075
▁roma	-9.52126
▁løv	-9.52132
kin	-9.52198
▁åpen	-9.52218
▁cro	-9.52253
▁1986	-9.52288
▁tradisjon	-9.52301
▁bolig	-9.52334
▁los	-9.52378
tig	-9.5238
▁bilde	-9.52485
73	-9.52489
▁not	-9.52492
79	-9.52538
ette	-9.52577
▁sports	-9.52725
▁besøk	-9.52761
▁nærings	-9.52797
unt	-9.52797
▁karakter	-9.52806
▁cell	-9.52853
▁star	-9.5296
jev	-9.53014
▁world	-9.53035
▁vanskelig	-9.5304
▁1987	-9.53047
▁bass	-9.53052
ringer	-9.53073
▁aust	-9.53135
tel	-9.53148
▁passer	-9.53176
▁stemme	-9.5328
▁johann	-9.53297
systemet	-9.53457
▁grand	-9.53526
kler	-9.5356
misjon	-9.53599
54	-9.53628
▁samlet	-9.53656
sekretær	-9.53804
▁musikkalbum	-9.53822
vig	-9.53857
▁cla	-9.5394
▁veg	-9.53962
44	-9.54018
ij	-9.54029
ich	-9.54044
industri	-9.54055
ora	-9.5415
▁idretts	-9.54152
ische	-9.54162
tale	-9.54197
▁utført	-9.542
▁sti	-9.54404
▁tanke	-9.54529
к	-9.5453
▁international	-9.54579
▁verne	-9.5464
▁profesjonell	-9.54651
▁britisk	-9.54756
▁effekt	-9.54813
62	-9.54834
▁500	-9.54843
org	-9.54918
band	-9.5492
▁pass	-9.54931
kra	-9.54967
mul	-9.55
▁klasse	-9.55085
▁periode	-9.55213
hov	-9.55222
▁ball	-9.55225
alis	-9.55268
fart	-9.55278
▁følge	-9.55298
51	-9.55354
▁symbol	-9.55361
α	-9.55361
▁avdeling	-9.5537
▁nordvest	-9.55374
▁1979	-9.55376
bladet	-9.55386
bytte	-9.55583
▁militære	-9.55713
▁slo	-9.55818
▁cy	-9.55887
▁divisjon	-9.55936
94	-9.55945
gger	-9.55965
▁jobb	-9.55971
▁kampen	-9.56006
arm	-9.56057
▁lar	-9.56077
musikk	-9.56129
enhet	-9.56155
▁1976	-9.56162
▁pen	-9.56221
klubb	-9.56236
verdi	-9.56267
nu	-9.56274
▁dersom	-9.56288
▁gården	-9.56297
▁figur	-9.56304
▁menn	-9.56394
stid	-9.56429
styrke	-9.56456
våpen	-9.56468
71	-9.5651
gler	-9.56558
▁løp	-9.56581
34	-9.56629
skudd	-9.56657
▁gren	-9.56723
▁sul	-9.56905
▁1983	-9.56942
▁stockholm	-9.56942
▁ungdoms	-9.5696
▁kart	-9.57089
▁union	-9.57128
danner	-9.57151
▁dyr	-9.57237
▁eid	-9.57306
▁påvirke	-9.57365
▁museum	-9.57373
ras	-9.57383
▁hell	-9.57433
▁ken	-9.57435
▁bay	-9.57467
skolen	-9.57469
▁møte	-9.57499
▁borger	-9.57515
▁merke	-9.57552
bru	-9.57565
▁het	-9.57586
46	-9.57589
lagt	-9.57627
well	-9.57673
▁relativ	-9.57742
hjul	-9.57765
▁anlegget	-9.57771
▁brann	-9.57786
▁professor	-9.58023
▁plat	-9.58065
▁ii	-9.58143
selskapet	-9.58211
▁ledelse	-9.58215
▁dager	-9.58311
▁totalt	-9.58329
▁hopp	-9.58333
low	-9.58368
rich	-9.58389
▁bruke	-9.58438
▁lund	-9.58448
▁virke	-9.58457
56	-9.58492
▁foss	-9.58532
▁anne	-9.58533
▁amerika	-9.58543
▁cap	-9.58545
▁sørvest	-9.58555
▁musiker	-9.58607
▁holm	-9.5863
gått	-9.58674
▁kraftig	-9.58685
▁båt	-9.58734
▁drev	-9.58866
▁tegn	-9.58873
▁ettersom	-9.58907
nske	-9.58952
▁viste	-9.58955
ram	-9.58958
gna	-9.5904
språk	-9.5908
rådet	-9.59086
▁benyttet	-9.59175
▁tha	-9.59221
▁est	-9.59261
▁ce	-9.59299
bli	-9.59307
▁foreldre	-9.59363
▁2015	-9.59381
▁aktivitet	-9.59439
47	-9.59444
▁sivil	-9.59459
▁variant	-9.59467
gift	-9.59481
gaard	-9.59485
▁presse	-9.59538
▁fl	-9.59553
fjell	-9.59556
bry	-9.59558
▁zh	-9.59576
rimot	-9.59636
farge	-9.5964
58	-9.59783
oth	-9.59848
▁dar	-9.59857
▁hovedstaden	-9.59936
▁ordenen	-9.59947
hal	-9.59985
ming	-9.59991
▁reist	-9.60013
▁lære	-9.60067
▁michael	-9.60181
▁hertug	-9.60184
▁nevnes	-9.60185
▁oppdaget	-9.60185
▁møtte	-9.60194
93	-9.60194
▁1964	-9.60198
mper	-9.60273
▁inkluderer	-9.60299
▁stadig	-9.60312
▁unge	-9.60359
gjorde	-9.60389
53	-9.60458
▁reform	-9.6046
76	-9.60527
▁sju	-9.6055
25	-9.60632
kur	-9.60648
▁sentrale	-9.60667
▁munn	-9.60695
▁maler	-9.60697
▁plassert	-9.60706
▁cent	-9.60763
▁økonomi	-9.60794
▁representerte	-9.60808
▁raskt	-9.60818
kirke	-9.60819
▁region	-9.60837
▁sten	-9.60895
▁nederlandsk	-9.60903
støt	-9.60906
wi	-9.61001
▁1982	-9.61007
wood	-9.61017
ón	-9.61018
▁1968	-9.61025
ob	-9.61035
▁spar	-9.61042
win	-9.61046
▁lenge	-9.61062
▁riksvei	-9.61071
▁høyde	-9.61094
▁bøker	-9.61288
▁koloni	-9.61448
▁frank	-9.61482
▁bomb	-9.61527
▁mid	-9.61562
▁gitar	-9.61677
saker	-9.61683
kh	-9.61828
▁århundre	-9.61841
▁1974	-9.61854
▁jern	-9.61958
hn	-9.61983
▁grenser	-9.62106
pol	-9.62112
qui	-9.62125
▁win	-9.62178
linjen	-9.62192
▁grensen	-9.62222
byr	-9.62242
feltet	-9.62246
▁fal	-9.62271
▁helge	-9.62292
в	-9.62325
senteret	-9.62341
▁vind	-9.62352
ritt	-9.62383
rie	-9.62402
kjenn	-9.62443
ordenen	-9.62467
▁led	-9.62497
▁prosjekt	-9.62552
▁stav	-9.62591
▁gode	-9.62675
▁hverandre	-9.62681
▁richard	-9.62682
teknikk	-9.6269
▁1977	-9.62695
▁eiendom	-9.6277
dia	-9.62872
▁distriktet	-9.62889
▁lenger	-9.62905
▁od	-9.62938
vatnet	-9.62973
▁forfatteren	-9.63109
▁regjering	-9.63118
krets	-9.63178
▁provins	-9.63193
▁hund	-9.6324
foss	-9.63415
▁organisasjonen	-9.6347
▁sku	-9.63477
abel	-9.63477
▁publisert	-9.63528
▁1967	-9.63543
tun	-9.63544
▁1975	-9.63551
▁1950	-9.63557
mengde	-9.636
ias	-9.63617
▁skips	-9.63621
▁virksomhet	-9.63622
▁kam	-9.63695
ata	-9.63696
▁fører	-9.63701
▁materiale	-9.63842
lund	-9.63848
▁mørk	-9.6387
▁rad	-9.63871
tå	-9.6391
н	-9.63962
manns	-9.63964
▁sesong	-9.64075
▁vid	-9.64238
▁rein	-9.64257
▁poly	-9.6426
lip	-9.64331
ér	-9.64339
▁dårlig	-9.64384
tunnelen	-9.64389
ama	-9.64395
▁1973	-9.644
▁fotballspiller	-9.64414
▁ven	-9.64418
▁ana	-9.64472
vand	-9.64515
lem	-9.6452
▁cu	-9.64764
▁maur	-9.64824
▁dyp	-9.64844
05	-9.64851
▁områder	-9.64865
▁nasjonale	-9.64881
historie	-9.64898
▁alternativ	-9.65245
▁københavn	-9.65245
▁tilgjengelig	-9.65245
▁wilhelm	-9.65245
▁arrangert	-9.65245
▁utdannet	-9.65245
▁typisk	-9.65248
▁individ	-9.65248
orm	-9.65249
▁spania	-9.65277
▁slott	-9.65398
63	-9.65481
▁kas	-9.65593
▁zo	-9.65642
▁nrk	-9.65646
gard	-9.65647
▁anna	-9.6599
▁stammer	-9.66003
▁borg	-9.66009
plassen	-9.66021
kommunikasjon	-9.66115
▁suksess	-9.66115
▁øvre	-9.66115
▁arabisk	-9.66116
▁norrøn	-9.66117
▁canada	-9.66117
77	-9.66132
ikken	-9.66132
san	-9.66189
▁gjenopp	-9.66234
▁hill	-9.66235
▁rang	-9.66277
▁alb	-9.66294
▁legge	-9.66294
▁fulgte	-9.66322
vekt	-9.6633
▁damp	-9.66371
nev	-9.66382
67	-9.66432
▁behandling	-9.66551
▁auto	-9.66586
▁asia	-9.66594
▁undersøkelse	-9.66644
▁tun	-9.66676
på	-9.66745
føl	-9.66794
▁erstattet	-9.66826
▁naturlig	-9.66831
▁hodet	-9.66886
т	-9.66986
▁nærmest	-9.66995
▁lansert	-9.67014
▁scene	-9.6705
voll	-9.67097
▁hest	-9.67119
▁elve	-9.67256
▁korte	-9.67289
feld	-9.67356
▁70	-9.67359
▁fjellet	-9.67395
▁py	-9.67449
▁dor	-9.6745
ville	-9.67465
oni	-9.67491
▁enten	-9.67503
▁lignende	-9.67558
▁grunnla	-9.67655
▁tung	-9.67699
▁sjef	-9.67731
▁holder	-9.67767
▁metall	-9.67838
gikk	-9.67844
▁spiss	-9.67871
▁øvrig	-9.67877
▁opprinnelse	-9.67877
▁snakke	-9.67901
▁betegnelsen	-9.67907
▁ok	-9.6792
▁lan	-9.6795
▁vir	-9.68004
▁utgivelse	-9.6803
84	-9.68039
pan	-9.68219
shi	-9.68261
kkel	-9.68277
▁gå	-9.68283
krigen	-9.68394
▁char	-9.6841
▁stilling	-9.68448
lad	-9.68591
▁mulighet	-9.68624
▁king	-9.68711
hm	-9.68717
▁che	-9.6873
▁resultat	-9.68746
▁fremdeles	-9.6877
▁klima	-9.68777
▁finne	-9.68793
medlem	-9.68819
▁us	-9.68821
▁fabrikk	-9.6889
▁myr	-9.6904
▁lau	-9.69064
▁trolig	-9.69069
▁hellig	-9.69117
74	-9.69188
57	-9.69219
bare	-9.69272
▁jean	-9.69298
nik	-9.69406
vinger	-9.6943
▁sikre	-9.69692
▁gjelder	-9.69725
plasser	-9.69764
▁strid	-9.69813
din	-9.69838
▁mun	-9.69868
▁forskning	-9.69913
▁fisk	-9.69975
metode	-9.69986
vind	-9.70093
▁journalist	-9.70095
slekt	-9.70296
▁teknologi	-9.70316
partiet	-9.70326
▁love	-9.70471
▁sende	-9.70487
syre	-9.70521
▁kap	-9.70524
ī	-9.7058
5	-9.70584
49	-9.706
▁black	-9.70636
▁representant	-9.70683
▁pin	-9.70746
▁oppgave	-9.70754
▁løper	-9.70768
▁elektrisk	-9.70811
▁slått	-9.70829
kjør	-9.70902
▁feil	-9.70922
ledet	-9.70941
▁resten	-9.70945
▁rh	-9.70975
▁besto	-9.71012
▁kast	-9.7108
kilden	-9.71124
strøm	-9.71256
gangen	-9.71295
▁tang	-9.71338
▁adel	-9.71341
72	-9.71363
dor	-9.71375
▁artene	-9.71403
▁religiøs	-9.71497
▁louis	-9.71498
▁stavanger	-9.71511
▁kinesiske	-9.71613
▁livet	-9.71655
▁marine	-9.71663
meter	-9.71679
▁representerer	-9.71682
▁operasjon	-9.71701
▁vik	-9.71706
▁daglig	-9.71735
stø	-9.71756
▁bygde	-9.71835
yang	-9.71856
▁bygningen	-9.71856
kov	-9.7186
▁spi	-9.71888
▁hæren	-9.71986
samisk	-9.72001
▁røde	-9.72064
bjørn	-9.72165
▁bit	-9.72195
▁wei	-9.72236
▁kull	-9.72251
▁old	-9.72372
▁benytte	-9.72422
▁ze	-9.72422
▁sannsynlig	-9.72423
š	-9.72423
▁regissert	-9.72424
▁jacob	-9.72425
illa	-9.72427
▁lufthavn	-9.72434
▁1963	-9.72439
▁1948	-9.72444
▁bakgrunn	-9.72449
▁instrument	-9.72489
▁tverr	-9.72501
ish	-9.72513
▁styrker	-9.72552
▁bol	-9.72552
dels	-9.7258
ledning	-9.72611
trær	-9.72677
ence	-9.72782
shire	-9.72823
▁begrepet	-9.72848
▁tittel	-9.7286
▁polsk	-9.7286
rang	-9.72861
ies	-9.73036
▁normalt	-9.73038
▁privat	-9.73067
▁nr	-9.73068
▁sund	-9.73208
▁hær	-9.73316
▁omfattende	-9.73357
▁innflytelse	-9.73358
▁buk	-9.73391
▁blue	-9.73391
▁administrasjons	-9.734
▁antenne	-9.73407
▁teori	-9.73496
arbeider	-9.73499
▁haug	-9.73502
52	-9.73553
▁overfor	-9.73568
▁thi	-9.73581
dahl	-9.73612
▁hode	-9.73612
▁trafikk	-9.7362
mund	-9.73622
▁produsent	-9.73644
park	-9.73706
▁und	-9.7372
fre	-9.73778
tøy	-9.73785
▁offisiell	-9.738
▁nordlige	-9.73843
▁øyene	-9.7385
pri	-9.73853
hund	-9.73932
jar	-9.73951
▁1800	-9.73968
▁student	-9.74067
▁ole	-9.74095
figur	-9.74121
▁våren	-9.74123
▁festning	-9.74141
▁forsvars	-9.74251
▁ya	-9.74252
▁marie	-9.74292
▁religion	-9.74301
▁folketelling	-9.74302
▁hovedrollen	-9.74304
▁vokste	-9.7431
▁1930	-9.74329
▁område	-9.74364
spor	-9.74378
▁personlig	-9.74465
▁gutt	-9.74563
historiker	-9.74576
▁sko	-9.74593
59	-9.74677
komst	-9.74684
▁sort	-9.74727
▁hovedstad	-9.74823
▁ekspedisjon	-9.74835
kaffe	-9.74849
▁blei	-9.74898
ball	-9.74932
rick	-9.74955
▁akt	-9.74966
mond	-9.75025
▁kost	-9.75034
mun	-9.75041
▁matt	-9.75134
ios	-9.75156
▁avisen	-9.75172
▁jordbruk	-9.75292
mod	-9.75299
æl	-9.75305
▁areal	-9.75331
▁befolkningen	-9.75418
▁vær	-9.75424
nettverk	-9.75446
▁hva	-9.75471
▁samfunns	-9.75493
87	-9.75511
lly	-9.75528
▁larvene	-9.75555
▁cal	-9.75556
12	-9.75575
▁total	-9.75621
16	-9.75672
tti	-9.75687
▁vestlig	-9.75692
▁tilfelle	-9.75757
delen	-9.75782
▁størrelse	-9.75815
dekke	-9.75881
rød	-9.75944
▁seier	-9.75947
▁selve	-9.76017
▁georg	-9.76021
vå	-9.76038
▁karriere	-9.7609
▁arne	-9.76123
▁koll	-9.76175
▁middelsstor	-9.76215
▁kontakt	-9.76224
▁1969	-9.7623
▁2017	-9.76236
▁charles	-9.76251
90	-9.763
iti	-9.76357
▁300	-9.76363
▁sw	-9.76366
▁kilde	-9.7638
gal	-9.76403
legge	-9.76428
▁sim	-9.76511
språklig	-9.7652
tog	-9.76541
▁forsvar	-9.76566
▁vanlige	-9.76661
▁høye	-9.76712
stall	-9.76825
▁delvis	-9.76833
▁metal	-9.76866
▁bio	-9.76875
▁nam	-9.76885
▁prøve	-9.76935
▁song	-9.76949
klar	-9.77022
atet	-9.77088
19	-9.77095
▁kjøpe	-9.77112
▁cam	-9.77163
▁skipet	-9.77172
▁byprefekturet	-9.77186
institusjon	-9.77186
▁teknisk	-9.77186
▁bokstav	-9.77187
▁dynastiet	-9.77194
▁lengst	-9.77205
▁revolusjon	-9.77209
program	-9.77216
▁lengre	-9.77218
▁poeng	-9.77224
▁jarl	-9.77286
▁landbruk	-9.77293
▁arn	-9.77297
▁drive	-9.77363
ity	-9.77394
▁benyttes	-9.77437
▁base	-9.77446
▁mente	-9.7745
fabrikk	-9.77456
▁grupper	-9.77493
drift	-9.77563
▁oftest	-9.77631
mitt	-9.77655
▁aller	-9.77689
ella	-9.77761
▁eva	-9.7777
▁stål	-9.77791
96	-9.77801
▁35	-9.77815
▁fugle	-9.77963
▁redaktør	-9.77965
spon	-9.77968
bånd	-9.78054
virksomhet	-9.78058
▁fremme	-9.78129
▁skrive	-9.78139
▁joseph	-9.78166
▁fokus	-9.7817
▁voksne	-9.78177
▁skrift	-9.78234
▁alltid	-9.78237
dagen	-9.78279
▁tross	-9.78548
øyene	-9.78558
▁jorden	-9.78616
enberg	-9.78624
pho	-9.78722
▁listen	-9.78723
69	-9.78745
strand	-9.78827
bal	-9.78842
▁lot	-9.78997
▁dog	-9.79015
flu	-9.79056
▁nivå	-9.79091
▁hotell	-9.79115
▁yngre	-9.79159
forvaltning	-9.7916
▁bronse	-9.79163
skjell	-9.7917
▁turist	-9.792
▁award	-9.79273
ulf	-9.79275
▁prins	-9.79389
▁frø	-9.79457
▁typer	-9.79497
▁spill	-9.79548
▁brenn	-9.79821
▁rask	-9.79831
▁opphav	-9.79876
ney	-9.79888
▁landsbyen	-9.79903
▁90	-9.79914
▁leir	-9.79922
▁ö	-9.79965
▁etablerte	-9.79965
ux	-9.79973
kanten	-9.79976
▁will	-9.79998
▁omtale	-9.80063
▁original	-9.80153
avtale	-9.80163
▁1940	-9.80186
svik	-9.80186
▁saint	-9.80189
ico	-9.80191
▁motiv	-9.80228
▁bibel	-9.80237
▁malt	-9.80262
▁bærer	-9.8037
▁regel	-9.8037
▁albert	-9.80397
▁kari	-9.8041
skriv	-9.8042
bet	-9.80551
▁produksjons	-9.80559
▁larven	-9.80564
▁jakt	-9.80579
bol	-9.80764
▁rike	-9.80768
fu	-9.80782
▁tema	-9.80798
ary	-9.80927
▁kvinnelig	-9.80967
▁vokal	-9.81043
▁huset	-9.81159
▁records	-9.81166
д	-9.81166
▁australia	-9.81166
▁ytterligere	-9.81166
kapasitet	-9.81169
▁tydelig	-9.8117
▁frederik	-9.81174
kultur	-9.81182
▁1956	-9.81185
▁indisk	-9.8122
▁gil	-9.8122
▁1900	-9.81239
gli	-9.81262
32	-9.81275
arbeidet	-9.81276
soldat	-9.81361
24	-9.81419
bud	-9.81428
▁danse	-9.81479
▁klo	-9.81486
kasse	-9.81528
▁mørke	-9.81552
ulykke	-9.8157
▁flyplass	-9.81575
▁bidrag	-9.81609
▁glass	-9.81619
ith	-9.81651
blad	-9.81745
▁produksjon	-9.81748
spekt	-9.81816
06	-9.81823
▁katolske	-9.81872
ledd	-9.82002
▁mini	-9.82025
elige	-9.82054
91	-9.82065
dommen	-9.82112
▁univers	-9.82166
hof	-9.82172
▁kai	-9.82175
▁etterfulgt	-9.82187
ι	-9.82187
▁hurtig	-9.82187
▁brensel	-9.82189
▁1949	-9.82204
▁1971	-9.82206
▁1945	-9.8221
▁jazz	-9.82227
▁hit	-9.82228
▁forretnings	-9.8224
▁kommunene	-9.82278
▁kristen	-9.82282
▁teksten	-9.82401
▁skille	-9.82422
▁north	-9.82549
▁posisjon	-9.82632
▁kil	-9.82741
14	-9.8277
▁europeiske	-9.82824
istene	-9.8286
▁faren	-9.82927
▁horn	-9.82948
▁temp	-9.82992
jan	-9.83016
trinn	-9.83063
▁polen	-9.83104
bakk	-9.83129
post	-9.83165
kjøp	-9.83166
▁nærmere	-9.83223
▁flertall	-9.83227
▁log	-9.83235
▁1965	-9.83242
▁kjerne	-9.83246
▁straffe	-9.83267
▁program	-9.83269
war	-9.83275
firma	-9.83294
▁qui	-9.83295
▁rør	-9.83357
▁nar	-9.83364
lé	-9.8337
pha	-9.83384
▁tsj	-9.83514
ön	-9.83679
▁offisiel	-9.83768
kirken	-9.83789
▁stykke	-9.83826
▁400	-9.83829
▁retts	-9.83831
▁tettstedet	-9.83857
▁åpne	-9.83858
▁satte	-9.83865
21	-9.83892
▁hud	-9.83901
▁israel	-9.83926
▁buss	-9.83944
▁bevegelse	-9.83947
с	-9.83965
▁vitenskapelig	-9.84089
stedet	-9.84165
▁ung	-9.84181
løpet	-9.8419
▁operatør	-9.84261
▁melodi	-9.84266
▁nes	-9.84267
▁1946	-9.84279
▁omtalt	-9.84293
kraftverk	-9.84306
▁overflate	-9.84348
▁nordland	-9.84356
04	-9.84377
▁streng	-9.8443
36	-9.84519
punktet	-9.84552
▁senter	-9.84633
▁hon	-9.84633
▁tråd	-9.84712
▁troll	-9.84732
phi	-9.84748
▁pot	-9.8478
▁heller	-9.84871
▁betegne	-9.84883
▁starter	-9.84915
▁sar	-9.84926
▁ein	-9.85011
▁frukt	-9.85066
bit	-9.85069
▁festival	-9.85071
gata	-9.85074
ryd	-9.85099
▁qua	-9.85128
11	-9.85171
magasin	-9.85303
▁club	-9.85313
▁school	-9.85313
▁østerrike	-9.85313
▁episode	-9.85314
▁tilhørt	-9.85315
byrå	-9.85351
zy	-9.8537
bein	-9.85372
02	-9.85386
▁skifte	-9.85434
gul	-9.85514
▁ytre	-9.85526
▁hou	-9.85589
▁wil	-9.85725
▁ting	-9.85728
▁andreas	-9.85812
▁leve	-9.85818
elli	-9.85821
▁up	-9.85861
▁stille	-9.85875
▁hage	-9.85881
▁ask	-9.85994
henger	-9.85995
▁folket	-9.86027
▁prisen	-9.86033
▁fyrst	-9.861
fil	-9.86116
osa	-9.86126
skytter	-9.86163
▁uavhengig	-9.86185
▁bygg	-9.86287
▁kamper	-9.86287
▁østlig	-9.86326
▁tegnet	-9.86327
▁høre	-9.86327
м	-9.86376
▁spesiell	-9.86376
▁united	-9.86378
▁ekteskap	-9.86381
▁ordfører	-9.86401
▁filosofi	-9.86404
bygning	-9.86414
▁alder	-9.86422
▁stasjonen	-9.8648
▁hin	-9.86485
▁single	-9.86521
vendt	-9.86618
▁spansk	-9.86679
arter	-9.8671
nic	-9.86721
▁ønsket	-9.86734
▁inge	-9.86792
visning	-9.86823
▁jevn	-9.8686
ifisert	-9.86876
18	-9.86936
▁endret	-9.87003
99	-9.87007
foreningen	-9.87079
▁ama	-9.87088
▁formann	-9.87117
▁vinner	-9.87146
ura	-9.87197
▁dam	-9.87226
▁atom	-9.87265
▁velge	-9.87269
▁brit	-9.87402
kammer	-9.87423
ł	-9.87448
hastighet	-9.87451
▁trøndelag	-9.87451
▁que	-9.87453
▁forteller	-9.87463
▁tolv	-9.87467
▁republikken	-9.87503
▁kontor	-9.87516
prosess	-9.87541
fjellene	-9.87578
avdeling	-9.87608
prisen	-9.87621
▁endt	-9.87652
▁organisert	-9.87669
slaget	-9.87672
▁hevdet	-9.8774
▁kryss	-9.87767
▁hoff	-9.87787
▁max	-9.87827
▁innført	-9.87852
▁støttet	-9.87871
▁endre	-9.87938
▁stoppe	-9.87938
▁avis	-9.8805
bær	-9.88062
▁dø	-9.88085
nis	-9.88134
▁masse	-9.88161
▁ansatte	-9.88179
▁sven	-9.88239
▁mess	-9.88272
bon	-9.88373
▁gall	-9.88389
kort	-9.88391
▁ref	-9.88417
ō	-9.88479
▁rygg	-9.88508
dannelse	-9.88511
▁nevnt	-9.88539
▁hjerte	-9.88542
▁fortelling	-9.88543
▁1912	-9.88555
▁1958	-9.88558
▁1962	-9.88559
▁tekster	-9.88617
cker	-9.88626
bank	-9.88752
▁ris	-9.88789
▁pala	-9.88833
blokk	-9.88963
▁tau	-9.89027
▁hed	-9.89052
▁egypt	-9.89072
▁mak	-9.89102
plikt	-9.89133
marked	-9.89151
ante	-9.89154
▁innsjø	-9.89181
▁nordisk	-9.89239
▁kjøre	-9.89244
▁bob	-9.89271
linjer	-9.89393
▁krets	-9.89422
grunn	-9.89474
▁finalen	-9.8953
▁akademi	-9.89576
▁hundre	-9.89625
▁deriblant	-9.89637
▁pasient	-9.89637
hode	-9.89637
▁kunnskap	-9.89638
▁sekund	-9.8964
▁sykehus	-9.89653
lav	-9.89658
▁150	-9.8969
▁snø	-9.89702
▁struktur	-9.89764
▁ramme	-9.89798
blom	-9.89973
▁rå	-9.90012
bedrift	-9.90045
lapp	-9.90058
▁utstilling	-9.9011
▁dialekt	-9.90168
▁gy	-9.90204
95	-9.90263
▁vannet	-9.90293
▁bidra	-9.90369
jon	-9.90402
▁gun	-9.90517
▁økt	-9.90625
▁kristian	-9.90658
▁1938	-9.90748
▁passasjer	-9.90748
▁beijing	-9.90748
▁betrakte	-9.90748
13	-9.90759
▁1947	-9.90769
▁populære	-9.90787
lutning	-9.90821
▁vinge	-9.90827
▁omfattet	-9.90847
▁yu	-9.90885
▁bodde	-9.90974
17	-9.91089
ān	-9.91129
▁oppsto	-9.91171
▁svak	-9.91177
▁tusen	-9.91228
pass	-9.91286
forhold	-9.91311
▁front	-9.91386
holdsvis	-9.91403
dorf	-9.91433
▁fordel	-9.9145
▁eg	-9.91533
15	-9.9161
▁stri	-9.91626
▁hunnen	-9.91633
▁liga	-9.91672
▁femte	-9.91701
onym	-9.91747
part	-9.91814
▁sterke	-9.91838
▁blomster	-9.9185
▁situasjon	-9.91873
▁arrangere	-9.91873
▁kommunal	-9.9189
▁henhold	-9.91959
▁magne	-9.91968
mil	-9.9198
35	-9.92058
roman	-9.92062
klubben	-9.92155
ign	-9.92178
nummer	-9.92191
møte	-9.92236
serien	-9.92385
slå	-9.92424
▁hjelpe	-9.92443
▁kroner	-9.92543
betegnelse	-9.92553
kysten	-9.92578
▁fjord	-9.92602
jiang	-9.92673
▁bane	-9.9282
▁anton	-9.92931
givelse	-9.92983
▁korea	-9.92987
▁verket	-9.92994
▁kategori	-9.93008
▁stadion	-9.93017
▁1936	-9.93024
▁rollen	-9.9307
ania	-9.93137
▁henry	-9.93162
▁flu	-9.9319
▁odd	-9.93191
butikk	-9.93246
liste	-9.93263
▁slå	-9.93321
▁historien	-9.93514
hen	-9.93595
▁gjeste	-9.93605
▁sun	-9.9362
▁sønnen	-9.93698
plate	-9.93716
stasjonen	-9.93752
▁gard	-9.93755
▁stamme	-9.93762
▁may	-9.93829
▁byer	-9.93896
▁mw	-9.93907
▁hente	-9.93917
▁innsjøen	-9.93951
▁domin	-9.94017
▁luk	-9.94032
con	-9.94074
▁bonde	-9.94092
▁met	-9.94119
belteasteroide	-9.94157
▁1961	-9.94157
▁skilt	-9.94222
▁cd	-9.94235
fjellet	-9.94276
fold	-9.9439
▁svar	-9.94394
▁skriver	-9.9444
hard	-9.94583
kamera	-9.94597
▁finans	-9.94617
▁sider	-9.94657
▁virkelig	-9.94665
atisk	-9.94673
sjø	-9.94679
analyse	-9.94741
▁irland	-9.94762
▁human	-9.94774
ernes	-9.94779
▁selge	-9.94824
▁politikk	-9.94983
sport	-9.95007
▁rute	-9.9505
handler	-9.95063
▁flagg	-9.95063
▁regjerings	-9.95064
81	-9.95081
▁utdanning	-9.95108
▁dekker	-9.95112
▁utover	-9.95202
▁offiser	-9.9527
▁leg	-9.95307
▁hustru	-9.95323
▁begynnelsen	-9.95324
▁1928	-9.95334
▁fungere	-9.95349
▁multi	-9.95353
hor	-9.95514
▁bydelen	-9.95549
▁glo	-9.95551
album	-9.95572
festival	-9.95587
forfatter	-9.95594
▁jag	-9.95658
▁polar	-9.95674
cho	-9.95674
kontor	-9.95694
▁tonn	-9.95715
skij	-9.95768
ical	-9.95776
oide	-9.95798
27	-9.95858
▁vet	-9.95865
rolle	-9.95898
skipet	-9.95922
▁formål	-9.95929
▁bla	-9.95941
debut	-9.95964
▁kaptein	-9.95981
▁problem	-9.96018
▁skatte	-9.96022
dro	-9.96191
0	-9.96205
▁rosen	-9.96317
23	-9.96319
rev	-9.96322
kamp	-9.96459
▁studio	-9.96494
▁konflikt	-9.96497
▁administrativ	-9.96497
▁eksempler	-9.96497
ρ	-9.96497
▁county	-9.96497
▁service	-9.96497
▁stortinget	-9.96501
▁royal	-9.96502
▁1942	-9.96524
▁mytologi	-9.96527
▁soldater	-9.96538
later	-9.96539
▁por	-9.96617
▁veldig	-9.9662
▁kommuner	-9.96669
▁gold	-9.96672
▁with	-9.96787
prosjekt	-9.96794
▁sho	-9.96808
▁cur	-9.96818
▁driver	-9.96901
inae	-9.96908
▁zu	-9.96976
leng	-9.96987
▁vent	-9.97025
▁rob	-9.9705
▁cup	-9.97217
▁spre	-9.97383
kamper	-9.97427
bour	-9.97487
▁rep	-9.97535
konge	-9.97609
konstruksjon	-9.97687
ì	-9.97687
▁1966	-9.97687
▁inspirert	-9.97687
▁sovjetunionen	-9.97687
▁college	-9.97691
▁mikro	-9.97693
▁olsen	-9.97701
▁1920	-9.97718
▁studier	-9.9772
aceae	-9.97727
▁preget	-9.97747
▁bevart	-9.97757
innspilling	-9.97857
gon	-9.97858
dam	-9.97896
▁lavere	-9.97913
▁effektiv	-9.97921
høgskole	-9.97951
▁russ	-9.97959
løst	-9.97964
ræ	-9.97993
valget	-9.98001
▁debuter	-9.98031
▁villa	-9.98086
▁havet	-9.9813
artist	-9.98172
▁institutt	-9.98236
▁kanon	-9.98265
▁gram	-9.98311
▁driv	-9.98322
▁brev	-9.98352
▁årsak	-9.9836
▁kok	-9.98392
▁kos	-9.98498
▁produserer	-9.98523
▁gruve	-9.98592
▁ost	-9.98654
una	-9.98717
gin	-9.98719
▁bell	-9.98794
myndighet	-9.98846
▁ishockey	-9.98892
▁nødvendig	-9.98892
▁tilknyttet	-9.98892
▁vunnet	-9.98893
▁premier	-9.98897
▁islam	-9.98904
parten	-9.98905
▁begrense	-9.98907
▁referere	-9.98918
▁1939	-9.98918
rommet	-9.98946
▁kapell	-9.98996
elv	-9.99083
▁oppdrag	-9.99129
▁bibliotek	-9.99161
▁amt	-9.99251
▁landsby	-9.99251
forskning	-9.99254
▁begynner	-9.99265
▁sette	-9.99389
▁fan	-9.99625
▁sete	-9.99655
gruppa	-9.99751
jord	-9.99771
▁spørsmål	-9.99784
▁vakt	-9.99806
▁brand	-9.99869
▁live	-9.99955
gå	-9.99959
▁nådd	-9.99964
▁music	-10
ltså	-10.0001
reise	-10.0007
▁generelt	-10.0011
▁oblast	-10.0013
qua	-10.0015
▁tam	-10.0015
▁sverd	-10.0015
▁indi	-10.0016
svømme	-10.0016
bul	-10.0016
pla	-10.0017
▁jim	-10.0022
▁aur	-10.0025
▁likhet	-10.0042
▁linjen	-10.0049
produkt	-10.005
trakk	-10.0051
miljø	-10.0052
maskin	-10.0064
▁tettsted	-10.0064
▁tapte	-10.0067
▁gis	-10.007
afrikansk	-10.0076
▁grov	-10.0083
▁sovjetisk	-10.009
▁ønske	-10.0096
▁handel	-10.0098
gra	-10.0114
▁33	-10.0118
▁livs	-10.0125
▁fylket	-10.0129
▁parlament	-10.0134
я	-10.0135
▁forekommer	-10.0135
▁friedrich	-10.0135
▁company	-10.0135
▁kristne	-10.0135
▁avhengig	-10.0135
▁magnus	-10.0135
▁snart	-10.0135
▁bryst	-10.0135
▁1941	-10.0136
▁1952	-10.0137
▁mono	-10.0139
26	-10.0141
28	-10.0147
▁programmet	-10.0148
▁arkitektur	-10.0149
▁mobil	-10.0152
botn	-10.0153
▁och	-10.0157
dømt	-10.016
▁ran	-10.0171
kall	-10.0172
▁bunn	-10.0173
▁jobbet	-10.0174
▁æres	-10.0179
▁32	-10.018
havn	-10.0182
▁normal	-10.0182
basert	-10.0201
brun	-10.0202
▁hammer	-10.0204
▁ungdom	-10.0206
▁signal	-10.0206
retten	-10.0212
aria	-10.0212
▁tog	-10.0213
▁dobbelt	-10.0217
rygg	-10.0217
▁harry	-10.0221
▁kir	-10.0222
snitt	-10.0225
mesterskapet	-10.0228
▁cre	-10.0236
▁spanske	-10.0242
▁spillet	-10.0243
▁manus	-10.0243
▁orkester	-10.0247
▁kraftige	-10.0257
▁overgang	-10.0257
▁introdusert	-10.026
▁selvstendig	-10.026
▁psykolog	-10.026
▁edward	-10.0262
▁oscar	-10.0262
▁1957	-10.0262
▁1944	-10.0262
▁skjedde	-10.0262
▁otto	-10.0264
turnering	-10.0265
ão	-10.0269
▁fett	-10.0272
▁kjøl	-10.0273
98	-10.0274
▁bord	-10.0274
vannet	-10.0274
én	-10.0275
▁ub	-10.0276
▁kropps	-10.0281
▁disk	-10.0288
▁billed	-10.029
stille	-10.0307
▁status	-10.0321
▁tidlige	-10.0322
lignende	-10.0324
▁camp	-10.0325
▁møter	-10.0331
▁kjell	-10.0335
eppe	-10.0335
følgende	-10.0339
▁finn	-10.034
▁berømte	-10.0346
▁green	-10.0347
▁landskap	-10.0347
▁gyl	-10.0358
▁carol	-10.0368
aktiv	-10.037
▁studenter	-10.037
legger	-10.0372
▁kreft	-10.0373
▁lam	-10.0377
▁fc	-10.0378
▁dj	-10.0384
▁qi	-10.0384
▁arv	-10.0385
▁eventyr	-10.0386
▁sistnevnte	-10.0386
▁objekt	-10.0386
▁utbredt	-10.0386
▁unntak	-10.0386
▁finnmark	-10.0388
▁rekord	-10.0388
▁bølge	-10.0388
▁daniel	-10.0391
▁kåre	-10.0391
▁uttalt	-10.0394
▁stortings	-10.0398
▁geo	-10.0398
▁midten	-10.0402
▁vers	-10.0403
grensen	-10.0411
linje	-10.0412
▁bestående	-10.0414
▁kim	-10.0415
▁private	-10.0426
rand	-10.0431
▁valget	-10.0432
▁prof	-10.0438
31	-10.0439
▁kloster	-10.0444
▁hannen	-10.0445
▁tour	-10.045
▁comp	-10.0455
▁sent	-10.0464
▁eie	-10.0469
▁bach	-10.0477
▁kjemisk	-10.0487
▁verd	-10.0488
komedie	-10.0489
grupper	-10.0497
▁kjønn	-10.0499
▁solo	-10.0501
iteten	-10.0503
▁kvart	-10.0513
▁fullstendig	-10.0514
▁initiativ	-10.0514
▁mexico	-10.0514
▁moskva	-10.0514
▁fysisk	-10.0515
▁kh	-10.0516
▁skotsk	-10.0517
▁bygninger	-10.0519
▁kilder	-10.052
▁internasjonal	-10.0521
▁dvs	-10.0521
▁nedlagt	-10.0522
▁sport	-10.0524
fylt	-10.0526
▁toppen	-10.0531
▁ankom	-10.0533
▁parken	-10.0538
sfjorden	-10.0547
▁morgen	-10.0548
ordning	-10.0548
97	-10.0552
▁jack	-10.0552
vold	-10.0555
▁singel	-10.0558
klær	-10.056
▁utstyr	-10.0562
onia	-10.0568
▁luc	-10.0569
▁bydel	-10.0572
▁skape	-10.0574
▁varierer	-10.0576
▁utviklingen	-10.0584
▁ytter	-10.0593
trafikk	-10.0594
▁bære	-10.0595
ward	-10.0599
ough	-10.0605
▁kjenne	-10.0611
▁dør	-10.0613
▁hevde	-10.0618
▁zi	-10.0623
▁solgt	-10.0624
virke	-10.064
artikler	-10.0643
ç	-10.0644
č	-10.0644
▁administrere	-10.0644
▁california	-10.0644
▁innbyggertall	-10.0644
▁erkebiskop	-10.0644
▁anerkjent	-10.0644
▁bispedømme	-10.0645
▁ridder	-10.0645
▁meta	-10.0647
▁1951	-10.0647
▁1954	-10.0647
▁1943	-10.0647
▁tradisjonelt	-10.0647
stripe	-10.0647
▁nederland	-10.0663
▁beskytte	-10.067
▁kode	-10.0678
former	-10.068
▁irsk	-10.0684
▁bredt	-10.0684
▁sikker	-10.069
▁markeds	-10.0691
▁adam	-10.0694
▁middelalderen	-10.0697
maleri	-10.0704
forbundet	-10.0709
fot	-10.071
▁esp	-10.0714
øst	-10.0716
▁ekstra	-10.0717
▁ind	-10.0722
musik	-10.0728
tank	-10.0729
▁tale	-10.0732
▁planter	-10.0733
▁aksje	-10.0736
▁sterk	-10.0737
▁poet	-10.0739
▁strekk	-10.0741
▁forsvaret	-10.0746
bevegelsen	-10.0746
handel	-10.0754
awa	-10.0768
▁markert	-10.0771
▁vingespenn	-10.0776
▁alkohol	-10.0776
▁himmel	-10.0776
▁jødisk	-10.0776
▁oversikt	-10.0776
▁insekt	-10.0776
▁fattig	-10.0776
▁kjærlighet	-10.0776
▁nedenfor	-10.0777
▁1953	-10.0778
▁eli	-10.078
▁nicol	-10.0781
▁melk	-10.0782
▁nærheten	-10.0786
plattform	-10.0792
▁math	-10.0794
▁high	-10.0795
aya	-10.0796
▁forlag	-10.0808
▁fartøy	-10.081
▁økte	-10.0815
▁produsere	-10.0816
stykke	-10.0821
gjort	-10.0825
livet	-10.0828
▁kalk	-10.0829
▁sja	-10.0833
▁kongelige	-10.0833
▁ull	-10.0839
▁gress	-10.0841
hører	-10.0847
▁saken	-10.0849
parken	-10.0854
▁falt	-10.0856
løsning	-10.0857
▁systemet	-10.0865
formede	-10.0877
▁handler	-10.0881
▁områdene	-10.0889
▁kald	-10.0894
ß	-10.0905
▁dokumenter	-10.0909
▁artikkel	-10.0909
▁xiàn	-10.0909
▁län	-10.091
▁1924	-10.0911
▁stam	-10.0913
▁tørr	-10.0915
▁mistet	-10.0915
▁portrett	-10.0918
▁boy	-10.092
▁konkurranse	-10.0921
▁behov	-10.0933
▁phil	-10.0933
▁diplomat	-10.0948
▁tilhøre	-10.0951
▁schw	-10.0957
▁bestod	-10.0961
▁forsøkt	-10.0964
distrikt	-10.0967
▁dru	-10.097
stemt	-10.0971
museum	-10.0972
typen	-10.0973
bei	-10.0974
runde	-10.0975
▁stift	-10.0975
▁minutter	-10.0979
▁roll	-10.098
▁forvingen	-10.0986
▁epi	-10.0992
com	-10.0993
preg	-10.0995
hopp	-10.0995
▁final	-10.0995
▁hum	-10.0999
▁dun	-10.1015
▁løsning	-10.1016
▁nan	-10.1017
▁deles	-10.1021
motor	-10.1028
ál	-10.1031
▁medisin	-10.1034
▁advokat	-10.1044
kompleks	-10.1044
▁smith	-10.1046
▁bidro	-10.1048
▁stol	-10.1054
norsk	-10.1055
▁mangler	-10.1059
▁inndelt	-10.106
▁nasjonalpark	-10.1066
▁skjær	-10.1066
▁undervisning	-10.1067
delt	-10.1068
▁hem	-10.1078
mur	-10.1079
▁flykte	-10.1083
▁aas	-10.1083
▁intern	-10.1084
ox	-10.1089
▁samarbeidet	-10.1092
ual	-10.1095
▁romanen	-10.1098
▁fremste	-10.1098
▁regional	-10.1102
▁aks	-10.1104
▁lån	-10.1107
▁gau	-10.1115
▁liberal	-10.112
▁stemmer	-10.112
▁oversatt	-10.1123
▁cri	-10.1125
▁beskrevet	-10.1127
▁utvidet	-10.1132
oksid	-10.1137
▁fler	-10.1151
bygget	-10.1153
gav	-10.1154
▁blomst	-10.1167
▁inneholdt	-10.1181
▁1932	-10.1183
▁1955	-10.1184
▁befinne	-10.1185
▁michel	-10.1186
▁hå	-10.1186
▁jule	-10.1192
▁assist	-10.1194
▁tell	-10.1196
hagen	-10.1198
▁vill	-10.1201
▁føde	-10.1202
▁angrepet	-10.1205
▁former	-10.1211
▁ross	-10.1224
▁tj	-10.1225
▁tromsø	-10.125
▁inte	-10.125
effekt	-10.1251
forestilling	-10.1253
▁grøn	-10.1253
front	-10.1253
▁kg	-10.1256
▁bakken	-10.1256
maker	-10.1259
▁middelalder	-10.1264
▁innhold	-10.1267
atur	-10.1267
▁tan	-10.1274
▁uttale	-10.1277
▁alv	-10.1291
næs	-10.1302
▁prosjektet	-10.1307
▁motta	-10.1308
▁lyst	-10.1311
administrasjon	-10.1314
▁plasser	-10.1316
ο	-10.132
▁1908	-10.132
г	-10.132
▁south	-10.1321
▁mongol	-10.1321
▁sveits	-10.1322
▁hemmelig	-10.1323
▁fremst	-10.1333
områdene	-10.1335
▁tempel	-10.1335
▁medlemmene	-10.1336
▁bånd	-10.1336
▁bosetning	-10.1337
▁krysser	-10.1343
▁solgte	-10.1345
▁lønn	-10.1345
▁latinsk	-10.1348
▁foreningen	-10.135
▁skinn	-10.1356
klassen	-10.136
innen	-10.136
anten	-10.1361
▁båten	-10.1363
▁øverste	-10.1366
▁kru	-10.1367
▁institut	-10.1368
▁foreta	-10.1368
▁motsatt	-10.1375
▁vekst	-10.1379
▁viking	-10.1386
▁beskrev	-10.1386
▁inf	-10.1399
▁idrettslag	-10.1404
halvøya	-10.1404
▁måned	-10.1409
▁kino	-10.1416
▁shan	-10.1421
▁spring	-10.1421
▁rose	-10.1427
▁ulv	-10.1427
▁øke	-10.1445
▁korn	-10.1459
▁pakistan	-10.1461
▁utgangspunkt	-10.1461
▁digital	-10.1461
▁kritikk	-10.1461
▁hjerne	-10.1461
▁utnytte	-10.1462
▁för	-10.1463
▁santa	-10.1463
▁1959	-10.1463
▁etterfølger	-10.1463
▁henholdsvis	-10.1464
▁grunnlegger	-10.1466
▁innsats	-10.1474
vakt	-10.1492
▁wu	-10.1498
▁sunn	-10.1504
▁nasjon	-10.1509
▁fn	-10.151
▁emil	-10.1519
▁befolkning	-10.1532
▁utenriks	-10.1533
hånd	-10.1539
▁marin	-10.1544
▁beskriver	-10.1546
serie	-10.1546
▁bakkroppen	-10.1557
bakken	-10.1572
41	-10.1575
▁bratt	-10.1576
▁fotograf	-10.1584
vinner	-10.1591
▁barb	-10.1596
løfte	-10.1596
head	-10.1597
▁cho	-10.1598
▁dekket	-10.1599
▁edderkoppen	-10.1604
▁guvernør	-10.1604
▁primær	-10.1604
type	-10.1605
komité	-10.1605
▁video	-10.1606
▁arbeiderpartiet	-10.1606
▁protest	-10.1606
▁håndball	-10.1607
▁hovedsak	-10.1615
ligner	-10.1615
mennene	-10.1619
▁his	-10.1636
riket	-10.1637
iseringen	-10.1649
▁endelig	-10.1655
▁angi	-10.1663
otte	-10.1666
▁histor	-10.1674
▁master	-10.1679
posisjon	-10.1681
▁kapp	-10.1681
styrt	-10.1685
herre	-10.1685
utvikling	-10.1689
▁behandle	-10.1691
kjent	-10.1704
▁trø	-10.1719
spir	-10.1728
▁blanding	-10.1742
▁museet	-10.1743
▁vulkan	-10.1749
frekvens	-10.1749
▁nominert	-10.1749
▁jakob	-10.1749
▁muslim	-10.1749
▁klassiske	-10.1753
▁papir	-10.1753
▁kysten	-10.1754
wald	-10.176
bukta	-10.1765
nemlig	-10.1766
▁petter	-10.1772
▁sankt	-10.1779
▁underlagt	-10.1782
▁ferr	-10.1793
▁foto	-10.1796
▁torg	-10.1799
▁problemer	-10.1813
▁nm	-10.1813
▁pil	-10.1817
▁try	-10.1827
forbindelse	-10.1836
angrep	-10.1837
▁fordelt	-10.1838
vekst	-10.1839
▁long	-10.1843
▁steve	-10.1845
▁medisinsk	-10.1848
▁homo	-10.1849
▁skapte	-10.1849
odo	-10.1855
▁oc	-10.1856
▁stig	-10.1861
makten	-10.1864
▁arve	-10.1869
masse	-10.188
formen	-10.1887
▁kommunist	-10.1887
▁skiller	-10.1895
løytnant	-10.1896
▁1933	-10.1896
▁debutalbum	-10.1896
▁positiv	-10.1896
▁publikum	-10.1896
opplæring	-10.1896
▁gustav	-10.1896
▁scott	-10.1896
▁studioalbum	-10.1896
▁håkon	-10.1898
▁telefon	-10.1898
▁fengsel	-10.1899
▁philip	-10.1899
▁bou	-10.19
▁dato	-10.1903
▁erklært	-10.1904
▁sikkerhets	-10.1905
▁skall	-10.1909
▁rapporter	-10.191
formula	-10.191
▁nød	-10.1911
▁mei	-10.1911
iserer	-10.1915
▁hval	-10.1919
▁oppnådd	-10.1919
▁neu	-10.1936
▁sær	-10.1941
▁gitarist	-10.1942
cent	-10.1945
bestemmelse	-10.1949
chester	-10.1952
▁ansvarlig	-10.1959
▁gö	-10.196
▁vist	-10.1972
zel	-10.1973
▁sideelv	-10.1976
høy	-10.1979
går	-10.1981
▁web	-10.1981
pur	-10.1982
▁statlig	-10.1983
▁klosteret	-10.1983
▁nedre	-10.1984
▁forbundet	-10.1986
▁nav	-10.1991
▁smak	-10.1991
▁kontrakt	-10.1996
drakt	-10.1999
hed	-10.2003
▁slett	-10.2005
regionen	-10.2008
▁tropp	-10.2012
anerne	-10.2017
cheng	-10.2039
▁utvikler	-10.204
▁pap	-10.2041
▁eide	-10.2044
▁science	-10.2045
gymnas	-10.2045
▁registrert	-10.2045
▁cirka	-10.2045
▁alfred	-10.2045
▁alvorlig	-10.2045
▁redusert	-10.2045
ström	-10.2046
dyktig	-10.2046
▁36	-10.2047
▁geografisk	-10.2047
▁kjemi	-10.2047
▁1926	-10.2047
▁1918	-10.2047
▁1914	-10.2047
setting	-10.2048
▁bakvingen	-10.2048
▁skøyte	-10.2049
▁group	-10.205
▁produksjonen	-10.2056
▁stabil	-10.2057
▁kanalen	-10.2058
▁filosof	-10.2081
▁lyn	-10.2085
▁fotballklubb	-10.2096
▁måne	-10.21
▁hil	-10.2104
29	-10.2107
sats	-10.2116
▁salg	-10.212
ington	-10.2137
▁din	-10.2139
materiale	-10.2141
fond	-10.2141
studie	-10.2144
▁krim	-10.2146
▁fritt	-10.215
▁vor	-10.2162
▁hve	-10.2162
▁saga	-10.2165
trykt	-10.2166
lich	-10.2172
▁bull	-10.2189
fyr	-10.219
▁ødelagt	-10.2197
▁østerriksk	-10.2197
▁regissør	-10.2197
▁ansikt	-10.2197
▁autonom	-10.2197
▁krevd	-10.2198
▁forårsake	-10.2198
▁naturgass	-10.2198
ressurs	-10.2198
▁1934	-10.22
▁signert	-10.22
▁spredt	-10.2201
familie	-10.2202
▁hitler	-10.2206
regn	-10.2211
▁show	-10.2214
able	-10.2217
bach	-10.2221
dikt	-10.2226
allianse	-10.2232
▁sist	-10.2236
verksted	-10.2239
▁dominere	-10.2239
▁utøver	-10.2241
▁politiet	-10.2246
▁øyne	-10.226
alistisk	-10.2285
direktør	-10.2297
▁41	-10.2299
▁stilte	-10.2304
▁mill	-10.2305
horn	-10.2306
forsyning	-10.2307
ship	-10.231
▁forskjell	-10.2311
▁funn	-10.2315
▁mcc	-10.2326
hild	-10.2333
etten	-10.2335
stått	-10.2337
▁uker	-10.2341
ruten	-10.2349
▁fødsel	-10.235
▁juridisk	-10.235
▁sjelden	-10.2351
▁kombinert	-10.2351
▁sigurd	-10.2351
▁edvard	-10.2351
▁redusere	-10.2351
▁1919	-10.2353
▁drammen	-10.2353
▁telemark	-10.2354
▁france	-10.2354
▁internett	-10.2354
▁bekrefte	-10.2354
nntatt	-10.2355
▁beregne	-10.2355
kompani	-10.2356
▁spenning	-10.2357
▁slank	-10.2359
drevet	-10.2365
▁utvalg	-10.2369
▁reserve	-10.2369
▁oversettelse	-10.237
▁trener	-10.2375
▁pur	-10.2376
▁agder	-10.2385
▁cel	-10.2388
▁beskrive	-10.2393
▁internasjonalt	-10.2394
▁shu	-10.2395
▁simon	-10.2405
▁ey	-10.2406
strakt	-10.2413
▁dommer	-10.2415
▁wel	-10.2416
▁rune	-10.2424
▁600	-10.2443
krig	-10.245
▁resultatet	-10.2482
base	-10.2489
▁vii	-10.2493
versjon	-10.2497
▁gjeld	-10.2498
▁mah	-10.2499
▁petr	-10.2501
▁1000	-10.2503
▁nowiki	-10.2507
▁portugisisk	-10.2507
▁akershus	-10.2507
▁erobret	-10.2507
▁kjøtt	-10.2507
▁monument	-10.2507
▁ekstrem	-10.2507
▁nikola	-10.2507
▁tilsvarer	-10.2507
▁dverg	-10.2509
▁1931	-10.2509
▁godkjent	-10.2509
▁firmaet	-10.2509
▁endringer	-10.2513
sdatter	-10.2516
speil	-10.2526
▁38	-10.2531
▁fli	-10.2532
▁utdannelse	-10.2535
▁rand	-10.2539
▁server	-10.2544
▁måneder	-10.2544
snegl	-10.2544
ifi	-10.255
▁160	-10.2567
bass	-10.257
▁elektron	-10.2571
▁ulik	-10.2589
▁pik	-10.2593
politikk	-10.26
møll	-10.2601
▁penge	-10.2613
stell	-10.2615
produsent	-10.2617
▁ingeniør	-10.262
▁town	-10.262
hjem	-10.2623
▁bland	-10.2626
▁vegg	-10.2638
kampen	-10.264
▁utstyrt	-10.2646
rapport	-10.2653
▁europe	-10.2657
88	-10.2664
admiral	-10.2665
▁tømmer	-10.2665
rettigheter	-10.2666
▁væske	-10.2666
▁nedbør	-10.2666
sluttet	-10.2668
mønster	-10.2668
▁angripe	-10.267
vingen	-10.2672
▁hersker	-10.2676
▁inngår	-10.2681
▁høst	-10.2681
▁deltaker	-10.2681
▁drikke	-10.2685
▁demningen	-10.2687
kilde	-10.269
▁modellen	-10.2693
▁dannes	-10.27
▁representert	-10.2704
▁levende	-10.2706
▁fløy	-10.2706
▁team	-10.2712
ovo	-10.2729
▁dyrke	-10.2733
▁vekk	-10.2735
▁river	-10.2742
bygningen	-10.2743
▁term	-10.2747
▁bevis	-10.2752
▁lykke	-10.2755
aksjonen	-10.276
▁tyr	-10.2771
▁oh	-10.2777
▁euro	-10.2789
▁formen	-10.2796
▁utgi	-10.2796
▁storm	-10.2797
▁banen	-10.2818
▁frihet	-10.2819
▁klassen	-10.2823
edderkopper	-10.2827
▁elisabeth	-10.2827
▁konkurrere	-10.2827
▁millimeter	-10.2827
▁skjold	-10.2827
▁ungarn	-10.2827
pedagog	-10.2827
▁fjær	-10.2827
▁døgn	-10.2827
▁bevege	-10.2828
▁beholdt	-10.2829
▁programleder	-10.2829
▁1935	-10.2829
▁1917	-10.2829
▁programmer	-10.2834
▁typen	-10.2835
▁east	-10.2838
eksamen	-10.2845
▁ledende	-10.2846
sending	-10.2859
▁motsetning	-10.286
▁1600	-10.2871
tråd	-10.2874
▁ferge	-10.2901
▁myk	-10.2903
▁bilder	-10.291
▁aar	-10.2912
▁junior	-10.2912
▁reaksjon	-10.2914
▁begrep	-10.2916
▁utga	-10.2921
▁game	-10.2923
▁bevegelsen	-10.2934
▁øker	-10.2956
bøker	-10.296
▁bang	-10.2982
▁skulptur	-10.2991
▁alexander	-10.2991
▁tegneserie	-10.2991
▁golf	-10.2991
▁luther	-10.2992
▁1923	-10.2993
▁skarp	-10.2993
▁1937	-10.2994
▁utvikle	-10.2999
▁filip	-10.3005
▁beskrivelse	-10.3015
light	-10.3029
▁vogn	-10.3029
▁fru	-10.3038
▁riket	-10.3039
▁besøkte	-10.3051
▁fantes	-10.3054
bryter	-10.3065
▁fortsetter	-10.3069
▁skuespill	-10.3074
▁120	-10.3075
▁spise	-10.3083
næring	-10.3083
▁flåte	-10.3099
▁landskapet	-10.3103
▁gui	-10.3109
▁out	-10.3114
rap	-10.3115
historisk	-10.3117
▁800	-10.3122
▁snu	-10.3127
cio	-10.3137
ique	-10.3149
▁antagelig	-10.3157
▁installert	-10.3157
▁prefektur	-10.3157
▁belgisk	-10.3158
▁faktisk	-10.3158
▁myndighetene	-10.3159
▁wall	-10.3161
▁kvalitet	-10.3162
▁sykkel	-10.3166
▁eksport	-10.3166
▁vokser	-10.3167
yuan	-10.3168
▁ukjent	-10.3168
▁franz	-10.3168
fell	-10.3171
▁måten	-10.3176
▁angeles	-10.3179
▁oppløst	-10.3179
▁munk	-10.318
▁orient	-10.3187
▁kva	-10.3196
politisk	-10.3206
▁avsluttet	-10.3208
▁styrte	-10.3212
▁sikte	-10.3213
dommer	-10.3226
▁tykk	-10.3229
▁kapital	-10.3238
▁salme	-10.3242
▁grim	-10.3243
▁drag	-10.3247
▁utføre	-10.3267
▁170	-10.3277
▁anse	-10.3289
bibliotek	-10.3289
▁jones	-10.329
▁tann	-10.3308
▁kandidat	-10.3314
vogn	-10.3319
▁dekkvingene	-10.3327
▁restaurant	-10.3327
friidrettsutøver	-10.3327
▁forbedre	-10.3327
▁atmosfære	-10.3328
ition	-10.3328
▁rolf	-10.3329
▁mineral	-10.3329
▁1925	-10.333
▁svein	-10.333
▁erfaring	-10.3332
▁forenkle	-10.3335
▁schi	-10.3339
▁good	-10.3351
▁khan	-10.3363
▁kirk	-10.3373
▁synes	-10.3374
▁fargen	-10.3385
▁overført	-10.3395
▁jud	-10.3406
▁plassering	-10.3415
▁elektronisk	-10.3419
▁roger	-10.342
▁kha	-10.3432
▁skapt	-10.3435
▁opphold	-10.3438
bury	-10.3444
▁tilbud	-10.3454
▁penger	-10.3454
konkurranse	-10.3464
funksjon	-10.3465
▁arrangement	-10.3499
▁konstruert	-10.3499
▁naturreservat	-10.3499
▁eksemplar	-10.3499
▁manuskript	-10.3499
▁league	-10.3499
▁asteroide	-10.3499
▁ungarsk	-10.35
▁arthur	-10.35
▁egenskaper	-10.35
▁invasjon	-10.35
fartøy	-10.3501
komiteen	-10.3502
▁niels	-10.3503
▁krever	-10.3503
sseremonien	-10.3504
▁lokalisert	-10.3506
▁turneringen	-10.3508
trukket	-10.3508
▁mottatt	-10.3511
▁artister	-10.3512
▁bud	-10.3513
▁armé	-10.352
gress	-10.3535
▁bosatt	-10.354
▁sørover	-10.354
▁walter	-10.3541
▁unna	-10.3542
▁høv	-10.3542
▁skaper	-10.3544
▁angel	-10.3546
▁metro	-10.3551
▁katolsk	-10.3553
▁norman	-10.3553
▁feng	-10.3557
distanse	-10.3557
holt	-10.3564
▁østre	-10.3573
▁american	-10.359
▁lake	-10.3592
▁athen	-10.3592
▁legen	-10.3601
▁ansatt	-10.3603
▁qa	-10.3608
▁skikk	-10.3609
pensjon	-10.3643
stjerne	-10.3645
tittel	-10.3647
▁beau	-10.3654
▁karbon	-10.366
▁kö	-10.3674
▁ludvig	-10.3675
▁skottland	-10.3675
▁vilhelm	-10.3675
▁kommando	-10.3675
▁fiktiv	-10.3675
konferanse	-10.3675
▁valuta	-10.3675
▁global	-10.3676
▁bronsemedalje	-10.3676
▁1929	-10.3676
▁power	-10.3677
spinner	-10.3677
▁1927	-10.3677
▁1904	-10.3677
▁levde	-10.3677
▁friidrett	-10.3678
▁sverre	-10.3678
▁1910	-10.3679
▁planlagt	-10.368
▁komposisjon	-10.3682
▁flytte	-10.3689
strup	-10.3694
▁talent	-10.37
▁karrieren	-10.3703
▁uavhengighet	-10.3706
gram	-10.3708
skab	-10.3714
▁kin	-10.3719
▁debatt	-10.3723
▁bakke	-10.3737
ов	-10.3746
▁rug	-10.3755
▁forsterke	-10.376
▁66	-10.3762
▁raf	-10.3763
▁malm	-10.3763
▁delstat	-10.3767
▁elske	-10.3769
▁familiegruppe	-10.3772
skjerm	-10.3781
▁dominert	-10.3789
▁demokrati	-10.3795
▁terror	-10.3814
▁forlenge	-10.3819
skjær	-10.3832
flate	-10.3839
▁oppnå	-10.3847
ς	-10.3853
behandling	-10.3853
▁aleksander	-10.3853
▁katedral	-10.3853
▁1922	-10.3853
▁flaggbærer	-10.3853
▁rogaland	-10.3853
▁diverse	-10.3853
▁radikal	-10.3853
▁allierte	-10.3853
▁gunnar	-10.3854
▁rektor	-10.3854
▁forkortet	-10.3854
▁konstant	-10.3855
▁cli	-10.3855
▁paus	-10.3856
▁riktig	-10.3857
▁brown	-10.3858
▁styreleder	-10.386
wick	-10.3871
▁victoria	-10.3872
▁home	-10.3876
▁hellas	-10.3879
▁gjeng	-10.3885
▁grønland	-10.3889
pleie	-10.3891
batt	-10.3894
▁tyskerne	-10.3899
▁thu	-10.3904
▁estland	-10.3915
duk	-10.3929
▁intel	-10.3953
▁hydro	-10.3965
▁opplag	-10.3969
▁toll	-10.3975
teater	-10.3989
kjede	-10.4012
▁vietnam	-10.4028
▁liber	-10.4031
▁utenlandsk	-10.4033
dynasti	-10.4035
▁svalbard	-10.4035
▁jørgen	-10.4035
▁praktisk	-10.4036
▁stiftelsen	-10.4037
▁tropisk	-10.4037
▁wolf	-10.404
▁stab	-10.4047
▁bønn	-10.4047
▁studere	-10.405
▁tolke	-10.4055
▁konkurransen	-10.4055
▁sukker	-10.4059
▁1896	-10.4061
▁1890	-10.4061
▁bøy	-10.4061
▁vokalist	-10.4062
cca	-10.4062
▁1500	-10.4077
ск	-10.4086
katt	-10.4094
ан	-10.4097
jä	-10.412
▁trommer	-10.4124
▁menneskelig	-10.413
strømmen	-10.414
idrett	-10.4141
▁rulle	-10.4148
årig	-10.4152
▁etnisk	-10.4161
▁sørge	-10.419
yll	-10.4191
▁vg	-10.4191
tveit	-10.4194
struktur	-10.4199
representant	-10.4199
president	-10.42
▁dokumentar	-10.422
▁münchen	-10.422
▁oppmerksomhet	-10.422
▁vedlikehold	-10.422
▁engasjert	-10.422
▁christoph	-10.422
▁fiolin	-10.422
▁gabriel	-10.4221
▁fungert	-10.4222
▁betjene	-10.4222
▁1916	-10.4223
▁sjette	-10.4224
▁fullført	-10.4227
▁anledning	-10.4234
rykket	-10.4236
▁1897	-10.424
avisen	-10.4242
titu	-10.4245
slått	-10.4247
▁isteden	-10.4252
▁plast	-10.4255
▁bryn	-10.4255
▁akku	-10.4256
▁operere	-10.4259
kontroll	-10.426
teori	-10.4269
▁johansen	-10.4274
levende	-10.4291
▁intens	-10.4303
▁sving	-10.433
odden	-10.4354
skrevet	-10.4378
▁henri	-10.4383
blå	-10.4393
programmet	-10.4394
huang	-10.4405
▁symfoni	-10.4409
▁afghanistan	-10.4409
▁reklame	-10.4409
▁utelukke	-10.4409
▁vesentlig	-10.4409
▁washington	-10.4409
▁brødrene	-10.4409
▁kombinasjon	-10.4409
▁oppstår	-10.4409
▁kristiansand	-10.4409
▁frykt	-10.4409
▁antatt	-10.4409
▁yrkes	-10.4409
▁social	-10.441
▁manager	-10.4411
▁litterær	-10.4413
▁2018	-10.4413
▁eik	-10.4414
▁bydistrikt	-10.4415
▁hovedkontor	-10.4417
▁biologisk	-10.4418
▁onkel	-10.4419
▁pedersen	-10.4421
▁demokratiske	-10.4422
opplysning	-10.4425
▁orgel	-10.4425
▁fremført	-10.443
▁morten	-10.4446
bunn	-10.4448
bredd	-10.4449
▁holland	-10.4456
▁tilpasse	-10.4458
▁fol	-10.4502
perioden	-10.4538
▁forklare	-10.4551
skyting	-10.4553
▁bryte	-10.456
▁palm	-10.4563
▁osv	-10.4571
▁verb	-10.4574
bukk	-10.4583
instrument	-10.4587
personlighet	-10.4589
▁kub	-10.4589
arafa	-10.4591
▁klassisk	-10.4596
▁angelsaksisk	-10.4601
▁shanghai	-10.4601
▁tønsberg	-10.4601
▁hjørne	-10.4601
▁heinrich	-10.4601
▁tabellen	-10.4601
▁verdenscup	-10.4601
vassdraget	-10.4601
▁kommersiell	-10.4601
▁definert	-10.4602
▁doktorgrad	-10.4602
▁arendal	-10.4603
▁oppdagelse	-10.4603
▁opptrer	-10.4604
▁1915	-10.4604
opptreden	-10.4605
▁hensyn	-10.4611
▁hvile	-10.463
▁tynn	-10.4631
klasse	-10.4639
▁synd	-10.4644
▁mørkere	-10.4651
▁lord	-10.4655
▁besetning	-10.4656
tysk	-10.4665
▁nordover	-10.4665
▁700	-10.4674
etasje	-10.4694
▁frigjør	-10.47
gass	-10.4713
▁fortsette	-10.4716
▁beina	-10.4736
vall	-10.4739
▁nettsted	-10.4748
▁vass	-10.4757
▁vingene	-10.4778
▁sara	-10.4789
▁sveitsisk	-10.4795
▁australsk	-10.4797
▁eksperiment	-10.4797
▁hensikt	-10.4797
▁fuktig	-10.4797
▁skildre	-10.4798
▁fjellkjede	-10.48
▁1921	-10.48
▁foregår	-10.48
▁følelse	-10.48
▁jackson	-10.4806
▁250	-10.4807
▁ordnet	-10.4813
▁biografi	-10.4814
▁from	-10.4821
▁hyl	-10.4826
tilstand	-10.4826
areal	-10.4828
▁humor	-10.483
▁einar	-10.4834
▁utenom	-10.4834
sundet	-10.4835
periode	-10.484
nymfe	-10.4843
▁musikalsk	-10.4878
▁krok	-10.4884
ор	-10.4912
▁størst	-10.4916
kost	-10.4935
на	-10.4936
▁forstå	-10.4937
▁ordre	-10.4951
bekk	-10.4952
mä	-10.4956
brev	-10.4975
▁stikk	-10.4983
problem	-10.4991
transport	-10.4992
▁komponert	-10.4997
▁argument	-10.4997
▁negativ	-10.4997
▁dollar	-10.4997
▁hebraisk	-10.4997
▁alexandr	-10.4998
regulering	-10.4998
▁bærum	-10.4998
▁oberst	-10.4998
▁fangst	-10.4999
▁rednings	-10.4999
▁rester	-10.4999
karriere	-10.4999
▁elleve	-10.4999
▁samuel	-10.5
▁hedmark	-10.5
▁1911	-10.5
▁smelte	-10.5002
▁unngå	-10.5005
▁allmenn	-10.5008
▁major	-10.5009
stokk	-10.501
høyden	-10.501
▁maritim	-10.5012
▁skatt	-10.5012
▁kommunistisk	-10.5015
▁bygnings	-10.5016
▁tvang	-10.5027
prest	-10.503
▁chu	-10.5045
▁johnson	-10.5047
▁book	-10.5065
▁erstatte	-10.5067
▁ansett	-10.5068
▁bow	-10.5081
hvelv	-10.5085
▁wild	-10.5088
▁road	-10.5107
▁kunstnerisk	-10.5119
▁laks	-10.5126
▁bestemme	-10.5136
økonomi	-10.5157
yama	-10.5182
▁stå	-10.5191
▁alpin	-10.5191
▁barcelona	-10.5201
▁göteborg	-10.5201
▁eventuel	-10.5201
▁hordaland	-10.5201
▁kritiker	-10.5201
▁fenomen	-10.5201
▁etterkommer	-10.5202
▁søndag	-10.5202
▁lørdag	-10.5202
▁zealand	-10.5202
▁ombord	-10.5202
▁tyrkisk	-10.5202
▁utseende	-10.5202
▁vedtatt	-10.5202
▁white	-10.5202
▁prinsesse	-10.5203
bølge	-10.5203
▁øvelse	-10.5203
▁stang	-10.5204
▁1906	-10.5204
▁gravlagt	-10.5205
▁sjanger	-10.5207
▁xu	-10.5208
▁vestfold	-10.5209
▁prix	-10.521
▁håndverk	-10.5215
rekord	-10.5217
▁respekt	-10.5217
▁baron	-10.5219
▁knud	-10.522
▁prinsipp	-10.5222
▁forbinde	-10.5224
▁sammenlagt	-10.5225
▁1899	-10.5228
▁mynt	-10.5228
▁europavei	-10.5235
kjerne	-10.5237
▁østover	-10.5238
▁life	-10.5241
ittisk	-10.5261
▁vindu	-10.5262
▁fortalt	-10.5267
▁demokrat	-10.5267
▁furu	-10.5288
kjøring	-10.53
▁maj	-10.5307
▁egyptisk	-10.5308
▁troms	-10.5312
▁vev	-10.5319
bakterie	-10.5333
▁departement	-10.5337
tavle	-10.5342
▁betale	-10.5342
sikkerhet	-10.5361
gnos	-10.5369
forståelse	-10.5394
▁republikk	-10.5401
evolusjon	-10.5405
▁alfabet	-10.541
▁definisjon	-10.541
▁involvert	-10.541
▁kollektiv	-10.541
▁varaordfører	-10.541
▁1901	-10.541
▁grunnleggende	-10.541
▁strekningen	-10.541
▁komplett	-10.541
▁thailand	-10.541
▁ovenfor	-10.541
▁geometr	-10.541
▁terreng	-10.541
▁sosialdemokrat	-10.541
▁utmerkelse	-10.541
fysikk	-10.5411
▁für	-10.5411
▁avdød	-10.5411
▁partner	-10.5411
▁overraske	-10.5411
▁midlertidig	-10.5413
▁økende	-10.542
aktivitet	-10.542
▁blind	-10.5421
▁down	-10.5423
▁alpinist	-10.5426
▁arena	-10.5439
▁statsråd	-10.5449
▁ungdomsskole	-10.5458
▁barneskole	-10.5463
▁strak	-10.5464
▁modern	-10.5485
▁skyte	-10.5489
▁elektro	-10.5493
▁kortere	-10.5498
jury	-10.5509
▁omdanne	-10.555
▁variere	-10.5552
▁øverst	-10.5552
legeme	-10.5557
gevær	-10.5557
▁forskjellig	-10.5563
▁110	-10.557
brakt	-10.5579
▁flest	-10.558
fast	-10.5582
▁regjer	-10.5599
demokra	-10.5609
fødte	-10.5618
▁milliarder	-10.5623
▁molekyl	-10.5623
▁sjeldne	-10.5623
▁tilknytning	-10.5623
▁færøyene	-10.5623
▁risiko	-10.5623
▁bjørk	-10.5623
▁presentert	-10.5623
▁nektet	-10.5623
▁adresse	-10.5623
▁syklist	-10.5624
▁kjøretøy	-10.5624
▁ørken	-10.5624
▁opptrådt	-10.5624
▁definere	-10.5627
▁klokken	-10.5628
▁kryp	-10.5629
▁myndigheter	-10.5629
utøver	-10.5629
▁moderat	-10.5634
gjenstander	-10.5634
▁avansert	-10.5637
styring	-10.5639
▁skjønn	-10.5641
▁anlagt	-10.5642
▁hamburg	-10.5645
▁kval	-10.565
▁heart	-10.5651
▁bevisst	-10.5656
▁ernst	-10.5658
▁utløp	-10.5659
▁great	-10.5673
registre	-10.5676
brett	-10.5683
▁klage	-10.569
▁who	-10.569
klokke	-10.5692
grunnsstasjon	-10.5693
▁kau	-10.5703
▁pont	-10.5704
veggen	-10.5708
▁elite	-10.572
agon	-10.5734
utgave	-10.5745
bød	-10.5751
▁opphør	-10.5783
▁rosa	-10.5805
krem	-10.5807
▁lyng	-10.581
▁spin	-10.5812
fattet	-10.5832
seremoni	-10.5834
▁kongelig	-10.5834
▁argentina	-10.584
▁bulgaria	-10.584
▁fakultet	-10.584
▁oksygen	-10.584
fundament	-10.584
▁hyppig	-10.584
▁heavy	-10.584
▁scoret	-10.584
▁batteri	-10.5841
▁herunder	-10.5841
▁flytende	-10.5842
ев	-10.5842
▁sølvmedalje	-10.5842
melding	-10.5844
▁hydrogen	-10.5845
▁hindre	-10.5845
▁røyk	-10.5847
bebyggelse	-10.5851
akademi	-10.5851
▁antas	-10.5852
▁hyper	-10.5854
▁piano	-10.5855
▁stalin	-10.5857
▁lisens	-10.5858
▁hotel	-10.5865
design	-10.5865
▁class	-10.5871
▁inngikk	-10.5875
tilbud	-10.5884
vervet	-10.5887
▁fau	-10.589
volum	-10.5896
▁karakteristisk	-10.5906
▁peder	-10.5913
▁kriminal	-10.5927
▁gjennomføre	-10.5944
vatn	-10.5958
ко	-10.6015
▁victor	-10.6039
▁forhindre	-10.6062
▁renessanse	-10.6062
▁skjønt	-10.6062
▁arrestert	-10.6062
▁parallell	-10.6062
▁antarktis	-10.6062
▁belgia	-10.6062
▁eksisterer	-10.6062
▁kritisert	-10.6062
▁terminal	-10.6062
▁mektig	-10.6062
▁frivillig	-10.6062
▁mekanisk	-10.6062
▁nevø	-10.6062
▁bodø	-10.6063
▁kobber	-10.6063
▁sprint	-10.6063
▁josef	-10.6063
traktaten	-10.6063
▁brigade	-10.6063
▁andré	-10.6063
▁novelle	-10.6064
▁regelmessig	-10.6064
▁plateselskapet	-10.6065
▁1913	-10.6065
▁tilhengere	-10.6067
▁monark	-10.6067
▁beskyttelse	-10.6071
▁blank	-10.6072
▁fastlandet	-10.6073
kandidat	-10.6079
▁barnehage	-10.6079
▁party	-10.6084
høyde	-10.6086
museet	-10.6087
▁kontrollert	-10.6089
utstyr	-10.609
flokk	-10.6094
skyld	-10.6101
økonom	-10.6105
▁1860	-10.6105
▁dukket	-10.6121
▁trond	-10.6164
tegning	-10.6202
graph	-10.6206
▁fulgt	-10.6235
scene	-10.6249
start	-10.627
handlet	-10.6271
▁ludwig	-10.6289
vurdering	-10.6289
▁tilsammen	-10.6289
▁ødelegge	-10.629
▁protein	-10.629
automatisk	-10.6291
ст	-10.6291
▁undergrunnsbane	-10.6293
▁anklage	-10.6293
▁slange	-10.6294
stipend	-10.6296
▁vannkraftverk	-10.6296
▁bispe	-10.6297
▁verdensmester	-10.6298
▁fremstille	-10.6301
▁forandre	-10.6307
▁byggingen	-10.6307
▁1895	-10.6318
▁synlig	-10.6319
▁landområde	-10.6319
relatert	-10.6327
▁puppe	-10.6329
▁manuel	-10.634
▁skaffe	-10.6345
orkester	-10.6365
▁sovjet	-10.6373
▁arkeolog	-10.6388
▁ytterst	-10.6425
▁trent	-10.6443
bringe	-10.6463
pati	-10.6472
▁europeisk	-10.6482
orientert	-10.6483
bombe	-10.6486
▁larve	-10.6501
▁tildele	-10.6503
▁napoleon	-10.6522
▁1909	-10.6522
▁forøvrig	-10.6522
▁liverpool	-10.6522
▁ukrainsk	-10.6522
▁country	-10.6522
▁nøkkel	-10.6522
▁sachsen	-10.6522
▁anerkjenne	-10.6522
▁originaltittel	-10.6523
▁vegetasjon	-10.6523
kirch	-10.6524
mekanisme	-10.6525
▁romsdal	-10.6525
▁sentralbank	-10.6525
▁generasjon	-10.6525
▁tennis	-10.6527
kjønn	-10.653
▁bedrifter	-10.653
▁betalt	-10.6534
▁høyesterett	-10.6538
▁klatre	-10.654
▁1888	-10.6542
kreft	-10.6542
▁gjennombrudd	-10.6547
▁utvidelse	-10.6548
▁spenn	-10.6548
provins	-10.6551
konsert	-10.6553
▁georgia	-10.6553
▁gradvis	-10.6559
▁oval	-10.6563
▁urban	-10.6584
▁nerve	-10.6603
fried	-10.6618
▁krise	-10.6625
▁grend	-10.6625
▁håp	-10.6657
verktøy	-10.6658
▁skuespillerinne	-10.6659
▁vanligst	-10.6666
▁faglig	-10.6685
▁ideal	-10.6685
▁prosti	-10.6698
fabrik	-10.6701
▁høg	-10.6732
takket	-10.6735
▁ove	-10.675
korset	-10.6752
▁association	-10.676
▁elizabeth	-10.676
▁maksimal	-10.676
▁intervju	-10.676
▁rekrutt	-10.676
▁innbyggerne	-10.676
▁konvensjon	-10.676
▁oppretthold	-10.676
▁utspring	-10.676
▁hendelser	-10.676
▁søndre	-10.676
▁kvadrat	-10.676
▁amatør	-10.676
▁overtatt	-10.6761
ensemble	-10.6761
ovitsj	-10.6761
▁http	-10.6761
▁kristin	-10.6761
▁kronologisk	-10.6763
▁poesi	-10.6764
▁väst	-10.6764
▁1905	-10.6764
▁stengt	-10.6766
▁point	-10.6766
▁nattfly	-10.6766
▁opplevd	-10.6766
▁kongress	-10.6768
▁frp	-10.6768
▁avgrense	-10.6771
▁kristiania	-10.6779
▁avholdt	-10.678
tekst	-10.6781
▁pirat	-10.6785
▁1898	-10.6786
▁tekstil	-10.6792
regjering	-10.6794
▁jernbanestasjon	-10.6795
hjelp	-10.6795
▁1200	-10.6802
▁persisk	-10.6805
vennlig	-10.6819
▁sokn	-10.682
stigning	-10.6822
▁borgerkrig	-10.6829
▁innerst	-10.6833
▁pels	-10.6859
▁seire	-10.6862
▁aksel	-10.6875
▁call	-10.6909
▁lukke	-10.6938
veps	-10.6946
▁chris	-10.697
▁francis	-10.7
▁amsterdam	-10.7004
▁hovedkvarter	-10.7004
▁hovedpersonen	-10.7004
▁oppdatert	-10.7004
▁giovann	-10.7004
▁katalog	-10.7004
▁permanent	-10.7004
▁referanse	-10.7004
▁embets	-10.7004
▁adolf	-10.7004
▁utsikt	-10.7004
apparat	-10.7004
▁oppfatte	-10.7005
▁bøkene	-10.7005
▁serbisk	-10.7005
▁castle	-10.7005
▁innlemme	-10.7005
▁eksistert	-10.7005
▁forkortelse	-10.7005
▁gregor	-10.7005
skildring	-10.7007
▁hindu	-10.7009
▁svekke	-10.701
▁eiendommen	-10.7013
▁antonio	-10.7015
▁eurovis	-10.7015
▁rytter	-10.702
▁røtter	-10.702
▁nordsamisk	-10.7023
▁idé	-10.7026
▁geir	-10.7044
hovedstad	-10.7044
offiser	-10.7044
sykdommer	-10.7049
utvalget	-10.7076
▁israelsk	-10.7083
drive	-10.7106
vitenskapelig	-10.7109
▁vennskap	-10.7109
wich	-10.7116
▁mannlig	-10.7116
▁kho	-10.7145
▁grunnlov	-10.7163
tagelse	-10.7171
▁arkeologisk	-10.7181
▁lill	-10.7185
stue	-10.7235
regime	-10.7239
direktoratet	-10.7254
▁1907	-10.7254
▁dirigent	-10.7254
▁lillehammer	-10.7254
▁matematikk	-10.7254
▁patriark	-10.7254
▁prestegjeld	-10.7254
▁territorie	-10.7254
▁virginia	-10.7254
▁champion	-10.7254
▁kvalifisering	-10.7254
▁innebærer	-10.7254
▁stråling	-10.7254
▁minoritet	-10.7254
▁henrettet	-10.7254
▁kommentar	-10.7254
▁deutsche	-10.7254
▁hendelsen	-10.7255
ος	-10.7255
▁kostnad	-10.7255
▁jøder	-10.7256
▁nyhets	-10.7258
▁investering	-10.7259
▁metoder	-10.726
▁forbudt	-10.726
▁tegninger	-10.7264
▁nazist	-10.7265
ōng	-10.7268
▁misjons	-10.7277
▁young	-10.7279
▁reich	-10.7281
▁søyle	-10.7288
utdanning	-10.73
resultat	-10.7301
arkitekt	-10.7301
litteratur	-10.7301
grønn	-10.7301
▁egil	-10.7314
▁smerte	-10.7316
gudinnen	-10.7357
▁oversette	-10.7386
ledelse	-10.7397
▁musikal	-10.7407
svarte	-10.7446
kansler	-10.7492
republik	-10.7508
▁psyko	-10.7509
ografisk	-10.751
▁favoritt	-10.751
▁luxembourg	-10.751
▁sebastian	-10.751
▁chicago	-10.751
▁ukraina	-10.751
▁1883	-10.751
disiplin	-10.751
veksling	-10.751
▁church	-10.7511
▁henrettelse	-10.7511
▁apollo	-10.7511
▁etablere	-10.7511
▁eksistens	-10.7511
materiell	-10.7511
▁føderal	-10.7511
worth	-10.7513
▁foreslått	-10.7513
▁konsekvens	-10.7514
▁linux	-10.7514
▁magasinet	-10.7514
▁francisco	-10.7515
▁halvparten	-10.7515
▁markedet	-10.7515
▁skygge	-10.7523
▁spreng	-10.7524
▁forbruker	-10.7529
▁nederlag	-10.7529
▁etappe	-10.7532
▁alex	-10.7532
▁feire	-10.7541
scar	-10.7549
gripe	-10.7549
fellesskap	-10.7551
▁tredjeplass	-10.7557
▁drepe	-10.7557
ière	-10.7563
institutt	-10.7563
redaktør	-10.7564
▁høydepunkt	-10.7583
astronom	-10.76
▁million	-10.7612
bæk	-10.7623
▁hekk	-10.7636
▁fam	-10.7641
▁utøve	-10.7714
▁harmoni	-10.7723
▁skriftlig	-10.7725
samband	-10.7726
▁energiselskape	-10.7736
▁brygge	-10.7773
▁doktor	-10.7773
▁medaljer	-10.7773
▁frankfurt	-10.7774
▁færøysk	-10.7774
▁konservative	-10.7774
▁narkotika	-10.7774
▁styrmann	-10.7774
▁tsjekkisk	-10.7774
▁benjamin	-10.7774
▁forveksle	-10.7774
▁invadert	-10.7774
▁progressiv	-10.7774
▁venezia	-10.7774
▁kavaleri	-10.7774
▁cappelen	-10.7774
▁artilleri	-10.7774
▁sammenslåing	-10.7774
▁preussen	-10.7774
▁gjentatt	-10.7774
▁margaret	-10.7774
▁uvanlig	-10.7774
▁ålesund	-10.7774
▁forsvant	-10.7774
▁hjelm	-10.7774
▁canadisk	-10.7774
lidelse	-10.7774
▁senior	-10.7774
▁gjennomsnittlig	-10.7774
▁fjordane	-10.7775
▁kullkraftverk	-10.7775
▁stefan	-10.7775
▁tallrike	-10.7777
▁invest	-10.7777
palasset	-10.7779
▁trenger	-10.7779
▁programvare	-10.778
▁overlever	-10.778
▁generell	-10.778
▁mengder	-10.7781
▁spesifik	-10.7781
▁asbjørn	-10.7785
▁viktor	-10.7786
mission	-10.7789
▁grafisk	-10.7791
▁kreert	-10.7793
løv	-10.7806
▁forbunds	-10.7814
▁variert	-10.7829
spiss	-10.7852
▁låten	-10.7872
▁klippe	-10.7874
▁avslutte	-10.7877
gjerd	-10.7922
ла	-10.7929
time	-10.7936
▁kontrollere	-10.7938
bestand	-10.7952
ault	-10.7954
▁cuba	-10.7979
▁treffe	-10.7995
burn	-10.7996
hydr	-10.8002
bevegelse	-10.8013
▁punk	-10.8014
▁nevro	-10.8036
▁kjær	-10.804
▁ferskvann	-10.8044
▁kjønnsmodn	-10.8044
▁konkurrert	-10.8044
▁microsoft	-10.8044
▁nøytral	-10.8044
▁ortodoks	-10.8044
▁windows	-10.8044
lokomotiv	-10.8044
▁nøyaktig	-10.8044
▁portugal	-10.8044
▁strategisk	-10.8044
▁utbredelse	-10.8044
▁trommeslager	-10.8044
▁litauen	-10.8044
▁oxford	-10.8044
▁aktuell	-10.8044
▁seinere	-10.8044
▁central	-10.8044
▁ntnu	-10.8044
▁haakon	-10.8044
▁contest	-10.8045
▁beslutning	-10.8045
▁theodor	-10.8045
▁efter	-10.8046
▁datamaskin	-10.8046
ови	-10.8046
▁import	-10.8047
turbiner	-10.8047
▁oppdager	-10.8048
▁1902	-10.8048
straße	-10.8051
▁muskel	-10.8052
terapi	-10.8053
▁tjener	-10.8053
▁bryggeri	-10.8056
▁ytelse	-10.806
▁rifle	-10.8065
▁lauren	-10.8077
syssel	-10.8083
vík	-10.8104
▁domkirke	-10.8123
ен	-10.817
▁datterselskap	-10.818
▁oppleve	-10.8206
▁beholde	-10.8208
register	-10.8214
▁øygrupp	-10.8246
▁tidligst	-10.8253
▁twi	-10.8284
▁britis	-10.8292
▁electric	-10.8322
▁konstitusjon	-10.8322
▁rudolf	-10.8322
▁wergeland	-10.8322
▁eksisterende	-10.8322
▁ektefelle	-10.8322
▁prøvd	-10.8322
▁embeds	-10.8322
▁1861	-10.8322
▁tyrkia	-10.8322
▁essay	-10.8322
▁tilskuere	-10.8322
▁fødselsår	-10.8322
▁söder	-10.8322
▁igjennom	-10.8322
teatret	-10.8322
▁nevner	-10.8323
▁utpekt	-10.8323
▁stadium	-10.8323
▁utfordre	-10.8323
▁opprettelse	-10.8324
▁sykdommen	-10.8325
▁pierre	-10.8328
▁western	-10.8328
▁norway	-10.8329
▁antikken	-10.8335
▁forvente	-10.8339
▁trenings	-10.834
fløyte	-10.8343
▁våt	-10.8344
▁bedriften	-10.835
▁nederst	-10.8353
økning	-10.8359
erstatning	-10.8364
▁forvalte	-10.8369
blomsterflue	-10.8388
▁brent	-10.8388
divisjon	-10.839
spørsmål	-10.8397
frukt	-10.8398
tradisjon	-10.8398
prøve	-10.8406
▁bakkropp	-10.8413
utenriksminister	-10.8426
▁kongerike	-10.8468
▁ligge	-10.8503
▁tromme	-10.8511
▁bonn	-10.8516
▁beslutte	-10.8524
▁ambassadør	-10.8607
▁hjalp	-10.8607
▁komponent	-10.8607
▁observert	-10.8607
▁omdøpt	-10.8607
▁parallelt	-10.8607
▁1903	-10.8607
▁jomfru	-10.8607
▁øyeblikk	-10.8607
▁kommandør	-10.8607
▁tolkning	-10.8607
▁abraham	-10.8607
▁gælisk	-10.8607
▁mangfold	-10.8607
▁identitet	-10.8607
▁texas	-10.8607
▁petersburg	-10.8608
▁rumensk	-10.8608
▁flyktning	-10.8608
▁stanley	-10.8608
▁fremtidig	-10.8608
▁dynami	-10.8608
▁dvd	-10.8609
▁gråbrun	-10.861
▁gulbrun	-10.8611
▁disney	-10.8611
▁massiv	-10.8612
▁gullmedalje	-10.8614
rhein	-10.8614
▁presentere	-10.8621
▁operativsystem	-10.8625
▁observasjon	-10.8629
▁hms	-10.8652
ingeniør	-10.8691
▁utvide	-10.8692
teknologi	-10.8692
variasjon	-10.8733
▁skanse	-10.8749
▁satse	-10.8755
▁hevn	-10.8757
▁delgruppe	-10.8793
▁undergrunns	-10.8802
▁dramatisk	-10.8807
▁inskripsjon	-10.8901
psykiatri	-10.8901
▁basketball	-10.8901
▁columbia	-10.8901
▁football	-10.8901
▁helsingfors	-10.8901
▁låtskriver	-10.8901
▁okkupert	-10.8901
▁pronotum	-10.8901
▁pyramid	-10.8901
▁særskilt	-10.8901
▁valgdeltakelse	-10.8901
▁fiendtlig	-10.8901
▁akseptert	-10.8901
▁buskerud	-10.8901
▁bystatus	-10.8901
▁sparebank	-10.8901
▁taylor	-10.8901
▁konsernet	-10.8901
▁yngste	-10.8901
▁konsonant	-10.8902
▁snorre	-10.8902
▁etablering	-10.8902
▁barnebarn	-10.8902
▁lewis	-10.8902
▁skjøt	-10.8903
▁forklaring	-10.8903
▁bbc	-10.8905
planlegging	-10.8906
▁bensin	-10.8906
▁hjemmebane	-10.8906
town	-10.8909
▁støv	-10.8912
▁stedsnavn	-10.8913
chuan	-10.8921
▁balanse	-10.8929
finansiert	-10.893
kirurg	-10.8931
▁benevn	-10.8932
▁ballett	-10.8934
▁tjent	-10.8937
▁undervist	-10.895
▁næringsliv	-10.8976
▁jenn	-10.8993
flagg	-10.8998
▁hytte	-10.9069
gjest	-10.911
prinsippet	-10.9122
summen	-10.9184
kringkasting	-10.9204
▁aleksandr	-10.9204
▁assosiert	-10.9204
▁fjorten	-10.9204
▁guddommelig	-10.9204
▁hongkong	-10.9204
▁meksikansk	-10.9204
▁nürnberg	-10.9204
▁symptom	-10.9204
▁jacque	-10.9204
▁kommandant	-10.9204
▁signatur	-10.9204
▁stridsvogn	-10.9204
▁skihopper	-10.9205
▁firkant	-10.9205
▁stephen	-10.9205
▁skjebne	-10.9205
▁regulere	-10.9205
▁bolivia	-10.9205
▁walisisk	-10.9205
▁drømme	-10.9205
▁kjennetegne	-10.9206
▁dekorert	-10.9206
▁beordre	-10.9206
betjent	-10.9206
▁rakett	-10.9207
▁verdensrekord	-10.9207
▁underveis	-10.9208
▁prior	-10.9209
verdighet	-10.921
▁slippe	-10.9211
▁antyde	-10.9211
▁keltisk	-10.9213
▁spyd	-10.9213
▁ltd	-10.9237
kontrakt	-10.9239
dekorasjon	-10.9249
flyvning	-10.9274
▁organisere	-10.9305
befolkning	-10.9307
sentrum	-10.9309
gjerning	-10.9314
lokale	-10.9347
gjald	-10.9357
kjemi	-10.9371
▁konsul	-10.9392
▁astronomi	-10.9409
sjakk	-10.9515
jubileum	-10.9517
▁aluminium	-10.9517
▁bryllup	-10.9517
▁bulgarsk	-10.9517
▁fogderi	-10.9517
▁generalmajor	-10.9517
▁genitali	-10.9517
▁society	-10.9517
▁kapittel	-10.9517
▁vurdert	-10.9517
▁colombia	-10.9517
▁frogner	-10.9517
landkreis	-10.9517
▁charlotte	-10.9517
▁autoritet	-10.9517
▁axel	-10.9517
leverandør	-10.9517
▁vilkår	-10.9517
▁anvendes	-10.9518
▁stråle	-10.9518
▁erobring	-10.9519
opplevelse	-10.9519
▁josé	-10.9519
▁medvirket	-10.952
▁gerhard	-10.952
▁referert	-10.952
▁tokyo	-10.952
▁space	-10.952
▁oppfølger	-10.9522
▁clark	-10.9522
▁sunget	-10.9523
▁kjæreste	-10.9523
▁pioner	-10.9524
▁tvunge	-10.9535
hytta	-10.9536
▁fylle	-10.9551
▁lunge	-10.9573
slavisk	-10.9596
flåte	-10.963
finalen	-10.9633
spenning	-10.9664
▁minutt	-10.9672
▁overføre	-10.983
▁ferdinand	-10.984
▁guangdong	-10.984
▁hollywood	-10.984
▁innspilt	-10.984
▁petroleum	-10.984
▁påbegynt	-10.984
▁sjokolade	-10.984
▁skrivemåte	-10.984
▁vladimir	-10.984
▁alminnelig	-10.984
▁legendarisk	-10.984
▁utendørs	-10.984
▁utnevnelse	-10.984
▁sogneprest	-10.984
▁gustaf	-10.984
▁benedikt	-10.984
▁langvarig	-10.984
▁faktor	-10.984
▁registrering	-10.984
▁anthon	-10.984
▁ragnar	-10.984
▁sektor	-10.984
▁kallenavne	-10.984
▁dåp	-10.9841
▁kombinere	-10.9841
▁monroe	-10.9841
▁døpt	-10.9841
▁apple	-10.9842
▁titler	-10.9842
▁grieg	-10.9843
dekning	-10.9843
▁stryk	-10.9843
▁ivareta	-10.9844
▁advent	-10.9844
▁moore	-10.9846
▁holdning	-10.9857
▁inneba	-10.9872
emmelig	-10.9878
bragt	-10.989
botten	-10.9892
▁tjenestegjor	-10.9921
▁blanc	-10.9938
student	-10.9963
atlanti	-11.0064
ould	-11.012
østregionen	-11.0128
▁observa	-11.0148
▁infanteri	-11.0164
▁aftenposten	-11.0173
▁business	-11.0173
▁corporation	-11.0173
▁fremtredende	-11.0173
▁helikopter	-11.0173
▁illustrasjon	-11.0173
▁jerusalem	-11.0173
▁mountain	-11.0173
▁pedipalpe	-11.0173
▁prøyssisk	-11.0173
▁satellitt	-11.0173
▁łód	-11.0173
▁identifisert	-11.0173
▁returnert	-11.0173
▁innendørs	-11.0173
▁epigyn	-11.0173
▁tragedie	-11.0173
▁krystall	-11.0173
▁eidsvoll	-11.0173
▁angivelig	-11.0173
▁invitert	-11.0173
▁ulovlig	-11.0173
▁beleiring	-11.0173
▁sandefjord	-11.0173
▁ordinær	-11.0173
▁liknende	-11.0174
▁kvalifisert	-11.0174
▁kampanje	-11.0174
▁vakre	-11.0174
▁utforming	-11.0174
▁ekspert	-11.0175
▁beskjed	-11.0175
▁bløt	-11.0177
stafett	-11.0178
▁alpene	-11.0179
▁forberede	-11.0182
fylling	-11.0184
▁bakerst	-11.0197
▁circ	-11.0199
▁ekstern	-11.0203
▁smitte	-11.0216
nemnd	-11.0333
▁america	-11.0337
▁begynne	-11.0409
klipp	-11.0415
zhong	-11.043
ifikasjon	-11.0508
▁konkurrent	-11.0518
▁sarpsborg	-11.0518
▁stjørdal	-11.0518
▁vampyr	-11.0518
▁væpne	-11.0518
▁kronprins	-11.0518
publikasjon	-11.0518
▁1866	-11.0518
▁bachelor	-11.0518
▁1882	-11.0518
▁regulert	-11.0518
▁blood	-11.0518
järvi	-11.0518
innehaver	-11.0518
▁chelsea	-11.0518
▁trondhjem	-11.0518
▁pianist	-11.0519
▁søsken	-11.052
kobling	-11.052
▁dream	-11.0521
▁pastor	-11.0521
▁micro	-11.0522
infeksjon	-11.0524
▁jurist	-11.0524
▁marcel	-11.0525
▁bremse	-11.0528
▁hawk	-11.0529
▁landslags	-11.0532
▁rytme	-11.0535
▁genetisk	-11.0542
▁koreansk	-11.0559
medisin	-11.0665
biskop	-11.0666
blanding	-11.0667
sentral	-11.0668
▁storkors	-11.0735
▁profesjon	-11.0842
▁inspirasjon	-11.0866
▁anbefalt	-11.0875
▁douglas	-11.0875
▁françois	-11.0875
▁frilufts	-11.0875
▁indonesia	-11.0875
▁leipzig	-11.0875
▁okkupasjon	-11.0875
▁popularitet	-11.0875
▁territorium	-11.0875
▁tsjekkoslovakia	-11.0875
▁warszawa	-11.0875
sadvokat	-11.0875
▁arrangør	-11.0875
▁elektrisitet	-11.0875
▁sanskrit	-11.0875
▁skjult	-11.0875
▁nitrogen	-11.0875
kommanderende	-11.0875
▁løpebille	-11.0875
▁tibetansk	-11.0875
▁latvia	-11.0875
▁amundsen	-11.0875
▁nominasjon	-11.0875
▁betydningsfull	-11.0875
▁sluppe	-11.0875
▁statsborger	-11.0875
▁indikerer	-11.0875
▁protestantisk	-11.0875
▁madrid	-11.0875
▁arsenal	-11.0875
▁lyktes	-11.0875
▁undersøkt	-11.0875
▁germansk	-11.0876
▁nepal	-11.0876
sław	-11.0876
▁respons	-11.0876
galleriet	-11.0876
løkka	-11.0876
▁barokk	-11.0877
platået	-11.0878
▁annonsert	-11.0879
▁relasjon	-11.0881
▁kanadisk	-11.0885
▁bjarn	-11.0885
▁særeg	-11.0886
radio	-11.0894
embede	-11.0907
karbonat	-11.0913
signal	-11.098
▁elektr	-11.1026
ekspedisjon	-11.1035
undersøkelse	-11.1035
kaptein	-11.1038
▁forstyrre	-11.1044
menneske	-11.1044
forstyrrelse	-11.1073
▁journal	-11.1201
▁academy	-11.1245
▁cæsar	-11.1245
▁kontinuerlig	-11.1245
▁mobiltelefon	-11.1245
▁orchestra	-11.1245
▁research	-11.1245
▁slovakia	-11.1245
▁tanzania	-11.1245
▁byfylke	-11.1245
▁distribusjon	-11.1245
▁instruksjon	-11.1245
▁sorenskriver	-11.1245
▁buddhist	-11.1245
▁vatikan	-11.1245
▁kennedy	-11.1245
▁krydder	-11.1245
▁manglende	-11.1245
▁ptolem	-11.1245
▁airlines	-11.1245
▁jupiter	-11.1245
▁interiør	-11.1245
▁frederick	-11.1245
leksikon	-11.1245
▁semifinale	-11.1245
▁grekerne	-11.1246
▁wagner	-11.1246
▁beslektet	-11.1246
▁separat	-11.1246
▁tillatelse	-11.1247
▁claudi	-11.1248
▁akutt	-11.1248
▁moralsk	-11.1249
▁abbed	-11.1249
▁pensjonert	-11.1249
pulver	-11.1255
vietnamesisk	-11.1259
redskaper	-11.126
▁flamme	-11.1264
▁begrunne	-11.1341
førelse	-11.1508
▁stevn	-11.1565
sekvens	-11.1626
▁horisontal	-11.163
▁illustrert	-11.163
▁keyboard	-11.163
▁makedonia	-11.163
▁network	-11.163
▁resolusjon	-11.163
▁terrengsyklist	-11.163
▁adskilt	-11.163
▁konseptet	-11.163
▁skribent	-11.163
▁tilstrekkelig	-11.163
begivenhet	-11.163
▁gjengjeld	-11.163
▁jersey	-11.163
▁langrennsløper	-11.163
▁garnison	-11.163
▁pattedyr	-11.163
▁avslørt	-11.163
▁innstifte	-11.163
▁teoretisk	-11.163
▁jamaica	-11.163
▁pradesh	-11.163
▁secret	-11.163
▁veksel	-11.163
▁florida	-11.163
▁svovel	-11.163
▁firenze	-11.163
björn	-11.163
▁manifest	-11.163
▁misjonær	-11.163
▁sofia	-11.163
▁langrenn	-11.1631
▁konkurs	-11.1631
▁reidar	-11.1631
mouth	-11.1631
▁andorra	-11.1631
▁hippo	-11.1631
▁betaling	-11.1633
▁inklus	-11.1633
▁tørke	-11.1636
▁åndelig	-11.167
▁tåle	-11.1716
kvartett	-11.1721
gjennomsnitt	-11.1764
▁dobbel	-11.1765
forsøk	-11.182
ã	-11.2415
