<unk>	0
<s>	0
</s>	0
.	-3.18238
s	-3.4597
e	-3.58146
▁	-3.86107
▁i	-3.90325
▁og	-4.03853
er	-4.06649
t	-4.11649
en	-4.17713
r	-4.54169
▁er	-4.56104
▁av	-4.63166
et	-4.87271
▁en	-4.88985
n	-4.91563
▁for	-4.97567
▁som	-5.00321
▁til	-5.07442
a	-5.1216
▁på	-5.13345
▁med	-5.17189
▁den	-5.41007
▁var	-5.46248
▁de	-5.49943
▁ble	-5.54024
i	-5.5714
▁fra	-5.5997
ene	-5.64654
▁det	-5.67375
▁har	-5.70234
k	-5.71992
d	-5.74102
o	-5.74441
▁et	-5.7671
y	-5.77754
ne	-5.7948
▁han	-5.96795
m	-6.00947
▁å	-6.02511
te	-6.10814
g	-6.11703
▁ved	-6.14447
l	-6.17224
de	-6.24476
▁også	-6.25391
f	-6.27078
p	-6.28403
re	-6.29085
▁s	-6.36775
▁ut	-6.3736
▁eller	-6.40882
▁at	-6.45666
▁om	-6.45837
es	-6.46114
▁under	-6.46936
b	-6.49818
▁etter	-6.49965
ing	-6.51688
▁be	-6.52509
us	-6.52784
c	-6.54095
▁opp	-6.54134
▁kan	-6.54503
v	-6.55532
▁a	-6.56662
an	-6.59347
▁over	-6.5945
h	-6.60934
in	-6.63638
u	-6.63669
▁to	-6.64015
na	-6.67381
▁inn	-6.69721
al	-6.70191
le	-6.71126
▁18	-6.7172
is	-6.72553
sk	-6.76333
ar	-6.77954
▁da	-6.79751
▁men	-6.81066
z	-6.81794
▁f	-6.83365
▁the	-6.83889
w	-6.84583
ter	-6.86086
▁andre	-6.87773
on	-6.90986
ia	-6.9197
▁seg	-6.93629
ri	-6.94108
▁mot	-6.95376
▁u	-6.95474
▁la	-6.95861
la	-6.96774
▁mellom	-6.98811
▁g	-6.98987
▁ha	-6.99134
▁hadde	-6.99167
ma	-7.00487
▁m	-7.01158
j	-7.01642
▁tre	-7.02855
ke	-7.03678
ende	-7.0387
sen	-7.04016
▁1	-7.04761
▁d	-7.05276
ch	-7.05433
▁sin	-7.06408
st	-7.06623
el	-7.06861
kk	-7.07521
▁ligger	-7.08116
▁ikke	-7.08146
um	-7.08992
▁k	-7.09854
ens	-7.10154
▁p	-7.1102
▁al	-7.11499
▁se	-7.13004
li	-7.15524
▁født	-7.15726
land	-7.16139
▁re	-7.1695
ck	-7.17726
or	-7.18101
▁c	-7.20033
▁b	-7.20548
▁hans	-7.20621
der	-7.21107
ta	-7.21842
nde	-7.24026
▁dette	-7.24135
▁pi	-7.24227
▁an	-7.24526
ur	-7.25836
lig	-7.2622
be	-7.27334
▁blant	-7.27432
▁man	-7.29593
▁gjennom	-7.31137
di	-7.31589
▁sammen	-7.3197
x	-7.32093
ut	-7.32305
▁hun	-7.32744
nes	-7.3325
▁of	-7.33508
as	-7.33527
▁første	-7.34803
ler	-7.34876
▁nord	-7.35382
▁her	-7.35451
▁denne	-7.35915
ng	-7.36324
il	-7.36741
▁sa	-7.36843
▁fikk	-7.36953
▁vi	-7.37255
da	-7.37449
▁t	-7.38052
▁2	-7.38158
▁flere	-7.38478
▁li	-7.38509
▁ca	-7.38679
isk	-7.38821
iske	-7.39588
ka	-7.40344
ad	-7.40741
▁17	-7.41172
ra	-7.41391
▁der	-7.41485
▁h	-7.41495
ske	-7.41806
ger	-7.42068
ry	-7.42122
ge	-7.42164
ga	-7.43857
den	-7.44043
ver	-7.44067
mp	-7.44306
▁he	-7.44714
son	-7.45178
øy	-7.45377
é	-7.45614
▁ro	-7.45883
th	-7.46154
▁3	-7.46647
to	-7.48685
bo	-7.49048
▁hoved	-7.49565
▁in	-7.49585
os	-7.49861
▁n	-7.50008
▁le	-7.50027
for	-7.50031
▁bo	-7.50753
▁l	-7.50847
▁blir	-7.51227
▁stor	-7.5141
ja	-7.51414
ner	-7.51526
id	-7.51824
ve	-7.52897
at	-7.53861
vis	-7.54094
ff	-7.54195
▁v	-7.5439
ic	-7.54972
▁16	-7.55032
▁15	-7.5507
man	-7.56042
stad	-7.56668
ning	-7.56737
▁pa	-7.5776
▁kommune	-7.57974
mi	-7.58041
ro	-7.59166
▁ny	-7.59365
▁del	-7.60019
it	-7.60505
lo	-7.60802
kt	-7.60885
▁co	-7.60918
▁st	-7.6096
▁kr	-7.61655
å	-7.61755
ig	-7.62497
▁si	-7.62544
▁tidligere	-7.62649
▁hvor	-7.6352
▁na	-7.63972
▁kom	-7.64002
ul	-7.64429
vi	-7.65284
▁5	-7.65392
▁and	-7.66041
me	-7.66359
▁di	-7.66373
▁disse	-7.66414
si	-7.67212
ør	-7.67837
ste	-7.68437
▁ni	-7.68898
▁annet	-7.68992
▁ti	-7.69095
▁4	-7.69403
ol	-7.69424
ce	-7.69462
▁j	-7.7014
▁alle	-7.70243
ell	-7.70451
ton	-7.70541
ker	-7.70801
▁år	-7.70835
▁w	-7.709
▁ga	-7.71044
dal	-7.72214
▁by	-7.72376
▁død	-7.72379
▁sk	-7.72512
ed	-7.72779
▁sp	-7.73368
mo	-7.73715
berg	-7.73849
▁kon	-7.74028
▁ra	-7.74741
▁per	-7.75244
▁sør	-7.75927
æ	-7.76234
▁du	-7.76575
▁kinesisk	-7.76583
▁ba	-7.76661
ten	-7.76666
▁mer	-7.76902
▁norsk	-7.7708
▁før	-7.77202
▁r	-7.77256
▁mange	-7.77809
▁så	-7.77866
▁byen	-7.78076
▁10	-7.78224
▁o	-7.78244
lige	-7.78654
ho	-7.79079
ö	-7.79336
▁mo	-7.79421
ha	-7.79482
▁bi	-7.79893
ær	-7.80365
gen	-7.80462
ba	-7.80481
▁pro	-7.80694
va	-7.81124
▁ofte	-7.81671
ster	-7.81729
het	-7.82227
▁mens	-7.82339
1	-7.82381
▁land	-7.82574
▁sitt	-7.82886
ant	-7.83046
▁or	-7.83114
by	-7.83117
erte	-7.83524
mann	-7.83555
erne	-7.8359
▁bu	-7.83725
un	-7.83958
▁lo	-7.84326
bi	-7.84327
▁ta	-7.84775
5	-7.85043
▁fri	-7.85292
▁går	-7.85297
▁senere	-7.85487
bu	-7.85903
do	-7.86054
▁12	-7.86512
▁fa	-7.86763
▁noen	-7.87408
á	-7.87448
▁samt	-7.87462
▁ned	-7.87585
▁do	-7.87735
pe	-7.87808
je	-7.87885
3	-7.88095
tal	-7.88499
pp	-7.88761
ov	-7.88888
om	-7.89116
▁bar	-7.89122
▁kalt	-7.89136
▁vest	-7.89871
▁navn	-7.90267
men	-7.90429
co	-7.90688
▁navnet	-7.90718
ä	-7.90766
▁sch	-7.91088
skap	-7.9113
ikk	-7.91909
gg	-7.92359
▁me	-7.92397
▁no	-7.92494
mer	-7.92545
ist	-7.92739
ca	-7.92781
ti	-7.93064
▁ka	-7.93202
▁være	-7.93302
▁so	-7.9377
gi	-7.93956
ven	-7.94115
▁mest	-7.94352
▁kjent	-7.94792
ni	-7.94794
▁po	-7.94862
▁finnes	-7.95519
▁ho	-7.95688
asjon	-7.95964
▁øst	-7.96052
am	-7.96329
ll	-7.966
tter	-7.97039
ment	-7.97328
▁vil	-7.97358
ko	-7.9749
▁6	-7.97493
sh	-7.97622
▁ri	-7.98001
▁gu	-7.98127
▁am	-7.98381
▁pe	-7.98466
▁lag	-7.98701
▁mar	-7.9871
▁frem	-7.98766
▁14	-7.99068
▁ru	-7.99254
▁store	-7.99328
▁as	-7.99686
▁sine	-7.99975
▁bak	-8.00521
▁rundt	-8.00887
▁ma	-8.00984
rett	-8.01057
▁bestå	-8.01415
▁su	-8.01617
▁dag	-8.01938
ly	-8.02048
sel	-8.02193
opp	-8.02304
▁mi	-8.0295
▁fly	-8.03104
ion	-8.03305
ang	-8.03336
▁far	-8.03351
tor	-8.03558
del	-8.03632
▁siden	-8.03735
itt	-8.03968
▁fire	-8.04123
▁ju	-8.04325
ik	-8.04464
▁8	-8.04466
ling	-8.04537
vik	-8.04712
go	-8.04786
▁selv	-8.04857
▁skal	-8.05315
▁nå	-8.05356
▁ham	-8.05684
lin	-8.05963
per	-8.06059
av	-8.06149
▁ko	-8.06236
▁7	-8.06656
else	-8.0675
▁el	-8.06819
im	-8.07255
▁mor	-8.07317
au	-8.07419
op	-8.07644
▁13	-8.07759
▁grunn	-8.08119
ok	-8.09137
ian	-8.09269
ns	-8.09466
io	-8.09536
▁russisk	-8.09632
▁jo	-8.09775
ø	-8.10035
▁både	-8.10056
ber	-8.1088
▁lu	-8.11002
▁ei	-8.11359
▁hos	-8.13297
hold	-8.13556
ring	-8.13643
▁con	-8.1392
▁11	-8.14071
▁9	-8.14083
no	-8.14203
ering	-8.14426
▁kirke	-8.14526
▁te	-8.14796
ir	-8.15273
▁samme	-8.15313
sti	-8.16586
▁ol	-8.17301
▁sam	-8.17403
sted	-8.17635
▁hu	-8.17959
ft	-8.18156
▁tor	-8.18203
▁ak	-8.18627
iv	-8.1879
▁kalles	-8.18915
ks	-8.1933
▁vant	-8.19437
ü	-8.19559
▁lang	-8.19725
tra	-8.19786
pa	-8.20343
ru	-8.20428
▁fram	-8.20669
▁vann	-8.20703
dag	-8.20812
lag	-8.21065
ier	-8.21282
▁kina	-8.21366
▁ar	-8.21641
sta	-8.21683
ci	-8.21883
dan	-8.21914
▁skole	-8.2285
▁engelsk	-8.22879
ud	-8.22886
▁fi	-8.23029
▁y	-8.23077
▁tro	-8.23428
▁august	-8.23471
ag	-8.23744
▁norske	-8.23752
▁største	-8.23852
sjon	-8.23976
▁tra	-8.23991
▁ab	-8.24493
les	-8.24679
▁wa	-8.25011
lse	-8.25133
▁mai	-8.25305
▁innen	-8.25407
od	-8.25434
▁tallet	-8.25524
ie	-8.25557
ium	-8.25622
í	-8.2573
▁tid	-8.25898
▁sol	-8.26027
▁film	-8.26158
ina	-8.26484
verk	-8.26766
▁mål	-8.26912
ede	-8.27108
▁dr	-8.27352
▁vært	-8.27438
▁km	-8.27671
▁slik	-8.27673
ting	-8.27685
▁john	-8.2797
vin	-8.28029
▁ja	-8.28154
gang	-8.28281
nd	-8.28439
elle	-8.28506
▁go	-8.28722
▁mars	-8.28761
▁kl	-8.28769
▁når	-8.28948
▁bra	-8.2903
▁blitt	-8.29054
tro	-8.29107
▁gi	-8.29181
▁alt	-8.29238
nyin	-8.29283
tiv	-8.2929
▁eks	-8.29388
len	-8.29461
▁musikk	-8.30061
▁pu	-8.30211
▁lever	-8.30454
▁må	-8.30514
▁par	-8.30581
siden	-8.30633
und	-8.30762
▁nær	-8.30874
tu	-8.30877
lu	-8.30971
▁car	-8.31035
▁syn	-8.31681
ow	-8.31724
▁norge	-8.3185
▁enn	-8.31899
▁ad	-8.32227
▁ge	-8.32321
▁hi	-8.32324
4	-8.3243
over	-8.3266
▁x	-8.32909
▁ne	-8.32968
ningen	-8.33004
ord	-8.33454
▁mat	-8.33816
hi	-8.33883
▁sønn	-8.34024
ou	-8.34053
▁bl	-8.34087
▁tri	-8.34216
▁20	-8.34244
tur	-8.34377
▁folke	-8.34581
▁san	-8.34652
▁kunne	-8.34674
2	-8.34876
▁juli	-8.34957
gu	-8.34968
▁brukes	-8.35097
år	-8.35271
ken	-8.3536
▁fjell	-8.35377
▁høy	-8.35805
hus	-8.35806
ó	-8.3584
▁hele	-8.35931
▁oslo	-8.36035
pi	-8.3613
▁gruppen	-8.36197
mar	-8.3641
▁hel	-8.36426
ingen	-8.36512
ot	-8.36628
ans	-8.36973
fa	-8.37038
▁all	-8.37097
▁skulle	-8.37155
tid	-8.37219
▁langs	-8.3728
▁wi	-8.37292
bar	-8.37398
yl	-8.37545
he	-8.38077
stand	-8.38144
jo	-8.38187
bb	-8.38242
til	-8.3837
▁bare	-8.38456
var	-8.38458
▁små	-8.38557
idae	-8.38569
tiske	-8.38689
ak	-8.38762
ki	-8.3882
▁leder	-8.3902
▁provinsen	-8.39356
▁bruk	-8.39592
▁min	-8.39612
po	-8.39773
ica	-8.39853
vo	-8.4008
tte	-8.40169
ek	-8.40297
ard	-8.4046
▁ch	-8.40519
▁0	-8.40637
min	-8.40668
za	-8.41
▁utgitt	-8.41389
▁kultur	-8.41806
dre	-8.419
▁området	-8.41949
if	-8.42168
tisk	-8.42208
em	-8.42246
▁noe	-8.42255
▁uten	-8.42751
sp	-8.43001
stein	-8.43143
▁like	-8.43287
▁nye	-8.43299
▁spilte	-8.435
▁br	-8.43579
▁pre	-8.43585
▁eksempel	-8.43738
▁gikk	-8.43759
ham	-8.4383
▁januar	-8.43982
kel	-8.44015
dd	-8.44217
▁gjen	-8.44224
▁tilhører	-8.44241
▁videre	-8.44249
▁gift	-8.44297
mb	-8.44332
▁hol	-8.44338
▁laget	-8.44979
ran	-8.45087
▁kommer	-8.45099
ron	-8.45327
nt	-8.45394
▁sand	-8.45443
▁parti	-8.45448
mor	-8.45547
а	-8.45765
▁ski	-8.46157
ty	-8.46197
ac	-8.46218
00	-8.46277
bil	-8.46674
let	-8.46685
▁fem	-8.46758
tre	-8.46791
fi	-8.46828
▁bro	-8.47245
bre	-8.47619
▁tok	-8.47656
▁form	-8.47685
▁nor	-8.48135
tak	-8.48178
slag	-8.48399
▁rekke	-8.48425
art	-8.48684
▁språk	-8.48695
ator	-8.48696
▁kunst	-8.48939
▁tv	-8.48966
log	-8.4921
▁ki	-8.49576
▁hus	-8.49706
▁2008	-8.50047
du	-8.50215
▁2007	-8.50317
ation	-8.50321
▁th	-8.5042
ley	-8.50707
▁em	-8.50722
▁verdens	-8.50842
ku	-8.50983
dalen	-8.51022
▁fast	-8.51067
ung	-8.51087
wa	-8.51291
▁rett	-8.51316
ju	-8.51385
▁gir	-8.51541
ya	-8.51588
ære	-8.51653
▁kar	-8.51779
ong	-8.51818
▁skrevet	-8.51848
sch	-8.52316
lands	-8.52424
gn	-8.52801
▁ur	-8.52917
my	-8.53206
▁gud	-8.53421
▁kor	-8.53489
mål	-8.53529
jø	-8.53713
ny	-8.53892
▁lå	-8.53921
▁april	-8.54288
nk	-8.54321
▁berg	-8.54405
▁halv	-8.5444
inger	-8.5453
gel	-8.54803
bel	-8.54948
ld	-8.55384
▁tysk	-8.55424
inn	-8.55538
par	-8.55626
folkerepublikken	-8.55653
sson	-8.55799
kon	-8.55959
▁ver	-8.56011
att	-8.56019
anske	-8.56023
▁2006	-8.5604
о	-8.56094
▁familien	-8.56141
▁siste	-8.56154
▁juni	-8.56193
▁sjø	-8.56208
▁jord	-8.56348
▁kommunen	-8.56492
▁spiller	-8.56794
▁fu	-8.56955
▁ste	-8.57071
burg	-8.57117
▁mel	-8.5727
▁rom	-8.57481
▁deres	-8.57548
hu	-8.57557
▁30	-8.57562
ine	-8.57581
stre	-8.57584
▁z	-8.57656
▁sv	-8.57673
che	-8.57686
▁my	-8.57715
▁kong	-8.57745
ius	-8.58031
▁fl	-8.58071
▁midt	-8.58185
▁new	-8.58228
▁stein	-8.58247
øya	-8.58301
▁ulike	-8.58378
▁betyr	-8.58619
▁ord	-8.58678
▁meter	-8.58829
▁tillegg	-8.58875
▁vei	-8.58966
ug	-8.59108
▁art	-8.59114
uk	-8.59188
▁dem	-8.59221
▁mindre	-8.59895
ding	-8.59931
▁kjente	-8.60064
▁ben	-8.6013
▁mag	-8.60145
▁ty	-8.60201
▁nasjonal	-8.60711
▁bil	-8.61236
▁imidlertid	-8.61313
borg	-8.61445
eg	-8.6158
▁tilbake	-8.61606
▁øy	-8.61674
▁god	-8.62024
▁selskapet	-8.62129
▁innenfor	-8.62571
▁2010	-8.62793
▁skrev	-8.62877
▁va	-8.62964
▁bru	-8.63038
we	-8.63236
tz	-8.63443
▁bok	-8.63624
▁2009	-8.63679
▁barn	-8.63684
▁tur	-8.63735
rik	-8.63807
▁on	-8.63837
dy	-8.63921
▁norges	-8.63954
▁kv	-8.64129
ige	-8.64226
kom	-8.64264
▁gul	-8.64585
▁først	-8.64801
▁begge	-8.64879
▁hen	-8.64905
и	-8.64931
▁hver	-8.65084
▁februar	-8.65171
▁lokal	-8.65194
▁president	-8.65261
▁brun	-8.65304
▁liv	-8.6532
fly	-8.65368
▁pr	-8.65476
▁tu	-8.65488
▁bli	-8.65494
▁ag	-8.65503
▁we	-8.65594
tok	-8.65776
skole	-8.65808
▁vel	-8.66065
ill	-8.6607
kan	-8.66229
▁inneholder	-8.66338
isme	-8.66528
dig	-8.66705
▁2005	-8.66707
▁kun	-8.66749
mon	-8.66897
▁fe	-8.67072
▁hennes	-8.672
▁gamle	-8.67313
▁gang	-8.67358
▁lys	-8.67527
nings	-8.67549
▁kort	-8.67613
vel	-8.67825
▁opprinnelig	-8.68243
▁ku	-8.68317
▁000	-8.68358
▁filmen	-8.68423
bruk	-8.68479
▁kal	-8.68657
▁val	-8.68727
▁bred	-8.68756
mm	-8.69154
dyr	-8.69248
ble	-8.69407
▁verk	-8.69481
▁cha	-8.69491
▁september	-8.69499
ct	-8.6954
▁luft	-8.69555
mme	-8.69597
▁seks	-8.69783
med	-8.70058
▁oktober	-8.70133
▁bandet	-8.7015
▁chi	-8.70166
▁jan	-8.70215
▁os	-8.70349
ich	-8.70429
▁van	-8.70431
ninger	-8.70479
▁landet	-8.70595
▁pri	-8.70603
mmer	-8.70728
▁sett	-8.70735
ska	-8.70783
▁mu	-8.70787
yn	-8.7092
syn	-8.70957
е	-8.71058
▁hav	-8.71116
spill	-8.71128
heim	-8.71141
▁natur	-8.71192
▁egen	-8.71227
▁følgende	-8.71245
sund	-8.7133
lan	-8.71407
itet	-8.71436
tri	-8.71485
▁bor	-8.71938
▁farge	-8.72058
▁bruker	-8.7208
▁igjen	-8.72399
▁anti	-8.72484
▁usa	-8.7252
zi	-8.72755
▁op	-8.72811
▁døde	-8.73222
red	-8.73274
▁helt	-8.73361
▁desember	-8.73364
leg	-8.73403
▁vin	-8.73452
▁omfatter	-8.7346
▁roman	-8.73534
net	-8.73587
fe	-8.73729
▁særlig	-8.73735
▁2002	-8.73742
punkt	-8.73748
form	-8.73832
▁sto	-8.73834
▁november	-8.74023
▁com	-8.74097
▁fred	-8.74192
▁tidlig	-8.7437
mel	-8.74455
▁fag	-8.7451
tes	-8.74651
▁von	-8.74675
▁gjerne	-8.74784
▁svær	-8.74892
▁hal	-8.75056
▁skog	-8.75091
valg	-8.75404
tan	-8.75531
▁derfor	-8.75595
▁mil	-8.75611
▁få	-8.758
▁motor	-8.75862
met	-8.76142
▁paul	-8.76452
р	-8.76654
gh	-8.76669
kar	-8.7668
hy	-8.76685
forbund	-8.76927
▁fo	-8.76934
▁nett	-8.76943
▁kur	-8.76982
▁sak	-8.76983
uten	-8.76995
▁25	-8.77259
bok	-8.77385
ris	-8.77502
bin	-8.77691
ale	-8.77752
▁fylke	-8.77752
▁bre	-8.77806
bro	-8.77902
▁fiske	-8.78209
tar	-8.78224
gar	-8.78367
▁gra	-8.78476
▁sta	-8.78559
▁via	-8.78582
▁radio	-8.78607
▁ed	-8.78672
▁større	-8.78888
▁vise	-8.79159
mal	-8.79249
▁tar	-8.79274
▁sal	-8.793
fra	-8.79327
▁sh	-8.79561
▁sentral	-8.79619
sj	-8.79658
▁pan	-8.79836
▁fransk	-8.79837
▁general	-8.79907
▁je	-8.79989
elig	-8.79997
▁side	-8.80035
ller	-8.80146
mester	-8.80249
▁ren	-8.80288
isering	-8.80307
▁moh	-8.80344
lot	-8.80526
ving	-8.80822
▁ke	-8.81139
ika	-8.81218
▁sen	-8.81254
▁øya	-8.81291
▁ifølge	-8.81294
veien	-8.81502
▁står	-8.81545
▁medlem	-8.81669
▁ingen	-8.81756
▁tom	-8.81846
▁brukt	-8.81859
▁utenfor	-8.82026
▁rød	-8.8211
▁lov	-8.82179
▁tekst	-8.82224
▁gen	-8.82229
▁dikt	-8.82332
▁stra	-8.8242
stat	-8.82535
▁forskjellige	-8.8273
rom	-8.82738
▁startet	-8.82829
▁hy	-8.82896
far	-8.82939
ab	-8.82941
ønn	-8.83084
▁gull	-8.83131
tiden	-8.83156
▁året	-8.83259
ana	-8.83322
50	-8.83731
ip	-8.83983
elsen	-8.84028
▁post	-8.84202
▁basert	-8.84211
▁af	-8.84292
▁svensk	-8.8459
▁politisk	-8.84746
▁deretter	-8.84864
▁pol	-8.84925
så	-8.85066
▁amerikansk	-8.85089
▁lav	-8.85159
▁arm	-8.85519
▁valg	-8.8552
▁hø	-8.85542
stilling	-8.8586
▁grav	-8.85918
▁can	-8.85953
sto	-8.86014
val	-8.8617
▁ul	-8.86175
▁beste	-8.86234
xi	-8.86584
▁sig	-8.86606
tin	-8.86664
▁nu	-8.8683
jer	-8.86849
cu	-8.86968
kje	-8.8702
føre	-8.87138
fjorden	-8.87195
sten	-8.87277
van	-8.87457
▁stil	-8.87642
ep	-8.87674
▁mulig	-8.87726
isert	-8.87865
▁litt	-8.87889
▁person	-8.87921
▁orden	-8.8801
▁christian	-8.88032
▁dagen	-8.88161
▁william	-8.88206
▁ber	-8.88348
▁sommerfugl	-8.88433
ze	-8.88489
forening	-8.88526
▁sommer	-8.88629
▁dermed	-8.8867
▁spe	-8.88689
▁19	-8.8882
skrift	-8.88836
banen	-8.8886
blad	-8.88867
q	-8.88897
▁italiensk	-8.88971
▁lands	-8.89055
▁bur	-8.89249
▁2011	-8.89364
ph	-8.89378
▁mye	-8.89601
▁innbyggere	-8.89742
▁vo	-8.89765
▁dy	-8.8984
▁spor	-8.89868
setning	-8.8992
ål	-8.89938
chi	-8.89983
▁blå	-8.90016
bygg	-8.90052
▁gro	-8.90068
▁22	-8.90122
▁industri	-8.90254
hr	-8.90279
lø	-8.90353
▁21	-8.90489
▁mon	-8.905
bert	-8.90589
ari	-8.90607
kor	-8.90641
dom	-8.90659
▁slutt	-8.90665
ski	-8.90731
▁styre	-8.90768
▁au	-8.90814
pper	-8.90895
løp	-8.90898
elt	-8.90906
▁bø	-8.91011
▁ser	-8.91071
kul	-8.91174
▁arbeids	-8.91212
▁gjorde	-8.91294
▁inkludert	-8.91301
og	-8.91327
gård	-8.91347
up	-8.91361
ighet	-8.91751
▁hjelp	-8.91781
▁bal	-8.91783
▁fin	-8.91929
enes	-8.91936
▁blad	-8.91937
▁tyske	-8.92081
▁begynte	-8.9209
▁tredje	-8.92091
н	-8.92198
mat	-8.92206
sjoner	-8.9235
res	-8.92351
▁datter	-8.92501
▁bill	-8.92717
▁mann	-8.93005
sky	-8.93062
landet	-8.9316
▁riks	-8.93207
▁forfatter	-8.93534
▁barne	-8.93542
mark	-8.93579
lia	-8.93591
rak	-8.93613
alt	-8.93778
tatt	-8.9383
pro	-8.94007
tion	-8.94101
▁band	-8.94168
▁peter	-8.94174
rud	-8.94189
▁wo	-8.94201
plass	-8.94204
skog	-8.94364
han	-8.94477
ros	-8.9448
familien	-8.9459
gre	-8.94639
▁park	-8.94722
▁24	-8.94741
sett	-8.94757
▁fotball	-8.94809
▁bjørn	-8.94921
mu	-8.94954
ap	-8.94965
▁jeg	-8.94973
▁hvit	-8.94986
ita	-8.95128
▁ci	-8.95152
leder	-8.95165
ji	-8.95209
way	-8.95236
▁ry	-8.95241
▁viser	-8.95338
bas	-8.95449
akt	-8.95492
ologi	-8.95501
▁rø	-8.95524
fjord	-8.95568
▁dis	-8.95582
▁familie	-8.95692
▁ex	-8.95692
▁samtidig	-8.9572
▁za	-8.95928
▁konge	-8.96118
ach	-8.96177
▁plass	-8.96182
bud	-8.96382
ð	-8.96544
▁fylkesvei	-8.96558
ømme	-8.96587
▁ring	-8.96693
tel	-8.96766
ā	-8.96805
▁lege	-8.96812
lett	-8.96846
ford	-8.96904
rø	-8.97055
▁får	-8.97205
▁eu	-8.97275
▁representert	-8.97376
▁fleste	-8.9747
▁liste	-8.9751
ini	-8.97795
▁versjon	-8.97803
ino	-8.97803
▁keiser	-8.97814
asj	-8.97888
▁organ	-8.9796
▁albumet	-8.9798
ds	-8.98014
▁mus	-8.98086
ater	-8.98611
▁serien	-8.98676
lsen	-8.9881
▁hvert	-8.98843
▁sil	-8.98886
fisk	-8.9889
▁årene	-8.98936
▁karl	-8.9904
▁vanligvis	-8.99093
▁støtte	-8.99204
gj	-8.99221
▁sangen	-8.99413
▁erik	-8.99461
▁topp	-8.9948
40	-8.99645
8	-8.99699
▁elven	-8.99769
▁plan	-8.99808
▁mont	-8.99834
▁para	-8.9984
▁tegn	-9.0008
arbeid	-9.00104
▁mark	-9.003
satt	-9.00366
▁viktigste	-9.00388
▁ville	-9.0039
▁liten	-9.00427
▁fla	-9.00453
▁sø	-9.00585
▁hånd	-9.00615
▁produsert	-9.00627
lem	-9.00931
▁you	-9.00933
vann	-9.01096
ind	-9.01178
▁ledet	-9.01232
komme	-9.01281
▁modern	-9.01329
▁xi	-9.01376
▁lange	-9.01391
▁tids	-9.01474
▁2004	-9.01652
vet	-9.01655
senter	-9.01702
hl	-9.01707
dde	-9.01812
▁ev	-9.01824
▁bergen	-9.01931
byen	-9.01938
pris	-9.01972
▁kyst	-9.02003
eres	-9.02016
▁dess	-9.02151
▁gar	-9.02164
▁sted	-9.02376
▁kinas	-9.02384
▁stort	-9.02402
selskap	-9.02426
lik	-9.02493
navn	-9.02496
løs	-9.02507
tegn	-9.02509
▁kje	-9.02551
▁2000	-9.0256
pon	-9.02562
▁les	-9.02706
▁trans	-9.0282
▁col	-9.02824
film	-9.02845
su	-9.0304
▁finner	-9.03052
▁lett	-9.03056
▁annen	-9.03094
▁gruppe	-9.03107
▁ven	-9.03147
gan	-9.03158
pen	-9.03224
▁stat	-9.03233
▁lik	-9.03249
▁sverige	-9.034
sjef	-9.0357
▁kla	-9.03616
kin	-9.03708
system	-9.03709
som	-9.03718
værende	-9.03887
heten	-9.0392
utt	-9.03987
▁menneske	-9.04052
laget	-9.04119
fer	-9.04201
▁data	-9.04323
▁russland	-9.04356
▁ly	-9.04385
▁skolen	-9.04387
▁gate	-9.04469
▁gre	-9.04574
anger	-9.0459
ah	-9.04596
▁mm	-9.0462
è	-9.04683
▁28	-9.04789
▁antall	-9.04831
▁tal	-9.04833
lene	-9.04908
øl	-9.05052
▁georg	-9.05059
▁regi	-9.05104
tall	-9.05135
▁såkalt	-9.05192
rat	-9.05212
▁bygget	-9.05293
▁kn	-9.05333
▁arbeidet	-9.05462
mannen	-9.05513
lys	-9.05565
▁regn	-9.05573
▁klubben	-9.05615
▁gjør	-9.05665
ight	-9.05674
▁politi	-9.05697
▁100	-9.05744
spiller	-9.05792
området	-9.05811
▁vinter	-9.05843
▁full	-9.05872
▁fer	-9.05876
vern	-9.05948
lev	-9.05993
istiske	-9.06032
▁tiden	-9.06036
ú	-9.06096
▁gammel	-9.06097
ida	-9.06155
rid	-9.06261
▁amerikanske	-9.06322
grad	-9.06524
▁gri	-9.06542
navnet	-9.06683
ola	-9.06712
▁sang	-9.06743
bra	-9.06827
▁mas	-9.0704
30	-9.07108
▁skuespiller	-9.0714
▁sha	-9.0722
án	-9.07336
skje	-9.074
▁heter	-9.07406
iz	-9.07473
▁arbeider	-9.07568
ister	-9.07625
▁vis	-9.07672
▁sosial	-9.07731
inne	-9.07844
legg	-9.07854
▁spilt	-9.0793
▁not	-9.07942
▁egne	-9.08145
all	-9.08341
▁måtte	-9.08459
stra	-9.08486
vei	-9.08573
qui	-9.08577
▁lyd	-9.08592
▁mal	-9.08643
kle	-9.08675
ive	-9.08728
▁fil	-9.08799
▁utviklet	-9.08814
▁felles	-9.08819
▁grad	-9.08915
▁gresk	-9.09009
20	-9.09158
▁bror	-9.09193
este	-9.09304
▁dia	-9.09326
▁ganger	-9.09373
▁mc	-9.09376
▁minne	-9.09415
our	-9.09417
▁rock	-9.09418
▁plate	-9.09426
asjonen	-9.09543
zhou	-9.09944
▁johan	-9.09963
ano	-9.09987
vig	-9.10142
▁utgjør	-9.10519
rus	-9.10527
▁lin	-9.10539
dra	-9.10622
elser	-9.10627
▁dan	-9.10636
port	-9.10839
▁olav	-9.11006
▁air	-9.11083
▁tyskland	-9.11164
gruppen	-9.11178
ata	-9.11188
▁blod	-9.11322
▁jernbane	-9.11347
▁følger	-9.11366
tjeneste	-9.11618
▁plante	-9.11703
hin	-9.11714
▁un	-9.11859
▁dom	-9.11961
▁tr	-9.12252
ther	-9.12272
▁robert	-9.12302
ien	-9.12336
▁stats	-9.1238
▁egg	-9.12385
iker	-9.12446
▁vol	-9.12555
▁carl	-9.12569
▁kat	-9.12659
▁spesielt	-9.12687
▁student	-9.12689
bånd	-9.12692
▁martin	-9.12749
är	-9.13007
▁ve	-9.13051
▁rev	-9.13148
▁omkring	-9.13176
stykke	-9.1328
side	-9.13347
ice	-9.13386
▁don	-9.13395
ara	-9.13478
▁klar	-9.13494
▁mac	-9.13682
▁åtte	-9.13688
▁gav	-9.137
▁port	-9.13812
6	-9.13845
▁teater	-9.13912
▁stemme	-9.13999
▁spesial	-9.14159
▁hjem	-9.14174
stilt	-9.14177
▁europa	-9.14197
▁syd	-9.14328
ai	-9.14355
ban	-9.14374
▁die	-9.14401
▁uni	-9.14445
▁tittelen	-9.14556
iet	-9.14578
▁stjerne	-9.14588
sak	-9.14615
▁stedet	-9.14746
ish	-9.14774
▁hjemme	-9.14846
que	-9.14867
▁overtok	-9.14889
fall	-9.15006
heng	-9.15016
▁ø	-9.15114
ix	-9.15135
ologisk	-9.15238
▁tak	-9.15299
▁50	-9.15345
▁opera	-9.15485
▁enkelte	-9.15566
▁q	-9.15598
råd	-9.15688
nett	-9.15825
lagt	-9.15915
lek	-9.15923
▁foran	-9.15988
▁slekt	-9.16035
kamp	-9.16073
▁gran	-9.1622
▁jon	-9.16237
cc	-9.16252
▁forhold	-9.16264
▁hår	-9.16276
▁29	-9.16358
kken	-9.16417
▁historie	-9.16431
istisk	-9.1644
▁23	-9.16458
▁gl	-9.16549
▁offentlig	-9.16658
▁lar	-9.16675
age	-9.16714
▁res	-9.16753
stasjon	-9.16819
king	-9.1693
▁mad	-9.16934
▁bør	-9.16937
▁ky	-9.16941
bane	-9.17
skip	-9.17052
▁system	-9.17124
ram	-9.17208
▁bort	-9.17261
▁ob	-9.17319
båt	-9.1735
▁arter	-9.17363
▁ten	-9.17445
▁satt	-9.17455
▁ska	-9.17486
▁hei	-9.17521
▁inter	-9.17582
vil	-9.17645
▁hovedsakelig	-9.17682
▁gy	-9.17795
▁elva	-9.18031
▁serie	-9.18128
grøn	-9.18153
▁folketelling	-9.18188
▁ordet	-9.18209
▁kraft	-9.18214
rin	-9.18228
▁fre	-9.1832
▁nesten	-9.18325
▁gal	-9.18347
▁kunstner	-9.18349
▁wal	-9.18363
ille	-9.18368
▁mur	-9.18393
▁arbeid	-9.18432
▁samarbeid	-9.18581
▁nytt	-9.18616
▁sel	-9.18655
▁produsere	-9.18704
ов	-9.18791
▁bilde	-9.18895
▁thor	-9.1893
▁vekt	-9.18956
▁tildelt	-9.19002
▁deler	-9.19048
▁stasjon	-9.19063
lighet	-9.19081
sjøen	-9.19199
10	-9.19203
▁pra	-9.19203
and	-9.19228
▁lind	-9.19279
▁dra	-9.19313
▁tjeneste	-9.19384
в	-9.19419
▁slag	-9.19468
▁kol	-9.19501
oc	-9.19652
bygd	-9.19691
gle	-9.19721
▁fv	-9.19726
▁militær	-9.19773
klubb	-9.19857
▁deltok	-9.19862
▁super	-9.20001
lom	-9.2006
▁bygge	-9.20235
▁energi	-9.20324
stående	-9.20533
liv	-9.2072
full	-9.20749
▁sm	-9.20944
▁høyre	-9.20971
▁cla	-9.21034
▁svart	-9.21038
▁ter	-9.21081
ført	-9.21322
▁26	-9.21329
▁venstre	-9.21349
aks	-9.21366
gren	-9.21444
▁cu	-9.2166
▁shi	-9.21707
fri	-9.2178
▁hatt	-9.21784
▁pl	-9.21827
▁sanger	-9.21851
▁direkte	-9.21854
▁sc	-9.21876
▁mos	-9.21877
liggende	-9.21896
bor	-9.21951
▁lite	-9.2198
▁eier	-9.21998
wi	-9.22078
pel	-9.22183
vare	-9.22186
lla	-9.22231
▁hvis	-9.22321
▁viktig	-9.22344
trykk	-9.22397
▁2001	-9.2241
▁start	-9.22415
▁kirken	-9.22435
▁tru	-9.22435
ming	-9.22453
▁stu	-9.22458
▁gitt	-9.22486
ferd	-9.22522
▁lille	-9.22527
▁27	-9.22527
▁skrift	-9.22574
▁kra	-9.22591
▁japansk	-9.22596
75	-9.22604
▁west	-9.22669
plan	-9.2269
▁godt	-9.22749
т	-9.22765
▁40	-9.22807
▁red	-9.22895
▁delstaten	-9.22928
▁egentlig	-9.22948
kraft	-9.22963
▁maria	-9.22975
▁best	-9.23002
▁herre	-9.23058
▁lær	-9.23058
bø	-9.23182
sjons	-9.23253
▁kir	-9.23254
ani	-9.23275
▁grå	-9.2333
▁betydning	-9.23354
▁region	-9.23408
▁nok	-9.23411
retning	-9.23457
▁sølv	-9.23481
▁ji	-9.23513
▁mod	-9.23528
▁medlemmer	-9.23531
▁fall	-9.23586
▁internasjonale	-9.23589
▁kron	-9.23638
vær	-9.23671
▁kongen	-9.23701
39	-9.23721
▁31	-9.23805
iti	-9.23807
м	-9.2401
områder	-9.2401
▁sub	-9.24081
▁punkt	-9.24098
▁ferdig	-9.24134
▁johannes	-9.2415
itz	-9.24242
▁olje	-9.2426
▁cor	-9.24349
▁sl	-9.24527
▁aktiv	-9.24607
▁smal	-9.24629
bus	-9.24709
deling	-9.24747
kal	-9.24787
60	-9.24852
tis	-9.24891
dri	-9.24909
iserte	-9.24924
▁strøm	-9.25039
▁kamp	-9.25066
▁fjern	-9.25121
of	-9.25166
cia	-9.25215
mun	-9.2524
▁uttrykk	-9.25285
grense	-9.25376
▁ind	-9.25484
ub	-9.25546
▁ac	-9.25561
the	-9.25592
▁standard	-9.25659
▁2003	-9.2568
▁sur	-9.25731
▁distrikt	-9.25756
▁rik	-9.25926
tsj	-9.26149
est	-9.26221
▁opprettet	-9.26251
▁mak	-9.26329
lle	-9.2636
menn	-9.26375
styre	-9.26423
▁bank	-9.26488
stikk	-9.26554
dar	-9.26555
▁qu	-9.26655
86	-9.26678
▁rot	-9.26747
lv	-9.26836
ire	-9.26993
▁utvikling	-9.27147
▁vas	-9.27151
▁sy	-9.27383
▁båt	-9.27403
▁linje	-9.27453
▁indre	-9.27503
▁album	-9.27534
middel	-9.27568
▁dal	-9.27587
▁sky	-9.27602
▁latin	-9.27678
▁skje	-9.27746
▁miljø	-9.27825
▁helse	-9.27897
ance	-9.27899
myndighet	-9.27899
▁hell	-9.27991
▁lei	-9.28042
▁bad	-9.28076
▁mari	-9.28206
▁folk	-9.28209
bygging	-9.28333
▁én	-9.28342
▁1989	-9.2848
▁1990	-9.28482
huset	-9.2859
bær	-9.28668
kning	-9.2872
ald	-9.28785
▁sir	-9.28984
▁fant	-9.2902
▁knytte	-9.29045
ismen	-9.29082
▁ya	-9.2913
don	-9.2913
fører	-9.29134
▁bygd	-9.29325
▁cent	-9.29347
ekte	-9.29352
bilde	-9.29414
▁politiker	-9.29423
▁bri	-9.29458
▁handels	-9.29496
rike	-9.29509
▁ras	-9.29534
65	-9.2961
▁thomas	-9.29641
▁len	-9.2968
linje	-9.29761
▁rund	-9.29847
organisasjon	-9.29903
minister	-9.29986
føring	-9.30069
66	-9.30072
▁arkitekt	-9.30088
pu	-9.30203
▁hor	-9.30286
▁funksjon	-9.30371
▁bas	-9.30542
▁mø	-9.30558
lang	-9.3056
▁pass	-9.3058
▁sesongen	-9.30698
▁india	-9.307
ider	-9.30761
▁dokument	-9.30773
▁lengde	-9.3078
▁universitet	-9.30783
▁james	-9.30892
▁produksjon	-9.30929
▁kilde	-9.3105
▁angrep	-9.31195
tale	-9.31283
ite	-9.31316
ktig	-9.31372
▁trekk	-9.31397
ann	-9.31552
▁ett	-9.31552
▁veien	-9.31669
▁anders	-9.3168
▁perioden	-9.32006
▁riksvei	-9.32009
▁rolle	-9.32018
▁eneste	-9.32026
ische	-9.32092
▁skjer	-9.32118
kla	-9.32169
▁ør	-9.32171
lov	-9.32419
område	-9.3242
▁war	-9.32448
fon	-9.32481
▁bygg	-9.32508
▁fro	-9.32524
▁reise	-9.32527
▁nils	-9.32553
▁dannet	-9.32591
▁bon	-9.32636
dt	-9.32644
ved	-9.32756
bri	-9.32818
▁regnes	-9.32818
▁råd	-9.33003
д	-9.33133
▁1998	-9.33145
stil	-9.33149
▁munn	-9.33201
▁plat	-9.3324
▁pris	-9.33306
▁pen	-9.33322
▁sag	-9.33422
ssen	-9.33497
▁studie	-9.33535
formet	-9.3355
▁tele	-9.33579
tta	-9.33589
samfunn	-9.33635
lå	-9.33666
drag	-9.33675
lie	-9.33775
ansk	-9.33843
▁ep	-9.33859
▁venn	-9.34068
▁våpen	-9.34072
ull	-9.34074
selskapet	-9.3408
eng	-9.34108
▁pla	-9.34124
samling	-9.34127
nor	-9.3413
ova	-9.34216
jev	-9.34247
old	-9.34257
▁transport	-9.34322
ī	-9.34334
š	-9.34334
▁oppkalt	-9.34338
mus	-9.34411
▁eget	-9.34414
fo	-9.34461
▁flat	-9.34514
▁selskap	-9.34563
kant	-9.34572
evne	-9.34589
produksjon	-9.34644
elva	-9.34656
▁grunnlagt	-9.34656
▁skade	-9.34677
▁jern	-9.34824
99	-9.34915
▁kilometer	-9.34943
▁høyeste	-9.34975
▁design	-9.35052
cy	-9.35077
▁enkelt	-9.35086
gata	-9.35141
▁fal	-9.35153
dals	-9.35166
kjenne	-9.35183
▁sho	-9.35318
▁vår	-9.3534
industri	-9.35352
▁win	-9.35394
▁studert	-9.35564
hø	-9.35691
ij	-9.35695
▁sun	-9.35798
▁elev	-9.35821
mand	-9.35934
▁ram	-9.35954
36	-9.35955
▁jens	-9.36072
▁david	-9.36167
à	-9.36254
▁sentrum	-9.36571
har	-9.36724
stu	-9.36787
▁nærings	-9.36821
olo	-9.3685
▁hard	-9.36885
▁bel	-9.36917
aksjon	-9.36991
▁etablert	-9.37035
▁eid	-9.37138
▁kjøp	-9.37226
foreningen	-9.37247
lar	-9.37359
78	-9.37381
г	-9.37402
▁nordøst	-9.37404
37	-9.3743
▁kvinne	-9.37433
▁staten	-9.37481
▁metall	-9.37508
gul	-9.37513
▁bj	-9.37518
▁berlin	-9.37585
mot	-9.37615
▁makt	-9.37733
fag	-9.37878
▁forbindelse	-9.37892
59	-9.37936
▁allerede	-9.38035
52	-9.38054
▁søster	-9.38097
atet	-9.38109
▁finans	-9.38133
▁års	-9.38165
▁ap	-9.38174
▁delt	-9.38214
▁krigs	-9.38215
nivå	-9.38499
▁het	-9.386
▁ban	-9.38602
б	-9.38656
rek	-9.3871
haug	-9.38745
▁jobb	-9.38748
vekst	-9.38764
▁borger	-9.38777
øv	-9.38836
pal	-9.38872
▁fortsatt	-9.39037
lus	-9.39052
lis	-9.39059
▁drev	-9.39162
ori	-9.39204
у	-9.39289
▁omtrent	-9.39289
▁2013	-9.39302
▁viktige	-9.39355
utdanning	-9.39378
▁ball	-9.3944
▁sund	-9.39507
året	-9.39578
▁slike	-9.39653
▁gitar	-9.39724
▁millioner	-9.39747
erende	-9.39781
72	-9.39786
fl	-9.39789
▁cas	-9.398
graf	-9.39855
ott	-9.39888
▁gjøre	-9.39894
▁2012	-9.39949
▁bygde	-9.39976
▁knut	-9.40044
iner	-9.40045
▁årlig	-9.40105
▁hovedstaden	-9.40204
band	-9.40252
ringen	-9.4029
vitenskap	-9.40364
67	-9.4038
språk	-9.40394
▁ph	-9.40463
ball	-9.40482
senteret	-9.40495
90	-9.40525
▁xiàn	-9.40572
▁flo	-9.40577
▁1980	-9.40579
76	-9.40593
stedet	-9.40693
▁skrive	-9.40766
gruppe	-9.40773
nu	-9.40821
70	-9.4084
butikk	-9.40993
loven	-9.41025
▁mis	-9.41048
▁trykk	-9.41104
▁operatør	-9.41213
▁kristian	-9.41233
▁holdt	-9.41375
▁minst	-9.41386
▁maskin	-9.41451
departementet	-9.41598
44	-9.41692
▁fordi	-9.41721
▁mørk	-9.41734
lling	-9.41752
▁1993	-9.41861
▁gård	-9.41873
virkning	-9.41876
▁besto	-9.42089
▁løs	-9.42129
▁tett	-9.42155
ney	-9.42161
verket	-9.42336
▁just	-9.42368
19	-9.42395
89	-9.42521
▁spansk	-9.42529
▁solgt	-9.42553
▁sten	-9.42584
▁mid	-9.42633
ora	-9.4267
manns	-9.42681
nik	-9.42685
▁george	-9.4275
stille	-9.42793
▁spi	-9.42801
▁rei	-9.42857
hav	-9.42961
dor	-9.42986
gitt	-9.43007
▁sn	-9.43056
pla	-9.43124
her	-9.43125
▁1999	-9.43188
▁økonomisk	-9.4329
stol	-9.43302
roll	-9.43331
▁elv	-9.43494
ons	-9.43658
▁finsk	-9.4366
▁lokale	-9.43676
▁ok	-9.43711
grav	-9.43834
▁italia	-9.4386
57	-9.43866
33	-9.43883
cha	-9.43887
▁høyde	-9.43943
12	-9.43957
▁kjøpt	-9.44067
ira	-9.44157
с	-9.44284
▁benyttet	-9.44349
ction	-9.44371
kunst	-9.44478
▁prosess	-9.44485
▁franske	-9.44525
▁nordvest	-9.44553
▁mennesker	-9.44618
▁sau	-9.44619
felt	-9.44691
ky	-9.44859
din	-9.44883
▁es	-9.44912
aktig	-9.44923
▁sim	-9.44938
hal	-9.44971
org	-9.45026
▁anne	-9.45103
bjørn	-9.45141
▁1997	-9.45184
▁fredrik	-9.45211
organ	-9.45223
▁hovedstad	-9.45248
▁samle	-9.45287
▁sogn	-9.45332
▁ek	-9.45404
85	-9.45507
elli	-9.45623
56	-9.45747
kirke	-9.45941
▁inkluderer	-9.45976
▁gje	-9.45985
kilden	-9.46063
dning	-9.46177
▁cal	-9.46181
▁mun	-9.46231
▁verdi	-9.463
rum	-9.46302
▁litteratur	-9.46326
▁vind	-9.46355
farge	-9.46389
pol	-9.46462
▁island	-9.46472
vert	-9.46509
▁bind	-9.46637
ringer	-9.46644
ial	-9.46657
46	-9.46685
▁enhet	-9.46692
musikk	-9.46701
▁grønn	-9.4674
ose	-9.46789
ritt	-9.46826
▁hall	-9.46846
▁danner	-9.46868
ledd	-9.4689
▁personer	-9.46974
▁stiftet	-9.47018
▁1988	-9.47226
▁england	-9.4725
▁løper	-9.47271
▁svarte	-9.47282
▁felt	-9.47297
▁økt	-9.4731
▁virke	-9.47313
▁hon	-9.47366
tha	-9.47372
▁lek	-9.47502
kh	-9.47545
yang	-9.4756
▁dansk	-9.47562
▁langt	-9.476
▁merke	-9.47616
havet	-9.4763
▁åpnet	-9.4765
58	-9.47656
▁hit	-9.47717
98	-9.47793
ati	-9.47797
▁ole	-9.47805
▁1995	-9.47903
▁national	-9.47904
▁ønske	-9.47907
ade	-9.47923
▁danmark	-9.47925
brudd	-9.48041
▁henrik	-9.48108
на	-9.48122
vinne	-9.48129
▁partiet	-9.48253
▁utgav	-9.48273
▁korte	-9.48283
▁sentrale	-9.48327
▁resultat	-9.48347
sam	-9.48347
▁wei	-9.48413
cul	-9.48418
▁nest	-9.48426
af	-9.48464
▁yng	-9.48545
voll	-9.48593
▁london	-9.48598
▁områder	-9.48611
▁turn	-9.48674
skudd	-9.48683
▁stav	-9.48683
▁stasjonen	-9.48729
fin	-9.48782
vinger	-9.48804
stoff	-9.48862
▁type	-9.48882
▁drift	-9.48883
▁komponist	-9.48884
▁gren	-9.48896
▁driver	-9.48941
ild	-9.48967
ografi	-9.48982
▁ordenen	-9.49033
riket	-9.49106
krigen	-9.49116
ella	-9.49247
fest	-9.49255
▁tilsvarende	-9.49297
▁flyttet	-9.493
▁university	-9.49302
к	-9.49311
kast	-9.49355
▁eldre	-9.49394
ula	-9.49409
satte	-9.49483
▁kul	-9.49496
▁old	-9.49548
▁britiske	-9.49554
▁time	-9.49565
snitt	-9.49683
øyene	-9.49702
▁bay	-9.49713
lund	-9.49871
▁ger	-9.49986
▁byprefekturet	-9.50001
▁nærmest	-9.50005
messig	-9.50006
▁hud	-9.5006
sø	-9.50062
program	-9.50068
hen	-9.50069
rad	-9.50101
kra	-9.50132
sal	-9.50159
▁vanlig	-9.50213
▁brukte	-9.50236
ain	-9.50237
л	-9.50252
bank	-9.50299
dø	-9.50311
vatnet	-9.50383
92	-9.50386
▁bomb	-9.50418
▁wil	-9.50455
▁stre	-9.50476
▁paris	-9.50485
77	-9.50534
▁slekten	-9.50545
▁stan	-9.50626
▁kull	-9.5063
▁gjort	-9.50683
▁betydelig	-9.50711
▁1985	-9.50725
ity	-9.50758
▁samling	-9.50785
folk	-9.50813
▁natt	-9.50849
poli	-9.50863
▁kart	-9.51013
▁biskop	-9.51109
på	-9.51153
parti	-9.51273
dis	-9.51302
▁son	-9.51323
fu	-9.5133
sette	-9.51358
▁dam	-9.51384
konkurranse	-9.5139
belteasteroide	-9.51425
▁richard	-9.51425
linjen	-9.51427
▁gass	-9.51434
▁oblast	-9.51436
▁lan	-9.51458
skapet	-9.51521
▁anna	-9.51544
▁daglig	-9.51546
49	-9.51548
▁seil	-9.51564
▁aldri	-9.51565
▁pave	-9.51578
▁syv	-9.51588
lon	-9.51592
▁svenske	-9.51694
▁spille	-9.51715
62	-9.5172
anlegg	-9.51777
oli	-9.51911
ativ	-9.51945
38	-9.51949
pass	-9.51998
last	-9.52013
ico	-9.52051
shi	-9.52135
▁1992	-9.52158
trekk	-9.52165
jon	-9.52194
ås	-9.52296
ves	-9.52392
▁landskap	-9.52399
▁skille	-9.52512
▁bio	-9.52546
▁lars	-9.52554
▁nabo	-9.52601
▁middel	-9.52635
midler	-9.52674
69	-9.52722
▁koll	-9.52728
▁konsert	-9.52791
fugl	-9.52835
handling	-9.52835
▁world	-9.52869
▁administrasjons	-9.52897
▁yu	-9.52901
▁kh	-9.52904
ins	-9.52915
▁hører	-9.52917
▁verden	-9.52981
▁regionen	-9.52983
våg	-9.53057
jan	-9.53063
▁oppført	-9.53068
områdene	-9.53112
▁danske	-9.53192
røy	-9.53246
▁kro	-9.53294
ón	-9.53344
hn	-9.53367
▁cap	-9.53372
▁fest	-9.5338
▁museum	-9.53421
lav	-9.53469
▁star	-9.53528
▁frankrike	-9.53609
82	-9.53614
▁meget	-9.53627
▁dyp	-9.53668
▁tverr	-9.53676
▁dø	-9.53699
96	-9.53701
▁salt	-9.53709
▁che	-9.53738
68	-9.53741
▁arten	-9.538
alis	-9.53883
kur	-9.53911
▁sterkt	-9.53971
▁tilby	-9.54033
▁forsknings	-9.54049
ence	-9.54096
ød	-9.54167
▁larven	-9.54318
▁kroppen	-9.54323
▁michael	-9.54334
▁eldste	-9.54335
▁trondheim	-9.54342
▁arne	-9.54355
▁thi	-9.54366
ura	-9.54371
▁black	-9.54397
plasser	-9.5443
▁35	-9.54443
▁varme	-9.54499
ala	-9.54533
get	-9.54539
▁drama	-9.5468
▁løv	-9.54685
▁grenser	-9.547
▁interesse	-9.54745
▁vid	-9.54771
▁frank	-9.54907
▁und	-9.5493
kov	-9.55037
▁relativ	-9.55076
▁drept	-9.55079
▁york	-9.55081
▁bokstav	-9.55083
79	-9.55103
▁figur	-9.5511
▁app	-9.55164
wan	-9.55165
merke	-9.55221
▁hvite	-9.5524
▁ungdoms	-9.55327
▁fortsatte	-9.55403
deles	-9.5542
▁gården	-9.55437
▁tung	-9.55484
▁ze	-9.5553
▁dyr	-9.55575
▁tall	-9.55596
stan	-9.55618
▁vokal	-9.55705
▁hopp	-9.55799
▁1996	-9.55835
▁2015	-9.55838
▁skips	-9.55844
▁derimo	-9.55889
63	-9.55935
▁utstyr	-9.55939
▁virksomhet	-9.55948
medalje	-9.55951
avis	-9.56113
▁spar	-9.56274
▁kraftverk	-9.56331
▁totalt	-9.56354
delse	-9.56457
sia	-9.56489
▁henne	-9.5651
α	-9.56573
▁international	-9.56573
▁1991	-9.56586
▁1970	-9.56589
press	-9.56728
▁problem	-9.56817
80	-9.56863
▁idretts	-9.5687
strøm	-9.56877
trekning	-9.56894
▁nummer	-9.5691
az	-9.56924
42	-9.56949
▁veg	-9.5711
hard	-9.57141
plante	-9.57263
▁sørøst	-9.57333
field	-9.57427
sberg	-9.57469
well	-9.57482
▁dekk	-9.57487
▁renner	-9.57524
grunn	-9.57534
▁she	-9.57557
gående	-9.57557
▁motstand	-9.57655
▁holm	-9.57735
fang	-9.57998
vers	-9.58091
gor	-9.5813
▁ask	-9.58186
▁cy	-9.58244
ér	-9.58274
stor	-9.58275
▁mørke	-9.58285
▁vik	-9.58289
▁marc	-9.5832
▁eiendom	-9.58398
▁fugle	-9.58414
▁kjenn	-9.58498
▁tradisjonell	-9.58515
▁ledelse	-9.58575
▁finland	-9.58607
ign	-9.58688
▁lund	-9.58722
▁unge	-9.58735
▁metal	-9.58793
▁middelsstor	-9.58863
▁lufthavn	-9.58877
ben	-9.58908
▁brann	-9.58945
slekt	-9.58959
sang	-9.58984
handler	-9.58985
▁stammer	-9.59022
▁organisasjon	-9.59096
▁will	-9.59137
▁60	-9.5916
krets	-9.59177
liga	-9.59281
▁fyr	-9.59296
▁kam	-9.59369
løse	-9.59371
▁los	-9.59443
hol	-9.59447
▁arn	-9.59589
88	-9.5963
▁statsminister	-9.59653
▁antenne	-9.59662
▁brø	-9.59724
▁sivil	-9.59727
gard	-9.59816
▁brit	-9.5989
gin	-9.59911
▁us	-9.59944
▁kors	-9.60058
los	-9.60096
delen	-9.60135
▁japan	-9.60149
▁gru	-9.60183
chu	-9.60313
tog	-9.60361
▁innbyggertall	-9.60419
▁1975	-9.6044
▁fått	-9.60482
▁fylkes	-9.60494
▁boken	-9.60497
▁rygg	-9.60524
▁sendt	-9.60528
▁och	-9.60546
▁albert	-9.60614
▁polsk	-9.60631
avdeling	-9.60782
▁edderkopp	-9.60889
▁off	-9.61005
▁redaktør	-9.61155
isten	-9.61202
▁1994	-9.61221
▁tang	-9.61261
▁spre	-9.6133
▁opprør	-9.61355
hm	-9.61383
▁jø	-9.6142
gler	-9.61464
eksjon	-9.61475
produsent	-9.61531
▁krigen	-9.61556
▁nrk	-9.61646
skij	-9.61656
▁angel	-9.61693
analyse	-9.61753
▁hed	-9.61775
bru	-9.61822
▁hom	-9.61823
25	-9.6188
▁mol	-9.61905
▁dynastiet	-9.61929
▁kata	-9.61932
▁høsten	-9.61952
▁typisk	-9.62006
det	-9.62006
▁1979	-9.62016
▁1968	-9.62016
▁skyld	-9.62046
▁informasjon	-9.62047
▁nevnes	-9.62053
▁likevel	-9.62058
▁løp	-9.6209
▁møtte	-9.621
brun	-9.62142
▁eli	-9.62265
▁tatt	-9.62327
trær	-9.62342
våpen	-9.62348
▁styrke	-9.62379
pan	-9.62384
▁hellig	-9.62525
able	-9.6268
fart	-9.62682
▁skapt	-9.62716
con	-9.6278
stru	-9.62809
zo	-9.62919
▁representerer	-9.62944
▁rein	-9.62976
▁direktør	-9.63101
▁dato	-9.63102
▁høyt	-9.63233
øs	-9.633
▁jean	-9.63319
▁danne	-9.63346
gli	-9.63352
hel	-9.63373
▁80	-9.63427
▁prosjekt	-9.63457
▁seier	-9.63457
▁dar	-9.63464
▁beskrev	-9.63577
▁brensel	-9.63593
▁katolsk	-9.63608
gra	-9.63613
▁prosent	-9.63625
▁pop	-9.63666
▁symbol	-9.63688
94	-9.63695
systemet	-9.637
dagen	-9.63769
▁vanlige	-9.63862
pha	-9.63883
▁bevegelse	-9.63923
▁offisiell	-9.63932
jen	-9.64059
bare	-9.64064
▁ö	-9.64102
▁ana	-9.64106
97	-9.64116
▁ledd	-9.64165
innen	-9.64169
▁ris	-9.64202
prisen	-9.64208
sin	-9.64289
▁rep	-9.64364
▁lyse	-9.64374
▁euro	-9.64406
▁uavhengig	-9.64412
â	-9.6442
▁hjerte	-9.6446
give	-9.64467
øm	-9.64503
▁variant	-9.64532
▁real	-9.64565
▁meg	-9.64596
▁py	-9.64625
▁foss	-9.64646
bakken	-9.64657
▁forfatteren	-9.64664
▁dager	-9.64673
▁nes	-9.64842
▁king	-9.64855
▁komp	-9.65009
▁fange	-9.65146
▁zo	-9.65174
▁laur	-9.65178
kos	-9.652
holm	-9.65218
▁eksempler	-9.6524
▁øvrig	-9.6524
elige	-9.65244
▁middelalder	-9.65246
91	-9.65253
▁bern	-9.65255
▁comp	-9.65256
▁1960	-9.65261
sport	-9.65261
73	-9.65295
▁gun	-9.6531
ato	-9.6535
▁spill	-9.65439
▁effekt	-9.65487
skriv	-9.65522
▁delta	-9.65543
▁betegne	-9.65549
▁blei	-9.65552
▁aust	-9.65622
kommune	-9.65686
▁prest	-9.65747
▁syk	-9.65821
medaljen	-9.65926
▁lærer	-9.65945
▁vold	-9.65955
я	-9.66066
▁kategori	-9.66066
▁dronning	-9.66071
▁2017	-9.66088
▁soldat	-9.66088
▁elve	-9.66115
54	-9.66126
▁cm	-9.66163
▁stoff	-9.66199
41	-9.66211
bart	-9.66293
▁mester	-9.66342
vor	-9.6643
▁pin	-9.66548
74	-9.6655
▁gram	-9.66556
▁horn	-9.66587
mid	-9.66594
▁drive	-9.6661
07	-9.6667
person	-9.66679
hall	-9.66708
▁erstattet	-9.66734
▁iii	-9.66845
samisk	-9.66861
▁storbritannia	-9.66899
▁1987	-9.66913
aceae	-9.66917
▁sørvest	-9.6694
lær	-9.67031
▁kj	-9.67071
▁havne	-9.67122
tek	-9.67129
▁sommeren	-9.67159
fjellet	-9.67285
ín	-9.67357
▁søk	-9.67359
hai	-9.67418
▁utdanne	-9.67496
▁nar	-9.67531
▁hum	-9.67574
▁grense	-9.67655
gir	-9.67725
▁hva	-9.67731
motor	-9.67735
▁jacob	-9.67741
▁charles	-9.6777
vit	-9.67788
▁kanon	-9.67819
▁klima	-9.67832
▁glass	-9.6784
rådet	-9.67859
▁bedre	-9.6786
pur	-9.67986
kro	-9.68073
▁professor	-9.68121
ark	-9.68195
▁myr	-9.68227
▁gode	-9.68239
18	-9.6828
▁up	-9.68375
mund	-9.68384
▁nam	-9.6839
kop	-9.68505
▁dyre	-9.68511
▁kraftig	-9.68518
strand	-9.68539
▁musiker	-9.68541
▁bol	-9.68569
▁borg	-9.68614
virke	-9.68627
▁larvene	-9.6868
▁bass	-9.68702
▁bit	-9.68775
gaard	-9.68836
▁eg	-9.68849
16	-9.68866
▁møte	-9.6887
skolen	-9.68904
drift	-9.68949
▁avdeling	-9.68964
än	-9.68984
▁christ	-9.68989
▁ce	-9.69001
▁steder	-9.69051
▁lære	-9.69112
▁haug	-9.69143
ledning	-9.69169
nummer	-9.69182
▁slo	-9.69208
▁populær	-9.69226
47	-9.69226
jö	-9.69319
▁blomster	-9.69329
▁amt	-9.69353
lapp	-9.69385
▁festival	-9.69391
ville	-9.69426
▁amerika	-9.69442
▁norrøn	-9.69444
▁publisert	-9.69448
▁stø	-9.69461
▁daniel	-9.69485
▁fulgte	-9.69512
sser	-9.69514
nntil	-9.69519
kanalen	-9.69578
kere	-9.69588
trinn	-9.69621
klar	-9.69654
foss	-9.69756
▁universitetet	-9.69775
▁regjeringen	-9.69786
▁poly	-9.69847
▁finn	-9.6993
87	-9.69939
▁fører	-9.69974
▁rang	-9.6998
08	-9.70003
kort	-9.70008
▁bøker	-9.70018
▁bygningen	-9.70047
▁fjord	-9.70071
▁klasse	-9.70095
▁britisk	-9.702
mod	-9.70287
▁santa	-9.70289
▁dor	-9.70302
sekretær	-9.70304
▁artikkel	-9.70304
▁louis	-9.70305
▁foreldre	-9.70307
▁øverst	-9.70307
▁1984	-9.70317
▁1972	-9.70323
endring	-9.70328
▁180	-9.70345
▁samfunns	-9.70444
▁tittel	-9.70475
▁manus	-9.70502
▁32	-9.70533
▁phil	-9.70591
misjon	-9.70597
illa	-9.70599
▁provins	-9.70606
stall	-9.7062
tus	-9.70715
71	-9.70755
▁marine	-9.70839
09	-9.70889
trolig	-9.70909
▁behandling	-9.7097
▁nan	-9.70987
spor	-9.71018
▁måte	-9.71024
rør	-9.71061
▁epi	-9.71124
▁sannsynlig	-9.71174
▁stockholm	-9.71174
▁1981	-9.71174
▁stavanger	-9.7119
▁1982	-9.7119
▁ordfører	-9.71204
▁frukt	-9.71224
▁lev	-9.71243
stø	-9.71305
▁instrument	-9.71336
▁markeds	-9.71389
▁modell	-9.71411
▁klo	-9.71475
▁faren	-9.71482
▁forsøk	-9.71487
givelse	-9.715
artikler	-9.71545
▁arabisk	-9.71546
▁enten	-9.71547
fjell	-9.71547
▁benyttes	-9.71552
▁distriktet	-9.71585
▁kontroll	-9.7161
▁delen	-9.71673
kirken	-9.71684
▁sjef	-9.71718
▁nederlandsk	-9.71879
▁tai	-9.71901
▁cra	-9.71915
▁handling	-9.71919
mur	-9.71924
▁retning	-9.71932
▁omtale	-9.71978
▁skip	-9.71989
▁rør	-9.72018
ū	-9.7204
▁elektrisk	-9.72051
▁wilhelm	-9.72051
▁2014	-9.72075
▁1950	-9.72085
cal	-9.72137
▁alltid	-9.72147
▁north	-9.72154
lede	-9.72179
▁areal	-9.72268
jiang	-9.72273
▁befolkningen	-9.72303
▁utført	-9.72341
▁forsker	-9.72363
feltet	-9.72374
ān	-9.7238
▁hå	-9.72417
saker	-9.72461
kanten	-9.72498
▁teknisk	-9.72524
14	-9.72533
maskin	-9.72661
▁plassert	-9.72676
▁camp	-9.72698
▁pot	-9.7275
▁kommunene	-9.72774
́	-9.72936
ì	-9.72936
▁fjerde	-9.72936
▁1967	-9.72955
▁følge	-9.72973
▁cho	-9.73003
▁slott	-9.73014
▁slått	-9.7304
dahl	-9.73066
▁ran	-9.73092
pet	-9.73109
▁por	-9.73138
▁vinner	-9.73225
▁pat	-9.73235
veis	-9.73239
unt	-9.73284
▁max	-9.73367
atur	-9.73376
ical	-9.73397
▁bestod	-9.73422
▁harald	-9.73505
▁kvinner	-9.73574
▁danse	-9.73716
varer	-9.73807
▁krig	-9.73813
arbeider	-9.73815
▁olympisk	-9.73829
▁suksess	-9.73829
▁begrepet	-9.73842
meter	-9.73871
eland	-9.73925
▁char	-9.73939
▁neste	-9.73962
aya	-9.73982
▁cro	-9.74036
vald	-9.74077
▁område	-9.74077
▁auto	-9.74113
▁raskt	-9.74119
ping	-9.7413
car	-9.74153
▁tap	-9.74166
▁test	-9.74207
▁hoff	-9.74217
▁beskytte	-9.74222
ric	-9.74295
▁delvis	-9.74305
vogn	-9.74363
▁disk	-9.74452
▁flu	-9.74455
dam	-9.74465
parken	-9.74495
▁od	-9.74531
low	-9.74539
▁buss	-9.74551
dem	-9.74641
▁alternativ	-9.74729
▁1983	-9.7473
prefektur	-9.7473
▁hvilke	-9.74732
skjold	-9.74732
▁oppdaget	-9.74735
▁referere	-9.74753
▁2016	-9.74755
fyll	-9.74789
84	-9.74819
▁high	-9.7482
uf	-9.74842
▁trafikk	-9.74876
35	-9.74884
former	-9.74897
▁cam	-9.74913
▁flyplass	-9.74967
▁feil	-9.75
▁zh	-9.75029
▁retts	-9.75071
gal	-9.75075
mil	-9.75078
rang	-9.75083
▁operasjon	-9.75139
▁snø	-9.75152
non	-9.75262
vold	-9.75306
▁90	-9.75366
skifte	-9.75405
▁hil	-9.75446
oni	-9.75466
▁strand	-9.75522
ordenen	-9.7559
formede	-9.75602
representant	-9.75603
ough	-9.75622
▁ført	-9.75643
▁1978	-9.75659
17	-9.7568
▁måned	-9.75682
▁marie	-9.7572
▁zu	-9.75729
▁grand	-9.75734
▁sju	-9.75745
▁gjennomført	-9.75754
▁nr	-9.75776
▁odd	-9.75879
▁petter	-9.75894
ax	-9.75895
▁sven	-9.75956
▁uke	-9.75973
sol	-9.75978
▁sports	-9.76048
▁70	-9.76064
følge	-9.76065
plikt	-9.76124
▁rosen	-9.76144
9	-9.76145
▁holder	-9.76149
▁funnet	-9.76149
▁malt	-9.76152
▁spilles	-9.76188
▁regjerings	-9.76233
▁påvirke	-9.76272
▁utnevnt	-9.76282
▁gla	-9.76304
partiet	-9.76319
▁andreas	-9.76354
arter	-9.76381
▁benytte	-9.76427
pningsseremonien	-9.76556
▁tydelig	-9.7656
ingeniør	-9.76569
qu	-9.76576
▁betegnelsen	-9.76591
▁saint	-9.76607
bell	-9.76616
▁slaget	-9.76619
▁total	-9.7662
▁valgt	-9.76768
vekt	-9.76921
▁krist	-9.76928
▁with	-9.76949
liste	-9.77171
gua	-9.77223
▁helge	-9.77289
▁bord	-9.7731
▁heng	-9.7733
merket	-9.77357
fond	-9.77423
ies	-9.77426
й	-9.77482
▁københavn	-9.77482
▁flaggbærer	-9.77482
▁flertall	-9.77483
hei	-9.77551
firma	-9.77569
▁fremme	-9.77598
▁city	-9.77653
bia	-9.77655
▁grev	-9.7768
▁foruten	-9.77681
▁luc	-9.77707
▁gall	-9.77723
▁endret	-9.77781
▁arv	-9.77794
sik	-9.77817
▁jevn	-9.77818
▁union	-9.77864
gy	-9.77894
▁sort	-9.77973
▁åpen	-9.78175
▁formel	-9.78198
▁program	-9.78221
bul	-9.78246
▁kjerne	-9.7831
64	-9.78383
▁turist	-9.78401
▁akademi	-9.78417
▁parlament	-9.78417
▁video	-9.7844
▁bolig	-9.78447
▁mikro	-9.7846
▁russ	-9.78494
gården	-9.78508
▁ass	-9.78525
▁landbruk	-9.78543
uv	-9.78546
▁fot	-9.78552
▁organisasjonen	-9.78602
vende	-9.78632
▁leir	-9.78651
▁regel	-9.78703
▁may	-9.78711
▁roma	-9.78748
▁hannen	-9.78762
ras	-9.78831
▁rå	-9.78961
▁sykdom	-9.79042
tti	-9.79118
▁love	-9.79126
bygning	-9.7914
virksomhet	-9.79199
historie	-9.792
▁hou	-9.79258
ple	-9.79264
▁skatte	-9.79326
▁opphav	-9.79334
▁naturlig	-9.79356
▁kjemisk	-9.79366
fartøy	-9.79368
▁song	-9.7938
eier	-9.79413
▁fjellet	-9.79432
uch	-9.79464
▁vinge	-9.79475
plassen	-9.79485
21	-9.79499
▁lenge	-9.79505
▁stille	-9.79533
▁innehold	-9.79535
▁viste	-9.79652
fabrikk	-9.79675
▁landsby	-9.79683
▁gau	-9.7972
▁ettersom	-9.79769
▁tj	-9.79991
▁gard	-9.80001
▁typer	-9.80014
win	-9.80017
▁hodet	-9.80054
blomst	-9.80082
▁tradisjon	-9.80118
▁long	-9.80127
▁kas	-9.80128
▁journalist	-9.80148
▁ken	-9.80294
▁zi	-9.80294
ν	-9.80312
▁regissert	-9.80313
▁stopp	-9.80321
▁tegnet	-9.80325
▁1977	-9.80331
▁1986	-9.80336
▁gå	-9.80354
▁romersk	-9.80402
▁teknologi	-9.80511
▁johann	-9.80512
▁adel	-9.80577
▁log	-9.80597
▁bla	-9.80615
veg	-9.8065
bol	-9.80684
debut	-9.80698
▁størrelse	-9.807
mond	-9.80766
lip	-9.80778
▁europeisk	-9.80827
▁skul	-9.80852
enhet	-9.80924
byrå	-9.80949
ary	-9.80977
fil	-9.80983
▁hunnen	-9.80987
▁dør	-9.81003
løsning	-9.81028
formen	-9.81037
▁teksten	-9.81135
serien	-9.81141
spis	-9.81184
▁temperatur	-9.8119
bal	-9.81193
▁bonde	-9.81261
▁prisen	-9.81269
▁bølge	-9.81309
▁1900	-9.81328
▁kryss	-9.81334
▁fabrikk	-9.81445
▁privat	-9.81498
▁asia	-9.81575
▁alder	-9.81679
▁høyere	-9.81696
▁verne	-9.8176
▁vestlig	-9.81761
▁innsjøen	-9.81817
verdig	-9.81831
▁flagg	-9.81898
eide	-9.81986
havn	-9.82052
▁bob	-9.82109
ernes	-9.82129
produkt	-9.82187
▁dog	-9.82211
institusjon	-9.82245
▁administrativ	-9.82245
▁inspirert	-9.82245
▁hurtig	-9.82246
▁hertug	-9.82252
▁løpet	-9.82277
▁hustru	-9.82282
▁award	-9.82367
bakk	-9.82378
▁stadig	-9.82406
53	-9.82528
rev	-9.82532
ito	-9.82622
▁yo	-9.82628
▁sul	-9.82653
▁utstilling	-9.82705
▁200	-9.8276
tunnelen	-9.82783
ulf	-9.82787
▁sider	-9.82796
▁franc	-9.82804
ux	-9.82843
▁vær	-9.82848
gift	-9.82856
undersøkelse	-9.8291
▁stod	-9.82914
▁mill	-9.82968
▁historiker	-9.82977
▁kost	-9.83006
▁jakt	-9.8301
▁fylket	-9.83025
▁troll	-9.83108
▁bronse	-9.83128
▁karriere	-9.83143
vest	-9.83217
▁friedrich	-9.83225
▁hverandre	-9.83225
▁service	-9.83225
▁øvre	-9.83232
▁snakk	-9.83232
▁indisk	-9.83235
▁landsbyen	-9.83258
▁otto	-9.83293
▁are	-9.83311
type	-9.83319
▁penge	-9.83332
▁anlegget	-9.83352
▁400	-9.83401
▁base	-9.83429
bein	-9.83435
▁dj	-9.8351
arkiv	-9.83671
▁jazz	-9.83755
▁nordlige	-9.83756
syre	-9.83816
park	-9.83994
▁ansvar	-9.8402
▁hente	-9.84031
▁jag	-9.84033
parten	-9.84137
▁scene	-9.84177
▁klassisk	-9.84218
holmen	-9.8428
▁cre	-9.84297
▁henry	-9.84435
kammer	-9.84498
▁lignende	-9.84556
▁luk	-9.84599
▁krav	-9.84633
▁apo	-9.84697
cho	-9.848
ан	-9.84869
▁lagt	-9.84883
▁teori	-9.84887
▁livs	-9.84952
▁fjorden	-9.8503
▁music	-9.85045
▁bakkroppen	-9.85081
▁opptre	-9.85098
figur	-9.85174
oide	-9.85184
▁forsvar	-9.85187
ß	-9.85208
▁kardinal	-9.85215
▁tilhørte	-9.85215
▁joseph	-9.85215
▁dårlig	-9.85218
▁glo	-9.85219
slutning	-9.8522
▁1971	-9.85232
▁regjering	-9.85273
▁sammenheng	-9.85354
artist	-9.85416
▁preste	-9.85443
▁åpne	-9.85447
▁verdenskrig	-9.85457
trafikk	-9.85467
aria	-9.85526
alder	-9.85603
▁ekspedisjon	-9.8567
▁gjeste	-9.85727
ios	-9.85818
oppgave	-9.85869
23	-9.85903
korps	-9.85931
▁qui	-9.85954
stripe	-9.85959
▁jule	-9.86078
ada	-9.86112
▁frø	-9.86162
▁elektro	-9.86203
▁din	-9.86207
▁club	-9.86226
▁1973	-9.86243
▁vanskelig	-9.86245
▁canada	-9.86245
▁musikkalbum	-9.86248
periode	-9.86249
kontor	-9.86283
▁krets	-9.86305
▁dro	-9.86404
▁tettsted	-9.8648
nis	-9.86485
▁populære	-9.86518
lé	-9.86542
voks	-9.86707
▁oliv	-9.86767
▁etablerte	-9.86825
▁produsent	-9.86827
gruppa	-9.86873
luk	-9.86901
7	-9.86946
▁nasjonale	-9.87002
▁kara	-9.87017
feld	-9.8702
▁vä	-9.87046
▁militære	-9.87186
▁tilhøre	-9.87213
▁alkohol	-9.87246
▁qū	-9.87259
▁för	-9.8726
komst	-9.87268
yu	-9.87312
▁grupper	-9.87318
▁miste	-9.87339
▁stål	-9.87349
kraftverk	-9.87394
▁festning	-9.87436
rød	-9.87484
gjøre	-9.87582
são	-9.8783
▁spiss	-9.88004
▁skipet	-9.88084
▁kalte	-9.88087
▁led	-9.88118
▁tema	-9.88144
ona	-9.88149
▁rute	-9.8818
▁kloster	-9.88183
▁afrika	-9.88268
zy	-9.88269
▁kode	-9.88274
▁original	-9.88277
▁profesjonell	-9.88277
▁passasjer	-9.88277
▁berømt	-9.88278
▁1945	-9.88291
▁bibliotek	-9.88296
▁1963	-9.88296
▁power	-9.883
prosess	-9.88309
gue	-9.88315
kultur	-9.88377
gjorde	-9.88379
eringen	-9.88381
strid	-9.88403
rim	-9.88533
rop	-9.88543
▁gold	-9.8858
forhold	-9.8862
▁befolkning	-9.88645
▁kai	-9.88647
com	-9.88731
▁sær	-9.88855
gangen	-9.88855
hof	-9.88931
fot	-9.88964
onia	-9.8912
lement	-9.89133
svik	-9.89133
▁300	-9.89163
▁republikken	-9.89191
▁forskning	-9.89196
▁personlig	-9.8925
▁byer	-9.89269
▁kalk	-9.89273
▁aktivitet	-9.89296
ander	-9.89314
▁nowiki	-9.89318
▁sovjetunionen	-9.89318
▁vingespenn	-9.89318
gjort	-9.89326
▁brasil	-9.8933
▁gustav	-9.89338
▁bydistrikt	-9.89357
▁tsj	-9.8937
▁jordbruk	-9.89383
▁oppnå	-9.89387
ич	-9.89475
▁ytre	-9.89488
▁korea	-9.89498
▁tan	-9.89498
▁sla	-9.89575
▁tog	-9.896
istene	-9.89613
28	-9.89677
▁unn	-9.89683
orp	-9.89705
▁rek	-9.8978
▁gress	-9.89836
▁bou	-9.89858
▁filosofi	-9.89916
▁arve	-9.89932
▁reform	-9.89962
▁israel	-9.90011
▁tonn	-9.90063
hund	-9.90105
▁heller	-9.90159
rup	-9.90248
▁olsen	-9.90272
▁bud	-9.90298
lingen	-9.90325
▁ånd	-9.90347
▁arrangert	-9.90371
▁autonom	-9.90372
kapasitet	-9.90373
▁bakvingen	-9.90376
▁college	-9.90382
▁shan	-9.90394
▁svak	-9.90399
trop	-9.90413
festival	-9.90434
møte	-9.90488
▁mini	-9.90491
▁stamme	-9.90553
▁damp	-9.90561
11	-9.90611
▁gruve	-9.90633
▁kontor	-9.90703
løpet	-9.90706
inae	-9.90713
▁cri	-9.90799
▁lot	-9.90802
▁vm	-9.90964
▁il	-9.91072
▁lø	-9.91108
▁buk	-9.91183
▁periode	-9.91322
▁huset	-9.91349
ō	-9.91363
45	-9.91387
▁kristen	-9.91399
roman	-9.91404
▁alf	-9.91422
ô	-9.91435
▁religiøs	-9.91435
▁primær	-9.91437
hagen	-9.91437
▁1976	-9.91458
▁fremdeles	-9.91485
forfatter	-9.91523
shire	-9.91562
▁syr	-9.9157
▁vokalist	-9.91633
▁kampen	-9.91694
▁ung	-9.91706
▁historien	-9.91712
▁lenger	-9.91731
▁nevnt	-9.9177
▁røde	-9.91791
▁sja	-9.91801
▁produkt	-9.91835
▁forsvars	-9.91847
▁øyene	-9.91907
lokk	-9.91982
▁neu	-9.92043
▁høye	-9.92059
▁maler	-9.92156
▁signal	-9.92173
▁ein	-9.9227
▁tettstedet	-9.92302
søk	-9.92327
▁hode	-9.92332
▁ramme	-9.9237
▁angi	-9.92392
▁divisjon	-9.92418
▁orkester	-9.9244
▁tilgjengelig	-9.9251
ë	-9.9251
▁australia	-9.9251
▁opprinnelse	-9.9251
▁religion	-9.9251
vunnet	-9.92515
▁1974	-9.92528
▁lengre	-9.92543
vang	-9.92571
▁poeng	-9.92635
▁bestemt	-9.92686
▁skriver	-9.92716
▁dun	-9.92735
▁koloni	-9.92737
dene	-9.92749
▁mobil	-9.92787
▁that	-9.92858
▁avslutte	-9.92861
▁sørlige	-9.92899
dro	-9.92934
▁rollen	-9.92959
06	-9.92966
kysten	-9.92982
22	-9.93005
▁ark	-9.93035
jord	-9.93082
▁500	-9.93126
finner	-9.93133
▁45	-9.93182
▁mah	-9.93195
▁tapt	-9.93234
▁bærer	-9.93239
▁ytter	-9.93291
slaget	-9.93301
▁velge	-9.93361
ative	-9.93363
▁ves	-9.93383
▁ting	-9.93386
grupper	-9.93398
▁hj	-9.93412
▁grunnla	-9.93478
hov	-9.93507
▁gjelder	-9.93507
▁brand	-9.93527
▁programmet	-9.93548
klubben	-9.93565
▁hill	-9.93581
ι	-9.93597
▁records	-9.93597
▁trøndelag	-9.93597
▁etterhvert	-9.93597
▁school	-9.93598
▁spesiell	-9.93598
▁magnus	-9.93603
▁voksne	-9.93606
hastighet	-9.93607
▁1956	-9.9362
▁smith	-9.93647
▁ref	-9.93679
basert	-9.9378
▁innført	-9.93855
▁met	-9.9386
▁nivå	-9.93884
▁struktur	-9.93893
hild	-9.9391
▁folket	-9.93949
▁sikre	-9.94013
▁bakke	-9.94014
▁gui	-9.94039
▁hovedrollene	-9.94259
▁moren	-9.94299
off	-9.94303
▁kap	-9.94327
én	-9.94347
▁sli	-9.94398
▁avgjør	-9.94471
▁sterk	-9.94489
▁lyst	-9.94492
▁é	-9.94564
▁økonomi	-9.94638
▁kreft	-9.94659
ç	-9.94696
▁alexander	-9.94696
runde	-9.94696
▁ytterligere	-9.94696
▁åpning	-9.94702
kandidat	-9.94703
▁forteller	-9.94706
▁kjønn	-9.94717
▁tørr	-9.9473
▁1940	-9.94732
▁avisen	-9.94748
dorf	-9.9476
▁hær	-9.94783
akter	-9.94799
▁vers	-9.94858
▁wu	-9.9494
hode	-9.94986
awa	-9.95045
dersom	-9.95114
▁begynner	-9.95121
lich	-9.9516
bit	-9.95177
▁grunnlag	-9.9518
gress	-9.95317
▁55	-9.95323
qi	-9.95444
▁kok	-9.95542
▁karakter	-9.95545
▁gis	-9.95557
▁beina	-9.95624
▁legge	-9.95638
rekke	-9.95662
▁klubb	-9.95662
▁00	-9.95752
▁forlag	-9.95768
▁univers	-9.95807
▁deriblant	-9.95807
▁insekt	-9.95815
▁dverg	-9.95823
▁omfattende	-9.9583
▁group	-9.95847
begrep	-9.95874
▁whi	-9.9589
shan	-9.95897
▁gjenopp	-9.95957
▁sesong	-9.95973
prosjekt	-9.9599
▁andersen	-9.96008
▁mw	-9.96101
▁menighet	-9.9613
▁selve	-9.96167
▁nasjonalpark	-9.96167
▁meta	-9.9617
▁introdusert	-9.96193
▁adam	-9.96244
13	-9.96245
pin	-9.96308
▁steve	-9.96371
▁master	-9.96515
dommen	-9.96526
▁vor	-9.96526
26	-9.96531
skipet	-9.96658
▁boy	-9.96719
▁tone	-9.96735
egnet	-9.96735
▁stift	-9.96764
▁valgte	-9.96774
▁ola	-9.96781
▁brev	-9.96794
▁prins	-9.96856
ström	-9.96931
▁dialekt	-9.96933
▁betjene	-9.96938
cheng	-9.96944
▁selge	-9.96951
▁vokser	-9.96973
styrke	-9.96974
▁omtalt	-9.96985
▁kjempe	-9.96999
▁slank	-9.96999
bedrift	-9.9704
▁sammenlign	-9.9708
mont	-9.97086
▁spise	-9.97092
enberg	-9.97101
▁sterke	-9.97126
try	-9.97161
miljø	-9.97167
oksid	-9.97219
▁dekker	-9.97275
▁underlagt	-9.97294
▁ost	-9.97377
▁prøve	-9.97495
▁omfattet	-9.97514
▁kjøre	-9.97524
▁bach	-9.97578
vikler	-9.97691
gått	-9.97774
▁mei	-9.97803
▁utga	-9.97819
▁larsen	-9.9788
▁united	-9.98071
▁tilknyttet	-9.98073
▁henholdsvis	-9.98085
▁1952	-9.98093
▁scott	-9.98111
ogen	-9.98114
bryter	-9.98161
▁patri	-9.98237
album	-9.98287
forsker	-9.98331
▁utføre	-9.98439
▁hotell	-9.98495
▁single	-9.9852
▁gitarist	-9.98539
▁menn	-9.98544
▁tusen	-9.98713
▁cel	-9.98744
kontrakt	-9.98783
▁medisin	-9.98845
▁villa	-9.98858
▁marker	-9.98872
▁masse	-9.98917
▁solo	-9.98921
▁havet	-9.98927
▁skjedd	-9.99
▁vakt	-9.99109
▁vannet	-9.99119
▁vet	-9.99206
ρ	-9.99216
▁1948	-9.99216
▁royal	-9.99222
vind	-9.99233
▁1964	-9.99234
▁varierer	-9.99273
▁michel	-9.99273
▁luther	-9.99301
▁gjer	-9.99309
27	-9.99409
avtale	-9.99412
31	-9.99461
▁rad	-9.99464
▁ray	-9.99497
▁atom	-9.9969
ytt	-9.99818
flekk	-9.99844
stjerne	-9.99973
▁artene	-9.99979
▁stad	-10.001
fjellene	-10.0013
hem	-10.0023
▁slav	-10.003
č	-10.0038
▁mongol	-10.0039
▁historiske	-10.004
▁fungere	-10.0041
▁arch	-10.0043
kamera	-10.0043
▁møter	-10.0045
▁stig	-10.0046
▁inngår	-10.0048
levende	-10.0051
▁fyrst	-10.0052
dannelse	-10.0054
▁motiv	-10.0055
forskjell	-10.0056
sand	-10.0058
plate	-10.0063
museum	-10.0068
mennene	-10.007
▁lån	-10.0082
▁trener	-10.0091
wald	-10.0093
▁wall	-10.0097
0	-10.0099
▁esp	-10.0099
vision	-10.0104
▁samarbeidet	-10.0104
▁hov	-10.0116
▁samlet	-10.0118
ique	-10.0127
▁finne	-10.0134
betegnelse	-10.0146
▁tanke	-10.0149
▁moskva	-10.0156
▁1962	-10.0158
▁familiegruppen	-10.0159
▁yrke	-10.0159
▁fett	-10.0159
▁revolusjon	-10.016
▁listen	-10.0163
▁alfred	-10.0165
bat	-10.0165
våk	-10.0168
▁hansen	-10.0171
▁fremste	-10.0172
▁sikkerhets	-10.0176
wood	-10.0187
hånd	-10.0188
▁magasin	-10.019
▁kroner	-10.0192
koll	-10.0193
celle	-10.0194
▁bygda	-10.0201
▁nordisk	-10.0201
▁tilfelle	-10.0203
▁salg	-10.0204
tikken	-10.0217
▁melodi	-10.0218
town	-10.0223
▁bane	-10.0223
▁våren	-10.0227
▁fordelt	-10.0233
▁fløy	-10.0236
▁private	-10.0248
▁mala	-10.025
▁brenn	-10.0257
▁est	-10.0269
▁aur	-10.027
▁grensen	-10.0271
▁besøk	-10.0272
▁tyr	-10.0272
▁etterfulgt	-10.0275
▁ishockey	-10.0275
▁1961	-10.0275
▁kaptein	-10.0275
▁himmel	-10.0275
▁fokus	-10.0275
▁out	-10.0285
▁rob	-10.0286
▁anvend	-10.0292
▁greske	-10.0292
hjem	-10.0297
hallen	-10.0298
▁wen	-10.0299
▁kg	-10.0299
▁stol	-10.0307
▁kamper	-10.0313
▁utvidet	-10.0318
▁irsk	-10.0319
møll	-10.0322
▁kil	-10.0323
▁simon	-10.0325
▁fan	-10.0327
▁planter	-10.0332
▁normalt	-10.0347
familie	-10.0353
▁kvalitet	-10.0364
▁fotograf	-10.0366
vá	-10.0368
bukta	-10.0373
▁64	-10.0374
▁kjøl	-10.0374
▁korn	-10.0384
▁iso	-10.0388
mba	-10.0389
ο	-10.0395
▁debuterte	-10.0395
▁frederik	-10.0396
▁ridder	-10.0397
▁islam	-10.0397
▁1965	-10.0398
▁svein	-10.0398
▁linjen	-10.04
▁oversatt	-10.04
▁romanen	-10.0403
ington	-10.0404
▁føde	-10.0409
▁reaksjon	-10.0412
▁inge	-10.0413
årig	-10.0421
gende	-10.0425
▁birk	-10.0427
▁presse	-10.0432
▁bispedømme	-10.0435
▁khan	-10.0435
museet	-10.0437
qua	-10.0443
▁eies	-10.0449
▁uttale	-10.0451
▁sønnen	-10.0452
▁normal	-10.0453
vendt	-10.0463
▁verb	-10.0467
▁formann	-10.0469
▁kast	-10.0471
32	-10.0472
▁fn	-10.0487
15	-10.0488
ania	-10.0489
▁с	-10.0496
▁senter	-10.0499
▁anton	-10.0508
▁pap	-10.051
mengde	-10.0516
▁jørgen	-10.0517
▁nikola	-10.0517
▁kjøtt	-10.0517
▁kjærlighet	-10.0518
▁naturgass	-10.0518
▁kontakt	-10.0518
▁slutten	-10.0519
▁stortings	-10.052
▁1959	-10.052
▁1966	-10.052
▁protest	-10.0522
▁lansert	-10.0522
▁philip	-10.0523
faktor	-10.0523
▁ankom	-10.0525
▁cup	-10.0528
▁drikke	-10.0529
▁bevart	-10.0534
bevegelsen	-10.054
▁kraftige	-10.0544
oz	-10.0544
▁bodde	-10.0544
onym	-10.0547
▁web	-10.0548
stemt	-10.0556
hed	-10.0556
forbindelse	-10.0558
herre	-10.0558
utvikling	-10.0558
▁furu	-10.0561
ор	-10.057
▁internasjonal	-10.0572
▁ekstra	-10.0572
▁krever	-10.0577
▁anta	-10.0581
verdi	-10.0582
legger	-10.0583
▁tau	-10.0585
▁mary	-10.0586
▁svi	-10.0604
▁polar	-10.0607
▁styrker	-10.0608
▁intel	-10.0612
ward	-10.0612
▁kontra	-10.0613
29	-10.0617
▁støttet	-10.0624
finn	-10.063
▁posisjon	-10.063
una	-10.0632
ł	-10.0637
▁grov	-10.0639
▁beijing	-10.0641
▁jakob	-10.0641
▁forårsake	-10.0641
▁sukker	-10.0642
▁1953	-10.0642
▁south	-10.0642
kommando	-10.0642
▁1958	-10.0643
▁kapp	-10.0643
▁ub	-10.0649
dekke	-10.0653
▁forvingen	-10.0655
▁streng	-10.0656
▁play	-10.0656
▁bibel	-10.066
plattform	-10.0664
gå	-10.0671
▁beat	-10.0675
▁intern	-10.0676
▁lyn	-10.0678
distrikt	-10.068
sats	-10.0683
▁palm	-10.0687
▁cd	-10.0691
▁kjell	-10.07
holdsvis	-10.0702
▁fc	-10.0706
▁bestemme	-10.072
▁hunde	-10.0727
▁storm	-10.0727
pul	-10.073
▁øker	-10.073
mbo	-10.0731
▁latinsk	-10.0732
stasjonen	-10.0733
▁tradisjonelle	-10.0737
▁human	-10.0739
sso	-10.074
konge	-10.0754
sket	-10.0755
▁tell	-10.0755
gon	-10.0756
▁finalen	-10.0758
duk	-10.0763
▁kim	-10.0764
republik	-10.0764
▁innflytelse	-10.0766
▁kunnskap	-10.0766
▁fysisk	-10.0766
▁edward	-10.0767
kompleks	-10.0767
▁1969	-10.0768
▁maleri	-10.077
▁internett	-10.077
galleri	-10.0784
▁lavere	-10.0788
▁bidrag	-10.08
hui	-10.0801
▁kjær	-10.0804
vannet	-10.0809
renn	-10.0813
fylt	-10.0825
▁gil	-10.0844
▁dobbelt	-10.085
leir	-10.0851
▁innsjø	-10.0853
levde	-10.0867
næs	-10.088
▁leve	-10.088
øtte	-10.088
▁ukjent	-10.0892
▁sekund	-10.0892
▁bryst	-10.0893
spinner	-10.0894
▁1946	-10.0895
▁1957	-10.0895
▁håkon	-10.0895
▁bakgrunn	-10.0898
▁east	-10.0904
▁overflate	-10.0905
▁kari	-10.0907
sfjorden	-10.0909
formasjon	-10.0909
handel	-10.092
hua	-10.0923
næring	-10.0937
▁oc	-10.0944
▁endelig	-10.0944
▁overfor	-10.0949
▁chan	-10.095
▁fritt	-10.095
teori	-10.0951
fekt	-10.0952
▁ari	-10.0954
▁undervisning	-10.0962
ctor	-10.0966
▁dommer	-10.0969
▁nedre	-10.0975
flue	-10.0976
tjent	-10.0976
▁back	-10.0977
▁oh	-10.098
▁papir	-10.0985
▁pala	-10.0987
▁tropp	-10.0992
▁forsvaret	-10.0997
iteten	-10.1009
▁eventyr	-10.102
▁1951	-10.102
▁kulturminner	-10.102
▁digital	-10.102
▁generelt	-10.102
▁sykehus	-10.1023
▁1930	-10.1024
▁forenkle	-10.1025
▁bekrefte	-10.1025
▁dominere	-10.1026
▁forretnings	-10.1027
▁grunnlegger	-10.1029
▁dvs	-10.103
▁nev	-10.1035
▁terr	-10.1041
▁betydninger	-10.1048
▁produksjons	-10.1049
▁tam	-10.1061
ordning	-10.1062
tag	-10.1064
pri	-10.1071
▁hval	-10.1072
regionen	-10.1074
forsvar	-10.1077
bygningen	-10.1077
▁materiale	-10.1079
▁tårn	-10.1081
▁sideelv	-10.1089
eppe	-10.1099
tunnel	-10.1105
delt	-10.1106
▁rand	-10.1109
stiftelsen	-10.1112
istan	-10.1115
sdatter	-10.1128
åsen	-10.1142
kjeden	-10.115
▁dekkvingene	-10.115
▁arthur	-10.115
pedagog	-10.115
▁vokste	-10.1151
▁jødisk	-10.1151
fortelling	-10.1157
▁element	-10.1158
▁bell	-10.1161
▁behandle	-10.1162
▁jarl	-10.1163
▁press	-10.1165
▁magnet	-10.1182
▁oppdrag	-10.1182
▁street	-10.1183
▁team	-10.1185
▁kropps	-10.1195
▁sko	-10.1198
olje	-10.121
bach	-10.121
▁medlemmene	-10.1213
▁matt	-10.1216
▁fjær	-10.1221
behandling	-10.1222
▁bydel	-10.1222
▁resten	-10.1222
▁bunn	-10.1228
later	-10.1241
▁østlig	-10.1246
▁sikte	-10.1247
dikt	-10.1249
▁ali	-10.1251
▁filosof	-10.1255
trådte	-10.1258
▁geo	-10.126
▁enkle	-10.126
▁myk	-10.126
▁foto	-10.1262
alitet	-10.1262
▁nettverk	-10.1263
▁femte	-10.1265
typen	-10.1273
zj	-10.1273
marked	-10.1277
▁harry	-10.1277
▁århundre	-10.1282
▁konstant	-10.1282
▁1939	-10.1285
▁stadion	-10.1287
▁snart	-10.1287
kjøretøy	-10.1295
yuan	-10.1295
▁effektiv	-10.1301
zon	-10.1303
stell	-10.1307
▁teknikk	-10.1312
▁ansatte	-10.1316
▁rose	-10.132
▁ey	-10.1323
▁jack	-10.1328
vika	-10.133
▁tråd	-10.1332
kompani	-10.1333
▁hæren	-10.1339
vard	-10.134
▁sankt	-10.1344
vand	-10.1346
▁front	-10.1346
kasse	-10.1347
▁qua	-10.1348
▁strekk	-10.1351
bøker	-10.1355
▁viking	-10.136
hand	-10.1367
▁verket	-10.1379
▁studier	-10.1383
▁wood	-10.1389
▁utvikler	-10.1399
▁verd	-10.1399
▁malm	-10.1406
▁ah	-10.1412
▁1955	-10.1415
▁forekommer	-10.1415
▁fengsel	-10.1415
▁kombinert	-10.1415
▁1944	-10.1418
▁sjelden	-10.1418
▁videregående	-10.1419
horn	-10.142
▁straffe	-10.1421
▁nobel	-10.1434
▁ross	-10.1435
taker	-10.1436
cio	-10.1443
sentre	-10.1446
lærer	-10.1446
▁150	-10.1453
syke	-10.1455
▁tun	-10.1456
▁organisert	-10.1457
▁fry	-10.1458
▁coll	-10.1473
▁nordland	-10.1483
24	-10.1485
▁boka	-10.1487
modell	-10.1491
▁tann	-10.1493
anlegget	-10.1494
▁corn	-10.1495
34	-10.1498
▁tradisjonel	-10.1514
▁kilo	-10.1515
▁institutt	-10.1522
versjon	-10.1524
vart	-10.1526
▁livet	-10.1527
▁shu	-10.1531
▁bidra	-10.1538
▁timer	-10.1539
▁betrakte	-10.155
▁karbon	-10.1551
▁für	-10.1551
▁konkurransen	-10.1557
▁endre	-10.1557
▁veldig	-10.1558
▁nedlagt	-10.1561
▁trommer	-10.1562
▁aksje	-10.1564
lex	-10.1588
▁agder	-10.1589
kommisjon	-10.1592
▁hjul	-10.1593
▁1800	-10.16
▁kåre	-10.1606
▁cli	-10.1615
født	-10.1621
▁nådd	-10.1633
▁strid	-10.1633
▁inntekt	-10.1634
▁vanligst	-10.1642
▁sovjetisk	-10.1643
▁ansvarlig	-10.1644
▁jim	-10.1652
▁eik	-10.166
▁typen	-10.1666
▁kald	-10.1666
fyr	-10.1669
▁vitenskapelig	-10.1672
▁portugisisk	-10.1687
▁selvstendig	-10.1687
▁debutalbum	-10.1687
▁millimeter	-10.1687
▁erkebiskop	-10.1687
▁skjær	-10.1687
▁stortinget	-10.1688
▁tegneserie	-10.1688
▁ekteskap	-10.1689
▁mannskapet	-10.169
▁artister	-10.1699
▁stabil	-10.1703
▁billed	-10.1709
▁rask	-10.1715
▁lim	-10.1727
vari	-10.1727
▁anlegg	-10.1745
▁beregne	-10.1756
▁peder	-10.1756
kjede	-10.1756
▁wolf	-10.1762
kha	-10.1764
▁batt	-10.1772
▁tross	-10.1772
politikk	-10.1774
forestilling	-10.1777
ст	-10.1781
▁jam	-10.1784
▁bydelen	-10.18
▁smi	-10.1817
arrangement	-10.1826
▁elisabeth	-10.1826
▁minutter	-10.1826
▁således	-10.1826
▁drammen	-10.1826
▁episode	-10.1826
▁østerrike	-10.1826
▁gunnar	-10.1826
▁begynnelsen	-10.1827
▁1949	-10.1829
▁1912	-10.1829
▁prosjektet	-10.1829
▁skarp	-10.183
▁mytologi	-10.1834
▁passerer	-10.1834
▁maur	-10.1838
▁torg	-10.1841
▁offiser	-10.1844
flat	-10.185
▁fotballklubb	-10.1857
▁overgang	-10.1872
ulykke	-10.1879
post	-10.1892
▁ungdom	-10.1895
▁hammer	-10.1905
tårn	-10.1912
▁irland	-10.1912
▁hevdet	-10.1923
▁produkter	-10.1923
▁kvinnelig	-10.1928
▁legger	-10.1929
måte	-10.1932
▁politiet	-10.1939
▁utover	-10.1941
▁våg	-10.1945
▁spillet	-10.1957
▁rekord	-10.1959
▁utløp	-10.1962
▁beskrive	-10.1965
friidrettsutøver	-10.1967
▁nærmere	-10.1968
▁1928	-10.1969
bridge	-10.1969
▁1918	-10.1969
▁1942	-10.197
▁1919	-10.197
▁fullført	-10.197
▁ansatt	-10.1972
▁svømme	-10.1974
▁programmer	-10.1975
▁eksport	-10.1976
▁kapell	-10.1978
snegl	-10.198
▁mangler	-10.1981
▁arkitektur	-10.1985
▁eva	-10.1988
▁leon	-10.1989
orum	-10.1993
▁einar	-10.1993
▁mynt	-10.1994
▁green	-10.1999
▁tolv	-10.2002
effekt	-10.2007
nemlig	-10.2018
▁rio	-10.2019
▁modellen	-10.2021
▁mul	-10.2032
kilde	-10.2035
ão	-10.2041
▁yi	-10.2045
strup	-10.2055
komedie	-10.2063
▁34	-10.2066
▁rune	-10.2071
▁tilstand	-10.2072
▁beskriver	-10.2075
tekst	-10.208
▁regional	-10.208
▁slå	-10.2083
▁utvide	-10.2084
▁vist	-10.2089
▁frihet	-10.2099
▁falt	-10.2101
▁nielsen	-10.211
▁county	-10.211
▁major	-10.211
▁innspilling	-10.211
▁liberal	-10.211
▁laks	-10.2111
▁josé	-10.2111
▁lengst	-10.2112
▁1936	-10.2113
▁nattfly	-10.2113
▁1920	-10.2114
▁rektor	-10.2115
strøk	-10.2115
▁sverd	-10.2116
▁nærheten	-10.2118
▁ferge	-10.212
ressurs	-10.2124
trykt	-10.2127
▁sveits	-10.2129
setting	-10.2132
▁piano	-10.2134
▁stri	-10.2141
▁nederland	-10.2142
▁former	-10.2145
▁internasjonalt	-10.2157
▁metro	-10.2169
▁markert	-10.2173
▁historisk	-10.2173
ев	-10.2175
▁rod	-10.2176
går	-10.2177
▁hv	-10.2186
▁overleve	-10.2192
forskning	-10.2195
▁cur	-10.2199
▁funn	-10.22
wick	-10.2216
▁museet	-10.2218
▁drag	-10.2228
agon	-10.2239
▁final	-10.2241
▁arab	-10.2246
▁individ	-10.2255
▁administrere	-10.2255
▁american	-10.2255
▁tyrkisk	-10.2255
▁forkortet	-10.2256
turnering	-10.2257
▁1941	-10.2257
▁fotballspiller	-10.2259
▁skiftet	-10.226
▁portrett	-10.2266
▁bosetning	-10.2276
▁kha	-10.2277
▁pont	-10.2281
teater	-10.2287
▁planet	-10.2288
cci	-10.2288
▁160	-10.2291
▁morgen	-10.2296
▁fru	-10.2297
▁hundre	-10.23
nny	-10.2303
▁tykk	-10.2306
▁vill	-10.2311
▁hem	-10.2322
▁osv	-10.2326
halvøya	-10.2328
utstyr	-10.2339
front	-10.2347
▁idrettslag	-10.2351
▁gli	-10.2355
følgende	-10.2356
▁bag	-10.2365
▁ulv	-10.2368
merker	-10.2375
▁spring	-10.238
rapport	-10.2384
▁motta	-10.2388
▁kristin	-10.2401
āng	-10.2402
▁geometr	-10.2402
▁komponert	-10.2402
▁etterfølger	-10.2402
▁visse	-10.2404
▁håndball	-10.2405
▁egypt	-10.2405
høgskole	-10.2406
▁handle	-10.2407
▁bygninger	-10.2407
komiteen	-10.241
rommet	-10.2415
▁årsak	-10.2419
▁munk	-10.2424
▁systemet	-10.2428
▁fol	-10.2429
▁div	-10.2444
▁johansen	-10.2445
▁jesu	-10.245
▁emil	-10.2466
kil	-10.2467
▁virkelig	-10.2469
stone	-10.2472
▁fantes	-10.2476
▁wel	-10.249
▁offisiel	-10.2491
direktør	-10.2495
▁statlig	-10.2498
▁mono	-10.2499
▁prinsipp	-10.2503
▁well	-10.251
dommer	-10.2512
fred	-10.2518
lop	-10.2521
▁vingene	-10.2525
studie	-10.2525
opera	-10.2531
samband	-10.2534
▁kommun	-10.2535
▁politikk	-10.2549
▁ukrainsk	-10.2551
▁eventuel	-10.2551
▁nicola	-10.2551
ovitsj	-10.2553
▁forbinde	-10.2553
▁1954	-10.2554
▁inc	-10.2554
▁dong	-10.2555
▁ligner	-10.2555
situasjon	-10.2557
▁grunnlegge	-10.2557
▁henhold	-10.2566
▁nød	-10.2566
▁ull	-10.2569
sikkerhet	-10.2577
▁lønn	-10.2592
▁az	-10.2597
▁from	-10.2603
▁kaller	-10.2606
▁skinn	-10.2608
slutt	-10.2613
▁fortsetter	-10.2619
styrt	-10.2635
▁vestre	-10.2635
▁bull	-10.2635
arten	-10.2637
domstol	-10.2637
▁preget	-10.2638
▁thu	-10.2643
▁hydro	-10.2647
▁føl	-10.2648
historisk	-10.2648
▁spørsmål	-10.2664
folket	-10.267
▁sveitsisk	-10.2682
▁lord	-10.2689
øvelse	-10.2689
løytnant	-10.2703
▁1905	-10.2703
▁positiv	-10.2703
▁vulkan	-10.2703
▁company	-10.2703
▁bjørk	-10.2703
▁redusert	-10.2703
▁cover	-10.2704
▁finnmark	-10.2705
▁oscar	-10.2706
▁sverre	-10.2706
▁tilsvarer	-10.2706
▁fli	-10.2717
støtte	-10.2721
▁kongelige	-10.2724
▁tour	-10.2727
▁endte	-10.2728
▁victoria	-10.2739
▁audi	-10.2743
▁klassen	-10.2746
▁junior	-10.2747
lignende	-10.2749
▁blokk	-10.275
bad	-10.2753
vatn	-10.2772
botn	-10.2776
▁opprette	-10.2786
▁trond	-10.2793
masse	-10.2798
▁rulle	-10.2803
▁roger	-10.2812
rick	-10.2814
▁gö	-10.2818
▁flor	-10.2825
▁musikalsk	-10.2828
seth	-10.2833
drev	-10.2853
▁windows	-10.2856
▁brødrene	-10.2856
▁registrert	-10.2856
▁brigade	-10.2857
▁klipp	-10.2858
▁adresse	-10.2859
▁1917	-10.2859
▁skall	-10.2861
strømmen	-10.2864
▁län	-10.2869
▁п	-10.2873
▁bland	-10.2881
▁sex	-10.2881
▁multi	-10.2881
▁orgel	-10.2882
▁klarte	-10.2888
kjøring	-10.2888
bord	-10.2896
støl	-10.2899
kontroll	-10.2899
▁kommunal	-10.2901
▁preg	-10.291
alisme	-10.2912
stått	-10.296
funksjon	-10.2964
▁stab	-10.2977
ла	-10.2984
àn	-10.2988
▁hul	-10.2989
korset	-10.3001
▁krysser	-10.3004
hydr	-10.3006
▁studio	-10.3013
▁california	-10.3013
▁utgangspunkt	-10.3013
▁skulptur	-10.3013
▁regissør	-10.3013
▁science	-10.3013
▁alvorlig	-10.3013
▁mekanisk	-10.3013
▁blues	-10.3013
▁edvard	-10.3015
▁kveld	-10.3015
▁definere	-10.3015
▁1947	-10.3015
▁komposisjon	-10.3016
▁formula	-10.3018
▁jackson	-10.302
▁pierre	-10.3021
▁synlig	-10.3023
iserer	-10.3031
mesterskapet	-10.3044
▁reserve	-10.3059
▁hesten	-10.306
▁raf	-10.3068
atus	-10.3076
▁rosa	-10.3077
▁chang	-10.3084
klassen	-10.3093
▁mitt	-10.3094
▁river	-10.3107
rock	-10.311
kall	-10.3116
problem	-10.3121
▁ulik	-10.3122
president	-10.3124
magasin	-10.3125
▁800	-10.3129
▁pale	-10.3135
▁klosteret	-10.3138
leie	-10.3138
sammen	-10.3141
▁konflikt	-10.3171
▁involver	-10.3171
▁installert	-10.3171
▁konsept	-10.3171
▁cirka	-10.3172
▁studioalbum	-10.3172
kritiker	-10.3173
▁arendal	-10.3173
▁1926	-10.3173
▁terreng	-10.3174
▁mengder	-10.3175
▁1937	-10.3175
▁mineral	-10.3179
vakt	-10.3186
▁spenning	-10.3187
▁skape	-10.3191
assi	-10.3193
▁medisinsk	-10.3196
▁teologi	-10.3198
▁skaper	-10.32
▁likhet	-10.3215
▁bratt	-10.3222
politisk	-10.3223
▁nekte	-10.3232
▁pil	-10.3233
▁dio	-10.3234
▁stå	-10.3234
▁pels	-10.3237
▁frekvens	-10.3241
▁lykke	-10.3245
klasse	-10.3249
▁slette	-10.3257
▁krim	-10.3263
▁redd	-10.3263
somme	-10.3267
▁fremst	-10.3267
▁stam	-10.3285
▁blind	-10.3289
struktur	-10.3289
bøl	-10.3292
cup	-10.3299
▁hop	-10.3308
▁lyng	-10.3308
brand	-10.3309
▁vall	-10.3317
▁dukke	-10.3322
▁nødvendig	-10.3333
▁skottland	-10.3333
▁hebraisk	-10.3333
▁ungarsk	-10.3333
▁kobber	-10.3333
ль	-10.3333
▁nedenfor	-10.3334
▁golf	-10.3334
▁1924	-10.3334
▁foregår	-10.3335
▁firmaet	-10.3336
▁brown	-10.3338
jong	-10.3338
▁utøver	-10.3365
time	-10.3388
faglig	-10.3389
▁mjø	-10.3392
▁sik	-10.3403
▁athen	-10.3406
▁marin	-10.3408
minne	-10.3413
veps	-10.3413
brett	-10.3423
lista	-10.343
▁skyte	-10.3442
▁dyrke	-10.3442
▁klokken	-10.3444
▁sara	-10.3445
hjul	-10.3457
▁1000	-10.3459
gevær	-10.3462
▁snu	-10.3475
drakt	-10.3479
▁alpin	-10.3488
▁initiativ	-10.3497
▁styrmann	-10.3497
▁symfoni	-10.3497
▁vladimir	-10.3497
ifikasjon	-10.3497
▁oppstår	-10.3497
veksling	-10.3497
▁væske	-10.3497
▁muslim	-10.3497
▁frivillig	-10.3497
▁skildre	-10.3497
listen	-10.3497
▁elektronisk	-10.3498
▁1921	-10.3499
▁oberst	-10.3499
▁kommunikasjons	-10.3507
▁terror	-10.351
▁hersker	-10.3514
▁rapporter	-10.3518
eksamen	-10.3521
▁170	-10.3528
▁brygge	-10.3535
▁class	-10.3535
▁grund	-10.354
▁game	-10.3541
start	-10.3542
▁objekt	-10.3554
▁gon	-10.3563
edderkopper	-10.3563
▁departement	-10.3564
tysk	-10.3569
▁morten	-10.357
▁rav	-10.359
avgift	-10.3604
▁salme	-10.3608
styrken	-10.3622
teknikk	-10.3625
serie	-10.3627
▁katedral	-10.3645
administrasjon	-10.3657
preg	-10.3658
ς	-10.3663
▁heinrich	-10.3663
▁vedlikehold	-10.3663
▁1902	-10.3663
▁deutsche	-10.3663
▁ekstrem	-10.3664
▁fiolin	-10.3664
▁utmerkelse	-10.3664
▁begrenset	-10.3664
▁andré	-10.3664
▁rolf	-10.3664
▁kryp	-10.3666
schaft	-10.3666
▁1938	-10.3666
▁hovedkvarter	-10.3667
▁skotsk	-10.3667
▁romsdal	-10.3668
▁antonio	-10.3671
fatning	-10.3671
▁handel	-10.3672
▁skilt	-10.3676
kostnad	-10.3683
bebyggelse	-10.3686
▁600	-10.3689
▁popul	-10.3695
▁molde	-10.3708
▁besøkt	-10.3714
▁server	-10.3722
ка	-10.3723
▁sender	-10.3734
▁status	-10.3735
forsyning	-10.3745
▁geir	-10.3757
▁pensjon	-10.3757
hunder	-10.3773
markedet	-10.3777
▁forsøkte	-10.3779
hjelp	-10.3796
teknologi	-10.3799
▁takk	-10.381
kjør	-10.3811
▁jin	-10.3813
▁kval	-10.3814
reise	-10.3826
▁originaltittel	-10.3833
▁trommeslager	-10.3833
▁pakistan	-10.3833
tempelet	-10.3833
▁sigurd	-10.3833
▁monument	-10.3833
▁belgisk	-10.3834
gjøring	-10.3834
▁innebære	-10.3834
▁1906	-10.3835
▁1935	-10.3835
▁troms	-10.3836
opplæring	-10.3836
▁unntak	-10.3836
▁kno	-10.3837
▁disney	-10.3837
▁flekker	-10.3838
▁cru	-10.3841
▁hjerne	-10.3843
▁oversettelse	-10.3844
kampanje	-10.3846
▁avhengig	-10.3846
▁ledende	-10.385
▁gradvis	-10.3853
scene	-10.3863
▁clo	-10.3874
▁smak	-10.3882
▁blanding	-10.3889
▁inneha	-10.3891
▁underfamilien	-10.3899
▁01	-10.3905
▁vegg	-10.3911
tavle	-10.3938
▁bære	-10.3944
▁120	-10.3945
instrument	-10.3973
amerikanske	-10.3973
hår	-10.3975
▁innlede	-10.3976
gran	-10.3978
skrevet	-10.3981
▁sca	-10.3981
gav	-10.3983
▁svar	-10.4004
▁eksperiment	-10.4005
▁shanghai	-10.4005
▁publikum	-10.4005
▁fiktiv	-10.4005
▁negativ	-10.4005
▁josef	-10.4006
konvensjon	-10.4006
▁hemmelig	-10.4009
▁telemark	-10.4009
▁representanter	-10.4012
▁biografi	-10.4016
ōng	-10.4017
blå	-10.4021
▁diplomat	-10.4028
▁bety	-10.4034
▁psykologi	-10.4034
▁deltaker	-10.4046
skøyte	-10.405
▁overført	-10.4051
▁forbunds	-10.406
▁sving	-10.4068
▁hovedrollen	-10.4075
språklige	-10.4086
brød	-10.4088
▁arc	-10.411
▁øke	-10.4113
▁carlo	-10.4117
salg	-10.413
hvi	-10.4143
ко	-10.4146
▁brei	-10.4154
▁xu	-10.416
odden	-10.4165
▁rag	-10.4171
design	-10.4174
vall	-10.418
▁advokat	-10.4181
▁association	-10.4181
▁1943	-10.4181
▁sistnevnte	-10.4181
▁antagelig	-10.4181
▁angripe	-10.4181
▁søndag	-10.4181
kompetanse	-10.4181
▁tabellen	-10.4181
▁automatisk	-10.4181
▁naturreservat	-10.4182
artilleri	-10.4183
▁1908	-10.4183
▁hydrogen	-10.4186
▁signert	-10.4187
▁høst	-10.4193
relatert	-10.4195
▁bau	-10.4195
▁innsats	-10.4199
▁palass	-10.4199
▁bang	-10.42
▁plast	-10.42
krig	-10.4212
▁sco	-10.4215
▁life	-10.4227
▁grim	-10.4251
▁christi	-10.4255
ful	-10.427
▁wan	-10.4272
fell	-10.4306
▁thom	-10.4315
lock	-10.4356
▁fødsel	-10.4359
▁byfylke	-10.4359
▁fullstendig	-10.4359
▁rogaland	-10.4359
▁definert	-10.436
▁generasjon	-10.4361
▁1914	-10.4362
▁konstruksjon	-10.4363
▁arena	-10.4364
▁sykkel	-10.4365
▁700	-10.4365
▁hovedkontor	-10.4369
▁fremført	-10.4371
▁skytter	-10.4372
▁social	-10.4372
▁allmenn	-10.4372
▁inndelt	-10.4379
▁plassering	-10.4401
▁white	-10.4407
▁nordover	-10.4414
løpere	-10.4417
▁nau	-10.4419
▁knap	-10.442
▁motsatt	-10.4422
bund	-10.4428
▁francis	-10.4431
▁kino	-10.4435
▁kristne	-10.4436
▁utdannelse	-10.4442
idrett	-10.4445
▁gjeng	-10.4449
▁nyere	-10.4488
▁chris	-10.4499
zzo	-10.4503
materiale	-10.4518
trener	-10.4524
gass	-10.4529
▁observer	-10.4541
▁tømmer	-10.4542
▁inngikk	-10.4542
terminal	-10.4542
komponent	-10.4542
komité	-10.4542
▁1923	-10.4544
▁programleder	-10.4544
▁løfte	-10.4544
▁litterær	-10.4546
kobling	-10.4546
▁døgn	-10.4547
vindu	-10.4547
▁1910	-10.4549
▁48	-10.4559
▁skjell	-10.4562
▁light	-10.4567
▁foster	-10.4568
▁good	-10.4568
▁grei	-10.4568
▁wang	-10.4587
▁acc	-10.4588
▁hørt	-10.459
huang	-10.4603
bytte	-10.4622
regime	-10.4622
phon	-10.4629
▁frei	-10.4635
søkte	-10.4662
stamme	-10.4687
▁corp	-10.4697
▁løk	-10.4698
п	-10.4707
økonomi	-10.4707
pati	-10.4709
gjennom	-10.4714
▁spin	-10.4716
▁bevege	-10.4718
▁semi	-10.472
struksjon	-10.4722
ь	-10.4725
▁akershus	-10.4726
▁australsk	-10.4726
▁godkjent	-10.4726
▁ukraina	-10.4726
▁østerriksk	-10.4726
▁kunde	-10.4726
▁redusere	-10.4727
▁oversikt	-10.4727
▁premier	-10.4727
▁utnytte	-10.4728
▁datamaskin	-10.4729
▁1907	-10.4729
▁programvare	-10.473
terapi	-10.4731
▁toll	-10.4731
▁demokrat	-10.4733
▁meyer	-10.4734
▁spania	-10.4734
▁skaffe	-10.4735
▁blank	-10.4739
▁ungdomsskole	-10.4751
▁behov	-10.4754
utgave	-10.4756
▁jeff	-10.4761
▁musikal	-10.4761
▁egil	-10.4774
▁walter	-10.4778
▁qing	-10.4785
▁statue	-10.4794
▁ledes	-10.4801
▁95	-10.4859
▁skuespill	-10.4862
areal	-10.4903
terrier	-10.4905
▁frankfurt	-10.4915
▁tilknytning	-10.4915
▁kongedømmet	-10.4915
▁konkurrere	-10.4915
▁konservativ	-10.4915
▁kombinasjon	-10.4915
▁hindre	-10.4916
▁central	-10.4916
▁kristiansand	-10.4916
▁1929	-10.4917
▁1932	-10.4917
▁tromsø	-10.4921
▁filip	-10.493
▁onkel	-10.4931
▁gjeld	-10.4937
▁omhandler	-10.4954
fallende	-10.4969
fabrik	-10.4973
fold	-10.5008
▁utvikle	-10.5016
▁ytterst	-10.502
▁present	-10.5025
▁radi	-10.5026
▁estisk	-10.5043
▁norman	-10.5057
▁utenriks	-10.5065
feng	-10.5066
▁demokratisk	-10.5074
ч	-10.5078
harmoni	-10.5093
kjøp	-10.5096
sentral	-10.5098
з	-10.5105
▁vietnam	-10.5107
▁bulgarsk	-10.5107
▁færøyene	-10.5107
▁guvernør	-10.5107
▁mexico	-10.5107
▁alfabet	-10.5107
▁skjønn	-10.5107
▁league	-10.5107
▁geografisk	-10.5107
konferanse	-10.5107
▁fattig	-10.5107
▁reklame	-10.5107
▁valuta	-10.5108
▁dominert	-10.5108
▁stefan	-10.5109
▁faktisk	-10.5109
▁novell	-10.511
▁vestfold	-10.5111
▁vannkraftverk	-10.5112
▁planlagt	-10.5112
▁støv	-10.5122
▁forsterke	-10.5124
utvalget	-10.5125
▁wol	-10.5126
▁ombord	-10.5128
styring	-10.5133
▁enorm	-10.5133
▁cross	-10.5133
▁utenom	-10.5143
▁karakteristisk	-10.5146
▁innerst	-10.5151
▁kvit	-10.5162
▁atferd	-10.5166
▁sovjet	-10.517
makten	-10.5211
veggen	-10.5247
▁gott	-10.5263
tank	-10.5275
kommunikasjon	-10.5292
evolusjon	-10.5297
økonom	-10.5299
▁alexandr	-10.5303
▁doktorgrad	-10.5303
▁arrangeres	-10.5303
▁erobret	-10.5303
▁krevde	-10.5303
▁ungarn	-10.5304
▁opplysning	-10.5304
▁praktisk	-10.5304
▁grevskapet	-10.5305
krystall	-10.5305
▁energiselskape	-10.5306
mønster	-10.5307
offiser	-10.5307
▁samuel	-10.5307
▁bakterie	-10.5307
▁2018	-10.5309
▁death	-10.531
▁tropisk	-10.5311
▁bidro	-10.5312
▁pedersen	-10.5323
▁hovedsak	-10.5325
frem	-10.5326
▁1880	-10.5335
hest	-10.5338
▁isteden	-10.534
▁fox	-10.5343
ophi	-10.5349
▁histori	-10.5351
▁1700	-10.5352
▁bassist	-10.5355
▁mauri	-10.5356
▁styrte	-10.5363
▁sosialistisk	-10.5378
▁reich	-10.5387
▁frelse	-10.5393
▁kriminal	-10.5396
automat	-10.5403
billett	-10.5407
nettverk	-10.5409
▁bosatt	-10.5426
kode	-10.5432
ittisk	-10.5443
▁solid	-10.5449
forvaltning	-10.5452
ск	-10.5467
bibliotek	-10.5499
frukt	-10.55
▁anerkjent	-10.5503
▁varaordfører	-10.5503
▁ovenfor	-10.5503
▁kommersiell	-10.5504
▁herunder	-10.5505
▁global	-10.5505
▁1927	-10.5506
▁etterkommer	-10.5507
▁friidrett	-10.5508
▁byttet	-10.5508
▁gregor	-10.5508
▁jesuitt	-10.5508
dimensjon	-10.5511
▁rednings	-10.5512
fysik	-10.5512
▁profil	-10.5513
▁henri	-10.5514
demokrati	-10.5516
stemme	-10.5521
▁fortellingen	-10.5522
▁demningen	-10.5523
▁gjennombrudd	-10.5523
fried	-10.5529
▁lukke	-10.5529
▁sørge	-10.553
▁barnehage	-10.5531
▁østover	-10.5536
▁aero	-10.5541
▁great	-10.5542
▁elite	-10.5547
▁lunge	-10.5553
▁motsetning	-10.5555
▁forvaltnings	-10.5556
stav	-10.5569
▁estland	-10.5572
▁erstatte	-10.5605
▁presentert	-10.5606
slått	-10.5683
▁glad	-10.5684
▁barcelona	-10.5707
▁beseiret	-10.5707
▁utbredt	-10.5707
▁nominert	-10.5707
▁utspring	-10.5707
▁parallell	-10.5707
▁referanse	-10.5707
▁nedbør	-10.5708
▁egenskaper	-10.5708
▁utgivelser	-10.5708
▁forbedre	-10.5708
▁ansikt	-10.5708
▁nymfe	-10.5708
▁bløt	-10.571
▁1915	-10.571
▁1931	-10.571
▁1925	-10.5711
▁1933	-10.5712
▁bispe	-10.5715
▁spredt	-10.5715
▁stråling	-10.5717
▁ltd	-10.572
▁muskel	-10.5724
▁franz	-10.5724
▁øks	-10.5725
▁donau	-10.5725
▁gjenstand	-10.5727
▁vennskap	-10.5733
▁viklere	-10.5734
norsk	-10.5749
lengde	-10.5752
▁persisk	-10.5755
▁oval	-10.5763
sykdommer	-10.5775
▁krok	-10.5784
▁pall	-10.579
▁klokke	-10.5796
▁score	-10.5798
grå	-10.58
fløy	-10.5809
▁fair	-10.5812
▁900	-10.5815
zhi	-10.5816
▁målere	-10.5823
▁forklare	-10.5832
▁beholde	-10.5837
ship	-10.5846
▁material	-10.5847
ер	-10.5856
høyden	-10.5873
▁sandvik	-10.5881
▁sikker	-10.5881
▁nevro	-10.5892
temple	-10.5899
▁rådhus	-10.59
▁hekke	-10.5915
observasjon	-10.5916
▁bryllup	-10.5916
▁oppmerksomhet	-10.5916
▁renessanse	-10.5916
▁tortricidae	-10.5916
▁tønsberg	-10.5916
▁aleksander	-10.5916
▁chicago	-10.5916
orientert	-10.5916
ος	-10.5916
kroppen	-10.5918
▁fungert	-10.5918
▁flytende	-10.5918
▁1922	-10.5918
▁beholdt	-10.5918
▁energy	-10.5919
▁tennis	-10.592
regjering	-10.5921
▁smelte	-10.5922
trukket	-10.5922
▁niels	-10.5927
bjørg	-10.5928
▁valley	-10.5931
▁bodø	-10.5932
▁røyk	-10.5934
bunn	-10.5935
vesenet	-10.5938
▁manuel	-10.5939
▁nederst	-10.5941
▁know	-10.5942
▁mario	-10.595
blomsterflue	-10.5951
▁utarbeide	-10.5952
▁young	-10.5952
▁panser	-10.5953
▁volum	-10.5954
▁jernbanestasjon	-10.5957
blokk	-10.5958
▁sørover	-10.5958
▁kopi	-10.5965
▁action	-10.597
bahn	-10.5975
▁arg	-10.5983
▁supp	-10.5989
▁giles	-10.599
prest	-10.5995
arafa	-10.6004
▁fortalt	-10.6007
▁hypo	-10.6039
та	-10.6047
radio	-10.6062
▁rau	-10.6067
varme	-10.6076
▁geit	-10.6084
▁egyptisk	-10.6123
▁aluminium	-10.6128
▁midlertidig	-10.6128
▁göteborg	-10.6128
▁ludvig	-10.6128
▁giovann	-10.6128
▁evangeli	-10.6129
▁kontinent	-10.6129
grunnsstasjon	-10.6129
▁skihopp	-10.6129
materiell	-10.613
▁hjort	-10.613
▁1913	-10.6131
worth	-10.6133
▁nevø	-10.6135
▁forlenge	-10.6136
kreft	-10.6136
▁imperi	-10.6137
apparat	-10.6137
transport	-10.6139
arkitekt	-10.614
▁nordsamisk	-10.6145
▁feire	-10.615
▁personlighet	-10.6161
▁slektning	-10.6161
▁anlagt	-10.6162
▁night	-10.6163
▁stillingen	-10.6168
▁1600	-10.6175
▁vekk	-10.6178
▁smerte	-10.6181
holdig	-10.6185
▁intens	-10.6191
▁trekant	-10.6201
board	-10.6201
syklus	-10.6204
▁voksen	-10.621
▁metode	-10.6238
▁skrå	-10.6257
▁låten	-10.6262
registre	-10.6263
▁kjel	-10.6283
bredden	-10.6301
▁victor	-10.6305
burn	-10.6329
ле	-10.6332
lokomotiv	-10.6346
▁bulgaria	-10.6346
▁1904	-10.6346
▁respekt	-10.6346
▁thailand	-10.6346
▁kapital	-10.6346
▁dollar	-10.6346
planlegging	-10.6346
▁utgivelsen	-10.6347
▁1934	-10.6348
▁arbeiderpartiet	-10.6349
▁telefon	-10.635
▁clark	-10.635
▁francisco	-10.635
▁rasmus	-10.635
▁monark	-10.6351
▁messe	-10.6352
▁øygrupp	-10.6352
▁økende	-10.6355
▁sjakk	-10.6357
▁ørken	-10.6358
konsern	-10.636
redaktør	-10.636
orkester	-10.636
åpning	-10.6364
▁kjørt	-10.6366
programmet	-10.6366
▁ibsen	-10.6367
▁antikken	-10.6369
▁german	-10.638
▁basil	-10.6384
innholdet	-10.6384
▁hytte	-10.6412
▁hull	-10.6414
▁mau	-10.6425
▁følelse	-10.645
▁kommunist	-10.6482
tjern	-10.6511
▁islandsk	-10.6517
▁kosm	-10.6522
▁corporation	-10.6568
▁münchen	-10.6568
▁svalbard	-10.6568
▁tsjekkisk	-10.6568
▁country	-10.6568
▁systematikken	-10.6568
▁buskerud	-10.6568
▁pseudonym	-10.6568
▁manchester	-10.6568
▁regulering	-10.6568
▁asteroide	-10.6568
▁embets	-10.6568
▁http	-10.6568
▁petersburg	-10.6568
▁hyppig	-10.6568
▁ødelagt	-10.6568
▁risiko	-10.6569
▁patriark	-10.657
▁oppdagelse	-10.657
▁gråbrun	-10.6571
▁øyvind	-10.6572
▁erfaring	-10.6573
▁bundes	-10.6574
▁kaffe	-10.6575
▁frykt	-10.6578
posisjon	-10.6581
▁knud	-10.6583
aktivitet	-10.6587
temperatur	-10.6587
divisjon	-10.6587
muligheter	-10.6588
▁klatre	-10.6589
▁lokalisert	-10.659
musiker	-10.6593
▁lisens	-10.6594
▁lettere	-10.6599
rekord	-10.6602
vandring	-10.6605
▁hvile	-10.6612
karriere	-10.6617
evitsj	-10.6623
▁kreve	-10.6629
▁bønn	-10.664
▁drepe	-10.6667
skade	-10.6679
bevegelse	-10.6691
▁forskjellig	-10.6744
▁unngå	-10.6764
▁forstå	-10.677
▁mach	-10.6779
avhengighet	-10.6781
skyting	-10.6787
settelse	-10.6794
▁argentina	-10.6795
▁sanskrit	-10.6795
▁symptom	-10.6795
▁tibetansk	-10.6795
▁1895	-10.6795
▁argument	-10.6795
▁vilhelm	-10.6795
▁vesentlig	-10.6795
▁sjeldne	-10.6795
kjøkken	-10.6796
▁hendelsen	-10.6796
▁rykket	-10.6796
▁sprint	-10.6796
stipend	-10.6797
▁monroe	-10.6797
▁1911	-10.6798
▁manager	-10.6799
▁styreleder	-10.6803
▁fuktig	-10.6804
▁forandre	-10.681
▁anledning	-10.6816
▁domini	-10.6826
stigning	-10.6828
fattet	-10.6829
▁alpinist	-10.6832
maleri	-10.6843
forandring	-10.6845
utenriksminister	-10.6847
hvelv	-10.6867
▁zhu	-10.687
▁israelsk	-10.6874
vitenskapelig	-10.6895
prem	-10.695
▁datterselskap	-10.6971
ли	-10.7001
▁aleksandr	-10.7028
kringkasting	-10.7028
▁definisjon	-10.7028
▁society	-10.7028
▁undergrunnsbane	-10.7028
▁jacque	-10.7028
▁1883	-10.7028
▁fenomen	-10.7028
▁stimul	-10.7028
▁amatør	-10.7028
▁church	-10.7028
▁søndre	-10.7028
leverandør	-10.7028
▁sjette	-10.7028
▁anthon	-10.7028
▁senior	-10.7029
▁bærum	-10.7029
▁utforming	-10.7029
▁seinere	-10.7029
▁prinsesse	-10.703
konsert	-10.703
▁import	-10.7031
▁våt	-10.7031
▁linux	-10.7031
▁nyhets	-10.7031
▁svekke	-10.7031
▁1916	-10.7032
▁næringsliv	-10.7032
▁avledet	-10.7033
▁generell	-10.7036
▁nevner	-10.7042
▁statsråd	-10.7042
▁moderat	-10.7046
vervet	-10.705
▁smør	-10.7051
▁divers	-10.7056
▁anslå	-10.7058
▁public	-10.7062
▁nerve	-10.7071
▁statistisk	-10.7078
▁flykte	-10.7081
▁fortsette	-10.7122
▁hevde	-10.7125
▁akku	-10.7126
overføring	-10.714
▁ferje	-10.7155
speil	-10.717
▁kommunistisk	-10.7205
ograph	-10.7214
bekken	-10.7236
▁regjer	-10.7241
▁flest	-10.7242
▁strategisk	-10.7266
▁prince	-10.7266
▁gabriel	-10.7266
▁1901	-10.7266
▁gordon	-10.7267
▁tilskuer	-10.7267
▁partner	-10.7267
straße	-10.7268
▁protein	-10.7268
▁radikal	-10.7268
▁what	-10.7268
▁isbn	-10.7269
▁østfold	-10.727
▁kongsberg	-10.7273
▁zhang	-10.7275
▁boeing	-10.7277
▁avansert	-10.7279
▁jente	-10.7282
▁riktig	-10.7285
▁øystein	-10.7285
▁studere	-10.7291
tradisjon	-10.7303
▁patron	-10.7316
▁queen	-10.7334
bringe	-10.7336
▁million	-10.7342
bæk	-10.7378
▁organisere	-10.7386
▁flåte	-10.7409
▁urban	-10.741
▁lasse	-10.7416
tveit	-10.7504
▁matematiker	-10.751
provinshovedstad	-10.751
▁afghanistan	-10.751
▁låtskriver	-10.751
▁oksygen	-10.751
▁ferskvann	-10.751
▁kennedy	-10.751
▁utelukke	-10.751
disiplin	-10.751
seremoni	-10.751
▁hjørne	-10.751
▁hensikt	-10.751
▁theodor	-10.751
reservat	-10.751
▁lewis	-10.7511
▁micro	-10.7511
▁fysikk	-10.7512
▁separat	-10.7512
▁foreslått	-10.7512
▁skygge	-10.7514
dolph	-10.7514
▁point	-10.7517
▁bedrifter	-10.7519
▁rifle	-10.7522
tagelse	-10.7523
▁høyesterett	-10.7524
▁tjener	-10.7525
▁susan	-10.7531
▁etappe	-10.7532
eiro	-10.7543
arkeolog	-10.7572
lokale	-10.7586
metoder	-10.7587
prøve	-10.7588
▁variert	-10.7608
▁kontrollert	-10.7758
▁ambassadør	-10.776
▁infanteri	-10.776
▁washington	-10.776
observator	-10.776
▁arrangerer	-10.776
▁pasienten	-10.776
▁portugal	-10.776
▁rudolf	-10.776
▁european	-10.776
▁bystatus	-10.776
▁operativsystem	-10.776
▁christoph	-10.776
▁tvilling	-10.776
▁beslektet	-10.776
▁opererer	-10.776
▁claude	-10.776
▁noctu	-10.7761
▁serbisk	-10.7761
▁opposisjon	-10.7762
▁konsernet	-10.7762
▁efter	-10.7762
▁elleve	-10.7762
▁tørke	-10.7763
▁afrikansk	-10.7763
▁1909	-10.7764
▁redaksjon	-10.7764
nevnte	-10.7765
▁leonard	-10.7765
▁anklage	-10.7765
▁stadium	-10.7767
▁bernard	-10.7768
▁frp	-10.7771
▁turneringen	-10.7774
▁mandat	-10.7776
▁variasjon	-10.7777
opplevelse	-10.7781
▁glans	-10.7793
▁talent	-10.7795
gutten	-10.7795
konsulent	-10.7843
nntatt	-10.7847
ault	-10.7851
ramme	-10.7893
enhver	-10.7907
ни	-10.7953
▁kontrollere	-10.7972
▁fulgt	-10.7995
psykiatri	-10.8016
▁football	-10.8016
▁forgjenger	-10.8016
▁luxembourg	-10.8016
▁benjamin	-10.8016
▁antarktis	-10.8016
▁testament	-10.8016
▁gustaf	-10.8016
köping	-10.8016
▁rettigheter	-10.8017
▁margaret	-10.8017
▁adolf	-10.8017
▁regulere	-10.8017
▁vegetasjon	-10.8017
▁haakon	-10.8017
teoretisk	-10.8017
▁oppfølger	-10.8017
▁bevisst	-10.8017
▁forkortelse	-10.8018
▁regelmessig	-10.8018
▁brutt	-10.802
▁tallrike	-10.802
kriteri	-10.8021
▁sultan	-10.8022
▁satse	-10.8022
▁oppgaver	-10.8023
▁francesc	-10.8023
gjald	-10.8028
▁koreansk	-10.8031
▁bygnings	-10.8036
▁avholdt	-10.8042
ière	-10.8049
betaling	-10.8063
institutt	-10.8071
medisin	-10.8072
▁beskrivelse	-10.809
leigh	-10.8113
verktøy	-10.8132
førsel	-10.8133
kjerne	-10.8169
zhong	-10.8181
astronom	-10.8186
rått	-10.822
skjerm	-10.8231
▁elizabeth	-10.8279
▁guangdong	-10.8279
▁research	-10.8279
▁fasettøyne	-10.8279
▁joachim	-10.8279
▁embeds	-10.8279
▁intervju	-10.8279
▁buddhist	-10.8279
▁1881	-10.8279
▁konstruert	-10.8279
▁assistent	-10.828
▁tyrkia	-10.828
▁hendelser	-10.828
▁aktuell	-10.828
▁belgia	-10.828
▁begravet	-10.828
▁zealand	-10.828
▁ordinær	-10.828
▁konkurs	-10.828
▁sjanger	-10.828
▁rumensk	-10.828
▁hjelm	-10.8281
▁utsikt	-10.8281
▁kalender	-10.8282
mekanisme	-10.8282
▁fylkeskommune	-10.8282
▁verneområder	-10.8282
skildring	-10.8283
▁komplett	-10.8284
▁hedmark	-10.8284
▁bedriften	-10.8308
syssel	-10.8313
størrelse	-10.8353
▁etnisk	-10.8439
kirche	-10.8494
▁opplevd	-10.8526
▁inspirasjon	-10.855
▁basketball	-10.855
▁electric	-10.855
▁singapore	-10.855
▁bachelor	-10.855
▁utslipp	-10.855
kommanderende	-10.855
▁abraham	-10.855
▁essay	-10.855
▁hordaland	-10.855
▁høvding	-10.855
▁reference	-10.855
▁øyeblikk	-10.855
▁gjennomsnittlig	-10.855
▁veksel	-10.855
▁selvmord	-10.855
▁allierte	-10.855
▁mission	-10.855
▁senterpartiet	-10.8551
▁kallenavn	-10.8551
infeksjon	-10.8551
▁tilpasset	-10.8552
▁space	-10.8552
▁telegraf	-10.8554
▁debatt	-10.8555
▁year	-10.8556
▁trenger	-10.8558
▁andorra	-10.8561
▁forvente	-10.8583
▁maritim	-10.8583
▁forvalte	-10.8583
spørsmål	-10.8619
▁passert	-10.8675
kvarter	-10.868
marsj	-10.8708
▁begynne	-10.8719
høyde	-10.8735
psykolog	-10.8819
▁dirigent	-10.8827
▁jomfru	-10.8827
▁løpebiller	-10.8827
▁microsoft	-10.8827
▁norwegian	-10.8827
▁nøkkel	-10.8827
▁særskilt	-10.8827
▁valgdeltakelse	-10.8827
vassdraget	-10.8827
▁admiral	-10.8827
▁skøyteløper	-10.8828
▁uansett	-10.8828
▁frilufts	-10.8828
▁juridisk	-10.8828
▁trebukk	-10.8828
▁eksisterer	-10.8828
▁ronald	-10.8828
▁walisisk	-10.8828
▁sophie	-10.8829
▁gjær	-10.883
▁trasé	-10.883
за	-10.8831
▁arkeologisk	-10.8831
▁express	-10.8832
▁betong	-10.8832
▁hawk	-10.8839
▁stedsnavn	-10.8843
▁down	-10.8844
▁rytme	-10.8847
▁tolke	-10.8847
byrd	-10.8863
▁hjemmebane	-10.8917
relasjon	-10.8929
angrep	-10.8943
sykler	-10.8981
▁hevn	-10.9026
svarte	-10.9068
▁elektrisitet	-10.9113
▁ferdinand	-10.9113
▁forøvrig	-10.9113
▁lillehammer	-10.9113
▁ludwig	-10.9113
▁meksikansk	-10.9113
▁narkotika	-10.9113
▁tusenårssted	-10.9113
▁angelsaksisk	-10.9113
▁atmosfære	-10.9113
▁investering	-10.9113
▁kommandant	-10.9113
▁orchestra	-10.9113
▁kapittel	-10.9113
▁oppdatert	-10.9113
▁erklært	-10.9113
leksikon	-10.9113
▁lørdag	-10.9113
▁uvanlig	-10.9113
▁heavy	-10.9114
▁stephen	-10.9114
▁trygg	-10.9114
teatret	-10.9114
▁canadisk	-10.9114
▁sachsen	-10.9114
▁vakre	-10.9114
▁skåne	-10.9114
▁christensen	-10.9114
▁utgiver	-10.9115
▁innskriften	-10.9115
▁varmekraftverk	-10.9115
▁florida	-10.9116
▁verdensrekord	-10.9116
▁optim	-10.9116
▁publisere	-10.9118
▁antyde	-10.9119
▁poesi	-10.9123
▁elsker	-10.9123
▁dreie	-10.9126
▁sergej	-10.9131
▁sjel	-10.9131
▁fraksjon	-10.9134
▁puppe	-10.9135
fellesskap	-10.9152
vennlig	-10.9154
recht	-10.918
prinsipp	-10.9199
historiker	-10.9199
dynastiet	-10.92
litteratur	-10.92
kvalitet	-10.92
åpne	-10.9207
kjøl	-10.9221
▁konsul	-10.932
▁oppfatte	-10.9365
bourg	-10.94
▁aftenposten	-10.9407
▁filippinene	-10.9407
▁generalmajor	-10.9407
▁helikopter	-10.9407
▁jurisdiksjon	-10.9407
▁legendarisk	-10.9407
▁nintendo	-10.9407
▁virginia	-10.9407
▁kommandør	-10.9407
▁kronprins	-10.9407
▁matematisk	-10.9407
▁erkebispedømme	-10.9407
▁innbyggerne	-10.9407
▁eksisterte	-10.9407
▁identitet	-10.9407
▁permanent	-10.9407
▁marilyn	-10.9407
▁haugesund	-10.9407
▁benedikt	-10.9408
sammenslåing	-10.9408
▁utseende	-10.9408
▁etablere	-10.9408
mouth	-10.9409
▁søvn	-10.941
▁utpekt	-10.941
▁nkp	-10.9414
▁techn	-10.9415
▁tilfeldig	-10.9421
▁øvelsen	-10.9422
vilkår	-10.9431
▁republikk	-10.9446
▁bakkropp	-10.9452
latelse	-10.9458
▁integrert	-10.947
papir	-10.9503
▁integr	-10.9527
signal	-10.954
▁undersøke	-10.9542
▁journal	-10.9601
alarm	-10.962
▁befal	-10.9661
▁publi	-10.9661
▁ødelegge	-10.9696
konsentrasjon	-10.9709
instruktør	-10.971
▁assosiert	-10.971
▁hviterussisk	-10.971
▁jerusalem	-10.971
▁matematikk	-10.971
▁psykisk	-10.971
▁representasjon	-10.971
▁tilsynelaten	-10.971
▁business	-10.971
▁carabidae	-10.971
▁keyboard	-10.971
▁vertikal	-10.971
▁publikasjon	-10.971
▁syndrom	-10.971
▁kommentar	-10.971
protokoll	-10.9711
▁henrettet	-10.9711
kvartett	-10.9711
▁söder	-10.9711
▁mikael	-10.9711
▁dekorert	-10.9711
▁fantasi	-10.9712
alliansen	-10.9712
▁tegl	-10.9712
▁foreslo	-10.9715
aspekt	-10.9715
▁ørret	-10.9717
▁blomstre	-10.9718
▁bbc	-10.9721
▁massiv	-10.9723
bourne	-10.9726
sparc	-10.9734
▁størst	-10.974
▁beskjed	-10.9745
nøtter	-10.977
vík	-10.9788
▁dobbel	-10.9812
produsert	-10.9816
sentrum	-10.9817
forsamlingen	-10.9845
▁slippe	-10.9845
▁plei	-10.9951
▁akseptert	-11.0023
▁ammunisjon	-11.0023
▁fakultet	-11.0023
▁françois	-11.0023
▁kognitiv	-11.0023
▁konkurrert	-11.0023
▁pronotum	-11.0023
▁saksofon	-11.0023
▁engasjert	-11.0023
▁keramikk	-11.0023
▁konsekvens	-11.0023
▁ensemble	-11.0023
▁nøyaktig	-11.0023
▁utbredelse	-11.0023
patrulje	-11.0023
▁fjeld	-11.0023
▁natrium	-11.0023
▁colombia	-11.0023
▁interiør	-11.0023
▁charlotte	-11.0023
dynamisk	-11.0023
▁individuell	-11.0023
▁statsborger	-11.0023
▁fremtidig	-11.0023
▁verdensarv	-11.0023
▁support	-11.0024
▁hovedpersonen	-11.0024
▁virtu	-11.0025
▁invasjon	-11.0025
▁barokk	-11.0026
▁cooper	-11.0026
▁døpt	-11.0027
forsikring	-11.0028
▁annonsert	-11.0028
▁forbli	-11.0032
▁ragnar	-11.0033
sendinger	-11.0034
▁sosialdemokrat	-11.0045
▁kreert	-11.0048
▁benevn	-11.0052
forståelse	-11.0081
▁søyle	-11.0081
metoden	-11.0099
monopol	-11.0119
finalen	-11.012
▁utøve	-11.0123
befolkningen	-11.0138
resultat	-11.0138
kloster	-11.014
embete	-11.0187
▁terrengsykli	-11.0345
døyelsesorgane	-11.0345
▁douglas	-11.0345
▁könig	-11.0345
▁network	-11.0345
▁pasienter	-11.0345
▁petroleum	-11.0345
▁slovakia	-11.0345
▁slovakisk	-11.0345
▁arrangør	-11.0345
▁leopold	-11.0345
▁progressiv	-11.0345
▁territorie	-11.0345
▁wergeland	-11.0345
▁åndedrett	-11.0345
▁sichuan	-11.0345
traktaten	-11.0345
▁barnebarn	-11.0346
erklæring	-11.0346
▁seksuell	-11.0346
▁redigert	-11.0346
▁utdype	-11.0346
▁fernand	-11.0346
▁mhz	-11.0346
▁systematisk	-11.0346
▁tilsluttet	-11.0347
▁axel	-11.0347
▁rakett	-11.0347
▁tilbød	-11.0347
▁føderal	-11.0347
▁venezia	-11.0348
▁tåke	-11.0348
▁pianist	-11.0348
▁forklaring	-11.0348
▁sosiolog	-11.0349
▁forberede	-11.0353
▁parodi	-11.0353
▁fasade	-11.0355
foretak	-11.0359
▁stryk	-11.0359
▁nederlag	-11.0369
▁guinea	-11.0384
▁bronsemedalje	-11.0387
flyvning	-11.0427
▁astronomi	-11.0461
menneske	-11.0479
tilførsel	-11.0529
loyd	-11.0591
▁psyko	-11.0633
register	-11.0675
plantningsorgan	-11.0679
ская	-11.0679
▁drivstoff	-11.0679
▁entertainment	-11.0679
▁etiopia	-11.0679
▁færøysk	-11.0679
▁illustrasjon	-11.0679
▁inskripsjon	-11.0679
▁milliarder	-11.0679
▁mobiltelefon	-11.0679
▁shakespeare	-11.0679
▁kvalifisert	-11.0679
▁pyramide	-11.0679
terapeut	-11.0679
▁hospital	-11.0679
▁jersey	-11.0679
▁tolkien	-11.0679
▁kristoffer	-11.0679
▁manglende	-11.0679
▁oransje	-11.0679
▁taylor	-11.0679
▁special	-11.0679
▁animasjon	-11.0679
▁kritisert	-11.0679
▁forsvant	-11.0679
▁eksistens	-11.068
▁skjebne	-11.068
▁bmw	-11.068
▁bønder	-11.068
järvi	-11.0681
▁beordre	-11.0681
▁kråk	-11.0683
▁enzym	-11.0684
▁kanadisk	-11.0686
▁østersjø	-11.0691
▁earl	-11.07
tilsynet	-11.0707
bjelke	-11.0718
partei	-11.0724
▁multipl	-11.0727
craft	-11.0757
shaw	-11.0796
inntekt	-11.0816
flåten	-11.0822
▁usikker	-11.0988
▁horisontal	-11.1024
▁illustrert	-11.1024
▁kasakhstan	-11.1024
▁kontinuerlig	-11.1024
▁köln	-11.1024
▁lawrence	-11.1024
▁magazine	-11.1024
▁musikkvideo	-11.1024
▁napoleon	-11.1024
▁prestegjeld	-11.1024
▁skvadron	-11.1024
▁tsjekkia	-11.1024
▁vålerenga	-11.1024
▁innendørs	-11.1024
▁modifisert	-11.1024
▁pattedyr	-11.1024
▁columbia	-11.1024
▁anmelder	-11.1024
▁meteorolog	-11.1024
▁airlines	-11.1024
▁secret	-11.1024
▁texas	-11.1024
▁svovel	-11.1024
▁langvarig	-11.1024
▁wright	-11.1024
▁alminnelig	-11.1024
▁firkant	-11.1024
▁konsesjon	-11.1025
▁martyr	-11.1025
▁veksle	-11.1025
▁missil	-11.1026
▁korrekt	-11.1026
▁abdul	-11.1026
▁dream	-11.1027
▁bjarn	-11.1032
▁cruise	-11.1032
▁isolert	-11.1032
▁jurist	-11.1034
▁indikere	-11.1037
▁mikkel	-11.1044
gyldig	-11.105
▁bremse	-11.1134
grotten	-11.1154
sommerfugl	-11.1173
▁ødela	-11.138
dampskibsselskab	-11.1381
landeveissyklist	-11.1381
ский	-11.1381
▁championship	-11.1381
▁identifisert	-11.1381
▁innspilt	-11.1381
▁påbegynt	-11.1381
▁stjørdal	-11.1381
▁sykepleier	-11.1381
▁anbefale	-11.1381
▁reservoar	-11.1381
▁selvbiografi	-11.1381
▁babylon	-11.1381
▁minnesota	-11.1381
▁eksisterende	-11.1381
▁1893	-11.1381
▁kvadrat	-11.1381
▁1861	-11.1381
▁stridsvogn	-11.1381
▁vitamin	-11.1381
▁people	-11.1381
▁avskaffe	-11.1381
anstalt	-11.1388
▁utforske	-11.14
▁tvunge	-11.1407
kreps	-11.1465
▁omfatte	-11.147
biskop	-11.1544
flagg	-11.1547
▁diplom	-11.1701
▁pseudo	-11.1751
▁absolutt	-11.1751
▁argentinsk	-11.1751
▁billedhugger	-11.1751
▁fremtredende	-11.1751
▁inklusiv	-11.1751
▁kunstakademi	-11.1751
ã	-11.3348
