<unk>	0
<s>	0
</s>	0
.	-3.2837
▁i	-3.52884
e	-3.63219
s	-3.68016
▁og	-3.87135
t	-4.10424
▁	-4.16338
er	-4.2229
en	-4.26046
▁av	-4.31817
▁en	-4.48282
▁som	-4.52262
▁er	-4.5759
▁til	-4.65211
r	-4.71846
▁for	-4.72232
▁på	-4.76866
n	-4.93745
▁med	-4.947
▁den	-4.95249
et	-4.98314
▁ble	-4.98842
▁det	-5.0513
▁var	-5.11709
▁de	-5.16886
▁han	-5.29835
▁å	-5.34115
▁fra	-5.36264
▁et	-5.49527
▁har	-5.53497
ene	-5.56721
a	-5.62052
▁at	-5.70188
i	-5.83548
ne	-5.9028
▁ved	-5.92664
▁etter	-6.04119
k	-6.05221
▁om	-6.06113
d	-6.06737
o	-6.08341
▁også	-6.08874
▁ut	-6.18309
▁men	-6.19036
▁under	-6.24664
l	-6.28177
▁seg	-6.30936
de	-6.3248
g	-6.3493
▁over	-6.35146
m	-6.35919
y	-6.36842
▁hadde	-6.38189
▁ikke	-6.39081
▁eller	-6.40761
te	-6.41043
▁to	-6.44115
▁opp	-6.45347
▁da	-6.45587
p	-6.48086
▁kan	-6.51837
re	-6.56526
▁inn	-6.58663
▁mot	-6.61496
▁andre	-6.62157
▁sin	-6.63472
h	-6.63956
b	-6.67708
▁s	-6.7069
▁be	-6.71497
▁første	-6.73056
▁dette	-6.73639
ing	-6.73869
▁f	-6.74099
f	-6.74954
v	-6.75314
▁hun	-6.75556
▁a	-6.80071
es	-6.80643
▁født	-6.80731
▁mellom	-6.81022
▁18	-6.82384
us	-6.84487
u	-6.85228
▁år	-6.87195
in	-6.87238
an	-6.87682
▁1	-6.88381
▁ha	-6.89137
al	-6.91226
▁hans	-6.91438
c	-6.91888
sk	-6.92469
▁tre	-6.9534
le	-6.95976
▁man	-6.98778
▁fikk	-6.99266
ende	-6.99824
▁der	-7.00542
▁kom	-7.02994
▁denne	-7.03787
▁m	-7.07925
▁flere	-7.08268
na	-7.10924
▁sammen	-7.11149
▁hvor	-7.11791
▁blant	-7.12025
▁nord	-7.12372
▁the	-7.12846
ter	-7.13202
▁så	-7.17449
▁2	-7.1778
▁før	-7.18301
is	-7.18694
z	-7.20816
ia	-7.21288
▁ligger	-7.21777
▁la	-7.2212
for	-7.22514
▁b	-7.23681
la	-7.23747
▁u	-7.24004
sen	-7.24041
▁ca	-7.25314
ar	-7.25871
el	-7.26175
▁død	-7.26481
▁mange	-7.26873
▁del	-7.28191
▁stor	-7.28286
der	-7.28336
land	-7.28664
▁an	-7.29193
▁re	-7.29588
▁3	-7.30603
▁mer	-7.31323
w	-7.31592
ch	-7.32658
ens	-7.34577
▁land	-7.34819
on	-7.35345
▁alle	-7.35533
ke	-7.35636
▁tallet	-7.36315
ma	-7.36872
or	-7.37005
▁k	-7.37072
▁senere	-7.38564
▁norsk	-7.39096
vis	-7.39129
▁blir	-7.39343
▁se	-7.39485
▁gjennom	-7.40542
ske	-7.40552
▁siden	-7.40655
▁annet	-7.40733
j	-7.41062
▁tidligere	-7.41066
▁byen	-7.4115
▁disse	-7.41309
ut	-7.41486
lig	-7.41535
li	-7.41638
ri	-7.428
▁c	-7.42812
um	-7.4283
▁17	-7.42932
ere	-7.43292
▁være	-7.43553
nde	-7.43785
▁norge	-7.4383
▁sør	-7.43954
▁16	-7.4405
ng	-7.4424
▁ga	-7.4499
▁selv	-7.45058
▁noen	-7.4562
▁5	-7.46284
iske	-7.46415
▁her	-7.47673
▁ny	-7.48526
▁bo	-7.48552
▁kr	-7.48846
x	-7.49452
▁sitt	-7.50501
▁st	-7.50629
ra	-7.5097
▁ol	-7.51566
as	-7.51768
▁vi	-7.51946
il	-7.51974
▁d	-7.52148
ry	-7.52516
▁p	-7.52586
▁4	-7.52971
øy	-7.53035
ur	-7.53088
ver	-7.53092
ul	-7.5311
ning	-7.53467
▁kommune	-7.53621
▁store	-7.53934
▁ra	-7.54074
▁vært	-7.54637
▁kjent	-7.54728
▁blitt	-7.54747
▁samme	-7.54957
ck	-7.56422
os	-7.56905
be	-7.57823
▁15	-7.58044
ga	-7.58342
▁ta	-7.59436
ta	-7.60332
▁al	-7.60915
ge	-7.61099
▁of	-7.61144
▁g	-7.61228
isk	-7.61721
▁rundt	-7.63066
▁vest	-7.63286
▁tid	-7.63339
é	-7.63388
▁sa	-7.63434
▁kunne	-7.64213
▁mens	-7.6528
ik	-7.65486
▁noe	-7.65993
ler	-7.66063
▁ro	-7.66357
▁10	-7.6659
▁dag	-7.67299
▁grunn	-7.67299
ff	-7.67362
▁by	-7.67517
▁sine	-7.67605
▁le	-7.68206
nes	-7.68445
▁l	-7.68508
▁frem	-7.68522
ig	-7.69103
ro	-7.69356
lige	-7.69388
▁nå	-7.69448
▁ned	-7.6985
▁vil	-7.70733
▁mest	-7.70932
kk	-7.7186
▁h	-7.72245
ha	-7.72649
▁o	-7.72979
bo	-7.73046
▁km	-7.73175
▁navnet	-7.73437
▁gikk	-7.73704
▁båd	-7.73752
th	-7.73828
to	-7.74309
ker	-7.74731
▁vant	-7.75002
ger	-7.75485
▁6	-7.75538
▁enn	-7.75822
▁skal	-7.76062
di	-7.76363
▁øst	-7.76401
▁amerikansk	-7.76734
ve	-7.76872
▁skulle	-7.77025
▁gang	-7.77795
▁hoved	-7.77845
den	-7.78387
▁bare	-7.78431
id	-7.7851
▁he	-7.78765
lo	-7.78993
sa	-7.79133
▁ba	-7.79434
▁navn	-7.79536
mann	-7.79552
son	-7.79708
ven	-7.79973
▁pi	-7.80037
▁du	-7.80188
at	-7.80551
da	-7.80899
ton	-7.81448
mo	-7.81658
gen	-7.81939
asjon	-7.82096
erne	-7.82108
▁lag	-7.82121
ist	-7.82283
het	-7.82306
▁ham	-7.8265
man	-7.82778
mi	-7.82873
▁nye	-7.8316
ste	-7.83176
iv	-7.83206
ell	-7.83741
by	-7.83845
si	-7.8402
kt	-7.84263
▁januar	-7.84822
▁7	-7.8485
ba	-7.85149
▁norske	-7.85565
▁innen	-7.85921
ner	-7.85971
ang	-7.86336
▁tilbake	-7.86557
▁slik	-7.86639
ka	-7.86907
▁finnes	-7.88396
▁8	-7.88996
▁fire	-7.89156
ja	-7.89242
▁na	-7.89281
▁kon	-7.89296
▁mai	-7.8934
▁n	-7.89482
▁per	-7.89496
▁kalt	-7.89511
▁si	-7.89845
▁usa	-7.89846
▁tok	-7.89902
▁mor	-7.89922
▁li	-7.90178
▁hele	-7.90247
▁oslo	-7.90295
▁ofte	-7.90565
stad	-7.91051
▁fri	-7.91282
▁mars	-7.91317
un	-7.91407
▁ti	-7.9144
skap	-7.91721
je	-7.91938
▁dem	-7.92065
▁co	-7.92146
▁august	-7.92274
tre	-7.92593
ær	-7.92627
erte	-7.92685
ad	-7.92781
▁fram	-7.92951
me	-7.93233
om	-7.93534
▁12	-7.93655
pp	-7.94084
vi	-7.94562
▁9	-7.9561
gi	-7.96137
▁14	-7.96248
rett	-7.96679
▁ni	-7.96751
it	-7.96813
▁bli	-7.9682
▁lo	-7.96893
ir	-7.96925
▁000	-7.96957
▁juli	-7.97533
▁mål	-7.97845
ster	-7.98031
▁juni	-7.983
else	-7.98325
▁sp	-7.98542
▁største	-7.98884
var	-7.99002
▁få	-7.9928
opp	-7.99424
▁bak	-7.99655
▁ho	-7.99702
ingen	-8.0001
▁fa	-8.00302
berg	-8.00528
va	-8.00614
▁di	-8.00682
ør	-8.0087
▁kirke	-8.00912
▁pro	-8.00935
▁når	-8.01028
▁lang	-8.01619
gg	-8.01799
ol	-8.02246
▁meter	-8.02278
▁ar	-8.02538
▁20	-8.02566
▁v	-8.02569
▁as	-8.03335
ling	-8.0359
dal	-8.03716
▁tillegg	-8.03873
▁går	-8.04773
▁september	-8.04993
bu	-8.05058
▁13	-8.05489
▁j	-8.05556
▁hos	-8.05977
ø	-8.06139
tal	-8.0671
å	-8.06962
▁far	-8.07506
kke	-8.0766
bar	-8.0773
ed	-8.08024
▁folke	-8.08064
ic	-8.08224
▁siste	-8.08434
▁su	-8.08749
▁2008	-8.09889
▁ka	-8.09924
▁vanlig	-8.10274
▁no	-8.10372
▁rekke	-8.10412
æ	-8.10566
▁samt	-8.10614
▁igjen	-8.1075
▁2010	-8.10905
ring	-8.1101
▁deltok	-8.11353
pe	-8.11646
▁gi	-8.11649
▁11	-8.1184
▁pa	-8.11866
▁mo	-8.11874
ok	-8.12128
▁po	-8.12241
▁fly	-8.12283
este	-8.12699
im	-8.1286
▁februar	-8.13148
▁april	-8.13356
▁området	-8.13364
▁form	-8.13485
▁deres	-8.13547
▁oktober	-8.13564
▁utgitt	-8.1363
▁w	-8.13884
▁me	-8.14094
▁el	-8.1418
nd	-8.14328
am	-8.14581
▁skole	-8.14671
ni	-8.14672
mer	-8.14965
▁kun	-8.1545
▁0	-8.15823
mp	-8.15871
gang	-8.16052
▁november	-8.16093
go	-8.16429
▁rett	-8.16481
au	-8.16522
dd	-8.16578
▁tv	-8.16806
▁ri	-8.16901
▁so	-8.16962
ku	-8.17033
av	-8.17051
bi	-8.17064
▁ei	-8.17566
op	-8.17913
▁brukt	-8.18245
▁2007	-8.18264
▁sønn	-8.18294
▁landet	-8.18312
▁satt	-8.18379
▁først	-8.1851
tter	-8.18619
▁like	-8.18711
▁y	-8.18842
men	-8.18968
▁t	-8.1965
▁musikk	-8.197
▁årene	-8.19725
ns	-8.19788
▁bu	-8.19943
▁uten	-8.20246
▁nær	-8.20384
ant	-8.20457
▁laget	-8.2068
▁2009	-8.20909
ko	-8.21063
▁bruk	-8.21196
ll	-8.21238
▁in	-8.21459
▁mi	-8.215
▁ma	-8.217
▁desember	-8.22483
▁tro	-8.22625
sel	-8.22852
▁gjorde	-8.22939
▁mindre	-8.23183
▁begynte	-8.23397
od	-8.2391
ti	-8.24041
sjon	-8.24222
▁am	-8.24412
▁spilte	-8.24989
▁or	-8.25196
▁alt	-8.25539
▁30	-8.25581
ion	-8.25857
▁vann	-8.25897
▁må	-8.25905
▁eksempel	-8.25955
▁leder	-8.26029
▁film	-8.26432
▁kong	-8.2671
tak	-8.27085
▁kina	-8.27526
ina	-8.27553
▁go	-8.27575
tur	-8.27679
itet	-8.27871
▁mar	-8.28235
vik	-8.28519
▁mye	-8.2862
slag	-8.28625
▁gjen	-8.28644
sp	-8.28799
▁pe	-8.28862
▁ak	-8.29041
▁videre	-8.29327
▁ville	-8.29395
▁helt	-8.29501
▁gift	-8.2956
ag	-8.2979
▁gamle	-8.30043
▁året	-8.3017
▁europa	-8.30293
▁sol	-8.30408
▁sk	-8.30483
▁døde	-8.30778
3	-8.30928
ningen	-8.31251
▁2006	-8.31286
▁and	-8.31312
▁beste	-8.31558
▁består	-8.31788
▁forhold	-8.3184
ho	-8.32062
▁tiden	-8.32259
▁opprinnelig	-8.32276
▁ju	-8.32304
ce	-8.32327
▁øy	-8.32383
á	-8.32497
▁plass	-8.32536
▁fem	-8.32628
per	-8.32693
▁gu	-8.32716
▁r	-8.3296
▁større	-8.3297
▁new	-8.33632
▁imidlertid	-8.33793
pa	-8.33928
over	-8.3393
▁bar	-8.34008
co	-8.34103
inn	-8.34241
ö	-8.34614
▁olympisk	-8.34817
▁lu	-8.34999
lag	-8.35268
ting	-8.35292
ering	-8.35413
år	-8.35474
▁sch	-8.35733
▁mat	-8.35919
▁spiller	-8.36003
▁filmen	-8.3629
▁do	-8.36568
dre	-8.37759
▁tyske	-8.37971
▁kommer	-8.38423
▁lov	-8.38744
dan	-8.38833
▁skrevet	-8.38849
▁fi	-8.39022
▁deretter	-8.39043
▁2005	-8.39298
tra	-8.39478
▁john	-8.39832
lse	-8.39851
ard	-8.39906
ov	-8.39964
▁kunst	-8.40024
▁kinesisk	-8.40103
▁små	-8.4014
▁hver	-8.40146
jø	-8.40342
▁særlig	-8.4066
▁lys	-8.40845
ow	-8.41076
▁perioden	-8.41129
sj	-8.41151
elle	-8.412
do	-8.41607
▁måtte	-8.42057
▁dermed	-8.42333
▁liv	-8.42405
▁ingen	-8.42571
▁startet	-8.42596
▁ja	-8.42628
▁langs	-8.42666
▁x	-8.42689
ikk	-8.42831
▁lå	-8.42863
sh	-8.42894
ca	-8.42947
▁medlem	-8.431
▁va	-8.43299
▁par	-8.43437
▁barn	-8.43499
tten	-8.43515
▁egen	-8.43617
▁begge	-8.43709
▁skrev	-8.43824
▁brukes	-8.43842
verk	-8.44011
▁san	-8.44058
▁jo	-8.44165
▁2011	-8.44266
▁fleste	-8.44363
▁bi	-8.44749
følge	-8.44934
▁politisk	-8.45017
▁sverige	-8.45111
▁høy	-8.45138
und	-8.45203
len	-8.45249
ings	-8.45325
▁kultur	-8.45363
lin	-8.45608
▁ulike	-8.45768
▁ki	-8.46016
▁tyskland	-8.46071
▁em	-8.46152
ment	-8.46172
▁innbyggere	-8.46258
ft	-8.46474
▁ski	-8.46696
art	-8.46836
▁hvert	-8.46855
▁ad	-8.46881
▁hennes	-8.4713
ru	-8.47288
▁deler	-8.47305
▁sam	-8.47324
▁kort	-8.47519
ier	-8.47564
ld	-8.4782
▁mal	-8.47957
pi	-8.48108
00	-8.48274
isme	-8.48496
▁tra	-8.49089
hu	-8.49152
▁svær	-8.49286
▁albumet	-8.49317
▁seks	-8.49326
ede	-8.49359
hold	-8.49474
ä	-8.49544
ighet	-8.49605
▁fast	-8.49781
▁tri	-8.50012
gu	-8.50031
▁bra	-8.50107
no	-8.50117
derfor	-8.50148
▁25	-8.5022
▁tatt	-8.50221
▁gitt	-8.50346
ly	-8.50391
▁russisk	-8.50394
satt	-8.50506
dag	-8.50688
▁dr	-8.50995
▁språk	-8.5102
ius	-8.5131
▁z	-8.51387
ian	-8.51401
▁ru	-8.51412
▁norges	-8.51504
min	-8.51788
siden	-8.51799
▁eks	-8.51965
ek	-8.52067
tisk	-8.52072
▁pu	-8.52102
▁ko	-8.5224
ny	-8.52507
bel	-8.52868
ac	-8.5299
▁bl	-8.53102
ü	-8.53125
▁parti	-8.53211
sta	-8.53238
▁tor	-8.53262
▁gull	-8.53321
vin	-8.53344
▁ganger	-8.53554
ie	-8.53872
▁engelsk	-8.53885
▁dagen	-8.53889
vo	-8.53963
fa	-8.54273
▁pre	-8.54281
bil	-8.54383
itt	-8.54551
form	-8.54607
▁cha	-8.54975
▁tysk	-8.55219
let	-8.55416
▁fjell	-8.55525
ium	-8.55721
▁gruppen	-8.55722
▁bandet	-8.55777
▁grad	-8.55937
▁sommer	-8.55986
les	-8.56021
bruk	-8.56261
stein	-8.56414
▁hus	-8.56496
▁arbeidet	-8.56668
▁krigen	-8.56679
▁plan	-8.57106
▁bygget	-8.57212
▁annen	-8.57537
ci	-8.57623
▁nest	-8.57633
gn	-8.57819
▁kjente	-8.57895
▁gre	-8.57908
▁fotball	-8.57911
ud	-8.58145
sted	-8.58172
▁21	-8.58792
▁samtidig	-8.58868
ige	-8.58947
ans	-8.59057
tiske	-8.59065
▁2004	-8.59189
▁nasjonal	-8.59678
▁verdens	-8.59814
4	-8.59983
▁te	-8.60034
▁nor	-8.60092
▁2000	-8.60161
▁london	-8.6017
hus	-8.60457
▁tredje	-8.60467
▁valgt	-8.60589
▁syn	-8.60639
▁ab	-8.60707
▁my	-8.60769
▁bergen	-8.60993
po	-8.61114
▁forskjellige	-8.61242
landet	-8.61358
▁vel	-8.61418
tan	-8.61496
and	-8.61579
▁tidlig	-8.61777
mar	-8.61795
▁spilt	-8.61885
▁lever	-8.62079
▁gir	-8.62087
tu	-8.62156
ine	-8.62351
▁ne	-8.62502
▁vis	-8.62552
kor	-8.62652
▁sett	-8.62658
io	-8.62696
ber	-8.62725
▁kommunen	-8.62732
elig	-8.6285
▁22	-8.63243
mon	-8.6328
▁gud	-8.63495
bre	-8.63589
▁øya	-8.6363
▁stedet	-8.63808
▁bil	-8.63995
del	-8.64029
tid	-8.64065
▁ge	-8.64072
▁klubben	-8.64137
▁val	-8.64144
▁all	-8.64198
▁fl	-8.64271
sett	-8.64304
▁sted	-8.64518
res	-8.64554
ot	-8.64636
stand	-8.64659
▁konge	-8.64716
▁serien	-8.65026
▁19	-8.65212
▁person	-8.65256
▁allerede	-8.65632
▁provinsen	-8.6564
tte	-8.65731
▁bok	-8.66056
til	-8.66248
▁nytt	-8.66443
▁gresk	-8.66514
▁24	-8.66743
▁viktig	-8.66823
▁side	-8.66848
▁sto	-8.66852
▁løpet	-8.67164
ron	-8.67387
▁god	-8.674
▁con	-8.67406
▁kongen	-8.67551
▁godt	-8.6757
vei	-8.67651
ken	-8.67715
▁stat	-8.67771
▁roman	-8.6778
ill	-8.67944
▁2003	-8.68119
▁min	-8.68259
▁1990	-8.68473
ks	-8.68542
▁sand	-8.68576
jo	-8.68596
▁spesielt	-8.68825
ham	-8.68889
▁stort	-8.69147
▁mann	-8.69168
▁historie	-8.69413
▁sesongen	-8.69442
▁england	-8.69563
sti	-8.69665
tok	-8.69924
▁slutt	-8.70238
▁je	-8.70302
▁hu	-8.70579
kel	-8.70634
▁innehold	-8.7103
2	-8.71054
▁full	-8.71092
▁antall	-8.71105
▁familie	-8.71317
▁kor	-8.71334
▁vei	-8.71342
▁stein	-8.71366
▁100	-8.71414
mme	-8.71451
tiden	-8.71646
▁ska	-8.71732
ator	-8.71778
inger	-8.71895
ley	-8.71971
lot	-8.72101
▁mark	-8.72164
elsen	-8.72237
▁millioner	-8.72341
rik	-8.72374
▁we	-8.72396
▁sjø	-8.72545
dig	-8.72789
burg	-8.729
▁23	-8.72927
lat	-8.73466
ninger	-8.73489
▁mulig	-8.73766
▁fransk	-8.73769
▁slutten	-8.73988
▁frankrike	-8.74024
▁støtte	-8.74142
▁ord	-8.74247
værende	-8.74253
▁viser	-8.74473
ou	-8.74542
▁ch	-8.74846
▁president	-8.75098
▁keiser	-8.75183
▁moderne	-8.75331
før	-8.75426
▁hen	-8.75661
▁sentral	-8.7567
tro	-8.75745
nske	-8.75876
▁utviklet	-8.75915
▁sosial	-8.75946
▁2001	-8.75954
▁kar	-8.75965
▁verdenskrig	-8.75982
ran	-8.76182
1	-8.76264
▁vin	-8.76349
▁tar	-8.76482
▁bro	-8.76536
uk	-8.76666
▁lokal	-8.76719
tor	-8.76741
fe	-8.76764
▁forfatter	-8.76777
▁vinter	-8.7682
▁fortsatt	-8.76823
▁verden	-8.77094
så	-8.7714
▁delstaten	-8.77216
▁fant	-8.77471
▁2002	-8.7752
▁gammel	-8.77524
▁basert	-8.77919
▁gjern	-8.77982
▁aktiv	-8.78155
▁datter	-8.78211
▁bre	-8.78259
▁gjør	-8.78282
▁vise	-8.78364
za	-8.78453
▁cl	-8.78488
▁natur	-8.78579
▁står	-8.78648
spill	-8.78685
▁halv	-8.78775
▁elven	-8.78855
kon	-8.7886
fi	-8.78863
ord	-8.78871
dalen	-8.78908
▁militær	-8.79036
▁arbeid	-8.79312
lu	-8.79392
ju	-8.79413
▁britiske	-8.79428
▁car	-8.79431
▁bygd	-8.79877
▁lands	-8.80079
▁28	-8.80093
▁kalles	-8.80113
▁radio	-8.80118
▁selskapet	-8.80123
ologi	-8.80235
▁enkelte	-8.80279
▁midt	-8.80449
▁hi	-8.80513
ong	-8.80557
yd	-8.80659
▁50	-8.80673
▁ser	-8.80719
▁fordi	-8.80823
bb	-8.81063
▁kal	-8.81228
▁27	-8.81365
▁grav	-8.81509
▁ku	-8.81733
▁lite	-8.81784
▁mennesker	-8.81873
sch	-8.81877
▁os	-8.8192
▁wa	-8.82045
▁berg	-8.82142
▁1999	-8.82365
far	-8.82433
ska	-8.82447
▁fag	-8.82477
if	-8.82557
yn	-8.82764
▁bety	-8.82855
lev	-8.829
fly	-8.82918
▁utenfor	-8.8293
▁ledet	-8.83076
í	-8.83189
leg	-8.83193
▁1980	-8.83199
lan	-8.8322
▁gjort	-8.83339
dom	-8.8358
menn	-8.83757
løp	-8.8402
▁kirken	-8.84091
ya	-8.84127
▁fred	-8.84216
▁india	-8.84388
▁bru	-8.84494
lsen	-8.84499
▁flyttet	-8.84604
▁skolen	-8.84724
sson	-8.84788
▁hy	-8.84795
vann	-8.84808
▁langt	-8.84885
▁holdt	-8.84916
▁fo	-8.85181
▁general	-8.85297
▁hel	-8.8541
▁sh	-8.85455
▁bor	-8.85547
stasjon	-8.85563
▁liten	-8.85678
▁internasjonale	-8.85695
▁omkring	-8.85729
▁pave	-8.85759
▁luft	-8.85766
▁fu	-8.85882
▁litt	-8.86002
▁29	-8.86044
▁stil	-8.86152
▁sangen	-8.86243
mm	-8.86385
▁får	-8.86468
▁danmark	-8.86595
par	-8.86606
5	-8.86725
▁måte	-8.86792
▁ren	-8.86793
tz	-8.86802
▁mu	-8.86806
ide	-8.86849
▁hatt	-8.86878
▁lav	-8.86915
est	-8.86955
▁åtte	-8.87177
▁ev	-8.87183
borg	-8.87256
▁mag	-8.87265
▁én	-8.87494
bok	-8.87506
mor	-8.87512
▁forbindelse	-8.87533
▁industri	-8.87628
kte	-8.87715
ica	-8.87802
▁ed	-8.87908
▁tur	-8.88043
▁hav	-8.88063
▁nok	-8.88126
▁skog	-8.88184
ana	-8.88289
he	-8.88357
▁bort	-8.88458
▁motor	-8.88608
▁lett	-8.88774
folk	-8.88775
▁26	-8.88929
▁fe	-8.88941
▁serie	-8.88973
ds	-8.89533
em	-8.89573
kom	-8.89616
øya	-8.89824
▁spille	-8.89885
▁egne	-8.8989
▁lange	-8.9018
bro	-8.90187
▁ført	-8.90197
▁vm	-8.90216
val	-8.9023
▁gruppe	-8.905
▁com	-8.90508
plan	-8.90735
mål	-8.90948
▁direkte	-8.91004
▁italia	-8.91015
istiske	-8.91099
▁tjeneste	-8.911
tar	-8.91144
ble	-8.9116
▁hol	-8.91164
▁prest	-8.91171
▁slag	-8.91229
▁reise	-8.91231
▁gjøre	-8.91284
▁jeg	-8.91294
su	-8.91302
▁vo	-8.91356
▁delen	-8.91804
dy	-8.91911
▁afrika	-8.91914
▁paris	-8.92132
▁valg	-8.92247
▁farge	-8.9231
spiller	-8.92335
▁mari	-8.92379
kle	-8.92484
heim	-8.92531
▁krigs	-8.927
▁karl	-8.92724
▁tap	-8.92737
▁bygge	-8.92815
▁regjeringen	-8.93231
uten	-8.93346
▁pan	-8.93453
du	-8.93478
▁hjem	-8.93551
nings	-8.93616
ó	-8.9363
bin	-8.93653
▁au	-8.93702
▁arter	-8.93738
▁universitetet	-8.93741
▁medlemmer	-8.94062
▁kl	-8.94075
▁svensk	-8.94165
fjorden	-8.9438
mat	-8.94462
ug	-8.94472
▁familien	-8.94606
▁rø	-8.9474
▁fiske	-8.94892
▁sal	-8.95039
▁tom	-8.95042
▁1970	-8.9516
▁op	-8.9528
▁arbeider	-8.95444
▁sanger	-8.95459
anske	-8.9551
▁folk	-8.9562
▁paul	-8.95838
fra	-8.95861
rak	-8.96024
▁nett	-8.96124
▁sentrum	-8.96124
▁best	-8.96249
▁ø	-8.9626
sky	-8.9627
▁etablert	-8.96286
mark	-8.96311
▁rolle	-8.96332
ris	-8.96352
og	-8.96426
▁kontroll	-8.96535
kan	-8.96768
bygd	-8.96892
mmer	-8.9693
▁art	-8.97059
▁pl	-8.97087
ki	-8.97102
hø	-8.9717
▁personer	-8.97181
▁ur	-8.97354
▁felles	-8.97396
▁hal	-8.97483
bygning	-8.97493
▁orden	-8.97503
▁såkalt	-8.97533
▁2012	-8.97545
▁svenske	-8.97618
my	-8.97712
▁opprettet	-8.97829
▁gav	-8.97837
ys	-8.9787
plass	-8.9792
punkt	-8.97952
kamp	-8.98214
▁rom	-8.98279
▁ferdig	-8.98311
▁ten	-8.98448
50	-8.98452
▁31	-8.98598
ika	-8.98618
heten	-8.98708
▁russland	-8.98992
▁1998	-8.98996
▁eldre	-8.99047
▁fått	-8.99063
ale	-8.99244
jer	-8.99256
wa	-8.99332
▁york	-8.9948
isert	-8.99579
▁ønske	-8.99589
▁produsert	-8.99599
▁menneske	-8.99686
sten	-8.9972
▁sve	-8.99861
bra	-8.99871
log	-8.99882
stående	-9.00043
ung	-9.0014
merke	-9.00278
bygg	-9.00298
rom	-9.0033
▁hjelp	-9.00339
▁berlin	-9.00727
▁mil	-9.00764
stra	-9.00766
ation	-9.00788
▁kur	-9.00897
▁menn	-9.01125
ight	-9.01156
▁bruker	-9.01165
▁peter	-9.0126
▁storbritannia	-9.01465
▁betydning	-9.01466
sje	-9.01482
▁foran	-9.01637
tiv	-9.0167
▁funnet	-9.01692
▁bri	-9.01713
▁pr	-9.01748
▁åpnet	-9.01765
▁col	-9.01778
lis	-9.01849
ty	-9.01934
lene	-9.01945
▁delt	-9.02227
▁sm	-9.02231
▁kv	-9.02382
▁kamp	-9.02402
▁franske	-9.02496
▁gl	-9.0263
▁via	-9.02634
che	-9.02659
▁album	-9.02695
skole	-9.02724
vet	-9.02743
▁divisjon	-9.02785
forbund	-9.02834
organisasjon	-9.02926
▁ver	-9.02939
▁veien	-9.02952
▁hovedsakelig	-9.02988
▁band	-9.02996
ep	-9.03077
ement	-9.03108
▁hør	-9.03159
▁bror	-9.03161
▁meget	-9.03269
▁wi	-9.03287
dyr	-9.03297
elt	-9.03431
film	-9.03529
valg	-9.03574
gje	-9.03576
▁skuespiller	-9.03646
▁dikt	-9.03658
▁sang	-9.0395
▁von	-9.04086
▁minne	-9.04398
▁periode	-9.04442
rø	-9.04493
▁van	-9.04494
▁gul	-9.04519
▁staten	-9.04577
▁tittelen	-9.04583
▁ben	-9.04862
▁grunnlagt	-9.04898
▁forsøk	-9.04937
▁henne	-9.05002
▁omtrent	-9.05037
▁1988	-9.05045
▁1960	-9.05047
forening	-9.05135
▁40	-9.05161
▁ty	-9.05263
▁teater	-9.05427
▁ras	-9.05461
▁fall	-9.05507
▁drept	-9.05559
figur	-9.05593
▁handels	-9.05598
iet	-9.05614
▁gate	-9.06059
▁sta	-9.06083
▁følge	-9.06265
ons	-9.06324
▁styre	-9.0637
▁sak	-9.06486
▁krig	-9.0701
zi	-9.07026
▁slo	-9.07083
selskap	-9.07112
▁1992	-9.07142
▁elva	-9.07301
▁ettersom	-9.07386
▁hvis	-9.07394
▁spor	-9.07458
pl	-9.07507
▁fortsatte	-9.0756
▁1996	-9.07675
▁gå	-9.077
▁regnes	-9.07745
▁minst	-9.07907
▁dis	-9.07915
▁følgende	-9.07951
▁rød	-9.07968
stil	-9.07985
▁angrep	-9.07998
▁ve	-9.08017
hi	-9.08085
▁jord	-9.08095
▁partiet	-9.08103
lands	-9.08178
▁begynnelsen	-9.08207
pol	-9.08347
met	-9.08592
▁sen	-9.08982
lys	-9.08987
▁riks	-9.0903
kje	-9.09064
minister	-9.09111
tes	-9.09171
ice	-9.0927
▁1994	-9.09292
vel	-9.09368
▁eu	-9.09507
▁likevel	-9.0956
q	-9.09592
▁samarbeid	-9.09703
▁skade	-9.09726
▁aldri	-9.09855
▁meste	-9.09875
ps	-9.10027
▁barne	-9.10143
tel	-9.10275
▁neste	-9.1034
▁verk	-9.10424
kter	-9.10441
▁enkelt	-9.10459
mand	-9.10464
pu	-9.105
▁utnevnt	-9.10502
svis	-9.10562
▁arbeids	-9.10705
fl	-9.10757
▁christian	-9.10861
▁inkludert	-9.10921
▁slått	-9.1093
▁viktigste	-9.10991
▁kn	-9.11131
▁anti	-9.11438
а	-9.11465
▁university	-9.11476
▁1984	-9.1148
▁hva	-9.11506
▁q	-9.1159
▁slaget	-9.11617
veien	-9.11754
øl	-9.11763
▁skip	-9.11771
▁befolkningen	-9.11912
▁syk	-9.12009
▁1989	-9.12037
ttet	-9.12105
▁tak	-9.12214
ak	-9.1232
yl	-9.12399
leder	-9.12406
heng	-9.12406
▁eget	-9.12444
▁høyde	-9.12501
▁dannet	-9.12517
kant	-9.12571
▁1991	-9.12595
▁robert	-9.12627
fall	-9.12728
▁jan	-9.12808
▁jernbane	-9.13124
▁knytte	-9.13152
▁lille	-9.13191
▁ring	-9.1337
råd	-9.13377
▁pris	-9.13452
▁liste	-9.13505
▁våpen	-9.13558
▁kra	-9.13638
▁betydelig	-9.13716
▁1997	-9.13721
▁1995	-9.13725
tri	-9.13773
▁bø	-9.13862
▁uttrykk	-9.13931
▁indre	-9.13987
▁slekt	-9.14147
ara	-9.14237
▁omfatter	-9.14237
▁spe	-9.14277
tikk	-9.14408
▁bur	-9.14424
enes	-9.14571
▁mm	-9.14703
▁th	-9.14822
ab	-9.14826
ket	-9.14928
ving	-9.14956
fer	-9.15067
▁dansk	-9.15071
▁dager	-9.15202
laget	-9.15309
▁bas	-9.15353
▁høyre	-9.15423
▁representert	-9.15429
▁henhold	-9.15461
▁herre	-9.15485
▁opprør	-9.15535
handling	-9.15614
båt	-9.15677
isere	-9.15687
mal	-9.15708
▁fremst	-9.15712
▁stasjon	-9.15735
lå	-9.15821
▁sølv	-9.16003
pro	-9.16122
▁kvinner	-9.16141
ida	-9.16146
▁sterkt	-9.16328
fo	-9.16432
idae	-9.16452
lle	-9.16453
▁tegn	-9.16488
▁system	-9.16541
▁2014	-9.16595
▁west	-9.16686
▁professor	-9.16711
liggende	-9.16715
▁bred	-9.16783
▁kraftig	-9.16791
▁lokale	-9.16803
▁besøk	-9.16887
▁eldste	-9.17173
banen	-9.17312
kar	-9.17387
ismen	-9.17446
▁stats	-9.1747
rig	-9.17623
▁gran	-9.17649
▁tildelt	-9.17674
▁tilhører	-9.17761
▁studert	-9.17769
▁1920	-9.17775
▁rock	-9.17863
▁pol	-9.18157
▁lagt	-9.18168
ach	-9.18213
▁ordet	-9.18329
vær	-9.18329
▁høyeste	-9.18406
▁bestemt	-9.18418
familien	-9.18478
▁resten	-9.18494
anger	-9.18556
▁nordøst	-9.1895
▁brun	-9.18976
▁pal	-9.18976
▁reist	-9.19324
▁dess	-9.19329
▁johan	-9.19501
▁post	-9.19504
gård	-9.19621
isering	-9.1963
▁europeisk	-9.19658
▁finner	-9.1968
▁ett	-9.19683
▁mont	-9.19752
▁tru	-9.19955
▁svarte	-9.19979
▁bry	-9.19982
▁cor	-9.20095
att	-9.20149
▁tilsvarende	-9.20149
▁william	-9.20149
ister	-9.20169
▁ke	-9.20315
▁rev	-9.20375
▁lyd	-9.20609
▁kroppen	-9.20759
▁2013	-9.20772
▁samle	-9.20951
▁benyttet	-9.20985
ark	-9.21107
▁gen	-9.21156
▁stjerne	-9.21188
som	-9.21265
stilt	-9.21279
10	-9.21295
▁studie	-9.21356
▁1993	-9.21372
▁gro	-9.21525
7	-9.21651
skip	-9.2166
▁fylke	-9.21669
komm	-9.2186
ledes	-9.21898
▁lærer	-9.2198
▁1985	-9.21988
▁miljø	-9.22019
▁ry	-9.22058
▁seil	-9.22149
▁ly	-9.2238
stol	-9.22505
mester	-9.22557
▁biskop	-9.22596
▁politiker	-9.22643
▁tekst	-9.22701
▁dersom	-9.22704
▁opera	-9.22725
grad	-9.2279
▁natt	-9.22863
▁steder	-9.22877
chi	-9.22891
ich	-9.22913
▁holde	-9.2303
▁kul	-9.23032
▁topp	-9.23045
▁avdeling	-9.23147
▁århundre	-9.23217
▁organ	-9.23219
rå	-9.23224
▁mester	-9.2326
område	-9.23261
senter	-9.23265
▁sti	-9.23276
▁makt	-9.23417
▁mos	-9.23448
▁regionen	-9.23512
▁ap	-9.23628
▁utvikling	-9.23774
▁suksess	-9.23842
▁1968	-9.23853
▁bal	-9.24001
vern	-9.24004
▁kron	-9.24007
▁olav	-9.24013
bane	-9.24109
ller	-9.24187
dømme	-9.24215
gar	-9.24298
▁super	-9.24331
▁års	-9.24385
▁brasil	-9.24473
▁hånd	-9.24518
ial	-9.24562
▁renn	-9.24572
fjord	-9.24579
▁dro	-9.2458
gruppen	-9.24735
▁60	-9.24767
bud	-9.2481
asjoner	-9.24864
▁ledelse	-9.24868
fri	-9.24886
brudd	-9.25046
ct	-9.2507
port	-9.25089
▁500	-9.25165
▁styrke	-9.25205
don	-9.25265
▁bill	-9.25314
▁områder	-9.25329
▁kle	-9.25515
▁utgjør	-9.25571
yk	-9.25582
▁tr	-9.25588
▁japan	-9.25611
ari	-9.25684
▁dårlig	-9.25742
▁fin	-9.25841
▁200	-9.25849
▁turn	-9.25858
▁bank	-9.25914
▁sv	-9.25918
▁sig	-9.2594
han	-9.25946
▁blad	-9.25999
▁hjemme	-9.26019
gel	-9.26057
all	-9.26221
▁regn	-9.26228
▁les	-9.26281
▁on	-9.26327
▁type	-9.26353
▁møte	-9.26359
▁sannsynlig	-9.26382
▁kardinal	-9.26382
▁privat	-9.26383
hr	-9.26402
red	-9.26405
az	-9.26413
iner	-9.26513
▁politi	-9.2662
▁regi	-9.26641
▁gård	-9.26655
▁ber	-9.26696
ji	-9.2689
▁verdi	-9.27011
mel	-9.27099
▁endt	-9.27103
▁løp	-9.27233
▁stre	-9.2726
her	-9.27284
▁boken	-9.2736
▁funksjon	-9.27416
inne	-9.27523
ford	-9.27592
▁tu	-9.27664
о	-9.27671
▁kilometer	-9.27676
▁klar	-9.27677
▁venstre	-9.27677
▁område	-9.27744
ino	-9.27786
nett	-9.27808
van	-9.27856
▁sterk	-9.27994
▁museum	-9.2808
и	-9.2833
året	-9.28385
▁mente	-9.28389
drag	-9.28419
▁henrik	-9.28429
▁bedre	-9.28648
drift	-9.28775
▁trondheim	-9.28988
gitt	-9.28991
▁sendt	-9.28994
▁1950	-9.29012
▁nrk	-9.29206
mu	-9.29405
▁mur	-9.295
messig	-9.29648
▁voksne	-9.29654
stilling	-9.29684
▁lege	-9.29725
ay	-9.29729
we	-9.29843
▁kraft	-9.29857
▁legge	-9.29872
ssen	-9.29895
kast	-9.30148
▁danske	-9.30207
▁hvilke	-9.30317
▁1987	-9.30329
▁mod	-9.30372
▁linje	-9.30377
▁flo	-9.30389
▁mac	-9.30483
▁sogn	-9.30507
▁port	-9.30564
sto	-9.30631
skog	-9.30638
gikk	-9.30713
ah	-9.30779
▁tal	-9.3083
▁fange	-9.30895
sjef	-9.30983
▁kryss	-9.30991
istisk	-9.31089
▁resultat	-9.31208
▁sha	-9.31227
▁ind	-9.31228
▁løs	-9.31272
full	-9.31358
▁konsert	-9.31432
oc	-9.31432
▁bruke	-9.31501
▁heller	-9.31561
ey	-9.31567
mannen	-9.31639
▁lik	-9.31644
▁dronning	-9.31669
▁kjøpt	-9.31708
▁viste	-9.31717
▁energi	-9.31779
▁ex	-9.31983
▁seier	-9.32019
▁katolske	-9.32039
▁kje	-9.32072
ze	-9.32104
tjeneste	-9.32174
produksjon	-9.32178
▁carl	-9.32314
▁stockholm	-9.32344
▁oppkalt	-9.32344
▁kunstner	-9.32385
▁skje	-9.32399
▁finalen	-9.32406
▁brukte	-9.32554
▁fremme	-9.32614
▁plat	-9.32642
▁hvit	-9.32673
▁pen	-9.32707
området	-9.32717
ferd	-9.32786
king	-9.32886
▁standard	-9.33045
olog	-9.33056
▁sky	-9.33071
▁skrift	-9.33096
▁skr	-9.33225
▁vår	-9.33253
▁roma	-9.33266
pon	-9.33284
▁lin	-9.33339
▁mel	-9.33363
handler	-9.334
▁finsk	-9.33489
▁sesong	-9.33514
ros	-9.33526
▁eid	-9.33544
▁gri	-9.33554
▁start	-9.33569
deling	-9.33577
▁versjon	-9.33599
▁ag	-9.33605
ritt	-9.33716
▁1982	-9.3373
mengde	-9.33781
bygging	-9.33795
▁ep	-9.33889
▁hest	-9.3391
departementet	-9.33939
▁ul	-9.33943
eier	-9.34005
sjonen	-9.34097
▁nordlige	-9.34155
▁ger	-9.34192
▁alder	-9.3426
▁rus	-9.34305
▁virke	-9.34322
▁sc	-9.3439
▁fjerde	-9.34413
▁poeng	-9.34428
▁rike	-9.34441
▁møtte	-9.34516
nntil	-9.34551
up	-9.34607
▁bør	-9.34642
▁1800	-9.34672
▁wh	-9.34737
tatt	-9.3475
▁wo	-9.3478
retning	-9.34814
lighet	-9.34848
▁sommeren	-9.34892
syn	-9.34896
gh	-9.3496
system	-9.34962
▁helse	-9.35104
cu	-9.35107
▁sørøst	-9.35113
virkning	-9.35114
▁canada	-9.35117
holm	-9.35126
▁prosent	-9.35138
▁martin	-9.35139
▁park	-9.35146
▁vol	-9.35292
søk	-9.3547
▁engelske	-9.35504
rid	-9.35536
▁mon	-9.35551
▁pat	-9.35604
▁nummer	-9.35699
▁selskap	-9.35728
ksjon	-9.35779
▁af	-9.35794
▁arrangert	-9.35816
▁vanskelig	-9.35824
▁1900	-9.35859
elser	-9.35865
▁chi	-9.35921
▁wal	-9.35933
rød	-9.36018
pris	-9.36095
cc	-9.36188
nyin	-9.36201
▁livet	-9.36205
66	-9.36325
р	-9.36526
▁spania	-9.36526
▁1972	-9.36538
gle	-9.36578
▁stod	-9.36663
kken	-9.36695
navn	-9.3671
▁tross	-9.36741
alder	-9.36779
▁britisk	-9.3681
føre	-9.36843
▁syv	-9.36982
ath	-9.37036
30	-9.37057
▁regjering	-9.37058
fag	-9.37059
fal	-9.37113
middel	-9.37162
▁kamper	-9.37253
▁1964	-9.37255
▁brann	-9.37256
ph	-9.37451
▁eier	-9.37511
sjøen	-9.37714
ding	-9.37877
▁offentlig	-9.37918
▁derimot	-9.37959
▁hverandre	-9.37959
▁gra	-9.38076
liv	-9.3809
▁arm	-9.38128
tyr	-9.38209
▁kol	-9.38257
▁vestlig	-9.38284
▁litteratur	-9.38337
▁kvinne	-9.38356
▁hæren	-9.38411
20	-9.3846
▁lære	-9.38536
▁båt	-9.38645
▁københavn	-9.38684
▁religiøs	-9.38684
▁øverst	-9.38685
▁råd	-9.38819
lek	-9.38879
▁kors	-9.38948
▁dra	-9.39043
▁overtok	-9.39049
▁skrive	-9.39055
sund	-9.39162
▁representant	-9.39185
eks	-9.39187
ind	-9.39234
▁island	-9.39254
▁fil	-9.39345
rus	-9.394
▁1981	-9.39426
▁dyr	-9.39429
▁komme	-9.39587
▁svart	-9.39609
rud	-9.39644
▁arten	-9.39713
▁stu	-9.3984
▁sj	-9.39995
skrift	-9.4007
lla	-9.40084
ap	-9.40143
▁klima	-9.40159
▁1983	-9.40162
stat	-9.40228
▁sø	-9.40327
▁åpen	-9.40345
samling	-9.4036
▁kampen	-9.40399
▁jon	-9.40409
▁gje	-9.4041
▁blå	-9.40438
▁raskt	-9.4048
sal	-9.40558
▁sende	-9.40604
▁ball	-9.40639
iz	-9.40735
rum	-9.40808
▁universitet	-9.40852
ð	-9.4089
▁informasjon	-9.4089
kraft	-9.40892
▁james	-9.40895
▁1945	-9.40899
▁fylkesvei	-9.40906
▁blod	-9.40979
▁maria	-9.41148
▁styrker	-9.41203
е	-9.41636
ater	-9.41638
▁1986	-9.41649
▁1978	-9.41649
▁bronse	-9.41664
krigen	-9.41694
styrke	-9.41751
▁union	-9.41758
▁dy	-9.41849
bor	-9.41937
▁unge	-9.42126
▁sil	-9.42217
fin	-9.42326
▁høsten	-9.42329
ola	-9.42359
▁relativ	-9.42388
▁thomas	-9.42389
▁para	-9.42414
▁lengde	-9.42416
band	-9.42421
stykke	-9.42442
med	-9.4256
ula	-9.42577
▁za	-9.42631
ub	-9.42788
▁midten	-9.42795
8	-9.42814
▁hvite	-9.42831
▁produksjon	-9.4284
▁posisjon	-9.42855
▁plassert	-9.42861
▁fro	-9.42954
ita	-9.42989
▁slike	-9.43011
▁iii	-9.43126
▁1974	-9.43146
▁david	-9.43149
▁1971	-9.43155
▁politikk	-9.43185
sak	-9.43212
skjell	-9.43246
▁latin	-9.43281
▁samling	-9.43295
▁grå	-9.43418
lett	-9.43438
▁dom	-9.43513
▁grensen	-9.43565
▁erstattet	-9.43664
▁munn	-9.4372
fon	-9.43766
▁80	-9.43856
republikken	-9.43904
▁1975	-9.4392
▁1976	-9.43923
tion	-9.4402
▁sir	-9.44098
▁finland	-9.44126
▁dia	-9.44192
▁journalist	-9.44196
har	-9.44207
områder	-9.44225
▁finne	-9.44281
▁interesse	-9.44297
led	-9.4431
▁qu	-9.44361
▁leker	-9.44447
▁samlet	-9.4457
н	-9.44667
▁1930	-9.44697
fjell	-9.44761
trykk	-9.44784
▁symbol	-9.44877
▁skjer	-9.44961
▁george	-9.44977
▁punkt	-9.44996
int	-9.45121
▁nu	-9.45296
▁hall	-9.45315
▁olje	-9.45376
▁grand	-9.45381
▁bir	-9.45403
▁kristne	-9.45454
▁1973	-9.45461
▁1948	-9.4547
regionen	-9.45477
▁auto	-9.45796
▁musiker	-9.45899
▁størrelse	-9.45919
arter	-9.45969
▁plate	-9.46019
ini	-9.46077
▁artene	-9.46161
lø	-9.46178
▁nordvest	-9.46238
▁stavanger	-9.46243
▁1979	-9.46245
givelse	-9.46321
anlegg	-9.46325
▁johannes	-9.46459
▁kyst	-9.46476
of	-9.46659
▁fjorden	-9.46751
ski	-9.46796
▁tett	-9.4689
▁gren	-9.46954
af	-9.46966
hy	-9.46999
▁australia	-9.47022
▁hjerte	-9.47023
standen	-9.47191
lus	-9.47199
▁gar	-9.47213
▁klasse	-9.47213
bø	-9.47216
▁havet	-9.47268
▁christ	-9.47389
▁mus	-9.47391
organ	-9.47443
legge	-9.47486
▁skips	-9.47548
felt	-9.47553
▁trykk	-9.47621
graf	-9.4766
▁følger	-9.47734
▁jern	-9.47751
▁hertug	-9.4781
▁lengre	-9.47819
▁kjempe	-9.47833
▁fotballspiller	-9.47849
▁flat	-9.47864
▁nasjonale	-9.47932
▁erik	-9.48032
▁redaktør	-9.48133
▁tapte	-9.48177
▁viktige	-9.48198
▁tanke	-9.48233
▁miste	-9.48269
førte	-9.48306
▁ob	-9.4846
48	-9.48493
▁romerske	-9.4854
▁sy	-9.48607
▁air	-9.48678
▁lenger	-9.48732
▁plante	-9.48765
gift	-9.4882
lser	-9.48877
▁fest	-9.48946
▁merke	-9.4905
▁los	-9.49426
▁1952	-9.49437
▁moh	-9.49456
▁gru	-9.49548
▁bodde	-9.49558
▁tan	-9.49583
▁vind	-9.49627
▁offisiell	-9.49674
▁bjørn	-9.49685
▁lind	-9.49685
zo	-9.49733
▁arkitekt	-9.49777
▁70	-9.49778
▁forsøkt	-9.49812
▁fulgte	-9.49844
▁kraftverk	-9.49852
▁totalt	-9.49962
arbeid	-9.50076
delen	-9.50076
▁gode	-9.50098
mun	-9.5011
▁koloni	-9.50143
aker	-9.50165
40	-9.50198
▁mis	-9.50234
▁sovjetunionen	-9.50235
▁2015	-9.5026
iti	-9.50304
▁can	-9.50361
▁bad	-9.50432
▁gal	-9.50557
▁ting	-9.50571
eid	-9.50593
▁vold	-9.50605
▁sørlige	-9.5061
▁hopp	-9.50619
▁naturlig	-9.5062
▁motstand	-9.50671
▁faren	-9.50707
▁red	-9.50843
▁inter	-9.50955
dals	-9.5106
37	-9.51066
vogn	-9.51066
▁statsminister	-9.51071
▁delta	-9.51087
zhou	-9.51146
byen	-9.51161
▁israel	-9.51171
gan	-9.51188
▁tall	-9.51385
▁hår	-9.51412
▁trans	-9.51468
ev	-9.51498
▁dans	-9.51598
ringen	-9.51674
tta	-9.51819
▁høyt	-9.5185
▁anders	-9.51868
▁publisert	-9.51881
▁you	-9.51916
▁alltid	-9.51927
▁stra	-9.51946
navnet	-9.5199
▁trolig	-9.52104
▁årlig	-9.52111
▁felt	-9.52274
▁slekten	-9.52331
▁300	-9.52362
tør	-9.52375
▁enten	-9.52435
▁data	-9.52652
64	-9.52658
▁religion	-9.52715
▁egentlig	-9.52739
fisk	-9.5274
▁variant	-9.52789
▁ramme	-9.5289
▁befolkning	-9.52891
hal	-9.52903
▁forsvar	-9.5295
trakk	-9.53065
▁modell	-9.53094
▁stemme	-9.53125
▁høyere	-9.53131
▁strøm	-9.53165
fører	-9.53188
▁effekt	-9.53203
ör	-9.5323
▁karakter	-9.53246
▁bolig	-9.53275
▁fre	-9.53275
tive	-9.53396
reis	-9.53501
vit	-9.53529
▁original	-9.53555
▁utdannet	-9.53555
▁etterhvert	-9.53555
▁world	-9.53555
▁lenge	-9.5364
▁knut	-9.5367
gruppe	-9.53716
▁xi	-9.53728
▁grenser	-9.53824
hund	-9.53907
▁hundre	-9.53943
kre	-9.53971
▁fot	-9.54173
▁sn	-9.54254
▁cm	-9.54305
vesen	-9.54314
ød	-9.54382
▁komponist	-9.54403
▁vokste	-9.54406
▁1977	-9.54417
▁sommerfugl	-9.54418
parti	-9.54421
gren	-9.54438
▁krav	-9.54469
gav	-9.54573
▁son	-9.54579
lagt	-9.54583
systemet	-9.5459
▁mc	-9.54632
are	-9.54653
▁grønn	-9.54671
▁historiske	-9.54813
itz	-9.5504
▁pop	-9.55046
▁syd	-9.55085
ire	-9.55156
▁produkt	-9.55196
▁trøndelag	-9.55257
▁skjedde	-9.55258
▁tradisjonell	-9.55265
▁stadig	-9.55295
▁nådd	-9.55531
▁beskrive	-9.55547
▁ban	-9.55559
▁rad	-9.55577
▁don	-9.55628
▁operasjon	-9.55646
mus	-9.55689
▁ii	-9.55698
41	-9.558
▁bind	-9.55846
▁oppdaget	-9.5587
midler	-9.55937
byggingen	-9.56094
▁sikre	-9.56168
▁endret	-9.56185
hall	-9.56211
huset	-9.56217
▁måneder	-9.56243
▁virksomhet	-9.56246
▁slott	-9.56283
▁vinner	-9.56352
▁grupper	-9.56378
▁utviklingen	-9.56381
▁bøker	-9.56413
▁kast	-9.56454
ric	-9.56538
kin	-9.56597
▁hær	-9.56688
▁skifte	-9.56732
stikk	-9.56822
▁mas	-9.56901
lia	-9.56936
our	-9.56965
▁kanskje	-9.56996
▁areal	-9.57007
grunn	-9.57064
ild	-9.57185
ves	-9.57198
leng	-9.57225
gående	-9.57286
tag	-9.5733
park	-9.57402
akk	-9.57462
ani	-9.57622
▁krets	-9.57632
▁danne	-9.57638
47	-9.57677
▁90	-9.57681
▁35	-9.57724
under	-9.57748
shire	-9.57781
▁egg	-9.57787
akt	-9.5781
ås	-9.57822
▁utvikle	-9.57843
▁østerrike	-9.57868
▁1958	-9.57878
▁1969	-9.57882
▁jobbe	-9.57913
ite	-9.57928
ria	-9.57998
cy	-9.58022
▁japansk	-9.58065
▁sentrale	-9.58071
▁slå	-9.58071
▁fører	-9.58103
▁distrikt	-9.58294
▁ac	-9.58415
ins	-9.58439
▁borger	-9.58485
stid	-9.58486
▁pri	-9.58555
▁spill	-9.58615
▁ledd	-9.58617
blikk	-9.58656
▁italiensk	-9.5875
▁1963	-9.58751
▁øvrig	-9.58751
▁kontakt	-9.58755
▁venn	-9.58755
▁not	-9.58775
▁veg	-9.58785
▁danner	-9.58811
▁oppført	-9.58831
90	-9.58841
▁riksvei	-9.58859
▁militære	-9.58893
6	-9.58972
▁region	-9.58986
våpen	-9.59
▁design	-9.59122
▁skipet	-9.59127
▁leve	-9.59133
60	-9.59268
▁lund	-9.59367
▁vekt	-9.59385
▁prøve	-9.59392
musikk	-9.59467
ål	-9.59515
▁front	-9.59579
è	-9.59601
voks	-9.59617
ban	-9.59637
▁melodi	-9.59645
▁1912	-9.59656
▁1918	-9.59657
▁1940	-9.59663
▁regne	-9.59669
arbeider	-9.59699
▁anne	-9.59708
utstilling	-9.59714
våg	-9.59825
▁imp	-9.59838
▁gutt	-9.5987
▁konkurransen	-9.5991
▁sports	-9.59929
▁nederlandsk	-9.5995
ografi	-9.60014
skapet	-9.60038
▁klart	-9.60049
▁personlig	-9.60054
ringer	-9.60271
95	-9.60341
▁bern	-9.60398
▁strid	-9.60401
trekk	-9.60453
▁rh	-9.60455
▁stiftet	-9.60545
▁musikkalbum	-9.60558
▁1962	-9.60561
stoff	-9.60638
▁400	-9.60658
▁økonomisk	-9.60691
▁hodet	-9.60715
old	-9.60732
▁femte	-9.60733
nivå	-9.60848
virke	-9.60902
▁nevnt	-9.60913
▁stopp	-9.60933
xi	-9.60969
▁sund	-9.61032
kra	-9.61054
▁historien	-9.61142
▁forsker	-9.61221
gra	-9.61244
▁uavhengig	-9.61284
kjær	-9.61301
▁national	-9.61454
▁protest	-9.61464
▁1965	-9.6147
▁2016	-9.61479
▁city	-9.61509
▁tusen	-9.61648
▁hell	-9.61651
ction	-9.61713
elva	-9.61748
app	-9.61779
▁asia	-9.61907
språk	-9.61924
▁amerika	-9.61934
▁klarte	-9.61935
▁transport	-9.61986
94	-9.62051
▁nederland	-9.62066
▁kla	-9.6212
▁dyp	-9.62121
▁rep	-9.62124
▁leg	-9.62195
ink	-9.62318
styre	-9.62337
rør	-9.6236
▁italienske	-9.62372
fest	-9.62494
▁ekteskap	-9.62516
▁stilling	-9.62736
▁marine	-9.62737
38	-9.62755
▁uke	-9.62858
39	-9.62862
▁formel	-9.62938
veg	-9.6306
76	-9.63065
▁klubb	-9.63143
▁grense	-9.63171
sjoner	-9.63207
▁sub	-9.63222
▁klassisk	-9.63298
▁soldater	-9.63313
way	-9.63379
▁ytre	-9.6348
▁bel	-9.6349
fyl	-9.63561
▁us	-9.63598
▁drift	-9.63608
dis	-9.63647
strøm	-9.63687
tus	-9.63748
52	-9.63813
▁hovedstaden	-9.6388
49	-9.63905
vinger	-9.63958
▁por	-9.64142
▁bilde	-9.64223
с	-9.64231
▁1928	-9.64244
▁1936	-9.64244
▁1966	-9.64255
eksjon	-9.64311
▁bygningen	-9.64389
87	-9.64413
stedet	-9.64441
▁oppgave	-9.64479
▁utgave	-9.64575
eres	-9.64587
dra	-9.64643
▁dal	-9.64685
▁begrepet	-9.64719
▁spi	-9.64738
46	-9.64773
▁idretts	-9.64855
ordenen	-9.64859
▁karriere	-9.6488
▁delvis	-9.64912
▁mulighet	-9.64918
▁student	-9.64941
▁tung	-9.64945
▁fyr	-9.64947
▁jens	-9.64949
teri	-9.64966
trådte	-9.64981
▁varme	-9.65002
57	-9.65014
43	-9.65062
▁nærings	-9.6511
▁røde	-9.65143
ben	-9.65176
▁fokus	-9.65178
▁økonomiske	-9.65185
grense	-9.65247
▁mak	-9.65301
▁eiendom	-9.65333
▁retning	-9.6544
▁pass	-9.65467
▁kart	-9.65527
▁artist	-9.65583
▁kat	-9.65614
▁programmet	-9.65626
▁real	-9.6566
▁larvene	-9.65754
är	-9.65788
▁nivå	-9.65834
▁rekord	-9.65867
69	-9.65889
65	-9.65896
▁ungdoms	-9.65929
▁hoff	-9.65949
▁distriktet	-9.65972
▁sju	-9.66051
▁behandling	-9.66112
▁nærmest	-9.66133
▁forteller	-9.66133
klasse	-9.66154
▁fremdeles	-9.66169
▁smal	-9.66182
▁undersøkelse	-9.66234
44	-9.66271
dels	-9.66358
iserte	-9.66441
▁sel	-9.66458
▁program	-9.66481
▁kjøpe	-9.6649
80	-9.66565
hm	-9.66593
▁anlegget	-9.66611
dor	-9.66635
vig	-9.66721
▁dam	-9.66853
▁jakt	-9.66897
▁drama	-9.66917
person	-9.67072
▁1967	-9.67103
▁omfatte	-9.67108
▁2017	-9.67108
▁unntak	-9.67109
▁bakgrunn	-9.67126
▁elv	-9.67129
▁omtalt	-9.67129
ade	-9.67145
▁kontor	-9.6717
▁forsvars	-9.67203
▁prosjekt	-9.67355
▁ansatte	-9.67457
vitenskap	-9.67499
▁die	-9.67529
▁hud	-9.67555
▁senter	-9.6757
▁sovjetisk	-9.67659
▁direktør	-9.67732
▁plassering	-9.67742
▁trekk	-9.6775
fil	-9.67811
68	-9.67829
▁prege	-9.67848
▁rute	-9.67961
▁produksjons	-9.67966
▁enhet	-9.67969
▁provins	-9.68014
▁selvstendig	-9.6806
▁richard	-9.6806
▁1956	-9.68077
▁samfunns	-9.68078
▁harald	-9.68099
▁het	-9.68108
gjøre	-9.68157
▁fjellet	-9.68277
foreningen	-9.6828
▁sur	-9.68313
tic	-9.68327
▁tettsted	-9.68408
▁økonomi	-9.68604
▁etablerte	-9.68654
samisk	-9.68678
▁kil	-9.68711
▁180	-9.68749
side	-9.68823
▁leir	-9.68928
▁time	-9.68941
▁økt	-9.68961
▁ordenen	-9.68969
kapasitet	-9.69041
▁episode	-9.69041
▁forfatteren	-9.69043
▁college	-9.69043
▁1924	-9.69053
▁daglig	-9.69054
▁søster	-9.69092
83	-9.69147
løs	-9.69166
▁skape	-9.69212
stått	-9.69213
▁hevdet	-9.69221
▁finans	-9.69235
▁solgt	-9.69344
▁sent	-9.69429
lov	-9.69435
56	-9.69467
skudd	-9.69482
▁offiser	-9.69484
▁stav	-9.6959
▁havne	-9.69619
feld	-9.6965
62	-9.69674
senteret	-9.69716
▁listen	-9.69767
▁stasjonen	-9.69886
▁betegne	-9.69994
aks	-9.70013
к	-9.7003
▁ytterligere	-9.7003
▁sørvest	-9.70033
rike	-9.70041
▁jazz	-9.70048
▁utført	-9.70055
▁vitenskapelig	-9.70063
▁omfattende	-9.70095
ras	-9.7011
formet	-9.70233
▁brev	-9.70238
▁velge	-9.70255
▁oppdrag	-9.70271
78	-9.70352
▁prisen	-9.70466
▁byer	-9.70488
▁presse	-9.70511
▁materiale	-9.70537
stor	-9.70665
▁total	-9.707
▁eg	-9.70701
72	-9.70741
▁grunnlag	-9.70793
▁bon	-9.70846
▁spesial	-9.70931
rådet	-9.70964
tall	-9.71009
flu	-9.71014
▁nødvendig	-9.7103
▁opprinnelse	-9.7103
▁organisasjonen	-9.71093
▁aktivitet	-9.71097
▁sterke	-9.71108
▁runde	-9.71118
▁kam	-9.71142
▁war	-9.71147
▁rygg	-9.71181
77	-9.71187
▁organisert	-9.71188
verket	-9.71198
ført	-9.7129
lie	-9.71323
ib	-9.71342
bus	-9.71351
gangen	-9.71403
▁teksten	-9.7142
▁anta	-9.71429
▁hed	-9.71433
▁gården	-9.71449
▁spørsmål	-9.71463
▁egypt	-9.71487
fang	-9.71536
▁rollen	-9.71539
vind	-9.71573
cia	-9.71637
▁jorden	-9.71647
gna	-9.71705
▁dyre	-9.71718
nor	-9.71755
▁utover	-9.71868
gården	-9.71892
kammer	-9.7192
gler	-9.71938
▁innflytelse	-9.72035
▁profesjonell	-9.7204
▁lot	-9.72067
▁sammenheng	-9.72093
▁gjelder	-9.7214
▁45	-9.72141
án	-9.72161
▁gjenopp	-9.72168
▁ven	-9.72187
▁beskytte	-9.72226
▁hjelpe	-9.72231
▁ci	-9.72307
▁sjef	-9.72338
fart	-9.72433
rich	-9.72448
▁win	-9.72496
▁sul	-9.72539
▁hit	-9.72552
gata	-9.72564
▁betegnelsen	-9.72568
▁dømt	-9.72579
▁fordelt	-9.72624
haug	-9.72678
▁skille	-9.72717
gy	-9.72817
brun	-9.72819
rev	-9.72827
din	-9.72863
▁oppdag	-9.72915
л	-9.73061
ú	-9.73061
▁alvorlig	-9.73061
▁spesiell	-9.73061
lem	-9.73066
▁bevart	-9.73082
▁holm	-9.73084
▁len	-9.73087
▁nærheten	-9.73122
▁vet	-9.73154
▁metall	-9.73173
▁borg	-9.73285
▁problemer	-9.73348
86	-9.73356
▁områdene	-9.73453
▁kroner	-9.7346
▁toppen	-9.73514
▁irland	-9.73553
▁thor	-9.73618
▁bevis	-9.73629
▁tids	-9.73659
▁teori	-9.73707
▁åpne	-9.73711
▁øke	-9.73739
støt	-9.73748
▁tettstedet	-9.73837
last	-9.73851
▁bytte	-9.73853
▁gla	-9.73869
▁ark	-9.73981
selskapet	-9.73997
▁bane	-9.74025
▁tog	-9.7408
▁tilgjengelig	-9.74092
▁michael	-9.74092
teknikk	-9.74092
▁louis	-9.74092
▁motsetning	-9.74093
▁stortinget	-9.74096
▁gjennomført	-9.74133
▁øyene	-9.74167
▁polen	-9.74173
▁fyrst	-9.74196
▁spre	-9.74327
ano	-9.74349
▁nabo	-9.74433
33	-9.74527
▁løv	-9.74605
kunst	-9.74659
▁nr	-9.747
▁stand	-9.74702
▁dato	-9.74712
▁lau	-9.74727
ova	-9.74756
loven	-9.74774
▁korea	-9.74819
▁ram	-9.74856
▁nils	-9.74973
70	-9.74996
▁alb	-9.75125
▁driver	-9.75127
▁betrakte	-9.75135
▁bokstav	-9.75135
▁tydelig	-9.75135
▁typisk	-9.75136
▁styrt	-9.75144
▁1944	-9.75153
▁1939	-9.75153
▁formål	-9.75158
▁videregående	-9.75163
▁jarl	-9.75168
▁konkurranse	-9.75191
▁domin	-9.75206
▁regel	-9.75242
▁utdannelse	-9.75302
▁spiss	-9.75344
▁rot	-9.75363
▁vik	-9.75406
▁spar	-9.75432
▁filosofi	-9.75528
mund	-9.75541
feltet	-9.75568
▁ji	-9.7566
▁prins	-9.75688
▁georg	-9.75725
▁holder	-9.75841
løsning	-9.75846
løse	-9.75857
42	-9.75947
▁solo	-9.75989
dar	-9.76019
▁sveits	-9.76065
qu	-9.76081
▁kjøre	-9.76129
▁elve	-9.76139
▁univers	-9.76158
▁alternativ	-9.76186
▁norrøn	-9.76189
▁foreldre	-9.76189
ance	-9.76198
▁tele	-9.76201
▁skotsk	-9.76203
▁1942	-9.76204
sam	-9.76307
▁albert	-9.76312
partiet	-9.76362
plasser	-9.76428
vatnet	-9.76435
▁oftest	-9.76458
ming	-9.76493
▁passer	-9.76522
▁utdanning	-9.76679
▁drive	-9.76745
ā	-9.76755
▁shi	-9.76788
stall	-9.76905
▁penge	-9.76906
▁kanal	-9.76907
▁maler	-9.76913
tti	-9.76927
▁offentlige	-9.76992
arbeidet	-9.77044
▁rang	-9.77134
▁lage	-9.77185
▁populær	-9.77199
▁mw	-9.77211
ved	-9.77212
▁innført	-9.77223
▁sluttet	-9.77247
▁fengsel	-9.7725
▁skottland	-9.7725
▁vunnet	-9.7725
gå	-9.77262
▁snart	-9.77283
▁korte	-9.77366
▁huset	-9.77407
▁masse	-9.77462
81	-9.77465
kka	-9.77497
82	-9.77627
pet	-9.77644
▁kilde	-9.77735
▁scene	-9.77736
▁kommet	-9.77754
klubb	-9.77769
program	-9.778
▁off	-9.77904
dekke	-9.77968
▁reform	-9.77992
▁fugle	-9.78021
ias	-9.78038
ativ	-9.78162
parten	-9.782
▁mexico	-9.78325
deles	-9.78333
▁ordfører	-9.78347
▁skilt	-9.78369
15	-9.78387
uf	-9.78402
fat	-9.78407
▁stø	-9.78483
lam	-9.78507
sol	-9.7859
fu	-9.78632
61	-9.78654
▁bj	-9.78761
▁elektrisk	-9.78772
korps	-9.78809
▁arabisk	-9.78811
▁stilt	-9.78839
▁begynner	-9.78848
▁historisk	-9.7888
▁fordel	-9.7894
▁heter	-9.78944
25	-9.79013
aktiv	-9.79047
ansk	-9.79057
▁ok	-9.79127
følgende	-9.79205
▁zh	-9.7922
▁kanon	-9.79311
isten	-9.79383
▁haug	-9.79417
▁lansert	-9.79418
hastighet	-9.79418
▁ridder	-9.7942
fugl	-9.79435
klar	-9.79468
▁benyttes	-9.79471
88	-9.79478
▁bibel	-9.79495
▁ky	-9.79568
elli	-9.79574
▁gass	-9.79589
▁vist	-9.79626
levende	-9.79689
▁dan	-9.79706
▁anna	-9.79737
▁status	-9.79758
▁athen	-9.79764
strekker	-9.7977
wood	-9.79792
▁liga	-9.79832
low	-9.79957
▁tour	-9.79967
▁andreas	-9.79976
rin	-9.80044
industri	-9.80076
▁hor	-9.80083
▁elev	-9.80125
▁folket	-9.8013
åp	-9.8016
▁temperatur	-9.80192
▁kvinnelig	-9.80264
▁fjerne	-9.80309
▁sier	-9.80373
▁dog	-9.80419
▁maskin	-9.80464
▁publikum	-9.80511
▁sjelden	-9.80511
▁united	-9.80512
▁snakke	-9.80522
▁helge	-9.80524
▁1941	-9.80534
▁sendte	-9.80572
blad	-9.80637
▁lars	-9.80731
▁bass	-9.80893
▁cup	-9.80897
▁jean	-9.80913
▁filmer	-9.80925
prisen	-9.80944
qui	-9.80974
dorf	-9.80977
aksjon	-9.80993
▁un	-9.81004
▁led	-9.81023
▁styrkene	-9.8103
jev	-9.81067
▁falt	-9.8108
▁utvidet	-9.81125
▁150	-9.81155
▁dø	-9.81162
▁harry	-9.81176
▁hard	-9.81197
krets	-9.813
▁stammer	-9.81375
▁fylkes	-9.81392
tegn	-9.8142
▁rose	-9.81421
21	-9.81502
▁kreve	-9.81503
▁studio	-9.8162
grav	-9.81621
▁fødsel	-9.81622
▁kritikk	-9.81623
▁hurtig	-9.81623
▁kunnskap	-9.81624
▁tidspunkt	-9.81639
▁kjenne	-9.81685
▁saint	-9.8172
lund	-9.81737
▁larven	-9.81798
trinn	-9.81842
havet	-9.81964
▁oppsto	-9.81975
▁cal	-9.82088
▁opphav	-9.82109
jan	-9.82291
ney	-9.82302
▁selve	-9.82309
▁rå	-9.82325
møte	-9.82349
arm	-9.8245
ij	-9.82453
ctor	-9.8255
▁max	-9.82606
▁bit	-9.82715
▁konflikt	-9.82746
▁royal	-9.82748
▁republikken	-9.82753
medalje	-9.82793
▁politiet	-9.82926
kop	-9.83015
gjort	-9.83084
▁score	-9.83179
▁sette	-9.83271
▁østlig	-9.83332
▁forbi	-9.83341
▁spansk	-9.83387
▁mad	-9.83442
aktig	-9.83451
lønn	-9.83474
prosess	-9.83479
konkurranse	-9.83481
skolen	-9.83493
bladet	-9.83521
▁tonn	-9.83542
▁tha	-9.83572
ati	-9.83583
▁streng	-9.83617
ora	-9.83707
▁ansatt	-9.83724
▁pin	-9.83829
▁debuter	-9.8383
vekt	-9.83859
▁øvre	-9.83883
hjul	-9.83915
▁black	-9.83928
lom	-9.83959
gått	-9.83994
19	-9.84024
win	-9.84086
ektor	-9.84129
▁tema	-9.84171
▁tegnet	-9.84186
▁drev	-9.84193
▁livs	-9.84196
yang	-9.84197
oni	-9.8428
▁cent	-9.84284
▁bygde	-9.8429
con	-9.84314
▁gått	-9.84337
ata	-9.84341
løst	-9.84425
▁løper	-9.84435
▁minutter	-9.84464
slaget	-9.84521
▁turist	-9.84539
▁nekte	-9.84546
plassen	-9.84576
▁valget	-9.84594
▁arve	-9.84597
▁avisen	-9.84617
51	-9.84629
kla	-9.84639
bjørn	-9.84659
distrikt	-9.8466
▁res	-9.84709
pla	-9.84745
kysten	-9.84761
▁johann	-9.84833
▁produsent	-9.84842
▁pra	-9.84871
▁verket	-9.84957
sø	-9.84972
▁hovedstad	-9.84973
в	-9.85022
▁wilhelm	-9.85032
▁jødisk	-9.85032
▁1917	-9.85044
▁1949	-9.85053
rykket	-9.85067
▁foruten	-9.8513
▁sten	-9.85133
▁ce	-9.85148
field	-9.8515
▁feil	-9.85213
▁forskning	-9.85277
▁fabrikk	-9.85295
▁regjerings	-9.85298
▁singel	-9.85325
shi	-9.85359
▁representerer	-9.85391
▁vanlige	-9.85427
▁historiker	-9.85439
▁ris	-9.85484
nam	-9.85535
gard	-9.85566
ain	-9.85579
▁wil	-9.85589
▁sau	-9.85593
▁instrument	-9.85748
18	-9.85824
▁klo	-9.85857
ville	-9.86085
strand	-9.86096
rio	-9.8611
ix	-9.8618
▁league	-9.86194
▁passasjer	-9.86194
▁charles	-9.86195
▁stadion	-9.86197
▁innspilling	-9.862
▁bronsemedalje	-9.86203
▁1938	-9.86216
▁1946	-9.86216
▁normalt	-9.86232
▁effektiv	-9.86252
▁ukjent	-9.86259
▁motiv	-9.86267
▁fal	-9.86288
ado	-9.86296
▁32	-9.86371
▁north	-9.86386
▁star	-9.86537
▁problem	-9.86612
▁flagg	-9.86628
▁lek	-9.86636
well	-9.86661
spor	-9.86685
▁ph	-9.86708
øs	-9.86739
▁jag	-9.86763
▁populære	-9.86777
▁hente	-9.86879
linje	-9.86929
▁indisk	-9.86947
▁press	-9.86956
gon	-9.87134
▁stoff	-9.87171
85	-9.87187
▁kilder	-9.87263
que	-9.87352
▁kost	-9.87361
▁1953	-9.87371
▁bakkropp	-9.87371
▁flertall	-9.87382
▁1951	-9.87389
▁søke	-9.87407
▁jordbruk	-9.87414
▁arne	-9.87479
▁stille	-9.87488
▁åpning	-9.87517
▁sort	-9.87651
▁sport	-9.87656
▁bonde	-9.87694
linjen	-9.87701
▁sønnen	-9.87768
øyene	-9.87845
▁frank	-9.87848
▁salt	-9.87849
mber	-9.87865
ella	-9.87868
▁benytte	-9.88064
skriv	-9.88121
▁bølge	-9.88132
▁høye	-9.88168
▁akademi	-9.88174
hard	-9.88338
13	-9.88392
blomst	-9.88492
språklig	-9.88509
▁koll	-9.88535
▁erkebiskop	-9.88561
▁inspirert	-9.88561
▁kategori	-9.88561
▁praksis	-9.88561
▁regissert	-9.88562
▁fc	-9.88571
▁fredrik	-9.88576
▁1919	-9.8858
▁1961	-9.88581
ér	-9.8873
trop	-9.88757
▁bosatt	-9.88793
avis	-9.88845
▁terr	-9.88871
stripe	-9.88895
▁kull	-9.88966
tun	-9.88999
▁gil	-9.89035
▁studier	-9.89046
16	-9.89049
▁rein	-9.89056
▁involvert	-9.89103
bert	-9.89137
▁kysten	-9.89187
verdig	-9.89202
enberg	-9.89315
▁test	-9.89327
wi	-9.89336
▁rør	-9.89402
medlem	-9.89421
historie	-9.8944
bryte	-9.89498
11	-9.8951
▁yu	-9.89642
▁andreplass	-9.8966
lly	-9.897
▁nan	-9.89749
à	-9.89766
skjold	-9.89768
▁brøt	-9.89769
▁cu	-9.89776
▁1954	-9.89783
lon	-9.89786
▁1943	-9.89789
firma	-9.89841
▁ekstra	-9.89864
▁dekker	-9.89901
pur	-9.90008
▁ask	-9.90038
▁bevegelse	-9.90068
delt	-9.90368
jord	-9.90368
▁salg	-9.90405
foss	-9.90423
▁handel	-9.9048
snitt	-9.90538
▁riket	-9.90556
▁solgte	-9.90624
▁kreft	-9.90679
bøker	-9.90746
▁stamme	-9.90751
▁ya	-9.90832
▁retts	-9.90857
bank	-9.909
▁utvalg	-9.90912
sekretær	-9.90971
forhold	-9.90974
▁administrativ	-9.90986
▁international	-9.90986
▁utgangspunkt	-9.90986
▁beijing	-9.90986
▁medlemmene	-9.90993
▁1959	-9.91001
▁bord	-9.9101
▁erklært	-9.91015
roll	-9.9104
▁overfor	-9.9113
▁våren	-9.91155
▁vannet	-9.91175
▁1500	-9.91202
67	-9.91203
tog	-9.91271
▁aust	-9.91382
▁single	-9.91467
▁strand	-9.91562
▁bakken	-9.9157
serien	-9.91635
▁bol	-9.91696
▁dynastiet	-9.91761
farge	-9.91776
75	-9.91939
▁euro	-9.9206
54	-9.9206
herre	-9.92089
grupper	-9.92127
myndighet	-9.9219
▁records	-9.9222
▁utbredt	-9.9222
▁jacob	-9.92222
▁oversikt	-9.92222
▁nærmere	-9.92226
▁frederik	-9.92226
▁fungere	-9.9223
▁sekund	-9.9223
▁1932	-9.92232
▁1957	-9.92243
▁län	-9.92263
55	-9.9228
▁kristen	-9.92291
▁hersker	-9.92301
sfære	-9.9231
▁ansett	-9.92488
▁rask	-9.92488
▁hill	-9.92557
turnering	-9.92584
▁endelig	-9.92585
▁master	-9.92617
▁metal	-9.92634
▁årsak	-9.92739
▁kjerne	-9.92798
▁overgang	-9.9281
illa	-9.9284
sler	-9.9287
▁odd	-9.92873
kjøp	-9.92931
▁verne	-9.93005
hol	-9.93015
▁nordisk	-9.93023
kro	-9.93165
▁iran	-9.93172
▁hei	-9.93184
samfunn	-9.93206
kamera	-9.93275
▁forretnings	-9.93294
▁banen	-9.93306
alis	-9.93327
▁trener	-9.93375
staten	-9.93379
▁ung	-9.93453
▁california	-9.9347
▁fullstendig	-9.9347
▁kropps	-9.93481
▁video	-9.93482
▁smith	-9.93483
▁ishockey	-9.93498
dam	-9.9351
bein	-9.93518
▁ferd	-9.93519
▁last	-9.9357
fabrikk	-9.93625
▁kongelige	-9.9365
▁bilder	-9.93681
▁middel	-9.93693
▁avhengig	-9.93695
▁1700	-9.93727
▁tverr	-9.93775
▁teknisk	-9.93776
dia	-9.93785
tallet	-9.93823
▁snø	-9.93851
byrå	-9.93866
▁sag	-9.93917
▁trafikk	-9.93936
voll	-9.94118
91	-9.94279
løpet	-9.94306
▁flytte	-9.94348
cha	-9.9438
plate	-9.94396
▁lignende	-9.94397
▁internasjonal	-9.94448
89	-9.94496
▁spise	-9.94585
▁gitar	-9.94646
▁tilknyttet	-9.94736
▁østerriksk	-9.94736
▁arrangere	-9.94736
▁school	-9.94736
▁hustru	-9.94738
▁riktig	-9.94741
▁spredt	-9.9475
kil	-9.94754
▁turneringen	-9.94782
enhet	-9.9479
▁landskapet	-9.94833
▁ledende	-9.94852
▁overført	-9.94868
▁unn	-9.9492
dyktig	-9.9493
▁polsk	-9.9498
▁støttet	-9.94988
sport	-9.9504
▁lev	-9.95042
▁kommunikasjon	-9.95065
▁iso	-9.95084
▁vid	-9.95089
27	-9.95144
hode	-9.95174
ledning	-9.95177
bach	-9.95222
▁former	-9.95288
▁forsknings	-9.95289
▁cho	-9.95306
gaard	-9.95339
ios	-9.95365
▁teknologi	-9.95366
▁bidra	-9.95398
98	-9.9544
forestilling	-9.95476
79	-9.95525
▁offisiel	-9.95617
▁hage	-9.95618
▁sist	-9.95689
▁innsjø	-9.95714
utvikling	-9.95769
▁75	-9.95782
09	-9.95793
gress	-9.95804
▁tittel	-9.95813
▁forsvaret	-9.95858
kommune	-9.95889
▁vokal	-9.95893
58	-9.95965
▁hunnen	-9.96011
▁behov	-9.96023
▁markeds	-9.96023
forvaltning	-9.96031
▁1935	-9.96033
▁1925	-9.96039
▁primær	-9.96042
▁blue	-9.96052
▁jevn	-9.96063
eksamen	-9.96111
▁inkluderer	-9.96129
▁vå	-9.96171
▁bygg	-9.96171
pan	-9.96185
wan	-9.96228
▁gold	-9.96238
▁che	-9.96307
▁besto	-9.9632
▁vær	-9.96333
ence	-9.96358
ernes	-9.96358
▁tj	-9.9636
▁rund	-9.96373
▁kall	-9.96377
org	-9.96458
▁king	-9.96521
▁beskrevet	-9.96589
ahl	-9.96661
handlinger	-9.96754
▁uker	-9.96795
dannelse	-9.96844
▁nev	-9.96844
▁struktur	-9.9692
ull	-9.96956
36	-9.97047
hånd	-9.97087
forbindelse	-9.97087
▁måned	-9.97148
▁kh	-9.97164
▁verker	-9.97204
▁ansvar	-9.97285
▁1908	-9.97317
▁friidrett	-9.97317
▁installert	-9.97317
▁edvard	-9.97317
▁yngre	-9.97317
▁folketelling	-9.97318
▁anerkjent	-9.97318
▁faktisk	-9.97322
▁1914	-9.97326
▁lufthavn	-9.97329
▁hemmelig	-9.97331
▁scott	-9.97344
▁systemet	-9.97412
▁1000	-9.97442
▁undervisning	-9.97482
bia	-9.9756
▁forekommer	-9.97578
ball	-9.97638
▁maur	-9.97696
▁dør	-9.9776
▁junior	-9.97794
▁tale	-9.97877
▁festival	-9.97932
ith	-9.9812
▁fylket	-9.9823
▁formann	-9.98243
▁base	-9.98265
kjent	-9.9841
▁bestemme	-9.98413
▁penger	-9.98522
▁bombe	-9.9854
▁ube	-9.98551
▁virkelig	-9.98555
▁synes	-9.98563
▁middelalderen	-9.98582
▁zo	-9.98621
▁registrert	-9.98633
▁alexander	-9.98633
▁allierte	-9.98633
▁enda	-9.98634
▁luther	-9.98637
▁1929	-9.98648
▁1955	-9.98651
▁mikro	-9.98666
▁meg	-9.98757
▁olsen	-9.98801
▁likhet	-9.98809
▁presidenten	-9.98886
lang	-9.98952
▁bou	-9.98969
▁brenn	-9.99013
▁internasjonalt	-9.99036
ada	-9.99067
soldat	-9.991
▁spillet	-9.99146
▁tå	-9.99162
zz	-9.99217
festivalen	-9.99218
▁sli	-9.99262
▁gruppa	-9.99309
▁bydel	-9.99329
▁kontrakt	-9.9933
▁prosess	-9.99377
▁mary	-9.99385
▁gor	-9.99408
▁bla	-9.99485
onym	-9.99604
▁produksjonen	-9.9962
12	-9.99709
virksomhet	-9.99769
▁kjøl	-9.99797
▁din	-9.99801
rick	-9.99847
▁skiller	-9.99853
kirke	-9.99886
▁song	-9.9993
▁beseiret	-9.99966
▁joseph	-9.99966
▁generelt	-9.99966
▁major	-9.99967
▁oscar	-9.99982
▁dokumenter	-9.99996
▁glo	-10
▁hovedsak	-10.0002
type	-10.0003
▁veldig	-10.0004
riket	-10.0008
▁mobil	-10.001
▁vinne	-10.0022
▁nes	-10.0022
post	-10.0024
▁gjeste	-10.0024
▁tradisjon	-10.0027
▁uni	-10.0028
▁magne	-10.0038
▁nordland	-10.0038
▁arn	-10.004
▁universitets	-10.0044
▁geo	-10.0045
▁parlamentet	-10.0046
24	-10.0048
▁fullført	-10.0049
▁sykehus	-10.0057
▁avsluttet	-10.0068
▁vitenskap	-10.007
▁skriver	-10.0073
▁studenter	-10.0075
▁oversatt	-10.0077
▁levert	-10.0078
kjenn	-10.0079
▁lø	-10.0081
06	-10.0082
▁800	-10.0095
▁fantes	-10.0103
klubben	-10.0107
forfatter	-10.0113
vakt	-10.0119
▁inne	-10.012
▁gjeld	-10.0123
▁tromsø	-10.0126
▁kommuner	-10.0126
▁kapit	-10.013
▁moskva	-10.0132
▁bidro	-10.0132
▁dialekt	-10.0132
▁fattig	-10.0132
▁sølvmedalje	-10.0133
▁tolv	-10.0133
▁roll	-10.0135
▁bekrefte	-10.0136
høgskole	-10.0137
oth	-10.0137
▁nedlagt	-10.014
▁islam	-10.0142
▁versjonen	-10.0148
▁henry	-10.0153
▁sim	-10.0156
▁mottatt	-10.0158
bevegelsen	-10.0166
▁vä	-10.0168
▁trekke	-10.0169
skift	-10.0178
▁nedre	-10.0179
71	-10.0181
▁kommunene	-10.0181
▁angrepet	-10.0183
28	-10.0187
styret	-10.0192
▁innsjøen	-10.0192
komst	-10.0192
på	-10.0202
59	-10.0212
▁stig	-10.0225
ifisert	-10.0225
pass	-10.0226
listen	-10.0232
gate	-10.0235
▁cell	-10.0241
ish	-10.0247
ledd	-10.0249
bånd	-10.0254
▁1905	-10.0269
▁ludvig	-10.0269
▁kaptein	-10.0269
▁ungarn	-10.0269
▁innsats	-10.0269
▁bosetning	-10.0269
▁kari	-10.0272
▁debatt	-10.0273
▁tidlige	-10.0273
▁angeles	-10.0281
▁py	-10.0283
ito	-10.0283
dri	-10.0301
▁aller	-10.0302
▁stå	-10.0306
▁otto	-10.0311
kveld	-10.0313
▁gy	-10.0315
▁produsere	-10.0318
▁erobret	-10.0337
▁kampene	-10.0338
former	-10.0349
kirken	-10.035
99	-10.0353
syre	-10.0357
45	-10.0358
▁villa	-10.0368
▁steve	-10.0368
▁bibliotek	-10.037
mod	-10.037
▁nasjon	-10.0371
▁salme	-10.0375
mur	-10.0376
▁endringer	-10.0379
▁landsby	-10.0382
trafikk	-10.0393
skij	-10.0394
▁up	-10.0395
▁south	-10.0395
▁hevde	-10.0396
▁mini	-10.04
krig	-10.0406
▁etterfulgt	-10.0408
▁objekt	-10.0408
▁dollar	-10.0408
▁redusert	-10.0408
▁kjønn	-10.0408
▁alpin	-10.0409
▁1947	-10.041
▁gun	-10.0415
▁reaksjon	-10.0416
▁romersk	-10.0422
▁strekning	-10.0422
▁sammenlagt	-10.0422
▁stab	-10.0424
komiteen	-10.0425
bakk	-10.0425
▁planter	-10.0435
▁vers	-10.0437
▁tilpasse	-10.0445
can	-10.0457
▁viking	-10.0465
vand	-10.047
▁landsbyen	-10.0472
▁sikkerhets	-10.0477
liste	-10.0477
▁sw	-10.0478
▁spanske	-10.0483
▁mørke	-10.0493
▁omtale	-10.0494
▁sykdom	-10.0512
▁begrep	-10.0512
▁fløy	-10.0515
▁kata	-10.0521
istene	-10.0525
▁cd	-10.0537
▁skyld	-10.0537
▁antagelig	-10.0548
▁nominert	-10.0548
▁nedbør	-10.0549
▁tegneserie	-10.0549
▁1933	-10.0551
▁old	-10.0554
▁anledning	-10.0556
istan	-10.0557
ima	-10.0562
ity	-10.0562
▁sivil	-10.0565
84	-10.0567
▁aksje	-10.057
▁vakt	-10.057
▁uavhengighet	-10.0575
▁will	-10.0585
▁gyl	-10.0585
ligste	-10.0589
▁havn	-10.059
▁kapell	-10.0593
legging	-10.0594
▁straffe	-10.0596
ngel	-10.0602
▁møter	-10.0606
▁tang	-10.061
▁tunnel	-10.0622
plikt	-10.0636
▁plasser	-10.0637
97	-10.0639
rsdag	-10.0644
ische	-10.0652
▁foss	-10.0664
▁nø	-10.0669
ona	-10.0673
▁mid	-10.0677
orden	-10.0682
situasjon	-10.0691
▁county	-10.0691
▁deriblant	-10.0691
▁drammen	-10.0691
▁magnus	-10.0692
▁hovedrollen	-10.0692
▁premier	-10.0692
▁nasjonalpark	-10.0694
▁vokser	-10.0695
▁1910	-10.0695
▁saken	-10.0696
▁butikk	-10.0699
▁oppnå	-10.0699
flåte	-10.0703
▁stortings	-10.0703
▁stabil	-10.0704
▁agder	-10.0708
skipet	-10.0709
familie	-10.0712
▁nm	-10.0715
▁antatt	-10.0719
▁fjern	-10.072
▁mørk	-10.0721
▁grunnlegge	-10.0721
ili	-10.0731
▁human	-10.0732
▁dor	-10.0739
▁storm	-10.0742
▁troll	-10.0743
▁wien	-10.0746
▁tekster	-10.0752
kanten	-10.0754
▁camp	-10.0757
▁innhold	-10.0759
inntekt	-10.0766
▁revolusjon	-10.0766
▁kloster	-10.0767
▁bispedømme	-10.0772
▁stål	-10.0784
▁cur	-10.0785
▁hode	-10.0787
▁lån	-10.0799
▁600	-10.0813
▁kg	-10.0823
▁gruve	-10.0825
kov	-10.0834
▁sko	-10.0835
▁tradisjonel	-10.0835
▁tilhørte	-10.0836
▁fjær	-10.0836
▁cirka	-10.0836
▁bære	-10.0837
▁linjen	-10.0837
▁1937	-10.0839
▁lengst	-10.084
bru	-10.084
▁jule	-10.0845
▁hydro	-10.0847
▁stillingen	-10.0849
▁levde	-10.0859
steder	-10.0861
▁fon	-10.0864
▁bryst	-10.087
▁institutt	-10.0872
▁praktisk	-10.0878
wald	-10.0885
▁niels	-10.0898
▁språket	-10.0898
▁halvdel	-10.0906
▁marc	-10.091
▁opphold	-10.0915
▁dobbelt	-10.0915
▁elever	-10.0918
vikler	-10.0921
▁bygger	-10.0927
▁makten	-10.0935
▁samfunn	-10.0941
strid	-10.0945
▁kapp	-10.0949
▁tone	-10.0951
▁hellige	-10.0956
ois	-10.0959
än	-10.0962
maleri	-10.0968
prosjekt	-10.0978
modell	-10.0979
▁introdusert	-10.0983
▁ødelagt	-10.0983
▁radikal	-10.0983
▁sistnevnte	-10.0983
▁dommer	-10.0983
▁frykt	-10.0983
▁litterær	-10.0983
▁konstant	-10.0984
▁begrenset	-10.0984
▁1926	-10.0985
mesterskapet	-10.0985
▁godkjent	-10.0985
▁1921	-10.0986
▁blomster	-10.0986
blokk	-10.0987
▁nevnes	-10.0989
kampen	-10.0992
▁mynt	-10.0996
▁slave	-10.0998
▁markert	-10.1
▁føde	-10.1
anser	-10.1007
▁skjær	-10.101
▁simon	-10.1016
▁vendt	-10.1019
rop	-10.1031
▁frø	-10.1032
▁peder	-10.1033
▁kandidat	-10.1038
▁myr	-10.1038
møll	-10.1039
bukta	-10.1041
iseringen	-10.1044
ugh	-10.1045
▁administrasjons	-10.1046
▁nettverk	-10.1052
vinner	-10.1054
▁samfunnet	-10.1058
car	-10.1084
▁anlegg	-10.1093
▁skapte	-10.1107
▁statlig	-10.1114
▁sivile	-10.1115
▁wei	-10.1121
▁gram	-10.1126
miljø	-10.1129
▁jobb	-10.1132
▁astronom	-10.1133
▁konkurrere	-10.1133
▁okkupasjon	-10.1133
▁orkester	-10.1133
▁positiv	-10.1133
▁gustav	-10.1133
▁befinne	-10.1134
▁wu	-10.1139
▁glass	-10.1145
sending	-10.1169
▁gall	-10.1169
▁oversettelse	-10.1176
bildet	-10.1176
▁tråd	-10.1178
▁skapt	-10.1184
▁utstyr	-10.1185
▁vekk	-10.1191
hild	-10.1208
▁bunn	-10.1212
▁cro	-10.1247
mba	-10.1252
vold	-10.1254
▁vekst	-10.1264
tårn	-10.1265
▁hannen	-10.1267
ical	-10.1273
▁ankom	-10.1273
▁1904	-10.1284
▁initiativ	-10.1284
▁vietnam	-10.1284
▁beregne	-10.1284
▁referere	-10.1284
▁skarp	-10.1286
▁east	-10.1287
▁nyere	-10.1288
havn	-10.129
hjem	-10.1292
kanalen	-10.1292
trukket	-10.1293
▁tilhenger	-10.1294
motor	-10.1302
runde	-10.1303
▁kulturell	-10.1307
▁utøver	-10.131
▁økte	-10.1317
metode	-10.1324
ón	-10.1324
▁bredde	-10.1332
35	-10.1334
ndt	-10.134
▁hon	-10.1351
ico	-10.1352
▁gard	-10.1353
▁rapport	-10.1358
▁verdenscupen	-10.1359
▁vert	-10.1363
▁behandle	-10.1365
▁sider	-10.1369
▁finn	-10.137
29	-10.1389
▁may	-10.1397
sfjorden	-10.1419
▁sum	-10.1424
▁venner	-10.1424
▁buss	-10.1427
▁motstander	-10.1437
▁alkohol	-10.1438
▁kombinert	-10.1438
historisk	-10.1439
▁1934	-10.144
▁håndball	-10.144
kultur	-10.144
angrep	-10.144
▁ekspedisjonen	-10.1443
▁handle	-10.1444
▁hitler	-10.1446
▁tilbud	-10.1448
▁tempel	-10.1449
▁høst	-10.1452
▁mah	-10.1452
▁debut	-10.1455
▁timer	-10.1456
▁sankt	-10.1463
▁skul	-10.1469
serie	-10.1474
▁fotballklubb	-10.1475
▁lavere	-10.1478
▁styret	-10.1484
▁kvalitet	-10.149
▁sete	-10.1491
▁utføre	-10.1505
▁varierer	-10.1515
▁zu	-10.1536
▁drevet	-10.1538
96	-10.1545
▁kvar	-10.1548
▁modellen	-10.1549
rommet	-10.1554
▁grø	-10.1556
▁typen	-10.1561
gul	-10.1572
▁cand	-10.1579
▁lyn	-10.1587
▁alf	-10.159
▁sportsutøver	-10.1594
▁artikkel	-10.1594
▁eventyr	-10.1594
▁krevde	-10.1594
▁belgia	-10.1594
▁mytologi	-10.1594
▁terreng	-10.1595
▁dikter	-10.1595
▁1922	-10.1595
▁franc	-10.1597
kontor	-10.1601
▁eksistere	-10.1603
▁armé	-10.1605
litt	-10.161
▁bånd	-10.1611
▁oppløst	-10.1617
mond	-10.1617
▁underlagt	-10.1632
▁insekter	-10.1636
lak	-10.1639
▁æres	-10.1642
34	-10.1647
▁cam	-10.1654
▁hammer	-10.1663
▁dyrke	-10.1663
▁horn	-10.1665
▁vegg	-10.1668
▁stol	-10.1669
lære	-10.1669
▁flyet	-10.1684
▁170	-10.1687
▁34	-10.1697
iko	-10.17
bakken	-10.1702
▁normal	-10.1725
▁kai	-10.1726
▁friedrich	-10.1753
▁tilknytning	-10.1753
▁vulkan	-10.1753
▁digital	-10.1753
▁eksistert	-10.1753
▁himmel	-10.1754
▁etterfølger	-10.1755
▁signert	-10.1755
▁sverd	-10.1757
▁skaffe	-10.1758
verdi	-10.1759
tittel	-10.1762
▁stri	-10.1762
▁atom	-10.1763
▁resultatet	-10.1767
31	-10.1767
kommisjon	-10.1767
▁dekket	-10.177
▁deltatt	-10.1778
▁bio	-10.1779
celle	-10.1779
▁bærer	-10.1783
▁buk	-10.1784
ordning	-10.1793
rup	-10.1796
stemt	-10.18
▁idrettslag	-10.1807
▁evne	-10.1808
▁cre	-10.1813
▁kode	-10.182
▁svar	-10.1835
▁iv	-10.1838
▁øre	-10.1848
▁music	-10.1852
house	-10.1854
▁ungdom	-10.1854
▁term	-10.1873
▁fartøy	-10.1879
▁run	-10.1881
dø	-10.1882
▁interesser	-10.1884
▁ønsker	-10.1885
somme	-10.1885
▁grunnlegger	-10.189
zy	-10.1891
komedie	-10.1893
▁avtalen	-10.19
▁dalen	-10.1906
demokra	-10.1906
ekspedisjon	-10.1909
bær	-10.1909
▁eksempler	-10.1914
▁pakistan	-10.1914
▁ødelegge	-10.1914
▁preussen	-10.1914
▁utnytte	-10.1915
▁generasjon	-10.1915
▁hotell	-10.1916
▁1927	-10.1916
▁1911	-10.1917
▁kok	-10.1917
▁loven	-10.1917
▁high	-10.1918
▁arkeolog	-10.1918
▁eksport	-10.1919
▁formula	-10.1921
kjøretøy	-10.1923
maskin	-10.1924
slått	-10.1925
▁250	-10.1926
▁frihet	-10.1927
▁starten	-10.1934
▁gitarist	-10.1938
rekke	-10.1942
▁funn	-10.1943
▁bidrag	-10.1945
▁sørover	-10.1953
▁torg	-10.1962
verv	-10.1964
▁unna	-10.1976
▁romanen	-10.198
▁grunnla	-10.1983
▁sco	-10.1997
▁stemmer	-10.2
▁egyptisk	-10.2003
▁larve	-10.2012
▁andel	-10.2019
23	-10.2021
▁kalk	-10.2022
▁eli	-10.2025
93	-10.2029
▁utsatt	-10.2031
17	-10.2033
▁green	-10.2033
eppe	-10.2039
▁administrasjon	-10.2046
▁bay	-10.2046
ntin	-10.2047
▁cra	-10.2047
▁elite	-10.2053
slav	-10.2053
▁ansvarlig	-10.2056
uff	-10.2062
▁poly	-10.2062
kortet	-10.2067
▁museet	-10.2068
institusjon	-10.2076
▁forble	-10.2077
▁edderkopp	-10.2078
▁oppmerksomhet	-10.2078
▁akershus	-10.2078
▁hendelser	-10.2078
▁uttalte	-10.2078
▁fjernsyn	-10.2079
▁finnmark	-10.208
▁1906	-10.208
▁invest	-10.2081
faktor	-10.2082
▁terror	-10.2087
▁prix	-10.209
▁feire	-10.2091
▁show	-10.2092
▁kyr	-10.2093
makt	-10.2095
▁kommunal	-10.2101
▁fjord	-10.2105
▁eksemplarer	-10.2107
▁adam	-10.2114
blanding	-10.2118
▁kino	-10.2119
øm	-10.2125
øvelse	-10.2127
▁imot	-10.2135
▁borgerkrig	-10.2138
▁klassen	-10.214
▁fritt	-10.2143
▁bredt	-10.2147
▁skinn	-10.2152
▁tilfelle	-10.2156
cup	-10.2165
områdene	-10.2168
▁populært	-10.2169
▁paus	-10.2171
tekst	-10.2184
setting	-10.2188
▁tyr	-10.2192
▁trær	-10.2203
dommer	-10.2206
▁søkt	-10.221
datert	-10.2211
▁khan	-10.223
▁free	-10.2231
norsk	-10.2235
fortelling	-10.2236
▁eksperiment	-10.2245
▁foregår	-10.2245
▁uvanlig	-10.2245
▁mongol	-10.2245
▁multi	-10.2246
▁myndighetene	-10.2246
fjellet	-10.2246
▁operatør	-10.2247
▁beg	-10.2251
ulf	-10.2252
▁portrett	-10.2255
renn	-10.2257
▁tørr	-10.2257
produkt	-10.2258
▁forvingen	-10.2258
▁phil	-10.2261
museet	-10.2263
▁vokalist	-10.2266
▁ære	-10.2274
▁fortalt	-10.2293
▁qui	-10.2295
▁rulle	-10.2297
▁kjell	-10.2302
▁ferge	-10.2303
▁kritiker	-10.2307
ön	-10.2317
▁ånd	-10.232
▁mill	-10.2324
onne	-10.2325
konsern	-10.2325
yan	-10.2327
dommen	-10.2337
▁utstyrt	-10.2348
▁gjennomsnitt	-10.2358
sider	-10.2366
▁parken	-10.237
▁selge	-10.2375
▁frakte	-10.2383
▁hellig	-10.2393
kasse	-10.2401
▁münchen	-10.2414
▁vingespenn	-10.2414
▁fungerte	-10.2414
▁kombinasjon	-10.2414
▁søndag	-10.2414
▁geografisk	-10.2414
▁stiftelse	-10.2414
▁ekstrem	-10.2414
▁temp	-10.2415
▁inngår	-10.2415
▁romsdal	-10.2416
▁anklage	-10.2416
▁intern	-10.2417
▁antyde	-10.2417
dikt	-10.2418
▁planlagt	-10.2419
▁award	-10.2426
▁mangler	-10.2431
▁just	-10.2433
gli	-10.2434
avdeling	-10.244
visning	-10.2448
26	-10.2448
▁morgen	-10.246
▁mannskap	-10.2461
▁verd	-10.2461
▁liberal	-10.2472
hev	-10.2475
▁prinsipp	-10.2476
▁36	-10.2479
▁disk	-10.2482
▁sagt	-10.2484
▁sja	-10.2489
periode	-10.2494
▁berømte	-10.2502
phi	-10.2516
▁120	-10.2518
▁unngå	-10.2523
▁prosjektet	-10.2546
▁gö	-10.255
▁tropper	-10.2554
▁oppnådde	-10.2578
cal	-10.2579
▁histo	-10.2582
▁1907	-10.2587
▁svalbard	-10.2587
▁kjærlighet	-10.2587
▁kommando	-10.2587
konferanse	-10.2587
▁sjette	-10.2587
▁oppfatte	-10.2588
▁beholdt	-10.2588
▁innebære	-10.2588
▁power	-10.2588
▁1913	-10.2589
▁monark	-10.259
▁barna	-10.259
▁dvs	-10.2592
▁hardt	-10.2594
strek	-10.2596
▁hellas	-10.26
kilden	-10.2602
plattform	-10.2603
▁team	-10.2607
▁metro	-10.2611
▁tvang	-10.2618
▁tyskerne	-10.2625
▁tsj	-10.2636
økende	-10.2637
▁wales	-10.264
▁bull	-10.265
▁samarbeidet	-10.265
▁larsen	-10.2654
92	-10.2662
▁grunnlov	-10.2664
▁katolsk	-10.2665
▁hum	-10.2667
▁fulgt	-10.267
▁rester	-10.268
▁polar	-10.2684
▁inge	-10.2684
▁skudd	-10.2685
▁hil	-10.2689
▁epi	-10.2701
▁leie	-10.2736
▁neu	-10.2739
mmel	-10.2747
▁kommunist	-10.2748
▁akseptert	-10.2762
▁utgjorde	-10.2762
mønster	-10.2762
▁kvalifisering	-10.2762
▁jakob	-10.2762
▁forårsake	-10.2762
▁separat	-10.2762
▁sachsen	-10.2762
▁allianse	-10.2763
aceae	-10.2764
▁dj	-10.2767
▁utenlandske	-10.2768
kommende	-10.2769
▁humor	-10.2776
bak	-10.2784
front	-10.2787
▁regional	-10.2836
▁rob	-10.2843
hv	-10.2844
tunnelen	-10.2849
roman	-10.2849
ward	-10.2856
▁tilfeller	-10.2858
▁syl	-10.2859
▁ansvaret	-10.2862
fred	-10.2864
▁musikalsk	-10.2864
▁aur	-10.2869
▁avtale	-10.2879
▁fotograf	-10.2882
▁festning	-10.2893
ington	-10.2906
makten	-10.2907
▁sara	-10.2914
vald	-10.2918
▁sikker	-10.293
▁verdensmester	-10.2938
▁aleksander	-10.2941
▁byprefekture	-10.2941
frekvens	-10.2941
▁studioalbum	-10.2941
▁analyse	-10.2941
▁frivillig	-10.2943
▁1931	-10.2943
▁internett	-10.2945
▁angripe	-10.2945
▁etablere	-10.2946
halvøya	-10.2952
▁spenning	-10.2953
▁sunn	-10.2971
▁saga	-10.2972
måte	-10.2973
▁tun	-10.2979
▁forbundet	-10.2988
▁slett	-10.2989
høyde	-10.299
▁rand	-10.2993
▁ost	-10.3007
meter	-10.3013
▁medisin	-10.3015
bal	-10.3024
▁ingeniør	-10.3027
▁fortsetter	-10.303
▁hamar	-10.3031
▁fortsette	-10.3035
▁tho	-10.3041
▁sikkerhet	-10.3047
magasin	-10.3052
filosof	-10.3054
▁helst	-10.3068
▁prosessen	-10.3085
start	-10.3085
73	-10.3095
▁hve	-10.3104
jö	-10.3107
▁innlede	-10.3108
▁kristian	-10.3114
▁institut	-10.3114
▁damp	-10.3115
▁55	-10.3122
belteasteroide	-10.3123
▁engasjert	-10.3123
▁lillehammer	-10.3123
▁håkon	-10.3123
▁respekt	-10.3123
▁arthur	-10.3123
▁doktorgrad	-10.3123
▁flyktet	-10.3123
▁1909	-10.3125
▁hensyn	-10.3127
▁organisasjoner	-10.3131
onia	-10.3131
▁bydelen	-10.3133
▁mess	-10.3138
▁cupen	-10.314
▁vente	-10.3143
livet	-10.3146
▁romerne	-10.3148
▁kommun	-10.3148
▁fyll	-10.3148
produsent	-10.3153
hjelp	-10.3153
▁østover	-10.3154
▁nasjoner	-10.3161
▁river	-10.3172
▁statue	-10.3177
speil	-10.3183
▁redde	-10.3183
avtale	-10.3189
▁mesterskapet	-10.319
▁vedtatt	-10.3193
▁alv	-10.3198
▁tropp	-10.3198
aria	-10.3209
▁sva	-10.3216
▁begynne	-10.3216
▁kortere	-10.3218
▁skyte	-10.3228
masse	-10.323
regning	-10.3246
▁snu	-10.3248
lé	-10.326
▁menneskelig	-10.3266
▁kim	-10.328
▁kvinnen	-10.328
▁sær	-10.3292
▁bevege	-10.3299
ordnet	-10.3306
▁hovedkvarter	-10.3308
▁victoria	-10.3308
▁hensikt	-10.3308
▁nikola	-10.3308
▁grønland	-10.3308
▁avdøde	-10.3308
fysikk	-10.3308
▁1923	-10.331
▁club	-10.3312
▁boka	-10.3312
leie	-10.3313
▁beslutte	-10.3313
kompani	-10.3315
▁etasje	-10.3316
▁reserve	-10.3316
▁bygninger	-10.3317
▁grov	-10.3319
▁1200	-10.3331
▁petter	-10.3334
album	-10.3339
forsvar	-10.3343
▁tradisjonen	-10.3352
nummer	-10.3356
▁intens	-10.3357
▁nød	-10.336
vika	-10.3362
basert	-10.3366
trekning	-10.3374
▁luc	-10.3389
▁muligheten	-10.3389
ān	-10.3395
▁bevegelsen	-10.3421
hem	-10.3428
▁kara	-10.3433
▁båten	-10.3445
▁endring	-10.3447
▁uro	-10.3465
grensen	-10.3468
▁ross	-10.3479
32	-10.3486
formede	-10.3486
▁mono	-10.3492
▁barcelona	-10.3496
▁forhindre	-10.3496
▁portugal	-10.3496
▁evangeli	-10.3496
▁kristiansand	-10.3496
▁landkreis	-10.3496
▁invasjon	-10.3497
▁debutalbum	-10.3497
▁flyplassen	-10.3497
kjørt	-10.3498
▁manager	-10.3498
▁parallel	-10.3498
sundet	-10.3505
▁vannkraftverk	-10.3506
▁forandre	-10.3509
▁jorda	-10.3511
▁begrave	-10.3514
▁statsråd	-10.3521
▁arrangement	-10.3534
▁europe	-10.3539
▁oppstår	-10.3539
▁kommunestyre	-10.3541
▁kommunistisk	-10.3541
▁betale	-10.3545
▁seire	-10.3553
▁semifinalen	-10.3561
polis	-10.3568
▁esp	-10.359
▁klosteret	-10.3593
skild	-10.3598
▁etnisk	-10.3614
▁beskrev	-10.3615
▁produserer	-10.362
▁festningen	-10.3629
▁stam	-10.3629
▁avvist	-10.3634
▁hov	-10.3656
▁carol	-10.3658
awa	-10.3666
▁halvpart	-10.3678
▁ull	-10.3679
brua	-10.3684
▁ulv	-10.3688
▁australsk	-10.3689
▁tønsberg	-10.3689
▁1903	-10.3689
▁færøyene	-10.3689
▁middelsstor	-10.3689
▁svømme	-10.3689
seremoni	-10.3689
veksling	-10.3689
▁lyktes	-10.3689
▁fysisk	-10.3689
▁utmerkelse	-10.3689
▁wolf	-10.369
▁bayern	-10.369
ов	-10.369
væske	-10.369
▁jobber	-10.3691
▁flåten	-10.3691
▁white	-10.3691
▁1916	-10.3692
▁påvirket	-10.3692
▁medaljer	-10.3692
▁1915	-10.3692
▁myndigheter	-10.3692
▁brand	-10.3694
▁drikke	-10.3695
▁bodø	-10.3696
▁programmer	-10.3697
▁forbudt	-10.3697
▁palm	-10.3705
▁fett	-10.3706
▁enorm	-10.3716
▁jack	-10.3722
▁pap	-10.3743
▁molde	-10.3749
▁nordover	-10.3751
▁opplag	-10.3754
▁karakteristisk	-10.3761
com	-10.3769
gram	-10.3775
▁motsatt	-10.3779
▁flekker	-10.3782
tårnet	-10.3783
▁ordre	-10.3783
▁variere	-10.3787
▁flyplass	-10.3797
▁vg	-10.3806
▁nak	-10.3833
▁kap	-10.3839
▁utgaven	-10.3848
▁ekte	-10.3857
▁karrieren	-10.3858
▁latinsk	-10.3861
▁meta	-10.3861
▁sikte	-10.3866
▁700	-10.3873
ifiser	-10.3879
▁elisabeth	-10.3885
▁vilhelm	-10.3885
▁regissør	-10.3885
▁texas	-10.3885
▁rogaland	-10.3885
▁kongedømmet	-10.3885
▁hjerne	-10.3885
▁presentert	-10.3885
stråling	-10.3885
ström	-10.3885
▁tyrkisk	-10.3885
▁definert	-10.3885
▁signal	-10.3886
▁utgivelsen	-10.3886
▁firmaet	-10.3887
▁generell	-10.3888
▁situasjonen	-10.3888
▁1400	-10.3891
▁michel	-10.3891
▁arkeologisk	-10.3892
▁arrestert	-10.3893
▁håp	-10.3894
▁middelalder	-10.3894
▁beskyttelse	-10.3897
▁fortellingen	-10.3898
bestod	-10.3901
▁tredjeplass	-10.3906
▁prim	-10.3907
▁vindu	-10.3908
▁deltaker	-10.3908
skrevet	-10.3918
lipp	-10.3919
handel	-10.3923
▁uttale	-10.3941
behandling	-10.3949
▁tell	-10.3968
▁orient	-10.3983
▁long	-10.3992
▁satse	-10.3995
▁parlament	-10.4011
▁modern	-10.4022
▁bob	-10.4023
▁fru	-10.4025
▁ferr	-10.4039
▁big	-10.4059
lærer	-10.4067
hed	-10.4069
▁1902	-10.4085
▁fakultet	-10.4085
▁guvernør	-10.4085
▁innlemmet	-10.4085
▁jerusalem	-10.4085
▁portugisisk	-10.4085
admiral	-10.4085
▁kommersiell	-10.4085
▁ungarsk	-10.4085
▁utseende	-10.4085
▁kopier	-10.4086
▁definere	-10.4087
▁møre	-10.4087
kjel	-10.4088
▁spring	-10.4088
▁sykkel	-10.4091
▁alfred	-10.4092
▁lokalisert	-10.4094
▁betegnelse	-10.4095
▁nederlag	-10.4095
▁troms	-10.4099
▁1899	-10.4101
▁gjenstand	-10.4111
▁arena	-10.4111
▁dukket	-10.4116
politikk	-10.4116
duk	-10.4126
▁vanligst	-10.4127
▁skrå	-10.4128
spinner	-10.4134
regjering	-10.4134
▁lykke	-10.414
typen	-10.4141
▁papir	-10.4154
fartøy	-10.416
▁konstruksjon	-10.4182
melding	-10.4189
rock	-10.419
▁overflate	-10.4214
▁jim	-10.4226
▁ulik	-10.4246
▁angl	-10.4249
elv	-10.4256
▁slu	-10.4271
dratt	-10.4282
▁amsterdam	-10.4289
▁brødrene	-10.4289
▁eventuel	-10.4289
▁vestfold	-10.4289
▁beskjed	-10.4289
▁jørgen	-10.4289
▁beslekt	-10.4289
▁referanse	-10.4289
▁christoph	-10.4289
▁vesentlig	-10.4289
▁dokumentar	-10.4289
▁hindre	-10.4289
▁grevskap	-10.4289
▁estland	-10.429
▁brown	-10.4291
▁telemark	-10.4291
▁arbeiderpartiet	-10.4291
▁britene	-10.4292
▁antikken	-10.4293
▁philip	-10.4294
▁enhver	-10.4294
▁tropisk	-10.4294
▁meldt	-10.4295
▁rektor	-10.4296
▁manchester	-10.4297
▁allmenn	-10.43
▁hul	-10.43
▁munk	-10.43
▁1893	-10.4303
▁landslaget	-10.4307
▁amerikaner	-10.4311
▁laks	-10.4312
▁bratt	-10.4312
akh	-10.4316
▁gradvis	-10.433
▁great	-10.4341
født	-10.4344
kreft	-10.4345
▁strøk	-10.4348
▁advokat	-10.4359
fyr	-10.4364
overflaten	-10.4377
▁angel	-10.4383
jong	-10.4391
rute	-10.4396
▁hull	-10.4399
▁sammenligne	-10.4399
▁thi	-10.4402
ual	-10.4418
▁brutt	-10.442
nntatt	-10.4433
▁adels	-10.4441
▁flest	-10.4452
▁fremført	-10.4456
▁liber	-10.4461
▁takke	-10.4464
lignende	-10.4464
▁israelsk	-10.4468
▁ytter	-10.4472
stamme	-10.4481
▁individuell	-10.4497
▁konservative	-10.4497
▁konstruert	-10.4497
▁kriminal	-10.4497
▁patriark	-10.4497
▁prøyssisk	-10.4497
▁argument	-10.4497
▁testamente	-10.4497
▁forkropp	-10.4497
▁forsvant	-10.4497
▁komponert	-10.4497
▁betjene	-10.4497
▁skjul	-10.4497
▁global	-10.4498
biller	-10.4498
▁overraske	-10.4498
komité	-10.4499
bridge	-10.45
▁medaljen	-10.45
▁erfaring	-10.4501
▁skøyte	-10.4501
▁klokken	-10.4502
▁kreert	-10.4504
følelse	-10.4505
▁daniel	-10.4506
▁tjenestegjor	-10.4507
▁orgel	-10.4507
▁tronen	-10.4509
▁tjue	-10.451
▁fastlandet	-10.451
▁arkitektur	-10.4512
▁avholdt	-10.4514
▁vend	-10.4516
▁tynn	-10.4516
▁filip	-10.4517
▁utenlands	-10.4518
▁trygg	-10.4521
▁demningen	-10.4531
▁utløp	-10.4536
stø	-10.4544
økonomi	-10.4554
bibliotek	-10.4555
▁bell	-10.4555
▁nylig	-10.4566
▁urban	-10.4566
spiss	-10.4571
▁etappe	-10.4577
magasinet	-10.4582
▁melk	-10.4586
▁kåret	-10.4587
rekord	-10.4597
▁forklare	-10.46
▁mannlig	-10.4608
▁skuespill	-10.4635
▁kjemisk	-10.4635
forsamlingen	-10.464
▁straff	-10.4651
▁antenne	-10.4663
▁katedral	-10.4677
perioden	-10.4694
teater	-10.4698
vassdraget	-10.471
▁antwerpen	-10.471
▁helsingfors	-10.471
▁artikler	-10.471
▁zealand	-10.471
▁usikker	-10.471
▁ansikt	-10.471
▁redusere	-10.471
▁hjal	-10.471
▁skjønt	-10.471
▁forbedre	-10.471
▁egenskaper	-10.471
kjøring	-10.4711
▁jøder	-10.4711
▁sverre	-10.4713
ulykke	-10.4714
▁biografi	-10.4716
▁play	-10.4716
▁drap	-10.4717
▁vingene	-10.4718
▁røyk	-10.4718
▁francis	-10.4721
kapital	-10.4726
▁talent	-10.4727
▁1898	-10.4728
▁anlagt	-10.4729
▁ombord	-10.4731
▁1890	-10.4737
▁with	-10.4738
▁lukke	-10.4755
▁antennene	-10.4759
▁marx	-10.4765
temperatur	-10.4772
▁tiår	-10.4775
▁tidsskriftet	-10.4776
▁voksen	-10.4777
▁kval	-10.4789
▁verksted	-10.4819
redskap	-10.4822
bød	-10.4845
time	-10.4873
▁forskjellig	-10.4883
▁home	-10.4907
▁nowiki	-10.4927
▁okkupert	-10.4927
▁washington	-10.4927
friidrettsutøver	-10.4927
▁matematikk	-10.4927
▁rådgiver	-10.4927
▁service	-10.4927
▁tyrkia	-10.4927
▁brensel	-10.4927
▁mekanisk	-10.4928
▁sprint	-10.4928
▁hendelsen	-10.4928
▁rettigheter	-10.4928
▁mineral	-10.4929
▁fortellinger	-10.493
▁town	-10.4932
drakt	-10.4932
▁trenger	-10.4932
▁tvunge	-10.4935
▁komposisjon	-10.4935
bebyggelse	-10.4945
▁bakke	-10.4947
▁skyldes	-10.4958
embete	-10.496
▁eksil	-10.4968
tabel	-10.4979
▁verb	-10.4985
stjerne	-10.4992
struktur	-10.4994
▁steg	-10.5011
▁carlo	-10.5025
skade	-10.5031
▁vitne	-10.5045
▁samtid	-10.5055
▁frei	-10.506
trær	-10.5063
▁finale	-10.5074
løft	-10.5076
▁forlate	-10.5082
næring	-10.509
▁falk	-10.5108
klær	-10.511
▁delstat	-10.5129
▁synge	-10.5132
▁britis	-10.5148
▁afghanistan	-10.515
▁colombia	-10.515
▁jersey	-10.515
▁utbredelse	-10.515
▁linux	-10.515
▁sigurd	-10.515
▁juridisk	-10.515
▁ovenfor	-10.515
▁amatør	-10.515
▁negativ	-10.515
▁josef	-10.515
▁hebraisk	-10.515
▁kjennetegn	-10.5151
▁strategisk	-10.5151
▁einar	-10.5151
▁edward	-10.5151
▁ligner	-10.5152
▁prinsesse	-10.5153
▁sjanger	-10.5154
▁døgn	-10.5154
▁demokratiske	-10.5156
▁eiendommen	-10.5159
▁stalin	-10.5161
▁tau	-10.5163
▁kontinental	-10.5163
▁vandre	-10.5163
▁1865	-10.5174
▁tyng	-10.5177
▁begrunne	-10.5178
▁vennskap	-10.518
▁persisk	-10.5189
høyskole	-10.5191
head	-10.5192
årig	-10.5198
utenriksminister	-10.522
representant	-10.522
finalen	-10.5222
amerikansk	-10.5222
akademi	-10.5223
ique	-10.5228
▁kjemi	-10.5248
▁hval	-10.5264
nnom	-10.5299
departement	-10.5304
mini	-10.5306
forsyning	-10.5317
▁kår	-10.5369
▁1901	-10.5377
▁angelsaksisk	-10.5377
▁symfoni	-10.5377
▁tilhørende	-10.5377
▁konsept	-10.5377
▁science	-10.5377
▁thailand	-10.5377
▁golf	-10.5377
▁tilsvarer	-10.5377
sammenslåing	-10.5377
▁larvik	-10.5377
▁belgisk	-10.5378
▁bispe	-10.5379
▁demokrati	-10.5384
▁håndverk	-10.5385
▁studere	-10.5387
slutt	-10.5397
▁billed	-10.5397
kalender	-10.5428
▁ennå	-10.5439
▁hylle	-10.5443
versjon	-10.5446
direktør	-10.5454
forskning	-10.5456
▁emil	-10.5456
streng	-10.5458
▁chang	-10.5459
▁roger	-10.5462
▁strak	-10.5465
▁sovjet	-10.5472
▁chu	-10.5475
▁kha	-10.5483
ernst	-10.5494
▁låten	-10.5499
▁synlig	-10.5502
▁lagre	-10.5502
▁elektr	-10.5508
bragt	-10.5511
▁utenriks	-10.5517
22	-10.5525
▁baron	-10.5534
▁140	-10.5548
▁mesterskap	-10.5551
alistisk	-10.5568
▁mitt	-10.5584
▁sho	-10.5585
regime	-10.5596
pedagog	-10.5609
▁administrere	-10.5609
▁dekkvingene	-10.5609
▁konsekven	-10.5609
▁milliarder	-10.5609
▁symptom	-10.5609
▁windows	-10.5609
▁skulptur	-10.5609
▁heinrich	-10.5609
▁yrkes	-10.5609
▁fenomen	-10.5609
▁antarktis	-10.5609
▁kritisert	-10.5609
▁theodor	-10.561
▁bærum	-10.561
▁mektig	-10.561
▁gunnar	-10.561
apparat	-10.561
▁fangst	-10.561
▁hvile	-10.561
▁elleve	-10.5611
▁innvalgt	-10.5611
▁forberede	-10.5611
▁stengt	-10.5611
▁arendal	-10.5611
▁plateselskapet	-10.5611
▁telefon	-10.5611
▁distanse	-10.5612
givning	-10.5612
▁kritisk	-10.5612
▁programleder	-10.5612
▁import	-10.5612
на	-10.5613
givende	-10.5613
▁fredrikstad	-10.5617
▁down	-10.5617
▁klippe	-10.5617
▁betalt	-10.5618
▁prøvd	-10.5618
▁blokker	-10.562
▁høyesterett	-10.5623
▁kenne	-10.564
prest	-10.5642
▁utvidelse	-10.565
assis	-10.5669
▁variert	-10.567
▁tallrik	-10.5677
traktaten	-10.5681
▁water	-10.5683
konsert	-10.569
▁160	-10.5714
seth	-10.5715
▁sideelv	-10.5717
▁pont	-10.5724
▁rapportert	-10.5732
odden	-10.5764
▁tidsskrift	-10.5776
▁medisinsk	-10.5779
▁tidligst	-10.5789
bevisst	-10.5795
▁forstå	-10.5796
tilstand	-10.5797
▁130	-10.5815
wick	-10.582
▁regjer	-10.5824
bord	-10.5833
▁muslim	-10.5841
▁innbyggertall	-10.5847
▁millimeter	-10.5847
▁spesifik	-10.5847
▁company	-10.5847
▁tømmer	-10.5847
▁alfabet	-10.5847
▁monument	-10.5848
▁stridsvogn	-10.5848
▁beatles	-10.5848
▁embets	-10.5848
▁statsborger	-10.5848
▁alexandr	-10.5848
▁opplysning	-10.5848
▁etablering	-10.5848
▁utforming	-10.5849
▁bedriften	-10.5849
▁verdensrekord	-10.585
▁foreslått	-10.5851
▁langrenn	-10.5853
▁ibsen	-10.5867
▁plast	-10.587
▁1885	-10.587
▁furu	-10.5885
▁fasci	-10.5886
▁morten	-10.5889
problem	-10.5936
effekt	-10.5938
bølge	-10.5939
▁erstatte	-10.5946
▁løfte	-10.5947
register	-10.596
wich	-10.5987
▁santa	-10.5989
▁gjennomføre	-10.5994
▁diplomat	-10.6002
▁kontrollert	-10.6003
▁sparta	-10.6018
▁elektron	-10.602
▁dominert	-10.6028
teori	-10.6039
dokument	-10.6086
▁absolut	-10.6091
▁country	-10.6091
▁definisjon	-10.6091
▁hordaland	-10.6091
▁returnert	-10.6091
▁essay	-10.6091
▁oppretthold	-10.6091
▁tabellen	-10.6091
▁opptreden	-10.6092
▁massiv	-10.6092
▁karbon	-10.6092
▁ørken	-10.6092
▁utslipp	-10.6092
▁partner	-10.6092
vík	-10.6093
tolkning	-10.6093
▁nedenfor	-10.6093
▁flytende	-10.6093
▁oldtiden	-10.6095
▁sentralbank	-10.6095
▁jackson	-10.6097
▁holdning	-10.61
▁1814	-10.6102
▁party	-10.6105
▁1888	-10.6116
▁1100	-10.6117
▁1870	-10.6117
▁1300	-10.6119
▁inndelt	-10.6122
▁lista	-10.6125
▁potter	-10.6128
▁nerve	-10.6129
▁etterpå	-10.6136
▁agent	-10.6148
▁elektronisk	-10.6171
▁sving	-10.6172
posisjon	-10.6176
redaksjon	-10.6183
instrument	-10.6186
divisjon	-10.6187
museum	-10.6187
▁teologisk	-10.6226
▁dreie	-10.6245
chester	-10.6247
▁arab	-10.627
▁lyng	-10.6307
botn	-10.6321
bæk	-10.6321
løytnant	-10.6341
▁infanteri	-10.6341
▁maksimal	-10.6341
▁pasienten	-10.6341
▁shanghai	-10.6341
▁vedlikehold	-10.6341
▁vellykket	-10.6341
▁american	-10.6341
▁ukraina	-10.6341
▁gjald	-10.6341
▁nøyaktig	-10.6341
▁stafett	-10.6341
▁kavaleri	-10.6341
kompetanse	-10.6341
▁kontrast	-10.6342
betjent	-10.6342
▁korrekt	-10.6342
▁avgjørende	-10.6342
▁verdensarv	-10.6342
▁fjordane	-10.6342
▁opprettelsen	-10.6343
▁anvende	-10.6343
▁oblast	-10.6343
▁group	-10.6345
▁øynene	-10.6346
▁huske	-10.6346
▁2018	-10.6349
▁knud	-10.6351
▁skytter	-10.6353
▁operere	-10.6357
▁brent	-10.6361
▁1886	-10.6369
▁hamburg	-10.6369
▁1880	-10.637
▁1860	-10.6373
▁formell	-10.6377
▁oversette	-10.6385
▁markere	-10.6387
ough	-10.6388
▁innerst	-10.6392
▁drepe	-10.6397
▁1850	-10.6399
▁lunge	-10.6403
▁svake	-10.6405
▁bush	-10.6411
▁mike	-10.643
funksjon	-10.6443
phon	-10.6447
utvalget	-10.6461
▁ligge	-10.6467
orientert	-10.6471
▁jente	-10.6489
reformen	-10.6496
▁tykk	-10.6514
▁prakt	-10.6548
▁krise	-10.6553
▁knap	-10.6577
▁blind	-10.6578
▁ott	-10.6586
oksid	-10.6589
▁størst	-10.6592
▁napoleon	-10.6598
▁beslutning	-10.6598
▁liverpool	-10.6598
▁midlertidig	-10.6598
▁sjeldne	-10.6598
▁asteroide	-10.6598
▁oxford	-10.6598
▁innbyggerne	-10.6598
▁lørdag	-10.6598
▁rosenborg	-10.6598
▁canadisk	-10.6598
▁kobber	-10.6598
▁flyktning	-10.6598
▁indikere	-10.6598
▁innvandre	-10.6598
▁skjebne	-10.6598
▁kredit	-10.6598
▁kristendommen	-10.6599
▁datamaskin	-10.6599
▁slank	-10.6599
▁apple	-10.6599
▁metoder	-10.66
▁francisco	-10.6601
▁gravlagt	-10.6603
▁opplevd	-10.6603
kongressen	-10.6607
▁jiang	-10.6608
▁tegninger	-10.6608
▁kristiania	-10.6608
▁piano	-10.6609
▁1892	-10.6614
▁1897	-10.6618
▁1884	-10.6618
▁1867	-10.6621
forsker	-10.6631
▁dahl	-10.6631
høvding	-10.6631
▁christiania	-10.6633
▁undervist	-10.6636
▁lenin	-10.6645
▁beholde	-10.6646
▁næringsliv	-10.6649
▁helhet	-10.6664
▁unik	-10.6669
▁oppleve	-10.6685
▁ond	-10.6704
▁musikal	-10.671
▁klage	-10.6713
▁teologi	-10.6733
▁klassifiser	-10.6736
næs	-10.6746
14	-10.6795
▁kvit	-10.6842
abler	-10.6848
strategi	-10.686
▁observasjon	-10.6861
▁jesuitt	-10.6861
▁renessanse	-10.6861
▁restaurant	-10.6861
▁ukrainsk	-10.6861
▁ressurs	-10.6861
▁østfold	-10.6861
▁unesco	-10.6861
▁hindu	-10.6861
regulering	-10.6861
▁avviklet	-10.6861
▁kongsberg	-10.6862
▁yngst	-10.6862
▁forklaring	-10.6864
seminar	-10.6865
▁hovedkontor	-10.6868
▁onkel	-10.6869
▁söd	-10.6873
snegl	-10.6876
▁tjent	-10.6879
▁forsterke	-10.6879
▁1896	-10.688
▁1871	-10.6882
▁gjennombrudd	-10.6887
▁smerte	-10.6894
▁ungdomsskole	-10.6895
▁østsiden	-10.6899
▁walter	-10.6901
▁kunstnerisk	-10.6911
▁mørkere	-10.6912
▁server	-10.6912
▁inneba	-10.6926
▁smak	-10.6945
funn	-10.6974
transport	-10.6977
musiker	-10.6977
gudinne	-10.6977
▁million	-10.6986
▁psykolog	-10.7001
▁qi	-10.7004
▁henri	-10.7017
▁observato	-10.7019
▁chile	-10.7022
▁beskrivelse	-10.7065
▁opprette	-10.7078
▁kirkelig	-10.711
▁900	-10.713
▁konkurrert	-10.7131
▁kronprins	-10.7131
▁naturreservat	-10.7131
▁tilstrekkelig	-10.7131
▁buskerud	-10.7131
▁könig	-10.7131
▁resultert	-10.7131
▁beleiring	-10.7131
▁hjort	-10.7131
▁permanent	-10.7131
▁prefektur	-10.7131
▁kommentar	-10.7131
▁utfordring	-10.7132
▁fjellkjede	-10.7132
▁rolf	-10.7132
▁kvalifisert	-10.7132
▁trengte	-10.7132
▁bønder	-10.7132
▁seinere	-10.7132
▁titler	-10.7133
▁tibet	-10.7135
▁rednings	-10.7136
bransje	-10.7138
▁splitte	-10.7142
▁kunstløp	-10.7146
▁idé	-10.7147
bevegelse	-10.7148
▁young	-10.7152
syssel	-10.7153
▁sammenhengende	-10.7157
krutt	-10.7178
kontroll	-10.7179
kurat	-10.7202
▁oberst	-10.7212
fellesskap	-10.7214
bispedømme	-10.7254
politisk	-10.7256
karriere	-10.7256
medlemmer	-10.7262
revolusjonen	-10.7264
strup	-10.727
tavle	-10.7281
prøv	-10.7292
▁klok	-10.7371
▁pels	-10.738
▁gymnas	-10.7409
▁hollywood	-10.7409
▁kullkraftverk	-10.7409
▁låtskriver	-10.7409
▁intervju	-10.7409
▁regulert	-10.7409
▁uttrykt	-10.7409
▁identitet	-10.7409
▁xiàn	-10.7409
▁nicola	-10.7409
▁utnevne	-10.7409
▁adolf	-10.7409
▁fiolin	-10.7409
▁ålesund	-10.7409
▁underholdning	-10.741
▁bedrifter	-10.741
▁risiko	-10.741
▁opposisjon	-10.7411
▁novell	-10.7411
▁sydney	-10.7411
▁gregor	-10.7412
▁fruktbar	-10.7412
▁lært	-10.7414
mission	-10.7416
▁tjener	-10.7417
▁frukt	-10.7418
▁stykket	-10.7419
▁pumpe	-10.7419
▁forenkle	-10.7419
▁donau	-10.742
▁lisens	-10.742
▁nevner	-10.7421
▁slippe	-10.7422
▁oppnådd	-10.7429
▁georgia	-10.7429
▁fylt	-10.7431
▁null	-10.7432
▁1889	-10.7434
▁slektning	-10.7435
▁ektemann	-10.7439
▁slange	-10.7445
▁utøve	-10.7492
sentral	-10.7544
▁flyge	-10.758
scene	-10.7598
▁representere	-10.7605
gjøring	-10.7636
▁heid	-10.7639
▁detalj	-10.764
▁columbia	-10.7695
▁færøysk	-10.7695
▁midtøsten	-10.7695
▁påbegynt	-10.7695
▁sarpsborg	-10.7695
▁særskilt	-10.7695
▁gjøvik	-10.7695
▁hjørne	-10.7695
▁opplæring	-10.7695
▁vurdert	-10.7695
▁minoritet	-10.7695
▁taylor	-10.7695
▁naturgass	-10.7695
▁artilleri	-10.7695
▁reklame	-10.7695
▁hyppig	-10.7695
▁haugesund	-10.7695
▁prince	-10.7695
▁nemlig	-10.7695
▁kampanje	-10.7695
mouth	-10.7696
▁tokyo	-10.7696
▁myrdet	-10.7696
▁ekspert	-10.7696
▁dverg	-10.7696
▁poesi	-10.7697
▁avledet	-10.7699
▁gullmedalje	-10.77
▁sykdommen	-10.7703
▁manglen	-10.7708
smykke	-10.7708
▁1873	-10.7712
▁lidelse	-10.7713
▁klatre	-10.7713
▁tolke	-10.7716
▁ddr	-10.772
▁sveitsisk	-10.7728
▁planeten	-10.7731
▁variasjon	-10.7731
yuan	-10.7746
kirch	-10.7755
▁ytterst	-10.7772
flate	-10.7799
▁gjennomsnittlig	-10.7805
▁dramatisk	-10.7809
kontrakt	-10.7834
litteratur	-10.7834
sønn	-10.7836
dømt	-10.7837
▁minutt	-10.7839
▁verdenscup	-10.7848
relasjon	-10.7863
kalk	-10.7876
eira	-10.7885
horn	-10.7909
▁dynasti	-10.7916
tilbud	-10.7921
utstyr	-10.793
▁chris	-10.7941
nærmet	-10.7943
▁kompleks	-10.7989
▁argentina	-10.7989
▁elefant	-10.7989
▁football	-10.7989
▁jordskjelv	-10.7989
▁omdøpt	-10.7989
▁pasienter	-10.7989
▁virginia	-10.7989
▁vurdering	-10.7989
▁pattedyr	-10.7989
▁istedenfor	-10.7989
▁antonio	-10.7989
skribent	-10.7989
▁opphevet	-10.7989
teatret	-10.7989
økonom	-10.7989
▁slapp	-10.7989
▁dominerende	-10.7989
▁fragment	-10.799
▁diameter	-10.799
▁kristin	-10.799
komponent	-10.7991
hertugdømmet	-10.7992
▁fuktig	-10.7993
▁menigheten	-10.7994
▁styreleder	-10.7995
▁muslimske	-10.7997
▁vakre	-10.7998
▁skygge	-10.7998
▁hypo	-10.8003
▁justis	-10.8004
▁koble	-10.8004
opplevelse	-10.8009
▁brant	-10.802
kjøn	-10.8025
▁queen	-10.803
▁personlighet	-10.8045
erklæring	-10.8056
▁spenne	-10.8064
▁rådhus	-10.8104
middag	-10.8125
▁tilsyne	-10.8127
phy	-10.8136
gruppa	-10.8137
materiale	-10.8137
arkitekt	-10.8137
gripe	-10.8145
▁traktat	-10.82
tegning	-10.8248
▁vannkraft	-10.8288
▁arrangør	-10.8292
▁fortjenst	-10.8292
▁babylon	-10.8292
▁fiendtlig	-10.8292
▁gabriel	-10.8292
▁generalguvernør	-10.8292
▁identifisere	-10.8292
▁musikkvideo	-10.8292
▁nøytral	-10.8292
▁research	-10.8292
▁tsjekkia	-10.8292
▁göteborg	-10.8292
▁flaggbærer	-10.8292
▁dublin	-10.8292
▁giovann	-10.8292
▁tilsammen	-10.8292
▁jødene	-10.8292
▁betydningsfull	-10.8292
▁langvarig	-10.8292
▁reformasjonen	-10.8292
▁bøndene	-10.8292
▁senatet	-10.8292
▁oppfatning	-10.8292
▁apollo	-10.8292
▁skjønn	-10.8292
▁stevne	-10.8292
hospital	-10.8292
ovitsj	-10.8292
▁serbisk	-10.8293
▁gratis	-10.8293
▁divers	-10.8294
▁lojal	-10.8295
▁tilbrakt	-10.8295
▁nyhets	-10.8295
▁hedmark	-10.8296
▁institusjoner	-10.8296
▁gjenopprette	-10.8297
▁nevø	-10.8299
▁wilson	-10.8303
▁pirat	-10.8303
▁regimet	-10.8306
▁napoli	-10.8307
klokke	-10.831
festival	-10.832
▁avansert	-10.8323
▁strømmen	-10.8327
▁maritim	-10.8331
▁forståelse	-10.8337
omsorg	-10.8371
▁utvide	-10.8385
▁cuba	-10.8389
teknologi	-10.8449
▁flekk	-10.8464
▁lærd	-10.8496
▁forbli	-10.8515
▁avslutte	-10.8525
▁sjakk	-10.8539
▁organisk	-10.8553
▁møtt	-10.8557
manuskript	-10.8603
▁katolikk	-10.8604
▁academy	-10.8604
▁halveringstid	-10.8604
▁kontrovers	-10.8604
▁oksygen	-10.8604
▁popularitet	-10.8604
svømming	-10.8604
▁annonsert	-10.8604
▁sluppet	-10.8604
▁erobring	-10.8604
▁forvandling	-10.8604
▁dresden	-10.8604
▁anerkjenne	-10.8605
▁senior	-10.8605
▁narvik	-10.8605
▁seoul	-10.8605
▁utpekt	-10.8605
▁utfordre	-10.8605
▁bakvingen	-10.8606
▁valuta	-10.8606
▁sviger	-10.8606
▁døpt	-10.8606
▁osmansk	-10.8606
▁kristiansund	-10.8606
▁innviet	-10.8606
▁betong	-10.8608
▁borgermester	-10.8608
▁kongeriket	-10.8609
▁organisere	-10.861
▁metoden	-10.8613
▁nedtegne	-10.8613
▁gjentatt	-10.8616
▁foretatt	-10.8619
▁skuespillerinne	-10.862
▁cross	-10.8622
mbard	-10.8627
spredning	-10.863
skille	-10.8641
▁ørn	-10.8682
▁diplomatisk	-10.8744
konstruksjon	-10.8771
ingeniør	-10.8772
bunn	-10.8788
vidt	-10.8805
▁rykte	-10.8809
drive	-10.8833
sykdom	-10.8856
pierre	-10.886
vatn	-10.8879
sdatter	-10.8885
▁plei	-10.8925
▁douglas	-10.8927
▁forfremme	-10.8927
▁forøvrig	-10.8927
▁frankfurt	-10.8927
▁integrert	-10.8927
▁konstantinopel	-10.8927
▁konstitusjon	-10.8927
▁mislykke	-10.8927
▁molekyl	-10.8927
▁progressiv	-10.8927
▁utelukke	-10.8927
▁vancouver	-10.8927
▁væpne	-10.8927
▁assistent	-10.8927
▁identifisert	-10.8927
▁innendørs	-10.8927
eksplosjon	-10.8927
▁litauen	-10.8927
▁ordinær	-10.8927
konsulent	-10.8927
▁kronologisk	-10.8927
pningsseremonien	-10.8927
▁uansett	-10.8927
▁rockeband	-10.8927
▁turbiner	-10.8927
leverandør	-10.8927
▁selvmord	-10.8927
▁geologisk	-10.8927
▁cambridge	-10.8928
▁nymfe	-10.8928
▁seksuell	-10.8928
▁trykt	-10.8928
▁brigade	-10.8928
▁lingvist	-10.8928
▁kvartfinale	-10.8928
▁noensinne	-10.8928
jylland	-10.8928
▁færre	-10.8928
relatert	-10.8929
▁trodde	-10.8929
▁verktøy	-10.8929
▁felttog	-10.8929
▁rakett	-10.8931
▁medvirket	-10.8931
▁øvelsen	-10.8934
stigning	-10.8936
▁vinterleke	-10.8942
liknende	-10.8947
sammensetning	-10.8952
▁domkirke	-10.901
▁offentliggjor	-10.9025
▁barneskole	-10.9029
endring	-10.9043
▁utforske	-10.9044
▁erobre	-10.9096
utdanning	-10.9105
likevel	-10.9106
tradisjon	-10.9106
programmet	-10.911
fabrik	-10.9157
▁tryg	-10.9222
hockey	-10.9253
distribusjon	-10.926
flokkurin	-10.926
▁innspilt	-10.926
▁jomfru	-10.926
▁jugoslavia	-10.926
▁legendarisk	-10.926
▁makedonia	-10.926
▁tennessee	-10.926
▁ambassadør	-10.926
▁kulturminner	-10.926
▁venezia	-10.926
▁embeds	-10.926
▁kvadrat	-10.926
▁sosiologi	-10.926
▁konkurs	-10.926
▁margret	-10.926
▁florida	-10.926
▁heavy	-10.926
▁snorre	-10.9261
▁autonom	-10.9261
▁protestantisk	-10.9261
▁biologisk	-10.9261
▁finansiert	-10.9261
▁germansk	-10.9261
▁fiktiv	-10.9261
▁tennis	-10.9261
▁stråle	-10.9261
▁für	-10.9261
▁dvd	-10.9262
▁fylkeskommune	-10.9262
▁feiring	-10.9262
▁castle	-10.9262
▁uefa	-10.9262
▁1808	-10.9263
▁skildre	-10.9264
▁syria	-10.9264
▁foreslo	-10.9264
▁smitte	-10.9264
▁ulykken	-10.9265
▁spurt	-10.9267
▁muskel	-10.9268
husholdning	-10.927
▁forskjellen	-10.9293
hampton	-10.9296
▁moderat	-10.9298
▁spesialisert	-10.9309
aften	-10.9311
temple	-10.9318
recht	-10.9355
▁uttalelse	-10.9376
▁flue	-10.9383
▁stanse	-10.9391
psykologi	-10.9425
betegnelse	-10.9449
offiser	-10.945
radio	-10.9456
▁forplikte	-10.9458
kjerne	-10.9473
9	-10.9474
▁punk	-10.9536
▁hjel	-10.958
▁omdanne	-10.9597
entrum	-10.9598
lokomotiv	-10.9605
direktoratet	-10.9605
propaganda	-10.9605
▁akseptere	-10.9605
▁budsjett	-10.9605
▁bulgaria	-10.9605
▁illustrert	-10.9605
▁malaysia	-10.9605
▁mangfold	-10.9605
▁observert	-10.9605
▁palestinsk	-10.9605
▁puppestadi	-10.9605
▁shakespeare	-10.9605
▁territorium	-10.9605
▁trommeslager	-10.9605
▁trondhjem	-10.9605
psykiatri	-10.9605
skvadron	-10.9605
▁beordret	-10.9605
▁heidelberg	-10.9605
▁koalisjon	-10.9605
▁teoretisk	-10.9605
▁1874	-10.9605
▁autoritet	-10.9605
▁skåne	-10.9605
▁regulere	-10.9605
▁pensjonert	-10.9605
▁aspekt	-10.9605
▁henrettet	-10.9605
▁eksistens	-10.9605
▁systematisk	-10.9606
▁dekorert	-10.9606
▁sosialdemokrati	-10.9606
▁flukt	-10.9606
▁stillehavet	-10.9607
thorax	-10.9607
▁alpene	-10.9608
▁vektklasse	-10.9608
▁madrid	-10.9608
▁stryk	-10.9609
▁generalsekretær	-10.9609
▁smelte	-10.961
▁barokk	-10.9611
▁gyldig	-10.9615
▁grafisk	-10.9616
▁alex	-10.9616
schaft	-10.9623
svarte	-10.9651
▁utarbeide	-10.9662
▁balanse	-10.9674
løype	-10.968
▁detaljert	-10.9694
sykehus	-10.9807
spørsmål	-10.9807
rhein	-10.9875
▁nøtt	-10.9889
▁jurist	-10.9927
▁kontinent	-10.9941
0	-10.9942
▁beliggenhet	-10.9962
▁bysantinsk	-10.9962
▁canterbury	-10.9962
▁hønefoss	-10.9962
▁kontinuerlig	-10.9962
▁orchestra	-10.9962
▁representasjon	-10.9962
▁avslutning	-10.9962
▁bachelor	-10.9962
▁chicago	-10.9962
▁frilufts	-10.9962
▁leipzig	-10.9962
▁matematisk	-10.9962
kringkasting	-10.9962
▁misjonær	-10.9962
▁offensiv	-10.9962
▁operativsystem	-10.9962
▁bystatus	-10.9962
▁konsonant	-10.9962
▁sivilisasjon	-10.9962
▁sogneprest	-10.9962
massakren	-10.9962
▁systematikk	-10.9962
▁larvestadie	-10.9962
▁diskusjon	-10.9962
▁donald	-10.9962
▁oppbevar	-10.9962
▁arsenal	-10.9962
▁forventet	-10.9963
▁referert	-10.9963
▁contest	-10.9963
▁ulovlig	-10.9963
▁libya	-10.9963
▁sophie	-10.9963
▁stadiet	-10.9963
▁skjøt	-10.9963
▁erstatning	-10.9963
▁manuskriptet	-10.9964
▁søsken	-10.9964
▁tendens	-10.9964
▁soldatene	-10.9964
▁bbc	-10.9964
▁forfatning	-10.9964
▁regelmessig	-10.9965
▁programvare	-10.9967
▁knust	-10.9967
▁blank	-10.9971
▁harmoni	-10.9974
bestand	-10.998
kollega	-10.9982
villig	-10.9988
▁undertegne	-10.9988
flytting	-10.9994
▁sjanse	-11.0011
stue	-11.0017
nathan	-11.0031
▁anatol	-11.0155
resultat	-11.0178
design	-11.0185
kjøl	-11.0198
ytelse	-11.0242
▁association	-11.0333
▁elizabeth	-11.0333
▁ferskvann	-11.0333
▁meksikansk	-11.0333
▁melbourne	-11.0333
▁bryllup	-11.0333
▁brønn	-11.0333
▁luxembourg	-11.0333
▁satellitt	-11.0333
▁libanon	-11.0333
▁sicilia	-11.0333
▁gravitasjon	-11.0333
▁utlending	-11.0333
▁leonard	-11.0333
▁romerriket	-11.0333
▁avstemning	-11.0333
ensemble	-11.0333
▁fremtidig	-11.0333
▁walisisk	-11.0333
▁brussel	-11.0333
▁instruks	-11.0334
▁middelhavet	-11.0334
▁tribun	-11.0334
▁feilaktig	-11.0334
▁høg	-11.0334
▁avskjed	-11.0334
▁pedagogisk	-11.0335
▁samlealbum	-11.0335
▁sukker	-11.0335
▁suppl	-11.0335
▁tillatelse	-11.0335
worth	-11.0336
▁bløt	-11.0336
▁bremse	-11.0336
▁høgskolen	-11.0336
mekanisme	-11.0337
▁fremstille	-11.0338
▁stedsnavn	-11.034
▁keltisk	-11.0342
▁utstedt	-11.0343
▁mandat	-11.0347
ière	-11.0351
▁rifle	-11.036
▁tilfeldig	-11.0376
onrad	-11.0393
▁høv	-11.0456
▁skanse	-11.046
bundet	-11.0475
▁koreansk	-11.0491
redaktør	-11.0562
sesongen	-11.0563
lokale	-11.0567
▁begivenhet	-11.0717
▁cappelen	-11.0717
▁demonstrasjon	-11.0717
▁fengslet	-11.0717
▁filippinene	-11.0717
▁fjorten	-11.0717
▁hongkong	-11.0717
▁innsbruck	-11.0717
▁konklusjon	-11.0717
▁kroatia	-11.0717
▁lincoln	-11.0717
▁pennsylvania	-11.0717
▁rudolf	-11.0717
▁skandinavia	-11.0717
▁stjørdal	-11.0717
▁gælisk	-11.0717
▁jacque	-11.0717
▁krønike	-11.0717
▁köln	-11.0717
▁pyramide	-11.0717
▁alminnelig	-11.0717
▁bekjempe	-11.0717
▁ferdinand	-11.0717
▁1853	-11.0717
▁foreløpig	-11.0717
▁føderale	-11.0717
▁skøyteløper	-11.0717
▁finansiering	-11.0717
▁utspring	-11.0717
▁church	-11.0717
▁ohio	-11.0717
▁kortvarig	-11.0717
▁atlanta	-11.0717
▁http	-11.0717
konvensjonen	-11.0718
▁sandefjord	-11.0718
kjøkken	-11.0718
▁armenia	-11.0718
▁sibir	-11.0718
▁brasiliansk	-11.0718
▁monroe	-11.0718
grün	-11.0718
▁deltakelse	-11.0718
▁kombinere	-11.0719
▁nkp	-11.0719
▁class	-11.0719
▁følelser	-11.072
▁forandring	-11.072
▁bjarn	-11.0721
▁techn	-11.0721
▁søndr	-11.0721
▁galleri	-11.0722
vilkår	-11.0723
▁bundes	-11.0724
bjørg	-11.0729
oidea	-11.0733
▁befeste	-11.0736
▁befan	-11.0737
▁identisk	-11.0741
craft	-11.0745
▁undersøke	-11.0792
drevne	-11.0794
▁oppstå	-11.0879
oppgjør	-11.0911
tilsynet	-11.0953
dynastiet	-11.0962
europeisk	-11.0963
fotball	-11.0963
slekten	-11.0964
bukten	-11.0983
presse	-11.1035
▁kosmo	-11.1038
▁fundament	-11.1117
▁angivelig	-11.1117
▁billedhugger	-11.1117
▁helikopter	-11.1117
▁indonesia	-11.1117
▁intellektuel	-11.1117
▁microsoft	-11.1117
▁nürnberg	-11.1117
▁pilegrim	-11.1117
▁vladimir	-11.1117
▁vålerenga	-11.1117
kommanderende	-11.1117
tekniker	-11.1117
▁garnison	-11.1117
▁statskupp	-11.1117
▁wergeland	-11.1117
▁latvia	-11.1117
▁krigføring	-11.1117
▁forkortelse	-11.1117
▁vertikal	-11.1117
▁vegetasjon	-11.1117
▁stefan	-11.1117
▁tilpasning	-11.1117
▁wagner	-11.1118
▁haakon	-11.1118
▁drømme	-11.1118
▁barnehage	-11.1118
▁innfødte	-11.1118
▁revolusjonære	-11.1118
▁nigeria	-11.1118
▁efter	-11.1118
▁dream	-11.1119
▁stoppested	-11.1119
▁kunngjor	-11.112
▁batteri	-11.1122
▁ivareta	-11.1123
▁fossile	-11.1132
▁håndtere	-11.1139
▁ekstern	-11.1146
dybde	-11.1182
flyvning	-11.1191
▁claus	-11.1247
kandidat	-11.1379
flagg	-11.1381
kritiker	-11.1399
▁forstyrre	-11.1508
▁inskripsjon	-11.1534
▁atlanterhavet	-11.1534
▁business	-11.1534
▁elektrisitet	-11.1534
▁kasakhstan	-11.1534
▁konsentrert	-11.1534
▁mississippi	-11.1534
▁mountain	-11.1534
▁tsjekkoslovakia	-11.1534
▁våpenhvile	-11.1534
▁aluminium	-11.1534
▁champion	-11.1534
▁forveksle	-11.1534
▁tsjekkisk	-11.1534
▁afghansk	-11.1534
▁utdødd	-11.1534
▁anmelder	-11.1534
▁kjønnsmod	-11.1534
▁nanjing	-11.1534
▁styrmann	-11.1534
▁samvelde	-11.1534
▁margaret	-11.1534
▁tvilling	-11.1534
grunnsstasjon	-11.1534
▁claudi	-11.1534
▁aktuell	-11.1534
▁minnesmerke	-11.1534
▁utstrakt	-11.1534
▁gjennomgår	-11.1534
diagnose	-11.1534
▁mysterie	-11.1535
▁kreativ	-11.1535
▁oppfordre	-11.1535
▁søvn	-11.1535
▁navy	-11.1535
▁harrison	-11.1535
kobling	-11.1536
▁omsetning	-11.1536
forsikring	-11.1536
▁abbed	-11.1536
▁omstridt	-11.1537
▁godkjenne	-11.1539
▁tørke	-11.1542
▁forfølgelse	-11.1543
▁særeg	-11.1543
▁genetisk	-11.1557
▁forvalte	-11.1584
kommunistpartiet	-11.1628
veksten	-11.1731
historiker	-11.1814
studier	-11.1814
størrelse	-11.1814
▁psyko	-11.1967
helikoptre	-11.1969
▁buddhist	-11.1969
▁corporation	-11.1969
▁etiopia	-11.1969
▁infrastruktur	-11.1969
▁massachusetts	-11.1969
▁palestina	-11.1969
▁skandinavisk	-11.1969
▁skihopper	-11.1969
▁society	-11.1969
▁spellemannprise	-11.1969
▁billboard	-11.1969
▁charlotte	-11.1969
▁cæsar	-11.1969
▁sanskrit	-11.1969
▁sørkoreansk	-11.1969
köping	-11.1969
▁adskilt	-11.1969
▁avslørt	-11.1969
▁marokko	-11.1969
▁søknad	-11.1969
▁abraham	-11.1969
▁attentat	-11.1969
▁ektefelle	-11.1969
▁innstifte	-11.1969
▁division	-11.1969
▁syndrom	-11.1969
▁gustaf	-11.1969
▁interiør	-11.1969
▁svovel	-11.1969
▁ordenstegne	-11.1969
▁eidsvoll	-11.1969
▁geometri	-11.1969
▁føydal	-11.1969
▁people	-11.1969
▁ringerike	-11.1969
▁konklave	-11.1969
▁deutsche	-11.1969
▁axel	-11.1969
▁grekerne	-11.1969
▁kostnad	-11.1969
▁redigert	-11.1969
▁søstre	-11.1969
▁rumensk	-11.1969
▁andré	-11.1969
▁stadium	-11.197
▁spirit	-11.197
sylindre	-11.197
▁abdul	-11.197
▁flamme	-11.1974
▁marsjert	-11.1974
▁slakte	-11.1975
terapi	-11.1975
flyging	-11.1975
▁kallenavn	-11.1976
▁isolert	-11.1976
▁ladning	-11.1977
▁mohamm	-11.1977
metabol	-11.1981
embede	-11.2001
▁arrest	-11.2014
krevende	-11.2033
▁forekomme	-11.2085
asiatisk	-11.2216
kvinne	-11.2237
advokat	-11.2267
student	-11.2268
▁doktor	-11.2422
▁kambodsja	-11.2423
▁reservoar	-11.2423
▁championship	-11.2423
▁fysiker	-11.2423
▁individuelt	-11.2423
▁interessant	-11.2423
▁karosseri	-11.2423
▁katastrofe	-11.2423
▁konkurrent	-11.2423
▁michigan	-11.2423
▁mobiltelefon	-11.2423
▁narkotika	-11.2423
▁potensiel	-11.2423
▁prestegjeld	-11.2423
▁pseudonym	-11.2423
▁restaurert	-11.2423
▁singapore	-11.2423
▁storslalåm	-11.2423
▁supporter	-11.2423
▁territoriet	-11.2423
▁varmekraftverk	-11.2423
▁invadert	-11.2423
▁apotek	-11.2423
▁ustabil	-11.2423
