<unk>	0
<s>	0
</s>	0
.	-3.23448
s	-3.53831
e	-3.56827
▁i	-3.73653
▁	-3.93529
t	-3.96579
▁og	-3.9729
er	-4.10841
en	-4.19021
▁av	-4.50074
r	-4.51101
▁er	-4.58943
▁en	-4.72967
▁som	-4.79156
▁for	-4.84869
▁til	-4.87721
n	-4.94138
et	-4.95655
▁på	-4.99442
▁med	-5.04779
▁den	-5.21535
▁ble	-5.30674
▁var	-5.33296
▁de	-5.36699
a	-5.37405
▁det	-5.43072
▁fra	-5.48232
ene	-5.60367
▁har	-5.63485
▁et	-5.64783
▁å	-5.71083
i	-5.72556
▁han	-5.72662
d	-5.77997
ne	-5.82146
o	-5.88867
k	-5.95696
y	-6.01657
▁ved	-6.04337
g	-6.06036
▁at	-6.13548
m	-6.15165
▁også	-6.1739
de	-6.21429
▁om	-6.27593
te	-6.27788
▁etter	-6.29544
▁ut	-6.33756
▁under	-6.38453
l	-6.38861
▁eller	-6.41997
p	-6.42464
re	-6.42529
f	-6.45131
▁s	-6.45495
▁kan	-6.46334
u	-6.48936
ing	-6.51771
b	-6.53774
▁opp	-6.54973
v	-6.55923
▁over	-6.5603
es	-6.59155
▁to	-6.59689
▁men	-6.60592
h	-6.61144
c	-6.62184
▁be	-6.62262
▁da	-6.62356
an	-6.63128
▁inn	-6.64454
in	-6.64744
▁seg	-6.67797
▁a	-6.68517
al	-6.69295
us	-6.71238
▁hadde	-6.74511
▁18	-6.76825
na	-6.77845
le	-6.78613
▁sin	-6.82489
▁andre	-6.8257
▁ikke	-6.84565
sk	-6.8461
▁mot	-6.86614
ia	-6.88213
on	-6.88956
la	-6.90187
ter	-6.90902
▁mellom	-6.91007
is	-6.92307
▁the	-6.93822
ar	-6.95823
▁født	-6.96644
▁f	-6.98356
▁la	-6.9977
▁ha	-7.00211
z	-7.00225
▁tre	-7.0037
▁hans	-7.01108
▁hun	-7.05401
▁b	-7.05886
▁1	-7.06067
ri	-7.06693
ende	-7.06714
▁første	-7.07298
w	-7.07587
sen	-7.09743
▁dette	-7.10173
land	-7.10217
▁bli	-7.10277
▁m	-7.10675
j	-7.10999
lig	-7.12393
▁ligger	-7.13078
ch	-7.15005
▁blant	-7.15876
▁g	-7.15892
▁d	-7.16623
▁al	-7.1822
▁man	-7.18994
der	-7.19983
▁sammen	-7.21211
ta	-7.21832
▁u	-7.2258
▁an	-7.23016
▁se	-7.23018
um	-7.23335
di	-7.24259
▁der	-7.25559
▁fikk	-7.2573
▁p	-7.26545
ur	-7.26637
at	-7.26961
ens	-7.26985
li	-7.27052
ver	-7.27105
or	-7.27162
el	-7.27202
ke	-7.27698
▁flere	-7.27862
ng	-7.29138
▁gjennom	-7.29538
▁nord	-7.29628
▁denne	-7.3001
▁alle	-7.3134
il	-7.31351
x	-7.31503
ning	-7.32256
iske	-7.32273
▁2	-7.32439
ig	-7.32753
▁re	-7.33128
ck	-7.33251
ske	-7.34092
ma	-7.36034
isk	-7.36937
▁17	-7.37488
ul	-7.37776
▁ca	-7.37874
nde	-7.38
ro	-7.38133
▁kom	-7.38252
▁c	-7.38768
▁ro	-7.39146
os	-7.39344
ut	-7.39437
▁k	-7.40438
be	-7.41384
▁år	-7.41693
øy	-7.41783
ler	-7.42024
ge	-7.42409
▁of	-7.42568
▁stor	-7.43888
ve	-7.44569
for	-7.45432
as	-7.46794
▁her	-7.46848
th	-7.47364
nes	-7.47752
kt	-7.47754
▁del	-7.47939
▁hvor	-7.4852
▁h	-7.48634
ra	-7.48902
▁16	-7.49146
da	-7.49996
to	-7.51197
den	-7.51207
ry	-7.51286
▁pi	-7.52262
▁sa	-7.52387
▁3	-7.52416
▁tidligere	-7.53419
▁annet	-7.53794
é	-7.53866
▁vi	-7.53934
▁ga	-7.53986
ka	-7.5401
▁5	-7.54119
▁st	-7.54154
▁norsk	-7.54615
▁død	-7.54642
id	-7.54739
me	-7.5499
▁o	-7.55197
▁før	-7.55425
it	-7.55864
ner	-7.56527
▁kommune	-7.566
▁by	-7.56754
▁så	-7.5699
bo	-7.57008
ger	-7.57487
ga	-7.58002
ang	-7.59786
▁sitt	-7.59915
ja	-7.60548
▁mange	-7.60696
mi	-7.61148
▁sør	-7.61539
erte	-7.6202
▁bo	-7.62477
▁disse	-7.62582
▁mer	-7.62641
son	-7.63052
▁land	-7.63209
▁li	-7.63296
▁ny	-7.63474
ff	-7.64196
ad	-7.64308
▁15	-7.6435
▁n	-7.64645
stad	-7.64764
▁l	-7.65121
▁ti	-7.65447
▁byen	-7.65641
▁4	-7.66699
▁kr	-7.67123
▁hoved	-7.67638
▁le	-7.67902
▁mens	-7.68293
▁j	-7.68688
ton	-7.68706
▁as	-7.68839
▁ar	-7.68999
mo	-7.69005
▁mo	-7.6936
gen	-7.69678
▁v	-7.69946
▁co	-7.70523
▁in	-7.70759
ba	-7.71095
lo	-7.71106
▁ofte	-7.71138
bi	-7.71412
▁senere	-7.71635
▁noen	-7.72926
mer	-7.73208
▁he	-7.73234
▁være	-7.73788
het	-7.74526
▁kjent	-7.75079
▁siden	-7.75425
▁sp	-7.75763
lige	-7.75786
man	-7.75787
dal	-7.76148
▁store	-7.76945
▁ta	-7.77119
ø	-7.77564
▁ba	-7.78217
▁di	-7.78393
▁na	-7.78404
vis	-7.7846
▁ka	-7.78885
un	-7.79022
va	-7.79359
skap	-7.79395
▁10	-7.80344
ker	-7.80412
▁frem	-7.8044
▁navnet	-7.8068
▁ned	-7.80914
mp	-7.81364
▁lo	-7.81866
co	-7.81896
▁t	-7.81929
ste	-7.82547
berg	-7.82798
▁ra	-7.82879
▁du	-7.83595
nd	-7.83715
▁rundt	-7.84079
ven	-7.84755
▁per	-7.84844
by	-7.84927
ell	-7.85004
ha	-7.85157
ic	-7.85242
▁vest	-7.86494
im	-7.86724
mann	-7.87079
▁ni	-7.87195
▁øst	-7.87239
ol	-7.87415
▁si	-7.8767
gi	-7.87737
▁går	-7.88131
▁sine	-7.88154
erne	-7.88812
▁norge	-7.88951
ist	-7.89121
▁6	-7.89328
pe	-7.89808
sjon	-7.89874
▁vil	-7.89947
▁samt	-7.90206
▁ho	-7.90487
▁selv	-7.90501
tal	-7.90513
am	-7.90546
op	-7.90576
si	-7.9087
3	-7.90914
▁kon	-7.91067
▁både	-7.91106
▁w	-7.91119
ä	-7.9116
▁ham	-7.91209
▁ri	-7.91282
ment	-7.91314
▁lag	-7.91473
▁slik	-7.91951
▁tallet	-7.92037
▁7	-7.924
pp	-7.924
▁mar	-7.92421
▁finnes	-7.9297
▁mest	-7.93003
▁dag	-7.93027
▁fa	-7.93385
▁navn	-7.93613
ni	-7.93699
ør	-7.93807
ag	-7.94197
▁skal	-7.94258
▁bi	-7.94526
tter	-7.9466
ster	-7.94675
sa	-7.95194
▁su	-7.95689
len	-7.95707
▁do	-7.961
ed	-7.96265
▁bu	-7.96354
▁pro	-7.96602
▁no	-7.96821
asjon	-7.96841
á	-7.96959
ll	-7.97338
▁vært	-7.97493
kk	-7.97557
▁bak	-7.97849
▁pa	-7.98074
▁12	-7.98094
▁fri	-7.98156
av	-7.98324
ho	-7.98997
do	-7.99083
ling	-7.99573
▁tid	-7.99579
▁fire	-7.99591
▁samme	-7.99601
ko	-7.99781
else	-7.99993
ns	-8.00031
▁and	-8.00472
▁km	-8.00564
bu	-8.00617
je	-8.00765
▁amerikansk	-8.01027
▁kalt	-8.01039
▁ma	-8.015
▁14	-8.0213
od	-8.02148
▁8	-8.02384
2	-8.0247
▁kunne	-8.02527
iv	-8.02627
▁tro	-8.0266
▁far	-8.03109
ion	-8.03129
▁vant	-8.03347
▁fram	-8.03577
om	-8.0363
▁kinesisk	-8.03865
▁norske	-8.04053
pa	-8.04523
å	-8.04568
▁blit	-8.05677
▁kirke	-8.05793
▁mai	-8.05936
rett	-8.06117
▁bar	-8.06288
▁oslo	-8.0651
ft	-8.06678
ti	-8.06853
▁gi	-8.07007
opp	-8.0715
▁skulle	-8.07195
gg	-8.07557
▁mor	-8.08066
▁lang	-8.08188
▁mi	-8.08314
sh	-8.08405
▁mars	-8.08647
sted	-8.0872
▁hos	-8.09036
▁ru	-8.091
▁bestå	-8.09115
▁lu	-8.092
5	-8.09228
elle	-8.09702
æ	-8.09805
▁fly	-8.09869
▁enn	-8.09985
vi	-8.10009
▁ol	-8.10174
▁når	-8.10192
▁rett	-8.10313
▁gikk	-8.10501
lin	-8.1085
▁13	-8.10854
go	-8.1087
▁film	-8.10936
▁tok	-8.10956
▁jo	-8.11155
▁el	-8.11495
▁grunn	-8.11652
▁po	-8.11796
ik	-8.11917
▁sk	-8.11989
ty	-8.12024
var	-8.1249
▁11	-8.12749
vik	-8.1289
▁te	-8.13436
▁største	-8.13597
▁noe	-8.13632
▁januar	-8.1401
po	-8.14075
▁nær	-8.14143
men	-8.14364
▁hele	-8.14572
ier	-8.14752
▁skole	-8.14948
▁y	-8.15219
ir	-8.15982
▁r	-8.15997
▁20	-8.16412
per	-8.16439
ov	-8.16454
▁gjen	-8.16774
▁me	-8.17059
ce	-8.17352
vin	-8.17608
▁ski	-8.17723
sta	-8.17819
ingen	-8.17862
▁bare	-8.17943
ring	-8.17963
ie	-8.18046
ard	-8.18299
lag	-8.18352
▁nye	-8.18822
▁vann	-8.19087
ering	-8.19151
▁mål	-8.19312
hu	-8.19374
lu	-8.19808
no	-8.20118
nn	-8.20238
▁august	-8.20305
▁ei	-8.21135
▁sol	-8.21148
▁innen	-8.21349
▁sch	-8.21582
▁am	-8.21743
▁or	-8.21755
au	-8.22204
▁9	-8.22445
▁nå	-8.22675
gang	-8.23214
▁ad	-8.23418
▁so	-8.23431
▁0	-8.23677
io	-8.23685
▁sam	-8.24309
ly	-8.24453
▁ge	-8.24691
▁uten	-8.2472
sel	-8.24757
tra	-8.24805
▁lys	-8.24994
ci	-8.25502
▁juni	-8.25691
▁ne	-8.25861
▁høy	-8.26106
▁laget	-8.26344
▁meter	-8.26388
▁spiller	-8.2675
ant	-8.26939
▁utgitt	-8.27097
▁gang	-8.27449
år	-8.27449
▁kl	-8.27535
▁dem	-8.27563
▁rekke	-8.27621
del	-8.27856
ru	-8.28744
▁sønn	-8.28761
▁hu	-8.28889
▁gu	-8.28952
bil	-8.2912
▁000	-8.29241
▁go	-8.29243
▁langs	-8.29325
gu	-8.29383
▁tor	-8.294
▁juli	-8.29438
▁ki	-8.29505
▁nasjonal	-8.29879
▁må	-8.30262
tisk	-8.30283
▁slutt	-8.30692
bar	-8.31152
1	-8.3119
let	-8.31203
▁musikk	-8.31278
▁pe	-8.31418
▁området	-8.31444
hold	-8.31671
ningen	-8.31835
ium	-8.31902
ld	-8.31938
tor	-8.32135
▁san	-8.32268
▁engelsk	-8.32615
ok	-8.32627
ow	-8.32755
▁leder	-8.33271
min	-8.3337
ca	-8.33898
▁april	-8.33992
▁oktober	-8.34225
mb	-8.3423
▁ak	-8.34249
tak	-8.3432
ina	-8.34344
▁tilbake	-8.34464
▁john	-8.34651
▁like	-8.34757
▁fi	-8.35034
▁siste	-8.35141
▁ja	-8.3541
ær	-8.35586
▁opprinnelig	-8.35635
ny	-8.35725
hi	-8.35928
▁tillegg	-8.35947
kke	-8.35973
▁kunst	-8.36027
▁va	-8.36038
▁con	-8.36135
▁2010	-8.36361
▁fo	-8.36441
ak	-8.3662
▁new	-8.36756
▁deres	-8.3697
▁brukes	-8.37037
les	-8.37144
▁alt	-8.37174
▁fem	-8.37324
▁mindre	-8.37329
▁september	-8.37788
ken	-8.3783
7	-8.37908
▁egen	-8.38577
ber	-8.38584
▁ver	-8.3877
▁min	-8.39116
▁gift	-8.39196
▁z	-8.39334
▁kultur	-8.39498
▁hen	-8.39631
▁kina	-8.39738
met	-8.39893
▁russisk	-8.3999
▁eks	-8.40082
▁form	-8.40314
stre	-8.40494
▁tv	-8.4079
dre	-8.40811
stein	-8.41065
vo	-8.4111
▁pu	-8.41296
▁øy	-8.41413
▁2008	-8.41744
▁kalles	-8.41924
▁spilte	-8.4215
hus	-8.4215
▁ko	-8.42242
▁hennes	-8.42252
▁tra	-8.42797
▁provinsen	-8.42972
▁små	-8.43066
▁bra	-8.43075
over	-8.43219
følge	-8.43226
ian	-8.43451
▁november	-8.43768
▁fast	-8.43772
▁tri	-8.43808
▁februar	-8.44283
▁usa	-8.44396
dd	-8.44506
▁2006	-8.44547
kon	-8.44753
▁desember	-8.448
▁lå	-8.44801
siden	-8.44813
▁få	-8.4504
mm	-8.45157
▁ulike	-8.45313
▁bl	-8.45322
▁særlig	-8.45613
▁kommer	-8.45739
▁2007	-8.46113
tiske	-8.46136
ö	-8.46191
und	-8.46296
ius	-8.46516
▁wa	-8.46846
za	-8.47048
▁x	-8.47066
til	-8.47123
verk	-8.47148
▁folke	-8.47179
sch	-8.47443
tro	-8.47608
dag	-8.47638
▁hus	-8.47831
ung	-8.48065
itet	-8.48073
▁skrevet	-8.48089
ill	-8.48102
▁par	-8.48104
▁kong	-8.4811
00	-8.48188
ü	-8.48229
▁igjen	-8.48367
▁hel	-8.48568
ou	-8.48582
tu	-8.48618
▁døde	-8.48827
▁eksempel	-8.48996
nings	-8.49026
ator	-8.49114
▁2009	-8.49316
slag	-8.49389
▁verdens	-8.49597
ede	-8.49612
▁skrev	-8.4965
ong	-8.498
▁kun	-8.50219
▁sand	-8.50495
▁lov	-8.50592
▁my	-8.50612
tten	-8.50775
▁begge	-8.50959
▁em	-8.51019
▁sett	-8.51243
ron	-8.5132
▁imidlertid	-8.51505
▁videre	-8.51506
ys	-8.51691
▁lever	-8.51761
▁car	-8.51763
▁fu	-8.51984
▁innehold	-8.52067
rede	-8.52167
anske	-8.52215
kker	-8.52514
nk	-8.52678
ord	-8.52725
▁støtte	-8.52842
▁startet	-8.52938
itt	-8.5296
▁kort	-8.53189
bb	-8.53198
▁30	-8.53241
▁halv	-8.53274
▁parti	-8.53406
▁all	-8.53491
▁nor	-8.53572
▁hi	-8.53659
▁pre	-8.53958
▁vel	-8.54033
í	-8.5425
tre	-8.54617
▁val	-8.54667
lands	-8.54788
art	-8.55376
6	-8.55471
▁ju	-8.55812
ju	-8.55848
inn	-8.55871
▁brukt	-8.562
burg	-8.56317
▁etablert	-8.56335
▁gamle	-8.56336
dalen	-8.56552
▁com	-8.56791
ich	-8.56891
tid	-8.56896
▁landet	-8.57009
ph	-8.57099
mar	-8.57139
▁president	-8.57277
▁sta	-8.57435
▁ord	-8.57522
▁gud	-8.57672
bruk	-8.57712
▁helt	-8.57719
fa	-8.57986
bre	-8.58028
kel	-8.58138
▁bruk	-8.58142
rø	-8.58455
▁nest	-8.58479
ley	-8.58493
▁hver	-8.58532
▁sjø	-8.58603
▁stein	-8.58644
▁deretter	-8.58716
mor	-8.58791
tur	-8.58799
derfor	-8.58799
▁gir	-8.58802
ku	-8.5889
▁først	-8.58948
em	-8.59042
▁ab	-8.59522
ine	-8.5966
ran	-8.59866
▁språk	-8.59884
▁beste	-8.59918
▁plan	-8.60061
bel	-8.60087
▁forhold	-8.60258
ski	-8.60415
▁bandet	-8.60765
ks	-8.6079
ige	-8.6079
▁bil	-8.60794
▁mye	-8.60836
▁fjell	-8.61174
ble	-8.61262
▁wi	-8.61381
▁tysk	-8.61544
▁ste	-8.61629
ica	-8.61761
▁mat	-8.61914
ninger	-8.62169
▁2005	-8.62346
ska	-8.62465
▁seks	-8.62481
stand	-8.62549
elsen	-8.62575
yl	-8.62715
▁året	-8.62934
jø	-8.62969
▁rom	-8.63507
▁kar	-8.63818
▁filmen	-8.63957
▁større	-8.64059
▁kjente	-8.6419
tok	-8.64227
▁ch	-8.64348
▁barn	-8.64496
fi	-8.64577
▁vei	-8.64581
▁god	-8.64616
ham	-8.64693
▁berg	-8.64725
▁norges	-8.6473
▁selskapet	-8.64779
▁bru	-8.64816
isme	-8.64958
▁begynte	-8.65156
▁2011	-8.65166
▁verk	-8.65248
rik	-8.65256
wa	-8.65263
mon	-8.65367
▁gar	-8.65435
fe	-8.65469
tiden	-8.65616
▁pan	-8.6572
▁gjorde	-8.65731
pi	-8.65794
rå	-8.66114
ki	-8.66332
▁ingen	-8.66457
▁dagen	-8.66545
ud	-8.67206
▁tyske	-8.67213
sten	-8.67304
▁innbyggere	-8.67407
9	-8.67466
▁årene	-8.67557
▁gruppen	-8.67751
▁jord	-8.67751
▁dr	-8.67868
▁kommunen	-8.67886
▁svær	-8.67928
▁bro	-8.67928
van	-8.6804
ting	-8.68121
ó	-8.6841
▁lokal	-8.68485
▁stat	-8.68666
▁gresk	-8.68799
gel	-8.68857
▁dermed	-8.69087
▁25	-8.69152
▁ben	-8.69568
ikk	-8.69575
▁tu	-8.69694
dra	-8.69717
nyin	-8.69756
▁roman	-8.69756
▁ren	-8.69805
tall	-8.70012
▁hol	-8.70119
▁bok	-8.70262
▁kor	-8.70276
▁skog	-8.70277
tin	-8.70291
▁gul	-8.70337
▁innenfor	-8.70479
▁fl	-8.70903
jo	-8.71016
▁kn	-8.7107
sti	-8.71339
▁mann	-8.71342
senter	-8.71481
ug	-8.717
ji	-8.71796
vel	-8.71807
ighet	-8.71914
▁ur	-8.71937
▁natur	-8.71972
▁we	-8.71987
cu	-8.71998
mål	-8.72029
▁vin	-8.72118
▁ed	-8.72259
▁basert	-8.72338
borg	-8.72434
mmer	-8.72574
ation	-8.72674
▁måtte	-8.72775
▁plass	-8.73079
form	-8.7308
bok	-8.73213
så	-8.73301
▁hy	-8.73388
▁pla	-8.73434
▁samtidig	-8.73439
▁motor	-8.73619
▁mel	-8.74375
▁medlem	-8.74401
ot	-8.74516
▁ku	-8.74584
▁bygget	-8.74739
▁rød	-8.74885
▁os	-8.75161
▁cha	-8.75229
▁sto	-8.75358
▁midt	-8.75423
▁fred	-8.75568
▁vise	-8.75597
▁utenfor	-8.7564
ologi	-8.7567
ya	-8.75734
▁2002	-8.759
▁dikt	-8.7595
▁luft	-8.75953
▁fer	-8.76105
tz	-8.76181
gn	-8.76606
▁står	-8.76705
▁betyr	-8.76957
mel	-8.76959
▁orden	-8.7706
løp	-8.77192
▁følgende	-8.77243
bro	-8.77269
heim	-8.77328
elig	-8.77402
▁19	-8.77584
▁brun	-8.77612
▁22	-8.77699
▁tiden	-8.77708
▁sal	-8.77939
sett	-8.78038
▁farge	-8.78346
▁mu	-8.78513
dy	-8.78677
ans	-8.78883
ksjon	-8.78887
kor	-8.79037
▁bergen	-8.79223
▁radio	-8.79349
▁ville	-8.79383
ip	-8.79457
а	-8.79476
▁prest	-8.79638
▁liv	-8.7969
▁bre	-8.79754
▁gammel	-8.79858
▁sverige	-8.79858
▁politisk	-8.79865
▁fant	-8.79906
▁fleste	-8.7997
▁ty	-8.79988
▁paul	-8.80059
и	-8.80084
▁sv	-8.80152
▁sentral	-8.80177
tar	-8.80199
inger	-8.80293
far	-8.80296
▁gull	-8.80358
ana	-8.80382
▁rock	-8.80507
▁tidlig	-8.80739
▁syn	-8.80958
lene	-8.80992
▁sted	-8.81029
kul	-8.8121
▁grav	-8.81243
▁gjerne	-8.81434
▁2004	-8.81723
▁lav	-8.81759
▁arbeidet	-8.81979
fra	-8.81982
▁21	-8.81983
▁sj	-8.81996
4	-8.82002
sson	-8.82029
▁tilhører	-8.82035
lse	-8.82134
▁albumet	-8.82245
▁tar	-8.82407
▁fag	-8.8257
▁forskjellige	-8.82577
syn	-8.82641
▁bygd	-8.82691
▁nett	-8.82785
▁tur	-8.8304
pper	-8.83124
par	-8.83144
jer	-8.83293
▁system	-8.83334
iet	-8.83422
▁datter	-8.83581
som	-8.83872
stilling	-8.83985
▁såkalt	-8.83996
han	-8.84024
▁foran	-8.84056
▁konge	-8.84097
▁kur	-8.84251
øya	-8.84342
▁sommer	-8.84359
▁keiser	-8.84401
▁elven	-8.84544
▁cl	-8.84577
ale	-8.84867
▁riks	-8.85109
▁peter	-8.85113
▁person	-8.85215
▁af	-8.85217
▁fylke	-8.85264
uk	-8.85264
du	-8.85528
▁industri	-8.85645
▁familien	-8.85735
q	-8.85804
▁fotball	-8.85813
▁24	-8.85869
isert	-8.85873
hø	-8.85886
stol	-8.85909
▁mag	-8.85915
▁serien	-8.85945
▁omfatter	-8.85962
▁hav	-8.86034
selskap	-8.86081
▁bruker	-8.86345
▁ganger	-8.8635
▁fe	-8.86352
▁viser	-8.86554
▁litt	-8.86641
▁vanligvis	-8.86752
sto	-8.86912
pen	-8.86933
ab	-8.87098
▁general	-8.87113
▁side	-8.87357
▁stort	-8.87456
stil	-8.87591
reg	-8.876
inne	-8.87609
▁bor	-8.87609
mat	-8.8772
▁23	-8.87725
▁sen	-8.87819
ac	-8.8789
▁dom	-8.88059
▁post	-8.88078
tion	-8.88093
▁ob	-8.88259
▁ke	-8.88268
est	-8.88349
enes	-8.8838
ight	-8.8842
▁stil	-8.88782
ice	-8.88859
ach	-8.88873
sund	-8.8891
handling	-8.88974
log	-8.88986
▁jan	-8.89049
▁on	-8.89077
▁ten	-8.89099
ps	-8.89152
leder	-8.89177
ister	-8.89276
▁op	-8.89394
▁via	-8.89481
kan	-8.89552
▁deler	-8.89779
lø	-8.89802
▁stra	-8.89807
lev	-8.89855
▁gitt	-8.89997
plan	-8.90062
▁bill	-8.90199
laget	-8.90285
fjord	-8.90471
▁europa	-8.90537
ori	-8.90615
▁svensk	-8.90748
satt	-8.90773
føring	-8.90804
▁rø	-8.90804
▁deltok	-8.90836
ze	-8.90881
vet	-8.90906
▁band	-8.91157
▁får	-8.91546
▁vinter	-8.91746
spill	-8.91823
idae	-8.91868
▁ex	-8.91903
▁tredje	-8.91932
ding	-8.92111
▁sangen	-8.92307
▁ledet	-8.92311
▁von	-8.92507
▁28	-8.92527
ari	-8.92561
▁betydning	-8.92817
▁utviklet	-8.92834
▁spille	-8.92842
gar	-8.93015
▁ag	-8.93022
he	-8.93025
▁hvert	-8.93042
▁mil	-8.93163
▁omkring	-8.93238
▁fransk	-8.93241
▁styre	-8.93285
▁you	-8.93404
▁fin	-8.93488
▁grad	-8.93496
▁lett	-8.93704
vær	-8.93719
elt	-8.93731
▁tom	-8.93764
dom	-8.93778
film	-8.93836
føre	-8.94027
▁øya	-8.94134
▁christian	-8.94135
▁spilt	-8.9424
▁tyskland	-8.94375
▁pl	-8.94645
▁fortsatt	-8.94682
fjorden	-8.94786
dyr	-8.94835
plass	-8.94892
▁spesielt	-8.94936
▁william	-8.94936
▁finn	-8.95009
▁sel	-8.95033
bra	-8.95044
sp	-8.95185
▁regi	-8.95239
familien	-8.95304
▁klubben	-8.95326
▁2000	-8.95334
▁arbeids	-8.95337
og	-8.95521
ara	-8.95624
chi	-8.95741
▁delstaten	-8.95817
▁fre	-8.96018
▁2003	-8.96248
ds	-8.96341
rak	-8.96394
▁forfatter	-8.96491
▁råd	-8.96562
▁italiensk	-8.96664
▁valg	-8.96682
forening	-8.96813
▁militær	-8.96853
▁gre	-8.96914
▁ly	-8.96927
▁au	-8.96964
spiller	-8.97029
landet	-8.97156
val	-8.97186
gård	-8.97256
▁100	-8.9727
▁dyr	-8.97415
▁serie	-8.97431
▁godt	-8.97442
▁stedet	-8.97483
kar	-8.97501
▁mulig	-8.97545
mester	-8.97587
▁spor	-8.97686
▁gav	-8.97688
▁es	-8.97769
ek	-8.98004
port	-8.98018
asjonen	-8.98103
mark	-8.98326
▁nytt	-8.98398
isering	-8.98435
▁anti	-8.98503
▁teater	-8.98558
tel	-8.98669
kje	-8.98766
▁handels	-8.98782
▁26	-8.98901
minister	-8.98903
▁sha	-8.98913
▁bort	-8.98949
ev	-8.99031
vil	-8.99146
dan	-8.99284
▁russland	-8.99313
о	-8.99331
▁mus	-8.99354
▁gen	-8.99359
▁fiske	-8.99387
▁elva	-8.99469
▁sosial	-8.99481
zi	-8.99734
▁viktig	-8.99755
▁lands	-8.99876
gren	-8.99927
lsen	-9
▁klar	-9.00087
folkerepublikken	-9.00216
▁stats	-9.00234
system	-9.00236
gh	-9.00367
▁skuespiller	-9.00373
pl	-9.00577
▁27	-9.00626
ani	-9.00735
▁antall	-9.0078
mal	-9.00882
king	-9.00908
▁moh	-9.00999
kla	-9.0106
▁arbeid	-9.01063
▁energi	-9.01099
bygd	-9.01151
ving	-9.01202
and	-9.01572
mun	-9.01661
veien	-9.01679
▁bjørn	-9.01753
skole	-9.01905
▁gruppe	-9.0195
▁bank	-9.02009
pro	-9.0209
of	-9.02125
▁hatt	-9.02136
▁sy	-9.02245
▁slekt	-9.02249
my	-9.0225
▁bror	-9.02323
▁skolen	-9.02381
ika	-9.02536
▁historie	-9.0255
▁dy	-9.02586
▁familie	-9.02604
▁lite	-9.02801
anger	-9.02845
▁hjemme	-9.02991
tri	-9.03009
▁hjem	-9.03133
▁perioden	-9.03193
▁sm	-9.03233
▁tekst	-9.03368
ida	-9.03378
yn	-9.0338
▁grå	-9.03409
▁mark	-9.03426
▁barne	-9.03553
qu	-9.03564
pol	-9.03587
bud	-9.03632
råd	-9.03699
▁les	-9.03708
▁bør	-9.03815
▁bur	-9.03891
▁annen	-9.03952
che	-9.04012
fall	-9.04051
▁sang	-9.04112
▁data	-9.04169
▁kat	-9.04173
▁ser	-9.04347
▁2001	-9.04374
▁tru	-9.04388
▁medlemmer	-9.04426
▁dansk	-9.04436
▁nu	-9.04532
▁lange	-9.04572
▁vo	-9.04654
▁full	-9.04677
▁slag	-9.04707
▁erik	-9.04738
lær	-9.04738
▁spe	-9.04768
▁menneske	-9.0477
▁van	-9.04838
▁chi	-9.04843
we	-9.0499
løs	-9.05134
▁art	-9.05271
ris	-9.05377
fly	-9.0538
▁blå	-9.05398
▁mon	-9.05496
xi	-9.05552
▁pol	-9.05558
▁liten	-9.05696
lik	-9.05707
▁gra	-9.05852
▁syd	-9.05886
▁50	-9.06068
lys	-9.0608
ino	-9.06092
▁tak	-9.06167
nor	-9.06217
▁gr	-9.06298
▁40	-9.06355
sky	-9.06582
50	-9.06632
stra	-9.06892
▁eu	-9.06966
tatt	-9.07043
sjef	-9.07117
▁kv	-9.07122
▁india	-9.07146
▁mont	-9.07355
▁rev	-9.07386
▁ter	-9.07444
stilt	-9.07505
▁ø	-9.07621
▁liste	-9.07638
▁én	-9.07664
▁mac	-9.07799
arbeid	-9.07827
▁vanlig	-9.07895
▁jeg	-9.07959
ita	-9.07962
up	-9.08126
▁lik	-9.08257
▁kra	-9.08314
▁års	-9.08323
rom	-9.08384
res	-9.08569
▁aktiv	-9.08654
▁sh	-9.08667
▁privat	-9.08689
▁sig	-9.087
ille	-9.08737
▁viktigste	-9.08739
▁hånd	-9.08873
tte	-9.08897
skip	-9.08939
pu	-9.0896
tes	-9.09012
▁satt	-9.0903
▁carl	-9.09062
stående	-9.09171
▁1999	-9.09188
▁venstre	-9.09205
▁hal	-9.09219
▁eneste	-9.09279
▁lyd	-9.09335
▁ras	-9.0951
▁herre	-9.09515
heten	-9.09575
▁kje	-9.09597
stykke	-9.09625
▁ønske	-9.09677
ativ	-9.09738
▁tjeneste	-9.09821
20	-9.09872
ons	-9.09991
jen	-9.10032
fin	-9.10112
▁fordi	-9.10161
este	-9.10215
▁olje	-9.10292
▁karl	-9.10316
▁pri	-9.104
▁egne	-9.10509
▁ry	-9.10533
▁arbeider	-9.10566
▁egg	-9.1075
▁åtte	-9.10802
kken	-9.11042
▁cor	-9.11167
▁1990	-9.11184
▁partiet	-9.11525
▁kirken	-9.11651
▁franske	-9.11751
asjoner	-9.11909
▁plate	-9.11911
ey	-9.121
▁inkludert	-9.12188
▁danmark	-9.12196
▁mal	-9.12199
▁mis	-9.1221
▁can	-9.1223
▁hvit	-9.12265
ap	-9.12276
▁ferdig	-9.12291
▁31	-9.12301
pris	-9.12504
elser	-9.12556
▁bas	-9.12591
▁langt	-9.126
lan	-9.12621
banen	-9.12671
▁london	-9.12699
▁fylkesvei	-9.12714
▁red	-9.12731
gjør	-9.12732
▁flyttet	-9.12735
▁fil	-9.12798
if	-9.12838
isere	-9.12904
40	-9.13029
ola	-9.13161
▁millioner	-9.13211
▁park	-9.13249
▁gal	-9.13353
▁pr	-9.13504
▁meg	-9.13538
don	-9.1357
▁sentrum	-9.13594
vann	-9.13648
red	-9.13675
hl	-9.13992
▁tildelt	-9.14095
▁ven	-9.14227
▁dessuten	-9.14244
rus	-9.14248
fer	-9.14276
menn	-9.14333
▁svart	-9.14373
▁svenske	-9.14457
▁produsert	-9.14476
▁dia	-9.14501
▁hjelp	-9.14513
▁hall	-9.1453
▁q	-9.14617
▁vol	-9.14692
▁versjon	-9.14695
ære	-9.14783
▁stemme	-9.14869
▁ska	-9.14912
▁høyre	-9.1502
ay	-9.15117
10	-9.15212
▁dannet	-9.15356
mannen	-9.15386
▁pass	-9.154
▁kvinne	-9.15432
▁kol	-9.15545
▁krigs	-9.15593
fri	-9.15604
vei	-9.15631
▁olav	-9.15706
▁topp	-9.15762
▁res	-9.15886
▁våpen	-9.15926
▁sl	-9.15928
▁internasjonale	-9.15996
▁personer	-9.16009
▁gate	-9.16144
▁forbindelse	-9.16148
▁felles	-9.16335
▁west	-9.16531
▁kraftig	-9.16595
ford	-9.16607
▁organ	-9.16609
▁pal	-9.16669
▁xi	-9.16707
▁samarbeid	-9.16766
▁frankrike	-9.16882
▁1996	-9.16883
liv	-9.17029
ah	-9.17077
virke	-9.17097
▁trans	-9.17168
iserte	-9.17227
▁bal	-9.17503
navn	-9.17556
tør	-9.17586
øl	-9.17759
▁skade	-9.1789
▁åpnet	-9.17958
▁1980	-9.17958
▁robert	-9.18029
kast	-9.18061
▁ber	-9.18064
▁ci	-9.18082
sjøen	-9.18106
▁moderne	-9.18137
▁29	-9.18321
▁mari	-9.18322
▁enkelte	-9.18404
▁mur	-9.18435
▁mm	-9.18483
▁student	-9.18492
side	-9.18583
▁kongen	-9.186
skog	-9.18605
▁jernbane	-9.18631
▁pat	-9.18674
▁christ	-9.18733
▁lille	-9.18769
all	-9.18776
▁za	-9.18845
▁bygge	-9.18912
ferd	-9.18977
▁gjør	-9.18987
ano	-9.19112
svis	-9.19177
▁mennesker	-9.19217
▁album	-9.19225
blad	-9.19295
olog	-9.19317
▁pris	-9.1938
▁lege	-9.19395
▁ordet	-9.19399
skje	-9.19416
▁kamp	-9.19546
ini	-9.19548
iz	-9.19691
▁tatt	-9.1972
к	-9.19723
▁hvis	-9.1983
▁historisk	-9.19845
ros	-9.19848
▁ap	-9.19851
▁fall	-9.19873
▁representert	-9.20128
▁politiker	-9.20173
▁britiske	-9.20178
vern	-9.20201
kin	-9.20217
▁ført	-9.2023
selskapet	-9.20276
▁strøm	-9.20278
isten	-9.20289
▁olympisk	-9.20311
30	-9.20369
rud	-9.20375
▁hovedsake	-9.20513
▁sø	-9.20545
▁ac	-9.20641
▁omtrent	-9.20681
▁thomas	-9.20685
▁samle	-9.20743
ath	-9.2075
е	-9.20789
nitt	-9.20808
▁sesongen	-9.2083
gruppen	-9.20871
▁linje	-9.20901
sje	-9.21095
▁port	-9.21165
området	-9.21191
è	-9.21207
▁england	-9.21271
▁folk	-9.21386
▁reise	-9.21484
▁makt	-9.21568
▁opprettet	-9.21626
lia	-9.21634
▁sølv	-9.21792
▁kontroll	-9.21795
▁sak	-9.21802
her	-9.21809
▁nærings	-9.21811
▁2012	-9.21812
▁erstatte	-9.2184
bin	-9.21989
trykk	-9.21993
▁bred	-9.22016
65	-9.22064
▁fjern	-9.22171
▁staten	-9.22235
leg	-9.22246
▁høsten	-9.22335
område	-9.22344
ket	-9.22356
▁rolle	-9.22909
ette	-9.23082
▁don	-9.23148
ologisk	-9.23203
huset	-9.23323
▁stasjon	-9.23432
▁nok	-9.23433
▁kroppen	-9.23479
iker	-9.23497
fest	-9.23501
▁super	-9.23559
gan	-9.23571
▁hard	-9.23593
▁blad	-9.23733
tjeneste	-9.23749
▁180	-9.23757
fyl	-9.23805
▁arkitekt	-9.23819
▁para	-9.23841
▁venn	-9.23928
mu	-9.24053
▁italia	-9.2408
▁kro	-9.24113
▁je	-9.24119
▁helse	-9.24251
musikk	-9.24391
bane	-9.2443
sser	-9.24526
istiske	-9.24563
▁ett	-9.24565
▁1970	-9.24645
▁1995	-9.2465
▁br	-9.24764
bygg	-9.24808
▁minne	-9.24834
▁wh	-9.24909
▁opera	-9.24937
kle	-9.2494
▁veien	-9.24954
elva	-9.24958
skrift	-9.25001
▁hår	-9.25102
▁ul	-9.25119
gitt	-9.25179
▁verden	-9.25184
▁universitet	-9.2522
▁1998	-9.25227
▁romersk	-9.25263
▁grunnlagt	-9.25336
▁spesial	-9.25399
▁skrift	-9.25423
▁politi	-9.25506
▁lin	-9.25764
▁fått	-9.25876
37	-9.25934
▁mc	-9.26039
dde	-9.26046
▁vår	-9.26139
▁stjerne	-9.26238
▁ring	-9.26241
▁tittelen	-9.26267
vig	-9.26298
ien	-9.26308
▁gjøre	-9.26313
ls	-9.26431
▁kraft	-9.26495
▁david	-9.26496
istisk	-9.26511
▁kron	-9.26513
▁plante	-9.2659
▁besto	-9.26718
▁enkelt	-9.27113
▁eg	-9.27116
iti	-9.27131
full	-9.27164
▁pave	-9.27165
dals	-9.2717
▁stu	-9.27255
60	-9.27291
▁tele	-9.27302
▁fremst	-9.27348
▁fortsatte	-9.27352
▁biskop	-9.27562
▁oppkalt	-9.27563
park	-9.27598
▁james	-9.27675
▁kyst	-9.27678
ismen	-9.27721
komm	-9.27797
▁berlin	-9.27815
kant	-9.27895
stå	-9.27903
lot	-9.27987
lle	-9.27991
lie	-9.2812
liggende	-9.28127
▁betydelig	-9.28156
▁hor	-9.28206
bert	-9.28273
▁blod	-9.28341
havet	-9.28382
heng	-9.28384
nivå	-9.28414
▁tal	-9.28501
▁brukte	-9.28663
▁arter	-9.28751
▁2013	-9.28767
lus	-9.28767
▁tegn	-9.28867
▁drift	-9.28877
kjær	-9.28899
▁finans	-9.28902
kal	-9.28925
ansk	-9.2895
▁lars	-9.28961
▁finsk	-9.29019
navnet	-9.29065
▁sanger	-9.29127
tegn	-9.29296
▁viktige	-9.29313
ført	-9.29375
▁vis	-9.29396
ria	-9.29418
64	-9.29433
▁col	-9.29449
▁holdt	-9.29484
▁son	-9.29579
hr	-9.29667
stasjon	-9.29674
▁arm	-9.29708
▁hei	-9.29778
organisasjon	-9.29839
ð	-9.29963
▁kilometer	-9.29963
▁motstand	-9.29992
på	-9.29993
eres	-9.30066
erende	-9.30103
▁kunstner	-9.30121
spi	-9.30152
anlegg	-9.30245
rop	-9.30257
▁elev	-9.30293
produksjon	-9.3046
▁henne	-9.30471
▁sub	-9.30472
▁jern	-9.30504
▁york	-9.30574
▁knytte	-9.30575
▁nordøst	-9.30576
givelse	-9.30593
▁gass	-9.30638
▁spansk	-9.30669
▁utvikling	-9.30712
▁studie	-9.30816
▁gro	-9.3097
▁selskap	-9.31054
▁mad	-9.31104
▁høyde	-9.31118
▁standard	-9.31201
▁mester	-9.31207
vit	-9.31294
▁tradisjonell	-9.31311
mus	-9.31445
▁best	-9.31466
▁lek	-9.31485
departementet	-9.31505
▁krigen	-9.31544
styre	-9.31751
▁direkte	-9.31804
▁1989	-9.31816
▁studert	-9.31817
▁gran	-9.31839
▁henhold	-9.31869
▁regn	-9.31914
ire	-9.32021
handler	-9.32111
▁paris	-9.32199
▁verdi	-9.3233
ater	-9.32338
byen	-9.32434
cy	-9.32447
▁høyeste	-9.32458
▁veg	-9.32496
▁samling	-9.3259
eget	-9.32906
▁skjer	-9.32911
våg	-9.32937
с	-9.32973
▁university	-9.33053
▁1988	-9.3306
samling	-9.33089
▁trekk	-9.33174
▁phil	-9.33259
▁regjeringen	-9.33306
zo	-9.33315
▁air	-9.33338
▁slo	-9.33379
▁gå	-9.33489
ai	-9.33521
▁gjort	-9.33527
deling	-9.33541
mper	-9.33581
loven	-9.33674
oni	-9.33684
▁regnes	-9.33738
▁danske	-9.3375
værende	-9.33753
drag	-9.33778
▁vekt	-9.33786
tus	-9.33859
▁delen	-9.33899
▁bø	-9.33902
oll	-9.33907
stu	-9.33942
▁dis	-9.33966
grad	-9.34004
bø	-9.34016
bygging	-9.3402
▁kjøp	-9.34064
ā	-9.34066
▁heter	-9.34096
▁johan	-9.34127
kraft	-9.34285
▁dal	-9.34332
▁jon	-9.34394
▁tha	-9.3443
▁finne	-9.34449
itz	-9.34462
▁universitetet	-9.34511
▁not	-9.34554
▁overtok	-9.3461
▁ball	-9.34792
▁kinas	-9.34856
▁design	-9.34926
su	-9.34953
▁stiftet	-9.34962
▁ger	-9.35026
▁sogn	-9.35032
stoff	-9.35034
▁symbol	-9.3517
▁løs	-9.35213
▁thor	-9.35292
▁sterkt	-9.35363
▁leg	-9.35428
kh	-9.3549
under	-9.3549
95	-9.35491
▁solgt	-9.35627
rum	-9.35678
▁utgjør	-9.35816
▁kors	-9.35911
án	-9.35916
▁smal	-9.3597
lå	-9.36033
▁kraftverk	-9.36061
lla	-9.36089
▁afrika	-9.36224
▁1997	-9.36245
▁interesse	-9.36277
søk	-9.36318
fører	-9.36331
▁martin	-9.36347
fal	-9.36347
lis	-9.3639
ban	-9.3643
▁us	-9.36437
▁flat	-9.36467
▁60	-9.36483
▁minst	-9.36609
▁kjøpt	-9.36644
fisk	-9.36664
▁følger	-9.3667
parti	-9.36708
gle	-9.36721
▁båt	-9.3673
stan	-9.36749
ance	-9.36756
▁meste	-9.36808
▁produsere	-9.36884
▁trondheim	-9.36892
▁angrep	-9.36919
▁verdenskrig	-9.36946
▁syv	-9.37012
fag	-9.37018
året	-9.37043
▁fest	-9.37174
▁grønn	-9.37231
▁los	-9.37407
fo	-9.37437
holm	-9.37493
lek	-9.37523
grunn	-9.3753
med	-9.37578
▁riksvei	-9.37591
partiet	-9.37662
▁regionen	-9.37665
▁aldri	-9.37749
▁dekk	-9.37771
▁jens	-9.37894
skapet	-9.37909
▁dra	-9.3809
р	-9.38152
lling	-9.38345
ata	-9.38361
nu	-9.3842
▁dager	-9.38434
gående	-9.38467
▁funnet	-9.38532
▁forut	-9.38537
▁natt	-9.38543
▁ce	-9.38553
▁løv	-9.3856
48	-9.38688
retning	-9.38705
sø	-9.38721
▁1994	-9.38866
▁sommerfugl	-9.38869
▁hevde	-9.38881
▁henrik	-9.3891
▁bry	-9.38998
à	-9.3905
▁lær	-9.39057
▁neste	-9.39155
▁fla	-9.39187
▁sir	-9.39359
▁havn	-9.39482
л	-9.39512
▁eldste	-9.39525
▁statsminister	-9.39544
▁eldre	-9.39611
▁rike	-9.39761
▁rund	-9.39763
▁vind	-9.39768
sin	-9.39798
▁grense	-9.39959
▁eier	-9.39997
▁cu	-9.40084
▁årlig	-9.40105
т	-9.40133
rin	-9.40153
felt	-9.40185
▁1960	-9.40213
▁gård	-9.40214
ledes	-9.40219
▁ji	-9.40219
nte	-9.40258
▁eid	-9.40291
bær	-9.40366
▁delt	-9.40394
gata	-9.40404
sal	-9.40427
▁seil	-9.40427
▁pen	-9.40434
brudd	-9.40492
66	-9.40542
rød	-9.40569
ama	-9.4059
syk	-9.40595
▁tett	-9.40615
cc	-9.40644
are	-9.40688
▁forsøk	-9.40704
▁mø	-9.40727
▁dans	-9.40804
bygning	-9.40838
ú	-9.40871
▁sil	-9.40966
ark	-9.41039
▁bind	-9.41109
organ	-9.41128
▁inter	-9.41192
▁løp	-9.41205
▁maria	-9.41258
▁likevel	-9.41317
▁stø	-9.41325
▁ledd	-9.41367
▁virke	-9.41426
vesen	-9.41455
▁ør	-9.41466
nik	-9.41506
▁sørøst	-9.41555
▁2015	-9.41566
▁lengde	-9.41586
fon	-9.41632
▁brann	-9.41653
▁len	-9.4166
▁benyttet	-9.41663
▁lø	-9.41677
▁indre	-9.41756
▁ordenen	-9.41866
▁krig	-9.41904
nom	-9.4208
ved	-9.42091
▁grand	-9.42156
▁fjord	-9.42168
oli	-9.42179
rad	-9.42224
▁svarte	-9.42241
dømme	-9.42288
ish	-9.42303
af	-9.42391
▁valgte	-9.42456
haug	-9.42461
▁arten	-9.42477
▁legge	-9.42759
▁miljø	-9.42759
▁start	-9.42788
▁mørk	-9.42797
68	-9.42821
løse	-9.42822
stat	-9.42859
▁nils	-9.42919
▁suksess	-9.42926
▁steder	-9.4293
▁1991	-9.42937
▁frank	-9.42945
▁lei	-9.42966
aktig	-9.43054
mmen	-9.43239
▁uni	-9.43258
▁elv	-9.43271
way	-9.43276
ms	-9.43344
▁tung	-9.43359
▁gru	-9.43407
▁bern	-9.43414
98	-9.43418
▁karakter	-9.43429
▁anders	-9.43473
▁følge	-9.43508
▁felt	-9.43523
▁populær	-9.43566
nett	-9.4363
▁drept	-9.43636
▁konsert	-9.43702
folk	-9.43736
▁mørke	-9.43771
▁johannes	-9.43873
▁fyr	-9.43919
▁cal	-9.44121
▁gren	-9.44207
▁utgav	-9.44241
▁1984	-9.44333
ringen	-9.44454
▁lagt	-9.44481
språk	-9.44482
tårn	-9.44493
▁drama	-9.44524
▁distrikt	-9.44549
▁thi	-9.44556
ace	-9.44653
vid	-9.44689
▁lærer	-9.44821
▁sykdom	-9.44864
▁ledelse	-9.44932
▁ant	-9.44982
▁test	-9.44993
▁løper	-9.44993
zhou	-9.45029
▁effekt	-9.45116
ben	-9.45215
▁franc	-9.45308
▁trykk	-9.45384
pan	-9.45407
▁litteratur	-9.45453
tsj	-9.4549
spor	-9.45568
har	-9.45619
▁knut	-9.45661
▁1992	-9.45742
▁britisk	-9.45831
▁funksjon	-9.45834
42	-9.45872
aks	-9.45912
strøm	-9.45916
▁danner	-9.45964
stedet	-9.46066
tti	-9.46165
▁punkt	-9.46214
▁enhet	-9.46363
▁korte	-9.46495
▁black	-9.46513
bru	-9.4658
stift	-9.46588
▁spi	-9.46641
kl	-9.46645
▁munn	-9.46682
▁george	-9.46698
ova	-9.46735
jev	-9.46737
▁elve	-9.46774
▁region	-9.46853
▁løpet	-9.46877
valg	-9.46886
▁sur	-9.46972
▁rot	-9.46981
ping	-9.47046
gra	-9.4711
▁1986	-9.4718
▁varme	-9.47187
▁bestemt	-9.47269
lagt	-9.47311
shire	-9.47373
▁skille	-9.47438
▁fjorden	-9.47501
las	-9.47558
bus	-9.47565
kop	-9.476
yo	-9.47611
▁sund	-9.47652
områder	-9.47671
bor	-9.47726
▁ve	-9.47746
▁holde	-9.47766
▁kal	-9.47861
systemet	-9.47871
▁plassert	-9.47895
▁1978	-9.47907
85	-9.47953
▁distriktet	-9.47959
▁hvordan	-9.4799
▁markeds	-9.47992
▁økt	-9.48004
▁shi	-9.48087
34	-9.48153
▁delta	-9.48212
▁ek	-9.48227
▁ole	-9.48232
hn	-9.48259
▁prosess	-9.48299
▁wo	-9.48344
▁høyt	-9.48358
ura	-9.4837
▁gitar	-9.484
foreningen	-9.48449
punkt	-9.48461
▁mas	-9.48518
▁fulgte	-9.48613
▁lind	-9.48654
tta	-9.48663
▁boken	-9.48693
▁latin	-9.48777
▁uttrykk	-9.48857
▁skrive	-9.48892
▁maskin	-9.48892
▁grensen	-9.48936
▁museum	-9.48946
▁cm	-9.49042
trekk	-9.49057
gger	-9.4913
▁møte	-9.49149
▁skapt	-9.49187
▁ram	-9.49192
▁foss	-9.49273
senteret	-9.49286
78	-9.49309
▁nummer	-9.49333
myndighet	-9.49347
virkning	-9.49359
▁bir	-9.49414
▁offentlig	-9.49464
dige	-9.49564
ial	-9.49567
manns	-9.49571
fot	-9.49614
▁bygningen	-9.49646
▁bla	-9.49655
▁gode	-9.49841
▁war	-9.49856
sjoner	-9.49876
kov	-9.49879
ix	-9.49891
47	-9.49923
oc	-9.50008
▁island	-9.50072
▁nordvest	-9.50105
dor	-9.50229
formet	-9.50258
uc	-9.50311
▁just	-9.50482
▁finland	-9.50527
▁bad	-9.50626
▁produkt	-9.50634
▁tall	-9.50716
arm	-9.5082
▁1982	-9.50844
▁tilsvarende	-9.50844
▁hvilke	-9.50845
magasin	-9.50854
▁informasjon	-9.50875
▁retning	-9.50881
▁stav	-9.50892
▁faren	-9.50897
▁skje	-9.50919
▁borger	-9.50931
band	-9.5095
▁kons	-9.5107
▁fal	-9.51092
▁union	-9.51092
fu	-9.51123
old	-9.51185
▁pop	-9.51324
vitenskap	-9.51397
▁dyp	-9.51504
▁sag	-9.51561
lem	-9.51569
▁1977	-9.51596
▁sannsynlig	-9.51596
▁utnevnt	-9.51601
▁virksomhet	-9.51621
▁holm	-9.51624
54	-9.51645
merke	-9.51702
▁opprør	-9.51723
▁slekten	-9.51783
▁gården	-9.51784
▁skip	-9.52043
▁hører	-9.52095
brun	-9.52124
▁gje	-9.52223
▁ungdoms	-9.52227
samfunn	-9.52252
lighet	-9.52343
▁europeisk	-9.52368
▁1985	-9.5237
▁musikkalbum	-9.5237
▁1950	-9.52378
▁maler	-9.52423
▁ban	-9.5253
▁program	-9.52545
▁bane	-9.52586
▁skipet	-9.52608
▁80	-9.52664
▁befolkningen	-9.52754
▁fører	-9.52767
▁valgt	-9.52771
bri	-9.52868
stid	-9.52985
89	-9.52997
win	-9.53065
fl	-9.53083
▁skyld	-9.53143
▁ære	-9.53146
▁hud	-9.53198
▁anne	-9.53356
▁cell	-9.53359
▁rik	-9.53371
▁sommeren	-9.53379
▁avdeling	-9.53468
▁lokale	-9.5354
ram	-9.53558
▁borg	-9.53597
▁vestlig	-9.53873
š	-9.53886
▁type	-9.53895
abel	-9.53948
▁utstyr	-9.53957
ain	-9.53992
▁nederlandsk	-9.53993
alder	-9.54183
tic	-9.54284
▁landsbyen	-9.54306
gy	-9.54311
▁modell	-9.54333
ild	-9.54498
fat	-9.54526
riket	-9.54541
sak	-9.54569
▁70	-9.54631
the	-9.54636
▁lyn	-9.54653
▁jacob	-9.54662
grav	-9.54668
▁drev	-9.54683
sis	-9.54717
▁viss	-9.54724
▁inkluderer	-9.54778
▁dø	-9.5484
asj	-9.54843
▁sku	-9.54865
skolen	-9.54967
▁fv	-9.54999
▁sports	-9.55007
ball	-9.55061
pel	-9.5508
rat	-9.55104
tikk	-9.55112
▁mill	-9.55183
lov	-9.5533
▁iii	-9.55412
в	-9.55419
▁hest	-9.55426
▁stockholm	-9.55442
ona	-9.55453
▁lan	-9.55454
ов	-9.55455
▁1972	-9.55456
▁1987	-9.55457
74	-9.55532
▁win	-9.55553
▁500	-9.55628
▁fr	-9.55698
▁periode	-9.55703
▁brit	-9.55733
ott	-9.55768
satte	-9.55827
▁arabisk	-9.55865
▁nordlige	-9.55876
▁japansk	-9.55884
▁ettersom	-9.55895
▁redaktør	-9.55934
▁figur	-9.56008
kamp	-9.56107
messig	-9.56227
▁storbritannia	-9.5623
▁dårlig	-9.56232
▁2014	-9.56253
▁merke	-9.56263
mas	-9.56312
▁front	-9.56444
element	-9.56472
mur	-9.56517
39	-9.56535
▁lar	-9.56545
▁mulighet	-9.5662
hjem	-9.56681
▁resultat	-9.5672
84	-9.56766
▁fremme	-9.56789
▁marine	-9.56811
▁ep	-9.56829
▁slaget	-9.56844
gard	-9.56875
▁måte	-9.56882
▁fugle	-9.56895
▁brasil	-9.57029
▁søster	-9.57083
▁teori	-9.57097
▁forsvars	-9.5717
tende	-9.57189
▁satte	-9.57215
▁kart	-9.57227
▁livet	-9.57338
ua	-9.57361
▁sc	-9.57411
stikk	-9.57421
▁turn	-9.57445
41	-9.57475
▁ken	-9.57594
lang	-9.576
▁utdanne	-9.57622
båt	-9.57663
▁middel	-9.5772
▁international	-9.57823
▁københavn	-9.57823
▁folketelling	-9.57824
▁hjerte	-9.57825
▁nærmest	-9.57826
▁vanskelig	-9.57832
▁1981	-9.57837
▁fange	-9.57856
ric	-9.57968
▁leir	-9.5797
▁metall	-9.58001
kket	-9.58054
vinger	-9.58085
36	-9.58085
jan	-9.5813
▁mente	-9.58131
midler	-9.58146
ez	-9.58185
dring	-9.58193
eier	-9.58242
nntil	-9.58293
tog	-9.5833
51	-9.58418
marked	-9.58448
▁raskt	-9.58458
dt	-9.5852
▁programmet	-9.5853
▁odd	-9.58544
tag	-9.58573
▁menn	-9.58597
▁bolig	-9.58612
▁norrøn	-9.58633
▁dronning	-9.58634
▁bilde	-9.58691
press	-9.58772
avtale	-9.58814
▁star	-9.58877
▁naturlig	-9.59031
▁fro	-9.59078
bjørn	-9.59128
▁prosjekt	-9.59284
▁vik	-9.59306
▁sentrale	-9.59311
vare	-9.5936
▁organisasjonen	-9.59375
▁relativ	-9.59443
▁selve	-9.59546
▁feil	-9.59639
▁utført	-9.59686
san	-9.59821
▁klasse	-9.5983
▁japan	-9.59835
▁idretts	-9.59836
cia	-9.59846
stø	-9.59898
▁roma	-9.59933
ör	-9.59955
farge	-9.59982
kunst	-9.5999
▁sau	-9.60029
low	-9.60082
▁het	-9.60093
57	-9.60096
67	-9.60133
58	-9.60181
ity	-9.60211
plasser	-9.60261
α	-9.60262
ī	-9.60262
▁voksne	-9.60268
▁2016	-9.60281
gården	-9.60298
spekt	-9.60403
▁forsknings	-9.60443
▁renner	-9.60447
øs	-9.60465
gruppe	-9.60467
ografi	-9.60484
▁mod	-9.60492
tive	-9.60502
ves	-9.60548
områdene	-9.60559
ograf	-9.60582
▁enten	-9.60766
ges	-9.60815
maskin	-9.60821
▁myr	-9.6083
▁ph	-9.6089
samisk	-9.61071
flu	-9.61077
ū	-9.61089
▁offisiell	-9.61089
▁profesjonell	-9.61089
▁1993	-9.61098
▁prosent	-9.61102
▁stavanger	-9.61103
▁hovedstaden	-9.61122
hel	-9.61151
▁200	-9.61248
elli	-9.61306
▁nivå	-9.61325
eller	-9.61331
▁real	-9.61336
▁jean	-9.6135
rike	-9.6135
lund	-9.61402
▁kam	-9.61485
▁fortsette	-9.61589
hal	-9.61638
arbeider	-9.6164
▁ana	-9.61799
▁hvite	-9.61889
fugl	-9.61889
▁national	-9.61923
▁1963	-9.61937
▁1974	-9.61939
▁1968	-9.61941
▁sjef	-9.6196
▁egentlig	-9.61963
voll	-9.62016
▁øke	-9.62031
rick	-9.62079
▁bedre	-9.62117
ney	-9.62138
▁organisasjon	-9.62163
ugh	-9.62173
▁vold	-9.62347
▁bri	-9.62392
well	-9.62411
▁ya	-9.62444
▁por	-9.62473
ula	-9.6253
ér	-9.62592
wi	-9.62711
▁områder	-9.6275
▁1983	-9.62763
▁michael	-9.62763
▁hverandre	-9.62763
▁hurtig	-9.62764
▁daglig	-9.6278
▁charles	-9.62789
▁forfatteren	-9.62812
▁nevnt	-9.62833
▁kul	-9.62892
▁styrke	-9.6296
▁vinner	-9.62974
▁koloni	-9.63033
▁stod	-9.63059
▁artene	-9.63074
▁høyere	-9.63122
ikken	-9.63166
▁georg	-9.63198
gangen	-9.63252
program	-9.63346
mand	-9.63406
kultur	-9.63417
tek	-9.63444
skudd	-9.63494
▁hit	-9.63496
▁pra	-9.635
87	-9.63591
▁amerika	-9.63601
▁forskning	-9.63604
▁rapport	-9.6361
nær	-9.63702
ische	-9.6372
▁viste	-9.63722
øyene	-9.63748
▁mak	-9.63757
▁oppført	-9.63813
ept	-9.63833
▁kh	-9.63864
person	-9.63993
▁kampen	-9.64011
shi	-9.64046
▁endret	-9.64053
▁hell	-9.64105
▁hovedstad	-9.64233
industri	-9.64236
ence	-9.64246
▁cas	-9.64265
▁musiker	-9.64284
que	-9.64339
▁publisert	-9.64465
▁1973	-9.64465
hjul	-9.6451
▁klubb	-9.64513
8	-9.6456
▁sammenheng	-9.64573
79	-9.64639
dahl	-9.64669
hard	-9.64758
▁ok	-9.64823
▁begrepet	-9.64923
▁produsent	-9.64928
▁rå	-9.64966
▁bol	-9.64985
▁produksjon	-9.64988
kommune	-9.65186
ernes	-9.65275
▁sju	-9.65295
▁arrangert	-9.65327
▁melodi	-9.65335
▁1967	-9.65343
▁slått	-9.65392
▁besøk	-9.65396
▁stammer	-9.65429
▁total	-9.65475
44	-9.65569
▁salt	-9.65583
▁tittel	-9.65619
▁hund	-9.65652
teri	-9.65695
▁dro	-9.65698
vatnet	-9.65706
krets	-9.65777
86	-9.65874
▁bøker	-9.65892
▁divisjon	-9.66043
ryk	-9.66103
forbund	-9.66116
plate	-9.66122
▁foreldre	-9.66199
▁2017	-9.66219
zy	-9.66234
graf	-9.66239
▁eiendom	-9.66243
▁totalt	-9.66263
80	-9.6628
ij	-9.66282
▁innført	-9.66388
fart	-9.66391
63	-9.66403
▁jobb	-9.66411
az	-9.66425
ssa	-9.66461
alis	-9.66499
klubb	-9.66534
▁lære	-9.66573
▁magne	-9.6658
verket	-9.66593
▁lund	-9.66642
▁benytte	-9.66666
▁miste	-9.6679
▁oppgave	-9.66806
▁karriere	-9.66836
62	-9.66844
våpen	-9.66905
hol	-9.66933
▁die	-9.66967
▁område	-9.66983
▁skips	-9.67014
▁dyre	-9.67063
▁1976	-9.67074
▁kardinal	-9.67074
▁komponist	-9.67074
▁professor	-9.67074
▁religiøs	-9.67074
▁øverst	-9.67075
hastighet	-9.67077
▁betegnelsen	-9.67102
▁fotballspiller	-9.67103
▁undersøkelse	-9.67154
▁brev	-9.67159
gul	-9.67193
drift	-9.67345
▁wal	-9.6739
▁ekspedisjon	-9.67433
▁gun	-9.67515
rup	-9.67527
▁journalist	-9.67582
ledning	-9.67584
mund	-9.67592
▁grev	-9.67638
▁reist	-9.67654
▁rad	-9.67758
▁johann	-9.67784
bank	-9.67822
ppen	-9.67832
kraftverk	-9.67836
ön	-9.67852
▁temperatur	-9.67855
25	-9.67862
▁hodet	-9.67938
▁klassisk	-9.67959
▁world	-9.67959
hund	-9.67969
▁1948	-9.67979
▁32	-9.67983
▁1940	-9.67986
▁ordfører	-9.67986
▁sivil	-9.68041
▁award	-9.68046
▁char	-9.68077
▁stadig	-9.68088
stripe	-9.68094
▁jesu	-9.68103
ith	-9.68104
rev	-9.68106
ins	-9.68144
72	-9.68186
▁heller	-9.68245
krit	-9.68248
▁festning	-9.68295
▁asia	-9.68309
nevn	-9.68403
▁blo	-9.68475
▁grunnlag	-9.68614
led	-9.68639
▁kjerne	-9.6876
43	-9.68762
ifiser	-9.68781
▁kri	-9.68807
▁1969	-9.68851
▁elektrisk	-9.68851
▁led	-9.68938
pin	-9.68967
▁hill	-9.69048
▁bon	-9.69113
▁behandling	-9.6912
qui	-9.69142
90	-9.69154
ekte	-9.69207
delen	-9.69223
▁danne	-9.69239
▁tyn	-9.6924
▁havet	-9.69278
▁driver	-9.69299
▁samlet	-9.69348
▁spre	-9.69421
▁tap	-9.69442
kammer	-9.69447
▁transport	-9.69564
standen	-9.69646
▁she	-9.69659
gaard	-9.69704
▁representant	-9.69719
▁richard	-9.69753
▁typisk	-9.69756
▁1979	-9.69769
▁1954	-9.69771
▁1920	-9.69781
▁befolkning	-9.69789
▁nåværende	-9.69791
linjen	-9.69848
▁jevn	-9.69851
▁part	-9.70061
mod	-9.70166
▁hva	-9.70199
eks	-9.70203
88	-9.70231
▁arne	-9.70264
▁betegne	-9.703
▁metal	-9.70314
ringer	-9.70394
▁sesong	-9.70429
atur	-9.70435
▁vm	-9.70436
▁avisen	-9.70492
lly	-9.70561
hvert	-9.70575
▁hertug	-9.7066
д	-9.70661
▁tydelig	-9.70665
▁1945	-9.70674
dorf	-9.70676
▁nam	-9.70822
jon	-9.70826
▁rang	-9.70853
foss	-9.70947
▁nabo	-9.71062
leng	-9.71087
▁cap	-9.71118
litt	-9.71169
▁stoppe	-9.71252
▁frukt	-9.71256
ras	-9.7127
▁che	-9.71298
ala	-9.71309
▁regjerings	-9.71309
gått	-9.71374
elige	-9.71382
▁turist	-9.71467
▁polsk	-9.71488
ón	-9.71513
anda	-9.71515
▁sørvest	-9.71585
▁øvre	-9.7159
▁1964	-9.71603
▁kull	-9.71608
ordenen	-9.7163
▁samfunns	-9.71684
ré	-9.7174
ella	-9.71766
▁skatt	-9.71877
▁mw	-9.71894
▁sykl	-9.7193
▁sort	-9.71937
▁sko	-9.71938
▁glo	-9.7207
▁adel	-9.72095
▁militære	-9.72101
▁krets	-9.72179
serien	-9.72179
▁unge	-9.72211
▁grenser	-9.72248
▁utvikle	-9.72276
▁rute	-9.7229
▁regjering	-9.72305
▁hæren	-9.72341
▁drive	-9.7235
▁dam	-9.72411
trafikk	-9.72418
ο	-9.72505
kra	-9.72515
▁1975	-9.72519
▁soldater	-9.72526
▁økonomisk	-9.72542
hav	-9.72555
kysten	-9.7256
▁penge	-9.72586
▁rygg	-9.72621
än	-9.72626
▁kap	-9.7269
rådet	-9.72722
▁strand	-9.72808
▁hoff	-9.72819
▁produksjons	-9.72854
ås	-9.72869
▁delvis	-9.7292
▁sende	-9.72966
▁masse	-9.73015
▁bruke	-9.73024
▁oppdaget	-9.73095
▁gla	-9.73133
jö	-9.73216
▁beskytte	-9.73232
▁fylkes	-9.73256
81	-9.73283
ritt	-9.733
car	-9.73304
▁gjelder	-9.73344
▁ask	-9.73345
▁åpen	-9.73395
▁århundre	-9.7344
▁lufthavn	-9.7345
▁1971	-9.73454
▁møtte	-9.73464
▁dato	-9.73599
91	-9.736
▁korea	-9.73604
▁åpne	-9.73604
▁krav	-9.73732
▁sky	-9.73754
▁direktør	-9.73778
▁auto	-9.7378
▁scene	-9.73782
slav	-9.73796
▁nrk	-9.73868
▁tonn	-9.74086
▁kost	-9.74092
▁historien	-9.74096
rør	-9.74143
▁seier	-9.74161
org	-9.74184
fjell	-9.74234
▁flagg	-9.74283
▁teksten	-9.74298
▁fjerde	-9.74383
skjold	-9.74384
▁ky	-9.74393
▁administrasjons	-9.74417
▁lansert	-9.7442
▁haug	-9.74548
æl	-9.74549
▁helge	-9.74573
▁dersom	-9.74591
▁nr	-9.74606
▁operasjon	-9.74638
12	-9.74647
strand	-9.74654
▁tilby	-9.74677
ān	-9.7475
56	-9.74888
46	-9.74888
▁mangle	-9.74968
▁tema	-9.75013
▁vanlige	-9.75057
▁rh	-9.75097
▁omtale	-9.75102
▁hunnen	-9.75126
▁røde	-9.75158
ville	-9.75189
gress	-9.75296
virksomhet	-9.75303
regionen	-9.75306
▁opprinnelse	-9.75335
▁sovjetunionen	-9.75335
▁teknisk	-9.75335
▁begynnelsen	-9.75339
▁mytologi	-9.75362
▁bevart	-9.75362
▁tapt	-9.75375
▁cro	-9.75406
▁amt	-9.75406
field	-9.75444
▁cup	-9.75488
vind	-9.7555
trær	-9.7558
▁tradisjon	-9.75594
▁hind	-9.75599
▁jakt	-9.7562
tunnelen	-9.75631
▁35	-9.75713
▁leve	-9.7573
▁egypt	-9.75814
▁ö	-9.75883
▁anlegget	-9.75903
▁bygde	-9.76051
14	-9.76182
fla	-9.76205
vekt	-9.76272
▁jorden	-9.76273
vikler	-9.76283
historie	-9.76287
ledd	-9.76306
▁klima	-9.76308
medlem	-9.76315
delse	-9.76323
▁harald	-9.7633
▁saint	-9.76333
ão	-9.76336
▁aktivitet	-9.76341
▁spill	-9.76349
▁flyplass	-9.76358
18	-9.76398
▁regel	-9.76506
voks	-9.76605
▁begynner	-9.76677
▁spiss	-9.76721
svarer	-9.7674
▁rein	-9.76767
▁typer	-9.76802
▁kvinner	-9.76835
▁prisen	-9.76876
▁tang	-9.76909
▁gutt	-9.76979
▁off	-9.76993
▁nan	-9.77102
▁bob	-9.7711
▁sim	-9.77112
▁alternativ	-9.77267
▁wilhelm	-9.77267
▁ytterligere	-9.77267
▁forteller	-9.77289
▁areal	-9.77311
äl	-9.77338
▁glass	-9.77365
▁city	-9.77414
▁bevis	-9.77484
▁song	-9.77504
gor	-9.77522
valget	-9.77535
ao	-9.77602
▁indisk	-9.77609
▁sikre	-9.77624
▁time	-9.77656
medalje	-9.77687
08	-9.77689
▁larven	-9.77712
uf	-9.77715
▁gall	-9.77727
▁arts	-9.77753
gal	-9.77782
▁tog	-9.77803
gli	-9.77816
11	-9.77862
▁livs	-9.77886
97	-9.77907
ød	-9.7795
▁henry	-9.77969
▁blei	-9.7805
dagen	-9.78066
▁cy	-9.78078
kilden	-9.78089
▁kristian	-9.78137
artist	-9.78146
▁vokal	-9.7815
▁vid	-9.78179
70	-9.78223
г	-9.78248
▁administrativ	-9.78248
▁kategori	-9.78248
▁brensel	-9.78249
▁canada	-9.78259
▁operatør	-9.78267
▁poeng	-9.78285
▁fjellet	-9.78288
▁high	-9.7831
▁hom	-9.78364
▁forsvar	-9.78368
▁sve	-9.78444
gin	-9.78505
▁wei	-9.78535
komite	-9.78607
spr	-9.78723
▁trolig	-9.78726
hild	-9.78761
▁nådd	-9.78767
variant	-9.78867
▁maur	-9.78872
▁dan	-9.79027
▁zo	-9.79036
▁max	-9.79081
▁poly	-9.79099
▁und	-9.7916
hen	-9.79167
▁aust	-9.79205
▁original	-9.79235
▁eksempler	-9.79238
▁tilgjengelig	-9.79238
▁arrangere	-9.79239
▁louis	-9.79239
skriv	-9.79241
▁lengre	-9.79244
▁1957	-9.79257
▁teknologi	-9.7932
▁ytre	-9.79383
▁lenger	-9.79434
▁tanke	-9.79458
▁oppdrag	-9.79472
▁larvene	-9.79561
▁overfor	-9.7973
▁base	-9.79937
▁gram	-9.79943
▁trøndelag	-9.80238
▁passasjer	-9.80238
▁personlig	-9.80246
▁byprefekture	-9.80252
61	-9.80272
▁trafikk	-9.8028
▁omfattende	-9.80303
75	-9.80343
skij	-9.8035
▁stoff	-9.80427
nummer	-9.80427
▁buss	-9.80478
▁grunnla	-9.80485
▁representerer	-9.80492
▁ting	-9.80505
grupper	-9.80513
▁tegnet	-9.80606
lom	-9.80609
▁avslutte	-9.80611
▁presse	-9.80615
▁reform	-9.80663
24	-9.80723
▁alder	-9.80917
▁kilde	-9.80932
▁hundre	-9.80936
maleri	-9.80936
▁folket	-9.81014
▁utøve	-9.81037
▁størrelse	-9.81208
▁australia	-9.81248
▁1955	-9.81248
▁bronse	-9.8127
▁hente	-9.81283
▁omtalt	-9.81293
▁jule	-9.8133
▁anna	-9.81347
▁filosofi	-9.81373
▁akademi	-9.81392
sport	-9.81425
feltet	-9.81431
▁hopp	-9.81467
71	-9.81628
▁resten	-9.81633
▁sørlige	-9.8166
▁tolk	-9.81733
can	-9.81822
dommen	-9.81822
vegg	-9.8184
kamera	-9.81887
kirke	-9.81911
▁strid	-9.81913
▁ze	-9.81953
▁sterke	-9.82055
plassen	-9.82069
▁omfatte	-9.82146
▁sendte	-9.82164
part	-9.82211
verdig	-9.8222
▁90	-9.82266
ō	-9.82268
kommunikasjon	-9.82268
м	-9.82268
▁øvrig	-9.82268
▁formann	-9.82284
last	-9.82285
▁1965	-9.82297
▁hed	-9.82356
løsning	-9.82363
▁sendt	-9.82433
▁israel	-9.82439
merket	-9.82491
▁north	-9.82516
▁stasjonen	-9.82598
▁bevegelse	-9.8262
▁hær	-9.82734
kos	-9.82797
kes	-9.82807
▁bydel	-9.82902
▁rollen	-9.82994
▁kanon	-9.83045
▁hage	-9.83051
legge	-9.83098
▁ris	-9.83107
▁bud	-9.83173
▁mini	-9.83297
belteasteroide	-9.83299
▁introdusert	-9.83299
▁joseph	-9.833
▁kjærlighet	-9.833
▁vokste	-9.83305
▁stadion	-9.83306
▁kroner	-9.83317
▁1958	-9.83319
▁mikro	-9.83326
▁single	-9.83328
▁gjennomført	-9.83416
▁instrument	-9.83426
▁tverr	-9.83451
kontor	-9.83492
▁endt	-9.83494
▁bryst	-9.83501
former	-9.83588
▁with	-9.83605
▁mess	-9.83616
▁institutt	-9.83684
▁fot	-9.83722
▁overgang	-9.83853
fold	-9.83911
▁pas	-9.83927
▁est	-9.83928
н	-9.83995
▁kvi	-9.84044
▁long	-9.84151
▁forkorte	-9.84254
▁grupper	-9.84283
arter	-9.84312
▁tilhørte	-9.84341
▁religion	-9.84341
▁fremdeles	-9.84342
▁kontakt	-9.84346
▁college	-9.84363
kirken	-9.84376
▁kontor	-9.84399
fang	-9.8448
middel	-9.84501
▁høye	-9.84504
▁dog	-9.84591
▁forsker	-9.8463
▁styrker	-9.84683
mond	-9.84702
▁eva	-9.84743
▁kalk	-9.84809
▁lenge	-9.84818
ledet	-9.84835
fabrikk	-9.84904
▁festival	-9.85012
▁tsj	-9.85089
punktet	-9.85116
vre	-9.85209
▁records	-9.85394
▁nødvendig	-9.85394
▁bokstav	-9.85396
▁fredrik	-9.85406
▁1956	-9.85411
▁lengst	-9.85419
▁metode	-9.85422
▁bakgrunn	-9.8545
▁opptre	-9.85544
periode	-9.85579
▁trener	-9.8559
møte	-9.856
▁benyttes	-9.85743
▁kalle	-9.8575
▁tids	-9.85804
▁sær	-9.85824
▁opphav	-9.85858
appe	-9.8592
▁cre	-9.86098
con	-9.86123
gikk	-9.86143
▁katolske	-9.86241
korps	-9.86275
sjø	-9.86287
▁innsjøen	-9.86292
▁politikk	-9.86294
dannelse	-9.86313
▁uavhengig	-9.86394
saker	-9.86398
mennene	-9.86414
▁nærmere	-9.8647
cha	-9.86474
▁1946	-9.86475
▁bølge	-9.86485
▁videregående	-9.8649
▁un	-9.86497
▁konkurranse	-9.8654
▁kristen	-9.86594
bånd	-9.86645
28	-9.86657
▁kvinnelig	-9.86706
▁pin	-9.86722
▁gold	-9.86729
aksjon	-9.86731
▁gy	-9.86759
legger	-9.86794
▁mid	-9.8686
dar	-9.86972
egnet	-9.8698
▁il	-9.87025
hall	-9.8707
vitsj	-9.87082
ky	-9.87089
feld	-9.87172
bare	-9.87173
▁que	-9.87245
▁dør	-9.87381
▁etterfulgt	-9.87533
▁kunnskap	-9.87534
▁1930	-9.87563
▁alltid	-9.87612
▁bodde	-9.8764
▁verne	-9.8765
hor	-9.8767
▁kjempe	-9.87812
▁lignende	-9.87818
▁music	-9.87879
▁may	-9.87917
19	-9.88001
illa	-9.88052
▁hjelpe	-9.88065
▁ung	-9.8814
▁marie	-9.88157
▁fordel	-9.882
rek	-9.88265
svik	-9.88318
makt	-9.88523
▁gyl	-9.88581
у	-9.8862
▁1952	-9.8862
▁xiàn	-9.8862
▁flertall	-9.88621
▁tegneserie	-9.88627
▁ekteskap	-9.88632
▁1944	-9.88639
49	-9.88644
trinn	-9.88699
45	-9.88707
▁tam	-9.88756
sberg	-9.88781
▁albert	-9.88784
▁mege	-9.88784
▁tour	-9.88825
utvikling	-9.88867
▁midten	-9.89066
▁skilt	-9.89116
▁motiv	-9.89134
▁strekk	-9.89138
99	-9.8921
▁epi	-9.89227
ique	-9.89232
▁ramme	-9.89244
▁euro	-9.89289
▁tj	-9.89317
▁studier	-9.894
▁prøve	-9.89414
▁posisjon	-9.89547
▁normalt	-9.89597
▁struktur	-9.89613
▁utdanning	-9.89637
▁ånd	-9.89654
gjort	-9.89706
й	-9.89719
▁selvstendig	-9.89719
▁dialekt	-9.8972
▁kommuner	-9.89737
▁snakke	-9.89764
▁salg	-9.89825
▁ube	-9.89829
▁sønnen	-9.89875
▁jur	-9.89896
▁ekstra	-9.89903
album	-9.89976
prosjekt	-9.89989
▁hode	-9.90073
kanten	-9.90076
▁tettsted	-9.90116
▁forlot	-9.90222
lon	-9.90228
▁inndel	-9.90247
▁cam	-9.90247
forhold	-9.90283
▁materiale	-9.90287
▁tan	-9.90291
▁deles	-9.90301
▁gil	-9.90326
▁ali	-9.90351
▁yu	-9.9039
▁tale	-9.90402
klubben	-9.90469
øvelse	-9.90472
▁sten	-9.90538
▁historiker	-9.90557
▁vær	-9.90643
▁fordelt	-9.90678
én	-9.90678
▁fabrikk	-9.90692
eide	-9.90793
sekretær	-9.90816
ł	-9.9083
▁middelsstor	-9.9083
▁1953	-9.9083
▁primær	-9.9083
▁spesiell	-9.90831
▁regissert	-9.90831
▁united	-9.90832
▁sekund	-9.9084
▁artikkel	-9.90841
▁1962	-9.9085
▁forekommer	-9.90854
veis	-9.90876
▁hon	-9.9088
▁vinge	-9.90881
▁1900	-9.90895
▁atlant	-9.9092
plikt	-9.91
▁bonde	-9.91059
møll	-9.91061
▁kvar	-9.91078
åpning	-9.91083
isa	-9.91102
▁santa	-9.91133
leir	-9.91185
syre	-9.91218
krigen	-9.9129
▁nar	-9.91366
▁utviklingen	-9.91442
▁bass	-9.91505
herre	-9.91548
▁våren	-9.91598
▁kj	-9.91601
▁dun	-9.91686
antenne	-9.91712
▁fyrst	-9.91765
▁sovjetisk	-9.91775
gate	-9.91791
▁kjøre	-9.91827
fil	-9.9192
▁holder	-9.91949
ς	-9.91953
▁hustru	-9.91956
▁1959	-9.91969
▁1928	-9.9197
▁stortings	-9.91977
aktiv	-9.92031
▁vers	-9.92065
▁yngre	-9.92081
17	-9.92095
▁ungdom	-9.92122
59	-9.92157
miljø	-9.92277
produkt	-9.92278
figur	-9.92278
▁kloster	-9.92359
▁jarl	-9.92362
▁gruve	-9.92384
imot	-9.92398
▁status	-9.92447
bakken	-9.92449
▁huset	-9.92462
▁forsøkt	-9.92497
▁damp	-9.92527
▁vannet	-9.92547
følgende	-9.92572
▁listen	-9.92649
▁verket	-9.92788
komp	-9.9282
21	-9.92864
38	-9.92888
▁tross	-9.92955
hm	-9.9306
vå	-9.93061
▁offisielt	-9.9309
▁service	-9.9309
▁nevnes	-9.93096
▁multi	-9.93096
▁dynastiet	-9.93096
▁tidsskrift	-9.93102
▁skjedde	-9.93107
▁fungere	-9.93126
stjerne	-9.93131
▁jordbruk	-9.93157
▁bidrag	-9.93157
pur	-9.93203
nettverk	-9.93257
▁prins	-9.9326
▁45	-9.93262
▁normal	-9.93273
▁klarte	-9.93285
▁nes	-9.93347
▁underlagt	-9.93378
slekt	-9.93381
▁horn	-9.93443
vekst	-9.93482
bedrift	-9.93533
▁atom	-9.93682
nngår	-9.93749
ios	-9.93772
23	-9.93835
▁live	-9.93923
elv	-9.93961
▁bio	-9.93981
▁old	-9.94037
rolle	-9.94096
▁motta	-9.94105
▁sider	-9.94161
▁marc	-9.94221
▁mexico	-9.94239
▁tilknytte	-9.94239
▁insekt	-9.94244
▁bakvingen	-9.94244
▁ridder	-9.94249
▁vokser	-9.94279
▁sier	-9.94287
▁dokument	-9.94352
somme	-9.9441
▁rør	-9.94481
▁kjell	-9.94544
▁cirk	-9.94568
forfatter	-9.94617
▁bay	-9.94761
motor	-9.94888
▁bærer	-9.94928
fond	-9.94928
▁fø	-9.94945
linje	-9.95006
▁kalte	-9.9503
▁sykehus	-9.9503
▁komme	-9.95042
▁tettstedet	-9.95051
▁300	-9.95053
▁sterk	-9.9515
96	-9.95186
vannet	-9.95188
▁fylket	-9.95275
pha	-9.95364
ν	-9.95402
▁utgangspunkt	-9.95402
▁beijing	-9.95402
fær	-9.95419
▁1961	-9.9542
▁oscar	-9.95426
35	-9.95625
▁organisert	-9.95762
▁mol	-9.95764
▁fisk	-9.95822
▁kjenne	-9.95822
▁stille	-9.9587
▁king	-9.95881
▁polen	-9.95906
mming	-9.95928
▁sete	-9.96012
▁athen	-9.9605
styrken	-9.96051
lege	-9.96051
27	-9.96075
▁mengde	-9.96078
▁rask	-9.96213
▁bombe	-9.9624
▁syr	-9.96256
hunder	-9.96283
ary	-9.96288
linjer	-9.96348
▁gjeste	-9.96357
▁38	-9.9637
▁kongelig	-9.964
▁rep	-9.96406
▁south	-9.96453
rimot	-9.96491
▁forskjell	-9.96501
▁univers	-9.96557
▁alkohol	-9.96578
▁konflikt	-9.96578
▁jazz	-9.96579
▁school	-9.96579
▁gustav	-9.9658
▁hovedrollen	-9.96582
▁frederik	-9.96585
▁tolv	-9.96589
blo	-9.96594
▁provins	-9.96603
▁utga	-9.96621
▁nordland	-9.96655
▁innsats	-9.96659
▁otto	-9.96668
▁vokalist	-9.96725
dikt	-9.96836
dømt	-9.96946
festival	-9.97007
▁femte	-9.97013
kasse	-9.97056
kort	-9.97079
avdeling	-9.9708
▁master	-9.97101
▁kommunene	-9.9711
prisen	-9.97249
▁hou	-9.97262
▁problem	-9.9728
town	-9.97304
▁vitenskapelig	-9.97368
formen	-9.97422
▁up	-9.97429
▁kysten	-9.97438
▁eli	-9.97486
▁skriver	-9.97527
▁velge	-9.97558
▁toppen	-9.97591
▁camp	-9.9762
▁liberal	-9.9767
yang	-9.97706
▁parlament	-9.97768
▁innbyggertall	-9.97769
▁positiv	-9.97769
▁nordisk	-9.97777
oma	-9.97789
▁frø	-9.97803
▁daniel	-9.97809
▁straffe	-9.9783
▁stam	-9.97872
▁eksempelvis	-9.97959
▁ankom	-9.97976
▁petter	-9.9814
▁revolusjon	-9.98159
▁simon	-9.98195
vente	-9.98256
trakk	-9.9827
▁samarbeidet	-9.98288
▁objekt	-9.9833
flo	-9.98397
▁rosen	-9.9844
post	-9.98449
▁hydro	-9.98542
▁lot	-9.98552
▁sun	-9.98697
▁blomster	-9.98706
▁nederland	-9.98827
sand	-9.98843
stasjonen	-9.98861
▁150	-9.9893
▁oppdag	-9.98959
▁spania	-9.98976
▁fokus	-9.98979
▁1942	-9.99
▁1966	-9.99002
sol	-9.99036
▁uttalt	-9.99069
ada	-9.99084
firma	-9.99088
▁gjenopp	-9.99155
▁lavere	-9.99187
▁unn	-9.99239
▁ref	-9.99293
▁green	-9.99414
▁romanen	-9.99453
▁spørsmål	-9.99566
båter	-9.99568
▁kvalitet	-9.9959
▁beskrevet	-9.99626
▁levert	-9.9964
▁gor	-9.99737
▁former	-9.99741
▁sho	-9.99754
▁fc	-9.99784
▁økonomi	-9.99832
▁systemet	-9.99841
▁harry	-9.99844
▁kjemisk	-9.99864
▁kone	-9.9992
▁spillet	-9.99961
▁ansatte	-9.99961
kur	-10
▁kjøl	-10.0008
▁sti	-10.0016
▁virkelig	-10.0017
▁betrakte	-10.0019
▁club	-10.002
▁hjerne	-10.002
▁oblast	-10.0021
▁1924	-10.0021
▁kode	-10.0023
strøk	-10.0025
oksid	-10.0027
▁utføre	-10.0028
▁forretnings	-10.0035
▁likhet	-10.0047
▁kamper	-10.0048
delt	-10.0051
bytte	-10.0054
▁ansvarlig	-10.0067
stamme	-10.0068
▁planter	-10.0069
▁sunn	-10.0072
bøker	-10.008
▁foto	-10.0081
wald	-10.0087
▁400	-10.0087
▁moder	-10.009
hei	-10.01
oid	-10.0101
mba	-10.0119
bein	-10.012
slaget	-10.0123
gift	-10.0127
komst	-10.0128
▁dokumenter	-10.0131
▁mei	-10.0133
▁qua	-10.0134
92	-10.0135
bak	-10.0137
▁eventyr	-10.0143
▁meta	-10.0143
▁håndball	-10.0145
▁smith	-10.0145
faktor	-10.0146
▁norman	-10.0152
legging	-10.0153
▁aksje	-10.0155
▁økonomiske	-10.0157
▁dor	-10.0163
ín	-10.0163
stått	-10.0174
▁enkle	-10.0175
▁bispedømme	-10.0182
▁bygg	-10.0189
▁1800	-10.0197
prosess	-10.0198
▁ansvar	-10.0198
forbindelse	-10.0198
▁jag	-10.0199
▁thr	-10.0207
▁motsetning	-10.0215
▁regional	-10.0219
▁trond	-10.0222
gler	-10.0229
▁will	-10.0231
▁ull	-10.0231
cent	-10.0232
94	-10.0237
▁leon	-10.0237
staten	-10.0241
▁bosetning	-10.0244
▁kai	-10.0248
▁offiser	-10.0251
bevegelsen	-10.0251
▁bord	-10.0254
▁statlig	-10.0255
uch	-10.0256
byrå	-10.0256
▁offentlige	-10.0257
▁buk	-10.0265
▁california	-10.0268
▁jødisk	-10.0268
▁stortinget	-10.0268
▁1918	-10.027
▁drag	-10.0272
▁filip	-10.0273
▁populære	-10.0278
▁filosof	-10.0284
▁ark	-10.0286
▁ein	-10.0288
▁dalen	-10.0298
▁kyr	-10.0311
▁moren	-10.0314
▁klo	-10.0316
politikk	-10.0326
produsent	-10.0326
historisk	-10.0326
▁slå	-10.033
▁innsjø	-10.0335
▁troll	-10.034
▁rose	-10.0347
▁mah	-10.0353
▁75	-10.0357
▁dj	-10.037
▁sammenligne	-10.0375
▁ola	-10.0378
▁zu	-10.0381
▁årsak	-10.0389
ß	-10.0389
▁kreft	-10.0394
▁innflytelse	-10.0394
▁inspirert	-10.0394
▁digital	-10.0394
▁royal	-10.0395
▁kjønn	-10.0396
▁1949	-10.0396
grep	-10.0399
▁republikken	-10.0399
▁effektiv	-10.0401
▁dvs	-10.0402
▁formen	-10.0406
▁tone	-10.0407
▁din	-10.0412
▁cra	-10.0418
blomst	-10.0419
▁institut	-10.0425
språklig	-10.0425
▁finalen	-10.0426
fjellet	-10.0428
▁handel	-10.0459
▁ud	-10.0464
måte	-10.0465
▁innhold	-10.0469
▁behold	-10.0472
16	-10.0475
на	-10.0477
vika	-10.0493
▁tun	-10.0496
▁bou	-10.0501
▁orkester	-10.0502
▁stig	-10.0512
dekke	-10.0518
▁sistnevnte	-10.0523
▁himmel	-10.0523
▁svak	-10.0525
▁veldig	-10.0527
▁sverd	-10.0528
▁ukjent	-10.0529
▁iso	-10.0529
▁län	-10.053
▁problemer	-10.053
▁snø	-10.0531
cal	-10.0536
eksamen	-10.0536
livet	-10.0536
▁forvingen	-10.0537
▁bibel	-10.0539
▁undervisning	-10.054
▁sveits	-10.054
cca	-10.055
alitet	-10.0551
konkurranse	-10.0555
▁fotballklubb	-10.0559
ulykke	-10.0565
▁kim	-10.0565
▁hannen	-10.0567
▁fett	-10.0568
▁laste	-10.0568
istene	-10.0573
▁brenn	-10.0575
▁stri	-10.0582
ulf	-10.0588
▁bit	-10.0593
▁tusen	-10.0593
▁irland	-10.0595
▁dommer	-10.0597
eppe	-10.0611
▁behandle	-10.0619
▁stand	-10.0627
tunnel	-10.0629
kler	-10.0643
passet	-10.0651
mesterskapet	-10.0652
▁deriblant	-10.0652
▁kombinert	-10.0653
▁generelt	-10.0653
▁1932	-10.0654
▁hotell	-10.0656
▁nasjonalpark	-10.0658
▁nærheten	-10.0661
▁00	-10.0663
▁irsk	-10.0672
▁kilder	-10.0675
▁tradisjonel	-10.0678
fjellene	-10.0679
▁møter	-10.0682
▁jack	-10.0686
▁middelalderen	-10.0703
▁solo	-10.0704
▁preget	-10.0713
▁sideelv	-10.0715
▁manus	-10.0727
stemt	-10.0728
vogn	-10.0732
▁tråd	-10.0741
▁kaste	-10.0744
▁liga	-10.0751
jord	-10.0758
▁psyko	-10.0764
▁måneder	-10.0778
ì	-10.0784
▁publikum	-10.0784
▁alvorlig	-10.0784
▁østerrike	-10.0784
▁hemmelig	-10.0784
▁magnus	-10.0785
▁fysisk	-10.0785
▁autonom	-10.0785
▁begrense	-10.0785
▁1936	-10.0787
▁papir	-10.0787
▁rand	-10.0802
▁tilhøre	-10.081
▁agder	-10.0811
▁mobil	-10.0813
psykologi	-10.0822
▁gjer	-10.0823
▁sankt	-10.0824
ikkel	-10.0825
▁landsby	-10.0825
▁33	-10.0831
chester	-10.0841
trekning	-10.0843
▁endelig	-10.0854
▁flåte	-10.0855
▁slott	-10.086
▁utstilling	-10.0863
15	-10.0869
▁falt	-10.0872
▁sup	-10.0874
lid	-10.0878
bs	-10.088
▁rekord	-10.0891
▁korn	-10.0902
▁coll	-10.0905
▁kari	-10.0913
▁wil	-10.0916
▁ekstrem	-10.0917
▁redusere	-10.0918
▁1933	-10.0919
▁smak	-10.0921
▁debuterte	-10.0922
▁sikkerhets	-10.0927
versjon	-10.0927
lé	-10.093
▁show	-10.0935
▁kapell	-10.0936
▁steve	-10.0937
▁arve	-10.0945
▁overført	-10.0949
▁internasjonalt	-10.0955
▁anlegg	-10.0955
▁cur	-10.0956
▁jøde	-10.0958
bal	-10.0964
▁hovedsak	-10.0967
▁uttale	-10.0968
visning	-10.0968
▁malt	-10.0982
mynt	-10.0986
▁bredt	-10.0987
▁fritt	-10.099
▁nedre	-10.0991
museum	-10.0994
▁landslag	-10.1002
▁berømte	-10.1006
▁utvidet	-10.1015
▁endre	-10.1019
▁tho	-10.1027
22	-10.1034
▁gli	-10.1035
▁olsen	-10.1038
hallen	-10.1038
▁inge	-10.1041
▁friedrich	-10.1052
▁vunnet	-10.1052
▁1931	-10.1052
▁bidro	-10.1053
▁slank	-10.1054
▁kritikk	-10.1054
▁referere	-10.1054
▁1939	-10.1055
▁unntak	-10.1055
▁utvalg	-10.1056
▁stål	-10.1056
aceae	-10.1056
▁с	-10.1057
▁eksport	-10.1061
hode	-10.1063
▁kil	-10.1066
▁stabil	-10.1071
▁latinsk	-10.1073
▁grov	-10.1077
▁oversettelse	-10.1081
hopp	-10.1089
gelse	-10.1093
havn	-10.1095
løpet	-10.1096
▁feng	-10.1099
▁utdannelse	-10.111
rommet	-10.1119
distrikt	-10.1127
29	-10.1128
komedie	-10.1132
hånd	-10.1132
▁landskapet	-10.1139
turnering	-10.1141
▁kontrakt	-10.1144
▁bydelen	-10.1149
war	-10.1159
gå	-10.1163
▁landskap	-10.1164
▁bånd	-10.1165
døgn	-10.1167
▁snart	-10.1168
▁och	-10.1168
▁jobbet	-10.1172
▁parken	-10.1174
▁fullstendig	-10.1189
▁ishockey	-10.1189
▁fullført	-10.1192
▁1947	-10.1192
▁vet	-10.1193
▁tryg	-10.1194
▁artister	-10.1199
parten	-10.1208
▁app	-10.1208
isse	-10.1217
▁zi	-10.1217
▁team	-10.1226
▁nm	-10.1226
▁ran	-10.1227
▁hul	-10.1229
ward	-10.1232
ship	-10.1233
spenn	-10.1235
▁internett	-10.1237
▁menighet	-10.1247
▁andreas	-10.1254
13	-10.1254
▁eie	-10.1255
▁språket	-10.1266
betegnelse	-10.1268
▁vist	-10.127
▁tau	-10.127
▁markert	-10.1276
93	-10.1282
▁forbund	-10.1283
▁cd	-10.1284
▁starter	-10.1284
dam	-10.1288
▁medisinsk	-10.1289
verdi	-10.129
typen	-10.1292
▁valget	-10.1297
▁kald	-10.1303
▁grunnlegger	-10.1305
▁fan	-10.1306
fekt	-10.1311
▁wu	-10.1311
▁mono	-10.1313
masse	-10.1319
duk	-10.1324
▁nowiki	-10.1328
▁alexander	-10.1328
▁spise	-10.1329
skilt	-10.1332
▁jackson	-10.1334
▁handle	-10.1344
▁metro	-10.1354
vakt	-10.1355
▁grøn	-10.1355
▁grunnlegge	-10.136
▁chu	-10.1364
▁cri	-10.1367
▁østlige	-10.1372
▁akk	-10.1375
styrke	-10.1382
▁konkurransen	-10.1388
▁kara	-10.1392
▁160	-10.1394
▁score	-10.1399
pass	-10.1406
bul	-10.1408
forskning	-10.1414
▁tekster	-10.1419
▁boy	-10.1425
▁brand	-10.1432
myr	-10.1434
går	-10.1437
sso	-10.1443
▁eide	-10.1445
basert	-10.1446
tank	-10.1446
▁neu	-10.1446
▁flor	-10.1451
▁abb	-10.1451
forsvar	-10.1452
▁blokk	-10.1452
▁sul	-10.1461
▁lån	-10.1463
▁installert	-10.1469
▁redusert	-10.1469
misjonær	-10.147
▁fengsel	-10.1472
▁bull	-10.1473
▁varierer	-10.1477
▁grunnet	-10.1487
strid	-10.1488
▁kok	-10.149
▁produksjonen	-10.1498
bol	-10.1502
sentre	-10.1518
▁anton	-10.1524
▁fotograf	-10.1526
▁adam	-10.1529
kontroll	-10.1532
▁mitt	-10.1532
▁kru	-10.1533
flekk	-10.1535
▁cand	-10.1536
trådte	-10.1541
▁matt	-10.1545
▁begrep	-10.1551
▁170	-10.1558
hem	-10.1559
direktør	-10.156
født	-10.1563
▁skall	-10.1563
▁aur	-10.1568
sending	-10.1568
▁vekst	-10.157
▁qui	-10.1572
base	-10.1574
▁jam	-10.1582
▁dukke	-10.1583
▁saken	-10.1595
stitusjon	-10.1606
▁individ	-10.1612
▁moskva	-10.1612
▁vingespenn	-10.1613
▁forårsake	-10.1613
▁blanding	-10.1613
plattform	-10.1613
▁kveld	-10.1613
▁behov	-10.1613
▁islam	-10.1614
▁rolf	-10.1614
▁1951	-10.1615
▁bell	-10.1622
gud	-10.1624
▁demningen	-10.163
▁typen	-10.1631
vald	-10.1642
▁storm	-10.1644
▁vill	-10.1644
▁ulik	-10.165
▁morgen	-10.1654
▁chang	-10.1671
▁sco	-10.1672
▁armen	-10.1688
▁vogn	-10.169
▁viking	-10.1692
▁middelalder	-10.1702
▁utløp	-10.1714
▁poet	-10.1723
▁medisin	-10.1724
klassen	-10.1729
sfjorden	-10.1736
▁gui	-10.1737
▁linjen	-10.1743
▁flu	-10.1746
ç	-10.1757
▁utbredt	-10.1757
▁fjær	-10.1757
▁jakob	-10.1757
▁luther	-10.1758
▁streng	-10.1758
▁svømme	-10.1759
▁litterær	-10.1759
▁praktisk	-10.1759
▁1938	-10.1759
▁1943	-10.176
▁skotsk	-10.1762
▁hum	-10.1762
▁forvaltnings	-10.1763
▁intern	-10.1769
fred	-10.1773
reise	-10.1774
▁för	-10.1775
▁angi	-10.1775
▁rob	-10.1778
▁stillingen	-10.178
▁bære	-10.1784
dommer	-10.1792
▁lake	-10.1795
▁emil	-10.181
ruten	-10.1811
▁kåre	-10.1814
▁kjemi	-10.1817
departement	-10.1828
later	-10.1831
▁hals	-10.1833
▁back	-10.1834
strømmen	-10.1837
▁jim	-10.1837
▁kommando	-10.1837
▁føde	-10.1838
▁timer	-10.1841
▁inntekt	-10.1842
osa	-10.1844
drevet	-10.1845
▁ligne	-10.1846
▁beskriver	-10.1859
drakt	-10.1859
able	-10.1859
▁utover	-10.1864
▁800	-10.1865
▁luc	-10.1867
folket	-10.1868
▁kg	-10.1877
▁qi	-10.188
bakk	-10.1901
▁video	-10.1904
arrangement	-10.1904
▁umiddelbar	-10.1904
▁erobret	-10.1904
▁nikola	-10.1904
▁fiolin	-10.1904
pedagog	-10.1904
▁naturreservat	-10.1905
▁konstant	-10.1905
▁unntatt	-10.1905
▁scott	-10.1911
▁portrett	-10.1914
▁liber	-10.1916
soldat	-10.192
▁nyhet	-10.1922
▁arkitektur	-10.1923
▁fløy	-10.1924
ordning	-10.1925
▁angeles	-10.1926
yrk	-10.1936
▁uke	-10.1939
▁sønd	-10.194
▁from	-10.1952
▁oversatt	-10.1954
▁internasjonal	-10.196
▁utgi	-10.1961
botn	-10.1963
krig	-10.1972
▁driv	-10.1979
formede	-10.1984
▁sven	-10.1988
ordnet	-10.2008
▁vakt	-10.2008
▁disk	-10.2016
▁funn	-10.2028
styrt	-10.2034
▁sist	-10.2042
idrett	-10.2049
bekk	-10.2049
▁studio	-10.2053
▁symptom	-10.2053
▁company	-10.2053
▁skottland	-10.2053
▁nominert	-10.2053
▁kommunal	-10.2053
▁strategi	-10.2053
▁utnytte	-10.2054
▁debut	-10.2058
situasjon	-10.206
ressurs	-10.2066
bebyggelse	-10.2066
forsker	-10.2067
▁einar	-10.2067
▁deltaker	-10.2067
▁mala	-10.2069
▁øyene	-10.2069
▁besøkt	-10.2074
tysk	-10.2081
skipet	-10.209
▁ray	-10.2091
vandring	-10.2093
sidig	-10.21
▁ulv	-10.2101
▁angel	-10.2121
▁palm	-10.2132
▁advokat	-10.2133
▁grei	-10.2135
▁telemark	-10.214
åsen	-10.2143
▁fru	-10.215
▁andersen	-10.2156
▁roll	-10.2158
ical	-10.2161
amerikansk	-10.2163
▁sats	-10.2177
▁pic	-10.2179
32	-10.2193
▁kommet	-10.2196
▁prosjektet	-10.2197
▁hellige	-10.22
▁antagelig	-10.2205
▁american	-10.2205
▁saga	-10.2205
hjørne	-10.2205
▁fattig	-10.2205
▁kristne	-10.2205
▁klassen	-10.2206
▁befinne	-10.2208
innspilling	-10.2208
gram	-10.2209
▁signert	-10.2209
▁spredt	-10.221
▁nedlagt	-10.2215
▁jiang	-10.2217
▁hitler	-10.2217
▁ledende	-10.2221
▁russe	-10.2222
kostnad	-10.2222
▁rulle	-10.2224
▁bakken	-10.2225
▁fartøy	-10.2231
▁billed	-10.2244
▁karakteristisk	-10.2247
▁fjernet	-10.226
vold	-10.2274
▁svar	-10.2279
polis	-10.2279
roman	-10.2287
formasjon	-10.2288
forbundet	-10.2295
ømme	-10.2296
▁salme	-10.2299
▁frihet	-10.2302
▁dobbelt	-10.2308
politisk	-10.2321
▁butikk	-10.2328
▁forbundet	-10.2333
▁tran	-10.2343
modell	-10.2349
▁polar	-10.2357
▁sjelden	-10.2359
▁minutter	-10.2359
▁tømmer	-10.2359
▁debutalbum	-10.2359
▁pet	-10.236
▁white	-10.236
stipend	-10.236
▁1927	-10.2361
▁1921	-10.2361
▁1919	-10.2361
▁1914	-10.2361
▁arendal	-10.2361
næs	-10.2363
▁mongol	-10.2363
▁finnmark	-10.2363
▁arkiv	-10.2364
▁hovedkontor	-10.2366
bygget	-10.2366
▁pap	-10.2366
▁passerer	-10.2367
tekst	-10.2371
▁vig	-10.2377
▁dru	-10.2379
▁grim	-10.2383
▁munk	-10.2386
▁grønland	-10.2387
▁drikke	-10.2393
▁pensjon	-10.2397
▁formål	-10.2409
▁junior	-10.2411
▁bach	-10.2413
▁politiet	-10.2418
▁motsatt	-10.2418
▁beskrev	-10.2438
▁return	-10.2439
▁idrettslag	-10.2447
▁stilte	-10.2473
teater	-10.2475
▁press	-10.2475
▁bygger	-10.2476
olje	-10.2477
kjøp	-10.2478
hai	-10.2485
bygningen	-10.2492
▁kha	-10.2497
▁eik	-10.2504
høgskole	-10.2506
administrasjon	-10.2509
▁museet	-10.2514
pningsseremonien	-10.2515
▁beseiret	-10.2515
▁initiativ	-10.2515
▁ludvig	-10.2515
▁anerkjent	-10.2515
▁edvard	-10.2515
▁nedenfor	-10.2516
▁etterfølger	-10.2517
▁1912	-10.2518
▁krever	-10.2518
▁brown	-10.2519
demokrati	-10.2519
kjent	-10.2519
▁troms	-10.2521
▁bydistrikt	-10.2521
halvøya	-10.2524
levende	-10.2525
▁detalj	-10.2525
▁hersker	-10.2526
▁tempel	-10.2526
26	-10.2526
cio	-10.2528
metri	-10.2529
▁good	-10.2542
brev	-10.2547
▁wood	-10.2549
▁bladet	-10.2574
slutt	-10.2578
▁gitarist	-10.258
▁unngå	-10.2602
▁gruppa	-10.2606
▁abd	-10.2607
▁wall	-10.2611
▁arab	-10.2627
▁az	-10.2631
▁bosatt	-10.2633
▁lord	-10.2638
president	-10.2639
▁vingene	-10.2643
▁vor	-10.2643
▁600	-10.2648
ctor	-10.2649
▁søke	-10.265
▁vass	-10.2654
høyde	-10.2662
lignende	-10.2668
▁niels	-10.2671
▁erkebiskop	-10.2674
▁county	-10.2674
▁flaggbærer	-10.2674
▁jørgen	-10.2674
▁skiftet	-10.2674
▁nektet	-10.2674
▁brøt	-10.2675
▁1926	-10.2675
▁1929	-10.2675
▁1935	-10.2676
mønster	-10.2676
▁group	-10.2677
kampen	-10.2677
▁vannkraftverk	-10.2679
▁turneringen	-10.268
▁lokalisert	-10.2681
▁institusjon	-10.2681
▁bygninger	-10.2681
▁beskrive	-10.2683
sikring	-10.2684
▁skaper	-10.2684
krat	-10.2685
▁høst	-10.2686
▁skinn	-10.2689
galleri	-10.2689
europe	-10.2693
▁kapasitet	-10.2697
▁enorm	-10.27
kommende	-10.2702
▁lønn	-10.2703
▁tørr	-10.2705
▁katolsk	-10.2706
▁histori	-10.2709
▁aas	-10.2716
bryter	-10.2719
▁kaptein	-10.273
▁kompleks	-10.2742
▁web	-10.2768
▁beina	-10.2774
▁intel	-10.2783
▁overleve	-10.2787
33	-10.2799
▁forsvaret	-10.28
▁kandidat	-10.28
front	-10.2806
▁bibliotek	-10.2807
▁signal	-10.2808
awa	-10.2809
hagen	-10.281
▁malm	-10.2815
▁bevegelsen	-10.2819
strek	-10.2825
▁bakke	-10.2825
▁teknikk	-10.2829
bukta	-10.2832
prefektur	-10.2833
▁invest	-10.2835
▁østerriksk	-10.2835
▁kjøtt	-10.2835
▁væske	-10.2835
▁frivillig	-10.2835
▁geografisk	-10.2835
▁tilfeller	-10.2835
▁oppstår	-10.2835
▁gö	-10.2836
▁edward	-10.2837
▁1908	-10.2838
▁120	-10.2843
▁høyesterett	-10.2843
▁spenning	-10.2853
▁håp	-10.2859
▁sovjet	-10.2861
▁angrepet	-10.2865
setting	-10.2866
▁bunn	-10.2867
▁johansen	-10.2869
ligning	-10.2884
▁hval	-10.2894
▁singel	-10.2896
▁betale	-10.2901
▁nordre	-10.2907
▁sørge	-10.2913
hed	-10.2914
▁nyere	-10.2916
▁cho	-10.2926
▁banen	-10.2927
▁opphold	-10.294
▁grunnlov	-10.2941
▁ingeniør	-10.2961
▁gaten	-10.2961
verden	-10.2964
▁skape	-10.2969
effekt	-10.2971
angrep	-10.2991
▁resultatet	-10.2993
▁regne	-10.2997
▁dekkvingene	-10.2999
▁angripe	-10.2999
ström	-10.2999
▁kritiker	-10.2999
▁ungarsk	-10.2999
▁kristiansand	-10.3
komité	-10.3
▁1923	-10.3001
▁arbeiderpartiet	-10.3002
▁skarp	-10.3003
▁frykt	-10.3006
▁reaksjon	-10.301
▁anledning	-10.3013
▁sara	-10.3014
handel	-10.3018
▁myk	-10.3019
▁høg	-10.302
▁hov	-10.3024
▁flykte	-10.3026
liste	-10.3036
▁bah	-10.3042
▁levende	-10.3051
grensen	-10.3052
▁peder	-10.3053
▁klokken	-10.3054
▁kapital	-10.3064
avgift	-10.3073
tsu	-10.3088
▁rek	-10.309
▁khan	-10.3091
▁avhengig	-10.3092
▁skuespill	-10.3106
scen	-10.3107
brygge	-10.3117
minne	-10.3127
▁arv	-10.313
bevis	-10.3131
▁regjer	-10.3136
wood	-10.3138
materiale	-10.3138
cheng	-10.3139
ington	-10.3148
▁modellen	-10.3151
bach	-10.3154
▁molde	-10.3155
▁drap	-10.3165
friidrettsutøver	-10.3166
▁1906	-10.3166
▁erklært	-10.3166
▁ungarn	-10.3166
▁valuta	-10.3166
▁strekningen	-10.3166
▁für	-10.3166
▁yrkes	-10.3166
▁kriminal	-10.3166
▁premier	-10.3166
▁drammen	-10.3168
▁1925	-10.3169
▁endringer	-10.3169
▁friidrett	-10.3169
▁automat	-10.3171
▁formula	-10.3171
▁center	-10.3174
bøl	-10.3176
▁fremført	-10.3177
▁allmenn	-10.3178
republikk	-10.318
▁1500	-10.3183
head	-10.3184
▁sammenlagt	-10.3184
kjøretøy	-10.3187
turbin	-10.3188
æd	-10.3189
▁bilder	-10.3199
▁beskrivelse	-10.3212
▁tildele	-10.3214
▁rio	-10.3224
▁høre	-10.3231
▁uker	-10.3243
▁ansatt	-10.3245
▁musikalsk	-10.325
▁slottet	-10.3262
▁bakkroppen	-10.3264
▁artikler	-10.3281
▁unna	-10.3291
▁tilstand	-10.3303
ovo	-10.3304
kapasitet	-10.331
akademi	-10.3311
funksjon	-10.3311
▁sveitsisk	-10.3312
▁vä	-10.3316
tittel	-10.3317
▁kub	-10.3333
▁argument	-10.3335
▁science	-10.3335
▁krevde	-10.3335
▁deutsche	-10.3335
vassdraget	-10.3335
▁forbedre	-10.3335
▁gunnar	-10.3336
▁hovedkvarter	-10.3337
▁slett	-10.3339
▁alfred	-10.3344
fartøy	-10.3346
▁arena	-10.3358
▁konsul	-10.3358
▁plassering	-10.3361
▁fry	-10.3368
▁drei	-10.3375
dyktig	-10.3375
▁gymnas	-10.3391
▁boka	-10.3395
▁inneha	-10.3404
▁yng	-10.341
▁barb	-10.3417
klasse	-10.343
skyting	-10.3431
▁bog	-10.3435
▁elektro	-10.3448
▁synes	-10.347
▁hve	-10.3471
instrument	-10.3486
▁kirk	-10.3491
pil	-10.3501
▁konkurrere	-10.3507
▁katedral	-10.3507
▁skildre	-10.3508
▁beordre	-10.3508
▁tegninger	-10.3513
utstilling	-10.3515
▁michel	-10.3517
▁fortellingen	-10.3518
aya	-10.3519
▁kristiania	-10.3526
▁piano	-10.3526
▁oppnådd	-10.3528
öl	-10.3539
▁tvang	-10.3544
▁furu	-10.3556
stemme	-10.3558
▁div	-10.3561
▁hem	-10.3562
▁søkt	-10.3573
▁helst	-10.3579
▁beregne	-10.3586
▁platen	-10.3596
▁wolf	-10.36
▁terror	-10.36
▁konstruksjon	-10.3605
▁styrkene	-10.3611
hytt	-10.3614
▁roger	-10.3618
kilde	-10.3623
▁klosteret	-10.3625
▁demokrat	-10.3638
vatn	-10.3639
snegl	-10.3649
▁paus	-10.3651
▁elektron	-10.3664
▁big	-10.3668
skutt	-10.367
▁herman	-10.3678
sikkerhet	-10.3681
▁milliarder	-10.3683
▁akershus	-10.3683
▁australsk	-10.3683
▁registrert	-10.3683
▁oversikt	-10.3683
▁ødelagt	-10.3683
▁håkon	-10.3685
▁myndighetene	-10.3685
▁power	-10.3685
▁halvparten	-10.3685
▁1911	-10.3686
▁1941	-10.3686
▁komposisjon	-10.3688
▁toll	-10.3688
▁bekrefte	-10.3688
▁preg	-10.3693
▁måned	-10.3696
▁forenkle	-10.3698
høyskole	-10.3713
▁villa	-10.3717
▁stab	-10.372
▁tykk	-10.3721
▁isteden	-10.3721
▁vestre	-10.3751
▁lykke	-10.3754
ligste	-10.3755
▁human	-10.3758
▁vev	-10.3768
▁flytte	-10.3774
rute	-10.3784
▁utenriks	-10.3802
bad	-10.3803
▁vii	-10.382
▁overflaten	-10.3842
teknologi	-10.3849
løytnant	-10.3861
▁portugisisk	-10.3861
▁skulptur	-10.3861
▁hordaland	-10.3861
▁belgisk	-10.3862
▁stiftelsen	-10.3862
▁fenomen	-10.3862
▁tyrkisk	-10.3862
frekvens	-10.3862
▁antarktis	-10.3862
▁golf	-10.3862
▁faktisk	-10.3863
▁dverg	-10.3864
▁rektor	-10.3865
episode	-10.3866
▁trenger	-10.3866
pati	-10.3866
▁igjennom	-10.3867
▁osv	-10.3875
given	-10.3875
▁evne	-10.388
▁torg	-10.3882
kall	-10.3884
fyr	-10.3894
ан	-10.3901
▁audi	-10.3901
yuan	-10.3912
▁edderkoppen	-10.3913
lokk	-10.3914
▁tyskerne	-10.3921
▁slave	-10.3925
▁pont	-10.396
▁måten	-10.3983
harmoni	-10.3989
▁spinn	-10.3991
horn	-10.3996
▁tann	-10.4007
redskap	-10.4018
seth	-10.4028
▁fødsel	-10.4043
▁tilknytning	-10.4043
▁league	-10.4043
▁færøyene	-10.4043
▁kombinasjon	-10.4043
▁dollar	-10.4043
▁bodø	-10.4044
▁studioalbum	-10.4044
▁naturgass	-10.4045
▁1934	-10.4047
▁flekker	-10.4048
stell	-10.4052
▁diplomat	-10.4052
▁brei	-10.4057
▁utgjorde	-10.4057
▁street	-10.4058
▁reserve	-10.406
▁1896	-10.4062
▁1000	-10.4063
▁1870	-10.4065
▁humor	-10.407
fysik	-10.4081
▁rau	-10.4086
melding	-10.4088
▁server	-10.4089
▁ytterst	-10.4106
▁wales	-10.4109
gass	-10.4128
▁prinsipp	-10.4162
▁bratt	-10.4169
▁math	-10.4191
fallende	-10.4197
▁kommunistisk	-10.4207
▁skyte	-10.4208
▁rykke	-10.4213
▁jud	-10.4222
▁oppnå	-10.4226
eksperiment	-10.4228
▁1907	-10.4228
▁ukrainsk	-10.4228
▁hendelsen	-10.4229
▁tilskuer	-10.4229
ич	-10.4229
▁1922	-10.4231
▁foregår	-10.4232
▁samfunnet	-10.4232
▁1910	-10.4234
apparat	-10.4235
▁løfte	-10.4236
▁biografi	-10.4238
brand	-10.4248
▁kommunist	-10.425
studie	-10.4254
▁gjeld	-10.4254
▁cel	-10.4269
▁beskyttelse	-10.427
▁mottatt	-10.4276
▁kapp	-10.4277
sdatter	-10.4279
▁styrte	-10.428
▁flom	-10.4308
stokk	-10.431
bød	-10.4312
▁synge	-10.4355
bestemmelse	-10.4358
aux	-10.4359
▁bow	-10.4377
▁ytter	-10.438
▁millimeter	-10.4417
▁pakistan	-10.4417
▁regissør	-10.4417
▁shanghai	-10.4417
▁asteroide	-10.4417
▁permanent	-10.4417
▁separat	-10.4417
▁negativ	-10.4417
▁rogaland	-10.4417
▁allierte	-10.4417
▁følelse	-10.4418
▁medlemmene	-10.4418
▁global	-10.4418
▁class	-10.4419
▁kryp	-10.4419
▁generasjon	-10.442
▁forklare	-10.442
▁skaffe	-10.4423
▁tromsø	-10.4428
▁pedersen	-10.4432
▁operativ	-10.4437
▁personlighet	-10.4441
nemlig	-10.4445
▁raf	-10.4452
▁ork	-10.4456
distanse	-10.4459
kret	-10.4482
▁fyll	-10.4491
trukket	-10.4509
▁river	-10.4515
▁overflate	-10.4521
vall	-10.4524
▁kali	-10.4529
▁water	-10.4531
skjel	-10.4549
▁intens	-10.4558
▁verb	-10.4558
▁wang	-10.4558
▁xu	-10.4564
maker	-10.4575
prakt	-10.4577
▁alpin	-10.4588
▁snu	-10.4598
▁jente	-10.4604
▁pil	-10.4606
▁brødrene	-10.4609
▁guvernør	-10.4609
▁münchen	-10.4609
▁ukraina	-10.4609
▁elisabeth	-10.4609
kompetanse	-10.4609
▁monument	-10.461
▁nicola	-10.461
▁mekanisk	-10.461
▁major	-10.461
▁klipp	-10.461
▁definert	-10.461
▁bjerk	-10.461
aktivitet	-10.4613
▁sverre	-10.4614
▁1937	-10.4615
▁planlagt	-10.4615
ière	-10.462
▁anvende	-10.462
▁donau	-10.4621
▁east	-10.4624
listen	-10.4624
▁barndom	-10.4625
▁koble	-10.4626
▁antatt	-10.4641
▁larve	-10.4648
▁alban	-10.4651
burn	-10.4655
feranse	-10.4655
▁syke	-10.4656
▁frp	-10.466
▁nordover	-10.4663
faglig	-10.4665
setningen	-10.4668
▁oberst	-10.4678
▁thu	-10.4684
▁kopi	-10.4696
årig	-10.4704
▁redde	-10.4704
▁vedtatt	-10.4705
▁kval	-10.4713
lich	-10.4716
▁hellig	-10.4727
serie	-10.4751
eira	-10.4756
tind	-10.4757
samband	-10.4763
forvaltning	-10.4799
lock	-10.48
slått	-10.4801
▁symfoni	-10.4806
▁administrere	-10.4806
▁involvert	-10.4806
▁midlertidig	-10.4806
▁trommeslager	-10.4806
▁komponert	-10.4806
▁konvensjon	-10.4806
kreft	-10.4807
▁konsept	-10.4808
▁mineral	-10.4808
▁oppløst	-10.4808
▁bakterie	-10.482
▁slu	-10.482
▁vanligste	-10.4826
▁sving	-10.4828
▁hellas	-10.4831
▁sikte	-10.4837
▁oppfatte	-10.4845
▁sørover	-10.4846
▁life	-10.4846
▁alpinist	-10.4851
avisen	-10.4872
▁lunge	-10.4885
måne	-10.4904
▁hammer	-10.4927
utgave	-10.4959
slette	-10.4962
▁menneskelig	-10.4967
▁hjel	-10.4976
fattet	-10.4977
▁cover	-10.4981
▁gott	-10.499
▁øygrupp	-10.4995
▁700	-10.5
▁1904	-10.5006
▁frankfurt	-10.5006
▁ansikt	-10.5006
▁vesentlig	-10.5006
▁skjønn	-10.5006
▁senior	-10.5006
▁arthur	-10.5006
▁doktorgrad	-10.5006
▁betjene	-10.5007
▁bevege	-10.5007
▁aristo	-10.5007
▁prinsesse	-10.5007
▁tallrike	-10.5008
▁levde	-10.5008
▁import	-10.5008
▁fuktig	-10.501
kroppen	-10.501
▁bispe	-10.501
fortelling	-10.5011
teknikk	-10.5013
representant	-10.5013
design	-10.5016
relatert	-10.5024
▁sikker	-10.5026
▁gradvis	-10.5027
▁svein	-10.5038
▁markere	-10.5046
behandling	-10.5046
▁kunde	-10.5052
▁1700	-10.5054
▁synlig	-10.5069
▁tell	-10.507
▁kino	-10.5071
sats	-10.5075
sjangere	-10.5076
prest	-10.5082
▁vitne	-10.5119
tjern	-10.5174
▁kronprins	-10.521
▁ovenfor	-10.521
▁sigurd	-10.521
bataljon	-10.521
veksling	-10.521
▁eksisterer	-10.521
▁hebraisk	-10.521
▁nedbør	-10.521
▁hjal	-10.521
▁protein	-10.521
▁rust	-10.5211
▁florida	-10.5211
worth	-10.5212
▁godkjent	-10.5212
▁firmaet	-10.5212
▁telefon	-10.5213
ол	-10.5213
▁definere	-10.5214
▁action	-10.5215
▁smelte	-10.5215
▁gregor	-10.5215
▁byttet	-10.5217
▁ryd	-10.5219
▁håndverk	-10.5219
kampanje	-10.5224
▁bedriften	-10.5225
museet	-10.5229
▁formelt	-10.5232
▁1890	-10.5236
▁østsiden	-10.524
▁østover	-10.5242
▁johnson	-10.5257
▁beliggende	-10.5257
▁estland	-10.5259
settelse	-10.527
▁qing	-10.5281
planter	-10.529
▁petro	-10.5296
▁knap	-10.5297
▁fjellkjede	-10.5299
▁falsk	-10.5301
▁kongress	-10.5308
▁900	-10.5352
▁krok	-10.5384
▁arkeologisk	-10.5389
▁svalbard	-10.5418
▁tsjekkisk	-10.5418
▁tønsberg	-10.5418
▁1903	-10.5418
▁1905	-10.5418
▁göteborg	-10.5418
▁fungerte	-10.5418
▁juridisk	-10.5418
▁sykkel	-10.5418
kommandant	-10.5418
▁kommersiell	-10.5418
▁kompani	-10.5418
▁oppstod	-10.5418
▁ombord	-10.5418
▁reklame	-10.5418
▁bærum	-10.5418
▁serbisk	-10.5419
▁1916	-10.5421
▁monark	-10.5423
▁2018	-10.5424
▁hørt	-10.5425
▁wilson	-10.5427
▁andré	-10.5427
▁vendt	-10.5432
utdanning	-10.5434
▁blø	-10.5436
▁1894	-10.5437
▁sound	-10.544
▁talent	-10.5443
▁egil	-10.5443
▁1880	-10.5446
▁jernbanestasjon	-10.5449
▁night	-10.5452
▁persisk	-10.5455
▁mau	-10.546
▁silke	-10.5461
stigning	-10.5462
▁innerst	-10.5469
forståelse	-10.5473
bunn	-10.5479
▁brian	-10.5486
▁tidspunkt	-10.5502
kanon	-10.5512
▁elektronisk	-10.5514
▁marx	-10.5524
forestilling	-10.5528
▁emp	-10.5535
strup	-10.5553
▁lukke	-10.5555
▁etnisk	-10.5564
støtte	-10.5586
▁elite	-10.5606
▁wild	-10.562
vulkan	-10.5629
▁bulgarsk	-10.5631
▁utelukkende	-10.5631
▁admiral	-10.5631
▁bjørk	-10.5631
komponent	-10.5631
▁hensikt	-10.5631
▁parallell	-10.5631
teatret	-10.5631
▁josef	-10.5631
▁kjørt	-10.5631
▁presentert	-10.5631
▁fortellinger	-10.5634
▁protestant	-10.5637
▁antonio	-10.5641
▁feire	-10.5646
kjøn	-10.5647
▁victoria	-10.5647
▁down	-10.5648
hvelv	-10.5651
struktur	-10.5651
grønn	-10.5652
▁lidelse	-10.5653
▁skrå	-10.5653
▁1899	-10.5653
▁tjent	-10.5658
▁ibsen	-10.566
▁prix	-10.5663
▁morten	-10.5671
▁krim	-10.5672
▁nazi	-10.5687
▁mjø	-10.5695
hyll	-10.5697
▁fortalt	-10.5711
fast	-10.572
▁låten	-10.5725
▁hindre	-10.5749
▁vekk	-10.5756
kjeden	-10.5765
▁slange	-10.577
▁material	-10.5772
▁term	-10.5773
wick	-10.5776
edderkopper	-10.578
alistisk	-10.5817
▁karbon	-10.5835
▁protest	-10.5845
setninger	-10.5847
▁76	-10.5847
direktoratet	-10.5848
▁akseptert	-10.5848
▁amsterdam	-10.5848
▁helsingfors	-10.5848
▁lørdag	-10.5848
▁tvilling	-10.5848
▁brigade	-10.5848
▁efter	-10.585
▁sølvmedalje	-10.585
▁1917	-10.5851
▁romsdal	-10.5852
terminal	-10.5852
▁stengt	-10.5853
▁250	-10.5854
▁referanse	-10.5856
▁byggingen	-10.5864
▁kommunestyre	-10.5867
▁partner	-10.5867
temperatur	-10.5874
▁1897	-10.5874
▁variasjon	-10.5877
▁vestover	-10.5883
analyse	-10.5889
▁arkeolog	-10.589
gudinnen	-10.5891
▁frakte	-10.5895
utenriksminister	-10.5921
▁plast	-10.5928
▁130	-10.5952
forsyning	-10.5954
▁hå	-10.597
kode	-10.5995
▁finale	-10.6016
▁forskjellig	-10.6024
▁flest	-10.6025
▁islandsk	-10.6027
▁glad	-10.604
▁victor	-10.6061
svarte	-10.607
▁afghanistan	-10.607
▁maksimal	-10.607
▁restaurant	-10.607
▁regulering	-10.607
▁stråling	-10.607
▁tabellen	-10.607
▁embets	-10.607
▁uansett	-10.607
▁adolf	-10.607
▁haakon	-10.6071
▁kreves	-10.6071
▁risiko	-10.6071
▁foreslått	-10.6073
▁sentralbank	-10.6074
▁kongsberg	-10.6076
▁søndag	-10.6076
▁stedsnavn	-10.6077
▁biologisk	-10.6086
ен	-10.6089
▁maritim	-10.609
▁bønn	-10.609
▁takket	-10.6091
▁utkom	-10.6093
▁jonas	-10.6101
finalen	-10.6102
▁walter	-10.6105
sosialistisk	-10.6108
▁utenom	-10.6112
ansvaret	-10.6112
ladning	-10.6113
utstyr	-10.613
▁georgia	-10.6133
flytt	-10.6147
blå	-10.616
▁andel	-10.617
familie	-10.6204
fabrik	-10.6215
▁israelsk	-10.626
økonomi	-10.6269
▁inspirasjon	-10.6297
▁definisjon	-10.6298
▁forøvrig	-10.6298
▁konservativ	-10.6298
▁konstruert	-10.6298
▁sjeldne	-10.6298
▁praksis	-10.6298
▁innbyggerne	-10.6298
▁vilhelm	-10.6298
▁uvanlig	-10.6298
orientert	-10.6298
▁forklaring	-10.6298
syndrom	-10.6299
▁nymfe	-10.6299
▁adresse	-10.6299
▁bronsemedalje	-10.6299
▁klokke	-10.6299
mekanisme	-10.63
▁palass	-10.63
▁hedmark	-10.6301
▁programleder	-10.6302
▁erfaring	-10.6303
▁varianter	-10.6306
▁vestfold	-10.6307
▁1200	-10.631
▁knud	-10.6311
▁holdning	-10.6312
sfære	-10.6313
▁våt	-10.6315
▁mandat	-10.6316
▁hvile	-10.6318
ст	-10.6319
▁1892	-10.6319
▁jeff	-10.6322
▁avholdt	-10.6323
▁aksel	-10.6328
offiser	-10.6333
bukk	-10.6334
▁nedover	-10.6336
▁geir	-10.6338
posisjon	-10.6341
programmet	-10.6341
▁borgerkrig	-10.6351
▁bassist	-10.636
▁statsråd	-10.6369
▁verdensmester	-10.6378
▁seire	-10.6383
▁etasje	-10.6395
ра	-10.6398
▁urban	-10.6402
kjerne	-10.6414
▁nerve	-10.6426
▁bestemme	-10.6432
▁forekom	-10.6434
volum	-10.6441
▁familiegruppe	-10.6445
orkester	-10.6447
▁inneba	-10.6465
▁hull	-10.6466
ка	-10.6469
other	-10.6469
einere	-10.6477
ор	-10.6512
utvalget	-10.6525
▁kvalifisering	-10.653
▁oksygen	-10.653
jubileum	-10.653
▁1902	-10.653
▁chicago	-10.653
▁francisco	-10.653
▁molekyl	-10.653
▁litauen	-10.653
▁innebærer	-10.653
▁anmelder	-10.653
▁charlotte	-10.653
▁bøndene	-10.653
▁konkurs	-10.653
▁utmerkelse	-10.653
▁sektor	-10.6531
▁originaltittel	-10.6531
▁dominert	-10.6531
▁stefan	-10.6532
▁forgjenger	-10.6532
▁overraske	-10.6532
▁kritisert	-10.6533
▁afrikansk	-10.6534
▁edderkopp	-10.6536
▁generell	-10.6536
▁styreleder	-10.6538
skrekk	-10.6538
▁spring	-10.6539
▁skytter	-10.654
▁regler	-10.6545
▁luci	-10.6546
▁franz	-10.6546
▁nød	-10.6547
▁lisens	-10.6549
▁økende	-10.6549
▁gjennombrudd	-10.6554
▁anerkjenne	-10.6557
▁inngikk	-10.656
▁planeten	-10.656
kirch	-10.6564
bibliotek	-10.6571
divisjon	-10.6572
signal	-10.6579
▁oval	-10.6579
▁omkom	-10.6583
opplevelse	-10.6585
▁book	-10.6589
▁vennskap	-10.66
▁snar	-10.66
▁kulturell	-10.6601
ин	-10.662
▁egyptisk	-10.6649
ifikasjon	-10.6657
▁medaljer	-10.6666
tolkning	-10.6681
0	-10.6697
▁verneområde	-10.6699
▁chile	-10.6728
work	-10.6735
blokk	-10.6736
▁wol	-10.6746
▁vietnam	-10.6768
▁astronomi	-10.6768
▁eksemplar	-10.6768
▁omdøpt	-10.6768
▁rudolf	-10.6768
▁vedlikehold	-10.6768
▁buskerud	-10.6768
▁sammenslåing	-10.6768
▁tilsynela	-10.6768
▁kulturminner	-10.6768
▁evangeli	-10.6768
▁taylor	-10.6768
▁skihopper	-10.6768
▁etablere	-10.6768
▁sachsen	-10.6769
▁heinric	-10.6769
▁invasjon	-10.677
▁programvare	-10.6773
▁gravlagt	-10.6774
▁undersøke	-10.6776
▁røyk	-10.6777
▁tjener	-10.6778
▁fredrikstad	-10.6779
▁uavhengighet	-10.6786
▁terje	-10.6792
▁anlagt	-10.6796
aften	-10.6797
▁1888	-10.6799
skikkelse	-10.6812
hjelp	-10.6816
▁apple	-10.6817
▁ungdomsskole	-10.6826
kjøl	-10.683
start	-10.6832
flagg	-10.6834
lokale	-10.6834
gjorde	-10.6844
tveit	-10.6853
▁kontrollere	-10.6856
time	-10.6865
▁hö	-10.6869
▁innvie	-10.6914
▁sca	-10.6927
nøkkel	-10.7012
▁aleksandr	-10.7012
▁elizabeth	-10.7012
▁football	-10.7012
▁kasakhstan	-10.7012
▁kollektiv	-10.7012
▁renessanse	-10.7012
▁vladimir	-10.7012
▁patriark	-10.7012
▁prøvd	-10.7012
▁belgia	-10.7012
▁artilleri	-10.7012
▁canadisk	-10.7012
▁forsvant	-10.7013
▁fiktiv	-10.7013
kjøring	-10.7013
▁gratis	-10.7014
▁kullkraftverk	-10.7014
▁grevskapet	-10.7015
▁enhver	-10.7016
▁anklage	-10.7017
forandring	-10.702
▁avansert	-10.7021
▁nevner	-10.7021
▁demokratiske	-10.7022
▁beslutte	-10.7024
▁ørken	-10.7024
▁muskel	-10.7024
▁senator	-10.703
▁idé	-10.7032
▁avgrense	-10.7044
▁disc	-10.7046
kandidat	-10.7065
▁smerte	-10.7069
▁skjell	-10.7075
økonom	-10.7079
rekord	-10.7095
▁agent	-10.71
▁kritisk	-10.7116
gjeng	-10.7118
▁chris	-10.7158
▁republi	-10.7228
▁christi	-10.723
pleie	-10.7232
▁gross	-10.7245
▁aleksander	-10.7262
▁angelsaksisk	-10.7262
▁country	-10.7262
▁jomfru	-10.7262
▁konkurrert	-10.7262
▁manuskript	-10.7262
▁skandinavisk	-10.7262
▁arrestert	-10.7262
▁atmosfære	-10.7262
▁infanteri	-10.7262
▁kjøkken	-10.7262
▁portugal	-10.7262
▁prestegjeld	-10.7262
▁geometri	-10.7262
▁nøyaktig	-10.7262
▁colombia	-10.7262
▁frigjøring	-10.7262
▁kongedømmet	-10.7262
▁thailand	-10.7262
▁individuell	-10.7262
▁zealand	-10.7262
budsjett	-10.7263
▁indiker	-10.7263
▁regelmessig	-10.7264
▁ektemann	-10.7264
▁1913	-10.7265
▁generalsekretær	-10.7265
ев	-10.7265
▁forfatterskap	-10.7266
▁slippe	-10.7267
▁opplevd	-10.7267
▁samuel	-10.7268
▁bridge	-10.7269
▁profil	-10.7271
▁riktig	-10.7271
▁beslekte	-10.7271
▁eiendommen	-10.7275
▁onkel	-10.7277
▁vandre	-10.7279
▁hensyn	-10.7279
▁alex	-10.7279
▁kunstnerisk	-10.7281
▁1893	-10.7283
▁massa	-10.7284
▁kaffe	-10.7286
▁tredjeplass	-10.7293
▁cross	-10.7296
▁sosialdemokrat	-10.731
▁drepe	-10.7313
toppen	-10.7318
ingeniør	-10.7321
transport	-10.7322
stevne	-10.7323
musiker	-10.7327
▁konsekven	-10.7339
stopp	-10.734
▁variert	-10.7348
▁pels	-10.7373
▁barneskole	-10.7384
▁musikal	-10.739
▁klage	-10.7443
ер	-10.7443
▁sparta	-10.7485
▁omdanne	-10.7502
▁undergrunnsbane	-10.7519
▁aluminium	-10.7519
▁association	-10.7519
▁eventuelt	-10.7519
▁jerusalem	-10.7519
▁nøytral	-10.7519
▁orchestra	-10.7519
▁washington	-10.7519
▁1883	-10.7519
▁stridsvogn	-10.7519
▁popular	-10.7519
▁regulert	-10.7519
▁margaret	-10.7519
▁ålesund	-10.7519
▁petersburg	-10.7519
▁massiv	-10.7519
▁nepal	-10.7519
▁ekspert	-10.752
▁utpekt	-10.752
▁styring	-10.752
▁klatre	-10.752
betjent	-10.7521
▁elleve	-10.7521
▁1915	-10.7522
▁betong	-10.7523
▁poesi	-10.7523
▁dominerende	-10.7524
▁episoden	-10.7524
▁antikken	-10.753
▁viderefør	-10.753
▁flukt	-10.7531
▁forsterke	-10.7532
▁ltd	-10.7533
▁studere	-10.7534
▁rifle	-10.7536
ault	-10.7544
▁organisk	-10.7548
▁sokn	-10.7571
sentrum	-10.7587
prøve	-10.7597
butikk	-10.76
foretak	-10.7729
forsamlingen	-10.7741
skjerm	-10.7742
▁moderat	-10.7756
▁virginia	-10.7782
▁windows	-10.7782
▁1901	-10.7782
▁pasienten	-10.7782
▁texas	-10.7782
▁radikal	-10.7782
▁utspring	-10.7782
▁selvmord	-10.7782
▁alexandr	-10.7782
▁psykisk	-10.7782
▁walisisk	-10.7782
▁kobber	-10.7782
▁flyktning	-10.7782
▁utseende	-10.7782
▁kjennetegne	-10.7782
▁fangst	-10.7783
▁stillehavet	-10.7784
▁forbinde	-10.7784
▁titler	-10.7785
▁tropisk	-10.7786
▁nattfly	-10.7787
▁bedrifter	-10.779
▁pierre	-10.7791
fellesskap	-10.7792
▁diesel	-10.7793
▁viktor	-10.7797
▁meldt	-10.7807
▁manuel	-10.7821
▁utvidelse	-10.7822
feiring	-10.7824
karriere	-10.7835
▁oppleve	-10.7839
▁oversette	-10.7842
dynastiet	-10.7855
historiker	-10.7855
regjering	-10.7855
▁glatt	-10.7856
sentral	-10.7862
▁lill	-10.7874
▁voksen	-10.7884
▁väst	-10.7913
▁domkirke	-10.7948
▁sjakk	-10.7968
▁frost	-10.7968
▁dynasti	-10.7975
krone	-10.7986
▁ideal	-10.8039
pyramide	-10.8052
▁ambassadør	-10.8052
▁bulgaria	-10.8052
▁jacque	-10.8052
▁liverpool	-10.8052
▁seremoni	-10.8052
▁eksisterende	-10.8052
▁engasjert	-10.8052
▁kennedy	-10.8052
▁central	-10.8052
disiplin	-10.8052
▁nynorsk	-10.8052
▁preussen	-10.8052
▁church	-10.8052
▁diverse	-10.8052
▁stephen	-10.8052
▁bmw	-10.8053
▁vegetasjon	-10.8053
▁mektig	-10.8053
▁oppheve	-10.8053
▁first	-10.8053
▁allianse	-10.8054
▁skøyte	-10.8058
▁elsker	-10.8058
▁clark	-10.8059
▁flytende	-10.8066
▁forløper	-10.8066
▁åpenbar	-10.8066
▁opprette	-10.8072
▁europavei	-10.8075
▁operere	-10.8078
▁skygge	-10.8088
flyvning	-10.8114
arkitekt	-10.8133
▁høydepunkt	-10.814
recht	-10.8151
redaksjon	-10.8184
blom	-10.8193
drive	-10.8208
▁brent	-10.8244
bredden	-10.8275
ч	-10.8328
▁corporation	-10.833
▁karosseri	-10.833
▁microsoft	-10.833
▁mountain	-10.833
▁okkupasjon	-10.833
▁publikasjon	-10.833
▁sarpsborg	-10.833
▁ferskvann	-10.833
▁wergeland	-10.833
▁hospital	-10.833
▁jersey	-10.833
▁cappelen	-10.833
▁kjønnsmod	-10.833
▁rekrutt	-10.833
▁nevø	-10.833
leverandør	-10.833
▁hendelser	-10.833
▁tilsammen	-10.833
▁etablering	-10.833
▁invitert	-10.833
▁hyppig	-10.833
▁sprint	-10.8331
▁føderal	-10.8331
▁uklar	-10.8331
▁dekorert	-10.8331
▁tverrbånd	-10.8331
▁delstats	-10.8331
▁temple	-10.8332
▁slapp	-10.8333
▁bayern	-10.8333
▁gullmedalje	-10.8334
▁øynene	-10.8335
▁videospill	-10.8336
▁forestillingen	-10.8341
▁hydrogen	-10.8342
▁nøt	-10.8348
▁forbruker	-10.8353
▁nederlag	-10.8356
▁hevn	-10.8358
artikler	-10.8364
skrevet	-10.8406
▁rhod	-10.8477
▁utarbeide	-10.8488
▁besetning	-10.8529
▁puppe	-10.8544
motiv	-10.8557
kål	-10.8558
bevegelse	-10.8588
tempelet	-10.8596
▁ammunisjon	-10.8615
▁buddhist	-10.8615
▁françois	-10.8615
▁giovanni	-10.8615
▁legendarisk	-10.8615
▁musikkvideo	-10.8615
▁babylon	-10.8615
▁pasienter	-10.8615
▁satellitt	-10.8615
▁selvbiografi	-10.8615
høvding	-10.8615
▁kvadrat	-10.8615
▁matematisk	-10.8615
▁øyeblikke	-10.8615
▁kavaleri	-10.8616
▁zhang	-10.8616
▁avskaffe	-10.8616
▁fremtidig	-10.8616
▁venezia	-10.8616
▁european	-10.8616
▁særskilt	-10.8617
▁utforming	-10.8617
▁kristin	-10.8618
▁verdensrekord	-10.8618
materiell	-10.8618
▁fulgt	-10.8619
▁økologi	-10.8619
▁castle	-10.8621
▁nkp	-10.8621
▁point	-10.8623
▁kreert	-10.8626
▁høi	-10.8638
▁tjenestegjor	-10.8647
hausen	-10.8679
▁matematikk	-10.8687
kontrakt	-10.8713
tradisjon	-10.8714
▁tidligst	-10.8724
▁begynne	-10.8792
vitenskapelig	-10.8792
▁doktor	-10.8909
▁bryllup	-10.891
▁fundament	-10.891
▁mccartney	-10.891
▁mobiltelefon	-10.891
▁norwegian	-10.891
▁oppmerksomhet	-10.891
▁sparebank	-10.891
▁identitet	-10.891
▁oriental	-10.891
▁utbredelse	-10.891
▁1869	-10.891
traktaten	-10.891
▁linux	-10.891
patrulje	-10.891
▁stafett	-10.891
▁statsborger	-10.891
▁theodor	-10.891
kommandør	-10.891
▁verdensarv	-10.891
▁bryggeri	-10.891
▁utsikt	-10.891
▁redigert	-10.891
▁sandefjord	-10.891
▁eksistens	-10.891
▁veksle	-10.891
▁gabriel	-10.8911
▁opprettelsen	-10.8911
▁sultan	-10.8911
▁fantasi	-10.8912
▁social	-10.8912
skildring	-10.8913
▁etterkommer	-10.8913
▁styremedlem	-10.8914
▁oldtiden	-10.8915
▁investering	-10.8918
▁smitte	-10.892
▁åpningen	-10.8929
▁nederst	-10.8941
▁kreis	-10.8944
kalender	-10.8951
▁varemerke	-10.8965
▁utvide	-10.8981
▁guinea	-10.8992
problemer	-10.9016
oppgave	-10.9019
svekke	-10.9065
blikk	-10.9107
▁olymp	-10.9111
mengden	-10.913
▁nevro	-10.9164
▁utnevne	-10.9195
▁diplom	-10.9198
▁dominere	-10.9209
▁beslutning	-10.9213
▁keyboard	-10.9213
▁konkurrent	-10.9213
▁leipzig	-10.9213
▁ludwig	-10.9213
▁society	-10.9213
▁tsjekkia	-10.9213
▁1909	-10.9213
▁forveksle	-10.9213
▁krystall	-10.9213
▁malaysia	-10.9213
▁innspilt	-10.9213
▁nanjing	-10.9213
▁hjort	-10.9213
▁veksel	-10.9213
▁skåne	-10.9213
▁kristus	-10.9213
▁ordinær	-10.9213
infeksjon	-10.9213
▁lewis	-10.9213
▁contest	-10.9214
▁trengte	-10.9214
▁fysikk	-10.9214
▁streik	-10.9214
▁rettssak	-10.9215
▁soldatene	-10.9215
▁fylkeskommune	-10.9215
▁vulkansk	-10.9216
▁leilighet	-10.9216
▁tål	-10.9217
▁axel	-10.9217
▁isolert	-10.922
▁meyer	-10.9221
▁sylv	-10.9223
▁barokk	-10.9241
▁barnehage	-10.9243
▁söd	-10.9245
▁forvalte	-10.925
▁bringe	-10.9317
redaktør	-10.9329
▁kallenavn	-10.941
leif	-10.9418
bæk	-10.9458
landeveissyklist	-10.9525
▁argentina	-10.9525
▁columbia	-10.9525
▁dirigent	-10.9525
▁eurovision	-10.9525
▁ferdinand	-10.9525
▁illustrasjon	-10.9525
▁konsentrert	-10.9525
▁luxembourg	-10.9525
▁pattedyr	-10.9525
▁sogneprest	-10.9525
▁kristoffer	-10.9525
▁uttrykt	-10.9525
▁vellykke	-10.9525
grunnsstasjon	-10.9525
▁byfylke	-10.9525
betennelse	-10.9525
▁regulere	-10.9526
▁griff	-10.9526
▁hypote	-10.9526
▁grün	-10.9526
▁essay	-10.9526
▁skjønt	-10.9526
▁verktøy	-10.9526
▁opposisjon	-10.9527
hertugdømmet	-10.9527
▁medvirket	-10.9532
straße	-10.9538
▁innspillingen	-10.954
▁anslå	-10.9541
konsernet	-10.9542
▁koreansk	-10.9543
▁undervist	-10.9558
forstyrrelse	-10.9574
institutt	-10.9577
▁energiselskape	-10.9578
schaft	-10.9581
ection	-10.9601
▁skanse	-10.9619
rytme	-10.965
frukt	-10.9651
litteratur	-10.9651
bombe	-10.9715
turné	-10.972
sekvens	-10.975
▁koalisjon	-10.9848
▁assosiert	-10.9848
▁depresjon	-10.9848
▁guangdong	-10.9848
▁lillehammer	-10.9848
▁låtskriver	-10.9848
▁napoleon	-10.9848
▁pronotum	-10.9848
▁skandinavia	-10.9848
▁skjult	-10.9848
▁æthel	-10.9848
▁annonsert	-10.9848
▁fiendtlig	-10.9848
▁champion	-10.9848
▁anvendt	-10.9848
▁opprettholde	-10.9848
▁hamilton	-10.9848
▁komplett	-10.9848
▁angivelig	-10.9848
▁mangfold	-10.9848
▁henrettet	-10.9848
▁stanley	-10.9848
vurdert	-10.9848
▁korrekt	-10.9849
▁apollo	-10.9849
▁noensinne	-10.9849
oransje	-10.9849
▁claus	-10.985
▁rettferdig	-10.985
▁spirit	-10.9852
▁analyser	-10.9855
▁ytterkant	-10.9877
bredere	-10.9886
prinsippet	-10.9965
resultat	-10.9985
likevel	-10.9985
sykdom	-11.0004
kjennelse	-11.0053
▁ligge	-11.0064
▁utforme	-11.0089
▁konsentrasjon	-11.0174
▁barcelona	-11.0181
▁basketball	-11.0181
▁gjaldt	-11.0181
▁hongkong	-11.0181
▁innvandrer	-11.0181
▁interessant	-11.0181
▁langrennsløper	-11.0181
▁minnesota	-11.0181
▁progressiv	-11.0181
▁påbegynt	-11.0181
▁varaordfører	-11.0181
▁evolusjon	-11.0181
▁færøysk	-11.0181
▁innlemmet	-11.0181
▁tyrkia	-11.0181
▁1876	-11.0181
▁oxford	-11.0181
▁1877	-11.0181
bransjen	-11.0181
▁network	-11.0181
▁prince	-11.0181
▁tilhengere	-11.0181
▁ingrid	-11.0181
▁oppfatning	-11.0181
▁skulder	-11.0182
borough	-11.0182
▁hovedpersonen	-11.0182
▁rumensk	-11.0182
▁tegl	-11.0182
▁bønder	-11.0182
mouth	-11.0183
▁saturn	-11.0184
thorax	-11.0186
▁fasade	-11.019
▁hawk	-11.0192
▁tørke	-11.0199
▁moore	-11.0199
bragt	-11.02
▁beskjed	-11.0203
vík	-11.0207
muligheter	-11.0231
▁størst	-11.0241
nathan	-11.0247
gruppa	-11.0248
craft	-11.0267
ridge	-11.03
økning	-11.0315
bregne	-11.0324
▁bakkropp	-11.0328
befolkningen	-11.0329
inntekt	-11.0329
krisen	-11.0462
reservat	-11.0525
▁ødela	-11.0526
▁aftenposten	-11.0526
▁favoritt	-11.0526
▁lokomotiv	-11.0526
▁parallelt	-11.0526
▁restaurert	-11.0526
▁bekymr	-11.0526
▁billboard	-11.0526
▁fakultet	-11.0526
▁intervju	-11.0526
▁perspektiv	-11.0526
▁technolog	-11.0526
kreditert	-11.0526
tilførsel	-11.0526
▁1882	-11.0526
▁avslørt	-11.0526
▁democra	-11.0526
▁minoritet	-11.0526
▁petroleum	-11.0526
▁bystatus	-11.0526
▁claudi	-11.0526
▁latvia	-11.0526
▁airlines	-11.0526
▁bekjempe	-11.0526
▁kirurg	-11.0526
▁valdemar	-11.0526
▁avdøde	-11.0526
▁diskusjon	-11.0526
▁1873	-11.0526
▁1852	-11.0526
▁svovel	-11.0526
inspektør	-11.0526
anmeldelse	-11.0526
▁amatør	-11.0526
▁kalsium	-11.0526
▁snorre	-11.0526
▁oppfordre	-11.0527
▁omstridt	-11.0528
▁tåke	-11.0528
terapi	-11.0531
▁profet	-11.0531
▁advent	-11.0535
▁spyd	-11.0537
misbruk	-11.0539
▁operert	-11.0548
betingelse	-11.0559
▁ivareta	-11.0562
omsorg	-11.0595
▁ødelegge	-11.0612
kommando	-11.0686
spesifik	-11.0686
▁utforske	-11.0764
kapsel	-11.079
▁pumpe	-11.081
▁frilufts	-11.0883
▁electric	-11.0883
▁muslimsk	-11.0883
▁reservoar	-11.0883
▁tortricidae	-11.0883
eksplosjon	-11.0883
▁cæsar	-11.0883
▁utdødd	-11.0883
▁homofil	-11.0883
▁abraham	-11.0883
▁pseudonym	-11.0883
▁meteorolog	-11.0883
▁etiopisk	-11.0883
järvi	-11.0883
▁interiør	-11.0883
▁kvalifisert	-11.0883
▁vilkår	-11.0883
▁heavy	-11.0883
▁verdslig	-11.0883
▁vietnamesisk	-11.0883
▁utfordring	-11.0883
▁benedikt	-11.0883
▁madrid	-11.0884
▁deltakelse	-11.0884
▁skjebne	-11.0884
▁fritids	-11.0884
▁betaling	-11.0885
▁monroe	-11.0885
gericht	-11.0885
▁konsesjon	-11.0885
zhong	-11.0886
▁pianist	-11.0886
▁werner	-11.0888
▁kineser	-11.0891
▁mohamm	-11.0893
▁flanke	-11.0909
▁stanse	-11.0934
indeks	-11.101
▁vincen	-11.103
▁glede	-11.1052
advokat	-11.1056
flåte	-11.1065
konstruksjon	-11.1075
▁formidle	-11.1228
▁alfabetet	-11.1253
▁antwerpen	-11.1253
▁distribusjon	-11.1253
▁eventuell	-11.1253
▁identifisert	-11.1253
▁infrastruktur	-11.1253
▁ortodokse	-11.1253
▁sebastian	-11.1253
▁shakespeare	-11.1253
▁stjørdal	-11.1253
▁bachelor	-11.1253
▁ektefelle	-11.1253
▁inskripsjon	-11.1253
▁shandong	-11.1253
▁anthony	-11.1253
▁belønne	-11.1253
▁benjamin	-11.1253
▁invadert	-11.1253
▁litauisk	-11.1253
saksofon	-11.1253
▁torpedo	-11.1253
fyrstedømmet	-11.1253
▁jupiter	-11.1253
▁fiction	-11.1253
▁landkreis	-11.1254
▁sivilisasjon	-11.1254
▁haugesund	-11.1254
▁organismer	-11.1254
▁kommentar	-11.1254
▁betydningsfull	-11.1254
▁forklart	-11.1254
erklæring	-11.1254
▁tempo	-11.1255
▁veteran	-11.1255
▁innvalgt	-11.1255
▁snow	-11.1256
▁søsken	-11.1257
▁spesifikk	-11.1257
▁sannhet	-11.1258
▁merced	-11.1258
▁havneby	-11.1259
▁blomstre	-11.126
▁kanadisk	-11.126
klinikk	-11.1276
▁ætt	-11.1284
▁ekstern	-11.129
▁klepp	-11.1311
plantefamilie	-11.1322
smykke	-11.1383
▁utslipp	-11.1408
spect	-11.143
hàn	-11.1525
dekning	-11.1546
▁journal	-11.1556
▁arrangør	-11.1638
▁forhindre	-11.1638
▁forvandling	-11.1638
▁hønefoss	-11.1638
▁massachusetts	-11.1638
▁okkupert	-11.1638
▁slovakisk	-11.1638
▁spitsbergen	-11.1638
▁territorium	-11.1638
▁zhejiang	-11.1638
▁warszawa	-11.1638
▁carolina	-11.1638
▁schwarz	-11.1638
▁sophie	-11.1638
▁styreformann	-11.1638
▁embeds	-11.1638
▁division	-11.1638
▁ustabil	-11.1638
▁dramatiker	-11.1638
▁dimensjon	-11.1638
▁kypros	-11.1638
▁people	-11.1638
▁gjær	-11.1638
▁alminnelig	-11.1638
opplysninger	-11.1639
▁variable	-11.1639
selskab	-11.164
▁noctu	-11.164
▁kledt	-11.1641
▁francesc	-11.1654
flyging	-11.1655
konferansen	-11.1672
basseng	-11.1705
▁dobbel	-11.1768
spørsmål	-11.1841
kvalitet	-11.1841
størrelse	-11.1842
revolusjonen	-11.1906
▁eksklusiv	-11.2038
▁inklusiv	-11.2038
▁kambodsja	-11.2038
▁kontinuerlig	-11.2038
▁kontrovers	-11.2038
▁krydder	-11.2038
▁lincoln	-11.2038
▁prøyssisk	-11.2038
▁slovakia	-11.2038
▁vancouver	-11.2038
▁bomull	-11.2038
▁foundation	-11.2038
▁guatemala	-11.2038
▁registrering	-11.2038
▁tilstrekkelig	-11.2038
▁offensiv	-11.2038
▁gjøvik	-11.2038
▁reaktor	-11.2038
▁teoretisk	-11.2038
▁bombard	-11.2038
▁cruise	-11.2038
▁forsterkning	-11.2038
▁kværner	-11.2038
▁statistikk	-11.2038
▁erobring	-11.2038
ã	-11.7966
