<unk>	0
<s>	0
</s>	0
.	-3.29151
▁i	-3.4581
e	-3.67973
s	-3.73714
▁og	-3.8265
t	-4.11694
▁	-4.22236
er	-4.28661
▁av	-4.28872
en	-4.33062
▁som	-4.44804
▁en	-4.45154
▁til	-4.58256
▁er	-4.58315
▁for	-4.6543
▁på	-4.69227
r	-4.69638
▁den	-4.887
▁ble	-4.8903
▁det	-4.92582
▁med	-4.9347
▁var	-5.01326
n	-5.04219
et	-5.07199
▁de	-5.09469
▁han	-5.12636
▁å	-5.23886
▁fra	-5.32181
▁et	-5.45108
▁har	-5.4938
▁at	-5.59308
ene	-5.61926
a	-5.63492
▁ved	-5.92351
ne	-5.94416
i	-5.96135
▁etter	-5.98615
▁om	-5.98715
▁også	-6.00398
▁men	-6.06132
k	-6.11508
d	-6.15887
▁ut	-6.20117
▁under	-6.21592
▁seg	-6.22784
▁hadde	-6.24469
te	-6.25414
▁ikke	-6.2752
▁da	-6.30627
o	-6.31614
▁over	-6.33855
y	-6.37802
m	-6.38016
▁to	-6.43309
▁eller	-6.43372
▁kan	-6.44618
▁inn	-6.45087
▁opp	-6.47615
de	-6.48069
▁sin	-6.5272
f	-6.52802
▁andre	-6.53273
g	-6.53818
p	-6.58977
▁første	-6.59902
re	-6.60996
▁dette	-6.63704
l	-6.63959
▁hun	-6.64262
▁mot	-6.68976
▁år	-6.70859
b	-6.71617
in	-6.72315
ing	-6.73391
▁s	-6.74111
▁1	-6.74738
v	-6.79743
es	-6.82515
▁ha	-6.83325
▁født	-6.84845
▁be	-6.85313
▁mellom	-6.85567
▁tre	-6.86211
▁a	-6.86759
▁18	-6.8702
▁hans	-6.87728
us	-6.88066
u	-6.88713
▁fikk	-6.89984
▁der	-6.91604
▁kom	-6.91858
c	-6.93311
is	-6.93556
▁f	-6.93633
▁denne	-6.95963
an	-6.96278
h	-6.96279
sk	-6.97514
▁man	-6.99877
ri	-6.99982
▁flere	-7.00405
al	-7.00904
ende	-7.01838
le	-7.01884
▁hvor	-7.05273
on	-7.05877
ia	-7.08712
▁2	-7.08854
▁m	-7.09914
▁alle	-7.10131
z	-7.1098
▁før	-7.11734
▁sammen	-7.12092
▁nord	-7.12313
ter	-7.12755
na	-7.12802
sen	-7.13779
la	-7.14695
▁del	-7.15222
▁så	-7.15878
▁mange	-7.16909
▁blant	-7.18114
ere	-7.18495
▁tallet	-7.20785
▁the	-7.21959
▁norge	-7.22536
di	-7.23976
ar	-7.24818
▁senere	-7.25234
ra	-7.25436
▁re	-7.25596
▁ligger	-7.26852
ning	-7.27956
▁selv	-7.28631
▁død	-7.29001
▁la	-7.29134
▁stor	-7.3277
ta	-7.33704
▁tidligere	-7.33756
▁kommune	-7.33791
▁byen	-7.34021
▁ol	-7.3419
lig	-7.34293
▁blitt	-7.34319
▁siden	-7.34548
▁mer	-7.34635
w	-7.3464
▁3	-7.3472
▁se	-7.34886
▁an	-7.35244
▁b	-7.35331
▁være	-7.35433
j	-7.35439
vis	-7.3668
▁noen	-7.36878
▁u	-7.37055
▁ca	-7.37617
land	-7.37993
▁17	-7.38268
▁norsk	-7.38592
▁blir	-7.39235
for	-7.39574
▁kjent	-7.3988
▁gjennom	-7.41301
▁her	-7.41635
▁disse	-7.41672
ck	-7.4285
▁sitt	-7.43467
▁vært	-7.43784
nde	-7.44286
ke	-7.45548
▁ny	-7.45743
▁land	-7.46019
▁annet	-7.46438
or	-7.46568
iske	-7.46656
ch	-7.47015
ur	-7.47504
▁4	-7.47678
▁sør	-7.47769
ske	-7.48626
um	-7.48896
ig	-7.48911
be	-7.49334
▁d	-7.49373
▁samme	-7.49387
ma	-7.49429
▁5	-7.49552
el	-7.4994
ut	-7.50821
øy	-7.51313
▁c	-7.52451
der	-7.5247
as	-7.53431
li	-7.5355
▁ro	-7.53947
▁15	-7.53994
ver	-7.54065
▁g	-7.54201
▁vi	-7.54228
▁store	-7.54239
ng	-7.54247
▁p	-7.54283
▁grunn	-7.55064
▁tid	-7.55256
ens	-7.55275
▁ga	-7.55286
x	-7.55945
▁både	-7.56595
▁16	-7.56818
ry	-7.57481
▁gikk	-7.57533
▁noe	-7.58462
▁dag	-7.58529
▁sine	-7.589
▁vant	-7.59293
▁al	-7.59536
▁rundt	-7.60174
▁frem	-7.6113
nes	-7.6115
▁ned	-7.61667
at	-7.61918
os	-7.6233
het	-7.62472
▁by	-7.62865
da	-7.63832
ad	-7.64211
den	-7.64501
kk	-7.6453
▁bo	-7.64896
▁kunne	-7.65107
▁mens	-7.65213
▁vest	-7.66032
▁enn	-7.66087
▁gang	-7.66149
▁10	-7.66355
é	-7.6638
▁k	-7.66414
▁le	-7.66894
il	-7.67164
▁ta	-7.67192
▁skulle	-7.67205
▁of	-7.67216
▁bare	-7.67646
▁norske	-7.68023
ba	-7.6853
▁mest	-7.68707
ø	-7.68894
isk	-7.68918
▁øst	-7.68941
▁ham	-7.69379
ul	-7.70011
ol	-7.71899
▁6	-7.71905
lo	-7.72449
ler	-7.73313
▁tilbake	-7.73323
▁vil	-7.73345
▁nå	-7.73376
▁kr	-7.73791
ff	-7.73827
▁o	-7.73959
ner	-7.74204
▁sa	-7.74437
▁lag	-7.74753
▁oslo	-7.75515
▁navn	-7.75558
▁h	-7.75618
ert	-7.7616
▁slik	-7.76744
▁finnes	-7.77081
son	-7.77362
▁km	-7.77525
▁fram	-7.77587
▁tok	-7.77863
ge	-7.78034
▁st	-7.7881
▁ra	-7.7931
▁få	-7.79346
erne	-7.79717
▁skal	-7.79979
▁navnet	-7.80221
pp	-7.80457
me	-7.80633
ør	-7.80814
▁usa	-7.81173
▁dem	-7.81569
▁meter	-7.81796
▁fri	-7.82244
▁n	-7.82626
ve	-7.8304
dal	-7.83142
▁nye	-7.83339
th	-7.83511
▁di	-7.84149
lige	-7.84203
▁mai	-7.84241
▁ka	-7.84318
ro	-7.84615
▁august	-7.8502
▁hele	-7.85386
▁ti	-7.85454
▁innen	-7.8571
▁siste	-7.8572
▁bli	-7.86065
ker	-7.86223
▁ofte	-7.86348
▁000	-7.86816
id	-7.87032
▁8	-7.87075
man	-7.87184
▁12	-7.87301
▁januar	-7.87798
▁hoved	-7.87914
bo	-7.88508
ger	-7.88709
▁fire	-7.88756
ti	-7.88911
si	-7.89226
ga	-7.89692
▁deltok	-7.89842
ton	-7.90131
▁7	-7.90426
ang	-7.90584
ist	-7.90726
je	-7.90774
▁li	-7.90984
▁v	-7.91016
▁kirke	-7.91817
▁pi	-7.91881
gi	-7.91961
▁mars	-7.92203
ka	-7.92384
▁ba	-7.92465
stad	-7.92525
to	-7.92556
asjon	-7.92921
▁l	-7.93268
▁igjen	-7.93598
▁13	-7.93788
▁største	-7.93898
▁11	-7.9474
▁laget	-7.95175
▁mo	-7.95303
▁he	-7.95391
skap	-7.95515
mer	-7.95963
▁juli	-7.95964
var	-7.96256
▁14	-7.96839
sa	-7.96889
▁landet	-7.97054
▁mål	-7.97737
▁ni	-7.97964
▁per	-7.98039
ven	-7.98396
ste	-7.98775
mi	-7.99012
ha	-7.99447
▁rekke	-7.99481
▁ar	-7.99495
▁går	-7.99564
▁først	-7.99615
▁9	-7.9975
gen	-7.99972
erte	-8.00007
ja	-8.0019
▁j	-8.00404
mo	-8.00459
bu	-8.0055
ic	-8.00684
▁bak	-8.00838
▁2008	-8.01074
å	-8.01174
▁2010	-8.01265
rett	-8.01631
it	-8.01896
▁lang	-8.0198
▁na	-8.01989
▁20	-8.02417
▁tillegg	-8.02434
mann	-8.02705
▁april	-8.02786
▁juni	-8.03325
▁plass	-8.03441
▁co	-8.04202
▁far	-8.04809
▁spilte	-8.0521
▁området	-8.05253
▁gi	-8.05494
kt	-8.05572
ling	-8.05843
▁når	-8.06031
by	-8.06838
▁satt	-8.06962
▁begynte	-8.07008
vi	-8.0706
▁w	-8.07064
▁si	-8.07068
▁fransk	-8.07688
ce	-8.07792
bi	-8.08401
▁bu	-8.09031
pe	-8.09229
▁du	-8.09507
este	-8.09555
▁ho	-8.09885
▁mar	-8.1009
▁hos	-8.10177
▁årene	-8.10202
▁kalt	-8.10324
ell	-8.10715
▁vanlig	-8.11128
▁fly	-8.11169
ring	-8.11186
▁utgitt	-8.11485
co	-8.12075
lse	-8.12094
▁pro	-8.12147
else	-8.12645
▁2007	-8.12696
▁as	-8.12711
▁bar	-8.1279
▁bruk	-8.12794
men	-8.1306
av	-8.13322
▁deres	-8.13381
▁lo	-8.1348
▁september	-8.13547
go	-8.13615
ment	-8.13634
gang	-8.14139
au	-8.14241
▁bi	-8.14463
▁ville	-8.14789
▁imidlertid	-8.14841
ant	-8.15088
▁samt	-8.15228
▁året	-8.15229
va	-8.15318
▁tiden	-8.15442
▁skole	-8.15711
op	-8.15876
▁em	-8.16072
ak	-8.16112
▁oktober	-8.16373
▁kun	-8.16386
▁t	-8.16444
ok	-8.16489
▁mye	-8.16848
om	-8.16912
▁døde	-8.16922
ær	-8.17162
▁november	-8.17481
ier	-8.17696
▁mindre	-8.17714
▁brukt	-8.17758
▁tro	-8.18154
ll	-8.18177
▁kon	-8.18219
ns	-8.18239
ie	-8.18452
▁fem	-8.19511
▁ma	-8.19515
▁helt	-8.1987
0	-8.19882
▁fa	-8.19992
▁ri	-8.20125
ion	-8.20158
▁nær	-8.20557
▁ei	-8.2068
gu	-8.21165
▁pe	-8.21189
▁in	-8.21365
ingen	-8.21486
▁2006	-8.21582
▁2009	-8.21815
▁po	-8.21891
▁medlem	-8.2229
▁desember	-8.22511
ster	-8.22519
▁startet	-8.22694
no	-8.2282
am	-8.22929
▁par	-8.23149
▁barn	-8.23367
ho	-8.23538
opp	-8.23814
po	-8.24049
nd	-8.24189
▁el	-8.24298
gg	-8.24508
▁sk	-8.24598
▁hver	-8.24604
▁bestå	-8.24658
▁gu	-8.24876
tal	-8.24999
ö	-8.25011
▁new	-8.25212
ni	-8.25359
▁rett	-8.25496
▁større	-8.25541
▁leder	-8.25598
sh	-8.25877
▁pa	-8.25905
▁me	-8.25936
berg	-8.25943
ko	-8.2598
▁sp	-8.26046
▁sverige	-8.26092
io	-8.26466
un	-8.26734
▁lå	-8.26846
▁am	-8.26846
▁gjorde	-8.26929
▁olympisk	-8.26965
▁beste	-8.27179
▁tyskland	-8.27418
▁sønn	-8.2743
▁europa	-8.27565
▁form	-8.27606
sjon	-8.27785
itt	-8.2779
im	-8.28313
▁brukes	-8.28624
▁februar	-8.28801
▁30	-8.28845
▁y	-8.29099
▁kina	-8.29157
mp	-8.29313
▁ko	-8.29335
over	-8.29474
hold	-8.2968
ard	-8.29971
▁gamle	-8.30058
▁vann	-8.3016
▁tatt	-8.30253
▁2005	-8.30321
▁egen	-8.30453
år	-8.30804
æ	-8.3139
▁svær	-8.31407
tor	-8.31443
▁hennes	-8.3155
▁sommer	-8.31782
▁film	-8.31848
▁politisk	-8.31946
▁kong	-8.32123
▁lov	-8.32726
vik	-8.33009
sted	-8.33112
▁videre	-8.33164
▁like	-8.33242
▁filmen	-8.33283
pa	-8.33322
▁fleste	-8.33483
▁kunst	-8.3365
▁små	-8.33697
▁seks	-8.33789
▁perioden	-8.33816
tur	-8.34254
▁tyske	-8.34381
do	-8.34483
▁derfor	-8.34727
tak	-8.34911
▁su	-8.35306
▁gjen	-8.35372
▁no	-8.35424
▁liv	-8.35448
▁tv	-8.3555
▁go	-8.35579
dan	-8.3565
▁hu	-8.35922
▁kinesisk	-8.36049
▁2011	-8.36055
elle	-8.36272
▁særlig	-8.36332
ik	-8.36381
ings	-8.3689
▁dermed	-8.36895
▁0	-8.3695
▁må	-8.36981
▁mor	-8.37018
▁sol	-8.37032
▁ulike	-8.37297
ans	-8.3744
á	-8.3768
▁kl	-8.37682
ft	-8.37886
ningen	-8.38101
▁folke	-8.38225
▁hus	-8.38294
art	-8.38309
▁spiller	-8.38522
rede	-8.38662
▁innbyggere	-8.3877
ca	-8.38828
▁uten	-8.38842
bar	-8.38989
▁bygget	-8.39326
▁kort	-8.39384
▁løpet	-8.39435
mm	-8.39555
▁england	-8.3961
▁john	-8.39885
ot	-8.40015
dd	-8.40239
▁nest	-8.40353
sta	-8.40399
▁gitt	-8.40527
▁sted	-8.40909
▁sch	-8.40914
ord	-8.41013
ket	-8.41114
ina	-8.4121
▁måtte	-8.41288
▁mi	-8.41314
▁do	-8.41362
▁tysk	-8.41594
ag	-8.41604
▁sett	-8.41726
▁deretter	-8.41871
▁kommer	-8.41884
▁ingen	-8.42021
min	-8.42329
ill	-8.42458
sett	-8.42543
mb	-8.42942
▁2004	-8.43583
▁eksempel	-8.43798
▁gruppen	-8.43816
ty	-8.43947
ting	-8.44057
inger	-8.44131
▁forskjellige	-8.44757
▁fi	-8.44873
▁fast	-8.45248
▁språk	-8.45293
▁frankrike	-8.45327
▁eks	-8.45455
▁bergen	-8.45525
▁langs	-8.45597
▁musikk	-8.45604
▁ganger	-8.45804
▁kultur	-8.4605
▁skrevet	-8.46084
▁engelsk	-8.46116
tiv	-8.46163
▁arbeidet	-8.46198
per	-8.46209
▁and	-8.46224
▁ju	-8.46479
▁grad	-8.46506
lin	-8.46599
▁2000	-8.46642
▁parti	-8.46669
ir	-8.46936
▁spilt	-8.46978
ron	-8.46988
▁alt	-8.47134
▁gull	-8.47192
▁lys	-8.47266
he	-8.47342
▁klubben	-8.47401
▁amerikanske	-8.47522
ru	-8.47711
▁begge	-8.48016
slag	-8.48154
▁hvert	-8.48256
tter	-8.48276
ld	-8.4829
verk	-8.48361
▁ru	-8.48395
vin	-8.48771
▁deler	-8.49228
siden	-8.49289
▁høy	-8.49422
▁london	-8.49536
ly	-8.49699
tan	-8.49729
▁lever	-8.49742
▁r	-8.49857
▁albumet	-8.50221
ed	-8.50243
▁nasjonal	-8.50271
▁min	-8.50322
▁samtidig	-8.50482
▁mann	-8.50551
▁all	-8.5074
inn	-8.50883
ek	-8.50939
▁etablert	-8.51084
ov	-8.51121
▁sto	-8.51141
lag	-8.51141
▁bandet	-8.51186
▁vm	-8.5141
▁x	-8.51672
ikk	-8.51794
▁verdens	-8.51978
and	-8.52152
▁gammel	-8.5234
ige	-8.52596
isme	-8.52814
em	-8.53046
▁jo	-8.53345
stand	-8.54139
ble	-8.54234
sel	-8.54253
▁amerikansk	-8.54303
▁bra	-8.54359
bruk	-8.54434
▁millioner	-8.54466
▁lu	-8.54529
▁fotball	-8.54786
▁president	-8.55143
od	-8.55148
dag	-8.55415
▁ab	-8.55432
▁so	-8.55459
▁annen	-8.55479
satt	-8.55503
▁25	-8.55891
▁verdenskrig	-8.55914
▁ne	-8.56019
▁kommunen	-8.56197
▁or	-8.56316
▁forhold	-8.56429
▁ge	-8.56469
▁krigen	-8.56479
▁slutten	-8.56785
▁god	-8.56836
▁ord	-8.56839
tra	-8.56952
▁ad	-8.57016
▁øy	-8.571
mmer	-8.57388
▁sesongen	-8.5739
▁stedet	-8.57436
hus	-8.57437
iv	-8.57601
▁tidlig	-8.57734
ku	-8.57749
▁sam	-8.57765
stre	-8.58235
▁vel	-8.58412
uten	-8.59032
▁hen	-8.59146
ü	-8.59204
▁vei	-8.59218
▁viktig	-8.59297
▁tredje	-8.59523
▁nytt	-8.59527
▁tri	-8.59562
▁san	-8.59661
▁norges	-8.59774
▁ver	-8.59817
▁2002	-8.60234
▁bok	-8.60363
dalen	-8.60386
▁mulig	-8.60707
▁ja	-8.6072
pi	-8.60958
▁selskapet	-8.60968
▁serien	-8.61161
▁førte	-8.61274
▁ch	-8.61281
▁te	-8.61361
▁1980	-8.6161
▁gud	-8.61632
▁verden	-8.61784
ran	-8.62258
▁øya	-8.62509
▁2001	-8.62664
▁delstaten	-8.62672
tre	-8.62687
▁skrev	-8.62698
ering	-8.62963
▁24	-8.63044
und	-8.63249
sti	-8.63322
burg	-8.63331
met	-8.63562
▁hatt	-8.63687
▁gresk	-8.63738
▁ski	-8.6403
▁slutt	-8.64071
sse	-8.64143
▁stort	-8.64172
▁kal	-8.64355
▁1990	-8.6442
itet	-8.64696
▁dr	-8.65071
tiske	-8.65115
▁holdt	-8.65168
dig	-8.65171
kor	-8.65177
▁gir	-8.65256
▁side	-8.65456
▁støtte	-8.65599
▁flyttet	-8.65857
len	-8.65863
▁ty	-8.66041
▁1999	-8.66218
▁mal	-8.66268
▁100	-8.66297
▁sentral	-8.66348
▁stein	-8.66377
ä	-8.6652
tall	-8.66537
▁19	-8.6683
▁verk	-8.66843
▁br	-8.67009
sten	-8.67039
▁22	-8.67205
▁2003	-8.67321
▁sjø	-8.67473
lu	-8.67731
les	-8.67773
tisk	-8.67852
▁familien	-8.68051
▁opprinnelig	-8.68099
hi	-8.68293
følge	-8.68363
▁fortsatt	-8.68501
▁gjør	-8.6865
løp	-8.68918
ley	-8.68935
ius	-8.68946
▁britiske	-8.69085
▁danmark	-8.69166
▁historie	-8.69381
▁grav	-8.69617
▁holde	-8.69641
ó	-8.69911
▁godt	-8.70066
▁vinter	-8.70146
▁spille	-8.70368
▁bort	-8.7041
▁arbeid	-8.70593
▁basert	-8.70864
▁hi	-8.70873
▁valgt	-8.70917
▁gift	-8.70943
▁gjort	-8.71139
▁spesielt	-8.71429
▁fl	-8.71476
del	-8.71547
▁mat	-8.71667
ham	-8.71694
ister	-8.71754
▁nok	-8.7179
lot	-8.71811
ow	-8.71826
▁utviklet	-8.72217
tikk	-8.72252
ks	-8.72262
▁antall	-8.72277
▁wa	-8.72303
▁midt	-8.72323
form	-8.72566
ninger	-8.72789
ou	-8.72838
ny	-8.7315
▁langt	-8.73204
▁bl	-8.73226
▁kjente	-8.73342
▁provinsen	-8.73365
log	-8.73402
▁ki	-8.73422
mar	-8.73603
▁sendt	-8.73763
kom	-8.73797
▁ser	-8.74
▁os	-8.74012
sj	-8.74049
ede	-8.74126
▁nor	-8.7431
▁tor	-8.74344
▁sh	-8.74755
▁tra	-8.74807
▁tur	-8.74841
▁omkring	-8.74932
▁konge	-8.75032
▁hel	-8.75068
stein	-8.7535
▁fag	-8.75389
▁gjern	-8.7543
ium	-8.75468
▁21	-8.75683
mel	-8.757
▁forfatter	-8.75865
▁gr	-8.75894
▁ledet	-8.7597
ber	-8.75983
▁my	-8.76127
fjorden	-8.76163
ud	-8.76232
▁fjell	-8.76516
▁får	-8.76525
▁storbritannia	-8.76528
▁sand	-8.76577
gel	-8.76591
heten	-8.76783
sch	-8.76799
kel	-8.76834
tid	-8.76901
▁kalles	-8.76954
elsen	-8.77025
▁pre	-8.77046
▁art	-8.77058
▁bygge	-8.77193
▁nummer	-8.77243
▁italia	-8.77343
▁neste	-8.77359
elig	-8.77756
ine	-8.7783
ki	-8.78398
tiden	-8.78483
▁forbindelse	-8.78499
wa	-8.7854
▁val	-8.78632
bb	-8.78754
▁50	-8.78764
hu	-8.78793
værende	-8.78796
▁paris	-8.78914
jo	-8.78967
▁natur	-8.79128
▁bety	-8.79148
▁bas	-8.79183
rat	-8.79279
ci	-8.79588
▁fred	-8.79693
▁vise	-8.79773
í	-8.798
▁utenfor	-8.79906
▁folk	-8.79942
fa	-8.80048
▁con	-8.80072
▁stat	-8.80088
let	-8.80164
▁egne	-8.80182
▁kirken	-8.80188
rik	-8.80224
ian	-8.80246
▁gruppe	-8.80454
▁elven	-8.80552
▁keiser	-8.80638
▁sv	-8.80686
▁henne	-8.8069
▁delen	-8.80815
▁car	-8.80818
▁militær	-8.80833
▁lokal	-8.81114
▁bred	-8.814
▁sangen	-8.81433
▁kv	-8.81769
▁dikt	-8.81824
▁pu	-8.81857
▁1970	-8.81908
▁én	-8.81932
▁prest	-8.82059
▁spor	-8.82149
tar	-8.82167
yl	-8.82208
▁bil	-8.82328
ong	-8.82508
▁familie	-8.82646
ach	-8.82804
▁halv	-8.82926
▁datter	-8.83026
kan	-8.83115
▁roman	-8.83218
▁tar	-8.83659
▁fått	-8.83689
▁23	-8.83693
2	-8.83816
▁funnet	-8.83817
▁svenske	-8.83924
▁åtte	-8.83967
▁26	-8.84029
▁skade	-8.84179
kker	-8.8419
▁åpnet	-8.84226
▁fant	-8.8437
lsen	-8.84384
▁produsert	-8.84601
▁liten	-8.84741
▁mennesker	-8.85046
▁moderne	-8.85391
lands	-8.85425
par	-8.85636
val	-8.85767
▁betydning	-8.85799
▁partiet	-8.85904
iet	-8.86122
▁bro	-8.86172
plass	-8.86207
mor	-8.86317
▁universitetet	-8.86354
▁foran	-8.8639
▁lite	-8.86571
fe	-8.86599
▁ben	-8.86718
▁arbeider	-8.86771
▁gjøre	-8.86919
▁york	-8.8758
▁russland	-8.87581
▁1998	-8.87586
tu	-8.87732
▁plan	-8.88017
▁skuespiller	-8.8828
▁mag	-8.8833
ken	-8.88373
▁ren	-8.88542
▁india	-8.88743
▁minst	-8.88744
▁1960	-8.88945
▁lange	-8.88976
▁ter	-8.89056
▁viser	-8.89184
▁jeg	-8.89215
▁står	-8.89279
▁stil	-8.89326
▁bor	-8.89328
▁ku	-8.89335
▁økonomisk	-8.89522
▁enkelte	-8.8968
est	-8.89838
bok	-8.89875
▁bruker	-8.89883
borg	-8.89969
▁nett	-8.90139
▁hol	-8.9023
▁delt	-8.90408
kant	-8.90502
lø	-8.90724
uk	-8.90728
▁general	-8.90774
▁såkalt	-8.90781
øl	-8.90911
til	-8.90918
▁cha	-8.90938
if	-8.91201
▁rom	-8.91241
▁1994	-8.91247
landet	-8.91325
▁sak	-8.91644
▁menn	-8.91691
▁slaget	-8.91696
▁luft	-8.91745
▁svensk	-8.91859
legg	-8.91973
▁handels	-8.92153
▁kongen	-8.92259
▁berg	-8.92416
bin	-8.92562
du	-8.92624
vo	-8.92644
▁valg	-8.92652
nder	-8.92663
▁40	-8.92836
▁personer	-8.92889
▁full	-8.93084
▁kamp	-8.93098
gn	-8.93113
▁skolen	-8.93153
ika	-8.93204
▁kvinner	-8.9352
▁viktigste	-8.93655
▁sentrum	-8.93769
▁litt	-8.93796
▁kons	-8.93834
▁produksjon	-8.93936
▁følge	-8.93963
▁aktiv	-8.94089
isering	-8.94256
pen	-8.94604
▁hjem	-8.9467
mester	-8.94672
▁krig	-8.94682
▁divisjon	-8.94777
▁meste	-8.94872
▁farge	-8.95014
▁va	-8.95027
▁kar	-8.95109
elt	-8.95305
tz	-8.95354
▁brasil	-8.95534
fra	-8.95553
▁barne	-8.95599
▁kn	-8.95688
▁27	-8.95751
dyr	-8.9579
▁au	-8.95838
▁kor	-8.96003
heim	-8.9612
▁pan	-8.96123
▁bre	-8.96169
fall	-8.9623
▁ste	-8.96309
▁ur	-8.96482
att	-8.96486
sson	-8.96525
▁knytte	-8.96571
dre	-8.96577
▁afrika	-8.96617
plan	-8.96623
ation	-8.96639
vel	-8.96758
bre	-8.96824
▁syn	-8.9684
▁z	-8.97011
▁paul	-8.97112
▁hav	-8.97173
og	-8.97375
mat	-8.97444
mål	-8.97495
▁befolkningen	-8.97523
ving	-8.97525
dom	-8.97579
▁stats	-8.97636
▁spi	-8.97737
▁bygd	-8.97901
▁sy	-8.97924
ac	-8.97993
▁danne	-8.98021
▁ett	-8.98147
▁slag	-8.98181
▁kontroll	-8.98208
▁28	-8.9822
▁radio	-8.98258
▁ak	-8.98451
▁inkludert	-8.98491
▁romersk	-8.98517
▁sta	-8.9856
ska	-8.98648
▁staten	-8.98692
▁reist	-8.98772
hø	-8.98812
ald	-8.98816
▁best	-8.9887
port	-8.9888
▁opprettet	-8.9889
sak	-8.98957
▁jord	-8.99006
▁ed	-8.99168
▁hør	-8.99191
▁dyr	-8.99333
▁sang	-8.9945
dy	-8.9948
øya	-8.99504
ator	-8.99776
anske	-8.99939
▁utnevnt	-9.00107
▁serie	-9.00166
▁berlin	-9.00202
9	-9.00239
▁skog	-9.00294
fly	-9.00452
▁lokale	-9.00466
▁betydelig	-9.00518
kl	-9.00534
▁lands	-9.00555
ide	-9.00664
▁fiske	-9.00665
ys	-9.00685
▁lett	-9.00734
▁band	-9.00749
▁regjeringen	-9.00806
▁dis	-9.00836
▁tu	-9.00883
▁arter	-9.00926
▁direkte	-9.01029
▁henhold	-9.01068
kle	-9.01078
▁historisk	-9.01084
▁gå	-9.01099
▁kj	-9.0126
lik	-9.01436
ale	-9.01492
reg	-9.01671
nske	-9.01698
skole	-9.01855
▁veien	-9.01862
vei	-9.01951
▁gje	-9.02021
gr	-9.02027
▁2012	-9.02075
▁mil	-9.0216
▁fortsatte	-9.02489
▁hjelp	-9.0253
▁amerika	-9.0257
▁italiensk	-9.02584
▁begynnelsen	-9.02588
▁1996	-9.02589
▁1992	-9.0259
▁29	-9.02752
stående	-9.02789
▁bestemt	-9.02863
styre	-9.02975
▁gav	-9.03076
▁høyre	-9.0309
▁ferdig	-9.03123
far	-9.03128
ab	-9.032
pro	-9.03213
▁gul	-9.03295
sky	-9.03385
▁johan	-9.03506
▁mel	-9.03533
fi	-9.03638
leg	-9.03803
mon	-9.03836
▁dager	-9.03954
▁motor	-9.03955
▁styre	-9.03963
råd	-9.04118
▁skip	-9.04125
▁1988	-9.04168
▁hevde	-9.0417
▁1995	-9.04172
lan	-9.04396
▁via	-9.0442
▁eget	-9.04519
skapet	-9.04654
▁industri	-9.04736
▁måte	-9.04755
▁universitet	-9.04821
bra	-9.04838
▁lik	-9.04899
▁forsøk	-9.05025
▁latin	-9.0528
▁menneske	-9.05358
▁teater	-9.05536
▁kvinne	-9.05723
merke	-9.0575
▁eldste	-9.05767
▁sølv	-9.05771
minister	-9.05778
▁robert	-9.05797
▁versjon	-9.06271
▁1991	-9.06316
▁1985	-9.06317
stasjon	-9.06376
▁ul	-9.06381
▁tross	-9.06465
▁fremst	-9.06602
ey	-9.06767
forening	-9.06854
▁hy	-9.0686
laget	-9.06964
ung	-9.07106
▁periode	-9.07107
▁anti	-9.0711
▁peter	-9.07157
▁hånd	-9.07197
▁bru	-9.07244
tro	-9.07362
▁århundre	-9.07398
▁1997	-9.07403
▁fu	-9.07445
▁lærer	-9.07475
▁medlemmer	-9.07486
▁benyttet	-9.07581
▁endt	-9.07631
▁hvis	-9.07653
ksjon	-9.07679
▁angrep	-9.07876
▁samarbeid	-9.07897
▁album	-9.07963
▁rolle	-9.0805
fer	-9.08075
▁lagt	-9.0816
film	-9.08261
ologi	-9.08304
▁rød	-9.08399
▁1986	-9.08507
kon	-9.08742
▁riks	-9.08743
▁bror	-9.08778
bro	-9.0878
▁meget	-9.08877
▁reise	-9.08906
▁wi	-9.08909
løs	-9.08931
tok	-9.08931
kj	-9.08965
▁hjemme	-9.08977
▁internasjonale	-9.09104
▁tjeneste	-9.09134
my	-9.09156
▁enkelt	-9.0934
stu	-9.09367
ight	-9.0941
bil	-9.09509
▁minne	-9.09705
spiller	-9.09714
▁carl	-9.09727
spill	-9.09803
▁dannet	-9.09824
som	-9.09853
▁stra	-9.09858
▁arbeids	-9.09868
▁th	-9.09872
▁person	-9.09952
▁europeisk	-9.10107
▁elva	-9.10113
mu	-9.10138
▁biskop	-9.10177
▁fo	-9.10263
▁krigs	-9.10412
▁russisk	-9.10464
bel	-9.10466
6	-9.10499
▁drept	-9.1074
▁bur	-9.10746
▁1920	-9.10757
▁on	-9.10894
asjonen	-9.10949
▁politiker	-9.1096
▁kraftig	-9.10973
▁danske	-9.10993
▁områder	-9.1104
▁orden	-9.11159
▁tildelt	-9.11184
kal	-9.11221
stat	-9.11228
▁sal	-9.11271
her	-9.11289
▁dess	-9.11309
▁aldri	-9.11311
▁1987	-9.11318
▁slått	-9.11379
zi	-9.11386
svis	-9.11401
▁sen	-9.11458
veien	-9.11461
▁turn	-9.11534
ris	-9.11654
▁omtrent	-9.1188
yn	-9.11962
▁1800	-9.11983
nntil	-9.12008
▁års	-9.12096
lå	-9.12102
▁topp	-9.12274
▁slo	-9.12342
▁regnes	-9.1256
za	-9.12714
▁klar	-9.12714
▁pr	-9.12799
▁von	-9.12816
▁karl	-9.12896
stilt	-9.12915
▁christian	-9.12962
▁plate	-9.12994
▁post	-9.13
ført	-9.13015
▁organ	-9.13135
▁regionen	-9.13168
liggende	-9.13216
▁eu	-9.13396
gh	-9.13527
forbund	-9.13604
▁trondheim	-9.13614
▁william	-9.13614
van	-9.13625
▁pla	-9.1363
skip	-9.13667
▁col	-9.13688
vet	-9.13701
jer	-9.13732
▁tittelen	-9.13859
00	-9.13918
skje	-9.13993
▁dra	-9.1406
▁makt	-9.1407
▁31	-9.14125
isert	-9.14183
▁grunnlagt	-9.1419
fl	-9.14193
▁arrangert	-9.14199
▁1989	-9.14205
▁henrik	-9.14226
▁poeng	-9.1423
▁lav	-9.14371
▁ettersom	-9.14525
▁skrift	-9.14624
▁sanger	-9.14632
▁ø	-9.14704
▁1993	-9.14793
▁steder	-9.14897
▁dansk	-9.1494
▁seier	-9.14993
▁hal	-9.15094
ica	-9.15098
▁kroppen	-9.15114
▁park	-9.15116
dømme	-9.1515
bane	-9.15236
▁200	-9.15246
▁kilometer	-9.15379
▁studert	-9.15384
▁venstre	-9.15392
▁eldre	-9.15413
ds	-9.15515
20	-9.15541
▁rock	-9.15683
▁japan	-9.15706
cu	-9.15743
▁pave	-9.15765
▁ras	-9.1589
▁sovjetunionen	-9.15974
▁dagens	-9.15977
▁herre	-9.15984
lagt	-9.15989
syn	-9.16108
▁følgende	-9.16261
res	-9.16313
ju	-9.1635
mark	-9.16539
а	-9.16567
▁bedre	-9.16584
gl	-9.166
stilling	-9.16874
bygd	-9.1694
▁spe	-9.16966
▁2013	-9.17189
▁1900	-9.17193
føre	-9.17257
▁uttrykk	-9.17373
▁engelske	-9.17375
▁bill	-9.17438
▁tilhører	-9.17514
▁mark	-9.17644
han	-9.17714
gått	-9.17726
▁1984	-9.17791
▁høyeste	-9.17837
▁energi	-9.17852
setning	-9.17914
▁fre	-9.17917
▁vekt	-9.17926
▁hva	-9.18071
regionen	-9.18154
▁mod	-9.18199
▁suksess	-9.18391
▁vanskelig	-9.18392
▁1976	-9.18398
▁1983	-9.18398
▁university	-9.18426
▁sterkt	-9.18464
departementet	-9.18612
▁slekt	-9.1872
▁løp	-9.18747
▁hovedsake	-9.18817
▁resten	-9.19144
leder	-9.19234
red	-9.193
▁skrive	-9.19316
▁fylke	-9.19377
▁flo	-9.19418
▁mont	-9.19429
▁virke	-9.19542
▁vo	-9.196
▁1950	-9.19622
▁dårlig	-9.19623
gård	-9.19627
ev	-9.19727
▁utgjør	-9.19932
sto	-9.1994
▁samlet	-9.20022
▁omfatter	-9.20028
blad	-9.20038
▁skje	-9.2008
▁ap	-9.202
▁bodde	-9.2029
▁cl	-9.20389
▁finner	-9.20421
▁resultat	-9.20438
▁felles	-9.20536
▁samle	-9.20666
▁gen	-9.20781
▁finalen	-9.20851
▁likevel	-9.20899
▁møte	-9.2092
▁com	-9.20962
▁lege	-9.21043
istiske	-9.21072
▁midten	-9.21165
▁indre	-9.21236
grad	-9.21367
▁op	-9.2144
ph	-9.21481
▁1964	-9.21505
▁2014	-9.21506
▁christ	-9.21693
▁van	-9.21825
båt	-9.21978
▁komme	-9.22023
▁we	-9.22116
▁lille	-9.22137
▁1981	-9.22137
▁drift	-9.22231
hr	-9.22237
▁system	-9.22266
▁tap	-9.22268
▁fin	-9.22363
kte	-9.22519
system	-9.22561
▁finne	-9.22642
kar	-9.22643
gikk	-9.22664
ip	-9.2274
и	-9.22767
vil	-9.2282
▁inneholder	-9.2284
mal	-9.22899
inne	-9.23018
▁bank	-9.23046
handling	-9.23122
▁ag	-9.23138
ah	-9.23161
▁fange	-9.23184
▁tom	-9.23381
▁hvit	-9.23394
stil	-9.234
▁hvilke	-9.23408
▁prosent	-9.23415
▁statsminister	-9.23423
▁ordet	-9.23457
▁kraft	-9.23467
▁opprør	-9.23543
vann	-9.2364
▁nordlige	-9.23746
anger	-9.23805
▁mur	-9.23805
▁brun	-9.23825
▁kron	-9.23965
▁professor	-9.24053
▁dro	-9.24115
▁punkt	-9.24169
▁ly	-9.24292
tel	-9.24297
ps	-9.24362
▁område	-9.24402
lene	-9.24482
▁gran	-9.24491
▁utvikling	-9.24493
▁natt	-9.24574
▁1968	-9.24712
ya	-9.24724
▁hard	-9.24839
so	-9.24873
▁vin	-9.24941
▁råd	-9.25069
▁jobb	-9.25075
bygg	-9.25186
▁rø	-9.25225
▁los	-9.25272
kast	-9.25337
▁stockholm	-9.25356
▁hverandre	-9.25356
▁stavanger	-9.25361
▁nordøst	-9.25383
▁studie	-9.2546
rus	-9.25481
lys	-9.25535
▁valgte	-9.25613
▁høyde	-9.25727
▁leker	-9.25784
▁grand	-9.259
messig	-9.26015
▁omfattende	-9.26042
▁roma	-9.26063
▁you	-9.26091
▁unge	-9.26138
gruppen	-9.26161
▁500	-9.26182
▁viste	-9.26255
▁dom	-9.26528
▁fall	-9.26531
▁je	-9.26583
▁1940	-9.26688
▁samling	-9.26701
▁båt	-9.26882
heng	-9.26917
▁erik	-9.2701
▁vol	-9.27055
55	-9.27112
▁seil	-9.2726
▁regn	-9.2727
ves	-9.27295
▁1974	-9.27353
idae	-9.27359
▁ber	-9.2753
▁jan	-9.27563
punkt	-9.2757
▁slekten	-9.27599
su	-9.27668
kken	-9.27731
▁sosial	-9.27964
▁1979	-9.28019
▁bøker	-9.28061
▁miljø	-9.28133
ologisk	-9.28159
▁britisk	-9.28208
▁kunstner	-9.28214
▁es	-9.28663
old	-9.28689
▁spania	-9.2869
▁1982	-9.28697
▁1948	-9.28701
▁trykk	-9.28703
vær	-9.2872
▁borger	-9.28862
▁tegn	-9.28934
året	-9.28986
ografi	-9.28999
▁viss	-9.29154
▁sesong	-9.29233
▁data	-9.29289
▁400	-9.29324
▁1977	-9.29377
▁port	-9.29379
▁1973	-9.29379
▁sørøst	-9.29391
▁bruke	-9.29391
▁sc	-9.2941
ana	-9.29509
▁kra	-9.29589
▁tett	-9.29635
▁plassering	-9.29671
heter	-9.29705
▁sha	-9.29716
bud	-9.29744
▁sj	-9.29824
▁tak	-9.29882
lis	-9.29904
▁pat	-9.29946
▁kamper	-9.30063
65	-9.3022
familien	-9.30234
kter	-9.30325
▁livet	-9.30396
▁alder	-9.30411
▁mus	-9.30459
▁våpen	-9.30463
▁delta	-9.30523
▁arten	-9.30565
▁lenge	-9.30579
▁mester	-9.30617
fisk	-9.30637
▁tradisjon	-9.30704
▁1945	-9.30753
▁liste	-9.3088
▁boken	-9.30923
▁høyere	-9.31119
▁katolske	-9.31301
ferd	-9.314
områder	-9.31515
▁asia	-9.3181
elser	-9.31856
mmen	-9.31885
▁litteratur	-9.31888
▁fjerde	-9.32138
▁fulgte	-9.32221
▁grensen	-9.32366
▁gal	-9.32367
▁sju	-9.32402
menn	-9.32596
▁fylkesvei	-9.3286
▁olje	-9.32926
selskap	-9.32935
▁lær	-9.32992
▁don	-9.33094
gar	-9.33121
▁tall	-9.33129
ther	-9.33173
▁raskt	-9.33177
▁60	-9.33258
▁havne	-9.33268
▁mu	-9.33274
▁møtte	-9.33553
ini	-9.33651
▁tru	-9.33653
get	-9.33665
▁finland	-9.33722
▁hundre	-9.33751
▁ære	-9.33764
▁cor	-9.33793
▁helse	-9.33905
▁heller	-9.33952
navn	-9.33988
▁krav	-9.34127
rø	-9.34195
▁dronning	-9.3427
▁svarte	-9.34356
ida	-9.34521
▁ke	-9.34618
▁vestlig	-9.34619
▁styrke	-9.34643
▁konsert	-9.34727
▁klasse	-9.34754
løse	-9.34759
ino	-9.34869
▁stemme	-9.3491
lom	-9.3492
▁mm	-9.35029
▁hæren	-9.35036
▁dal	-9.35088
▁sogn	-9.35124
▁nrk	-9.35212
gan	-9.35305
▁lin	-9.35359
▁stjerne	-9.35522
lev	-9.35586
ære	-9.35687
▁david	-9.35713
▁selskap	-9.35826
ismen	-9.35894
ros	-9.35973
▁koloni	-9.36071
banen	-9.36196
sund	-9.36258
▁sannsynlig	-9.3644
▁canada	-9.3644
rud	-9.36491
ice	-9.36526
▁overtok	-9.36686
▁dagen	-9.36891
sjef	-9.36917
▁80	-9.36921
▁kos	-9.36998
pu	-9.3705
▁leve	-9.37072
▁opera	-9.3709
▁voksne	-9.37177
▁mon	-9.37191
▁gren	-9.37249
▁regjering	-9.37263
krigen	-9.37311
tjeneste	-9.37344
▁sommeren	-9.37388
dde	-9.37525
enes	-9.37677
▁renn	-9.37703
▁region	-9.3772
▁gård	-9.37779
liv	-9.37799
▁kul	-9.37917
▁ring	-9.38092
ford	-9.38096
▁lyd	-9.38099
arbeid	-9.38109
jen	-9.38164
▁funksjon	-9.38242
▁japansk	-9.38264
▁island	-9.38306
▁stand	-9.38565
▁befolkning	-9.38611
▁sentrale	-9.38616
▁israel	-9.38633
▁kryss	-9.38666
▁1978	-9.38673
▁fører	-9.38797
▁bal	-9.38834
▁mis	-9.38876
▁maria	-9.389
▁kampen	-9.39055
samling	-9.39146
fri	-9.39304
stod	-9.39385
▁1969	-9.39424
▁1972	-9.39426
▁1975	-9.39427
kraft	-9.39441
sal	-9.39515
▁arkitekt	-9.39541
▁reform	-9.39544
byen	-9.3958
▁havet	-9.39632
▁blå	-9.39675
område	-9.39715
▁linje	-9.3978
▁ky	-9.39844
▁oppdag	-9.39896
ct	-9.39948
istisk	-9.39966
ød	-9.40072
deling	-9.40083
ze	-9.40101
are	-9.40146
▁sikre	-9.40176
hav	-9.40195
så	-9.40281
▁ci	-9.40381
▁karriere	-9.4039
▁vår	-9.40402
området	-9.40454
▁sørlige	-9.40455
hl	-9.40486
▁uni	-9.40573
▁militære	-9.40575
anlegg	-9.40605
▁kors	-9.40623
▁posisjon	-9.40652
rike	-9.40724
▁artene	-9.40773
sjøen	-9.40844
▁dy	-9.40906
▁ledd	-9.40925
▁australia	-9.40935
▁1971	-9.40944
▁city	-9.40988
huset	-9.41038
7	-9.41047
up	-9.41067
▁forsøkt	-9.41119
▁miste	-9.41162
▁olav	-9.41229
▁west	-9.41272
skog	-9.41313
▁gode	-9.41408
▁gar	-9.41421
skifte	-9.41523
▁sterk	-9.41632
▁ishockey	-9.41704
е	-9.41704
fo	-9.41718
▁standard	-9.41732
gitt	-9.41748
med	-9.41771
retning	-9.41791
▁stasjon	-9.41803
▁prosess	-9.4183
▁gården	-9.41857
▁dersom	-9.4186
roll	-9.41915
fjord	-9.41998
▁pl	-9.42026
▁sø	-9.42149
ita	-9.42179
ay	-9.42294
▁regi	-9.42331
navnet	-9.42481
▁bronse	-9.42483
fag	-9.42491
▁1944	-9.42491
▁stadig	-9.42517
▁blod	-9.42529
▁mac	-9.42549
▁egypt	-9.42561
kunst	-9.42599
kin	-9.42648
▁imp	-9.42704
▁endret	-9.42749
▁fer	-9.42824
▁ve	-9.42846
tek	-9.42859
sjoner	-9.43051
▁sm	-9.43095
▁sig	-9.43105
▁nu	-9.43167
▁motstand	-9.4326
ider	-9.43303
▁gass	-9.43399
▁regel	-9.43408
▁skipet	-9.43459
▁grå	-9.43472
▁trolig	-9.43491
▁q	-9.43522
▁fal	-9.4355
▁skr	-9.43656
rom	-9.4391
▁representerte	-9.43917
▁son	-9.44008
▁svart	-9.4401
nett	-9.44013
▁bilde	-9.44031
▁thomas	-9.44048
▁etterhver	-9.4405
▁vokste	-9.4405
▁areal	-9.44062
▁skape	-9.44099
▁pri	-9.44101
ski	-9.44116
▁hær	-9.44156
▁ønsket	-9.44162
produksjon	-9.44174
▁bør	-9.4424
▁grupper	-9.44257
king	-9.44258
▁utvikle	-9.44266
drag	-9.44282
▁lenger	-9.44367
▁sende	-9.4468
▁informasjon	-9.44842
▁varme	-9.44949
▁nådd	-9.4498
▁konkurransen	-9.45002
▁grenser	-9.45016
▁virksomhet	-9.45018
nyin	-9.45086
▁utført	-9.45124
mannen	-9.45171
▁forsvar	-9.45226
▁høsten	-9.45323
lighet	-9.45331
▁viktige	-9.45332
▁plante	-9.45544
▁lengre	-9.45644
▁fest	-9.45676
1	-9.45691
bed	-9.45715
▁grev	-9.45775
xi	-9.45883
of	-9.45932
▁hall	-9.45934
lv	-9.45961
▁ball	-9.46018
▁totalt	-9.46048
▁300	-9.46087
ano	-9.46093
▁mc	-9.46231
▁plassert	-9.46238
▁para	-9.46283
▁arm	-9.46407
▁bygningen	-9.46412
è	-9.46448
▁oppkalt	-9.46452
▁nordvest	-9.46455
▁1952	-9.46463
▁1930	-9.46465
▁følger	-9.46479
▁måneder	-9.46507
spor	-9.4653
▁syv	-9.46572
▁not	-9.46621
mus	-9.46721
▁huset	-9.46804
▁personlig	-9.46907
▁verdi	-9.47076
▁opprinnelige	-9.47143
▁kysten	-9.4719
▁korte	-9.47249
▁figur	-9.4725
▁københavn	-9.47261
▁tilsvarende	-9.47261
▁retning	-9.47263
▁rike	-9.47307
▁gro	-9.47368
▁brann	-9.47431
▁offisiell	-9.47433
▁nabo	-9.47438
nivå	-9.47444
▁innført	-9.47485
▁bolig	-9.47486
▁ex	-9.47499
▁drev	-9.47587
▁stiftet	-9.47634
▁brukte	-9.47639
ich	-9.47646
▁erstattet	-9.47796
▁museum	-9.47839
gangen	-9.479
▁solgt	-9.47953
▁soldater	-9.48091
▁regnet	-9.48101
▁sammenheng	-9.48182
kommun	-9.48251
▁politi	-9.48258
periode	-9.48275
▁styrker	-9.48318
▁interesse	-9.48332
▁hertug	-9.48365
af	-9.48378
▁hopp	-9.48406
ding	-9.48427
30	-9.48436
poli	-9.48539
havet	-9.48554
full	-9.48555
▁besøk	-9.48557
▁merke	-9.48642
▁za	-9.48656
▁naturlig	-9.48701
▁stille	-9.48763
we	-9.48782
▁kardinal	-9.48907
▁2015	-9.48929
vern	-9.49031
▁kroner	-9.49056
disk	-9.49121
▁super	-9.49187
▁journalist	-9.49194
▁sir	-9.49197
elige	-9.49588
▁avdeling	-9.49605
ath	-9.49668
▁tung	-9.49936
▁qu	-9.50033
ji	-9.50078
hall	-9.50118
ap	-9.50118
ull	-9.5015
chi	-9.50173
rek	-9.50191
don	-9.50203
▁hit	-9.5028
▁hei	-9.50358
tegn	-9.50447
ain	-9.5057
eng	-9.50577
▁musiker	-9.50589
▁1956	-9.50596
▁lengde	-9.50596
▁lære	-9.50665
skrift	-9.50808
▁rik	-9.5084
▁bakgrunn	-9.50879
▁formann	-9.50887
▁veg	-9.509
▁moh	-9.50982
▁skjer	-9.51043
▁klarte	-9.51128
▁trans	-9.51302
band	-9.51343
▁hår	-9.5138
rev	-9.51444
ari	-9.51497
▁jern	-9.51506
▁ytre	-9.51507
trykk	-9.51617
▁handling	-9.51669
dels	-9.51809
▁kreve	-9.5183
▁effekt	-9.51891
tsj	-9.51896
▁fot	-9.51937
oc	-9.51982
▁student	-9.52018
▁artist	-9.52068
▁korea	-9.52081
senter	-9.52183
▁produsere	-9.52283
▁religiøs	-9.52283
▁trøndelag	-9.52283
▁relativ	-9.52283
▁foreldre	-9.52285
▁stortinget	-9.52286
▁1912	-9.52293
▁gjennomført	-9.52373
▁mengde	-9.52469
sjonen	-9.52483
▁athen	-9.52491
ix	-9.52528
10	-9.52545
▁kyst	-9.526
▁len	-9.52661
▁skapt	-9.52708
▁lei	-9.52728
▁anders	-9.52738
bygging	-9.52771
valg	-9.52815
▁kraftverk	-9.52819
▁egg	-9.52959
▁pol	-9.52965
▁eier	-9.52972
▁prege	-9.52986
pris	-9.5308
imot	-9.53091
▁xi	-9.53092
▁nødvendig	-9.53145
▁publisert	-9.53145
▁jøde	-9.53192
▁martin	-9.53194
▁offentlig	-9.53234
ledes	-9.53303
▁grønn	-9.53398
all	-9.53432
▁kur	-9.5357
▁russiske	-9.5357
▁sl	-9.53608
▁start	-9.53633
qu	-9.53733
▁fil	-9.53755
▁ii	-9.53773
▁klart	-9.53831
▁tapte	-9.53908
▁bytte	-9.53965
▁strøm	-9.53992
▁ger	-9.54007
▁innflytelse	-9.54009
▁bronsemedalje	-9.54018
▁tekst	-9.54042
▁gra	-9.5405
bor	-9.54074
▁lund	-9.5424
▁ac	-9.5438
▁flat	-9.54449
▁bad	-9.54475
▁transport	-9.54488
▁kre	-9.54515
▁hest	-9.54531
ör	-9.54561
▁george	-9.54701
arter	-9.54719
styrt	-9.5472
▁oppdaget	-9.54793
led	-9.54846
gården	-9.5489
р	-9.54892
▁unntak	-9.54905
5	-9.54912
▁bevart	-9.54914
▁utviklingen	-9.55123
▁enten	-9.55182
ib	-9.55189
gående	-9.55213
▁sky	-9.55234
39	-9.55276
▁legge	-9.55385
▁dyp	-9.5555
▁sykdom	-9.55564
▁nivå	-9.55586
midler	-9.55666
▁sluttet	-9.5568
▁opprinnelse	-9.55777
▁70	-9.55796
42	-9.55849
▁hovedstaden	-9.55875
føring	-9.56004
gren	-9.56074
▁rev	-9.56096
▁anlegget	-9.56111
systemet	-9.5613
▁revolusjon	-9.56166
80	-9.5629
▁kart	-9.56303
▁brev	-9.56331
folk	-9.56354
▁vold	-9.5639
program	-9.56486
▁slå	-9.56583
▁høyt	-9.56607
ish	-9.56617
ial	-9.56783
▁sub	-9.56815
▁cu	-9.56851
▁johannes	-9.56856
▁modell	-9.56961
▁nederland	-9.57093
▁can	-9.57177
▁jon	-9.57262
▁bind	-9.57407
▁eli	-9.57472
tropp	-9.57501
▁grunnlag	-9.57515
▁forskning	-9.57539
о	-9.57566
▁kristne	-9.57571
▁fotballspiller	-9.57602
▁af	-9.57607
▁nasjon	-9.5772
ål	-9.5774
loven	-9.57863
▁spørsmål	-9.57886
▁distrikt	-9.57907
sin	-9.57912
▁maskin	-9.57929
▁gifte	-9.57946
ins	-9.57953
musikk	-9.57956
▁scene	-9.58143
3	-9.58159
fart	-9.58315
▁daglig	-9.58321
▁adel	-9.58321
▁debutert	-9.58399
▁1949	-9.5848
▁2017	-9.58497
▁egentlig	-9.58506
▁fremdeles	-9.5851
▁hvite	-9.58546
▁variant	-9.58552
skolen	-9.58559
▁vinge	-9.58578
kler	-9.58603
▁het	-9.58753
▁iii	-9.58846
våpen	-9.58862
▁røde	-9.58904
▁utdanning	-9.58909
▁rekord	-9.58937
▁lars	-9.59018
▁tettstedet	-9.59034
▁air	-9.59139
stra	-9.5918
▁tanke	-9.59185
virkning	-9.5921
▁delvis	-9.59226
▁eid	-9.59274
fest	-9.59307
▁jens	-9.59319
▁valget	-9.59342
▁feil	-9.59468
▁eiendom	-9.59548
våg	-9.59571
▁hor	-9.59666
▁design	-9.59757
▁dan	-9.59791
▁syk	-9.59815
▁direktør	-9.59883
▁organisasjon	-9.5989
40	-9.60072
pr	-9.60125
▁årlig	-9.60236
▁1967	-9.60339
▁1965	-9.60346
tun	-9.60387
gler	-9.60406
▁smal	-9.60448
▁syd	-9.60507
▁prosjekt	-9.60563
▁områdene	-9.60614
43	-9.6064
▁kjempe	-9.6069
▁polen	-9.60699
che	-9.60714
pel	-9.60871
turnering	-9.60927
▁hjelpe	-9.60935
▁presse	-9.61045
▁karakter	-9.61058
▁harald	-9.61125
▁mw	-9.6114
▁runde	-9.61161
▁festning	-9.61192
▁sjef	-9.61249
▁kunnskap	-9.61258
▁lansert	-9.61268
▁folket	-9.61325
▁tema	-9.61348
▁real	-9.61393
▁bosatt	-9.61399
▁klubb	-9.61409
ama	-9.61425
▁lau	-9.61436
parti	-9.61469
52	-9.61505
▁privat	-9.61539
eks	-9.61663
▁venn	-9.61741
▁begynner	-9.61751
▁aktivitet	-9.61859
▁produkt	-9.61907
zo	-9.62123
▁sul	-9.62194
▁skottland	-9.62201
▁vunnet	-9.62206
▁ordfører	-9.62221
▁bjørn	-9.62239
▁sivil	-9.62254
▁fe	-9.62393
▁kol	-9.62431
▁bern	-9.62577
▁landskapet	-9.62591
▁irland	-9.626
gjøre	-9.62675
▁ska	-9.6274
▁størrelse	-9.62777
▁thor	-9.62785
▁høye	-9.62839
handler	-9.62846
▁teori	-9.62851
▁uavhengig	-9.62963
▁forsknings	-9.63004
▁nærings	-9.63024
▁ung	-9.63095
fører	-9.63148
▁sølvmedalje	-9.63158
▁us	-9.63163
▁altså	-9.63184
▁sikkerhet	-9.6321
▁politikk	-9.6322
▁knut	-9.6327
▁stykke	-9.63286
▁union	-9.63295
▁drive	-9.63342
▁åpen	-9.63405
▁kir	-9.63423
▁jorden	-9.63447
språk	-9.63458
stått	-9.63498
▁gutt	-9.63562
▁tele	-9.63662
▁heter	-9.63725
▁faren	-9.63849
▁cal	-9.64057
▁grense	-9.64082
48	-9.64089
fal	-9.64109
▁etterfulgt	-9.64115
▁konflikt	-9.64115
▁sportsutøver	-9.64115
▁friidrett	-9.64115
▁1924	-9.64128
▁skjedde	-9.6413
▁klassisk	-9.64283
▁fro	-9.64296
▁holm	-9.64362
▁teksten	-9.64417
▁øke	-9.64485
nik	-9.64605
▁anne	-9.64794
▁stu	-9.64959
▁un	-9.64962
lie	-9.65084
▁selvstendig	-9.65086
▁utdannet	-9.65086
▁folketelling	-9.65086
høgskole	-9.65087
▁1936	-9.65098
▁1961	-9.65101
▁sommerfugl	-9.65107
▁cm	-9.65139
▁slike	-9.65232
▁rad	-9.65252
▁off	-9.65267
sberg	-9.65326
▁fordelt	-9.65327
▁språket	-9.65367
way	-9.6541
ire	-9.6547
85	-9.65528
▁strid	-9.65537
rop	-9.65544
▁wo	-9.65557
57	-9.65589
87	-9.65603
valget	-9.65878
56	-9.65901
gle	-9.65924
▁republikken	-9.6596
korps	-9.66038
▁trak	-9.66061
▁ytterligere	-9.66066
▁1932	-9.66076
▁skips	-9.66175
▁ob	-9.66206
dra	-9.66226
▁behandling	-9.66233
▁status	-9.66325
later	-9.66331
abel	-9.66343
brudd	-9.66348
▁sveits	-9.66467
95	-9.66496
▁temperatur	-9.66565
haug	-9.66601
▁ram	-9.6661
▁program	-9.66615
▁salt	-9.66668
▁leg	-9.66687
▁dia	-9.66693
▁besto	-9.66981
▁felt	-9.67008
kro	-9.67026
▁james	-9.67062
▁finans	-9.67063
▁ven	-9.67097
▁hjerte	-9.6711
▁turneringen	-9.67112
▁wh	-9.6715
ager	-9.6723
itz	-9.67247
▁symbol	-9.67315
▁spesial	-9.67317
iz	-9.67325
ima	-9.67329
last	-9.67364
lia	-9.674
▁mørke	-9.67403
▁hodet	-9.67455
bert	-9.6757
▁nederlandsk	-9.67594
▁krets	-9.67597
75	-9.67638
▁historien	-9.67655
67	-9.67665
58	-9.67669
▁fylkes	-9.67771
tatt	-9.67801
▁prøve	-9.67808
▁normalt	-9.67851
▁stammer	-9.67904
▁sve	-9.67934
▁samfunns	-9.67994
gul	-9.6802
18	-9.68034
▁california	-9.68056
▁angeles	-9.68057
▁sørvest	-9.68061
▁1946	-9.68069
▁munn	-9.6807
win	-9.68075
▁klima	-9.68086
▁black	-9.68108
iserte	-9.68109
mil	-9.68113
felt	-9.68178
▁oppdrag	-9.68254
▁mangle	-9.68337
▁ansatte	-9.6835
ved	-9.68416
▁fjorden	-9.68422
hal	-9.68494
nerne	-9.68573
aktig	-9.68574
35	-9.68715
62	-9.68772
▁por	-9.68774
▁32	-9.68865
▁kontor	-9.68975
kka	-9.69028
side	-9.69057
bilde	-9.69061
▁beijing	-9.69066
▁komponist	-9.69066
▁tilgjengelig	-9.69067
▁kontakt	-9.6907
▁2016	-9.69087
▁stilling	-9.69128
gjorde	-9.69207
▁motsetning	-9.69277
trekk	-9.69335
▁kanon	-9.69346
▁elv	-9.69376
▁styrkene	-9.69548
▁jobbet	-9.69557
53	-9.69558
▁ekteskap	-9.69573
kop	-9.69662
▁skille	-9.69674
holm	-9.69777
▁tids	-9.69781
▁bø	-9.69895
▁betegnelsen	-9.69911
▁femte	-9.69941
▁vind	-9.69963
▁gate	-9.70021
▁char	-9.70089
rene	-9.70095
hy	-9.70103
▁1954	-9.70103
▁1957	-9.70105
▁skilt	-9.70111
▁rute	-9.70327
ola	-9.70349
▁ara	-9.70412
63	-9.70467
▁operasjon	-9.70504
▁ban	-9.70544
▁redaktør	-9.70567
70	-9.70595
shire	-9.70686
47	-9.70724
▁utvidet	-9.70868
verket	-9.70912
▁rus	-9.70931
▁sette	-9.70947
▁populær	-9.71083
▁østerrike	-9.71119
skjold	-9.7112
▁1966	-9.71134
▁søster	-9.71159
▁trekke	-9.71242
lett	-9.71255
▁mottok	-9.71364
folkerepublikken	-9.71367
park	-9.71425
▁undersøkelse	-9.71434
▁selve	-9.71454
▁ep	-9.71458
tog	-9.71511
▁sau	-9.71515
▁flagg	-9.71559
feltet	-9.71606
ritt	-9.71607
51	-9.71612
▁hell	-9.71657
▁toppen	-9.7171
virke	-9.71784
▁trafikk	-9.71813
gress	-9.71816
▁90	-9.71872
är	-9.71877
▁middelalderen	-9.71903
▁fyrst	-9.71996
▁blad	-9.72003
▁sent	-9.72007
▁45	-9.72014
▁vis	-9.72032
▁utgave	-9.72073
▁fullstendig	-9.72159
▁michael	-9.72159
▁avhengig	-9.72162
▁college	-9.72163
kjenne	-9.7217
▁1959	-9.72176
▁profesjonell	-9.72287
▁falt	-9.72299
▁just	-9.72352
▁sund	-9.72359
▁hoff	-9.72379
▁middel	-9.72387
▁sur	-9.72392
hel	-9.72424
▁kongelige	-9.72488
dekke	-9.72494
▁liga	-9.72507
▁innsjøen	-9.72552
åk	-9.72581
▁polsk	-9.72591
▁ting	-9.72811
maskin	-9.72812
har	-9.72813
▁andreplass	-9.72826
▁uker	-9.72865
▁ry	-9.72905
ite	-9.72924
dro	-9.73068
▁kommet	-9.73093
▁pris	-9.73103
▁zh	-9.73115
olo	-9.73203
54	-9.73211
▁gjelder	-9.73213
kapasitet	-9.73213
72	-9.73216
▁1928	-9.73226
▁1942	-9.73233
▁bidro	-9.73242
▁meg	-9.73253
vit	-9.73256
stille	-9.73331
▁red	-9.73338
zhou	-9.73366
støt	-9.73401
▁lot	-9.73436
▁stoppe	-9.735
▁tusen	-9.73527
ringen	-9.7355
▁rot	-9.73562
▁kjøre	-9.73568
▁økonomi	-9.7378
▁avisen	-9.73836
organisasjon	-9.7388
▁lek	-9.73995
verdig	-9.74059
ria	-9.74079
byr	-9.74157
field	-9.74175
60	-9.74175
án	-9.74246
formet	-9.74273
ð	-9.74276
▁representere	-9.74276
▁fokus	-9.74277
▁nærmere	-9.74281
▁beskytte	-9.74308
bær	-9.74314
gruppe	-9.74377
fon	-9.74384
▁sist	-9.74421
▁oppført	-9.74562
▁frank	-9.74576
01	-9.74601
▁vinner	-9.7464
▁strand	-9.7466
▁begrepet	-9.74715
▁øyene	-9.74719
66	-9.74779
kjær	-9.74856
▁enhet	-9.74884
▁vist	-9.7493
▁vid	-9.7494
▁overgang	-9.74986
▁sovjetisk	-9.75014
følgende	-9.75147
spi	-9.75235
▁ken	-9.75326
▁lage	-9.75328
▁fengsel	-9.75351
▁utbredt	-9.75351
▁world	-9.75351
▁streng	-9.75357
▁nærmest	-9.75358
▁charles	-9.75372
▁programmet	-9.75373
▁alltid	-9.75409
▁single	-9.75444
▁tråd	-9.75461
▁glo	-9.75528
▁sports	-9.75538
mur	-9.75563
ance	-9.7569
ort	-9.75741
unk	-9.75808
▁kontrakt	-9.75809
68	-9.75925
serien	-9.76063
vitenskap	-9.76065
▁elev	-9.76228
▁total	-9.7632
▁støttet	-9.7639
festival	-9.76403
▁problem	-9.76405
▁øvrig	-9.76438
▁arabisk	-9.76441
▁spredt	-9.76448
▁lengst	-9.76451
▁1962	-9.76457
▁1958	-9.76457
▁1939	-9.76459
▁1955	-9.76466
▁drama	-9.76475
▁lind	-9.76484
ball	-9.76647
øtt	-9.76667
▁nr	-9.7667
jev	-9.76747
fu	-9.76785
▁trener	-9.76866
▁cent	-9.76902
74	-9.76968
08	-9.76969
▁kilde	-9.76991
▁prisen	-9.7704
løst	-9.77087
91	-9.77141
84	-9.77193
▁eg	-9.77233
▁vanlige	-9.7724
▁kjøpte	-9.77244
44	-9.77394
▁offentlige	-9.77519
▁national	-9.77537
▁teknisk	-9.77537
▁richard	-9.77537
▁stadion	-9.7754
▁ridder	-9.77542
▁1941	-9.77553
▁ten	-9.77569
▁ukjent	-9.77582
▁innsats	-9.77622
▁bosetning	-9.77626
ub	-9.77679
▁rollen	-9.77839
▁aust	-9.7791
organ	-9.77936
elva	-9.78148
▁spansk	-9.78333
▁representant	-9.78355
▁base	-9.78402
con	-9.78436
▁nan	-9.78452
grav	-9.7848
sang	-9.78486
25	-9.78525
slaget	-9.78562
ér	-9.78585
▁gitar	-9.78592
▁flyplass	-9.78601
▁mexico	-9.78648
▁yngre	-9.78648
▁1947	-9.78667
▁fordel	-9.78726
sam	-9.78728
▁vitenskapelig	-9.78834
▁listen	-9.78835
ild	-9.78962
grense	-9.79002
stedet	-9.79048
▁element	-9.79072
kamp	-9.79081
vor	-9.79084
▁tettsted	-9.79139
ā	-9.7919
59	-9.79225
▁filmer	-9.7924
▁mas	-9.79281
61	-9.79288
▁bygde	-9.79383
▁hill	-9.7942
▁nils	-9.79431
mand	-9.79432
▁chi	-9.795
▁opphav	-9.79541
stid	-9.79602
▁studier	-9.79634
▁ansatt	-9.79678
▁primær	-9.79772
▁bispedømme	-9.79778
kh	-9.79789
▁banen	-9.7979
▁fullført	-9.79798
q	-9.79865
gal	-9.79871
dahl	-9.79893
odo	-9.79959
▁pass	-9.80021
▁strekk	-9.80083
▁kvinnelig	-9.80139
iti	-9.80229
▁metal	-9.80267
arbeider	-9.80314
løpet	-9.80327
søk	-9.80429
▁sterke	-9.80493
▁materiale	-9.80542
skriv	-9.8059
▁damp	-9.80623
voll	-9.80642
▁våren	-9.80643
▁passer	-9.80648
åpning	-9.80665
ben	-9.80685
▁konkurranse	-9.80748
low	-9.80808
▁forsvars	-9.80872
▁king	-9.80902
▁oscar	-9.80909
▁behov	-9.80911
▁sekund	-9.80915
▁jarl	-9.80935
▁klassen	-9.80951
hode	-9.80951
hund	-9.80968
▁betegne	-9.80972
78	-9.80975
▁tog	-9.8099
gata	-9.81032
▁uke	-9.81156
▁stoff	-9.81159
▁nasjonale	-9.81163
▁endelig	-9.81294
klubb	-9.81307
manns	-9.81315
▁indisk	-9.81318
vig	-9.81334
▁larvene	-9.81351
▁beskrevet	-9.81402
▁time	-9.81433
▁bon	-9.81475
▁tour	-9.81476
▁oppgave	-9.81476
dagen	-9.8165
▁sla	-9.81671
bru	-9.81727
▁ordenen	-9.81748
▁produsent	-9.81785
▁politiet	-9.81844
▁åpne	-9.81867
▁nes	-9.81871
▁inne	-9.81905
▁synes	-9.81952
▁stamme	-9.81957
▁klo	-9.81997
▁pin	-9.82006
▁administrativ	-9.82057
▁louis	-9.82058
▁1943	-9.82079
▁straffe	-9.82081
▁skotsk	-9.82082
linje	-9.82295
▁situasjon	-9.82341
41	-9.82415
▁gru	-9.82418
vegg	-9.82492
▁fjellet	-9.82619
▁lignende	-9.82627
▁oversatt	-9.82703
svik	-9.82726
rådet	-9.82753
▁test	-9.82764
▁idretts	-9.82765
▁opphold	-9.82773
▁studenter	-9.82805
fugl	-9.82849
▁saken	-9.8285
album	-9.8291
bedrift	-9.82959
▁elve	-9.82987
ple	-9.83069
gna	-9.8315
н	-9.8321
levende	-9.8322
▁installert	-9.8322
▁league	-9.8322
▁moskva	-9.8322
▁spesiell	-9.83221
▁episode	-9.83221
▁melodi	-9.83224
illa	-9.83248
▁inter	-9.83255
▁rask	-9.83258
▁score	-9.83263
komst	-9.83266
▁gall	-9.83269
cy	-9.8331
05	-9.83328
▁nevnt	-9.83657
gjort	-9.83669
▁trekk	-9.83673
▁samfunnet	-9.83755
▁avsluttet	-9.83814
▁sønnen	-9.8385
▁tale	-9.83916
cell	-9.83935
▁cup	-9.83972
▁vas	-9.83979
▁leir	-9.83984
▁salg	-9.84133
▁35	-9.8438
▁international	-9.84397
▁school	-9.84397
▁norrøn	-9.84398
▁erobre	-9.84402
stro	-9.84408
▁1919	-9.84411
▁forteller	-9.84414
▁videregående	-9.84429
alderen	-9.84452
▁uttalt	-9.84465
▁tolv	-9.84649
▁ana	-9.84664
▁forskjell	-9.8468
▁hed	-9.84681
▁fc	-9.8469
▁bord	-9.84801
▁bla	-9.84819
▁jakt	-9.84838
▁frukt	-9.84864
▁dobbelt	-9.84875
din	-9.84949
▁led	-9.85009
▁internasjonal	-9.85035
mennene	-9.85132
▁type	-9.85143
▁lan	-9.85201
lære	-9.85239
▁svak	-9.85297
selskapet	-9.85303
virksomhet	-9.85322
krets	-9.85336
33	-9.85413
73	-9.85473
▁økt	-9.85515
ville	-9.85563
▁elektrisk	-9.85587
▁forekommer	-9.85587
▁inspirert	-9.85587
▁nominert	-9.85587
▁registrert	-9.85587
▁tilknytte	-9.85587
▁minutter	-9.85588
teknikk	-9.85588
▁kritikk	-9.85588
▁allierte	-9.85588
▁fattig	-9.85588
▁objekt	-9.8559
▁fredrik	-9.85597
▁premier	-9.85603
▁1910	-9.85611
▁albert	-9.85657
▁tredjeplass	-9.85666
hn	-9.85679
staten	-9.85789
04	-9.85846
▁bidrag	-9.85902
▁brit	-9.85963
▁tradisjonelle	-9.85968
▁sort	-9.85994
▁fugle	-9.86062
kjøp	-9.86139
▁fjern	-9.8614
▁stilte	-9.86283
▁75	-9.86318
▁livs	-9.86334
kirke	-9.8637
▁institutt	-9.86452
▁euro	-9.86464
medlem	-9.8656
▁landsby	-9.86633
▁kilder	-9.86654
▁tittel	-9.8667
▁800	-9.86695
aks	-9.86768
▁byer	-9.86769
▁hurtig	-9.86792
▁sjelden	-9.86792
▁alvorlig	-9.86792
▁anerkjent	-9.86793
▁united	-9.86793
▁snakke	-9.86803
▁sykehus	-9.86809
▁1951	-9.86812
▁1963	-9.86812
▁musikkalbum	-9.86814
▁saint	-9.8682
▁tverr	-9.86856
▁veldig	-9.86858
▁spill	-9.8692
▁1500	-9.86925
▁hud	-9.86975
▁vitenskap	-9.87006
▁avstand	-9.87106
▁offiser	-9.87218
▁anton	-9.87301
▁benytte	-9.87313
▁kam	-9.87362
ij	-9.87369
▁pop	-9.87425
▁omtale	-9.87444
▁kreft	-9.87446
▁max	-9.87453
▁war	-9.87588
▁arne	-9.87613
▁bol	-9.87644
eringen	-9.87718
strøm	-9.87774
▁kaste	-9.87845
▁mill	-9.87874
à	-9.88011
▁publikum	-9.88011
▁oversikt	-9.88013
▁hustru	-9.88013
▁frederik	-9.88015
▁snart	-9.88017
▁kristen	-9.88027
enberg	-9.88045
▁anledning	-9.88075
▁agder	-9.88127
▁pra	-9.88131
15	-9.88188
▁enda	-9.88189
▁vet	-9.88198
▁vik	-9.88254
▁ansett	-9.88303
▁insekter	-9.88335
▁overført	-9.88389
▁viking	-9.8841
▁sko	-9.88422
▁dukke	-9.88431
98	-9.88488
alis	-9.8852
ås	-9.88543
cia	-9.8859
org	-9.88682
▁østlig	-9.88693
▁søke	-9.88719
▁pen	-9.8882
▁mørk	-9.88823
ytter	-9.88838
arbeidet	-9.88877
kkel	-9.88889
▁ark	-9.88952
86	-9.88983
cc	-9.8902
miljø	-9.89027
▁mulighet	-9.8904
middel	-9.89041
rich	-9.89088
elsk	-9.89141
▁positiv	-9.89246
▁jazz	-9.89246
▁typisk	-9.89248
▁finnmark	-9.89253
▁tegnet	-9.89285
▁omtalt	-9.89287
▁armé	-9.8932
▁tydelig	-9.89408
▁tilstand	-9.89469
▁finsk	-9.89472
▁kull	-9.89492
▁arv	-9.89493
▁normal	-9.89538
ney	-9.89653
▁hj	-9.89716
▁kalte	-9.89745
▁600	-9.89823
prisen	-9.89853
▁ungdom	-9.89885
▁kjøpe	-9.89893
▁endre	-9.89894
pol	-9.89993
bakken	-9.9005
town	-9.90246
▁forfatteren	-9.90261
lund	-9.90261
▁epi	-9.90278
brun	-9.90281
▁bevegelse	-9.90281
▁utover	-9.90291
▁organisasjonen	-9.90291
prosess	-9.90293
forfatter	-9.90294
▁borg	-9.90295
▁anta	-9.90305
▁metall	-9.90312
møte	-9.90327
▁wal	-9.90344
▁innehold	-9.90401
gard	-9.90469
rød	-9.90482
▁bevege	-9.90493
▁religion	-9.90496
▁ungarn	-9.90497
▁kombinert	-9.90497
▁jacob	-9.90497
▁video	-9.90505
▁tidsskrift	-9.90507
▁1918	-9.90518
uf	-9.90522
nær	-9.90534
drift	-9.90535
▁alpin	-9.90542
▁oftest	-9.90612
▁økte	-9.90677
▁stol	-9.90704
ira	-9.90713
ova	-9.90724
vekt	-9.9073
trekning	-9.90746
▁spanske	-9.90916
▁hovedstad	-9.90962
samisk	-9.91022
▁bygning	-9.91032
▁nordisk	-9.91056
▁zo	-9.91078
endring	-9.91092
▁ledelse	-9.91121
arm	-9.9119
▁struktur	-9.91199
former	-9.91305
99	-9.91324
kur	-9.91366
▁jernbane	-9.91388
▁tan	-9.91397
▁bygg	-9.9145
90	-9.9147
jul	-9.91488
64	-9.91496
senteret	-9.91568
bånd	-9.91569
▁star	-9.91621
▁ze	-9.9174
▁original	-9.91749
▁arrestert	-9.91762
▁redusert	-9.91762
▁øvre	-9.91762
▁flertall	-9.91763
▁jakob	-9.91763
▁kjønn	-9.91764
▁1916	-9.91775
▁1938	-9.91779
▁erklært	-9.91801
▁masse	-9.91805
▁bibel	-9.91837
▁arkitektur	-9.91859
▁bygninger	-9.91914
▁bestemme	-9.91938
▁organisert	-9.91975
▁ask	-9.91983
▁undervisning	-9.92084
▁sider	-9.92168
38	-9.92181
▁kh	-9.92314
▁starten	-9.92363
▁stø	-9.92407
wood	-9.9251
▁problemer	-9.92553
▁ekte	-9.92607
▁spillet	-9.9269
▁distriktet	-9.92719
▁cap	-9.92732
▁vern	-9.92734
▁hellige	-9.92923
▁ungdoms	-9.92962
stykke	-9.92988
▁riket	-9.93
▁passasjer	-9.93044
▁edvard	-9.93044
▁lagkonkurransen	-9.93044
rettigheter	-9.93045
▁sistnevnte	-9.93046
▁oversettelse	-9.9305
▁levde	-9.9305
▁jevn	-9.93087
28	-9.93137
▁spar	-9.93157
▁larven	-9.93208
▁gjennomsnitt	-9.93218
▁stasjonen	-9.93223
▁bay	-9.9327
▁jean	-9.93293
▁angrepet	-9.9336
▁junior	-9.93439
▁teknologi	-9.93534
lly	-9.93602
delen	-9.93603
▁sel	-9.93611
▁dømt	-9.93615
▁måten	-9.93708
firma	-9.93711
▁sil	-9.93792
▁utføre	-9.93907
45	-9.93939
▁dyre	-9.93964
▁systemet	-9.93966
▁forstå	-9.94118
▁forsvaret	-9.94138
istan	-9.94179
distrikt	-9.94187
▁måned	-9.94269
▁vær	-9.94269
▁driver	-9.94317
▁ph	-9.94328
▁fyr	-9.94337
▁erkebiskop	-9.94343
▁praksis	-9.94343
▁dollar	-9.94343
▁betrakte	-9.94343
▁frykt	-9.94344
▁royal	-9.94345
▁1953	-9.94365
lav	-9.9438
▁yu	-9.9443
bank	-9.94477
24	-9.94493
▁vå	-9.94505
lam	-9.94521
driv	-9.94577
parten	-9.94658
fil	-9.94671
ledning	-9.94693
▁handel	-9.94731
▁tilfeller	-9.94985
▁storm	-9.94995
▁prins	-9.9502
▁besøkt	-9.95024
▁kongens	-9.95068
▁mari	-9.95086
føringen	-9.95107
▁odd	-9.95241
tch	-9.95287
▁fremme	-9.95351
▁offisiel	-9.9538
▁overfor	-9.95451
grupper	-9.95469
kamera	-9.95469
▁ran	-9.95517
dor	-9.9558
linjen	-9.95581
▁sw	-9.95607
▁kvalifisering	-9.95658
▁1908	-9.95679
▁løv	-9.9571
▁ekstra	-9.95753
37	-9.95778
angrep	-9.9578
▁utdannelse	-9.95828
kysten	-9.96002
▁elever	-9.96111
▁likhet	-9.96121
ign	-9.96129
▁wil	-9.96162
▁danse	-9.96207
rup	-9.9623
plasser	-9.96236
▁instrument	-9.9624
kampen	-9.96293
▁north	-9.96356
ith	-9.96389
▁hode	-9.96403
▁motiv	-9.96437
▁front	-9.96532
▁hve	-9.96706
øyene	-9.96817
▁mun	-9.96828
slått	-9.96853
▁ube	-9.96856
▁vekst	-9.96899
▁kanal	-9.9695
▁ødelagt	-9.96993
▁markeds	-9.96994
▁medlemmene	-9.97002
▁song	-9.97022
▁kapell	-9.97068
▁stav	-9.97079
▁ranger	-9.97163
69	-9.97191
▁pub	-9.97192
eller	-9.97203
▁anna	-9.97215
▁slett	-9.97289
▁fortalt	-9.97318
▁ok	-9.97336
strand	-9.97381
ough	-9.97468
▁makten	-9.97539
▁vannet	-9.97573
▁1000	-9.97744
▁penger	-9.97817
▁ji	-9.97829
▁gla	-9.97838
▁former	-9.97867
stoff	-9.98013
▁sosiale	-9.9804
46	-9.98066
▁fabrikk	-9.98165
▁benyttes	-9.98298
▁records	-9.98343
▁brøt	-9.98348
▁1914	-9.98353
▁1922	-9.98356
▁1937	-9.98361
▁retts	-9.98391
▁islam	-9.98428
komiteen	-9.98435
▁overflate	-9.9844
▁nedlagt	-9.98462
▁gjenopp	-9.98469
halvøya	-9.98483
▁lyn	-9.98496
lon	-9.98521
▁tø	-9.98545
▁salme	-9.98607
▁nyere	-9.98629
▁georg	-9.98715
▁kommuner	-9.98811
▁hovedsak	-9.98868
▁dj	-9.98955
▁populære	-9.98962
▁landslaget	-9.99055
▁vokse	-9.99166
▁demokratisk	-9.99251
▁bidra	-9.99456
▁stig	-9.99477
▁nordland	-9.99541
qui	-9.99557
ograf	-9.9959
▁innsjø	-9.99609
samfunn	-9.99627
konkurranse	-9.99629
skudd	-9.99632
historie	-9.99634
▁imot	-9.99696
▁introdusert	-9.99713
▁otto	-9.99723
▁1934	-9.99729
▁1933	-9.99733
▁inntekt	-9.99747
▁stabil	-9.99747
gy	-9.99778
▁detalj	-9.99788
▁rygg	-9.99822
▁dog	-9.99866
▁iso	-9.99915
▁regjerings	-9.99916
▁representert	-9.99942
▁lavere	-10.0001
▁kampene	-10.0009
▁beregne	-10.0011
pan	-10.0011
▁verket	-10.0015
fin	-10.0017
▁behandle	-10.0035
▁harry	-10.004
▁dynastiet	-10.0041
▁hom	-10.0042
▁regional	-10.0046
▁flu	-10.0047
klassen	-10.0049
▁skriver	-10.0057
▁tromsø	-10.0058
▁kg	-10.0058
▁filosofi	-10.0061
▁wien	-10.0063
plassen	-10.0064
▁fartøy	-10.0067
▁sag	-10.0078
kirken	-10.0081
krig	-10.0082
person	-10.0094
▁win	-10.0096
vind	-10.0101
kraftverk	-10.0109
▁kategori	-10.011
▁arrangere	-10.011
▁dialekt	-10.011
▁beholdt	-10.0111
▁omfatte	-10.0111
▁1927	-10.0111
▁arbeiderpartiet	-10.0112
press	-10.0117
▁tone	-10.0118
▁forretnings	-10.012
eksamen	-10.012
▁nærheten	-10.012
19	-10.0123
▁1700	-10.0125
▁bane	-10.0132
▁fjord	-10.0133
matisk	-10.014
ifisert	-10.0141
▁heng	-10.0143
▁ya	-10.0143
bjørn	-10.0146
▁turist	-10.015
▁bonde	-10.0152
▁unna	-10.0154
dem	-10.0162
pla	-10.0162
voks	-10.0162
ky	-10.0175
rommet	-10.0185
delt	-10.0195
▁tårn	-10.0199
▁virkelig	-10.0201
12	-10.0205
▁prosjektet	-10.0212
fekt	-10.0213
▁fn	-10.0214
▁spre	-10.0215
farge	-10.0228
▁tidlige	-10.0229
feld	-10.0231
▁atom	-10.0233
▁kloster	-10.0239
в	-10.025
▁studio	-10.0251
bøker	-10.0251
▁fødsel	-10.0251
▁guvernør	-10.0251
▁initiativ	-10.0251
▁1917	-10.0252
▁1925	-10.0253
▁sete	-10.026
▁resultatet	-10.0262
▁bydel	-10.0269
och	-10.0272
stillinger	-10.0272
▁solgte	-10.0274
▁katolsk	-10.0279
▁løper	-10.028
kamper	-10.028
▁ønske	-10.0284
13	-10.0286
▁bio	-10.0286
rum	-10.0287
36	-10.0288
▁kommunikasjon	-10.0299
▁bevegelsen	-10.0303
▁utstilling	-10.0303
▁nekte	-10.0303
▁bibliotek	-10.0305
▁sten	-10.031
▁skiller	-10.0312
▁haug	-10.0325
▁rapport	-10.0326
▁funn	-10.033
▁tonn	-10.0338
▁malt	-10.0341
mid	-10.0346
▁private	-10.0351
svarer	-10.0352
▁andel	-10.0364
stol	-10.0365
11	-10.0365
▁up	-10.0366
trinn	-10.0373
mynt	-10.0389
▁county	-10.0394
▁etablere	-10.0394
hastighet	-10.0394
▁himmel	-10.0394
▁bevis	-10.0399
83	-10.0406
▁1600	-10.0409
▁skatte	-10.0409
▁tj	-10.0426
▁frihet	-10.0436
vatnet	-10.0436
▁bombe	-10.0439
▁kvalitet	-10.0439
▁fortsette	-10.0448
▁marine	-10.045
▁andreas	-10.0463
▁kandidat	-10.047
▁verdensmester	-10.0473
litt	-10.048
▁utvalg	-10.048
barn	-10.0481
▁hind	-10.0482
▁ønsker	-10.0488
lid	-10.0489
▁nm	-10.049
▁bry	-10.0497
▁rør	-10.0514
trafikk	-10.0522
▁skyld	-10.0525
▁kropp	-10.0532
bringe	-10.0534
kjønn	-10.0539
▁advokat	-10.0539
▁wilhelm	-10.0539
▁hensikt	-10.0539
▁generelt	-10.0539
▁hemmelig	-10.0539
komité	-10.054
▁län	-10.0543
▁dokumenter	-10.0543
▁jordbruk	-10.0545
▁hentet	-10.0545
▁hellas	-10.0548
▁gyl	-10.0554
än	-10.0559
▁gitarist	-10.0559
▁gold	-10.0565
▁kil	-10.0567
well	-10.0568
▁samarbeidet	-10.0573
▁blu	-10.0578
▁handle	-10.0581
▁kjøpt	-10.0581
▁akt	-10.0589
▁irak	-10.0592
▁internasjonalt	-10.0593
▁uttale	-10.0594
92	-10.0597
▁irsk	-10.0598
mont	-10.0608
partiet	-10.0611
▁bel	-10.0612
▁dekker	-10.0614
▁stift	-10.0618
▁flyktet	-10.0621
▁dø	-10.0638
▁ånd	-10.0662
▁nevnes	-10.0663
▁musikken	-10.0664
▁medisinsk	-10.0665
under	-10.0671
▁provins	-10.0676
▁kanalen	-10.0681
4	-10.0682
▁alternativ	-10.0686
▁antagelig	-10.0686
▁tilknytning	-10.0686
▁belgia	-10.0686
▁radikal	-10.0686
▁rektor	-10.0686
▁ansvar	-10.0688
▁1904	-10.0688
prosjekt	-10.0688
figur	-10.0688
▁lake	-10.0693
▁kjøl	-10.0694
avdeling	-10.0695
▁glass	-10.0695
▁hersker	-10.0695
▁gjeste	-10.0696
▁ledende	-10.0698
vendt	-10.0699
motor	-10.071
▁mary	-10.0713
▁maur	-10.073
▁linjen	-10.0739
▁solo	-10.074
▁poly	-10.0745
▁gruve	-10.075
▁stål	-10.076
▁vinteren	-10.0768
▁press	-10.0769
▁aks	-10.077
▁horn	-10.0775
▁utenlandsk	-10.0785
▁samfunn	-10.0785
21	-10.0794
▁bydelen	-10.0805
▁sier	-10.0818
▁utgi	-10.0828
34	-10.0834
▁beseiret	-10.0835
▁invasjon	-10.0836
▁1929	-10.0837
▁signert	-10.0838
▁dommer	-10.0843
▁nederlag	-10.0845
▁utnytte	-10.0846
71	-10.085
rute	-10.085
ordenen	-10.0854
▁sammenlagt	-10.0857
spir	-10.0858
▁henry	-10.0859
skipet	-10.0861
▁pil	-10.0866
▁landsbyen	-10.0868
forhold	-10.0877
▁camp	-10.0877
stripe	-10.0887
chu	-10.0901
▁rein	-10.0903
▁brenn	-10.0909
▁rå	-10.0911
▁vers	-10.0911
▁historikere	-10.0928
▁utsatt	-10.0932
▁bit	-10.0933
▁dato	-10.095
oll	-10.0953
▁landslag	-10.0956
▁forsker	-10.0956
▁marie	-10.0958
▁maleri	-10.096
jiang	-10.0964
▁avtale	-10.0966
analyse	-10.0967
▁formen	-10.0973
▁kristiansand	-10.0987
▁krevde	-10.0987
▁begrenset	-10.0987
▁1931	-10.0988
▁skaffe	-10.0988
▁1915	-10.0989
sekretær	-10.0991
▁tørr	-10.0993
▁vokalist	-10.0996
81	-10.0998
▁tronen	-10.0999
deles	-10.1
blant	-10.1001
▁styret	-10.1007
▁øverste	-10.1007
▁parken	-10.1009
94	-10.101
formula	-10.1012
▁finske	-10.1015
plate	-10.103
▁rep	-10.1036
foss	-10.1036
97	-10.104
gate	-10.1044
▁nar	-10.1046
omme	-10.1049
▁bilen	-10.1068
cup	-10.1075
▁markert	-10.1078
▁tvil	-10.1083
77	-10.1087
mund	-10.1088
jan	-10.1094
82	-10.1097
03	-10.111
▁kok	-10.1121
plikt	-10.1124
▁formål	-10.1136
deler	-10.1136
▁matt	-10.1138
▁mad	-10.114
▁1906	-10.114
▁verdenscupen	-10.1141
▁inkluderer	-10.1141
▁fysisk	-10.1141
monument	-10.1142
▁bølge	-10.1142
▁mytologi	-10.1146
▁paven	-10.1148
▁jule	-10.115
utvikling	-10.115
▁pensjon	-10.115
▁bryst	-10.1152
▁tha	-10.1152
styrken	-10.1153
▁avholdt	-10.1154
serie	-10.1154
lov	-10.1156
▁inngå	-10.1158
▁produksjonen	-10.1162
▁aksje	-10.1172
▁gradvis	-10.1174
▁tiår	-10.1177
▁fed	-10.1178
mod	-10.1182
▁parlamentet	-10.1188
▁green	-10.1191
fjell	-10.1201
▁bom	-10.1207
▁wei	-10.1208
rekke	-10.1214
gra	-10.1214
drevet	-10.1214
▁ulik	-10.1228
▁rose	-10.1236
▁cra	-10.1237
på	-10.1237
▁vinne	-10.1245
høyskole	-10.1246
▁fv	-10.1257
▁grunnlegger	-10.1261
pri	-10.1265
dannelse	-10.1268
havn	-10.127
bø	-10.1271
▁dør	-10.1274
▁fritt	-10.1276
▁tang	-10.1293
▁katedral	-10.1297
lokomotiv	-10.1297
▁ludvig	-10.1297
▁pakistan	-10.1297
▁hovedrollen	-10.1297
▁kommunal	-10.1297
▁menighet	-10.1298
▁varierer	-10.1304
▁may	-10.1305
▁snø	-10.1306
▁unngå	-10.1309
▁prix	-10.131
vekst	-10.1311
▁antatt	-10.1313
▁riksvei	-10.1315
▁morgen	-10.1319
▁oppsto	-10.1319
▁arve	-10.132
▁jack	-10.1322
▁velge	-10.1322
▁foreningen	-10.1323
▁moren	-10.1325
▁kjemi	-10.1326
ksjoner	-10.1341
▁hindre	-10.1346
▁700	-10.1352
▁vakt	-10.1357
post	-10.1359
▁foss	-10.1359
▁sim	-10.1361
▁buss	-10.1362
ity	-10.1364
▁hull	-10.1366
språklig	-10.1377
▁ansvarlig	-10.1383
▁personen	-10.1385
▁modellen	-10.139
mesterskapet	-10.139
▁utga	-10.1395
▁fylket	-10.1399
76	-10.1401
istene	-10.1404
tunnelen	-10.1433
▁forskere	-10.1435
blokk	-10.144
foreningen	-10.1443
▁verd	-10.1444
slekt	-10.1452
▁stå	-10.1454
▁involvert	-10.1455
▁foregår	-10.1455
▁redusere	-10.1456
▁jødisk	-10.1456
▁orkester	-10.1456
▁bodø	-10.1456
kompleks	-10.1456
▁magnus	-10.1456
▁utmerkelse	-10.1456
▁terror	-10.1456
▁studioalbum	-10.1456
▁protest	-10.1457
▁hotell	-10.1457
▁romsdal	-10.1457
blomst	-10.1459
que	-10.1459
trukket	-10.146
▁high	-10.146
▁programmer	-10.1463
▁skudd	-10.1468
▁møter	-10.1469
dommer	-10.1472
▁mottatt	-10.1476
▁debut	-10.1483
kjent	-10.1483
▁liberal	-10.1484
avtale	-10.1487
▁flytte	-10.1487
skatt	-10.1493
▁oppleve	-10.1499
▁stemmer	-10.15
▁nedre	-10.1501
byrå	-10.1507
▁kjell	-10.1511
▁troms	-10.1519
▁gaten	-10.1525
▁38	-10.1544
styrke	-10.1549
▁planter	-10.1575
▁fol	-10.1591
livet	-10.1595
vinner	-10.1596
▁penge	-10.16
▁byprefekturet	-10.1617
▁eventuel	-10.1617
▁tilhørte	-10.1617
▁stafett	-10.1617
▁hendelser	-10.1617
▁etterkommer	-10.1617
▁gustav	-10.1617
▁riktig	-10.1618
vandring	-10.162
▁papir	-10.162
▁effektiv	-10.1621
▁kristiania	-10.1624
▁senter	-10.1632
ledd	-10.1633
somme	-10.1637
▁150	-10.1637
▁human	-10.1641
▁bånd	-10.1642
gaard	-10.1646
allianse	-10.1647
registre	-10.1656
▁sporter	-10.1658
▁vedtatt	-10.1662
▁brand	-10.1669
vision	-10.1672
▁ull	-10.1677
▁ekspedisjon	-10.1679
▁øyer	-10.1688
pass	-10.169
temp	-10.1703
▁kurs	-10.1704
bygningen	-10.1708
▁33	-10.1711
▁populært	-10.1711
▁grunnlegge	-10.1716
96	-10.1734
elli	-10.1737
▁rammet	-10.1737
▁villa	-10.1737
rykket	-10.1737
fik	-10.174
16	-10.1755
orm	-10.1755
▁bakken	-10.1771
runde	-10.1779
▁regissert	-10.1781
▁geografisk	-10.1781
▁musikalsk	-10.1781
▁1911	-10.1783
▁planlagt	-10.1785
▁kjørt	-10.1789
▁flekk	-10.1789
kompani	-10.179
strøk	-10.1792
▁mobil	-10.1792
▁evne	-10.1793
▁kjerne	-10.18
kultur	-10.1801
▁dun	-10.1801
ction	-10.1812
▁troll	-10.1814
▁kino	-10.1817
32	-10.1828
bevegelsen	-10.1829
▁eva	-10.1832
handel	-10.1841
▁utenriks	-10.1848
vente	-10.1853
▁cho	-10.1854
▁typer	-10.1856
▁medisin	-10.1861
områdene	-10.1862
▁fjernet	-10.1874
▁redde	-10.1876
▁sun	-10.1876
▁fan	-10.1881
finn	-10.1917
▁leo	-10.1918
listen	-10.192
folket	-10.1926
▁rykke	-10.1932
▁37	-10.1933
▁selge	-10.1935
▁internett	-10.1938
▁klokke	-10.194
▁south	-10.1941
▁grønland	-10.1947
▁avgjørende	-10.1948
▁generasjon	-10.1948
▁lufthavn	-10.1949
▁håndball	-10.1949
▁tapt	-10.1951
▁grunnlov	-10.1952
▁feire	-10.1952
▁sli	-10.1953
opptreden	-10.1953
▁forholdet	-10.196
▁føde	-10.196
▁frø	-10.1962
fabrikk	-10.1969
▁auto	-10.197
klubben	-10.1981
▁eide	-10.1984
▁rh	-10.1986
▁representanter	-10.1992
▁gram	-10.1993
unt	-10.2006
gav	-10.2006
passet	-10.2009
▁motstander	-10.2013
▁mid	-10.2018
▁kåre	-10.2026
sammen	-10.2028
▁stillingen	-10.2035
▁romanen	-10.2036
▁unn	-10.2046
▁sveitsisk	-10.2048
▁etnisk	-10.2054
▁planen	-10.2059
▁sammenligne	-10.2063
▁grei	-10.2064
▁vente	-10.2065
▁music	-10.2071
roman	-10.2073
29	-10.2075
▁rund	-10.2076
▁enorm	-10.2091
▁statlig	-10.2093
▁snu	-10.2095
ikere	-10.2099
88	-10.2102
▁36	-10.2109
ische	-10.2109
▁alexander	-10.2117
▁eksperiment	-10.2117
▁münchen	-10.2117
▁resulter	-10.2117
▁østerriksk	-10.2117
▁ekstrem	-10.2117
▁mektig	-10.2117
▁monark	-10.2117
▁tegneserie	-10.2117
▁utgivelsen	-10.2119
89	-10.212
▁1935	-10.212
▁sverd	-10.212
▁kapp	-10.2123
▁ankom	-10.2125
▁timer	-10.2125
innspilling	-10.2132
soldat	-10.2134
▁landene	-10.2139
▁cirk	-10.2142
født	-10.2145
▁34	-10.2147
egnet	-10.2149
▁tyskerne	-10.2149
▁kaptein	-10.2154
ordning	-10.2156
▁sørover	-10.2157
▁bud	-10.2172
▁spenning	-10.2178
▁fantes	-10.2184
▁motsatt	-10.2185
▁kap	-10.2185
industrien	-10.2192
▁ork	-10.2196
▁klosteret	-10.2199
▁utstyrt	-10.2201
onne	-10.2212
▁tekster	-10.2222
syre	-10.2229
▁bladet	-10.2231
▁roller	-10.2238
▁hellig	-10.2263
dikt	-10.2267
▁kommunistisk	-10.227
▁indi	-10.2275
▁cre	-10.2279
▁vietnam	-10.228
▁gjennomføre	-10.2281
▁okkupasjon	-10.2289
▁regissør	-10.2289
▁ødelegge	-10.2289
▁rogaland	-10.2289
▁major	-10.2289
▁referere	-10.229
▁lønn	-10.229
▁sjette	-10.229
▁jesu	-10.229
▁fjernsyn	-10.2291
▁tømmer	-10.2292
▁drammen	-10.2292
▁daniel	-10.2292
▁vendte	-10.2294
▁angripe	-10.2303
egenskaper	-10.2306
▁anlagt	-10.2309
mond	-10.2315
▁sørge	-10.2315
ico	-10.2319
▁uavhengighet	-10.2324
▁utbrudd	-10.2326
▁grunnla	-10.2328
▁steve	-10.2331
93	-10.2333
datert	-10.2355
gjøring	-10.2365
▁begynne	-10.2371
▁bærer	-10.2377
▁planet	-10.239
▁beskrev	-10.2397
▁begrep	-10.2397
23	-10.2408
▁institut	-10.2428
ella	-10.2431
▁sjøen	-10.2431
ittisk	-10.2433
kall	-10.2452
sjø	-10.2453
▁utøver	-10.2455
▁250	-10.2456
▁deles	-10.2462
▁akershus	-10.2465
▁færøyene	-10.2465
▁opplæring	-10.2465
▁umiddelbar	-10.2465
▁service	-10.2465
gymnas	-10.2465
▁definert	-10.2465
▁strekningen	-10.2465
▁mak	-10.2465
▁reaksjon	-10.2466
▁smith	-10.2466
▁1923	-10.2466
▁godkjent	-10.2467
▁grov	-10.2468
▁france	-10.2468
▁dekket	-10.2475
verv	-10.2479
▁deltatt	-10.2492
▁synlig	-10.2492
▁tvang	-10.2494
hjem	-10.2498
▁phil	-10.2506
leng	-10.2507
17	-10.2509
▁hval	-10.2516
▁ennå	-10.2516
▁vitne	-10.252
▁pal	-10.2525
▁underlagt	-10.2527
▁filosof	-10.2527
▁karrieren	-10.2531
eppe	-10.2534
▁priser	-10.2536
hop	-10.2542
ative	-10.2543
forsamlingen	-10.2545
▁arkeologisk	-10.2546
▁administrasjons	-10.255
26	-10.2556
▁cupen	-10.2571
pin	-10.2574
▁tegning	-10.2575
aya	-10.2582
▁akademi	-10.2586
ington	-10.2587
▁gard	-10.2597
▁utstyr	-10.2605
trener	-10.2606
▁will	-10.2607
▁gö	-10.2614
▁institusjon	-10.2615
▁regime	-10.2621
▁sær	-10.2622
▁celle	-10.2636
▁eksempler	-10.2643
▁midlertidig	-10.2643
▁alfred	-10.2643
▁kjærlighet	-10.2643
▁artikkel	-10.2643
▁gruppa	-10.2643
seremoni	-10.2643
▁individ	-10.2643
magasin	-10.2644
▁håkon	-10.2644
▁1913	-10.2645
▁etappe	-10.2646
▁santa	-10.2647
faktor	-10.2647
▁east	-10.2649
▁meldt	-10.265
▁sikker	-10.265
▁hvile	-10.2652
bebyggelse	-10.2657
▁myndighetene	-10.2663
▁velger	-10.2665
økonomi	-10.2665
▁skjær	-10.2669
▁bryte	-10.2671
▁håp	-10.2673
▁wales	-10.2677
fotograf	-10.2686
▁kara	-10.2687
▁lykke	-10.2695
▁mesterskapet	-10.2695
▁ansvaret	-10.2725
▁bilder	-10.2726
▁cd	-10.273
lapp	-10.2752
▁inge	-10.2754
fjellet	-10.2756
▁edderkopp	-10.2763
▁cand	-10.2768
dorf	-10.279
▁starter	-10.2792
grensen	-10.2795
▁berømte	-10.2798
▁egyptisk	-10.2806
▁fel	-10.2816
ique	-10.2818
▁juridisk	-10.2825
▁washington	-10.2825
▁innbyggerne	-10.2825
▁operatør	-10.2825
▁tempel	-10.2825
sammenslåing	-10.2825
▁faktisk	-10.2826
▁opposisjon	-10.2826
▁anklage	-10.2827
▁nasjonalpark	-10.2829
▁tvunge	-10.2829
▁oppmerksomhet	-10.2833
▁hjul	-10.2839
▁oppløst	-10.2853
bød	-10.286
forbindelse	-10.2864
▁vestre	-10.2864
▁kommando	-10.2868
▁bull	-10.2868
kontor	-10.2869
flåten	-10.2887
▁fungerer	-10.2888
vold	-10.2889
▁rester	-10.289
▁idrettslag	-10.2897
spillet	-10.2897
pha	-10.2902
uka	-10.2904
▁vg	-10.2905
industri	-10.2914
▁medaljer	-10.2918
kilden	-10.2923
▁statue	-10.2929
departement	-10.2943
▁fortsetter	-10.2943
▁medalje	-10.2944
▁administrasjon	-10.2953
hild	-10.2954
▁anlegg	-10.2956
strid	-10.2957
▁aksjon	-10.2959
▁eksisterte	-10.2963
aria	-10.2963
22	-10.2982
▁cy	-10.3001
▁1902	-10.301
▁alkohol	-10.301
▁vesentlig	-10.301
▁sprint	-10.301
▁sachsen	-10.301
▁konstant	-10.3011
kapital	-10.3012
▁1926	-10.3012
▁påvirket	-10.3013
▁filip	-10.3013
▁generell	-10.3013
▁trenger	-10.3014
▁vannkraftverk	-10.3014
▁mikro	-10.3014
▁talent	-10.3015
▁drikke	-10.3016
▁etasje	-10.3017
▁rulle	-10.3018
▁show	-10.3019
▁byggingen	-10.3019
▁johann	-10.3023
kommende	-10.3025
▁muligheten	-10.3027
▁lista	-10.3038
▁eksemplarer	-10.3041
forskning	-10.3053
▁utgaven	-10.3053
27	-10.3055
fyr	-10.3072
▁oppstod	-10.3074
▁buk	-10.3076
▁opptil	-10.3077
forbundet	-10.3078
▁konstruksjon	-10.3087
▁artikler	-10.3089
▁sagt	-10.309
▁hydro	-10.3091
▁jim	-10.3105
▁tilfelle	-10.3108
▁jente	-10.3118
▁museet	-10.312
▁venner	-10.3132
▁hå	-10.3139
▁fjellene	-10.3141
▁slott	-10.3142
▁perioder	-10.3144
▁oppnådde	-10.3151
ligste	-10.3153
vang	-10.3156
▁finn	-10.3163
åsen	-10.3169
liste	-10.3171
▁kari	-10.3177
▁kommunist	-10.3184
dokument	-10.3193
▁assistent	-10.3199
▁elisabeth	-10.3199
▁eventyr	-10.3199
▁forhindre	-10.3199
▁liverpool	-10.3199
▁returnert	-10.3199
▁digital	-10.3199
▁vulkan	-10.3199
▁fungerte	-10.3199
▁identifiser	-10.3199
▁nedbør	-10.3199
▁singelen	-10.32
▁reserve	-10.3201
▁philip	-10.3201
▁1901	-10.3202
▁endringer	-10.3202
▁dvs	-10.3204
▁tjue	-10.3204
▁jackson	-10.3204
▁studere	-10.3204
▁hensyn	-10.3205
▁hitler	-10.321
▁drepe	-10.3212
▁nød	-10.3212
▁esp	-10.3218
akademiet	-10.322
kutt	-10.3221
vakt	-10.3225
▁opptatt	-10.323
▁betegnelse	-10.3239
produsent	-10.3244
▁korn	-10.3246
▁myr	-10.3251
makten	-10.3254
▁bøkene	-10.3255
▁beskrive	-10.3261
▁nordover	-10.3262
▁markedet	-10.3266
alitet	-10.3266
▁slottet	-10.3267
▁individuelle	-10.3282
grip	-10.3285
▁utlandet	-10.3286
▁tilhøre	-10.329
▁låten	-10.3293
▁kongedømmet	-10.3299
bukta	-10.3302
▁rio	-10.3308
▁graf	-10.333
▁hunnen	-10.3333
iansk	-10.3335
▁skuespill	-10.3346
▁vite	-10.3351
▁forbundet	-10.3352
▁nazi	-10.3352
▁hamar	-10.3359
▁telemark	-10.3366
▁intern	-10.3375
▁avtalen	-10.338
▁1907	-10.3391
▁afghanistan	-10.3391
▁jerusalem	-10.3391
▁middelsstor	-10.3391
▁milliarder	-10.3391
▁plattform	-10.3391
▁kritisert	-10.3391
▁presentert	-10.3391
▁molde	-10.3393
▁gullmedalje	-10.3393
▁estland	-10.3393
▁import	-10.3396
▁beslutte	-10.3396
▁tropper	-10.3396
▁eksport	-10.34
kov	-10.3403
▁befinne	-10.3411
▁mono	-10.3413
ligning	-10.3417
▁legger	-10.3417
▁forvingen	-10.3419
▁christiania	-10.342
▁europe	-10.3421
▁oppfatte	-10.343
▁beskrivelse	-10.3431
▁adam	-10.3433
row	-10.344
president	-10.3441
bygget	-10.3444
nummer	-10.345
vannet	-10.3451
▁olsen	-10.3457
▁tell	-10.3458
▁drei	-10.3469
▁luk	-10.347
▁bekreftet	-10.3471
▁bakkroppen	-10.3473
▁sof	-10.3476
▁typen	-10.3483
▁medaljen	-10.3484
▁frakte	-10.3485
▁beskriver	-10.3486
mming	-10.3496
▁skan	-10.3498
▁stri	-10.3499
▁rand	-10.3506
▁sosialistisk	-10.3509
▁eik	-10.3511
▁mesterskap	-10.3531
▁tann	-10.3561
▁bakke	-10.3575
gno	-10.3577
▁kristian	-10.3578
▁sekretær	-10.358
▁bispe	-10.3587
▁australsk	-10.3587
▁fakultet	-10.3587
▁innendørs	-10.3587
▁joseph	-10.3587
▁hordaland	-10.3587
▁kritiker	-10.3587
▁praktisk	-10.3588
▁belgisk	-10.3588
▁dverg	-10.3588
▁deltakere	-10.3588
▁overlevd	-10.3589
▁halvparten	-10.359
▁ekspedisjonen	-10.359
▁etterfølger	-10.359
▁brygge	-10.359
▁sjanger	-10.359
▁festivalen	-10.3594
▁hjerne	-10.3596
kommisjon	-10.3599
▁rune	-10.3603
▁manager	-10.3607
▁billed	-10.3607
▁tradisjonel	-10.3616
▁shi	-10.3622
▁østover	-10.3625
▁nylig	-10.3632
rakk	-10.3633
▁utbygging	-10.3636
▁opplag	-10.3638
▁gli	-10.364
▁niels	-10.3651
domstol	-10.3657
▁semifinalen	-10.366
▁myndigheter	-10.366
▁steg	-10.3666
historiker	-10.3667
▁thi	-10.3674
▁wall	-10.3684
▁ulykke	-10.3685
▁kode	-10.3687
▁antennen	-10.3689
▁hekk	-10.3693
▁tau	-10.3699
rydde	-10.3702
▁bunn	-10.3714
politisk	-10.3719
▁flåte	-10.372
fond	-10.3752
øst	-10.3755
▁skyte	-10.3761
▁sunn	-10.3765
▁revet	-10.3774
▁vokal	-10.3779
▁administrere	-10.3787
▁portugal	-10.3787
▁edward	-10.3787
▁award	-10.3787
▁følelse	-10.3788
▁hendelsen	-10.3788
▁trær	-10.3788
▁arendal	-10.3788
▁signal	-10.3788
▁vogn	-10.3789
▁white	-10.3789
konvensjon	-10.379
▁løsning	-10.3791
▁søndag	-10.3793
▁israelsk	-10.3795
▁fortellingen	-10.3795
▁metro	-10.38
▁foto	-10.3805
▁vekk	-10.3812
▁uro	-10.3816
▁ettertid	-10.3819
skij	-10.3822
▁kommunistparti	-10.3829
▁polar	-10.3833
▁boka	-10.3835
materiale	-10.3844
▁sparta	-10.3849
▁gy	-10.385
▁sikte	-10.3852
typen	-10.386
▁ingeniør	-10.3861
▁blind	-10.3875
yang	-10.388
utenriksminister	-10.3881
▁vende	-10.3889
hard	-10.3894
talende	-10.3915
▁nettverk	-10.3917
▁hagen	-10.3919
▁kår	-10.3939
▁palm	-10.3947
▁flest	-10.3954
årig	-10.3964
▁tradisjonell	-10.3965
▁bygda	-10.3981
stjerne	-10.3985
▁bou	-10.3985
▁vill	-10.3986
▁antwerpen	-10.3991
▁helsingfors	-10.3991
▁yngste	-10.3991
▁avdøde	-10.3991
apparat	-10.3992
▁forsvant	-10.3992
▁oberst	-10.3992
▁scott	-10.3992
▁multi	-10.3992
ов	-10.3992
▁skarp	-10.3993
▁1921	-10.3994
▁blomster	-10.3994
▁debatt	-10.3995
▁erfaring	-10.3995
▁hylle	-10.3996
▁kha	-10.3998
31	-10.4003
gjenstander	-10.4003
kampanje	-10.4009
▁1860	-10.4012
▁team	-10.4014
▁tunnel	-10.402
ical	-10.4026
▁cro	-10.4026
politikk	-10.4029
▁arrangement	-10.4033
▁karakteristisk	-10.4036
▁bob	-10.4046
▁fløy	-10.4047
▁tidspunktet	-10.4051
▁web	-10.4051
regjering	-10.4053
museum	-10.4053
▁fotballklubb	-10.4059
▁britene	-10.4069
stemme	-10.4075
▁mannlig	-10.4086
▁kulturell	-10.4087
head	-10.4124
▁vokser	-10.4135
veg	-10.4163
▁ligne	-10.4167
▁synge	-10.4187
▁aleksander	-10.42
▁alexandr	-10.42
▁argentina	-10.42
▁prøyssisk	-10.42
▁science	-10.42
▁tyrkia	-10.42
▁rådgiver	-10.42
▁jørgen	-10.42
▁vilhelm	-10.42
▁lyktes	-10.42
▁frivillig	-10.42
▁oblast	-10.4201
▁wolf	-10.4202
▁michel	-10.4202
▁forbedre	-10.4204
▁dominerende	-10.4204
▁oppnå	-10.4206
▁palass	-10.4207
metode	-10.4211
▁økende	-10.4213
▁1200	-10.4215
▁fremført	-10.4218
reise	-10.4224
▁opprette	-10.4224
▁inndelt	-10.4226
ular	-10.4232
▁munk	-10.4233
▁eksempelvis	-10.4247
▁ferge	-10.4256
▁utgangspunktet	-10.4258
▁samtid	-10.4264
awa	-10.4265
produkt	-10.4265
▁sideelv	-10.4272
måte	-10.4273
sats	-10.4273
▁million	-10.4277
▁long	-10.4283
▁beina	-10.4284
▁arkiv	-10.4284
▁comp	-10.4287
vogn	-10.4303
▁trø	-10.4308
▁kai	-10.4322
▁cru	-10.4329
klas	-10.4338
▁bell	-10.4364
bolig	-10.4369
teori	-10.4373
▁jag	-10.4375
▁saga	-10.4379
▁definisjon	-10.4413
▁engasjert	-10.4413
▁innbyggertall	-10.4413
▁kvalifisert	-10.4413
▁manuskript	-10.4413
▁strategisk	-10.4413
▁virginia	-10.4413
▁komponert	-10.4413
▁tabellen	-10.4413
▁vestfold	-10.4413
▁hjørne	-10.4413
▁zealand	-10.4413
▁protestantisk	-10.4413
▁kombinasjon	-10.4413
slutt	-10.4413
▁elleve	-10.4413
▁blanding	-10.4413
▁magasinet	-10.4414
▁distanse	-10.4414
▁borgerkrigen	-10.4415
▁møre	-10.4416
▁foreslått	-10.4416
▁komedie	-10.4418
▁street	-10.4421
▁portrett	-10.4424
▁magnet	-10.443
▁1899	-10.443
▁queen	-10.4431
▁1878	-10.4432
▁bystyre	-10.4433
kuler	-10.4435
▁simon	-10.4439
▁jernbanen	-10.444
▁qing	-10.4446
▁persisk	-10.4453
sending	-10.4458
▁halvdel	-10.4459
møll	-10.4464
▁river	-10.4468
▁pap	-10.4481
▁emil	-10.4481
lokk	-10.4483
▁demokrat	-10.4485
fronten	-10.4493
kredit	-10.4496
modell	-10.4498
ān	-10.4524
makt	-10.4526
fartøy	-10.4527
▁ledelsen	-10.4531
formede	-10.4533
leir	-10.4551
▁marinen	-10.4555
oksid	-10.4555
▁parlament	-10.4562
klær	-10.4564
▁kim	-10.4567
▁kalde	-10.4568
fyll	-10.4576
formann	-10.4579
melding	-10.4587
▁helgen	-10.4591
▁grø	-10.4602
▁sies	-10.4605
forståelse	-10.4612
▁akseptert	-10.463
▁friedrich	-10.463
▁konkurrert	-10.463
▁lillehammer	-10.463
▁portugisisk	-10.463
▁etablering	-10.463
mønster	-10.463
kompetanse	-10.463
▁konsept	-10.463
▁tillatelse	-10.463
▁uvanlig	-10.463
▁evangeli	-10.463
▁kommersiell	-10.463
▁orient	-10.463
▁ungarsk	-10.463
▁utseende	-10.463
▁ordre	-10.463
▁doktorgrad	-10.4631
▁mongol	-10.4631
▁opprettelsen	-10.4632
▁opplevd	-10.4632
▁kjenner	-10.4633
▁sykkel	-10.4636
▁oppfatning	-10.4639
ual	-10.4639
▁komposisjon	-10.4639
▁kongelig	-10.4641
▁slaver	-10.4643
▁1897	-10.4645
▁meta	-10.4646
▁kontrollert	-10.4652
kjør	-10.4667
▁krim	-10.4675
▁aas	-10.4681
äl	-10.4686
skrevet	-10.4695
▁tykk	-10.4696
karriere	-10.4705
▁urban	-10.4718
klasse	-10.4719
▁bratt	-10.4724
▁høst	-10.4724
høyde	-10.4728
kilde	-10.4731
bryter	-10.4746
gjeng	-10.475
fjellene	-10.4762
▁finale	-10.4765
▁play	-10.4772
▁overleve	-10.478
▁skikke	-10.4781
▁markere	-10.4806
▁øverst	-10.4822
▁innvie	-10.4824
aften	-10.4838
14	-10.4839
familie	-10.4847
▁160	-10.4847
▁1909	-10.4852
▁admiral	-10.4852
▁okkupert	-10.4852
▁påbegynt	-10.4852
▁renessanse	-10.4852
▁ressurs	-10.4852
▁territorie	-10.4852
▁taiwan	-10.4852
▁tønsberg	-10.4852
▁church	-10.4852
▁texas	-10.4852
budsjett	-10.4852
▁negativ	-10.4852
▁golf	-10.4852
▁ombord	-10.4853
▁dominert	-10.4853
▁oppløsning	-10.4853
▁prinsesse	-10.4853
▁litterær	-10.4854
▁club	-10.4854
▁stengt	-10.4854
▁1905	-10.4855
▁årsaken	-10.4856
▁landskap	-10.4859
▁vanligst	-10.4865
▁1883	-10.4869
▁hjal	-10.4869
▁petter	-10.4876
▁1895	-10.4876
▁1880	-10.4879
▁luc	-10.4885
nemlig	-10.489
▁furu	-10.4893
▁begrave	-10.4893
▁torg	-10.4896
næs	-10.4897
friidrettsutøver	-10.492
litteratur	-10.4932
øvd	-10.4949
tind	-10.4974
▁hammer	-10.4991
øvelse	-10.4996
▁victoria	-10.501
▁teolog	-10.5012
▁avvist	-10.5027
iverse	-10.5034
▁spise	-10.5044
▁regjer	-10.505
▁fulgt	-10.5052
▁allikevel	-10.5079
▁barcelona	-10.5079
▁nøyaktig	-10.5079
▁permanent	-10.5079
▁tyrkisk	-10.5079
▁utbredelse	-10.5079
▁antyder	-10.5079
▁dyktig	-10.5079
▁reklame	-10.5079
▁risiko	-10.5079
▁preussen	-10.5079
▁usikker	-10.508
▁definere	-10.5081
▁telefon	-10.5081
▁zu	-10.5081
▁røyk	-10.5081
▁krise	-10.5085
▁lokalisert	-10.5085
▁allmenn	-10.5087
vassdraget	-10.5088
▁alban	-10.5092
▁1892	-10.5096
▁takke	-10.5099
stø	-10.5118
▁lord	-10.512
traktaten	-10.5125
▁middelalder	-10.5137
posisjon	-10.5154
▁utløp	-10.5164
hånd	-10.5165
▁ligge	-10.5168
syke	-10.5169
gjør	-10.517
▁olympi	-10.5177
tårn	-10.5189
▁hil	-10.5194
▁menneskelig	-10.5194
▁ramme	-10.5196
▁musik	-10.5213
▁sønd	-10.5221
▁tidspunkt	-10.5247
▁stikk	-10.5249
vatn	-10.5254
▁tenke	-10.5263
▁tjenestegjor	-10.5272
utgivelse	-10.5272
gudinne	-10.5272
79	-10.5291
▁utvide	-10.5293
fisering	-10.5295
vikler	-10.5307
svømme	-10.531
▁brensel	-10.5311
løytnant	-10.5312
▁columbia	-10.5312
▁kronprins	-10.5312
▁svalbard	-10.5312
▁utelukke	-10.5312
▁vingespenn	-10.5312
▁windows	-10.5312
▁referert	-10.5312
▁tilfeldig	-10.5312
kostnad	-10.5312
▁klatre	-10.5313
▁utfordre	-10.5313
▁bakvingen	-10.5313
▁900	-10.5313
▁sukker	-10.5326
▁smak	-10.5328
▁1894	-10.5328
▁silke	-10.5345
▁beskyttelse	-10.5353
▁isteden	-10.5353
▁samtlige	-10.5357
▁liber	-10.5359
tagelse	-10.5359
▁master	-10.5367
▁stund	-10.5369
hed	-10.5373
▁sovjet	-10.5386
▁oppstå	-10.5386
▁vennskap	-10.5391
▁forlenge	-10.5391
▁aviser	-10.5392
▁ørn	-10.5398
medalje	-10.5399
kongen	-10.5402
▁eksil	-10.5407
▁stang	-10.5412
▁paus	-10.5419
typer	-10.5428
▁skall	-10.548
▁helge	-10.5491
▁toll	-10.5493
▁pala	-10.5528
bygning	-10.5538
fortelling	-10.5543
▁forskjellig	-10.555
▁amsterdam	-10.555
▁chicago	-10.555
▁football	-10.555
▁konservative	-10.555
▁offensiv	-10.555
▁innvandre	-10.555
▁forårsake	-10.555
▁nikola	-10.555
▁integr	-10.555
▁avviklet	-10.555
▁bærum	-10.555
▁trengte	-10.5551
▁adresse	-10.5551
▁misjons	-10.5551
▁anmeld	-10.5551
▁generalsekretær	-10.5552
▁søkte	-10.5554
▁åpenbar	-10.5557
spinn	-10.5558
▁blokker	-10.5558
▁lisens	-10.556
▁tolke	-10.5561
▁1400	-10.5565
▁gjennombrudd	-10.5565
▁akku	-10.5572
▁cuba	-10.5572
bredden	-10.5584
▁isbre	-10.5589
▁etterpå	-10.559
buss	-10.5619
▁myk	-10.5628
horn	-10.5632
▁øre	-10.5638
spreng	-10.5644
aktivitet	-10.5647
historisk	-10.5647
▁ever	-10.5666
▁forlate	-10.5671
▁klage	-10.569
▁wu	-10.569
korset	-10.5716
▁utgangspunkt	-10.5726
▁prinsipp	-10.5733
▁afrikansk	-10.5738
▁kjemisk	-10.5749
gass	-10.5752
▁stam	-10.5756
▁strak	-10.5777
▁georgia	-10.5784
▁absolutt	-10.5794
▁american	-10.5794
▁hovedkvarter	-10.5794
▁infanteri	-10.5794
▁intervju	-10.5794
▁kristendommen	-10.5794
▁skjønt	-10.5794
▁skulptur	-10.5794
▁trommeslager	-10.5794
▁forklaring	-10.5794
▁company	-10.5794
▁uansett	-10.5794
▁erobring	-10.5794
▁løfte	-10.5794
▁langrenn	-10.5794
▁arthur	-10.5794
▁larvik	-10.5795
▁kriminal	-10.5795
▁føderal	-10.5795
▁gratis	-10.5795
▁utforming	-10.5795
▁1903	-10.5797
▁glad	-10.5799
▁røtter	-10.5802
▁skytter	-10.5806
▁høyesterett	-10.5808
▁bevisst	-10.5814
▁tynn	-10.5817
▁1885	-10.582
▁life	-10.5821
▁brødrene	-10.5822
▁hul	-10.5828
▁chile	-10.5828
▁spring	-10.5832
▁lunge	-10.5835
▁statsråd	-10.584
konge	-10.5843
▁seire	-10.5843
strømmen	-10.5857
ition	-10.5867
▁muslim	-10.5871
gods	-10.5881
▁talt	-10.589
▁erstatte	-10.5898
bunn	-10.5904
▁bruce	-10.5924
balanse	-10.5932
øks	-10.5942
▁messe	-10.5961
▁wel	-10.5984
reisende	-10.5985
avisen	-10.5988
▁betale	-10.6026
▁helst	-10.6034
▁sara	-10.6038
▁konstruert	-10.6044
▁millimeter	-10.6044
▁restaurant	-10.6044
▁warszawa	-10.6044
▁matematikk	-10.6044
▁misjonær	-10.6044
▁1850	-10.6044
▁fenomen	-10.6044
▁skihopp	-10.6044
▁opptrådt	-10.6044
▁slovak	-10.6044
ström	-10.6045
▁debutalbum	-10.6045
▁power	-10.6046
▁einar	-10.6046
▁fortellinger	-10.6046
▁stillehavet	-10.6046
▁stiftelsen	-10.6047
▁antikken	-10.605
▁fredrikstad	-10.6052
vesenet	-10.6053
▁knud	-10.6053
▁forbudt	-10.6053
▁bayern	-10.6055
▁orgel	-10.6057
▁humor	-10.6058
▁1888	-10.606
▁1896	-10.606
▁1300	-10.6061
phy	-10.6065
▁seine	-10.6068
▁1866	-10.6069
▁utenom	-10.6075
▁slapp	-10.6075
▁lettere	-10.6103
▁water	-10.6116
▁roger	-10.6131
▁skrå	-10.6137
wich	-10.6143
botn	-10.6145
▁vindu	-10.615
effekt	-10.6156
▁drap	-10.6162
▁nordmenn	-10.6167
konsul	-10.6177
teater	-10.6196
▁fremmed	-10.6198
▁dynasti	-10.6233
▁moss	-10.6233
drakt	-10.6258
bøl	-10.6262
gram	-10.6276
kontinent	-10.6299
▁beslutning	-10.63
▁elektronisk	-10.63
▁frankfurt	-10.63
▁heidelberg	-10.63
▁maksimal	-10.63
▁tsjekkoslovakia	-10.63
▁redaksjon	-10.63
▁henrettet	-10.6301
▁kongeriket	-10.6301
▁oldtiden	-10.6301
▁skildre	-10.6301
skildring	-10.6301
▁unntatt	-10.6301
▁great	-10.6302
aceae	-10.6302
▁osmansk	-10.6302
▁kryp	-10.6302
▁sydney	-10.6302
▁opptrer	-10.6303
▁enhver	-10.6303
▁landskamper	-10.6303
▁programleder	-10.6303
▁forgjenger	-10.6303
▁tallrike	-10.6304
▁gjentatt	-10.6307
▁2018	-10.6309
▁interessert	-10.6309
▁bedriften	-10.631
▁1881	-10.6318
▁ibsen	-10.6321
▁walter	-10.6323
▁1898	-10.6323
▁forbinde	-10.6324
▁with	-10.6328
▁tilsyne	-10.6329
fattet	-10.6333
▁skyldes	-10.6335
▁oppgitt	-10.6353
▁forsterke	-10.6356
▁brent	-10.6357
▁gross	-10.6362
embete	-10.6384
▁domkirke	-10.6389
champ	-10.639
▁histor	-10.6391
struktur	-10.6416
hjelp	-10.6417
museet	-10.6422
▁from	-10.6453
toppen	-10.6456
▁mah	-10.6501
▁neu	-10.6506
▁observato	-10.6559
▁sosialdemokrat	-10.6564
▁innspilt	-10.6564
▁napoleon	-10.6564
▁ukraina	-10.6564
▁vancouver	-10.6564
▁vedlikehold	-10.6564
▁xiàn	-10.6564
▁inspirasjon	-10.6564
▁lørdag	-10.6564
▁ovenfor	-10.6564
▁utnevne	-10.6564
▁følte	-10.6564
▁dokumentar	-10.6564
▁fjær	-10.6564
▁igjennom	-10.6564
▁korrekt	-10.6564
▁nedenfor	-10.6565
▁wild	-10.6571
▁onkel	-10.6572
▁cross	-10.6572
▁nederst	-10.6578
▁rival	-10.6583
▁1864	-10.6586
▁1890	-10.6586
▁skutt	-10.6587
blikk	-10.659
kjøring	-10.6594
forsker	-10.6612
▁besetning	-10.6612
▁mike	-10.6629
▁hannen	-10.6648
jekt	-10.6668
kasse	-10.6687
finalen	-10.6688
▁rapportert	-10.669
givelse	-10.6704
▁barneskole	-10.6716
stigning	-10.6737
▁fungere	-10.6742
speil	-10.6772
kontroll	-10.6779
▁larve	-10.6783
▁teologisk	-10.6783
▁bære	-10.6818
ault	-10.6826
reservoar	-10.6834
▁ambassadør	-10.6834
▁nøkkel	-10.6834
▁slalåm	-10.6834
▁canadisk	-10.6834
▁senatet	-10.6834
▁uklar	-10.6834
▁valuta	-10.6834
▁kobber	-10.6835
stipend	-10.6835
▁separat	-10.6835
materiell	-10.6835
nnebærer	-10.6835
▁firmaet	-10.6836
▁tropisk	-10.6836
▁nyhets	-10.6837
▁bbc	-10.6837
▁hovedkontor	-10.684
harmoni	-10.6841
▁manchester	-10.6842
▁fetter	-10.6846
▁stalin	-10.6847
▁rytter	-10.6849
▁holdning	-10.6849
▁1893	-10.685
▁1889	-10.6851
▁1100	-10.6851
▁1871	-10.6853
▁1886	-10.6857
▁1870	-10.6862
▁morten	-10.6862
▁sankt	-10.6864
▁traff	-10.6866
▁oval	-10.6869
styring	-10.687
▁hamburg	-10.687
▁tvers	-10.6872
▁svein	-10.6873
geist	-10.6874
▁pund	-10.6898
flate	-10.6911
▁brutt	-10.6912
wald	-10.6939
time	-10.6945
▁koll	-10.6947
vitsj	-10.6956
kandidat	-10.6964
direktør	-10.6964
transport	-10.6965
strup	-10.697
brann	-10.6971
▁pierr	-10.7001
prest	-10.7009
▁akademisk	-10.7061
▁sca	-10.7084
▁respekt	-10.7109
▁angelsaksisk	-10.7112
▁cambridge	-10.7112
▁fiendtlig	-10.7112
▁konkurrere	-10.7112
▁sarpsborg	-10.7112
▁tolkning	-10.7112
reservat	-10.7112
▁annonsert	-10.7112
▁kjennetegn	-10.7112
▁tilskuere	-10.7112
▁invitert	-10.7112
▁josef	-10.7112
▁ålesund	-10.7112
▁fjordane	-10.7112
▁novelle	-10.7113
▁verdensrekord	-10.7114
▁satse	-10.7114
▁fylt	-10.7114
▁avledet	-10.7115
▁syria	-10.7116
▁slippe	-10.7117
▁tjener	-10.7121
▁mandat	-10.7122
▁piano	-10.7126
▁idé	-10.7127
laten	-10.713
▁1877	-10.7131
▁romerne	-10.7143
▁syvende	-10.7144
manuel	-10.7151
▁tenkt	-10.7159
▁nevne	-10.7161
veksling	-10.7168
hytte	-10.7182
▁beholde	-10.7182
▁dramatisk	-10.7187
▁utvidelse	-10.7207
▁tyde	-10.7227
wick	-10.7229
institutt	-10.725
▁vev	-10.7254
utstyr	-10.7263
▁glen	-10.7284
▁ideologi	-10.7343
tveit	-10.7349
▁kollektiv	-10.7365
amerikanske	-10.7368
pont	-10.7391
▁dominere	-10.7392
▁låtskriver	-10.7397
▁alfabet	-10.7397
▁gunnar	-10.7397
▁bokstaven	-10.7397
▁heinrich	-10.7397
▁jersey	-10.7397
▁stridsvogn	-10.7397
▁hertugdømmet	-10.7397
▁nicola	-10.7397
▁heavy	-10.7397
▁parallell	-10.7397
▁fiolin	-10.7397
▁autonom	-10.7397
▁arsenal	-10.7397
▁beleiring	-10.7397
▁ansikt	-10.7398
▁selvmord	-10.7398
▁karbon	-10.7398
▁claud	-10.7398
▁kulturminne	-10.7398
▁tilhengere	-10.7398
▁noensinne	-10.7398
▁kullkraftverk	-10.7398
▁prøvd	-10.7399
▁väst	-10.7399
▁utgivelser	-10.7399
▁svømmer	-10.74
▁styremedlem	-10.74
▁tørke	-10.74
worth	-10.7401
▁kjøtt	-10.7401
▁vandre	-10.7405
▁senator	-10.7406
▁ungdomsskole	-10.7415
▁1876	-10.7417
▁regler	-10.7422
▁good	-10.7423
table	-10.7428
▁trapp	-10.7429
▁trygg	-10.7437
▁psykologi	-10.744
▁nedtegne	-10.7466
▁rhin	-10.7475
▁flykte	-10.7484
▁utenlands	-10.7516
▁kunstnerisk	-10.7522
måne	-10.7528
kreft	-10.754
temperatur	-10.7542
nytt	-10.7544
bestemt	-10.7545
kanalen	-10.7547
rekord	-10.7554
fast	-10.7561
▁plast	-10.7586
▁hjemmebane	-10.7617
▁lukke	-10.7634
8	-10.7652
▁astronom	-10.7691
▁oksygen	-10.7691
▁asteroide	-10.7691
▁gjøvik	-10.7691
▁katolikk	-10.7691
▁koalisjon	-10.7691
▁luxembourg	-10.7691
▁nøytral	-10.7691
▁plutselig	-10.7691
▁prefektur	-10.7691
▁kommandør	-10.7691
▁litauen	-10.7691
▁utspring	-10.7691
▁fysikk	-10.7691
▁rettferdig	-10.7691
▁sigurd	-10.7691
▁andré	-10.7692
▁batteri	-10.7692
▁ørken	-10.7692
▁kjøretøy	-10.7692
▁kontinentet	-10.7693
▁felttog	-10.7693
▁plateselskapet	-10.7694
▁group	-10.7695
▁ytterst	-10.7695
▁spurt	-10.7695
▁jurist	-10.7697
stråle	-10.7699
▁torino	-10.7699
▁avansert	-10.7704
▁1814	-10.7705
▁barndom	-10.771
▁personell	-10.7711
▁1882	-10.7712
flyktning	-10.7714
avgift	-10.7716
▁berømt	-10.7736
ulykke	-10.785
maleri	-10.7863
musiker	-10.7864
utstillingen	-10.7888
▁muslimsk	-10.79
gevær	-10.7929
▁spenn	-10.7956
▁stortings	-10.7987
▁geometri	-10.7994
▁gjaldt	-10.7994
▁lincoln	-10.7994
▁patriark	-10.7994
▁oxford	-10.7994
▁plyndr	-10.7994
▁annerledes	-10.7994
▁testamente	-10.7994
investering	-10.7994
førsel	-10.7994
▁adolf	-10.7995
▁fuktig	-10.7995
▁margaret	-10.7995
▁fiktiv	-10.7995
▁ulovlig	-10.7995
▁langvarig	-10.7995
▁konkurs	-10.7995
▁aktuell	-10.7995
▁regulere	-10.7995
teatret	-10.7995
▁tennis	-10.7995
pedagog	-10.7995
▁alaska	-10.7995
▁nepal	-10.7995
▁beordre	-10.7995
▁soldatene	-10.7996
▁ekspert	-10.7996
▁flytende	-10.7997
на	-10.7997
▁leilighet	-10.7997
▁rednings	-10.8
cci	-10.8001
▁profil	-10.8002
▁pistol	-10.8003
▁splitte	-10.8004
▁down	-10.8006
▁material	-10.8007
▁1879	-10.8008
▁donau	-10.801
vietnamesisk	-10.8011
▁tekstil	-10.8012
vilkår	-10.8013
▁spesialisert	-10.8024
▁intens	-10.8029
▁tretten	-10.8035
▁jesuitt	-10.8037
▁arena	-10.8053
▁pall	-10.8059
▁næringsliv	-10.8072
løyp	-10.8096
qi	-10.8134
▁kongedømme	-10.8151
redaktør	-10.816
utdanning	-10.816
utgave	-10.8174
▁slange	-10.818
ætt	-10.8212
▁universit	-10.822
▁psyko	-10.8234
▁lavest	-10.8257
lignende	-10.827
▁frilufts	-10.8307
▁aftenposten	-10.8307
▁bachelor	-10.8307
▁frekvens	-10.8307
▁interessant	-10.8307
▁jomfru	-10.8307
▁shanghai	-10.8307
▁svømming	-10.8307
▁eksisterende	-10.8307
▁kvadrat	-10.8307
▁taylor	-10.8307
▁uttrykt	-10.8307
▁diskusjon	-10.8307
▁bridge	-10.8307
▁hyppig	-10.8307
▁kontinental	-10.8307
▁gregor	-10.8307
▁gjennomgår	-10.8307
▁luthersk	-10.8307
▁sandefjord	-10.8307
▁skåne	-10.8307
▁global	-10.8307
▁skjult	-10.8307
▁haakon	-10.8307
▁verdensarv	-10.8307
▁færre	-10.8307
▁utpekt	-10.8307
▁senterpartiet	-10.8308
▁uefa	-10.8308
▁titler	-10.8309
▁rolf	-10.8309
▁hjort	-10.8309
▁middelhavet	-10.8309
▁tilbrakt	-10.8309
▁døgn	-10.831
▁verdifull	-10.831
▁oppfølger	-10.831
▁alpene	-10.831
▁spyd	-10.831
▁rettssak	-10.8311
▁forberede	-10.8312
▁bønn	-10.8312
▁brown	-10.8313
▁beskjed	-10.8313
▁skygge	-10.8315
▁mount	-10.8315
▁undergrunnsbane	-10.8318
▁trodde	-10.8321
▁brian	-10.8322
▁fastlandet	-10.8322
▁kaffe	-10.8326
chester	-10.834
▁smerte	-10.8343
▁nerve	-10.8346
▁rykte	-10.8384
▁klippe	-10.8394
▁koreansk	-10.8404
kjemper	-10.8415
▁fylle	-10.8417
▁pyr	-10.8427
akademi	-10.8432
divisjon	-10.8483
radio	-10.8494
kveld	-10.8495
▁350	-10.8504
ship	-10.8545
▁avslutte	-10.8564
▁tryg	-10.8585
▁pels	-10.8586
▁utøve	-10.8625
▁francis	-10.8627
▁bulgaria	-10.863
▁country	-10.863
▁fengslet	-10.863
▁konstitusjon	-10.863
▁løslatt	-10.863
▁observasjon	-10.863
▁omdøpt	-10.863
▁popularitet	-10.863
▁særskilt	-10.863
▁uenighet	-10.863
▁vellykke	-10.863
▁artilleri	-10.863
▁kommandant	-10.863
▁antarktis	-10.863
▁diameter	-10.863
▁stephen	-10.863
▁stanley	-10.863
▁beslektet	-10.863
▁hebraisk	-10.863
▁contest	-10.863
▁senior	-10.863
▁walisisk	-10.863
▁doping	-10.863
▁innledet	-10.863
▁oppfordre	-10.863
myndig	-10.8631
▁gerhard	-10.8631
▁naturgass	-10.8632
mouth	-10.8633
▁house	-10.8634
▁fiction	-10.8634
▁smitte	-10.8635
▁styreleder	-10.8636
▁betalt	-10.8636
▁tsar	-10.8637
▁innebar	-10.8642
holt	-10.8651
▁agent	-10.8653
▁variasjon	-10.8654
▁månen	-10.8668
erklæring	-10.8699
▁antenne	-10.8795
instrument	-10.8815
dømt	-10.8816
revolusjon	-10.8816
funksjon	-10.8816
▁brødre	-10.8925
▁omdanne	-10.895
▁sjakk	-10.8961
▁doktor	-10.8962
belteasteroide	-10.8963
▁forvandling	-10.8963
▁fundament	-10.8963
▁hollywood	-10.8963
▁jugoslavia	-10.8963
▁nowiki	-10.8963
▁parallelt	-10.8963
▁progressiv	-10.8963
▁romerriket	-10.8963
▁æthel	-10.8963
▁minoritet	-10.8963
▁regulering	-10.8963
▁sparebank	-10.8963
▁statsborger	-10.8963
▁forklare	-10.8963
▁trussel	-10.8963
▁seoul	-10.8963
▁plukke	-10.8963
▁für	-10.8964
▁automatisk	-10.8964
▁kristin	-10.8965
▁metoder	-10.8965
▁francisco	-10.8966
▁oversetter	-10.8967
▁valgkrets	-10.8967
▁smelte	-10.8968
▁høydepunkt	-10.8968
▁kvelden	-10.8968
palpene	-10.897
syklus	-10.8972
▁operere	-10.8973
▁temple	-10.8973
▁rederi	-10.8976
▁exam	-10.8977
▁ødela	-10.9003
▁eksistert	-10.905
▁oppnådd	-10.9053
ordnet	-10.9066
▁kass	-10.9069
▁olive	-10.9142
gyldig	-10.9145
kontrakt	-10.916
flagg	-10.9163
hefte	-10.9177
▁tidligst	-10.9268
▁anerkjenne	-10.9281
▁undersøke	-10.929
forsvar	-10.9301
kommanderende	-10.9308
▁dekkvingene	-10.9308
▁illustrasjon	-10.9308
▁konsekvens	-10.9308
▁lofoten	-10.9308
▁pasienter	-10.9308
▁sjeldne	-10.9308
▁skribent	-10.9308
▁territorium	-10.9308
▁tsjekkia	-10.9308
▁venezia	-10.9308
▁kongsvinger	-10.9308
▁opprettholde	-10.9308
▁skjøt	-10.9308
▁bystatus	-10.9308
▁depresjon	-10.9308
▁amatør	-10.9308
▁komplett	-10.9308
▁deutsche	-10.9308
▁forkortelse	-10.9308
bransjen	-10.9308
▁betydningsfull	-10.9308
▁atlanta	-10.9308
▁kavaleri	-10.9308
▁utsikt	-10.9308
▁evakuer	-10.9308
▁sibir	-10.9308
▁veteran	-10.9308
▁betjene	-10.9309
▁delstats	-10.9309
▁facto	-10.931
▁øvelser	-10.931
sluppe	-10.931
betjent	-10.931
▁jernbanestasjon	-10.9311
▁medvirket	-10.9312
▁bønder	-10.9313
▁ballett	-10.9317
▁forrige	-10.9321
▁rifle	-10.9324
▁sjanse	-10.933
▁søyle	-10.933
økonom	-10.933
▁anerkjennelse	-10.9334
rennet	-10.9335
▁tjent	-10.9335
psykolog	-10.9336
middag	-10.9362
▁størst	-10.9409
▁forplikte	-10.9445
konstruksjon	-10.9517
konsert	-10.952
nærmet	-10.9581
artikler	-10.9601
direktoratet	-10.9665
▁angivelig	-10.9665
▁association	-10.9665
▁assosiert	-10.9665
▁dirigent	-10.9665
▁elizabeth	-10.9665
▁indonesia	-10.9665
▁inskripsjon	-10.9665
▁jordskjelv	-10.9665
▁komplisert	-10.9665
▁legendarisk	-10.9665
▁metamorfose	-10.9665
▁society	-10.9665
▁spanjol	-10.9665
▁sørafrikansk	-10.9665
▁arbeidsgiver	-10.9665
▁belønne	-10.9665
▁stjørdal	-10.9665
▁søknad	-10.9665
▁tilnærming	-10.9665
▁drivstoff	-10.9665
▁göteborg	-10.9665
▁torpedo	-10.9665
▁avslørt	-10.9665
▁besittelse	-10.9665
▁identitet	-10.9665
▁ektefelle	-10.9665
▁thailand	-10.9665
▁unesco	-10.9665
▁forklart	-10.9665
▁margret	-10.9665
▁trykt	-10.9665
▁ordinær	-10.9665
▁mekanisk	-10.9665
▁inklu	-10.9665
▁protein	-10.9665
▁detroit	-10.9666
▁kjernekraftverk	-10.9666
forvaltning	-10.9666
▁diesel	-10.9666
▁betaling	-10.9666
▁tempo	-10.9667
▁grønt	-10.9667
▁respektiv	-10.9668
▁hedmark	-10.9668
▁legenden	-10.9669
▁virkeligheten	-10.9669
▁poesi	-10.9669
▁forvaltnings	-10.967
▁programvare	-10.967
▁presentere	-10.967
▁innspillingen	-10.9672
▁døtre	-10.9673
▁kongressen	-10.9679
▁puppe	-10.9683
hampton	-10.9684
sprang	-10.9701
▁innerst	-10.9735
sdatter	-10.9754
▁fjellkjede	-10.9755
▁republikk	-10.9784
▁arkeologi	-10.9863
kollen	-10.9875
krem	-10.988
ekspedisjon	-10.9888
resultat	-10.9888
frukt	-10.9888
oppgave	-10.9896
reformen	-10.9988
bjørg	-10.9997
tjern	-10.9998
▁omhandle	-11.0021
▁apostolisk	-11.0035
▁atlanterhavet	-11.0035
▁bysantinsk	-11.0035
▁gjengjeld	-11.0035
▁innsbruck	-11.0035
▁kontinuerlig	-11.0035
▁observert	-11.0035
▁opphørte	-11.0035
▁psykisk	-11.0035
▁restaurert	-11.0035
▁skandinavia	-11.0035
▁skiskyting	-11.0035
▁symptome	-11.0035
▁trondhjem	-11.0035
▁canterbury	-11.0035
▁evolusjon	-11.0035
▁kjøkken	-11.0035
▁buskerud	-11.0035
▁kjønnsmod	-11.0035
▁nobelpris	-11.0035
▁sogneprest	-11.0035
▁dublin	-11.0035
▁kvartfinale	-11.0035
symfoni	-11.0035
leksikon	-11.0035
▁kristus	-11.0035
▁ntnu	-11.0035
▁parlamentarisk	-11.0035
metabol	-11.0035
orientert	-11.0036
▁systematisk	-11.0036
▁monroe	-11.0036
▁tokyo	-11.0036
▁stefan	-11.0036
▁fangst	-11.0036
▁first	-11.0036
▁døpt	-11.0036
▁innvalgt	-11.0037
▁dvd	-11.0037
▁mastergrad	-11.0037
jylland	-11.0037
▁axel	-11.0037
▁stryk	-11.0037
▁forfølgelse	-11.0038
▁year	-11.0038
▁blomstre	-11.0039
fatning	-11.004
▁slank	-11.004
▁syntes	-11.0043
diagnose	-11.0043
▁øvelsen	-11.0044
▁metoden	-11.0046
▁syklist	-11.0053
▁avskjed	-11.0071
stredet	-11.0072
munn	-11.0075
lektor	-11.009
vegetasjon	-11.0108
▁skjelett	-11.0109
edderkopper	-11.0165
bakke	-11.0227
▁myndighet	-11.0236
konferansen	-11.0243
bibliotek	-11.0272
teknologi	-11.0273
sesongen	-11.0273
nnom	-11.0301
design	-11.0304
grepet	-11.033
element	-11.0373
ingsrepresentant	-11.042
▁anbefalt	-11.042
▁babylon	-11.042
▁buddhist	-11.042
▁douglas	-11.042
▁etiopia	-11.042
▁ferdinand	-11.042
▁helikopter	-11.042
▁konsentrert	-11.042
▁makedonia	-11.042
▁massachusetts	-11.042
▁mobiltelefon	-11.042
▁pasienten	-11.042
▁shackleton	-11.042
▁tsjekkisk	-11.042
▁væpne	-11.042
▁wergeland	-11.042
▁gabriel	-11.042
▁invadert	-11.042
▁1849	-11.042
▁nidaros	-11.042
▁patrick	-11.042
▁faktum	-11.042
▁beatles	-11.042
▁florida	-11.042
▁matematisk	-11.042
▁bebodd	-11.042
▁umulig	-11.042
▁middle	-11.042
▁sektor	-11.042
▁bmw	-11.042
▁innrømme	-11.042
▁begrunnelse	-11.042
▁redigert	-11.042
▁skjebne	-11.0421
▁tendens	-11.0421
▁vincen	-11.0421
▁nkp	-11.0421
▁class	-11.0421
▁social	-11.0421
▁samuel	-11.0422
▁kristiansund	-11.0422
terapi	-11.0423
▁tillatt	-11.0423
▁forlatt	-11.0423
▁hessen	-11.0427
▁fossile	-11.0428
kollega	-11.0428
▁særeg	-11.043
▁ytelse	-11.0433
tenkning	-11.0437
▁bakerst	-11.0439
knapp	-11.0442
▁bevare	-11.046
▁utforske	-11.0554
▁konferanse	-11.0599
▁nøt	-11.0602
▁bakkropp	-11.0654
▁bekrefte	-11.0664
ingeniør	-11.0672
kloster	-11.0673
arkiv	-11.0681
opprøret	-11.0739
spellemannprisen	-11.082
▁ammunisjon	-11.082
▁buddhisme	-11.082
▁favoritt	-11.082
▁folkeavstemning	-11.082
▁forøvrig	-11.082
▁konkludert	-11.082
▁narkotika	-11.082
▁respons	-11.082
▁rudolf	-11.082
▁skandinavisk	-11.082
▁utendørs	-11.082
▁volleyball	-11.082
▁adskilt	-11.082
▁arrangør	-11.082
▁billboard	-11.082
▁kambodsja	-11.082
▁krønike	-11.082
▁vurdert	-11.082
▁slesvig	-11.082
▁snorre	-11.082
▁stewart	-11.082
lovgivning	-11.082
▁ensemble	-11.082
▁jupiter	-11.082
▁könig	-11.082
▁atmosfæren	-11.082
▁vinterleker	-11.082
▁reduksjon	-11.082
▁svovel	-11.082
▁vurdere	-11.082
▁grieg	-11.082
▁midtøsten	-11.082
disiplin	-11.082
▁ringerike	-11.082
▁prince	-11.082
▁lewis	-11.082
▁underholdning	-11.082
▁essay	-11.082
▁kommentar	-11.082
▁serbia	-11.082
▁fremtidig	-11.082
▁massiv	-11.082
▁reglene	-11.082
▁krigsfange	-11.0821
▁sophi	-11.0821
▁stadiet	-11.0821
▁bjerk	-11.0821
protokoll	-11.0821
tilfreds	-11.0821
▁sverre	-11.0824
▁overlevert	-11.0826
mekanisme	-11.0827
▁genetisk	-11.0835
botten	-11.0837
▁identisk	-11.0841
▁beleire	-11.0841
▁kunngjor	-11.0845
▁moderat	-11.0849
vunne	-11.0863
premie	-11.0937
▁løk	-11.0941
▁plei	-11.0946
stamme	-11.0972
sentrum	-11.1074
offiser	-11.1089
spørsmål	-11.1089
markedet	-11.115
▁basketball	-11.1236
▁bryllup	-11.1236
▁colorado	-11.1236
▁elektrisitet	-11.1236
▁forfremme	-11.1236
▁kapittel	-11.1236
▁kristoffer	-11.1236
▁prestegjeld	-11.1236
▁shakespeare	-11.1236
▁stråling	-11.1236
▁alminnelig	-11.1236
▁landhockey	-11.1236
▁massakren	-11.1236
▁oppvarming	-11.1236
▁pyramide	-11.1236
▁forberedt	-11.1237
▁fysiker	-11.1237
▁populasjon	-11.1237
▁grekerne	-11.1237
▁interiør	-11.1237
▁operativsystem	-11.1237
betennelse	-11.1237
▁autoritet	-11.1237
▁placid	-11.1237
▁ytterkant	-11.1237
▁landkreis	-11.1237
presentasjon	-11.1237
▁guinea	-11.1237
▁knapt	-11.1237
▁kortvarig	-11.1237
▁ohio	-11.1237
▁firenze	-11.1237
▁forsyninger	-11.1237
▁charlotte	-11.1237
▁barnehage	-11.1237
▁apollo	-11.1237
▁bevilge	-11.1237
▁fremtredende	-11.1237
▁theatre	-11.1237
▁myrdet	-11.1237
▁vakre	-11.1237
▁benevn	-11.1238
▁søsken	-11.1238
▁relasjon	-11.1238
▁mineral	-11.1239
▁knust	-11.1241
▁muntlig	-11.1241
bukten	-11.1243
▁streik	-11.1243
▁avgjørelse	-11.1244
▁work	-11.1246
▁maritim	-11.1253
▁mannsnavn	-11.126
▁forhandle	-11.1274
▁nevro	-11.1279
spalte	-11.1301
▁folkegrupp	-11.1305
nevnte	-11.1379
kommunikasjon	-11.1524
problemer	-11.1524
størrelse	-11.1524
interesse	-11.1525
politiker	-11.1525
prøve	-11.1526
student	-11.1528
kjeden	-11.1541
ramme	-11.1543
statue	-11.1624
▁offentliggjor	-11.1633
kommissær	-11.1671
köping	-11.1671
▁aggressiv	-11.1671
▁aluminium	-11.1671
▁britannia	-11.1671
▁electric	-11.1671
▁guddommelig	-11.1671
▁konklavet	-11.1671
▁kroatia	-11.1671
▁mangfold	-11.1671
▁observere	-11.1671
▁resolusjon	-11.1671
▁hospital	-11.1671
▁hypotese	-11.1671
▁mjøs	-11.1671
▁oldtids	-11.1671
▁styrmann	-11.1671
▁våpenhvile	-11.1671
mønstre	-11.1671
▁bokstaver	-11.1671
▁innstifte	-11.1671
▁leopold	-11.1671
▁quisling	-11.1671
▁forsterkning	-11.1671
▁algerie	-11.1671
▁nevø	-11.1671
▁sediment	-11.1671
▁chelsea	-11.1671
▁madrid	-11.1671
▁indikerer	-11.1671
▁kontrast	-11.1671
▁castle	-11.1672
▁wagner	-11.1672
▁kjæreste	-11.1672
▁organisere	-11.1672
plantasje	-11.1672
▁smykke	-11.1672
▁varierende	-11.1673
▁betingelse	-11.1673
▁dynam	-11.1673
▁innflytelsesrik	-11.1674
▁leeds	-11.1674
▁undersøkt	-11.1676
▁omorganiser	-11.1677
▁keltisk	-11.1683
▁republikansk	-11.1701
bæk	-11.1739
▁sokn	-11.1749
fellesskap	-11.1921
tittelen	-11.1975
kroppen	-11.1976
medisin	-11.1978
skuespiller	-11.1979
166	-11.198
▁utforme	-11.2064
▁öster	-11.208
skrekk	-11.2117
▁molekyl	-11.2126
▁musikkvideo	-11.2126
▁satellitt	-11.2126
inspektør	-11.2126
sadvokat	-11.2126
▁argentinsk	-11.2126
▁beliggenhet	-11.2126
▁engasjement	-11.2126
▁forbrytelse	-11.2126
▁færøysk	-11.2126
▁köln	-11.2126
▁langrennsløper	-11.2126
▁ludwig	-11.2126
▁palestina	-11.2126
▁taliban	-11.2126
▁ukrainsk	-11.2126
▁varaordfører	-11.2126
▁vålerenga	-11.2126
▁garnison	-11.2126
▁grimstad	-11.2126
▁kennedy	-11.2126
▁lastebil	-11.2126
▁reaktor	-11.2126
▁linux	-11.2126
▁vannpolo	-11.2126
▁eidsvoll	-11.2126
▁gustaf	-11.2126
▁nominasjon	-11.2126
▁haugesund	-11.2126
▁africa	-11.2126
▁væske	-11.2126
▁berykte	-11.2126
▁ferrari	-11.2126
▁dresden	-11.2126
▁baptist	-11.2126
▁sjangre	-11.2126
leverandør	-11.2126
▁hovedpersonen	-11.2126
▁finansiert	-11.2126
▁fangenskap	-11.2126
▁stadium	-11.2127
▁moralsk	-11.2127
▁central	-11.2127
▁isolert	-11.2127
▁theodor	-11.2127
▁deltakelse	-11.2127
▁harrison	-11.2127
▁slavisk	-11.2128
thorax	-11.2128
▁kalender	-11.2128
kriminell	-11.2135
▁rytme	-11.2138
▁levninge	-11.2146
▁armensk	-11.2147
føtter	-11.2154
▁forsvinne	-11.2157
basseng	-11.2181
utgift	-11.2181
sosialistisk	-11.2454
forskjell	-11.2455
kvalitet	-11.2455
fogd	-11.2464
koloni	-11.2465
sentral	-11.2467
▁vassdrag	-11.2584
indoeuropeisk	-11.2602
▁akseptere	-11.2602
▁birkeland	-11.2602
▁bjørk	-11.2602
▁brønn	-11.2602
▁bulgarsk	-11.2602
▁championship	-11.2602
▁elefant	-11.2602
▁individuelt	-11.2602
▁konkurrent	-11.2602
▁matematiker	-11.2602
▁meksikansk	-11.2602
▁mislykket	-11.2602
▁normandie	-11.2602
▁overraskende	-11.2602
▁praktisere	-11.2602
▁rehabiliter	-11.2602
▁tennessee	-11.2602
▁fjorten	-11.2602
▁forveksle	-11.2602
▁jacque	-11.2602
▁luftforsvaret	-11.2602
▁presteviet	-11.2602
▁campbell	-11.2602
▁opplysninger	-11.2602
▁teoretisk	-11.2602
▁utgravninger	-11.2602
▁afghansk	-11.2602
▁abraham	-11.2602
▁stimul	-11.2602
▁westfalen	-11.2602
▁konsonant	-11.2602
▁marilyn	-11.2602
▁rovdyr	-11.2602
▁eksistens	-11.2602
▁larvestadie	-11.2602
▁hamilton	-11.2602
▁habitat	-11.2602
▁utstrakt	-11.2602
▁rockeband	-11.2602
▁abbey	-11.2602
▁nelson	-11.2602
▁synspunkt	-11.2602
▁dimensjon	-11.2602
▁omgivelser	-11.2602
▁feiring	-11.2603
▁pianist	-11.2603
▁saturn	-11.2604
forsikring	-11.2604
▁flanke	-11.2604
▁fylkeskommune	-11.2606
▁honor	-11.2607
▁ministr	-11.2612
▁blank	-11.2612
▁østkyst	-11.2613
rekkefølgen	-11.2614
▁epoke	-11.2622
▁stortingsvalge	-11.2655
▁blanc	-11.268
drevne	-11.287
▁dobbel	-11.2897
▁tobakk	-11.2928
bøkene	-11.2955
klipp	-11.2979
snittet	-11.3026
▁bekjempe	-11.3102
instruktør	-11.3102
▁corporation	-11.3102
▁cæsar	-11.3102
