<unk>	0
<s>	0
</s>	0
.	-3.29414
▁i	-3.46442
e	-3.68395
s	-3.73682
▁og	-3.83129
t	-4.00046
en	-4.27371
▁av	-4.28363
er	-4.30372
▁	-4.36022
▁som	-4.4423
▁en	-4.45154
▁er	-4.56941
▁til	-4.58725
▁for	-4.66773
r	-4.7008
▁på	-4.7239
▁ble	-4.89337
▁den	-4.89507
▁med	-4.89715
▁det	-4.93127
n	-4.97237
et	-5.01162
▁var	-5.02384
▁de	-5.06072
▁han	-5.11599
▁å	-5.22408
▁fra	-5.32807
▁et	-5.45636
▁har	-5.49948
▁at	-5.6088
a	-5.63003
ene	-5.64851
ne	-5.88218
▁ved	-5.94521
▁etter	-5.96391
▁om	-5.97529
k	-6.02222
▁også	-6.03807
i	-6.04343
▁men	-6.04774
d	-6.07076
y	-6.1285
o	-6.16665
▁seg	-6.17361
▁under	-6.19801
▁ut	-6.20278
te	-6.24174
▁hadde	-6.27009
▁ikke	-6.29522
▁da	-6.30353
▁over	-6.33697
g	-6.33741
de	-6.37367
▁eller	-6.38169
m	-6.38258
▁to	-6.38554
▁opp	-6.40781
p	-6.4128
l	-6.41922
f	-6.45131
▁inn	-6.46195
▁kan	-6.48973
▁andre	-6.56079
▁sin	-6.57439
▁første	-6.60709
re	-6.61154
ing	-6.62198
▁mot	-6.66067
▁hun	-6.66087
▁dette	-6.67345
▁år	-6.69225
c	-6.73304
in	-6.73808
▁s	-6.73845
v	-6.74021
u	-6.76108
▁1	-6.76356
us	-6.76506
▁ha	-6.79015
an	-6.82336
▁18	-6.8287
b	-6.83068
▁hans	-6.84325
▁mellom	-6.85213
al	-6.85217
▁født	-6.85332
▁be	-6.85568
▁a	-6.87368
▁fikk	-6.89425
▁kom	-6.92333
sk	-6.92446
▁denne	-6.94051
h	-6.94483
▁flere	-6.94743
▁der	-6.95463
le	-6.97317
es	-6.97435
▁f	-6.9809
▁tre	-7.00031
▁man	-7.00521
▁hvor	-7.02801
▁blan	-7.0298
▁nord	-7.03091
ri	-7.09255
▁2	-7.09784
▁sammen	-7.1046
la	-7.11358
ende	-7.1218
▁før	-7.13002
▁the	-7.13394
▁del	-7.16203
is	-7.16348
na	-7.16766
ia	-7.18845
▁u	-7.19372
▁så	-7.19499
z	-7.20664
ar	-7.21019
▁tallet	-7.22673
ter	-7.234
ning	-7.23481
on	-7.24062
kk	-7.24316
▁norge	-7.24547
▁ligger	-7.24983
▁mange	-7.25163
ra	-7.2619
▁senere	-7.26393
▁alle	-7.26549
lig	-7.267
▁stor	-7.2694
▁la	-7.2705
▁død	-7.291
▁gjennom	-7.29165
▁siden	-7.30426
▁3	-7.30473
▁m	-7.31671
▁byen	-7.3205
▁noen	-7.32982
▁ca	-7.33058
nde	-7.33238
▁selv	-7.33309
der	-7.33899
vis	-7.34501
▁mer	-7.34792
▁norsk	-7.35378
▁disse	-7.36469
land	-7.38194
ta	-7.38313
▁kommune	-7.38428
▁annet	-7.38924
w	-7.38936
▁tidligere	-7.39691
▁kjent	-7.40011
▁være	-7.40353
▁c	-7.41988
▁sør	-7.42224
ch	-7.42351
▁4	-7.42386
ere	-7.4338
▁blitt	-7.43646
ma	-7.4366
▁5	-7.43935
▁an	-7.43949
ke	-7.44518
▁re	-7.44872
▁blir	-7.44905
▁sitt	-7.44949
sen	-7.45781
or	-7.45945
be	-7.46428
iske	-7.4644
j	-7.46782
▁samme	-7.46805
▁ny	-7.46973
at	-7.47022
▁vært	-7.47996
ens	-7.48061
▁vi	-7.48185
▁land	-7.48515
▁17	-7.48581
▁her	-7.48847
▁ol	-7.49013
ur	-7.49559
▁se	-7.49757
for	-7.50117
▁kr	-7.50989
▁store	-7.51292
ut	-7.51571
▁k	-7.51997
▁rundt	-7.5256
▁gikk	-7.53776
▁noe	-7.53932
▁sine	-7.54001
ske	-7.54058
ø	-7.54096
ge	-7.54116
▁d	-7.54126
▁ta	-7.54513
▁ro	-7.54622
▁16	-7.54727
▁sa	-7.55027
el	-7.55489
▁t	-7.56397
isk	-7.56483
ver	-7.56645
▁frem	-7.57394
il	-7.58159
▁hver	-7.58676
ist	-7.5926
um	-7.59455
▁grunn	-7.59679
▁15	-7.59896
li	-7.59981
▁b	-7.60528
▁bo	-7.60712
▁tid	-7.61282
lo	-7.61309
▁kunne	-7.61554
▁al	-7.61716
▁dag	-7.62313
▁slik	-7.62552
é	-7.62874
▁vil	-7.63173
ry	-7.63252
▁g	-7.63446
▁ga	-7.63659
ck	-7.64093
ro	-7.65088
ul	-7.65659
▁mest	-7.65782
▁of	-7.65821
▁vant	-7.65883
▁både	-7.66047
▁10	-7.6717
▁vest	-7.6738
▁dem	-7.67519
▁enn	-7.67745
ng	-7.68387
øy	-7.68469
▁mens	-7.69135
▁ned	-7.69634
x	-7.69643
ste	-7.69666
▁tok	-7.69938
lige	-7.70062
▁h	-7.70673
den	-7.70906
▁bare	-7.71107
▁p	-7.71169
▁6	-7.71209
▁norske	-7.71535
ner	-7.71696
ll	-7.72123
ff	-7.72337
▁skulle	-7.72505
▁usa	-7.72786
os	-7.72828
▁tilbake	-7.73079
▁ofte	-7.73304
▁by	-7.74471
▁ham	-7.74503
nes	-7.7487
▁nye	-7.74895
▁navn	-7.75051
▁nå	-7.75356
het	-7.7701
▁gang	-7.77041
▁skal	-7.77555
th	-7.7757
▁øst	-7.77792
as	-7.7817
▁o	-7.78241
▁ra	-7.78333
▁bli	-7.78816
▁navnet	-7.79277
ger	-7.7936
å	-7.79727
▁km	-7.79796
di	-7.7983
▁sp	-7.79976
om	-7.80992
▁januar	-7.81251
pp	-7.81273
▁finnes	-7.8159
erne	-7.81654
sa	-7.81675
▁fire	-7.81962
ic	-7.82206
bo	-7.82345
me	-7.82466
▁li	-7.82477
▁hele	-7.8256
▁siste	-7.82617
kt	-7.83026
▁oslo	-7.8314
▁mai	-7.83951
▁få	-7.84211
▁fram	-7.84336
ør	-7.84482
▁lag	-7.84708
ga	-7.84754
mo	-7.8486
▁7	-7.84956
▁meter	-7.85459
▁ba	-7.8556
id	-7.85926
dal	-7.86193
skap	-7.86285
da	-7.86423
▁st	-7.86881
ka	-7.87094
ig	-7.87315
ler	-7.87368
ton	-7.87481
▁største	-7.87996
ment	-7.88622
▁8	-7.88664
mann	-7.88714
▁mars	-7.89169
▁fri	-7.90082
▁hoved	-7.90116
▁rekke	-7.90731
▁kon	-7.90872
man	-7.91107
▁august	-7.91178
son	-7.914
▁deltok	-7.9157
▁ni	-7.91784
var	-7.92551
ang	-7.92815
gen	-7.93324
▁per	-7.93473
▁ar	-7.93891
▁kirke	-7.94277
▁2008	-7.94309
▁bak	-7.9443
ba	-7.94888
▁laget	-7.95084
ti	-7.95425
▁mo	-7.95474
▁po	-7.95631
▁du	-7.9574
▁he	-7.95982
▁mål	-7.96145
▁ho	-7.96151
▁000	-7.96276
it	-7.96577
▁le	-7.96581
▁sk	-7.96914
▁pi	-7.97317
▁juli	-7.97957
▁igjen	-7.98588
ell	-7.99096
▁lang	-7.99369
▁14	-7.99554
▁11	-7.99588
▁di	-7.99669
▁kalt	-7.99733
ns	-7.99778
▁landet	-7.99831
berg	-7.99941
▁ti	-8.00043
▁si	-8.00111
▁12	-8.00631
▁v	-8.00664
▁går	-8.0124
ja	-8.01279
ve	-8.01554
else	-8.01569
▁årene	-8.01635
un	-8.01961
ad	-8.0213
vi	-8.02369
ion	-8.0238
▁9	-8.02421
▁når	-8.02465
▁j	-8.03134
to	-8.0373
▁først	-8.03849
▁13	-8.0467
▁20	-8.04703
ven	-8.0475
▁co	-8.05218
▁rett	-8.0525
ster	-8.05276
▁desember	-8.05304
pe	-8.05385
erte	-8.0558
gi	-8.05621
▁lo	-8.05693
▁l	-8.05822
va	-8.05847
▁2007	-8.06102
▁ma	-8.06275
▁fly	-8.06406
stad	-8.06498
sted	-8.06705
▁n	-8.07056
by	-8.07164
▁området	-8.07244
co	-8.07397
▁deres	-8.07853
ce	-8.07904
▁ri	-8.08781
ker	-8.09142
▁kun	-8.0934
ha	-8.09488
▁helt	-8.09559
▁do	-8.09567
▁begynte	-8.09666
▁mi	-8.09933
nd	-8.10309
od	-8.10404
je	-8.10531
mer	-8.10575
▁far	-8.10615
rett	-8.10667
opp	-8.10809
▁utgitt	-8.11054
▁gi	-8.11074
▁juni	-8.11148
▁september	-8.11188
gang	-8.11235
▁bruk	-8.11515
▁satt	-8.11711
▁vanlig	-8.11764
▁oktober	-8.12028
ag	-8.12133
ling	-8.12157
op	-8.12286
▁samt	-8.12342
▁april	-8.12662
▁hos	-8.12873
go	-8.12949
▁w	-8.12988
▁no	-8.13524
▁e	-8.13578
▁mor	-8.13657
▁tillegg	-8.13844
▁europa	-8.13946
▁2010	-8.13951
▁tiden	-8.14336
am	-8.14432
▁pro	-8.14547
mi	-8.14592
au	-8.15675
ard	-8.15978
▁like	-8.16053
ku	-8.16633
▁fem	-8.1665
▁døde	-8.16687
▁fa	-8.17181
▁spilte	-8.17262
▁alt	-8.17581
mm	-8.17869
▁nær	-8.18097
▁mindre	-8.18343
av	-8.19008
ningen	-8.19023
tter	-8.19179
im	-8.1959
bu	-8.19807
tal	-8.19963
▁brukt	-8.2027
ok	-8.20468
▁tro	-8.20772
ho	-8.21201
▁as	-8.21315
▁gjorde	-8.21371
▁året	-8.21459
▁februar	-8.21527
▁bu	-8.2164
▁na	-8.21824
▁eks	-8.21937
▁imidlertid	-8.22459
ir	-8.2262
▁plass	-8.22717
▁2006	-8.22721
▁me	-8.23092
▁0	-8.23109
vik	-8.23127
▁go	-8.23139
▁mye	-8.23709
▁30	-8.23902
▁ne	-8.23941
▁uten	-8.24114
▁bar	-8.24313
▁ko	-8.24338
▁større	-8.24594
▁mar	-8.24743
▁leder	-8.24839
ko	-8.24886
tur	-8.24992
▁eksempel	-8.25065
ni	-8.2514
▁tyskland	-8.25396
over	-8.25418
▁november	-8.25547
ed	-8.25613
▁spiller	-8.25623
ring	-8.26134
▁barn	-8.26422
▁film	-8.26469
▁form	-8.27033
▁skole	-8.27179
▁2009	-8.27261
▁tyske	-8.27461
▁gu	-8.27478
▁tatt	-8.2753
▁startet	-8.27551
▁2005	-8.2775
▁kong	-8.27938
sjon	-8.27978
▁politisk	-8.27997
▁el	-8.28266
▁so	-8.28399
tor	-8.28597
▁sønn	-8.28683
▁videre	-8.28753
▁sommer	-8.28868
▁ville	-8.2901
ingen	-8.29126
år	-8.29218
▁su	-8.29232
æ	-8.29257
ær	-8.29422
▁bygget	-8.29602
tid	-8.29742
▁bi	-8.29853
do	-8.29906
▁kina	-8.29922
▁olympisk	-8.30118
▁sverige	-8.30239
▁filmen	-8.30296
▁hennes	-8.30311
men	-8.30356
▁ru	-8.30479
▁ingen	-8.30484
▁and	-8.30578
▁ulike	-8.30589
▁beste	-8.30758
▁pe	-8.30853
si	-8.30871
▁y	-8.31117
ering	-8.31415
▁tv	-8.31952
ina	-8.32197
ord	-8.32777
▁gamle	-8.328
▁medlem	-8.33089
▁new	-8.33435
lu	-8.33599
del	-8.33635
▁deretter	-8.34124
▁sett	-8.34515
▁vann	-8.34556
asjon	-8.34595
▁høy	-8.3466
sh	-8.34718
▁svært	-8.34899
▁musikk	-8.34951
▁par	-8.35352
▁kort	-8.35445
▁or	-8.35776
vin	-8.35798
▁mat	-8.35873
▁hu	-8.36069
sta	-8.36096
▁x	-8.36156
▁brukes	-8.36239
▁kunst	-8.36484
▁ski	-8.36802
ings	-8.36932
ca	-8.37052
ant	-8.37371
bar	-8.37469
▁ganger	-8.37706
ol	-8.37759
▁små	-8.37876
▁sol	-8.37986
▁bestå	-8.38273
▁innen	-8.38386
▁må	-8.38528
▁særlig	-8.38705
lin	-8.38763
3	-8.3912
▁2004	-8.39237
▁derfor	-8.39311
inn	-8.39375
▁ka	-8.39391
▁verdenskrig	-8.39526
pa	-8.39528
▁innbyggere	-8.39783
▁fast	-8.39891
▁2011	-8.40347
ikk	-8.40488
ö	-8.4088
▁ei	-8.40951
▁lå	-8.41005
sel	-8.41408
▁lever	-8.41644
▁england	-8.41759
▁arbeidet	-8.41783
▁språk	-8.41823
ier	-8.41976
▁tor	-8.42222
▁kommer	-8.42527
▁skrevet	-8.42591
▁etablert	-8.42604
▁måtte	-8.42608
pi	-8.43417
kj	-8.43672
▁annen	-8.43676
▁gjen	-8.43677
rmed	-8.43753
▁begge	-8.43802
ov	-8.43848
▁egen	-8.44058
▁løpet	-8.44083
▁sted	-8.44247
dan	-8.44287
▁amerikansk	-8.44441
▁øy	-8.44585
▁am	-8.44687
▁ju	-8.44762
▁lov	-8.44785
▁em	-8.45269
form	-8.45568
po	-8.45634
▁perioden	-8.45662
▁parti	-8.4585
siden	-8.4587
ie	-8.45886
▁all	-8.45917
no	-8.46125
min	-8.46172
á	-8.46252
▁25	-8.4628
▁tra	-8.46326
gg	-8.46337
▁frankrike	-8.46397
io	-8.46403
▁ak	-8.46425
ny	-8.46468
lag	-8.46747
▁jo	-8.46757
følge	-8.4684
▁skrev	-8.46884
▁lu	-8.46952
▁albumet	-8.47042
▁san	-8.47343
▁gitt	-8.47431
itt	-8.47557
2	-8.47686
▁gammel	-8.47897
tak	-8.47976
▁r	-8.47987
▁russisk	-8.48203
▁bandet	-8.4831
▁sch	-8.48361
lse	-8.48495
▁fleste	-8.4896
itet	-8.49081
▁london	-8.49105
▁fotball	-8.49387
ud	-8.49449
▁langs	-8.49648
▁spilt	-8.49659
ken	-8.4977
stand	-8.50092
lær	-8.50106
▁samtidig	-8.5035
▁deler	-8.50431
▁bra	-8.50573
slag	-8.50838
tan	-8.5098
▁folke	-8.50992
▁kultur	-8.51356
▁hi	-8.51529
▁gud	-8.51681
▁pa	-8.52081
▁ab	-8.52114
▁lys	-8.52127
▁president	-8.5233
▁støtte	-8.52416
dd	-8.52488
▁nytt	-8.52768
bi	-8.52969
▁klubben	-8.53254
▁2001	-8.53485
▁ja	-8.53619
tiv	-8.5364
ighet	-8.53666
▁seks	-8.53821
▁amerikanske	-8.54106
ister	-8.54228
▁hus	-8.54262
▁nasjonal	-8.54266
hu	-8.54495
ber	-8.54747
▁verdens	-8.55394
elle	-8.5542
gu	-8.55462
1	-8.5548
hold	-8.5559
▁ser	-8.56092
ow	-8.56157
▁norges	-8.56286
per	-8.56308
▁slutten	-8.56394
▁sjø	-8.56422
▁tysk	-8.56591
ius	-8.56731
▁dagen	-8.56806
▁vm	-8.56879
▁ført	-8.57049
▁te	-8.57367
▁engelsk	-8.57514
▁nest	-8.57699
satt	-8.5771
inger	-8.57778
▁god	-8.57835
▁gull	-8.57837
▁fl	-8.57901
▁tredje	-8.57997
nk	-8.58129
▁liv	-8.58362
ninger	-8.59107
▁person	-8.59132
ede	-8.59177
verk	-8.59204
▁21	-8.59284
▁2002	-8.59399
▁vei	-8.5962
▁2000	-8.59746
▁antall	-8.59768
ou	-8.59862
ron	-8.60139
dag	-8.60177
▁britiske	-8.60426
ik	-8.60527
▁stein	-8.60755
ige	-8.60759
ran	-8.60768
uten	-8.60818
ks	-8.61208
▁gresk	-8.6131
▁grad	-8.6143
▁gift	-8.61478
ft	-8.6158
▁krigen	-8.61602
▁fi	-8.61693
let	-8.61833
▁fred	-8.61893
▁familien	-8.62087
▁john	-8.62099
▁sendt	-8.62145
▁eneste	-8.62267
▁2003	-8.62494
▁ord	-8.6252
▁vel	-8.62546
▁stedet	-8.62757
kel	-8.62784
▁provinsen	-8.62839
▁pre	-8.62944
▁millioner	-8.63023
▁slutt	-8.63053
▁fjell	-8.63269
▁øya	-8.63286
bruk	-8.63297
tre	-8.63407
▁kommunen	-8.63508
▁sam	-8.63565
art	-8.63572
▁gruppen	-8.63613
▁tri	-8.63649
les	-8.63844
▁ge	-8.63874
▁bergen	-8.63879
▁danmark	-8.63887
red	-8.63936
▁gir	-8.64065
em	-8.64159
▁fortsatt	-8.64225
med	-8.64355
tok	-8.64533
▁delen	-8.64585
tiske	-8.64685
ble	-8.64715
▁sesongen	-8.64833
▁viktig	-8.64843
▁mann	-8.65022
sten	-8.65036
▁sv	-8.65073
løp	-8.6514
fa	-8.65155
ä	-8.65278
vo	-8.65477
▁godt	-8.65558
▁bok	-8.65614
ly	-8.65643
▁bas	-8.6565
í	-8.65672
▁historie	-8.65703
▁sto	-8.65765
▁konge	-8.65866
mmer	-8.65969
▁pu	-8.66076
▁ty	-8.6613
▁verden	-8.66225
ham	-8.66719
▁meg	-8.66828
▁selskapet	-8.67124
len	-8.6721
▁vinter	-8.67549
dig	-8.67799
lot	-8.6809
▁my	-8.68381
isme	-8.68516
▁side	-8.68605
rø	-8.68621
ian	-8.69077
▁opprettet	-8.69344
▁1980	-8.69348
▁forskjellige	-8.69389
6	-8.69516
▁gruppe	-8.70128
kan	-8.70151
▁serien	-8.70235
hus	-8.70247
▁langt	-8.70265
▁allerede	-8.70474
ren	-8.70518
▁mulig	-8.70602
▁delstaten	-8.70632
mor	-8.70702
skje	-8.7071
▁tidlig	-8.71103
ologi	-8.71123
wa	-8.7118
met	-8.71182
ak	-8.71218
he	-8.71308
▁22	-8.71501
▁bil	-8.71532
så	-8.71864
▁storbritannia	-8.71994
▁stat	-8.72004
tra	-8.72055
▁kjente	-8.72221
▁stort	-8.72267
▁forbindelse	-8.72318
ium	-8.72363
elsen	-8.72376
▁utviklet	-8.72437
tisk	-8.72494
▁forfatter	-8.72561
▁bro	-8.72567
▁innenfor	-8.7285
▁flyttet	-8.72913
▁sal	-8.72952
▁50	-8.73044
▁23	-8.73139
▁hen	-8.73259
ot	-8.73366
tiden	-8.73565
▁kamp	-8.7376
fe	-8.73792
kor	-8.73904
▁ver	-8.73913
▁syn	-8.74055
▁hatt	-8.7412
gh	-8.74201
and	-8.74224
▁kn	-8.74228
▁styre	-8.7448
▁hjem	-8.74577
▁spille	-8.74616
▁100	-8.74628
mar	-8.74731
▁sand	-8.74773
▁rolle	-8.74837
▁ch	-8.75061
▁nok	-8.75065
▁mennesker	-8.75121
dre	-8.7517
▁lite	-8.7517
▁pla	-8.75183
▁basert	-8.75442
▁19	-8.75464
▁midt	-8.75725
▁forhold	-8.75741
elig	-8.75799
tu	-8.75948
▁prest	-8.76141
▁opprinnelig	-8.76184
▁24	-8.76269
ty	-8.76475
▁liten	-8.76678
▁fordi	-8.76835
▁nor	-8.76844
iv	-8.77073
sch	-8.77137
▁car	-8.77202
▁familie	-8.77344
▁art	-8.77421
▁én	-8.77545
▁ki	-8.7781
▁ledet	-8.77831
▁kalles	-8.77925
▁wa	-8.78026
▁halv	-8.78648
za	-8.78681
▁gjøre	-8.78818
▁ben	-8.78965
dalen	-8.79003
▁1990	-8.7916
kon	-8.79311
far	-8.79529
▁fo	-8.79647
lev	-8.79905
▁gjort	-8.79934
bb	-8.79945
▁skolen	-8.8
▁roman	-8.80019
ong	-8.80127
▁paris	-8.80133
▁holdt	-8.80433
gel	-8.805
hi	-8.80544
▁fant	-8.80678
▁kongen	-8.81129
▁kirken	-8.81149
▁omkring	-8.81238
▁con	-8.81269
ci	-8.81368
værende	-8.81521
du	-8.81705
▁radio	-8.81832
▁tar	-8.81932
▁min	-8.81948
▁valg	-8.82001
ü	-8.82082
▁universitetet	-8.82217
▁viser	-8.82301
fi	-8.82435
▁spesielt	-8.82508
stein	-8.82581
▁grav	-8.82729
▁slag	-8.82952
▁dikt	-8.83001
▁sentral	-8.8326
▁klart	-8.8328
sj	-8.83586
▁ett	-8.83671
sti	-8.83808
▁farge	-8.8382
ald	-8.84066
▁franske	-8.84142
▁betydning	-8.84229
▁lokal	-8.84399
▁svensk	-8.84536
vei	-8.84566
▁tekst	-8.84631
▁fransk	-8.84785
▁28	-8.84807
▁red	-8.84901
▁general	-8.85099
dom	-8.85338
▁mag	-8.85359
▁val	-8.85429
▁italia	-8.85548
ation	-8.85575
forening	-8.85643
stre	-8.85646
mb	-8.85653
mål	-8.85723
ip	-8.8583
▁militær	-8.85943
▁1960	-8.85987
isere	-8.86029
ds	-8.86051
▁får	-8.8633
til	-8.86366
▁vise	-8.86565
▁internasjonale	-8.86581
▁rom	-8.86746
▁hva	-8.86866
▁økonomisk	-8.86956
▁fåt	-8.87052
▁litt	-8.87057
▁ed	-8.87142
▁står	-8.87186
ley	-8.87224
▁ad	-8.87246
sett	-8.87659
▁bygge	-8.87809
▁31	-8.87823
spiller	-8.87951
▁folk	-8.87972
▁gå	-8.8815
▁luft	-8.88243
kker	-8.88306
▁fag	-8.88323
ød	-8.88348
▁1970	-8.88672
▁bl	-8.88804
▁minst	-8.89188
▁aktiv	-8.89227
▁utenfor	-8.89238
▁kinesisk	-8.89331
skole	-8.89353
▁26	-8.89415
ld	-8.8956
mon	-8.89706
▁bre	-8.89747
und	-8.89752
▁sosial	-8.89839
▁valgt	-8.89884
▁elven	-8.90016
▁historisk	-8.90075
▁afrika	-8.90185
▁fall	-8.90336
øya	-8.90418
▁datter	-8.90427
▁fortsatte	-8.90539
▁gul	-8.90542
▁sy	-8.90621
mark	-8.9069
▁verk	-8.90694
▁lange	-8.90781
▁henne	-8.9079
▁skog	-8.90803
▁felles	-8.9082
▁jeg	-8.90916
▁bred	-8.913
▁enkelte	-8.91784
ru	-8.91799
plass	-8.91811
▁gjerne	-8.91892
▁1998	-8.91895
▁india	-8.92021
▁funnet	-8.92111
▁egne	-8.92163
føre	-8.92319
▁åpnet	-8.92614
▁neste	-8.92743
▁fu	-8.92767
▁befolkningen	-8.92772
▁russland	-8.92833
▁full	-8.92904
anske	-8.92908
borg	-8.92956
▁hjelp	-8.9319
▁forsøk	-8.93267
lands	-8.9332
▁svenske	-8.93457
▁partiet	-8.93466
▁ø	-8.93478
ó	-8.9348
▁je	-8.93511
▁mark	-8.93556
stilling	-8.93786
▁1999	-8.93787
▁innehold	-8.93788
▁bor	-8.93915
▁arbeider	-8.94012
▁minne	-8.94015
up	-8.94174
ting	-8.94291
▁moderne	-8.94413
▁vo	-8.94603
▁sangen	-8.94726
▁følge	-8.94743
▁eu	-8.94866
▁lands	-8.95252
▁divisjon	-8.95327
▁utnevnt	-8.95347
▁mil	-8.9535
▁kvinne	-8.95634
▁ku	-8.95647
▁organ	-8.95654
elt	-8.95823
▁natur	-8.9618
ska	-8.96199
▁brasil	-8.96201
▁1994	-8.96202
▁1992	-8.96205
leg	-8.96209
spill	-8.96261
▁berg	-8.96554
▁york	-8.96688
▁knytte	-8.96688
▁topp	-8.96709
▁personer	-8.96739
▁pave	-8.96766
ret	-8.96795
▁bruker	-8.96822
▁bru	-8.96834
▁sl	-8.96956
▁park	-8.97149
▁foran	-8.97179
▁aldri	-8.97203
rom	-8.97206
▁romersk	-8.97206
▁ettersom	-8.97464
øl	-8.97789
ek	-8.97826
pr	-8.97968
▁kor	-8.97977
ine	-8.98043
▁stil	-8.98051
▁fiske	-8.98074
▁hy	-8.98171
▁2012	-8.98185
▁plan	-8.98213
▁dr	-8.98604
▁1996	-8.98678
▁hevde	-8.98681
▁stats	-8.98822
▁menn	-8.99014
nske	-8.99143
mat	-8.99211
▁enkelt	-8.99334
▁rød	-8.99335
▁ber	-8.99373
▁regjeringen	-8.99391
stil	-8.99642
▁viktigste	-8.99753
▁paul	-8.99798
iker	-8.99984
heim	-9.00019
▁cha	-9.00076
bygning	-9.00128
▁amerika	-9.00174
▁karl	-9.00193
anger	-9.00235
fly	-9.00319
▁tegn	-9.00344
▁reise	-9.00359
▁krigs	-9.00401
▁arbeids	-9.00485
sto	-9.00625
▁kar	-9.00661
est	-9.00719
▁dannet	-9.00745
ju	-9.00823
▁tu	-9.00851
▁motor	-9.00862
laget	-9.0087
ater	-9.00873
▁bort	-9.00922
føring	-9.00934
▁slekt	-9.00968
▁kv	-9.01022
▁resultat	-9.01155
▁lik	-9.01168
▁ferdig	-9.0118
▁bri	-9.01191
▁va	-9.01198
▁betydelig	-9.01211
▁gjør	-9.01217
og	-9.01327
▁staten	-9.01361
▁fremst	-9.01404
▁au	-9.01469
kamp	-9.0148
▁skip	-9.01588
▁hel	-9.01649
vær	-9.0165
▁sanger	-9.01728
▁gl	-9.01805
▁kur	-9.01959
ki	-9.0212
▁omtrent	-9.02245
▁begynnelsen	-9.02247
▁såkalt	-9.0225
fjord	-9.02351
ica	-9.02353
▁von	-9.02367
▁keiser	-9.0239
▁interesse	-9.02396
vet	-9.02456
▁serie	-9.02511
bygg	-9.0252
kal	-9.02556
▁delt	-9.02615
▁nummer	-9.02648
▁gav	-9.02725
▁mis	-9.02731
▁1988	-9.0277
her	-9.02821
▁medlemmer	-9.02833
▁band	-9.0288
▁klar	-9.02907
yn	-9.02963
ill	-9.03099
▁havn	-9.03223
bok	-9.03366
ator	-9.0342
▁anti	-9.0372
leder	-9.03806
▁ras	-9.03878
20	-9.0392
▁liste	-9.03965
▁hjemme	-9.04001
▁pan	-9.04129
▁veien	-9.04141
bre	-9.0434
▁italiensk	-9.04344
▁eldre	-9.0438
▁via	-9.04498
▁likevel	-9.04544
som	-9.04608
▁sen	-9.04685
▁hav	-9.04689
▁27	-9.0481
par	-9.04841
▁eldste	-9.04876
▁1991	-9.04881
▁hovedsakelig	-9.04885
▁bygd	-9.04997
ris	-9.05194
▁produksjon	-9.05229
▁makt	-9.05301
heten	-9.05335
▁direkte	-9.05411
gan	-9.05562
▁venstre	-9.05961
▁lagt	-9.05968
tar	-9.06052
▁følgende	-9.06162
▁40	-9.0617
▁rock	-9.06175
ys	-9.06265
van	-9.06315
▁universitet	-9.06443
▁representert	-9.06489
rik	-9.06531
▁åtte	-9.06546
▁skuespiller	-9.06597
styre	-9.06603
isert	-9.06785
▁1997	-9.07041
▁teater	-9.07059
▁best	-9.07077
▁van	-9.07094
▁kvinner	-9.07111
bel	-9.07118
isering	-9.07198
ksjon	-9.07352
▁høyre	-9.07417
istiske	-9.07459
▁nett	-9.07528
▁tak	-9.0768
kast	-9.0798
ah	-9.07985
▁arbeid	-9.08102
▁steder	-9.08107
▁slått	-9.08142
lene	-9.08199
old	-9.08199
▁kal	-9.08291
▁utgjør	-9.083
▁handels	-9.0842
▁hal	-9.08458
▁spe	-9.08532
▁1995	-9.08688
▁måte	-9.0869
burg	-9.08732
▁industri	-9.08805
val	-9.08824
▁bedre	-9.08834
stående	-9.08939
▁meste	-9.09015
▁benytte	-9.09074
▁sølv	-9.09236
figur	-9.09305
dy	-9.09334
▁arter	-9.09389
▁tittelen	-9.095
▁drept	-9.09795
▁tur	-9.0981
bro	-9.09878
▁orden	-9.09925
▁ur	-9.10039
▁eg	-9.10302
sson	-9.10321
а	-9.10352
▁university	-9.10359
▁1989	-9.10364
su	-9.10391
uk	-9.10446
▁29	-9.10604
▁vin	-9.10777
▁gra	-9.10792
▁mu	-9.10862
▁bror	-9.10911
▁spor	-9.10916
▁århundre	-9.10922
▁poeng	-9.10935
▁krig	-9.10943
▁barne	-9.10955
ære	-9.1099
asje	-9.10997
▁holde	-9.11075
▁jord	-9.11126
00	-9.11195
▁kraft	-9.11348
▁wi	-9.11468
▁kilometer	-9.1149
▁slaget	-9.11588
▁tross	-9.11622
▁jernbane	-9.11642
▁japan	-9.11876
vil	-9.1206
råd	-9.12069
▁th	-9.12138
iet	-9.1214
nntil	-9.12165
▁våpen	-9.1217
▁dro	-9.12198
▁dom	-9.12505
kar	-9.12569
olog	-9.12573
▁lav	-9.12601
▁pr	-9.12654
▁henrik	-9.12655
jo	-9.12712
akt	-9.12893
▁tap	-9.12965
▁riks	-9.13011
▁dra	-9.13016
han	-9.13249
▁betyr	-9.133
lis	-9.13356
film	-9.13695
ide	-9.13725
▁samarbeid	-9.13746
ros	-9.13871
▁benyttet	-9.1397
▁engelske	-9.14142
▁skrive	-9.14178
▁200	-9.14301
▁bestemt	-9.14451
▁produsert	-9.14505
▁regnes	-9.14539
ino	-9.14787
▁vanskelig	-9.14968
▁inkludert	-9.14969
▁hverandre	-9.14969
▁tildelt	-9.15022
ford	-9.15025
▁pris	-9.15029
sund	-9.15055
▁start	-9.15072
▁sang	-9.1508
vann	-9.15144
▁berlin	-9.15223
skip	-9.15235
▁finner	-9.15359
system	-9.15362
▁ren	-9.15369
▁angrep	-9.15389
30	-9.15531
tz	-9.15622
▁1800	-9.15674
▁indre	-9.15686
▁finne	-9.157
▁danne	-9.15733
▁møte	-9.15845
▁on	-9.15851
▁fin	-9.15917
▁rø	-9.15931
dyr	-9.16008
che	-9.16013
ung	-9.16025
samling	-9.16101
▁fylke	-9.16106
▁flo	-9.16106
festival	-9.16156
▁1920	-9.16174
▁dager	-9.16212
▁opera	-9.16253
▁skje	-9.16263
▁z	-9.16322
▁hvis	-9.16446
▁høyere	-9.1646
bygd	-9.16557
▁grunnlagt	-9.16699
lsen	-9.16706
under	-9.16718
ial	-9.16746
ale	-9.16765
lan	-9.16897
▁studie	-9.16969
▁periode	-9.17003
▁kamper	-9.17135
ket	-9.17163
vel	-9.17201
▁trondheim	-9.17359
▁møtte	-9.1736
fall	-9.17436
ving	-9.17498
stasjon	-9.17552
rus	-9.17558
▁hol	-9.17632
tel	-9.17831
gar	-9.17913
▁hertug	-9.17964
▁1993	-9.17968
▁finalen	-9.17989
▁we	-9.18068
▁sentrum	-9.18159
sak	-9.18298
▁album	-9.18333
▁alder	-9.18334
lem	-9.18433
▁gro	-9.18544
▁1972	-9.1858
▁politiker	-9.186
▁les	-9.1866
▁ind	-9.18684
▁resten	-9.18694
▁cla	-9.1874
▁col	-9.18745
▁legge	-9.18753
▁slo	-9.18781
ille	-9.18801
▁fre	-9.18808
▁peter	-9.18878
▁sek	-9.18975
▁stilling	-9.19019
gitt	-9.19048
▁christian	-9.19112
▁høyeste	-9.19187
▁com	-9.19326
▁kroppen	-9.19353
liggende	-9.19466
▁tjeneste	-9.19501
tin	-9.19584
▁bank	-9.1965
▁stockholm	-9.19803
▁prosent	-9.19819
zi	-9.19841
▁hø	-9.1989
▁roma	-9.1993
▁samling	-9.19941
▁sta	-9.20021
▁bill	-9.2004
▁jan	-9.20282
▁ag	-9.20381
folk	-9.20424
▁biskop	-9.20425
▁europeisk	-9.20459
▁personlig	-9.20463
▁helse	-9.2054
ita	-9.20614
▁viste	-9.20638
ark	-9.20685
▁dis	-9.20706
▁litteratur	-9.2071
▁elva	-9.20789
ika	-9.20808
ismen	-9.20844
ph	-9.2088
▁system	-9.21046
▁william	-9.2105
▁1987	-9.21057
ya	-9.21208
▁bry	-9.21239
inne	-9.2129
ding	-9.21308
▁jobbe	-9.21323
▁bilde	-9.21359
▁danske	-9.21403
▁leker	-9.21493
▁lyd	-9.2152
и	-9.21679
▁1986	-9.21686
▁områder	-9.2174
ab	-9.21772
▁britisk	-9.21776
▁menneske	-9.21879
40	-9.22025
reg	-9.22033
▁op	-9.22052
dde	-9.22059
veien	-9.22125
▁post	-9.22149
▁fange	-9.22174
▁gen	-9.22187
▁ste	-9.22212
løs	-9.22317
stu	-9.22443
stilt	-9.22484
▁tal	-9.22916
▁ska	-9.22936
▁2014	-9.22965
▁kat	-9.23021
▁dansk	-9.23066
▁lett	-9.23132
▁mus	-9.23136
▁lokale	-9.23204
▁råd	-9.23234
▁arm	-9.23268
log	-9.2327
▁kul	-9.23287
▁fer	-9.23288
▁kol	-9.23354
▁grensen	-9.23477
▁bjørn	-9.23507
▁suksess	-9.23589
▁opprør	-9.236
▁1940	-9.23605
▁1900	-9.23607
▁vestlig	-9.23626
mal	-9.23719
▁livet	-9.23784
▁vekt	-9.23797
landet	-9.23917
▁verdi	-9.23962
ski	-9.24216
▁2013	-9.24244
▁kjøpt	-9.24271
▁sh	-9.2429
gård	-9.24296
▁60	-9.24354
▁kraftig	-9.24546
▁katolske	-9.24584
enes	-9.24695
▁mur	-9.24746
▁stre	-9.24788
50	-9.24798
▁kl	-9.24857
if	-9.24904
istisk	-9.25017
▁christ	-9.25021
▁utvikling	-9.25072
▁epi	-9.25168
idae	-9.25244
søk	-9.25522
departementet	-9.25537
▁1984	-9.25545
▁lille	-9.25582
▁professor	-9.25626
▁test	-9.25636
full	-9.257
▁regionen	-9.25759
fjorden	-9.26122
gjør	-9.26153
▁sterkt	-9.26167
▁1950	-9.26211
▁sørøst	-9.26222
▁plante	-9.26284
▁nordlig	-9.26293
▁kron	-9.26318
▁blad	-9.26456
▁west	-9.26576
▁sak	-9.26796
▁1968	-9.26867
▁2015	-9.26874
▁endte	-9.26928
ach	-9.26967
legg	-9.27128
▁mon	-9.27168
▁linje	-9.27248
menn	-9.27263
skapet	-9.27607
ich	-9.27743
ps	-9.27798
66	-9.27849
▁tilhører	-9.27931
▁mont	-9.28035
▁miljø	-9.28056
▁1979	-9.28202
pen	-9.28255
▁ordet	-9.28261
▁samle	-9.28324
▁lenger	-9.28436
▁sky	-9.28532
▁hard	-9.28564
▁omfatter	-9.28602
▁ring	-9.28604
▁ry	-9.28713
eget	-9.2881
▁hvit	-9.28843
▁sannsynlig	-9.28871
▁nordvest	-9.28877
▁nordøst	-9.28912
▁500	-9.29082
lik	-9.29082
▁gate	-9.29123
▁eid	-9.29171
▁kontroll	-9.29178
mester	-9.29197
oc	-9.29364
▁bøker	-9.29422
pu	-9.29474
▁sogn	-9.29572
ight	-9.29681
ana	-9.29683
tjeneste	-9.29683
▁mester	-9.29692
▁dess	-9.29692
8	-9.29734
q	-9.29799
▁lære	-9.29838
▁q	-9.29877
▁viss	-9.29957
bane	-9.30106
▁bal	-9.30147
▁port	-9.30196
▁br	-9.30223
▁sig	-9.30226
▁arrangert	-9.30236
lant	-9.30254
sjef	-9.30335
drag	-9.3036
▁ly	-9.30578
▁kje	-9.30656
▁styrke	-9.30714
▁lei	-9.30806
sjøen	-9.30902
▁kle	-9.30922
▁1945	-9.30934
▁område	-9.30951
▁krav	-9.30963
▁robert	-9.30978
▁seier	-9.31062
tatt	-9.31064
dømme	-9.31109
▁versjon	-9.31124
▁nrk	-9.31131
▁styrker	-9.31156
▁arkitekt	-9.31176
▁skipet	-9.31217
▁sesong	-9.31403
▁unge	-9.31526
▁komme	-9.31567
▁sovjetunionen	-9.3162
▁virke	-9.31627
▁1985	-9.31631
▁enten	-9.31711
merke	-9.31792
ini	-9.31806
ien	-9.31894
▁midten	-9.32017
▁lenge	-9.32163
bil	-9.32183
▁informasjon	-9.3232
▁don	-9.32339
▁stadig	-9.32391
▁brukte	-9.32517
▁ven	-9.3256
mun	-9.32718
▁natt	-9.32809
▁blå	-9.32809
▁sommeren	-9.32844
▁retning	-9.32925
▁sm	-9.32966
området	-9.3305
▁leve	-9.33069
▁brun	-9.33154
▁dyr	-9.33248
gge	-9.33437
▁høsten	-9.33482
pel	-9.33558
▁anders	-9.33679
▁hæren	-9.33732
▁1974	-9.33742
kler	-9.33794
▁para	-9.33805
▁marine	-9.3391
▁tradisjon	-9.33955
syn	-9.34129
navn	-9.3421
▁stjerne	-9.34223
don	-9.34254
▁moh	-9.34363
▁australia	-9.34447
▁dårlig	-9.34448
jer	-9.34505
▁høre	-9.34517
▁uttrykk	-9.34617
▁ter	-9.34661
▁forsvar	-9.34669
▁asia	-9.34806
ål	-9.34829
▁avdeling	-9.34953
▁stasjon	-9.34979
skog	-9.35006
nor	-9.3501
▁samlet	-9.3501
▁utdanne	-9.35012
side	-9.35013
tek	-9.35021
familien	-9.35035
▁stra	-9.35158
▁bronse	-9.35166
▁gre	-9.35249
▁bruke	-9.35306
▁island	-9.35495
▁carl	-9.35501
▁heller	-9.35517
▁bør	-9.35532
we	-9.3558
▁koloni	-9.35597
▁lærer	-9.35633
▁svarte	-9.3569
▁qu	-9.35847
▁gar	-9.35876
▁oppkalt	-9.35897
▁1982	-9.35901
▁fylkesvei	-9.35907
▁standard	-9.35916
▁drift	-9.35952
▁arten	-9.35978
fri	-9.36056
▁finland	-9.36071
▁skjer	-9.36212
▁gren	-9.36216
▁pat	-9.36522
tro	-9.36583
▁virksomhet	-9.3662
▁studert	-9.36623
jen	-9.36647
retning	-9.36674
▁fulgte	-9.36695
▁energi	-9.36701
▁olav	-9.36824
▁boken	-9.36836
gruppen	-9.3696
▁overtok	-9.37001
▁artene	-9.37095
tig	-9.37111
▁pal	-9.37308
▁fjorden	-9.37341
▁konflikt	-9.37357
▁religiøs	-9.37357
▁1976	-9.37367
▁1977	-9.37368
▁1948	-9.37371
▁vår	-9.37407
▁militære	-9.37418
▁grev	-9.37425
▁mc	-9.37537
▁slekten	-9.37569
▁nu	-9.37755
▁pl	-9.37764
bra	-9.37783
året	-9.37796
▁borger	-9.37808
tall	-9.37887
▁gode	-9.37933
jel	-9.37936
▁grupper	-9.37994
▁jon	-9.38061
▁1975	-9.38105
▁hånd	-9.38109
part	-9.3814
grunn	-9.38183
▁los	-9.38218
▁valgte	-9.38241
▁plassert	-9.38243
ført	-9.38266
område	-9.38282
▁japansk	-9.3834
▁klasse	-9.384
chi	-9.38408
loven	-9.38438
fra	-9.3853
tyr	-9.38583
all	-9.38665
▁regn	-9.38771
▁canada	-9.38849
▁ke	-9.38863
res	-9.389
▁syd	-9.38914
▁sammenheng	-9.38924
▁herre	-9.38948
▁karriere	-9.3896
▁sju	-9.38972
▁ve	-9.3906
regionen	-9.39074
arbeid	-9.392
▁cor	-9.39202
bert	-9.39252
▁trans	-9.39254
vern	-9.39265
krigen	-9.39347
dels	-9.39382
banen	-9.39472
tårn	-9.39482
▁fjerde	-9.39556
▁tilsvarende	-9.39596
bygging	-9.39607
65	-9.39737
plan	-9.39826
blad	-9.39847
▁års	-9.3988
▁irland	-9.39998
▁ledd	-9.40026
fal	-9.40081
fart	-9.40129
▁gård	-9.40137
9	-9.40192
punkt	-9.40257
▁kardinal	-9.40353
▁voksne	-9.40353
▁statsminister	-9.40364
▁areal	-9.40368
▁bakgrunn	-9.4039
▁kampen	-9.40393
▁union	-9.40475
▁hær	-9.40499
▁svart	-9.4055
ida	-9.40581
▁sørlige	-9.40699
▁vinge	-9.40859
▁mac	-9.40993
▁thomas	-9.41117
▁relativ	-9.41117
▁james	-9.4112
ib	-9.4112
▁1930	-9.41137
▁os	-9.41141
▁symbol	-9.4125
▁løs	-9.41332
▁rev	-9.41337
▁faren	-9.41618
▁bur	-9.41625
▁skape	-9.41704
▁tett	-9.41839
▁dronning	-9.41891
▁1983	-9.41896
▁grand	-9.41907
hy	-9.42065
▁enhet	-9.42073
▁båt	-9.42077
▁syv	-9.42091
▁tanke	-9.42163
heng	-9.42236
▁transport	-9.42238
▁finsk	-9.42271
▁sende	-9.4232
▁brann	-9.42411
ette	-9.42458
que	-9.42535
▁fremme	-9.42646
▁1952	-9.42661
▁1981	-9.42668
▁1967	-9.42676
▁bodd	-9.42677
elser	-9.42741
▁tom	-9.42758
▁oppgave	-9.42797
▁eier	-9.42825
▁george	-9.42898
▁erik	-9.42942
▁besøk	-9.43
▁skade	-9.43047
▁selskap	-9.43117
▁kra	-9.43223
messig	-9.43438
virkning	-9.43444
▁offentlig	-9.43476
▁blod	-9.43641
kraft	-9.43706
▁funksjon	-9.43761
ji	-9.43896
eller	-9.43941
▁400	-9.44037
bø	-9.4408
ssen	-9.44118
▁seil	-9.44148
▁felt	-9.44196
lia	-9.44267
▁hvite	-9.44269
▁løp	-9.44341
▁snar	-9.44366
ive	-9.44391
▁tusen	-9.44392
bin	-9.44395
▁sentrale	-9.44405
▁hopp	-9.44593
▁politi	-9.44632
renn	-9.44678
stø	-9.44683
▁oppdaget	-9.44756
▁ønsket	-9.44866
roll	-9.44884
▁ii	-9.44886
båt	-9.4499
▁spania	-9.45024
▁sikre	-9.45036
▁1963	-9.45036
▁fotballspiller	-9.4506
▁wh	-9.45071
▁af	-9.45137
▁david	-9.45194
asjoner	-9.45239
▁israel	-9.45243
fjell	-9.45454
port	-9.45497
▁punkt	-9.45565
▁ansvar	-9.45645
lla	-9.45661
▁erstattet	-9.45673
høy	-9.45684
ac	-9.45721
▁tapte	-9.45809
▁københavn	-9.45823
▁trøndelag	-9.45823
fører	-9.45841
▁johan	-9.45841
▁musiker	-9.45878
▁korte	-9.45933
musikk	-9.46005
handling	-9.46035
10	-9.46257
▁gal	-9.463
▁raskt	-9.46374
▁real	-9.46419
sky	-9.46518
р	-9.4663
▁kristne	-9.46631
▁finans	-9.46646
▁totalt	-9.46677
▁gran	-9.46695
▁bygningen	-9.46727
▁pop	-9.46736
▁tall	-9.46809
byen	-9.4682
▁gri	-9.46844
asjons	-9.46898
▁180	-9.46987
▁begrepet	-9.46988
nett	-9.47001
▁kla	-9.47065
▁plate	-9.47176
▁prege	-9.47193
▁delta	-9.47271
▁mengde	-9.47309
sis	-9.47324
▁retts	-9.47414
о	-9.47439
е	-9.47443
▁1971	-9.47448
rek	-9.4745
▁rike	-9.47472
▁regjering	-9.47611
▁forteller	-9.47739
nz	-9.47833
▁høyt	-9.47867
▁skapt	-9.47867
▁dyp	-9.48038
▁gutt	-9.48038
▁polen	-9.4804
▁90	-9.48054
▁historien	-9.48055
▁maria	-9.48055
▁daglig	-9.48163
▁høyde	-9.48232
▁gården	-9.48318
▁mal	-9.48474
bud	-9.48588
gården	-9.48632
▁lege	-9.4865
▁80	-9.4868
▁dia	-9.48719
▁endret	-9.48796
systemet	-9.48799
▁strøm	-9.48899
▁ball	-9.48989
▁eli	-9.49035
▁privat	-9.49045
▁journalist	-9.49091
▁1973	-9.49098
▁1978	-9.49098
▁henhold	-9.49131
▁cl	-9.49219
▁omfattende	-9.49249
asjonen	-9.49257
▁oppført	-9.49274
▁franc	-9.49286
▁sir	-9.49352
skolen	-9.49428
ritt	-9.4944
plat	-9.49471
styrke	-9.49547
67	-9.49632
▁lin	-9.49664
▁cup	-9.49738
ås	-9.49767
▁hest	-9.49855
▁åpen	-9.499
▁1936	-9.49922
▁vunnet	-9.49922
▁nærmest	-9.49924
▁sørvest	-9.49926
▁1958	-9.49932
▁vokste	-9.49936
▁ansatt	-9.49944
▁you	-9.49956
▁debutert	-9.49984
▁grense	-9.50021
of	-9.50032
▁data	-9.50198
▁chi	-9.50251
områder	-9.50259
▁gifte	-9.5032
▁modell	-9.5033
rike	-9.50356
▁forsker	-9.50422
48	-9.50455
▁bolig	-9.50475
▁ære	-9.50508
▁problem	-9.50683
▁skjedde	-9.50778
gangen	-9.50789
▁region	-9.50873
▁måneder	-9.50986
▁hall	-9.50991
▁rot	-9.50992
ledes	-9.51077
▁nivå	-9.51099
rum	-9.51111
mel	-9.51114
▁anlegget	-9.51124
▁ten	-9.51169
▁olje	-9.51198
▁gass	-9.51239
ap	-9.51281
▁karakter	-9.51378
hr	-9.51402
ano	-9.51461
▁fremdeles	-9.51636
▁solgt	-9.51644
▁utvikle	-9.51645
senter	-9.51687
▁fot	-9.51731
dagen	-9.51748
fisk	-9.51829
gruppe	-9.51857
stat	-9.51894
▁styrkene	-9.52037
itz	-9.52099
▁lars	-9.52118
▁byer	-9.52166
▁vis	-9.52258
spiss	-9.52298
▁hår	-9.52341
▁son	-9.52405
selskap	-9.52406
kant	-9.52554
▁merke	-9.52567
▁helg	-9.52574
▁ob	-9.52609
hl	-9.52822
▁materiale	-9.52845
▁kysten	-9.52995
▁ex	-9.52999
gift	-9.53011
▁turn	-9.53061
handler	-9.53105
abel	-9.53197
▁smal	-9.53282
▁regnet	-9.53311
▁1964	-9.53335
▁1966	-9.53347
▁city	-9.53381
sik	-9.53423
▁gru	-9.53439
▁reg	-9.53441
▁za	-9.53504
way	-9.53535
▁utført	-9.53566
▁grenser	-9.53596
▁motstand	-9.53612
trykk	-9.53629
▁syk	-9.53708
zo	-9.53709
▁utviklingen	-9.53753
5	-9.538
bia	-9.53891
lys	-9.53912
anlegg	-9.5399
▁super	-9.54009
▁rad	-9.54069
▁stammer	-9.54115
è	-9.54121
stra	-9.54147
bas	-9.5417
▁mm	-9.54176
▁motsetning	-9.54197
▁egentlig	-9.54244
▁størrelse	-9.54413
ub	-9.54458
▁spørsmål	-9.54495
▁sj	-9.54505
▁total	-9.54566
▁ul	-9.54642
skrift	-9.5467
ves	-9.54722
pris	-9.54786
▁jern	-9.54842
▁inter	-9.54849
ari	-9.5485
▁type	-9.54865
▁reiste	-9.54923
▁war	-9.54934
▁stø	-9.54964
▁gy	-9.55021
bor	-9.55042
▁følger	-9.55169
ban	-9.55224
sam	-9.5542
60	-9.55515
▁kilde	-9.55548
produksjon	-9.55553
middel	-9.55591
▁est	-9.55615
▁festning	-9.55643
vid	-9.55708
gående	-9.55738
▁300	-9.55767
▁prøve	-9.55859
▁konsert	-9.55911
løse	-9.55925
▁1969	-9.55958
▁1924	-9.55967
▁1956	-9.55973
stått	-9.56056
▁naturlig	-9.56098
pol	-9.56109
▁viktige	-9.56126
ther	-9.56282
▁røde	-9.56339
▁krets	-9.56348
▁passer	-9.56423
▁cm	-9.56564
▁cu	-9.56645
▁kunstner	-9.56651
▁wal	-9.56662
ix	-9.568
rsom	-9.56827
hall	-9.56847
▁etterhvert	-9.56851
xi	-9.56882
▁veg	-9.56996
▁stift	-9.57058
▁opprinnelige	-9.57129
ringer	-9.57143
▁sil	-9.57158
▁nådd	-9.57204
▁stand	-9.57309
sjonen	-9.57356
cc	-9.57599
▁nasjonale	-9.57629
minister	-9.57699
folkerepublikken	-9.57752
▁1957	-9.57766
mannen	-9.57864
hav	-9.57931
makt	-9.57972
▁flat	-9.58105
▁ordenen	-9.58106
▁trykk	-9.58176
▁student	-9.58189
▁beskrive	-9.58232
lser	-9.58267
▁liga	-9.58337
nivå	-9.58352
▁xi	-9.58564
▁utstyr	-9.58573
▁valget	-9.58583
▁can	-9.58603
▁35	-9.5865
▁ytterligere	-9.58661
▁1939	-9.58674
▁sommerfugl	-9.58679
▁ordfører	-9.58683
▁kjempe	-9.58731
▁skrift	-9.58745
saker	-9.58778
lagt	-9.58779
▁behandling	-9.58783
gna	-9.58971
sjoner	-9.5903
55	-9.59048
sikkerhet	-9.5905
▁kraftverk	-9.59122
▁teori	-9.59232
gle	-9.59275
rat	-9.59305
▁pass	-9.59311
kin	-9.59329
▁scene	-9.59419
▁trak	-9.59486
▁havet	-9.59513
▁1928	-9.59587
ão	-9.59587
▁1949	-9.59594
▁formann	-9.59604
▁variere	-9.59788
▁egypt	-9.59797
▁nevnt	-9.59825
trekk	-9.59879
▁hundre	-9.59886
▁70	-9.59915
49	-9.60023
iz	-9.60044
▁jorden	-9.60067
ville	-9.6009
▁forskning	-9.60112
▁sc	-9.60182
42	-9.60247
▁lek	-9.60315
▁mel	-9.60339
▁ac	-9.60353
▁kors	-9.60378
▁rus	-9.60511
▁konkurransen	-9.60542
ferd	-9.60627
▁soldater	-9.60695
▁gått	-9.60719
▁led	-9.6073
▁kaste	-9.60922
▁formel	-9.60929
▁lengde	-9.60989
▁avis	-9.61015
▁huset	-9.61084
musik	-9.61115
▁systemet	-9.61151
▁direktør	-9.61161
▁stiftet	-9.61247
gikk	-9.61261
fo	-9.61274
▁drama	-9.61375
rådet	-9.6143
▁østerrike	-9.6144
▁stortinget	-9.61443
▁kontakt	-9.61444
▁1965	-9.61459
▁unntak	-9.61459
▁straffe	-9.61467
▁avisen	-9.61538
▁iii	-9.61572
▁len	-9.61655
▁design	-9.61714
win	-9.61726
▁fil	-9.61731
▁sterke	-9.61784
iti	-9.61828
▁femte	-9.61829
▁posisjon	-9.61846
▁air	-9.61958
oli	-9.61988
▁sterk	-9.62155
fest	-9.62176
ons	-9.62203
fin	-9.62238
▁vold	-9.62294
▁harald	-9.62368
▁styrt	-9.62393
▁2016	-9.62401
▁søster	-9.62413
▁gjennomført	-9.6247
▁jarl	-9.62511
▁athen	-9.62576
▁innført	-9.62583
øtt	-9.62611
fer	-9.62613
▁tele	-9.62623
klar	-9.62663
▁befolkning	-9.62687
fag	-9.62687
liv	-9.6273
felt	-9.62815
våg	-9.62841
▁dy	-9.62879
kos	-9.63055
▁sovjetisk	-9.63184
havet	-9.63207
▁uavhengig	-9.63242
tegn	-9.63301
levende	-9.63322
70	-9.63341
▁stavanger	-9.63344
▁kjenn	-9.63377
▁kart	-9.63525
ey	-9.63729
ze	-9.63808
▁handling	-9.63901
grad	-9.63917
▁nederland	-9.6396
vesen	-9.63985
har	-9.63999
rene	-9.64066
▁maskin	-9.64077
nyin	-9.64095
▁politikk	-9.643
▁1955	-9.64313
▁2017	-9.64315
▁mistet	-9.64337
ula	-9.64368
▁revolusjon	-9.64385
▁undersøkelse	-9.64444
▁strid	-9.64448
gy	-9.64478
▁stemme	-9.6465
▁ji	-9.64668
▁redaktør	-9.6469
▁hodet	-9.64722
56	-9.64746
valg	-9.64785
klubb	-9.64786
aks	-9.64831
▁plassering	-9.64892
dra	-9.64893
▁munn	-9.6492
▁museum	-9.64955
på	-9.64997
kunst	-9.65005
▁distriktet	-9.65012
▁opphav	-9.65098
▁lind	-9.651
huset	-9.65252
cia	-9.65261
▁fører	-9.65263
▁california	-9.65267
▁mexico	-9.65267
▁profesjonell	-9.65267
▁bevart	-9.65291
ction	-9.65452
▁regel	-9.65481
▁hoff	-9.65513
▁utdanning	-9.6554
▁pol	-9.65573
▁offentlige	-9.65614
▁nederlandsk	-9.65618
▁distrikt	-9.65625
▁stilt	-9.65717
▁hei	-9.65768
97	-9.65887
▁livs	-9.65898
▁problemer	-9.65898
▁ramme	-9.6598
tive	-9.66024
▁frank	-9.66164
▁sveits	-9.66186
▁latin	-9.662
▁teknisk	-9.66248
▁folketelling	-9.66248
63	-9.66308
▁us	-9.6636
▁jakt	-9.66455
stedet	-9.66513
verdi	-9.66544
▁vist	-9.66555
▁beskrevet	-9.66605
las	-9.66806
34	-9.66827
▁grunnlag	-9.66938
▁falt	-9.66965
eres	-9.67034
44	-9.67222
▁opprinnelse	-9.67238
▁publisert	-9.67238
▁kunnskap	-9.67239
▁bygde	-9.67241
rud	-9.67301
▁phil	-9.67322
lang	-9.67356
▁grå	-9.67487
▁bj	-9.67527
▁trolig	-9.67543
▁offiser	-9.67544
▁bern	-9.67604
▁mod	-9.67634
▁imp	-9.67761
▁spill	-9.67813
▁ok	-9.6811
▁ci	-9.68139
▁spesial	-9.6814
▁regi	-9.68183
▁beijing	-9.68238
▁spesiell	-9.68238
▁richard	-9.68238
▁hjerte	-9.68239
bilde	-9.68249
▁derimo	-9.68249
▁stykke	-9.68272
▁fyr	-9.68283
▁nærheten	-9.68294
▁time	-9.6831
▁prosjekt	-9.68315
▁martin	-9.68338
▁heter	-9.68365
▁ung	-9.68375
bus	-9.68434
▁nabo	-9.68448
▁uni	-9.68544
▁vas	-9.68562
▁not	-9.68562
▁østlig	-9.68599
▁folket	-9.68628
holm	-9.68679
park	-9.68723
▁studenter	-9.68761
midler	-9.68787
▁klubb	-9.68957
▁georg	-9.68958
gra	-9.69014
▁sette	-9.69053
▁runde	-9.69085
▁ting	-9.69139
▁unn	-9.69189
følgende	-9.69221
▁klassisk	-9.69249
▁snakke	-9.69257
▁lansert	-9.69262
▁mørke	-9.6931
▁gje	-9.69418
▁johannes	-9.69424
dor	-9.69492
dene	-9.69548
▁elektrisk	-9.69603
85	-9.69608
▁rollen	-9.69688
▁årlig	-9.69728
▁kinesiske	-9.69793
▁die	-9.69815
▁populær	-9.6987
▁endring	-9.69906
▁krysse	-9.6994
stro	-9.69971
▁uke	-9.69989
språk	-9.70009
lie	-9.701
▁beskytte	-9.70152
▁bel	-9.70229
▁fengsel	-9.70268
▁friidrett	-9.70268
▁nødvendig	-9.70268
▁charles	-9.70287
57	-9.70292
▁sier	-9.70342
▁jevn	-9.70363
▁ytre	-9.70364
uc	-9.70432
▁likhet	-9.70448
▁hovedstaden	-9.70565
▁mid	-9.70568
09	-9.7061
ky	-9.70832
▁dyre	-9.70902
grense	-9.70913
navnet	-9.7103
▁hjelpe	-9.71055
▁dø	-9.71056
▁korea	-9.71121
ved	-9.71137
▁republikken	-9.71279
▁religion	-9.713
▁klima	-9.71301
▁ridder	-9.71305
▁1946	-9.71315
▁programmet	-9.71317
vekt	-9.7135
▁sund	-9.714
▁stoppe	-9.71436
hø	-9.71452
▁ansatte	-9.71463
62	-9.71507
stall	-9.71515
▁hell	-9.71528
▁ekteskap	-9.71554
▁forfatteren	-9.71631
▁instrument	-9.71681
hund	-9.71702
din	-9.71719
92	-9.71726
▁middel	-9.71872
▁offisielle	-9.71879
▁dal	-9.71888
▁lan	-9.71918
eks	-9.72027
▁kyst	-9.72037
wi	-9.72215
valget	-9.72235
▁elve	-9.72248
▁studier	-9.72285
gå	-9.72301
▁skottland	-9.72341
▁betrakte	-9.72341
▁flertall	-9.72341
▁lengre	-9.72348
▁1941	-9.72356
▁musikkalbum	-9.72356
▁fortsette	-9.72383
gata	-9.72447
▁svak	-9.72499
▁kontor	-9.72535
▁angrepet	-9.72564
77	-9.72655
▁thor	-9.72807
▁tru	-9.72981
rog	-9.73026
80	-9.73056
løpet	-9.73146
▁holder	-9.73167
▁akademi	-9.73189
slaget	-9.73198
▁kommet	-9.73322
mu	-9.73371
▁utbredt	-9.73396
shi	-9.73412
▁slå	-9.73421
▁fro	-9.73444
▁vinner	-9.73473
▁prisen	-9.73618
ios	-9.7365
▁stamme	-9.73704
ola	-9.7375
▁forsøkt	-9.73948
25	-9.7397
▁grønn	-9.73978
▁tettstedet	-9.73994
▁borg	-9.74044
07	-9.74135
▁arbeide	-9.742
▁salt	-9.74226
strøm	-9.74256
▁delvis	-9.74275
▁cap	-9.74295
▁sjef	-9.74307
▁utover	-9.74317
mus	-9.7433
arter	-9.74353
serien	-9.74353
▁internasjonal	-9.74369
▁jule	-9.7437
▁vet	-9.74393
▁nærings	-9.7441
▁inspirert	-9.74457
▁college	-9.74459
▁metode	-9.74473
46	-9.74524
stikk	-9.74544
▁alltid	-9.74552
59	-9.74572
bri	-9.74594
▁teksten	-9.74673
▁reform	-9.74673
▁økonomi	-9.74691
▁sha	-9.74723
ammen	-9.74732
person	-9.74737
bank	-9.74768
▁egg	-9.74822
▁bibliotek	-9.74852
▁utdannelse	-9.74855
▁hor	-9.7486
skifte	-9.74879
▁temperatur	-9.74976
sol	-9.75012
▁rein	-9.75039
▁masse	-9.7512
▁synes	-9.75131
▁strekk	-9.75158
komst	-9.75288
▁blo	-9.75334
våpen	-9.7534
▁organisasjonen	-9.75374
▁oppdag	-9.75388
▁univers	-9.75509
к	-9.75528
▁michael	-9.75533
▁nærmere	-9.75537
▁bronsemedalje	-9.75538
kra	-9.75565
▁hovedsak	-9.75584
▁wo	-9.7559
▁program	-9.75609
▁variant	-9.75623
ram	-9.75652
▁bind	-9.75653
▁filosofi	-9.75698
▁bakken	-9.75742
zhou	-9.75744
▁ban	-9.75799
▁polsk	-9.75806
43	-9.75899
▁presse	-9.75901
rød	-9.75966
▁omtale	-9.76032
mul	-9.76103
▁oversatt	-9.76116
▁shi	-9.76191
▁jobb	-9.76205
▁stille	-9.76263
▁fabrikk	-9.76297
▁metall	-9.76308
vogn	-9.7633
▁spanske	-9.76368
cy	-9.76427
▁dam	-9.76436
▁måned	-9.76458
▁het	-9.76486
47	-9.76489
krets	-9.7651
▁andreplass	-9.76568
▁typisk	-9.76624
▁kloster	-9.76647
▁skilt	-9.7667
▁skatte	-9.76671
▁gjenopp	-9.76725
▁she	-9.76781
lek	-9.76818
▁kir	-9.76868
▁senter	-9.77167
kle	-9.77178
jan	-9.7725
gren	-9.77253
är	-9.77268
▁lot	-9.77326
▁motiv	-9.77356
68	-9.77433
▁produkt	-9.77434
▁brev	-9.7744
gått	-9.77454
▁riket	-9.77554
▁bø	-9.7761
▁idretts	-9.77662
▁innflytelse	-9.77714
▁bane	-9.77715
▁alternativ	-9.77719
▁fattig	-9.7772
▁kanon	-9.77721
▁organisasjon	-9.77725
▁1954	-9.77733
▁1944	-9.77736
▁45	-9.77751
▁middelalderen	-9.77767
▁vå	-9.77787
▁uttalt	-9.7779
▁arne	-9.77829
▁kam	-9.77836
▁områdene	-9.7787
▁tung	-9.77986
41	-9.78127
plasser	-9.78179
esse	-9.78226
elva	-9.78264
▁varme	-9.78374
▁front	-9.78415
▁mulighet	-9.7843
kirke	-9.78434
▁allierte	-9.7846
▁anne	-9.78502
spor	-9.78512
▁løv	-9.78523
▁operasjon	-9.78582
historie	-9.78675
lv	-9.78714
▁fal	-9.78721
fon	-9.78737
▁vind	-9.78786
▁regjerings	-9.78805
▁tilgjengelig	-9.7883
▁yngre	-9.7883
▁foreldre	-9.78832
▁fredrik	-9.78837
▁1938	-9.78841
▁institutt	-9.78841
▁ishockey	-9.78859
▁kjerne	-9.78877
▁albert	-9.78913
prisen	-9.78994
formet	-9.79212
▁linjen	-9.79245
▁holm	-9.79265
▁ledelse	-9.79267
kh	-9.79271
lei	-9.79357
rick	-9.79381
plikt	-9.79446
▁sti	-9.79464
▁sur	-9.79565
stru	-9.79689
gler	-9.79711
press	-9.79765
▁utøve	-9.79772
▁vid	-9.79787
lapp	-9.79797
program	-9.79801
organisasjon	-9.79807
▁char	-9.7981
kilde	-9.79918
▁gitar	-9.79938
▁bispedømme	-9.79956
▁norrøn	-9.79957
▁1962	-9.79971
▁tids	-9.79972
ringen	-9.79984
parti	-9.80006
shire	-9.80012
▁fugle	-9.8008
76	-9.80094
▁stasjonen	-9.80118
▁tradisjonelle	-9.80217
▁trafikk	-9.80218
▁uker	-9.80341
sens	-9.80382
▁ungdoms	-9.80396
▁hed	-9.80497
ledning	-9.805
▁opphold	-9.80534
▁gjelder	-9.80549
kirken	-9.80622
ish	-9.80624
▁nan	-9.80657
arbeider	-9.80672
▁ya	-9.8074
▁landsbyen	-9.8076
▁støttet	-9.80805
lund	-9.80904
vende	-9.80928
▁nes	-9.80946
▁vol	-9.80961
industri	-9.80966
н	-9.81079
▁offisielt	-9.8109
▁melodi	-9.81091
▁frederik	-9.81093
90	-9.81104
▁1959	-9.81107
▁spredt	-9.8111
▁black	-9.81117
▁vitenskapelig	-9.81126
▁hellas	-9.81166
▁arkitektur	-9.81184
▁kroner	-9.81207
▁komponist	-9.81289
bru	-9.81299
▁kongens	-9.81334
▁larven	-9.81334
▁sau	-9.81353
▁skips	-9.81358
forbund	-9.81397
▁hente	-9.81443
▁adel	-9.81474
holdsvis	-9.81559
▁mw	-9.81566
▁endelig	-9.81568
▁øyene	-9.81612
ence	-9.81758
▁tilfeller	-9.81795
▁ep	-9.81813
▁banen	-9.81845
▁sønnen	-9.81853
delen	-9.81971
▁høye	-9.81978
▁ara	-9.82033
arbeidet	-9.82037
vitenskap	-9.82118
distrikt	-9.8212
haug	-9.82142
▁jens	-9.82168
▁venn	-9.8218
▁kall	-9.8219
▁fordelt	-9.82209
pass	-9.82228
▁utgangspunkt	-9.82239
▁antagelig	-9.82239
▁publikum	-9.82239
▁kritikk	-9.82241
▁rekord	-9.82243
▁dømt	-9.82245
▁bygg	-9.82283
iserte	-9.82341
▁renner	-9.82384
tic	-9.82398
▁drive	-9.82424
mit	-9.82441
▁formål	-9.82456
▁hovedstad	-9.82532
ografi	-9.82584
gav	-9.82658
▁avstand	-9.82744
▁rask	-9.82752
▁tema	-9.82808
▁endre	-9.82867
▁vannet	-9.82893
▁ger	-9.83067
kanten	-9.8307
▁trekk	-9.83085
linjen	-9.83099
95	-9.83109
▁konkurranse	-9.83175
39	-9.83247
▁rang	-9.83318
▁600	-9.83329
▁fjellet	-9.83349
kraftverk	-9.83357
▁rå	-9.83389
▁alvorlig	-9.83402
▁louis	-9.83403
▁ungarn	-9.83403
▁brøt	-9.83407
▁lund	-9.83449
pet	-9.83452
nik	-9.83453
▁normal	-9.83463
▁landskapet	-9.83505
▁rykke	-9.83551
▁sku	-9.83557
band	-9.8361
ani	-9.83615
▁tonn	-9.83633
▁ev	-9.83645
▁nordland	-9.83749
drift	-9.83848
▁ze	-9.8387
grav	-9.83898
án	-9.83964
▁enda	-9.83978
ance	-9.8401
▁lignende	-9.84012
▁samfunns	-9.84047
▁mari	-9.84067
▁metal	-9.84075
▁sø	-9.8408
ild	-9.84111
▁tale	-9.84363
▁saken	-9.844
ova	-9.84524
▁erkebiskop	-9.84578
▁fullstendig	-9.84578
▁wilhelm	-9.84578
▁passasjer	-9.84578
▁angeles	-9.84579
▁øvre	-9.84589
▁feil	-9.846
▁landene	-9.8461
▁bygninger	-9.84619
▁sluttet	-9.84627
▁snø	-9.84641
▁kilder	-9.84681
kjent	-9.84697
▁lø	-9.84742
▁salg	-9.84767
qui	-9.84769
vinner	-9.8479
14	-9.84842
▁historiker	-9.84881
selskapet	-9.84963
▁hvilke	-9.8507
▁aktivitet	-9.851
▁tegnet	-9.85108
ona	-9.85176
▁atom	-9.8518
cha	-9.85209
▁åpne	-9.85339
kop	-9.85349
▁toppen	-9.85358
▁tunnel	-9.85399
▁lyn	-9.85517
▁anna	-9.85741
▁elev	-9.8576
▁edvard	-9.85769
▁bidro	-9.85773
▁faktisk	-9.85775
▁kristen	-9.85775
▁sølvmedalje	-9.85777
▁protest	-9.85779
▁1918	-9.85782
▁1934	-9.85787
▁jordbruk	-9.85807
skriv	-9.85825
▁1000	-9.85828
▁utgjorde	-9.85832
dommen	-9.85848
▁rygg	-9.85953
mand	-9.86014
mil	-9.86062
▁flagg	-9.86135
▁kjøre	-9.86176
▁effekt	-9.86229
▁fc	-9.86286
stoff	-9.86313
54	-9.86328
stod	-9.86339
▁app	-9.86387
▁vendt	-9.86484
▁påvirke	-9.86565
mid	-9.86571
▁sub	-9.86655
▁aust	-9.86727
▁produksjons	-9.86727
▁anta	-9.86737
▁bol	-9.86765
ada	-9.86808
▁utgave	-9.86822
▁danse	-9.86872
▁spillet	-9.86897
givelse	-9.86946
bak	-9.8695
▁skille	-9.8696
с	-9.86968
▁international	-9.86974
▁jazz	-9.86974
▁belgia	-9.86974
▁tverr	-9.87069
▁organisert	-9.8714
visning	-9.87171
▁un	-9.87187
▁kaptein	-9.87201
slav	-9.87231
▁viking	-9.87261
▁verne	-9.87269
▁harry	-9.87355
51	-9.87459
▁innsjøen	-9.87596
▁sider	-9.87609
▁mill	-9.87615
▁samfunnet	-9.87666
▁sent	-9.87709
▁avsluttet	-9.87712
▁hellige	-9.87751
▁nr	-9.87771
gre	-9.87796
sler	-9.87811
▁filmer	-9.87873
trop	-9.87913
▁vietnam	-9.88105
▁ungdom	-9.88159
▁fysisk	-9.88197
▁1961	-9.88209
▁hemmelig	-9.88209
ben	-9.88224
▁primær	-9.88253
qu	-9.88294
▁oppnådd	-9.88324
▁ap	-9.88355
▁32	-9.88399
▁undervisning	-9.88414
strand	-9.88461
▁oppdrag	-9.8849
▁ram	-9.88532
▁øverste	-9.88575
▁øke	-9.88625
dri	-9.88628
kamera	-9.88628
arm	-9.88663
▁vik	-9.88669
▁fordel	-9.88711
74	-9.88803
lon	-9.88845
▁turist	-9.88847
ull	-9.88973
▁drev	-9.88977
▁bord	-9.89022
82	-9.89024
72	-9.89113
▁bevege	-9.89257
▁solgte	-9.89394
▁1908	-9.89428
▁dokumenter	-9.89428
▁etterfulgt	-9.89428
▁league	-9.89428
▁world	-9.89428
▁arrangere	-9.89428
▁oscar	-9.89428
▁mytologi	-9.89429
▁innsats	-9.8943
▁behov	-9.89432
▁ran	-9.89435
▁1947	-9.89446
kontor	-9.89446
møte	-9.89449
stykke	-9.89456
hn	-9.89466
▁bidrag	-9.89643
▁cal	-9.89687
ain	-9.89771
▁ønsker	-9.89925
▁150	-9.89931
83	-9.90093
▁utvidet	-9.90142
▁sel	-9.90203
▁pas	-9.90237
▁gangen	-9.90254
▁menighet	-9.90364
61	-9.90409
▁kas	-9.9041
former	-9.90531
▁malt	-9.90539
▁tidlige	-9.90541
tha	-9.90625
▁prosess	-9.90632
▁ødelagt	-9.90678
▁arrestert	-9.90678
▁län	-9.90679
▁lengst	-9.90684
▁tidspunkt	-9.90689
senteret	-9.9073
▁sær	-9.90745
▁anledning	-9.90745
▁dekket	-9.90747
▁prins	-9.90749
▁nar	-9.90822
▁spre	-9.90867
▁bosatt	-9.90869
▁fisk	-9.90871
▁rose	-9.90894
▁flyplass	-9.90931
▁sort	-9.91053
▁fylkes	-9.9108
▁up	-9.9108
▁star	-9.91096
▁kull	-9.91138
4	-9.91203
▁sykdom	-9.91239
▁larvene	-9.91263
brun	-9.91376
▁dog	-9.91381
▁betegnelsen	-9.91425
▁north	-9.91444
▁sko	-9.91452
▁vakt	-9.91531
plassen	-9.91549
▁kg	-9.91562
▁od	-9.91637
▁samfunn	-9.91738
løst	-9.91754
▁leir	-9.91781
veg	-9.91816
vig	-9.91879
▁normalt	-9.91916
▁original	-9.91937
▁1953	-9.91943
▁sistnevnte	-9.91945
virksomhet	-9.91945
▁invasjon	-9.91946
▁arabisk	-9.91946
▁oversettelse	-9.91949
▁sykehus	-9.91952
▁1932	-9.91955
▁debut	-9.91958
▁1951	-9.9196
▁etappe	-9.91962
▁1700	-9.91963
▁1942	-9.91965
▁avhengig	-9.92038
▁tredjeplass	-9.92119
▁henry	-9.92119
▁py	-9.92135
▁bad	-9.92157
▁ole	-9.92201
hel	-9.92209
skipet	-9.92214
15	-9.92221
▁pen	-9.9246
▁besto	-9.92494
▁stig	-9.92539
▁tettsted	-9.92562
mma	-9.92596
▁ledende	-9.92609
▁erobret	-9.92651
▁drevet	-9.92685
bare	-9.92723
▁produsent	-9.92762
▁stol	-9.92811
▁listen	-9.92838
▁trekke	-9.92909
▁ein	-9.93137
sekretær	-9.93211
▁studio	-9.93222
▁lage	-9.93227
▁stadion	-9.93229
▁1914	-9.93242
▁omtalt	-9.93269
mund	-9.93282
wood	-9.93295
▁live	-9.93335
▁verker	-9.93353
rommet	-9.93459
ura	-9.93464
▁stoff	-9.93465
▁lavere	-9.93468
jev	-9.9351
▁rik	-9.93515
▁forekommer	-9.93522
▁overført	-9.93535
87	-9.9354
▁che	-9.93587
▁status	-9.93622
ias	-9.93765
avdeling	-9.93801
▁struktur	-9.93802
▁begynner	-9.93816
▁vanlige	-9.9383
▁kreft	-9.93927
▁wil	-9.94092
lov	-9.94125
elli	-9.94292
11	-9.94345
hal	-9.94345
▁rør	-9.94351
▁800	-9.944
▁tittel	-9.94422
▁våren	-9.94508
▁kristiansand	-9.94525
▁1937	-9.94532
▁hotell	-9.94548
kommune	-9.94564
▁timer	-9.94656
▁dør	-9.94702
▁medlemmene	-9.94745
▁knut	-9.94768
▁dialekt	-9.94787
aktig	-9.94789
båter	-9.94839
▁kanal	-9.94853
▁stav	-9.94855
89	-9.94937
▁kontrakt	-9.95024
▁trener	-9.95178
▁forskjell	-9.95206
▁sim	-9.95219
grupper	-9.95269
▁æ	-9.95373
▁rute	-9.95405
delingen	-9.95409
øyene	-9.95589
▁tour	-9.95595
▁mørk	-9.9577
12	-9.95815
arrangement	-9.9584
▁bakkropp	-9.9584
▁introdusert	-9.9584
▁kjærlighet	-9.9584
▁registrert	-9.9584
▁national	-9.9584
▁positiv	-9.9584
▁anerkjent	-9.95841
▁united	-9.95842
▁premier	-9.9586
21	-9.95937
▁1500	-9.95959
04	-9.96044
feltet	-9.96068
▁svar	-9.96074
stasjonen	-9.96112
snitt	-9.96158
gno	-9.96181
hild	-9.96211
▁forsvars	-9.96355
fekt	-9.96364
linjer	-9.96372
▁skriver	-9.96405
koll	-9.96407
▁minutter	-9.96408
▁flytte	-9.96454
serie	-9.96541
▁pin	-9.96629
okrati	-9.96673
ón	-9.96681
fugl	-9.96794
bytte	-9.96806
staten	-9.96981
▁pra	-9.96991
86	-9.97076
▁sist	-9.97082
▁romanen	-9.97173
▁berømt	-9.97173
▁sportsutøver	-9.97173
▁generelt	-9.97174
vatnet	-9.97179
▁oversikt	-9.97179
▁islam	-9.97182
▁monark	-9.97197
▁effektiv	-9.9724
58	-9.97244
▁pri	-9.97261
▁vitenskap	-9.97272
samfunn	-9.97273
▁flykte	-9.97286
bakken	-9.97289
slått	-9.97319
▁svi	-9.97355
brand	-9.97399
▁overgang	-9.97406
▁strand	-9.97474
▁gjest	-9.97501
▁nyere	-9.97528
fil	-9.97535
▁tromsø	-9.97545
▁sports	-9.97696
virke	-9.97737
rev	-9.97904
35	-9.97913
78	-9.97925
dannelse	-9.97931
▁gall	-9.97978
tikken	-9.97998
nda	-9.98031
▁cro	-9.9811
▁kap	-9.98254
▁arve	-9.98254
▁økte	-9.98296
last	-9.98348
stripe	-9.98369
▁yu	-9.98454
▁starten	-9.98478
à	-9.98525
▁okkupasjon	-9.98525
▁tilknytning	-9.98525
▁school	-9.98525
▁hurtig	-9.98525
▁cirka	-9.98525
▁nektet	-9.98527
▁tydelig	-9.98528
▁levde	-9.98534
▁arbeiderpartiet	-9.98538
▁hustru	-9.98555
▁videregående	-9.98564
▁gjennomsnitt	-9.98595
▁riksvei	-9.98627
▁åpning	-9.98718
▁haug	-9.98731
▁just	-9.98732
▁søke	-9.98794
▁vekk	-9.98843
▁representerer	-9.98845
forhold	-9.9885
motor	-9.98866
▁jean	-9.98878
▁buss	-9.98888
▁kommando	-9.98922
riket	-9.98962
▁spa	-9.99018
▁kjøpe	-9.99079
▁stål	-9.99147
▁populære	-9.99176
verket	-9.99207
▁verket	-9.99241
▁representant	-9.99249
▁kost	-9.99254
▁kongelige	-9.99307
▁utvalg	-9.99331
▁rh	-9.99352
ito	-9.99419
▁disk	-9.9943
▁bonde	-9.99488
▁sten	-9.99505
▁prosjektet	-9.99505
▁fartøy	-9.99509
▁dato	-9.99543
post	-9.99609
litt	-9.99631
▁innsjø	-9.99646
99	-9.99756
▁guvernør	-9.99895
▁administrativ	-9.99895
▁tilknyttet	-9.99895
▁klipp	-9.99895
▁jødisk	-9.99896
▁oppfatte	-9.99897
▁markeds	-9.99898
▁fungere	-9.99902
▁1919	-9.99907
▁planlagt	-9.99916
▁skaffe	-9.99917
▁fullført	-9.9992
▁skotsk	-9.99927
kultur	-10.0001
▁fylket	-10.0002
▁antatt	-10.0007
▁gold	-10.0013
▁kvalitet	-10.0021
▁kh	-10.0022
▁økt	-10.0026
listen	-10.0029
partiet	-10.0032
▁singel	-10.0038
▁fantes	-10.0041
deler	-10.0051
▁andel	-10.0055
▁reist	-10.0084
▁selve	-10.0085
▁versjonen	-10.0086
84	-10.0096
kjøp	-10.0098
▁hode	-10.0107
▁bærer	-10.0109
▁løper	-10.0111
▁hage	-10.0112
73	-10.0112
▁selvstendig	-10.0116
ordning	-10.0118
stemt	-10.0121
▁vokal	-10.0122
fjellet	-10.0124
▁provins	-10.0126
politikk	-10.0127
korps	-10.0127
▁moskva	-10.0128
▁finnmark	-10.0128
▁kombinert	-10.0128
dam	-10.013
▁video	-10.013
▁inntekt	-10.013
▁1912	-10.013
trinn	-10.0131
▁blue	-10.0131
▁skiftet	-10.0131
▁magne	-10.0136
▁nedlagt	-10.0136
▁teologi	-10.0139
▁off	-10.014
▁befinne	-10.0144
▁agder	-10.0145
▁odd	-10.0151
fond	-10.0159
45	-10.0161
rich	-10.0167
▁bombe	-10.017
▁frukt	-10.0179
▁damp	-10.0198
▁laur	-10.0199
▁teknologi	-10.0204
▁klo	-10.0211
▁zh	-10.0213
▁tvil	-10.0215
▁utføre	-10.0224
▁rep	-10.0224
▁ansett	-10.0251
▁kropp	-10.0266
▁vær	-10.0268
▁kjønn	-10.0269
▁jacob	-10.0269
▁tilhørt	-10.0269
▁glass	-10.027
▁generasjon	-10.027
▁1929	-10.027
▁1943	-10.0271
▁bevegelse	-10.0272
▁bibel	-10.0276
▁hud	-10.0276
▁sammenlagt	-10.0283
▁nm	-10.0287
▁tolv	-10.0293
▁selge	-10.0301
aktor	-10.0308
grep	-10.0314
gress	-10.0322
▁anton	-10.0326
▁utstilling	-10.0331
▁press	-10.0333
▁brenn	-10.0334
dikt	-10.0339
▁sum	-10.0349
byrå	-10.0351
▁solo	-10.0362
kka	-10.0376
jon	-10.0381
▁stemmer	-10.039
gjort	-10.0391
▁møter	-10.0394
skyld	-10.0398
rop	-10.0401
lyst	-10.041
▁beseiret	-10.0412
▁nominert	-10.0412
▁pasient	-10.0412
▁erklært	-10.0412
▁1935	-10.0414
▁1910	-10.0415
▁kveld	-10.0417
gul	-10.0418
▁veldig	-10.0419
▁high	-10.042
▁ukjent	-10.0421
▁mad	-10.0426
▁king	-10.0433
▁morgen	-10.0439
▁cd	-10.044
angrep	-10.0443
▁søkt	-10.0443
ordenen	-10.0444
konge	-10.0448
▁hunnen	-10.0454
▁venner	-10.0456
18	-10.0457
▁last	-10.0461
gli	-10.0463
▁maur	-10.0472
▁evne	-10.0482
gard	-10.0483
▁bølge	-10.0498
▁landsby	-10.0502
▁oppstå	-10.0515
ische	-10.0516
hol	-10.0522
▁fv	-10.0527
▁ankom	-10.0528
krig	-10.0529
▁bydel	-10.0539
96	-10.0541
myndighet	-10.0555
▁eksempler	-10.0557
▁østerriksk	-10.0557
▁kategori	-10.0557
▁liberal	-10.0557
▁begrenset	-10.0557
▁royal	-10.0557
▁1913	-10.0558
▁1925	-10.0559
▁oppmerksomhet	-10.056
fylt	-10.0562
▁betegne	-10.0563
field	-10.0564
▁mini	-10.0564
▁ekstra	-10.0569
▁skiller	-10.0572
bjørn	-10.0576
▁mary	-10.0588
▁handle	-10.0591
bringe	-10.0597
▁turneringen	-10.0597
▁junior	-10.0599
▁single	-10.0604
rekke	-10.0606
▁elv	-10.0607
▁skylde	-10.0611
jiang	-10.0614
periode	-10.0615
vold	-10.0627
▁handel	-10.0635
▁song	-10.0638
rup	-10.0643
eppe	-10.0644
▁poly	-10.0647
▁nils	-10.0657
▁tog	-10.0669
▁santa	-10.0669
forbundet	-10.0669
anser	-10.0689
mper	-10.0695
▁kvalifisering	-10.0704
▁kvalifisert	-10.0704
▁frivillig	-10.0704
▁kjøl	-10.0704
▁magnus	-10.0704
▁fokus	-10.0704
▁1917	-10.0705
▁tilhenger	-10.0713
▁armé	-10.0716
▁1600	-10.0718
▁pensjon	-10.0719
▁grønland	-10.0721
blomst	-10.0732
33	-10.0735
▁hull	-10.0735
▁will	-10.0744
sport	-10.075
▁villa	-10.075
▁mangler	-10.0758
▁tilfelle	-10.0763
▁max	-10.077
75	-10.0778
nær	-10.0789
▁bilder	-10.0808
voll	-10.081
▁internasjonalt	-10.0812
▁øyer	-10.0817
▁inf	-10.0818
▁win	-10.0827
▁score	-10.0829
▁fest	-10.083
▁bånd	-10.083
bær	-10.0832
▁tha	-10.0835
well	-10.0836
▁øvrige	-10.0846
finn	-10.0847
brudd	-10.0852
▁forsvaret	-10.0853
▁brødrene	-10.0853
▁records	-10.0853
▁halvparten	-10.0853
▁bosetning	-10.0853
▁tegneserie	-10.0854
▁beholdt	-10.0854
▁internett	-10.0855
▁sverd	-10.0856
▁private	-10.0861
▁spenning	-10.0865
▁vä	-10.087
▁overflate	-10.0871
▁verdensmester	-10.0875
▁stabil	-10.0876
▁ild	-10.0876
bånd	-10.0876
konkurranse	-10.0876
forbindelse	-10.0877
▁vers	-10.088
▁elever	-10.0887
▁storm	-10.09
▁ark	-10.0901
22	-10.0902
▁bestod	-10.0903
▁omfatte	-10.0906
▁bit	-10.0909
▁sikker	-10.0912
hode	-10.0914
foss	-10.0916
▁ana	-10.0916
▁unna	-10.092
▁bære	-10.0924
ity	-10.0932
▁bidra	-10.0932
gaard	-10.0934
bevegelsen	-10.0934
▁dekker	-10.0934
▁jente	-10.094
▁bay	-10.0952
▁ligne	-10.0956
▁musikken	-10.096
kysten	-10.096
sjø	-10.0961
▁uttale	-10.0968
▁wien	-10.0968
▁kanalen	-10.0972
▁proto	-10.0979
▁statlig	-10.0982
▁sørge	-10.0983
▁marie	-10.099
sfjorden	-10.0995
lid	-10.1003
▁kommunal	-10.1005
▁romsdal	-10.1006
kommer	-10.1006
▁1926	-10.1006
▁1933	-10.1006
▁1921	-10.1007
▁south	-10.1007
▁henholdsvis	-10.1007
▁luc	-10.101
kommisjon	-10.1015
blikk	-10.1019
skij	-10.1019
▁funn	-10.1021
con	-10.1027
▁mesterskapet	-10.1029
trafikk	-10.103
▁tyskerne	-10.1031
øst	-10.1031
▁klassen	-10.1035
▁kha	-10.1036
mond	-10.1039
▁indisk	-10.1041
26	-10.1041
▁nam	-10.1042
▁samarbeidet	-10.1042
distanse	-10.1047
▁river	-10.1048
▁und	-10.105
▁sentralt	-10.105
jern	-10.105
▁fan	-10.1051
▁spansk	-10.1055
▁kampene	-10.1063
▁parlamentet	-10.1073
▁auto	-10.1074
▁vokse	-10.1077
gende	-10.1079
▁mak	-10.1093
▁vokser	-10.1096
mur	-10.1098
▁ansvarlig	-10.11
low	-10.1105
▁barna	-10.1106
somme	-10.1145
jö	-10.1158
в	-10.1158
magasin	-10.1159
▁praksis	-10.1159
▁installert	-10.1159
▁musikalsk	-10.1159
▁krevde	-10.1159
▁sjelden	-10.1159
▁vesentlig	-10.1159
▁redusert	-10.1159
▁studere	-10.1159
▁arendal	-10.1159
▁alpin	-10.116
▁institusjon	-10.116
▁tidsskrift	-10.116
▁otto	-10.116
▁himmel	-10.116
▁1923	-10.116
▁blomster	-10.1161
▁tørr	-10.1161
▁bekrefte	-10.1161
▁frykt	-10.1163
▁sagt	-10.1166
▁kapell	-10.1171
▁gard	-10.1171
▁avholdt	-10.1172
gal	-10.1173
27	-10.1173
79	-10.1175
▁typer	-10.1176
▁soldat	-10.1176
▁kjell	-10.1178
ifisert	-10.1183
▁cy	-10.119
05	-10.119
▁latinsk	-10.1193
▁oss	-10.1196
illa	-10.1197
▁graf	-10.1199
dyktig	-10.1209
▁dynastiet	-10.1215
eringen	-10.1215
▁driver	-10.1234
▁penger	-10.1236
gon	-10.1242
▁grøn	-10.1254
▁snu	-10.1266
▁kommunistisk	-10.1267
▁kil	-10.127
▁skoler	-10.1276
▁landslag	-10.128
▁utgi	-10.1281
▁forholdet	-10.1287
▁ferd	-10.1303
▁lee	-10.131
▁pakistan	-10.1315
▁regissør	-10.1315
▁artikkel	-10.1315
▁elementer	-10.1315
▁regissert	-10.1315
▁demokratisk	-10.1315
bour	-10.1317
slå	-10.1319
▁hersker	-10.1323
▁bevis	-10.1325
slekt	-10.1328
▁sul	-10.1328
▁maler	-10.1328
▁motstander	-10.1329
▁ph	-10.133
jør	-10.133
▁inkluderer	-10.1335
▁grunnla	-10.1335
▁kommunikasjon	-10.134
▁grunnlegge	-10.1343
▁avtale	-10.1344
akademi	-10.1345
type	-10.1357
lend	-10.1367
▁kandidat	-10.1394
▁planet	-10.1402
▁nasjon	-10.1405
▁båten	-10.1407
▁dj	-10.1415
▁nø	-10.1423
▁vekst	-10.1423
▁plasser	-10.1432
▁keiseren	-10.1438
▁intens	-10.1445
▁tang	-10.1454
88	-10.1458
▁politiet	-10.1461
▁horn	-10.1468
▁portugal	-10.1474
▁individuell	-10.1474
▁reserve	-10.1474
kontinent	-10.1475
▁lufthavn	-10.1475
▁anklage	-10.1475
▁1927	-10.1475
▁1904	-10.1476
▁etterfølger	-10.1476
▁skøyte	-10.1477
▁erfaring	-10.1478
▁ube	-10.1488
mesterskapet	-10.1489
▁deltatt	-10.1499
prosjekt	-10.1507
miljø	-10.1507
forfatter	-10.1507
24	-10.1509
▁wales	-10.151
▁cuba	-10.151
▁gruppa	-10.1519
▁prosessen	-10.153
klassen	-10.1534
▁vedtatt	-10.1535
aria	-10.1535
▁makten	-10.1536
otte	-10.1537
▁idrettslag	-10.1538
▁bei	-10.1539
▁alene	-10.1544
▁sats	-10.1551
▁bredde	-10.1552
▁00	-10.1556
▁stan	-10.1559
▁ref	-10.1564
▁celle	-10.1565
▁tapt	-10.1566
▁hvilken	-10.1568
▁38	-10.1568
▁utsatt	-10.1574
▁begrep	-10.1576
gram	-10.1586
▁grei	-10.1589
▁33	-10.1598
øvelse	-10.1599
▁hill	-10.1604
▁populært	-10.1621
løytnant	-10.1635
▁radikal	-10.1635
▁kommersiell	-10.1635
▁svømme	-10.1635
▁overraske	-10.1636
▁adresse	-10.1636
▁utnytte	-10.1636
situasjon	-10.1636
▁medaljer	-10.1636
forvaltning	-10.1637
▁behandle	-10.1637
▁tvunge	-10.1638
38	-10.1638
▁luther	-10.1639
▁former	-10.1643
klasse	-10.1646
▁kvinnelige	-10.1651
▁mobil	-10.1654
▁utga	-10.1654
▁stab	-10.1659
▁kari	-10.1662
album	-10.1667
kapasitet	-10.167
skudd	-10.1671
▁nedre	-10.1671
utvikling	-10.1671
▁dans	-10.1671
▁beregne	-10.1671
forskning	-10.1671
▁forsknings	-10.1674
bøker	-10.1678
▁kritiker	-10.1682
▁75	-10.1694
äl	-10.1699
▁orkester	-10.1699
64	-10.1701
▁løsning	-10.1704
▁produsere	-10.1707
▁kreve	-10.1708
sending	-10.1709
vannet	-10.1709
▁katolsk	-10.171
typen	-10.172
▁fyrste	-10.1732
▁vert	-10.1742
81	-10.1755
mennene	-10.1762
dorf	-10.1767
▁bydelen	-10.1794
▁green	-10.1794
▁aleksander	-10.1799
▁antwerpen	-10.1799
▁engasjert	-10.1799
▁münchen	-10.1799
▁edward	-10.1799
▁digital	-10.1799
▁1905	-10.1801
▁dvs	-10.1803
▁show	-10.1804
91	-10.1809
▁olsen	-10.1811
▁stå	-10.1819
▁zo	-10.1821
▁music	-10.1826
▁kode	-10.1828
▁oppsto	-10.1833
spon	-10.1836
hånd	-10.1838
feld	-10.1838
maskin	-10.184
▁hindre	-10.1844
▁utgaven	-10.1844
▁halvdel	-10.1849
▁trening	-10.1859
▁skadet	-10.1862
▁opptil	-10.1866
aksjon	-10.1872
▁myr	-10.1875
▁flest	-10.1887
ulf	-10.1899
▁opptre	-10.1901
rac	-10.1902
▁slott	-10.1904
▁johann	-10.1916
▁administrasjons	-10.1919
▁lam	-10.1947
høgskole	-10.1965
▁lagkonkurransen	-10.1966
▁konstant	-10.1966
▁arthur	-10.1966
▁praktisk	-10.1966
konferanse	-10.1966
▁hovedrollen	-10.1966
▁club	-10.1967
▁debatt	-10.1968
▁filip	-10.197
forsyning	-10.1976
blokk	-10.1979
▁bortsett	-10.1981
medalje	-10.1984
▁utbrudd	-10.1989
▁oppløst	-10.1989
98	-10.1995
▁sport	-10.2003
▁underlagt	-10.2006
▁andreas	-10.2007
▁butikk	-10.2012
nummer	-10.2016
▁sete	-10.2026
17	-10.2031
16	-10.2034
▁tilhøre	-10.2035
▁spise	-10.2041
▁innhold	-10.2047
analyse	-10.205
vre	-10.2052
▁forbundet	-10.2054
▁kammer	-10.2057
kampen	-10.2064
▁forklare	-10.2069
reise	-10.2075
93	-10.2079
▁forbund	-10.2082
▁teknikk	-10.2085
▁planen	-10.2086
19	-10.2099
▁frihet	-10.2105
rute	-10.2107
▁maleri	-10.2114
▁bygda	-10.2118
deles	-10.2118
▁grunnlegger	-10.212
prinsipp	-10.2132
▁1931	-10.2135
▁county	-10.2135
▁konkurrere	-10.2135
▁hensikt	-10.2135
ов	-10.2136
▁900	-10.2137
▁godkjent	-10.2138
▁vannkraftverk	-10.2139
▁saint	-10.214
▁byttet	-10.214
▁mandat	-10.2142
▁nevnes	-10.2143
▁nazi	-10.2144
strekning	-10.2144
▁deltaker	-10.2148
▁forvingen	-10.2151
23	-10.2152
▁unngå	-10.2157
hei	-10.2157
▁gitarist	-10.2158
94	-10.2159
▁anlegg	-10.2162
▁vinne	-10.2165
▁fjerne	-10.2167
▁innspilling	-10.2177
▁håp	-10.2178
turneringen	-10.2179
produkt	-10.2179
▁sivile	-10.218
▁sammenligne	-10.219
▁feste	-10.2198
▁fn	-10.2198
pho	-10.22
▁fjernet	-10.2202
▁forbi	-10.2205
▁bunn	-10.2207
▁irsk	-10.2232
▁ferge	-10.2234
▁gau	-10.2242
▁kapp	-10.2251
▁streng	-10.2264
iansk	-10.2268
▁fry	-10.2268
▁may	-10.2271
▁slett	-10.2291
▁friedrich	-10.2307
▁midlertidig	-10.2307
seremoni	-10.2308
▁bodø	-10.2308
▁utseende	-10.2308
▁kritisk	-10.2309
kompani	-10.231
mba	-10.2311
▁utenlandske	-10.2312
▁seieren	-10.2316
▁tronen	-10.2317
▁økende	-10.2317
▁sveitsisk	-10.2318
time	-10.2319
▁1890	-10.2324
▁kåre	-10.2333
▁mottatt	-10.234
▁foreningen	-10.2349
▁semifinalen	-10.2366
▁ky	-10.2372
▁rent	-10.2387
språklig	-10.2387
▁troll	-10.239
▁final	-10.2395
liste	-10.2406
bryter	-10.2408
▁dalen	-10.2409
wiki	-10.2416
handel	-10.2417
evne	-10.243
▁utgivelse	-10.2433
▁besøkt	-10.2435
▁fotograf	-10.2436
oto	-10.2438
28	-10.2442
▁artister	-10.2448
▁lagene	-10.2452
▁kongelig	-10.2452
32	-10.2453
▁boka	-10.2471
▁nasjoner	-10.2475
▁cre	-10.2477
▁fødsel	-10.2483
▁argentina	-10.2483
▁insekter	-10.2483
▁joseph	-10.2483
▁washington	-10.2483
▁initiativ	-10.2483
▁objekt	-10.2483
▁vilhelm	-10.2483
▁nedbør	-10.2483
▁definert	-10.2483
▁håndball	-10.2484
▁riktig	-10.2485
▁1922	-10.2485
▁1909	-10.2486
▁angripe	-10.2487
▁hensyn	-10.2487
▁reaksjon	-10.249
nemlig	-10.2492
▁korn	-10.2494
▁jag	-10.2495
▁fed	-10.2495
ball	-10.2508
▁betale	-10.2514
▁rund	-10.253
▁bestemme	-10.2532
▁bell	-10.2539
▁oppleve	-10.2551
▁verdenscupen	-10.2563
▁forlate	-10.2563
▁muligheten	-10.2573
▁språket	-10.2578
▁landslaget	-10.2579
kov	-10.2583
▁konserter	-10.2584
▁markert	-10.2591
▁etnisk	-10.2594
klubben	-10.2595
start	-10.2608
▁rapport	-10.261
▁delstat	-10.2614
▁kapasitet	-10.2623
▁dommer	-10.2623
▁enkle	-10.264
ograf	-10.2642
ön	-10.2643
▁velge	-10.2644
▁avtalen	-10.265
▁ekspedisjonen	-10.265
▁temp	-10.2652
▁akershus	-10.2661
▁milliarder	-10.2661
▁respekt	-10.2661
▁skjønt	-10.2661
▁skulptur	-10.2661
▁fungerte	-10.2661
kompleks	-10.2661
▁skjul	-10.2662
▁bøkene	-10.2662
▁vg	-10.2662
▁situasjonen	-10.2663
stipend	-10.2663
▁signert	-10.2664
▁glo	-10.2665
▁britene	-10.2665
▁meldt	-10.2666
▁1200	-10.2672
▁aksje	-10.2676
gjen	-10.2681
▁eksemplarer	-10.2686
▁burde	-10.2707
teknikk	-10.2715
direktør	-10.2715
▁modellen	-10.2716
▁kino	-10.2719
veld	-10.272
▁trukke	-10.2722
måte	-10.2726
▁regional	-10.2728
▁foss	-10.273
▁lønn	-10.2735
▁kau	-10.274
gate	-10.2742
fartøy	-10.2742
▁plateselskap	-10.2746
fabrikk	-10.2747
▁dobbelt	-10.275
▁minister	-10.275
ledd	-10.275
melding	-10.2753
▁skyte	-10.2756
områdene	-10.2761
▁forstå	-10.2767
▁tempel	-10.2786
com	-10.2788
▁melk	-10.2796
aya	-10.2803
▁ulik	-10.2822
slutt	-10.2824
edderkopp	-10.2832
▁tradisjonel	-10.2832
▁700	-10.2837
▁stafett	-10.2843
▁yngste	-10.2843
▁geografisk	-10.2843
veksling	-10.2843
▁sachsen	-10.2843
▁fritt	-10.2844
▁fjernsyn	-10.2844
▁byggingen	-10.2845
▁multi	-10.2845
▁myndigheter	-10.2845
▁drikke	-10.2847
▁antikken	-10.2852
stadiet	-10.2856
▁anlagt	-10.2856
▁mynt	-10.2859
▁overleve	-10.2866
▁bud	-10.287
▁ull	-10.2875
▁advokat	-10.2878
▁gruve	-10.2882
▁zu	-10.2882
spring	-10.2892
syre	-10.2893
▁utbygging	-10.2894
▁oppstod	-10.2895
tunnel	-10.29
masse	-10.2906
rakk	-10.2908
▁mø	-10.2909
▁ali	-10.2914
▁artist	-10.2915
sosialistisk	-10.2915
▁resultatet	-10.2916
▁museet	-10.2917
▁trær	-10.292
▁medisinsk	-10.2921
komiteen	-10.2929
assi	-10.2938
ansett	-10.2945
▁gaten	-10.2956
▁sca	-10.296
▁intern	-10.2964
familie	-10.298
▁camp	-10.3006
▁typen	-10.3013
▁tau	-10.3018
▁kristian	-10.3019
▁mening	-10.3022
▁amsterdam	-10.3028
▁australsk	-10.3028
▁elisabeth	-10.3028
▁innendørs	-10.3028
▁intervju	-10.3028
▁landkreis	-10.3028
▁monument	-10.3028
▁valuta	-10.3029
▁forbedre	-10.3029
▁hendelsen	-10.3029
▁allianse	-10.3029
▁håkon	-10.303
▁daniel	-10.3032
▁representanter	-10.3032
vandring	-10.3032
▁prix	-10.3037
firma	-10.3042
▁vokalist	-10.3043
▁petter	-10.3053
▁stam	-10.3057
▁møre	-10.3057
▁ressurs	-10.3076
▁bull	-10.3078
▁organisasjoner	-10.3079
▁grunnlov	-10.3083
▁cam	-10.3084
museum	-10.3089
▁klokken	-10.309
vekst	-10.3091
▁krim	-10.311
▁utgivelsen	-10.3113
▁kongedømmet	-10.3147
▁kjemisk	-10.315
▁kulturell	-10.3155
▁truet	-10.3157
▁mol	-10.3163
▁regime	-10.3164
▁troms	-10.3169
mmy	-10.3176
▁36	-10.3182
▁dahl	-10.3187
flat	-10.3195
▁kalk	-10.3199
skyting	-10.3203
▁middelalder	-10.3209
▁utslipp	-10.3217
▁ludvig	-10.3217
▁hendelser	-10.3217
▁hvem	-10.3217
▁smith	-10.3217
▁major	-10.3217
▁avledet	-10.3217
▁mongol	-10.3218
▁dukket	-10.3218
▁oberst	-10.3219
mønster	-10.3219
▁referere	-10.3219
▁flekker	-10.3219
▁borgerkrigen	-10.3219
flukt	-10.3225
▁klatre	-10.3226
▁drepe	-10.3227
▁mannskap	-10.3229
▁team	-10.324
▁enorm	-10.3243
▁tvang	-10.3244
▁frakte	-10.3266
tilbud	-10.3289
stjerne	-10.3289
▁paus	-10.3292
▁shan	-10.3298
▁programmer	-10.33
▁tiår	-10.3307
▁pala	-10.3316
bedrift	-10.3317
▁perioder	-10.3318
▁larve	-10.3328
▁måten	-10.3341
▁flåten	-10.3341
▁ekte	-10.3345
▁malm	-10.3346
▁øverst	-10.3349
▁nav	-10.3355
▁wei	-10.3355
▁aksjon	-10.3368
▁64	-10.3388
▁medisin	-10.3389
derib	-10.3395
▁eiendom	-10.3403
▁individ	-10.3409
▁afghanistan	-10.3409
▁prøvd	-10.3409
budsjett	-10.3409
▁kriminal	-10.3409
▁alkohol	-10.3409
stråling	-10.3409
▁ekstrem	-10.341
▁dollar	-10.341
▁fjær	-10.341
▁myndighetene	-10.341
livet	-10.3416
▁pil	-10.3419
▁papir	-10.3421
▁meteor	-10.3421
▁1899	-10.3425
▁ibsen	-10.3428
▁sunn	-10.3436
▁jack	-10.3436
▁hørt	-10.3436
strømmen	-10.3449
galleri	-10.3449
kontroll	-10.3478
▁scor	-10.3484
▁samtid	-10.3492
▁lån	-10.3515
▁eies	-10.3517
drakt	-10.3522
▁synge	-10.3532
▁arkeologisk	-10.3545
leir	-10.3545
▁neu	-10.3547
▁utenriks	-10.3554
▁kai	-10.3567
▁helst	-10.3586
▁turner	-10.359
▁fett	-10.3603
komedie	-10.3605
▁byprefekturet	-10.3606
▁nøyaktig	-10.3606
▁hordaland	-10.3606
▁jøder	-10.3606
▁republikk	-10.3609
vokst	-10.361
▁fredrikstad	-10.3611
▁kjørt	-10.3614
havn	-10.3619
▁rulle	-10.3619
bokstav	-10.362
▁uavhengighet	-10.3625
▁åttende	-10.3632
▁queen	-10.3632
▁sovjet	-10.3637
▁sankt	-10.3637
▁buk	-10.3642
▁angi	-10.3642
▁gradvis	-10.3644
▁akseptert	-10.3654
▁platen	-10.3657
▁bou	-10.3657
▁hastighet	-10.3671
svekke	-10.3675
▁tjenestegjor	-10.3675
▁eva	-10.3675
produsent	-10.3677
▁karrieren	-10.3679
▁irak	-10.368
trenge	-10.3704
▁thi	-10.371
▁begynne	-10.3713
▁krever	-10.372
▁involvert	-10.3727
▁frø	-10.3738
bukta	-10.3745
▁modern	-10.3753
▁sivil	-10.3766
▁hannen	-10.3767
▁turnering	-10.377
hard	-10.3772
▁mangle	-10.3774
▁stone	-10.3784
▁brudd	-10.3787
legging	-10.3788
▁160	-10.3791
friidrettsutøver	-10.3806
▁1903	-10.3806
▁eksperiment	-10.3806
▁tyrkia	-10.3806
▁innlemmet	-10.3806
▁søndag	-10.3806
▁alfred	-10.3806
▁scott	-10.3806
▁hitler	-10.3806
▁feire	-10.3807
▁gullmedalje	-10.3808
▁sjette	-10.3808
▁1907	-10.3809
▁lykke	-10.3812
▁eksport	-10.3812
▁1894	-10.3818
slett	-10.3819
▁psykologi	-10.3821
▁talent	-10.3827
▁kontrollere	-10.3827
▁metro	-10.3829
bebyggelse	-10.3832
▁penge	-10.3832
ordnet	-10.3837
▁37	-10.3854
▁overta	-10.3857
▁sørover	-10.3857
dommer	-10.3858
▁ekspedisjon	-10.3859
▁signal	-10.3863
▁american	-10.3866
▁nettverk	-10.388
▁bevegelsen	-10.3883
▁motsatt	-10.3885
▁long	-10.3886
▁kjemi	-10.3891
▁hå	-10.3899
▁hekk	-10.3904
kortet	-10.3905
▁nød	-10.3946
prest	-10.3958
▁fløy	-10.3958
▁saga	-10.3967
▁skudd	-10.397
trener	-10.3979
▁høyden	-10.3979
▁anke	-10.3994
▁hamar	-10.4
▁tsj	-10.4003
▁barcelona	-10.401
▁jerusalem	-10.401
▁prøyssisk	-10.401
▁eventyr	-10.401
▁award	-10.401
▁zealand	-10.401
▁uvanlig	-10.401
▁henrettet	-10.401
▁kjennetegn	-10.401
▁skildre	-10.401
▁power	-10.4011
▁definere	-10.4011
▁eik	-10.4015
stråle	-10.4017
▁virkelig	-10.4017
▁portrett	-10.4019
▁høyesterett	-10.402
▁kalde	-10.4024
▁1884	-10.4026
▁1870	-10.4033
▁billed	-10.4038
▁human	-10.4039
▁bio	-10.4041
▁estland	-10.4041
▁skan	-10.4042
29	-10.4042
▁seire	-10.4046
▁grov	-10.4053
▁europe	-10.4053
▁opptatt	-10.406
▁tilpasse	-10.4063
låt	-10.4065
▁ingeniør	-10.4067
▁jorda	-10.4073
▁ødelegge	-10.4087
▁homo	-10.409
regjering	-10.409
linje	-10.4091
▁apo	-10.4105
▁lake	-10.4108
▁verv	-10.4112
▁hjul	-10.4124
▁produserer	-10.4126
▁chile	-10.4149
versjon	-10.415
oide	-10.4151
▁mesterskap	-10.4159
▁betegnelse	-10.4174
filosof	-10.4186
▁cel	-10.4201
▁steg	-10.4207
▁infanteri	-10.4214
▁innbyggertall	-10.4218
▁okkupert	-10.4218
▁assistent	-10.4218
▁rådgiver	-10.4218
▁science	-10.4218
▁service	-10.4218
▁skjold	-10.4218
▁avslør	-10.4218
▁besluttet	-10.4218
▁preussen	-10.4218
▁markedet	-10.4218
▁kara	-10.4218
▁doktorgrad	-10.4218
▁tropper	-10.4219
kommende	-10.4219
▁dominerende	-10.4221
▁hvile	-10.4224
▁allmenn	-10.4226
▁gjennombrudd	-10.4228
▁ordre	-10.4229
▁1100	-10.4231
▁250	-10.4231
▁1898	-10.4232
▁wall	-10.4238
▁kommunist	-10.4242
perioden	-10.4247
yang	-10.4249
▁1850	-10.4253
▁kim	-10.4257
13	-10.4264
▁sideelv	-10.4271
▁karakteristisk	-10.4276
▁bratt	-10.429
▁bob	-10.4293
front	-10.4305
▁velger	-10.4306
▁sex	-10.431
▁opplag	-10.431
▁bla	-10.4313
flekk	-10.4314
▁vitne	-10.4317
▁meta	-10.4325
▁skjær	-10.4329
▁beskrivelse	-10.4333
▁niels	-10.4341
bred	-10.4349
▁akse	-10.435
▁ledelsen	-10.4359
▁ytter	-10.4369
▁idrett	-10.4376
▁øre	-10.4377
▁anse	-10.4384
halvøya	-10.4389
▁drap	-10.4415
▁francisco	-10.4431
▁avdøde	-10.4431
▁negativ	-10.4431
▁gustav	-10.4431
▁sprint	-10.4431
▁foregår	-10.4431
▁følelse	-10.4431
▁detaljer	-10.4431
▁ansikt	-10.4431
▁innvalgt	-10.4431
▁opposisjon	-10.4431
▁beordre	-10.4432
▁bayern	-10.4432
▁litterær	-10.4432
▁1915	-10.4433
▁telemark	-10.4434
▁nasjonalpark	-10.4435
▁tjue	-10.4436
▁mangel	-10.4443
▁tsjekkoslovakia	-10.4444
▁east	-10.4444
▁edderkoppen	-10.4444
▁gjenstand	-10.4446
▁ulv	-10.4455
▁samisk	-10.4457
▁antennene	-10.4464
▁adam	-10.4467
▁kyr	-10.4467
plante	-10.447
▁fol	-10.4471
▁legende	-10.4473
▁persisk	-10.4474
▁beskyttelse	-10.4482
▁statue	-10.4485
▁ulykke	-10.4494
▁konstruksjon	-10.4511
▁eksamen	-10.4511
pira	-10.4517
politisk	-10.4521
bølge	-10.4522
▁slottet	-10.4524
brev	-10.4524
▁hjemmebane	-10.4528
▁mose	-10.4538
▁samtale	-10.4568
teori	-10.4587
▁bakke	-10.46
▁fru	-10.4607
verden	-10.4641
▁tradisjonell	-10.4645
▁1906	-10.4648
▁forhindre	-10.4648
▁portugisisk	-10.4648
admiral	-10.4648
▁innvandre	-10.4648
▁lyktes	-10.4648
▁church	-10.4648
▁alexander	-10.4648
▁plattform	-10.4648
▁umulig	-10.4648
▁evangeli	-10.4648
▁hjørne	-10.4648
▁lørdag	-10.4648
▁strøk	-10.4648
▁rektor	-10.4648
▁utmerkelse	-10.4649
▁inngår	-10.4649
▁kulturminne	-10.4649
▁nedenfor	-10.4649
▁steve	-10.4649
▁novell	-10.465
▁nordmenn	-10.4655
▁opptreden	-10.4655
▁onkel	-10.4656
▁britis	-10.467
▁170	-10.4671
▁vennskap	-10.4688
▁statsråd	-10.4689
▁næringsliv	-10.4693
▁brent	-10.4695
▁tann	-10.4698
egnet	-10.47
▁løfte	-10.4705
ferdig	-10.4713
▁forståelse	-10.4732
skrevet	-10.4732
▁pul	-10.4734
kanalen	-10.4745
▁moss	-10.4755
▁slaver	-10.4763
grensen	-10.4767
kjør	-10.4794
▁skuespill	-10.4812
▁håndverk	-10.4813
▁esp	-10.486
▁tidligst	-10.4865
▁fakultet	-10.487
▁konsept	-10.487
▁svalbard	-10.487
▁juridisk	-10.487
▁tyrkisk	-10.487
▁kjøtt	-10.487
▁dru	-10.487
▁debutalbum	-10.4871
▁fyll	-10.4871
▁firmaet	-10.4871
▁rolf	-10.4872
▁magasinet	-10.4872
▁slank	-10.4872
▁skarp	-10.4872
▁brown	-10.4873
▁gravlagt	-10.4874
▁skutt	-10.4878
▁kristiania	-10.488
føderasjon	-10.4885
▁sparta	-10.489
▁walter	-10.4896
▁christiania	-10.4904
▁tenke	-10.4905
▁blanding	-10.4907
▁gö	-10.4911
▁erstatte	-10.493
▁fase	-10.4933
▁lært	-10.4939
▁beslutning	-10.4949
▁forskjellig	-10.495
▁ennå	-10.4952
▁hydro	-10.4967
modell	-10.4971
▁elektron	-10.4982
▁fjern	-10.4983
vendt	-10.4983
▁gli	-10.4984
▁osv	-10.499
▁låten	-10.4998
fyr	-10.5018
▁hov	-10.5021
▁beskrev	-10.5026
71	-10.5038
▁høst	-10.5055
oria	-10.5056
▁ønske	-10.5058
alisert	-10.5067
▁krise	-10.5071
▁fulgt	-10.5075
▁størst	-10.5075
▁vente	-10.5081
strid	-10.5093
▁nevne	-10.5096
▁etablering	-10.5098
▁manuskript	-10.5098
▁renessanse	-10.5098
▁symfoni	-10.5098
▁tønsberg	-10.5098
▁1902	-10.5098
▁etablere	-10.5098
▁vellykke	-10.5098
▁vurdert	-10.5098
▁jakob	-10.5098
▁adolf	-10.5098
▁autoritet	-10.5098
▁fjordane	-10.5098
▁canadisk	-10.5098
▁avgjørende	-10.5098
▁egenskaper	-10.5098
▁tilsvarer	-10.5098
relatert	-10.5099
apparat	-10.51
▁1916	-10.51
▁1911	-10.51
komité	-10.51
▁årsaken	-10.51
▁strekningen	-10.5101
trådte	-10.5101
▁opprettelse	-10.5101
▁strak	-10.5104
▁lokalisert	-10.5104
▁tråd	-10.5109
▁1891	-10.5113
setting	-10.5114
▁1886	-10.5116
▁forvente	-10.5117
▁dyrke	-10.5119
▁utenlands	-10.5119
▁kommunestyre	-10.5124
▁1860	-10.5126
▁johansen	-10.513
▁master	-10.5139
▁diplomat	-10.5153
▁fotballklubb	-10.5167
▁tykk	-10.5172
itch	-10.5183
▁ligge	-10.5183
▁nordover	-10.5185
▁vegg	-10.5189
▁mala	-10.5193
funn	-10.5197
representant	-10.5202
hjul	-10.5202
▁pap	-10.5205
botn	-10.5206
problem	-10.5207
krem	-10.5224
avtale	-10.5228
tysk	-10.5239
▁elektr	-10.5242
▁leon	-10.5248
bomb	-10.5293
▁omkom	-10.5295
▁wel	-10.5304
▁føde	-10.5316
▁stri	-10.5316
▁chicago	-10.533
▁company	-10.533
▁ortodoks	-10.533
▁oxford	-10.533
▁resultert	-10.533
▁victoria	-10.533
▁virginia	-10.533
▁eventuel	-10.533
▁komponert	-10.533
▁returnert	-10.533
▁innbyggerne	-10.533
▁tømmer	-10.533
▁oppretthold	-10.533
▁mesteparten	-10.533
▁global	-10.533
▁utbredelse	-10.533
▁føderal	-10.5331
▁belgisk	-10.5331
▁fortellinger	-10.5332
▁sjanger	-10.5334
▁medaljen	-10.5335
▁fortellingen	-10.5335
▁bedriften	-10.5336
▁hjerne	-10.5336
▁nederlag	-10.5345
▁1896	-10.5348
▁romerne	-10.5356
▁tynn	-10.5361
▁bryst	-10.5362
▁cand	-10.5363
▁derfra	-10.5364
▁torg	-10.5365
▁alfa	-10.5369
▁østover	-10.5372
skjerm	-10.5375
▁kommunistparti	-10.5376
horn	-10.5384
▁stemmene	-10.5403
▁utlandet	-10.5409
▁hind	-10.541
mmel	-10.5426
▁seilte	-10.5426
▁strategisk	-10.5428
teknologi	-10.544
kreft	-10.5453
▁molde	-10.5477
▁hellig	-10.549
▁histori	-10.5504
▁marsj	-10.5524
formede	-10.5533
▁1901	-10.5568
▁helsingfors	-10.5568
▁napoleon	-10.5568
▁påbegynt	-10.5568
▁trommeslager	-10.5568
▁fengsl	-10.5568
▁kapital	-10.5568
▁terreng	-10.5568
▁kritisert	-10.5568
▁sigurd	-10.5568
▁fiolin	-10.5568
▁mektig	-10.5568
▁hjal	-10.5568
▁terror	-10.5569
▁dvd	-10.5569
▁pad	-10.5569
▁studioalbum	-10.5569
▁konsekvens	-10.557
aceae	-10.557
▁tjent	-10.5571
▁programvare	-10.5571
bill	-10.5572
▁overlevd	-10.5573
▁trenger	-10.5573
▁betalt	-10.5576
▁palass	-10.5577
▁moderat	-10.5577
▁møll	-10.5582
▁1887	-10.5589
▁1895	-10.5591
▁mjø	-10.5596
▁ungdomsskole	-10.5607
utenriksminister	-10.5631
▁polar	-10.5632
dratt	-10.5644
▁tallrik	-10.5655
▁uro	-10.5662
turbin	-10.5669
historisk	-10.5684
hjelp	-10.5684
skjær	-10.5687
▁brutt	-10.5689
karriere	-10.569
▁smak	-10.5701
runde	-10.5709
samband	-10.5712
stell	-10.5715
round	-10.5726
▁sving	-10.5731
stokk	-10.5741
talende	-10.5747
avisen	-10.5751
korset	-10.5761
▁henge	-10.5771
▁stortings	-10.5781
▁110	-10.5801
▁yrkes	-10.5807
▁georgia	-10.5808
▁separat	-10.5812
▁angelsaksisk	-10.5812
▁argumenter	-10.5812
▁invitert	-10.5812
ström	-10.5812
▁vestfold	-10.5812
▁rogaland	-10.5812
▁nikola	-10.5812
▁forsvant	-10.5812
▁golf	-10.5813
▁ørken	-10.5813
▁osmansk	-10.5813
▁kobber	-10.5813
▁forårsake	-10.5813
▁forlatt	-10.5813
▁wolf	-10.5814
▁telefon	-10.5814
▁administrere	-10.5814
hjort	-10.5814
▁sverre	-10.5815
▁arkiv	-10.5819
▁kongress	-10.582
▁fastlandet	-10.5821
▁østlandet	-10.5829
▁munk	-10.5832
▁with	-10.5834
▁blind	-10.5834
kall	-10.5839
▁johnson	-10.5841
▁audi	-10.5841
▁inneha	-10.5853
▁road	-10.5884
basert	-10.5894
▁web	-10.59
▁akter	-10.5908
▁million	-10.5931
konsert	-10.5936
dahl	-10.5939
mengde	-10.5943
gudinne	-10.5963
burn	-10.5972
▁trent	-10.5972
37	-10.5989
▁israelsk	-10.5993
fast	-10.6014
regning	-10.6021
▁mikro	-10.6025
løft	-10.6029
endring	-10.6046
strup	-10.6047
ifikasjon	-10.6055
▁forretnings	-10.6059
▁oppnå	-10.6062
▁definisjon	-10.6062
▁låtskriver	-10.6062
▁omdøpt	-10.6062
▁vedlikehold	-10.6062
▁artilleri	-10.6062
▁slippe	-10.6062
▁brensel	-10.6062
▁ungarsk	-10.6062
▁haakon	-10.6062
▁kostnad	-10.6063
▁dominert	-10.6063
▁flyktning	-10.6063
fysikk	-10.6063
▁white	-10.6063
▁hovedkvarter	-10.6064
▁kryp	-10.6064
▁bakterie	-10.6065
▁programleder	-10.6065
▁oppgrader	-10.6066
▁spyd	-10.6066
▁ideologi	-10.6067
▁sykkel	-10.6068
▁tropisk	-10.6069
▁alex	-10.6071
▁skygge	-10.6072
▁1400	-10.6077
▁1889	-10.6083
▁1880	-10.6088
▁ektemann	-10.6093
▁tretten	-10.6095
▁datert	-10.6099
▁marx	-10.6114
vakt	-10.6123
▁fjellkjede	-10.6155
kurs	-10.6155
▁arkeolog	-10.6156
▁urban	-10.616
kandidat	-10.619
konsern	-10.6222
▁menneskelig	-10.6236
▁trodd	-10.6244
▁kab	-10.6246
forsker	-10.6252
▁orient	-10.626
▁avvist	-10.6268
seth	-10.6275
gripe	-10.6285
skade	-10.6286
▁rand	-10.6304
institut	-10.6311
administr	-10.6316
▁innspilt	-10.6319
▁invadert	-10.6319
▁jesuitt	-10.6319
▁maksimal	-10.6319
▁republikansk	-10.6319
vassdraget	-10.6319
▁minoritet	-10.6319
▁offensiv	-10.6319
▁reklame	-10.6319
▁eksisterende	-10.6319
▁texas	-10.6319
▁innledet	-10.6319
frekvens	-10.6319
▁sammenslåing	-10.6319
▁kristus	-10.6319
▁beleiring	-10.6319
▁redusere	-10.6319
materiell	-10.6319
▁bakvingen	-10.6319
▁besetning	-10.6319
▁datamaskin	-10.632
▁referert	-10.632
▁gregor	-10.632
fortelling	-10.632
▁social	-10.6321
▁konstitusjon	-10.6322
▁svein	-10.6322
▁troppen	-10.6322
▁forlenge	-10.6322
▁øvelsen	-10.6325
▁forbudt	-10.6327
▁arena	-10.6334
▁anvende	-10.6334
▁forandre	-10.6334
▁1893	-10.6335
▁faktor	-10.6336
▁1875	-10.6337
▁kin	-10.6349
▁schw	-10.6356
▁lunge	-10.6357
▁utenom	-10.637
▁ørn	-10.639
▁inneba	-10.6414
volum	-10.6427
wick	-10.6428
▁anerkjenne	-10.6433
▁gjeld	-10.6439
temperatur	-10.6453
▁elektronisk	-10.646
▁lukke	-10.6466
kurat	-10.6479
▁afrikansk	-10.6495
▁antenne	-10.6542
kasse	-10.6562
▁tvers	-10.6574
▁petr	-10.6581
▁muslimsk	-10.6582
▁observasjon	-10.6582
▁shakespeare	-10.6582
▁kommandør	-10.6582
▁automatisk	-10.6582
▁risiko	-10.6582
▁referanse	-10.6582
pedagog	-10.6582
▁operatør	-10.6582
▁fremtidig	-10.6582
▁døgn	-10.6582
▁tennis	-10.6582
▁trengte	-10.6582
▁tjener	-10.6583
▁senterpartiet	-10.6583
▁titler	-10.6583
▁regelmessig	-10.6584
▁manager	-10.6584
▁bedrifter	-10.6584
▁generell	-10.6585
▁drammen	-10.6585
▁kreert	-10.6586
▁foreslått	-10.6586
▁institute	-10.6587
wald	-10.6589
veggen	-10.6594
▁øvrig	-10.6595
▁sukker	-10.6598
▁idé	-10.6598
▁åndelig	-10.6598
▁hindu	-10.66
▁fremført	-10.66
▁opptrådte	-10.6601
▁helhet	-10.6616
▁framtid	-10.6619
▁lord	-10.6622
▁lettere	-10.6624
▁lista	-10.6631
▁hevn	-10.6641
lignende	-10.6642
▁emil	-10.6658
kryss	-10.667
spreng	-10.6687
▁dramatisk	-10.6705
▁olympi	-10.6711
tradisjon	-10.6724
▁flåte	-10.6755
lengde	-10.6759
▁term	-10.6792
▁utkom	-10.6808
vikler	-10.6833
▁jim	-10.6841
▁vindu	-10.6843
kommanderende	-10.6852
▁bataljon	-10.6852
▁dekkvingene	-10.6852
▁investering	-10.6852
▁konservative	-10.6852
▁lillehammer	-10.6852
▁popularitet	-10.6852
▁sjeldne	-10.6852
▁uttrykt	-10.6852
▁færøyene	-10.6852
▁gunnar	-10.6852
▁kompetanse	-10.6852
▁kvadrat	-10.6852
▁oppfatning	-10.6852
▁nøkkel	-10.6852
▁permanent	-10.6852
▁noensinne	-10.6853
▁dverg	-10.6853
▁visepresident	-10.6853
▁rednings	-10.6853
▁uefa	-10.6854
▁forklaring	-10.6855
▁hedmark	-10.6855
▁inndelt	-10.6856
▁beskjed	-10.6858
▁frp	-10.6859
▁foregikk	-10.6859
stemme	-10.6859
▁down	-10.686
▁bokstaven	-10.6861
▁piano	-10.6864
▁rytter	-10.6865
pistol	-10.6867
▁1300	-10.6868
▁åpenbar	-10.6869
▁1881	-10.687
▁deltager	-10.6872
▁hamburg	-10.6874
▁koble	-10.6874
▁1878	-10.6874
▁stund	-10.688
▁beholde	-10.6881
▁simon	-10.6896
▁furu	-10.6907
▁administrasjon	-10.6929
▁trond	-10.6936
▁prim	-10.6957
▁oliv	-10.6972
▁barneskole	-10.6981
litteratur	-10.7002
sønn	-10.7002
▁kent	-10.7035
▁gymnas	-10.7055
▁parlament	-10.7057
▁trekant	-10.7087
pakt	-10.7116
▁ambassadør	-10.713
▁country	-10.713
▁elizabeth	-10.713
▁millimeter	-10.713
▁verdensrekord	-10.713
▁xiàn	-10.713
▁fenomen	-10.713
▁gjald	-10.713
▁ovenfor	-10.713
▁antarktis	-10.713
▁oldtiden	-10.713
▁josef	-10.713
▁presentert	-10.713
▁systematisk	-10.713
▁syria	-10.7131
▁lojal	-10.7131
▁utsikt	-10.7131
▁oppfølger	-10.7132
▁import	-10.7132
▁bensin	-10.7133
▁jurist	-10.7133
▁viii	-10.7135
▁formula	-10.7139
▁komposisjon	-10.7139
▁forrige	-10.7139
▁foretatt	-10.714
▁1837	-10.7142
▁blokker	-10.7144
▁lisens	-10.7148
▁1888	-10.7149
▁astronomi	-10.7155
▁geir	-10.7156
▁1885	-10.716
▁blandet	-10.7173
▁asker	-10.7186
▁bevare	-10.7187
astr	-10.7209
kjøring	-10.7214
▁brå	-10.7218
▁chris	-10.724
▁katedral	-10.7246
struktur	-10.7287
arkitekt	-10.7287
transport	-10.7288
olje	-10.7298
hjem	-10.7305
▁aksept	-10.7346
kammer	-10.7357
materiale	-10.7359
hockey	-10.7408
belteasteroide	-10.7415
▁færøysk	-10.7415
▁restaurant	-10.7415
▁windows	-10.7415
▁bryllup	-10.7415
▁jørgen	-10.7416
▁kombinasjon	-10.7416
▁betydningsfull	-10.7416
▁regulere	-10.7416
▁germansk	-10.7416
▁karbon	-10.7416
▁tørke	-10.7416
▁oblast	-10.7417
▁enhver	-10.7418
▁fuktig	-10.7419
▁michel	-10.742
▁sykdommen	-10.7424
▁tibet	-10.7425
▁holdning	-10.7428
▁1871	-10.7429
▁adria	-10.7431
▁avansert	-10.7434
▁arving	-10.7435
▁euro	-10.7438
▁1873	-10.7438
▁mannlig	-10.7441
▁1883	-10.7441
▁regler	-10.7446
▁oval	-10.7447
▁slit	-10.7453
tavle	-10.7457
▁chang	-10.7473
▁pund	-10.7475
▁kongedømme	-10.7531
▁konsul	-10.7548
posisjon	-10.7576
▁strategi	-10.7587
effekt	-10.7587
▁parallell	-10.76
ledende	-10.7636
▁egyptisk	-10.7639
polis	-10.7655
▁traktat	-10.7658
drive	-10.7684
byrd	-10.7702
▁observato	-10.771
▁jomfru	-10.771
▁kronprins	-10.771
▁liverpool	-10.771
▁matematikk	-10.771
▁særskilt	-10.771
▁utkjempe	-10.771
▁dokumentar	-10.771
▁manchester	-10.771
▁litauen	-10.771
▁beatles	-10.771
▁frigjøring	-10.771
▁trygg	-10.771
▁cecil	-10.771
▁mekanisk	-10.771
▁sydney	-10.771
▁elleve	-10.7711
▁samuel	-10.7711
▁bbc	-10.7711
▁nymfe	-10.7711
▁partner	-10.7711
▁bassist	-10.7712
▁utelukkende	-10.7712
▁birke	-10.7712
▁alpene	-10.7712
▁redaksjon	-10.7712
▁generalsekretær	-10.7713
▁konkurs	-10.7714
▁hovedkontor	-10.7719
▁takket	-10.7719
▁gjeldende	-10.7719
▁tilbyr	-10.7724
▁variasjon	-10.7735
sdatter	-10.7738
▁sikte	-10.7748
▁morten	-10.7758
▁plast	-10.7761
▁dreie	-10.7764
abilit	-10.7771
▁variert	-10.778
▁innerst	-10.7793
▁sjakk	-10.7872
økonomi	-10.7884
▁fortelle	-10.7929
▁avslutte	-10.7963
▁driv	-10.7996
jong	-10.7998
journal	-10.8012
▁doktor	-10.8012
▁bryggeri	-10.8013
▁koalisjon	-10.8013
▁central	-10.8013
▁ferdinand	-10.8013
▁fremtredende	-10.8013
▁göteborg	-10.8013
▁hollywood	-10.8013
▁jordskjelv	-10.8013
▁middelsstor	-10.8013
▁opphørte	-10.8013
▁patriark	-10.8013
▁taylor	-10.8013
jylland	-10.8013
▁kristelig	-10.8013
▁latvia	-10.8013
▁tolkning	-10.8013
▁foreløpig	-10.8013
▁pedersen	-10.8013
▁korstog	-10.8013
▁margaret	-10.8013
▁bøndene	-10.8013
▁sibir	-10.8013
▁biologisk	-10.8013
▁senior	-10.8013
▁styremedlem	-10.8013
teatret	-10.8014
▁squa	-10.8014
▁mineral	-10.8014
▁prinsesse	-10.8016
▁center	-10.8017
▁biografi	-10.8021
▁wilson	-10.8022
▁ytelse	-10.8023
▁operere	-10.8023
▁tolke	-10.8026
▁fjerdeplass	-10.8029
▁regiment	-10.8029
▁young	-10.8031
▁maritim	-10.8031
▁tsar	-10.8032
▁klage	-10.8037
▁kontrollert	-10.8042
▁panser	-10.8043
trær	-10.8083
pakke	-10.811
▁skriftlig	-10.8124
▁formell	-10.8128
rafa	-10.8176
redaktør	-10.8197
funksjon	-10.8197
rukket	-10.8251
stitusjon	-10.8319
▁böhm	-10.8325
▁fiendtlig	-10.8325
▁football	-10.8325
▁fundament	-10.8325
▁konkurrert	-10.8325
▁melbourne	-10.8325
▁molekyl	-10.8325
▁pilegrim	-10.8325
▁kommandant	-10.8325
▁skjøt	-10.8325
▁thailand	-10.8325
▁østfold	-10.8325
▁konstruert	-10.8325
▁romerriket	-10.8325
▁fredsavtale	-10.8325
▁forgjenger	-10.8325
▁leilighet	-10.8325
▁prince	-10.8325
▁hebraisk	-10.8325
▁kommentar	-10.8325
▁trondhjem	-10.8325
▁tilbrakt	-10.8325
▁avviklet	-10.8326
▁brigade	-10.8326
▁für	-10.8326
▁kristendommen	-10.8327
ск	-10.8327
▁gratis	-10.8327
▁skrå	-10.8327
▁gjøvik	-10.8327
▁utforming	-10.8327
▁korpset	-10.8327
▁døpt	-10.8327
▁stengt	-10.8328
на	-10.8328
▁høydepunkt	-10.8328
▁medvirket	-10.8328
terminal	-10.8329
▁smelte	-10.8329
▁følt	-10.8331
▁eiendommer	-10.8331
▁hydrogen	-10.8331
rettighetene	-10.8331
▁jackson	-10.8332
▁stevne	-10.8334
▁legeme	-10.8335
▁viktor	-10.8336
▁hylle	-10.8336
▁bevisst	-10.8347
▁selvstendighet	-10.8353
▁månen	-10.8369
▁kunstnerisk	-10.8487
gjerd	-10.8491
head	-10.8499
▁verdenscup	-10.8501
pengene	-10.8509
▁minutt	-10.8509
tittelen	-10.8518
president	-10.8519
orkester	-10.8519
aktivitet	-10.8519
ansvar	-10.8526
programmer	-10.8529
maleri	-10.8531
▁øygrupp	-10.8552
▁slave	-10.8624
▁inspirasjon	-10.8647
▁bulgaria	-10.8648
▁hongkong	-10.8648
▁mislykke	-10.8648
▁nøytral	-10.8648
▁shanghai	-10.8648
▁society	-10.8648
▁taiwan	-10.8648
▁babylon	-10.8648
▁hospital	-10.8648
▁forkropp	-10.8648
▁kronologisk	-10.8648
▁antyder	-10.8648
▁howard	-10.8648
▁amatør	-10.8648
▁baseball	-10.8648
▁felttog	-10.8648
▁snorre	-10.8648
▁statsborger	-10.8648
▁alexandr	-10.8648
▁bridge	-10.8648
worth	-10.8648
▁igjennom	-10.8648
▁andré	-10.8648
▁kjøretøy	-10.8648
▁oppheve	-10.8649
▁søsken	-10.8649
reservat	-10.8649
▁prinsippet	-10.8649
▁stillehavet	-10.865
▁kenya	-10.8651
▁pierre	-10.8652
▁holstein	-10.8656
▁zhang	-10.8656
rovision	-10.8668
▁skuespillerinne	-10.8669
▁nederst	-10.8671
▁forretningsmann	-10.8676
▁praha	-10.871
▁stortingsvalg	-10.8715
▁rapportert	-10.8742
næs	-10.8761
▁stanse	-10.8768
▁ytterst	-10.8784
▁erobre	-10.8797
kontrakt	-10.8853
bunn	-10.8866
ifisering	-10.8866
▁rådhus	-10.887
yuan	-10.8883
▁dynasti	-10.8909
▁diplomatisk	-10.8912
skikk	-10.8923
▁bispe	-10.8939
▁absolutt	-10.8981
▁columbia	-10.8981
▁illustrer	-10.8981
▁kollektiv	-10.8981
▁kvartfinale	-10.8981
▁leipzig	-10.8981
▁vurdering	-10.8981
skvadron	-10.8981
▁arbeidsgiver	-10.8981
▁buskerud	-10.8981
▁innebærer	-10.8981
▁skandinavisk	-10.8981
▁spellemann	-10.8981
▁vurdere	-10.8981
▁regulering	-10.8981
▁rosenborg	-10.8981
▁rockeband	-10.8981
▁diskusjon	-10.8981
▁jødene	-10.8981
▁guinea	-10.8981
▁hittil	-10.8981
▁normannisk	-10.8981
▁fiktiv	-10.8981
▁seinere	-10.8981
▁drivstoff	-10.8982
▁mastergrad	-10.8982
▁erstatning	-10.8982
▁betjene	-10.8982
▁søndr	-10.8983
▁samlealbum	-10.8983
▁boston	-10.8984
▁smitte	-10.8986
▁kongeriket	-10.8986
▁fylkesting	-10.8987
▁eiendommen	-10.8987
gjær	-10.8988
▁krigføring	-10.8989
▁2018	-10.8989
▁epoke	-10.8992
montert	-10.8998
▁lidelse	-10.9003
▁tilfeldig	-10.9005
▁tilsyne	-10.901
▁klokke	-10.9014
▁sektor	-10.9024
▁utvidelse	-10.9036
▁landområde	-10.9067
konstruksjon	-10.9197
eksamen	-10.9197
bibliotek	-10.9198
instrument	-10.9198
fylke	-10.9198
museet	-10.9207
koloni	-10.9209
▁undersøke	-10.9315
▁adskilt	-10.9326
▁filippinene	-10.9326
▁frankfurt	-10.9326
▁nobelprisen	-10.9326
▁skandinavia	-10.9326
▁sparebank	-10.9326
▁territorium	-10.9326
▁venezia	-10.9326
▁ferskvann	-10.9326
sykepleie	-10.9326
▁colombia	-10.9326
▁embeds	-10.9326
▁episoden	-10.9326
▁forbedring	-10.9326
tilførsel	-10.9326
▁dublin	-10.9326
disiplin	-10.9326
▁beslektet	-10.9326
▁henrettelse	-10.9326
▁protestantisk	-10.9326
▁ålesund	-10.9326
▁stadium	-10.9326
▁margret	-10.9327
▁protein	-10.9327
▁søvn	-10.9327
▁larvik	-10.9327
▁serbisk	-10.9327
▁sophi	-10.9328
▁høgskolen	-10.9328
▁kristiansund	-10.9328
▁middelhavet	-10.9328
▁forandring	-10.9329
▁franskmennene	-10.9329
▁pioner	-10.9329
▁mottaker	-10.933
▁poesi	-10.933
▁farao	-10.9331
▁forhandlinger	-10.9332
▁fasade	-10.9332
▁sultan	-10.9332
▁søyle	-10.934
▁manuel	-10.9358
▁utskil	-10.9358
▁folkeparti	-10.9405
orientert	-10.9406
▁pels	-10.9411
bevegelse	-10.9419
▁utvide	-10.9447
▁rikdom	-10.9453
provin	-10.9469
konsulent	-10.9523
▁offentliggjor	-10.954
hovedstad	-10.9555
fløy	-10.9556
prøve	-10.9572
revolusjonen	-10.965
▁ambassade	-10.9683
▁basketball	-10.9683
▁britannia	-10.9683
▁elefant	-10.9683
▁katastrofe	-10.9683
▁konsentrert	-10.9683
▁pronotum	-10.9683
▁resolusjon	-10.9683
▁satellitt	-10.9683
▁uppsala	-10.9683
▁vingespenn	-10.9683
▁kavaleri	-10.9683
▁kringkasting	-10.9683
▁albania	-10.9683
▁ntnu	-10.9683
▁amundsen	-10.9683
▁tillatelse	-10.9683
▁folketallet	-10.9683
▁bærum	-10.9683
▁utpekt	-10.9683
▁plukke	-10.9683
bransjen	-10.9683
▁erobring	-10.9683
▁underholdning	-10.9683
▁vakre	-10.9683
orkestre	-10.9683
▁seoul	-10.9683
▁fangst	-10.9684
▁bønder	-10.9684
▁castle	-10.9684
▁ronald	-10.9684
▁hyppig	-10.9684
▁gerhard	-10.9684
▁virkeligheten	-10.9685
▁betong	-10.9686
▁reformasjonen	-10.9686
▁profet	-10.9687
▁foreslo	-10.9687
▁borgermester	-10.9688
▁søstre	-10.9688
▁håndtere	-10.9691
▁befeste	-10.9694
▁armensk	-10.9702
▁integrert	-10.9704
▁forsterke	-10.9707
▁spesialisert	-10.9719
▁usikker	-10.9785
▁parallel	-10.9818
verktøy	-10.9821
arrest	-10.985
▁domkirke	-10.9908
frukt	-10.9925
spørsmål	-10.9925
sesongen	-10.9926
blå	-10.9928
operasjon	-10.9936
lønn	-10.9958
hawk	-10.9989
vennlig	-11.0003
▁atlanterhavet	-11.0053
▁bekjempe	-11.0053
▁bulgarsk	-11.0053
▁cambridge	-11.0053
▁kjønnsmodn	-11.0053
▁konstantinopel	-11.0053
▁köln	-11.0053
▁luxembourg	-11.0053
▁massachusetts	-11.0053
▁prefekturet	-11.0053
▁sluppet	-11.0053
▁sympati	-11.0053
▁heidelberg	-11.0053
▁konklave	-11.0053
▁progressiv	-11.0053
▁rudolf	-11.0053
▁libanon	-11.0053
▁nidaros	-11.0053
▁ukraina	-11.0053
▁heinrich	-11.0053
▁kurfyrst	-11.0053
▁sivilisasjon	-11.0053
▁stridsvogn	-11.0053
▁sicilia	-11.0053
▁statistikk	-11.0053
▁nevø	-11.0053
▁deutsche	-11.0053
▁diameter	-11.0054
▁domstol	-11.0054
▁aktuell	-11.0054
▁axel	-11.0054
▁theodor	-11.0054
▁trussel	-11.0054
▁autonom	-11.0054
▁ulovlig	-11.0054
▁contest	-11.0054
▁verdensarv	-11.0054
▁selvmord	-11.0054
▁alaska	-11.0054
▁lagtinget	-11.0054
▁omstridt	-11.0055
▁josé	-11.0055
▁feilaktig	-11.0055
▁innflytelsesrik	-11.0055
▁nepal	-11.0055
▁grieg	-11.0056
▁innviet	-11.0056
▁embete	-11.0056
▁forenkle	-11.006
▁keltisk	-11.0061
▁death	-11.0062
▁bønn	-11.0062
▁kunngjor	-11.0062
▁befan	-11.007
syklus	-11.0072
▁nedtegne	-11.0073
▁rykte	-11.0077
▁harmoni	-11.0077
▁sorg	-11.0082
ière	-11.0086
fordeling	-11.0095
smykke	-11.01
premie	-11.014
fellesskap	-11.017
▁begynt	-11.0183
elsket	-11.0186
nevnte	-11.0236
handlet	-11.0236
løv	-11.0264
hastighet	-11.0309
likevel	-11.031
▁representere	-11.0346
kjeden	-11.039
gjorde	-11.0402
direktoratet	-11.0438
▁aftenposten	-11.0438
▁anbefalt	-11.0438
▁association	-11.0438
▁asteroide	-11.0438
▁favoritt	-11.0438
▁forøvrig	-11.0438
▁giovanni	-11.0438
▁guddommelig	-11.0438
▁inskripsjon	-11.0438
▁mangfold	-11.0438
▁observert	-11.0438
▁palestina	-11.0438
▁sarpsborg	-11.0438
▁spanjolene	-11.0438
▁vålerenga	-11.0438
▁væpne	-11.0438
▁warszawa	-11.0438
▁intellektuel	-11.0438
▁kjæreste	-11.0438
▁komplisert	-11.0438
▁jamaica	-11.0438
▁naturgass	-11.0438
▁oppdatert	-11.0438
▁geometr	-11.0438
▁kontroversiell	-11.0438
▁midtøsten	-11.0438
▁nynorsk	-11.0438
▁kortvarig	-11.0438
▁gjenvalgt	-11.0438
▁arsenal	-11.0438
▁korrekt	-11.0438
kvartett	-11.0438
▁begravet	-11.0438
▁kontrast	-11.0438
▁begravelse	-11.0438
▁imponere	-11.0438
▁sandefjord	-11.0438
brønn	-11.0438
▁gabriel	-11.0439
▁walisisk	-11.0439
▁atlanta	-11.0439
mouth	-11.0439
▁konrad	-11.0439
▁naturreservat	-11.044
▁efter	-11.044
▁styring	-11.044
▁fiender	-11.044
▁tilnærme	-11.0441
▁planlegging	-11.0441
▁turbiner	-11.0441
▁flytende	-11.0441
terapi	-11.0443
▁operert	-11.0448
basseng	-11.0449
▁vinterleke	-11.0451
fluer	-11.0461
butikk	-11.055
gjerning	-11.0558
▁alliert	-11.057
hefte	-11.0576
tempelet	-11.0583
▁voldsom	-11.065
betegnelse	-11.0709
prosessen	-11.0709
soldater	-11.071
sentrum	-11.0711
radio	-11.0719
ressurser	-11.0735
▁forberede	-11.0741
▁omdanne	-11.0756
▁dominere	-11.0833
▁pseudo	-11.0838
▁annonsert	-11.0838
▁argentinsk	-11.0838
▁assosier	-11.0838
▁jugoslavia	-11.0838
▁makedonia	-11.0838
▁musikkvideo	-11.0838
▁norwegian	-11.0838
▁restaurering	-11.0838
▁selvbiografi	-11.0838
▁komplett	-11.0838
▁kroatia	-11.0838
▁oksygen	-11.0838
▁soloartist	-11.0838
▁vatikan	-11.0838
▁forveksle	-11.0838
▁opplysninger	-11.0838
▁uavgjort	-11.0838
▁bystatus	-11.0838
▁hoppuka	-11.0838
▁utstrakt	-11.0838
▁embets	-11.0838
▁diverse	-11.0838
▁diskutert	-11.0838
▁stephen	-11.0838
▁bronsealder	-11.0838
▁landskamper	-11.0838
▁wright	-11.0838
▁petersburg	-11.0838
▁vilkår	-11.0838
▁chelsea	-11.0838
▁ordinær	-11.0838
leverandør	-11.0839
ensemble	-11.0839
▁innrømme	-11.0839
▁forhandlingene	-11.084
▁omsetning	-11.084
▁brakte	-11.084
▁stedsnavn	-11.0842
▁nyhets	-11.0843
▁isolert	-11.0843
▁elsker	-11.0844
mekanisme	-11.0846
hvelv	-11.0851
forsikring	-11.0852
▁sosialdemokrat	-11.0853
▁begrunne	-11.0892
amerikanske	-11.0901
bundet	-11.0906
farget	-11.097
relasjon	-11.1049
medisin	-11.1126
offiser	-11.1126
studier	-11.1127
flagg	-11.1128
territoriet	-11.1255
▁ammunisjon	-11.1255
▁corporation	-11.1255
▁eksplosjon	-11.1255
▁evolusjon	-11.1255
▁klassiker	-11.1255
▁kontinuerlig	-11.1255
▁kristoffer	-11.1255
▁ludwig	-11.1255
▁ontario	-11.1255
▁opplysnings	-11.1255
▁plutselig	-11.1255
▁prestegjeld	-11.1255
▁alminnelig	-11.1255
▁genitalie	-11.1255
▁muslimer	-11.1255
▁teoretisk	-11.1255
▁besittelse	-11.1255
▁krønike	-11.1255
▁essay	-11.1255
▁konsonant	-11.1255
▁ektefelle	-11.1255
▁annerledes	-11.1255
▁vannpolo	-11.1255
▁faktum	-11.1255
▁florida	-11.1255
▁gravitasjon	-11.1255
▁haugesund	-11.1255
▁eksistens	-11.1255
▁grekerne	-11.1255
▁trykt	-11.1255
▁ustabil	-11.1255
▁hjelm	-11.1255
ovitsj	-11.1255
▁færre	-11.1255
▁seksuell	-11.1255
▁vegetasjon	-11.1255
▁bjørk	-11.1255
▁rumensk	-11.1255
▁skyldte	-11.1256
▁dødsfall	-11.1256
▁dybde	-11.1256
▁myrdet	-11.1256
▁utfordre	-11.1256
▁facto	-11.1256
▁røyk	-11.1257
kobling	-11.1257
▁tillatt	-11.1258
▁court	-11.1258
▁lovgive	-11.1258
▁gjenopprette	-11.1258
▁egenskapen	-11.1261
▁fossile	-11.1266
horax	-11.1288
▁forekomme	-11.1295
▁sjanse	-11.131
flytting	-11.1316
traktaten	-11.133
▁artsbestemme	-11.1412
▁overordne	-11.1415
▁massa	-11.1456
kommando	-11.1561
resultat	-11.1562
design	-11.1563
ulykke	-11.1565
▁utforske	-11.1605
kritiker	-11.165
▁academy	-11.1689
▁avskaffet	-11.1689
▁ekvator	-11.1689
▁etiopia	-11.1689
▁identifisere	-11.1689
▁indonesia	-11.1689
▁innstiftet	-11.1689
▁kapittel	-11.1689
▁meksikansk	-11.1689
▁müller	-11.1689
▁pedipalpene	-11.1689
▁publikasjon	-11.1689
▁tanzania	-11.1689
▁tilstedeværelse	-11.1689
▁tilstrekkelig	-11.1689
▁ukrainsk	-11.1689
▁utnevnelse	-11.1689
▁vancouver	-11.1689
▁hønefoss	-11.1689
▁tsjekkisk	-11.1689
▁begrensning	-11.1689
▁flaggbærer	-11.1689
▁grün	-11.1689
▁quisling	-11.1689
▁cognac	-11.1689
▁veksel	-11.169
▁kroppsbygning	-11.169
▁regulert	-11.169
givenhet	-11.169
▁wagner	-11.169
▁muntlig	-11.169
▁nelson	-11.169
▁burgund	-11.169
▁seriøs	-11.169
▁vanskeligheter	-11.169
▁kommunisme	-11.169
▁batteri	-11.169
▁finansiert	-11.169
▁oppfinnelse	-11.169
▁visuell	-11.169
▁geistlig	-11.169
▁firenze	-11.169
▁apollo	-11.169
▁amalie	-11.169
▁munch	-11.169
▁atmosfæren	-11.1691
▁detroit	-11.1691
▁bemerket	-11.1691
▁ekspert	-11.1691
▁assistere	-11.1691
▁sunget	-11.1691
▁stefan	-11.1691
▁betaling	-11.1691
▁oppfordre	-11.1691
▁regjere	-11.1695
▁kineser	-11.1698
▁puppestadi	-11.1698
▁avgjørelse	-11.17
▁puppe	-11.1706
▁nigeria	-11.1713
▁forvalte	-11.1728
7	-11.1737
▁godkjenne	-11.1763
▁koreansk	-11.1795
komite	-11.1839
herredømme	-11.1858
▁offisiell	-11.1888
emmelig	-11.1893
gruppa	-11.1921
størrelse	-11.2016
utdanning	-11.2016
grønn	-11.2016
flåten	-11.2016
sykdom	-11.2025
▁gjø	-11.2034
ingeniør	-11.2034
utstyr	-11.2039
lemmene	-11.2071
signal	-11.2094
drevne	-11.2098
▁frilufts	-11.2144
▁bysantinsk	-11.2144
▁distribusjon	-11.2144
▁keramikk	-11.2144
▁lokomotiv	-11.2144
▁narkotika	-11.2144
▁propaganda	-11.2144
▁psykisk	-11.2144
▁venezuela	-11.2144
▁kongsvinger	-11.2144
▁matematisk	-11.2144
▁jersey	-11.2144
▁anmelder	-11.2144
▁marokko	-11.2144
▁sogneprest	-11.2144
▁angivelig	-11.2144
▁patriot	-11.2144
▁bolivia	-11.2144
▁forberedt	-11.2144
differens	-11.2144
▁belønnet	-11.2144
▁charlotte	-11.2144
▁unesco	-11.2144
▁væske	-11.2144
▁ingrid	-11.2144
▁fødselsår	-11.2144
▁imperiet	-11.2144
▁massiv	-11.2144
▁stuart	-11.2144
koordinat	-11.2144
sjåfør	-11.2145
▁lewis	-11.2145
▁russerne	-11.2145
▁libya	-11.2145
▁armenia	-11.2145
samfund	-11.2145
▁lensmann	-11.2145
▁veksle	-11.2145
▁skjebne	-11.2145
▁skikkelse	-11.2145
▁dream	-11.2145
▁monroe	-11.2145
verdighet	-11.2146
▁originaltittel	-11.2146
▁vrak	-11.2147
▁moralsk	-11.2147
▁stryk	-11.2147
▁fienden	-11.215
▁mystisk	-11.2154
▁syklist	-11.2164
▁rakett	-11.2184
▁dispone	-11.2206
▁gloppe	-11.2213
embede	-11.2244
kvarter	-11.2288
temple	-11.2304
forsvarsminister	-11.235
bestemmelse	-11.2368
flaske	-11.2378
▁dobbel	-11.2385
▁konvensjon	-11.2443
▁vestkyst	-11.2478
fotball	-11.2492
interesse	-11.2493
sentral	-11.2496
▁astronom	-11.2577
köping	-11.262
skrittspartiet	-11.262
▁aluminium	-11.262
▁beliggenhet	-11.262
▁forfremmet	-11.262
▁generalguvernør	-11.262
▁glasgow	-11.262
▁illustrasjon	-11.262
▁kjøkken	-11.262
▁komponent	-11.262
▁legendarisk	-11.262
▁normandie	-11.262
▁omstendighete	-11.262
▁oppvarming	-11.262
▁refleksjon	-11.262
▁representasjon	-11.262
▁restaurert	-11.262
▁schleswig	-11.262
▁slalåm	-11.262
▁toppscorer	-11.262
▁tsjekkia	-11.262
▁universität	-11.262
▁vladimir	-11.262
▁buddhist	-11.262
▁identifisert	-11.262
▁lofoten	-11.262
▁stewart	-11.262
▁cruise	-11.262
▁registrere	-11.262
▁jupiter	-11.262
▁mistenkt	-11.262
▁styrmann	-11.262
▁uganda	-11.262
▁kriterie	-11.262
▁wallace	-11.262
▁vertikal	-11.262
▁primitiv	-11.262
▁gjeninnfør	-11.262
▁feiring	-11.262
▁diagnose	-11.262
▁frimurer	-11.262
▁parlamentarisk	-11.262
▁madrid	-11.262
▁forestillinger	-11.2621
▁skåne	-11.2621
▁nichol	-11.2621
▁bebodd	-11.2621
▁kombinere	-11.2621
▁ferdigheter	-11.2621
▁forestillingen	-11.2621
▁rivaliser	-11.2621
▁etterlatt	-11.2621
▁forbinder	-11.2621
selskab	-11.2621
▁hovedpersonen	-11.2621
▁krigsfange	-11.2621
monopol	-11.2621
▁margin	-11.2622
▁rifle	-11.2625
▁presentere	-11.2628
truffet	-11.2631
▁pleie	-11.2665
▁pumpe	-11.271
kjennelse	-11.2876
bregne	-11.2901
katedralen	-11.2912
slutningen	-11.2943
▁america	-11.2968
▁rømme	-11.2975
europeisk	-11.2992
▁psyko	-11.3071
▁gjengjeld	-11.312
reservoar	-11.312
▁arrangør	-11.312
▁bachelor	-11.312
▁comeback	-11.312
▁demonstrasjon	-11.312
▁douglas	-11.312
▁elektrisitet	-11.312
0	-12.0296
ã	-12.7743
