<unk>	0
<s>	0
</s>	0
.	-3.0388
s	-3.24378
e	-3.55974
▁	-3.60089
t	-4.02076
er	-4.11574
en	-4.12509
▁og	-4.3494
▁i	-4.46378
r	-4.60542
▁er	-4.67545
n	-4.72515
a	-4.76098
et	-5.01
i	-5.19518
▁av	-5.20535
d	-5.32021
o	-5.33912
▁for	-5.3983
k	-5.44592
y	-5.50777
▁en	-5.55285
▁var	-5.67112
▁på	-5.69227
▁til	-5.69591
g	-5.6983
▁som	-5.73493
▁med	-5.7359
m	-5.7791
▁de	-5.77954
ne	-5.82299
ene	-5.8239
te	-5.94405
▁har	-5.95639
l	-5.99642
h	-6.00094
f	-6.04991
▁den	-6.08307
▁fra	-6.11239
c	-6.12529
u	-6.12803
in	-6.13202
de	-6.13721
p	-6.15769
b	-6.26128
ing	-6.29312
us	-6.29731
al	-6.30306
re	-6.31042
▁ble	-6.32561
v	-6.32701
▁s	-6.33319
an	-6.33806
es	-6.36079
le	-6.39043
▁et	-6.40602
▁a	-6.40911
▁det	-6.43494
na	-6.44181
▁be	-6.45618
▁p	-6.53249
on	-6.53771
▁han	-6.54607
ar	-6.57597
z	-6.59311
is	-6.60582
▁the	-6.61719
▁m	-6.63404
▁ved	-6.64207
▁eller	-6.65497
▁også	-6.65802
ri	-6.67871
sk	-6.68317
w	-6.70881
▁ut	-6.71067
ia	-6.71097
▁d	-6.71854
▁f	-6.72836
x	-6.7323
▁under	-6.74065
▁to	-6.74907
▁kan	-6.75698
▁k	-6.77165
ter	-6.7755
j	-6.77563
2	-6.77605
um	-6.80059
▁å	-6.80237
5	-6.81006
ch	-6.81239
▁b	-6.81869
el	-6.82159
or	-6.83429
4	-6.83437
3	-6.84915
▁over	-6.87987
ta	-6.89088
7	-6.89464
▁g	-6.89513
▁se	-6.90461
ende	-6.94217
ma	-6.94759
ng	-6.95605
▁c	-6.95753
ens	-6.95856
▁in	-6.96408
é	-6.96689
▁opp	-6.97372
8	-6.97556
▁al	-6.9801
der	-6.9823
▁om	-6.98554
6	-6.99383
ur	-7.02481
▁inn	-7.03094
ra	-7.03254
ke	-7.04231
▁an	-7.04466
ck	-7.05098
st	-7.05592
▁h	-7.05631
la	-7.0665
ka	-7.06781
▁18	-7.06839
▁l	-7.0715
land	-7.07174
il	-7.07914
ler	-7.08223
▁la	-7.08944
9	-7.08987
▁re	-7.09983
▁etter	-7.09994
▁da	-7.10013
▁andre	-7.10154
▁u	-7.1037
da	-7.10941
di	-7.12696
li	-7.14524
1	-7.14861
▁ligger	-7.1809
▁n	-7.20537
ver	-7.21255
ger	-7.21859
▁of	-7.22596
be	-7.22725
ga	-7.22773
ve	-7.23066
▁ha	-7.25509
0	-7.25759
isk	-7.25813
▁and	-7.26151
lo	-7.26434
▁t	-7.27041
ro	-7.27099
nes	-7.27304
ja	-7.28117
▁bo	-7.29611
to	-7.30352
at	-7.30701
▁li	-7.30718
stad	-7.30791
▁v	-7.3092
as	-7.30997
▁no	-7.31073
ge	-7.31592
lig	-7.32312
ed	-7.32969
▁co	-7.32998
▁her	-7.33061
▁le	-7.33421
ko	-7.33573
▁w	-7.33671
▁na	-7.33766
ig	-7.33985
dal	-7.34536
va	-7.34852
▁hoved	-7.35186
mi	-7.3588
▁tre	-7.36239
▁st	-7.36799
th	-7.37637
it	-7.37745
man	-7.37822
ry	-7.3858
▁ro	-7.38934
den	-7.39206
ul	-7.39722
iske	-7.39942
son	-7.40149
ba	-7.40332
ut	-7.41018
id	-7.4106
▁at	-7.41464
▁ma	-7.42501
ner	-7.43027
á	-7.43743
øy	-7.43814
si	-7.44297
▁o	-7.44429
▁blant	-7.44463
▁di	-7.45322
ton	-7.45378
▁sa	-7.4604
ling	-7.46282
bo	-7.46339
▁ca	-7.47724
ad	-7.47768
for	-7.48043
kk	-7.48297
nde	-7.484
ce	-7.48858
▁j	-7.49183
ic	-7.49184
▁nord	-7.49855
▁vi	-7.5006
▁pa	-7.50245
co	-7.50605
vi	-7.5105
berg	-7.51181
▁du	-7.51349
ker	-7.51811
ina	-7.52005
ti	-7.52067
▁r	-7.52073
▁he	-7.52891
▁man	-7.53282
me	-7.53313
os	-7.53866
mann	-7.54067
▁hans	-7.54122
▁ho	-7.54197
▁do	-7.549
▁sp	-7.56018
ha	-7.56291
▁ni	-7.56959
ning	-7.57006
ir	-7.57274
▁ka	-7.57771
ol	-7.57796
by	-7.57962
▁mot	-7.57991
▁si	-7.58037
▁mo	-7.58442
▁lo	-7.58534
▁gjennom	-7.58994
▁ra	-7.59199
ff	-7.59347
ly	-7.59679
▁as	-7.60048
▁po	-7.6033
å	-7.60939
ør	-7.61129
gen	-7.6119
ske	-7.61369
pe	-7.61847
▁men	-7.6229
▁mar	-7.62778
om	-7.62864
▁tor	-7.63251
▁mellom	-7.635
am	-7.63903
▁per	-7.63911
bi	-7.64301
▁kalles	-7.65015
▁so	-7.65725
▁ri	-7.66065
kt	-7.66144
go	-7.66338
pp	-7.66509
bu	-7.66801
do	-7.66965
▁sin	-7.67058
▁kinesisk	-7.67196
▁kon	-7.67247
▁stor	-7.67262
mo	-7.67643
gi	-7.67809
▁am	-7.67854
▁der	-7.68143
no	-7.68453
▁su	-7.68482
▁sch	-7.69049
ell	-7.69226
vis	-7.69491
▁lu	-7.69585
▁by	-7.69638
ø	-7.6983
ca	-7.70107
▁pi	-7.7023
het	-7.70508
ik	-7.71095
ster	-7.71123
ov	-7.71534
▁ba	-7.7169
erte	-7.71841
tor	-7.7198
▁me	-7.72034
▁hadde	-7.7204
▁ny	-7.72472
lige	-7.73644
ö	-7.74115
▁ta	-7.74414
▁1	-7.75785
▁or	-7.75845
ho	-7.76258
▁seg	-7.77025
vik	-7.77048
▁kom	-7.77095
je	-7.78035
▁ti	-7.78088
un	-7.78203
▁ko	-7.78259
ist	-7.78323
im	-7.78471
▁bar	-7.78693
▁dette	-7.79345
ant	-7.79589
ven	-7.7983
▁2	-7.80113
ci	-7.80875
ll	-7.81047
mp	-7.81303
▁pro	-7.81806
lin	-7.82559
▁17	-7.83232
▁el	-7.83233
▁gu	-7.83934
æ	-7.84052
▁flere	-7.84152
ste	-7.84671
tra	-7.84704
▁te	-7.85518
▁mor	-7.85697
▁fri	-7.85948
▁sammen	-7.86851
mer	-7.87698
▁z	-7.87735
ment	-7.87905
▁hun	-7.88015
í	-7.88114
▁ikke	-7.88215
io	-7.8829
skap	-7.88644
per	-7.89068
sh	-7.89237
▁denne	-7.9003
sjon	-7.90718
▁y	-7.90732
▁bu	-7.91089
▁del	-7.91241
pa	-7.91256
rett	-7.92395
ó	-7.93069
ie	-7.93255
▁ja	-7.93267
▁hu	-7.93462
▁19	-7.93495
tter	-7.9377
ni	-7.93879
ä	-7.94015
▁fa	-7.94115
▁bi	-7.94263
ion	-7.9434
else	-7.94518
▁jo	-7.94622
▁15	-7.94653
op	-7.94751
▁min	-7.94933
tte	-7.9538
au	-7.95425
▁ga	-7.95493
hu	-7.95584
▁far	-7.96255
itt	-7.96265
▁født	-7.96358
▁første	-7.9643
od	-7.96916
ica	-7.97311
▁car	-7.97718
▁gi	-7.97935
av	-7.97952
▁disse	-7.9799
▁sol	-7.98196
kke	-7.98372
var	-7.98439
▁ru	-7.98691
▁ab	-7.98803
ak	-7.99032
▁sør	-7.99061
▁x	-7.99405
gu	-7.99619
po	-7.9995
ki	-8.00063
ian	-8.00401
del	-8.00854
▁fikk	-8.00881
yl	-8.00904
ru	-8.01022
ac	-8.01083
▁alle	-8.01087
ord	-8.01212
ou	-8.01517
sel	-8.01609
pi	-8.01815
▁blir	-8.01832
sta	-8.0199
lag	-8.02002
ok	-8.02123
▁mi	-8.0219
asjon	-8.02363
ang	-8.02537
ation	-8.02676
gg	-8.02733
▁ad	-8.02855
▁land	-8.02965
hold	-8.03207
▁vest	-8.03711
ard	-8.03929
▁pe	-8.05126
▁tra	-8.05171
▁con	-8.05463
▁ge	-8.05722
ine	-8.0574
▁finnes	-8.05813
men	-8.06755
▁kommune	-8.06761
▁tilhører	-8.06774
år	-8.06846
▁tidligere	-8.0692
▁fly	-8.0693
ium	-8.08255
▁bestå	-8.08881
vin	-8.09187
▁øst	-8.09311
tal	-8.09445
▁bra	-8.09623
iv	-8.10027
ær	-8.10129
ung	-8.10197
▁san	-8.10332
em	-8.10425
00	-8.10617
▁go	-8.10743
▁navn	-8.10878
▁samt	-8.11312
lu	-8.11546
▁tri	-8.11695
▁ch	-8.11947
▁ned	-8.12404
▁ju	-8.12746
ering	-8.12753
ring	-8.12989
▁sam	-8.13112
ot	-8.13165
and	-8.13231
erne	-8.13373
hi	-8.13987
▁annet	-8.14482
▁mer	-8.14931
▁fi	-8.15631
▁byen	-8.16329
▁ne	-8.16446
▁så	-8.16508
▁omfatter	-8.16521
▁navnet	-8.1688
nd	-8.16962
kel	-8.1718
▁wi	-8.17661
und	-8.17807
over	-8.18049
opp	-8.18485
▁ei	-8.18877
tion	-8.18939
▁my	-8.18996
jo	-8.19002
▁vann	-8.19058
ber	-8.19781
и	-8.1988
▁kalt	-8.20555
dag	-8.20806
sch	-8.20872
ede	-8.20877
▁va	-8.20935
ā	-8.20961
zi	-8.21091
▁nå	-8.21102
ny	-8.21278
stein	-8.21754
tur	-8.21832
▁sal	-8.22378
ju	-8.22451
▁ofte	-8.22729
tar	-8.23219
▁pre	-8.23712
tu	-8.23908
ow	-8.24249
▁lag	-8.24453
▁tu	-8.24602
▁3	-8.24622
hus	-8.25165
▁jan	-8.25332
ek	-8.25334
▁følgende	-8.25427
▁all	-8.25665
ld	-8.25821
ley	-8.26089
▁tro	-8.26155
mar	-8.26344
▁russisk	-8.26472
ong	-8.26752
▁ag	-8.26875
▁op	-8.26914
ud	-8.27283
sson	-8.27335
tre	-8.27725
▁hel	-8.2798
ü	-8.28059
▁bro	-8.28202
▁dag	-8.28335
▁john	-8.28353
elle	-8.28444
▁ar	-8.28455
▁5	-8.28815
▁syn	-8.29029
▁heter	-8.29096
▁lang	-8.29217
▁sk	-8.29288
▁kar	-8.298
▁cha	-8.30167
▁nor	-8.30213
▁bak	-8.3026
bar	-8.30386
ag	-8.30791
▁16	-8.30828
▁fire	-8.31082
▁ki	-8.3109
idae	-8.31144
mon	-8.31147
les	-8.31177
▁berg	-8.31281
▁ben	-8.31404
ken	-8.31426
▁ver	-8.31546
za	-8.32241
tan	-8.32248
ting	-8.32273
inyin	-8.32415
▁norsk	-8.32546
▁val	-8.327
▁vil	-8.33097
verk	-8.33266
▁com	-8.34058
ku	-8.34357
▁kirke	-8.34475
▁we	-8.34637
ren	-8.35212
▁lever	-8.35588
▁mu	-8.35656
▁betyr	-8.35755
▁mange	-8.35942
▁være	-8.36332
bb	-8.36395
▁on	-8.36642
▁ak	-8.36661
▁ski	-8.36662
lands	-8.36748
▁vel	-8.36781
▁mål	-8.36784
▁och	-8.36957
wa	-8.3696
ret	-8.37057
▁pu	-8.37544
▁ke	-8.37547
bel	-8.37924
▁ac	-8.37964
▁år	-8.38256
▁skal	-8.3857
ius	-8.38662
heim	-8.38697
▁fu	-8.38812
chi	-8.39175
▁mens	-8.39226
gang	-8.39239
▁eks	-8.39573
▁moh	-8.39799
▁må	-8.39827
fa	-8.39851
▁br	-8.39982
▁kl	-8.40029
sted	-8.40056
▁ur	-8.40133
dre	-8.40229
▁liste	-8.40374
▁operatør	-8.40403
▁mat	-8.40603
ron	-8.40802
familien	-8.409
о	-8.41014
е	-8.41068
mor	-8.4116
är	-8.41219
vo	-8.41566
▁ku	-8.41605
▁4	-8.41637
til	-8.41986
ikk	-8.42041
sten	-8.42236
tisk	-8.42299
ier	-8.42646
▁fe	-8.4275
dalen	-8.42835
▁th	-8.43043
▁selv	-8.43296
▁bru	-8.4367
mb	-8.43927
du	-8.44232
▁stein	-8.44347
▁rød	-8.44378
▁største	-8.44507
▁tid	-8.44847
▁går	-8.44963
▁ste	-8.45208
ya	-8.45688
▁små	-8.4572
len	-8.45729
▁2002	-8.45856
▁folketelling	-8.46062
▁nu	-8.46198
br	-8.46223
▁par	-8.46284
▁sand	-8.46577
tid	-8.4669
▁parti	-8.46721
nings	-8.46856
ty	-8.47261
▁sitt	-8.47327
▁ham	-8.47479
▁leder	-8.47513
▁store	-8.47538
ji	-8.47541
he	-8.47572
▁nær	-8.47708
we	-8.47964
▁fem	-8.48052
mmer	-8.48232
min	-8.48246
vel	-8.48271
▁mal	-8.4907
▁død	-8.49459
▁mel	-8.49463
▁høy	-8.49584
q	-8.49652
ī	-8.4971
▁ex	-8.4974
▁hus	-8.49925
art	-8.50103
▁10	-8.50472
veien	-8.50544
tak	-8.50561
ingen	-8.50817
▁hos	-8.50901
fi	-8.50914
ran	-8.51031
▁grunn	-8.51064
ú	-8.51149
▁frem	-8.51571
▁mon	-8.51624
ham	-8.51741
tiv	-8.51774
▁chi	-8.51937
borg	-8.52101
▁kor	-8.52196
ze	-8.52574
ari	-8.52613
▁sh	-8.52761
▁ty	-8.53376
▁alt	-8.53407
▁engelsk	-8.53503
▁brun	-8.53516
▁gra	-8.53533
bruk	-8.539
▁noen	-8.539
ana	-8.53941
yn	-8.54085
▁vo	-8.54523
▁kommunen	-8.5459
▁mest	-8.547
▁fo	-8.54744
siden	-8.54765
ris	-8.55321
senter	-8.55603
kon	-8.56231
▁art	-8.56569
▁sta	-8.56656
ug	-8.56694
▁vant	-8.56728
▁musikk	-8.56864
ologi	-8.56903
▁gir	-8.57049
▁langs	-8.57066
▁gul	-8.57119
▁film	-8.57438
▁jord	-8.57719
ft	-8.57942
▁col	-8.57995
▁ry	-8.58065
▁før	-8.58072
rø	-8.58128
▁bl	-8.58165
▁flaggbærer	-8.58191
dd	-8.58242
а	-8.58363
▁fjell	-8.58499
pl	-8.58603
▁div	-8.5862
pningsseremonien	-8.58698
folkerepublikken	-8.58699
bro	-8.58906
ill	-8.5891
▁inneholder	-8.58979
▁gar	-8.59038
stre	-8.59249
hr	-8.59433
▁kunst	-8.59587
▁can	-8.59706
val	-8.5994
ita	-8.60323
uk	-8.60419
ich	-8.6051
▁senere	-8.60569
fly	-8.60585
▁spiller	-8.60608
kar	-8.6068
▁familien	-8.60705
▁skole	-8.60847
▁ol	-8.60863
▁6	-8.60872
▁folke	-8.60889
▁14	-8.60951
▁lå	-8.61037
▁spilt	-8.61046
▁kun	-8.61266
ski	-8.61456
▁paul	-8.6149
▁fag	-8.61648
ach	-8.6189
▁vin	-8.61934
ab	-8.62073
с	-8.62244
▁pan	-8.62293
▁ed	-8.62309
▁bre	-8.62541
tin	-8.62817
che	-8.62963
▁wa	-8.63281
bre	-8.63377
ara	-8.6344
▁fin	-8.63511
è	-8.63604
inn	-8.63682
sp	-8.63748
▁new	-8.63867
▁bor	-8.63885
jø	-8.63981
▁sig	-8.64045
▁laget	-8.64191
▁hol	-8.64229
▁mai	-8.6424
kan	-8.64404
▁hvor	-8.64471
kom	-8.64597
tz	-8.64613
▁un	-8.64618
▁gal	-8.64658
▁bok	-8.64726
▁sj	-8.64726
▁sc	-8.64738
▁inkluderer	-8.64991
rin	-8.65038
▁fram	-8.65124
▁gud	-8.65288
far	-8.65322
dyr	-8.65409
øl	-8.65421
ppe	-8.65436
▁mag	-8.65442
▁van	-8.65466
fjorden	-8.6576
д	-8.65806
▁au	-8.65949
▁verdens	-8.66265
ningen	-8.66439
itet	-8.66445
ino	-8.66534
fe	-8.66568
ola	-8.66624
▁dan	-8.6678
▁af	-8.66867
▁sel	-8.6708
mme	-8.67431
sund	-8.6749
▁20	-8.67644
▁you	-8.67702
laget	-8.67822
mester	-8.67974
ph	-8.68095
▁peter	-8.68169
up	-8.68275
gel	-8.68447
▁za	-8.68548
▁rundt	-8.68711
▁hav	-8.68736
▁kommer	-8.68737
ans	-8.68738
ini	-8.6878
▁sønn	-8.68804
bil	-8.6895
▁8	-8.69006
▁tur	-8.69165
ice	-8.69269
▁ly	-8.69304
met	-8.69343
led	-8.69446
bl	-8.69552
sti	-8.69669
ale	-8.69746
ida	-8.69852
øya	-8.69872
han	-8.69959
▁god	-8.69992
mat	-8.70001
lia	-8.70152
rå	-8.70211
▁shi	-8.70223
▁kinas	-8.70287
▁tar	-8.70322
elsen	-8.70513
▁ul	-8.70535
fra	-8.70558
▁tom	-8.71219
if	-8.71229
▁pr	-8.71244
ð	-8.71324
▁lav	-8.71358
tes	-8.71398
dy	-8.71441
▁hen	-8.71521
▁kjente	-8.7155
▁skog	-8.71733
▁sv	-8.71872
р	-8.72122
▁tv	-8.72185
stand	-8.72196
▁ord	-8.7226
▁thor	-8.72271
▁kur	-8.72382
ani	-8.72405
▁sø	-8.72408
gh	-8.72435
▁bjørn	-8.72456
▁kjent	-8.7258
kle	-8.72655
▁kra	-8.73052
▁ci	-8.73139
tiske	-8.73168
▁kv	-8.73182
▁vis	-8.73214
▁innen	-8.7336
burg	-8.73369
▁bas	-8.73431
▁juli	-8.73511
tri	-8.73594
ps	-8.73754
og	-8.73774
bok	-8.73859
slag	-8.73922
gar	-8.74
▁side	-8.74162
ding	-8.74403
▁ren	-8.74545
ula	-8.74549
à	-8.74587
▁norge	-8.74596
tro	-8.74607
dra	-8.74673
▁videre	-8.74682
▁13	-8.74717
ah	-8.74748
lse	-8.74766
▁roman	-8.74992
š	-8.75242
▁språk	-8.75427
▁kultur	-8.75487
án	-8.75501
fon	-8.75772
▁innbyggertall	-8.75843
т	-8.75941
▁liv	-8.7603
▁stat	-8.76078
løp	-8.76109
▁bur	-8.76159
▁innenfor	-8.7621
dan	-8.76439
let	-8.76472
lan	-8.76608
▁von	-8.76736
▁lokal	-8.76983
▁bil	-8.77006
▁kina	-8.77085
▁grav	-8.77175
▁kort	-8.77263
▁like	-8.77547
▁skrev	-8.7761
▁står	-8.77817
▁sjø	-8.77847
▁representert	-8.77876
nk	-8.78048
▁dr	-8.78116
▁vei	-8.78396
rik	-8.78584
▁und	-8.7874
▁je	-8.78751
mål	-8.7885
satt	-8.79125
▁mc	-8.79146
sj	-8.79173
vann	-8.79227
▁lys	-8.79287
▁landet	-8.79421
▁ten	-8.79471
▁post	-8.79817
bin	-8.79826
mu	-8.79864
▁gruppen	-8.79923
xi	-8.80016
fin	-8.8002
leder	-8.80025
▁9	-8.80243
bø	-8.80291
▁anti	-8.80359
▁området	-8.80403
▁gen	-8.80475
ska	-8.80609
ble	-8.80718
pt	-8.80844
ves	-8.81009
klubb	-8.81122
▁ob	-8.81133
▁christian	-8.81141
▁inter	-8.81419
▁rom	-8.81425
▁opprinnelig	-8.81426
▁kla	-8.81555
▁rø	-8.81715
ika	-8.81815
inger	-8.81916
ap	-8.81945
▁bal	-8.8202
▁sentral	-8.82036
▁hy	-8.82058
tel	-8.82105
unn	-8.82105
gre	-8.82142
▁are	-8.82183
fjord	-8.82323
▁hi	-8.82351
pu	-8.82468
▁7	-8.82518
▁em	-8.82569
ör	-8.82591
▁die	-8.82604
pen	-8.8267
▁red	-8.82716
▁fl	-8.82783
▁gull	-8.82934
у	-8.83034
gård	-8.83082
▁norske	-8.83097
▁class	-8.83157
gge	-8.83164
▁lind	-8.83173
▁ber	-8.83237
ova	-8.83266
▁via	-8.83287
ū	-8.83358
▁oslo	-8.83463
anger	-8.83487
▁sine	-8.83567
råd	-8.83578
▁selskapet	-8.83616
lev	-8.83853
res	-8.83975
▁nasjonal	-8.83978
▁eksempel	-8.84011
don	-8.8419
▁mark	-8.84331
α	-8.84339
▁martin	-8.84792
my	-8.84796
net	-8.84956
▁pol	-8.85009
mark	-8.85158
▁mil	-8.85205
▁mac	-8.85277
ella	-8.8538
▁mars	-8.85382
est	-8.85425
anlegg	-8.85567
mm	-8.85586
▁ø	-8.85642
stra	-8.8566
▁tal	-8.85693
ij	-8.85731
gan	-8.8593
▁sha	-8.85987
▁øy	-8.86014
▁vol	-8.86015
▁svensk	-8.86114
▁os	-8.86137
▁fal	-8.8621
vei	-8.86238
▁sub	-8.86254
▁blå	-8.86301
▁karl	-8.86327
tsj	-8.86353
vet	-8.86418
▁gre	-8.86454
▁norges	-8.8654
shi	-8.86659
ath	-8.86716
jer	-8.86727
▁form	-8.86736
que	-8.86776
▁kong	-8.86865
▁gift	-8.87037
uc	-8.87046
▁natur	-8.8725
▁ap	-8.8727
▁ji	-8.87303
skog	-8.87365
▁fast	-8.87587
▁para	-8.87758
▁hal	-8.87797
utt	-8.87823
▁het	-8.88167
hl	-8.88266
▁fla	-8.884
form	-8.88433
▁band	-8.88689
▁både	-8.88703
rum	-8.88772
eres	-8.88779
▁q	-8.88985
▁august	-8.89046
ære	-8.89138
ano	-8.89158
▁12	-8.89179
▁kamp	-8.89231
▁hovedstad	-8.89352
krets	-8.8938
▁2006	-8.89412
isme	-8.89487
10	-8.89505
ay	-8.89514
▁brukes	-8.89604
pro	-8.89643
▁http	-8.89737
▁port	-8.89835
bygg	-8.89853
system	-8.90008
itz	-8.90246
sett	-8.9026
fall	-8.90308
cc	-8.90325
zz	-8.90378
rom	-8.90491
▁fil	-8.90504
cu	-8.90524
huset	-8.90541
▁gjen	-8.90567
▁tele	-8.9059
som	-8.90832
▁för	-8.91174
▁mari	-8.91175
▁radio	-8.91252
age	-8.91332
bygd	-8.91738
bær	-8.9174
▁halv	-8.91783
▁robert	-8.91917
ix	-8.92049
▁motor	-8.92063
este	-8.92076
▁sil	-8.92235
▁km	-8.92309
ull	-8.92372
sky	-8.92426
▁plan	-8.9243
par	-8.92432
ros	-8.9249
▁ban	-8.92504
bor	-8.92525
navn	-8.92641
stilling	-8.92672
▁distrikt	-8.92703
▁fiske	-8.92919
ata	-8.92934
dig	-8.92951
▁hele	-8.92965
▁bruker	-8.93061
lie	-8.93137
fo	-8.93219
▁erik	-8.93275
rid	-8.93367
▁carl	-8.93451
▁danne	-8.93673
▁vår	-8.93799
▁dy	-8.93813
▁ser	-8.93838
ford	-8.93842
ativ	-8.93864
alis	-8.9387
▁data	-8.93938
▁tysk	-8.93944
plan	-8.93945
▁tekst	-8.93974
▁beste	-8.94066
områder	-8.94069
▁luft	-8.94069
ura	-8.94121
▁gresk	-8.94128
▁pra	-8.94237
▁siden	-8.9431
▁når	-8.9431
▁administrasjons	-8.94332
kin	-8.94477
wi	-8.94527
▁rett	-8.94801
spill	-8.94847
▁gran	-8.94853
ninger	-8.94928
lagt	-8.94963
the	-8.94986
▁følger	-8.95018
mal	-8.95023
▁pri	-8.95099
pan	-8.95159
cha	-8.95171
▁gjerne	-8.95235
▁president	-8.95261
▁ya	-8.95271
▁jeg	-8.95316
▁mod	-8.95417
▁politi	-8.95423
▁ifølge	-8.95442
ige	-8.9549
▁david	-8.95501
▁30	-8.95529
▁stra	-8.95535
forening	-8.95546
▁22	-8.95551
fer	-8.95568
våg	-8.95579
spiller	-8.95684
▁dem	-8.95694
iz	-8.95726
▁cas	-8.95784
▁mad	-8.95807
к	-8.95974
▁sky	-8.96033
rop	-8.96035
▁trans	-8.9604
▁tradisjonell	-8.9619
▁tok	-8.96196
kh	-8.96292
▁cor	-8.96411
mel	-8.9694
▁farge	-8.97132
▁stu	-8.97186
ving	-8.97339
▁small	-8.9737
sak	-8.97442
▁kron	-8.975
vær	-8.97519
▁ring	-8.97571
▁slik	-8.97573
enes	-8.97635
▁ind	-8.97756
ub	-8.97834
▁tru	-8.97848
gren	-8.9785
▁sen	-8.98009
fisk	-8.98111
tis	-8.98154
▁dis	-8.98209
lsen	-8.9824
legg	-8.98271
▁ve	-8.98335
▁hell	-8.98338
ås	-8.98417
pol	-8.98577
stol	-8.98603
cy	-8.98626
sto	-8.98712
dom	-8.98835
ater	-8.98927
▁pat	-8.98957
▁lin	-8.9904
har	-8.99137
▁west	-8.99275
kor	-8.99412
▁bill	-8.99447
▁georg	-8.99477
lla	-8.99507
▁sommer	-8.99604
▁skolen	-8.99694
ip	-8.99728
▁organ	-8.99796
▁ky	-8.99839
organisasjon	-8.99865
nor	-8.99895
▁kal	-8.99982
tive	-9.00031
ønn	-9.00047
▁arm	-9.00076
▁fransk	-9.00118
▁begge	-9.00149
fl	-9.00159
▁gri	-9.0023
▁28	-9.00289
▁reference	-9.0033
▁25	-9.00397
▁sto	-9.0053
▁foran	-9.00547
▁midt	-9.00606
lene	-9.00661
oc	-9.0082
▁verk	-9.00831
stasjon	-9.00972
are	-9.00988
stan	-9.01018
л	-9.01029
ssen	-9.01075
▁støtte	-9.01267
▁ein	-9.01421
▁tak	-9.01614
byen	-9.01615
▁gamle	-9.01648
ō	-9.01782
lett	-9.01839
side	-9.01866
▁grå	-9.01887
▁ulike	-9.0189
▁distriktet	-9.01896
▁barne	-9.01926
ep	-9.01946
område	-9.02034
▁plante	-9.02049
pris	-9.02113
▁hennes	-9.02199
▁ang	-9.02266
▁mus	-9.02279
navnet	-9.02324
▁park	-9.02458
lys	-9.02516
ati	-9.02519
▁kje	-9.026
tic	-9.02725
▁21	-9.02817
▁seks	-9.02863
lle	-9.02916
▁lik	-9.02987
vern	-9.02993
▁johan	-9.02994
20	-9.03034
▁2010	-9.03086
▁ole	-9.03093
bus	-9.03169
▁lyd	-9.03298
hy	-9.03333
▁full	-9.03395
▁nett	-9.0356
vil	-9.03561
▁nye	-9.03628
alt	-9.03661
arbeid	-9.03692
▁valg	-9.03756
▁fred	-9.03812
▁kjø	-9.03904
▁nø	-9.03905
▁mos	-9.0407
▁les	-9.04153
▁24	-9.0416
red	-9.04203
ν	-9.0426
▁2008	-9.04286
▁2005	-9.04307
▁yu	-9.04325
lik	-9.04354
ther	-9.04359
isering	-9.04433
▁that	-9.04439
jan	-9.04659
oli	-9.04846
▁dia	-9.0488
ight	-9.04979
▁gro	-9.05017
▁dra	-9.05036
stat	-9.05148
▁thomas	-9.05169
lå	-9.05169
▁orden	-9.052
ec	-9.05511
▁roll	-9.05571
bert	-9.05682
▁plat	-9.05886
med	-9.05995
▁samme	-9.06063
▁uten	-9.0615
▁will	-9.06315
▁eng	-9.06353
qui	-9.06407
tyr	-9.06415
▁knut	-9.06426
▁www	-9.06695
området	-9.06721
▁dal	-9.06758
modell	-9.06972
▁rekke	-9.07
▁ingen	-9.07019
▁viktigste	-9.07126
senteret	-9.07187
nis	-9.07194
▁vas	-9.07251
▁riks	-9.07326
ala	-9.07335
▁lø	-9.07342
▁fotball	-9.07373
▁lar	-9.0739
▁christ	-9.07454
fri	-9.07489
▁spill	-9.07524
▁2007	-9.07573
▁vært	-9.07588
mus	-9.07811
▁kr	-9.07824
ose	-9.07873
▁spilles	-9.07885
ney	-9.07911
aks	-9.07912
▁vise	-9.07924
▁0	-9.07984
ban	-9.08042
▁dom	-9.08076
▁eu	-9.08107
▁blad	-9.08276
▁not	-9.08283
qu	-9.08387
heten	-9.08431
sjef	-9.08495
ømme	-9.08497
▁jag	-9.08611
▁war	-9.08684
▁skulle	-9.08922
ild	-9.08926
▁provinsen	-9.08964
▁dikt	-9.0904
van	-9.09115
än	-9.09152
▁es	-9.09166
▁william	-9.0919
dde	-9.09204
▁kol	-9.09258
zo	-9.09424
▁jon	-9.09463
ister	-9.09559
▁23	-9.09593
ighet	-9.09813
retning	-9.0982
▁cla	-9.09918
▁ska	-9.09938
▁cal	-9.09947
▁bli	-9.10079
eks	-9.10088
▁eier	-9.10167
▁eg	-9.10277
▁ö	-9.10318
verket	-9.1039
▁latin	-9.10407
▁wo	-9.10521
▁cu	-9.10536
hal	-9.10562
isten	-9.10694
▁derfor	-9.1074
▁industri	-9.1087
б	-9.10887
oni	-9.11051
▁sang	-9.11169
на	-9.1122
▁japansk	-9.11244
▁mis	-9.11466
tatt	-9.11687
▁forskjellig	-9.11748
▁general	-9.11761
bra	-9.11804
dor	-9.11867
▁bø	-9.11893
isert	-9.11961
syn	-9.11995
▁with	-9.12044
▁anders	-9.12053
▁bj	-9.12066
▁ze	-9.12089
▁qu	-9.12294
▁bare	-9.12315
lot	-9.12319
oll	-9.12388
lis	-9.12436
▁cap	-9.12529
get	-9.1254
minister	-9.12637
nu	-9.12705
▁att	-9.12736
cht	-9.12829
▁stats	-9.12953
▁ram	-9.12974
▁lille	-9.13006
▁vir	-9.13083
▁sur	-9.13084
▁win	-9.13111
▁mak	-9.13271
▁veg	-9.13485
▁arbeids	-9.13535
▁bør	-9.13583
▁hovedstaden	-9.13589
ød	-9.13682
▁gl	-9.13765
▁est	-9.13777
rike	-9.13842
elig	-9.13941
gaard	-9.13996
ial	-9.14214
▁sak	-9.14311
▁deretter	-9.14451
ish	-9.1463
kant	-9.14643
▁spesial	-9.14821
▁2009	-9.14857
elli	-9.14879
ria	-9.14912
tus	-9.14965
▁arter	-9.14975
ib	-9.15169
all	-9.15191
▁sommerfugl	-9.15204
19	-9.15251
▁ph	-9.15281
▁tittelen	-9.15313
г	-9.15347
▁she	-9.15395
kal	-9.15476
▁svart	-9.15518
▁hvit	-9.15588
▁odd	-9.15625
▁særlig	-9.15774
mund	-9.15819
ity	-9.15833
cia	-9.15837
ori	-9.15883
▁hver	-9.15892
▁region	-9.15922
▁pass	-9.15989
▁bygde	-9.16027
ive	-9.16125
press	-9.16142
▁produsere	-9.16164
▁hall	-9.16355
our	-9.16389
▁jens	-9.164
▁bred	-9.16532
log	-9.16607
▁eksempler	-9.16616
▁arabisk	-9.1672
▁don	-9.16751
▁spe	-9.16777
én	-9.17013
▁11	-9.17192
ev	-9.17208
ky	-9.1735
asjonen	-9.17492
ance	-9.17608
▁nils	-9.17741
▁31	-9.17874
jen	-9.1792
partiet	-9.17981
bygning	-9.18019
mand	-9.18061
▁cy	-9.1812
▁che	-9.1815
værende	-9.18206
▁topp	-9.18216
car	-9.18279
▁zu	-9.18296
▁mann	-9.1834
tiden	-9.18435
č	-9.18447
▁1989	-9.18447
▁son	-9.18452
båt	-9.18641
zy	-9.18731
gna	-9.18735
sjøen	-9.18764
stoff	-9.18831
nik	-9.18929
▁180	-9.18934
▁barn	-9.18935
н	-9.19026
▁george	-9.19046
▁versjon	-9.19131
gl	-9.19258
▁hor	-9.19334
▁nowiki	-9.19375
▁militær	-9.19375
▁hei	-9.19422
▁deres	-9.19423
▁egen	-9.19429
▁bri	-9.19547
▁skr	-9.19579
▁frank	-9.19622
▁lands	-9.19681
iti	-9.1971
▁bir	-9.19755
lang	-9.19762
▁wal	-9.19845
ssa	-9.19889
▁amerikansk	-9.19954
▁fer	-9.19981
ben	-9.19984
dro	-9.2
▁energiselskape	-9.20162
▁us	-9.20269
▁lov	-9.20339
▁2004	-9.20389
▁system	-9.20452
punkt	-9.20494
▁tj	-9.20628
▁person	-9.20634
nett	-9.2067
▁web	-9.20781
▁eid	-9.20806
▁lars	-9.20898
▁maria	-9.2092
▁europa	-9.20938
▁bon	-9.20957
skole	-9.20992
äl	-9.21165
port	-9.21183
ved	-9.21224
▁2011	-9.21273
▁arkitekt	-9.213
voll	-9.21305
elser	-9.21311
▁kre	-9.21344
▁utgjør	-9.21352
▁enn	-9.2143
▁kat	-9.21441
12	-9.21465
▁xi	-9.21474
ott	-9.21518
▁gikk	-9.21535
ette	-9.21593
▁kilde	-9.216
50	-9.21707
я	-9.21734
▁viktige	-9.21767
▁sten	-9.21837
▁styre	-9.22082
kraftverk	-9.22165
▁tillegg	-9.2217
systemet	-9.22173
tti	-9.22207
▁anne	-9.22234
ure	-9.22238
tall	-9.22243
▁gr	-9.22263
▁blod	-9.22314
▁gy	-9.2234
bjørn	-9.22356
rus	-9.22535
▁ek	-9.2256
▁grenser	-9.22568
▁lev	-9.22613
▁26	-9.22628
ι	-9.22693
▁imidlertid	-9.22693
elt	-9.22744
▁regi	-9.22754
▁lett	-9.2276
▁start	-9.22777
så	-9.22791
▁len	-9.22803
iller	-9.22874
dia	-9.23027
▁opera	-9.23123
▁fredrik	-9.23198
▁minne	-9.23208
kul	-9.23248
føre	-9.23357
kov	-9.23437
ato	-9.23496
syre	-9.23504
vig	-9.23509
ket	-9.23517
▁elven	-9.2356
▁ant	-9.2357
в	-9.23595
▁blei	-9.23634
▁februar	-9.23661
▁mur	-9.23758
▁100	-9.23981
rang	-9.23997
ledd	-9.24007
rio	-9.24015
▁bank	-9.24038
▁27	-9.24068
▁pal	-9.24073
▁michael	-9.2415
м	-9.24209
▁camp	-9.24287
▁bel	-9.24292
stil	-9.244
lund	-9.24418
▁arne	-9.24425
ål	-9.2446
vatnet	-9.245
▁egg	-9.24511
iserte	-9.24568
▁kyst	-9.24671
▁viser	-9.24844
▁skrevet	-9.24858
ì	-9.24951
ali	-9.24988
▁student	-9.25137
▁vanligvis	-9.25163
▁juni	-9.25185
40	-9.25503
▁dessuten	-9.25627
▁uni	-9.25748
tha	-9.25753
▁kunne	-9.2581
ologisk	-9.25858
pre	-9.25922
lekt	-9.25934
lov	-9.26023
▁hånd	-9.26073
illa	-9.26102
▁end	-9.26128
zhou	-9.26145
leg	-9.26211
▁grønn	-9.26311
samling	-9.26457
▁fr	-9.26477
styre	-9.26479
ick	-9.26589
jev	-9.2682
▁finn	-9.269
forsvar	-9.26924
▁herre	-9.26971
▁29	-9.26989
▁historie	-9.27056
▁samtidig	-9.27128
▁nærings	-9.27149
aceae	-9.27157
nivå	-9.27246
bru	-9.27298
▁kunstner	-9.27303
vit	-9.27392
▁lau	-9.2747
kket	-9.27497
landet	-9.27622
mannen	-9.27626
mot	-9.27643
▁bruk	-9.27655
▁gammel	-9.27669
▁kam	-9.27672
banen	-9.27735
ram	-9.27819
stor	-9.27832
iet	-9.27934
selskap	-9.27934
▁pin	-9.28023
▁cro	-9.28098
▁finner	-9.28152
løse	-9.28164
▁fortsatt	-9.28247
gata	-9.28317
cl	-9.28357
▁gitar	-9.28359
▁rock	-9.28373
sal	-9.28386
▁helse	-9.28417
ges	-9.28447
pur	-9.28523
▁air	-9.28523
▁lund	-9.28542
▁familie	-9.28582
▁bad	-9.28584
▁representerer	-9.28656
istisk	-9.2867
▁bass	-9.28706
▁myr	-9.28728
ade	-9.28737
▁gjør	-9.28824
tun	-9.29009
lus	-9.29045
▁comp	-9.29235
▁kas	-9.29251
▁mindre	-9.29256
▁sund	-9.29426
▁dagen	-9.29427
▁skrift	-9.29427
▁dam	-9.29435
▁sm	-9.29475
▁inkludert	-9.29678
qua	-9.29753
▁poly	-9.29789
slav	-9.29848
▁sir	-9.29865
øk	-9.29979
▁imp	-9.29985
▁pen	-9.29994
▁redaktør	-9.30011
▁000	-9.30035
▁ger	-9.30091
aktig	-9.30091
86	-9.30092
▁prest	-9.30117
▁richard	-9.30197
▁klubben	-9.30241
▁studie	-9.30289
▁konge	-9.30331
film	-9.30493
blad	-9.30535
ille	-9.30546
ire	-9.3058
й	-9.3059
▁strand	-9.30624
ón	-9.30633
▁rev	-9.30649
▁32	-9.30686
▁høyeste	-9.30715
▁international	-9.30717
▁kulturminner	-9.30717
shan	-9.30881
søk	-9.30967
▁års	-9.30968
asje	-9.30998
arter	-9.30998
▁gav	-9.30999
gul	-9.31051
▁cho	-9.31148
way	-9.31175
kur	-9.31183
▁kir	-9.31213
riv	-9.31259
▁datter	-9.31276
▁tang	-9.31326
▁besto	-9.31334
18	-9.3142
kast	-9.31459
▁fle	-9.31622
grad	-9.31645
▁stil	-9.31817
ansk	-9.31874
farge	-9.31902
▁james	-9.32022
▁super	-9.32064
▁slutt	-9.3209
▁max	-9.32147
▁hå	-9.32197
virke	-9.32207
▁skul	-9.32292
belteasteroide	-9.32296
gruppen	-9.32322
▁andreas	-9.32429
▁bergen	-9.32471
yang	-9.32493
setning	-9.32501
▁driver	-9.32518
▁får	-9.32581
stu	-9.32602
▁haug	-9.32765
▁anna	-9.32909
▁kh	-9.32911
▁kri	-9.3293
low	-9.32945
ån	-9.33003
▁filmen	-9.33047
rat	-9.33124
ão	-9.33133
▁but	-9.3316
graf	-9.33184
ografi	-9.33193
▁tilby	-9.33313
▁bakvingen	-9.33364
▁fant	-9.33408
lighet	-9.33712
▁usa	-9.3372
uch	-9.33871
́	-9.339
▁stre	-9.33933
17	-9.34012
hall	-9.34332
▁gor	-9.34335
▁glo	-9.34371
ù	-9.34441
▁venstre	-9.34466
▁harald	-9.34483
▁mont	-9.34514
▁rh	-9.34611
▁thi	-9.34678
ora	-9.34704
rak	-9.3476
etter	-9.34789
språk	-9.34831
▁176	-9.34863
▁sted	-9.34875
ann	-9.34947
▁såkalt	-9.34987
▁power	-9.35052
ef	-9.35055
ai	-9.35184
▁hår	-9.35222
▁ras	-9.35308
▁bay	-9.35324
▁vinner	-9.35324
olog	-9.35334
▁din	-9.35342
hol	-9.35383
▁mik	-9.35396
prosess	-9.355
grav	-9.35522
▁dar	-9.3558
ith	-9.35628
old	-9.35631
▁ball	-9.3566
▁olje	-9.35686
▁eli	-9.35778
▁dansk	-9.3578
pha	-9.35787
fører	-9.35795
▁pla	-9.35809
▁tall	-9.35848
▁døde	-9.35861
▁internasjonale	-9.35882
valg	-9.35919
▁gate	-9.35927
▁tilbake	-9.3609
blomst	-9.36158
▁ung	-9.36164
rad	-9.3617
▁overtok	-9.36184
strøm	-9.36187
▁blitt	-9.36277
▁char	-9.36297
▁helge	-9.36314
tegn	-9.36369
▁star	-9.36369
▁stemme	-9.36386
▁ok	-9.36417
able	-9.36522
mannskapet	-9.36537
ico	-9.36667
▁rot	-9.36676
▁ør	-9.36893
▁medlem	-9.36905
can	-9.37003
gy	-9.3713
full	-9.37133
▁johannes	-9.37146
▁hovedsakelig	-9.37188
▁januar	-9.3719
of	-9.37227
field	-9.37267
▁fylke	-9.37267
sø	-9.37286
▁sau	-9.37359
bane	-9.37387
▁energi	-9.3743
▁mass	-9.37516
skij	-9.37531
ér	-9.37602
vid	-9.37613
▁tam	-9.37732
▁innbyggere	-9.37747
▁sverige	-9.37749
11	-9.37765
rich	-9.37977
ira	-9.38075
hel	-9.38088
skapet	-9.38125
▁alf	-9.38157
az	-9.38182
▁sosial	-9.3823
las	-9.38449
▁slag	-9.38454
▁long	-9.38515
▁hon	-9.38591
▁ton	-9.38604
kjær	-9.38628
▁nam	-9.38714
▁cra	-9.38721
dorf	-9.38776
▁grand	-9.38778
stro	-9.38871
▁stø	-9.38873
▁standard	-9.38876
▁keiser	-9.38884
▁vind	-9.38891
dermed	-9.3893
▁først	-9.39007
▁sw	-9.39014
mod	-9.39039
yan	-9.39066
▁løv	-9.39113
▁hansen	-9.39131
forbund	-9.39186
▁ven	-9.39206
pin	-9.39341
▁forfatter	-9.39437
▁italiensk	-9.39442
feld	-9.39495
▁bror	-9.39514
lid	-9.39528
▁utgitt	-9.39602
king	-9.39617
▁litt	-9.39735
ence	-9.39746
▁aust	-9.3984
▁ce	-9.39964
▁lufthavn	-9.40022
▁forenkle	-9.40033
wan	-9.40179
tta	-9.40191
▁plass	-9.40264
▁vä	-9.40354
▁mas	-9.40364
▁serie	-9.40387
▁kin	-9.40449
▁kull	-9.4046
mes	-9.4047
▁cer	-9.40705
▁rein	-9.40713
▁just	-9.40733
▁tidlig	-9.40737
▁mill	-9.40903
▁sn	-9.40995
ringer	-9.4101
▁jean	-9.41052
lat	-9.41069
▁mun	-9.41114
yu	-9.41122
▁oppført	-9.41128
▁fre	-9.41136
15	-9.41184
cheng	-9.41209
▁esp	-9.41221
▁im	-9.41339
▁nes	-9.41344
lær	-9.41654
løs	-9.41672
▁nan	-9.41713
loven	-9.41796
trykk	-9.41966
af	-9.4201
oide	-9.42018
haug	-9.42049
▁dre	-9.42102
kamp	-9.42109
▁foss	-9.42134
con	-9.4214
▁kraft	-9.42152
fjell	-9.42205
ado	-9.42323
ł	-9.42332
▁ungdoms	-9.42587
heng	-9.42613
ming	-9.42616
▁pot	-9.42651
▁kj	-9.4269
sjoner	-9.42709
ies	-9.42739
wer	-9.42741
▁marc	-9.42762
▁teater	-9.42789
kjenne	-9.42817
▁regn	-9.42818
▁vit	-9.42902
▁brenselkilden	-9.42921
▁kristian	-9.42947
æl	-9.42956
▁bio	-9.4301
▁ordenen	-9.43017
ama	-9.43018
▁flo	-9.43049
▁siste	-9.43051
▁tettsted	-9.43142
tsu	-9.43168
eller	-9.43244
▁fall	-9.43256
drag	-9.43264
▁slekten	-9.43304
lar	-9.43321
▁part	-9.43352
kontor	-9.43373
arm	-9.43396
14	-9.43413
▁temp	-9.43486
▁elv	-9.43496
ferd	-9.43509
ρ	-9.43512
ktig	-9.43557
▁artikkel	-9.43587
ringen	-9.43608
yk	-9.43633
skrift	-9.43781
▁ordet	-9.43923
satte	-9.43951
renner	-9.44005
▁inge	-9.44061
strand	-9.4407
ε	-9.44107
ко	-9.44123
▁samle	-9.44147
▁2003	-9.44151
holm	-9.44166
els	-9.44372
▁terr	-9.44431
▁ran	-9.44483
▁rest	-9.4451
▁kommunene	-9.44592
rä	-9.44675
τ	-9.44706
asjoner	-9.44804
▁utenfor	-9.44805
▁zo	-9.44912
lek	-9.45006
▁gam	-9.45008
▁reg	-9.45055
vold	-9.45095
▁nevnes	-9.45096
▁spar	-9.45131
▁gruppe	-9.45142
bit	-9.45154
▁punkt	-9.45166
fu	-9.45227
parti	-9.45254
▁tap	-9.45255
▁flat	-9.4529
ο	-9.453
bånd	-9.45328
liv	-9.45409
▁mol	-9.45426
klo	-9.45442
▁island	-9.45481
▁178	-9.45505
▁samarbeid	-9.45539
▁turn	-9.45579
▁året	-9.45606
liste	-9.45619
kra	-9.457
▁gang	-9.45732
pla	-9.45749
krig	-9.4575
kter	-9.45776
▁bol	-9.45789
▁sul	-9.45808
▁wei	-9.45824
▁cam	-9.45829
dar	-9.45846
▁polsk	-9.45866
▁world	-9.45915
▁svært	-9.45924
▁charles	-9.45951
gress	-9.45963
▁nr	-9.45979
▁syd	-9.46002
▁handels	-9.46031
ín	-9.46059
▁bry	-9.46143
▁que	-9.46152
ras	-9.46162
▁stav	-9.46229
▁lei	-9.46261
▁vinter	-9.4628
▁miljø	-9.46373
▁salt	-9.46514
▁lege	-9.46523
▁sla	-9.46526
▁cre	-9.46559
▁oc	-9.46565
ob	-9.4657
▁større	-9.4666
▁up	-9.46671
inne	-9.46788
fat	-9.46868
▁mand	-9.46872
▁vokal	-9.46893
▁lange	-9.46976
røy	-9.46991
▁dato	-9.47002
vinger	-9.47009
▁smal	-9.47043
ksjon	-9.47127
▁isbn	-9.47149
▁avis	-9.47167
mun	-9.47207
kro	-9.4722
▁may	-9.47224
▁ev	-9.47226
▁nar	-9.47227
▁bla	-9.47244
▁kode	-9.47303
▁angel	-9.47343
▁tan	-9.47375
foreningen	-9.47393
▁fro	-9.47425
▁por	-9.47456
▁produsent	-9.47514
▁produsert	-9.47531
▁tallet	-9.47561
ǎ	-9.47755
▁il	-9.47784
▁stan	-9.47875
▁politisk	-9.47892
▁rei	-9.47926
▁left	-9.47982
▁kategori	-9.48021
▁wat	-9.48024
cul	-9.48076
band	-9.48146
▁høyre	-9.48172
▁sve	-9.48212
▁dj	-9.48264
▁40	-9.48283
magasin	-9.48393
▁sølv	-9.484
rig	-9.48457
▁80	-9.48464
▁jernbane	-9.48473
ary	-9.48586
▁dyr	-9.48598
▁olav	-9.48604
▁ep	-9.48748
ici	-9.48795
▁ann	-9.48797
▁grense	-9.48852
▁maur	-9.48867
ān	-9.48895
ön	-9.48902
tale	-9.48963
▁lan	-9.48968
museet	-9.48968
hov	-9.48971
fag	-9.48972
▁slekt	-9.48973
nic	-9.48981
▁oktober	-9.49002
▁skjer	-9.49002
▁louis	-9.49004
organ	-9.49046
▁wen	-9.49123
korps	-9.49153
▁arbeider	-9.49166
▁wil	-9.49183
one	-9.49281
▁grad	-9.49333
zu	-9.49344
kje	-9.49362
rud	-9.49382
aya	-9.49504
konkurranse	-9.4963
▁april	-9.49633
mma	-9.49662
dring	-9.4974
bladet	-9.49748
▁hind	-9.49767
stikk	-9.49805
her	-9.49893
▁liten	-9.49911
▁serien	-9.49916
▁was	-9.49921
▁startet	-9.49935
awa	-9.49995
ez	-9.50057
din	-9.50122
disk	-9.50126
▁old	-9.50147
▁skuespiller	-9.50203
fugl	-9.50236
ž	-9.50263
tok	-9.50294
plass	-9.50302
▁hjerte	-9.50318
▁menneske	-9.5036
▁hit	-9.5046
▁unn	-9.50465
13	-9.5051
lei	-9.50684
gjør	-9.50736
bein	-9.50786
ima	-9.50838
com	-9.50845
▁autonom	-9.50907
▁mørke	-9.50926
formet	-9.50948
▁konst	-9.51013
menn	-9.51144
hav	-9.51171
▁gass	-9.5121
jel	-9.5127
▁strøm	-9.51293
foss	-9.51315
kop	-9.51431
kommune	-9.51454
▁design	-9.51458
▁bærer	-9.51572
gående	-9.51581
▁spi	-9.5161
grupper	-9.51645
▁søster	-9.51663
▁albert	-9.51715
▁sangen	-9.51719
▁hø	-9.51843
▁hard	-9.51883
▁bygg	-9.51888
▁mø	-9.51906
▁stjerne	-9.5208
ping	-9.5213
mid	-9.52139
jord	-9.52168
λ	-9.52186
▁september	-9.52186
▁daniel	-9.5227
fabrikk	-9.52389
▁omfatte	-9.52421
▁qui	-9.5243
▁bort	-9.52439
kere	-9.52444
▁delta	-9.52449
▁ana	-9.52634
▁basert	-9.5271
▁nest	-9.52713
cal	-9.5272
▁finsk	-9.52739
cus	-9.52791
▁zi	-9.52838
▁national	-9.52839
▁holm	-9.5287
▁riksvei	-9.52923
▁metall	-9.52924
▁black	-9.52933
▁bolig	-9.52974
osa	-9.53016
70	-9.53104
▁sett	-9.53141
▁arn	-9.53153
▁sim	-9.532
ische	-9.53277
▁sort	-9.53284
fest	-9.53322
▁fylkes	-9.5336
30	-9.53365
jiang	-9.53476
▁gje	-9.53487
tårn	-9.53505
▁tegn	-9.53583
▁hovedrollene	-9.53691
▁sko	-9.53793
▁brann	-9.53834
lem	-9.53873
▁kul	-9.53891
dis	-9.53893
▁meter	-9.53904
evne	-9.53936
kka	-9.5396
▁kalte	-9.5401
ă	-9.54147
▁venn	-9.54193
▁bet	-9.54228
▁bandet	-9.54255
▁felles	-9.54278
▁gun	-9.54331
▁larvene	-9.54351
▁168	-9.54354
▁tha	-9.54412
ander	-9.54628
ough	-9.54638
▁matt	-9.54641
▁horn	-9.54669
▁с	-9.54693
▁beskrive	-9.5481
liga	-9.54943
▁dyre	-9.54999
▁hører	-9.55001
mas	-9.55002
los	-9.55055
nummer	-9.55139
▁50	-9.55189
arafa	-9.55231
trekk	-9.55254
▁geo	-9.5537
▁sle	-9.5547
ström	-9.55476
lit	-9.5549
▁slike	-9.55496
▁rå	-9.55498
▁klasse	-9.55531
▁2001	-9.55592
skjold	-9.55622
▁ref	-9.55727
▁166	-9.55802
stående	-9.55963
ical	-9.55972
ous	-9.56096
føring	-9.56177
▁from	-9.56314
gli	-9.56325
bank	-9.56398
▁gau	-9.56411
▁fugle	-9.56442
▁berlin	-9.56458
▁gui	-9.5646
dahl	-9.56484
enberg	-9.5649
▁byer	-9.56499
▁hjemme	-9.56501
elva	-9.56588
▁164	-9.56597
▁åtte	-9.56642
21	-9.56688
ique	-9.56743
▁uk	-9.56747
▁lær	-9.56768
▁has	-9.56788
industri	-9.56852
▁informasjon	-9.56876
eide	-9.56947
▁russland	-9.56974
kla	-9.57048
▁folk	-9.57092
▁olsen	-9.5716
gt	-9.57229
▁klar	-9.57273
skip	-9.57291
▁have	-9.57312
bia	-9.57337
▁35	-9.57344
▁dun	-9.57497
ē	-9.57503
produksjon	-9.57548
▁nummer	-9.57593
fold	-9.57628
▁antall	-9.57664
▁råd	-9.57692
bakken	-9.57735
▁gru	-9.57752
phi	-9.57761
▁mottok	-9.57768
▁kraftig	-9.57819
▁frukt	-9.57916
teori	-9.57944
yo	-9.57995
ár	-9.58029
▁type	-9.58163
▁hjelp	-9.58174
κ	-9.58188
▁tredje	-9.58191
▁album	-9.58194
▁elve	-9.5822
▁prosjekt	-9.58304
▁india	-9.58339
midler	-9.58369
▁syl	-9.58394
vogn	-9.58503
win	-9.58658
gruppe	-9.58793
▁tilhørt	-9.58848
▁offisiell	-9.58878
▁mørk	-9.58893
tempelet	-9.58894
kreft	-9.58902
▁bekrefte	-9.58927
hin	-9.58957
▁2000	-9.58988
▁kvinne	-9.59001
▁finland	-9.59139
spor	-9.59141
▁monte	-9.59164
ammen	-9.59178
▁cur	-9.59215
▁sag	-9.59223
▁vid	-9.59284
fil	-9.59349
▁musik	-9.59405
16	-9.59452
▁cru	-9.59547
ò	-9.59572
▁omkring	-9.59574
▁sab	-9.59619
cho	-9.5963
sats	-9.59714
▁hed	-9.5973
▁dor	-9.59771
▁museum	-9.59788
▁felt	-9.59793
felt	-9.59835
mos	-9.59836
kol	-9.59844
▁mye	-9.59846
▁gård	-9.59951
havet	-9.59964
▁60	-9.59967
vekst	-9.60004
▁jern	-9.60013
▁transport	-9.60103
jö	-9.60217
з	-9.60244
▁45	-9.60246
▁ukrainsk	-9.60272
▁gunnar	-9.60275
alder	-9.60276
▁privat	-9.60286
arkiv	-9.60306
selskapet	-9.60368
fond	-9.60421
▁kjøp	-9.60456
▁marine	-9.60479
mba	-9.60557
ordenen	-9.60604
▁out	-9.60665
olo	-9.60687
gje	-9.60773
hua	-9.60795
▁ask	-9.60845
fot	-9.60899
▁mir	-9.60905
▁bob	-9.6095
▁king	-9.60961
▁vor	-9.60982
▁tsj	-9.61008
▁gil	-9.61128
parken	-9.6113
forbundet	-9.61172
gal	-9.6118
▁japan	-9.61182
▁sogn	-9.61356
gard	-9.61384
svik	-9.61468
sha	-9.61471
klubben	-9.61645
▁epi	-9.61684
▁oppkalt	-9.6169
teknikk	-9.61694
hed	-9.61717
nie	-9.61718
ball	-9.61729
prisen	-9.61892
førte	-9.62032
lich	-9.62081
▁stri	-9.6219
lä	-9.62271
▁domin	-9.62309
▁jacob	-9.62325
▁rund	-9.62351
▁merke	-9.62362
bibliotek	-9.62399
akademi	-9.62403
▁elev	-9.62416
formen	-9.62457
arten	-9.62465
ekte	-9.62477
▁qua	-9.62531
ville	-9.62532
kraft	-9.62534
▁ud	-9.62648
▁kil	-9.62681
▁jur	-9.62682
linje	-9.62824
snitt	-9.6285
▁borg	-9.62886
▁larven	-9.62984
▁våpen	-9.63057
▁leg	-9.63081
ß	-9.63095
ч	-9.63113
▁netto	-9.63114
ě	-9.63119
cca	-9.63168
▁medlemmer	-9.63178
▁linje	-9.63184
▁paa	-9.63193
▁01	-9.63211
▁vik	-9.63306
▁150	-9.63307
і	-9.63318
war	-9.63344
ра	-9.63352
▁cell	-9.63352
kunst	-9.63362
▁tun	-9.63439
zar	-9.635
ada	-9.63535
▁wu	-9.63536
uf	-9.63621
▁aktiv	-9.63658
▁seil	-9.63676
▁tim	-9.63729
bakk	-9.63811
ona	-9.63875
▁gard	-9.63887
▁hem	-9.63906
▁173	-9.63949
▁erstatte	-9.63985
▁styrke	-9.64028
▁hør	-9.64031
▁trond	-9.64039
â	-9.64098
▁helt	-9.64098
logen	-9.64105
▁162	-9.64107
90	-9.64131
mur	-9.64137
vor	-9.64159
▁kjell	-9.64174
▁pap	-9.64211
unt	-9.64308
▁yo	-9.64343
lon	-9.64393
▁hage	-9.6443
▁løper	-9.64453
▁155	-9.64477
▁desember	-9.64573
▁etablert	-9.64574
▁1999	-9.64574
▁albumet	-9.64617
▁partiet	-9.64625
ismen	-9.64639
▁river	-9.64648
▁utgi	-9.64689
▁ves	-9.64704
ritt	-9.6473
▁sports	-9.64744
▁ye	-9.64752
hei	-9.64778
▁andersen	-9.64834
▁cle	-9.64861
▁ec	-9.64975
grense	-9.65012
formede	-9.65023
demokrat	-9.65078
sion	-9.65081
▁pala	-9.65098
▁ken	-9.65102
kirken	-9.65154
brudd	-9.65205
gitt	-9.6523
sam	-9.65237
▁neu	-9.65287
▁november	-9.65309
▁godt	-9.65334
rør	-9.65425
àn	-9.65438
bell	-9.65556
rev	-9.65653
sberg	-9.65753
pet	-9.65847
øyene	-9.6586
hund	-9.65891
istiske	-9.65893
▁auto	-9.65975
ulf	-9.66007
resultat	-9.66029
▁foreldre	-9.66052
▁2012	-9.66077
befolkning	-9.66079
▁ett	-9.66203
▁dahl	-9.66265
▁kontroll	-9.66345
▁hopp	-9.66382
strid	-9.66409
▁øya	-9.66458
medisin	-9.66505
▁hær	-9.66536
fang	-9.66611
▁pris	-9.6664
▁sju	-9.66677
▁neg	-9.6668
ili	-9.66739
▁anton	-9.66742
▁frø	-9.66748
▁gren	-9.66792
σ	-9.66796
ë	-9.66796
▁club	-9.6681
▁style	-9.66834
▁johann	-9.66874
▁dommer	-9.6694
▁meg	-9.66946
▁snø	-9.67046
▁multi	-9.67083
▁north	-9.67139
lignende	-9.67171
▁funksjon	-9.67172
▁hydro	-9.6722
nia	-9.67252
hen	-9.67325
gra	-9.67343
▁iso	-9.67379
yuan	-9.6742
▁drift	-9.67444
▁hum	-9.67477
erende	-9.67506
▁wilhelm	-9.67548
▁delstaten	-9.6755
▁grev	-9.6756
hand	-9.67587
iner	-9.67616
▁regnes	-9.67622
▁landsbyen	-9.67627
▁kost	-9.67628
▁jar	-9.67703
rup	-9.67727
lend	-9.67746
rede	-9.67829
▁press	-9.6784
ante	-9.6786
▁hatt	-9.67885
▁nabo	-9.6789
▁36	-9.67981
▁brukte	-9.67995
▁flor	-9.68107
▁sik	-9.68125
ua	-9.68157
plassen	-9.68183
▁krig	-9.68215
bekk	-9.68219
basert	-9.68245
▁bygge	-9.68278
▁typisk	-9.68315
▁henry	-9.68507
▁aas	-9.68545
produkter	-9.68634
▁jen	-9.6865
▁fød	-9.6868
onia	-9.68712
ensis	-9.68736
▁hj	-9.68775
▁cent	-9.68779
lv	-9.68813
▁kro	-9.68815
▁villa	-9.68883
gården	-9.68898
▁ledet	-9.68903
▁jer	-9.68933
▁spor	-9.68954
▁vinge	-9.68997
▁ville	-9.69009
posisjon	-9.69041
▁fat	-9.69043
hjul	-9.69062
▁spesielt	-9.69068
▁kok	-9.69085
▁whit	-9.69103
motor	-9.6924
▁vekt	-9.69246
hai	-9.69319
▁nev	-9.69351
▁sentrum	-9.69352
▁egne	-9.69365
▁utvikling	-9.69412
▁vanlig	-9.69422
▁70	-9.69429
▁jø	-9.69517
▁kha	-9.69524
▁156	-9.69604
▁gjer	-9.69658
▁idretts	-9.69774
ført	-9.69781
▁bestod	-9.69821
▁lak	-9.69821
ы	-9.69827
øst	-9.69864
▁blue	-9.699
▁fyr	-9.69926
▁forsknings	-9.6994
▁marg	-9.69994
▁elva	-9.70053
seth	-9.70069
varer	-9.70093
hode	-9.70112
departementet	-9.70131
brun	-9.70178
distrikt	-9.70205
▁ple	-9.70216
stedet	-9.70252
▁rand	-9.70323
▁bilde	-9.70392
butikk	-9.70508
▁tittel	-9.70533
▁svarte	-9.7056
▁time	-9.70579
▁begynt	-9.70613
row	-9.70628
▁egentlig	-9.70631
messig	-9.70641
▁finans	-9.70692
oner	-9.70857
▁avdeling	-9.70894
▁franc	-9.70909
▁tildelt	-9.70909
nom	-9.70915
part	-9.70997
tjeneste	-9.71053
▁song	-9.71143
well	-9.71154
▁kap	-9.71168
hallen	-9.71181
▁enkelt	-9.71299
jar	-9.71368
▁joseph	-9.71409
▁sho	-9.71622
under	-9.71726
grunn	-9.71837
▁sun	-9.71935
▁lek	-9.71958
ii	-9.72054
▁42	-9.7208
▁innehold	-9.72115
vers	-9.72128
cent	-9.72143
▁tilhør	-9.72178
▁utviklet	-9.72197
▁2017	-9.72208
▁landsforening	-9.72224
▁leir	-9.72251
hm	-9.72271
snes	-9.72274
vald	-9.72299
eier	-9.72338
▁174	-9.72408
▁flu	-9.7241
anda	-9.7246
▁innsjøen	-9.72547
▁app	-9.72556
▁einar	-9.72579
rådet	-9.72615
▁kors	-9.72729
rot	-9.72746
medaljen	-9.72796
▁larsen	-9.72841
▁stedet	-9.72922
ikken	-9.72922
▁skj	-9.72945
▁varaordfører	-9.72975
▁service	-9.72975
▁hud	-9.72977
▁slo	-9.72982
▁klo	-9.72985
▁igjen	-9.72992
▁rosen	-9.73007
dige	-9.73011
▁kloster	-9.73034
åsen	-9.7306
gin	-9.73092
▁mobil	-9.73138
musikk	-9.73281
▁én	-9.73302
▁dø	-9.73302
▁ting	-9.73325
▁selskap	-9.73379
▁mester	-9.73381
medalje	-9.73415
▁jim	-9.73473
▁oliv	-9.73546
▁henrik	-9.73555
off	-9.73572
▁æ	-9.73583
▁kara	-9.73606
▁mm	-9.73646
regjering	-9.73667
▁met	-9.73673
▁hannen	-9.73693
▁82	-9.73705
▁aar	-9.73708
▁steve	-9.73719
ς	-9.73767
ward	-9.73768
▁edderkopp	-9.73775
вич	-9.73782
folk	-9.73919
aria	-9.73966
saker	-9.73968
▁samling	-9.74028
ст	-9.74147
▁38	-9.74206
▁34	-9.74219
▁lad	-9.7424
▁inc	-9.74379
▁nasjonale	-9.74385
▁sanger	-9.74392
▁kvar	-9.74405
▁tung	-9.74422
▁ara	-9.74522
▁blomster	-9.74537
▁1996	-9.74582
▁naturgass	-9.74629
▁annen	-9.74645
▁sar	-9.74673
light	-9.74691
pri	-9.74692
eira	-9.74743
▁arten	-9.74792
▁74	-9.74842
▁utgav	-9.74892
▁qi	-9.74952
▁153	-9.74958
representant	-9.7502
kjøn	-9.75044
▁bis	-9.75051
hem	-9.7513
museum	-9.75157
▁marie	-9.75169
▁his	-9.75189
▁steder	-9.75275
▁vig	-9.75331
▁los	-9.7537
▁univers	-9.75383
▁real	-9.75388
lum	-9.75403
▁canada	-9.75424
agn	-9.7543
▁betjene	-9.75431
▁studert	-9.75438
▁sterk	-9.75456
▁high	-9.75509
▁für	-9.75514
▁palm	-9.75531
▁borger	-9.75535
▁få	-9.75605
vard	-9.75627
▁internasjonal	-9.75689
▁gla	-9.75736
▁svein	-9.75744
▁157	-9.7575
bilde	-9.75816
▁bern	-9.75838
ikker	-9.75866
▁glass	-9.7587
▁noe	-9.75889
▁moderne	-9.75921
▁plu	-9.75995
▁buss	-9.76036
▁33	-9.76137
▁fot	-9.76139
▁hjem	-9.76183
tag	-9.76212
liggende	-9.76226
arbeider	-9.76244
▁disk	-9.76269
▁hau	-9.7632
trær	-9.76505
▁sy	-9.76507
base	-9.76515
▁mikro	-9.76523
▁institut	-9.76546
haugen	-9.76552
bol	-9.76555
▁rygg	-9.76576
▁mid	-9.76589
zan	-9.76606
bach	-9.76652
metode	-9.76679
hild	-9.76763
▁gjorde	-9.7688
handler	-9.769
▁love	-9.76944
▁luc	-9.77001
ñ	-9.77041
stitusjon	-9.77041
▁ris	-9.77045
▁indisk	-9.77054
▁try	-9.77112
▁trykk	-9.77122
▁dol	-9.77197
▁kropp	-9.77267
styrke	-9.77285
merke	-9.77314
grep	-9.77316
sport	-9.77356
▁best	-9.77371
▁krist	-9.77432
bak	-9.77457
▁kru	-9.77474
▁lærer	-9.775
▁line	-9.77503
▁årlig	-9.77523
▁provins	-9.77531
▁mig	-9.77609
ffer	-9.77677
hjem	-9.77722
områdene	-9.77756
zj	-9.77777
plasser	-9.77795
fjellet	-9.77854
▁south	-9.77901
▁rektor	-9.7792
gler	-9.77976
▁cl	-9.77978
stille	-9.78015
▁vær	-9.78022
mmel	-9.7806
▁alpin	-9.7809
skudd	-9.78147
▁otto	-9.78238
sang	-9.78278
▁natt	-9.78286
hunder	-9.78312
▁ita	-9.78332
▁kristin	-9.78356
▁troll	-9.78367
▁krigs	-9.78409
▁97	-9.78434
▁aur	-9.78518
▁rør	-9.78521
▁jam	-9.78532
▁drama	-9.78564
▁arbeidet	-9.7859
marked	-9.78601
feltet	-9.78616
brød	-9.78633
lønn	-9.78637
▁middel	-9.78651
▁hov	-9.78716
klasse	-9.7872
bal	-9.78723
▁2013	-9.78739
▁trondheim	-9.78741
▁music	-9.78809
▁count	-9.78818
▁eiendom	-9.78895
flue	-9.7893
▁saa	-9.78942
jia	-9.78968
hard	-9.79029
stykke	-9.79124
▁union	-9.79143
lak	-9.7915
▁syv	-9.79168
dam	-9.79197
last	-9.79206
▁od	-9.79214
pass	-9.79239
løst	-9.7926
kilde	-9.79263
▁mulig	-9.79321
▁regionen	-9.79331
sjø	-9.79381
klar	-9.79395
▁forkorte	-9.79397
cio	-9.79419
▁gram	-9.79471
cker	-9.79491
▁energy	-9.79575
lingen	-9.79599
▁sesong	-9.79615
▁mah	-9.79627
kirke	-9.79641
ox	-9.79646
delen	-9.7968
▁stasjon	-9.79686
▁universitet	-9.79713
▁off	-9.79766
▁gå	-9.79773
aksjon	-9.79844
havn	-9.79863
forskning	-9.79987
kanalen	-9.79989
▁90	-9.80008
▁rask	-9.80012
▁sav	-9.80139
tum	-9.80174
metri	-9.80233
▁hul	-9.80327
året	-9.80346
▁eget	-9.80354
▁this	-9.80357
▁bind	-9.8038
oksid	-9.80392
▁sven	-9.80401
▁shan	-9.80411
ê	-9.80417
ila	-9.80429
▁rune	-9.80472
▁nytt	-9.80476
▁phil	-9.80504
▁flyplass	-9.80532
▁johansen	-9.80561
▁lengde	-9.80572
skolen	-9.80661
hor	-9.80666
rød	-9.80673
▁ola	-9.80675
ан	-9.80708
ün	-9.80724
▁olavs	-9.80733
gram	-9.80754
ка	-9.80754
▁bat	-9.8076
▁magne	-9.80795
▁sti	-9.80868
ç	-9.80897
▁emil	-9.8093
fik	-9.80939
▁brit	-9.81059
▁russ	-9.81068
opter	-9.81085
▁munn	-9.81134
pat	-9.8114
▁ivar	-9.81187
former	-9.81235
snegl	-9.81256
sekretær	-9.81268
vitenskap	-9.81273
▁benytter	-9.81282
▁instrument	-9.81306
pal	-9.81312
orum	-9.8132
▁rus	-9.81363
forsker	-9.81364
▁samfunns	-9.81402
▁stad	-9.81402
flo	-9.81634
▁landskap	-9.81708
ledning	-9.81717
▁165	-9.81733
▁169	-9.81778
rekord	-9.8179
▁omtale	-9.8179
▁sykl	-9.81794
▁osv	-9.81818
▁gua	-9.81843
▁henne	-9.81914
pel	-9.81959
oks	-9.81973
setningen	-9.81977
▁verdi	-9.82
ро	-9.82026
▁who	-9.82081
▁magnus	-9.82157
▁2016	-9.82171
▁group	-9.82186
livet	-9.82347
▁symbol	-9.82421
▁morten	-9.82434
▁city	-9.82458
▁bygget	-9.82481
gate	-9.8254
▁vill	-9.82592
▁kart	-9.82633
erud	-9.82813
verdig	-9.82842
ello	-9.82858
vang	-9.82865
align	-9.82924
▁kai	-9.83025
μ	-9.83025
myndighet	-9.83026
▁direkte	-9.83026
utgivelse	-9.83099
▁stammer	-9.83136
▁slott	-9.83142
▁fry	-9.83219
▁britisk	-9.83237
park	-9.83361
▁eldre	-9.83369
ã	-9.83404
▁oh	-9.83415
▁arve	-9.8344
▁eik	-9.83506
cz	-9.83631
▁spin	-9.83641
▁thu	-9.837
▁hill	-9.83746
▁vanlige	-9.83816
▁staten	-9.83817
▁mediebedriften	-9.8391
▁øvrig	-9.8391
kommunikasjon	-9.83911
▁direktør	-9.83915
▁kim	-9.83988
▁172	-9.8399
sar	-9.84015
chen	-9.84022
wald	-9.84063
▁verden	-9.84086
▁wall	-9.841
▁boy	-9.84144
typen	-9.8419
▁146	-9.84231
flekk	-9.84273
▁tett	-9.84319
▁ever	-9.84418
ов	-9.8447
▁75	-9.84532
▁adam	-9.84556
▁historisk	-9.84625
▁arbeid	-9.84625
ür	-9.84663
▁stasjonen	-9.84666
lad	-9.84668
▁typer	-9.84797
▁litteratur	-9.84812
▁2014	-9.8483
▁trener	-9.84905
▁løp	-9.84927
bul	-9.84938
▁cat	-9.84945
▁ordens	-9.85046
onym	-9.85049
▁hö	-9.85121
▁varierer	-9.85181
▁bety	-9.85301
▁tyske	-9.85318
▁reise	-9.854
▁sea	-9.85493
▁formel	-9.85628
▁uttale	-9.85639
▁daglig	-9.85676
▁rolf	-9.85714
▁grunnlagt	-9.8577
▁159	-9.85836
▁tann	-9.85862
uru	-9.8591
▁sideelv	-9.86034
blom	-9.86035
▁fremst	-9.86037
▁fjern	-9.86081
iano	-9.86103
▁rep	-9.86112
zhi	-9.86119
head	-9.86146
▁00	-9.86185
▁mit	-9.86216
▁apo	-9.86261
▁harry	-9.86285
merket	-9.86342
▁160	-9.86395
▁betegne	-9.86454
▁sit	-9.86493
▁spiss	-9.86507
▁tyskland	-9.86532
ś	-9.86587
▁opplagstall	-9.86613
▁bou	-9.8662
tunnelen	-9.86621
▁2015	-9.86642
virkning	-9.86664
▁aldri	-9.86691
trinn	-9.86738
▁right	-9.86814
▁till	-9.86857
ен	-9.86868
▁sco	-9.86917
person	-9.8692
aba	-9.86925
▁musiker	-9.86945
▁personlig	-9.86969
historiker	-9.86976
barn	-9.8701
▁grunnla	-9.87103
ios	-9.87127
▁spansk	-9.8713
▁gansk	-9.87137
▁had	-9.87139
vall	-9.87171
▁simon	-9.87288
▁sunn	-9.87367
hof	-9.87404
▁fjær	-9.87405
innen	-9.87406
løsning	-9.8741
ful	-9.87416
ва	-9.87501
bedrift	-9.87516
▁bevegelse	-9.87528
▁bulgarsk	-9.87531
▁original	-9.87531
▁1992	-9.87531
▁jørgen	-9.87532
▁inngår	-9.87533
▁fol	-9.87553
▁1990	-9.87582
våpen	-9.87612
▁foruten	-9.87637
▁deler	-9.87644
▁veien	-9.87649
▁bell	-9.87705
phy	-9.87777
▁retts	-9.87816
▁elektro	-9.87845
▁mess	-9.87862
▁politiker	-9.87882
▁endre	-9.87884
▁prof	-9.87889
▁festival	-9.87934
litt	-9.8806
▁ari	-9.88069
gno	-9.88122
▁då	-9.88283
mini	-9.8829
▁fisk	-9.88296
▁forsvars	-9.88369
lam	-9.8841
▁1988	-9.88457
▁varme	-9.88459
▁middelalder	-9.88465
▁dverg	-9.88487
samisk	-9.88495
▁bom	-9.8852
▁debut	-9.88539
▁indre	-9.88552
forhold	-9.88572
▁michel	-9.88573
stø	-9.88628
middel	-9.88629
▁fjord	-9.88658
▁enkelte	-9.88669
▁az	-9.88699
handel	-9.88893
▁emb	-9.88955
på	-9.88978
programmet	-9.88996
▁chu	-9.89089
▁oversatt	-9.89211
▁kari	-9.89212
lege	-9.89258
horn	-9.89337
▁1998	-9.89392
▁hvert	-9.89419
drift	-9.89474
▁sym	-9.89482
▁primær	-9.89518
▁barb	-9.8953
▁buk	-9.89558
▁drive	-9.89572
pil	-9.89573
▁fau	-9.89675
slått	-9.89696
▁livs	-9.89716
▁ganger	-9.89732
▁lokale	-9.89746
▁pop	-9.89774
▁eva	-9.89779
▁heste	-9.89849
▁bryst	-9.89856
▁grøn	-9.89857
oppgave	-9.89877
▁kongen	-9.89897
ifisert	-9.89913
▁shu	-9.89923
næs	-9.89962
▁gitt	-9.90013
▁sign	-9.90089
▁boken	-9.90163
▁är	-9.90167
ark	-9.90172
▁brand	-9.90283
▁lim	-9.90322
▁stockholm	-9.90335
▁benyttes	-9.90335
▁tolkien	-9.90343
▁university	-9.90347
▁bronse	-9.90365
▁trommer	-9.90372
▁terje	-9.90384
▁båt	-9.90396
▁back	-9.90402
▁angrep	-9.90445
luk	-9.90468
venn	-9.90503
stjerne	-9.90523
▁prop	-9.90524
▁ferdig	-9.90546
▁cath	-9.90563
▁betydning	-9.90566
▁test	-9.90581
ago	-9.906
▁mono	-9.90666
holmen	-9.90765
▁kirken	-9.90782
▁utdanning	-9.90792
▁kalk	-9.90916
▁danse	-9.90994
maleri	-9.9107
løk	-9.91092
tradisjon	-9.91277
▁nikola	-9.91291
▁alexander	-9.91292
▁mongol	-9.91301
▁ott	-9.91385
▁chang	-9.91405
slekten	-9.91482
fjellene	-9.91485
▁vold	-9.91491
lli	-9.91518
▁nova	-9.91611
møte	-9.91681
▁green	-9.91707
▁conc	-9.91709
skilt	-9.91718
▁sjef	-9.91754
▁kryss	-9.91759
uli	-9.91786
▁ost	-9.91858
gjorde	-9.91898
▁havne	-9.91919
▁figur	-9.91937
▁sær	-9.91948
kamera	-9.91969
programmer	-9.91982
▁polar	-9.92118
▁kroppen	-9.92128
dokument	-9.92129
kjede	-9.92157
bispedømme	-9.92248
η	-9.92249
▁kardinal	-9.92249
▁shanghai	-9.92249
▁øvre	-9.9225
▁betydelig	-9.9225
sykdom	-9.92261
▁biskop	-9.92264
▁text	-9.92278
▁antonio	-9.92314
▁tverr	-9.92356
▁kåre	-9.92397
▁prote	-9.92416
▁spp	-9.92435
virksomhet	-9.9246
kultur	-9.9254
▁stam	-9.92559
▁forekommer	-9.92598
▁tai	-9.92609
▁fest	-9.92641
tjenester	-9.92642
▁skatt	-9.92668
kjel	-9.92742
▁rad	-9.92752
▁163	-9.92766
▁prim	-9.92786
▁petter	-9.928
▁israel	-9.92836
▁wood	-9.92857
▁rod	-9.92873
anske	-9.92916
kerne	-9.92976
▁rek	-9.92986
iserer	-9.93019
samfunn	-9.93085
spinner	-9.93136
▁brukt	-9.93195
▁fj	-9.93208
π	-9.93219
▁1994	-9.9322
▁digital	-9.93222
▁utdype	-9.93222
▁øverst	-9.93224
▁tau	-9.93356
▁human	-9.93362
▁antenne	-9.93391
vekt	-9.93393
▁markeds	-9.93396
▁skip	-9.93425
▁uttrykk	-9.9343
▁hjemmeside	-9.93453
▁konsert	-9.93474
avdeling	-9.93506
▁kjerne	-9.93531
qi	-9.93541
▁motta	-9.93657
▁ledes	-9.93706
ito	-9.93732
▁kata	-9.93798
▁hä	-9.9385
▁jack	-9.93857
▁vent	-9.94008
▁bach	-9.94027
▁mei	-9.94059
▁tema	-9.94122
▁1993	-9.942
tilstand	-9.94202
▁london	-9.94203
insk	-9.94206
▁nærmest	-9.94211
iblant	-9.94217
▁drammen	-9.94225
▁danmark	-9.94257
▁smith	-9.9429
top	-9.94294
ль	-9.94296
ар	-9.94299
firma	-9.94315
▁fleste	-9.94358
▁led	-9.94363
▁brenn	-9.94414
historie	-9.94481
ernes	-9.94485
▁æres	-9.9453
▁lyn	-9.9459
▁skade	-9.94637
▁geir	-9.9465
▁offentlig	-9.94679
▁oss	-9.94697
āng	-9.94759
gruppa	-9.94761
▁bland	-9.94828
para	-9.94903
▁55	-9.94939
gni	-9.9494
▁peder	-9.94969
▁produkt	-9.95046
botn	-9.95095
▁1995	-9.95191
skipet	-9.9521
▁sverre	-9.95218
politikk	-9.9523
▁klima	-9.95248
▁sum	-9.95254
▁upp	-9.95258
▁pedersen	-9.95259
▁lenge	-9.9526
▁sivil	-9.95347
▁ah	-9.9536
later	-9.95385
▁log	-9.95408
▁award	-9.95429
▁sing	-9.95443
▁37	-9.95465
▁147	-9.95469
▁orkester	-9.95476
▁fylket	-9.95485
spis	-9.95498
▁rob	-9.95551
▁produksjons	-9.95567
▁xu	-9.95589
▁behandle	-9.95657
▁hvite	-9.95696
atus	-9.95749
▁hev	-9.95796
▁org	-9.95815
amin	-9.9586
linjen	-9.95874
▁feil	-9.9588
▁utstyr	-9.95933
▁nesten	-9.96011
▁tel	-9.96022
festivalen	-9.96085
▁trafikk	-9.96099
▁single	-9.96107
▁52	-9.9611
▁pil	-9.96151
nøtt	-9.96161
▁beijing	-9.96191
▁sigurd	-9.96192
utdannet	-9.96195
▁frederik	-9.96198
▁140	-9.96338
▁bonde	-9.9634
▁stål	-9.96351
▁italia	-9.9636
deling	-9.96371
▁tiden	-9.96438
▁kos	-9.96451
figur	-9.96534
▁pont	-9.96605
gro	-9.96657
▁fett	-9.96657
▁professor	-9.96706
▁chris	-9.96857
▁skille	-9.97032
▁170	-9.97044
utvikl	-9.97069
▁dro	-9.97112
uni	-9.97124
▁nilsen	-9.97129
▁tjeneste	-9.97141
х	-9.972
▁publisert	-9.972
▁omtrent	-9.972
▁styrmann	-9.972
▁1987	-9.97201
▁lot	-9.9725
riket	-9.9726
▁bit	-9.97295
▁byprefekturet	-9.97299
stall	-9.97321
▁gö	-9.97333
▁video	-9.97347
spekt	-9.97387
▁delt	-9.9746
sol	-9.97575
byrå	-9.97581
▁hunnen	-9.97604
jak	-9.9767
fart	-9.97695
▁program	-9.97716
ekker	-9.97763
▁mini	-9.97771
olje	-9.97824
gikk	-9.97833
vatn	-9.97833
atet	-9.97838
▁drag	-9.97944
▁lære	-9.9798
fartøy	-9.98111
iana	-9.98144
feranse	-9.98159
▁wang	-9.98176
skift	-9.98206
▁cd	-9.9821
▁п	-9.98211
ô	-9.9822
▁gustav	-9.98223
slutning	-9.98252
bridge	-9.98252
bygging	-9.98256
▁bin	-9.9831
▁dyp	-9.98329
▁ross	-9.9836
væ	-9.98403
elius	-9.98495
▁ai	-9.98538
▁last	-9.98569
▁lyse	-9.98582
program	-9.98604
▁105	-9.98616
▁still	-9.98621
produsent	-9.98622
▁ron	-9.98667
▁gold	-9.98677
▁64	-9.98693
▁rub	-9.98699
▁damp	-9.98734
▁mala	-9.98779
▁jesu	-9.98823
▁wade	-9.98856
▁hunde	-9.98949
▁lite	-9.98962
▁trekk	-9.98971
▁148	-9.99055
pra	-9.99067
feng	-9.99136
▁110	-9.99193
▁tilsvarende	-9.99251
▁episode	-9.99254
kandidat	-9.99258
ingeniør	-9.99268
▁dialekt	-9.99281
▁jazz	-9.99368
▁maskin	-9.99382
▁shar	-9.99384
karriere	-9.99467
spir	-9.99485
▁sterkt	-9.99494
▁gress	-9.99514
myr	-9.99518
▁ferr	-9.9955
▁top	-9.99586
▁stamme	-9.99782
▁hellig	-9.99872
▁personer	-9.99879
▁forlag	-9.99881
▁jr	-9.99944
vá	-9.99961
▁prisen	-10.0002
▁meta	-10.001
▁legge	-10.001
beck	-10.0014
▁wan	-10.002
▁pel	-10.0023
γ	-10.0029
▁administrativ	-10.0029
▁prefektur	-10.0029
▁dynastiet	-10.003
▁himmel	-10.0032
▁skips	-10.0035
▁republikken	-10.0035
▁fylkesvei	-10.0036
▁tørr	-10.0038
▁kath	-10.0043
moen	-10.0044
▁bomb	-10.0047
▁bygningen	-10.0052
▁histori	-10.0061
shire	-10.0061
▁vokser	-10.0074
zon	-10.0083
tog	-10.0086
▁front	-10.0088
▁þ	-10.0092
▁adel	-10.0103
stilte	-10.0106
▁carol	-10.0106
▁herman	-10.0106
dong	-10.011
▁syr	-10.0113
▁santa	-10.0119
idrett	-10.0133
▁kjøpt	-10.0133
▁mary	-10.0134
friidrettsutøver	-10.0135
▁ey	-10.0135
▁york	-10.0136
▁statsminister	-10.0137
ington	-10.014
ally	-10.0143
▁nordøst	-10.0143
▁dannet	-10.0143
mbo	-10.0148
▁ash	-10.0149
gue	-10.015
selva	-10.0152
▁sendt	-10.0154
vika	-10.0156
ould	-10.0158
▁skriver	-10.0159
▁furu	-10.0165
folket	-10.0171
▁ytter	-10.0175
▁hin	-10.0177
serien	-10.0184
wood	-10.0185
▁46	-10.0187
áng	-10.0187
▁44	-10.0192
▁stiftet	-10.0196
ømt	-10.0204
▁holder	-10.021
▁there	-10.0211
åpning	-10.022
▁dyn	-10.0223
ь	-10.0231
økonom	-10.0236
▁bokstav	-10.024
ǔ	-10.0241
ί	-10.0241
▁alternativ	-10.0241
▁master	-10.0241
▁anlegget	-10.0247
▁alfred	-10.0253
▁intel	-10.0254
▁operasjon	-10.0265
▁akk	-10.0271
▁stig	-10.0277
▁54	-10.0281
funksjon	-10.0295
delt	-10.0296
plate	-10.0296
▁107	-10.0296
▁hals	-10.0305
▁bydelen	-10.0307
▁naturlig	-10.0311
▁one	-10.0314
▁nrk	-10.0327
søy	-10.0332
▁fang	-10.0334
▁smi	-10.0334
▁bord	-10.0337
gjort	-10.0338
▁turist	-10.0342
ла	-10.0348
▁tilknyttet	-10.0348
▁sveits	-10.0349
▁enten	-10.0356
▁stopp	-10.0357
hyll	-10.037
▁høsten	-10.0373
▁moren	-10.0377
▁term	-10.0381
▁kau	-10.0383
▁rose	-10.0385
▁gon	-10.0386
▁egil	-10.0387
▁hoff	-10.0393
▁guang	-10.0395
▁artene	-10.0397
▁cup	-10.0404
tveit	-10.0413
konsern	-10.0416
vand	-10.0417
▁høyt	-10.0418
▁alm	-10.0418
tropp	-10.0424
▁lyst	-10.0434
▁temperatur	-10.0434
▁krysser	-10.0439
▁mitt	-10.044
mont	-10.0453
▁alv	-10.0454
▁play	-10.0457
▁fulgte	-10.0457
▁unicode	-10.0457
▁1997	-10.0457
▁andré	-10.0459
▁saint	-10.0467
asso	-10.0469
stemme	-10.0469
▁53	-10.047
▁lager	-10.0471
nytt	-10.0473
▁center	-10.0491
▁foto	-10.0514
▁team	-10.0517
▁ark	-10.0518
▁way	-10.0527
▁koll	-10.0527
▁corn	-10.053
▁stab	-10.0533
serie	-10.0533
▁raf	-10.0538
▁karakter	-10.0539
▁beskrev	-10.0545
hydr	-10.0555
utvikling	-10.0558
▁høyde	-10.0558
▁stod	-10.0563
δ	-10.0567
▁derimot	-10.0567
▁dronning	-10.0568
▁nedenfor	-10.0568
▁hvis	-10.0568
ни	-10.057
▁well	-10.0572
▁roger	-10.0574
ía	-10.0576
▁verneområde	-10.0583
▁fører	-10.0588
▁fan	-10.0592
▁wel	-10.0599
løpet	-10.0601
▁pul	-10.0613
▁populær	-10.0617
▁artister	-10.0619
▁økt	-10.0625
▁hammer	-10.0626
▁manus	-10.0633
▁09	-10.0648
cula	-10.0655
п	-10.0658
mond	-10.0659
istene	-10.0664
já	-10.0665
▁kali	-10.0673
▁administrere	-10.0678
▁tabellen	-10.0679
▁efter	-10.068
▁pettersen	-10.0686
▁filip	-10.0689
lista	-10.0693
▁к	-10.0693
ovo	-10.0694
spenning	-10.0697
▁tegnet	-10.0702
▁mul	-10.0716
▁43	-10.0718
▁cel	-10.072
▁bow	-10.0729
▁fru	-10.0733
▁bai	-10.0733
▁ansvarlig	-10.0742
▁48	-10.0743
kvalitet	-10.0748
▁fv	-10.0748
▁verne	-10.0756
▁folket	-10.076
▁betydninger	-10.0763
▁deutsche	-10.0765
▁ull	-10.0769
▁mangler	-10.0769
▁besøk	-10.0773
▁europe	-10.0774
▁colle	-10.0784
▁leon	-10.0784
ı	-10.0791
▁friedrich	-10.0791
▁benyttet	-10.0791
▁jakob	-10.0791
▁vanligst	-10.0791
▁bakke	-10.0791
planter	-10.0793
ovitsj	-10.0794
▁ordfører	-10.0794
▁eldste	-10.0796
▁85	-10.0797
hui	-10.0799
▁markerer	-10.0802
▁jä	-10.0804
▁dong	-10.0808
strup	-10.0809
prøve	-10.081
▁klokke	-10.0811
inntekt	-10.0812
beskytte	-10.0814
▁jule	-10.0815
▁streng	-10.0817
▁liber	-10.0822
▁behandling	-10.0823
▁korn	-10.0826
▁pave	-10.0826
▁show	-10.0829
▁cri	-10.0843
meter	-10.0843
▁komponist	-10.0845
▁ivan	-10.086
▁effekt	-10.086
isse	-10.0861
kontroll	-10.0861
utstyr	-10.0865
▁dekker	-10.0866
▁leif	-10.0869
▁vall	-10.0869
▁rem	-10.0881
▁149	-10.0883
format	-10.089
▁blokk	-10.0891
▁dig	-10.0893
▁intern	-10.0896
kjent	-10.0897
▁amerika	-10.0904
▁1983	-10.0904
kommando	-10.0906
▁112	-10.0908
løft	-10.0909
▁betegnelsen	-10.0913
▁gjeste	-10.0914
srud	-10.0919
▁fler	-10.0921
▁102	-10.0921
▁dru	-10.0922
▁ube	-10.0929
tysk	-10.0933
ōng	-10.0934
▁kristen	-10.0951
▁even	-10.0951
▁brev	-10.0961
▁mathi	-10.0963
▁produksjon	-10.0971
hopp	-10.0972
px	-10.0979
▁mr	-10.0985
verdi	-10.0988
▁virksomhet	-10.0994
▁tank	-10.0995
▁linjen	-10.0996
▁svak	-10.1003
bon	-10.1015
▁illustr	-10.1019
▁religion	-10.1019
▁royal	-10.1021
▁uavhengig	-10.1025
▁flertall	-10.1025
▁arc	-10.1027
sluttet	-10.1028
hagen	-10.1029
▁life	-10.103
▁utvide	-10.1034
▁bud	-10.1035
typer	-10.1038
vning	-10.1043
▁organisasjonen	-10.1045
▁gli	-10.1047
▁128	-10.1049
illo	-10.105
▁rute	-10.105
▁drev	-10.1062
fre	-10.1062
▁orient	-10.1068
betegnelse	-10.107
▁total	-10.1074
▁teksten	-10.1075
▁ramm	-10.1086
▁hode	-10.1099
▁hir	-10.1101
▁voks	-10.1103
▁kommunist	-10.1105
▁gjelder	-10.1107
▁øyene	-10.1111
▁skrive	-10.1113
▁totalt	-10.1114
▁frei	-10.1117
▁vakt	-10.1121
▁skje	-10.1134
▁vu	-10.1135
ш	-10.1135
▁hviterussisk	-10.1135
▁sovjetunionen	-10.1135
▁nicola	-10.1136
▁opprettet	-10.1136
▁tydelig	-10.1136
▁adresse	-10.1137
▁sukker	-10.1137
▁referere	-10.1139
▁slu	-10.1139
▁sku	-10.1156
▁noter	-10.1162
lif	-10.1168
medlemmene	-10.117
▁walter	-10.1173
artikler	-10.1175
▁corp	-10.1176
▁kanon	-10.1179
▁kaller	-10.1184
▁bølge	-10.1191
tallet	-10.1192
▁rau	-10.1194
fred	-10.1213
▁tone	-10.1215
▁bull	-10.1215
behandling	-10.122
▁08	-10.1223
▁problem	-10.1226
▁artist	-10.1231
▁malt	-10.1231
го	-10.1231
▁vers	-10.124
▁dim	-10.124
bøker	-10.1244
▁chan	-10.1245
▁84	-10.1246
bury	-10.1252
▁malm	-10.1252
▁dobbelt	-10.1253
▁christoph	-10.1253
▁kjempe	-10.1254
▁sykehus	-10.1254
▁viktig	-10.1257
▁likevel	-10.1262
▁tog	-10.1263
▁dekk	-10.1275
▁vitenskapelig	-10.1277
▁spise	-10.1284
▁65	-10.1289
▁gile	-10.1291
▁sæ	-10.1292
▁sikte	-10.1297
vinner	-10.1304
▁dør	-10.1305
▁ånd	-10.1306
eiro	-10.1311
verksted	-10.1321
▁populære	-10.1323
▁135	-10.1326
▁påvirke	-10.1329
▁iii	-10.1337
▁normalt	-10.1338
gran	-10.1339
burn	-10.1341
▁dominere	-10.1344
etten	-10.1354
▁innsjø	-10.1355
logi	-10.1364
▁nederland	-10.1371
ppel	-10.1371
õ	-10.1372
▁elisabeth	-10.1372
▁minst	-10.1373
▁familiegruppen	-10.1374
sentre	-10.1375
▁edward	-10.1375
▁stadion	-10.1379
▁meget	-10.1385
politisk	-10.1388
▁feli	-10.1389
▁papir	-10.139
▁в	-10.1392
▁bygda	-10.1397
fabrik	-10.1399
gav	-10.1402
▁sankt	-10.1421
▁nordlig	-10.1421
dikt	-10.1423
vakt	-10.1429
guan	-10.1432
fugler	-10.1439
regiment	-10.1449
enheter	-10.1451
tind	-10.1461
▁aktivitet	-10.1463
post	-10.1463
næring	-10.1466
▁tran	-10.147
▁143	-10.1472
▁beat	-10.1483
▁carlo	-10.1485
đ	-10.1493
giovanni	-10.1493
▁records	-10.1493
▁millioner	-10.1493
▁hjort	-10.1494
▁tibetansk	-10.1496
sdatter	-10.1496
terapi	-10.1497
▁svømme	-10.1498
▁57	-10.15
syke	-10.1506
▁piano	-10.1531
▁møter	-10.1536
hamn	-10.154
ça	-10.1542
kort	-10.1543
merker	-10.1545
stoffer	-10.1557
▁pad	-10.1559
▁py	-10.156
▁jevn	-10.1561
▁145	-10.1569
▁41	-10.157
▁skinn	-10.1575
▁did	-10.1575
grønn	-10.1593
▁72	-10.1593
▁solo	-10.1601
▁39	-10.1612
hovedstaden	-10.1615
▁hurtig	-10.1616
▁nordvest	-10.1616
▁oblast	-10.1617
▁idrettslag	-10.1619
▁127	-10.1619
▁hil	-10.1621
▁kw	-10.1622
▁1986	-10.1623
▁hjerne	-10.1624
▁knytte	-10.1625
▁02	-10.1626
▁forretnings	-10.1626
▁ernst	-10.1649
vendt	-10.1651
▁our	-10.1652
ddy	-10.1653
▁middelsstore	-10.1656
▁server	-10.166
▁billed	-10.166
▁holdt	-10.1664
▁77	-10.1664
iya	-10.1666
konge	-10.167
▁heng	-10.1673
levende	-10.1688
▁bjørk	-10.1692
▁sport	-10.1699
komst	-10.1701
analyse	-10.1709
▁eie	-10.1711
▁bydel	-10.1715
prosjekt	-10.1717
forfatter	-10.1717
▁fur	-10.1721
▁bert	-10.1733
▁stift	-10.1733
▁tå	-10.1737
kål	-10.1737
medlem	-10.1737
▁american	-10.1738
▁1991	-10.1738
▁school	-10.1738
▁stavanger	-10.1741
▁dog	-10.1742
▁omtalt	-10.1743
▁cm	-10.1744
▁forvaltnings	-10.1744
▁social	-10.1745
▁passerer	-10.1746
undervisning	-10.1747
▁free	-10.1749
▁størrelse	-10.1751
▁følge	-10.1752
▁alltid	-10.1754
reserv	-10.1757
▁vet	-10.1773
▁høyere	-10.1782
cchi	-10.1789
▁åpnet	-10.1789
▁krok	-10.179
▁reserve	-10.1799
tain	-10.1799
▁akt	-10.181
▁ledelse	-10.1814
▁nedre	-10.1818
vegg	-10.1826
▁tø	-10.1833
▁studio	-10.1833
▁big	-10.1839
pot	-10.1843
▁økonomisk	-10.1844
▁gaten	-10.1846
▁verb	-10.1851
▁kontor	-10.1853
data	-10.1854
▁radi	-10.1857
▁tyrkisk	-10.1863
▁skyldes	-10.1863
▁egypt	-10.1863
▁1985	-10.1863
▁debutalbum	-10.1863
kontrakt	-10.1865
▁hai	-10.1865
celle	-10.1866
nebb	-10.1867
▁atlant	-10.1868
bjørg	-10.187
▁møtte	-10.1871
▁clo	-10.1873
▁119	-10.1875
ев	-10.1879
▁gården	-10.1879
та	-10.189
▁ligne	-10.189
▁113	-10.1893
▁109	-10.1894
▁grov	-10.1901
▁underlagt	-10.1906
▁storm	-10.1906
▁jarl	-10.191
ischen	-10.1912
▁sara	-10.1914
artikkel	-10.1916
▁kommun	-10.1918
▁mach	-10.1931
pec	-10.1933
▁kvinner	-10.1935
▁jud	-10.1936
▁137	-10.194
▁utføre	-10.1944
▁sä	-10.1948
▁wild	-10.1949
▁kjøl	-10.1949
▁tin	-10.1959
▁47	-10.1965
▁makt	-10.1965
uba	-10.1965
maskiner	-10.1969
▁pun	-10.1972
▁gott	-10.1982
ić	-10.1986
▁knu	-10.1989
ń	-10.199
ц	-10.199
spørsmål	-10.199
▁1982	-10.199
▁hustru	-10.199
komite	-10.1992
pasient	-10.1992
▁hotell	-10.1995
▁pho	-10.1997
▁rig	-10.1999
▁95	-10.2
▁prege	-10.2
▁tab	-10.2001
▁jin	-10.2004
▁oversettelse	-10.2004
▁urdu	-10.2005
▁flagg	-10.201
▁east	-10.2011
▁ltd	-10.2011
▁forfatteren	-10.2012
▁jobbe	-10.2016
▁rec	-10.2021
blå	-10.2027
▁normal	-10.2037
▁106	-10.2041
▁sna	-10.2053
▁silke	-10.2061
▁plassert	-10.2066
ischer	-10.2066
▁henri	-10.2068
▁lyng	-10.2076
bukta	-10.208
▁åpne	-10.208
enburg	-10.2087
▁audi	-10.2092
▁arg	-10.2093
▁møte	-10.2102
regionen	-10.2107
maskin	-10.2107
▁sanskrit	-10.2118
▁observa	-10.2118
▁hebraisk	-10.2118
▁1968	-10.2118
▁sjelden	-10.2118
▁company	-10.2118
▁norrøn	-10.2118
▁brown	-10.2126
long	-10.2127
fortelling	-10.213
▁major	-10.2135
▁float	-10.2139
▁motstand	-10.2142
▁forbindelse	-10.2144
▁college	-10.2152
eneste	-10.2156
øvelse	-10.216
▁semi	-10.216
▁62	-10.2164
lung	-10.2168
▁nielsen	-10.2169
▁rag	-10.2169
egnet	-10.2173
▁morgen	-10.218
fabrikken	-10.2207
katt	-10.2208
▁irsk	-10.2218
▁utført	-10.2224
▁regjerings	-10.2234
▁grunnlegger	-10.2235
▁qa	-10.2235
▁500	-10.2237
album	-10.2245
▁tusenårssted	-10.2248
▁relativ	-10.2248
▁programleder	-10.225
▁tilsvarer	-10.225
▁oscar	-10.2253
chel	-10.2254
▁internett	-10.2254
▁marit	-10.2258
▁portrett	-10.2264
stripe	-10.2266
▁persisk	-10.2272
plattform	-10.2273
▁khan	-10.2275
wick	-10.2276
materiale	-10.2289
▁130	-10.2289
▁maj	-10.2289
stone	-10.2292
▁nasjonalpark	-10.2293
▁regional	-10.2299
▁103	-10.2301
maker	-10.231
▁town	-10.2317
▁bau	-10.232
▁latinsk	-10.2329
ordning	-10.2332
zel	-10.2333
▁gjeng	-10.2334
kasse	-10.2337
▁journalist	-10.2355
▁struktur	-10.2355
▁psyko	-10.2357
▁øker	-10.2361
instrument	-10.2375
▁bag	-10.2375
▁arrangerer	-10.2379
▁teknisk	-10.2379
objekt	-10.2381
▁josé	-10.2383
leir	-10.2385
hau	-10.2387
▁invest	-10.2391
▁fjellet	-10.2392
▁deltok	-10.2393
▁poeng	-10.2394
▁øyvin	-10.2394
periode	-10.2395
▁menighet	-10.2396
▁05	-10.2399
▁skall	-10.24
ân	-10.2405
▁bibel	-10.2405
▁tolv	-10.2405
▁saga	-10.2422
▁elektrisk	-10.2427
▁125	-10.2428
▁deles	-10.2428
løv	-10.2446
▁busk	-10.2452
▁kaptein	-10.2473
▁kald	-10.2474
▁båten	-10.2483
▁skifte	-10.2487
▁tig	-10.2487
▁mennesker	-10.2493
▁alpe	-10.25
tjenesten	-10.2501
▁forbinde	-10.2503
▁grim	-10.2504
▁bang	-10.251
forbindelse	-10.2511
dynastiet	-10.2512
direktør	-10.2512
▁1979	-10.2513
▁1972	-10.2513
ος	-10.2514
▁prosent	-10.2514
▁tømmer	-10.2516
stipend	-10.2516
▁nederlandsk	-10.2519
▁sørøst	-10.2519
▁home	-10.2525
▁mineral	-10.2526
dommen	-10.2527
▁bakover	-10.2534
▁krever	-10.2536
▁jakt	-10.2538
▁popul	-10.2543
hør	-10.2546
▁hypo	-10.2548
▁126	-10.255
▁kjær	-10.2562
▁delvis	-10.2565
korn	-10.2567
▁jeff	-10.2571
▁bøker	-10.2571
fotograf	-10.2602
▁bog	-10.2607
variant	-10.2609
▁68	-10.2617
▁73	-10.2626
▁myk	-10.2627
støl	-10.2634
arrangement	-10.2648
▁electric	-10.2648
▁vladimir	-10.2648
▁parlament	-10.2648
▁dirigent	-10.2648
▁gabriel	-10.2648
▁begrepet	-10.2648
▁kjemisk	-10.2651
hjelp	-10.2652
▁straffe	-10.2657
▁sørlig	-10.2662
kjempe	-10.2663
ин	-10.2667
▁signal	-10.2668
▁alex	-10.2672
ал	-10.2679
▁utga	-10.2681
stell	-10.2683
offiser	-10.2685
mission	-10.2699
møll	-10.27
print	-10.2712
▁årene	-10.2717
▁penge	-10.2718
▁glad	-10.2724
▁skar	-10.273
abili	-10.2739
▁verd	-10.2739
finne	-10.2742
▁kit	-10.2743
▁kvit	-10.2771
▁kval	-10.2773
▁hodet	-10.2776
▁europeisk	-10.278
▁lapp	-10.2782
▁arrangeres	-10.2785
▁church	-10.2785
▁ungarsk	-10.2785
▁klassisk	-10.2785
▁ønske	-10.2786
tidsskrift	-10.2787
▁seier	-10.2799
nntil	-10.2807
psykologi	-10.2809
▁eriksen	-10.281
▁tag	-10.2824
søkte	-10.2827
ður	-10.283
▁fab	-10.2839
▁teknologi	-10.2855
▁eld	-10.2857
▁bunn	-10.2859
▁roma	-10.286
back	-10.2875
▁bøy	-10.2883
pakke	-10.2884
ated	-10.2901
graph	-10.2907
▁114	-10.2908
▁motiv	-10.2913
▁1980	-10.2924
▁fjerde	-10.2924
▁forårsake	-10.2924
▁united	-10.2924
▁insekt	-10.2926
▁stefan	-10.2926
▁brei	-10.2926
▁gjenopp	-10.2934
▁pur	-10.2934
trafikk	-10.2936
▁høst	-10.2939
▁07	-10.2941
▁markert	-10.2952
▁divisjon	-10.2953
▁junior	-10.2955
ship	-10.2956
▁ulv	-10.2962
ugle	-10.2964
▁rosa	-10.2969
▁olaf	-10.2973
skaja	-10.2975
▁frode	-10.2977
▁66	-10.2981
register	-10.2994
▁56	-10.3002
▁modern	-10.3006
gift	-10.3015
▁marin	-10.3016
▁metro	-10.3026
▁tour	-10.303
▁eb	-10.3031
▁francis	-10.3034
▁høg	-10.3041
▁universitetet	-10.3042
▁scene	-10.3051
▁raj	-10.3052
▁driv	-10.3052
▁hest	-10.3055
▁lill	-10.3059
▁kjøtt	-10.3062
▁perioden	-10.3063
▁københavn	-10.3064
ekspedisjon	-10.3064
▁1984	-10.3064
▁regissert	-10.3065
▁sørvest	-10.3065
▁padding	-10.3067
▁work	-10.3071
▁soldat	-10.3072
▁islam	-10.3074
▁utmerke	-10.3075
hånd	-10.3081
▁arkitektur	-10.3092
hev	-10.3095
▁røyk	-10.3097
▁heart	-10.3104
▁59	-10.3106
▁jonas	-10.3109
▁young	-10.3121
▁jose	-10.314
▁korea	-10.3146
▁mold	-10.3148
▁planter	-10.316
▁reform	-10.3165
▁paris	-10.3171
formasjon	-10.3171
▁hve	-10.3179
▁finale	-10.3183
▁utøver	-10.3193
▁123	-10.3198
▁rap	-10.3199
▁castel	-10.3202
▁introdusert	-10.3207
▁1978	-10.3207
▁midgard	-10.3209
▁arb	-10.321
våk	-10.322
bevegelse	-10.3226
design	-10.3228
pensjon	-10.3229
▁hein	-10.3232
født	-10.3233
stig	-10.3247
▁kyrk	-10.3256
turnering	-10.3268
fysik	-10.3273
tilbud	-10.3277
▁filosof	-10.3277
▁liter	-10.3282
type	-10.3285
▁festning	-10.3288
▁great	-10.3288
▁slå	-10.329
▁euro	-10.3301
▁josef	-10.3307
versjon	-10.3307
somme	-10.3311
▁51	-10.3317
▁qing	-10.332
▁arch	-10.3324
▁87	-10.3325
aux	-10.3328
▁120	-10.3332
▁104	-10.3333
▁asia	-10.3333
▁144	-10.334
▁wol	-10.3343
▁opprinnelse	-10.3352
▁1981	-10.3352
▁1973	-10.3352
▁integr	-10.3353
▁innskriften	-10.3353
▁edi	-10.3355
▁frankrike	-10.3356
▁what	-10.3356
terminal	-10.3357
avhandling	-10.3358
▁demningen	-10.336
▁sikkerhets	-10.3364
▁blank	-10.3365
▁utnytte	-10.3371
▁china	-10.3372
skaff	-10.3373
drakt	-10.3379
▁rav	-10.3381
prosessor	-10.3383
dommer	-10.3385
kjemi	-10.3398
alitet	-10.34
▁kammer	-10.3401
▁måned	-10.3409
herre	-10.3409
brand	-10.3414
sort	-10.3418
▁mou	-10.3419
▁thy	-10.343
avgift	-10.3431
▁motto	-10.3431
▁200	-10.3432
masse	-10.3432
▁petr	-10.344
▁300	-10.3446
▁122	-10.3446
icus	-10.3453
▁disc	-10.3453
▁avslutte	-10.347
ætt	-10.3485
▁symptom	-10.3499
▁tilgjengelig	-10.3499
▁vulkan	-10.3499
▁1975	-10.3499
▁arthur	-10.35
▁sekund	-10.3501
▁forteller	-10.3502
▁håkon	-10.3505
▁melodi	-10.3506
▁norman	-10.3508
▁lansert	-10.3512
▁jacobsen	-10.3515
galleri	-10.3524
struktur	-10.3527
▁117	-10.3531
▁toll	-10.3544
▁kryp	-10.3548
▁76	-10.3551
▁bære	-10.3552
▁gruve	-10.3559
▁hyper	-10.3562
▁åpen	-10.3566
ми	-10.3576
▁aff	-10.3584
▁bakkroppen	-10.3586
▁rib	-10.3595
sjön	-10.3608
▁valgte	-10.3625
▁63	-10.3629
▁call	-10.3634
▁93	-10.3635
▁pac	-10.3646
▁arrangør	-10.3648
▁diplom	-10.3649
▁fiolin	-10.3649
▁kjærlighet	-10.365
▁afrika	-10.365
▁svar	-10.365
▁dårlig	-10.3651
▁bakterie	-10.3651
worth	-10.3651
▁ridder	-10.3652
▁møller	-10.3654
prest	-10.3656
apparat	-10.3656
▁inndelt	-10.3663
▁llc	-10.3664
▁klatre	-10.3669
▁pira	-10.3673
▁dvs	-10.3678
▁økonomi	-10.3678
trekning	-10.3688
preg	-10.3694
▁blind	-10.3695
gass	-10.3701
▁134	-10.3704
▁fotballklubb	-10.3705
▁aud	-10.3716
plikt	-10.3724
▁49	-10.3731
▁92	-10.3733
▁tell	-10.3733
▁elsk	-10.3736
▁nick	-10.3737
høgskole	-10.3738
▁homo	-10.376
abad	-10.3762
▁04	-10.3778
▁him	-10.3779
▁davis	-10.3781
▁sofi	-10.3784
▁99	-10.3794
høv	-10.3795
løytnant	-10.38
▁passasjer	-10.38
▁yizhi	-10.38
▁1960	-10.38
▁1976	-10.38
▁tegneserie	-10.3801
▁edvard	-10.3804
▁atom	-10.3805
strategi	-10.3805
▁pierre	-10.3805
▁franz	-10.3817
▁luther	-10.382
▁prakt	-10.3827
▁lauren	-10.3833
▁metal	-10.3835
▁begrens	-10.3837
▁munk	-10.3844
▁katedral	-10.3851
▁johnson	-10.3855
forkortelse	-10.3857
▁robin	-10.3868
▁viking	-10.3875
▁frp	-10.3882
kysten	-10.3884
institutt	-10.3892
brev	-10.3911
▁brian	-10.3911
▁kall	-10.3912
▁måne	-10.3922
▁rö	-10.3924
▁ej	-10.3926
ер	-10.3932
▁108	-10.3934
▁krf	-10.3936
samband	-10.3944
▁pyr	-10.3949
▁138	-10.395
▁offisielt	-10.3954
▁fullstendig	-10.3954
▁systematikk	-10.3954
▁1967	-10.3954
▁yrkes	-10.3954
▁nabokommunen	-10.3954
▁valuta	-10.3954
▁yngre	-10.3955
makt	-10.3959
kompani	-10.3959
▁kry	-10.3961
▁stadium	-10.3962
nagar	-10.3962
▁78	-10.3962
▁fungere	-10.3965
▁forvingen	-10.3966
▁scott	-10.3969
▁reaksjon	-10.3971
døgn	-10.3972
▁hval	-10.398
spesifik	-10.3981
aktivitet	-10.3996
transport	-10.3997
▁136	-10.4003
▁hva	-10.4007
▁slip	-10.4008
▁protein	-10.4021
gått	-10.4032
▁129	-10.4034
ikanske	-10.4039
▁hjemmebane	-10.4041
▁regel	-10.4041
▁132	-10.4043
opera	-10.4044
▁material	-10.4061
ли	-10.4063
▁nevro	-10.4064
halvøya	-10.4076
ruter	-10.4078
▁kö	-10.4079
zú	-10.4087
▁kvin	-10.4094
mennene	-10.4098
▁nevne	-10.4101
▁landsby	-10.4106
▁storbritannia	-10.411
▁dekkvingene	-10.411
▁naturreservat	-10.411
bataljon	-10.411
▁berømte	-10.411
▁1955	-10.411
▁redusere	-10.4111
▁stortings	-10.4112
▁nattfly	-10.4114
▁fiktiv	-10.4114
▁kallenavn	-10.4114
▁fått	-10.4116
▁norway	-10.4118
▁utvikler	-10.4119
valget	-10.4119
▁kirk	-10.4127
▁smør	-10.4128
strøk	-10.4129
utdannelse	-10.4136
▁forbunds	-10.4143
▁snakke	-10.4144
▁skjell	-10.4146
▁fyrste	-10.4147
flåte	-10.4149
▁grund	-10.415
fokus	-10.4155
ccio	-10.4157
miljø	-10.4158
▁niels	-10.4168
kjører	-10.4173
alisme	-10.4178
▁henning	-10.4179
▁swa	-10.4179
▁trolig	-10.4187
evitsj	-10.4197
▁tusen	-10.4207
▁bryn	-10.4215
▁svan	-10.4217
▁utkom	-10.4224
▁krog	-10.4229
▁vokst	-10.425
fell	-10.4263
▁sannsynlig	-10.4269
▁tilskuere	-10.4269
▁central	-10.427
▁archive	-10.427
▁xiàn	-10.4271
▁parallel	-10.4272
innspilling	-10.4276
▁hvordan	-10.4279
▁hente	-10.4281
▁sverd	-10.4282
▁font	-10.4294
▁lasse	-10.4296
flat	-10.4304
▁fuji	-10.4309
▁legend	-10.4313
bæk	-10.4316
▁orgel	-10.4316
▁regjer	-10.4317
xiang	-10.432
effekt	-10.4322
▁lunge	-10.4327
▁län	-10.4332
▁divers	-10.4335
▁bodde	-10.4341
▁sandvik	-10.4358
▁plast	-10.4361
▁hong	-10.4361
▁england	-10.4373
▁four	-10.4379
▁omhandle	-10.4381
buch	-10.4384
reise	-10.4398
▁tildele	-10.4403
▁than	-10.4405
▁ungdom	-10.4419
▁sving	-10.4422
▁were	-10.4423
studier	-10.4424
▁03	-10.4428
▁begynner	-10.443
▁profesjonell	-10.443
▁public	-10.443
▁sykkel	-10.443
▁1964	-10.443
▁petersburg	-10.443
▁vingene	-10.4441
▁jackson	-10.4441
▁statlig	-10.4448
▁gyld	-10.445
▁karin	-10.4453
tvedt	-10.4456
▁oppdrag	-10.4457
▁susan	-10.4458
bregne	-10.4471
▁06	-10.4473
▁116	-10.4475
▁panser	-10.4476
▁demokrati	-10.4481
▁utstilling	-10.4488
redaktør	-10.4488
▁kommunal	-10.4493
▁olga	-10.4501
▁alban	-10.4513
▁melke	-10.4513
▁handle	-10.4514
odden	-10.4529
▁gross	-10.4544
roman	-10.4569
▁fader	-10.4572
▁regissør	-10.4594
▁1974	-10.4594
▁linux	-10.4594
hospital	-10.4594
▁eventyr	-10.4596
mønster	-10.4597
▁fødsel	-10.4603
▁drept	-10.4603
▁tommy	-10.4604
▁eksport	-10.4604
älven	-10.4611
▁fremme	-10.4612
▁samuel	-10.4614
blomsterflue	-10.4617
terrier	-10.4618
▁ørn	-10.4624
▁german	-10.4628
▁400	-10.4635
▁tykk	-10.4644
▁ytre	-10.4644
teater	-10.465
▁opphav	-10.4652
▁mega	-10.4657
▁apple	-10.4665
▁lamb	-10.4667
▁vokalist	-10.467
▁121	-10.4678
▁drikke	-10.4678
støtte	-10.4687
problem	-10.4695
▁color	-10.4704
но	-10.4704
▁69	-10.4704
▁rov	-10.4723
view	-10.4734
rommet	-10.4738
bukk	-10.4741
fløyte	-10.4746
minne	-10.475
ruten	-10.4755
υ	-10.476
▁sjeldne	-10.4761
konstruksjon	-10.4761
▁australia	-10.4761
▁ukraina	-10.4761
▁trygve	-10.4761
▁slanke	-10.4761
opplæring	-10.4762
▁senior	-10.4762
▁heinrich	-10.4762
▁golf	-10.4763
▁lengst	-10.4765
laug	-10.4766
▁2018	-10.4766
▁import	-10.4767
▁læ	-10.477
▁nerve	-10.4773
katalog	-10.4786
▁ansatte	-10.4791
▁kreert	-10.4792
▁kub	-10.4794
▁skjel	-10.4804
▁smak	-10.4808
▁kapp	-10.4814
▁jones	-10.4817
historisk	-10.483
visning	-10.4844
▁identifi	-10.4846
melding	-10.4856
produkt	-10.4882
▁fritt	-10.4883
▁singel	-10.4886
▁petro	-10.4892
▁crist	-10.4893
▁jiu	-10.4895
▁benz	-10.4916
ма	-10.4921
▁łód	-10.493
▁orchestra	-10.493
ópolis	-10.493
▁1977	-10.493
ensemble	-10.493
▁moskva	-10.4931
▁adolf	-10.4931
betennelse	-10.4931
▁ragnar	-10.4931
▁jernbanestasjon	-10.4934
▁lengre	-10.4938
▁1970	-10.494
▁asbjørn	-10.4952
▁thom	-10.4954
kommen	-10.4954
ле	-10.4959
▁dersom	-10.4961
▁88	-10.4962
▁snu	-10.4969
▁night	-10.4975
▁sound	-10.498
▁96	-10.4989
▁kaffe	-10.5002
veps	-10.5005
finalen	-10.5009
▁gha	-10.503
▁elias	-10.5039
▁spring	-10.5044
festival	-10.5045
yama	-10.5049
bryter	-10.5059
▁81	-10.5066
▁aksel	-10.5077
▁provinshovedsta	-10.5092
▁aero	-10.5096
▁pradesh	-10.5103
frekvens	-10.5103
▁kenneth	-10.5103
▁1969	-10.5103
▁1966	-10.5103
kommisjon	-10.5103
▁serbisk	-10.5103
▁know	-10.5104
▁krav	-10.5105
▁global	-10.5105
▁two	-10.5105
▁brasil	-10.5106
▁reidar	-10.5106
klin	-10.5108
▁varianter	-10.5109
undersøkelse	-10.5109
redskap	-10.5114
ulær	-10.5117
▁muskel	-10.5118
▁johnny	-10.5132
blanding	-10.5135
▁ekstra	-10.5145
▁rulle	-10.5145
▁good	-10.5151
▁koloni	-10.5155
▁luci	-10.5159
▁nordisk	-10.5159
▁klein	-10.5162
▁høi	-10.5165
ре	-10.5176
▁ibn	-10.5193
▁drei	-10.5211
▁utnevnt	-10.5234
▁fløy	-10.5239
agua	-10.5249
årig	-10.5262
▁kvinnelig	-10.5269
▁arab	-10.5278
▁advokat	-10.5278
▁forøvrig	-10.5278
▁ishockey	-10.5278
▁således	-10.5278
▁science	-10.5278
▁spesiell	-10.5278
▁micro	-10.528
▁koreansk	-10.528
▁premier	-10.528
▁skjedde	-10.528
▁tibet	-10.5281
▁mytologi	-10.5282
▁francesc	-10.5287
▁miao	-10.5287
▁89	-10.5288
▁formula	-10.5289
▁bidrag	-10.5289
▁utenom	-10.5305
▁eugen	-10.5311
▁kapell	-10.5312
kall	-10.5313
▁trenings	-10.5334
▁revers	-10.5337
aften	-10.5353
weg	-10.5355
▁139	-10.5356
owski	-10.536
president	-10.5365
teknologi	-10.5366
frukt	-10.5367
matikk	-10.5375
setting	-10.538
avhengig	-10.54
ittisk	-10.5441
sikkerhet	-10.5446
▁124	-10.5448
▁individ	-10.5457
▁washington	-10.5457
▁millimeter	-10.5457
▁komponert	-10.5457
▁alkohol	-10.5457
▁1965	-10.5457
▁katolsk	-10.5457
▁zhang	-10.5457
▁østerrike	-10.5457
▁kontakt	-10.5458
▁henholdsvis	-10.5458
▁tidsskriftet	-10.5459
hastighet	-10.5459
town	-10.5459
▁øke	-10.5462
▁bundes	-10.5462
järvi	-10.5463
▁styreleder	-10.5463
laid	-10.5463
▁håndball	-10.5464
administrasjon	-10.5464
▁bernard	-10.5465
▁uttalt	-10.5467
▁118	-10.548
utvalget	-10.5481
▁opprør	-10.5483
▁fritz	-10.5493
▁aksje	-10.5493
▁philip	-10.5494
vík	-10.5499
▁vad	-10.5503
▁hilde	-10.5516
▁smerte	-10.5519
▁61	-10.5521
▁victor	-10.5537
▁interesse	-10.5541
drevet	-10.5546
utdanning	-10.5551
▁trø	-10.5555
▁revolusjon	-10.5566
▁lü	-10.5585
▁98	-10.559
fast	-10.5616
mengde	-10.562
pleie	-10.5627
toft	-10.5628
▁republik	-10.5633
▁tradisjonel	-10.5638
▁etterfulgt	-10.5638
▁ytterligere	-10.5638
▁foregår	-10.5639
▁1963	-10.5639
▁registrert	-10.5639
rådgiver	-10.5639
assistent	-10.5639
▁fysisk	-10.5639
▁regulere	-10.5639
komité	-10.564
▁firmaet	-10.5642
▁skotsk	-10.5643
palasset	-10.5644
▁stiftelsen	-10.5644
▁serra	-10.565
▁frederic	-10.5652
døgnfluer	-10.5654
▁isteden	-10.5657
▁arkeolog	-10.5658
▁down	-10.5658
▁vandre	-10.5663
▁when	-10.5672
▁astro	-10.5674
quist	-10.5692
svarte	-10.5696
ambi	-10.5704
hest	-10.5706
▁91	-10.5707
▁nettside	-10.5709
näs	-10.5727
blikk	-10.5727
▁søke	-10.574
▁sovjetisk	-10.5745
front	-10.5746
bølge	-10.5751
▁krim	-10.576
▁katte	-10.5768
forestilling	-10.5775
▁utenriks	-10.5786
▁kongelig	-10.5815
ская	-10.5824
▁aleksandr	-10.5824
▁religiøs	-10.5824
▁rudolf	-10.5824
▁suksess	-10.5824
▁kilometer	-10.5824
▁abraham	-10.5824
▁1961	-10.5824
▁1958	-10.5824
▁kristiansand	-10.5824
▁alexandr	-10.5824
▁hvilke	-10.5824
▁solgte	-10.5825
▁handling	-10.583
▁clark	-10.583
atorer	-10.5833
rapport	-10.5833
▁nepal	-10.5834
bebyggelse	-10.5835
følelse	-10.5835
▁bydistrikt	-10.5835
mulighet	-10.5837
▁varianten	-10.5841
▁71	-10.5853
▁tilpasse	-10.5854
▁zhu	-10.5857
▁hundre	-10.587
▁little	-10.5885
jì	-10.5892
▁overflate	-10.5896
▁hekk	-10.5903
hausen	-10.5906
stiftelse	-10.5914
▁utløp	-10.5925
▁79	-10.5931
▁miste	-10.5935
departement	-10.594
▁first	-10.5964
▁philipp	-10.5977
▁aleksander	-10.6012
▁portugisisk	-10.6012
▁bryggeri	-10.6012
▁selvstendig	-10.6012
▁utbredt	-10.6012
▁utelukke	-10.6012
▁jacque	-10.6012
▁people	-10.6012
▁1954	-10.6012
▁geografisk	-10.6013
▁which	-10.6013
▁ekstrem	-10.6013
▁thailand	-10.6013
▁betrakte	-10.6013
fordeling	-10.6014
▁telemark	-10.602
gjær	-10.6021
faktor	-10.6022
▁ukjent	-10.6027
▁bratt	-10.6028
▁115	-10.6036
kostnad	-10.6037
▁ledende	-10.6037
▁kho	-10.6039
stamme	-10.6056
▁foster	-10.6057
time	-10.6059
derav	-10.6061
▁wolf	-10.6078
▁nådd	-10.6079
tavle	-10.6099
strømmen	-10.6104
▁vidar	-10.6109
▁colli	-10.6114
ovic	-10.6153
▁automat	-10.6164
▁sentralbank	-10.6178
▁skarp	-10.6186
registre	-10.6188
▁norwegian	-10.6205
▁corporation	-10.6205
▁tsjekkisk	-10.6205
▁göteborg	-10.6205
▁satellit	-10.6205
▁fremdeles	-10.6205
kapasitet	-10.6205
▁hjørne	-10.6205
▁fengsel	-10.6205
▁bjarne	-10.6205
▁elektronisk	-10.6207
▁generalsekretær	-10.6207
▁gråbrun	-10.6208
▁beholdt	-10.6209
▁skjønn	-10.6209
▁nyhets	-10.6209
▁ekteskap	-10.621
▁leonard	-10.6211
▁fuktig	-10.6214
kritiker	-10.6215
▁komposisjon	-10.6216
▁høyesterett	-10.6219
ngrid	-10.6221
▁viktor	-10.6222
▁skytter	-10.6226
▁arild	-10.6226
▁flø	-10.6243
▁beregne	-10.6267
løype	-10.6276
мо	-10.6286
▁sovjet	-10.6287
distanse	-10.6296
▁fremført	-10.6301
▁sammenlign	-10.631
▁skaper	-10.631
▁liberal	-10.6327
ansvarlig	-10.6328
sentrum	-10.6329
väg	-10.6339
▁temple	-10.6353
▁131	-10.6364
▁stykk	-10.6377
forbud	-10.6382
▁trøndelag	-10.6401
▁etterhvert	-10.6401
▁management	-10.6401
▁1951	-10.6401
▁kommentar	-10.6401
▁funnstede	-10.6401
▁stephen	-10.6401
▁mekanisk	-10.6401
▁flerårig	-10.6401
forsikring	-10.6401
▁axel	-10.6402
▁vanskelig	-10.6402
▁kriminal	-10.6402
▁kanskje	-10.6402
▁batteri	-10.6403
▁lewis	-10.6403
▁bakgrunn	-10.6407
monument	-10.6407
▁nkp	-10.6408
▁francisco	-10.6409
sykdommer	-10.641
▁brønn	-10.6413
▁øystein	-10.6418
▁omfattende	-10.6419
▁allmenn	-10.6422
wall	-10.6423
▁moore	-10.6425
knapp	-10.6427
▁hersker	-10.643
stråle	-10.6431
pumpe	-10.6434
▁måte	-10.6444
stemning	-10.6446
▁skrå	-10.6455
bredde	-10.6468
skade	-10.6476
▁pip	-10.6527
lilje	-10.6536
▁journal	-10.654
▁gitarist	-10.6563
stock	-10.6572
▁slektning	-10.6593
▁etterfølger	-10.6601
forstyrrelse	-10.6601
▁oppdatert	-10.6601
▁ludvig	-10.6601
▁positiv	-10.6601
▁doktorgrad	-10.6602
▁væske	-10.6602
▁noctu	-10.6602
▁ytterkant	-10.6603
holdsvis	-10.6604
▁medisinsk	-10.6606
▁krystall	-10.6607
straße	-10.6607
▁jesuitt	-10.6608
▁panamer	-10.6609
▁arvid	-10.6612
▁1930	-10.6612
▁effektiv	-10.6613
duksjon	-10.6616
krem	-10.6617
klub	-10.6618
▁pistol	-10.6626
▁donau	-10.6628
▁hugh	-10.6629
▁veldig	-10.6632
▁bedrifts	-10.6633
pone	-10.6639
ий	-10.665
regning	-10.6687
størrelse	-10.6705
sending	-10.671
fylke	-10.6744
▁astronom	-10.676
binding	-10.6763
okså	-10.679
▁aftenposten	-10.6805
▁association	-10.6805
▁brenselstypen	-10.6805
▁vingespenn	-10.6805
▁kongedømme	-10.6805
▁1957	-10.6805
▁1945	-10.6805
▁zhong	-10.6805
▁donald	-10.6806
▁beslekte	-10.6806
▁bjerke	-10.6806
▁nærmere	-10.6806
▁kristoffer	-10.6806
▁marianne	-10.6807
▁godkjent	-10.6808
▁generasjon	-10.6809
▁armensk	-10.6809
▁våt	-10.681
▁barnehage	-10.6811
▁spania	-10.6812
▁frigjør	-10.6818
▁1940	-10.682
▁snart	-10.6821
situasjon	-10.6823
▁henriksen	-10.6823
▁forvalte	-10.6825
▁oppnå	-10.6825
skjerm	-10.6829
svermer	-10.683
▁dokumenter	-10.6831
▁diesel	-10.6833
▁forsterke	-10.6838
▁earl	-10.6842
по	-10.6845
▁other	-10.6846
▁hytte	-10.6852
▁fremstille	-10.6884
▁quart	-10.6915
arkitekt	-10.6954
orkester	-10.6955
sponsor	-10.6995
▁tromsø	-10.7001
forvaltning	-10.7003
seksjon	-10.7004
▁support	-10.7013
▁ludwig	-10.7013
▁microsoft	-10.7013
▁douglas	-10.7013
▁sistnevnte	-10.7013
▁vilhelm	-10.7013
▁natrium	-10.7013
▁1971	-10.7013
▁1941	-10.7013
▁lørdag	-10.7013
▁oppstår	-10.7013
▁syndrom	-10.7013
veksling	-10.7014
▁inndelingen	-10.7014
▁theodor	-10.7014
pedagog	-10.7014
▁fjeld	-10.7014
▁diagnos	-10.7014
▁definert	-10.7015
▁pepper	-10.7015
▁anthon	-10.7016
▁opptrer	-10.7016
▁monark	-10.7021
▁novell	-10.7023
▁meyer	-10.7028
tekst	-10.7048
guó	-10.7051
▁ansvar	-10.7056
sæter	-10.7058
▁maritim	-10.7072
▁okse	-10.7091
ikeren	-10.7093
filosofi	-10.7122
▁middelsstor	-10.7153
bourn	-10.7173
radio	-10.7201
▁twi	-10.7221
▁jomfru	-10.7226
▁keyboard	-10.7226
▁publikum	-10.7226
▁mercedes	-10.7226
▁benjamin	-10.7226
▁asteroide	-10.7226
▁medvirkende	-10.7226
▁inspirert	-10.7226
▁1959	-10.7226
▁1928	-10.7226
førsel	-10.7226
▁kombinert	-10.7226
▁bodø	-10.7227
▁oppdaget	-10.7227
▁sergej	-10.7228
▁fjellkjede	-10.723
skyting	-10.7231
▁finnmark	-10.7232
▁salme	-10.7234
▁midtbane	-10.7243
▁eirik	-10.7247
▁johannessen	-10.7252
▁ungdomsskole	-10.7264
▁organisert	-10.7274
forsamlingen	-10.7279
▁automatisk	-10.728
relatert	-10.7289
stemte	-10.7302
grønland	-10.7305
▁oberst	-10.7307
▁place	-10.7317
ector	-10.7318
lândia	-10.7325
politi	-10.733
▁innført	-10.7338
▁victoria	-10.7347
▁karbon	-10.7356
høyskole	-10.7372
▁ferge	-10.7373
▁hovedrollen	-10.7376
amerikansk	-10.739
konsert	-10.7399
skjegg	-10.7408
chuan	-10.7413
▁period	-10.7432
▁slave	-10.7432
▁münchen	-10.7443
▁research	-10.7443
▁vennskapsbyer	-10.7443
▁kjennetegne	-10.7443
▁airlines	-10.7443
▁evangeli	-10.7443
▁division	-10.7443
▁patrick	-10.7443
▁1952	-10.7443
▁sykdommen	-10.7444
▁ansikt	-10.7444
▁stortinget	-10.7444
▁trompet	-10.7444
▁skildre	-10.7444
▁bøkene	-10.7445
rettigheter	-10.7445
ны	-10.7446
▁arbeiderpartiet	-10.7447
▁nasjonalsang	-10.7448
▁plateselskap	-10.7452
▁xiao	-10.7452
body	-10.7453
▁detalj	-10.7455
▁embeds	-10.7457
▁hormon	-10.7457
▁ørken	-10.7458
▁biografi	-10.7459
▁1950	-10.7461
▁bestemt	-10.7466
faglig	-10.7472
▁troms	-10.7474
▁flyselskap	-10.7476
▁111	-10.7479
▁grunnlegge	-10.7484
ground	-10.7484
forsyning	-10.749
▁gjeld	-10.7508
ault	-10.7516
ović	-10.7537
▁symbolisere	-10.7544
▁fiskeart	-10.759
dannelse	-10.76
divisjon	-10.7619
vitenskapelig	-10.7626
kjerne	-10.7649
republikk	-10.7659
▁doktor	-10.7665
direktorat	-10.7666
▁elizabeth	-10.7666
▁frankfurt	-10.7666
▁vedlikehold	-10.7666
▁kollektiv	-10.7666
vassdraget	-10.7666
▁litauisk	-10.7666
▁tilføyd	-10.7666
▁hverandre	-10.7666
▁taylor	-10.7666
leksikon	-10.7666
▁arrangert	-10.7666
▁1905	-10.7666
▁1936	-10.7666
▁1948	-10.7666
▁eivind	-10.7666
▁overvintr	-10.7666
leverandør	-10.7666
▁fenomen	-10.7666
▁frivillig	-10.7666
▁über	-10.7667
▁reklame	-10.7667
▁hjelm	-10.7667
▁christensen	-10.7667
▁tørke	-10.7669
köping	-10.767
▁gregor	-10.767
vytsj	-10.7677
▁forbruker	-10.7678
▁nordsamisk	-10.7679
▁kvalifiser	-10.7683
kreps	-10.7684
▁eksistere	-10.7689
tromme	-10.769
▁trygg	-10.7698
▁manuel	-10.7698
▁sosialistisk	-10.77
sentralbanksjef	-10.7702
▁ballett	-10.7716
spreng	-10.7719
▁feire	-10.7726
▁tynn	-10.7726
hytta	-10.7741
fiber	-10.7783
▁frels	-10.7784
hvelv	-10.7787
pråklig	-10.7817
stigning	-10.783
▁nettsted	-10.7861
▁infanteri	-10.7893
kompetanse	-10.7893
▁innbyggerne	-10.7893
▁kennedy	-10.7893
▁pattedyr	-10.7893
▁1946	-10.7893
▁1956	-10.7893
sylindre	-10.7893
▁risiko	-10.7893
gymnas	-10.7893
▁capital	-10.7893
▁redusert	-10.7894
▁arendal	-10.7895
▁grün	-10.7896
▁kristelig	-10.7898
▁kongsberg	-10.7899
ressurs	-10.7901
▁bevart	-10.7904
mouth	-10.7923
▁direct	-10.7924
▁icao	-10.7928
ière	-10.793
kirurg	-10.7931
▁circ	-10.7937
▁hvile	-10.7953
høyden	-10.8023
▁oversette	-10.8027
▁slange	-10.805
▁intens	-10.8065
▁styremedlem	-10.8082
kjøp	-10.8094
▁teolog	-10.8117
▁represent	-10.8125
psykiatri	-10.8125
▁oksygen	-10.8125
▁antagelig	-10.8125
▁petroleum	-10.8125
▁brødrene	-10.8125
protokoll	-10.8125
▁chicago	-10.8125
▁tvilling	-10.8125
▁ralph	-10.8126
▁cappelen	-10.8126
▁opplysning	-10.8126
▁kapital	-10.8126
▁wagner	-10.8126
▁studioalbum	-10.8126
▁detroit	-10.8126
▁valentin	-10.8126
sekvens	-10.8126
▁cirka	-10.8126
▁bløt	-10.8127
▁bernhard	-10.8127
▁søvn	-10.8127
▁igjennom	-10.8127
▁programvare	-10.8128
▁wolfgang	-10.8128
▁belgisk	-10.8128
▁kråk	-10.8129
▁spirit	-10.8131
▁trenger	-10.8133
▁arrest	-10.8133
▁office	-10.8136
▁romersk	-10.814
▁karakteristisk	-10.8153
▁glans	-10.8154
▁skei	-10.8155
▁bedriften	-10.8159
styring	-10.8166
lengde	-10.8171
trukket	-10.8177
нов	-10.8247
▁brent	-10.8249
ifikasjon	-10.8265
dekket	-10.8277
▁barndom	-10.8285
skilpadde	-10.8363
▁ferdinand	-10.8363
▁giuseppe	-10.8363
▁kapittel	-10.8363
▁utdødd	-10.8363
▁ferskvann	-10.8363
▁symphon	-10.8363
▁halvorsen	-10.8363
▁skottland	-10.8363
▁definerer	-10.8364
▁1949	-10.8364
▁1937	-10.8364
▁søndag	-10.8364
▁søndre	-10.8364
▁uigur	-10.8364
▁ungarn	-10.8364
▁muslim	-10.8364
▁essay	-10.8364
▁brigade	-10.8364
▁alvorlig	-10.8365
▁utenlandsk	-10.8365
jīng	-10.8365
▁seinere	-10.8365
▁claudi	-10.8366
qvist	-10.8366
▁kobber	-10.8368
▁space	-10.837
▁unntak	-10.8373
▁short	-10.8381
skrevet	-10.8385
glass	-10.8406
ophil	-10.8417
▁fasci	-10.8419
▁datamaskin	-10.8424
▁tolk	-10.8446
efinner	-10.8456
sypress	-10.8462
familie	-10.8475
fase	-10.8504
syklus	-10.8528
fellesskap	-10.8568
▁inneha	-10.8583
▁afghanistan	-10.8607
▁françois	-10.8607
▁færøyene	-10.8607
▁langrennsløper	-10.8607
▁guvernør	-10.8607
▁lillehammer	-10.8607
▁mountain	-10.8607
▁pakistan	-10.8607
▁zhōng	-10.8607
▁buddhist	-10.8607
▁jonathan	-10.8607
▁xinjiang	-10.8607
▁høyhastighets	-10.8607
▁krydder	-10.8608
▁1934	-10.8608
▁generelt	-10.8608
komponent	-10.8608
▁special	-10.8608
▁eventuel	-10.8608
▁vunnet	-10.8608
▁innenriks	-10.8608
▁prince	-10.8608
▁width	-10.8608
▁bitumen	-10.8608
▁margaret	-10.8609
▁bokstavelig	-10.8611
▁jørn	-10.8612
▁sjakk	-10.8612
nspirasjon	-10.8614
▁foretrekke	-10.8615
▁columb	-10.8616
▁smelte	-10.8618
bahn	-10.8624
▁volks	-10.8627
qiao	-10.8649
eksamen	-10.865
måke	-10.8671
gudinnen	-10.8703
▁glatt	-10.8743
▁klippe	-10.8773
kirche	-10.8782
korset	-10.8792
balanse	-10.8853
▁bulgaria	-10.8857
▁inskripsjon	-10.8857
▁favoritt	-10.8857
▁helikopter	-10.8857
▁windows	-10.8857
▁tyrkia	-10.8857
▁hongkong	-10.8857
patrulje	-10.8857
▁result	-10.8858
▁1962	-10.8858
▁ødelegge	-10.8858
▁control	-10.8858
▁rumensk	-10.8858
▁regelmessig	-10.8858
▁systematisk	-10.8859
▁second	-10.8859
▁afrikansk	-10.8859
▁spredt	-10.886
▁hurra	-10.886
▁sannhet	-10.886
▁arnold	-10.8861
▁redaksjon	-10.8862
fosfat	-10.8864
▁terreng	-10.8864
▁stryk	-10.8874
syssel	-10.8879
plikasjon	-10.8895
▁idrettsforening	-10.8898
zhuang	-10.8904
utenriksminister	-10.8909
▁barneskole	-10.8934
▁elektr	-10.894
prinsippet	-10.8963
▁datterselskap	-10.9021
▁forklare	-10.9022
ві	-10.9042
kjøl	-10.9078
papir	-10.9105
ский	-10.9114
▁hovedkvarter	-10.9114
▁nødvendig	-10.9114
▁valgdeltakelse	-10.9114
▁aluminium	-10.9114
▁prinsesse	-10.9114
▁ragnhild	-10.9114
▁umiddelbar	-10.9114
▁hybrid	-10.9114
▁piauí	-10.9114
▁testament	-10.9114
▁1939	-10.9114
▁1927	-10.9114
▁1942	-10.9114
▁erobret	-10.9114
▁kombinere	-10.9115
▁storkommunen	-10.9115
script	-10.9115
▁visepresident	-10.9116
beskyttelse	-10.9118
▁gerhard	-10.9118
▁komedie	-10.9118
▁airport	-10.9119
▁resultatet	-10.9121
▁hemmelig	-10.9121
▁werner	-10.9123
▁iversen	-10.9125
▁krevd	-10.9126
verktøy	-10.9131
▁rapporter	-10.9137
▁glenn	-10.914
▁drenere	-10.917
klipp	-10.922
tilhenger	-10.9235
▁sokn	-10.925
▁blanc	-10.9265
orientert	-10.9271
kjøring	-10.9317
litteratur	-10.9374
▁barcelona	-10.9377
▁færøysk	-10.9377
▁network	-10.9377
▁project	-10.9377
▁electro	-10.9377
▁frilufts	-10.9377
▁vesentlig	-10.9377
▁waldemar	-10.9377
▁angriper	-10.9377
▁frazioni	-10.9377
▁mexico	-10.9377
▁bystatus	-10.9377
▁buddha	-10.9377
▁etterkommer	-10.9377
▁1904	-10.9377
▁vietnamesisk	-10.9377
▁oxford	-10.9377
▁gælisk	-10.9377
▁1935	-10.9377
▁1899	-10.9377
▁björn	-10.9377
▁gmbh	-10.9377
▁1883	-10.9377
▁söder	-10.9378
▁zhao	-10.9378
▁haakon	-10.9378
▁differen	-10.9378
▁where	-10.9378
▁steffen	-10.9379
▁hertug	-10.938
▁again	-10.9382
▁avviste	-10.9382
▁fungert	-10.9383
açu	-10.9385
▁anatol	-10.9388
▁kjæreste	-10.9389
▁variere	-10.9401
▁cooper	-10.9407
dykker	-10.9422
schaft	-10.9424
pølse	-10.9475
▁varemerke	-10.9487
indeks	-10.9553
silje	-10.9624
▁pseudo	-10.9647
▁generalmajor	-10.9647
▁gjaldt	-10.9647
▁ortodoks	-10.9647
▁skrivemåte	-10.9647
▁society	-10.9647
▁benedict	-10.9647
▁tønsberg	-10.9647
▁picture	-10.9647
konsulent	-10.9647
▁through	-10.9647
▁skihopper	-10.9647
▁psycho	-10.9647
▁1929	-10.9647
▁könig	-10.9647
▁1953	-10.9647
▁ålesund	-10.9647
infeksjon	-10.9648
▁juridisk	-10.9648
▁1844	-10.9648
▁sibir	-10.965
▁bmw	-10.965
▁taiwan	-10.965
▁foregikk	-10.9651
▁klinisk	-10.9653
jernbane	-10.9655
dolph	-10.9655
▁nederst	-10.9664
musiker	-10.9669
ocyt	-10.967
▁lidelse	-10.9671
betaling	-10.9712
deutsch	-10.972
brakte	-10.9726
nevnte	-10.9765
▁barokk	-10.9779
▁forekomme	-10.9828
modifiser	-10.9872
▁nevnt	-10.9884
▁vietnam	-10.9925
▁involver	-10.9925
▁philadelphia	-10.9925
▁puppeperioden	-10.9925
▁trommeslager	-10.9925
▁zìzhìxiàn	-10.9925
konservativ	-10.9925
publikasjon	-10.9925
▁sykepleie	-10.9925
▁vertikal	-10.9925
▁finskspråklig	-10.9925
▁schwarz	-10.9925
▁gundersen	-10.9925
▁raymond	-10.9925
▁english	-10.9925
▁1938	-10.9925
▁komplett	-10.9925
▁1926	-10.9925
▁montreal	-10.9925
▁1896	-10.9925
▁blood	-10.9925
förbund	-10.9925
▁toronto	-10.9925
▁köln	-10.9926
▁sandefjord	-10.9926
▁valutakode	-10.9926
▁forbedre	-10.9926
▁hovedpersonen	-10.9926
▁registrering	-10.9926
▁kalsium	-10.9926
▁fantasi	-10.9926
ου	-10.9926
▁ronald	-10.9926
▁luigi	-10.9927
▁purpur	-10.9927
▁andorra	-10.993
▁sørensen	-10.9931
vokst	-10.9951
▁skuespill	-10.9952
føderasjon	-10.9966
▁fjernsyns	-10.9978
▁fremstilt	-10.9985
▁tilfelle	-11.0005
lokale	-11.0009
▁plantefamilie	-11.0064
ć	-11.0096
▁prestegjeld	-11.0211
▁innbefatte	-11.0211
▁html	-11.0211
▁vulgar	-11.0211
grunnsstasjon	-11.0211
▁ovenfor	-11.0211
▁antarktis	-11.0211
▁league	-11.0211
territorie	-11.0211
▁charlotte	-11.0211
▁1895	-11.0211
▁nelson	-11.0212
▁jelena	-11.0212
▁stephan	-11.0212
rgesmesterskapet	-11.0213
▁about	-11.0213
▁bærum	-11.0213
konvensjon	-11.0214
▁medvirket	-11.0214
▁innebære	-11.0214
▁litterær	-11.0215
▁uefa	-11.0216
▁mengder	-11.0216
tilsynet	-11.0225
▁natali	-11.0226
knopp	-11.0267
scenen	-11.0279
kvinne	-11.0315
▁sosio	-11.0334
sentral	-11.0343
▁mangle	-11.0348
ansvaret	-11.0395
distribusjon	-11.0505
▁eksperiment	-11.0505
▁jerusalem	-11.0505
▁lawrence	-11.0505
▁østerriksk	-11.0505
▁skøyteløper	-11.0505
budsjett	-11.0505
▁anmelder	-11.0505
▁history	-11.0505
▁1908	-11.0505
▁amundsen	-11.0505
▁1933	-11.0505
▁1944	-11.0505
▁øivin	-11.0505
▁veksel	-11.0505
▁1879	-11.0505
▁1882	-11.0505
▁kroatisk	-11.0505
▁lorenz	-11.0507
▁avgjørelse	-11.0507
▁nyheter	-11.0507
▁castle	-11.0509
▁ufc	-11.051
▁generell	-11.0511
gericht	-11.0512
▁cliff	-11.0512
▁presentere	-11.0528
utøver	-11.0534
▁pryd	-11.0535
▁streike	-11.0541
asiatisk	-11.0555
fylte	-11.062
overflaten	-11.0698
▁døgnflue	-11.0778
fasade	-11.0787
▁basketball	-11.0808
▁california	-11.0808
▁konflikt	-11.0808
▁kontinental	-11.0808
▁reservoar	-11.0808
▁sarpsborg	-11.0808
▁sebastian	-11.0808
▁joachim	-11.0808
▁maksimal	-11.0808
▁leopold	-11.0808
▁gjennomsnittlig	-11.0808
▁colombia	-11.0808
▁1907	-11.0808
▁alminnelig	-11.0808
▁1947	-11.0808
inspektør	-11.0808
▁murray	-11.0808
▁texas	-11.0808
▁fellow	-11.0808
membran	-11.0808
▁1875	-11.0808
teatret	-11.081
▁communi	-11.0811
▁senator	-11.0815
▁koreograf	-11.082
signal	-11.0832
▁birgit	-11.0838
blokk	-11.085
sæther	-11.0883
▁moderat	-11.0897
tjente	-11.0907
variasjon	-11.0988
▁ambulanse	-11.112
entreprenør	-11.112
▁entertainment	-11.112
▁innflytelse	-11.112
▁kambodsja	-11.112
▁kringkasting	-11.112
▁müller	-11.112
▁nintendo	-11.112
▁tsjekkoslovakia	-11.112
▁undergrunnsbane	-11.112
rekkefølge	-11.112
▁konkurrere	-11.112
▁virginia	-11.112
▁hjalmar	-11.112
▁akershus	-11.112
▁kvadrat	-11.112
▁hamilton	-11.112
▁disponere	-11.112
tekniker	-11.112
disiplin	-11.112
▁matematikk	-11.112
▁1906	-11.112
▁dharma	-11.1121
▁jersey	-11.1121
▁1932	-11.1121
▁baptist	-11.1121
▁бо	-11.1121
bråten	-11.1121
▁kommersiell	-11.1121
þ	-11.4666
ș	-13.0559
