<unk>	0
<s>	0
</s>	0
.	-3.03886
s	-3.25269
e	-3.61036
▁	-3.62784
t	-3.95459
en	-4.14444
er	-4.14472
▁og	-4.34199
▁i	-4.47526
r	-4.58019
▁er	-4.67578
n	-4.74145
a	-4.77464
et	-4.98367
i	-5.20413
▁av	-5.21773
d	-5.27508
o	-5.28529
k	-5.38572
▁for	-5.40347
▁en	-5.53025
y	-5.54104
▁var	-5.64369
▁på	-5.67969
▁til	-5.69365
▁som	-5.71217
▁med	-5.71541
m	-5.76483
g	-5.76803
▁de	-5.77018
ne	-5.77119
te	-5.80879
ene	-5.82461
l	-5.96956
▁har	-5.9806
h	-6.01966
f	-6.03906
▁den	-6.07509
p	-6.08692
▁fra	-6.09125
u	-6.1496
▁s	-6.18278
de	-6.19019
in	-6.19969
es	-6.23895
▁a	-6.25151
us	-6.25358
b	-6.25623
v	-6.273
c	-6.27635
ing	-6.28181
▁ble	-6.33149
al	-6.35029
le	-6.39416
an	-6.39514
▁et	-6.40066
▁det	-6.41934
re	-6.43275
▁be	-6.45247
ar	-6.46201
▁p	-6.48078
na	-6.51272
▁han	-6.53875
on	-6.54337
z	-6.54794
ia	-6.59627
▁ut	-6.60915
▁the	-6.61673
▁ved	-6.63549
is	-6.63646
▁eller	-6.65674
▁også	-6.67607
w	-6.68685
x	-6.70183
ch	-6.70959
▁to	-6.70982
▁m	-6.71872
▁d	-6.73103
▁kan	-6.73323
um	-6.74512
j	-6.7476
▁under	-6.76011
3	-6.76071
▁å	-6.77385
▁k	-6.77775
▁c	-6.79263
ter	-6.81051
2	-6.81902
ra	-6.83993
6	-6.85054
el	-6.85205
sk	-6.85309
▁b	-6.85332
▁se	-6.85503
ma	-6.86749
4	-6.87058
ke	-6.87117
▁f	-6.87226
ri	-6.87258
or	-6.87679
▁over	-6.88077
ta	-6.88238
9	-6.90598
5	-6.91734
▁18	-6.91798
▁g	-6.92415
▁al	-6.92521
ck	-6.93378
la	-6.93597
8	-6.93835
▁om	-6.95523
ur	-6.95562
7	-6.95936
li	-6.96116
ens	-6.9953
land	-7.00132
▁opp	-7.00152
▁la	-7.00525
ng	-7.00718
▁in	-7.02537
▁h	-7.03189
ka	-7.06543
der	-7.06884
di	-7.0752
▁l	-7.07741
▁inn	-7.07789
é	-7.07835
▁u	-7.08538
▁etter	-7.09291
▁andre	-7.09824
il	-7.10194
1	-7.10955
da	-7.11392
nes	-7.11857
▁da	-7.12022
ga	-7.13001
ver	-7.13236
▁an	-7.13967
id	-7.14895
isk	-7.15415
ende	-7.15479
ge	-7.16375
as	-7.17734
ja	-7.18458
▁ligger	-7.1958
ba	-7.19824
▁n	-7.20548
be	-7.22103
▁ha	-7.22505
nde	-7.227
ig	-7.24599
ve	-7.25035
▁and	-7.25097
▁di	-7.25138
▁of	-7.26271
ger	-7.28268
den	-7.28389
▁v	-7.28432
stad	-7.29433
▁no	-7.29789
▁na	-7.30245
▁re	-7.3122
▁co	-7.31535
lig	-7.31665
ro	-7.32307
at	-7.32383
▁at	-7.32542
ler	-7.32957
ed	-7.33654
kk	-7.34734
▁tre	-7.34936
ul	-7.35175
ko	-7.35442
ha	-7.3546
▁bo	-7.35555
bo	-7.357
me	-7.36092
▁ca	-7.36101
to	-7.3621
lo	-7.36861
▁her	-7.37355
▁hoved	-7.3755
▁o	-7.38293
▁ro	-7.38969
▁sa	-7.40214
si	-7.40243
▁le	-7.40559
▁w	-7.41005
man	-7.41914
th	-7.42144
▁ma	-7.42277
ff	-7.42571
os	-7.42732
son	-7.43124
mi	-7.43355
▁vi	-7.43634
▁li	-7.43761
▁pa	-7.43764
for	-7.43925
á	-7.44159
ton	-7.44366
ry	-7.44514
▁st	-7.44824
ker	-7.44854
▁blant	-7.44913
ning	-7.45014
▁si	-7.45127
va	-7.45238
▁me	-7.45753
▁nord	-7.45998
berg	-7.46018
▁t	-7.46021
øy	-7.46679
▁hans	-7.46787
ner	-7.46838
ti	-7.47216
▁po	-7.48101
ce	-7.49102
▁he	-7.49331
it	-7.49974
▁man	-7.50089
▁j	-7.50858
▁r	-7.5166
▁mot	-7.51964
ut	-7.52206
mo	-7.52421
▁lo	-7.53418
ik	-7.53637
ly	-7.54408
iske	-7.54657
ol	-7.54913
gen	-7.54948
▁ka	-7.55153
ad	-7.55153
▁sin	-7.57158
am	-7.57382
▁sp	-7.5812
dal	-7.58139
ina	-7.58301
ä	-7.58812
co	-7.59135
ør	-7.59146
▁ho	-7.59214
pe	-7.59551
bi	-7.60287
ske	-7.60444
by	-7.60776
je	-7.60858
▁do	-7.61434
▁gjennom	-7.61497
▁mellom	-7.62378
▁fa	-7.6269
bu	-7.62717
▁men	-7.6279
▁as	-7.62851
▁ta	-7.62906
▁so	-7.62913
do	-7.63227
ic	-7.63419
▁ni	-7.63702
lige	-7.64177
▁du	-7.64671
▁kalles	-7.64681
▁hadde	-7.64975
ir	-7.65379
▁kon	-7.65921
ell	-7.66215
▁mo	-7.66327
▁per	-7.66421
om	-7.66722
▁su	-7.67093
no	-7.68035
▁1	-7.68207
op	-7.6829
vi	-7.6882
ø	-7.69057
ca	-7.69547
un	-7.69995
ment	-7.70131
ster	-7.70892
▁pi	-7.7101
▁17	-7.71307
erte	-7.71375
ling	-7.71437
▁19	-7.71806
ö	-7.72463
ste	-7.72712
▁mor	-7.72829
▁am	-7.72838
ni	-7.72863
ion	-7.73078
im	-7.73093
▁ko	-7.73267
▁or	-7.73345
het	-7.73751
▁by	-7.73766
▁el	-7.74004
å	-7.74026
▁ri	-7.74698
▁dette	-7.74882
▁stor	-7.74909
ci	-7.75488
▁ba	-7.75522
▁ny	-7.75774
mp	-7.75913
▁2	-7.76843
▁gu	-7.77052
í	-7.77244
▁der	-7.77598
ho	-7.78159
ist	-7.78804
▁lu	-7.7926
ov	-7.7945
io	-7.79708
▁ga	-7.80126
mer	-7.8032
gg	-7.81158
▁kinesisk	-7.81322
kt	-7.81352
▁ra	-7.81421
▁pro	-7.81517
▁tor	-7.81825
▁seg	-7.82162
▁bar	-7.82369
0	-7.82469
pa	-7.826
lin	-7.83159
po	-7.83191
ant	-7.83412
▁z	-7.83504
▁jo	-7.83832
vik	-7.83873
▁te	-7.84023
▁ikke	-7.84775
vis	-7.85339
gi	-7.85411
mann	-7.85527
▁ja	-7.86548
ie	-7.86692
æ	-7.86886
▁mar	-7.87099
▁sch	-7.87103
▁flere	-7.87232
rett	-7.87787
ian	-7.87846
od	-7.87976
▁fri	-7.88196
▁denne	-7.89007
tter	-7.89908
pp	-7.90499
▁hun	-7.90501
▁bi	-7.90597
go	-7.9097
▁car	-7.91062
▁far	-7.913
▁disse	-7.91734
▁min	-7.91876
▁bu	-7.91906
▁del	-7.92325
tra	-7.92462
▁ti	-7.93059
sta	-7.93512
▁pe	-7.93874
sh	-7.9412
au	-7.94484
sjon	-7.94684
em	-7.95237
▁15	-7.95658
▁hu	-7.95707
▁sammen	-7.95989
ang	-7.97007
▁16	-7.97286
pi	-7.97412
▁sol	-7.97589
ki	-7.97598
gu	-7.98117
ica	-7.98287
år	-7.98333
▁sør	-7.98767
▁første	-7.99325
ard	-7.99568
ær	-7.99572
▁x	-7.99597
▁con	-7.99692
▁fikk	-8.00644
else	-8.00674
av	-8.00816
▁tilhører	-8.00935
▁ad	-8.00976
skap	-8.01104
tor	-8.01391
men	-8.01566
▁gi	-8.01692
▁født	-8.01792
itt	-8.02454
ven	-8.02802
▁ch	-8.02882
sel	-8.03524
ium	-8.03662
hold	-8.04617
▁blir	-8.04795
и	-8.04869
ot	-8.04933
tal	-8.05185
▁vest	-8.05211
hi	-8.05722
ld	-8.06224
per	-8.06367
ting	-8.06374
▁ei	-8.06729
▁tra	-8.06782
▁samt	-8.0691
▁land	-8.06979
▁kom	-8.06984
ny	-8.07066
▁ru	-8.07185
hu	-8.07285
▁sk	-8.07332
▁kommune	-8.07364
var	-8.0766
▁sam	-8.08234
▁bestå	-8.08243
▁tidligere	-8.08337
▁go	-8.08518
▁3	-8.08583
ak	-8.08699
▁alle	-8.08705
ring	-8.09029
ier	-8.09268
ong	-8.09305
▁finnes	-8.09447
asjon	-8.09579
idae	-8.09621
▁y	-8.09692
erne	-8.10055
▁fe	-8.10258
▁wi	-8.10282
▁ge	-8.10593
▁bra	-8.10848
▁annet	-8.11418
ok	-8.11985
▁lag	-8.12346
lu	-8.12592
▁pre	-8.12763
▁mer	-8.12914
▁øst	-8.12967
е	-8.13041
ation	-8.1325
▁tri	-8.13494
ord	-8.1365
lag	-8.13794
00	-8.13858
ac	-8.13896
iv	-8.14077
▁navn	-8.14482
over	-8.14662
ou	-8.14733
▁13	-8.15196
ering	-8.15389
ber	-8.15666
▁san	-8.15691
yl	-8.16067
ā	-8.16124
▁omfatter	-8.16195
ü	-8.16221
▁så	-8.16631
ó	-8.16891
elle	-8.16942
tall	-8.16944
dre	-8.17227
▁navnet	-8.17413
ine	-8.1798
stein	-8.18018
▁vann	-8.18406
ph	-8.18488
▁ned	-8.18525
▁hel	-8.19072
ren	-8.19342
▁tu	-8.19445
ley	-8.1948
und	-8.1963
les	-8.19862
▁bak	-8.19909
ikk	-8.19923
▁all	-8.2055
▁ben	-8.20778
ung	-8.20932
hus	-8.2111
▁ag	-8.21122
▁ab	-8.21284
▁5	-8.21942
za	-8.22198
▁lang	-8.22445
▁ku	-8.22485
▁russisk	-8.22549
▁mi	-8.22777
nd	-8.22838
mar	-8.22847
▁kalt	-8.23029
▁byen	-8.23405
▁sal	-8.23464
jo	-8.23629
▁ne	-8.23774
▁va	-8.23853
tre	-8.24004
▁ver	-8.24078
▁john	-8.2434
ll	-8.24501
ud	-8.24613
ede	-8.24932
fa	-8.25012
▁col	-8.25086
▁heter	-8.25229
ju	-8.25441
▁fire	-8.25655
ru	-8.25772
ag	-8.26198
sten	-8.26324
ken	-8.2676
▁fly	-8.26766
sson	-8.2689
kel	-8.2698
▁norsk	-8.27109
▁tro	-8.27147
and	-8.27229
lands	-8.2731
▁4	-8.27567
vin	-8.2764
wa	-8.28201
▁ju	-8.28302
▁bro	-8.28415
▁jan	-8.2862
▁nor	-8.30105
lan	-8.30297
▁følgende	-8.30775
sch	-8.31008
ow	-8.31045
sse	-8.3138
ron	-8.31435
▁mange	-8.3188
▁frem	-8.32053
fi	-8.3213
▁ski	-8.32291
▁dag	-8.33119
▁my	-8.33253
he	-8.33632
if	-8.33804
dy	-8.3388
tan	-8.3419
▁kar	-8.34451
▁være	-8.34561
▁mu	-8.34979
mmer	-8.34991
inyin	-8.35023
val	-8.35102
mon	-8.35175
▁fo	-8.35184
tur	-8.35281
ya	-8.3531
ku	-8.35352
tar	-8.35658
▁ofte	-8.35686
▁ste	-8.35785
▁ki	-8.36057
sted	-8.36101
▁vel	-8.36324
ug	-8.36833
▁operatør	-8.36861
del	-8.3705
▁ar	-8.37267
▁we	-8.37586
▁mens	-8.37655
kon	-8.37686
▁fu	-8.37774
tion	-8.37845
min	-8.38019
▁betyr	-8.38035
▁sta	-8.38123
▁hus	-8.38128
▁mel	-8.38205
▁op	-8.38226
▁on	-8.38246
▁cha	-8.38369
▁vil	-8.38567
ek	-8.38684
▁liste	-8.38746
verk	-8.38996
▁val	-8.39004
▁th	-8.39084
▁går	-8.39242
▁sand	-8.39706
heim	-8.39746
▁br	-8.3982
ji	-8.39896
gang	-8.39935
▁hos	-8.39967
▁moh	-8.40108
ding	-8.40448
▁berg	-8.40771
dag	-8.4088
▁kirke	-8.41023
▁mål	-8.41056
▁største	-8.41087
▁mag	-8.41311
▁9	-8.41449
▁eks	-8.41989
о	-8.42135
▁7	-8.42271
ze	-8.42321
▁kor	-8.42378
▁tid	-8.42868
▁lever	-8.42916
▁mat	-8.43096
tin	-8.43414
familien	-8.43437
sp	-8.43525
zi	-8.43564
bel	-8.438
mor	-8.43806
▁fi	-8.43897
▁com	-8.44309
▁kl	-8.4452
▁skal	-8.44865
ham	-8.44905
▁och	-8.44917
▁ak	-8.44963
ans	-8.44981
▁syn	-8.45181
art	-8.45234
▁stein	-8.45383
▁små	-8.45504
ius	-8.457
▁før	-8.45845
▁6	-8.46213
▁ed	-8.46298
▁år	-8.46308
▁mal	-8.46451
q	-8.4649
vel	-8.46534
tu	-8.46562
ps	-8.46727
kker	-8.46969
tte	-8.46994
▁store	-8.47139
mb	-8.47245
▁brun	-8.47283
▁mest	-8.47334
dd	-8.47543
nings	-8.47592
dalen	-8.47682
▁nå	-8.47766
ft	-8.47783
▁sitt	-8.47801
ú	-8.47864
tten	-8.48327
▁fjell	-8.48395
▁pu	-8.48711
▁bor	-8.49031
▁død	-8.49045
▁par	-8.49061
▁van	-8.49229
▁2002	-8.49314
▁folke	-8.49632
ct	-8.49672
▁sv	-8.49767
▁senere	-8.49836
▁fem	-8.49978
du	-8.50336
ach	-8.50364
▁flaggbærer	-8.50458
ana	-8.50464
▁ham	-8.50487
▁can	-8.5079
▁familien	-8.50901
ī	-8.50926
▁8	-8.5175
kar	-8.51756
ab	-8.51787
▁mon	-8.51908
▁nu	-8.52015
pningsseremonien	-8.52109
▁spilt	-8.52145
chi	-8.52276
▁af	-8.52688
▁hal	-8.52809
▁ur	-8.53179
▁parti	-8.53269
fe	-8.5359
bb	-8.53713
▁ol	-8.53718
▁folketelling	-8.53788
▁dr	-8.5389
▁grunn	-8.53924
▁gra	-8.53943
à	-8.53976
borg	-8.54178
ty	-8.54391
▁sønn	-8.54551
▁bru	-8.54677
opp	-8.54784
▁leder	-8.54868
hr	-8.54882
▁chi	-8.55276
su	-8.55293
▁cu	-8.55359
mat	-8.55404
ator	-8.55543
▁engelsk	-8.55744
▁os	-8.55764
а	-8.56005
▁laget	-8.56223
ill	-8.56225
inn	-8.56438
▁vo	-8.56548
itet	-8.56716
▁vant	-8.56933
ice	-8.56949
▁kommunen	-8.56988
▁gir	-8.57107
är	-8.57321
bro	-8.57324
hy	-8.57453
ologi	-8.57487
▁energi	-8.57502
▁langs	-8.57504
▁noen	-8.57802
▁inneholder	-8.57818
▁div	-8.57975
ive	-8.58003
▁rød	-8.58071
tid	-8.58467
ino	-8.58496
che	-8.58509
▁gjen	-8.58546
▁nær	-8.58555
▁hol	-8.5865
▁innen	-8.58682
bar	-8.58716
▁kunst	-8.58798
▁høy	-8.58826
▁fram	-8.58875
▁sig	-8.58922
▁film	-8.58968
kom	-8.59198
ningen	-8.59309
▁sh	-8.594
veien	-8.59417
▁musikk	-8.59512
▁shi	-8.59591
senter	-8.59643
▁ke	-8.59763
▁selv	-8.59969
siden	-8.60073
▁fag	-8.60105
han	-8.60162
▁0	-8.60273
▁sj	-8.60402
bil	-8.60661
form	-8.60753
vet	-8.60772
til	-8.60863
kan	-8.60867
tz	-8.60896
gh	-8.61036
tisk	-8.61107
▁gar	-8.61677
▁skole	-8.62059
far	-8.62158
▁art	-8.62168
▁fin	-8.62168
▁inkluderer	-8.62368
▁lå	-8.62696
mme	-8.62938
▁pr	-8.62976
ran	-8.63005
▁gal	-8.63141
tsj	-8.63385
est	-8.63573
len	-8.63663
▁vin	-8.63703
selskapet	-8.63762
ari	-8.63996
gel	-8.64243
stre	-8.64295
net	-8.6431
▁må	-8.64622
▁god	-8.64694
▁za	-8.64815
▁gud	-8.64866
▁kr	-8.64871
▁dan	-8.6515
tiv	-8.65181
tak	-8.65229
yn	-8.65508
▁hvor	-8.656
▁kommer	-8.65743
▁em	-8.6614
▁11	-8.6617
▁20	-8.66359
mu	-8.66443
▁ty	-8.66586
án	-8.66721
▁10	-8.66886
folkerepublikken	-8.66951
▁spiller	-8.66994
ski	-8.67058
▁kultur	-8.67169
▁bal	-8.67233
▁ren	-8.67314
▁kv	-8.67571
▁ap	-8.67785
▁sen	-8.68143
▁wa	-8.6817
ight	-8.68207
▁hy	-8.68288
ris	-8.68334
▁paul	-8.68344
ara	-8.68537
▁norge	-8.68598
ide	-8.68844
▁bre	-8.69189
sj	-8.69315
vo	-8.69359
è	-8.69359
ah	-8.6942
▁ex	-8.69445
▁danne	-8.69489
fly	-8.69684
jen	-8.69698
res	-8.69952
▁sl	-8.70075
ð	-8.70219
▁para	-8.70223
▁ji	-8.70238
my	-8.7024
т	-8.70293
kor	-8.70543
▁ve	-8.70636
▁juli	-8.70735
▁står	-8.70751
jø	-8.70779
▁peter	-8.70796
▁roman	-8.70955
▁mai	-8.70973
▁new	-8.70988
bok	-8.71106
gar	-8.71144
øya	-8.71149
▁pan	-8.71152
▁hav	-8.71199
▁skrev	-8.71322
▁rom	-8.7138
▁sjø	-8.71465
▁rø	-8.71525
▁bil	-8.71595
▁verdens	-8.716
ola	-8.71964
inger	-8.71965
▁vis	-8.72058
▁au	-8.72188
▁mod	-8.72252
rø	-8.72379
▁hen	-8.72408
ingen	-8.72468
▁mc	-8.72544
▁12	-8.7262
▁von	-8.7272
▁tar	-8.72728
▁dy	-8.72852
▁rundt	-8.72862
▁hi	-8.73219
▁verk	-8.73269
▁oslo	-8.73317
▁kinas	-8.73342
fin	-8.73343
▁bjørn	-8.73422
š	-8.73506
bra	-8.73581
we	-8.74022
sto	-8.74056
uk	-8.74106
ninger	-8.74162
л	-8.74162
let	-8.74389
▁kjent	-8.74396
fisk	-8.74474
▁ø	-8.74505
▁kjente	-8.7502
ini	-8.75022
lia	-8.75039
▁gul	-8.75093
р	-8.75278
ret	-8.75295
sund	-8.75388
bre	-8.75486
van	-8.75672
▁sel	-8.75714
ssen	-8.75843
klubb	-8.75867
gre	-8.75892
▁fl	-8.75914
10	-8.75964
bruk	-8.76063
▁ob	-8.76084
isert	-8.76223
og	-8.76254
ano	-8.76332
▁carl	-8.76398
▁hø	-8.76634
rin	-8.76678
ath	-8.76775
ay	-8.76809
▁red	-8.76867
dan	-8.77114
▁ord	-8.77485
rik	-8.77914
▁thor	-8.77926
▁14	-8.78084
▁martin	-8.78401
sti	-8.78501
▁vol	-8.7881
dra	-8.78889
met	-8.78896
▁cor	-8.78981
vann	-8.79018
xi	-8.79022
▁bl	-8.79082
▁tur	-8.79221
ich	-8.79561
▁mark	-8.79629
▁hvit	-8.79669
▁fiske	-8.79724
elsen	-8.7982
▁lind	-8.80064
▁tv	-8.80085
▁seks	-8.80274
forening	-8.8031
▁bur	-8.80359
▁grav	-8.80446
▁gre	-8.80597
lett	-8.80817
kle	-8.8084
fjorden	-8.80927
ani	-8.80934
▁sha	-8.80973
løp	-8.80994
▁vei	-8.81031
lse	-8.81097
ska	-8.81115
▁eu	-8.81118
▁området	-8.81161
▁innenfor	-8.81235
▁kina	-8.81439
satt	-8.81477
gård	-8.81556
▁skog	-8.81561
▁port	-8.81568
▁like	-8.81591
▁ac	-8.81607
shi	-8.81629
don	-8.81647
▁fast	-8.81649
▁bok	-8.81706
▁band	-8.81727
ves	-8.81805
▁post	-8.81918
stand	-8.81928
mel	-8.81943
stan	-8.81944
mål	-8.82047
▁mac	-8.82394
▁anti	-8.82396
▁christian	-8.82464
▁kur	-8.82483
▁gull	-8.82545
bø	-8.8259
▁motor	-8.82612
▁tom	-8.82616
▁jord	-8.82631
▁innbyggertall	-8.82758
▁representerte	-8.82766
ida	-8.82782
up	-8.82787
isme	-8.82812
ister	-8.82937
▁mari	-8.82952
tiske	-8.83013
▁kong	-8.83037
▁sto	-8.83066
fjord	-8.83083
▁lys	-8.83084
▁sc	-8.83246
α	-8.83401
▁språk	-8.835
skog	-8.83526
dyr	-8.83673
▁und	-8.83695
mester	-8.83861
▁sub	-8.84011
▁mars	-8.84067
øl	-8.84166
nu	-8.84374
▁gruppen	-8.84378
▁halv	-8.84386
▁ry	-8.84512
▁mus	-8.84775
ula	-8.84786
que	-8.84953
▁class	-8.85053
age	-8.85089
burg	-8.85092
tic	-8.85119
▁ly	-8.85321
▁både	-8.85377
ale	-8.85448
slag	-8.85507
▁bruker	-8.85523
vei	-8.85618
▁brukes	-8.85623
▁hei	-8.85697
fra	-8.85742
▁ky	-8.85848
▁gran	-8.85878
mus	-8.86013
mark	-8.86061
ppe	-8.86089
anger	-8.86161
▁die	-8.86199
▁natur	-8.8621
ap	-8.86269
▁ul	-8.86274
▁kol	-8.86348
▁slik	-8.86352
eres	-8.86409
▁lokal	-8.86419
▁videre	-8.86488
ita	-8.86579
▁plante	-8.86608
▁hovedstad	-8.86644
с	-8.86645
▁het	-8.86685
▁cas	-8.86875
▁mas	-8.87004
bygd	-8.87033
fer	-8.87106
rom	-8.87221
fo	-8.87248
system	-8.87329
ble	-8.87474
▁q	-8.87689
▁sil	-8.87744
▁plan	-8.87779
д	-8.87876
ix	-8.88167
bl	-8.88186
lle	-8.88695
▁svensk	-8.88929
▁mad	-8.89033
▁nasjonal	-8.89045
▁je	-8.89051
▁hver	-8.89233
▁erik	-8.89344
▁mos	-8.89357
hl	-8.89364
ala	-8.8941
▁alt	-8.89419
ū	-8.89438
spill	-8.89509
syn	-8.89521
▁norske	-8.89593
к	-8.89755
▁august	-8.89785
▁bas	-8.90026
ella	-8.90071
▁uten	-8.90111
▁stu	-8.90147
▁kri	-8.9023
▁un	-8.90252
som	-8.90264
▁pra	-8.90294
▁park	-8.90311
fall	-8.90395
▁ban	-8.9047
▁hele	-8.90579
gn	-8.90674
20	-8.90731
ō	-8.90732
▁fla	-8.90751
▁ci	-8.9076
▁ber	-8.90813
zz	-8.90901
▁robert	-8.9092
▁kort	-8.90958
ova	-8.90975
▁sø	-8.91134
mal	-8.91143
ige	-8.91176
ata	-8.9128
▁km	-8.91307
ij	-8.91351
par	-8.91374
▁lav	-8.9138
у	-8.91533
tel	-8.91564
▁karl	-8.91608
dom	-8.91629
▁21	-8.91684
▁http	-8.91887
▁fil	-8.92038
▁eksempel	-8.92241
▁kun	-8.92255
anlegg	-8.92407
lev	-8.92478
▁selskapet	-8.92498
område	-8.92578
log	-8.92594
▁lin	-8.927
gan	-8.92734
▁you	-8.92814
▁sine	-8.92818
stil	-8.92938
▁för	-8.9301
pu	-8.93027
▁gjerne	-8.93105
ater	-8.93167
▁radio	-8.93244
▁liv	-8.9338
▁blå	-8.93392
▁lik	-8.93444
▁gen	-8.93509
gren	-8.93567
▁beste	-8.93625
jer	-8.93634
▁will	-8.93661
ført	-8.93691
▁administrasjons	-8.93721
▁inter	-8.93764
lie	-8.93815
▁stats	-8.93858
▁gresk	-8.93874
▁siden	-8.93878
▁sommerfugl	-8.93956
▁opprinnelig	-8.94033
▁2006	-8.94062
▁fred	-8.94068
▁dal	-8.94099
▁jeg	-8.94225
ød	-8.94231
▁luft	-8.94478
rat	-8.94567
▁kra	-8.94579
▁sky	-8.94608
▁spe	-8.94681
enes	-8.94737
bygg	-8.94744
▁gift	-8.94822
arbeid	-8.94828
vær	-8.94889
elig	-8.94896
▁barne	-8.94925
rum	-8.95138
▁ser	-8.95197
▁ska	-8.95295
pen	-8.95314
vern	-8.9534
▁vår	-8.95357
▁når	-8.95358
ket	-8.95387
ther	-8.95532
▁side	-8.95653
krets	-8.95664
▁meg	-8.95669
▁tradisjonell	-8.95674
navnet	-8.95742
ford	-8.95826
▁25	-8.9592
▁distrikt	-8.95954
tro	-8.96005
laget	-8.96064
▁sommer	-8.96086
▁sm	-8.96198
kin	-8.96427
▁tysk	-8.96579
▁trans	-8.96611
områder	-8.96879
▁tekst	-8.96882
▁følger	-8.97004
ip	-8.97243
▁via	-8.97332
pro	-8.97372
▁david	-8.9739
▁2007	-8.97402
▁begge	-8.97411
stasjon	-8.97453
▁ole	-8.97504
▁ind	-8.9755
dde	-8.97674
▁kla	-8.9768
sky	-8.97703
pan	-8.97727
bær	-8.97829
bin	-8.97869
▁small	-8.97928
▁norges	-8.97946
kh	-8.97982
▁gro	-8.97996
alis	-8.98197
ika	-8.98265
wi	-8.98301
▁30	-8.98599
▁tak	-8.98705
▁distriktet	-8.98863
huset	-8.98999
ære	-8.9909
lene	-8.9914
our	-8.99204
м	-8.99264
н	-8.99299
▁kamp	-8.99317
stoff	-8.99369
ros	-8.99445
rop	-8.99524
▁president	-8.99691
▁rett	-8.99747
▁yu	-8.99765
▁kje	-8.99789
▁ifølge	-8.99905
itz	-9.00169
▁ein	-9.00198
▁sang	-9.00253
leder	-9.00316
kant	-9.00427
iz	-9.0047
▁data	-9.00485
dals	-9.00531
▁ya	-9.00608
reg	-9.00658
ör	-9.00701
▁farge	-9.00706
senteret	-9.00738
kre	-9.0074
50	-9.00797
▁hennes	-9.00805
▁dom	-9.00833
ving	-9.00875
▁stra	-9.00922
▁ør	-9.00979
kje	-9.01071
▁vært	-9.01261
cy	-9.0127
▁tal	-9.01371
skole	-9.01531
▁system	-9.018
▁general	-9.01934
tiden	-9.01958
▁tru	-9.02052
cc	-9.02133
▁28	-9.02152
isering	-9.02307
lå	-9.02379
▁vas	-9.02691
▁reference	-9.02717
▁fal	-9.02827
gle	-9.02885
▁that	-9.02897
▁bred	-9.02974
slav	-9.0299
ν	-9.03112
▁dem	-9.03113
▁tok	-9.03207
▁eng	-9.03239
olog	-9.03272
stilling	-9.03445
▁grå	-9.03503
▁hell	-9.03549
tis	-9.0361
▁fre	-9.03656
ighet	-9.03696
▁georg	-9.03739
med	-9.0381
▁dikt	-9.03837
ssa	-9.03865
▁vir	-9.03891
ι	-9.03907
▁bør	-9.03922
▁bj	-9.04024
▁form	-9.0405
▁ram	-9.04092
▁arm	-9.04146
byen	-9.04157
▁pri	-9.04293
pl	-9.04331
pris	-9.04485
lik	-9.04494
lei	-9.04577
fugl	-9.04627
ure	-9.04854
fon	-9.05148
▁landets	-9.05284
navn	-9.05286
pre	-9.05288
▁politi	-9.0533
▁samme	-9.05447
▁mill	-9.05522
▁mil	-9.05582
▁bare	-9.05704
▁ph	-9.0571
mm	-9.05857
▁ten	-9.05929
▁valg	-9.05935
▁styre	-9.06034
▁tr	-9.06046
▁ant	-9.0605
▁att	-9.06117
har	-9.06142
vil	-9.06147
▁vise	-9.0616
dor	-9.06176
▁spill	-9.06189
▁lands	-9.06264
▁lyd	-9.06314
stat	-9.06344
▁2010	-9.06358
ub	-9.06404
ura	-9.06414
bert	-9.06475
▁are	-9.06566
qui	-9.06585
▁william	-9.06743
ite	-9.06793
▁fransk	-9.07096
stu	-9.07106
▁gamle	-9.07157
▁qu	-9.07199
▁foran	-9.07223
▁22	-9.07246
▁kron	-9.07307
▁industri	-9.07378
elli	-9.07513
tri	-9.07678
lsen	-9.07694
▁dia	-9.07711
hal	-9.07743
▁ek	-9.0782
▁regi	-9.07845
▁nett	-9.07853
ish	-9.07985
▁23	-9.08054
▁thomas	-9.08112
ller	-9.08136
▁johan	-9.08177
våg	-9.08217
в	-9.08399
▁rekke	-9.08422
▁jon	-9.08423
rå	-9.08554
aks	-9.08588
retning	-9.08632
sak	-9.08649
▁nye	-9.08881
▁not	-9.08915
▁cl	-9.08977
gna	-9.08979
▁bon	-9.09132
▁ring	-9.09194
tta	-9.09198
ep	-9.09237
▁viktigste	-9.09258
▁johannes	-9.09286
mund	-9.09359
▁kat	-9.09373
▁pol	-9.09427
▁cap	-9.09525
▁kre	-9.09582
▁west	-9.09612
▁japansk	-9.09634
▁ulike	-9.09665
▁kunne	-9.09679
▁midt	-9.09726
vit	-9.09857
stra	-9.09919
19	-9.10021
qua	-9.10099
▁mak	-9.10184
▁100	-9.10216
organisasjon	-9.10435
ов	-9.10447
▁knut	-9.10519
isten	-9.10592
lys	-9.10597
▁war	-9.10628
▁sentral	-9.10638
ette	-9.10882
lekt	-9.10888
bor	-9.10904
kal	-9.10997
kul	-9.11007
lus	-9.11039
lat	-9.11068
rak	-9.11147
▁eier	-9.11147
▁person	-9.11147
▁odd	-9.11204
▁eg	-9.113
hn	-9.11321
▁www	-9.11366
▁øy	-9.11443
cha	-9.11689
▁ingen	-9.11722
sal	-9.11795
▁eksempler	-9.11796
the	-9.11888
▁riks	-9.1192
▁ball	-9.11927
▁ze	-9.11954
ømme	-9.11977
ev	-9.12071
än	-9.12113
▁jag	-9.12118
▁bli	-9.12127
▁elven	-9.12154
▁hall	-9.12253
▁2008	-9.12368
▁anne	-9.12496
▁grenser	-9.12621
kov	-9.12641
▁bel	-9.12663
zhou	-9.12684
ward	-9.12854
▁with	-9.12916
oc	-9.12995
▁xi	-9.13003
liv	-9.13023
▁les	-9.13103
▁24	-9.13139
lla	-9.13161
▁hor	-9.13336
elser	-9.13446
▁kyst	-9.13663
qu	-9.1384
40	-9.13851
iet	-9.13854
ai	-9.13854
▁hovedstaden	-9.14027
▁bygde	-9.14095
iti	-9.14102
▁arbeids	-9.1414
▁mol	-9.14185
▁produsere	-9.14422
ås	-9.1447
gaard	-9.14654
▁lev	-9.1466
zo	-9.14718
▁arne	-9.14736
▁sak	-9.14741
▁kal	-9.14771
råd	-9.14834
▁mis	-9.14857
ges	-9.14928
▁derfor	-9.15145
на	-9.15292
▁sy	-9.15292
ografi	-9.15374
▁deretter	-9.15382
▁george	-9.15519
rad	-9.15534
▁stat	-9.15719
▁spilles	-9.15739
bygning	-9.15822
▁lund	-9.15888
ple	-9.16116
▁bruk	-9.1621
▁provinsen	-9.16224
▁gri	-9.16368
г	-9.1641
▁frank	-9.16422
området	-9.16434
▁egen	-9.16493
▁zu	-9.1651
asje	-9.16597
▁pin	-9.16633
lot	-9.16689
nor	-9.16789
▁2009	-9.16825
▁reg	-9.16846
punkt	-9.16858
båt	-9.16944
▁ger	-9.16984
old	-9.17004
▁maria	-9.17098
pper	-9.17159
▁uni	-9.17184
mmen	-9.17196
▁wal	-9.17225
rus	-9.1736
▁latin	-9.17375
landet	-9.1741
▁lars	-9.17515
▁dar	-9.17571
▁stre	-9.17639
▁don	-9.17696
press	-9.177
▁litt	-9.17717
▁jens	-9.17909
este	-9.17961
ati	-9.17994
▁dre	-9.18116
▁bø	-9.18346
oni	-9.18392
▁dis	-9.18396
▁she	-9.18398
ved	-9.18455
30	-9.18458
ild	-9.18459
▁2005	-9.18529
iserte	-9.18538
▁særlig	-9.18565
mannen	-9.18633
rike	-9.18703
▁web	-9.18767
▁pal	-9.18936
fri	-9.19036
▁lar	-9.19054
ym	-9.19219
▁representere	-9.19244
ram	-9.19365
▁barn	-9.19538
▁bri	-9.19543
▁dra	-9.19719
heten	-9.19729
▁son	-9.19756
tatt	-9.19833
▁innbyggere	-9.1989
▁mik	-9.19981
▁rev	-9.20001
▁pass	-9.2005
sjef	-9.2016
▁helse	-9.20176
arter	-9.20271
▁che	-9.20495
▁full	-9.20496
løse	-9.20529
▁skolen	-9.20541
lagt	-9.20556
selskap	-9.20565
tti	-9.20612
▁tele	-9.20624
elt	-9.20641
tale	-9.20676
banen	-9.20688
jev	-9.20766
▁us	-9.20812
▁michael	-9.20833
legg	-9.20853
▁blad	-9.20941
cu	-9.21012
▁gitar	-9.21017
kilden	-9.21026
pol	-9.21176
uch	-9.21193
▁arabisk	-9.21306
lis	-9.21415
▁fer	-9.21453
ì	-9.21487
merke	-9.2149
asjoner	-9.21508
▁spesial	-9.21515
sett	-9.21595
▁air	-9.21623
▁lille	-9.21628
bus	-9.22022
▁auto	-9.22078
▁svart	-9.2221
▁mur	-9.22214
▁finner	-9.22249
▁deres	-9.22314
led	-9.22327
én	-9.22421
▁opera	-9.2248
▁kvinne	-9.2253
▁lau	-9.22587
▁inkludert	-9.22741
dar	-9.22755
▁gr	-9.22952
lar	-9.22963
▁fant	-9.23103
ance	-9.23141
▁usa	-9.23181
12	-9.23193
▁dessut	-9.23227
▁bank	-9.23259
nis	-9.23277
▁tittelen	-9.23281
jan	-9.23423
cia	-9.23442
ity	-9.23563
car	-9.23609
▁win	-9.23807
▁enn	-9.23861
gon	-9.23928
ben	-9.24025
▁organ	-9.24178
▁imidlertid	-9.24197
ologisk	-9.24199
syre	-9.24299
ón	-9.24326
▁utgjør	-9.2433
▁kam	-9.24331
▁stil	-9.24337
▁datter	-9.24412
stro	-9.24424
▁kh	-9.24496
▁nærings	-9.2465
▁ok	-9.24661
▁2011	-9.24705
bru	-9.24735
▁slutt	-9.24736
▁region	-9.24743
heng	-9.2475
kning	-9.24887
lund	-9.24921
farge	-9.24964
▁27	-9.25017
▁viser	-9.25067
all	-9.2512
▁arter	-9.25134
▁int	-9.25188
▁gammel	-9.25202
▁dyr	-9.25288
verket	-9.25339
▁myr	-9.25369
zy	-9.25409
komme	-9.25415
▁grønn	-9.25439
red	-9.2568
▁ven	-9.25692
oli	-9.25735
▁overtok	-9.25777
▁fortsatt	-9.25783
rek	-9.2588
ky	-9.25893
mma	-9.2593
sam	-9.2602
▁est	-9.26046
ρ	-9.26172
▁vanligvis	-9.26202
▁just	-9.26215
▁viktige	-9.26253
▁arkitekt	-9.26258
▁gikk	-9.26311
ische	-9.26344
ull	-9.26376
▁cho	-9.26592
trykk	-9.2663
dro	-9.26639
▁venstre	-9.26696
ansk	-9.2675
▁marc	-9.26771
lut	-9.26776
▁redaktør	-9.26884
▁støtte	-9.26945
ão	-9.26988
▁tillegg	-9.27074
▁fr	-9.27112
▁januar	-9.27176
▁wo	-9.27244
▁besto	-9.27258
hov	-9.27269
one	-9.27281
▁nils	-9.27288
▁mindre	-9.27292
▁topp	-9.27324
ktig	-9.27361
▁herre	-9.27385
side	-9.27468
ney	-9.27482
▁cro	-9.27504
▁orden	-9.2761
60	-9.27672
lang	-9.27751
▁jernbane	-9.27831
▁pl	-9.27844
▁poly	-9.27848
gata	-9.27878
minister	-9.2795
▁egg	-9.27981
styre	-9.27986
▁26	-9.28017
ose	-9.28066
illa	-9.28108
gjør	-9.28133
▁forskjellige	-9.28188
▁lufthavn	-9.28196
▁skulle	-9.28204
▁sur	-9.28237
▁finn	-9.28241
lov	-9.28319
ferd	-9.28356
low	-9.28442
▁bergen	-9.28529
▁militær	-9.28698
▁student	-9.28704
stri	-9.28708
▁medlem	-9.28716
▁29	-9.28719
▁app	-9.28831
ama	-9.28847
▁slekt	-9.28903
▁wei	-9.28943
bri	-9.2898
▁fotball	-9.28984
▁skrevet	-9.29002
▁im	-9.29023
▁000	-9.29028
gul	-9.29064
bjørn	-9.29136
ledd	-9.29143
▁world	-9.29211
▁pat	-9.29362
▁mun	-9.29363
▁bad	-9.29388
▁es	-9.29517
føre	-9.29521
▁amerikansk	-9.29726
я	-9.29726
▁mannskapet	-9.29735
▁veg	-9.29769
▁dansk	-9.29933
▁sau	-9.2995
vold	-9.30156
▁tj	-9.30315
▁nr	-9.30353
▁europa	-9.30449
▁sul	-9.30467
ico	-9.3049
▁blei	-9.3057
fag	-9.30708
dia	-9.30725
ér	-9.30769
nivå	-9.30802
▁gruppe	-9.30816
▁power	-9.30832
▁plat	-9.30837
sjøen	-9.30939
ink	-9.3097
con	-9.31012
▁christ	-9.3103
▁siste	-9.31122
ira	-9.312
ο	-9.31278
rør	-9.31481
voll	-9.31614
▁båt	-9.31664
ban	-9.31687
▁brensel	-9.31796
grad	-9.31798
▁nan	-9.31852
▁start	-9.31864
skje	-9.31997
systemet	-9.32036
90	-9.32051
▁blod	-9.32052
▁driver	-9.32075
▁gy	-9.32169
▁gav	-9.32191
▁cam	-9.32197
▁nam	-9.32254
port	-9.32255
▁februar	-9.32344
▁strand	-9.32352
▁ras	-9.32373
▁haug	-9.32424
ade	-9.32455
film	-9.32474
17	-9.32574
▁james	-9.32589
▁cal	-9.32629
▁forfatter	-9.32696
get	-9.32742
renner	-9.32781
itu	-9.32784
hall	-9.32898
▁års	-9.32986
sberg	-9.32998
▁2004	-9.33068
▁lei	-9.33085
▁fall	-9.33142
▁jean	-9.33264
▁kir	-9.3327
▁gjør	-9.33463
▁artikkel	-9.3352
▁max	-9.33575
din	-9.33591
▁familie	-9.33756
▁ton	-9.33894
leg	-9.33941
11	-9.33962
plass	-9.33963
▁super	-9.34076
▁studie	-9.34085
skip	-9.34115
▁mann	-9.3417
blad	-9.34173
fører	-9.34184
▁unn	-9.34189
▁dam	-9.34304
▁skjer	-9.34324
ori	-9.34431
́	-9.34489
▁kulturminner	-9.34489
▁1989	-9.34489
▁dermed	-9.34562
øk	-9.34569
▁sw	-9.34589
foreningen	-9.34601
15	-9.34737
▁liten	-9.34771
søk	-9.34816
▁motto	-9.34925
▁miljø	-9.34957
▁camp	-9.34976
▁richard	-9.35038
▁sølv	-9.3504
plan	-9.35067
18	-9.35102
fu	-9.35151
king	-9.35163
pha	-9.35188
fal	-9.35192
ming	-9.35203
lighet	-9.35211
▁skrift	-9.35276
▁kilde	-9.3533
▁sten	-9.35375
drag	-9.35541
▁vä	-9.35574
č	-9.35579
▁nowiki	-9.35579
▁bakvingen	-9.3558
▁konge	-9.35592
aceae	-9.35608
can	-9.35614
▁geo	-9.35718
▁kin	-9.35728
▁historie	-9.35792
▁ana	-9.35818
▁dagen	-9.35824
ider	-9.35917
kraftverk	-9.35931
▁klubben	-9.3601
graf	-9.36061
▁høyeste	-9.36117
ē	-9.36128
▁olav	-9.36231
ith	-9.36457
▁pen	-9.36506
bane	-9.3655
tus	-9.36581
▁vit	-9.36614
▁ung	-9.36796
haug	-9.36812
80	-9.36888
▁dato	-9.36918
tun	-9.36922
▁komp	-9.36939
▁andreas	-9.36972
▁bio	-9.36982
able	-9.37046
▁31	-9.37089
▁prest	-9.37142
▁but	-9.37169
▁hin	-9.37216
▁lov	-9.37233
belteasteroide	-9.37236
▁samtidig	-9.37237
▁flo	-9.37275
▁star	-9.37306
▁lett	-9.37336
middel	-9.37494
▁nest	-9.37529
stor	-9.37556
▁lø	-9.37562
▁minne	-9.37601
▁rot	-9.37639
lø	-9.37656
manns	-9.37695
▁grad	-9.3776
pin	-9.3777
86	-9.37775
rich	-9.37786
▁international	-9.37795
▁lange	-9.37813
ial	-9.37833
føring	-9.37972
lær	-9.38127
az	-9.3815
▁får	-9.38258
▁long	-9.38281
▁anders	-9.38298
τ	-9.38356
strand	-9.38356
▁hår	-9.38375
▁2000	-9.38434
▁mont	-9.38437
й	-9.38466
nik	-9.38567
▁løv	-9.38575
asjonen	-9.3861
▁rock	-9.38647
▁arn	-9.38696
▁sund	-9.38793
▁fle	-9.38907
▁forenkle	-9.38947
parti	-9.39015
▁il	-9.39173
ann	-9.39214
▁bol	-9.39228
loven	-9.39231
cal	-9.39244
▁dø	-9.39283
▁gl	-9.39311
rud	-9.39316
▁180	-9.39316
vogn	-9.39412
▁hovedsakelig	-9.3949
▁bay	-9.39511
▁svær	-9.39533
las	-9.39537
gress	-9.39569
▁filmen	-9.39687
drift	-9.39713
elva	-9.39726
▁oc	-9.39876
▁zo	-9.39876
▁was	-9.39895
13	-9.39899
way	-9.39964
▁stjerne	-9.40005
▁comp	-9.40028
▁turn	-9.40037
gor	-9.40051
λ	-9.4006
▁bygg	-9.40119
of	-9.40119
▁ang	-9.40126
▁utenfor	-9.40174
tok	-9.40238
pur	-9.40251
ib	-9.40378
▁grense	-9.40397
yang	-9.40587
sjoner	-9.40632
▁kristian	-9.40675
hol	-9.40757
ez	-9.40785
▁gang	-9.40793
▁eli	-9.40815
oks	-9.40872
ien	-9.40932
▁rest	-9.40961
▁spor	-9.41167
▁gun	-9.41179
mand	-9.41179
▁ungdoms	-9.41189
gruppen	-9.41216
mod	-9.41269
▁fylke	-9.41318
▁slekten	-9.41446
▁nes	-9.41454
▁blit	-9.41457
▁gru	-9.41473
▁ep	-9.41482
skrift	-9.41513
cheng	-9.41556
▁vinter	-9.4156
▁versjon	-9.41572
▁blo	-9.41604
▁kunstner	-9.41652
resultat	-9.41899
▁kull	-9.41942
▁gla	-9.41977
vig	-9.42185
▁slag	-9.42206
ikere	-9.42208
fl	-9.42217
▁anna	-9.42227
full	-9.42231
ici	-9.42265
hin	-9.42274
oll	-9.4232
menn	-9.42321
▁kommunene	-9.42336
trafikk	-9.42347
▁tang	-9.42356
▁wat	-9.42411
nett	-9.4244
ima	-9.42508
aria	-9.42545
lad	-9.42555
▁arbeider	-9.42638
▁angel	-9.42656
løs	-9.42687
▁tilby	-9.42697
produksjon	-9.42768
▁virke	-9.42792
vatnet	-9.42799
▁char	-9.42812
ora	-9.42849
organ	-9.4285
▁kategori	-9.42969
nia	-9.43066
stru	-9.43183
part	-9.43254
▁først	-9.43255
dis	-9.43295
evne	-9.43309
inne	-9.43311
▁meter	-9.4332
ár	-9.43502
erende	-9.43505
vers	-9.43529
▁olje	-9.43608
▁glo	-9.43628
16	-9.43712
nic	-9.43769
▁gate	-9.43774
▁luc	-9.43917
uc	-9.43961
▁gor	-9.43973
maskin	-9.43975
distrikt	-9.43978
strøm	-9.43991
▁punkt	-9.44033
▁standard	-9.44158
▁tall	-9.44246
holm	-9.44255
▁syd	-9.44259
▁hansen	-9.44269
tha	-9.44279
▁tan	-9.44302
▁flat	-9.44357
▁albert	-9.44369
▁salt	-9.44455
nie	-9.44606
satte	-9.44613
▁type	-9.44735
ado	-9.44838
nummer	-9.44879
▁sangen	-9.44905
▁bror	-9.44915
▁elve	-9.44949
▁hon	-9.44964
▁176	-9.4499
▁40	-9.45101
▁island	-9.45114
▁ö	-9.45132
▁rob	-9.45165
▁juni	-9.45234
▁internasjonale	-9.45308
▁stav	-9.45321
▁has	-9.45355
κ	-9.45355
hund	-9.45363
bånd	-9.45369
▁holm	-9.45391
▁qua	-9.45424
bry	-9.45463
▁året	-9.45464
olo	-9.45474
ott	-9.45522
▁grøn	-9.45565
feld	-9.45604
▁din	-9.45616
▁hå	-9.45702
▁fugle	-9.4571
▁vokal	-9.4572
▁up	-9.45722
▁sku	-9.45832
her	-9.45882
▁bill	-9.45895
▁cy	-9.4593
san	-9.45951
grav	-9.45987
partiet	-9.45991
▁strøm	-9.46038
kter	-9.46133
▁bass	-9.46178
rup	-9.46217
▁part	-9.46266
▁tam	-9.46267
ence	-9.4627
vinger	-9.46332
▁grand	-9.46383
▁frukt	-9.46429
▁produsent	-9.46436
▁åtte	-9.46467
fjellet	-9.46489
▁nar	-9.46524
ε	-9.46571
ù	-9.46572
hel	-9.46598
▁høyre	-9.46635
▁len	-9.46744
▁jer	-9.46786
▁døde	-9.4685
blomst	-9.46902
ön	-9.46902
▁matt	-9.46952
▁modell	-9.46986
midler	-9.47076
▁menneske	-9.47121
kka	-9.47145
▁serie	-9.47149
14	-9.47149
▁off	-9.47151
ǎ	-9.47186
▁tredje	-9.47188
lon	-9.47196
▁teater	-9.47289
▁stemme	-9.47295
fjell	-9.47487
yan	-9.47552
aktig	-9.47572
zu	-9.47588
valg	-9.47624
▁stø	-9.4763
etter	-9.4768
і	-9.47803
▁bekrefte	-9.47838
▁mand	-9.47922
tegn	-9.47948
uf	-9.48007
mot	-9.48027
jel	-9.4805
ulf	-9.48102
yu	-9.48183
▁cre	-9.48298
last	-9.48313
▁esp	-9.48343
▁ask	-9.48368
▁pla	-9.48403
▁keiser	-9.48434
fest	-9.48452
▁2001	-9.48478
▁finans	-9.48518
▁enkelt	-9.48572
sser	-9.48608
lor	-9.48643
vare	-9.48711
▁rein	-9.48825
46	-9.48858
tom	-9.48954
ada	-9.48981
los	-9.48998
rig	-9.49013
▁80	-9.49054
▁old	-9.49085
forbundet	-9.49089
ain	-9.49092
▁samle	-9.49143
▁oppført	-9.49208
▁helge	-9.49288
▁mø	-9.4929
▁sho	-9.49315
▁fjern	-9.49319
com	-9.49374
▁ye	-9.49374
samling	-9.49402
formet	-9.49541
æl	-9.49556
spiller	-9.49615
▁louis	-9.49681
▁idretts	-9.49682
▁april	-9.49683
firma	-9.49697
▁dekk	-9.49718
▁basert	-9.49732
kontor	-9.49734
▁dyre	-9.49759
▁cent	-9.49785
▁eid	-9.49799
øn	-9.49835
forbindelse	-9.49898
▁inge	-9.49932
istisk	-9.49983
▁nevnes	-9.49986
hen	-9.50029
▁wen	-9.50117
øst	-9.50178
▁kraft	-9.50291
▁etablert	-9.50311
kamp	-9.50313
▁national	-9.50314
▁tilbake	-9.50324
ffer	-9.504
▁stan	-9.50412
▁tap	-9.50536
▁startet	-9.50588
ball	-9.50806
▁borg	-9.50883
▁fredrik	-9.5091
▁177	-9.50928
ž	-9.50948
▁italiensk	-9.50948
deling	-9.50977
▁harald	-9.51
▁yo	-9.51001
kro	-9.51032
▁с	-9.51034
▁qui	-9.51057
field	-9.51064
▁bort	-9.51156
▁vind	-9.51197
▁samarbeid	-9.51228
▁dj	-9.51239
▁lege	-9.51266
▁kode	-9.5128
skij	-9.51406
▁ara	-9.51489
▁styrke	-9.51563
cl	-9.51577
▁venn	-9.51601
▁bla	-9.51692
24	-9.5171
band	-9.51774
▁prosjekt	-9.51798
▁hem	-9.51811
▁partiet	-9.51836
▁foss	-9.51857
ativ	-9.51897
osa	-9.519
ringen	-9.51901
▁hånd	-9.51976
mper	-9.52039
▁fro	-9.52044
▁maur	-9.52082
bank	-9.5209
ins	-9.52125
kla	-9.52187
▁løper	-9.52187
▁wilhelm	-9.52234
▁omkring	-9.52236
tek	-9.52249
▁vå	-9.5226
ич	-9.5226
museet	-9.52294
kast	-9.52307
cho	-9.52377
▁kalte	-9.52433
gående	-9.5245
▁rh	-9.52479
▁villa	-9.52541
▁antall	-9.52592
▁ordet	-9.52639
▁vinge	-9.52678
▁smal	-9.52684
▁horn	-9.52729
▁32	-9.52737
skapet	-9.52759
ß	-9.52859
▁sverige	-9.52885
ín	-9.52915
▁daniel	-9.52984
lek	-9.5301
gy	-9.53037
røy	-9.53116
▁left	-9.53126
cio	-9.5334
følge	-9.53405
▁politisk	-9.53501
з	-9.53501
▁tegn	-9.5351
ă	-9.53537
▁gunnar	-9.53541
▁såkalt	-9.53541
▁krist	-9.53582
▁hjerte	-9.53598
sette	-9.53602
war	-9.53606
poli	-9.53636
ical	-9.53671
ick	-9.53698
skjold	-9.53723
▁dun	-9.53734
▁roll	-9.53774
▁dor	-9.53778
▁rik	-9.53834
▁que	-9.5384
▁kul	-9.53899
▁større	-9.54006
arm	-9.5404
▁tha	-9.5409
ringer	-9.54111
▁lær	-9.54172
lid	-9.54177
iner	-9.54196
shan	-9.54243
▁tim	-9.54243
medalje	-9.54257
▁riksvei	-9.5429
cul	-9.54292
▁forut	-9.54373
stikk	-9.54392
▁tallet	-9.54465
▁olsen	-9.54523
ān	-9.54712
▁cra	-9.54811
temperatur	-9.54857
▁privat	-9.54876
hand	-9.54934
▁larvene	-9.54994
▁bandet	-9.55111
▁kjell	-9.55201
▁mah	-9.55218
▁skuespiller	-9.5538
▁sted	-9.55434
yo	-9.55491
kraft	-9.55531
▁isbn	-9.55535
▁2012	-9.5555
una	-9.55626
70	-9.55693
▁epi	-9.5584
▁from	-9.55864
▁sett	-9.55905
▁aktiv	-9.55955
▁artist	-9.56
under	-9.56069
▁have	-9.56073
▁spi	-9.5608
bladet	-9.56231
▁charles	-9.56236
▁regn	-9.56289
jiang	-9.56293
ping	-9.56379
▁anton	-9.56501
▁gård	-9.56562
ique	-9.56572
▁monte	-9.56715
▁tun	-9.56723
stå	-9.56774
▁sosial	-9.56807
▁70	-9.5681
σ	-9.5687
konkurranse	-9.56871
▁160	-9.56922
▁black	-9.56979
stående	-9.56993
▁vid	-9.57043
▁verdi	-9.57051
▁bærer	-9.57076
ello	-9.57078
ary	-9.57147
▁vor	-9.5717
▁hovedrollene	-9.57202
▁ken	-9.57318
ра	-9.57471
▁35	-9.57473
sjonen	-9.57474
aya	-9.57582
▁hører	-9.57604
pel	-9.57704
wer	-9.57762
▁king	-9.57854
▁flor	-9.57876
▁may	-9.57886
alder	-9.57959
grense	-9.58003
▁hit	-9.58057
▁elv	-9.58095
▁inc	-9.58137
▁ordenen	-9.58147
▁original	-9.58236
▁175	-9.58269
▁bern	-9.58281
lings	-9.5836
▁polsk	-9.58361
fang	-9.58498
spor	-9.58514
▁thi	-9.58579
▁einar	-9.58596
▁sko	-9.58602
▁vanlig	-9.5861
▁finland	-9.58751
22	-9.58753
debut	-9.58802
lic	-9.58861
▁november	-9.58926
▁slike	-9.59002
stol	-9.59003
grupper	-9.59005
▁time	-9.59057
havet	-9.59058
▁bolig	-9.59068
▁rus	-9.59156
søn	-9.59262
korps	-9.59291
gitt	-9.59433
dahl	-9.59464
foss	-9.59482
nom	-9.59555
▁tilhørt	-9.59621
▁albumet	-9.59656
utdanning	-9.59662
hua	-9.59671
▁utgi	-9.59704
vid	-9.59708
▁fyr	-9.59727
▁ev	-9.59729
ikken	-9.5973
▁kas	-9.59788
▁neu	-9.59846
б	-9.59851
plassen	-9.59879
▁mørk	-9.59938
▁helt	-9.60035
01	-9.60132
forbund	-9.60171
▁beskrive	-9.60297
gården	-9.60329
▁155	-9.60341
▁benytte	-9.60344
▁his	-9.60445
▁gua	-9.60484
▁rei	-9.60507
vent	-9.60569
▁johann	-9.60616
bakk	-9.60668
hard	-9.60674
▁tidlig	-9.60808
▁berlin	-9.60857
▁bud	-9.6093
▁kost	-9.60985
▁ris	-9.6101
▁linje	-9.61078
▁kap	-9.61085
▁sir	-9.61098
▁hed	-9.61144
▁50	-9.61198
gro	-9.61239
ville	-9.61293
bit	-9.61315
høy	-9.61368
▁sim	-9.61376
grunn	-9.61417
▁franc	-9.61434
▁album	-9.61455
fot	-9.61484
▁ran	-9.61489
spir	-9.61534
â	-9.61541
perioden	-9.6155
▁pap	-9.61575
liste	-9.61612
▁kil	-9.61615
▁plass	-9.61725
ë	-9.61733
▁eiendom	-9.61748
▁design	-9.61763
▁lea	-9.61772
rang	-9.61789
▁2003	-9.61795
▁medlemmer	-9.61802
▁por	-9.61865
▁russland	-9.61923
ille	-9.61968
▁sogn	-9.61998
ato	-9.62118
liga	-9.62147
cell	-9.62206
▁gil	-9.62278
▁elva	-9.62344
▁øya	-9.62374
▁jim	-9.62419
ò	-9.62447
▁oktober	-9.62447
▁river	-9.62497
▁finsk	-9.62588
▁mir	-9.62665
felt	-9.62666
spekt	-9.62703
▁real	-9.62762
▁jern	-9.62783
øyene	-9.62866
holmen	-9.62915
iller	-9.62955
svik	-9.63015
▁sven	-9.63046
▁spesielt	-9.63167
eks	-9.63171
enberg	-9.63172
▁pris	-9.63176
motor	-9.63209
fabrikk	-9.63294
▁andersen	-9.63336
▁gau	-9.63338
▁sti	-9.63367
ila	-9.6347
▁byer	-9.63471
ür	-9.63478
▁transport	-9.63533
▁klo	-9.63578
sport	-9.63592
▁brukt	-9.63675
▁informasjon	-9.63715
▁bilde	-9.63734
▁ec	-9.63736
▁nytt	-9.63779
▁typisk	-9.639
teknologi	-9.63901
▁egentlig	-9.63915
▁normal	-9.63954
▁forsknings	-9.63985
gra	-9.64057
rådet	-9.64114
▁serien	-9.64126
▁museum	-9.64161
industri	-9.64224
▁out	-9.64227
▁metall	-9.64231
▁multi	-9.64305
anda	-9.64317
bakken	-9.64322
▁grunnlegge	-9.64336
▁wu	-9.64339
uru	-9.64364
▁netto	-9.64452
▁mye	-9.64498
jord	-9.64511
▁hjelp	-9.64532
▁jacob	-9.64551
departementet	-9.64621
ström	-9.64622
ili	-9.6463
▁osv	-9.64665
unk	-9.64715
▁japan	-9.6476
▁våpen	-9.6479
cker	-9.64797
oth	-9.64839
▁utgitt	-9.64852
▁zi	-9.64854
pet	-9.64879
▁nummer	-9.64919
vald	-9.64933
▁temp	-9.64967
▁då	-9.65003
▁north	-9.65029
▁brukte	-9.65063
rev	-9.65064
▁bind	-9.65071
mit	-9.65138
▁hj	-9.65154
▁tyskland	-9.65215
lich	-9.65291
▁univers	-9.65347
▁september	-9.65356
▁test	-9.65379
▁canada	-9.65389
▁rund	-9.65397
▁gjeld	-9.65405
stø	-9.65539
ander	-9.65582
lect	-9.65602
▁eneste	-9.65611
året	-9.65631
dige	-9.65662
▁mulig	-9.65768
▁selskap	-9.65776
▁fylkes	-9.65793
▁folk	-9.65796
▁sag	-9.65839
ough	-9.65862
▁rå	-9.65879
sha	-9.65907
sang	-9.65925
▁hjemme	-9.65957
vir	-9.66022
▁arten	-9.66046
▁igjen	-9.66106
▁ann	-9.66128
bein	-9.66135
▁gje	-9.66153
▁klar	-9.66153
▁brann	-9.66186
▁nev	-9.66224
win	-9.66248
▁krigs	-9.66252
▁ledet	-9.66331
formen	-9.66394
▁iso	-9.66407
▁avis	-9.66465
hei	-9.66551
▁ref	-9.66673
▁hær	-9.66698
gue	-9.66735
anske	-9.66745
▁larven	-9.66761
▁effekt	-9.6683
▁autonom	-9.66857
▁universitet	-9.66874
▁lek	-9.66892
▁skj	-9.66908
parken	-9.66908
klubben	-9.66954
▁tin	-9.66996
ante	-9.67101
ål	-9.67169
▁sjef	-9.67246
▁gard	-9.67258
kommune	-9.67267
bach	-9.67289
hed	-9.67316
skudd	-9.67344
gua	-9.67598
wan	-9.67606
▁elev	-9.67626
▁landsforening	-9.67638
▁36	-9.67706
▁bat	-9.67743
▁erstatte	-9.67744
ан	-9.67795
▁handels	-9.67868
▁skips	-9.67889
▁mikro	-9.6789
▁staten	-9.67915
▁song	-9.67921
▁hard	-9.67932
tyr	-9.67937
yuan	-9.67937
▁stasjon	-9.68008
▁mørke	-9.68037
▁uk	-9.6806
produkter	-9.68066
▁få	-9.68093
atet	-9.68171
▁who	-9.68223
▁elektro	-9.68345
hjul	-9.68347
▁lib	-9.68351
hode	-9.68356
park	-9.68389
aksjon	-9.68437
lli	-9.6844
▁kontroll	-9.68566
språk	-9.68668
gard	-9.68725
▁jen	-9.68761
kri	-9.68836
▁hest	-9.68881
▁150	-9.6898
▁press	-9.69026
lé	-9.69047
▁sab	-9.69057
orm	-9.69097
▁2016	-9.69143
dorf	-9.69143
▁ts	-9.69259
hof	-9.6931
▁felt	-9.694
utgivelse	-9.69416
ensis	-9.69436
▁regionen	-9.69441
gal	-9.69466
▁bir	-9.69501
▁jø	-9.69518
butikk	-9.69521
ç	-9.69533
▁glass	-9.69564
museum	-9.69616
dels	-9.69618
hai	-9.6966
▁æ	-9.69672
▁kropp	-9.69761
ст	-9.69811
nske	-9.69834
▁try	-9.69837
skolen	-9.69912
▁landsbyen	-9.69918
well	-9.69966
▁ves	-9.7002
▁156	-9.70042
▁tittel	-9.70083
▁bygge	-9.70131
cus	-9.70146
ios	-9.70179
trekk	-9.70195
▁kraftig	-9.70254
▁trykk	-9.70276
▁60	-9.70298
line	-9.70352
▁gui	-9.70582
kop	-9.70604
▁leir	-9.70621
▁seil	-9.70637
▁blue	-9.70716
▁internasjonal	-9.70723
eier	-9.70742
mos	-9.70765
▁mobil	-9.70821
ев	-9.70837
▁henry	-9.70848
▁fj	-9.7085
ekte	-9.70909
▁gass	-9.70927
▁jar	-9.70999
▁spar	-9.71002
eira	-9.71128
bul	-9.71208
▁res	-9.71217
▁cer	-9.71251
vor	-9.7128
▁gansk	-9.71353
▁sort	-9.71357
seth	-9.71409
▁begynte	-9.71442
▁foreldre	-9.71445
▁club	-9.71466
▁2013	-9.71468
handel	-9.71508
▁offisiell	-9.71562
▁paa	-9.71587
▁råd	-9.71593
▁vekt	-9.71626
medisin	-9.71776
▁hud	-9.71807
kes	-9.71838
gruppe	-9.71843
col	-9.71851
▁søster	-9.71885
▁kjø	-9.71951
▁sanger	-9.71967
▁oliv	-9.72051
gli	-9.72053
▁love	-9.72106
▁kara	-9.72116
▁nasjonale	-9.72129
▁sykl	-9.72139
ч	-9.72197
demokrat	-9.72215
skytter	-9.72249
basert	-9.72433
stedet	-9.72464
▁lan	-9.72467
plasser	-9.72494
fold	-9.72558
unt	-9.72562
▁log	-9.72736
▁leg	-9.7277
iano	-9.72774
▁trekk	-9.72889
▁én	-9.72906
▁mm	-9.72952
handler	-9.72966
▁varme	-9.73
kanalen	-9.73014
ê	-9.73023
ô	-9.73023
▁desember	-9.73023
ě	-9.73023
▁ukrainsk	-9.73023
▁service	-9.73023
typen	-9.73032
▁felles	-9.73047
▁style	-9.73049
▁kj	-9.73064
folk	-9.7309
▁endre	-9.73108
vekst	-9.73116
▁snø	-9.73126
▁33	-9.73213
▁kjerne	-9.73229
▁170	-9.73317
gram	-9.73319
▁barb	-9.73372
die	-9.73392
▁mono	-9.73429
▁nø	-9.73449
▁jam	-9.73458
▁oh	-9.73541
▁mit	-9.73549
onia	-9.73582
▁natt	-9.73611
▁hjem	-9.73679
medlem	-9.73703
ко	-9.73706
brudd	-9.7371
▁stig	-9.73773
▁betydning	-9.73808
rit	-9.7383
messig	-9.73832
liggende	-9.73832
▁magnus	-9.73834
bøker	-9.73857
litt	-9.73875
▁sju	-9.74141
formede	-9.74158
▁årlig	-9.7424
▁vill	-9.74248
▁kha	-9.74271
ua	-9.74297
row	-9.74364
våpen	-9.74467
blom	-9.74501
wald	-9.74516
områdene	-9.74621
▁178	-9.74657
tjeneste	-9.7472
▁rep	-9.74802
▁fol	-9.74836
fond	-9.74891
musikk	-9.74919
saker	-9.74922
ona	-9.74999
▁sentrum	-9.75017
▁regnes	-9.75165
▁rosen	-9.75193
▁utviklet	-9.75212
gne	-9.7522
gikk	-9.75224
▁arbeidet	-9.75295
▁pun	-9.75297
▁larsen	-9.75315
▁ita	-9.7539
ritt	-9.75398
▁institut	-9.75449
▁stri	-9.75461
▁kloster	-9.75505
▁nabo	-9.75507
▁luk	-9.75509
▁1990	-9.75513
skriv	-9.75534
awa	-9.75562
bilde	-9.75569
bare	-9.7557
rød	-9.75615
▁steve	-9.75648
▁alpin	-9.75661
havn	-9.75663
▁city	-9.75722
vat	-9.75761
feltet	-9.75898
▁petter	-9.75918
▁hum	-9.75971
▁egne	-9.76013
▁kristin	-9.76106
▁74	-9.76118
klo	-9.76123
bet	-9.76146
avdeling	-9.7619
▁bis	-9.76233
zar	-9.76235
▁aust	-9.76239
ś	-9.76262
▁delstaten	-9.76264
▁dahl	-9.7629
arafa	-9.7631
kjede	-9.76322
▁vær	-9.76361
teori	-9.76368
bal	-9.76379
▁johansen	-9.76393
snegl	-9.76511
▁165	-9.76592
mil	-9.76636
▁od	-9.76684
forsker	-9.76753
▁kors	-9.76802
stykke	-9.7684
▁kim	-9.76842
▁01	-9.76869
▁rand	-9.76892
nan	-9.76926
▁gjorde	-9.76931
▁munn	-9.77036
kort	-9.77039
▁pop	-9.7705
posisjon	-9.77106
▁в	-9.77112
▁cle	-9.77112
▁bestod	-9.77126
▁hul	-9.77219
▁aas	-9.77224
▁gjer	-9.77296
▁frø	-9.77319
▁bille	-9.77329
▁led	-9.7736
tempelet	-9.77363
arten	-9.77379
ismen	-9.7738
åsen	-9.77381
ã	-9.77397
▁maskin	-9.77457
▁stedet	-9.77498
ous	-9.77514
rekord	-9.77609
▁bob	-9.77648
▁emil	-9.77678
▁162	-9.77683
▁82	-9.77701
elv	-9.77749
▁godt	-9.7793
▁mart	-9.77932
▁opplags	-9.77941
▁trondheim	-9.77942
▁whit	-9.7797
brun	-9.78039
▁moderne	-9.78065
▁patri	-9.78085
▁hatt	-9.78125
ordenen	-9.78133
▁saa	-9.78191
▁eva	-9.78223
▁sav	-9.78237
▁henrik	-9.78298
▁bety	-9.78571
▁marg	-9.78607
kreft	-9.78628
▁dommer	-9.78733
medaljen	-9.7875
ς	-9.78753
teknikk	-9.78767
▁oppkalt	-9.78768
▁2014	-9.78788
gin	-9.78791
▁group	-9.78798
iebedriften	-9.78805
mul	-9.7881
▁drive	-9.78861
ł	-9.78914
istiske	-9.78919
▁lærer	-9.78927
slekten	-9.78934
▁mester	-9.78978
▁shan	-9.79006
arbeider	-9.79007
stille	-9.79063
▁rad	-9.79129
▁hage	-9.79306
▁middel	-9.79357
▁hil	-9.79391
lend	-9.7949
▁noe	-9.79501
▁still	-9.79531
▁ordens	-9.79592
▁varaordfører	-9.7961
▁169	-9.79684
hor	-9.7982
▁34	-9.7984
▁boken	-9.79889
▁az	-9.79932
▁lite	-9.80002
delen	-9.8001
▁ah	-9.8014
▁løp	-9.80168
head	-9.80179
▁б	-9.80181
▁hov	-9.80199
cz	-9.80244
▁dol	-9.80253
▁lam	-9.80258
▁flu	-9.80299
orum	-9.80336
▁funksjon	-9.80365
▁marine	-9.80391
▁prop	-9.80457
skilt	-9.80459
ñ	-9.80464
▁shanghai	-9.80464
▁utdype	-9.80467
▁energy	-9.80476
▁joseph	-9.8048
▁till	-9.80499
▁qi	-9.80529
▁pala	-9.80538
hem	-9.8054
▁45	-9.80542
▁måtte	-9.80549
▁otto	-9.80579
skipet	-9.80628
▁politiker	-9.80655
▁reise	-9.80757
▁indisk	-9.80773
tag	-9.8079
▁153	-9.80795
trær	-9.80868
▁ever	-9.80912
▁omfattet	-9.80948
fla	-9.80986
flue	-9.80989
▁aur	-9.80993
▁tjeneste	-9.80994
forhold	-9.81027
krig	-9.8105
eller	-9.81081
▁produkt	-9.81145
▁ud	-9.81192
ional	-9.81296
hallen	-9.81302
▁rektor	-9.81355
▁varierer	-9.81372
▁utvikling	-9.81427
▁annen	-9.81501
▁russ	-9.81544
▁eldre	-9.81577
▁right	-9.81589
▁this	-9.81597
▁meta	-9.81605
▁42	-9.81653
▁mig	-9.8166
bell	-9.81696
▁daglig	-9.8172
▁skje	-9.81729
▁rask	-9.81733
prisen	-9.81803
ledning	-9.81861
▁torg	-9.81887
▁hopp	-9.81956
maleri	-9.81959
▁svarte	-9.81978
▁buk	-9.81988
▁tai	-9.82037
▁enkelte	-9.8208
ii	-9.82167
▁direktør	-9.8218
▁drama	-9.82181
π	-9.82195
х	-9.82196
▁naturgass	-9.82196
▁middelsstor	-9.82197
▁1999	-9.82198
hild	-9.82203
▁2015	-9.82227
▁spiss	-9.82231
45	-9.82284
▁trommer	-9.82323
horn	-9.82409
løsning	-9.82425
▁mid	-9.82443
▁fat	-9.82451
merket	-9.82453
programmet	-9.8251
▁ganger	-9.82525
virke	-9.82588
▁kro	-9.82612
▁syl	-9.82631
▁stasjonen	-9.82663
▁drift	-9.82667
kirke	-9.82668
▁bach	-9.82691
mond	-9.82734
sjø	-9.82825
▁rygg	-9.82852
driv	-9.82911
forskning	-9.8302
▁direkte	-9.83075
▁inngår	-9.83076
▁bryst	-9.83082
▁tung	-9.831
ál	-9.83116
▁studert	-9.83125
▁antonio	-9.8315
▁hill	-9.83157
▁97	-9.83259
▁innsjøen	-9.83289
▁ett	-9.83301
▁high	-9.83356
qi	-9.8336
spinner	-9.8366
▁ross	-9.8377
gir	-9.83873
▁rec	-9.83906
▁marie	-9.83926
▁offentlig	-9.83959
▁rolf	-9.83969
ingeniør	-9.83972
kjøp	-9.84099
næs	-9.8412
▁hou	-9.84207
▁brenn	-9.84388
▁bin	-9.84484
▁52	-9.8452
▁kok	-9.84533
▁brand	-9.84572
▁ric	-9.84577
▁stort	-9.84588
▁simon	-9.84603
▁stopp	-9.84615
▁mei	-9.84657
▁flyplass	-9.84758
oksid	-9.84812
▁kinesiske	-9.84829
▁digital	-9.84853
▁deutsch	-9.84853
▁bokstav	-9.84853
▁øverst	-9.84856
▁blomster	-9.84862
▁south	-9.84877
▁2017	-9.84882
▁utgav	-9.84904
▁æres	-9.84918
funksjon	-9.84956
▁jobb	-9.85024
kus	-9.85195
styrke	-9.85259
town	-9.85283
▁india	-9.853
▁buss	-9.8533
▁rang	-9.85347
barn	-9.85426
ån	-9.85472
▁164	-9.85486
▁music	-9.85522
▁troll	-9.85568
metri	-9.85575
▁sær	-9.8561
▁typer	-9.85677
▁ola	-9.85695
planter	-9.85716
▁1994	-9.85753
tjenester	-9.85889
▁funn	-9.85929
▁kai	-9.85949
▁harry	-9.86009
cca	-9.86045
stjerne	-9.86045
varer	-9.8612
▁arg	-9.862
chu	-9.86216
▁nilsen	-9.8627
▁edderkopp	-9.8632
sats	-9.86344
▁verden	-9.86358
▁tib	-9.86398
topp	-9.86415
▁feil	-9.86479
finne	-9.86483
▁sar	-9.86514
syke	-9.86545
▁rør	-9.86561
ito	-9.86569
▁dyp	-9.8657
▁los	-9.86614
vá	-9.86671
▁figur	-9.86699
▁personlig	-9.86724
▁fry	-9.86814
▁hö	-9.86826
bol	-9.86847
▁indre	-9.86851
▁tverr	-9.86887
▁palm	-9.86888
▁akt	-9.86954
▁rose	-9.86961
fart	-9.87008
▁tildelt	-9.87012
▁morten	-9.87019
▁prof	-9.87089
▁kart	-9.87105
kamera	-9.8711
▁klokke	-9.87172
utdannet	-9.87224
væ	-9.87244
▁syv	-9.87265
▁cru	-9.87293
▁ull	-9.87323
▁havne	-9.87342
ы	-9.87375
▁vanlige	-9.87422
huang	-9.87451
metode	-9.8746
▁eget	-9.87492
▁pil	-9.87523
stig	-9.87567
▁litteratur	-9.87577
▁university	-9.87591
lege	-9.8766
▁aldri	-9.87718
▁bygget	-9.87725
▁landskap	-9.87779
▁forlag	-9.8778
later	-9.87783
gjorde	-9.87788
▁kru	-9.87788
▁stammer	-9.87868
▁furu	-9.88036
olje	-9.88139
former	-9.88248
zon	-9.88436
fyll	-9.88472
▁stockholm	-9.88504
▁inneholdt	-9.88505
ington	-9.88523
▁smith	-9.88531
klar	-9.88532
▁konst	-9.88549
▁knytte	-9.88571
▁samfunns	-9.88605
▁aar	-9.88613
▁bou	-9.88704
produsent	-9.88713
▁back	-9.88737
▁brit	-9.88754
▁bøk	-9.88767
▁prim	-9.88801
hui	-9.88811
uz	-9.88875
▁arve	-9.88944
▁skade	-9.89057
istene	-9.89096
▁hannen	-9.89102
▁instrument	-9.89223
▁sterk	-9.89285
insk	-9.89355
fre	-9.89393
▁sports	-9.89404
element	-9.89417
▁provins	-9.89422
sekretær	-9.89427
vision	-9.89439
▁1996	-9.8944
▁nikola	-9.89458
▁kongen	-9.8946
▁sykdom	-9.89496
▁tema	-9.89582
▁hä	-9.89589
▁sun	-9.89596
samlingen	-9.89604
▁lenge	-9.89616
bak	-9.89618
▁pic	-9.89655
roll	-9.89677
linjen	-9.89688
løpet	-9.89691
▁lære	-9.89715
kultur	-9.89747
representant	-9.8977
▁fon	-9.89831
olu	-9.89837
▁professor	-9.89853
▁mitt	-9.89861
▁chris	-9.89947
botn	-9.89987
krigen	-9.90059
person	-9.90074
mur	-9.90115
▁kno	-9.90159
▁jack	-9.90179
▁plate	-9.9031
▁base	-9.90335
▁vinner	-9.9035
▁roger	-9.90354
▁idrettslag	-9.9038
▁dronning	-9.90388
▁tolkien	-9.90394
▁klima	-9.90436
▁fir	-9.90442
ór	-9.90496
▁trener	-9.90524
▁phil	-9.90531
ро	-9.90561
▁nesten	-9.90567
▁underlagt	-9.90633
▁klasse	-9.90634
▁grunnla	-9.90665
▁gö	-9.90739
▁even	-9.90744
▁tettsted	-9.90759
▁lengde	-9.9076
▁trond	-9.90773
▁prosess	-9.90842
politikk	-9.90883
▁chang	-9.90894
sept	-9.91103
▁wall	-9.91135
▁betegne	-9.91148
karriere	-9.91218
▁rute	-9.91266
▁tabellen	-9.91342
▁orkester	-9.91394
▁75	-9.9142
jon	-9.91462
▁green	-9.91479
▁primær	-9.91488
▁antenne	-9.91507
ux	-9.91612
▁live	-9.91621
▁samling	-9.91627
forsvar	-9.9165
▁turist	-9.91723
▁sideelv	-9.91755
▁jesu	-9.91783
vari	-9.9184
▁ark	-9.91863
▁delta	-9.9188
▁hva	-9.91984
▁bonde	-9.91997
▁best	-9.92068
▁formel	-9.92096
oppgave	-9.92132
▁there	-9.9215
▁fører	-9.92158
sey	-9.92224
▁sea	-9.92224
▁37	-9.92283
▁thu	-9.92284
kandidat	-9.92304
▁fjær	-9.92315
▁total	-9.92328
▁filip	-9.92381
▁tett	-9.92416
▁svi	-9.9247
▁ray	-9.92473
prøve	-9.92513
▁skriver	-9.92523
størrelse	-9.9258
historie	-9.92617
rap	-9.92636
pass	-9.92681
▁had	-9.92721
▁arbeid	-9.92737
▁disk	-9.92756
▁conc	-9.9279
▁gold	-9.92803
▁verne	-9.92806
▁fest	-9.92812
▁ledes	-9.92828
vekt	-9.9284
▁rune	-9.92848
▁geir	-9.92868
zhi	-9.92898
▁adam	-9.92908
▁bjør	-9.92954
▁90	-9.92974
39	-9.92988
▁act	-9.93017
ор	-9.93098
▁tyske	-9.93128
lapp	-9.93165
sjö	-9.93203
folket	-9.93268
▁provinshovedsta	-9.93273
utøver	-9.93304
▁bølge	-9.93335
▁grunnlagt	-9.93339
▁foto	-9.9339
▁chu	-9.93396
▁für	-9.93425
▁sivil	-9.93438
▁är	-9.93608
▁inntil	-9.93626
ар	-9.93639
ва	-9.93678
▁single	-9.93741
▁tank	-9.93821
▁virksomhet	-9.93822
▁spansk	-9.9385
▁forkorte	-9.93876
▁line	-9.9409
▁beg	-9.94098
▁emb	-9.94222
▁vent	-9.94222
▁oversatt	-9.94244
advokat	-9.94248
▁øvre	-9.94265
▁dong	-9.94297
▁pedersen	-9.94308
ка	-9.94315
▁slo	-9.94336
vinner	-9.9434
▁jazz	-9.94365
▁ple	-9.94371
cent	-9.94384
▁stål	-9.94415
▁kirken	-9.94428
▁historisk	-9.94448
haugen	-9.9446
▁ferdig	-9.94483
taler	-9.94542
innen	-9.94544
ла	-9.94667
▁befolkning	-9.94715
▁ey	-9.9475
▁benyttes	-9.94769
▁lim	-9.94778
▁rem	-9.9482
▁cel	-9.94856
▁pul	-9.94892
▁grev	-9.95015
▁п	-9.95073
▁utvide	-9.95076
▁forsvars	-9.95109
▁santa	-9.9513
▁kalk	-9.9514
▁spin	-9.95168
pri	-9.9517
▁britisk	-9.95171
dagen	-9.95208
▁administrere	-9.95238
myndighet	-9.95238
dannelse	-9.95239
▁1992	-9.95239
▁totalt	-9.95243
gjort	-9.95248
▁tydelig	-9.95257
▁bronse	-9.95258
lingen	-9.95266
▁ordfører	-9.95269
▁møtte	-9.95281
▁svein	-9.95284
▁avdeling	-9.95296
forskjell	-9.95303
▁pettersen	-9.95315
▁kjær	-9.95332
▁italia	-9.95369
▁64	-9.95414
▁alb	-9.95467
▁kroppen	-9.95556
betegnelse	-9.95631
▁musiker	-9.95664
▁borger	-9.9571
▁deler	-9.95718
▁146	-9.95725
▁mala	-9.95746
møte	-9.9575
amin	-9.95885
▁steder	-9.95966
▁motta	-9.96004
løst	-9.96195
ș	-9.96238
▁fulgte	-9.96238
▁tilsvarende	-9.96238
▁nærmest	-9.96245
▁familiegruppen	-9.96253
katt	-9.96293
▁passerer	-9.96297
utstilling	-9.96309
bridge	-9.96311
▁nordøst	-9.96333
zj	-9.9638
▁dur	-9.9643
steder	-9.96448
▁behandling	-9.96488
gri	-9.96493
▁nova	-9.96558
▁bit	-9.96643
virksomhet	-9.96674
lokk	-9.96696
▁symbol	-9.96735
▁nåvære	-9.96758
på	-9.96763
▁fett	-9.96775
vang	-9.96782
▁one	-9.96786
▁marit	-9.96825
▁ari	-9.96835
▁israel	-9.96912
▁tit	-9.9695
sler	-9.96964
align	-9.96984
▁xu	-9.97011
▁byene	-9.97156
ль	-9.97212
▁tilhøre	-9.97231
▁sigurd	-9.9725
▁1988	-9.9725
▁episode	-9.97251
▁london	-9.97251
tunnelen	-9.97256
▁kjøpte	-9.97259
rapport	-9.97264
▁text	-9.97283
▁lokale	-9.97296
▁angrep	-9.97321
iva	-9.97321
pil	-9.97322
erud	-9.97351
▁forsvar	-9.97376
▁markeds	-9.97385
▁boy	-9.97403
spis	-9.97509
▁hir	-9.97617
rygg	-9.97651
▁168	-9.97778
▁union	-9.97804
▁dog	-9.97814
▁tog	-9.97864
▁livs	-9.97867
▁148	-9.97934
▁egil	-9.98084
▁157	-9.98143
▁sentrale	-9.98171
▁nrk	-9.98243
hunder	-9.98267
η	-9.98268
▁alternativ	-9.98268
▁1991	-9.98269
▁1993	-9.98269
▁term	-9.98286
▁referere	-9.98289
▁festival	-9.98351
▁dokument	-9.98357
▁tann	-9.98394
▁hjerne	-9.98406
▁høyt	-9.98449
▁our	-9.98468
srud	-9.98472
iya	-9.98531
▁retts	-9.98535
bart	-9.9855
komst	-9.98609
▁fylket	-9.9862
▁bomb	-9.98699
tilstand	-9.98713
verdig	-9.98778
▁wood	-9.98779
▁00	-9.98816
▁høyde	-9.98818
▁152	-9.98852
▁front	-9.98859
▁pont	-9.98894
▁veien	-9.98935
▁wil	-9.99033
▁øye	-9.99047
▁olavs	-9.99056
▁sunn	-9.99109
værende	-9.99172
▁voks	-9.99211
▁henne	-9.9925
▁konsert	-9.99278
vitenskap	-9.99296
friidrettsutøver	-9.99299
▁øvrig	-9.99299
▁styrmann	-9.99299
▁video	-9.99308
▁ron	-9.99315
kirken	-9.99356
▁anlegget	-9.99356
▁163	-9.99438
▁bai	-9.99463
▁kari	-9.99471
▁krysser	-9.99591
▁fv	-9.99647
▁server	-9.99704
bygging	-9.99726
▁ville	-9.99792
mmel	-9.99848
▁ner	-9.99877
▁danse	-9.99888
▁clo	-9.99892
▁lot	-9.99894
▁svar	-9.99913
deles	-9.99965
ер	-10.0009
▁55	-10.0014
▁rod	-10.0029
vakt	-10.0034
▁alf	-10.0034
▁administrativ	-10.0034
▁prefektur	-10.0034
▁1998	-10.0034
▁vold	-10.0035
▁andré	-10.0036
▁dverg	-10.0037
▁lyst	-10.0041
▁føde	-10.0043
▁tel	-10.0045
soldat	-10.0049
▁stod	-10.0061
▁hjemmeside	-10.0061
▁selve	-10.0062
▁fot	-10.0074
kurs	-10.009
▁kommunikasjon	-10.0092
▁dobbelt	-10.0109
▁gjeste	-10.0123
▁spp	-10.0125
ative	-10.0126
▁39	-10.0127
▁org	-10.0127
fjellene	-10.0128
▁500	-10.0133
▁м	-10.0138
ί	-10.0139
▁tilknyttet	-10.0139
▁jakob	-10.014
▁school	-10.014
▁middelalder	-10.014
▁sverre	-10.0142
▁himmel	-10.0143
ь	-10.0143
▁bag	-10.0143
▁oscar	-10.0145
▁danmark	-10.0145
▁rat	-10.0146
▁saint	-10.0154
▁fan	-10.0159
▁sæ	-10.016
▁produsert	-10.0161
▁produksjons	-10.0169
▁arc	-10.0172
āng	-10.0176
▁verd	-10.018
▁michel	-10.0181
▁run	-10.0191
misjon	-10.0203
stone	-10.0204
vall	-10.0207
nøtt	-10.0215
▁38	-10.0218
▁þ	-10.0223
atus	-10.023
▁ube	-10.0231
▁sit	-10.0232
samfunn	-10.0234
byrå	-10.0236
riket	-10.0238
▁bydelen	-10.0244
▁uavhengig	-10.0246
ц	-10.0246
▁friedrich	-10.0246
▁1987	-10.0246
▁records	-10.0246
▁gustav	-10.0246
format	-10.0246
▁alexander	-10.0246
slaget	-10.0246
▁mangler	-10.0247
ischen	-10.0247
▁rub	-10.0248
▁flertall	-10.0249
▁dialekt	-10.0249
▁exp	-10.0253
▁brø	-10.0257
▁terje	-10.0257
levende	-10.0265
▁utstyr	-10.0267
▁besøk	-10.0271
▁149	-10.0274
post	-10.0274
beck	-10.0285
ppel	-10.0288
vard	-10.0298
tilbud	-10.03
▁populær	-10.03
gruppa	-10.0306
▁cri	-10.0306
mont	-10.0309
wood	-10.031
▁kata	-10.0313
▁blokk	-10.0315
▁ivan	-10.0316
tveit	-10.032
▁bakke	-10.0323
lyn	-10.0325
▁tau	-10.0325
▁hag	-10.0327
▁hoff	-10.0328
▁behandle	-10.033
▁fjord	-10.0332
▁peder	-10.0332
dong	-10.0333
jern	-10.0336
▁wade	-10.0337
areal	-10.0338
delt	-10.0347
gall	-10.0351
γ	-10.0353
▁american	-10.0353
▁betjener	-10.0353
▁betydelig	-10.0354
republik	-10.0355
▁produksjon	-10.0359
▁sterkt	-10.0361
▁hunde	-10.0365
▁bert	-10.0366
▁nik	-10.0368
▁skrive	-10.037
medlemmene	-10.0373
lista	-10.0374
▁sukker	-10.0378
▁sco	-10.038
▁bevegelse	-10.038
artikler	-10.0384
vre	-10.0398
▁problem	-10.04
serien	-10.0401
▁fjorden	-10.0406
▁ansvarlig	-10.0408
▁mini	-10.0412
▁drag	-10.0412
materiale	-10.0415
▁vokser	-10.0415
▁44	-10.0418
▁herman	-10.0419
▁fabrikk	-10.042
▁arrangerer	-10.0431
▁carol	-10.0442
▁tenn	-10.0446
▁vig	-10.0458
▁kath	-10.0458
▁chan	-10.0459
løytnant	-10.0462
▁christoph	-10.0462
▁1995	-10.0462
▁jørgen	-10.0462
▁eldste	-10.0463
▁nedenfor	-10.0463
▁120	-10.0467
äll	-10.0472
hagen	-10.0474
▁alltid	-10.0475
▁koll	-10.0482
▁life	-10.0487
▁lyse	-10.0499
▁røde	-10.0515
▁fen	-10.0519
▁produserte	-10.0525
▁vik	-10.0532
▁leon	-10.0533
▁intern	-10.0535
▁formann	-10.0535
tittel	-10.0538
▁møte	-10.0541
▁forbinde	-10.0545
▁fler	-10.0551
▁solo	-10.0554
analyse	-10.0555
▁dig	-10.0566
verdi	-10.0567
▁upp	-10.0568
dikt	-10.0571
▁unicode	-10.0572
▁komponist	-10.0572
▁efter	-10.0573
▁magasin	-10.0576
▁human	-10.0578
▁fylkesvei	-10.058
trinn	-10.0582
▁cm	-10.0587
▁stam	-10.059
luk	-10.0594
▁ter	-10.0596
▁ferr	-10.0597
lung	-10.06
tropp	-10.0604
▁korn	-10.0609
▁noter	-10.0621
▁artene	-10.063
▁gli	-10.0632
▁kall	-10.0637
kerne	-10.0637
▁beat	-10.0638
▁team	-10.064
prosjekt	-10.0647
▁jr	-10.0647
▁delt	-10.0647
▁bibliotek	-10.0648
▁birk	-10.0649
lam	-10.0653
▁gitt	-10.0655
bler	-10.0662
▁jule	-10.0664
▁amerika	-10.0671
selva	-10.0676
▁ost	-10.0678
vatn	-10.0678
tog	-10.068
▁sna	-10.0682
▁bulgarsk	-10.0683
▁byprefekturet	-10.0683
▁republikken	-10.0683
▁sveits	-10.0683
▁drammen	-10.0686
styrt	-10.0687
ovitsj	-10.0689
▁dominere	-10.069
▁forretnings	-10.069
▁betegnelsen	-10.0692
▁organisasjonen	-10.0703
▁operasjon	-10.0716
avisen	-10.0724
▁cath	-10.0731
▁hente	-10.0734
spenning	-10.0735
▁jevn	-10.0739
▁um	-10.0749
▁verb	-10.075
festivalen	-10.0753
myr	-10.076
▁fru	-10.0763
▁alm	-10.0769
aktiv	-10.0773
▁gå	-10.0782
▁tran	-10.0784
▁bang	-10.0785
▁kristen	-10.0789
skille	-10.079
▁tiden	-10.0791
▁dynastiet	-10.0794
▁deriblant	-10.0795
▁kardinal	-10.0795
▁hurtig	-10.0796
mbo	-10.0796
plante	-10.08
icus	-10.0804
▁1986	-10.0805
▁way	-10.0813
kran	-10.0814
▁arch	-10.0819
▁verneområde	-10.082
▁streng	-10.0824
aire	-10.0827
bred	-10.0828
▁bord	-10.083
▁liber	-10.0836
▁utført	-10.0839
▁stol	-10.084
▁lyn	-10.0841
strup	-10.0847
▁stamme	-10.0853
linje	-10.0855
▁110	-10.0861
kler	-10.0863
▁wang	-10.0864
▁festning	-10.087
▁dro	-10.0874
enburg	-10.0876
cula	-10.0881
meter	-10.0882
kunst	-10.0885
▁karakter	-10.0887
▁ash	-10.0891
▁47	-10.0892
chester	-10.0897
▁if	-10.09
▁kau	-10.0903
maker	-10.0904
tsch	-10.0905
feng	-10.0908
▁sovjetunionen	-10.0909
▁omtrent	-10.0909
▁teknisk	-10.0909
▁norrøn	-10.0909
▁programleder	-10.091
terapi	-10.0915
▁scott	-10.0918
▁tørr	-10.0918
▁sara	-10.092
▁145	-10.0927
▁pur	-10.0936
▁57	-10.0957
fil	-10.0963
▁vall	-10.0969
▁bow	-10.0971
▁program	-10.0972
▁gon	-10.0973
▁sport	-10.0978
п	-10.0982
▁gram	-10.0984
▁center	-10.0984
▁hellig	-10.0989
▁mary	-10.099
behandling	-10.0995
▁pave	-10.1001
elius	-10.1002
fartøy	-10.1002
kontroll	-10.1003
▁bell	-10.1005
stripe	-10.1007
▁khan	-10.1007
▁hvis	-10.1011
▁øyene	-10.1012
▁yng	-10.1018
▁09	-10.1018
økonom	-10.102
μ	-10.1022
kelsen	-10.1022
ə	-10.1024
ǔ	-10.1024
▁religion	-10.1024
▁nicola	-10.1024
ος	-10.1025
fred	-10.1026
▁betydninger	-10.1026
▁play	-10.1027
▁shar	-10.1034
▁brei	-10.1038
▁jarl	-10.1039
▁fleste	-10.1042
▁140	-10.105
ōng	-10.1056
▁enten	-10.106
▁pyr	-10.1063
▁piano	-10.1068
▁påvirke	-10.1071
▁bull	-10.1078
▁korte	-10.1081
▁41	-10.1082
▁д	-10.1089
ни	-10.1099
▁nok	-10.1101
▁mr	-10.1102
fekt	-10.1103
kur	-10.1103
▁henri	-10.1104
hjem	-10.1121
▁iii	-10.1129
▁68	-10.113
▁adel	-10.1132
▁forekommer	-10.114
▁frederik	-10.1141
vev	-10.1142
▁york	-10.1143
▁histori	-10.1154
▁menighet	-10.1156
programmer	-10.1167
vol	-10.1171
▁slott	-10.1183
▁seier	-10.1184
▁åpne	-10.1199
▁tone	-10.1202
sentre	-10.1212
▁åpnet	-10.1214
▁stad	-10.1227
▁heng	-10.1231
vika	-10.124
▁personer	-10.1241
▁rau	-10.1249
▁viktig	-10.125
eringen	-10.1253
đ	-10.1258
▁hviterussisk	-10.1258
▁publisert	-10.1258
▁statsminister	-10.1261
▁innsjø	-10.1261
▁likevel	-10.1266
▁53	-10.1266
▁skatte	-10.1267
▁1980	-10.1267
arena	-10.1269
▁lill	-10.1271
bury	-10.1295
▁walter	-10.1295
motiv	-10.1297
mengde	-10.1319
stasjonen	-10.1335
▁bau	-10.1335
▁masse	-10.1339
▁beskrev	-10.1343
▁polar	-10.1348
▁wol	-10.1366
▁143	-10.137
kunnskap	-10.1379
▁frankrike	-10.138
▁hydro	-10.1383
▁hode	-10.1383
▁mineral	-10.1383
▁alfred	-10.1389
▁tå	-10.1401
▁gjenopp	-10.1416
zio	-10.1424
skjær	-10.1429
▁holder	-10.1438
▁makt	-10.144
▁registr	-10.1453
hamn	-10.1455
▁mathi	-10.1458
▁benyttet	-10.1464
▁teksten	-10.1466
▁shu	-10.1466
▁wel	-10.1482
▁brev	-10.1483
næring	-10.1483
uni	-10.1491
▁interesse	-10.1494
institusjon	-10.1497
ш	-10.1497
▁ukjent	-10.1497
▁biskop	-10.1499
▁berømt	-10.1499
gran	-10.1499
▁invest	-10.1506
▁signal	-10.151
regjering	-10.1513
▁uttrykke	-10.1514
linjer	-10.1514
▁kvinner	-10.152
▁frei	-10.1526
▁forfatteren	-10.1536
▁prege	-10.154
▁begrepet	-10.1546
▁gress	-10.1546
▁mul	-10.1553
▁oftest	-10.1557
▁populære	-10.1562
▁europeisk	-10.1563
delig	-10.1568
▁skå	-10.1575
▁penge	-10.1581
eiro	-10.1583
▁celle	-10.1586
ries	-10.1592
▁alfa	-10.1592
▁regjerings	-10.1599
▁kaller	-10.1599
▁regional	-10.1599
▁tradisjon	-10.1599
zel	-10.1602
▁oppdage	-10.1605
utvikling	-10.1605
avgift	-10.1609
▁elisabeth	-10.1619
▁1979	-10.1619
▁1983	-10.1619
▁kaptein	-10.1619
▁forårsake	-10.162
▁tilsvarer	-10.1621
politisk	-10.1622
▁stavanger	-10.1622
▁josé	-10.1623
▁forvingen	-10.1627
merker	-10.1639
▁ltd	-10.1642
▁fløy	-10.1644
▁bygningen	-10.1647
▁eide	-10.1647
plate	-10.1651
vä	-10.1651
▁prisen	-10.1652
mini	-10.1653
▁73	-10.1653
kvalitet	-10.1654
▁holde	-10.1664
▁heg	-10.1666
▁jonas	-10.1667
burn	-10.1668
▁akademi	-10.1668
▁hunnen	-10.1669
ин	-10.1672
▁rag	-10.1687
spilleren	-10.169
▁linjen	-10.1693
brød	-10.1697
▁aktivitet	-10.1698
▁hai	-10.1709
▁rig	-10.1716
▁65	-10.172
data	-10.1721
shire	-10.1723
▁leif	-10.1725
▁minst	-10.1726
▁cup	-10.1728
▁lignende	-10.173
▁dør	-10.1734
løft	-10.1738
ı	-10.1743
▁hebraisk	-10.1743
▁1997	-10.1743
▁1982	-10.1743
▁opprettet	-10.1743
▁hjort	-10.1744
▁prosent	-10.1744
▁nordvest	-10.1745
▁brown	-10.1748
▁fått	-10.1749
▁straffe	-10.1761
modell	-10.1765
▁102	-10.1771
asso	-10.1775
▁nasjonalpark	-10.1775
▁big	-10.1777
▁struktur	-10.1782
▁sankt	-10.1786
▁nielsen	-10.1794
▁åpen	-10.1796
▁kontor	-10.1802
▁frp	-10.1812
▁økt	-10.1813
program	-10.1814
jó	-10.1818
▁sikte	-10.1819
▁gården	-10.1826
▁damp	-10.1832
▁storm	-10.1836
▁qing	-10.1839
▁øyvin	-10.1842
▁kvar	-10.1844
▁bod	-10.185
orkester	-10.1861
▁bispedømme	-10.1864
▁spise	-10.1867
▁nederland	-10.1868
ń	-10.1868
▁ungarsk	-10.1868
▁internett	-10.1872
▁ønske	-10.1872
▁håkon	-10.1873
utstyr	-10.1873
▁svømme	-10.1874
▁well	-10.1878
▁deltok	-10.1881
▁master	-10.1889
▁hotell	-10.1889
та	-10.1891
kål	-10.1907
▁skjær	-10.1912
▁tyr	-10.1914
▁vitenskapelig	-10.1915
▁årene	-10.1917
ordning	-10.1923
▁skift	-10.1924
▁106	-10.1929
▁gren	-10.1931
grep	-10.1934
▁schi	-10.1942
▁malm	-10.1951
▁hyper	-10.1954
▁jä	-10.1954
▁kryss	-10.1962
ła	-10.1971
▁marin	-10.1972
▁128	-10.198
▁naturlig	-10.1984
▁bland	-10.1985
magasin	-10.199
▁ligne	-10.199
figur	-10.1991
▁orient	-10.1992
▁krf	-10.1993
▁1977	-10.1994
▁relativ	-10.1995
▁wan	-10.1996
▁royal	-10.1996
kommando	-10.1996
nytt	-10.1996
design	-10.1996
møll	-10.1997
iserer	-10.1998
▁regjeringen	-10.2
▁edward	-10.2001
▁jud	-10.2004
bord	-10.2005
typer	-10.2021
schaft	-10.2024
▁støtter	-10.2034
▁jeff	-10.2046
▁fc	-10.2047
hopp	-10.2048
▁ledelse	-10.2054
nebb	-10.2054
▁hammer	-10.2069
ambi	-10.2071
▁grov	-10.2072
illo	-10.2081
▁angi	-10.2084
▁gile	-10.2086
skifte	-10.2095
▁kast	-10.2108
▁paris	-10.2112
▁arkiv	-10.2121
▁elektrisk	-10.2123
▁fiktiv	-10.2123
▁spesiell	-10.2123
▁gabriel	-10.2123
▁dårlig	-10.2125
▁drev	-10.2128
▁sørøst	-10.213
▁flagg	-10.2138
▁85	-10.2152
▁105	-10.2152
▁måne	-10.2157
▁him	-10.2167
▁your	-10.2168
▁divisjon	-10.2168
▁corn	-10.217
▁skar	-10.2171
▁audi	-10.2178
▁sider	-10.2182
visning	-10.2185
sdatter	-10.2186
kjemi	-10.2187
▁jun	-10.2191
ømt	-10.2213
▁tomm	-10.2214
▁kald	-10.2214
▁høg	-10.2215
▁økonomisk	-10.2233
▁bog	-10.2234
fotograf	-10.2237
pati	-10.2243
▁roma	-10.2244
vendt	-10.225
frekvens	-10.2253
▁arthur	-10.2253
▁support	-10.2253
▁kjærlighet	-10.2254
▁kjønn	-10.2254
direktør	-10.2255
▁sekund	-10.2255
▁klipp	-10.2255
forfatter	-10.2255
▁stadion	-10.226
▁uttalt	-10.2262
▁54	-10.2264
▁undervisning	-10.2265
kilde	-10.2267
▁persisk	-10.227
▁mou	-10.2276
▁dvs	-10.2279
▁142	-10.228
▁108	-10.2294
▁sup	-10.2294
▁show	-10.2306
▁kvit	-10.2314
▁omhandle	-10.2326
▁forkortelse	-10.233
▁slått	-10.234
▁103	-10.2342
▁kåre	-10.2344
▁syr	-10.2347
ovo	-10.2351
▁123	-10.2362
roman	-10.2365
▁tårn	-10.2365
ân	-10.2367
▁05	-10.2368
▁fyrste	-10.2377
▁tab	-10.238
▁lønn	-10.2382
▁storbritannia	-10.2384
▁parlament	-10.2384
▁beijing	-10.2384
kompleks	-10.2386
▁bakterie	-10.2387
▁adresse	-10.2387
▁kjemisk	-10.2387
▁brasil	-10.2388
▁77	-10.2388
▁work	-10.239
effekt	-10.2391
▁ungdom	-10.2394
▁kit	-10.2394
▁vanligste	-10.2395
▁høsten	-10.2396
▁rek	-10.2402
legger	-10.2404
ск	-10.2405
flo	-10.2406
▁east	-10.2407
▁solgt	-10.2409
▁02	-10.241
pul	-10.2411
sort	-10.2413
▁thom	-10.2413
▁papir	-10.2419
▁kw	-10.242
▁62	-10.2425
▁frå	-10.2432
▁jin	-10.2433
▁lunge	-10.2434
gift	-10.2438
øvelse	-10.2441
▁inneha	-10.246
▁skall	-10.2464
kall	-10.2465
enheter	-10.2472
flekk	-10.2476
cup	-10.2487
▁lapp	-10.2488
▁200	-10.2492
▁kjempe	-10.2494
▁144	-10.2502
▁72	-10.2504
grå	-10.2506
▁84	-10.251
▁tibetansk	-10.2517
▁alkohol	-10.2517
▁oversettelse	-10.2517
▁midgard	-10.2518
valget	-10.252
▁omtalt	-10.2523
▁jordbruk	-10.2524
terminal	-10.2524
ated	-10.2525
▁reserve	-10.2527
▁vakt	-10.2528
▁hodet	-10.2534
▁gott	-10.2535
▁andrew	-10.2539
▁kanon	-10.2539
▁bibel	-10.2542
▁hypo	-10.2543
▁tegnet	-10.2549
▁tråd	-10.2552
▁ytre	-10.2553
▁raj	-10.2557
arkiv	-10.2568
▁euro	-10.257
▁eie	-10.2574
recht	-10.2578
▁112	-10.2588
herre	-10.2591
ltså	-10.26
wei	-10.2604
▁silke	-10.2614
halvøya	-10.2625
▁afrika	-10.2644
▁naturreservat	-10.2652
▁derimot	-10.2653
▁studio	-10.2653
▁tømmer	-10.2655
▁sesongen	-10.2656
samband	-10.266
bukta	-10.2661
▁count	-10.2663
▁kommun	-10.2667
▁mennesker	-10.2668
▁88	-10.2678
▁scene	-10.2683
▁113	-10.2684
▁sound	-10.2693
▁norman	-10.2695
▁acc	-10.2708
▁eb	-10.271
▁43	-10.2718
vikler	-10.2722
▁universitetet	-10.2722
setningen	-10.2729
▁malt	-10.2734
▁bunn	-10.2739
▁bydel	-10.2742
▁foregå	-10.2754
graph	-10.2768
▁lac	-10.277
andro	-10.2787
arrangement	-10.2789
▁electric	-10.2789
▁science	-10.2789
▁fjerde	-10.279
hastighet	-10.2792
worth	-10.2792
▁edi	-10.2794
▁what	-10.2794
▁markerer	-10.2803
regionen	-10.2807
hjelp	-10.2808
▁alex	-10.2812
▁gle	-10.2814
▁float	-10.2815
▁aksje	-10.2819
▁122	-10.282
▁kjøpe	-10.2829
▁rollen	-10.2837
offiser	-10.2847
brev	-10.2852
▁lyng	-10.2855
▁tø	-10.2859
▁48	-10.2861
rekke	-10.2862
▁ekstra	-10.2874
▁kjøl	-10.2876
wick	-10.2885
søkte	-10.2901
gås	-10.2903
▁kali	-10.2918
hul	-10.2919
▁93	-10.292
▁kjøtt	-10.2922
▁abb	-10.2923
▁debutalbum	-10.2928
▁passasjer	-10.2928
▁observa	-10.2928
▁1975	-10.2928
▁sjelden	-10.2929
▁katolsk	-10.2929
▁social	-10.2932
prosess	-10.2944
▁franz	-10.2945
▁terr	-10.2951
grønn	-10.2952
▁møter	-10.2953
plattform	-10.2954
▁66	-10.2956
▁proto	-10.2959
evitsj	-10.2962
inntekt	-10.2965
▁historiker	-10.2968
ça	-10.2987
fell	-10.2993
domstol	-10.2998
▁stiftet	-10.3001
▁bryn	-10.3001
▁wild	-10.3005
▁morgen	-10.3007
▁zhu	-10.3009
periode	-10.3015
▁rav	-10.3017
▁flytte	-10.3024
kredit	-10.3039
▁07	-10.3048
▁ramme	-10.3051
serie	-10.3051
▁frod	-10.3053
lignende	-10.3055
▁svak	-10.3063
▁akk	-10.3068
▁dirigent	-10.3069
giovanni	-10.3069
▁public	-10.3069
▁1985	-10.3069
▁avslutte	-10.3069
▁sørvest	-10.307
▁premier	-10.3071
mønster	-10.3072
ulær	-10.3075
▁saga	-10.3078
▁blank	-10.3079
mission	-10.308
skaff	-10.3084
▁ernst	-10.3088
▁portrett	-10.3089
▁down	-10.309
dynastiet	-10.3094
miljø	-10.3098
▁corp	-10.3101
▁krav	-10.3104
tårn	-10.3105
para	-10.3111
▁jakt	-10.3114
henger	-10.3115
▁hop	-10.3118
kvart	-10.3125
▁journalist	-10.3134
generasjon	-10.3135
▁call	-10.3136
▁129	-10.314
▁59	-10.3156
▁nedre	-10.316
▁ansvar	-10.3167
klassen	-10.317
▁stift	-10.3171
▁prins	-10.3191
klasse	-10.3191
duk	-10.3195
▁opphav	-10.3196
▁schw	-10.3198
▁104	-10.3206
▁løk	-10.3211
▁fødsel	-10.3212
▁egypt	-10.3212
▁1972	-10.3212
▁1973	-10.3212
▁company	-10.3212
▁zhang	-10.3212
ensemble	-10.3212
kontrakt	-10.3214
▁bære	-10.3214
▁sende	-10.3215
▁oblast	-10.3216
▁mongol	-10.3218
▁islam	-10.322
▁1970	-10.3222
▁luther	-10.3231
▁grim	-10.3232
ugh	-10.3232
▁popul	-10.3236
vind	-10.3242
▁08	-10.3247
▁arrangere	-10.3253
▁høyere	-10.3258
▁delvis	-10.326
vík	-10.3262
▁game	-10.3268
brand	-10.3275
▁135	-10.3284
▁asia	-10.3303
▁qa	-10.331
bekken	-10.3315
▁skinn	-10.3318
▁great	-10.3319
dhi	-10.3328
▁aksel	-10.3341
▁raf	-10.3343
▁bha	-10.3344
fried	-10.3351
▁sanskrit	-10.3357
▁1968	-10.3357
▁tyrkisk	-10.3357
ópolis	-10.3357
▁klassisk	-10.3358
▁thy	-10.336
▁sykehus	-10.336
▁stefan	-10.3361
pasient	-10.3362
▁llc	-10.3362
pakke	-10.3366
▁kommunist	-10.3368
guan	-10.3376
▁økonomi	-10.3384
▁gaten	-10.3384
▁69	-10.3388
instrument	-10.3391
▁län	-10.3392
▁sammenheng	-10.34
ал	-10.3412
lønn	-10.3424
familie	-10.343
minne	-10.3438
▁wolf	-10.3443
▁busk	-10.3453
▁metro	-10.3455
▁elias	-10.3456
ario	-10.346
▁118	-10.3471
▁tettstedet	-10.3472
bregne	-10.3479
fyr	-10.3491
▁400	-10.3493
forvaltning	-10.3493
▁49	-10.3494
▁flø	-10.3502
▁bakkroppen	-10.3504
▁københavn	-10.3504
▁tusenårssted	-10.3504
▁skyldes	-10.3504
▁1981	-10.3504
▁nabokommunen	-10.3504
▁1984	-10.3504
▁forteller	-10.3507
avhandling	-10.3507
▁liberal	-10.3507
▁jacobsen	-10.3519
▁hve	-10.3522
▁junior	-10.353
▁bygda	-10.3532
▁eriksen	-10.3533
akke	-10.354
▁føl	-10.3541
▁fotballklubb	-10.3542
utvalget	-10.3546
▁heart	-10.355
løv	-10.3554
bjørg	-10.3554
▁mj	-10.3555
ić	-10.3555
▁87	-10.3558
abad	-10.3562
dekke	-10.3567
måte	-10.3571
▁rö	-10.3572
▁spre	-10.3586
markedet	-10.3587
plikt	-10.3589
prest	-10.3592
kysten	-10.362
▁111	-10.363
kjører	-10.3633
▁begynner	-10.3653
▁1978	-10.3653
▁hvilke	-10.3654
▁oppdater	-10.3654
▁billed	-10.3655
▁major	-10.3655
▁tidsskriftet	-10.3655
▁tolv	-10.3656
▁telefon	-10.3658
▁kallenavn	-10.3659
▁handling	-10.3659
▁irsk	-10.366
▁urdu	-10.367
▁poeng	-10.3671
▁filosof	-10.3674
marked	-10.3674
▁kirk	-10.3675
▁lj	-10.368
▁snakke	-10.3687
tysk	-10.3689
▁than	-10.3691
▁mynt	-10.3691
▁fremste	-10.3699
▁good	-10.37
▁136	-10.3701
▁atom	-10.3702
veps	-10.3705
▁reid	-10.3713
▁korea	-10.3719
▁niels	-10.3727
▁92	-10.373
kommisjon	-10.3737
▁rw	-10.3738
▁127	-10.3751
▁overflate	-10.3752
▁landslag	-10.3755
▁grend	-10.3759
▁toll	-10.3762
▁tykk	-10.3768
▁tempel	-10.378
▁krog	-10.3782
▁øker	-10.3793
▁disc	-10.3794
▁plast	-10.3795
▁reform	-10.3804
konstruksjon	-10.3805
▁østerrike	-10.3805
▁fiolin	-10.3805
▁united	-10.3806
▁demokrati	-10.3807
▁stortings	-10.3808
▁nattfly	-10.3808
▁pierre	-10.381
▁nederlandsk	-10.381
▁stadium	-10.3811
▁sikkerhets	-10.3815
▁forvaltnings	-10.3816
type	-10.3818
▁puppe	-10.3822
høgskole	-10.3823
▁tag	-10.3826
▁diesel	-10.3826
▁oppdrag	-10.3831
▁bosetning	-10.3833
▁german	-10.3839
▁indian	-10.3852
bibliotek	-10.3852
ður	-10.3858
egnet	-10.3862
▁melke	-10.3871
▁spring	-10.3873
cchi	-10.3873
alitet	-10.3879
▁nordisk	-10.3884
го	-10.3891
▁statisti	-10.3897
▁baby	-10.3898
▁past	-10.3903
▁137	-10.3904
▁munk	-10.3906
▁skjel	-10.391
▁rosa	-10.391
▁kapp	-10.3914
▁115	-10.3919
skade	-10.392
▁markert	-10.3928
somme	-10.3929
kjempe	-10.3935
▁vad	-10.395
▁legge	-10.3952
▁arrangør	-10.3959
▁rudolf	-10.3959
▁church	-10.3959
▁yrkes	-10.3959
▁padding	-10.3959
▁kontakt	-10.396
▁omtales	-10.396
▁kveld	-10.3962
▁kä	-10.3962
stipend	-10.3963
palasset	-10.3964
▁college	-10.3964
▁fader	-10.3967
▁hustru	-10.3969
▁china	-10.3969
▁jackson	-10.3969
▁ulv	-10.397
▁asbjørn	-10.3977
▁krok	-10.3985
▁arkitektur	-10.3989
▁singel	-10.3993
▁krever	-10.3994
tvedt	-10.4002
fabrik	-10.4003
språklig	-10.4005
▁nød	-10.4005
bevegelsen	-10.4011
hånd	-10.4012
▁juan	-10.4014
▁78	-10.4019
prosessor	-10.4023
▁material	-10.4026
fløy	-10.4037
produkt	-10.4051
▁myk	-10.4057
▁homo	-10.4063
▁utføre	-10.4063
▁skarp	-10.4073
▁cour	-10.408
▁117	-10.4083
▁tusen	-10.4098
ittisk	-10.4099
▁introdusert	-10.4115
▁initiativ	-10.4115
▁regissør	-10.4115
spesifik	-10.4115
▁etterfølger	-10.4115
▁mekanisk	-10.4115
▁fremdeles	-10.4119
tidsskrift	-10.4119
▁latinsk	-10.4119
mennene	-10.4124
▁125	-10.4124
strøk	-10.4135
▁hindi	-10.4142
▁pho	-10.4146
▁300	-10.4147
▁pensjon	-10.4153
▁hundre	-10.4157
▁tradisjonel	-10.4165
▁svan	-10.4174
▁ånd	-10.4183
bjørk	-10.4184
▁francis	-10.4187
▁147	-10.4197
▁56	-10.4201
▁journal	-10.4201
▁plassert	-10.4205
pleie	-10.421
▁terra	-10.422
▁utvikler	-10.4223
▁clark	-10.4223
▁clar	-10.4228
▁aud	-10.4229
▁davis	-10.4231
▁prakt	-10.4249
fylt	-10.425
▁sjeldne	-10.4274
spørsmål	-10.4274
kapasitet	-10.4274
▁fungere	-10.4281
▁51	-10.4284
▁sverd	-10.4285
fortelling	-10.4286
▁valgte	-10.4289
▁utnytte	-10.4297
▁lanc	-10.4297
▁fuji	-10.4298
tjenesten	-10.4298
▁124	-10.4299
▁snu	-10.43
▁fritz	-10.4307
▁04	-10.431
▁130	-10.4318
▁olaf	-10.4323
▁trenings	-10.4329
▁night	-10.4331
▁grund	-10.4334
frukt	-10.4337
aktivitet	-10.4339
нов	-10.4349
▁114	-10.436
▁jose	-10.4364
▁vokste	-10.4365
▁regel	-10.4365
stamme	-10.4368
klæ	-10.4384
owski	-10.4389
▁95	-10.4394
▁offisiel	-10.441
ruter	-10.4414
amba	-10.4415
▁brian	-10.4422
▁aleksandr	-10.4435
▁sannsynlig	-10.4435
▁vladimir	-10.4435
▁łód	-10.4435
▁1965	-10.4435
▁petersburg	-10.4435
▁valuta	-10.4435
▁komponert	-10.4435
▁regissert	-10.4436
▁henholdsvis	-10.4436
utgave	-10.4436
▁kobber	-10.4436
▁insekt	-10.4437
▁gråbrun	-10.4437
▁uttales	-10.4438
▁styreleder	-10.444
▁møller	-10.4444
▁arv	-10.4446
▁1960	-10.4449
▁stabil	-10.4452
▁gyld	-10.4453
▁glad	-10.4455
turbin	-10.4461
▁forbunds	-10.4465
time	-10.447
▁philip	-10.4474
▁måned	-10.4474
▁medisinsk	-10.4482
▁kommunal	-10.4484
▁liter	-10.449
▁høst	-10.4495
▁holdt	-10.4498
ledende	-10.4511
▁australia	-10.4513
▁bodde	-10.4517
jör	-10.4526
▁fritt	-10.4531
▁tell	-10.4533
dommer	-10.4547
▁63	-10.4547
▁sving	-10.4556
▁smak	-10.4557
blå	-10.4559
brygge	-10.4559
▁manga	-10.4577
▁ej	-10.4577
▁revolusjon	-10.4599
▁systematikken	-10.4599
betennelse	-10.4599
▁1971	-10.4599
▁1966	-10.4599
▁1963	-10.4599
forsikring	-10.4599
▁integr	-10.4599
▁ridder	-10.4601
▁linux	-10.4602
▁edvard	-10.4603
kapital	-10.4605
▁drept	-10.4605
▁oppnå	-10.461
▁lansert	-10.4614
▁muskel	-10.4614
▁skjell	-10.4614
▁samuel	-10.4617
▁smør	-10.4622
▁gross	-10.4626
▁nevne	-10.4626
▁bakover	-10.4629
▁panser	-10.464
støtte	-10.4646
kirch	-10.465
▁jury	-10.4656
▁laks	-10.4658
▁kö	-10.4659
▁johnson	-10.4659
▁107	-10.4667
▁petro	-10.4681
▁kongelig	-10.4698
avia	-10.4699
forestilling	-10.471
versjon	-10.4712
▁josef	-10.4714
trolig	-10.4717
ault	-10.4732
▁mau	-10.4744
▁etterfulgt	-10.4766
▁tilskuere	-10.4766
▁således	-10.4766
▁trygve	-10.4766
▁1969	-10.4766
▁ingrid	-10.4766
profil	-10.4766
▁senior	-10.4767
▁micro	-10.4767
▁global	-10.4768
▁foretrekke	-10.477
kjøkken	-10.4773
▁1945	-10.4774
▁vinnerlag	-10.4776
endring	-10.4784
▁slå	-10.4789
▁samisk	-10.4793
bukk	-10.4795
ætt	-10.4801
▁begrense	-10.4807
▁mö	-10.4807
▁domini	-10.4809
▁otta	-10.481
▁fremme	-10.4811
▁hong	-10.4817
▁symbolisere	-10.4819
▁mich	-10.4826
▁viking	-10.4828
▁finale	-10.4842
▁vokalist	-10.4842
album	-10.4854
curi	-10.4869
kompani	-10.4873
▁milan	-10.4875
strakt	-10.4894
▁slip	-10.4895
gaten	-10.4905
opptak	-10.4906
▁strid	-10.4906
▁pip	-10.4921
åpning	-10.4929
skulptur	-10.4935
▁heinrich	-10.4935
▁valgdelta	-10.4935
▁sykkel	-10.4935
▁1964	-10.4935
▁karin	-10.4935
▁people	-10.4935
▁ansikt	-10.4935
▁noctu	-10.4936
▁golf	-10.4937
▁skjedde	-10.4938
▁ishockey	-10.4938
▁alban	-10.4943
▁høyesterett	-10.4948
▁mä	-10.4954
knapp	-10.4961
▁hugh	-10.4972
zú	-10.4976
drevet	-10.4983
▁109	-10.4985
chuan	-10.5
▁kvin	-10.5006
makt	-10.5008
▁oberst	-10.5013
setting	-10.5013
▁rab	-10.5016
igno	-10.5024
▁england	-10.5029
▁koloni	-10.5042
bahn	-10.5047
alisme	-10.5063
▁deltaker	-10.5064
▁statlig	-10.5066
▁øke	-10.507
▁søke	-10.5081
▁dokumentar	-10.5092
▁sørlig	-10.5098
▁tilgjengelig	-10.5107
▁opprinnelse	-10.5107
▁automatisk	-10.5107
▁moskva	-10.5108
▁tegneserie	-10.5108
▁allerede	-10.5109
ector	-10.5109
▁archive	-10.5111
undersøkelse	-10.5113
▁telemark	-10.5113
▁bundes	-10.5113
strategi	-10.5113
▁bodø	-10.5115
apparat	-10.5115
▁kraftverket	-10.5116
kså	-10.5117
▁eksport	-10.5118
▁reaksjon	-10.5125
▁modern	-10.5125
▁manuel	-10.5133
▁nevro	-10.5136
▁lengst	-10.5137
▁motstand	-10.514
▁aero	-10.5149
aux	-10.5153
▁young	-10.5162
▁olga	-10.5193
transport	-10.5199
gått	-10.5199
skaja	-10.5199
sentrum	-10.52
▁61	-10.5202
▁flyte	-10.5203
▁registrert	-10.5203
▁road	-10.5241
sidig	-10.525
nagar	-10.5262
quist	-10.5267
reise	-10.5267
klub	-10.527
▁orchestra	-10.5283
▁profesjonell	-10.5283
▁1948	-10.5283
▁zhong	-10.5283
▁skildre	-10.5284
▁landbruks	-10.5284
▁ytterkant	-10.5284
▁knud	-10.5285
▁håndball	-10.5287
▁gregor	-10.529
▁brenselstype	-10.529
▁kjenne	-10.5291
▁sammenlagt	-10.5297
vinne	-10.5306
▁first	-10.5306
▁operere	-10.5313
▁lamb	-10.5318
våk	-10.532
▁scan	-10.5324
distanse	-10.5328
▁sammenlign	-10.537
▁avlede	-10.5372
▁bratt	-10.5375
▁victor	-10.5389
▁radi	-10.5393
bunn	-10.5403
xiang	-10.5414
▁gitarist	-10.543
gruve	-10.5432
laug	-10.5435
kjøretøy	-10.5461
▁kvalifiser	-10.5461
▁symfoni	-10.5461
▁ukraina	-10.5461
▁hverandre	-10.5461
▁ludvig	-10.5461
▁nådd	-10.5462
▁thailand	-10.5462
▁serbisk	-10.5462
▁central	-10.5463
▁kryp	-10.5463
▁opptrer	-10.5464
▁generalsekretær	-10.5464
▁finnmark	-10.5467
▁leonard	-10.5468
▁koreansk	-10.5472
▁bidrag	-10.5474
▁karakteristisk	-10.5479
▁sosialistisk	-10.5479
▁eirik	-10.5481
▁trø	-10.5488
sponsor	-10.5489
▁ansatte	-10.5491
hest	-10.5499
▁lauren	-10.5508
▁jung	-10.5512
▁orgel	-10.5515
drakt	-10.5516
▁hjemmebane	-10.5535
▁rulle	-10.5551
▁novo	-10.5551
▁stykk	-10.5553
▁hovedrollen	-10.5554
veggen	-10.5558
▁unter	-10.5559
▁fish	-10.5559
▁drikke	-10.5564
problem	-10.5566
ruten	-10.5566
redaktør	-10.5566
front	-10.558
kunstner	-10.558
operativ	-10.5584
finalen	-10.5625
studier	-10.5626
ekspedisjon	-10.5633
mongolsk	-10.5641
▁sistnevnte	-10.5643
▁kristoffer	-10.5643
▁hovedkvarter	-10.5643
▁which	-10.5643
▁fortsetter	-10.5643
▁kristiansand	-10.5644
▁varianter	-10.5644
▁nepal	-10.5646
▁omfattende	-10.5647
▁moore	-10.5651
▁norway	-10.5652
▁formula	-10.5657
▁meyer	-10.5658
▁arkeolog	-10.5661
biologi	-10.5663
vegetasjon	-10.5667
▁hersker	-10.5668
▁report	-10.567
▁barnehage	-10.5672
▁røyk	-10.5673
▁herfra	-10.568
ucci	-10.5689
▁bryte	-10.5729
▁reich	-10.5735
▁henning	-10.5736
støl	-10.574
▁katedral	-10.5744
akademi	-10.5754
▁begrep	-10.5779
▁ferge	-10.5794
▁illustr	-10.5796
administrasjon	-10.5803
▁lü	-10.5817
▁arb	-10.5826
υ	-10.5827
▁etterhvert	-10.5828
▁management	-10.5828
▁yizhi	-10.5828
▁vulkan	-10.5828
▁utmerkelse	-10.5829
opplæring	-10.583
▁skei	-10.5831
▁protein	-10.5831
▁xiàn	-10.5831
▁sesong	-10.5833
▁hotel	-10.5837
▁viktor	-10.5838
▁neg	-10.5839
▁bernard	-10.5839
▁hendelse	-10.5844
▁innsats	-10.5847
▁1940	-10.5847
▁ytter	-10.5857
▁klein	-10.586
▁slette	-10.5861
▁when	-10.5863
▁utløp	-10.5871
▁lenin	-10.5873
▁anderson	-10.5882
▁castel	-10.5888
▁600	-10.5894
ikasjon	-10.5897
▁crist	-10.5901
▁hauk	-10.591
▁sovjet	-10.5926
arkitekt	-10.5947
vitenskapelig	-10.5951
▁swa	-10.5957
slått	-10.5959
wall	-10.5967
werk	-10.5981
lengde	-10.5989
▁nettside	-10.5998
▁millimeter	-10.6017
▁tsjekkisk	-10.6017
▁dekkvingene	-10.6017
▁godkjent	-10.6017
▁skjønn	-10.6017
▁kenneth	-10.6017
sekvens	-10.6018
▁fysisk	-10.6018
▁innskriften	-10.6018
▁alvorlig	-10.6018
▁eventyr	-10.6018
▁redusere	-10.6019
▁igjennom	-10.6019
▁nkp	-10.6021
opplysning	-10.6028
▁öster	-10.6036
▁bønn	-10.6036
cycl	-10.6038
▁klatre	-10.6038
▁forvalte	-10.6042
▁donau	-10.6045
▁allmenn	-10.6049
▁kapell	-10.6054
hausen	-10.6062
▁kho	-10.6069
▁hugo	-10.6074
lândia	-10.6093
▁victoria	-10.6095
▁kaffe	-10.6095
assistent	-10.61
▁sovjetisk	-10.6109
по	-10.6118
guó	-10.6119
divisjon	-10.6143
beskytte	-10.6165
▁philipp	-10.6166
blanding	-10.6168
но	-10.6175
derav	-10.6186
sikkerhet	-10.6198
▁geit	-10.6206
▁mercedes	-10.6209
▁ytterligere	-10.6209
▁utelukke	-10.6209
førsel	-10.621
▁1976	-10.621
▁bjarne	-10.621
▁angripe	-10.6211
▁partileder	-10.622
▁romersk	-10.6221
▁flekker	-10.6224
▁1930	-10.6228
bæk	-10.6236
▁yngre	-10.6244
toft	-10.6259
▁fange	-10.6263
▁blind	-10.6267
midd	-10.6268
▁panamerika	-10.6272
▁johnsen	-10.6277
▁organisert	-10.6279
▁101	-10.6285
▁sorg	-10.629
▁hydr	-10.6304
dersom	-10.6308
▁blanc	-10.6313
jì	-10.633
struktur	-10.6343
rommet	-10.6362
▁tildele	-10.6377
wich	-10.6404
▁favoritt	-10.6405
▁microsoft	-10.6405
▁religiøs	-10.6405
▁fullstendig	-10.6405
▁kilometer	-10.6405
▁suksess	-10.6405
▁washington	-10.6405
▁pradesh	-10.6406
▁arrangert	-10.6406
▁kommentar	-10.6406
▁1952	-10.6406
▁1962	-10.6406
▁fjeld	-10.6406
▁bærum	-10.6407
▁nasjonalsang	-10.641
▁hovedartikkel	-10.6411
innspilling	-10.6413
▁isteden	-10.6426
▁arild	-10.6427
▁ungdomsskole	-10.6429
▁circ	-10.6446
ны	-10.6449
▁stadig	-10.6454
▁1000	-10.6461
▁kommunistisk	-10.6468
katalog	-10.647
▁bytte	-10.647
▁revers	-10.6478
døgnfluer	-10.6497
▁sandvik	-10.6526
▁utnevnt	-10.6544
ий	-10.6566
▁71	-10.6593
sykdommer	-10.6593
forbud	-10.6603
▁corporation	-10.6605
▁publikum	-10.6605
▁færøyene	-10.6605
▁flerårig	-10.6606
▁pattedyr	-10.6606
▁petroleum	-10.6606
▁francesco	-10.6606
▁evangeli	-10.6606
lokomotiv	-10.6606
▁1959	-10.6606
▁1967	-10.6606
▁1974	-10.6606
▁airlines	-10.6606
sylindre	-10.6606
▁kritikk	-10.6607
▁vanskelig	-10.6608
▁diverse	-10.6608
▁alexandr	-10.6608
▁elektronisk	-10.6608
▁monark	-10.6608
▁erobre	-10.661
▁2018	-10.6612
▁bakgrunn	-10.6613
▁wilson	-10.6619
▁inndelt	-10.6624
masse	-10.6629
struct	-10.6632
▁gjennomført	-10.6633
▁other	-10.6664
▁bokser	-10.6674
strømmen	-10.6683
▁miste	-10.6692
tromme	-10.6701
fast	-10.6719
▁result	-10.6775
høyden	-10.6786
▁81	-10.6792
▁individ	-10.681
skilpadde	-10.681
▁ludwig	-10.681
▁vedlikehold	-10.681
▁guvernør	-10.681
▁vietnamesisk	-10.681
▁1961	-10.681
kompetanse	-10.681
▁1955	-10.681
▁1936	-10.681
ский	-10.681
▁psych	-10.681
▁trompet	-10.681
veksling	-10.681
▁tromsø	-10.681
▁brigade	-10.681
▁håvard	-10.6811
▁bedriften	-10.6812
▁skotsk	-10.6813
järvi	-10.6814
▁francisco	-10.6816
straße	-10.6817
▁komposisjon	-10.6818
▁fuktig	-10.6821
▁kaare	-10.6824
▁pistol	-10.6824
▁91	-10.6829
▁arvid	-10.683
▁fredrikstad	-10.6832
▁european	-10.6832
▁terror	-10.6834
▁kevin	-10.6839
▁ytterst	-10.6847
▁plateselskap	-10.685
▁tynn	-10.6857
▁barneskole	-10.6861
▁legend	-10.6887
hvelv	-10.6897
avtale	-10.6905
▁ove	-10.6906
kjøl	-10.6915
kjøring	-10.6939
stiftelse	-10.6944
sparc	-10.6985
▁klage	-10.7005
▁aleksander	-10.7018
▁ferskvann	-10.7018
▁vunnet	-10.7018
▁claudi	-10.7018
▁varianten	-10.7019
▁marianne	-10.702
▁salme	-10.7022
▁barndom	-10.7025
▁1939	-10.7028
bebyggelse	-10.7029
▁demningen	-10.703
▁miao	-10.7032
▁christine	-10.7033
▁øystein	-10.7034
▁hevde	-10.704
styring	-10.704
▁1950	-10.7042
▁poll	-10.7045
▁bestemt	-10.706
fysikk	-10.7088
korset	-10.7091
blikk	-10.7122
▁astronom	-10.7124
president	-10.7185
aften	-10.7191
sentral	-10.7192
mottak	-10.721
ма	-10.7214
shovedstaden	-10.7229
▁jomfru	-10.7231
▁norwegian	-10.7231
forstyrrelse	-10.7231
saksofon	-10.7231
▁chicago	-10.7231
▁tvilling	-10.7231
▁1956	-10.7231
▁ralph	-10.7231
▁capital	-10.7231
▁ragnar	-10.7232
▁valentin	-10.7232
▁database	-10.7232
▁regulere	-10.7232
▁arendal	-10.7234
▁arbeiderpartiet	-10.7234
▁sergej	-10.7234
▁prinsesse	-10.7234
▁wolfgang	-10.7234
gericht	-10.7235
▁eivind	-10.7236
▁two	-10.7236
betjent	-10.7237
▁import	-10.7237
▁disney	-10.7237
▁novell	-10.724
▁detalj	-10.7241
artikkel	-10.7242
▁hamburg	-10.7244
▁short	-10.7248
▁åpnings	-10.725
▁pepper	-10.7252
▁ørken	-10.7253
▁hjelm	-10.7257
▁ultra	-10.726
strekning	-10.7267
stemning	-10.7289
ière	-10.7312
▁place	-10.7318
sypress	-10.7385
historisk	-10.7408
fylke	-10.7411
filosofi	-10.7418
▁infanteri	-10.7448
▁keyboard	-10.7448
▁windows	-10.7448
psykiatri	-10.7448
▁utgangspunkt	-10.7448
▁innbyggerne	-10.7448
▁diagnos	-10.7448
▁generelt	-10.7448
▁1937	-10.7448
▁fengsel	-10.7448
nfeksjon	-10.7448
▁betrakte	-10.7448
▁detroit	-10.7449
▁skrivemåte	-10.7449
▁inndelingen	-10.7449
▁über	-10.7449
▁nærmere	-10.7449
▁akutt	-10.7451
▁airport	-10.7452
▁trasé	-10.7453
▁werner	-10.7454
▁veldig	-10.7457
tekst	-10.7458
▁hormon	-10.7462
▁henriksen	-10.7466
▁plassering	-10.7475
kostnad	-10.748
▁lavere	-10.7489
▁oppleve	-10.7503
▁musikalsk	-10.7529
psykologi	-10.7531
näs	-10.754
▁europe	-10.7546
▁austral	-10.7567
bestand	-10.7632
ansvarlig	-10.7635
papir	-10.7635
institutt	-10.7668
▁vietnam	-10.767
ская	-10.767
▁vennskapsbyer	-10.767
vassdraget	-10.767
▁benjamin	-10.767
▁abraham	-10.767
▁1941	-10.767
bataljon	-10.767
▁1949	-10.767
▁syndrom	-10.767
rådgiver	-10.7671
▁bryggeri	-10.7671
▁prince	-10.7671
▁charlotte	-10.7671
▁axel	-10.7672
komponent	-10.7672
▁brønn	-10.7673
holdsvis	-10.7673
▁space	-10.7674
▁bedrifts	-10.7674
egenskaper	-10.7677
▁country	-10.7681
kritisk	-10.7681
stemte	-10.7683
▁hvordan	-10.7685
qiao	-10.7707
▁twi	-10.7719
kjerne	-10.7732
festival	-10.7737
▁tilfelle	-10.7741
öll	-10.7775
bevegelse	-10.7777
▁avvist	-10.7798
▁psykolog	-10.7813
ribbe	-10.7853
redskap	-10.7862
▁utenriks	-10.7862
▁færøysk	-10.7898
▁lawrence	-10.7898
▁sebastian	-10.7898
▁vilhelm	-10.7898
▁høyhastighets	-10.7898
▁ovenfor	-10.7898
leksikon	-10.7898
▁1928	-10.7898
▁1938	-10.7898
▁risiko	-10.7898
▁grün	-10.7898
▁astrid	-10.7898
▁stephen	-10.7898
▁ungarn	-10.7898
▁embeds	-10.7898
▁situasjon	-10.7898
▁theodor	-10.7899
▁finskspråklig	-10.7899
▁donald	-10.7899
▁visepresident	-10.7899
▁strekningen	-10.7903
▁ekteskap	-10.7903
▁endringer	-10.7904
▁forsvarets	-10.7904
▁mytologi	-10.7904
▁nyhets	-10.7905
▁fremstille	-10.7905
▁boston	-10.7906
▁forbruker	-10.7906
▁1946	-10.7913
▁lykke	-10.7923
▁karbon	-10.7926
oidea	-10.7934
duct	-10.7936
verktøy	-10.7948
kalender	-10.7951
▁datterselskap	-10.7956
pumpe	-10.7976
overflaten	-10.7979
▁urban	-10.804
nevnte	-10.8091
sirkel	-10.8101
grunnlag	-10.8105
▁nettsted	-10.813
▁frankfurt	-10.813
▁konservativ	-10.813
▁vingespenn	-10.813
▁business	-10.813
▁tønsberg	-10.813
▁halvorsen	-10.813
▁jacque	-10.813
▁kombinert	-10.813
▁geografisk	-10.813
▁kriminal	-10.8131
▁adolf	-10.8131
▁doktorgrad	-10.8131
▁patriark	-10.8131
▁beslekte	-10.8131
▁ulykke	-10.8132
komité	-10.8132
konsernet	-10.8132
▁bmw	-10.8132
▁føderal	-10.8133
bestemmelse	-10.8134
▁trenger	-10.8138
▁snart	-10.8138
faktor	-10.814
▁håndverk	-10.8141
▁hydrogen	-10.8142
orientert	-10.8143
nspirasjon	-10.8143
▁xiao	-10.8145
▁midtbane	-10.815
▁lisens	-10.8154
▁kjennetegne	-10.8155
▁hvile	-10.8187
▁121	-10.824
foretak	-10.8243
▁praktiser	-10.8246
munn	-10.8256
▁grind	-10.8294
▁evig	-10.8296
redaksjon	-10.8304
signal	-10.8347
▁cooper	-10.8348
historiker	-10.8349
pond	-10.8363
▁association	-10.8368
▁barcelona	-10.8368
▁elizabeth	-10.8368
▁forøvrig	-10.8368
sentralbanksjef	-10.8368
▁litauisk	-10.8368
▁kongedømme	-10.8368
▁synonym	-10.8368
▁tilføyd	-10.8368
▁anvendes	-10.8368
▁definerer	-10.8368
▁1957	-10.8368
▁1958	-10.8368
▁1935	-10.8368
▁1923	-10.8368
▁oppstår	-10.8369
▁søndag	-10.8369
▁rumensk	-10.8369
▁bitumen	-10.8369
stråling	-10.8369
ου	-10.8369
▁seinere	-10.837
▁lewis	-10.8371
▁beholdt	-10.8373
▁tørke	-10.8375
blomsterflue	-10.8383
vandring	-10.8384
▁glenn	-10.8385
▁viklere	-10.8402
▁prinsipp	-10.8404
jernbane	-10.8411
▁dukke	-10.8412
▁direct	-10.8413
forsyning	-10.8418
vokst	-10.8421
▁slange	-10.8456
regnskap	-10.8458
ović	-10.8461
turnering	-10.8467
▁forklare	-10.8476
lilje	-10.8558
hockey	-10.8608
instruktør	-10.8612
▁anerkjent	-10.8612
▁diplomat	-10.8612
▁innflytelse	-10.8612
▁oksygen	-10.8612
▁utdødd	-10.8612
▁overlevde	-10.8612
▁would	-10.8612
▁1925	-10.8612
▁1933	-10.8612
▁texas	-10.8612
▁communi	-10.8613
▁frivillig	-10.8613
▁reklame	-10.8613
▁redusert	-10.8613
bølge	-10.8613
▁christensen	-10.8613
▁stephan	-10.8614
▁about	-10.8614
trukket	-10.8615
▁stryke	-10.8615
▁hørte	-10.8616
▁anatol	-10.8619
▁tilpasse	-10.8645
kirurg	-10.8661
fatning	-10.8667
skrevet	-10.8672
▁beskrivelse	-10.8674
▁besetning	-10.8678
▁flyselskap	-10.8681
▁harmoni	-10.8727
▁musikal	-10.8771
torget	-10.8831
▁tolk	-10.8846
▁manuskript	-10.8862
▁mountain	-10.8862
▁benedict	-10.8862
▁selvbiografi	-10.8862
eksperiment	-10.8862
▁douglas	-10.8862
▁kennedy	-10.8862
▁nordsamisk	-10.8862
▁html	-10.8862
▁brødrene	-10.8862
▁natrium	-10.8862
konflikt	-10.8862
▁project	-10.8862
▁taylor	-10.8862
▁amatør	-10.8862
▁tyrkia	-10.8862
▁1929	-10.8862
▁1953	-10.8862
▁uigur	-10.8862
▁nemlig	-10.8863
▁kråke	-10.8863
▁haakon	-10.8863
▁bernhard	-10.8865
▁terreng	-10.8865
▁abdul	-10.8865
▁taiwan	-10.8865
▁jødisk	-10.8866
▁gulbrun	-10.8868
▁stiftelsen	-10.8868
▁jurist	-10.8868
▁bevart	-10.8875
krevde	-10.8876
▁spirit	-10.8884
▁innlede	-10.8894
bevisst	-10.8902
▁fotballspiller	-10.8914
gudinnen	-10.896
▁varemerke	-10.8963
▁hekke	-10.8971
missil	-10.8979
▁nevnt	-10.8995
befolkningen	-10.8996
▁assist	-10.9055
søyle	-10.9056
▁psyko	-10.9117
▁innbefatte	-10.9119
▁krydder	-10.9119
▁research	-10.9119
▁symphon	-10.9119
▁tortricidae	-10.9119
▁kapittel	-10.9119
▁øivind	-10.9119
▁århundre	-10.9119
▁referanse	-10.9119
▁nøkkel	-10.9119
▁special	-10.9119
▁1951	-10.9119
▁hybrid	-10.9119
▁1942	-10.9119
▁wylie	-10.9119
litteratur	-10.9119
▁köln	-10.9119
gymnas	-10.9119
▁ødelegge	-10.9119
▁jelena	-10.9119
▁essay	-10.9119
rgesmesterskapet	-10.912
▁luigi	-10.912
▁where	-10.912
▁utbredt	-10.912
rettigheter	-10.9121
▁klinisk	-10.9122
▁borgermester	-10.9122
qvist	-10.9123
▁programvare	-10.9124
▁hemmelig	-10.9124
▁armensk	-10.9125
▁generell	-10.9125
beskyttelse	-10.913
▁turneringen	-10.913
▁svekke	-10.9146
eksamen	-10.9167
pølse	-10.9175
relatert	-10.9175
▁sportsklubb	-10.9179
▁fiend	-10.9199
▁earl	-10.9204
måke	-10.9238
▁frels	-10.928
▁valeri	-10.9302
▁representert	-10.938
kommanderende	-10.9382
▁afghanistan	-10.9382
▁ferdinand	-10.9382
▁trøndelag	-10.9382
▁asteroide	-10.9382
▁ragnhild	-10.9382
▁absolut	-10.9382
▁zhōng	-10.9382
▁frazioni	-10.9382
▁mexico	-10.9382
▁through	-10.9382
▁frederick	-10.9382
▁1905	-10.9382
▁parallell	-10.9382
▁fantasy	-10.9382
▁1932	-10.9382
▁gyllen	-10.9382
protokoll	-10.9382
▁valutakode	-10.9382
▁regelmessig	-10.9383
▁storkommunen	-10.9383
▁ronald	-10.9383
μα	-10.9385
▁utvikle	-10.9386
bispedømme	-10.9389
▁signert	-10.9394
▁ekspedisjonen	-10.9397
▁negativ	-10.9399
sæter	-10.9399
▁skygge	-10.9401
▁giuli	-10.9402
glass	-10.9406
▁rederi	-10.9413
lokale	-10.9444
ć	-10.9455
syklus	-10.9572
konsert	-10.965
▁kronprins	-10.9652
▁olympisk	-10.9652
▁positive	-10.9652
▁trommeslager	-10.9652
▁installert	-10.9652
▁göteborg	-10.9652
▁involver	-10.9652
▁müller	-10.9652
▁kvadrat	-10.9652
▁pakistan	-10.9652
admiral	-10.9652
▁1954	-10.9652
▁svovel	-10.9652
▁1934	-10.9652
▁kroatisk	-10.9652
▁cappelen	-10.9652
▁eventuel	-10.9652
▁studioalbum	-10.9653
▁1896	-10.9653
▁sandefjord	-10.9653
▁serbia	-10.9653
▁stortinget	-10.9653
▁purpur	-10.9654
▁hertug	-10.9655
▁puerto	-10.9656
▁manager	-10.9657
▁nederst	-10.9659
könig	-10.966
▁hendri	-10.9665
▁afrikansk	-10.9673
pagode	-10.9705
læg	-10.9796
klokke	-10.9869
slottet	-10.9882
fasci	-10.9891
entreprenør	-10.993
kringkasting	-10.993
▁bulgaria	-10.993
▁frilufts	-10.993
▁helikopter	-10.993
▁münchen	-10.993
▁sykepleier	-10.993
▁tilsluttet	-10.993
▁tsjekkoslovakia	-10.993
▁xinjiang	-10.993
▁trebukker	-10.993
kommandant	-10.993
▁senterpartiet	-10.993
älven	-10.993
▁1944	-10.993
leverandør	-10.993
▁nedbør	-10.993
▁kombinere	-10.993
▁wagner	-10.993
▁nelson	-10.993
▁kalsium	-10.9931
▁norveg	-10.9931
planlegging	-10.9931
▁nyheter	-10.9932
omsorg	-10.9932
▁væske	-10.9932
▁apollo	-10.9932
▁søsken	-10.9934
▁uefa	-10.9934
▁sørensen	-10.9935
fjær	-10.9949
▁pryd	-10.9951
givelse	-10.9964
iàn	-10.9989
funnstedet	-10.9999
tolkning	-11.0016
▁beregne	-11.0022
craft	-11.0042
kjær	-11.0049
følelse	-11.0057
▁organisere	-11.0083
cept	-11.0098
amerikansk	-11.0155
▁pseudo	-11.0213
▁kinamisjonær	-11.0215
▁aserbajdsjan	-11.0215
▁inskripsjon	-11.0215
▁jesuittordenen	-11.0215
▁mjøndalen	-11.0215
▁publikasjon	-11.0215
▁anthony	-11.0215
▁molekyl	-11.0215
▁hongkong	-11.0215
▁frigjøring	-11.0216
▁claude	-11.0216
▁oxford	-11.0216
▁krishna	-11.0216
▁opptrådt	-11.0216
▁1906	-11.0216
beseiret	-11.0216
▁google	-11.0216
▁vesentlig	-11.0216
▁hjørne	-11.0216
▁generation	-11.0216
▁walisisk	-11.0216
høvding	-11.0217
▁cirka	-11.0217
▁zhao	-11.0217
▁lorenz	-11.0217
▁sprint	-11.0218
▁tropisk	-11.022
▁slakte	-11.0223
muligheter	-11.0224
▁spredt	-11.0226
açu	-11.0226
▁smelte	-11.0231
vytsj	-11.0237
▁rifle	-11.0242
▁cruise	-11.0243
▁barokk	-11.0244
kampanje	-11.0262
radikal	-11.0289
fellesskap	-11.0402
▁bevege	-11.0505
▁aftenposten	-11.051
▁aluminium	-11.051
▁entertainment	-11.051
▁generalmajor	-11.051
▁gjaldt	-11.051
▁kambodsja	-11.051
▁langrennsløper	-11.051
▁network	-11.051
▁nødvendig	-11.051
▁renessanse	-11.051
▁salvador	-11.051
▁skøyteløper	-11.051
▁antagelig	-11.051
▁selvstendig	-11.051
▁gjøvik	-11.051
▁piauí	-11.051
▁litauen	-11.051
▁skottland	-11.051
▁schwarz	-11.051
▁skihopper	-11.051
▁1907	-11.051
▁tilsammen	-11.051
▁bomull	-11.051
▁selvmord	-11.051
script	-11.051
▁1879	-11.051
▁muslim	-11.0511
▁control	-11.0511
ability	-11.0512
▁return	-11.0513
mekanisme	-11.0514
▁tønne	-11.0514
▁øygrupp	-11.0532
føderasjon	-11.0532
gjest	-11.0533
ordinat	-11.0536
strender	-11.0545
▁isaac	-11.055
prinsippet	-11.0567
▁doktor	-11.08
▁cerambyc	-11.0813
oppmerksomhet	-11.0813
symmetrisk	-11.0813
▁basketball	-11.0813
▁elektrisitet	-11.0813
▁erkebiskop	-11.0813
▁philadelphia	-11.0813
▁sarpsborg	-11.0813
▁society	-11.0813
▁toppnivådomene	-11.0813
▁østerriksk	-11.0813
▁elefant	-11.0813
▁juridisk	-11.0813
▁joachim	-11.0813
▁publisere	-11.0813
▁limited	-11.0813
▁hyppig	-11.0813
▁kroatia	-11.0813
▁konstantin	-11.0813
▁history	-11.0813
disiplin	-11.0813
▁amundsen	-11.0813
▁montreal	-11.0813
▁individuell	-11.0813
▁1927	-11.0813
▁gmbh	-11.0813
▁heavy	-11.0813
▁rykket	-11.0813
▁aksepter	-11.0813
▁ekstrem	-11.0814
flaggermus	-11.0814
▁søvn	-11.0815
▁fritids	-11.0815
pseudonym	-11.0815
▁andorra	-11.0816
▁bibli	-11.0818
konvensjon	-11.0819
▁columb	-11.082
▁koreograf	-11.0826
▁ytelse	-11.0831
▁søndr	-11.0835
▁etappe	-11.0845
▁skuespill	-11.088
sæther	-11.0895
forandring	-11.0902
brakte	-11.0916
▁dimensjon	-11.1035
▁døgnflue	-11.1058
rådgivning	-11.1125
▁academy	-11.1125
▁california	-11.1125
▁françois	-11.1125
▁maskingevær	-11.1125
▁portugisisk	-11.1125
▁argentina	-11.1125
▁jonathan	-11.1125
▁waldemar	-11.1125
▁observer	-11.1125
▁trondhjems	-11.1125
▁penguin	-11.1125
▁anmelder	-11.1125
▁medikament	-11.1125
▁1909	-11.1125
▁hovedtrener	-11.1125
kommandør	-11.1125
▁ålesund	-11.1125
▁1947	-11.1125
ophyll	-11.1125
▁fellow	-11.1126
▁artilleri	-11.1126
▁björn	-11.1126
▁mozart	-11.1126
▁forbedre	-11.1126
▁gjær	-11.1126
▁hovedpersonen	-11.1126
▁blomsterfluene	-11.1126
▁second	-11.1126
▁fremstilt	-11.1126
▁gummi	-11.1127
▁sigrid	-11.1127
teatret	-11.1127
▁belgisk	-11.1127
▁sibir	-11.1128
▁sannhet	-11.1129
avsnitt	-11.1138
▁ivareta	-11.1158
symbol	-11.1185
kjøtt	-11.1217
gjerd	-11.1317
▁inneholde	-11.134
▁innenriks	-11.1365
bourg	-11.1386
karbonat	-11.1409
flokkurin	-11.1448
▁buffalo	-11.1448
▁kontinental	-11.1448
▁satellitt	-11.1448
▁sjokolade	-11.1448
þ	-11.1518
