<unk>	0
<s>	0
</s>	0
.	-3.12657
s	-3.33168
e	-3.56023
▁	-3.74727
t	-4.0295
en	-4.0679
er	-4.06795
▁i	-4.11726
▁og	-4.1539
r	-4.53394
▁er	-4.58388
n	-4.81383
▁av	-4.83489
a	-4.96883
et	-5.00231
▁en	-5.13069
▁for	-5.14882
▁som	-5.26944
▁til	-5.31243
▁på	-5.33908
▁med	-5.36867
i	-5.3996
d	-5.50433
▁var	-5.5276
o	-5.54329
k	-5.61006
▁de	-5.64142
▁den	-5.66077
y	-5.66927
ene	-5.70686
ne	-5.77554
▁har	-5.77928
▁fra	-5.7793
▁ble	-5.84554
m	-5.8755
g	-5.9014
te	-5.95173
▁det	-5.97052
▁et	-5.97384
l	-6.00903
de	-6.18993
h	-6.22815
▁han	-6.24133
p	-6.24472
c	-6.24771
▁s	-6.25227
in	-6.31947
▁ved	-6.32416
f	-6.33442
▁å	-6.33485
es	-6.34037
us	-6.34902
v	-6.36055
u	-6.36629
b	-6.36889
▁også	-6.40598
an	-6.42067
▁eller	-6.44434
▁ut	-6.45706
re	-6.47116
ing	-6.48006
al	-6.50104
▁a	-6.50892
na	-6.51368
▁be	-6.55616
▁under	-6.55821
le	-6.5594
▁kan	-6.59791
▁p	-6.60481
is	-6.6122
▁to	-6.61237
on	-6.6235
▁om	-6.63254
▁the	-6.72865
ter	-6.73406
▁over	-6.73692
▁opp	-6.73968
▁etter	-6.75565
▁m	-6.76089
z	-6.77761
▁inn	-6.79499
sk	-6.80145
▁at	-6.8264
ar	-6.83727
▁18	-6.84608
ia	-6.87285
▁la	-6.89272
um	-6.89383
j	-6.89488
▁f	-6.9022
ende	-6.90507
or	-6.91566
ch	-6.92578
▁da	-6.93685
w	-6.9405
▁b	-6.9474
▁d	-6.98146
▁andre	-6.98174
ma	-6.98346
ens	-6.98414
ra	-6.99039
ta	-6.99369
la	-7.00598
▁u	-7.00666
ur	-7.03078
el	-7.05546
▁al	-7.06794
ke	-7.08429
▁an	-7.09142
▁ligger	-7.09724
▁c	-7.09752
x	-7.09817
▁ha	-7.11026
▁g	-7.11301
▁k	-7.11798
li	-7.12455
é	-7.12869
land	-7.13281
▁men	-7.16903
ck	-7.17035
▁tre	-7.1796
▁se	-7.1824
▁re	-7.18406
▁l	-7.19316
▁man	-7.21246
isk	-7.22011
ka	-7.22087
ga	-7.23128
▁mellom	-7.232
▁h	-7.23718
øy	-7.24592
▁sin	-7.24821
▁blant	-7.25661
ri	-7.25821
il	-7.26555
▁hans	-7.27774
ø	-7.27909
ng	-7.28066
▁hadde	-7.28473
mi	-7.28836
▁t	-7.28841
▁n	-7.29083
nes	-7.29093
▁1	-7.29527
▁mot	-7.29665
be	-7.29698
▁seg	-7.29839
lig	-7.30702
▁gjennom	-7.30727
da	-7.31196
as	-7.31339
ning	-7.31714
▁her	-7.32721
der	-7.33713
bo	-7.33715
▁of	-7.33987
ler	-7.35027
▁vi	-7.35329
▁sa	-7.35599
▁di	-7.35713
▁in	-7.36946
at	-7.37264
ve	-7.37766
ut	-7.38052
iske	-7.38073
ge	-7.38158
os	-7.3873
di	-7.39675
stad	-7.41093
ad	-7.41576
▁and	-7.41817
ger	-7.42
▁ikke	-7.42784
▁ca	-7.42914
to	-7.4314
▁ro	-7.4395
▁le	-7.44086
ske	-7.4551
ja	-7.45634
ker	-7.45674
▁hoved	-7.45816
ig	-7.45914
th	-7.46295
▁17	-7.46848
tt	-7.47218
nde	-7.47312
▁co	-7.48171
ver	-7.48499
▁bo	-7.48845
ha	-7.48991
ce	-7.49204
ff	-7.49661
id	-7.50115
son	-7.50172
▁født	-7.50294
▁dette	-7.50426
▁2	-7.50691
for	-7.50888
▁sammen	-7.50962
▁nord	-7.51124
▁ra	-7.51258
▁j	-7.51401
▁as	-7.51632
mo	-7.51833
▁flere	-7.52218
▁15	-7.53061
▁li	-7.53339
ry	-7.53601
▁he	-7.54098
ton	-7.5473
man	-7.54857
▁st	-7.54875
▁na	-7.54904
▁denne	-7.55192
it	-7.5539
lo	-7.55819
ner	-7.56306
▁hun	-7.56313
3	-7.56413
▁5	-7.57353
▁der	-7.57449
berg	-7.57678
▁no	-7.57925
ro	-7.57945
va	-7.5813
vis	-7.58189
ang	-7.5848
▁by	-7.58488
▁første	-7.58979
▁kon	-7.59207
▁stor	-7.60068
▁16	-7.60227
ul	-7.60575
▁w	-7.60748
▁v	-7.60776
co	-7.60865
▁do	-7.61217
▁du	-7.61345
▁lo	-7.61502
ell	-7.61827
me	-7.61857
ba	-7.62124
ic	-7.62295
á	-7.62911
▁mar	-7.63047
▁fikk	-7.63861
ed	-7.63992
▁o	-7.65101
▁3	-7.65223
▁sp	-7.65227
gen	-7.65791
▁kom	-7.66063
▁kinesisk	-7.66601
den	-7.6668
dal	-7.67305
▁si	-7.67634
å	-7.67889
ling	-7.68156
▁or	-7.69032
▁ny	-7.70123
pe	-7.70125
▁alle	-7.70972
2	-7.70975
▁ni	-7.71087
▁4	-7.7167
▁ta	-7.73074
▁me	-7.73421
▁per	-7.73615
del	-7.7425
erte	-7.74289
▁pi	-7.74328
▁mo	-7.74523
by	-7.74622
ol	-7.74931
▁blir	-7.75222
je	-7.75239
4	-7.75474
lige	-7.75957
▁del	-7.76407
ov	-7.76502
vi	-7.76838
kt	-7.76852
▁kommune	-7.76892
æ	-7.7763
▁ka	-7.77677
▁su	-7.77678
gi	-7.78135
ste	-7.78152
bi	-7.78606
lu	-7.78672
▁so	-7.78968
mann	-7.78985
ko	-7.79147
▁disse	-7.79324
▁annet	-7.79601
5	-7.79833
▁sør	-7.80362
▁tidligere	-7.81651
▁sch	-7.81817
▁ti	-7.81998
skap	-7.82008
si	-7.82127
het	-7.8217
ist	-7.82243
do	-7.82381
bu	-7.82416
▁pa	-7.83256
ti	-7.83333
▁12	-7.834
▁pro	-7.83425
▁ga	-7.83433
go	-7.83872
▁el	-7.83881
▁10	-7.83979
ina	-7.84822
un	-7.85082
▁fri	-7.8559
op	-7.85627
▁ri	-7.85728
▁fa	-7.85947
lin	-7.86337
mer	-7.86653
ment	-7.8666
9	-7.86715
no	-7.87063
▁samt	-7.88013
▁ho	-7.88437
pp	-7.88457
▁ko	-7.88554
▁mens	-7.8929
▁14	-7.89876
▁kalt	-7.9045
ir	-7.90715
▁po	-7.91076
ant	-7.91094
▁mor	-7.91556
ør	-7.91755
kk	-7.92178
sta	-7.925
ly	-7.92987
▁tor	-7.93071
po	-7.93262
▁bu	-7.9335
▁byen	-7.93416
7	-7.93512
var	-7.94098
ca	-7.94159
▁ma	-7.94256
tor	-7.94418
▁gu	-7.9459
▁jo	-7.94632
▁kalles	-7.94713
gg	-7.94882
ik	-7.94916
ven	-7.95859
▁land	-7.96047
▁ba	-7.96166
▁mer	-7.96473
00	-7.96597
am	-7.97131
ü	-7.9714
▁bar	-7.97324
tter	-7.97766
▁ru	-7.97929
▁8	-7.97967
▁r	-7.98095
asjon	-7.98244
▁navnet	-7.98345
år	-7.98446
▁bi	-7.98692
▁finnes	-7.987
▁hvor	-7.98758
ho	-7.98906
im	-7.99062
ci	-7.99105
ö	-7.99377
tra	-7.99392
▁lu	-7.9952
▁ju	-8.00253
▁sol	-8.00371
erne	-8.00854
sjon	-8.01174
au	-8.01195
▁mange	-8.01246
▁bak	-8.01295
▁bestå	-8.01409
ster	-8.01717
▁før	-8.02028
▁sk	-8.02047
itt	-8.0224
▁ned	-8.02252
▁år	-8.02537
ns	-8.02542
▁frem	-8.02641
▁13	-8.02809
▁sitt	-8.02859
▁min	-8.02964
ikk	-8.03045
men	-8.03242
vik	-8.0326
ll	-8.03403
hold	-8.03536
1	-8.03568
fa	-8.03751
ær	-8.03889
▁norsk	-8.04062
ak	-8.04247
▁dag	-8.04366
▁vest	-8.04405
▁går	-8.04557
▁am	-8.05093
▁0	-8.05126
mp	-8.05463
▁russisk	-8.05646
▁pe	-8.05665
▁øst	-8.05736
om	-8.05739
io	-8.05856
▁lag	-8.05882
rett	-8.06006
▁hu	-8.06236
▁far	-8.06416
▁ne	-8.06618
av	-8.06686
▁så	-8.06955
▁7	-8.07111
sh	-8.07568
ie	-8.07796
▁fly	-8.0783
í	-8.08248
▁navn	-8.08432
▁gi	-8.08495
ac	-8.08728
▁con	-8.09063
▁tilhører	-8.09456
ny	-8.09484
▁død	-8.09536
▁nå	-8.09541
hu	-8.10652
gu	-8.11017
▁mi	-8.11206
▁ar	-8.11242
▁go	-8.11517
▁6	-8.12052
▁ab	-8.1261
ard	-8.12681
lag	-8.12773
▁sam	-8.12836
ring	-8.13017
und	-8.13076
ó	-8.13284
ting	-8.13348
pa	-8.1336
▁store	-8.13835
ian	-8.14047
ni	-8.14068
iv	-8.14092
else	-8.14096
od	-8.14099
▁9	-8.14187
▁11	-8.1425
ier	-8.14818
nd	-8.1505
ans	-8.15179
▁ofte	-8.15221
len	-8.1529
6	-8.1536
▁ja	-8.15408
▁fire	-8.15686
▁vil	-8.15842
ine	-8.15866
▁senere	-8.16079
▁slik	-8.1616
ings	-8.16268
sel	-8.16285
▁z	-8.16321
elle	-8.16896
over	-8.17042
tal	-8.17214
▁john	-8.17585
ot	-8.17592
▁ge	-8.17673
▁vann	-8.17714
gang	-8.17732
▁te	-8.17754
▁ei	-8.17815
ering	-8.18105
idae	-8.1817
▁tra	-8.18474
▁spilt	-8.18515
tur	-8.18718
▁noen	-8.18728
les	-8.19411
▁fi	-8.19497
▁skal	-8.20172
ag	-8.20295
▁mest	-8.20373
pi	-8.20458
▁være	-8.20498
ord	-8.20783
ber	-8.20898
▁ki	-8.21591
▁ham	-8.21733
vin	-8.21743
ok	-8.21978
stein	-8.22081
dre	-8.2238
ion	-8.22898
ou	-8.23219
ow	-8.23334
mb	-8.23374
mar	-8.23455
bil	-8.23582
▁x	-8.2361
▁hel	-8.23722
▁kjent	-8.23869
▁tri	-8.24152
opp	-8.24568
ica	-8.24645
ation	-8.25265
▁nor	-8.25542
bb	-8.25962
tre	-8.26336
▁car	-8.26565
▁dr	-8.266
▁syn	-8.26786
sch	-8.26851
ä	-8.27144
▁kar	-8.27191
▁hos	-8.27417
ki	-8.27422
hi	-8.27534
▁innen	-8.2778
ium	-8.27841
ill	-8.28
▁ur	-8.2827
til	-8.28442
▁engelsk	-8.28479
yl	-8.28849
min	-8.28864
sted	-8.29197
ft	-8.29308
▁wi	-8.29431
▁sine	-8.29585
inyin	-8.29794
dag	-8.29869
em	-8.30029
▁rundt	-8.30047
▁lever	-8.30288
ingen	-8.30716
▁lang	-8.30784
tak	-8.31266
▁y	-8.31302
hus	-8.31602
følge	-8.31611
▁pre	-8.31761
▁skole	-8.31774
ede	-8.31961
▁alt	-8.32319
▁nær	-8.32677
▁innehold	-8.32722
▁største	-8.33115
▁ku	-8.33139
sti	-8.3333
ong	-8.33582
ty	-8.33597
ya	-8.34009
▁folke	-8.34092
▁ch	-8.34224
▁par	-8.34582
▁bra	-8.34828
▁ben	-8.34911
ron	-8.35002
▁siden	-8.35071
▁kr	-8.35643
ken	-8.35707
sp	-8.35811
▁selv	-8.3591
▁tro	-8.36004
▁bl	-8.36552
▁film	-8.36724
▁ad	-8.37018
per	-8.37182
▁langs	-8.37209
▁kirke	-8.37237
▁musikk	-8.37467
ung	-8.37973
▁com	-8.38478
▁all	-8.38568
▁mål	-8.38744
▁både	-8.38889
ud	-8.39149
familien	-8.39155
▁små	-8.3918
ru	-8.3952
he	-8.3959
▁val	-8.39899
▁kunst	-8.40345
▁fu	-8.40614
▁va	-8.40778
▁fo	-8.40796
mor	-8.41205
ius	-8.41256
du	-8.41739
▁san	-8.42062
▁20	-8.42107
sson	-8.42146
▁familien	-8.42381
▁kina	-8.42459
▁km	-8.42497
▁mat	-8.42527
▁vant	-8.42539
dalen	-8.42544
tu	-8.42634
▁leder	-8.42754
▁sta	-8.42774
tan	-8.4279
▁grunn	-8.42948
▁ol	-8.43052
▁my	-8.43242
ley	-8.4325
tsj	-8.43261
▁omfatter	-8.43379
▁norske	-8.4389
q	-8.43962
siden	-8.44659
и	-8.44731
jo	-8.44894
▁we	-8.4508
inn	-8.45381
tar	-8.45561
▁ver	-8.45637
▁tu	-8.45678
▁mu	-8.45695
par	-8.45763
▁når	-8.45772
▁ste	-8.45825
za	-8.45899
▁ag	-8.4595
art	-8.45987
▁juli	-8.4606
ju	-8.46075
verk	-8.46152
ug	-8.46309
▁bro	-8.46367
if	-8.46372
ji	-8.46408
ku	-8.46902
tte	-8.46961
▁betyr	-8.47111
kor	-8.47353
sten	-8.47369
fi	-8.47755
▁området	-8.4798
bre	-8.48164
▁sønn	-8.48213
▁gir	-8.48266
▁spiller	-8.48408
vo	-8.48671
▁mai	-8.48966
ld	-8.49267
▁laget	-8.49324
▁fl	-8.4933
▁norge	-8.49386
▁mon	-8.49416
gel	-8.49424
ologi	-8.49555
▁like	-8.49685
▁ke	-8.49874
▁hi	-8.49958
▁sal	-8.49986
▁sc	-8.5037
ran	-8.50533
▁kjente	-8.50547
▁fram	-8.50755
▁hen	-8.51085
bel	-8.51089
▁tid	-8.51411
▁hav	-8.51567
▁gjen	-8.5158
▁stein	-8.5183
▁mag	-8.51946
▁roman	-8.52023
▁gruppen	-8.52308
▁innenfor	-8.52334
▁op	-8.52379
dd	-8.52466
▁sand	-8.52538
▁god	-8.52787
wa	-8.53104
▁jan	-8.53138
kar	-8.53139
stre	-8.53152
dan	-8.53221
▁gul	-8.53537
ek	-8.53661
▁kl	-8.53798
▁følgende	-8.54032
▁new	-8.54038
▁art	-8.5404
▁vært	-8.54291
▁bru	-8.54377
▁ed	-8.54378
ator	-8.54415
▁pan	-8.54542
isme	-8.54657
ningen	-8.54667
▁ski	-8.54877
▁gift	-8.55022
val	-8.55274
lands	-8.55653
▁hus	-8.5594
▁parti	-8.56069
kon	-8.56108
▁berg	-8.56216
tall	-8.56267
▁samme	-8.56441
▁bok	-8.56486
▁chi	-8.56533
borg	-8.56548
▁hol	-8.56594
vet	-8.5662
▁fjell	-8.56658
uk	-8.56683
▁fem	-8.5675
dy	-8.56884
▁kultur	-8.57006
ab	-8.57201
▁eksempel	-8.57407
▁nasjonal	-8.57408
itet	-8.57539
stand	-8.57612
▁fe	-8.57663
ham	-8.57683
bar	-8.57697
▁oslo	-8.57761
▁videre	-8.57973
far	-8.57993
ana	-8.58173
kker	-8.58337
▁provinsen	-8.58371
▁kommunen	-8.58443
▁br	-8.58604
▁folketelling	-8.58737
mål	-8.58886
zi	-8.58895
slag	-8.58921
gh	-8.59005
heim	-8.5905
▁kommer	-8.59175
о	-8.59239
▁mars	-8.5933
▁kj	-8.59436
е	-8.59445
tiv	-8.59502
▁moh	-8.59525
▁2002	-8.59564
met	-8.59618
▁skrev	-8.59679
▁eks	-8.59761
▁brukes	-8.60356
▁tok	-8.60434
▁vo	-8.60447
tisk	-8.60542
fly	-8.60715
▁verdens	-8.60822
▁hele	-8.60997
▁høy	-8.61001
ight	-8.61188
est	-8.61204
▁nye	-8.61295
tid	-8.61401
tin	-8.61428
mme	-8.61479
▁bil	-8.61691
ks	-8.61702
▁bre	-8.61772
▁on	-8.62041
kel	-8.6216
lan	-8.6228
▁ulike	-8.62422
nings	-8.62553
we	-8.62608
▁jord	-8.62838
▁kor	-8.62956
ā	-8.63134
kke	-8.63134
▁tv	-8.63528
▁van	-8.63552
▁tur	-8.63555
kan	-8.63812
▁cha	-8.63898
▁fast	-8.63957
▁ak	-8.64053
▁os	-8.64117
▁fag	-8.64136
▁pu	-8.64227
folkerepublikken	-8.6424
▁august	-8.6424
▁vei	-8.64261
р	-8.64279
▁sjø	-8.64378
▁bruk	-8.64723
ari	-8.64783
▁øy	-8.64847
ska	-8.64988
▁må	-8.6512
▁vel	-8.65215
mmer	-8.6526
▁ord	-8.65477
▁enn	-8.65661
net	-8.65707
▁pla	-8.65813
▁lå	-8.66095
lia	-8.66527
ão	-8.66597
▁ty	-8.66662
а	-8.66672
▁col	-8.66719
▁mal	-8.67032
▁sj	-8.67298
▁sh	-8.67313
tiske	-8.67801
su	-8.67841
bro	-8.6809
ves	-8.68336
fe	-8.68367
ving	-8.68578
ini	-8.68747
▁vin	-8.68794
8	-8.68929
▁brun	-8.69054
tro	-8.69087
som	-8.69108
vel	-8.69138
▁kunne	-8.6917
▁sig	-8.69173
▁står	-8.69301
▁kong	-8.6932
▁ren	-8.69351
chi	-8.69352
nk	-8.69572
▁halv	-8.69639
▁hal	-8.6965
burg	-8.6966
▁gra	-8.69753
tes	-8.69797
▁tallet	-8.70122
▁selskapet	-8.70174
bruk	-8.70179
▁kur	-8.70322
laget	-8.70492
che	-8.70556
hr	-8.70598
ps	-8.70717
iker	-8.70821
syn	-8.70826
inger	-8.70892
mon	-8.70974
ige	-8.7103
bl	-8.71145
▁tysk	-8.71193
▁anti	-8.71436
▁gikk	-8.71508
▁fin	-8.71632
▁post	-8.71712
ller	-8.71812
▁bruker	-8.71815
à	-8.71879
▁sha	-8.71934
sto	-8.71972
dyr	-8.72008
gar	-8.7204
ika	-8.72052
ita	-8.7217
▁sto	-8.72182
▁von	-8.7232
and	-8.72454
log	-8.72489
▁amerikansk	-8.72668
fjorden	-8.72717
form	-8.72731
▁af	-8.72748
ice	-8.72773
ich	-8.72828
▁tillegg	-8.72833
▁form	-8.72838
▁motor	-8.7311
▁deres	-8.73123
▁opprinnelig	-8.73418
dom	-8.73582
bin	-8.73755
mel	-8.73852
tz	-8.73882
▁dan	-8.74071
▁språk	-8.74446
▁hennes	-8.74453
▁skog	-8.74469
▁begge	-8.74708
ze	-8.7492
▁je	-8.75092
▁blitt	-8.75147
▁gresk	-8.75191
pper	-8.75266
▁30	-8.75395
▁skulle	-8.75622
▁bare	-8.75654
ninger	-8.75741
ah	-8.75749
▁ly	-8.75797
lev	-8.7582
ris	-8.75845
løp	-8.7603
▁tar	-8.76175
▁ber	-8.76217
bok	-8.76299
▁lys	-8.76407
▁sen	-8.76464
▁gud	-8.7647
ach	-8.76485
rus	-8.76536
qu	-8.76611
▁ry	-8.76683
kom	-8.7681
res	-8.76998
▁pri	-8.77072
▁heter	-8.77079
▁wa	-8.77177
▁plan	-8.77224
▁2007	-8.7723
▁gjerne	-8.77343
▁grav	-8.77402
let	-8.77402
▁can	-8.77427
lat	-8.7747
veien	-8.77486
ay	-8.77577
ino	-8.77827
▁bli	-8.77904
л	-8.77969
▁barn	-8.77973
▁liste	-8.77985
senter	-8.78047
isering	-8.78082
▁mil	-8.78144
ú	-8.78181
▁seks	-8.78231
ding	-8.78254
▁meter	-8.78254
ap	-8.78591
yn	-8.78597
▁kra	-8.78604
▁kn	-8.78716
▁paul	-8.78823
ð	-8.78833
cu	-8.79082
▁au	-8.79279
▁januar	-8.79491
▁cor	-8.7964
øya	-8.79762
▁midt	-8.79766
▁rød	-8.79772
▁sommerfugl	-8.79829
sett	-8.79842
▁uten	-8.79867
▁pr	-8.79886
▁bor	-8.80039
▁via	-8.8007
up	-8.80097
▁norges	-8.80171
▁gar	-8.80421
50	-8.80469
▁president	-8.80479
▁rekke	-8.8049
xi	-8.80499
▁2008	-8.805
▁radio	-8.80517
før	-8.80631
nder	-8.80759
gan	-8.80817
▁hø	-8.80952
▁ex	-8.81022
mark	-8.81046
▁sv	-8.81063
▁2006	-8.81161
mester	-8.81203
kken	-8.81285
▁landet	-8.81396
mus	-8.81511
▁peter	-8.81642
▁eu	-8.81966
rik	-8.82009
▁skrevet	-8.82047
▁mel	-8.82054
▁lav	-8.82203
▁kinas	-8.8246
lå	-8.82472
ī	-8.82501
mat	-8.82633
▁25	-8.82902
▁farge	-8.82905
kle	-8.82931
vei	-8.82948
▁dem	-8.82961
▁rett	-8.83239
▁bur	-8.83241
▁000	-8.83302
▁bal	-8.83334
▁støtte	-8.8335
rom	-8.83426
▁fiske	-8.83472
han	-8.83598
▁ap	-8.83676
▁mont	-8.83833
▁gamle	-8.8394
▁pl	-8.83955
▁kun	-8.84177
spill	-8.84258
tri	-8.8429
▁person	-8.84439
▁natur	-8.84479
leder	-8.8455
▁ci	-8.84658
▁dy	-8.84691
og	-8.84709
fall	-8.8481
▁ob	-8.84887
satt	-8.84946
▁vise	-8.85082
enes	-8.85465
leg	-8.85615
▁lokal	-8.85715
▁gen	-8.85729
▁ul	-8.85753
lø	-8.85856
▁jeg	-8.85876
▁pat	-8.8596
jer	-8.86084
▁derfor	-8.86185
forening	-8.86353
fra	-8.86428
▁sang	-8.86516
ep	-8.8661
mal	-8.86667
▁robert	-8.8674
pl	-8.86746
▁kort	-8.86781
ski	-8.86888
▁blå	-8.87025
▁ø	-8.87082
▁side	-8.871
▁utgitt	-8.87134
ære	-8.87247
▁fred	-8.8736
▁hver	-8.87368
š	-8.87371
▁2005	-8.87385
▁2010	-8.87394
▁vis	-8.87412
▁19	-8.8742
▁tom	-8.8751
▁sm	-8.87518
▁pol	-8.8773
▁tilbake	-8.87737
▁un	-8.87853
▁industri	-8.8788
ighet	-8.87949
sj	-8.88038
▁stra	-8.88125
▁kv	-8.88222
råd	-8.88257
▁you	-8.88269
ale	-8.88469
bø	-8.88479
▁cu	-8.88705
är	-8.89005
sky	-8.8921
▁bjørn	-8.89339
▁spe	-8.89365
▁datter	-8.89367
ther	-8.89445
▁slekt	-8.89453
stat	-8.89461
▁sentral	-8.89794
pris	-8.89806
▁imidlertid	-8.89898
cc	-8.90112
setning	-8.90126
fer	-8.90364
vann	-8.9046
▁egen	-8.90506
rin	-8.90538
▁em	-8.9078
elig	-8.90841
10	-8.90973
iz	-8.90995
▁nu	-8.91053
kri	-8.91184
ai	-8.91209
▁svær	-8.913
▁tr	-8.91467
jø	-8.91546
▁2011	-8.91757
▁christian	-8.91769
▁pra	-8.91798
▁tekst	-8.92004
▁februar	-8.92117
▁william	-8.92117
ola	-8.92195
▁siste	-8.92332
▁arbeids	-8.9234
fl	-8.92367
ald	-8.92486
▁rom	-8.92735
▁deretter	-8.9293
▁medlem	-8.93001
▁kal	-8.93038
▁vanligvis	-8.93278
▁stil	-8.93391
▁hy	-8.93467
▁sosial	-8.93626
▁shi	-8.93726
rum	-8.93857
▁rø	-8.93888
så	-8.94036
ros	-8.94372
▁general	-8.94387
ført	-8.94452
anger	-8.94468
stu	-8.94526
fjord	-8.94567
▁ji	-8.94621
mu	-8.9466
▁juni	-8.94761
tiden	-8.94763
▁kla	-8.94857
▁ven	-8.94861
▁bred	-8.95011
▁innbyggertall	-8.95153
▁luft	-8.95229
▁inkluderer	-8.95238
▁forskjellige	-8.95361
▁mark	-8.95487
skog	-8.95499
▁særlig	-8.95592
fy	-8.95751
▁za	-8.95784
ål	-8.95789
ix	-8.95821
cy	-8.95876
▁styre	-8.95907
▁desember	-8.95926
▁november	-8.95926
▁mindre	-8.95994
▁liv	-8.96266
▁vol	-8.9636
▁bas	-8.96467
▁gull	-8.96469
▁ac	-8.96712
age	-8.96829
lys	-8.97036
▁besto	-8.97094
▁viktigste	-8.97129
▁sommer	-8.97158
lot	-8.97373
▁sett	-8.97385
ish	-8.9745
▁grå	-8.97598
▁slutt	-8.97667
▁usa	-8.97866
fri	-8.97887
▁stats	-8.97899
anlegg	-8.97911
▁topp	-8.98142
gre	-8.98209
▁ser	-8.98223
▁ska	-8.98276
▁inkludert	-8.98284
navn	-8.98324
▁band	-8.9844
▁svensk	-8.9865
elt	-8.98794
▁ring	-8.98853
værende	-8.98906
ban	-8.98946
▁thor	-8.98949
▁mann	-8.98979
banen	-8.99241
▁operatør	-8.99336
▁mac	-8.99354
▁carl	-8.99432
▁startet	-8.99448
▁filmen	-8.9948
▁innbyggere	-8.99484
mannen	-8.99591
område	-8.99614
▁sil	-8.99624
ister	-8.99629
punkt	-8.99687
vær	-8.99817
▁bergen	-8.99891
kje	-8.99897
▁mos	-8.99908
dig	-8.99937
▁vår	-8.99975
sund	-8.9999
▁est	-9.00029
▁gro	-9.00095
▁noe	-9.00097
ani	-9.00247
▁rock	-9.00309
▁arm	-9.00443
lekt	-9.00471
▁tak	-9.00475
our	-9.005
ath	-9.00534
▁barne	-9.00583
▁mus	-9.00607
selskap	-9.00703
▁2009	-9.00713
ida	-9.0076
isert	-9.00825
lie	-9.00838
▁tidlig	-9.00981
bert	-9.0105
rid	-9.01078
▁ky	-9.01151
▁samarbeid	-9.01213
▁para	-9.01304
rak	-9.01314
▁trans	-9.01432
port	-9.01687
mm	-9.01751
▁24	-9.01957
asjonen	-9.01974
▁dia	-9.02222
▁fal	-9.02518
fin	-9.02551
▁ev	-9.02563
med	-9.02575
▁xi	-9.02619
eres	-9.02697
▁bør	-9.02748
д	-9.02756
gård	-9.02808
▁jon	-9.02876
▁data	-9.02921
kter	-9.02924
▁lyd	-9.02933
▁gre	-9.03036
side	-9.0305
pre	-9.03084
▁fil	-9.03194
▁erik	-9.03386
lsen	-9.03482
lene	-9.0349
▁samtidig	-9.03592
▁foran	-9.03594
istisk	-9.03696
itz	-9.03796
ette	-9.03819
kh	-9.03867
ula	-9.03886
kin	-9.04003
landet	-9.04056
bus	-9.04059
▁følger	-9.04066
▁viser	-9.0411
▁distrikt	-9.0417
elsen	-9.04181
▁øya	-9.04183
▁ingen	-9.04214
▁riks	-9.04228
▁ban	-9.04232
rop	-9.04247
ky	-9.04285
▁bandet	-9.04401
▁les	-9.04573
▁spill	-9.04673
▁arkitekt	-9.04842
mand	-9.0489
▁hei	-9.04891
lse	-9.04941
▁ind	-9.04954
nor	-9.05019
▁dal	-9.05172
tion	-9.05209
▁sak	-9.05254
▁thomas	-9.05319
▁lands	-9.05319
▁latin	-9.05414
▁skolen	-9.05421
▁mod	-9.05454
huset	-9.05559
▁konge	-9.0567
ara	-9.05717
asje	-9.05734
▁utenfor	-9.05796
▁sø	-9.058
nu	-9.05935
▁21	-9.06036
▁får	-9.0607
è	-9.06078
ild	-9.06109
kul	-9.06143
legg	-9.06209
lle	-9.06285
▁døde	-9.06359
▁svart	-9.06417
▁først	-9.06442
▁gang	-9.06498
▁basert	-9.06581
pu	-9.06605
▁dikt	-9.06629
ip	-9.06698
▁tru	-9.06763
▁port	-9.06915
kov	-9.06917
▁lind	-9.06925
▁park	-9.06942
▁militær	-9.07003
▁såkalt	-9.07003
▁sangen	-9.07105
byen	-9.07287
▁grad	-9.07334
hl	-9.07381
fo	-9.07411
▁fla	-9.07433
α	-9.07438
▁flaggbærer	-9.07438
20	-9.07465
▁kron	-9.07478
grad	-9.07529
▁mm	-9.07578
don	-9.07807
▁elven	-9.07911
vern	-9.07936
alis	-9.0797
▁sub	-9.0811
film	-9.08113
▁helse	-9.08145
▁stat	-9.08148
▁verk	-9.08195
ib	-9.08255
pningsseremonien	-9.08314
▁april	-9.08315
▁don	-9.08347
tus	-9.08375
▁dermed	-9.08377
▁gran	-9.08473
bygd	-9.08506
▁rev	-9.0868
▁finner	-9.08683
▁keiser	-9.08764
▁helt	-9.0878
▁fransk	-9.08809
▁russland	-9.08815
▁beste	-9.08823
▁klubben	-9.08879
systemet	-9.09082
tel	-9.09124
án	-9.09193
▁organ	-9.09222
▁not	-9.09264
▁johan	-9.09274
▁wo	-9.09298
bra	-9.09299
▁hall	-9.09369
▁hvit	-9.09383
▁kyst	-9.09423
▁tradisjonell	-9.09491
▁familie	-9.09542
fisk	-9.09609
▁oktober	-9.09641
▁tal	-9.09707
▁fre	-9.09714
rud	-9.09769
▁martin	-9.09782
▁gr	-9.09877
▁nett	-9.09883
▁inter	-9.09956
▁studie	-9.10136
rede	-9.10303
▁22	-9.10333
▁vas	-9.10397
▁valg	-9.10402
▁fant	-9.10535
▁litt	-9.10571
▁red	-9.10594
▁23	-9.10796
▁tele	-9.11025
▁fylke	-9.11065
tun	-9.11112
▁regi	-9.11122
dra	-9.1124
▁opera	-9.11278
▁gal	-9.11322
lis	-9.11335
ket	-9.11429
▁mad	-9.11478
▁wal	-9.11573
▁mari	-9.11603
▁karl	-9.11657
sjøen	-9.1197
spiller	-9.12002
ata	-9.12057
kamp	-9.12145
▁system	-9.12315
old	-9.12435
▁och	-9.12468
olog	-9.12526
stol	-9.1258
▁maria	-9.12599
heten	-9.12727
▁begynte	-9.12809
▁tredje	-9.1281
asjoner	-9.12821
30	-9.12831
bær	-9.12916
60	-9.1294
jev	-9.12951
sjef	-9.13022
plan	-9.13174
▁venn	-9.1321
▁david	-9.13369
båt	-9.13415
liv	-9.13448
ikt	-9.13545
jen	-9.13644
▁gruppe	-9.13693
inne	-9.13694
▁uni	-9.13722
bygning	-9.13776
▁lett	-9.13778
kket	-9.14006
▁lov	-9.1406
▁george	-9.14064
▁spesial	-9.14085
▁fer	-9.14178
vil	-9.14195
▁1989	-9.14197
▁historie	-9.14211
в	-9.14267
▁full	-9.14344
tis	-9.14358
vid	-9.14373
▁res	-9.14461
▁es	-9.14463
78	-9.14585
▁2004	-9.14596
▁forfatter	-9.14652
stra	-9.14656
▁bad	-9.14677
▁egg	-9.14762
▁thi	-9.14973
føring	-9.15087
▁japansk	-9.1513
▁etablert	-9.15134
har	-9.15138
▁kle	-9.15263
▁teater	-9.15443
merke	-9.155
▁utviklet	-9.15526
det	-9.15546
▁igjen	-9.15614
▁fro	-9.15622
▁menneske	-9.15671
▁blod	-9.15709
▁antall	-9.15784
▁blad	-9.15853
▁air	-9.15911
istiske	-9.15967
▁kre	-9.16033
iserte	-9.16074
▁gammel	-9.16094
▁produsert	-9.161
▁eier	-9.16117
ble	-9.16164
▁brukt	-9.16192
▁veg	-9.16194
▁georg	-9.16307
40	-9.16402
pro	-9.16446
▁omkring	-9.16558
▁bror	-9.16559
▁lars	-9.16567
▁ek	-9.1667
vare	-9.16771
stykke	-9.16785
stående	-9.16789
senteret	-9.16822
▁lange	-9.16843
▁olav	-9.16906
▁ya	-9.17024
way	-9.17086
▁gav	-9.17153
01	-9.17155
iet	-9.17175
gle	-9.17192
isten	-9.17514
▁spesielt	-9.17515
▁cla	-9.17519
navnet	-9.17542
ör	-9.17593
skole	-9.17614
shi	-9.17625
evne	-9.17628
▁war	-9.17649
▁2001	-9.17652
gruppen	-9.17658
ity	-9.17659
▁mur	-9.17793
cia	-9.17857
▁student	-9.17862
▁fotball	-9.17864
▁liten	-9.17924
holm	-9.17931
▁større	-9.17997
zh	-9.18003
▁overtok	-9.18115
▁stre	-9.18147
▁året	-9.1831
ub	-9.18325
▁punkt	-9.18353
▁italiensk	-9.18484
ømme	-9.18489
▁minne	-9.18505
▁ten	-9.18662
▁råd	-9.18664
▁skjer	-9.18882
stasjon	-9.18949
oll	-9.18988
▁cas	-9.19045
lang	-9.19068
▁stort	-9.19136
tale	-9.19141
▁hår	-9.19166
▁få	-9.19194
с	-9.19215
ite	-9.19222
rød	-9.19257
▁kat	-9.19326
▁mc	-9.19453
unt	-9.19466
▁ve	-9.19511
arbeid	-9.19548
▁bille	-9.19596
▁christ	-9.19754
tegn	-9.19765
▁versjon	-9.1985
tig	-9.19924
у	-9.19954
▁pal	-9.19958
▁hovedstad	-9.20043
ij	-9.20228
våg	-9.2023
▁mis	-9.20308
ische	-9.20333
lighet	-9.20394
rio	-9.20402
zo	-9.20408
▁høyeste	-9.20448
lagt	-9.20569
▁th	-9.20673
▁europa	-9.20674
▁finn	-9.20941
▁september	-9.20947
▁hovedsakelig	-9.20952
fugl	-9.21028
▁utgjør	-9.21101
ala	-9.2129
▁eng	-9.214
▁stu	-9.21455
ider	-9.21569
pen	-9.21583
ano	-9.21688
▁dra	-9.21701
dde	-9.21746
▁ledet	-9.21828
my	-9.21907
øl	-9.21911
▁båt	-9.21924
▁standard	-9.21951
liggende	-9.21955
▁ung	-9.22006
que	-9.22008
▁ras	-9.22053
bas	-9.22192
ph	-9.22223
▁distriktet	-9.22323
▁plante	-9.22399
▁hell	-9.22424
stan	-9.22449
▁riksvei	-9.22513
klubb	-9.22561
к	-9.22561
▁cal	-9.22569
▁herre	-9.22569
ction	-9.22606
65	-9.22618
ney	-9.22818
▁26	-9.22874
bane	-9.22925
▁dessut	-9.22966
▁ram	-9.23017
▁west	-9.23058
gående	-9.23071
▁mått	-9.23079
oc	-9.23081
alder	-9.2313
▁28	-9.23179
▁internasjonale	-9.23345
lik	-9.23347
▁27	-9.2347
▁super	-9.23496
▁bø	-9.23587
▁sted	-9.23741
▁bank	-9.23827
lett	-9.23869
▁kilde	-9.23975
stå	-9.24028
▁arter	-9.24134
menn	-9.24152
stilt	-9.24333
▁kunstner	-9.24429
▁sel	-9.24478
▁tildelt	-9.24552
ella	-9.24563
▁jernbane	-9.24577
of	-9.24638
▁johannes	-9.24672
ater	-9.24738
plass	-9.2477
▁fjern	-9.24775
▁gitar	-9.24779
system	-9.24868
▁produsere	-9.24946
▁administrasjons	-9.24967
sal	-9.25022
gjør	-9.25041
▁prest	-9.25121
ssa	-9.25152
▁skuespiller	-9.25178
▁orden	-9.25206
▁representerte	-9.25224
▁arbeider	-9.25233
▁strøm	-9.25256
▁bass	-9.25338
qui	-9.25353
85	-9.25356
т	-9.25367
▁kraft	-9.25417
▁ordet	-9.25453
▁richard	-9.25541
▁dagens	-9.25624
▁lin	-9.2572
dals	-9.25914
gren	-9.26055
området	-9.26083
ive	-9.26084
the	-9.26251
løse	-9.2638
▁cap	-9.26388
▁gla	-9.26389
ologisk	-9.2649
tha	-9.26502
▁gy	-9.26538
stilling	-9.26559
▁lund	-9.26576
▁michael	-9.2659
zhou	-9.26625
▁albumet	-9.26663
ford	-9.26734
pol	-9.2674
▁yu	-9.26786
▁skip	-9.26811
на	-9.26812
▁us	-9.26816
▁samle	-9.26858
▁vinter	-9.26889
bjørn	-9.26999
▁2000	-9.27053
▁slag	-9.27104
ire	-9.2727
▁skrift	-9.27301
ferd	-9.27322
▁rot	-9.27357
▁bygget	-9.27458
fang	-9.27631
▁olje	-9.27709
▁tyske	-9.27766
ati	-9.27783
graf	-9.27991
▁ball	-9.28156
anske	-9.28176
▁modell	-9.28228
▁årene	-9.28235
▁anders	-9.28317
▁hjelp	-9.2836
tok	-9.28386
mund	-9.28475
områder	-9.28489
▁holm	-9.28576
akk	-9.28611
▁politi	-9.28755
▁mas	-9.28757
erende	-9.28791
▁lei	-9.2887
▁bort	-9.2891
fon	-9.28962
gata	-9.29199
kommun	-9.29206
▁felles	-9.29207
rat	-9.29226
▁hvert	-9.29316
iner	-9.29543
▁serien	-9.29664
▁lille	-9.29687
▁40	-9.29693
▁und	-9.29731
enhet	-9.29733
gul	-9.29931
kant	-9.29939
▁ze	-9.30046
▁up	-9.30086
red	-9.30132
drag	-9.30141
▁syk	-9.30252
aks	-9.3027
▁region	-9.30278
tic	-9.303
▁gjorde	-9.30304
▁fylkesvei	-9.30371
▁2003	-9.30381
▁finsk	-9.30438
iti	-9.30444
ull	-9.30458
bor	-9.30471
▁bon	-9.30546
▁utgav	-9.30588
▁sir	-9.30621
▁aktiv	-9.3064
brudd	-9.30645
selskapet	-9.30676
▁plass	-9.30693
▁sund	-9.30748
▁flat	-9.30835
ledning	-9.30841
▁utvikling	-9.30862
aceae	-9.30925
skip	-9.3098
▁led	-9.30993
▁tittelen	-9.31009
mun	-9.31021
▁james	-9.31039
▁kro	-9.3112
▁len	-9.3112
rike	-9.31149
▁son	-9.31151
organ	-9.31171
jan	-9.31457
▁prosjekt	-9.31471
▁het	-9.31484
maskin	-9.31498
▁syd	-9.31532
all	-9.31602
▁fall	-9.3161
lund	-9.31612
▁ole	-9.31632
lon	-9.31741
▁kol	-9.31761
▁våpen	-9.31835
▁folk	-9.31874
▁lik	-9.31923
▁vind	-9.31978
м	-9.31979
▁kvinne	-9.31988
ben	-9.31989
dor	-9.3214
▁politisk	-9.32147
pel	-9.32209
▁løper	-9.32243
▁type	-9.32268
klar	-9.32278
▁pen	-9.32515
▁oppkalt	-9.3257
▁just	-9.32571
▁ordenen	-9.32598
stoff	-9.32655
▁ph	-9.32748
н	-9.32801
dis	-9.32809
bank	-9.32894
ografi	-9.32904
▁gil	-9.32999
▁ok	-9.33069
fest	-9.33078
▁kontroll	-9.33082
eri	-9.33082
▁will	-9.3311
▁win	-9.33113
low	-9.33122
▁31	-9.33169
▁anne	-9.33197
▁jens	-9.3321
68	-9.33293
▁viktige	-9.33315
▁50	-9.33315
vinger	-9.33357
tta	-9.33398
▁driver	-9.33405
▁bri	-9.3343
▁ganger	-9.33452
band	-9.33498
▁annen	-9.33554
lus	-9.3356
74	-9.33703
▁informasjon	-9.33726
dro	-9.33809
tatt	-9.33815
▁enkelte	-9.33881
▁arne	-9.33901
fu	-9.33965
▁slekten	-9.34163
▁åtte	-9.34186
▁linje	-9.34235
minister	-9.34236
▁representere	-9.34265
▁spor	-9.3429
bygg	-9.34316
els	-9.34354
▁elva	-9.34358
▁knut	-9.34383
▁idretts	-9.34425
hal	-9.34476
▁hor	-9.34555
▁ang	-9.34703
▁ville	-9.34715
van	-9.34719
▁cy	-9.34834
▁mye	-9.34856
get	-9.34888
▁jobb	-9.34953
ura	-9.34986
▁lite	-9.35002
zz	-9.35005
▁egne	-9.35026
▁poly	-9.351
▁hed	-9.3529
▁ep	-9.35352
▁bygge	-9.35357
▁vanlig	-9.35365
б	-9.35411
▁sw	-9.35431
kast	-9.35551
trykk	-9.35575
din	-9.35593
ved	-9.35632
ativ	-9.35632
king	-9.35653
▁die	-9.35701
▁frank	-9.35752
▁stemme	-9.3583
▁krigs	-9.35864
blad	-9.35901
▁kh	-9.35932
▁skje	-9.35945
▁hjemme	-9.35958
č	-9.35989
ν	-9.35989
▁privat	-9.35996
▁ett	-9.36045
90	-9.36059
▁100	-9.36298
fag	-9.36317
▁én	-9.36427
ova	-9.36438
▁ref	-9.36471
ō	-9.36495
rev	-9.36505
ón	-9.36526
▁lege	-9.36527
▁hovedstaden	-9.36529
slav	-9.3671
wi	-9.36722
give	-9.36767
▁stedet	-9.37039
▁gård	-9.37051
▁hard	-9.37061
stru	-9.37062
hund	-9.37133
ott	-9.37149
hov	-9.37195
dar	-9.37221
syre	-9.37317
dt	-9.3732
▁stjerne	-9.37361
▁sul	-9.37417
kra	-9.37425
rig	-9.37532
▁hånd	-9.37661
▁kir	-9.37712
▁eksempler	-9.37743
▁staten	-9.37796
▁plate	-9.37802
▁fortsatt	-9.37858
lov	-9.38045
▁q	-9.38169
▁tang	-9.38259
▁odd	-9.38322
produksjon	-9.38444
▁design	-9.38451
deling	-9.38658
elva	-9.38762
▁fle	-9.38782
▁che	-9.39039
▁mik	-9.39045
▁ør	-9.39215
cha	-9.39264
▁strand	-9.39306
gaard	-9.39346
▁berlin	-9.39383
oli	-9.39429
▁dom	-9.39513
▁sverige	-9.39531
▁spilles	-9.39553
stil	-9.3958
ria	-9.39603
▁ana	-9.39627
▁qu	-9.39641
strøm	-9.39661
▁nærings	-9.39694
▁selskap	-9.39721
▁best	-9.39844
lær	-9.39929
▁sau	-9.39941
▁bir	-9.39946
skje	-9.3999
▁kongen	-9.40073
dia	-9.40076
▁sur	-9.4011
▁world	-9.40132
▁arbeidet	-9.40141
lla	-9.40143
▁cro	-9.40182
▁hjem	-9.40215
ark	-9.4025
lit	-9.40321
▁app	-9.40394
musikk	-9.40488
▁universitet	-9.40639
▁jern	-9.40682
farge	-9.40685
▁pris	-9.4069
▁she	-9.40718
stikk	-9.4076
pal	-9.40777
▁star	-9.40797
95	-9.40851
▁sl	-9.40909
▁rein	-9.4091
▁klar	-9.40914
▁lær	-9.40961
her	-9.40981
▁bern	-9.41269
13	-9.41294
▁tun	-9.41337
ì	-9.41347
▁nowiki	-9.41347
▁rik	-9.41395
▁bol	-9.41418
samling	-9.41441
fre	-9.41476
handler	-9.41503
▁tilby	-9.41533
▁ferdig	-9.41558
fører	-9.41603
37	-9.41705
ient	-9.41735
bru	-9.41764
formet	-9.41806
kop	-9.41826
manns	-9.41853
bånd	-9.41854
▁marker	-9.41857
▁cho	-9.41873
▁direkte	-9.41961
▁arabisk	-9.41962
▁2012	-9.41985
sin	-9.4208
▁energi	-9.42136
▁ter	-9.42139
▁hatt	-9.42186
af	-9.4219
felt	-9.42202
▁eneste	-9.42225
▁vit	-9.42298
▁regn	-9.42304
rich	-9.42346
▁metall	-9.42439
12	-9.42464
▁salt	-9.42519
ial	-9.42546
70	-9.42562
▁lufthavn	-9.42588
▁transport	-9.42646
nia	-9.42656
▁danner	-9.42728
▁tj	-9.42786
▁mak	-9.42819
ock	-9.42844
elli	-9.42852
▁bel	-9.42865
sak	-9.42914
kraft	-9.42918
80	-9.4295
win	-9.42951
▁grønn	-9.42974
▁blei	-9.42977
▁unn	-9.43034
▁regnes	-9.43154
▁partiet	-9.43197
tive	-9.43244
▁wei	-9.43245
▁bilde	-9.43319
skij	-9.43344
▁gate	-9.43427
ain	-9.43458
hav	-9.43569
ance	-9.43571
▁sky	-9.43813
▁venstre	-9.43864
▁skyld	-9.43866
▁edderkopp	-9.43944
hol	-9.43982
▁are	-9.4401
ult	-9.44024
▁sag	-9.44048
eksjon	-9.44068
arm	-9.44184
▁fv	-9.44212
▁fr	-9.44233
▁jean	-9.44288
én	-9.44424
▁1998	-9.44467
press	-9.4449
ismen	-9.44494
▁bind	-9.44503
▁fleste	-9.44519
lede	-9.44579
▁handels	-9.44588
▁80	-9.44629
▁eli	-9.44642
ob	-9.44755
ama	-9.44784
orm	-9.44816
58	-9.44827
▁elev	-9.44878
ordenen	-9.44902
▁historisk	-9.44938
▁rå	-9.44965
▁deler	-9.44967
tti	-9.45065
▁egentlig	-9.45102
▁div	-9.45159
▁nan	-9.45161
98	-9.45227
▁brann	-9.45243
loven	-9.45294
87	-9.45356
▁lek	-9.45373
▁ger	-9.45382
pan	-9.45413
▁tegn	-9.45499
ringen	-9.45523
pur	-9.45601
11	-9.45652
▁trykk	-9.45673
demokrat	-9.45685
▁samling	-9.45692
▁national	-9.45724
▁mun	-9.45828
able	-9.45847
lip	-9.45919
▁kors	-9.45975
▁press	-9.46011
▁pop	-9.46051
▁hær	-9.46136
▁sn	-9.46183
nsk	-9.46237
kur	-9.46308
gra	-9.4632
havet	-9.46329
▁løv	-9.46334
́	-9.46364
▁dar	-9.46383
39	-9.46426
▁eg	-9.46536
▁nytt	-9.46568
▁char	-9.46633
▁stav	-9.46652
▁ken	-9.4666
▁grenser	-9.46672
▁smal	-9.46727
▁album	-9.46867
▁gje	-9.46928
ins	-9.46937
gon	-9.47123
▁29	-9.47147
▁fugle	-9.47154
øst	-9.47167
eks	-9.47202
▁natt	-9.47228
hel	-9.47354
midler	-9.47414
▁kull	-9.47452
88	-9.4752
søk	-9.47593
eier	-9.4763
▁international	-9.47658
▁knytte	-9.47666
▁delta	-9.47672
▁1990	-9.47674
etter	-9.47696
▁erstatte	-9.47733
▁høyre	-9.47745
vekst	-9.47824
▁kjøp	-9.47868
35	-9.47916
69	-9.48021
48	-9.48171
arter	-9.48212
ι	-9.48312
messig	-9.48326
▁serie	-9.48373
▁byprefekturet	-9.48382
▁mottok	-9.48403
76	-9.48404
▁rund	-9.48415
full	-9.48441
äl	-9.48482
gress	-9.48544
15	-9.48624
uch	-9.48633
▁nok	-9.48687
industri	-9.48688
▁spar	-9.48691
grav	-9.48699
44	-9.48714
▁zu	-9.48727
▁dam	-9.48767
▁nils	-9.48889
dorf	-9.48903
▁delstaten	-9.48972
magasin	-9.48989
▁gitt	-9.49037
▁bio	-9.49048
▁hå	-9.49065
vig	-9.49137
hall	-9.49188
kos	-9.49191
▁off	-9.492
▁lan	-9.49275
middel	-9.49312
▁hest	-9.49318
elser	-9.4937
tom	-9.49512
84	-9.49526
ical	-9.49537
ick	-9.49605
ū	-9.49623
▁kristian	-9.49652
▁stø	-9.49665
▁finans	-9.49718
▁forsknings	-9.49757
▁grunnlagt	-9.49815
▁gansk	-9.49829
72	-9.49861
ås	-9.49961
▁middel	-9.49995
▁60	-9.50038
nar	-9.50096
▁tyskland	-9.50137
nett	-9.50149
▁old	-9.50162
▁gun	-9.5021
cl	-9.50252
▁vå	-9.50308
▁hjerte	-9.50336
▁luc	-9.50342
ram	-9.50343
▁mill	-9.50408
gram	-9.50556
99	-9.50648
bygging	-9.5065
grunn	-9.50724
▁andreas	-9.5075
tør	-9.50778
nik	-9.5081
▁tiden	-9.50845
▁offentlig	-9.5097
▁grand	-9.51006
▁kamp	-9.51012
▁sten	-9.51015
▁debut	-9.51019
los	-9.51025
foss	-9.51036
▁nevnes	-9.5105
retning	-9.51103
nom	-9.51109
vert	-9.51151
▁bj	-9.51155
▁mulig	-9.51163
▁moderne	-9.51175
▁bay	-9.51194
▁meg	-9.5122
skrift	-9.5123
61	-9.51288
▁hon	-9.51309
▁kraftverk	-9.51356
ann	-9.51397
nivå	-9.51422
▁bla	-9.51442
▁funksjon	-9.51453
62	-9.51472
gri	-9.51491
▁sanger	-9.5152
stro	-9.51536
▁omtrent	-9.51646
▁flo	-9.51669
▁spansk	-9.51714
▁veien	-9.51741
▁time	-9.51765
kka	-9.51841
▁eget	-9.51853
86	-9.51891
▁north	-9.51891
▁godt	-9.51936
ringer	-9.51939
▁larvene	-9.51941
dio	-9.5197
▁dor	-9.52021
▁santa	-9.52055
▁polsk	-9.52055
▁kas	-9.52165
66	-9.52301
18	-9.52327
blomst	-9.52327
▁louis	-9.52328
75	-9.5233
▁stasjon	-9.52332
▁fredrik	-9.52357
▁sve	-9.52371
▁kroppen	-9.5238
▁flu	-9.52403
field	-9.52412
▁årlig	-9.52415
▁bygg	-9.52448
▁arn	-9.52469
bakken	-9.52519
▁produksjon	-9.52594
▁prosess	-9.52607
46	-9.5262
▁reg	-9.52694
16	-9.52785
skudd	-9.52818
▁tall	-9.52892
▁din	-9.52901
▁kjøpt	-9.52979
▁univers	-9.52995
▁elektro	-9.53002
▁kirken	-9.53006
bare	-9.53055
▁black	-9.53095
▁nesten	-9.53181
trekk	-9.53253
vold	-9.53262
klo	-9.53264
▁myr	-9.53285
▁hage	-9.53335
osa	-9.53343
▁för	-9.53399
▁rad	-9.5345
▁bill	-9.53459
▁nasjonale	-9.53525
nis	-9.53609
▁max	-9.53624
rør	-9.53663
ł	-9.537
▁regionen	-9.53731
well	-9.53737
lei	-9.53749
▁elve	-9.53784
parti	-9.53958
▁års	-9.54046
▁dø	-9.5405
▁indre	-9.54078
feld	-9.54157
▁viktig	-9.54157
voll	-9.54165
fil	-9.5424
▁mørk	-9.54284
samfunn	-9.54287
uf	-9.54296
off	-9.54304
▁varme	-9.54339
feltet	-9.54375
▁ask	-9.54398
▁vid	-9.5441
▁felt	-9.54451
mod	-9.54513
shire	-9.54516
▁larven	-9.54539
▁class	-9.54585
▁bygde	-9.5463
▁forbindelse	-9.54649
▁kart	-9.54714
ith	-9.5472
▁vik	-9.54785
kil	-9.54817
▁nr	-9.54914
▁redaktør	-9.54969
▁tett	-9.54996
▁sølv	-9.55011
▁rh	-9.55013
67	-9.55046
▁lev	-9.55049
sberg	-9.55061
vogn	-9.55074
az	-9.55075
▁nes	-9.55088
belteasteroide	-9.55094
▁wilhelm	-9.55094
ρ	-9.55094
forbundet	-9.55099
▁typisk	-9.551
▁bygd	-9.55124
▁sim	-9.55143
▁litteratur	-9.55159
▁medlemmer	-9.55179
▁politiker	-9.5518
under	-9.55255
▁kommunene	-9.55267
strand	-9.55301
▁nam	-9.55404
partiet	-9.55415
▁anna	-9.55466
▁uk	-9.5555
▁beskrive	-9.55554
vers	-9.55655
ille	-9.55665
▁enkelt	-9.55674
▁vekt	-9.55676
▁cre	-9.55719
gler	-9.55803
▁university	-9.55809
▁1999	-9.55813
▁ein	-9.55843
▁komp	-9.55871
ico	-9.55925
stedet	-9.55956
▁preg	-9.55959
08	-9.55962
▁py	-9.55964
museet	-9.55971
▁eid	-9.56158
haug	-9.56257
fot	-9.56441
▁bolig	-9.56475
▁middelsstor	-9.56508
▁1980	-9.56524
▁høyde	-9.56529
innen	-9.56609
▁meget	-9.56632
kryss	-9.56639
▁maur	-9.56925
▁reise	-9.56989
hjul	-9.56996
▁vokal	-9.57073
chu	-9.57096
tyr	-9.57109
▁pin	-9.57147
▁mol	-9.57225
▁studert	-9.57243
▁gass	-9.57248
▁italia	-9.57287
77	-9.57307
▁konsert	-9.57331
illa	-9.57369
▁miljø	-9.57417
bladet	-9.57464
ax	-9.5747
▁tjeneste	-9.57492
ias	-9.57609
▁sort	-9.57752
språk	-9.57788
▁økonomisk	-9.57789
krets	-9.57881
renner	-9.57925
▁pave	-9.57928
departementet	-9.57941
▁kategori	-9.57941
▁dannet	-9.58013
▁flytte	-9.58019
gje	-9.58107
▁nev	-9.58155
▁hud	-9.58318
▁por	-9.58322
vatnet	-9.58379
▁kul	-9.58522
linje	-9.58541
cent	-9.5863
▁leg	-9.5863
▁glo	-9.58659
▁ran	-9.58665
representant	-9.58666
▁1996	-9.58678
▁svarte	-9.58714
▁søster	-9.5874
▁test	-9.58754
▁deltok	-9.5876
utgivelse	-9.58776
ique	-9.58791
▁produsent	-9.58817
▁kam	-9.58853
gå	-9.58891
bri	-9.58914
con	-9.58986
▁rolle	-9.58994
verket	-9.59005
mul	-9.59148
abel	-9.59155
▁gjør	-9.59197
stø	-9.59207
forbund	-9.59314
▁epi	-9.59377
▁finland	-9.59384
bibliotek	-9.59396
▁2013	-9.59424
▁nordøst	-9.59464
ping	-9.59469
▁horn	-9.5958
cher	-9.59594
▁lengde	-9.59693
gruppe	-9.59768
▁gam	-9.59842
car	-9.59925
styrke	-9.60063
▁http	-9.60134
▁mid	-9.60188
▁hører	-9.60219
▁hva	-9.60241
▁brukte	-9.60332
motor	-9.60419
korps	-9.60489
▁kjøre	-9.60509
▁with	-9.60527
oth	-9.60538
gitt	-9.60542
97	-9.60674
▁sentrale	-9.60738
▁søk	-9.60873
krig	-9.60887
▁angrep	-9.60952
rønn	-9.60973
▁populær	-9.60992
▁daglig	-9.61023
▁jag	-9.61028
▁delt	-9.61032
ios	-9.61037
▁angel	-9.61082
▁marine	-9.61093
▁oppført	-9.61114
▁zo	-9.61225
ure	-9.61248
gir	-9.61302
ulf	-9.61368
▁aust	-9.61384
▁helge	-9.61416
▁forsøk	-9.61546
delen	-9.61615
ppen	-9.61618
▁sentrum	-9.61619
▁bakvingen	-9.61622
71	-9.61659
▁island	-9.61684
last	-9.61685
▁dyre	-9.61725
hard	-9.61902
19	-9.61908
▁munn	-9.62017
gikk	-9.621
▁makt	-9.62191
▁dato	-9.62206
▁hvis	-9.62261
▁fest	-9.62273
fabrikk	-9.62281
▁stan	-9.62343
▁brenselkilden	-9.6237
▁borger	-9.62371
▁autonom	-9.62378
▁trondheim	-9.62382
▁1988	-9.62386
▁song	-9.62388
yo	-9.62413
▁kjerne	-9.62519
▁besøk	-9.62539
▁forsvar	-9.62555
▁dun	-9.62556
▁passer	-9.62607
mba	-9.62616
enberg	-9.62629
▁virksomhet	-9.62667
shan	-9.62697
ansk	-9.62709
▁35	-9.62724
▁sho	-9.62743
▁arbeid	-9.62768
й	-9.62825
▁imp	-9.62838
yang	-9.62858
▁motstand	-9.62873
▁camp	-9.62883
▁direktør	-9.629
fjell	-9.62925
än	-9.62934
▁virke	-9.62971
▁kap	-9.63028
▁harald	-9.63032
dige	-9.63047
â	-9.63118
я	-9.63128
▁york	-9.63136
mma	-9.63157
▁dyp	-9.63158
▁nar	-9.63234
14	-9.63261
dø	-9.63261
▁real	-9.63295
▁ungdoms	-9.63308
ade	-9.63406
san	-9.63434
ary	-9.63468
strid	-9.63474
▁pass	-9.63491
arbeider	-9.63501
▁domin	-9.63534
▁øke	-9.63585
▁32	-9.63588
41	-9.63617
ammen	-9.63655
▁dansk	-9.6368
rup	-9.63699
ira	-9.63702
▁gui	-9.63754
ori	-9.63885
oni	-9.63887
▁opprettet	-9.63889
▁power	-9.63912
▁los	-9.63918
▁charles	-9.63932
▁maskin	-9.63947
▁sko	-9.64019
▁elv	-9.64032
soldat	-9.64065
▁museum	-9.64074
▁cam	-9.64106
▁indisk	-9.64154
▁henrik	-9.64216
bedrift	-9.64243
▁tids	-9.64316
▁bat	-9.64335
øyene	-9.64433
▁åpnet	-9.64436
▁alb	-9.64533
▁90	-9.64538
plasser	-9.64556
grense	-9.64649
▁joseph	-9.6466
virkning	-9.64663
isjon	-9.64697
▁merke	-9.64709
▁japan	-9.64712
gjorde	-9.64745
heng	-9.64745
▁hill	-9.64788
▁nest	-9.64927
▁arten	-9.64932
ough	-9.64979
▁frukt	-9.65057
ato	-9.65198
п	-9.6536
94	-9.65461
fjellet	-9.65463
▁prosent	-9.65483
▁sun	-9.65513
▁sogn	-9.65559
klubben	-9.65563
93	-9.65624
▁kall	-9.65628
▁uttrykk	-9.65653
▁problem	-9.65661
▁verdi	-9.65665
▁sterkt	-9.65679
▁grense	-9.65699
▁hvite	-9.65792
ville	-9.65839
▁180	-9.65884
ernes	-9.65952
spir	-9.65967
▁betydning	-9.66036
▁nabo	-9.6605
▁rei	-9.66167
handling	-9.66169
ë	-9.66217
▁london	-9.66218
▁bokstav	-9.66219
▁brit	-9.66226
▁afrika	-9.66294
▁maler	-9.66296
ado	-9.66395
plassen	-9.66565
kirke	-9.66636
▁ris	-9.66737
▁that	-9.66779
▁may	-9.66789
▁vinner	-9.66826
▁temperatur	-9.669
løs	-9.6691
ß	-9.66997
▁ære	-9.67008
▁temp	-9.67009
▁1997	-9.67019
gal	-9.67028
havn	-9.67073
▁skrive	-9.67115
▁king	-9.67149
▁hund	-9.67154
▁hovedrollene	-9.67154
▁auto	-9.6723
▁long	-9.67241
▁boken	-9.67425
satte	-9.67561
▁perioden	-9.67584
ima	-9.67623
▁fører	-9.67677
λ	-9.67798
▁statsminister	-9.67816
▁samfunns	-9.67922
▁produkt	-9.67954
▁resultat	-9.67975
▁albert	-9.68052
▁johann	-9.68163
▁bou	-9.68298
▁betegne	-9.68311
aktig	-9.68314
▁rob	-9.68357
ras	-9.68373
▁dynastiet	-9.68401
ada	-9.68403
▁stiftet	-9.68437
▁omtale	-9.68453
▁offisiell	-9.68598
▁symbol	-9.68598
▁jazz	-9.68644
ies	-9.68645
ān	-9.68706
▁ye	-9.6878
▁høsten	-9.68784
▁tittel	-9.68805
64	-9.68851
løst	-9.68879
nummer	-9.689
▁il	-9.68967
mas	-9.68998
▁foss	-9.69017
spor	-9.69033
▁drive	-9.69046
▁yo	-9.69137
kkel	-9.69139
▁esp	-9.69186
▁grunnla	-9.69231
▁rep	-9.69234
trinn	-9.69395
▁original	-9.69401
▁forenklet	-9.69405
▁tydelig	-9.69409
▁klo	-9.69432
▁mini	-9.69454
▁likevel	-9.69464
vang	-9.69548
▁motta	-9.69558
dannelse	-9.69565
▁vold	-9.69597
hør	-9.6977
▁landsbyen	-9.69805
▁gor	-9.69832
▁høyt	-9.6987
drift	-9.69898
96	-9.6999
brun	-9.70015
▁seil	-9.70018
▁ce	-9.70106
period	-9.70169
0	-9.70181
▁betydelig	-9.70218
teknikk	-9.70218
▁tilhørte	-9.70219
▁ønske	-9.70238
▁multi	-9.70254
▁naturgass	-9.70303
skolen	-9.7033
▁love	-9.70332
▁forfatteren	-9.70354
▁aldri	-9.70373
merket	-9.70418
led	-9.70455
bein	-9.70484
ryd	-9.70503
sar	-9.70555
ritt	-9.70559
awa	-9.70559
38	-9.70584
samisk	-9.7062
▁linjen	-9.70661
▁stri	-9.70674
ball	-9.70732
▁web	-9.70733
▁sla	-9.70799
riket	-9.70827
▁inge	-9.70836
▁anlegget	-9.70859
▁trekk	-9.70905
lid	-9.70913
▁nummer	-9.70943
▁norrøn	-9.71037
▁millioner	-9.71037
▁øverst	-9.7104
utstilling	-9.7105
▁2015	-9.71069
▁2016	-9.71069
grep	-9.71186
▁eldre	-9.71219
▁bærer	-9.71239
▁borg	-9.71266
▁wu	-9.71284
sport	-9.71397
▁legge	-9.71456
oid	-9.71612
sam	-9.71656
▁sju	-9.71732
plante	-9.71755
25	-9.71764
▁start	-9.71797
▁verden	-9.71881
mos	-9.71911
▁blue	-9.71931
▁hopp	-9.71977
▁cat	-9.72013
▁hansen	-9.72027
▁lære	-9.72051
▁zi	-9.7209
funksjon	-9.721
▁70	-9.72112
▁vanlige	-9.72116
svik	-9.72223
▁roll	-9.72277
organisasjon	-9.72311
gro	-9.72377
lar	-9.72406
▁kin	-9.72407
▁havne	-9.72459
prisen	-9.72484
ridge	-9.72495
vand	-9.7251
områdene	-9.72536
▁cra	-9.72543
▁gjøre	-9.72547
24	-9.72554
▁turn	-9.72574
▁fylkes	-9.72588
▁tilsvarende	-9.72697
σ	-9.72697
▁www	-9.72697
▁sesongen	-9.72706
▁holde	-9.72735
▁sæ	-9.72883
▁syv	-9.72902
▁iii	-9.72937
63	-9.72991
▁stammer	-9.72998
▁tung	-9.7301
eppe	-9.73166
▁lærer	-9.73263
▁benytte	-9.73301
ric	-9.73337
isa	-9.73358
▁disk	-9.73412
▁behandling	-9.73417
▁grev	-9.73487
▁foreldre	-9.7354
▁1995	-9.73557
▁ari	-9.73562
▁kloster	-9.73582
▁rosen	-9.73594
yu	-9.73595
▁stamme	-9.73611
på	-9.73617
▁provins	-9.73625
▁daniel	-9.73627
phi	-9.73684
lapp	-9.73688
▁hit	-9.73735
▁tap	-9.73737
▁tam	-9.73754
▁hul	-9.73773
kort	-9.73794
yuan	-9.73794
▁dj	-9.73794
▁utdanning	-9.738
▁styrke	-9.738
historie	-9.73817
▁spiss	-9.73862
▁sor	-9.73877
▁danse	-9.73885
▁sku	-9.73887
oner	-9.739
styre	-9.73992
▁log	-9.73996
post	-9.74041
▁river	-9.74052
▁aur	-9.741
▁с	-9.74141
pha	-9.74165
▁instrument	-9.74169
▁drift	-9.74216
fond	-9.74216
bud	-9.74217
ô	-9.74384
τ	-9.74384
▁steder	-9.74385
▁eldste	-9.74386
▁biskop	-9.74389
▁mannskapet	-9.74397
▁anton	-9.74435
cheng	-9.74443
fart	-9.74633
▁kjell	-9.74655
våpen	-9.74672
avdeling	-9.74741
▁olsen	-9.74777
handel	-9.74779
▁danske	-9.74805
maleri	-9.7482
▁sommeren	-9.74846
▁dro	-9.74927
▁gjer	-9.74956
▁bob	-9.74957
folk	-9.75023
▁kval	-9.75129
▁cell	-9.75163
formede	-9.75212
▁personer	-9.75252
▁2014	-9.75268
▁avdeling	-9.75292
▁sivil	-9.75343
året	-9.75421
mur	-9.75425
hei	-9.75445
▁gården	-9.7545
▁jesu	-9.75569
55	-9.75606
▁skille	-9.75643
▁festival	-9.75672
▁kai	-9.75688
▁franske	-9.75694
▁konkurranse	-9.75723
▁stasjonen	-9.75745
▁dekk	-9.75773
regn	-9.75859
run	-9.75864
▁sports	-9.75867
trær	-9.76035
▁mørke	-9.7604
▁hode	-9.76043
▁typer	-9.76101
▁primær	-9.76102
▁whi	-9.76121
▁cm	-9.76122
kol	-9.76147
▁amt	-9.76154
91	-9.76166
▁eiendom	-9.76179
▁operasjon	-9.76179
▁tema	-9.76185
▁bom	-9.76193
▁foruten	-9.76218
▁india	-9.76246
ward	-9.76267
bakk	-9.76284
zu	-9.76287
▁akademi	-9.76288
jö	-9.76298
ín	-9.7634
ual	-9.76435
figur	-9.76451
aksjon	-9.76488
▁livs	-9.76543
▁neu	-9.76565
▁hoff	-9.76586
▁haug	-9.76607
▁tim	-9.76629
▁minst	-9.76646
▁fjord	-9.76694
pet	-9.76819
▁klasse	-9.76876
▁glass	-9.7688
løpet	-9.76885
▁selve	-9.76885
▁1982	-9.76971
▁1994	-9.76987
▁tenn	-9.77012
amerikanske	-9.77078
▁sendt	-9.7712
▁bit	-9.77164
▁løs	-9.77188
▁rute	-9.7719
dagen	-9.77202
▁stoff	-9.77209
▁sende	-9.77216
▁kalte	-9.77253
marked	-9.77286
▁jack	-9.77339
▁påvirke	-9.77386
▁gau	-9.77467
formen	-9.7748
▁ud	-9.77537
▁kraftig	-9.77563
▁britiske	-9.77572
▁lyst	-9.77578
▁svenske	-9.77673
▁cer	-9.77755
▁kost	-9.77759
▁blomster	-9.77774
lad	-9.77824
▁artikkel	-9.77846
▁fyr	-9.77869
▁que	-9.7791
▁wat	-9.77914
▁tho	-9.77924
och	-9.7801
▁skade	-9.78011
vekt	-9.78135
rådet	-9.78207
ekte	-9.78285
▁figur	-9.78383
▁gru	-9.78459
gue	-9.78567
rekord	-9.78589
▁heng	-9.78594
cio	-9.78598
▁fortsatte	-9.78598
▁møte	-9.78647
▁jacob	-9.7866
▁mø	-9.78727
▁øvre	-9.78745
▁middelalder	-9.78747
▁vinge	-9.7878
linjen	-9.78797
tog	-9.79093
dahl	-9.79099
▁klokke	-9.79101
zy	-9.79159
▁pap	-9.79196
▁front	-9.79269
can	-9.79368
▁inf	-9.79475
kirken	-9.79496
▁klassisk	-9.79629
▁nattfly	-9.79652
aria	-9.79672
28	-9.79686
▁but	-9.79713
▁henry	-9.79839
gard	-9.79874
tjeneste	-9.8005
hai	-9.80109
▁henne	-9.80119
wan	-9.80274
▁dyr	-9.80319
▁att	-9.80325
▁mess	-9.80335
▁sar	-9.80362
32	-9.80373
valg	-9.80462
▁1987	-9.80547
▁varierer	-9.80574
olje	-9.80584
▁benyttet	-9.8062
▁live	-9.80663
21	-9.80688
▁stift	-9.80709
▁benyttes	-9.80753
vit	-9.80775
▁kulturminner	-9.80806
dommer	-9.80822
▁barb	-9.80859
▁adel	-9.80868
rick	-9.8093
jord	-9.81063
kontor	-9.81086
▁fåt	-9.81115
▁turist	-9.81118
hm	-9.81125
jar	-9.81237
▁tw	-9.81258
anda	-9.81299
17	-9.81323
▁nederlandsk	-9.81323
▁krist	-9.81359
ο	-9.81429
ù	-9.81436
κ	-9.81436
▁komponist	-9.81437
▁club	-9.81438
▁1975	-9.81455
▁2017	-9.81461
vinner	-9.81477
▁pas	-9.81499
▁tverr	-9.81531
snitt	-9.81536
▁slott	-9.8165
work	-9.81684
▁områder	-9.81696
▁gall	-9.817
▁yi	-9.8174
park	-9.81806
▁simon	-9.81882
▁kok	-9.81894
▁ara	-9.81942
prosess	-9.81953
▁asia	-9.81982
ов	-9.82
▁matt	-9.82009
medlem	-9.82011
79	-9.82076
kilde	-9.82281
ч	-9.8235
ко	-9.82405
kjøn	-9.82459
isse	-9.82523
uri	-9.82561
varer	-9.82647
kamera	-9.82663
▁løp	-9.82723
▁drev	-9.82745
▁utført	-9.82767
com	-9.82845
▁cru	-9.82846
▁cur	-9.82963
kultur	-9.82969
▁organisasjonen	-9.8302
▁vær	-9.83046
▁music	-9.83052
▁satt	-9.83053
▁gard	-9.83085
▁slo	-9.83085
sol	-9.83093
▁energiselskape	-9.83129
▁snø	-9.83135
▁thr	-9.83136
▁lø	-9.83147
utvalg	-9.8316
▁elektrisk	-9.83279
▁nordvest	-9.83287
▁1993	-9.83296
▁1976	-9.83299
▁mah	-9.83308
▁drag	-9.83445
spinner	-9.83465
▁buss	-9.83558
▁leir	-9.83581
▁vill	-9.83727
▁total	-9.83751
▁shan	-9.83754
▁retning	-9.83754
▁æ	-9.83861
mengde	-9.83893
grupper	-9.83901
øve	-9.83941
▁tha	-9.83942
▁nrk	-9.83966
22	-9.83968
▁sørlig	-9.84006
▁langt	-9.84029
▁holder	-9.84057
parten	-9.84144
vendt	-9.84213
▁1992	-9.84214
▁xiàn	-9.84214
вич	-9.84217
▁buk	-9.84228
▁1991	-9.84229
▁1986	-9.84233
▁lyse	-9.84255
fortelling	-9.84275
▁totalt	-9.84278
▁out	-9.84341
▁drama	-9.84374
▁high	-9.84399
▁qui	-9.84403
▁fisk	-9.84408
atet	-9.84455
cal	-9.84487
▁jule	-9.84514
åsen	-9.84539
▁enten	-9.84576
▁forhold	-9.84578
eide	-9.8458
▁furu	-9.84703
rygg	-9.84749
virksomhet	-9.84786
▁effekt	-9.84797
▁steve	-9.84817
pin	-9.84824
▁hou	-9.84869
gården	-9.84947
▁od	-9.84952
▁from	-9.85025
▁svi	-9.85097
▁korte	-9.8511
ε	-9.85157
▁berømt	-9.85157
▁derimo	-9.85173
▁regjeringen	-9.85175
▁stavanger	-9.85178
▁gjelder	-9.85179
▁møtte	-9.85188
▁group	-9.85194
▁orkester	-9.85269
stille	-9.8529
▁franc	-9.853
vind	-9.854
▁city	-9.85431
gruppa	-9.855
snegl	-9.85524
▁produksjons	-9.85546
elv	-9.85553
olo	-9.85663
▁ark	-9.8569
▁pun	-9.85696
air	-9.85717
▁marie	-9.85789
parken	-9.85804
45	-9.8584
▁fot	-9.85842
oksid	-9.85862
▁lokale	-9.85942
▁stod	-9.85987
▁utstyr	-9.85992
▁service	-9.8611
▁styrmann	-9.8611
ström	-9.8611
▁oblast	-9.86129
▁kampen	-9.86165
▁roma	-9.86227
▁small	-9.86292
ona	-9.863
▁brand	-9.86313
▁mobil	-9.8635
saker	-9.86426
▁paris	-9.86487
standen	-9.86533
zhi	-9.86541
stemm	-9.86597
program	-9.86705
▁gle	-9.8673
mper	-9.86734
sjø	-9.86896
ito	-9.86936
▁kontor	-9.86953
▁senter	-9.86974
ár	-9.86979
▁eva	-9.87048
▁deriblant	-9.87071
▁københavn	-9.87071
▁opprinnelse	-9.87071
▁school	-9.87072
▁dronning	-9.87078
▁klima	-9.87106
▁kjønn	-9.87108
▁kode	-9.87112
▁betegnelsen	-9.87115
meter	-9.87156
bart	-9.87175
▁retts	-9.87177
▁solgt	-9.87197
▁personlig	-9.87206
▁qua	-9.8722
▁his	-9.87269
▁feil	-9.87435
basert	-9.87503
former	-9.87525
▁naturlig	-9.8753
▁tan	-9.87546
36	-9.87572
▁andersen	-9.87586
▁33	-9.87621
▁republikken	-9.87751
zar	-9.87782
▁ledd	-9.87857
skapet	-9.87892
hode	-9.87908
dam	-9.87933
▁sjef	-9.87959
▁festning	-9.87967
undervisning	-9.8797
▁ann	-9.88019
▁1973	-9.88042
▁kilometer	-9.88045
▁south	-9.88055
▁fulgte	-9.88059
▁ordfører	-9.88073
▁saint	-9.88126
▁trommer	-9.88144
ön	-9.88148
▁stopp	-9.88167
▁aktivitet	-9.8822
▁ron	-9.88275
▁wen	-9.88329
▁høyere	-9.88415
33	-9.88488
▁harry	-9.88562
politikk	-9.88658
▁kari	-9.88694
▁ec	-9.88715
▁utgi	-9.88744
løsning	-9.88804
▁syr	-9.88824
▁ves	-9.88833
▁stig	-9.88844
kanten	-9.88868
▁tilhøre	-9.88887
▁oc	-9.88891
▁bevegelse	-9.88922
▁vikler	-9.88995
▁administrativ	-9.89022
▁storbritannia	-9.89022
▁tilknytte	-9.89022
▁katolsk	-9.89023
▁alltid	-9.89114
hof	-9.89115
liste	-9.89129
▁mir	-9.89181
▁universitetet	-9.89211
▁stål	-9.89225
▁bygningen	-9.89235
fjellene	-9.89238
▁160	-9.89244
▁økt	-9.89252
▁oftest	-9.89395
▁hodet	-9.89439
▁journalist	-9.89449
▁åpen	-9.89565
▁skriver	-9.89569
▁dekker	-9.8957
▁rag	-9.897
kanalen	-9.8975
▁faren	-9.89828
iva	-9.8991
▁prisen	-9.89935
▁boy	-9.89997
▁was	-9.90001
▁gunnar	-9.90028
▁frankrike	-9.9003
▁1970	-9.90035
▁størrelse	-9.90074
▁cle	-9.90085
▁hom	-9.90184
▁nådd	-9.90212
▁kata	-9.90227
▁tann	-9.90288
▁stille	-9.90288
▁neste	-9.90311
stripe	-9.9043
elige	-9.9046
▁geo	-9.90677
г	-9.90683
▁rose	-9.90694
erud	-9.90706
▁åpning	-9.90715
▁beg	-9.90724
▁intern	-9.90771
▁tanke	-9.90773
▁trafikk	-9.9079
sykdom	-9.90792
kysten	-9.90798
▁ordens	-9.90816
▁markeds	-9.90818
▁ull	-9.90838
▁innsjøen	-9.90933
▁krigen	-9.90999
ò	-9.91012
π	-9.91012
▁records	-9.91012
▁rike	-9.91015
▁nærmest	-9.91016
▁smith	-9.91036
▁1974	-9.91037
▁canada	-9.91038
▁fabrikk	-9.91038
▁konstant	-9.91041
▁bydistrikt	-9.91062
▁hustru	-9.91069
▁spre	-9.91123
lich	-9.91171
▁byer	-9.91177
▁tegnet	-9.91195
stjerne	-9.91236
hua	-9.91249
▁bud	-9.91371
▁krets	-9.91428
flat	-9.91444
onia	-9.91514
▁brenn	-9.91555
▁dog	-9.91562
klassen	-9.91565
▁phil	-9.91594
vitenskap	-9.91648
▁bonde	-9.91692
▁høye	-9.9172
▁human	-9.91779
wood	-9.91787
bal	-9.9179
miljø	-9.9179
museum	-9.91798
dong	-9.92023
▁magnus	-9.92032
▁qū	-9.92036
▁flertall	-9.9204
▁1972	-9.92044
▁uavhengig	-9.92045
amin	-9.92072
▁danmark	-9.92075
▁verne	-9.92179
vision	-9.92184
▁vokalist	-9.92242
▁teori	-9.92273
ago	-9.92278
▁team	-9.92339
rie	-9.9234
▁england	-9.92351
▁hem	-9.9237
▁lyn	-9.92407
gy	-9.92409
34	-9.92431
▁prof	-9.92502
medaljen	-9.92502
▁professor	-9.92577
▁niels	-9.92607
war	-9.92681
systemer	-9.92688
rute	-9.92811
kjempe	-9.92816
produsent	-9.9283
▁hente	-9.92884
▁dør	-9.92903
ы	-9.93043
ǎ	-9.93043
▁betjene	-9.93053
▁melodi	-9.93061
▁vor	-9.93063
▁1985	-9.93071
▁ansatt	-9.93089
wy	-9.93104
▁otto	-9.93128
sion	-9.93179
▁flyplass	-9.93181
person	-9.93182
lé	-9.93194
▁program	-9.93201
artikler	-9.9323
▁hellig	-9.93282
▁russ	-9.93319
▁holdt	-9.93379
produkter	-9.93414
▁fordi	-9.93427
▁bry	-9.93518
virke	-9.93519
inntekt	-9.93646
31	-9.93746
kropp	-9.93771
teori	-9.9379
zon	-9.93941
▁spise	-9.9401
▁musiker	-9.94052
posisjon	-9.94066
▁reference	-9.94074
▁1981	-9.94074
▁egypt	-9.94074
▁røde	-9.94083
materiale	-9.94173
▁tog	-9.94185
▁gli	-9.94288
hor	-9.94308
nntil	-9.94451
▁gold	-9.94451
▁skatte	-9.94482
pat	-9.94568
haugen	-9.94622
ен	-9.94636
▁frø	-9.94661
▁ferr	-9.94698
▁45	-9.94698
▁sier	-9.94718
▁fan	-9.94721
▁green	-9.94779
▁musik	-9.94792
▁bane	-9.94849
▁villa	-9.94914
▁interesse	-9.94954
stid	-9.94977
▁lignende	-9.95
plate	-9.95021
▁mester	-9.95052
ñ	-9.95115
ē	-9.95115
▁dobbelt	-9.95115
▁shanghai	-9.95116
ва	-9.95116
▁beijing	-9.95116
▁college	-9.9512
▁drept	-9.95123
▁1979	-9.95132
▁referere	-9.95149
▁grupper	-9.95178
nie	-9.95181
byrå	-9.95203
▁skipet	-9.95302
▁fol	-9.95329
▁nasjonalpark	-9.95391
▁verb	-9.95446
▁streng	-9.95456
serien	-9.9548
ending	-9.95489
▁komme	-9.95493
▁hannen	-9.95494
bord	-9.95617
▁aks	-9.9563
▁begrepet	-9.95659
▁gå	-9.95827
▁syl	-9.95836
▁rygg	-9.95857
▁teknisk	-9.95859
▁leve	-9.95862
▁miste	-9.9595
▁handling	-9.95995
forfatter	-9.96021
skjær	-9.96023
▁mennesker	-9.96029
møte	-9.96133
▁alternativ	-9.96168
▁jørgen	-9.96168
▁parlament	-9.96168
▁fremdeles	-9.96169
▁solo	-9.96172
▁alfred	-9.96184
▁alf	-9.96204
næs	-9.96211
tek	-9.96215
▁kjenne	-9.96263
festivalen	-9.96273
fartøy	-9.96324
▁rør	-9.96356
▁ytre	-9.96384
▁rek	-9.96453
▁korn	-9.9646
▁200	-9.96474
▁formel	-9.96568
▁union	-9.96575
▁delvis	-9.96646
▁gö	-9.9666
▁ube	-9.96689
betegnelse	-9.96758
levende	-9.96795
▁regjering	-9.96799
▁deutsche	-9.96858
▁single	-9.96903
▁dommer	-9.96936
▁karakter	-9.97001
▁gress	-9.97036
distrikt	-9.97056
▁populære	-9.9706
▁sær	-9.97078
sekretær	-9.97219
▁friedrich	-9.97232
▁australia	-9.97232
▁profesjonell	-9.97232
▁stockholm	-9.97232
▁relativ	-9.97234
▁internett	-9.97258
▁oscar	-9.97265
▁drammen	-9.97271
▁sørøst	-9.97303
alitet	-9.97323
▁az	-9.97349
▁dominere	-9.9738
hed	-9.97431
▁vers	-9.97467
▁regjerings	-9.97469
▁sea	-9.97538
▁mitt	-9.97547
▁150	-9.97676
fisert	-9.97682
▁åpne	-9.97689
valget	-9.97725
▁adam	-9.97726
leir	-9.97737
oppgave	-9.97771
wald	-9.97841
▁oliv	-9.97853
▁yng	-9.97854
▁regional	-9.97968
▁ah	-9.98069
regionen	-9.98212
▁tilgjengelig	-9.98307
▁vulkan	-9.98307
▁nikola	-9.9831
▁familiegruppen	-9.98333
▁1978	-9.98339
▁vingene	-9.98379
▁sunn	-9.98382
▁hum	-9.98417
▁overflate	-9.98417
▁parken	-9.98437
▁divisjon	-9.98479
▁utføre	-9.98498
vannet	-9.985
flue	-9.98505
▁400	-9.9856
vegg	-9.9858
▁sikkerhets	-9.9861
▁korea	-9.98672
▁kara	-9.98762
▁sven	-9.98767
▁mikro	-9.98783
▁kim	-9.98791
skift	-9.98882
kompani	-9.98941
bol	-9.98949
▁euro	-9.98966
▁ytter	-9.98969
▁kaptein	-9.98974
▁rang	-9.99019
▁jim	-9.99109
▁jevn	-9.99147
▁oversatt	-9.99158
somme	-9.99244
▁kvar	-9.99261
▁føde	-9.99293
forbindelse	-9.99318
kunst	-9.99347
▁digital	-9.99395
▁himmel	-9.99396
▁kontakt	-9.99405
▁sesong	-9.99411
▁josé	-9.99417
▁video	-9.99428
▁nicol	-9.99439
mple	-9.99455
ensis	-9.99457
▁seier	-9.99469
▁flagg	-9.99484
▁kropps	-9.99495
dikt	-9.99509
▁tau	-9.99509
idrett	-9.99534
▁måned	-9.99597
▁ansvarlig	-9.99598
▁award	-9.99604
assi	-9.99649
▁dannes	-9.99707
▁morten	-9.99761
▁tettsted	-9.99803
▁slaget	-9.99804
roman	-9.99837
▁teksten	-9.99904
lyng	-10.0019
sdatter	-10.002
bach	-10.0021
▁salg	-10.0026
▁plassert	-10.0027
▁fj	-10.0039
vor	-10.0044
▁gis	-10.0044
▁amerika	-10.0048
▁sannsynlig	-10.0049
▁vingespenn	-10.0049
μ	-10.0049
▁kardinal	-10.0049
▁hverandre	-10.0049
frekvens	-10.0049
▁inngår	-10.005
hjørne	-10.005
▁islam	-10.0051
▁1960	-10.0053
▁metal	-10.0054
gni	-10.0059
hallen	-10.0061
lser	-10.0073
kro	-10.0075
▁vokser	-10.0079
▁ramme	-10.0082
▁struktur	-10.0084
forhold	-10.0086
▁pic	-10.0089
▁mcc	-10.0106
▁histor	-10.0106
arbeidet	-10.0106
styret	-10.0107
▁sport	-10.0108
▁qi	-10.0109
▁britisk	-10.0111
27	-10.0125
▁troll	-10.0127
▁europeisk	-10.0131
▁75	-10.0144
▁ö	-10.0149
▁utdannet	-10.016
▁forbi	-10.0161
▁forkortet	-10.0161
▁ledelse	-10.0161
ledd	-10.0162
▁1964	-10.0162
▁1984	-10.0163
▁publisert	-10.0163
ро	-10.0165
▁1950	-10.0165
▁lansert	-10.0169
▁kjøl	-10.0175
kjør	-10.0176
bøker	-10.0177
▁kanon	-10.018
▁betydninger	-10.0186
▁bølge	-10.0191
▁artister	-10.0196
lm	-10.0215
▁funnet	-10.0222
▁fc	-10.0222
▁laste	-10.0224
▁ost	-10.0226
▁organisasjon	-10.0231
ition	-10.0242
▁gren	-10.0252
▁papir	-10.0252
▁tradisjon	-10.0252
▁verket	-10.0263
prosjekt	-10.027
ž	-10.0273
▁spesiell	-10.0273
▁svømme	-10.0277
▁sverd	-10.028
galleri	-10.0281
▁romersk	-10.0281
▁sammenheng	-10.0281
næring	-10.0282
▁had	-10.0286
ić	-10.0302
▁normal	-10.0303
ст	-10.0305
iro	-10.031
▁aas	-10.0311
time	-10.0315
▁forekommer	-10.0325
▁arc	-10.0327
▁nordlige	-10.0328
▁bydelen	-10.0337
finalen	-10.0344
42	-10.0345
▁sønnen	-10.0349
▁ansvar	-10.0369
▁prøve	-10.0371
▁sym	-10.0372
▁36	-10.0379
økonom	-10.0383
▁prefektur	-10.0386
▁1983	-10.0386
▁inspirert	-10.0386
▁osv	-10.0387
▁gustav	-10.0387
hånd	-10.0388
▁bekrefte	-10.0389
▁fortsette	-10.0397
mesterskapet	-10.04
▁kha	-10.0402
jak	-10.0404
måte	-10.0406
nøtt	-10.0411
▁piano	-10.0411
▁kjempe	-10.0412
utøver	-10.0413
▁34	-10.0416
pleie	-10.0416
ila	-10.042
▁eik	-10.0423
▁chu	-10.0433
▁rov	-10.0437
▁500	-10.0438
▁hunnen	-10.0449
▁intel	-10.0452
▁moren	-10.0454
▁tettstedet	-10.0464
▁term	-10.0466
▁hov	-10.0473
▁kjemisk	-10.0482
23	-10.0488
▁cham	-10.0489
▁penge	-10.0496
▁masse	-10.0497
▁akt	-10.05
▁registr	-10.0501
▁arrangert	-10.0501
▁elisabeth	-10.0501
▁jakob	-10.0501
fekt	-10.0502
▁forteller	-10.0502
▁1967	-10.0504
undersøkelse	-10.0505
▁rektor	-10.0506
cup	-10.0508
▁foto	-10.0509
▁kru	-10.0509
▁pil	-10.0511
▁snakke	-10.0515
bygningen	-10.0517
▁fett	-10.052
▁tonn	-10.0524
rek	-10.0525
▁arkiv	-10.0536
▁underlagt	-10.0536
▁torg	-10.0539
▁semi	-10.0541
▁behandle	-10.0543
▁emil	-10.0544
▁sider	-10.0546
trolig	-10.0547
feng	-10.0548
▁medisin	-10.055
▁inc	-10.0554
▁tone	-10.0558
▁forlag	-10.0561
kvart	-10.0561
språklig	-10.0566
▁forsker	-10.0567
blom	-10.0572
▁bedre	-10.0573
foreningen	-10.0582
verdig	-10.0583
▁roger	-10.059
▁55	-10.0592
▁dahl	-10.06
▁irsk	-10.0604
▁valgt	-10.0608
▁mw	-10.0615
▁ukrainsk	-10.0618
▁gjeste	-10.0618
▁nilsen	-10.0618
▁hurtig	-10.0619
▁1971	-10.062
▁1968	-10.062
horn	-10.0623
▁wall	-10.0623
▁klubb	-10.0626
▁forretnings	-10.0627
myr	-10.0629
▁gjenopp	-10.063
tjenester	-10.0631
bury	-10.0637
▁sukker	-10.0638
▁satte	-10.0638
▁lot	-10.064
▁bell	-10.064
▁arkitektur	-10.0643
ра	-10.0645
▁kalk	-10.0645
▁kåre	-10.0648
bit	-10.0648
26	-10.0651
▁foreningen	-10.0652
▁svein	-10.0654
rot	-10.0657
strup	-10.066
ç	-10.067
▁rune	-10.0672
▁petter	-10.0673
▁thu	-10.0673
slekten	-10.0686
▁opphav	-10.0687
▁38	-10.0689
▁myk	-10.0716
ander	-10.0722
▁bronse	-10.0723
bak	-10.0732
▁utnevnt	-10.0735
▁millimeter	-10.0735
kapasitet	-10.0735
▁alexander	-10.0736
▁fjerde	-10.0736
▁noctu	-10.0736
▁sykehus	-10.0738
verdi	-10.0743
▁one	-10.0744
▁omfattet	-10.0744
▁mangler	-10.075
▁dvs	-10.075
▁ola	-10.0756
polis	-10.0759
▁former	-10.076
▁trond	-10.0761
▁trener	-10.0763
ponent	-10.077
ux	-10.0772
29	-10.0777
▁fed	-10.0782
▁pur	-10.079
▁starter	-10.0792
▁fjorden	-10.0797
▁meta	-10.0797
▁aud	-10.0805
typer	-10.0807
lønn	-10.0808
▁eksp	-10.0809
lä	-10.081
▁scene	-10.0812
▁beskytte	-10.082
▁fjær	-10.0828
▁forsvars	-10.0831
format	-10.0834
▁gruve	-10.0836
lignende	-10.0849
▁befolkning	-10.085
▁spin	-10.0854
▁regissert	-10.0854
▁edward	-10.0857
▁omtalt	-10.0858
komme	-10.0861
▁wolf	-10.0862
utvikling	-10.0863
▁nordisk	-10.0863
▁poeng	-10.0864
kontroll	-10.0869
ōng	-10.087
▁bøker	-10.0872
▁metode	-10.0876
modell	-10.0881
▁landsby	-10.0884
krigen	-10.0902
▁nav	-10.0903
▁ivan	-10.0912
▁mono	-10.092
▁master	-10.0927
▁hj	-10.0933
▁formann	-10.0938
▁fry	-10.0946
▁eide	-10.0951
▁larsen	-10.0954
▁rask	-10.0957
▁polar	-10.0961
▁tale	-10.0966
▁hotell	-10.0969
stasjonen	-10.097
▁karriere	-10.0974
▁offisielt	-10.0975
advokat	-10.0975
▁1959	-10.0975
▁objekt	-10.0975
▁dårlig	-10.0976
plattform	-10.0977
▁1955	-10.0977
▁1977	-10.0977
folket	-10.0979
▁antonio	-10.0981
▁israel	-10.0982
▁sete	-10.0983
▁motiv	-10.0987
▁slett	-10.0988
innspilling	-10.0988
trafikk	-10.0992
▁vokste	-10.1002
▁hydro	-10.1006
litt	-10.1006
blanding	-10.1012
kryp	-10.1012
▁luk	-10.1021
▁bunn	-10.1021
▁arve	-10.1033
▁malm	-10.1036
▁forskning	-10.1039
vikler	-10.104
▁jam	-10.1042
bryter	-10.105
stell	-10.1052
ла	-10.1053
▁pad	-10.106
▁befolkningen	-10.1066
▁lie	-10.1075
rä	-10.1075
▁avisen	-10.1079
▁bach	-10.1083
▁kreft	-10.1084
vre	-10.1086
server	-10.1088
▁vakt	-10.1092
▁kommunist	-10.1092
friidrettsutøver	-10.1097
▁ytterligere	-10.1097
kompleks	-10.1097
▁lim	-10.11
▁programmet	-10.11
▁håkon	-10.1101
▁ever	-10.1102
mont	-10.1103
▁øvrige	-10.1103
▁flor	-10.1105
▁typen	-10.1114
sand	-10.1116
▁é	-10.1119
▁1000	-10.1123
▁storm	-10.1126
bevegelsen	-10.1128
▁sideelv	-10.1134
▁khan	-10.1138
▁spillet	-10.1139
polit	-10.114
▁svak	-10.115
▁palm	-10.1154
▁verker	-10.1154
endring	-10.1155
▁kraftige	-10.1155
▁magnet	-10.1157
▁rand	-10.1162
▁selge	-10.1164
firmaet	-10.1165
▁lån	-10.1168
ordning	-10.1171
▁gitarist	-10.1173
▁raskt	-10.1178
aktige	-10.1182
▁deles	-10.1188
▁grunnlegger	-10.1191
▁internasjonal	-10.1198
kelsen	-10.1202
▁mig	-10.1205
▁då	-10.1218
ς	-10.122
▁american	-10.122
▁episode	-10.1221
▁landbruks	-10.1221
▁skinn	-10.1222
▁dialekt	-10.1224
tempelet	-10.1226
▁sab	-10.1229
forskjell	-10.1229
▁kau	-10.123
▁signal	-10.1231
▁forvingen	-10.1233
▁east	-10.1235
▁bibel	-10.1239
▁tørr	-10.1239
▁jarl	-10.124
▁yngre	-10.1243
phon	-10.1248
▁wang	-10.1248
▁einar	-10.1249
▁kvinner	-10.1249
ative	-10.1266
▁overfor	-10.1277
typen	-10.1279
▁øyene	-10.1282
▁teknologi	-10.1285
▁bord	-10.1286
▁chang	-10.1287
skipet	-10.1288
▁adresse	-10.1295
skatt	-10.1295
▁fru	-10.1296
setting	-10.1303
▁busk	-10.1309
elius	-10.1312
▁bakke	-10.1323
▁normalt	-10.1323
▁fylket	-10.1335
▁dru	-10.1337
▁42	-10.1339
istene	-10.1342
halvøya	-10.1344
▁element	-10.1345
konstruksjon	-10.1345
▁passasjer	-10.1345
▁avslutte	-10.1345
spenning	-10.1345
▁hvilke	-10.1346
▁sørvest	-10.1346
▁royal	-10.1346
▁dverg	-10.1347
▁straffe	-10.1349
▁hendelse	-10.1351
▁krysser	-10.1352
▁300	-10.1367
▁kjemi	-10.137
programmer	-10.1373
▁oppdrag	-10.1373
▁anta	-10.138
▁oh	-10.1382
▁måne	-10.1383
▁grøn	-10.1386
▁språket	-10.1389
▁stilling	-10.1399
▁jakt	-10.14
▁grensen	-10.1401
▁skifte	-10.1413
▁cup	-10.1414
krever	-10.1418
tilbud	-10.142
gått	-10.1421
hvit	-10.1423
▁hin	-10.1424
▁fjellet	-10.1438
▁valgte	-10.1447
▁base	-10.1451
▁beat	-10.1452
▁corn	-10.1462
▁butikk	-10.1462
▁hö	-10.1462
stitusjon	-10.1464
▁sovjetunionen	-10.1472
▁tyrkisk	-10.1472
▁tegneserie	-10.1472
▁united	-10.1472
▁fokus	-10.1473
▁andré	-10.1473
▁sekund	-10.1473
▁hevde	-10.1478
▁skape	-10.1478
▁portrett	-10.1483
kapital	-10.1483
rolle	-10.1488
▁vitenskap	-10.1489
▁damp	-10.149
▁jiang	-10.1496
▁metro	-10.1497
▁bære	-10.1498
▁slå	-10.1499
album	-10.1503
butikk	-10.1504
hjem	-10.1504
▁bryst	-10.1505
▁ungdom	-10.1507
▁kristen	-10.1508
▁rod	-10.1512
▁utga	-10.1522
fik	-10.1531
▁kald	-10.1531
bygget	-10.1531
▁bow	-10.1539
▁ledes	-10.154
▁kammer	-10.1541
lokk	-10.1542
▁svar	-10.1546
▁resten	-10.1548
▁artene	-10.1565
▁reform	-10.1567
øvelse	-10.1568
klær	-10.1569
▁kamper	-10.1571
▁hil	-10.1571
ful	-10.1579
hand	-10.158
▁religiøs	-10.16
▁alkohol	-10.16
▁etterhvert	-10.16
▁yrkes	-10.1601
▁social	-10.1601
▁frederik	-10.1601
▁1969	-10.1603
▁skotsk	-10.1603
▁invest	-10.1604
▁michel	-10.1611
▁tempel	-10.1611
▁sankt	-10.1631
▁sterke	-10.1631
instrument	-10.1633
▁line	-10.1635
▁server	-10.1636
iano	-10.164
▁tatt	-10.1641
▁areal	-10.1641
▁bag	-10.1649
kraftverk	-10.1653
▁slu	-10.1669
▁reist	-10.1675
▁exp	-10.1683
▁jar	-10.1689
kasse	-10.1695
▁palass	-10.1702
▁hovedrollen	-10.1705
▁ishockey	-10.173
▁kjærlighet	-10.173
▁dekkvingene	-10.173
▁fødsel	-10.173
▁oversettelse	-10.173
▁moskva	-10.173
ος	-10.173
▁forårsake	-10.1731
▁insekt	-10.1731
▁1945	-10.1732
▁mary	-10.1733
anlegget	-10.1741
▁center	-10.1743
veksle	-10.1745
▁mala	-10.1749
▁wan	-10.1753
▁lavere	-10.1756
mä	-10.1756
▁atom	-10.176
▁økonomi	-10.1762
▁prins	-10.1763
▁last	-10.1768
effekt	-10.1769
▁wood	-10.177
▁måte	-10.1786
bukta	-10.1789
▁lagt	-10.179
▁gjort	-10.1794
▁krav	-10.1796
▁heller	-10.1798
▁aar	-10.1802
▁filosof	-10.1812
pil	-10.1823
▁sikte	-10.1825
▁filosofi	-10.1833
▁tai	-10.1843
pass	-10.1847
▁saga	-10.1852
øvrig	-10.1855
botn	-10.186
konsern	-10.186
▁1952	-10.1861
strøk	-10.1862
▁für	-10.1863
▁stadion	-10.1863
▁sara	-10.1863
▁1962	-10.1864
▁scott	-10.1867
▁hjerne	-10.1869
barn	-10.1872
▁major	-10.1872
▁vanligste	-10.1874
▁1900	-10.1874
▁persisk	-10.1883
▁jøde	-10.1887
▁good	-10.1888
ка	-10.1892
▁latinsk	-10.1893
▁offiser	-10.19
direktør	-10.1901
▁mulighet	-10.1901
▁nivå	-10.1907
▁fremste	-10.1907
▁silke	-10.1916
▁viking	-10.1924
drakt	-10.1926
▁regel	-10.1929
▁ånd	-10.1938
▁funn	-10.1943
▁verd	-10.1951
serie	-10.1959
▁fler	-10.196
▁antenne	-10.1965
▁idrettslag	-10.1968
▁velge	-10.1968
mond	-10.1976
▁kg	-10.198
▁slått	-10.1986
▁analyse	-10.1986
utstyr	-10.1987
ь	-10.1993
▁innflytelse	-10.1995
▁religion	-10.1995
▁christoph	-10.1995
▁bakkroppen	-10.1995
▁gabriel	-10.1995
forsikring	-10.1995
mønster	-10.1996
▁ridder	-10.1996
▁pasient	-10.1996
▁nød	-10.1997
▁bevart	-10.2003
▁poet	-10.2005
▁brev	-10.2007
▁koll	-10.201
lidelse	-10.2012
▁koloni	-10.2016
▁beina	-10.202
▁marg	-10.2022
▁organisert	-10.2025
▁64	-10.2026
▁ernst	-10.2027
pion	-10.2031
ovitsj	-10.2033
forskning	-10.2038
holdsvis	-10.204
gift	-10.2044
slått	-10.2044
▁tradisjonel	-10.2047
▁paa	-10.2048
behandling	-10.2051
▁hjort	-10.2063
▁stadig	-10.2066
▁rosa	-10.2072
ington	-10.2073
▁lill	-10.2083
▁melk	-10.2083
▁vig	-10.2085
skrive	-10.2087
▁finale	-10.209
jå	-10.2092
spesifik	-10.2093
fysik	-10.2107
cula	-10.2112
▁vitenskapelig	-10.2119
dokument	-10.2121
vatn	-10.2128
seth	-10.2129
▁selvstendig	-10.213
▁suksess	-10.213
▁arthur	-10.213
kontrakt	-10.2131
▁techn	-10.2133
▁mei	-10.2137
▁pala	-10.2145
▁terje	-10.2147
▁øl	-10.2148
▁fotograf	-10.2159
tidsskrift	-10.2165
▁smak	-10.2173
▁walter	-10.2177
hild	-10.2177
skjold	-10.2181
▁hä	-10.2185
forsker	-10.2186
▁stam	-10.2187
▁internasjonalt	-10.2189
enburg	-10.2209
▁bispedømme	-10.2211
▁bestemt	-10.2216
▁skre	-10.2217
▁marit	-10.2219
▁publi	-10.2221
hemme	-10.2223
rente	-10.2242
▁sterk	-10.2245
fabrik	-10.2245
▁liberal	-10.2247
▁ash	-10.2257
▁forbinde	-10.2257
▁vu	-10.226
løytnant	-10.2267
▁institutt	-10.2267
▁varaordfører	-10.2267
▁science	-10.2267
▁sjelden	-10.2267
pedagog	-10.2267
▁mineral	-10.227
▁kvalitet	-10.2272
▁rolf	-10.2273
▁pedersen	-10.2273
▁kristin	-10.2279
▁filip	-10.228
▁blokk	-10.228
▁ey	-10.2281
organisasjonen	-10.2282
▁ltd	-10.2283
▁tapt	-10.2286
partner	-10.2287
cast	-10.2289
chel	-10.2298
eira	-10.231
versjon	-10.231
bekk	-10.2313
▁huset	-10.2314
▁fyrst	-10.2315
grå	-10.2321
▁bratt	-10.2326
▁innsjø	-10.233
mennene	-10.2332
▁vm	-10.2345
sundet	-10.2348
▁leon	-10.236
▁iso	-10.2362
zel	-10.2388
vika	-10.2389
▁material	-10.2393
▁kandidat	-10.24
▁lønn	-10.24
▁hebraisk	-10.2406
grunnsstasjon	-10.2406
▁tømmer	-10.2406
hastighet	-10.2406
ль	-10.2407
▁programleder	-10.2408
▁mytologi	-10.2409
▁1965	-10.241
egenskaper	-10.2414
▁jordbruk	-10.2414
▁slank	-10.2415
▁kast	-10.2419
▁munk	-10.2421
▁herman	-10.2425
▁ekstra	-10.2427
▁møter	-10.2433
▁regnet	-10.2438
vakt	-10.2439
styrt	-10.2444
▁geir	-10.2445
iya	-10.2449
kall	-10.2452
▁top	-10.2453
▁morgen	-10.246
▁artist	-10.2468
▁wil	-10.2469
▁forble	-10.2469
høyde	-10.248
sidig	-10.2483
ça	-10.2484
▁begrep	-10.2498
▁medlemmene	-10.25
▁pul	-10.2504
avtale	-10.2514
▁nettverk	-10.2521
gutt	-10.2531
▁mente	-10.2539
▁120	-10.254
▁ingeniør	-10.2541
▁arv	-10.2546
▁omfattende	-10.2547
▁company	-10.2547
▁generelt	-10.2547
▁sigurd	-10.2547
▁fattig	-10.2547
▁etterfølger	-10.2548
▁utnytte	-10.2549
▁rollen	-10.2549
▁1966	-10.255
▁tilsvarer	-10.255
variant	-10.2553
▁voks	-10.2553
høgskole	-10.2555
▁dokumenter	-10.2556
▁platen	-10.2562
▁gjeng	-10.2578
venn	-10.258
▁ankom	-10.2589
▁wel	-10.2596
zzo	-10.2604
▁rig	-10.2608
▁grov	-10.2624
▁hammer	-10.2624
▁back	-10.263
▁avhengig	-10.263
ligner	-10.2641
vá	-10.2641
▁modern	-10.2676
▁bull	-10.2677
fød	-10.2688
▁jin	-10.2689
▁1956	-10.269
▁1957	-10.269
▁tortricidae	-10.269
▁positiv	-10.269
▁østerrike	-10.269
▁kommunal	-10.2692
▁1961	-10.2693
▁1920	-10.2694
▁myndighet	-10.2694
▁brown	-10.2695
▁gjø	-10.2696
▁fungere	-10.2696
▁reaksjon	-10.2703
▁drikke	-10.2704
▁skjær	-10.271
▁johansen	-10.2711
▁bety	-10.2717
aki	-10.2732
▁krim	-10.2739
▁carr	-10.2741
▁eie	-10.2742
masse	-10.2743
▁mathi	-10.2752
konkurranse	-10.2753
rekke	-10.2756
teater	-10.277
▁carol	-10.2772
komedie	-10.2774
▁diktet	-10.2792
▁gott	-10.2796
ан	-10.2799
āng	-10.2805
herre	-10.2807
▁fritt	-10.2818
▁utløp	-10.282
▁begynner	-10.2834
▁skulptur	-10.2834
▁trøndelag	-10.2834
▁foregår	-10.2835
▁utvidet	-10.2835
▁nedenfor	-10.2835
▁town	-10.2838
▁nedre	-10.284
▁bombe	-10.2842
▁veldig	-10.2849
▁kapell	-10.2851
▁bai	-10.2852
blomsterflue	-10.2856
▁liber	-10.2857
▁kvinnelig	-10.2868
▁gutte	-10.2868
▁utkom	-10.2872
kull	-10.2872
▁junior	-10.2873
dekk	-10.2882
▁gramm	-10.2898
dynastiet	-10.2902
historisk	-10.2903
▁vestlig	-10.2909
▁psykologi	-10.2909
fylt	-10.2914
type	-10.2915
▁acc	-10.2919
phy	-10.2926
kredi	-10.2935
▁kjøtt	-10.2939
brand	-10.2939
ев	-10.2939
▁cri	-10.2941
▁kirk	-10.2955
forestilling	-10.296
▁verneområde	-10.296
ific	-10.2968
▁alpin	-10.2973
▁sistnevnte	-10.2981
▁fiktiv	-10.2983
▁wade	-10.2983
terminal	-10.2985
tjenesten	-10.2986
▁skarp	-10.2986
▁nevnt	-10.2989
▁golf	-10.299
strå	-10.2994
▁skjell	-10.2997
▁carlo	-10.3002
▁nederland	-10.3004
▁bosetning	-10.3005
hopp	-10.3006
gelse	-10.3008
mission	-10.3018
▁jonas	-10.302
forsamling	-10.3022
▁bidrag	-10.3025
▁tilfelle	-10.3031
graph	-10.304
▁big	-10.304
▁nordland	-10.3042
teknologi	-10.3054
falt	-10.3054
sentral	-10.3055
ск	-10.3056
▁peder	-10.3057
pati	-10.3057
▁ført	-10.3061
kunstner	-10.3066
▁høst	-10.3076
bregne	-10.3077
▁vall	-10.3079
▁styrker	-10.3095
voks	-10.3097
▁frihet	-10.3114
▁planter	-10.3116
▁historien	-10.3123
▁giovanni	-10.3131
▁døgn	-10.3131
▁debutalbum	-10.3132
▁82	-10.3132
▁energy	-10.3133
okse	-10.3133
▁brasil	-10.3133
▁sverre	-10.3134
▁1940	-10.3135
▁ukjent	-10.3138
▁opprør	-10.3149
▁amb	-10.315
▁brødrene	-10.3152
bøkene	-10.3154
▁hundre	-10.3157
▁europe	-10.3158
▁feli	-10.3162
▁orgel	-10.3163
flekk	-10.3168
brett	-10.3169
▁fotballklubb	-10.3173
▁gaten	-10.3173
▁femte	-10.3178
▁grunnlag	-10.3186
scen	-10.3194
го	-10.3196
▁maj	-10.3199
gjort	-10.3206
▁lake	-10.3207
sentre	-10.3211
front	-10.3212
▁play	-10.3214
løft	-10.3223
▁della	-10.3229
▁politiet	-10.323
fell	-10.323
▁ferge	-10.3234
▁bygda	-10.3241
▁bjørk	-10.3244
▁handle	-10.3245
▁num	-10.3262
▁spp	-10.3278
▁140	-10.3281
arrangement	-10.3282
▁introdusert	-10.3282
▁kunnskap	-10.3282
▁musikalsk	-10.3283
▁spania	-10.3283
▁nærmere	-10.3283
komité	-10.3283
▁kveld	-10.3284
▁lengre	-10.3288
faktor	-10.3288
▁arrest	-10.3289
▁detalj	-10.329
▁tran	-10.3291
utgave	-10.3297
▁tropp	-10.3297
▁karbon	-10.3299
▁hypo	-10.3306
▁archi	-10.3316
dium	-10.3321
▁voksne	-10.3326
▁hekk	-10.3346
▁who	-10.3353
▁chris	-10.3359
iansk	-10.3377
▁skjold	-10.3379
▁spørsmål	-10.3387
chester	-10.3392
▁utenriks	-10.3397
▁historiker	-10.3401
▁listen	-10.3401
▁lenger	-10.3417
▁østlig	-10.3422
▁snu	-10.3422
▁cel	-10.3423
▁bog	-10.3424
▁tolv	-10.3432
▁bydel	-10.3435
▁1953	-10.3436
▁eventyr	-10.3436
▁ekstrem	-10.3436
▁mekanisk	-10.3436
▁oppstår	-10.3437
strekningen	-10.3437
▁redusere	-10.3437
▁1926	-10.3438
▁studio	-10.3438
▁isbn	-10.3439
▁vanskelig	-10.3439
▁1948	-10.3439
icus	-10.3442
▁forvaltnings	-10.3444
kostnad	-10.3448
administrasjon	-10.3452
▁grønland	-10.3465
▁600	-10.347
▁show	-10.3475
▁life	-10.3477
▁colo	-10.3483
▁rulle	-10.3488
▁lunge	-10.3489
formasjon	-10.3494
▁ettersom	-10.3509
▁sovjetisk	-10.3511
▁marin	-10.3521
▁endt	-10.353
tittel	-10.3532
▁aksje	-10.3551
gods	-10.3556
▁rav	-10.3562
▁maa	-10.3568
orum	-10.3572
passet	-10.3581
▁than	-10.3583
▁tyr	-10.3591
▁komponert	-10.3593
▁serbisk	-10.3593
lukke	-10.3596
▁1930	-10.3597
▁verdenskrig	-10.3604
▁arkeolog	-10.3612
trådte	-10.3617
▁down	-10.3619
arafa	-10.3622
landskap	-10.3624
▁trenings	-10.3644
▁kristne	-10.365
▁gross	-10.3654
strømmen	-10.3658
▁registrert	-10.366
flo	-10.3669
mmy	-10.3678
▁samisk	-10.3682
▁tårn	-10.3693
▁pont	-10.3702
▁1800	-10.3709
avgift	-10.371
▁medisinsk	-10.372
▁løk	-10.3724
▁arg	-10.373
ship	-10.374
kommunikasjon	-10.3741
ligning	-10.375
▁arrangeres	-10.3751
▁etterfulgt	-10.3751
▁katedral	-10.3751
▁1949	-10.3751
▁vunnet	-10.3751
▁skottland	-10.3751
krystall	-10.3751
▁symfoni	-10.3751
▁alvorlig	-10.3751
▁ungarsk	-10.3751
▁1963	-10.3754
terapi	-10.3755
▁telefon	-10.3755
▁novell	-10.3755
▁effektiv	-10.3768
møll	-10.3774
odden	-10.3774
▁qa	-10.3778
▁jeff	-10.3785
nemlig	-10.3789
konge	-10.3791
▁frei	-10.3803
▁periode	-10.3816
hovedstad	-10.3821
▁105	-10.3821
▁brian	-10.3835
domstol	-10.3839
frukt	-10.3846
▁sammenligne	-10.3847
visning	-10.3851
kron	-10.3871
hawk	-10.3871
bevis	-10.3878
▁utvikler	-10.3878
▁skall	-10.3881
nettverk	-10.3883
alisme	-10.3887
▁kw	-10.3893
▁proto	-10.3896
klasse	-10.3904
▁bulgarsk	-10.3912
▁1954	-10.3912
▁alexandr	-10.3913
▁fysisk	-10.3913
▁protein	-10.3914
▁generasjon	-10.3915
rettigheter	-10.3915
opplæring	-10.3916
▁petro	-10.3916
situasjon	-10.3919
▁komposisjon	-10.392
▁skytter	-10.3922
▁eksport	-10.3923
data	-10.3928
▁luther	-10.393
båndet	-10.3941
leng	-10.3957
▁qing	-10.397
bukk	-10.3974
▁henri	-10.3983
▁white	-10.3991
ally	-10.4011
▁ulv	-10.4011
▁xu	-10.4015
▁wild	-10.4038
prest	-10.4044
pensjon	-10.4049
▁nova	-10.4054
lengde	-10.4055
rapport	-10.4058
▁tell	-10.4064
▁shu	-10.4066
ekspedisjon	-10.4066
▁country	-10.4076
▁electric	-10.4076
▁færøyene	-10.4076
konservativ	-10.4076
▁eventuel	-10.4076
▁tolkien	-10.4076
▁jødisk	-10.4076
▁kombinert	-10.4076
▁innsats	-10.4077
▁naturreservat	-10.4077
regulering	-10.4077
▁oppdaget	-10.4077
▁gråbrun	-10.4079
▁musikkalbum	-10.4079
▁oberst	-10.408
følelse	-10.4081
▁finnmark	-10.4081
▁røyk	-10.4083
▁laks	-10.4087
▁statlig	-10.409
ætt	-10.409
recht	-10.4097
▁bang	-10.4103
▁tråd	-10.4104
▁fab	-10.4106
listen	-10.412
▁vestre	-10.4122
▁dyrke	-10.4128
▁grim	-10.4133
▁trø	-10.4135
▁great	-10.4143
▁status	-10.4154
klas	-10.4158
▁gris	-10.4164
▁lenge	-10.4165
ер	-10.4175
psykolog	-10.4186
áng	-10.4195
gaten	-10.4206
tromme	-10.4229
støtte	-10.423
▁homo	-10.4243
▁regissør	-10.4243
▁valgdelta	-10.4243
▁asteroide	-10.4243
▁edvard	-10.4243
▁cirka	-10.4243
▁kobber	-10.4244
▁stefan	-10.4245
▁skjedde	-10.4246
▁1939	-10.4247
apparat	-10.4247
▁varianter	-10.4248
▁lengst	-10.4249
▁sikre	-10.4249
▁alex	-10.4258
▁tykk	-10.4266
▁forbunds	-10.4268
kritisk	-10.4277
vall	-10.4277
▁vad	-10.4282
▁rau	-10.4286
melding	-10.4287
▁grunnlegge	-10.4296
▁innført	-10.4296
hest	-10.431
▁frp	-10.4312
▁beskrevet	-10.4315
komst	-10.4334
▁aksel	-10.4334
▁bøy	-10.4343
▁malte	-10.4344
▁årsak	-10.4349
ã	-10.4373
▁visse	-10.4396
forvaltning	-10.4405
▁utgangspunkt	-10.4412
▁skildre	-10.4413
kompetanse	-10.4413
▁tabellen	-10.4413
▁gjeld	-10.4415
▁stiftelsen	-10.4415
▁spring	-10.4419
▁spenn	-10.4427
▁fremført	-10.4428
▁plassering	-10.443
▁gyld	-10.443
▁fau	-10.4431
▁forsterke	-10.4431
kammer	-10.4437
▁cover	-10.4461
▁german	-10.4469
▁leif	-10.4472
▁bryn	-10.4477
▁kvit	-10.4483
ittisk	-10.4492
kjøring	-10.4492
hjelp	-10.4528
struktur	-10.4531
utdanning	-10.4532
fasade	-10.4535
gudinne	-10.4536
▁emb	-10.4536
jong	-10.4542
▁terror	-10.4545
▁170	-10.4552
▁ørn	-10.4567
ин	-10.4572
wick	-10.4583
υ	-10.4584
▁individ	-10.4585
▁restaurant	-10.4585
▁trommeslager	-10.4585
▁installert	-10.4585
▁undergrunnsbane	-10.4585
▁mexico	-10.4585
▁væske	-10.4585
▁således	-10.4585
▁betrakte	-10.4585
▁utdype	-10.4585
▁premier	-10.4586
▁rug	-10.4587
worth	-10.4587
▁opptrer	-10.4588
▁1928	-10.4588
▁1925	-10.4588
▁1944	-10.4589
▁pierre	-10.4591
▁snart	-10.4595
▁biografi	-10.4596
▁blank	-10.46
▁knud	-10.46
▁klarte	-10.4606
høyskole	-10.4608
▁vä	-10.461
▁dukke	-10.4612
▁kapp	-10.462
▁night	-10.4641
drevet	-10.4645
▁little	-10.465
▁retur	-10.4675
▁philipp	-10.4675
▁bodde	-10.4677
offiser	-10.471
▁automat	-10.4721
tind	-10.4724
▁indian	-10.4725
ould	-10.473
▁svovel	-10.476
betennelse	-10.476
▁fengsel	-10.476
▁fiolin	-10.4761
▁stortinget	-10.4761
▁oversikt	-10.4762
▁1929	-10.4762
▁tidsskriftet	-10.4762
▁1927	-10.4763
▁1922	-10.4763
▁1932	-10.4763
▁1924	-10.4763
▁beholdt	-10.4764
▁tildeles	-10.4764
tekst	-10.4769
▁demokratisk	-10.4771
▁jackson	-10.4773
▁jacobsen	-10.4775
▁hersker	-10.4776
eksamen	-10.4777
▁donau	-10.4782
▁glad	-10.4805
▁verksted	-10.4814
▁athen	-10.4848
▁kino	-10.486
▁jia	-10.4864
▁clo	-10.4866
▁bau	-10.4867
▁sax	-10.4868
olf	-10.487
ни	-10.4885
▁opprette	-10.4886
problem	-10.4887
bæk	-10.4895
▁slave	-10.4895
bølge	-10.4897
fattet	-10.4935
▁aleksander	-10.4939
▁arrangerer	-10.4939
▁association	-10.4939
▁systematikk	-10.4939
▁barnehage	-10.4939
▁negativ	-10.4939
stipend	-10.494
▁konsentr	-10.494
betjent	-10.4941
▁1942	-10.4941
▁1917	-10.4942
▁1946	-10.4943
▁1918	-10.4943
▁wilson	-10.4947
opplysning	-10.4954
▁län	-10.4966
dyktig	-10.4968
ytelse	-10.4984
▁grund	-10.4986
▁hyper	-10.5004
▁olympisk	-10.5025
blå	-10.506
politisk	-10.5063
rico	-10.5065
kjøp	-10.5072
agua	-10.5078
kirch	-10.5085
▁glu	-10.5094
▁revolusjon	-10.5095
arkiv	-10.5096
▁rub	-10.5107
aux	-10.5113
▁konflikt	-10.5121
▁tsjekkisk	-10.5121
▁kontinent	-10.5121
▁terreng	-10.5121
▁nedbør	-10.5121
▁valuta	-10.5122
▁fuktig	-10.5122
▁global	-10.5122
▁efter	-10.5122
▁elektronisk	-10.5123
▁fotballspiller	-10.5125
▁programvare	-10.5126
faglig	-10.5127
▁avledet	-10.5127
▁rednings	-10.5129
▁landskapet	-10.513
gjær	-10.5131
▁nederst	-10.5132
▁nordsamisk	-10.5133
▁emp	-10.5138
▁fyll	-10.5138
▁likhet	-10.5149
▁sveits	-10.5159
но	-10.5166
infeksjon	-10.5166
▁antennene	-10.5167
▁hilde	-10.5169
skaja	-10.5169
ifikasjon	-10.5172
▁mjø	-10.5188
harmoni	-10.5195
▁strekk	-10.5198
▁klippe	-10.52
▁forskjellig	-10.5206
▁kilo	-10.5215
▁egil	-10.5232
▁jä	-10.5234
▁hjemmeside	-10.5243
▁skuespill	-10.5249
▁road	-10.5253
▁francis	-10.526
akademi	-10.5266
▁bidra	-10.528
▁eksperiment	-10.5306
▁begynnelse	-10.5306
▁corporation	-10.5306
▁astronom	-10.5306
▁vesentlig	-10.5306
▁strategi	-10.5306
kjøkken	-10.5306
▁muslim	-10.5306
▁forkortelse	-10.5307
▁ansikt	-10.5308
▁ekteskap	-10.5308
▁1923	-10.5308
▁arendal	-10.5309
▁håndball	-10.5309
▁1935	-10.531
▁1958	-10.531
▁francisco	-10.5311
▁donald	-10.5313
järvi	-10.5313
▁styreleder	-10.5313
▁signert	-10.5313
▁bakgrunn	-10.5315
▁1910	-10.5316
▁allmenn	-10.5317
▁nedlagt	-10.532
grø	-10.5321
▁skuld	-10.5324
▁landsforening	-10.5325
▁kaffe	-10.5326
misjonær	-10.5327
▁sammenlagt	-10.5328
▁kongelige	-10.533
provinshovedstad	-10.5337
▁hotel	-10.5339
celler	-10.5341
▁mynt	-10.5341
familie	-10.535
та	-10.538
▁panser	-10.5389
▁etnisk	-10.5407
▁islandsk	-10.5411
tank	-10.5453
edderkopp	-10.5458
design	-10.5459
sønn	-10.546
▁svan	-10.5477
▁erkebiskop	-10.5495
▁washington	-10.5495
▁1947	-10.5495
▁tvilling	-10.5495
▁dokumentar	-10.5495
▁kjennetegne	-10.5495
▁1934	-10.5497
▁gerhard	-10.5498
▁henholdsvis	-10.5498
▁nyhets	-10.5498
▁1908	-10.5498
▁kongsberg	-10.5501
monument	-10.5501
▁bjarn	-10.5501
▁fremstille	-10.5502
fenomen	-10.5503
▁uttalt	-10.5506
▁demningen	-10.5507
▁bodø	-10.5509
▁tross	-10.551
▁nettsted	-10.5516
▁inneha	-10.5552
▁public	-10.5561
▁plast	-10.5573
ulykke	-10.5582
▁ulik	-10.5585
forsyning	-10.5588
▁santo	-10.5598
rommet	-10.5603
kjent	-10.561
▁130	-10.5644
arkitekt	-10.5653
medisin	-10.5654
bunn	-10.5671
▁israelsk	-10.5673
▁bulgaria	-10.5687
▁involver	-10.5687
▁münchen	-10.5687
bataljon	-10.5687
▁1951	-10.5687
▁initiativ	-10.5687
▁dirigent	-10.5687
▁vestfold	-10.5687
▁separat	-10.5687
▁skjønn	-10.5688
▁finskspråklig	-10.5688
orientert	-10.5689
▁reidar	-10.569
▁øyvind	-10.5691
▁1937	-10.5691
▁telemark	-10.5693
▁spredt	-10.5695
bebyggelse	-10.5696
▁tipp	-10.5696
▁axel	-10.5697
▁hindi	-10.5698
▁formula	-10.5698
▁klatre	-10.5706
tavle	-10.5711
▁håndverk	-10.5712
speil	-10.5718
▁operere	-10.5719
▁datterselskap	-10.572
styring	-10.5721
▁begrense	-10.5724
▁tekstil	-10.5726
▁victoria	-10.5741
▁nordover	-10.5748
▁oval	-10.5769
fødte	-10.578
▁reserve	-10.5783
▁sovjet	-10.5788
▁mau	-10.5815
▁løfte	-10.5825
sikkerhet	-10.5829
▁result	-10.5842
trenger	-10.585
divisjon	-10.5854
aktivitet	-10.5854
▁skyte	-10.5882
▁guvernør	-10.5883
▁konkurrere	-10.5883
▁utbredt	-10.5883
▁airlines	-10.5883
▁ovenfor	-10.5883
▁anerkjent	-10.5883
▁studioalbum	-10.5883
▁originaltittel	-10.5884
▁lewis	-10.5884
▁josef	-10.5884
▁teolog	-10.5885
▁1936	-10.5886
▁adolf	-10.5886
▁stadium	-10.5888
▁hjemmebane	-10.5893
▁pettersen	-10.5894
▁høyesterett	-10.5896
по	-10.5902
▁franz	-10.5905
▁rapporter	-10.5906
▁diplomat	-10.5907
samband	-10.5924
distanse	-10.5927
▁nevro	-10.5928
▁barneskole	-10.5929
▁heart	-10.5933
▁agder	-10.5948
redskap	-10.5955
▁fjellkjede	-10.5959
▁tusen	-10.5971
▁geit	-10.5975
metode	-10.5984
▁irland	-10.5995
▁beskrev	-10.601
▁virkelig	-10.6049
▁nazi	-10.6064
konsert	-10.6065
fiber	-10.6081
▁bestemme	-10.6082
▁aleksandr	-10.6083
▁fullstendig	-10.6083
▁support	-10.6083
▁parallell	-10.6083
▁respekt	-10.6083
▁evangeli	-10.6083
▁risiko	-10.6083
▁charlotte	-10.6083
▁bærum	-10.6084
▁midgard	-10.6085
▁godkjent	-10.6085
▁import	-10.6087
▁1916	-10.6087
▁werner	-10.6087
▁anvende	-10.6088
▁befinne	-10.6088
▁betong	-10.6088
▁generell	-10.6089
▁protest	-10.6089
▁møller	-10.6092
▁muskel	-10.6094
▁ørken	-10.6095
▁institusjon	-10.6096
▁kommunikasjons	-10.6096
▁bønn	-10.6098
abell	-10.61
▁hitler	-10.6101
veps	-10.6103
orkester	-10.6108
▁söd	-10.6112
▁isteden	-10.6114
▁hovedsak	-10.6117
▁fritz	-10.6119
▁johnny	-10.6121
▁mørkere	-10.6142
▁hytte	-10.616
dømt	-10.6167
hytta	-10.6177
brems	-10.6189
▁trekant	-10.6192
▁representert	-10.6206
▁salme	-10.6208
▁victor	-10.623
leddet	-10.6232
litteratur	-10.6268
tjern	-10.6272
lokale	-10.6277
▁kunde	-10.6286
▁vietnam	-10.6287
▁1904	-10.6287
▁sanskrit	-10.6287
vassdraget	-10.6287
▁ødelegge	-10.6287
▁central	-10.6287
▁konsept	-10.6287
▁kritikk	-10.6287
▁århundre	-10.6287
▁hovedkvarter	-10.6287
▁thailand	-10.6287
▁church	-10.6287
▁stryke	-10.6289
straße	-10.6289
▁flytende	-10.629
▁what	-10.629
▁1941	-10.6291
▁aero	-10.6291
▁rødbrun	-10.6291
▁1911	-10.6292
▁samuel	-10.6292
▁bundes	-10.6292
▁sykkel	-10.6295
vík	-10.6296
sypress	-10.6299
▁flekker	-10.6301
▁onkel	-10.6305
▁eirik	-10.6305
▁molde	-10.6311
ière	-10.6316
▁eriksen	-10.6321
▁1880	-10.6323
▁olaf	-10.6332
kjeden	-10.6366
▁book	-10.6366
▁rö	-10.6372
fast	-10.6411
▁mach	-10.6416
laug	-10.6426
sykler	-10.6434
kode	-10.6438
▁brunlig	-10.646
га	-10.6474
transport	-10.648
tveit	-10.6491
▁microsoft	-10.6495
▁1943	-10.6495
▁francesco	-10.6495
▁ludvig	-10.6495
▁søndag	-10.6496
▁theodor	-10.6496
sammenslåing	-10.6496
▁margaret	-10.6496
mekanisme	-10.6497
▁1931	-10.6498
▁inndelt	-10.65
▁space	-10.65
joki	-10.65
▁administrerende	-10.65
▁clark	-10.6501
▁hovedkontor	-10.6509
▁lisens	-10.6512
▁skilt	-10.6513
traksjon	-10.6514
▁canadi	-10.6516
▁hvile	-10.6518
▁blind	-10.6523
▁hjal	-10.6523
▁fuji	-10.6525
▁potet	-10.6538
▁young	-10.6544
▁grend	-10.6544
owski	-10.6561
reise	-10.6567
trukket	-10.6587
▁beskrivelse	-10.6591
▁utvikle	-10.6606
artist	-10.6609
turnering	-10.6613
то	-10.6633
signal	-10.6668
▁terra	-10.6672
kommisjon	-10.6687
▁regjer	-10.6689
▁intens	-10.6696
størrelse	-10.6696
stigning	-10.6706
▁orchestra	-10.6708
▁research	-10.6708
▁australsk	-10.6708
▁pakistan	-10.6708
▁erobret	-10.6708
▁antarktis	-10.6708
leverandør	-10.6708
▁stephen	-10.6708
veksling	-10.6708
▁sachsen	-10.6708
sekvens	-10.6709
protokoll	-10.6709
▁kriminal	-10.6709
▁utmerkelse	-10.6709
▁brensel	-10.6709
▁seinere	-10.671
▁ingrid	-10.6711
▁litterær	-10.6712
▁1919	-10.6712
▁definere	-10.6713
▁vannkraftverk	-10.6713
▁landskaps	-10.6713
▁barokk	-10.6714
▁koreansk	-10.6714
▁fullført	-10.6715
▁tegninger	-10.6715
▁turneringen	-10.6716
▁frykt	-10.6723
▁frå	-10.6726
▁diesel	-10.673
▁utenom	-10.6735
▁konst	-10.6736
▁party	-10.6743
▁kjørt	-10.675
▁bakover	-10.675
▁karakteristisk	-10.6757
▁automatisk	-10.6762
beskyttelse	-10.6771
▁moll	-10.6779
ohn	-10.6789
tårnet	-10.6792
▁geometr	-10.6799
ector	-10.6802
▁firma	-10.6812
▁philip	-10.6815
▁jente	-10.6847
shop	-10.6849
▁sveitsisk	-10.6881
▁larve	-10.6914
myndighet	-10.6918
republi	-10.6921
▁ferdinand	-10.6926
▁keyboard	-10.6926
▁tusenårssted	-10.6926
▁wergeland	-10.6926
▁krydder	-10.6926
▁innbyggerne	-10.6926
▁veksel	-10.6926
▁doktorgrad	-10.6926
▁senior	-10.6927
▁angripe	-10.6927
▁regulere	-10.6927
▁sannhet	-10.6927
▁embets	-10.6929
▁lokalisert	-10.6933
▁sandvik	-10.6935
▁bryggeri	-10.6935
▁bjerk	-10.6941
▁oppnådd	-10.695
▁avtalen	-10.6967
▁ungdomsskole	-10.6968
▁legend	-10.697
ий	-10.7013
▁drei	-10.7032
▁olympi	-10.7042
▁endelig	-10.705
aften	-10.7085
▁kä	-10.7095
▁gælisk	-10.7148
▁jomfru	-10.7148
▁renessanse	-10.7148
▁1907	-10.7148
▁göteborg	-10.7148
▁nøkkel	-10.7148
▁artilleri	-10.7148
▁kennedy	-10.7148
▁radikal	-10.7148
▁vietnamesisk	-10.7148
▁kommersiell	-10.7148
▁belgia	-10.7148
▁hyppig	-10.7148
▁frivillig	-10.7148
▁tilskuer	-10.7148
▁anthon	-10.7148
▁utseende	-10.7149
▁definert	-10.7149
▁kristiansand	-10.7149
▁linux	-10.715
▁cecil	-10.7151
▁unntatt	-10.7151
programmet	-10.7151
▁1933	-10.7151
▁øygrupp	-10.7152
▁hørte	-10.7153
▁enzym	-10.7153
▁kallenavn	-10.7156
▁bernard	-10.716
relatert	-10.7165
▁grafisk	-10.7166
▁rifle	-10.7169
▁know	-10.7169
▁plantefamilie	-10.7175
▁studere	-10.7175
▁brook	-10.7179
▁kvant	-10.7183
kjerne	-10.7193
verktøy	-10.7197
▁skra	-10.7203
▁humor	-10.7204
▁puppe	-10.7207
areal	-10.7232
festival	-10.7238
produkt	-10.7248
shui	-10.728
▁ytterst	-10.7291
▁vekk	-10.7304
▁psyko	-10.7336
tvedt	-10.7351
element	-10.736
ма	-10.736
▁aluminium	-10.7375
▁1902	-10.7375
▁byfylke	-10.7375
▁østerriksk	-10.7375
▁antagelig	-10.7375
seremoni	-10.7375
▁rudolf	-10.7375
▁taylor	-10.7375
▁apotek	-10.7375
▁reklame	-10.7375
▁utspring	-10.7375
▁cappelen	-10.7375
▁publikum	-10.7375
▁kombinasjon	-10.7375
▁rogaland	-10.7375
▁nominert	-10.7375
▁petersburg	-10.7375
▁redusert	-10.7375
▁walisisk	-10.7376
▁zhang	-10.7376
▁utenlandsk	-10.7377
▁belgisk	-10.7377
nnebærer	-10.7377
▁barnebarn	-10.7378
president	-10.7378
▁tallrike	-10.7379
resultat	-10.7379
▁hindu	-10.738
▁1912	-10.738
karriere	-10.7382
▁endringer	-10.7383
oidea	-10.7385
▁bidro	-10.739
▁varianten	-10.7395
▁nevner	-10.7398
▁smør	-10.74
▁forvalte	-10.7409
▁sørge	-10.7414
▁alpinist	-10.742
▁søyle	-10.7427
artikkel	-10.7434
skjerm	-10.7445
pølse	-10.7452
▁variert	-10.7465
▁kirkegård	-10.7465
bahn	-10.747
▁styrte	-10.7483
▁forekomme	-10.7503
regiment	-10.7574
skrevet	-10.7603
▁institute	-10.7608
▁ludwig	-10.7608
▁satellitt	-10.7608
▁vladimir	-10.7608
▁natrium	-10.7608
▁league	-10.7608
▁geografisk	-10.7608
▁syndrom	-10.7608
▁forbedre	-10.7608
▁prinsesse	-10.7608
▁skjul	-10.7609
▁faktisk	-10.7609
▁menigheten	-10.7609
▁hertug	-10.7609
▁velkjent	-10.761
▁generalsekretær	-10.7611
▁søsken	-10.7611
kobling	-10.7611
▁1921	-10.7611
▁1938	-10.7612
▁gordon	-10.7612
▁næringsliv	-10.7612
▁poesi	-10.7614
▁2018	-10.7616
ingeniør	-10.7616
kandidat	-10.7618
▁smelte	-10.7618
▁skaffe	-10.7621
▁biologisk	-10.7624
▁jernbanestasjon	-10.7636
▁bedriften	-10.7639
▁ballett	-10.7641
sjön	-10.7656
▁bjør	-10.7742
emmelig	-10.7744
town	-10.776
bestemmelse	-10.7764
▁tromsø	-10.7783
▁prinsipp	-10.7783
fogd	-10.7824
bille	-10.7831
▁fundament	-10.7846
ская	-10.7846
▁elizabeth	-10.7846
▁oppmerksomhet	-10.7846
▁portugisisk	-10.7846
▁patriark	-10.7846
▁sjeldne	-10.7846
▁heinrich	-10.7846
▁1892	-10.7846
▁tyrkia	-10.7846
▁krevde	-10.7846
ensemble	-10.7846
▁essay	-10.7846
høvding	-10.7846
▁praktisk	-10.7847
▁regelmessig	-10.7847
▁taiwan	-10.7847
▁larvik	-10.7848
▁nymf	-10.7849
▁tropisk	-10.7851
▁hindre	-10.7852
▁opplags	-10.7852
▁leonard	-10.7852
▁text	-10.7854
▁tørke	-10.7857
▁konsul	-10.7859
liknende	-10.786
▁point	-10.7861
skikkelse	-10.7883
▁tynn	-10.7886
drive	-10.791
▁first	-10.7916
knapp	-10.7916
syklus	-10.7918
▁blanc	-10.7928
missil	-10.7928
volum	-10.7959
▁rhod	-10.8012
▁bevege	-10.8064
psykiatri	-10.809
▁barcelona	-10.809
▁california	-10.809
▁favoritt	-10.809
▁ferskvann	-10.809
▁trygve	-10.809
▁ukraina	-10.809
▁chicago	-10.809
▁vilhelm	-10.809
presentasjon	-10.809
▁stråling	-10.809
▁eksisterer	-10.809
▁fjeld	-10.809
▁claude	-10.809
▁hvem	-10.809
▁hovedpersonen	-10.809
▁beslekte	-10.8091
▁bmw	-10.8091
▁presentert	-10.8091
▁årsproduksjon	-10.8093
▁micro	-10.8094
▁tilhenger	-10.8095
▁brygge	-10.8106
▁variasjon	-10.8118
▁troms	-10.8171
hvelv	-10.8178
▁dramatisk	-10.8185
deutsch	-10.819
▁fakultet	-10.834
▁salvador	-10.834
▁oxford	-10.834
▁pradesh	-10.834
budsjett	-10.834
▁ålesund	-10.834
▁heavy	-10.834
▁embeds	-10.834
▁bitumen	-10.834
▁kalsium	-10.834
▁innlemme	-10.8341
▁innskriften	-10.8341
▁brigade	-10.8341
▁dream	-10.8342
▁centre	-10.8344
▁hormon	-10.8348
▁western	-10.8349
cliff	-10.8349
▁hydrogen	-10.835
▁manglen	-10.8354
▁ibsen	-10.8354
▁ekspedisjonen	-10.8355
▁beregne	-10.8356
▁spyd	-10.8359
provinsen	-10.8368
eddie	-10.8372
analyse	-10.8373
sparc	-10.8378
schaft	-10.8387
▁väst	-10.8515
▁administrere	-10.859
▁færøysk	-10.8596
▁kollektiv	-10.8596
▁psykisk	-10.8596
▁admiral	-10.8596
▁akershus	-10.8596
ressurser	-10.8596
▁jacque	-10.8596
▁nøyaktig	-10.8596
▁foretrekker	-10.8596
leksikon	-10.8596
▁sykdommen	-10.8596
▁overføre	-10.8596
▁utvidelse	-10.8596
▁serbia	-10.8597
skildring	-10.8597
▁etterkommer	-10.8597
iebedriften	-10.8598
▁christensen	-10.8598
▁kongedømmet	-10.8599
▁arbeiderpartiet	-10.86
opptreden	-10.8601
▁1914	-10.8601
▁1915	-10.8602
cephal	-10.8605
▁sjanger	-10.8608
▁stemt	-10.8629
tradisjon	-10.863
europeisk	-10.863
temperatur	-10.863
løype	-10.864
betaling	-10.8647
▁rogn	-10.8647
forekomst	-10.8677
▁dominert	-10.8687
foretak	-10.87
▁crist	-10.8722
brakte	-10.8757
▁nettside	-10.8801
monopol	-10.8835
▁elefant	-10.8859
▁afghanistan	-10.8859
▁hongkong	-10.8859
▁norwegian	-10.8859
▁særskilt	-10.8859
▁toppnivådomene	-10.8859
▁tønsberg	-10.8859
▁vedlikehold	-10.8859
▁1906	-10.8859
territorie	-10.8859
▁1903	-10.8859
▁brenselstypen	-10.8859
▁democra	-10.8859
▁oppdatert	-10.8859
▁kristoffer	-10.8859
▁argument	-10.8859
▁litauen	-10.8859
▁halvorsen	-10.8859
köping	-10.8859
▁lørdag	-10.8859
▁kommentar	-10.8859
▁oppfatte	-10.8859
▁kritisert	-10.8859
▁redigert	-10.886
▁gwh	-10.886
▁kombinere	-10.886
▁diverse	-10.8861
▁comput	-10.8861
▁florida	-10.8862
▁komplett	-10.8864
▁manager	-10.8864
ifisere	-10.8865
▁angl	-10.8866
dolph	-10.8866
▁anklage	-10.8867
▁erklært	-10.8878
tilsynet	-10.8879
produser	-10.8886
basseng	-10.8969
bjørg	-10.8995
ве	-10.8997
krø	-10.9013
fraksjon	-10.9032
bransjen	-10.9086
▁öst	-10.9112
▁evolusjon	-10.9129
▁kasakhstan	-10.9129
lokomotiv	-10.9129
▁angelsaksisk	-10.9129
▁arrangør	-10.9129
▁frankfurt	-10.9129
▁françois	-10.9129
▁frilufts	-10.9129
▁hviterussisk	-10.9129
▁inklusiv	-10.9129
▁maksimal	-10.9129
▁łód	-10.9129
▁kommandør	-10.9129
▁kvadrat	-10.9129
▁litauisk	-10.9129
▁abraham	-10.9129
▁operativsystem	-10.9129
▁bystatus	-10.9129
▁juridisk	-10.913
▁people	-10.913
▁regulert	-10.913
▁amatør	-10.913
ский	-10.913
▁rumensk	-10.913
▁ungarn	-10.913
▁haakon	-10.913
▁apollo	-10.9131
▁disney	-10.9131
▁visepresident	-10.9131
▁redaksjon	-10.9133
▁misjons	-10.9133
▁oppgaver	-10.9136
▁slippe	-10.9139
▁birgit	-10.9148
torget	-10.9156
ucci	-10.9157
forståelse	-10.9161
kreft	-10.9165
redaktør	-10.9178
forandring	-10.9188
▁imperi	-10.9207
▁gullmedalje	-10.9212
vitenskapelig	-10.9215
▁domkirke	-10.9225
view	-10.9232
▁journal	-10.9286
derav	-10.9313
klipp	-10.9326
▁omdanne	-10.9404
▁doktor	-10.9407
▁cerambyc	-10.9407
distribusjon	-10.9407
▁matematikk	-10.9407
▁mobiltelefon	-10.9407
▁nødvendig	-10.9407
▁substantiv	-10.9407
▁tibetansk	-10.9407
kringkasting	-10.9407
▁mercedes	-10.9407
▁ektefelle	-10.9407
▁østfold	-10.9407
▁gjennomsnittlig	-10.9407
▁konstruert	-10.9407
▁1873	-10.9407
▁individuell	-10.9407
teatret	-10.9408
▁dollar	-10.9408
▁søvn	-10.9409
▁grevskapet	-10.9409
▁fantasi	-10.9409
▁sophie	-10.9409
▁sprint	-10.941
▁ektemann	-10.941
▁titler	-10.941
▁akutt	-10.941
▁elleve	-10.9411
▁igjennom	-10.9412
▁opposisjon	-10.9413
▁søndr	-10.9413
▁romsdal	-10.9415
▁skøyte	-10.9417
▁oppnå	-10.9419
▁moore	-10.944
bourne	-10.9449
utenriksminister	-10.948
statue	-10.9562
reglene	-10.9601
▁tilpasse	-10.9621
▁fulgt	-10.9688
direktoratet	-10.9693
ttoregistertonn	-10.9693
▁beseiret	-10.9693
▁observasjon	-10.9693
▁oksygen	-10.9693
▁toppscorer	-10.9693
▁engasjert	-10.9693
▁joachim	-10.9693
▁synonym	-10.9693
▁hospital	-10.9693
▁vertikal	-10.9693
▁ødelagt	-10.9693
▁pattedyr	-10.9693
▁secret	-10.9693
▁frigjøring	-10.9693
▁permanent	-10.9693
vurdering	-10.9693
▁karakterisere	-10.9693
▁kroatisk	-10.9694
▁kullkraftverk	-10.9695
▁monroe	-10.9696
▁enhver	-10.9698
vilkår	-10.9698
▁landslags	-10.9705
opplevelse	-10.9705
▁skygge	-10.9708
▁earl	-10.9762
kalender	-10.9764
brann	-10.9769
gruve	-10.977
fotograf	-10.9822
phyll	-10.9823
glass	-10.9828
▁database	-10.9892
▁brødre	-10.9945
▁anerkjenne	-10.9952
▁pseudo	-10.9987
▁absolut	-10.9987
▁chrysomel	-10.9987
▁entertainment	-10.9987
▁helsingfors	-10.9987
▁integrert	-10.9987
▁langrennsløper	-10.9987
▁parallelt	-10.9987
▁roosevelt	-10.9987
▁sarpsborg	-10.9987
▁society	-10.9987
▁symptomer	-10.9987
▁utelukkende	-10.9987
▁douglas	-10.9987
▁utbredelse	-10.9987
▁1905	-10.9987
▁buddhist	-10.9987
▁definisjon	-10.9987
▁infanteri	-10.9987
▁könig	-10.9987
▁mandsju	-10.9987
▁tønne	-10.9987
▁gustaf	-10.9987
▁haugesund	-10.9987
▁selvmord	-10.9987
▁trebukker	-10.9987
alliansen	-10.9988
zhuang	-10.9988
▁oppdagelse	-10.9988
▁harrison	-10.9989
▁medvirket	-10.9989
▁grün	-10.999
▁cooper	-10.999
▁gregor	-10.999
planlegging	-10.999
▁fylkeskommune	-10.9991
▁debatt	-10.9992
▁nkp	-10.9997
▁style	-11.0003
▁koreograf	-11.0004
flyvning	-11.0043
historiker	-11.006
craft	-11.0078
▁kjeve	-11.0123
loyd	-11.0128
bredden	-11.0171
hymn	-11.0287
▁aftenposten	-11.029
▁atmosfære	-11.029
▁bryllup	-11.029
▁council	-11.029
▁forgjenger	-11.029
▁kambodsja	-11.029
▁köln	-11.029
▁pronotum	-11.029
▁cctld	-11.029
▁guangdong	-11.029
▁tianjin	-11.029
▁identitet	-11.029
▁schwarz	-11.029
▁jersey	-11.029
▁petroleum	-11.029
▁progressiv	-11.029
▁bachelor	-11.029
traktaten	-11.029
▁nanjing	-11.029
▁ralph	-11.029
▁texas	-11.029
▁oppstod	-11.0291
▁aktuell	-11.0291
▁allierte	-11.0291
ου	-11.0291
▁inndelingen	-11.0291
rettighetene	-11.0291
tolkning	-11.0292
▁hjelm	-11.0292
▁katolik	-11.0292
▁wessel	-11.0292
▁claudi	-11.0293
▁forkroppen	-11.0293
▁advent	-11.0295
omsorg	-11.0295
▁moderat	-11.03
opprøret	-11.031
▁presentere	-11.0311
▁størst	-11.0314
kjennelse	-11.0349
plikasjon	-11.0362
papir	-11.0374
prøve	-11.0376
▁kommunistparti	-11.0403
arrow	-11.0403
platz	-11.0417
skutt	-11.0438
hefte	-11.0474
▁anbefale	-11.0603
▁argentina	-11.0603
▁fasettøynene	-11.0603
▁interessant	-11.0603
▁omdøpt	-11.0603
▁svalbard	-11.0603
▁windows	-11.0603
▁alminnelig	-11.0603
▁matematisk	-11.0603
▁1909	-11.0603
▁innspilt	-11.0603
øyenstikker	-11.0603
▁alfabet	-11.0603
patrulje	-11.0603
▁bakterier	-11.0603
▁trompet	-11.0603
▁flyktet	-11.0603
▁prince	-11.0603
▁bevisst	-11.0603
▁nelson	-11.0603
▁detroit	-11.0603
▁second	-11.0604
▁nektet	-11.0604
▁nyheter	-11.0605
materiell	-11.0606
▁klinisk	-11.0607
▁mohamm	-11.0619
▁sergej	-11.062
propell	-11.0643
knutepunkt	-11.0645
kjøtt	-11.0685
befolkning	-11.0696
regjering	-11.0696
fjær	-11.0697
student	-11.0698
teknisk	-11.0701
lilje	-11.0741
relasjon	-11.0851
▁dimensjon	-11.0873
inspektør	-11.0925
▁diagnose	-11.0925
▁illustrert	-11.0925
▁inskripsjon	-11.0925
▁kontinuerlig	-11.0925
▁midlertidig	-11.0925
▁mountain	-11.0925
▁sebastian	-11.0925
▁hockey	-11.0925
▁koalisjon	-11.0925
▁management	-11.0925
▁stimuler	-11.0925
▁1881	-11.0925
▁special	-11.0925
bråten	-11.0925
▁ensfarget	-11.0925
sylindre	-11.0925
▁forsvant	-11.0925
▁zhong	-11.0926
▁sandefjord	-11.0926
▁snorre	-11.0926
▁overvintr	-11.0926
▁kontrast	-11.0926
▁zealand	-11.0926
▁utforming	-11.0926
forstyrrelser	-11.0931
▁republika	-11.0932
▁opplevd	-11.0932
▁hvete	-11.0938
gjenstander	-11.0938
▁jurist	-11.0938
▁beskjed	-11.0943
partei	-11.0952
artiklene	-11.0952
▁bronsemedalje	-11.097
spørsmål	-11.1029
jernbane	-11.1034
▁massiv	-11.1058
väg	-11.1177
▁dynasti	-11.1186
tetthet	-11.1195
▁academy	-11.1258
▁buddhisme	-11.1258
▁identifisert	-11.1258
▁jerusalem	-11.1258
▁luftforsvaret	-11.1258
▁nacional	-11.1258
▁uttrykt	-11.1258
▁beslutning	-11.1258
▁konkurrent	-11.1258
▁venezuela	-11.1258
▁overvåke	-11.1258
▁bladbiller	-11.1259
▁nitrogen	-11.1259
▁minoritet	-11.1259
▁landkreis	-11.1259
▁tilnærme	-11.1259
▁interiør	-11.1259
▁amundsen	-11.1259
▁1852	-11.1259
▁wagner	-11.1259
▁grieg	-11.1259
▁legendarisk	-11.1259
▁mozart	-11.1259
▁fremtidig	-11.1259
▁fantasy	-11.1259
▁mektig	-11.1259
ć	-11.2615
