<unk>	0
<s>	0
</s>	0
.	-3.03943
s	-3.24107
e	-3.55224
▁	-3.63069
t	-3.9756
er	-4.10699
en	-4.15076
▁og	-4.35283
▁i	-4.47429
▁er	-4.66058
r	-4.72297
a	-4.73892
n	-4.75496
et	-4.97854
i	-5.15064
▁av	-5.20885
k	-5.27365
o	-5.35641
d	-5.36779
▁for	-5.37964
▁en	-5.55539
y	-5.5577
g	-5.63723
▁var	-5.64535
▁til	-5.67101
▁på	-5.68859
▁som	-5.71027
▁med	-5.73377
ne	-5.75619
▁de	-5.77314
m	-5.79778
ene	-5.84724
te	-5.89961
l	-5.98869
▁har	-5.99652
f	-6.06545
▁den	-6.0738
▁fra	-6.09516
h	-6.10554
es	-6.16872
v	-6.17953
in	-6.1889
u	-6.19089
de	-6.19243
b	-6.20724
p	-6.22354
c	-6.2377
ing	-6.26882
us	-6.27606
an	-6.2812
▁ble	-6.32617
re	-6.34902
▁a	-6.35454
▁be	-6.40545
▁et	-6.40758
▁s	-6.4296
le	-6.45134
▁det	-6.45142
na	-6.45401
ar	-6.47022
al	-6.53055
on	-6.55262
▁p	-6.57299
z	-6.58258
ri	-6.59714
▁han	-6.59764
▁ut	-6.60047
▁m	-6.60461
is	-6.6141
▁the	-6.62311
▁ved	-6.64069
▁eller	-6.64473
▁også	-6.68188
ter	-6.69216
sk	-6.70185
▁under	-6.71898
▁kan	-6.72247
x	-6.72499
▁to	-6.727
um	-6.73431
ch	-6.74033
▁d	-6.75282
▁å	-6.75282
ia	-6.77065
w	-6.77205
2	-6.79068
3	-6.79247
▁k	-6.80465
4	-6.82407
or	-6.82577
▁f	-6.83502
ck	-6.85498
ra	-6.85995
j	-6.86468
ng	-6.87061
ma	-6.87762
5	-6.88055
ta	-6.89383
▁se	-6.90203
6	-6.90706
8	-6.91103
▁c	-6.91282
7	-6.92079
la	-6.92945
el	-6.93313
▁over	-6.93662
▁18	-6.93847
ur	-6.95248
▁om	-6.95723
▁la	-6.96515
▁in	-6.97629
▁g	-6.97851
▁b	-7.00515
▁l	-7.01155
▁opp	-7.01457
▁h	-7.01776
ke	-7.01817
9	-7.03011
é	-7.03054
▁u	-7.03783
▁inn	-7.0422
ens	-7.04843
land	-7.0493
di	-7.05935
▁etter	-7.08076
▁re	-7.08085
▁andre	-7.09568
il	-7.09635
▁al	-7.09683
ende	-7.10585
ga	-7.10895
da	-7.1144
▁an	-7.1183
1	-7.11877
der	-7.13283
nes	-7.13491
▁da	-7.13793
ge	-7.1465
ka	-7.14878
ler	-7.16495
lig	-7.16562
▁di	-7.18875
ro	-7.19915
▁ha	-7.20135
▁ligger	-7.20169
ver	-7.20535
▁and	-7.21996
▁n	-7.23208
ger	-7.23379
li	-7.23415
▁of	-7.23881
at	-7.25221
be	-7.25578
isk	-7.25591
th	-7.2619
ja	-7.26837
▁na	-7.28365
as	-7.28594
stad	-7.28757
ed	-7.30189
ha	-7.30705
▁ro	-7.3139
ba	-7.31688
▁at	-7.32094
▁ca	-7.32205
ve	-7.32214
ig	-7.33152
øy	-7.33575
▁co	-7.33908
▁st	-7.34513
to	-7.35056
ic	-7.35056
▁tre	-7.36241
▁t	-7.36346
ko	-7.3636
▁no	-7.36887
nde	-7.36965
lo	-7.37147
ut	-7.37162
ning	-7.37231
▁ra	-7.3727
▁li	-7.3732
it	-7.37694
▁le	-7.38328
berg	-7.38421
ker	-7.38658
▁o	-7.38679
ce	-7.38776
ul	-7.39253
id	-7.39593
ner	-7.4039
▁hoved	-7.40493
den	-7.40722
▁j	-7.4079
▁bo	-7.40883
▁v	-7.41248
man	-7.41403
▁blant	-7.43013
me	-7.43102
va	-7.43228
ry	-7.43717
▁her	-7.44161
bo	-7.44637
▁vi	-7.44767
son	-7.44823
▁si	-7.46859
▁he	-7.46953
for	-7.46958
ton	-7.47516
mo	-7.47778
▁sp	-7.47841
▁ma	-7.48151
▁w	-7.48288
ad	-7.48661
ling	-7.48677
gen	-7.49815
▁pa	-7.49954
▁ta	-7.50061
vi	-7.50421
▁ho	-7.50678
0	-7.50727
▁mot	-7.51535
▁nord	-7.52132
á	-7.52335
ske	-7.52348
▁do	-7.52728
▁fa	-7.54001
▁hans	-7.54042
mi	-7.54619
co	-7.54628
▁sa	-7.54816
ir	-7.54827
▁pi	-7.55125
▁r	-7.55404
▁man	-7.55805
▁sin	-7.5617
ol	-7.56189
iske	-7.57314
ina	-7.57782
ff	-7.58094
▁men	-7.5982
▁so	-7.60016
▁ka	-7.60177
▁mar	-7.60319
▁gjennom	-7.61273
ci	-7.61375
dal	-7.61586
lige	-7.62911
▁ni	-7.62992
ik	-7.63272
by	-7.63473
▁du	-7.63844
do	-7.63901
▁kalles	-7.64302
ø	-7.64521
▁mo	-7.64592
no	-7.64684
pe	-7.65021
▁kon	-7.65549
var	-7.65785
bi	-7.6617
▁me	-7.6621
ca	-7.66578
▁per	-7.66714
▁lo	-7.66772
ti	-7.67146
▁16	-7.67216
vis	-7.67607
▁am	-7.67707
▁po	-7.67749
am	-7.67824
os	-7.68169
erte	-7.68504
kk	-7.68557
go	-7.68593
▁mellom	-7.68843
ant	-7.69013
▁as	-7.69246
je	-7.69342
▁ko	-7.69484
▁ti	-7.69571
bu	-7.69703
▁hadde	-7.69716
▁tor	-7.69993
▁bi	-7.70244
▁kinesisk	-7.71037
ä	-7.71174
mann	-7.71188
vik	-7.71734
▁su	-7.71812
ly	-7.71853
▁ny	-7.72535
ør	-7.72769
▁hu	-7.73051
ion	-7.73282
▁pro	-7.73444
▁dette	-7.73631
▁z	-7.73776
▁1	-7.74746
▁lu	-7.74932
▁ru	-7.75175
▁ba	-7.76162
un	-7.7663
▁sch	-7.7669
í	-7.769
ian	-7.76992
▁by	-7.77143
▁el	-7.77358
▁stor	-7.7758
het	-7.77871
ho	-7.7863
▁te	-7.78912
po	-7.7949
ell	-7.79932
ist	-7.80144
▁or	-7.80346
pa	-7.8044
▁bar	-7.80519
▁gu	-7.80675
mp	-7.80691
▁seg	-7.80693
op	-7.80739
si	-7.80949
▁hun	-7.8181
ov	-7.8222
▁der	-7.82493
å	-7.82573
▁2	-7.8283
lin	-7.82872
ni	-7.82877
gg	-7.83336
mer	-7.83366
ster	-7.83527
ste	-7.83874
▁ga	-7.8398
▁mor	-7.84326
kt	-7.84605
▁bu	-7.85874
æ	-7.86042
sh	-7.86136
▁flere	-7.8648
gi	-7.86494
▁ikke	-7.86608
au	-7.86653
ö	-7.86656
hu	-7.86769
▁17	-7.88432
▁ja	-7.88754
▁jo	-7.88946
ü	-7.89476
ie	-7.89542
men	-7.9017
▁car	-7.90803
itt	-7.90871
▁del	-7.9092
av	-7.91055
▁ri	-7.9119
▁disse	-7.92109
ot	-7.92125
▁denne	-7.92201
nd	-7.92215
▁kom	-7.92652
▁fri	-7.92783
else	-7.92804
▁con	-7.93044
ó	-7.93232
▁x	-7.94498
tal	-7.9453
▁sammen	-7.94911
▁min	-7.95216
▁19	-7.96186
ment	-7.96188
om	-7.96589
per	-7.96663
ll	-7.96815
tra	-7.9685
▁go	-7.97411
sta	-7.9746
▁født	-7.97781
ica	-7.97899
pi	-7.98088
▁land	-7.98418
lu	-7.98518
▁sør	-7.98694
io	-7.98729
▁første	-7.99002
▁ju	-7.99335
▁ne	-7.9949
rett	-7.99735
▁vest	-8.00232
fa	-8.00464
gu	-8.00543
ld	-8.00906
00	-8.01873
ær	-8.02219
▁fikk	-8.02889
ki	-8.03173
ns	-8.03307
ation	-8.03569
tan	-8.03793
▁sol	-8.04061
▁tilhører	-8.04347
vin	-8.05346
▁ad	-8.05677
od	-8.06357
▁lag	-8.06663
ord	-8.06732
▁pe	-8.06753
ard	-8.06753
lag	-8.06963
ber	-8.06989
ring	-8.07557
and	-8.07925
▁ge	-8.08006
▁samt	-8.0825
▁finnes	-8.08393
ou	-8.08476
ium	-8.08779
▁øst	-8.09027
▁alle	-8.09072
▁san	-8.09276
▁gi	-8.09292
▁blir	-8.09517
em	-8.09773
▁ch	-8.10195
ac	-8.10639
ken	-8.10761
▁kommune	-8.10795
sel	-8.10917
▁annet	-8.1118
▁far	-8.11358
▁mer	-8.11562
elle	-8.11581
▁ab	-8.11678
hold	-8.11934
over	-8.11946
▁sam	-8.11996
hi	-8.12452
sten	-8.1258
▁omfatter	-8.13442
▁hel	-8.1349
▁navn	-8.13538
▁tidliger	-8.13602
▁tri	-8.13778
▁3	-8.13799
skap	-8.14467
▁fly	-8.14548
▁ki	-8.14878
ting	-8.14961
ering	-8.1525
▁va	-8.15252
stein	-8.15549
ung	-8.15593
▁byen	-8.15686
hus	-8.1587
▁mi	-8.16019
ine	-8.16049
▁bra	-8.16218
ang	-8.1627
sjon	-8.16385
▁all	-8.16747
▁ver	-8.16951
tter	-8.17043
▁sal	-8.17238
sch	-8.17828
ok	-8.18039
yl	-8.18062
▁består	-8.18117
ā	-8.18628
▁tra	-8.18751
ju	-8.18837
ong	-8.19195
▁y	-8.1934
iv	-8.1951
erne	-8.19884
he	-8.19999
▁kalt	-8.20193
▁nå	-8.20434
ag	-8.21004
▁tu	-8.21176
ny	-8.21225
bb	-8.2166
ren	-8.21732
mb	-8.21879
ak	-8.22136
▁navnet	-8.22334
ede	-8.22564
▁ei	-8.22847
tar	-8.22908
im	-8.22951
fi	-8.23035
del	-8.23112
▁bak	-8.23147
min	-8.23206
ek	-8.23226
▁15	-8.23239
▁så	-8.23311
ven	-8.23536
ran	-8.23546
▁russisk	-8.23559
kke	-8.23732
▁wi	-8.24099
år	-8.2462
pp	-8.24782
tre	-8.24812
ikk	-8.24864
ow	-8.25021
idae	-8.25115
▁ned	-8.25228
▁5	-8.25377
▁jan	-8.25552
▁par	-8.25715
du	-8.25938
▁heter	-8.26127
mar	-8.26662
▁ar	-8.26705
▁følgende	-8.27154
dag	-8.27284
▁ben	-8.27314
▁pre	-8.27775
▁nor	-8.27944
▁fo	-8.28105
▁lang	-8.28158
▁john	-8.28186
ud	-8.28255
ku	-8.28689
▁cha	-8.29255
▁fi	-8.29613
kel	-8.29614
▁vann	-8.29994
ier	-8.3
▁pu	-8.30278
▁vil	-8.30591
jo	-8.30717
sted	-8.30815
ya	-8.31207
sson	-8.31243
▁bro	-8.31295
е	-8.31351
les	-8.32122
о	-8.32134
▁wa	-8.32206
sti	-8.3224
▁tro	-8.32275
▁fire	-8.3243
und	-8.32603
▁norsk	-8.32792
▁mu	-8.32924
asjon	-8.3312
tu	-8.33151
za	-8.33774
▁on	-8.33863
▁my	-8.33865
▁col	-8.34044
ft	-8.34199
▁sta	-8.34266
zi	-8.34414
▁ag	-8.34425
heim	-8.34473
▁mange	-8.34586
ley	-8.34606
dre	-8.34854
inyin	-8.35179
we	-8.3518
▁mens	-8.35612
art	-8.35757
▁sand	-8.35863
▁dag	-8.36435
ningen	-8.36507
ill	-8.36556
▁være	-8.3667
ron	-8.36687
mor	-8.36753
tall	-8.36917
▁frem	-8.36928
tin	-8.36928
ru	-8.37211
▁betyr	-8.37329
▁store	-8.37374
▁fe	-8.37496
▁kar	-8.37519
▁ke	-8.37704
elsen	-8.3794
▁ur	-8.38224
▁com	-8.38235
▁sk	-8.38256
wa	-8.3841
▁val	-8.38584
gang	-8.38604
tte	-8.38695
ham	-8.38734
▁selv	-8.38977
bel	-8.39037
kker	-8.39118
▁operatør	-8.39143
▁hos	-8.39442
▁skrev	-8.39645
▁10	-8.3965
▁går	-8.39659
▁liste	-8.39734
verk	-8.39867
▁eks	-8.40095
▁år	-8.40162
▁ski	-8.40441
▁berg	-8.40539
ator	-8.40662
▁mon	-8.40676
tor	-8.4082
▁ofte	-8.41067
▁7	-8.41152
▁største	-8.41255
familien	-8.41465
▁sc	-8.4151
tid	-8.42279
q	-8.42297
▁bru	-8.42766
▁vel	-8.42805
▁kor	-8.42825
▁lever	-8.42899
▁och	-8.42901
▁mål	-8.42921
▁parti	-8.42959
▁4	-8.43072
▁dan	-8.43122
▁fu	-8.4322
и	-8.4327
▁før	-8.43348
dalen	-8.43674
▁ac	-8.44079
▁moh	-8.44107
opp	-8.4416
▁ku	-8.44167
if	-8.44988
kon	-8.45041
▁syn	-8.45085
bil	-8.45166
▁alt	-8.45451
lands	-8.4546
▁stein	-8.45813
▁2002	-8.45857
len	-8.46126
ty	-8.46135
▁skal	-8.46642
mon	-8.46721
tur	-8.47023
▁innen	-8.47177
▁kirke	-8.47355
dy	-8.47668
▁hus	-8.47806
hr	-8.47864
▁8	-8.48088
▁can	-8.48103
bar	-8.48126
chi	-8.4816
▁mat	-8.48232
nings	-8.48251
ius	-8.48278
▁mel	-8.48527
ze	-8.48535
▁we	-8.48812
▁br	-8.48917
ding	-8.48954
▁nær	-8.49008
▁9	-8.49175
fe	-8.49634
▁ste	-8.49635
rik	-8.4972
tisk	-8.49751
let	-8.49826
kar	-8.49828
▁mest	-8.50259
ari	-8.50311
▁små	-8.50375
▁flaggbærer	-8.50412
▁liv	-8.5064
ji	-8.51128
▁chi	-8.51308
tel	-8.51329
pningsseremonien	-8.51353
▁ed	-8.51372
▁brun	-8.51504
ingen	-8.5171
bro	-8.51741
▁rød	-8.51929
▁død	-8.51931
sp	-8.52156
ana	-8.52314
▁ol	-8.52315
▁mal	-8.52431
▁van	-8.52884
▁pan	-8.52942
▁folketelling	-8.53019
▁senere	-8.53106
satt	-8.5314
ab	-8.53256
▁laget	-8.5331
▁musikk	-8.53421
▁kommunen	-8.53501
tz	-8.53542
mmer	-8.53585
▁film	-8.53667
ris	-8.54057
▁vant	-8.54078
▁fag	-8.5408
▁noen	-8.54264
ans	-8.54341
▁af	-8.54568
▁new	-8.54625
▁au	-8.54954
▁familien	-8.55004
ct	-8.55206
stre	-8.55228
är	-8.5528
val	-8.55505
▁grunn	-8.5555
▁gir	-8.55552
▁ak	-8.55656
à	-8.5573
▁mag	-8.55752
itet	-8.55878
▁engelsk	-8.55945
▁6	-8.56063
án	-8.56146
▁sitt	-8.56173
▁lå	-8.5642
▁vo	-8.56437
▁verdens	-8.56573
▁leder	-8.56704
▁gar	-8.56716
ska	-8.56883
▁må	-8.57089
▁sh	-8.5713
rig	-8.57156
▁vis	-8.57508
ú	-8.57714
▁dr	-8.57945
inn	-8.58382
veien	-8.58481
styr	-8.58513
▁langs	-8.58526
▁shi	-8.58553
▁sen	-8.58676
folkerepublikken	-8.58956
ninger	-8.59104
ps	-8.59118
ach	-8.59296
▁fin	-8.59297
▁th	-8.59318
ug	-8.59343
kor	-8.59426
▁gra	-8.59457
▁gjen	-8.59542
borg	-8.59591
ita	-8.59632
tten	-8.59863
▁inneholder	-8.60305
▁fjell	-8.60387
sund	-8.60419
▁ham	-8.6056
til	-8.6062
ice	-8.60631
▁kjente	-8.60851
ini	-8.60922
▁sønn	-8.6104
▁nu	-8.61114
▁fem	-8.61132
▁gul	-8.61464
siden	-8.61585
▁bor	-8.61612
▁ty	-8.61774
▁spilt	-8.62096
ight	-8.62377
ino	-8.6244
gel	-8.62549
▁art	-8.62624
form	-8.62701
stand	-8.62777
▁gen	-8.62831
han	-8.63024
▁kunst	-8.63163
gh	-8.63219
rø	-8.6352
fly	-8.63536
▁god	-8.63799
▁tid	-8.63806
ph	-8.64125
▁pr	-8.6413
gar	-8.6427
▁inkluderer	-8.64491
▁20	-8.64552
▁sha	-8.64574
▁fer	-8.64581
▁bas	-8.64717
dyr	-8.64904
▁folke	-8.65105
▁lys	-8.65242
bok	-8.65453
▁kinas	-8.65681
▁fram	-8.65705
dd	-8.65772
▁paul	-8.65836
jø	-8.66125
▁bre	-8.66229
к	-8.66295
▁div	-8.66318
øya	-8.66365
▁bjørn	-8.66544
ð	-8.66617
▁skole	-8.66703
▁ex	-8.6684
rå	-8.66859
ble	-8.67044
▁kjent	-8.6711
▁12	-8.67276
▁za	-8.67302
uk	-8.6744
▁un	-8.67858
▁rundt	-8.67869
▁sø	-8.67941
▁sv	-8.68019
est	-8.68023
tri	-8.68154
bruk	-8.6847
▁vin	-8.68473
ich	-8.68481
▁ci	-8.68561
▁øy	-8.68578
▁sjø	-8.68772
vel	-8.6884
vo	-8.68984
▁kri	-8.68987
kan	-8.6899
▁em	-8.69187
▁kur	-8.69683
spill	-8.69782
far	-8.69786
hy	-8.69787
che	-8.69838
▁mai	-8.69855
▁peter	-8.69984
▁op	-8.70119
▁gud	-8.70126
bl	-8.70132
▁tur	-8.70257
▁post	-8.70264
▁ord	-8.70265
lå	-8.70267
mat	-8.70308
▁ry	-8.7047
ther	-8.70633
▁kl	-8.70919
vet	-8.70962
mu	-8.71272
kom	-8.71288
▁skog	-8.71308
▁høy	-8.71441
▁fiske	-8.71474
▁hol	-8.71506
senter	-8.71531
ay	-8.71595
▁dem	-8.7185
▁kommer	-8.71881
tiske	-8.72082
▁bok	-8.72133
α	-8.72289
ida	-8.72316
▁står	-8.72415
▁tv	-8.7254
dra	-8.72731
▁thor	-8.72768
dan	-8.72808
inger	-8.72867
ide	-8.73014
ologi	-8.73062
▁roman	-8.73065
fon	-8.73096
▁tar	-8.73149
▁spiller	-8.73159
▁hvor	-8.73188
▁norge	-8.73636
è	-8.73695
▁gal	-8.73845
▁språk	-8.74093
▁anti	-8.74156
▁ve	-8.74344
▁ob	-8.74596
▁bil	-8.74805
▁para	-8.74853
met	-8.74962
rin	-8.75026
mark	-8.7506
ata	-8.75109
ī	-8.75569
▁ren	-8.75597
ige	-8.75868
▁kort	-8.76153
▁bal	-8.7635
▁sig	-8.76379
▁mod	-8.76489
▁christian	-8.76502
▁cor	-8.76563
▁kra	-8.76675
ære	-8.7678
ale	-8.7679
▁stat	-8.76806
xi	-8.77026
▁kultur	-8.7705
▁port	-8.77224
▁cu	-8.77287
burg	-8.77306
my	-8.7732
▁mark	-8.7738
pt	-8.77497
▁hovedstad	-8.7752
og	-8.77795
ah	-8.77801
tak	-8.77824
su	-8.78235
hl	-8.78255
▁kong	-8.78276
▁barne	-8.78306
fo	-8.78345
ola	-8.7838
▁like	-8.78414
▁carl	-8.78566
▁hi	-8.78596
▁mos	-8.78771
tion	-8.78859
▁landet	-8.78888
▁jord	-8.78914
ub	-8.78925
isme	-8.78939
fra	-8.78988
▁je	-8.79016
▁bur	-8.79046
▁rom	-8.79067
▁km	-8.79144
▁juli	-8.79167
▁hav	-8.79278
▁innenfor	-8.79305
anger	-8.79385
▁ly	-8.79406
lan	-8.79417
har	-8.7943
fjord	-8.79743
▁ber	-8.79795
▁innbyggertall	-8.79846
▁von	-8.80049
▁vei	-8.80138
shi	-8.80186
lia	-8.80244
pro	-8.80525
▁os	-8.80539
ula	-8.80605
д	-8.8077
▁sub	-8.8077
bin	-8.80871
▁rø	-8.80926
fjorden	-8.80997
▁kla	-8.81
▁pol	-8.81021
10	-8.81279
▁gro	-8.81338
▁lind	-8.81353
▁hal	-8.81357
▁kina	-8.81396
▁mars	-8.81467
lik	-8.8158
bor	-8.81634
▁red	-8.81647
▁sm	-8.81718
▁christ	-8.81725
ros	-8.81744
▁cas	-8.81765
▁kal	-8.81786
▁nasjonal	-8.82011
▁gruppen	-8.82077
mel	-8.8208
▁grav	-8.82106
pol	-8.82117
▁mac	-8.82208
ū	-8.82389
▁14	-8.82517
▁martin	-8.82531
▁die	-8.82663
mme	-8.82803
▁bruker	-8.83247
ski	-8.83267
▁ul	-8.83286
▁både	-8.83361
▁pat	-8.83379
▁0	-8.83409
▁svensk	-8.83478
▁plan	-8.83528
▁hen	-8.83592
rom	-8.83613
▁gull	-8.83641
▁motor	-8.83687
mål	-8.83696
▁natur	-8.83716
▁dy	-8.83729
▁hy	-8.83815
tro	-8.83839
bra	-8.83939
▁sommer	-8.84141
▁len	-8.84324
asjons	-8.84371
sky	-8.84396
▁ban	-8.84409
øn	-8.84474
ör	-8.84748
yn	-8.84837
tti	-8.84891
▁selskapet	-8.84958
▁distriktet	-8.84986
▁opprinnelig	-8.85
▁ø	-8.85044
▁slik	-8.8509
▁fla	-8.85168
▁sil	-8.85179
▁spe	-8.85192
pu	-8.85199
▁sine	-8.85361
▁brukes	-8.85575
▁fast	-8.85827
▁tom	-8.8589
don	-8.85928
▁ram	-8.85974
▁för	-8.86132
▁und	-8.86136
▁you	-8.86361
sto	-8.86412
▁luft	-8.8642
▁ji	-8.86695
kj	-8.8678
▁inter	-8.86814
▁fred	-8.86913
ani	-8.86951
res	-8.87021
bre	-8.87068
cu	-8.87252
▁lav	-8.87343
ika	-8.87479
▁gl	-8.87617
▁mus	-8.87625
up	-8.87659
▁videre	-8.87726
▁robert	-8.87752
dom	-8.87817
vær	-8.87841
▁mari	-8.87913
slag	-8.87937
▁hell	-8.87971
ford	-8.87986
у	-8.8802
▁rett	-8.88067
gan	-8.88324
▁gift	-8.88419
▁fal	-8.88472
▁gre	-8.88507
kh	-8.88637
lekt	-8.88785
▁radio	-8.88803
kal	-8.88917
▁området	-8.8897
gre	-8.8903
navn	-8.89064
▁2006	-8.8908
syn	-8.89126
oc	-8.89225
så	-8.89399
fin	-8.89734
vann	-8.89735
skog	-8.89766
øl	-8.8979
▁mil	-8.89845
▁q	-8.89964
ves	-8.89984
dig	-8.90103
▁ska	-8.90127
ky	-8.90172
ix	-8.90515
rat	-8.90548
▁norske	-8.90623
▁ya	-8.90809
bø	-8.91056
ova	-8.91107
▁ap	-8.91143
▁tal	-8.91359
mester	-8.91481
▁band	-8.91497
gren	-8.91562
nu	-8.91627
tsj	-8.91638
▁sj	-8.91667
ij	-8.91692
ssen	-8.91692
▁bl	-8.91721
▁21	-8.91776
▁representerte	-8.91777
▁seks	-8.92071
▁erik	-8.92077
▁het	-8.92116
sett	-8.92118
▁tysk	-8.92174
stu	-8.92187
▁blå	-8.92302
▁siden	-8.92475
▁via	-8.92497
▁vise	-8.92504
eres	-8.92527
▁eksempel	-8.9255
que	-8.92565
leder	-8.9266
ister	-8.92769
klubb	-8.92802
ppe	-8.92959
▁halv	-8.92972
▁bø	-8.93151
▁administrasjons	-8.93266
isten	-8.93278
▁hennes	-8.93396
▁verk	-8.93456
ive	-8.93479
pper	-8.93507
▁form	-8.93542
▁stra	-8.93612
▁http	-8.93627
▁class	-8.93729
ara	-8.9379
▁mad	-8.9384
▁plante	-8.93909
š	-8.9393
▁august	-8.93987
▁gresk	-8.94077
lie	-8.94189
▁jeg	-8.94223
som	-8.9424
age	-8.94248
▁politi	-8.94287
ν	-8.94349
zz	-8.94438
▁arm	-8.94465
vern	-8.94653
▁kre	-8.94765
cy	-8.94989
system	-8.95025
▁norges	-8.95058
▁når	-8.9516
▁oslo	-8.95188
▁farge	-8.95315
▁grå	-8.95376
▁sel	-8.95437
mm	-8.9562
lse	-8.95868
mal	-8.95919
lett	-8.96034
ksjon	-8.96146
ella	-8.96247
с	-8.96262
▁mis	-8.9634
dia	-8.96349
områder	-8.96563
▁tak	-8.96589
fall	-8.96624
▁qu	-8.96645
▁lands	-8.96756
ås	-8.96772
fisk	-8.96811
▁følger	-8.96851
elli	-8.96898
nor	-8.96947
▁trans	-8.97003
▁side	-8.97043
iz	-8.97095
log	-8.97221
gård	-8.97277
я	-8.97296
а	-8.973
▁tradisjonell	-8.97424
spiller	-8.97456
▁fransk	-8.97501
the	-8.97589
vei	-8.97602
ap	-8.97853
▁lokal	-8.97916
▁gri	-8.9796
▁tok	-8.98014
▁gjerne	-8.9822
ving	-8.98242
ater	-8.98265
itz	-8.98288
kin	-8.98315
laget	-8.9833
organisasjon	-8.98345
enes	-8.98364
isert	-8.98412
▁tru	-8.98589
wi	-8.98624
huset	-8.98652
▁that	-8.98669
▁yu	-8.98701
▁fil	-8.98957
rum	-8.98997
▁are	-8.99018
alis	-8.99159
▁data	-8.99198
dals	-8.99204
▁hei	-8.99324
▁25	-8.99608
▁2007	-8.9962
▁vår	-8.99684
▁kje	-8.99775
port	-8.99775
▁vol	-8.99857
▁lyd	-8.99913
alt	-8.99959
р	-8.99964
tale	-8.99985
ano	-8.99999
▁distrikt	-9.00144
▁president	-9.00145
cul	-9.0015
fl	-9.00205
ō	-9.0022
▁hele	-9.00317
par	-9.00323
fer	-9.00354
▁fre	-9.00426
▁war	-9.00649
▁tekst	-9.00756
lys	-9.00932
▁pra	-9.00952
lev	-9.00991
▁kun	-9.01102
ì	-9.01106
▁ifølge	-9.01165
▁ein	-9.01166
område	-9.01248
van	-9.01252
▁ring	-9.01277
ite	-9.01361
н	-9.0137
▁22	-9.01591
▁vas	-9.01643
jer	-9.0171
▁park	-9.01823
▁william	-9.01886
samling	-9.01939
▁georg	-9.02067
▁tele	-9.02072
▁sommerfugl	-9.02175
vig	-9.0236
este	-9.02411
byen	-9.0243
kle	-9.02544
pre	-9.02607
▁jon	-9.02657
kov	-9.02773
▁west	-9.02794
▁24	-9.02821
▁johan	-9.0286
pan	-9.02974
dde	-9.02999
än	-9.03002
▁japansk	-9.03035
all	-9.03131
на	-9.03133
▁stre	-9.03286
bygg	-9.03361
▁david	-9.03522
▁karl	-9.03536
qu	-9.03767
▁forfatter	-9.03821
▁spill	-9.03848
▁att	-9.03875
▁viktigste	-9.03882
▁begge	-9.03896
kken	-9.03923
▁representer	-9.03933
kre	-9.03956
▁kyst	-9.04041
ben	-9.04048
▁les	-9.04093
kket	-9.042
▁eksempler	-9.04262
▁jag	-9.04269
▁small	-9.04309
verket	-9.04359
forening	-9.04443
▁dal	-9.04491
▁ind	-9.04542
ib	-9.04607
jan	-9.04761
mun	-9.04845
▁with	-9.04891
▁bare	-9.0492
▁egen	-9.04953
rud	-9.05049
▁full	-9.05293
elva	-9.05317
ι	-9.05472
▁gamle	-9.05475
▁general	-9.05482
tic	-9.05511
▁riks	-9.05538
ket	-9.05549
▁midt	-9.05567
tta	-9.0562
ction	-9.05641
▁30	-9.05757
▁cal	-9.05833
▁ulike	-9.05885
▁es	-9.05991
mund	-9.06006
▁gikk	-9.06026
pris	-9.06034
▁forsvar	-9.06082
ømme	-9.06082
rus	-9.06125
▁beste	-9.06204
ral	-9.06243
cc	-9.06321
▁kir	-9.06391
haug	-9.06538
▁organ	-9.06718
▁11	-9.06907
ban	-9.06908
▁datter	-9.06918
▁kle	-9.07061
▁eier	-9.07064
▁tr	-9.07068
menn	-9.07068
л	-9.07134
ette	-9.07222
▁gran	-9.07433
ala	-9.07489
▁roll	-9.07699
▁fotball	-9.07812
produksjon	-9.07816
uc	-9.07873
sak	-9.07988
▁sak	-9.08018
▁ras	-9.08067
selskap	-9.08069
▁pri	-9.08095
▁arbeids	-9.08125
▁kron	-9.08142
stra	-9.08192
bær	-9.08296
navnet	-9.08299
giv	-9.08324
▁blad	-9.08351
й	-9.08353
▁valg	-9.08556
▁nett	-9.08582
▁nye	-9.08704
▁lin	-9.08742
▁reference	-9.08771
▁vir	-9.08902
▁johannes	-9.08954
▁foran	-9.08964
aks	-9.08988
▁industri	-9.09101
lene	-9.0917
▁2010	-9.09216
iserte	-9.09271
▁ten	-9.0928
▁frank	-9.09379
skole	-9.09451
senteret	-9.09461
med	-9.09472
press	-9.09565
▁provinsen	-9.09649
▁skr	-9.09788
red	-9.09869
▁cap	-9.09869
▁rekke	-9.0989
▁eu	-9.09948
ance	-9.09976
▁mc	-9.10004
mus	-9.10025
ip	-9.10056
▁2008	-9.10145
▁kol	-9.1016
▁lik	-9.1017
cia	-9.10229
▁hø	-9.10264
kant	-9.10271
▁latin	-9.103
gna	-9.1034
anlegg	-9.10383
б	-9.10462
▁hvit	-9.10612
▁gy	-9.11029
gle	-9.1104
▁kat	-9.11054
stilling	-9.11079
▁ole	-9.1111
dro	-9.11325
tiden	-9.11468
▁system	-9.11524
ão	-9.11565
▁sang	-9.11566
net	-9.11604
ym	-9.11621
▁mur	-9.11706
▁sur	-9.11757
her	-9.11759
▁ingen	-9.11809
▁dra	-9.11819
▁barn	-9.11846
▁enn	-9.11872
gra	-9.11898
qui	-9.11906
▁stu	-9.11919
drag	-9.11943
vil	-9.11964
tegn	-9.12041
▁ball	-9.12173
▁hovedstaden	-9.12187
stat	-9.12257
leg	-9.12293
▁grenser	-9.1236
▁she	-9.12542
råd	-9.12548
▁odd	-9.12709
ura	-9.12721
▁dikt	-9.12728
19	-9.12801
▁meg	-9.12836
ria	-9.12859
stasjon	-9.12939
gul	-9.12951
sal	-9.12972
▁www	-9.13055
▁ang	-9.13077
skrift	-9.13094
▁2005	-9.13105
sjef	-9.13143
▁kr	-9.13146
▁will	-9.13215
▁arter	-9.13247
▁derfor	-9.13306
jev	-9.13338
stru	-9.13343
▁pen	-9.13353
før	-9.13357
▁skolen	-9.13367
fyl	-9.13529
systemet	-9.13539
▁bel	-9.13661
▁person	-9.13677
▁bred	-9.13717
bru	-9.13813
▁ce	-9.13892
stil	-9.13927
ial	-9.13952
▁bon	-9.14025
▁sentral	-9.14064
ider	-9.14078
gon	-9.14116
banen	-9.14156
▁hall	-9.14195
▁energiselskape	-9.14235
▁uten	-9.14252
▁son	-9.14318
▁thomas	-9.14418
▁lev	-9.14445
▁tittelen	-9.14478
▁vært	-9.14484
▁win	-9.14651
▁george	-9.14674
dor	-9.14715
▁sto	-9.14768
▁deres	-9.1482
▁2011	-9.14836
▁stats	-9.14846
dri	-9.14861
12	-9.14923
▁lars	-9.14927
ild	-9.15048
▁23	-9.15189
zhou	-9.15288
▁ze	-9.15351
sj	-9.15391
qua	-9.15525
lla	-9.15696
▁deretter	-9.15779
elser	-9.1581
▁web	-9.15884
asjoner	-9.15954
olog	-9.1609
▁litt	-9.16114
▁fl	-9.16166
▁imidlertid	-9.16166
▁maria	-9.16235
▁lund	-9.16341
hn	-9.16361
в	-9.16483
▁spesial	-9.16532
▁tillegg	-9.16535
pen	-9.16536
bus	-9.16598
▁ö	-9.16607
zo	-9.16663
side	-9.167
jen	-9.16924
cha	-9.1703
▁orden	-9.17033
▁sag	-9.17093
▁bør	-9.17116
▁13	-9.17376
▁xi	-9.17446
▁not	-9.17473
▁ph	-9.17527
▁2009	-9.17595
ish	-9.17751
▁fr	-9.17787
▁ok	-9.1793
▁lø	-9.17952
pur	-9.18116
vers	-9.18219
▁usa	-9.18244
ull	-9.18365
▁slekt	-9.18425
▁bj	-9.18463
▁vanligvis	-9.18481
▁eng	-9.1849
ved	-9.18518
▁skulle	-9.18566
lighet	-9.18578
vit	-9.1859
▁domin	-9.18664
tatt	-9.18681
▁tegn	-9.18859
▁wo	-9.18863
▁kv	-9.19082
uch	-9.19202
▁topp	-9.19239
▁cy	-9.19299
▁militær	-9.19377
området	-9.19528
▁wal	-9.19643
ød	-9.1966
▁ek	-9.19813
▁lov	-9.19967
værende	-9.20033
tiv	-9.20074
▁arne	-9.20078
heten	-9.20126
▁28	-9.20132
nik	-9.20169
mannen	-9.20347
løp	-9.20456
our	-9.20486
▁egg	-9.20534
▁100	-9.20566
elt	-9.20617
▁26	-9.2064
▁filmen	-9.20682
ssa	-9.20882
20	-9.20924
gaard	-9.20963
▁anne	-9.20998
▁est	-9.21005
▁samme	-9.21129
fri	-9.21181
arter	-9.21238
ade	-9.21249
▁arabisk	-9.21344
tun	-9.21368
legg	-9.2144
nis	-9.21481
▁gr	-9.2153
▁dessuten	-9.21736
▁blod	-9.21839
▁styre	-9.21932
bjørn	-9.21964
▁eg	-9.21982
▁gla	-9.22012
én	-9.22197
sjøen	-9.22212
▁knut	-9.22221
lot	-9.223
isering	-9.22327
oli	-9.22391
▁air	-9.22519
båt	-9.22595
▁spilles	-9.22729
▁slutt	-9.22853
ire	-9.22997
▁bad	-9.23118
tis	-9.23119
▁student	-9.23182
stor	-9.23356
▁jernbane	-9.23365
ført	-9.23374
▁che	-9.23446
▁pass	-9.23495
50	-9.23555
▁juni	-9.23662
▁michael	-9.23667
hal	-9.23668
nda	-9.23816
syre	-9.23878
ighet	-9.23921
asje	-9.23991
▁don	-9.24044
▁uni	-9.24136
▁bli	-9.24164
get	-9.24178
▁haug	-9.24228
rike	-9.24323
ence	-9.24324
▁amerikansk	-9.24339
▁super	-9.24393
kro	-9.24399
▁nils	-9.24402
sam	-9.24412
▁ky	-9.24525
▁bruk	-9.24531
belteasteroide	-9.24641
▁klubben	-9.24645
lov	-9.24663
▁viktige	-9.24726
rakt	-9.24768
▁hver	-9.24772
▁lille	-9.24792
lund	-9.25007
ón	-9.25017
kul	-9.25028
ille	-9.25062
tha	-9.25073
▁mindre	-9.25226
▁utgjør	-9.25229
lingen	-9.25295
▁000	-9.2536
minister	-9.25365
ali	-9.25527
▁1989	-9.25629
▁kamp	-9.25983
▁svart	-9.25993
▁cho	-9.26102
▁finn	-9.26224
▁stil	-9.26268
▁medlem	-9.26282
lis	-9.2635
▁bank	-9.26367
▁veg	-9.26436
rich	-9.26467
▁viser	-9.26489
▁ton	-9.26606
søk	-9.26814
ity	-9.26867
dar	-9.27003
ming	-9.27009
▁fant	-9.27016
språk	-9.27061
ira	-9.27078
▁inkludert	-9.27129
bert	-9.27221
▁omfatte	-9.27242
▁historie	-9.27466
gruppen	-9.27569
▁kulturminner	-9.27634
▁mannskapet	-9.27642
fag	-9.27691
▁start	-9.27691
▁nærings	-9.27713
▁mann	-9.27719
ledd	-9.27845
▁anders	-9.28063
hand	-9.28111
ologisk	-9.28141
▁venstre	-9.28167
▁kraft	-9.28207
▁dar	-9.28222
ep	-9.2831
▁strøm	-9.28568
illa	-9.28604
▁fortsatt	-9.28671
bane	-9.28672
▁bir	-9.28688
▁fredrik	-9.28689
▁sund	-9.28819
▁helse	-9.29014
ati	-9.29022
asjonen	-9.29079
voll	-9.29102
м	-9.29109
stro	-9.29126
▁kunne	-9.29142
led	-9.29149
▁februar	-9.29165
▁bass	-9.29188
▁arkitekt	-9.29322
▁hånd	-9.29323
▁ven	-9.29343
▁zu	-9.29374
▁blo	-9.2943
▁rock	-9.29448
▁sul	-9.29531
kast	-9.29591
▁char	-9.29637
lid	-9.29656
11	-9.29697
86	-9.29732
▁lei	-9.29732
ick	-9.29748
▁finner	-9.29774
▁mak	-9.29894
▁års	-9.29908
erende	-9.29965
г	-9.30095
▁skrift	-9.30151
▁nr	-9.3021
▁forskjellige	-9.30223
▁utenfor	-9.3028
oid	-9.30548
ith	-9.30564
unn	-9.30626
ias	-9.30666
inne	-9.30726
punkt	-9.3075
▁imp	-9.30765
▁grønn	-9.30765
▁nø	-9.30923
▁27	-9.30926
pin	-9.30928
jord	-9.3101
▁myr	-9.31132
▁flo	-9.31223
ary	-9.31239
▁prest	-9.31253
▁universitet	-9.31257
aceae	-9.31273
▁komp	-9.31347
ansk	-9.3139
▁vid	-9.31397
are	-9.31404
ney	-9.31415
▁31	-9.31432
løse	-9.31506
▁poly	-9.31582
▁kull	-9.31587
able	-9.31646
▁pin	-9.31655
▁hon	-9.31684
ple	-9.31713
▁marc	-9.31747
loven	-9.31763
č	-9.31769
▁hovedsakelig	-9.31769
▁kh	-9.31805
▁får	-9.31812
▁james	-9.32039
▁gitar	-9.32047
iti	-9.32052
▁ana	-9.3214
ram	-9.32218
pl	-9.32239
▁sir	-9.32263
lon	-9.3228
▁nowiki	-9.32298
▁fle	-9.32347
▁særlig	-9.32412
17	-9.32485
▁lett	-9.32519
▁bergen	-9.3258
▁vokal	-9.32677
las	-9.32703
▁høyeste	-9.32823
grad	-9.33055
▁skjer	-9.33147
full	-9.33163
vatnet	-9.33176
▁sn	-9.33178
bas	-9.33222
komme	-9.33244
arbeid	-9.33284
▁nan	-9.33333
rang	-9.33342
fugl	-9.33357
stoff	-9.33427
▁gjør	-9.33443
los	-9.33456
▁sky	-9.33494
▁bri	-9.33581
blad	-9.33659
slav	-9.33682
▁versjon	-9.33775
▁arbeider	-9.33777
▁2004	-9.3399
con	-9.34091
▁plat	-9.34166
gata	-9.34176
▁comp	-9.34321
ies	-9.3435
hol	-9.34426
tus	-9.34427
organ	-9.34504
▁oc	-9.3455
oni	-9.34571
▁hå	-9.34786
low	-9.3485
▁familie	-9.34995
▁studie	-9.35065
▁dagen	-9.35067
▁anna	-9.35072
äl	-9.35107
▁din	-9.35159
▁29	-9.35336
▁terr	-9.35357
farge	-9.35446
▁inge	-9.35471
▁holm	-9.35511
▁ungdoms	-9.35543
▁dom	-9.35578
▁miljø	-9.35638
▁mill	-9.35684
lat	-9.35762
▁konge	-9.35892
15	-9.35947
▁mik	-9.35991
▁samtidig	-9.36083
▁tilbake	-9.36095
▁cro	-9.36096
▁høyre	-9.36099
▁elven	-9.36138
▁oppført	-9.36189
▁blei	-9.36201
▁lange	-9.36276
▁liten	-9.36388
▁star	-9.36479
▁lar	-9.36522
istisk	-9.36527
▁angel	-9.36532
fu	-9.36563
▁bill	-9.36567
eller	-9.36571
ρ	-9.36635
▁mass	-9.36649
yang	-9.36652
▁mas	-9.36659
wer	-9.36673
▁power	-9.36703
▁rest	-9.36766
▁tilby	-9.3678
can	-9.36792
way	-9.36817
ferd	-9.36842
▁wei	-9.36846
strøm	-9.36868
▁ør	-9.36881
▁gav	-9.36961
ssi	-9.37132
▁international	-9.3719
våg	-9.37223
▁kin	-9.37273
▁driver	-9.3728
stående	-9.37282
▁180	-9.37295
▁mand	-9.37361
18	-9.3744
film	-9.37603
▁blit	-9.37691
▁sau	-9.37715
lar	-9.37719
ografi	-9.37752
т	-9.37803
▁rot	-9.37861
▁turn	-9.37942
▁camp	-9.38038
rad	-9.38074
▁was	-9.38097
▁app	-9.38167
▁regn	-9.38167
ico	-9.38229
▁bakvingen	-9.38312
rio	-9.38319
▁kristian	-9.38345
nivå	-9.38349
▁siste	-9.38384
▁cam	-9.38571
plass	-9.38738
▁bygde	-9.3883
▁us	-9.38835
jö	-9.38836
band	-9.38858
▁slekten	-9.38862
ο	-9.38867
▁standard	-9.38878
▁eli	-9.38881
kraftverk	-9.38885
kjør	-9.3889
▁harald	-9.38909
▁mottok	-9.3893
▁rh	-9.39018
▁spor	-9.39069
skij	-9.39098
▁stø	-9.3913
▁slag	-9.39237
▁pot	-9.3926
▁tam	-9.39282
▁sett	-9.39377
▁176	-9.39393
▁brenselkilden	-9.39444
ras	-9.39483
of	-9.39529
renner	-9.39545
iser	-9.39584
ose	-9.396
vogn	-9.3962
▁besto	-9.39643
▁lan	-9.39647
▁energi	-9.3969
80	-9.39714
▁sw	-9.39727
▁tj	-9.39753
▁but	-9.39822
▁nevnes	-9.39829
trafikk	-9.39855
▁cla	-9.39865
▁kilde	-9.39868
stå	-9.39886
▁up	-9.39932
▁dato	-9.40018
bånd	-9.40021
▁gammel	-9.40041
lang	-9.40091
▁ask	-9.40138
jel	-9.40151
▁reg	-9.40163
king	-9.40165
blomst	-9.40176
zy	-9.40232
▁dansk	-9.40235
▁mun	-9.40252
▁redaktør	-9.40273
▁rein	-9.40288
90	-9.40381
nett	-9.40449
ē	-9.4059
▁richard	-9.40594
▁stemme	-9.40606
▁kam	-9.40648
▁dermed	-9.40659
▁dyr	-9.40665
▁gang	-9.40719
▁thi	-9.40726
30	-9.40764
▁albert	-9.40775
▁kommunene	-9.40785
▁por	-9.40792
▁strand	-9.40792
tjeneste	-9.40801
ische	-9.40952
▁døde	-9.40959
lagt	-9.40964
rød	-9.41024
▁region	-9.41064
▁kategori	-9.41169
▁europa	-9.41196
holm	-9.41313
▁foss	-9.41325
▁eid	-9.41347
ori	-9.41375
▁island	-9.41388
kla	-9.41458
ativ	-9.41466
▁nes	-9.41582
τ	-9.41749
▁italiensk	-9.41749
▁lufthavn	-9.41759
▁gruppe	-9.41777
▁stav	-9.41822
▁im	-9.41919
▁ger	-9.41939
▁sten	-9.41957
▁ung	-9.42025
▁kunstner	-9.42114
▁may	-9.42134
liste	-9.42206
manns	-9.42231
▁bay	-9.423
lus	-9.42362
gor	-9.42407
▁overtok	-9.42434
hall	-9.42439
dis	-9.4244
fører	-9.42443
finn	-9.42467
valg	-9.42479
mma	-9.42605
▁cre	-9.42606
▁gor	-9.42655
▁samarbeid	-9.42663
▁produsert	-9.4267
ora	-9.42739
lær	-9.42812
▁just	-9.42843
▁bærer	-9.42854
▁hor	-9.42878
ström	-9.42923
▁pal	-9.42948
▁felles	-9.4295
▁syd	-9.42992
▁rev	-9.43033
▁løv	-9.43096
▁regi	-9.4316
13	-9.43406
▁året	-9.43412
▁opera	-9.43425
▁først	-9.4359
vent	-9.43656
▁auto	-9.43853
pha	-9.43863
▁produsent	-9.43882
rak	-9.44015
trykk	-9.44021
▁long	-9.44075
▁laur	-9.44098
▁januar	-9.44111
▁fall	-9.44208
▁søster	-9.44215
▁il	-9.44221
▁dam	-9.44234
bol	-9.44266
▁virke	-9.44276
▁glo	-9.44373
▁ant	-9.44413
▁bol	-9.44516
cal	-9.44547
▁olje	-9.44556
▁polsk	-9.44649
▁punkt	-9.44687
orm	-9.44695
▁world	-9.44709
▁sølv	-9.44718
▁ann	-9.44806
ost	-9.44914
▁left	-9.44959
last	-9.45013
▁old	-9.45079
▁vinter	-9.45085
14	-9.45134
maskin	-9.45164
vid	-9.45182
jiang	-9.45189
▁jean	-9.45203
і	-9.45311
́	-9.45311
▁innbyggere	-9.45311
▁tredje	-9.45313
▁isbn	-9.45321
▁vä	-9.45545
▁from	-9.45553
▁ep	-9.45563
skip	-9.45579
plan	-9.45617
▁andreas	-9.4562
▁off	-9.45623
▁bla	-9.45649
▁dre	-9.45684
▁ordet	-9.45808
ges	-9.45814
▁ser	-9.45818
60	-9.45818
krets	-9.45889
ă	-9.45917
▁menneske	-9.45961
ure	-9.45983
▁hode	-9.46028
▁pla	-9.46059
iner	-9.46088
com	-9.46187
▁delta	-9.46229
▁yo	-9.463
off	-9.46464
▁cra	-9.46489
ù	-9.46527
▁part	-9.46578
▁gun	-9.46638
▁nam	-9.46638
▁daniel	-9.46649
▁ev	-9.46688
sjonen	-9.46725
▁klo	-9.46753
▁kode	-9.46808
mid	-9.46822
kop	-9.46844
ique	-9.46919
fabrikk	-9.47096
mes	-9.47118
ž	-9.4714
▁maur	-9.4719
løs	-9.47215
arm	-9.47297
foss	-9.47332
try	-9.47333
cho	-9.47371
▁arn	-9.47397
▁tha	-9.4742
ān	-9.47437
▁fjern	-9.47439
lor	-9.47539
▁stjerne	-9.47557
firma	-9.47603
din	-9.47716
magasin	-9.47775
▁2000	-9.47855
▁kjøp	-9.479
gress	-9.47986
etter	-9.48242
hov	-9.48253
▁vit	-9.48258
foreningen	-9.48278
landet	-9.48281
▁sosial	-9.48284
▁serie	-9.48288
ente	-9.48291
ín	-9.48308
▁svært	-9.48389
16	-9.48399
▁fugle	-9.48463
field	-9.48471
fold	-9.48504
▁artikkel	-9.48514
rim	-9.48529
▁cur	-9.48553
iet	-9.48586
mos	-9.48612
ugh	-9.48644
yo	-9.48653
sberg	-9.48666
▁hansen	-9.48725
▁ran	-9.48756
awa	-9.48847
▁ordenen	-9.489
gin	-9.4894
▁omkring	-9.49006
vold	-9.49047
rup	-9.49069
▁fylke	-9.4911
føring	-9.4911
ez	-9.49155
▁utgitt	-9.49195
cl	-9.49245
40	-9.49267
▁nar	-9.49315
▁skje	-9.49322
▁mont	-9.49331
▁øya	-9.49437
▁alb	-9.49448
ado	-9.49512
ß	-9.4959
▁gate	-9.49605
▁såkalt	-9.49636
▁gjorde	-9.49638
▁tang	-9.49648
▁qui	-9.49741
▁salt	-9.49828
▁serien	-9.49902
formet	-9.49916
▁antall	-9.49945
kamp	-9.50008
hei	-9.50012
▁modell	-9.50035
▁has	-9.50184
▁bror	-9.50262
κ	-9.50265
λ	-9.50265
▁ukrainsk	-9.50265
▁finsk	-9.50287
zu	-9.50288
▁forenkle	-9.50295
▁lege	-9.50313
▁kas	-9.50333
▁minne	-9.50353
ål	-9.50377
▁institut	-9.504
ffe	-9.50462
mod	-9.50529
ama	-9.50684
▁156	-9.50685
92	-9.5069
gy	-9.507
▁type	-9.50711
▁nova	-9.50714
plassen	-9.50806
af	-9.50807
win	-9.50903
▁april	-9.50905
▁louis	-9.50905
▁50	-9.50961
▁olav	-9.50989
▁zo	-9.50993
liv	-9.51025
▁qua	-9.51062
hin	-9.51062
▁hår	-9.51105
▁35	-9.51136
osa	-9.51161
▁sim	-9.51163
▁startet	-9.51228
cus	-9.51261
▁80	-9.51285
▁hest	-9.51343
car	-9.51345
gard	-9.51369
ktig	-9.51419
▁sverige	-9.51546
ringer	-9.51608
▁råd	-9.51627
ima	-9.51653
▁aktiv	-9.51686
▁172	-9.51705
stykke	-9.51818
▁internasjonale	-9.51851
nia	-9.51913
oks	-9.51942
midler	-9.51946
lei	-9.51949
resultat	-9.52045
▁bind	-9.52105
ismen	-9.52211
▁sted	-9.52221
istiske	-9.52224
▁riksvei	-9.52248
▁hjerte	-9.52251
▁tall	-9.52262
▁meter	-9.52278
▁black	-9.52305
▁uk	-9.52432
▁dor	-9.52435
▁sangen	-9.52441
uf	-9.5248
▁32	-9.52533
hen	-9.52644
tek	-9.52658
▁sve	-9.52666
▁hard	-9.5275
heng	-9.528
▁2003	-9.52885
feld	-9.52917
yan	-9.52933
▁bio	-9.53015
▁venn	-9.53067
debut	-9.53089
▁mulig	-9.53096
▁politisk	-9.53102
▁sogn	-9.53184
selskapet	-9.53197
fjell	-9.53207
▁slike	-9.53288
usjon	-9.53313
az	-9.53335
▁sort	-9.53391
temperatur	-9.53493
▁samle	-9.53515
▁hovedrollene	-9.536
▁gje	-9.53633
museet	-9.53673
▁lek	-9.53685
▁berlin	-9.53742
▁hører	-9.53749
lignende	-9.53785
nummer	-9.53864
▁sko	-9.5387
yu	-9.53874
øst	-9.53907
▁større	-9.53982
▁sab	-9.54104
▁2001	-9.54205
bladet	-9.54208
▁grad	-9.54227
▁teater	-9.54261
▁sna	-9.54354
▁neu	-9.54354
lich	-9.54421
stol	-9.54432
▁åtte	-9.54587
ual	-9.54641
▁vor	-9.54714
▁с	-9.54784
▁spi	-9.54808
ε	-9.54811
▁etablert	-9.54812
ical	-9.54813
▁bekrefte	-9.54831
disk	-9.54839
part	-9.54878
skrevet	-9.54997
▁kjell	-9.55001
▁flor	-9.55018
▁prosjekt	-9.55029
tok	-9.5503
▁handels	-9.55042
▁mørke	-9.55054
ytter	-9.55131
▁benytte	-9.55217
21	-9.55219
▁hem	-9.55285
▁franc	-9.5529
▁rå	-9.55383
▁stri	-9.55413
mand	-9.55415
▁grand	-9.55453
rør	-9.55472
ǎ	-9.55478
▁privat	-9.55489
▁løper	-9.55631
▁lær	-9.55635
gruppe	-9.55702
ew	-9.55707
unt	-9.55855
▁byer	-9.55879
æl	-9.55889
▁hind	-9.55911
bøker	-9.56044
fest	-9.56093
▁november	-9.56149
▁keiser	-9.56196
▁bandet	-9.5628
▁cru	-9.56305
tempelet	-9.56377
korps	-9.56409
ii	-9.56431
▁tidlig	-9.56434
▁syl	-9.56464
ér	-9.56531
▁160	-9.56544
strand	-9.56635
▁whi	-9.56693
▁anton	-9.56749
teori	-9.56762
▁north	-9.56788
forbundet	-9.56853
dorf	-9.56883
posisjon	-9.56913
ffer	-9.56951
▁have	-9.56958
▁bolig	-9.5699
▁herre	-9.57003
▁horn	-9.57209
▁klasse	-9.57361
▁marine	-9.57372
▁fyr	-9.57381
▁mø	-9.57388
shan	-9.57388
ander	-9.57397
bank	-9.57509
▁album	-9.57575
▁albumet	-9.57578
▁kul	-9.57637
industri	-9.57652
mbo	-9.57656
▁basert	-9.57778
olje	-9.57813
▁india	-9.57829
▁pap	-9.58007
▁skul	-9.58103
ulf	-9.58145
▁iso	-9.58203
▁grense	-9.58219
befolkning	-9.58226
▁flat	-9.58262
merke	-9.58292
ins	-9.58395
▁sun	-9.58406
▁danner	-9.58451
▁elve	-9.58654
▁press	-9.58719
▁fylkes	-9.58762
gal	-9.58854
økonom	-9.58865
▁mid	-9.58943
▁russland	-9.59033
grunn	-9.59048
▁tallet	-9.59123
▁tap	-9.59183
▁ud	-9.5921
▁met	-9.59241
▁kap	-9.59257
▁hjemme	-9.59262
mit	-9.59264
onia	-9.59265
bygd	-9.59276
gue	-9.59284
formen	-9.593
delen	-9.59362
▁179	-9.59387
pet	-9.59469
bakken	-9.59493
▁tilhørte	-9.59575
▁larven	-9.59582
sport	-9.59609
olo	-9.597
bal	-9.59758
vinger	-9.59764
▁smal	-9.59812
▁olsen	-9.59872
▁ken	-9.59906
▁rik	-9.59929
▁hed	-9.59939
▁merke	-9.59939
▁king	-9.59943
▁esp	-9.59956
▁ris	-9.59979
vol	-9.59986
øk	-9.60078
▁andersen	-9.60096
▁frø	-9.60185
▁33	-9.60195
▁utgi	-9.60195
hund	-9.60226
gitt	-9.60226
▁vanlig	-9.60245
▁tan	-9.60249
ritt	-9.60257
rek	-9.60261
ч	-9.6027
▁netto	-9.60294
▁landsbyen	-9.60305
▁nummer	-9.60312
▁charles	-9.60317
ato	-9.60455
lapp	-9.60611
▁utviklet	-9.60627
▁gau	-9.60657
▁max	-9.60747
▁larvene	-9.60771
▁dyre	-9.60841
▁transport	-9.60861
▁bob	-9.6089
▁bygg	-9.60891
ada	-9.60973
▁oktober	-9.60978
regjering	-9.60979
▁gunnar	-9.60981
ppen	-9.60985
▁hud	-9.61008
gli	-9.61071
ob	-9.61155
▁end	-9.61197
▁tettsted	-9.61214
▁avis	-9.61223
▁wen	-9.61241
▁kara	-9.6125
line	-9.61537
col	-9.61557
▁ledet	-9.61566
▁tyskland	-9.61591
▁prosess	-9.61594
▁ref	-9.61685
▁national	-9.61689
▁vind	-9.61701
▁gru	-9.61702
grav	-9.61739
▁finans	-9.6176
bit	-9.61793
▁dun	-9.61802
top	-9.61814
▁mir	-9.61921
▁trykk	-9.61957
▁middel	-9.6196
▁sat	-9.62098
▁våpen	-9.62218
▁jern	-9.62271
nom	-9.62304
▁gård	-9.62321
▁cer	-9.62391
ê	-9.62401
▁offisiell	-9.62401
▁betjene	-9.62413
▁bort	-9.62479
tag	-9.6251
kka	-9.62534
▁metall	-9.6263
▁frukt	-9.62647
▁175	-9.62694
▁sy	-9.62695
anske	-9.62709
▁bygd	-9.6278
▁utgav	-9.62882
▁partiet	-9.629
▁ye	-9.62926
mot	-9.62983
▁168	-9.63005
lom	-9.63006
tive	-9.63029
▁dj	-9.63038
▁elev	-9.6306
▁gass	-9.63075
▁tids	-9.63107
▁elektro	-9.63114
▁stasjon	-9.63117
▁begynte	-9.63121
▁produserer	-9.63121
▁autonom	-9.6313
▁naturgass	-9.63182
▁medlemmer	-9.63189
▁bilde	-9.63226
▁tim	-9.63314
▁serv	-9.63359
havet	-9.63393
▁beskriv	-9.63409
▁styrke	-9.63444
▁brann	-9.63464
▁nok	-9.63467
▁kors	-9.63497
hed	-9.63545
ili	-9.63669
ville	-9.63704
▁kontroll	-9.63751
▁konst	-9.63772
hel	-9.63782
arafa	-9.63836
teknikk	-9.63847
▁45	-9.63864
▁trekk	-9.63914
hild	-9.63939
parti	-9.63939
▁aas	-9.6398
▁japan	-9.63993
▁verdi	-9.63996
lsen	-9.64128
▁out	-9.64198
one	-9.64226
cher	-9.64253
▁gard	-9.64254
væ	-9.64342
▁math	-9.64383
▁hør	-9.64493
▁kost	-9.64536
skapet	-9.64553
sha	-9.64564
▁sju	-9.64573
▁wilhelm	-9.64575
strid	-9.64601
▁borg	-9.64733
▁jens	-9.64748
▁klar	-9.64775
▁syv	-9.64873
▁40	-9.64903
▁que	-9.65049
kjempe	-9.65115
▁skuespiller	-9.65129
ë	-9.65311
▁desember	-9.65311
▁oppkalt	-9.65317
▁nytt	-9.65344
▁rund	-9.65384
▁forsknings	-9.65401
▁idretts	-9.65422
▁kj	-9.65527
▁elv	-9.65528
lønn	-9.65532
▁kru	-9.65545
skudd	-9.65579
litt	-9.65588
▁gui	-9.65599
ball	-9.65611
hua	-9.65709
kommune	-9.65717
fang	-9.65727
ante	-9.65732
▁kvinne	-9.65739
▁monte	-9.6578
uru	-9.65837
▁hit	-9.65868
pel	-9.65974
ра	-9.65995
atur	-9.66005
▁tittel	-9.6601
vitenskapelig	-9.66071
▁johann	-9.66105
▁153	-9.66176
▁ass	-9.66214
▁sanger	-9.66255
▁pris	-9.66278
dahl	-9.66316
▁brukte	-9.66335
▁01	-9.66346
distrikt	-9.66403
▁skrive	-9.66549
ient	-9.66581
▁snø	-9.66647
▁70	-9.66675
forbund	-9.66739
ammen	-9.66745
ов	-9.66761
▁2013	-9.66821
ledning	-9.66862
▁vill	-9.66898
▁alpin	-9.6698
sol	-9.6705
▁flu	-9.67059
musikk	-9.67066
▁gjer	-9.67167
rygg	-9.67182
felt	-9.67193
▁fry	-9.67197
plat	-9.67264
chu	-9.67298
▁helge	-9.67331
feltet	-9.67404
øyene	-9.67408
ç	-9.67443
ς	-9.67541
ò	-9.67549
σ	-9.67549
struktur	-9.6755
▁rei	-9.67557
brudd	-9.67564
▁service	-9.67572
▁litteratur	-9.67588
▁føde	-9.67606
▁hend	-9.67672
▁unn	-9.67769
▁dommer	-9.67802
rop	-9.67878
▁krigs	-9.67905
svik	-9.67908
logen	-9.67914
▁real	-9.67922
aya	-9.67963
fjellet	-9.68073
▁hær	-9.68168
▁nasjonale	-9.68261
ś	-9.68307
▁original	-9.68307
▁1999	-9.68307
▁egentlig	-9.68329
▁style	-9.68342
dels	-9.68382
retning	-9.68724
ensis	-9.68731
spor	-9.68788
bilde	-9.68927
under	-9.68959
▁his	-9.69024
fla	-9.69024
▁bern	-9.69037
▁univers	-9.69064
▁alf	-9.6907
вич	-9.69075
raf	-9.69098
70	-9.69138
▁sæ	-9.69142
▁bygge	-9.69169
▁osv	-9.69251
▁gren	-9.69343
▁170	-9.69406
gården	-9.69407
▁helt	-9.69476
holmen	-9.69563
▁qi	-9.69564
▁mørk	-9.69587
lem	-9.69601
▁ec	-9.69657
▁utvikling	-9.69787
▁cent	-9.69804
▁arve	-9.69822
▁2012	-9.69872
▁164	-9.69987
▁leg	-9.70112
▁drift	-9.70161
▁matt	-9.70209
well	-9.70261
▁mig	-9.70261
metode	-9.70304
alder	-9.70323
▁vå	-9.70383
▁bestod	-9.70503
▁jacob	-9.70543
nie	-9.7055
▁sla	-9.70567
ô	-9.70615
rev	-9.70632
wan	-9.70633
sang	-9.70641
▁blue	-9.70666
▁årlig	-9.70764
â	-9.70766
motor	-9.70778
▁mobil	-9.70868
bakk	-9.70888
▁trond	-9.70918
basert	-9.70969
▁kata	-9.7099
▁folk	-9.7099
▁hand	-9.70999
jia	-9.71012
året	-9.71081
▁hjem	-9.71174
▁hjelp	-9.71281
▁dø	-9.71297
park	-9.71305
ringen	-9.71351
▁canada	-9.7144
▁elva	-9.71534
▁erstatte	-9.71536
▁173	-9.71554
formede	-9.71622
kus	-9.71647
fre	-9.71729
▁svarte	-9.7176
▁hage	-9.71805
ł	-9.71876
▁løp	-9.71932
▁linje	-9.71943
ст	-9.71952
▁150	-9.71985
▁в	-9.72004
middel	-9.72011
▁felt	-9.72099
hjul	-9.72127
▁cell	-9.72141
representant	-9.72184
▁typisk	-9.72192
▁2014	-9.72208
▁time	-9.72216
▁design	-9.72239
komponist	-9.7224
▁wu	-9.72324
▁los	-9.72353
▁jar	-9.72366
hai	-9.72383
▁157	-9.72421
elv	-9.72503
hem	-9.72509
▁brukt	-9.72542
▁kirken	-9.72561
▁internasjonal	-9.72598
beskytte	-9.72598
vor	-9.72655
▁test	-9.72737
▁oliv	-9.72767
▁pop	-9.72771
▁120	-9.72884
▁reise	-9.72891
▁epi	-9.72925
▁zi	-9.72968
▁middelsstor	-9.72977
▁jim	-9.73004
bak	-9.73088
▁apo	-9.73091
▁støtte	-9.7313
rekord	-9.73169
mil	-9.73181
ctor	-9.73239
lli	-9.73263
▁kalte	-9.73286
skolen	-9.73348
landskap	-9.73565
brun	-9.73572
▁hj	-9.73591
▁tung	-9.73718
områdene	-9.73722
ous	-9.73756
▁igjen	-9.7379
▁2015	-9.73805
▁landsforening	-9.73807
▁shan	-9.73852
ping	-9.73945
▁henry	-9.73954
utgivelse	-9.73962
▁samling	-9.74008
▁finland	-9.74024
▁lite	-9.74056
arbeider	-9.74125
partiet	-9.74162
bach	-9.74166
▁multi	-9.74177
▁einar	-9.74197
▁sterk	-9.74245
▁marie	-9.74293
medisin	-9.7433
▁brit	-9.7435
▁hov	-9.74372
▁34	-9.74395
▁hil	-9.74417
prosess	-9.74422
oner	-9.74431
sjoner	-9.74435
parken	-9.74452
▁lam	-9.74471
eier	-9.74493
prisen	-9.74555
▁edderkopp	-9.74584
▁offentlig	-9.74584
▁arten	-9.74591
liggende	-9.74594
▁joseph	-9.74594
▁energy	-9.74595
pr	-9.74685
orum	-9.74707
ania	-9.7471
plasser	-9.74723
▁grunnla	-9.74769
linger	-9.74821
▁sar	-9.74862
▁seil	-9.7503
▁ledes	-9.75041
fond	-9.75221
løst	-9.75222
▁larsen	-9.75236
kammer	-9.75257
▁bety	-9.75361
messig	-9.75429
saker	-9.75478
▁jer	-9.75525
▁primær	-9.75529
▁sentrum	-9.75591
▁wall	-9.75602
▁mit	-9.7561
▁geo	-9.75656
▁stedet	-9.75758
blom	-9.75759
▁annen	-9.75773
▁this	-9.75911
oma	-9.75916
▁egne	-9.75945
wald	-9.75947
▁plass	-9.7605
▁log	-9.7609
bein	-9.76103
aria	-9.76162
▁nest	-9.76183
horn	-9.76189
▁september	-9.76216
▁varaordfører	-9.76216
μ	-9.76216
▁delstaten	-9.76218
▁foreldre	-9.76219
hallen	-9.7622
liga	-9.76353
▁ts	-9.76486
▁nesten	-9.76489
▁cle	-9.76519
spir	-9.76543
▁vanlige	-9.76583
hof	-9.76603
▁hul	-9.76644
medaljen	-9.76653
hode	-9.76746
roll	-9.76816
gro	-9.76884
produkter	-9.76908
▁kim	-9.76925
▁rør	-9.76968
kontor	-9.76981
ě	-9.77043
▁direkte	-9.77044
▁magnus	-9.77053
▁varme	-9.77109
lä	-9.77179
▁otto	-9.77203
bul	-9.7721
stedet	-9.77238
▁fro	-9.77243
▁jen	-9.77284
evne	-9.77289
zar	-9.77398
▁museum	-9.7748
▁disk	-9.77481
▁enkelt	-9.7749
▁enkelte	-9.77499
▁båt	-9.77539
▁nev	-9.77562
▁brø	-9.77698
▁staten	-9.77802
▁avdeling	-9.77813
eringen	-9.77826
iebedriften	-9.77835
hjem	-9.77868
▁rektor	-9.7788
▁org	-9.77948
▁luk	-9.77948
▁verne	-9.78035
eira	-9.78055
▁tjeneste	-9.78076
▁kjøre	-9.78091
▁right	-9.78125
▁munn	-9.7815
▁city	-9.78153
ello	-9.78173
▁lau	-9.78213
ã	-9.78235
styrke	-9.78251
▁prim	-9.78266
trekk	-9.7827
ona	-9.78278
skifte	-9.78296
vard	-9.78333
▁sja	-9.78336
▁82	-9.78383
▁kha	-9.7846
demokrat	-9.78486
spinner	-9.78542
slekten	-9.78552
▁dahl	-9.78566
skjell	-9.78655
▁sær	-9.7869
ingeniør	-9.78728
▁opplags	-9.78737
▁trondheim	-9.78742
▁group	-9.78756
handler	-9.78765
lend	-9.78799
▁stammer	-9.78847
▁uttrykk	-9.78917
▁ost	-9.78946
▁funksjon	-9.7895
▁produkt	-9.78959
▁tildelt	-9.79053
medalje	-9.79078
stø	-9.79105
▁159	-9.79161
▁jam	-9.79185
havn	-9.79188
▁ari	-9.79199
uni	-9.79263
▁simon	-9.79309
▁aur	-9.79339
ön	-9.79361
fell	-9.79438
▁leir	-9.79477
▁vekt	-9.79544
▁mye	-9.79561
▁krist	-9.79571
▁sign	-9.7962
▁regnes	-9.79694
merket	-9.79702
bygda	-9.79734
høy	-9.79781
▁36	-9.79815
iva	-9.79829
▁forkorte	-9.79947
løper	-9.79961
programmet	-9.79961
vekst	-9.80009
forsker	-9.80049
▁bjar	-9.80049
osi	-9.80132
innen	-9.80134
▁instrument	-9.80153
▁regionen	-9.80164
næs	-9.80169
▁dis	-9.80276
ár	-9.80323
ktet	-9.80358
▁deler	-9.80368
▁vinner	-9.80397
▁od	-9.80418
▁spesielt	-9.80418
▁record	-9.8042
erud	-9.80421
▁øverst	-9.80423
▁university	-9.8043
▁betydning	-9.80451
tum	-9.80473
▁nabo	-9.80476
▁rune	-9.80545
lak	-9.80546
▁count	-9.80556
kilde	-9.80667
▁selskap	-9.80695
▁morten	-9.80709
▁165	-9.80791
tom	-9.80818
kamera	-9.80834
▁lærer	-9.80847
▁bygget	-9.80861
marked	-9.80928
▁led	-9.80941
▁60	-9.80942
▁human	-9.80953
▁rygg	-9.80993
▁rosen	-9.8101
▁love	-9.81012
▁wer	-9.81075
▁plu	-9.81119
▁tyske	-9.81176
head	-9.81206
▁fot	-9.81282
trop	-9.81318
kanalen	-9.8137
byrå	-9.8141
▁spin	-9.81415
zon	-9.81429
varer	-9.81438
▁sl	-9.81457
▁best	-9.81476
▁kai	-9.81487
▁mikro	-9.81594
cent	-9.81747
åsen	-9.8179
ekte	-9.81809
▁ett	-9.81815
▁informasjon	-9.81892
▁155	-9.81921
▁mol	-9.82052
▁marg	-9.82063
▁natt	-9.82116
sekretær	-9.82138
▁administrativ	-9.82152
gno	-9.82195
▁kjerne	-9.82235
▁trommer	-9.82255
▁ever	-9.82258
▁mei	-9.82274
▁award	-9.82331
mur	-9.82358
▁endre	-9.82364
bell	-9.82379
▁indre	-9.82508
▁oversatt	-9.82514
▁eneste	-9.82551
▁exp	-9.82557
ila	-9.82598
ро	-9.82627
▁front	-9.82642
lyn	-9.8265
klubben	-9.82691
▁israel	-9.82702
fart	-9.82737
▁henrik	-9.82742
▁få	-9.82783
▁stasjonen	-9.82786
▁slå	-9.82794
▁buss	-9.82826
▁hydro	-9.82841
▁då	-9.82888
klar	-9.82954
▁mått	-9.82978
▁az	-9.83016
х	-9.83027
▁1996	-9.83028
▁betydelig	-9.83034
▁south	-9.83055
▁studert	-9.83066
▁slott	-9.83121
▁indisk	-9.83128
kultur	-9.83133
medlem	-9.83142
▁oh	-9.83165
▁38	-9.83173
▁johansen	-9.83178
з	-9.83222
▁moderne	-9.83243
▁high	-9.83302
klasse	-9.83303
departementet	-9.83329
rådet	-9.83431
▁dol	-9.83498
▁grev	-9.8352
▁bille	-9.83563
▁forlag	-9.83679
▁steve	-9.83679
▁mini	-9.8373
måte	-9.8375
vald	-9.83868
▁ull	-9.83872
▁blomster	-9.83873
cca	-9.839
▁bou	-9.83925
▁2016	-9.83941
seth	-9.83991
▁97	-9.84009
▁samfunns	-9.8404
deles	-9.84181
▁fisk	-9.84215
arten	-9.84255
▁hopp	-9.8428
folk	-9.84314
zhi	-9.84357
▁fest	-9.84373
hunder	-9.84439
▁song	-9.84446
▁fan	-9.84449
▁rose	-9.84475
utstilling	-9.845
▁glass	-9.8452
stikk	-9.84529
jar	-9.84534
▁olavs	-9.84536
forskning	-9.8456
▁spar	-9.84561
▁direktør	-9.84576
▁provins	-9.84662
cio	-9.84715
▁ville	-9.84727
▁spiss	-9.84766
▁1998	-9.84806
▁back	-9.84828
▁1990	-9.84862
▁musiker	-9.84876
virksomhet	-9.84904
▁foruten	-9.84914
▁trener	-9.84942
▁skatt	-9.84947
historie	-9.84947
▁ganske	-9.8495
▁kropp	-9.84989
▁tai	-9.85018
▁boy	-9.85085
▁gold	-9.85089
skilt	-9.85094
▁green	-9.85102
▁steder	-9.85104
▁till	-9.85181
▁kro	-9.85235
▁russ	-9.85243
lio	-9.85322
▁petter	-9.85345
ы	-9.85415
▁cl	-9.85432
war	-9.85447
▁sven	-9.85525
bygging	-9.85619
atus	-9.85623
▁sjef	-9.85647
▁britisk	-9.8568
▁inngår	-9.85708
gjort	-9.85714
▁tverr	-9.85721
▁42	-9.85841
▁bryst	-9.85892
▁thu	-9.85904
▁lengde	-9.86005
cheng	-9.86016
▁svein	-9.86063
flue	-9.86087
▁fj	-9.86095
iana	-9.86105
▁stol	-9.86144
▁troll	-9.86201
▁ves	-9.86225
▁turist	-9.86237
▁hannen	-9.86285
fot	-9.86319
▁vinge	-9.86322
qi	-9.86346
▁fol	-9.86416
▁ting	-9.86427
former	-9.86497
livet	-9.86516
▁sho	-9.8652
▁skade	-9.86544
stille	-9.86626
▁rolf	-9.86626
▁club	-9.86635
▁inc	-9.86638
▁godt	-9.8666
▁antonio	-9.86669
avdeling	-9.86774
spekt	-9.8684
▁chu	-9.86852
skipet	-9.86856
▁arbeidet	-9.86894
zj	-9.86997
▁skip	-9.87014
▁sum	-9.87022
▁sunn	-9.87044
▁lokale	-9.87049
▁feil	-9.87208
▁figur	-9.87216
pal	-9.87225
▁palm	-9.87239
▁rep	-9.87246
▁tiden	-9.87248
▁hill	-9.87319
▁sentrale	-9.87327
▁bry	-9.87366
▁who	-9.87373
▁omtale	-9.87399
utdanning	-9.87461
▁rand	-9.87474
▁sav	-9.87498
▁arbeid	-9.87511
▁drive	-9.87521
vitenskap	-9.87525
ñ	-9.87533
▁tolkien	-9.87533
▁utvide	-9.87552
▁varierer	-9.87576
▁stig	-9.87673
▁stål	-9.87703
▁tau	-9.87815
▁hö	-9.87841
ва	-9.87958
spis	-9.87963
▁professor	-9.87963
kraft	-9.88026
▁sit	-9.88037
▁mess	-9.88044
▁orkester	-9.8805
løsning	-9.88077
▁kristin	-9.8808
slaget	-9.88089
▁konkurranse	-9.88097
▁90	-9.88121
trær	-9.8815
på	-9.88178
amin	-9.8826
samfunn	-9.88328
▁kroppen	-9.88386
vest	-9.88429
▁symbol	-9.88444
▁ple	-9.88453
▁digital	-9.88461
▁betegne	-9.88467
▁eik	-9.88485
▁52	-9.88506
▁lot	-9.88515
hor	-9.88526
▁paa	-9.88532
snegl	-9.88734
hm	-9.88752
yuan	-9.88752
kerne	-9.88753
▁maskin	-9.88774
▁verden	-9.88793
kirken	-9.88796
▁hva	-9.88805
typen	-9.88849
▁stan	-9.88953
ль	-9.89017
▁geir	-9.89043
▁mm	-9.89069
ios	-9.89071
tjenester	-9.89226
bare	-9.89258
grupper	-9.89259
lop	-9.89283
▁vær	-9.89308
shire	-9.89355
plante	-9.89388
▁religion	-9.89394
▁middelalder	-9.89402
▁gress	-9.89461
▁ara	-9.89515
aktiv	-9.89524
ан	-9.8959
jon	-9.89691
▁typer	-9.89711
▁plate	-9.89732
▁intern	-9.89753
ito	-9.8978
▁pul	-9.8979
barn	-9.89874
gni	-9.89951
ordenen	-9.89955
▁drama	-9.90042
▁är	-9.90125
▁ordens	-9.90201
▁00	-9.90242
bedrift	-9.90278
▁tilsvarende	-9.90337
▁inneholdt	-9.90337
▁1995	-9.90337
▁dronning	-9.90343
▁für	-9.90344
▁2017	-9.90369
kes	-9.9037
▁grunnlagt	-9.90379
▁saint	-9.90417
kjenne	-9.90443
▁video	-9.90469
▁bat	-9.90475
▁villa	-9.90498
pil	-9.90533
▁harry	-9.90596
våpen	-9.90597
▁kongen	-9.90662
▁sterkt	-9.90672
▁vent	-9.90697
▁æres	-9.90756
▁nilsen	-9.90783
▁tann	-9.90818
▁fed	-9.90829
town	-9.90885
▁jesu	-9.90911
▁55	-9.90956
fjellene	-9.90983
hard	-9.91096
▁emil	-9.91116
▁hoff	-9.91162
vinner	-9.91171
▁music	-9.91243
π	-9.91289
align	-9.91302
▁innsjøen	-9.91303
▁havne	-9.91305
nan	-9.91341
▁bin	-9.91365
gående	-9.91396
▁aar	-9.91577
▁historisk	-9.91583
▁politiker	-9.91595
ward	-9.91817
▁gjeste	-9.91882
▁kil	-9.91915
▁akt	-9.9192
oksid	-9.92025
gruppa	-9.92106
▁veien	-9.92135
▁én	-9.92175
▁flyplass	-9.92219
▁hals	-9.92225
▁philip	-9.92294
virkning	-9.92328
▁37	-9.9235
ington	-9.92375
▁wood	-9.9244
▁temp	-9.9244
zan	-9.92446
▁pel	-9.92448
▁oss	-9.92474
▁produksjons	-9.9253
fil	-9.9257
▁henne	-9.92593
ь	-9.92639
▁ott	-9.92734
vá	-9.92791
▁eiendom	-9.92798
▁sideelv	-9.92872
para	-9.92874
▁jule	-9.92899
▁daglig	-9.92992
▁hvert	-9.93066
▁wade	-9.93142
▁æ	-9.93146
▁gil	-9.93163
▁ov	-9.93204
▁alternativ	-9.93221
▁friedrich	-9.93221
▁tabellen	-9.93225
▁163	-9.93225
oppgave	-9.9324
dam	-9.93244
▁mangler	-9.93287
▁danmark	-9.93299
▁anlegget	-9.93311
▁sle	-9.93405
▁organisasjonen	-9.9344
▁slo	-9.93462
▁skips	-9.93473
figur	-9.93573
▁stopp	-9.9364
▁bart	-9.9375
▁xu	-9.938
▁kalk	-9.93802
kler	-9.9381
▁tett	-9.93826
▁if	-9.93845
▁brenn	-9.9388
▁cath	-9.93983
▁eget	-9.94005
▁eva	-9.94011
kjede	-9.94033
▁personlig	-9.94087
▁hvite	-9.94096
▁64	-9.94112
▁danse	-9.94137
row	-9.94166
η	-9.94202
myndighet	-9.94202
▁slu	-9.94215
▁hjerne	-9.9426
ка	-9.94311
▁fleste	-9.94339
fartøy	-9.94355
▁shu	-9.94456
▁kari	-9.94461
▁bai	-9.94468
▁jobbe	-9.94482
▁furu	-9.94493
▁hä	-9.94538
produsent	-9.94578
▁damp	-9.94625
mont	-9.94633
løpet	-9.94668
▁stam	-9.94792
▁123	-9.94797
▁vall	-9.94844
▁tank	-9.94973
ophi	-9.94975
▁karakter	-9.94987
▁hatt	-9.9501
chester	-9.95013
mengde	-9.95028
▁luc	-9.95038
▁spansk	-9.95045
▁pur	-9.95066
▁buk	-9.95118
bud	-9.95119
kirke	-9.95146
▁kjenn	-9.95154
gler	-9.95166
aktig	-9.95187
▁tydelig	-9.95215
sjø	-9.9524
ux	-9.95243
▁filip	-9.9526
▁rad	-9.95267
▁nrk	-9.95269
▁146	-9.95288
▁ric	-9.95289
▁sivil	-9.95358
▁dyp	-9.95369
historiker	-9.9541
vekt	-9.9542
▁sukker	-9.9542
virke	-9.95486
▁lib	-9.95504
dannelse	-9.95555
▁effekt	-9.95558
▁sea	-9.95578
▁gram	-9.95627
▁stort	-9.95654
▁svar	-9.95697
▁75	-9.95709
▁lim	-9.95725
▁faren	-9.95754
▁krets	-9.95764
▁open	-9.95767
▁boken	-9.96012
▁brand	-9.96083
▁pil	-9.96096
stjerne	-9.96139
ί	-9.96192
δ	-9.96192
▁unicode	-9.96192
▁1987	-9.96193
▁fylket	-9.96197
▁frederik	-9.96201
▁york	-9.96209
▁sverre	-9.96218
▁polar	-9.96224
bridge	-9.9623
▁dokument	-9.96238
▁bronse	-9.96242
ça	-9.96247
▁ai	-9.96262
▁nordøst	-9.96278
botn	-9.96345
▁italia	-9.96359
løft	-9.96378
myr	-9.96394
▁hjemmeside	-9.96398
▁kok	-9.96407
▁retts	-9.96426
▁line	-9.96506
▁streng	-9.96523
▁arg	-9.96613
▁drag	-9.9665
▁tø	-9.96683
lement	-9.96701
▁even	-9.96737
isse	-9.96768
▁akademi	-9.96809
følge	-9.96841
▁cd	-9.9694
▁metro	-9.96945
institu	-9.97003
▁sports	-9.97016
ál	-9.9712
▁omtrent	-9.97202
utdannet	-9.97206
▁klima	-9.97243
▁forvingen	-9.97281
areal	-9.97315
▁øvrig	-9.97337
▁enten	-9.97348
▁festival	-9.9737
▁konsert	-9.97384
tang	-9.97411
gje	-9.97458
▁fir	-9.97485
stamme	-9.9754
cup	-9.97596
folket	-9.97608
hyll	-9.97653
handel	-9.9767
▁herman	-9.97772
▁corn	-9.97805
▁borger	-9.97908
▁voks	-9.97951
▁dur	-9.98021
▁noe	-9.98064
▁ola	-9.98087
▁program	-9.9819
friidrettsutøver	-9.98222
γ	-9.98222
kommunikasjon	-9.98222
▁forekommer	-9.98222
▁jørgen	-9.98223
▁utdype	-9.98225
▁london	-9.98225
▁alexander	-9.98228
mmel	-9.98231
odo	-9.98231
▁statsminister	-9.98246
▁cri	-9.98246
▁jazz	-9.98334
▁dannet	-9.98338
▁roger	-9.98346
▁kyr	-9.98353
omi	-9.98493
▁formel	-9.98502
▁130	-9.98575
▁skriver	-9.9861
komst	-9.98683
vang	-9.98691
president	-9.98727
museum	-9.98731
delig	-9.98748
▁147	-9.98875
▁tenn	-9.98935
▁ey	-9.9901
▁adam	-9.99056
▁saa	-9.99159
▁dog	-9.99162
▁ross	-9.9925
▁stockholm	-9.99253
▁1993	-9.99254
▁dialekt	-9.99257
europeisk	-9.99267
▁referere	-9.99283
▁clo	-9.99306
▁rob	-9.99359
dikt	-9.99365
▁sku	-9.99389
program	-9.99417
▁kjær	-9.99512
▁høyde	-9.99535
▁chang	-9.99579
person	-9.99598
▁aldri	-9.99599
hagen	-9.99601
▁walter	-9.99612
▁47	-9.99699
▁gå	-9.99792
▁mester	-9.99804
▁kloster	-9.99935
▁lære	-9.99967
ск	-10.0004
møte	-10.0006
▁mono	-10.0012
▁alm	-10.0012
▁vold	-10.0023
politikk	-10.0024
gikk	-10.0029
▁akk	-10.0029
▁sigurd	-10.003
▁1988	-10.003
▁jakob	-10.003
▁styrmann	-10.003
▁nærmest	-10.0031
ος	-10.0031
▁fører	-10.0031
▁flertall	-10.0032
▁himmel	-10.0033
▁dverg	-10.0033
verdi	-10.0034
▁bord	-10.0035
▁pont	-10.0037
▁mah	-10.0037
▁angrep	-10.0037
▁alfred	-10.0038
thon	-10.0039
▁bland	-10.0043
levende	-10.0046
▁kart	-10.0047
▁behandling	-10.0053
▁funn	-10.0055
rapport	-10.0063
skjær	-10.0066
▁oftest	-10.0067
▁tema	-10.0073
▁had	-10.0074
▁tilhøre	-10.0079
insk	-10.0082
ernes	-10.0084
linjen	-10.0097
arbeidet	-10.0098
delt	-10.0105
ни	-10.0108
▁michel	-10.0109
tori	-10.0117
▁spp	-10.0127
▁mala	-10.0131
advokat	-10.0135
▁enhet	-10.0142
▁bod	-10.0152
▁høsten	-10.0152
▁chris	-10.0153
cz	-10.0167
vannet	-10.0181
▁148	-10.0182
▁fler	-10.0187
▁bach	-10.0191
▁opprettet	-10.0194
▁totalt	-10.0194
istene	-10.0196
▁dro	-10.0198
▁152	-10.0199
▁dekker	-10.02
▁there	-10.0202
vika	-10.0209
▁arc	-10.0216
▁idrettslag	-10.0219
format	-10.0219
▁viktig	-10.0229
▁gile	-10.023
▁yng	-10.023
▁rem	-10.0234
▁128	-10.0235
ischen	-10.0241
▁fulgte	-10.0241
▁prefektur	-10.0241
▁1997	-10.0241
tradisjon	-10.0242
avisen	-10.0243
▁tog	-10.0243
▁betegnelsen	-10.0247
▁ash	-10.0249
▁forretnings	-10.0251
sdatter	-10.0256
▁øke	-10.0273
▁mul	-10.028
▁65	-10.0284
trinn	-10.0288
āng	-10.0292
drift	-10.0294
▁jun	-10.0294
▁euro	-10.0301
▁bydelen	-10.0303
tog	-10.0309
kort	-10.0312
▁lyst	-10.0328
▁upp	-10.0332
grense	-10.0337
▁ivan	-10.0341
ative	-10.0348
▁shanghai	-10.0349
▁1994	-10.0349
▁øvre	-10.0349
▁gustav	-10.0349
▁møtte	-10.0353
▁pedersen	-10.0355
▁river	-10.0356
vall	-10.0356
▁mitt	-10.0357
▁gitt	-10.0359
ла	-10.0364
næring	-10.0364
▁eldre	-10.0374
▁ala	-10.0379
▁preg	-10.0381
pass	-10.0386
ømt	-10.0388
▁kjøl	-10.0389
▁manus	-10.0403
▁ganger	-10.0404
▁team	-10.0412
amerikansk	-10.0416
▁bag	-10.0419
▁vokser	-10.0419
▁jr	-10.0419
tropp	-10.0426
▁74	-10.0427
▁liber	-10.0429
▁ron	-10.0437
▁п	-10.0438
▁histori	-10.0439
bispedømme	-10.0457
▁administrere	-10.0457
planter	-10.0458
▁programleder	-10.0459
▁publisert	-10.0459
▁stavanger	-10.046
▁still	-10.0464
idrett	-10.0465
▁byprefekturet	-10.0466
▁prisen	-10.047
▁pl	-10.0477
sim	-10.0493
▁kristen	-10.0499
▁klokke	-10.0503
▁py	-10.0505
elius	-10.0508
▁lyn	-10.0529
region	-10.0529
▁well	-10.053
▁utstyr	-10.0533
▁korn	-10.054
ally	-10.055
phy	-10.0551
venn	-10.0562
▁kath	-10.0566
▁familiegruppen	-10.0569
breen	-10.057
▁behandle	-10.0573
▁social	-10.0573
▁1992	-10.0573
▁nordvest	-10.0575
▁wil	-10.0577
▁bomb	-10.0578
stilte	-10.0588
▁fjord	-10.0596
▁kaller	-10.0603
betegnelse	-10.0605
▁hai	-10.0606
later	-10.0611
▁moren	-10.0611
▁meta	-10.0613
▁økt	-10.0617
klipp	-10.0623
▁vakt	-10.0628
icus	-10.0629
prosjekt	-10.0642
▁bow	-10.0646
▁fett	-10.0649
▁egil	-10.065
kall	-10.0656
phi	-10.0658
▁benyttes	-10.0664
maleri	-10.0666
▁tilknyttet	-10.0678
▁billed	-10.0679
▁andré	-10.068
▁dru	-10.0682
▁ordfører	-10.0682
▁smith	-10.0682
▁text	-10.0682
jal	-10.0683
▁leon	-10.0683
▁uavhengig	-10.0684
▁likevel	-10.0685
iano	-10.0685
▁104	-10.0686
▁aust	-10.069
п	-10.0702
▁02	-10.0702
▁hin	-10.0704
▁underlagt	-10.0704
reaksjon	-10.0706
serie	-10.0712
▁holder	-10.0723
▁krysser	-10.0724
▁bit	-10.0726
house	-10.0728
▁bevegelse	-10.0729
▁populær	-10.0731
▁39	-10.0731
artikler	-10.0738
▁hjort	-10.0747
løk	-10.0749
▁storm	-10.075
itiv	-10.0753
▁peder	-10.0753
▁jack	-10.0773
ppel	-10.0778
▁personer	-10.0778
meter	-10.0784
▁113	-10.0795
▁atlant	-10.0795
▁mcc	-10.0796
▁1980	-10.0797
▁motiv	-10.0807
soldat	-10.0812
▁fabrikk	-10.0819
▁127	-10.082
▁grøn	-10.0822
ōng	-10.0824
ен	-10.0835
stone	-10.0836
▁wel	-10.0838
▁beskrev	-10.0843
▁dong	-10.0844
▁wan	-10.085
▁total	-10.0857
legger	-10.0861
▁trak	-10.087
▁iii	-10.0872
▁radi	-10.0873
funksjon	-10.0873
riket	-10.0878
▁santa	-10.088
▁phil	-10.0888
▁tone	-10.089
▁besøk	-10.0895
vev	-10.0897
▁betydninger	-10.09
▁85	-10.0904
▁kardinal	-10.0904
▁eide	-10.0904
▁school	-10.0905
▁nabokommune	-10.0905
▁single	-10.0905
▁henri	-10.0912
▁tørr	-10.0913
provinshovedstad	-10.0914
analyse	-10.0919
flekk	-10.0922
▁klubb	-10.0924
▁ark	-10.0926
▁nasjonalpark	-10.093
bury	-10.0936
▁num	-10.0936
▁malt	-10.0939
▁show	-10.094
▁artene	-10.094
▁operer	-10.0942
▁bud	-10.0943
▁wang	-10.0945
enburg	-10.0946
▁hunnen	-10.0952
▁bølge	-10.0953
▁distr	-10.0956
▁bibliotek	-10.0959
▁hammer	-10.0964
festivalen	-10.0982
▁rute	-10.0983
▁solo	-10.0985
▁kali	-10.0992
forsvar	-10.0996
▁one	-10.0999
musik	-10.1
▁markeds	-10.1005
▁bjørk	-10.101
▁hir	-10.1011
▁107	-10.1014
bund	-10.1015
ekspedisjon	-10.1019
▁biskop	-10.102
▁114	-10.1023
▁åpning	-10.1023
▁internett	-10.1024
▁pettersen	-10.1027
▁adel	-10.1027
▁markerer	-10.1032
llus	-10.1033
linje	-10.1047
katt	-10.1054
karriere	-10.1055
▁operasjon	-10.1058
▁påvirke	-10.1059
mond	-10.1069
но	-10.1075
▁110	-10.1082
▁pave	-10.1094
▁austr	-10.1094
▁aks	-10.1102
illo	-10.1103
▁124	-10.1105
behandling	-10.1109
▁lyng	-10.111
spenning	-10.1116
▁140	-10.1119
▁present	-10.112
▁virksomhet	-10.1123
▁43	-10.1129
▁way	-10.1135
▁dobbelt	-10.1136
▁derimot	-10.1136
▁eldste	-10.1136
kandidat	-10.1137
▁islam	-10.1137
kommando	-10.1138
▁oblast	-10.1139
▁top	-10.114
▁brown	-10.1142
▁passerer	-10.1143
▁fylkesvei	-10.1143
▁høyt	-10.1146
▁46	-10.1149
vatn	-10.1151
го	-10.1159
▁motstand	-10.1161
isch	-10.1163
já	-10.1164
▁ferdig	-10.1165
▁slav	-10.1166
▁beat	-10.1168
prinsipp	-10.1177
lista	-10.1179
burn	-10.1179
▁anvend	-10.1182
▁delvis	-10.1182
kveld	-10.1184
▁54	-10.1184
kvalitet	-10.1203
то	-10.121
▁terj	-10.1212
▁kåre	-10.1216
▁prof	-10.1224
▁utvikle	-10.1227
forbindelse	-10.123
▁verb	-10.123
▁day	-10.1232
▁delt	-10.1237
▁53	-10.1238
▁master	-10.1245
▁call	-10.1249
▁fjær	-10.125
ǔ	-10.1253
ц	-10.1253
▁bulgarsk	-10.1253
▁1991	-10.1253
▁company	-10.1253
▁college	-10.1254
▁sykehus	-10.1255
▁sara	-10.1257
▁sørvest	-10.1258
bour	-10.126
zel	-10.1261
▁gw	-10.1262
▁menighet	-10.1267
▁rod	-10.1271
▁š	-10.1272
▁heng	-10.1272
▁center	-10.1281
▁09	-10.1283
interesse	-10.1285
▁kjøpt	-10.1287
▁naturlig	-10.1293
▁fli	-10.1293
pul	-10.1293
▁åpen	-10.1296
▁stift	-10.1298
ła	-10.1299
▁tun	-10.1304
▁brem	-10.1304
px	-10.1306
▁kvar	-10.1314
▁kaptein	-10.1315
▁kamper	-10.1317
▁105	-10.1318
▁holde	-10.1319
verksted	-10.1323
▁jevn	-10.1324
▁fur	-10.1329
▁linjen	-10.133
sentre	-10.1341
▁fru	-10.1341
▁carol	-10.1347
▁gjelder	-10.1352
tittel	-10.1358
▁play	-10.1364
▁asia	-10.1371
▁1983	-10.1372
▁scott	-10.1373
istikk	-10.1376
▁1986	-10.1381
▁bydel	-10.1381
▁corp	-10.1381
▁semi	-10.1393
▁east	-10.1393
▁feli	-10.1404
dong	-10.1406
▁term	-10.1418
▁bert	-10.1424
ер	-10.1424
fugler	-10.1426
▁noter	-10.1438
▁åpnet	-10.1442
▁tran	-10.1454
▁pala	-10.1455
▁bell	-10.1468
▁mold	-10.1473
▁motta	-10.1473
▁ånd	-10.1475
▁500	-10.1476
▁spise	-10.1479
miljø	-10.1479
▁kraftig	-10.148
īn	-10.1481
▁trø	-10.1481
▁arrangerer	-10.1493
▁1985	-10.1493
▁44	-10.1493
▁naturreservat	-10.1493
▁afrika	-10.1494
serien	-10.1494
▁kjærlighet	-10.1494
kunnskap	-10.1495
▁edward	-10.1496
▁mineral	-10.1496
▁hotell	-10.1498
▁62	-10.1498
aktige	-10.1499
ев	-10.1499
▁tå	-10.1502
utstyr	-10.151
▁frei	-10.1514
▁56	-10.152
▁forbindelse	-10.1533
nytt	-10.1534
ска	-10.1536
stasjonen	-10.1538
▁syk	-10.1538
▁norman	-10.1539
▁stoff	-10.154
▁your	-10.155
▁union	-10.1558
▁populære	-10.1562
▁deles	-10.1577
▁ter	-10.1582
▁rosa	-10.1582
frihet	-10.1586
løv	-10.159
fotograf	-10.1592
▁ah	-10.1593
ambi	-10.1594
▁þ	-10.1595
bygningen	-10.1597
wood	-10.1601
▁sz	-10.1608
▁life	-10.161
gutt	-10.161
▁forbinde	-10.1614
▁tusenårssted	-10.1615
▁american	-10.1615
▁norrøn	-10.1615
▁nedenfor	-10.1615
▁145	-10.1615
▁stadion	-10.1617
▁water	-10.1617
ovitsj	-10.1619
▁foto	-10.1624
▁deltok	-10.1626
▁persisk	-10.1631
▁adresse	-10.1632
forhold	-10.1645
▁skapt	-10.1646
▁kraftige	-10.1648
▁fjellet	-10.1658
▁hou	-10.1661
hø	-10.1675
▁kau	-10.168
skaja	-10.1682
▁audi	-10.1687
▁stod	-10.1689
▁а	-10.1689
▁144	-10.1697
▁myk	-10.1701
▁grupper	-10.1702
▁dig	-10.1707
jå	-10.1709
▁our	-10.1721
long	-10.1722
▁grov	-10.1729
▁bakkropp	-10.1738
▁hebraisk	-10.1738
▁sjelden	-10.1738
▁arthur	-10.1739
▁sveits	-10.1739
▁drammen	-10.1742
▁ønske	-10.1742
▁bom	-10.1743
▁republikken	-10.1746
▁portrett	-10.1754
▁knytte	-10.1756
dagen	-10.1758
▁herr	-10.1764
▁float	-10.1765
maker	-10.1768
recht	-10.1775
▁graf	-10.1775
▁143	-10.1779
▁gården	-10.1785
▁thom	-10.1788
atet	-10.179
▁jarl	-10.1794
▁154	-10.1805
vakt	-10.1813
▁årene	-10.1814
grep	-10.1828
øvelse	-10.1833
▁marit	-10.1833
▁studio	-10.1833
▁68	-10.1835
▁dynastiet	-10.1842
linjer	-10.1853
▁arkiv	-10.1854
tyr	-10.1854
design	-10.1858
setningen	-10.1859
▁bygning	-10.186
▁grunnlegger	-10.1862
løytnant	-10.1863
ǐ	-10.1863
ό	-10.1863
giovanni	-10.1863
▁efter	-10.1865
▁hurtig	-10.1865
▁alv	-10.1866
▁omtalt	-10.1869
▁våg	-10.187
koll	-10.1878
▁straffe	-10.1885
▁alex	-10.1886
▁grim	-10.1892
▁piano	-10.1902
møll	-10.1912
▁fab	-10.1915
▁pet	-10.1916
leir	-10.1919
för	-10.1925
▁signal	-10.1925
▁rio	-10.1931
▁åpne	-10.1936
▁prakt	-10.1939
anlegget	-10.1947
▁malm	-10.1955
▁bygningen	-10.1965
▁benyttet	-10.1967
egnet	-10.1979
▁chan	-10.198
▁anta	-10.1986
▁slett	-10.1989
▁regional	-10.1989
ш	-10.199
▁sovjetunionen	-10.199
▁elektrisk	-10.199
▁1982	-10.199
▁problem	-10.1991
▁tibetansk	-10.1993
stell	-10.1999
kunst	-10.2
▁drev	-10.2002
▁alpe	-10.2013
▁normal	-10.2014
▁størrelse	-10.2014
▁skyldes	-10.2017
▁sä	-10.2018
tilbud	-10.2023
▁84	-10.2024
▁demokrati	-10.2024
undervisning	-10.2024
▁kontor	-10.2042
▁omhandle	-10.2043
▁divisjon	-10.2045
▁tårn	-10.2048
lif	-10.2052
kjøn	-10.2053
ș	-10.206
▁makt	-10.2066
guan	-10.2069
▁brei	-10.2072
▁wid	-10.2072
gjøre	-10.2075
tilstand	-10.2078
▁retning	-10.208
kål	-10.2082
▁intel	-10.2083
ddy	-10.2087
graph	-10.2093
▁big	-10.2094
ated	-10.2094
▁sym	-10.2096
▁øyene	-10.2096
valget	-10.2105
▁sup	-10.2118
▁elisabeth	-10.2118
▁debutalbum	-10.2118
▁1976	-10.2118
album	-10.2122
ми	-10.2123
▁måne	-10.2125
▁fjorden	-10.214
▁41	-10.2143
materiale	-10.2154
modell	-10.2157
▁ube	-10.2157
▁begrepet	-10.2169
▁132	-10.2169
▁gott	-10.2171
▁verd	-10.2176
▁silke	-10.2177
▁white	-10.2185
▁129	-10.2194
bukta	-10.22
hør	-10.2201
▁dør	-10.2209
▁141	-10.221
▁følge	-10.2211
▁lill	-10.2219
▁fc	-10.2222
▁båten	-10.2223
▁ork	-10.2224
tunnelen	-10.224
▁deriblant	-10.2248
▁ukraina	-10.2248
▁gabriel	-10.2248
▁1984	-10.2248
▁tyrkisk	-10.2248
▁millioner	-10.2248
▁relativ	-10.2248
▁episode	-10.2248
▁musikal	-10.2249
stipend	-10.2249
▁rap	-10.2249
▁verneområder	-10.225
▁tilsvarer	-10.225
▁stortings	-10.225
▁kjemisk	-10.2251
▁reserve	-10.2251
▁latinsk	-10.2253
verdig	-10.2257
▁uttalt	-10.2259
▁48	-10.2261
▁regjeringen	-10.2261
syke	-10.2262
▁nordisk	-10.2273
▁bonde	-10.2275
▁syr	-10.2277
▁støttet	-10.2283
▁papir	-10.2284
▁utført	-10.2288
▁artister	-10.2293
▁registr	-10.2294
▁län	-10.2295
▁lunge	-10.2299
▁bunn	-10.23
▁pyr	-10.2302
▁møte	-10.2304
▁artist	-10.2306
▁jä	-10.2308
politisk	-10.2316
type	-10.2317
▁bog	-10.2321
▁ligne	-10.2322
eiro	-10.2327
tveit	-10.2328
▁skar	-10.2341
▁kryss	-10.2342
▁gaten	-10.2345
jønn	-10.2349
skille	-10.2353
▁niko	-10.2358
▁fv	-10.2361
▁normalt	-10.2365
▁swa	-10.2367
▁plo	-10.237
▁57	-10.2372
wick	-10.2379
▁dirigent	-10.2379
▁teknisk	-10.2379
▁beijing	-10.238
▁fremdeles	-10.2383
▁what	-10.2383
▁pierre	-10.2385
▁fått	-10.2385
skjold	-10.2385
▁125	-10.2385
▁mary	-10.239
programmer	-10.2392
▁jacobsen	-10.2392
▁pad	-10.2394
▁øyvin	-10.2399
▁bull	-10.2403
▁118	-10.2409
▁svak	-10.2415
▁prøve	-10.2417
gift	-10.242
▁guang	-10.242
▁him	-10.2421
▁cheng	-10.2422
kasse	-10.2425
▁spring	-10.2427
▁skå	-10.2428
▁lep	-10.2432
▁jensen	-10.2442
pati	-10.2445
▁irsk	-10.2451
▁finale	-10.2451
▁112	-10.2454
▁134	-10.2456
▁anim	-10.2458
▁roma	-10.2467
▁hente	-10.2468
▁tradisjonel	-10.247
▁blokk	-10.2473
▁guar	-10.2474
▁ansvarlig	-10.2481
▁høg	-10.2487
▁wol	-10.2488
ccio	-10.2489
▁cel	-10.2491
▁leif	-10.2492
▁vu	-10.2497
▁139	-10.2499
iseres	-10.2503
▁mennesker	-10.2504
▁psyko	-10.2507
fabrik	-10.2512
▁sanskrit	-10.2513
▁1979	-10.2513
▁deutsche	-10.2513
▁rau	-10.2516
▁svømme	-10.2519
utvikling	-10.2522
▁vanligste	-10.2523
▁hypo	-10.2533
bregne	-10.2538
▁sykdom	-10.2538
▁say	-10.2539
batteri	-10.254
▁solgt	-10.2541
cchi	-10.2541
▁ltd	-10.2543
▁krever	-10.2543
▁dd	-10.2548
▁begynner	-10.2554
▁bau	-10.2558
▁bly	-10.2558
▁scor	-10.2559
fred	-10.2568
▁jeff	-10.2569
▁eie	-10.2576
ри	-10.2576
▁skjær	-10.2577
▁trolig	-10.2582
▁kw	-10.2588
hul	-10.2593
ovo	-10.2594
stripe	-10.2594
▁baby	-10.2602
▁teknologi	-10.2612
▁forhold	-10.2612
▁117	-10.2625
▁festning	-10.2626
asso	-10.2644
administra	-10.2647
đ	-10.2648
▁katolsk	-10.2648
▁kombiner	-10.2649
objekt	-10.2649
▁frankrike	-10.2651
▁kvinner	-10.2653
ðu	-10.2654
▁149	-10.2655
▁05	-10.2657
▁opprett	-10.2666
▁kast	-10.2672
▁bakover	-10.2672
jæ	-10.2675
▁kval	-10.2685
brand	-10.2687
▁toll	-10.2689
flåte	-10.2697
ledet	-10.2698
▁schi	-10.2704
▁krok	-10.2711
hopp	-10.2723
▁kreft	-10.2723
▁yi	-10.2732
vikler	-10.2735
▁aktivitet	-10.2744
▁hein	-10.2747
▁sö	-10.2747
ić	-10.2751
▁136	-10.2751
▁arch	-10.2753
ship	-10.2757
▁qing	-10.2758
▁smak	-10.2759
tain	-10.2759
▁95	-10.2759
▁inte	-10.2761
▁jakt	-10.2761
▁skjold	-10.2779
▁nordland	-10.2781
▁andrew	-10.2785
▁electric	-10.2785
▁sannsynlig	-10.2785
▁introdusert	-10.2785
▁produseres	-10.2785
▁katedral	-10.2785
▁1973	-10.2785
▁nicola	-10.2785
▁fjerde	-10.2786
▁allerede	-10.2786
▁linux	-10.2787
▁stefan	-10.2788
▁jordbruk	-10.2793
▁maj	-10.2797
▁butikk	-10.2799
forfatter	-10.2799
▁major	-10.2801
▁legge	-10.2806
født	-10.2808
▁emb	-10.2814
▁bakke	-10.2817
▁mach	-10.2819
▁mani	-10.2821
▁93	-10.2835
kontroll	-10.2836
▁teksten	-10.2839
arkiv	-10.2841
▁thy	-10.2856
butikk	-10.2862
stemme	-10.2863
▁stiftet	-10.2872
▁brev	-10.2875
▁106	-10.2913
▁rid	-10.2916
aksjon	-10.2919
fyr	-10.2919
lung	-10.2923
▁storbritannia	-10.2924
betennelse	-10.2924
▁church	-10.2924
▁klassisk	-10.2924
▁bosetning	-10.2925
terapi	-10.2929
▁håkon	-10.293
terminal	-10.2931
▁røyk	-10.2934
▁perioden	-10.2935
tap	-10.2936
▁inndelt	-10.2937
▁china	-10.2941
▁petr	-10.2943
hjelp	-10.2945
galleri	-10.2946
▁public	-10.295
strup	-10.2954
▁bibel	-10.2956
avgift	-10.2961
tikken	-10.2966
▁jonas	-10.2974
▁sider	-10.2975
ân	-10.2976
plikt	-10.298
▁wild	-10.2987
▁nielsen	-10.2992
та	-10.302
▁material	-10.3026
▁utføre	-10.3029
▁mongol	-10.3031
▁clark	-10.3038
yama	-10.3039
▁qa	-10.304
▁etterfulgt	-10.3065
▁hviterussisk	-10.3065
▁1968	-10.3065
▁1978	-10.3065
▁ungarsk	-10.3065
▁forårsake	-10.3065
▁midgard	-10.3066
▁royal	-10.3067
▁tømmer	-10.3068
▁oscar	-10.3069
▁melodi	-10.307
▁blank	-10.3072
▁raf	-10.3075
▁poeng	-10.3078
▁hustru	-10.3079
▁sesongen	-10.3081
▁seier	-10.3085
støl	-10.3088
▁koll	-10.3097
▁møter	-10.31
▁fremste	-10.3102
▁frode	-10.3103
▁panser	-10.3108
▁66	-10.3108
▁fotballklubb	-10.311
▁grund	-10.3116
ttle	-10.3118
agua	-10.3127
▁sende	-10.3137
▁frp	-10.314
▁vokalist	-10.3143
versjon	-10.3146
▁great	-10.3146
▁font	-10.3164
▁krav	-10.317
halvøya	-10.3194
▁63	-10.3197
alitet	-10.32
register	-10.3202
▁arrangeres	-10.3207
▁passasjer	-10.3207
▁yrkes	-10.3208
▁heinrich	-10.3209
ópolis	-10.3211
▁book	-10.3211
▁sikkerhets	-10.3219
▁hyper	-10.3226
roman	-10.3232
søkte	-10.3233
▁mynt	-10.3236
transport	-10.3237
▁minst	-10.3239
toppen	-10.3243
▁than	-10.3245
▁ernst	-10.3245
▁innsjø	-10.3247
▁singel	-10.3255
▁francis	-10.3258
▁heart	-10.3259
offiser	-10.3262
▁bang	-10.328
▁nick	-10.3282
▁116	-10.331
▁gruve	-10.3318
herre	-10.3321
pec	-10.3324
▁mau	-10.3336
▁jud	-10.335
▁kjøtt	-10.3352
▁science	-10.3352
bataljon	-10.3352
▁prosent	-10.3354
▁1970	-10.3359
▁fib	-10.3359
▁72	-10.3363
▁kry	-10.3371
▁tell	-10.3372
evitsj	-10.3373
▁skall	-10.338
▁avslutte	-10.3383
▁brad	-10.3383
▁dvs	-10.3384
plattform	-10.3385
▁tour	-10.3386
▁kva	-10.339
ledende	-10.3394
▁fløy	-10.3405
ар	-10.341
▁tyr	-10.3429
▁morgen	-10.3433
▁sørlig	-10.345
▁skinn	-10.3455
▁utøver	-10.3457
ulær	-10.3463
ittisk	-10.3468
forkortelse	-10.3476
▁puppe	-10.3478
forvaltning	-10.3489
typer	-10.3489
journal	-10.3493
▁regissør	-10.3499
▁ukjent	-10.35
▁innskriften	-10.35
▁united	-10.35
▁økonomisk	-10.3505
psykologi	-10.3506
undersøkelse	-10.3507
▁høst	-10.3508
▁forvaltnings	-10.351
▁down	-10.3514
▁flagg	-10.352
▁urdu	-10.3522
▁400	-10.3523
skiller	-10.3524
inntekt	-10.3526
▁pic	-10.353
tvedt	-10.3531
▁ytre	-10.3536
direktør	-10.3537
▁kub	-10.3538
▁sound	-10.3539
▁støtter	-10.3544
▁ulv	-10.3545
▁73	-10.3555
▁raj	-10.3555
▁spillerne	-10.3556
▁gjenopp	-10.3568
▁crist	-10.3574
thal	-10.3577
▁78	-10.3578
▁kvin	-10.3584
▁133	-10.359
▁kapp	-10.3593
▁tsje	-10.3601
▁opphav	-10.3623
teknologi	-10.3623
▁119	-10.363
ń	-10.3648
▁revolusjon	-10.3649
▁alkohol	-10.3649
▁1974	-10.3649
▁niels	-10.3649
▁padding	-10.3652
kapital	-10.3656
▁bodø	-10.3656
▁slank	-10.3658
▁mé	-10.3658
ди	-10.3659
apparat	-10.3662
▁108	-10.3669
▁alltid	-10.3671
kjemi	-10.3696
dress	-10.3697
▁trenings	-10.3698
gass	-10.3711
owski	-10.3723
abad	-10.375
▁petro	-10.3753
▁bha	-10.3756
▁nerve	-10.3757
▁tempel	-10.3767
▁ungdom	-10.3781
▁137	-10.3785
▁wolf	-10.3789
▁plast	-10.3795
▁parlament	-10.38
▁spesiell	-10.38
▁fiktiv	-10.3802
mønster	-10.3803
▁skjedde	-10.3803
▁ishockey	-10.3804
▁josé	-10.3805
▁work	-10.3807
▁journalist	-10.3807
▁hvis	-10.3808
▁franz	-10.3816
▁skytter	-10.3816
▁lod	-10.3817
▁07	-10.383
▁arkitektur	-10.383
▁fritz	-10.3833
▁nederland	-10.3833
slutt	-10.3833
▁junior	-10.3835
kompani	-10.3839
▁67	-10.384
instrument	-10.3848
▁hop	-10.3849
årig	-10.3867
▁nevne	-10.387
▁nevro	-10.387
▁korea	-10.3884
▁regel	-10.3886
▁bryn	-10.3898
▁rö	-10.3899
▁102	-10.3904
▁99	-10.3911
▁49	-10.3917
▁87	-10.3922
▁nederlandsk	-10.3926
▁kilometer	-10.3954
spørsmål	-10.3954
▁1981	-10.3954
▁1975	-10.3954
▁eventyr	-10.3955
▁tegneserie	-10.3955
▁premier	-10.3955
▁archive	-10.3956
somme	-10.3956
▁global	-10.3957
kommisjon	-10.3957
▁nattfly	-10.3957
▁brasil	-10.3957
▁central	-10.3957
▁khan	-10.396
▁oversettelse	-10.3964
▁sammenlagt	-10.3964
▁fader	-10.3967
▁llc	-10.3967
▁samuel	-10.3967
▁oppnå	-10.3968
▁drikke	-10.3973
▁luther	-10.398
prest	-10.3984
point	-10.3986
▁forbunds	-10.3987
gram	-10.3996
▁good	-10.3997
▁122	-10.3997
▁ekstra	-10.3998
▁200	-10.4004
grønn	-10.4007
aktivitet	-10.4009
▁disc	-10.401
utgave	-10.4018
▁penge	-10.4025
ugle	-10.4029
▁melke	-10.4041
▁pho	-10.4044
bæk	-10.4054
▁nedre	-10.4056
▁avgjør	-10.4061
▁slip	-10.4061
▁cour	-10.4066
▁filosof	-10.4067
nagar	-10.4073
perioden	-10.4075
▁campo	-10.4079
▁skyld	-10.4089
▁ré	-10.4092
zú	-10.4094
ordning	-10.4095
hovedstaden	-10.4104
veps	-10.4107
▁valgte	-10.4108
arrangement	-10.411
▁københavn	-10.411
▁berømte	-10.411
▁etterfølger	-10.4111
▁adolf	-10.4111
▁kontakt	-10.4111
▁dårlig	-10.4113
▁forteller	-10.4113
▁busk	-10.4114
▁mega	-10.4116
▁sørøst	-10.4119
▁element	-10.4124
phon	-10.4133
▁smør	-10.4134
▁game	-10.4138
▁popul	-10.4152
▁johnson	-10.4165
dynastiet	-10.4167
bahn	-10.4169
▁novo	-10.4172
bygning	-10.4173
▁kald	-10.4184
▁tykk	-10.4184
▁handling	-10.4186
tysk	-10.4188
▁svan	-10.4195
blå	-10.4198
▁jose	-10.4199
▁glad	-10.421
▁fange	-10.4217
▁aksje	-10.422
▁ledelse	-10.4228
▁neger	-10.4228
▁skarp	-10.4233
▁aleksandr	-10.4269
▁corporation	-10.4269
▁således	-10.4269
▁08	-10.4269
▁australia	-10.4269
▁overflate	-10.427
▁pasient	-10.427
▁kallenavn	-10.427
▁medlemmene	-10.427
▁protein	-10.4271
▁bakterie	-10.4272
▁protest	-10.4273
bjørg	-10.4276
løyp	-10.4276
▁reform	-10.4277
▁komposisjon	-10.4278
▁tolv	-10.4278
▁1950	-10.4281
▁vinnerlag	-10.4285
▁51	-10.4286
døgn	-10.4287
▁barnehage	-10.4292
ли	-10.4299
▁yngre	-10.4301
▁04	-10.4306
ogram	-10.4307
▁magnet	-10.4312
▁olaf	-10.4317
drakt	-10.4325
▁sankt	-10.4326
▁young	-10.4329
akademi	-10.4331
konkurranse	-10.4331
▁little	-10.434
▁88	-10.434
mesterskapet	-10.4348
▁biograf	-10.4352
▁115	-10.4354
▁fritt	-10.4354
▁plassert	-10.4356
▁fyrste	-10.436
▁vic	-10.4364
flo	-10.4396
▁bære	-10.4403
alisme	-10.4407
aux	-10.4423
по	-10.4424
polis	-10.4429
▁offisielt	-10.443
▁1977	-10.443
▁moskva	-10.4431
pedagog	-10.4431
▁fiolin	-10.4431
▁positiv	-10.4431
▁yizhi	-10.4431
▁henholdsvis	-10.4431
▁redusere	-10.4432
▁stadium	-10.4432
▁integr	-10.4434
▁sykkel	-10.4434
▁kvinnelig	-10.4434
▁mytologi	-10.4434
▁norway	-10.4438
▁sverd	-10.444
▁eksport	-10.4443
mission	-10.4444
▁donau	-10.445
xiang	-10.4457
▁johnny	-10.4457
▁german	-10.4461
▁femte	-10.4469
høgskole	-10.4481
▁selge	-10.4481
▁høyere	-10.4486
▁sikte	-10.449
▁night	-10.4491
▁kvit	-10.4498
nntil	-10.4509
▁vad	-10.4509
masse	-10.4523
chel	-10.4539
▁clar	-10.4539
▁131	-10.4553
finalen	-10.4556
▁sving	-10.4557
ruten	-10.4558
▁munk	-10.4562
ruter	-10.4568
pping	-10.4579
▁england	-10.4581
▁jiu	-10.4582
▁91	-10.4583
▁past	-10.4594
▁tidsskriftet	-10.4594
▁kommunal	-10.4594
▁1969	-10.4594
▁1965	-10.4594
▁1972	-10.4594
▁know	-10.4595
▁reidar	-10.4598
▁sno	-10.4609
▁klatre	-10.4614
▁proto	-10.4616
bekken	-10.4618
▁opprør	-10.4619
▁krog	-10.4623
▁viking	-10.4624
▁måned	-10.4627
▁135	-10.4633
schaft	-10.4637
▁fuji	-10.4638
brev	-10.4655
▁59	-10.4659
▁holdt	-10.4661
lândia	-10.4666
orkester	-10.4669
▁robin	-10.4684
bryter	-10.4692
▁126	-10.47
gått	-10.4701
▁111	-10.4715
▁lü	-10.4721
▁lasse	-10.4722
radio	-10.4759
▁anbefal	-10.4761
▁sjeldne	-10.4761
▁fødsel	-10.4761
▁washington	-10.4761
▁regissert	-10.4761
kompleks	-10.4761
▁valuta	-10.4762
▁skotsk	-10.4764
järvi	-10.4766
▁import	-10.4768
▁jackson	-10.4771
▁fungere	-10.4774
▁ridder	-10.4774
▁asbjørn	-10.4781
▁susan	-10.4785
▁atom	-10.4789
▁vingene	-10.4796
pakk	-10.4803
vík	-10.4805
▁109	-10.481
▁blind	-10.4831
ault	-10.4835
regiment	-10.4839
▁bö	-10.4847
▁sovjet	-10.4855
quist	-10.4875
▁elias	-10.4879
▁victor	-10.4885
▁krf	-10.489
cture	-10.489
▁tusen	-10.4891
profil	-10.4913
samband	-10.493
▁amerika	-10.493
▁łód	-10.493
▁rudolf	-10.493
▁opprinnelse	-10.493
▁sistnevnte	-10.493
▁symptom	-10.493
konstruksjon	-10.493
▁egypt	-10.493
frekvens	-10.4931
▁1966	-10.4931
▁1967	-10.4931
▁1964	-10.4931
konferanse	-10.4931
▁skildre	-10.4931
▁noctu	-10.4932
▁maksim	-10.4933
▁edvard	-10.4935
▁finnmark	-10.4936
▁tommy	-10.494
▁lengre	-10.494
▁brian	-10.4941
▁høyesterett	-10.4942
▁period	-10.4946
▁utenom	-10.4949
▁utdannings	-10.495
blomsterflue	-10.4951
▁lansert	-10.4953
▁dersom	-10.4955
flyttet	-10.4959
fløyte	-10.4964
filosofi	-10.4977
bevis	-10.5002
arkitekt	-10.5016
kjøp	-10.5018
▁77	-10.5023
bukk	-10.5024
▁mario	-10.5025
sykler	-10.503
▁vokste	-10.5033
▁samisk	-10.5037
▁hjemmebane	-10.5045
▁ørn	-10.5069
▁kunde	-10.507
vendt	-10.5072
▁mich	-10.5087
ætt	-10.5099
▁modern	-10.5102
▁individ	-10.5103
▁jomfru	-10.5103
▁microsoft	-10.5103
▁utgjorde	-10.5103
▁skulptur	-10.5103
▁fengsel	-10.5103
▁kristoffer	-10.5103
▁petersburg	-10.5103
forsikring	-10.5103
artilleri	-10.5104
▁hvilke	-10.5104
▁micro	-10.5104
▁hertug	-10.5104
▁lewis	-10.5105
komité	-10.5105
▁elektronisk	-10.5105
▁insekt	-10.5105
egenskaper	-10.5109
▁markert	-10.5109
▁1930	-10.5114
▁karakteristisk	-10.5129
▁fremme	-10.5131
▁karin	-10.5135
▁innført	-10.5138
▁hundre	-10.5147
odden	-10.5155
ма	-10.5171
▁registrert	-10.5176
bibliotek	-10.5194
effekt	-10.5195
▁statlig	-10.5203
▁palass	-10.522
▁kö	-10.523
▁flø	-10.5235
produkt	-10.5256
▁prins	-10.5262
▁profesjonell	-10.5278
▁vladimir	-10.5278
▁etterhvert	-10.5278
▁millimeter	-10.5278
▁tilgjengelig	-10.5278
▁initiativ	-10.5278
▁vulkan	-10.5278
▁1963	-10.5278
▁skjønn	-10.5283
▁miao	-10.5286
▁drept	-10.5289
▁tunnel	-10.529
▁06	-10.5298
▁allmenn	-10.5303
støtte	-10.5305
▁bring	-10.5307
laug	-10.5309
▁kapell	-10.5312
▁bratt	-10.5315
▁utkom	-10.5333
mongolsk	-10.5334
▁arb	-10.5335
brigade	-10.5339
▁koloni	-10.5339
▁aksel	-10.5352
▁stokk	-10.5355
▁300	-10.5356
▁kär	-10.5373
▁ibn	-10.5375
redaktør	-10.5376
front	-10.5383
avhengig	-10.5384
▁reich	-10.5387
kreft	-10.5388
▁josef	-10.539
sidig	-10.5399
ал	-10.5414
▁ej	-10.5452
▁arrangør	-10.5457
▁tilskuere	-10.5457
▁francesco	-10.5457
▁1945	-10.5457
▁kristiansand	-10.5457
▁kjønns	-10.5458
hastighet	-10.5458
▁brønn	-10.5459
▁medisinsk	-10.5462
▁2018	-10.5463
▁muskel	-10.5473
▁ultra	-10.5484
▁when	-10.5485
▁benevn	-10.5487
▁begrense	-10.549
republikk	-10.5491
ière	-10.5494
▁castel	-10.551
▁orgel	-10.5514
tårn	-10.5533
▁lamb	-10.5535
▁gill	-10.5542
veggen	-10.5545
divisjon	-10.5561
▁fish	-10.5569
fordeling	-10.557
▁miste	-10.5579
▁crow	-10.5584
▁utnevnt	-10.5596
bevegelsen	-10.5604
▁hekk	-10.5609
▁maha	-10.5617
▁milan	-10.5635
υ	-10.5638
▁brenselstypen	-10.5639
▁fullstendig	-10.5639
▁innbyggerne	-10.5639
▁kennedy	-10.5639
▁redusert	-10.5639
glia	-10.5639
opplæring	-10.564
rådgiver	-10.5641
▁koreansk	-10.5642
worth	-10.5642
wang	-10.5645
▁møller	-10.5646
▁bundes	-10.5646
▁bydistrikt	-10.565
älven	-10.565
følelse	-10.5651
▁meyer	-10.5652
▁pistol	-10.5654
▁øystein	-10.5659
drevet	-10.5667
▁first	-10.5678
▁oppdrag	-10.5678
▁tråd	-10.568
▁utnytte	-10.5691
database	-10.5698
▁henning	-10.5706
▁hauk	-10.5725
▁moll	-10.574
▁bodde	-10.5751
bølge	-10.5759
▁gitarist	-10.5766
▁grø	-10.5793
sikkerhet	-10.581
biologi	-10.5813
▁trygve	-10.5824
▁foregår	-10.5824
▁systematikk	-10.5825
▁legend	-10.5826
▁diverse	-10.5826
▁generalsekretær	-10.5826
▁viktor	-10.5829
▁foretrekke	-10.583
▁luci	-10.583
▁sammenheng	-10.5834
▁hvordan	-10.5835
døgnfluer	-10.584
▁grunnlegge	-10.5841
bredd	-10.5845
kostnad	-10.5847
ре	-10.5849
▁sosialistisk	-10.5854
▁eriksen	-10.5859
shop	-10.5863
redaksjon	-10.5901
pleie	-10.5912
utvalget	-10.5921
▁olga	-10.5927
▁brig	-10.5933
мо	-10.595
rommet	-10.596
▁begrep	-10.5964
endring	-10.5971
▁98	-10.5989
▁serra	-10.6004
opptak	-10.601
▁dekkvingene	-10.6013
▁european	-10.6013
▁diagnos	-10.6013
▁1955	-10.6013
▁1957	-10.6013
▁syndrom	-10.6013
▁symfoni	-10.6013
ensemble	-10.6013
▁mekanisk	-10.6013
▁østerrike	-10.6013
▁alvorlig	-10.6013
▁ekstrem	-10.6013
▁serbisk	-10.6013
▁zhang	-10.6013
▁stortinget	-10.6013
▁kobber	-10.6014
▁golf	-10.6015
▁vanskelig	-10.6015
▁novell	-10.602
▁geit	-10.6021
▁1960	-10.6024
trådte	-10.6024
straße	-10.6025
førsel	-10.6028
▁kommunist	-10.6042
kritiker	-10.6051
▁lavere	-10.6052
politi	-10.6054
stock	-10.6054
▁rulle	-10.6055
aften	-10.6071
blikk	-10.6072
▁hugh	-10.6077
kirch	-10.6078
▁skaper	-10.6091
▁kaffe	-10.6109
sykdommer	-10.6113
ulykke	-10.6143
grensen	-10.6144
▁kommunistisk	-10.6151
за	-10.6162
▁kho	-10.617
▁shou	-10.6181
motiv	-10.6204
▁orchestra	-10.6205
▁religiøs	-10.6205
▁utbredt	-10.6205
▁arrangert	-10.6205
▁kvalifiser	-10.6205
▁inspirert	-10.6205
▁utmerkelse	-10.6205
▁generelt	-10.6205
▁people	-10.6205
▁ingrid	-10.6205
▁komponert	-10.6206
skiold	-10.6209
▁nkp	-10.6209
fenomen	-10.6213
▁fuktig	-10.6213
▁formula	-10.6216
forretning	-10.6222
tromme	-10.6226
faktor	-10.6228
▁stabil	-10.6229
▁arild	-10.6229
blanding	-10.6234
▁eugen	-10.6244
▁tynn	-10.6251
▁organisert	-10.6262
▁maritim	-10.6267
wall	-10.629
ović	-10.6294
▁place	-10.6294
▁lakse	-10.6297
▁101	-10.6308
forestilling	-10.6327
▁arab	-10.6329
fallende	-10.6334
▁kongelig	-10.6335
▁sammenlign	-10.6343
kolleg	-10.6381
▁association	-10.6401
▁norwegian	-10.6401
▁pradesh	-10.6401
▁natrium	-10.6401
▁1961	-10.6401
▁1971	-10.6401
▁1939	-10.6401
▁1938	-10.6401
kapasitet	-10.6401
veksling	-10.6401
▁support	-10.6403
▁akutt	-10.6404
▁håndball	-10.6408
▁bernard	-10.6411
▁nådde	-10.6417
▁hytte	-10.6418
distanse	-10.6425
▁herbert	-10.6427
▁manuel	-10.6434
▁hersker	-10.6434
▁kritikk	-10.6441
▁strategi	-10.6448
▁grønland	-10.6449
ло	-10.6449
▁nettside	-10.6459
▁revers	-10.648
▁utløp	-10.6484
▁salme	-10.6508
frukt	-10.6543
hånd	-10.6543
kunstner	-10.6556
lengde	-10.6558
▁sesong	-10.6586
▁dokumentar	-10.6592
▁bokser	-10.6594
▁elizabeth	-10.6601
sentralbanksjef	-10.6601
▁kapittel	-10.6601
▁jacque	-10.6601
▁publikum	-10.6601
▁kenneth	-10.6601
▁1959	-10.6601
▁betrakte	-10.6602
▁fjeld	-10.6602
▁alexandr	-10.6602
▁axel	-10.6602
▁arbeiderpartiet	-10.6603
stimul	-10.6604
▁gråbrun	-10.6604
▁moore	-10.661
▁1940	-10.6612
▁arkeolog	-10.6618
▁dream	-10.6621
▁stadig	-10.6624
hvelv	-10.6625
▁eirik	-10.6627
vegetasjon	-10.6636
▁gjeld	-10.6647
▁diesel	-10.6647
▁vindu	-10.6651
høyskole	-10.6659
sponsor	-10.667
▁oversette	-10.6689
▁bjør	-10.6689
▁71	-10.6719
▁utenriks	-10.6773
▁vietnam	-10.6805
▁infanteri	-10.6805
▁frankfurt	-10.6805
▁ludwig	-10.6805
▁ytterligere	-10.6805
▁vilhelm	-10.6805
▁ytterkant	-10.6805
▁vietnamesisk	-10.6805
▁1944	-10.6805
▁kanskje	-10.6805
▁flerårig	-10.6806
▁nærmere	-10.6806
▁senior	-10.6806
konsernet	-10.6807
▁videregående	-10.6808
▁ekteskap	-10.6808
▁two	-10.681
▁symbolisere	-10.681
▁styreleder	-10.6811
▁leonard	-10.6813
▁bakgrunn	-10.6813
▁hamburg	-10.6818
▁veldig	-10.682
kvartett	-10.682
▁aero	-10.6825
▁karbon	-10.6828
▁vandre	-10.6832
kjøl	-10.6837
regning	-10.6879
▁victoria	-10.688
▁jøde	-10.6886
fast	-10.6927
regn	-10.6942
▁republik	-10.696
sentrum	-10.6971
▁temple	-10.7008
▁færøyene	-10.7013
▁mercedes	-10.7013
▁benjamin	-10.7013
▁chicago	-10.7013
▁1948	-10.7013
▁1962	-10.7013
▁lørdag	-10.7014
▁eventuel	-10.7014
▁fysisk	-10.7014
▁doktorgrad	-10.7014
▁bløt	-10.7014
ressurs	-10.7014
rettigheter	-10.7015
▁prinsesse	-10.7015
▁igjennom	-10.7015
▁borgermester	-10.7016
▁wolfgang	-10.7017
▁stiftelsen	-10.7018
▁harold	-10.7018
tjern	-10.7018
▁fremstille	-10.7019
▁hovedartikkel	-10.7019
▁tropisk	-10.7022
▁telemark	-10.7022
protokoll	-10.7023
▁61	-10.7031
situasjon	-10.7031
bebyggelse	-10.7034
▁werner	-10.7038
avtalen	-10.7039
▁angir	-10.7045
▁skei	-10.7045
festival	-10.7046
▁oberst	-10.7046
pumpe	-10.7054
▁øks	-10.7059
▁liberal	-10.706
▁karlsen	-10.706
▁bytte	-10.7083
öll	-10.7085
▁sovjetisk	-10.7107
▁kill	-10.7126
▁plateselskap	-10.7131
▁agent	-10.7136
artikkel	-10.714
skade	-10.716
▁snu	-10.7191
reise	-10.7191
▁nettsted	-10.72
▁valeri	-10.7206
▁colli	-10.7222
▁sebastian	-10.7226
identifiser	-10.7226
▁guvernør	-10.7226
▁umiddelbar	-10.7226
▁hverandre	-10.7226
▁tsjekkisk	-10.7226
▁svovel	-10.7226
▁1929	-10.7226
▁1952	-10.7226
▁taylor	-10.7226
▁embeds	-10.7227
▁nelson	-10.7227
▁bitumen	-10.7227
▁margaret	-10.7227
▁kristelig	-10.7227
▁regulere	-10.7228
▁theodor	-10.7228
stråling	-10.7228
▁opptrer	-10.7228
▁nikolaj	-10.7229
mouth	-10.723
▁sergej	-10.723
▁ansatte	-10.7232
▁detalj	-10.7235
▁hormon	-10.7236
▁gregor	-10.7236
▁death	-10.7238
▁nepal	-10.7239
▁henriksen	-10.7243
▁hevde	-10.725
▁effektiv	-10.725
▁spesifik	-10.725
▁bedrifts	-10.7258
time	-10.7274
▁funnstede	-10.7283
fysikk	-10.7285
▁138	-10.7317
▁harmoni	-10.7357
stigning	-10.736
departement	-10.7369
▁vannkraft	-10.7379
те	-10.739
iàn	-10.7409
skilpadde	-10.7443
▁keyboard	-10.7443
▁kollektiv	-10.7443
▁network	-10.7443
▁vennskapsbyer	-10.7443
▁windows	-10.7443
▁mountain	-10.7443
▁petroleum	-10.7443
▁ludvig	-10.7444
▁division	-10.7444
▁evangeli	-10.7444
▁eivind	-10.7444
▁ragnar	-10.7444
▁stephen	-10.7444
▁rumensk	-10.7444
▁frivillig	-10.7444
▁varianten	-10.7444
▁cirka	-10.7444
▁ronald	-10.7444
▁dispon	-10.7445
▁definert	-10.7445
▁über	-10.7445
▁claudi	-10.7445
betjent	-10.7446
▁knud	-10.7447
▁communi	-10.7448
▁arendal	-10.7448
▁xiàn	-10.7448
▁tørke	-10.7448
▁disney	-10.7448
stemte	-10.7448
▁xiao	-10.745
▁francisco	-10.7452
▁stryk	-10.7454
opplysning	-10.7457
▁bryggeri	-10.7459
açu	-10.7462
▁lisens	-10.7467
▁søke	-10.7469
ти	-10.7471
▁automatisk	-10.7477
▁idrettsforening	-10.748
relatert	-10.7483
torget	-10.7486
▁skrå	-10.7492
stemning	-10.7505
ciano	-10.753
derav	-10.757
tavle	-10.7588
jernbane	-10.763
papir	-10.7631
gjenger	-10.7631
▁81	-10.7657
hockey	-10.7662
redskap	-10.7662
direktorat	-10.7666
▁lawrence	-10.7666
▁pakistan	-10.7666
▁sykepleie	-10.7666
▁pattedyr	-10.7666
▁strekningen	-10.7666
▁overlevde	-10.7666
▁parallell	-10.7666
▁krystall	-10.7666
▁hjørne	-10.7666
▁krydder	-10.7666
▁hvem	-10.7667
guó	-10.7668
▁marianne	-10.7669
▁nasjonalsang	-10.7671
▁bokstaven	-10.7681
▁hovedkontor	-10.7682
▁lokalisert	-10.7684
tekst	-10.7691
hammar	-10.7693
▁bønn	-10.7696
▁bedriften	-10.7696
bokstav	-10.7697
▁lomme	-10.7711
atsu	-10.7723
forsyning	-10.7724
▁dukke	-10.7729
▁frost	-10.7736
konsert	-10.7741
ablo	-10.7764
ytelse	-10.783
toft	-10.7839
øvrig	-10.7863
historisk	-10.7864
ifikasjon	-10.7867
▁automat	-10.7867
▁finskspråklig	-10.7893
▁litauisk	-10.7893
▁utelukke	-10.7893
▁oppdatert	-10.7893
▁godkjent	-10.7893
▁nordsamisk	-10.7893
▁göteborg	-10.7893
▁abraham	-10.7893
▁1951	-10.7893
▁referanse	-10.7893
▁inndelingen	-10.7893
▁1956	-10.7893
▁1958	-10.7893
▁1942	-10.7893
▁nøkkel	-10.7893
▁ovenfor	-10.7893
▁søndag	-10.7893
▁wagner	-10.7893
▁studioalbum	-10.7894
▁negativ	-10.7894
▁kriminal	-10.7894
▁ansikt	-10.7894
▁trasé	-10.7898
▁hovedkvarter	-10.7898
gericht	-10.7899
▁armensk	-10.7899
▁hemmelig	-10.7899
▁nyhets	-10.79
▁tibet	-10.79
▁fremført	-10.7905
▁nedlagt	-10.7905
▁arvid	-10.7906
▁wilson	-10.7907
forvalter	-10.791
periode	-10.7916
qiao	-10.792
fatning	-10.7923
▁ungdomsskole	-10.7925
sjtsj	-10.7925
eksamen	-10.7931
▁hydr	-10.7943
▁bestemt	-10.7946
▁midtbane	-10.7947
måke	-10.7949
▁beregne	-10.7967
lilje	-10.7975
komedie	-10.801
flokk	-10.8031
▁slim	-10.804
▁nevnt	-10.8069
ribbe	-10.8103
▁regjer	-10.8112
▁pseudo	-10.8125
psykiatri	-10.8126
▁münchen	-10.8126
▁technology	-10.8126
▁management	-10.8126
▁tønsberg	-10.8126
vassdraget	-10.8126
▁juridisk	-10.8126
▁frilufts	-10.8126
kompetanse	-10.8126
▁wergeland	-10.8126
▁asteroide	-10.8126
leverandør	-10.8126
▁selvmord	-10.8126
▁texas	-10.8126
▁capital	-10.8126
▁charlotte	-10.8126
▁trompet	-10.8126
▁prince	-10.8126
▁thailand	-10.8126
▁antenner	-10.8126
▁donald	-10.8126
▁stephan	-10.8126
▁valentin	-10.8127
▁styremedlem	-10.8128
▁stanley	-10.8132
▁trebukk	-10.8136
▁command	-10.8137
vytsj	-10.8137
ров	-10.8138
▁schön	-10.8141
▁1920	-10.8143
▁ørken	-10.8144
▁brygge	-10.8144
▁heath	-10.8145
▁bevart	-10.8148
▁tilpasse	-10.8163
mottak	-10.8182
▁hvile	-10.8185
ground	-10.819
holdsvis	-10.8199
ны	-10.8202
▁kirkegård	-10.8213
▁blanc	-10.8217
kryp	-10.8224
klosteret	-10.8226
familie	-10.8235
palasset	-10.8238
▁larve	-10.8239
▁publi	-10.8345
▁eksperiment	-10.8364
▁sarpsborg	-10.8364
▁øivind	-10.8364
▁fakultet	-10.8364
▁douglas	-10.8364
▁buddhist	-10.8364
▁brødrene	-10.8364
▁kommentar	-10.8364
▁1954	-10.8364
▁geografisk	-10.8364
▁fortsetter	-10.8364
gymnas	-10.8364
▁oppstår	-10.8364
zhuang	-10.8364
grunnsstasjon	-10.8364
▁claude	-10.8364
▁muslim	-10.8365
▁avviste	-10.8369
kreditt	-10.8371
▁plassering	-10.8397
▁innerst	-10.8401
sentral	-10.8417
▁folkeparti	-10.8418
kansler	-10.8426
beskrivelse	-10.851
▁ytterst	-10.8518
nøtte	-10.8527
▁hovedrollen	-10.8567
litteratur	-10.8595
▁barcelona	-10.8608
▁hongkong	-10.8608
▁innflytelse	-10.8608
▁olympisk	-10.8608
▁utdødd	-10.8608
▁høyhastighets	-10.8608
▁vesentlig	-10.8608
▁1941	-10.8608
▁1935	-10.8608
▁1936	-10.8608
infeksjon	-10.8608
sekvens	-10.8608
▁project	-10.8608
▁regelmessig	-10.8608
▁tromsø	-10.8609
▁control	-10.8609
institusjoner	-10.8609
▁bmw	-10.8609
▁bærum	-10.861
▁bomull	-10.861
▁fjellkjede	-10.8612
▁unntak	-10.8614
reservat	-10.8615
▁sykdommen	-10.8616
▁endringer	-10.8617
▁forbruker	-10.862
▁viklere	-10.8623
verktøy	-10.8627
▁tjener	-10.8633
▁spyd	-10.8638
▁sportsklubb	-10.8651
▁maxim	-10.8661
vokst	-10.8674
pølse	-10.8677
▁varemerke	-10.8678
440	-10.868
prøve	-10.8688
▁etnisk	-10.8689
læg	-10.8751
▁astronom	-10.8777
▁cooper	-10.8833
▁aleksander	-10.8858
▁trommeslager	-10.8858
terapeut	-10.8858
▁vedlikehold	-10.8858
▁admiral	-10.8858
▁angriper	-10.8858
▁tilføyd	-10.8858
▁zhōng	-10.8858
▁synonym	-10.8858
▁ferskvann	-10.8858
▁litauen	-10.8858
▁tvilling	-10.8858
▁könig	-10.8858
▁fantasy	-10.8858
▁1928	-10.8858
▁would	-10.8858
▁1924	-10.8858
▁special	-10.8858
▁uigur	-10.8858
▁sandefjord	-10.8858
▁jødisk	-10.8858
▁storkommunen	-10.8858
▁hjelm	-10.8859
orientert	-10.8859
▁bernhard	-10.8859
▁seinere	-10.886
▁taiwan	-10.886
▁klinisk	-10.886
▁gerhard	-10.8861
▁nestleder	-10.8862
▁embets	-10.8863
qvist	-10.8863
▁operation	-10.8865
▁trenger	-10.8867
▁betong	-10.8867
tilsynet	-10.8868
▁innsats	-10.8869
▁birgit	-10.8879
▁volks	-10.888
svermer	-10.8892
▁result	-10.8907
▁barndoms	-10.8936
nevnte	-10.899
▁tegl	-10.906
▁inskripsjon	-10.9114
▁vingespenn	-10.9114
▁anerkjent	-10.9114
▁diplomat	-10.9114
▁xinjiang	-10.9114
sylindre	-10.9114
▁1946	-10.9114
▁1926	-10.9114
▁wylie	-10.9114
▁grün	-10.9115
▁ungarn	-10.9115
▁tortrici	-10.9115
▁utenlandsk	-10.9115
komponent	-10.9116
▁nichol	-10.9118
assistent	-10.9118
jīng	-10.9119
▁kelly	-10.9119
▁beholdt	-10.9119
▁intens	-10.912
▁spirit	-10.9121
bestemmelse	-10.9121
metrisk	-10.9125
kjøtt	-10.9126
klokke	-10.9127
▁romersk	-10.9135
▁glenn	-10.9144
▁slange	-10.9147
▁forsterke	-10.9156
▁etappe	-10.9172
skjegg	-10.918
glass	-10.9302
gjerd	-10.9353
▁aluminium	-10.9377
▁favoritt	-10.9377
▁kambodsja	-10.9377
▁portugisisk	-10.9377
▁research	-10.9377
▁kjøkken	-10.9377
▁antagelig	-10.9377
▁selvstendig	-10.9377
▁århundre	-10.9377
▁frazioni	-10.9377
▁halvorsen	-10.9377
▁piauí	-10.9377
▁raymond	-10.9377
▁html	-10.9377
▁amundsen	-10.9377
▁jersey	-10.9377
▁montreal	-10.9377
▁1949	-10.9377
▁1937	-10.9377
fundament	-10.9377
▁1933	-10.9377
▁cappelen	-10.9378
▁tilsluttet	-10.9378
▁heavy	-10.9378
▁kalsium	-10.9378
▁slovensk	-10.9378
▁abdul	-10.9381
▁terreng	-10.9385
▁resultatet	-10.9386
▁short	-10.9393
▁giuli	-10.9395
▁geometri	-10.9396
▁rifle	-10.9403
▁göt	-10.9404
▁krypt	-10.9413
knapp	-10.9442
▁domkirke	-10.9498
▁forklare	-10.9567
sparc	-10.9589
▁forskjellig	-10.9636
ский	-10.9647
▁generalmajor	-10.9647
▁giuseppe	-10.9647
▁ragnhild	-10.9647
▁absolut	-10.9647
▁gjaldt	-10.9647
▁kommandant	-10.9647
▁observer	-10.9647
▁benedict	-10.9647
seremoni	-10.9647
▁1905	-10.9647
▁1904	-10.9648
▁1953	-10.9648
▁tyrkia	-10.9648
▁1923	-10.9648
▁1899	-10.9648
▁krevde	-10.9648
▁köln	-10.9648
▁forbedre	-10.9648
▁haakon	-10.9648
▁bård	-10.965
▁manager	-10.9652
domstolen	-10.9652
▁programvare	-10.9652
▁columb	-10.9653
▁again	-10.9654
▁elsker	-10.9662
kvarter	-10.9735
børste	-10.9827
størrelse	-10.9835
▁frels	-10.9857
della	-10.9858
▁development	-10.9925
▁erkebiskop	-10.9925
▁ferdinand	-10.9925
▁nødvendig	-10.9925
▁philadelphia	-10.9925
▁zìzhìxiàn	-10.9925
▁business	-10.9925
▁hybrid	-10.9925
▁through	-10.9925
▁kongedømme	-10.9925
▁skottland	-10.9925
▁alminnelig	-10.9925
▁hyppig	-10.9925
▁bystatus	-10.9925
▁eduard	-10.9925
▁1925	-10.9925
▁airlines	-10.9925
▁overvintr	-10.9925
▁kvadrat	-10.9926
▁1896	-10.9926
▁valgdelta	-10.9926
▁oppdaget	-10.9926
script	-10.9927
▁christensen	-10.9927
▁spredt	-10.9928
▁enzym	-10.9931
▁debatt	-10.9933
▁søndr	-10.9936
▁adrian	-10.9937
▁balanse	-10.9971
tilhenger	-11.0061
▁døgnflue	-11.0182
▁aserbajdsjan	-11.0211
▁forveksle	-11.0211
▁frigjøring	-11.0211
▁langrennsløper	-11.0211
▁installert	-11.0211
▁jonathan	-11.0211
▁society	-11.0211
▁undergrunnsbane	-11.0211
▁østerriksk	-11.0211
▁lillehammer	-11.0211
▁molekyl	-11.0211
▁colombia	-11.0211
▁skihopper	-11.0211
▁1908	-11.0211
tekniker	-11.0211
inspektør	-11.0211
▁1931	-11.0211
▁nikolai	-11.0211
▁1927	-11.0211
▁ålesund	-11.0211
▁vunnet	-11.0211
forstyrrelse	-11.0211
▁kroatisk	-11.0211
▁begravet	-11.0211
▁detroit	-11.0212
▁jelena	-11.0212
▁afrikansk	-11.0213
▁about	-11.0213
▁sibir	-11.0214
köping	-11.0217
▁anatol	-11.0219
▁nederst	-11.0219
▁constan	-11.022
håndtering	-11.0222
▁natali	-11.0224
▁hoppbakke	-11.0238
underholdning	-11.0246
syklus	-11.0247
kobling	-11.0252
▁plantefamilie	-11.0325
▁begynne	-11.0415
bevegelse	-11.0438
ć	-11.0443
▁alegre	-11.0455
▁doktor	-11.0505
▁basketball	-11.0505
▁utgangspunkt	-11.0505
▁afghanistan	-11.0505
▁aftenposten	-11.0505
▁ortodoks	-11.0505
▁oksygen	-11.0505
▁elefant	-11.0505
▁anastasi	-11.0505
▁pseudonym	-11.0505
▁konsept	-11.0505
▁1906	-11.0505
renessanse	-11.0505
▁1947	-11.0505
▁1934	-11.0505
▁1932	-11.0505
▁nedbør	-11.0505
▁toronto	-11.0505
▁бо	-11.0505
▁1895	-11.0506
▁1867	-11.0506
▁valutakode	-11.0506
▁symphon	-11.0506
▁veteran	-11.0506
▁serbia	-11.0506
ου	-11.0506
omsorg	-11.0507
▁indiker	-11.0508
▁eddie	-11.0509
▁skøyte	-11.0512
▁cliff	-11.0515
▁hvete	-11.0523
▁arrest	-11.0526
føderasjon	-11.0534
▁direct	-11.0559
våk	-11.0585
gudinnen	-11.0667
scenen	-11.0673
▁psych	-11.0725
bukten	-11.0767
sekund	-11.0775
gjødsel	-11.0808
▁cerambycidae	-11.0808
▁müller	-11.0808
▁bokstavelig	-11.0808
▁mohammed	-11.0808
filharmoni	-11.0808
▁vertikal	-11.0808
▁mexico	-11.0808
▁alfabet	-11.0808
▁1907	-11.0808
▁frederick	-11.0808
▁gælisk	-11.0808
▁katalansk	-11.0808
▁skøyteløper	-11.0809
▁1878	-11.0809
▁1844	-11.0809
▁matthia	-11.0809
▁delstats	-11.0809
differens	-11.081
▁belgisk	-11.0811
▁hjemmekampe	-11.0813
▁elleve	-11.0814
▁bevege	-11.0818
▁stedsnavn	-11.0825
▁ekstern	-11.0841
þ	-11.0857
fjær	-11.086
satsen	-11.0862
fragment	-11.0868
▁drenere	-11.0903
▁satellitt	-11.0944
foretak	-11.1069
bjerg	-11.1101
instruktør	-11.1121
▁horisontal	-11.1121
▁kringkasting	-11.1121
▁veterinær	-11.1121
▁lloyd	-11.1121
▁trøndelag	-11.1121
▁waldemar	-11.1121
▁medvirkende	-11.1121
disiplin	-11.1121
▁lastebil	-11.1121
▁sentralbanken	-11.1121
▁buddha	-11.1121
▁cognac	-11.1121
▁svendsen	-11.1121
▁senterpartiet	-11.1121
▁arsenal	-11.1121
▁erklært	-11.1121
▁veksel	-11.1121
▁oriental	-11.1121
▁fellow	-11.1121
▁risiko	-11.1121
▁palestin	-11.1121
▁walisisk	-11.1121
▁barbara	-11.1121
▁nemlig	-11.1121
▁gjennomførte	-11.1122
▁zhao	-11.1122
▁systematisk	-11.1122
▁wessel	-11.1123
▁misjons	-11.1123
▁buffa	-11.1123
▁søvn	-11.1123
nnebærer	-11.1124
konvensjon	-11.1125
▁engineer	-11.1125
▁landslags	-11.113
▁skygge	-11.1134
opplevelse	-11.1135
blokk	-11.1141
▁collect	-11.1151
aggio	-11.1437
