<unk>	0
<s>	0
</s>	0
.	-3.12875
s	-3.31501
e	-3.59355
▁	-3.8001
t	-3.97881
er	-4.08143
en	-4.09275
▁i	-4.11855
▁og	-4.15882
r	-4.53932
▁er	-4.58482
▁av	-4.839
n	-4.84149
et	-4.94566
a	-4.9805
▁en	-5.10654
▁for	-5.13838
▁som	-5.26768
▁til	-5.30209
▁på	-5.34621
▁med	-5.37405
i	-5.39022
d	-5.43284
▁var	-5.55417
▁de	-5.56933
o	-5.57957
y	-5.64941
▁den	-5.66545
ene	-5.70429
k	-5.72285
ne	-5.72785
▁fra	-5.76422
▁har	-5.79897
▁ble	-5.88005
g	-5.88279
m	-5.91704
▁et	-5.97645
▁det	-5.99555
l	-5.9961
te	-6.02161
f	-6.05693
▁han	-6.21461
de	-6.22091
p	-6.23842
▁s	-6.23862
h	-6.24648
in	-6.30536
▁ved	-6.30907
ing	-6.31511
re	-6.35014
an	-6.36062
c	-6.37312
v	-6.37603
b	-6.38915
▁også	-6.39056
us	-6.40233
u	-6.40388
▁å	-6.40575
▁be	-6.43388
es	-6.461
▁a	-6.48576
▁eller	-6.48993
▁ut	-6.50923
le	-6.52066
▁under	-6.54182
na	-6.57649
▁kan	-6.62879
al	-6.64508
▁om	-6.64878
ter	-6.65358
▁to	-6.65466
▁the	-6.69009
on	-6.7068
▁opp	-6.72642
z	-6.7296
is	-6.73968
▁over	-6.74384
▁etter	-6.75207
ar	-6.79268
sk	-6.81672
▁inn	-6.82797
ch	-6.83476
▁at	-6.8371
▁m	-6.84503
▁18	-6.88203
w	-6.89208
▁d	-6.90275
um	-6.92719
▁f	-6.93394
▁da	-6.94065
▁p	-6.94922
ia	-6.95285
j	-6.97179
▁andre	-6.98335
or	-6.98348
ende	-6.99915
la	-7.01887
▁b	-7.02226
ma	-7.03692
▁g	-7.03958
▁la	-7.03973
ta	-7.04123
ck	-7.04558
▁u	-7.04692
ens	-7.05187
ke	-7.05893
ng	-7.06119
▁se	-7.07118
▁ligger	-7.07593
é	-7.07906
x	-7.09122
th	-7.09485
▁al	-7.09892
ri	-7.0991
▁ha	-7.11108
land	-7.11948
▁k	-7.11986
ur	-7.12792
nes	-7.13748
▁pi	-7.13926
▁tre	-7.156
▁of	-7.16123
be	-7.16782
▁re	-7.17483
lig	-7.18124
▁an	-7.19801
▁mellom	-7.20155
li	-7.2025
ver	-7.2071
ve	-7.2101
▁c	-7.21984
lo	-7.22468
di	-7.24048
▁blant	-7.24333
▁sin	-7.2452
id	-7.24541
▁mot	-7.26397
▁hadde	-7.26456
da	-7.26504
▁in	-7.26754
ra	-7.27121
isk	-7.27212
▁h	-7.27291
▁l	-7.27468
ga	-7.27597
▁gjennom	-7.27731
▁men	-7.29717
il	-7.29729
ka	-7.29881
▁hans	-7.30423
▁ca	-7.32363
3	-7.32774
▁seg	-7.3351
▁man	-7.34059
el	-7.35663
as	-7.35672
ig	-7.36636
ler	-7.37784
▁co	-7.38009
▁bo	-7.38149
▁vi	-7.38996
1	-7.39149
at	-7.39163
iske	-7.39205
ut	-7.3991
▁1	-7.40377
der	-7.40403
nde	-7.40461
▁le	-7.41137
▁her	-7.41253
to	-7.41354
stad	-7.41876
▁hoved	-7.41935
▁ra	-7.42154
son	-7.42789
ff	-7.42953
▁n	-7.4299
▁v	-7.4332
ic	-7.43434
▁ikke	-7.43577
▁st	-7.44263
ske	-7.44295
ad	-7.44383
os	-7.44432
ja	-7.44651
øy	-7.44668
4	-7.44671
▁nord	-7.45438
ning	-7.45885
▁and	-7.45958
▁sammen	-7.46045
▁sa	-7.46842
ger	-7.47186
den	-7.47444
▁17	-7.47797
▁født	-7.47823
mi	-7.48194
▁ro	-7.48456
▁li	-7.48935
▁he	-7.49177
ed	-7.49333
tt	-7.49685
▁pa	-7.49793
▁dette	-7.50123
á	-7.50803
bo	-7.50916
▁2	-7.51591
pe	-7.51758
ker	-7.51765
ge	-7.51843
kt	-7.52221
ner	-7.52363
for	-7.52693
▁as	-7.53481
ton	-7.54197
▁o	-7.54316
▁t	-7.54446
2	-7.54504
it	-7.5613
▁hun	-7.56754
ro	-7.56915
ha	-7.57261
▁kon	-7.57294
▁ka	-7.58412
gi	-7.58975
▁denne	-7.59194
▁flere	-7.59338
▁na	-7.59506
▁stor	-7.59631
▁der	-7.59667
ø	-7.60029
ry	-7.60505
▁sp	-7.60587
▁si	-7.61155
va	-7.61277
me	-7.61277
man	-7.61317
▁no	-7.61351
mo	-7.61613
▁første	-7.61821
▁by	-7.62809
▁j	-7.6387
▁ma	-7.63935
berg	-7.64227
▁ny	-7.64266
ce	-7.64834
▁di	-7.65185
▁ni	-7.65378
by	-7.66091
▁fa	-7.66252
co	-7.66266
gen	-7.66428
▁do	-7.66593
▁lo	-7.66787
▁kinesisk	-7.6704
ko	-7.6839
ell	-7.68443
op	-7.68653
▁16	-7.68655
▁fikk	-7.68856
ster	-7.68968
vi	-7.69176
mer	-7.69364
▁alle	-7.6963
▁am	-7.69737
ist	-7.69876
▁del	-7.70299
▁ti	-7.7037
ul	-7.7052
▁3	-7.70578
▁mar	-7.70881
▁mo	-7.70961
ti	-7.71184
▁5	-7.7148
▁15	-7.71609
▁4	-7.71778
å	-7.72068
ol	-7.72099
▁ba	-7.72288
dal	-7.72338
▁per	-7.72454
erte	-7.72508
▁w	-7.73598
mp	-7.73823
lige	-7.73837
ør	-7.74087
men	-7.74103
▁tidligere	-7.74148
mann	-7.74564
ment	-7.74814
▁blir	-7.74956
do	-7.75025
▁fri	-7.75459
ste	-7.75897
vis	-7.7608
▁r	-7.76105
æ	-7.76839
ba	-7.77383
▁du	-7.77481
je	-7.78289
▁10	-7.78689
▁kommune	-7.78741
▁annet	-7.78867
▁samt	-7.79306
▁frem	-7.79588
skap	-7.79779
ll	-7.80344
ven	-7.80413
sjon	-7.80554
▁ho	-7.81018
bi	-7.81144
ær	-7.81378
▁jo	-7.81585
▁bu	-7.8165
ling	-7.81721
9	-7.81759
del	-7.81845
si	-7.82391
kk	-7.82731
ir	-7.8286
▁su	-7.83408
▁lu	-7.83494
▁disse	-7.84313
▁el	-7.84343
▁ko	-7.8485
▁po	-7.8521
io	-7.85819
vik	-7.86118
▁kina	-7.86728
bu	-7.87022
▁kom	-7.87033
ly	-7.87259
ov	-7.8729
erne	-7.87427
▁ta	-7.8745
7	-7.87484
▁hu	-7.87704
▁or	-7.8793
▁ga	-7.88088
▁min	-7.88458
▁te	-7.88722
go	-7.89381
else	-7.89506
▁byen	-7.89544
▁kalt	-7.89556
ina	-7.89656
ä	-7.89903
▁sør	-7.90918
ci	-7.90954
ie	-7.91523
om	-7.91602
het	-7.91631
ns	-7.9177
▁bar	-7.92395
ö	-7.92433
▁mer	-7.92434
▁vest	-7.93253
▁mens	-7.93661
▁kalles	-7.93819
▁so	-7.93829
▁pro	-7.94236
iv	-7.94402
▁land	-7.94739
▁tor	-7.94756
no	-7.95058
ang	-7.95284
▁ru	-7.95612
▁navnet	-7.95785
▁me	-7.95791
5	-7.95802
▁6	-7.95834
▁mi	-7.95998
▁sch	-7.96395
▁lag	-7.96854
ant	-7.97367
▁så	-7.97395
lin	-7.9768
itt	-7.97898
au	-7.98414
▁mange	-7.98668
ik	-7.98745
▁12	-7.98899
▁mor	-7.9911
▁går	-7.99151
tal	-7.9922
po	-7.99427
6	-8.00038
▁øst	-8.00053
asjon	-8.00228
ni	-8.00289
▁sk	-8.00697
ca	-8.00703
▁y	-8.00872
sh	-8.01062
▁bi	-8.0138
▁ar	-8.01463
▁ned	-8.01466
ü	-8.01737
▁finnes	-8.01758
år	-8.01821
pa	-8.01876
▁navn	-8.02291
ard	-8.02329
▁7	-8.03067
▁år	-8.03603
rett	-8.03685
▁far	-8.04019
▁bestå	-8.04195
▁sitt	-8.04731
▁ab	-8.04924
od	-8.05032
im	-8.05093
▁norsk	-8.05099
▁ei	-8.05531
gu	-8.05596
▁ofte	-8.05653
▁sol	-8.05673
▁pe	-8.05887
▁ri	-8.05981
▁8	-8.06026
▁tilhører	-8.06414
▁kr	-8.06441
▁fi	-8.06448
▁con	-8.06753
over	-8.06949
am	-8.07586
ho	-8.07835
▁13	-8.07926
▁vann	-8.08066
▁gu	-8.08268
un	-8.08691
tter	-8.08914
tra	-8.09129
▁ja	-8.09237
ring	-8.09408
ki	-8.09493
▁død	-8.09748
▁gi	-8.10273
per	-8.10294
les	-8.10353
▁fire	-8.10449
hold	-8.10501
▁14	-8.10513
▁nå	-8.10637
ong	-8.10836
▁hvor	-8.11264
▁russisk	-8.11603
▁bak	-8.11624
ium	-8.1179
▁før	-8.1203
pi	-8.1208
▁9	-8.12105
lag	-8.12804
▁vil	-8.13329
gg	-8.13384
av	-8.13757
▁go	-8.13903
▁john	-8.13915
▁være	-8.13997
sta	-8.14219
ans	-8.14528
▁store	-8.14933
sted	-8.14972
bar	-8.15199
ac	-8.15683
▁skal	-8.15778
▁lang	-8.16391
ud	-8.16634
opp	-8.16696
ting	-8.16699
▁dag	-8.16764
ian	-8.16788
▁pre	-8.16836
ru	-8.16894
var	-8.17117
vin	-8.17589
▁senere	-8.18033
ation	-8.18363
mon	-8.18363
í	-8.18467
00	-8.18672
tre	-8.18674
hi	-8.18716
ó	-8.18936
▁noen	-8.19119
▁sam	-8.19133
▁bra	-8.19501
▁0	-8.19822
▁hos	-8.19847
elle	-8.19962
▁x	-8.20185
ag	-8.20403
▁11	-8.20433
ord	-8.2056
inn	-8.20671
kke	-8.20864
▁fly	-8.21476
▁tri	-8.21613
▁tro	-8.21901
▁ge	-8.22412
▁car	-8.22418
ou	-8.22489
fi	-8.22618
▁val	-8.22798
▁mest	-8.23113
▁ch	-8.23208
ot	-8.23272
▁z	-8.23452
tor	-8.23468
ak	-8.23543
ikk	-8.24228
mar	-8.2424
▁kjent	-8.24466
ow	-8.24694
em	-8.24955
nyin	-8.25235
ken	-8.25326
hu	-8.25365
▁kar	-8.25505
▁største	-8.25547
ica	-8.25644
lu	-8.2582
ny	-8.26115
ion	-8.26147
sel	-8.2637
verk	-8.26378
▁rundt	-8.26464
▁ol	-8.26972
▁ham	-8.27105
ung	-8.27452
hus	-8.27669
kker	-8.27916
▁ad	-8.27917
ty	-8.27921
▁tra	-8.28314
▁kl	-8.28345
ering	-8.2842
und	-8.28941
ier	-8.28985
jo	-8.29215
idae	-8.29345
▁san	-8.29521
pp	-8.29827
▁syn	-8.30054
▁engelsk	-8.30084
▁ver	-8.30109
▁ju	-8.30412
▁eks	-8.30744
tan	-8.30775
lse	-8.30782
ku	-8.30806
▁ski	-8.30932
ine	-8.30981
▁vel	-8.31273
▁lys	-8.31313
▁siden	-8.31761
▁skrev	-8.32048
▁kirke	-8.32379
mme	-8.32664
ok	-8.3271
▁hel	-8.33036
sten	-8.33048
▁all	-8.33088
▁lever	-8.33143
▁fram	-8.33361
▁fu	-8.33442
▁film	-8.3363
▁mål	-8.33668
▁mat	-8.33739
len	-8.34064
▁laget	-8.3409
▁nor	-8.34275
bil	-8.34704
▁wi	-8.34708
▁omfatter	-8.34883
▁både	-8.35237
о	-8.35249
sch	-8.35258
▁innen	-8.35347
dag	-8.35407
ill	-8.35434
ber	-8.35711
▁rett	-8.35778
▁vant	-8.36103
▁sine	-8.3617
▁pu	-8.3625
▁ne	-8.36865
▁ki	-8.36896
dalen	-8.37119
bb	-8.37222
▁va	-8.37269
za	-8.37407
▁fe	-8.37586
▁selv	-8.37634
q	-8.37691
▁skole	-8.38402
▁my	-8.38491
sson	-8.38555
tur	-8.38608
wa	-8.38631
▁sønn	-8.39004
▁folke	-8.39029
yl	-8.39128
and	-8.39281
du	-8.39776
▁langs	-8.40011
siden	-8.40087
stre	-8.40683
ya	-8.407
▁ben	-8.40855
ede	-8.40958
▁grunn	-8.40979
▁ur	-8.413
▁mon	-8.41396
▁familien	-8.41433
fer	-8.41573
tri	-8.41598
ley	-8.4164
stein	-8.41777
ks	-8.42206
▁alt	-8.42378
fly	-8.42444
nd	-8.42788
▁ste	-8.43054
▁små	-8.43293
▁nær	-8.43407
▁bru	-8.43501
▁tid	-8.43504
▁par	-8.43917
tisk	-8.4406
▁op	-8.4445
familien	-8.44602
▁bro	-8.44695
mb	-8.44707
▁mu	-8.45059
jø	-8.4517
▁fo	-8.45182
▁km	-8.45319
ius	-8.45495
▁betyr	-8.45687
▁20	-8.45762
е	-8.46066
lands	-8.46278
gra	-8.46353
ningen	-8.46622
tar	-8.46886
tu	-8.46897
▁kunst	-8.4701
▁art	-8.47124
▁norske	-8.47401
▁on	-8.4746
▁gjen	-8.47563
▁mel	-8.47658
▁gruppen	-8.47785
inger	-8.47918
▁ku	-8.4831
ju	-8.48691
kel	-8.48716
▁området	-8.48728
ft	-8.48733
▁parti	-8.48925
gang	-8.48959
ding	-8.49031
mor	-8.49156
▁tu	-8.49182
▁ak	-8.49209
ingen	-8.49295
ham	-8.4933
▁mai	-8.49369
▁når	-8.49546
senter	-8.49708
bre	-8.49746
▁mag	-8.49814
dre	-8.49821
tin	-8.50384
▁leder	-8.50386
sti	-8.50408
▁fjell	-8.50511
▁mars	-8.50596
tiske	-8.51106
▁kommer	-8.5111
este	-8.51356
he	-8.51636
▁kultur	-8.51828
▁sand	-8.51861
▁we	-8.51919
▁roman	-8.52116
tak	-8.52359
til	-8.52437
▁com	-8.52491
▁gir	-8.525
▁følgende	-8.52597
▁tok	-8.52754
ā	-8.52763
tion	-8.52771
stand	-8.52839
min	-8.52863
▁fem	-8.53027
est	-8.53196
▁provinsen	-8.53381
▁ke	-8.53497
▁vært	-8.5392
▁musikk	-8.53953
▁like	-8.54036
▁bok	-8.54058
fa	-8.54329
ologi	-8.54441
и	-8.5445
▁ag	-8.54697
▁juli	-8.54858
fe	-8.54913
▁berg	-8.54958
▁jan	-8.54996
▁norge	-8.55114
▁hus	-8.55377
uk	-8.55416
▁stein	-8.55565
isme	-8.55571
ana	-8.55985
▁uten	-8.56062
heim	-8.56072
▁hele	-8.56087
▁språk	-8.56178
folkerepublikken	-8.56412
▁cha	-8.56437
▁verk	-8.56509
▁em	-8.56646
tte	-8.56715
▁sjø	-8.56728
vel	-8.56843
▁gul	-8.56876
▁sv	-8.57083
▁2002	-8.57168
▁bri	-8.57191
▁sal	-8.57255
dy	-8.57257
tid	-8.57271
ator	-8.57299
▁august	-8.57419
ld	-8.57569
▁ac	-8.57677
borg	-8.57689
▁fag	-8.57691
▁fast	-8.57705
gel	-8.5841
ug	-8.58446
bruk	-8.58456
▁oslo	-8.58558
let	-8.5857
▁samme	-8.58663
tz	-8.58871
dd	-8.58885
▁hav	-8.58914
kan	-8.59167
ps	-8.59182
▁brukes	-8.59241
▁new	-8.59253
▁wa	-8.59321
bro	-8.59713
▁fransk	-8.59742
▁slik	-8.59753
kon	-8.5991
zi	-8.59964
▁ren	-8.60391
val	-8.60547
jer	-8.60647
▁kor	-8.60781
▁spiller	-8.60788
▁hol	-8.60956
▁brun	-8.61085
▁skulle	-8.61189
rø	-8.61328
▁tysk	-8.61447
▁pan	-8.61742
tro	-8.61823
▁chi	-8.61876
▁verdens	-8.61912
gh	-8.61974
▁jord	-8.62008
▁gift	-8.62075
vo	-8.62175
ron	-8.62466
▁innenfor	-8.62647
met	-8.62663
ek	-8.62804
▁kong	-8.62934
nings	-8.63204
yn	-8.63309
▁folketelling	-8.63407
følge	-8.63445
if	-8.63658
▁kjente	-8.63854
▁kommunen	-8.63883
ji	-8.64161
itet	-8.64186
▁må	-8.64333
che	-8.64428
▁mal	-8.64457
plan	-8.64459
ris	-8.64553
▁enn	-8.64632
ninger	-8.65054
▁heter	-8.65061
rik	-8.65066
▁inneholder	-8.65246
▁ord	-8.65369
▁van	-8.65721
ab	-8.65919
ble	-8.6592
▁can	-8.6607
ran	-8.6608
ksjon	-8.66188
▁nasjonal	-8.66193
▁bare	-8.66572
we	-8.66684
▁moh	-8.66751
mål	-8.66858
▁hal	-8.6695
▁dem	-8.66999
ze	-8.67274
▁ulike	-8.67274
▁liste	-8.67322
cu	-8.6736
▁spilte	-8.67424
▁col	-8.67475
▁rød	-8.67653
▁kunne	-8.67766
og	-8.67985
bl	-8.6799
her	-8.68016
▁von	-8.68243
▁videre	-8.68322
▁tar	-8.68368
far	-8.68409
kor	-8.68416
kar	-8.68437
▁god	-8.68646
sp	-8.68821
är	-8.68967
slag	-8.69002
▁midt	-8.69017
ari	-8.69288
▁ex	-8.69319
▁vo	-8.69435
▁os	-8.69643
▁kun	-8.69706
tes	-8.69814
▁anti	-8.69814
▁sen	-8.69985
▁sommerfugl	-8.70085
▁rom	-8.70229
▁af	-8.70251
qu	-8.70387
form	-8.70479
▁nye	-8.70479
▁tv	-8.70496
ach	-8.7075
ct	-8.70797
▁bruker	-8.70859
▁vei	-8.70953
ice	-8.71033
bok	-8.7106
▁juni	-8.71264
▁grav	-8.71493
ino	-8.71728
dyr	-8.71813
▁kv	-8.71885
satt	-8.71921
▁valg	-8.72084
8	-8.72173
chi	-8.72174
▁tillegg	-8.72252
fjorden	-8.72438
▁tur	-8.72627
van	-8.72754
▁paul	-8.72764
▁høy	-8.72966
▁bil	-8.73069
▁halv	-8.73457
veien	-8.73534
ph	-8.73562
▁begge	-8.73604
fra	-8.73738
▁hi	-8.73822
▁ty	-8.73935
▁nu	-8.73987
ão	-8.74118
▁2006	-8.74148
▁au	-8.74315
▁gjern	-8.74401
ay	-8.74567
▁br	-8.74807
▁bor	-8.74948
ige	-8.74978
kl	-8.7498
gar	-8.75024
ført	-8.75239
▁selskapet	-8.75501
mmer	-8.75553
▁gar	-8.75562
øl	-8.75575
sett	-8.75779
▁za	-8.75812
▁vis	-8.75947
▁plan	-8.7608
lia	-8.76206
▁ø	-8.76366
rom	-8.76387
▁president	-8.76511
▁via	-8.76638
ah	-8.76694
▁peter	-8.76705
▁pr	-8.76776
▁ci	-8.76823
▁sta	-8.76826
▁skog	-8.76878
▁gresk	-8.77048
lan	-8.77228
▁je	-8.77228
lys	-8.77256
sund	-8.7726
rud	-8.7739
▁tallet	-8.77423
▁lå	-8.77564
han	-8.77583
▁luft	-8.77611
retter	-8.77691
▁vin	-8.7783
ara	-8.77859
art	-8.78101
▁rø	-8.78157
▁un	-8.78179
▁2008	-8.78304
▁sig	-8.78334
▁kur	-8.78372
▁bruk	-8.78474
drift	-8.78663
ep	-8.78709
▁rekke	-8.78812
vann	-8.78868
▁bl	-8.7894
▁kort	-8.79082
▁norges	-8.79231
▁2007	-8.79272
▁deres	-8.79389
stat	-8.79441
▁blit	-8.79499
ú	-8.79502
▁gud	-8.79529
øya	-8.79891
▁stra	-8.79915
▁beste	-8.79921
mat	-8.79954
▁står	-8.7997
▁jeg	-8.79977
▁fin	-8.80085
unn	-8.8029
▁natur	-8.80311
▁ev	-8.80476
stan	-8.8065
ive	-8.80787
▁ry	-8.80849
▁bjørn	-8.80892
mal	-8.81177
▁tom	-8.81198
lik	-8.81246
▁ed	-8.81253
xi	-8.81492
▁ber	-8.81514
▁gamle	-8.81574
▁sto	-8.8165
my	-8.81651
▁latin	-8.8171
▁radio	-8.81806
▁mac	-8.8188
▁mil	-8.81997
▁dikt	-8.82072
leder	-8.82084
bra	-8.82168
▁opprinnelig	-8.82174
▁arm	-8.82242
▁gen	-8.82348
▁fiske	-8.82521
ald	-8.82568
р	-8.82945
▁hennes	-8.83001
▁gikk	-8.83092
burg	-8.83186
ika	-8.83312
а	-8.83359
▁christian	-8.8357
up	-8.83581
ola	-8.83751
▁post	-8.83772
ale	-8.83963
▁utgitt	-8.8403
▁park	-8.84082
▁motor	-8.841
mark	-8.84337
▁gra	-8.84391
skog	-8.84473
▁2005	-8.84583
iker	-8.8467
▁lokal	-8.84758
dan	-8.84809
område	-8.84856
▁sak	-8.84928
▁sh	-8.84944
kken	-8.85128
▁sha	-8.85174
▁2010	-8.85283
▁christ	-8.8529
▁side	-8.85324
▁pla	-8.8546
▁meter	-8.85928
▁30	-8.8605
pris	-8.86258
spill	-8.86481
▁mari	-8.86582
▁imidlertid	-8.86673
syn	-8.86699
▁ser	-8.86859
▁dr	-8.87082
50	-8.87117
▁vise	-8.87438
▁gull	-8.87499
▁bø	-8.8752
elsen	-8.87545
▁blå	-8.87628
▁band	-8.8775
så	-8.87757
▁robert	-8.87804
dom	-8.87843
▁dan	-8.8795
▁eksempel	-8.88055
▁særlig	-8.88181
▁tekst	-8.88191
▁sj	-8.88314
tikk	-8.88337
è	-8.88417
mu	-8.88443
ī	-8.88457
▁farge	-8.88496
ppe	-8.8858
ski	-8.88603
▁bli	-8.88707
▁januar	-8.8882
ich	-8.88953
▁19	-8.88974
▁barn	-8.8912
▁rev	-8.89206
▁egen	-8.89295
isering	-8.89367
▁kla	-8.89427
▁25	-8.89492
isten	-8.89515
▁hver	-8.89762
system	-8.89785
▁bandet	-8.89897
▁stat	-8.89907
▁ul	-8.90492
sto	-8.90533
▁form	-8.90641
▁william	-8.90645
pre	-8.9068
▁fred	-8.9085
▁eu	-8.90971
enes	-8.90996
ð	-8.91013
ini	-8.91138
vet	-8.91346
▁hen	-8.91353
▁port	-8.91368
pl	-8.91406
▁industri	-8.91407
kal	-8.91525
▁bur	-8.91661
▁pol	-8.9181
▁lav	-8.91869
ap	-8.9188
▁liv	-8.92082
▁bre	-8.92272
▁ingen	-8.92332
ula	-8.92336
▁derfor	-8.92366
don	-8.92475
sky	-8.92496
vern	-8.92598
▁hør	-8.92701
▁air	-8.92761
ida	-8.92771
skrevet	-8.92808
▁2009	-8.92894
heng	-8.93145
ev	-8.93482
▁carl	-8.93567
navn	-8.93669
▁sm	-8.93714
▁seks	-8.93795
▁mark	-8.93947
▁ve	-8.93959
▁gammel	-8.94038
▁kal	-8.94523
▁sø	-8.94526
har	-8.946
▁medlem	-8.94602
ister	-8.94635
▁representert	-8.94645
vil	-8.94675
α	-8.9478
▁operatør	-8.94781
kom	-8.94845
gle	-8.94847
mel	-8.94933
▁bas	-8.94971
▁noe	-8.95037
▁000	-8.95149
mm	-8.95166
т	-8.95302
føre	-8.95402
▁lov	-8.95505
ød	-8.95536
▁februar	-8.95551
▁innbyggere	-8.95551
▁trans	-8.95567
ther	-8.95714
lsen	-8.95718
▁lin	-8.95736
old	-8.95782
▁siste	-8.95811
▁svensk	-8.95916
hr	-8.95931
▁dom	-8.96034
banen	-8.96193
ære	-8.96202
fjord	-8.96416
▁forskjellige	-8.96419
▁konge	-8.96437
ild	-8.96449
▁dy	-8.96479
fin	-8.96518
ani	-8.96551
nder	-8.96581
hl	-8.96591
▁inkluderer	-8.9678
▁hy	-8.96848
rin	-8.96966
▁sang	-8.96972
▁vol	-8.97022
▁inkludert	-8.9711
isert	-8.97188
▁erik	-8.97294
▁tak	-8.97322
▁elven	-8.97468
pu	-8.97474
▁kn	-8.97737
▁datter	-8.97826
cy	-8.9795
▁mindre	-8.97963
▁ap	-8.98063
pen	-8.98102
▁gang	-8.98172
▁west	-8.98176
▁sentral	-8.98233
fri	-8.98286
▁21	-8.98328
rede	-8.9834
▁filmen	-8.98349
▁tal	-8.9851
▁stil	-8.9859
▁tilbake	-8.98703
▁ly	-8.98822
bø	-8.99038
▁kron	-8.99085
▁desember	-8.99095
▁2011	-8.99111
▁hvit	-8.99244
ita	-8.99254
▁bred	-8.99324
dde	-8.99399
mester	-8.99447
tall	-8.99496
tiden	-8.99517
▁helt	-8.99555
▁distrikt	-8.99587
▁fylke	-8.99702
▁arbeids	-8.99772
eres	-8.9978
▁svær	-8.99855
л	-8.99924
▁not	-8.99994
bygg	-9
gan	-9.00076
▁bal	-9.00124
vær	-9.00155
res	-9.00247
▁mos	-9.00394
▁ob	-9.00482
▁inter	-9.00543
▁fotball	-9.00583
bor	-9.00686
zhou	-9.00742
ight	-9.00917
▁gro	-9.00995
kin	-9.01011
▁war	-9.01105
▁startet	-9.01113
▁vanligvis	-9.01148
▁mod	-9.01171
mus	-9.01312
▁først	-9.01318
▁grå	-9.01328
▁ind	-9.01346
rum	-9.01375
▁usa	-9.01542
▁riks	-9.01577
▁topp	-9.0162
▁tidlig	-9.01628
▁mus	-9.0164
à	-9.0183
▁lei	-9.01871
▁dagen	-9.01911
▁innbyggertall	-9.0194
ska	-9.02067
sjef	-9.02143
kning	-9.02207
▁organ	-9.02226
▁lands	-9.02268
▁slekt	-9.02561
▁døde	-9.02567
▁karl	-9.02581
fo	-9.02663
▁kra	-9.02667
в	-9.02685
bas	-9.02745
▁sommer	-9.02756
olog	-9.03016
log	-9.03051
pper	-9.03176
føring	-9.03177
▁general	-9.0319
ket	-9.03395
▁johan	-9.0346
sal	-9.03524
д	-9.03602
elser	-9.03604
▁støtte	-9.03605
án	-9.037
forening	-9.0377
▁slutt	-9.0383
▁rock	-9.03857
▁militær	-9.04024
▁samtidig	-9.04025
legg	-9.04027
gård	-9.04066
lighet	-9.0417
▁sil	-9.04375
▁person	-9.04388
▁april	-9.04447
▁shi	-9.04486
▁gri	-9.0453
lla	-9.0454
▁you	-9.04558
ym	-9.04773
▁lind	-9.04775
▁fre	-9.04801
▁cor	-9.04804
▁para	-9.04857
mannen	-9.04858
▁sub	-9.04936
▁følger	-9.04988
red	-9.05022
bel	-9.05061
lie	-9.0512
anlegg	-9.05251
▁lange	-9.05272
itz	-9.05337
▁barne	-9.05387
▁ya	-9.05418
▁ban	-9.05487
kul	-9.05592
iz	-9.0573
par	-9.05751
▁martin	-9.05862
kle	-9.05957
gge	-9.06076
liv	-9.06079
▁skolen	-9.06283
▁mis	-9.06362
skole	-9.06447
▁och	-9.06473
▁kyst	-9.06759
▁thi	-9.06774
råd	-9.06782
kre	-9.06833
▁regi	-9.06917
▁lyd	-9.06933
age	-9.06979
su	-9.06982
▁oktober	-9.07015
▁sett	-9.0702
ata	-9.0703
▁sangen	-9.0703
gre	-9.07035
▁pri	-9.07061
20	-9.07081
▁ring	-9.071
▁produsert	-9.0723
eks	-9.07247
grad	-9.07252
▁fla	-9.0737
lagt	-9.07446
▁maria	-9.07481
ano	-9.07487
▁red	-9.07573
▁viser	-9.07622
▁sel	-9.07702
▁bergen	-9.07771
▁dal	-9.07776
▁ten	-9.07795
▁24	-9.07831
▁åpningsseremoni	-9.07887
▁flaggbærer	-9.07887
▁viktigste	-9.07918
▁mm	-9.07945
som	-9.0796
▁fant	-9.07978
laget	-9.07997
rich	-9.08322
▁italiensk	-9.08325
bane	-9.08366
ving	-9.08435
▁dia	-9.08441
▁herre	-9.08487
▁spor	-9.08562
▁gla	-9.08592
arbeid	-9.08607
▁sl	-9.08608
▁basert	-9.08636
▁hø	-9.08646
▁sy	-9.08762
▁september	-9.08766
▁tredje	-9.08767
cha	-9.08833
ör	-9.08855
▁kje	-9.08858
båt	-9.08881
▁hår	-9.0914
zh	-9.09178
dig	-9.0918
▁1989	-9.09218
ologisk	-9.09218
▁svart	-9.0923
▁dermed	-9.09268
▁len	-9.0932
byen	-9.09479
værende	-9.09484
▁november	-9.09653
▁japansk	-9.09675
ighet	-9.09771
fugl	-9.09827
▁2004	-9.09831
▁ji	-9.09917
▁styre	-9.09928
▁lett	-9.09977
sak	-9.1011
med	-9.10129
▁større	-9.10145
▁mas	-9.10162
▁fil	-9.10176
ille	-9.10261
all	-9.10289
▁pra	-9.10387
▁data	-9.10598
▁tegn	-9.10607
▁fl	-9.1073
selskap	-9.1091
jel	-9.10911
styre	-9.10932
▁bir	-9.10937
ij	-9.11
▁politisk	-9.11073
zz	-9.111
ider	-9.11104
▁und	-9.1121
▁foran	-9.11297
▁tru	-9.11325
▁arkitekt	-9.11339
▁mann	-9.11367
▁skuespiller	-9.11417
ν	-9.11451
▁spesial	-9.11452
tsj	-9.11515
▁jon	-9.11563
fang	-9.11736
▁gav	-9.11759
ller	-9.1181
▁hei	-9.11896
▁overtok	-9.12006
▁stats	-9.12173
film	-9.12247
▁grad	-9.12248
are	-9.12375
▁22	-9.12399
▁året	-9.12404
ix	-9.1243
tus	-9.1247
▁wo	-9.12485
get	-9.12658
rå	-9.12728
▁xi	-9.12913
▁klar	-9.13078
stil	-9.13086
▁cas	-9.13112
▁serien	-9.13174
▁ce	-9.13201
▁dra	-9.13262
у	-9.13281
minister	-9.13343
▁utenfor	-9.13391
▁les	-9.13416
shi	-9.13443
spiller	-9.13587
▁kol	-9.13589
▁sosial	-9.13623
▁bank	-9.13766
bygd	-9.13777
▁plante	-9.13796
lede	-9.1395
▁hjelp	-9.13992
rat	-9.14181
▁produsere	-9.1421
port	-9.14317
▁eier	-9.14433
▁kamp	-9.1446
lis	-9.14523
▁spe	-9.14558
▁gran	-9.14629
ish	-9.14643
▁hovedsakelig	-9.14677
▁minne	-9.14826
our	-9.14973
▁begynte	-9.15146
▁mc	-9.15156
▁ram	-9.15179
pur	-9.15275
fon	-9.153
pol	-9.1545
▁besto	-9.15512
anger	-9.15575
▁pat	-9.15583
▁mur	-9.15635
▁mad	-9.15835
mot	-9.16033
ford	-9.1606
leg	-9.16071
▁igjen	-9.16098
▁skje	-9.16143
▁tele	-9.16151
king	-9.16277
▁ska	-9.16301
▁helse	-9.16348
elva	-9.16455
gren	-9.16478
gruppen	-9.1649
▁lev	-9.16534
š	-9.16568
▁keiser	-9.16622
▁hånd	-9.16626
ette	-9.16728
ub	-9.16728
ssen	-9.16748
ai	-9.16767
▁kunstner	-9.16793
▁full	-9.16837
rop	-9.16904
▁don	-9.16955
▁brukt	-9.1702
▁forfatter	-9.17044
▁litt	-9.17134
▁får	-9.17152
▁bør	-9.17164
nu	-9.17303
▁100	-9.17351
▁plass	-9.17357
vei	-9.17454
zo	-9.17538
▁es	-9.17541
stasjon	-9.17592
valg	-9.17595
lekt	-9.1769
▁flo	-9.17693
cia	-9.1775
gjør	-9.17894
rit	-9.17926
▁familie	-9.17946
▁hall	-9.18079
▁gre	-9.18123
▁energi	-9.18142
▁gruppe	-9.18314
▁slag	-9.18326
▁cu	-9.18461
▁høyeste	-9.18527
stilling	-9.18572
huset	-9.1858
senteret	-9.18686
▁finner	-9.18792
fall	-9.18808
kh	-9.18819
▁thor	-9.18869
▁son	-9.18931
inne	-9.18947
asj	-9.1898
sjøen	-9.18988
▁utgjør	-9.19138
н	-9.19183
▁cla	-9.19302
▁ole	-9.19473
▁dessuten	-9.19474
stra	-9.19501
▁2001	-9.1954
▁studie	-9.19643
rak	-9.1969
▁sc	-9.197
▁øy	-9.19721
▁india	-9.19727
▁pass	-9.19744
▁50	-9.19923
området	-9.1993
▁regn	-9.19945
▁såkalt	-9.1997
▁hovedstad	-9.19975
▁knut	-9.20012
▁cent	-9.2012
asjoner	-9.20154
▁stemme	-9.20164
▁system	-9.20212
▁frank	-9.20251
navnet	-9.20258
▁historie	-9.20294
▁bern	-9.20391
bin	-9.20393
lev	-9.20426
▁gal	-9.20435
▁stu	-9.20502
ves	-9.20533
▁23	-9.20598
▁regjering	-9.20598
▁jernbane	-9.20601
▁est	-9.20648
tegn	-9.20839
▁amerikansk	-9.20862
▁finn	-9.20877
ria	-9.20882
klubb	-9.20935
▁lille	-9.20936
▁eid	-9.20948
▁delta	-9.21024
ura	-9.21134
▁rik	-9.21137
lat	-9.21143
▁super	-9.21231
▁administrasjons	-9.21281
▁fle	-9.21357
▁georg	-9.21409
98	-9.21526
▁klubben	-9.21533
▁david	-9.21549
▁31	-9.21582
▁albumet	-9.21648
▁johannes	-9.21687
▁arbeider	-9.21778
▁ordet	-9.2188
elig	-9.21939
▁gjorde	-9.21963
▁russland	-9.21967
kov	-9.21975
istisk	-9.21983
▁vinter	-9.22241
rød	-9.22256
▁student	-9.22274
ros	-9.22318
kur	-9.22323
produksjon	-9.22338
▁øya	-9.22352
80	-9.22408
▁distriktet	-9.22424
▁die	-9.22445
vit	-9.22487
▁venstre	-9.22489
▁28	-9.22514
▁fleste	-9.22546
gitt	-9.22561
▁thomas	-9.22638
ografi	-9.22702
plass	-9.22748
▁kir	-9.22835
▁versjon	-9.22848
▁utviklet	-9.22904
gon	-9.22929
uc	-9.22961
ansk	-9.22971
▁vår	-9.22984
stående	-9.23184
▁amerikanske	-9.23196
jev	-9.23264
way	-9.2328
▁liten	-9.2335
iet	-9.23379
▁lar	-9.23482
lå	-9.23497
▁fylkesvei	-9.23508
oc	-9.23563
mun	-9.23576
gn	-9.23644
samling	-9.23668
к	-9.23698
15	-9.23745
▁mont	-9.23822
▁stasjon	-9.23876
▁landets	-9.23881
stykke	-9.23933
▁utvikling	-9.23949
▁syd	-9.23967
områder	-9.23987
▁blod	-9.2405
▁dis	-9.24145
ib	-9.24173
ved	-9.24179
▁sted	-9.24225
pro	-9.24277
▁mye	-9.24311
▁europa	-9.2433
aks	-9.24361
kro	-9.24372
que	-9.24418
▁stjerne	-9.24509
bjørn	-9.24527
▁het	-9.24546
▁bror	-9.24563
▁imp	-9.24573
▁blad	-9.24681
90	-9.2475
fisk	-9.24806
fag	-9.2485
ische	-9.2487
▁fr	-9.24883
ismen	-9.24952
▁felles	-9.25076
▁viktige	-9.25124
eri	-9.25129
linje	-9.25154
ind	-9.25263
oli	-9.2528
▁kull	-9.25303
ova	-9.25345
▁få	-9.25351
systemet	-9.25427
▁bort	-9.25438
sam	-9.25489
jen	-9.25504
▁yu	-9.25523
bus	-9.25579
tel	-9.25609
▁politi	-9.25644
hov	-9.2567
▁gate	-9.25711
▁uni	-9.25754
rus	-9.25789
løse	-9.25835
▁tyske	-9.25846
▁nett	-9.25888
▁bry	-9.25944
ban	-9.26016
▁2000	-9.26157
▁internasjonale	-9.26234
▁26	-9.26261
løp	-9.263
skip	-9.26312
▁rot	-9.26353
60	-9.26406
▁win	-9.26435
hal	-9.26455
asjonen	-9.26539
▁are	-9.26603
▁bygget	-9.2667
▁åtte	-9.26792
bær	-9.26853
ence	-9.26856
▁ze	-9.26858
▁ph	-9.26877
▁hor	-9.27021
▁sverige	-9.27132
▁omkring	-9.27132
▁lars	-9.27137
▁olje	-9.27139
iti	-9.27157
65	-9.27247
▁orden	-9.27288
▁james	-9.27308
lene	-9.2734
cc	-9.2737
▁27	-9.27479
▁opera	-9.27519
▁jens	-9.27675
▁fal	-9.27679
iner	-9.27684
▁che	-9.27986
formet	-9.28088
ull	-9.2813
▁rus	-9.28131
fal	-9.2814
10	-9.28142
ekte	-9.28232
▁arter	-9.28257
haug	-9.28273
▁tr	-9.28313
с	-9.2842
fyl	-9.28488
▁ledet	-9.28507
м	-9.28587
alder	-9.28882
▁bill	-9.28941
▁bilde	-9.28962
▁antall	-9.29109
▁spilles	-9.29188
mod	-9.29232
▁just	-9.29262
ι	-9.29275
▁oppkalt	-9.29279
▁riksvei	-9.29341
hand	-9.29397
ann	-9.29421
full	-9.29448
▁egne	-9.29466
▁ek	-9.2963
dar	-9.29673
kjøp	-9.29721
än	-9.29735
▁fer	-9.29751
deling	-9.29774
▁pop	-9.29783
▁handels	-9.2991
▁anders	-9.29959
▁driver	-9.30079
ов	-9.30112
▁venn	-9.30151
▁blo	-9.30172
▁rein	-9.30217
ob	-9.30223
ip	-9.30227
40	-9.30275
ō	-9.30277
▁will	-9.30306
▁sky	-9.30328
▁høyre	-9.30354
▁spilt	-9.30356
middel	-9.30363
▁george	-9.30429
▁serie	-9.30576
sj	-9.30701
▁hell	-9.30823
▁fro	-9.30894
tti	-9.3093
▁design	-9.30998
anske	-9.31135
11	-9.31194
side	-9.31231
▁egg	-9.31292
landet	-9.31353
▁sølv	-9.31475
▁beskrive	-9.31593
ama	-9.31662
85	-9.31667
67	-9.3168
ala	-9.31759
▁kvinne	-9.31764
lang	-9.31903
▁dre	-9.31935
▁ana	-9.31962
▁fall	-9.31968
▁bad	-9.31985
▁lufthavn	-9.32033
▁gr	-9.32122
ade	-9.32196
▁skjer	-9.32282
mund	-9.32347
▁våpen	-9.32351
aktig	-9.32386
▁hard	-9.32414
mand	-9.32477
▁båt	-9.32585
ella	-9.32613
▁lær	-9.32673
▁tiden	-9.32833
▁29	-9.32892
▁album	-9.3298
dia	-9.33069
stilt	-9.33111
ativ	-9.33144
▁standard	-9.33145
of	-9.33222
▁hj	-9.33259
▁us	-9.33349
nett	-9.33378
alis	-9.33391
▁hed	-9.3344
▁poly	-9.33625
▁tang	-9.33649
▁bon	-9.33672
▁sanger	-9.33678
kj	-9.3375
▁måtte	-9.3376
▁nærings	-9.33764
fører	-9.33802
▁rad	-9.33811
▁kh	-9.33813
kast	-9.33983
▁ras	-9.34023
ū	-9.34269
ο	-9.34272
▁bille	-9.34349
kop	-9.34367
30	-9.34372
▁nok	-9.34441
▁hatt	-9.34478
elt	-9.34578
68	-9.3462
▁ep	-9.34633
part	-9.34683
▁ball	-9.34787
▁linje	-9.34828
▁spesielt	-9.34848
▁richard	-9.34849
▁delstaten	-9.34851
gard	-9.34862
▁tittelen	-9.3496
▁modell	-9.34978
blad	-9.35086
▁lund	-9.35117
ssa	-9.35122
din	-9.35126
▁grønn	-9.35147
wi	-9.35265
▁international	-9.35423
las	-9.35431
▁styrke	-9.35463
menn	-9.35466
dals	-9.35494
▁mak	-9.35497
▁ville	-9.3555
ram	-9.35596
organisasjon	-9.35622
cul	-9.35655
bert	-9.3567
▁virke	-9.35755
▁ang	-9.35823
ial	-9.35827
▁div	-9.35968
one	-9.36002
▁arabisk	-9.36138
▁fjern	-9.36238
▁gansk	-9.36294
iserte	-9.36384
▁rh	-9.36432
lot	-9.36451
kra	-9.36475
gaard	-9.36554
г	-9.3657
▁michael	-9.36582
▁anne	-9.36634
punkt	-9.36686
▁hvert	-9.367
▁ordenen	-9.3692
▁strøm	-9.36951
▁sur	-9.36954
lei	-9.37011
qui	-9.37034
▁arne	-9.37042
▁best	-9.37089
oni	-9.3713
70	-9.37174
con	-9.3718
merke	-9.37243
▁ö	-9.37383
▁nø	-9.37401
grense	-9.37458
stro	-9.37467
▁tap	-9.37484
lus	-9.37503
gna	-9.37515
▁kilde	-9.37588
pan	-9.37588
▁pen	-9.37639
stor	-9.37648
lund	-9.37656
ben	-9.37748
hol	-9.37784
▁lite	-9.37785
tok	-9.37805
▁mottok	-9.37834
▁sti	-9.37851
▁cap	-9.37889
zy	-9.37892
▁kors	-9.37919
unt	-9.37945
▁oppført	-9.3798
band	-9.37987
▁wal	-9.38178
▁punkt	-9.38259
ick	-9.38311
́	-9.38347
б	-9.38347
belteasteroide	-9.38347
grav	-9.38365
▁kristian	-9.38376
trykk	-9.38409
ori	-9.38546
tale	-9.38605
▁samarbeid	-9.38666
syre	-9.387
▁fylkes	-9.38873
▁representere	-9.38963
▁bel	-9.38978
▁eli	-9.39003
gger	-9.39108
forbund	-9.39212
kamp	-9.39272
▁with	-9.39294
▁teater	-9.39302
dra	-9.39333
▁vind	-9.39354
vare	-9.39396
vid	-9.39427
▁lege	-9.39482
▁holm	-9.39536
τ	-9.39541
sberg	-9.39598
▁jag	-9.39599
erende	-9.39615
hn	-9.39719
▁arten	-9.39749
▁enkelt	-9.39755
skrift	-9.39795
abel	-9.398
78	-9.39911
az	-9.39979
fest	-9.40107
▁samling	-9.40149
▁ok	-9.40149
nis	-9.40153
▁region	-9.40196
▁salt	-9.40201
▁medlemmer	-9.40224
▁forut	-9.40237
▁spar	-9.40254
▁jobb	-9.40269
▁krigs	-9.4028
▁annen	-9.40331
▁fv	-9.404
▁program	-9.40487
▁gitar	-9.40502
▁sn	-9.40549
▁hovedstaden	-9.40573
én	-9.40634
▁camp	-9.40797
▁tildelt	-9.40812
95	-9.40839
tis	-9.40869
äl	-9.40943
ringer	-9.40985
▁sir	-9.41035
▁din	-9.41038
▁ein	-9.41074
tøy	-9.41109
▁aktiv	-9.41296
▁arbeid	-9.41316
ky	-9.41467
▁myr	-9.41478
▁vanlig	-9.41492
▁stan	-9.41504
▁reise	-9.41586
stoff	-9.41613
▁mulig	-9.41617
▁mid	-9.41668
jan	-9.41673
rike	-9.41795
▁ganger	-9.4182
medalje	-9.41832
▁haug	-9.41833
▁tilby	-9.41846
low	-9.41862
▁lik	-9.41868
oth	-9.41876
▁egentlig	-9.4199
▁2012	-9.41994
▁2003	-9.42011
▁slekten	-9.42041
voll	-9.42065
ity	-9.42109
▁partiet	-9.4216
▁odd	-9.422
strøm	-9.42268
86	-9.4231
ås	-9.42321
▁stedet	-9.42369
▁press	-9.42371
▁miljø	-9.4246
elli	-9.42565
▁40	-9.42569
▁vekt	-9.42575
liggende	-9.42599
ón	-9.42665
mes	-9.42698
▁santa	-9.42702
▁sau	-9.42719
▁sten	-9.42728
▁bygd	-9.42889
kommune	-9.42945
▁polsk	-9.42984
nivå	-9.43001
▁bygge	-9.43044
sser	-9.4305
drag	-9.43145
▁elva	-9.43168
ρ	-9.43211
▁1996	-9.43223
▁nytt	-9.43278
▁vit	-9.43311
klar	-9.43315
car	-9.43369
▁fører	-9.43401
ora	-9.43429
satte	-9.43451
fat	-9.43462
orm	-9.43503
kraft	-9.43504
ima	-9.43547
▁skrift	-9.43565
danner	-9.43592
ater	-9.43799
▁1998	-9.43853
▁flat	-9.43902
▁turn	-9.43967
▁betydning	-9.44011
musikk	-9.44055
▁selskap	-9.44207
▁kraft	-9.44213
▁eg	-9.44237
▁moderne	-9.44251
▁cell	-9.44315
▁gor	-9.44372
▁offentlig	-9.44407
pla	-9.44416
mul	-9.4445
й	-9.44465
vogn	-9.44507
kjempe	-9.44516
▁hjerte	-9.44535
ira	-9.44708
▁utgav	-9.44791
▁finsk	-9.44853
ark	-9.44871
▁sag	-9.44873
▁80	-9.44941
▁elev	-9.44988
▁bygg	-9.4505
▁wei	-9.45058
kant	-9.4506
ì	-9.45098
▁dannet	-9.45123
▁informasjon	-9.45145
▁pin	-9.45145
▁borg	-9.45187
99	-9.4519
yo	-9.45209
▁res	-9.45256
▁gård	-9.45274
▁idretts	-9.45391
dømme	-9.45407
▁bol	-9.45437
▁gjør	-9.45456
kla	-9.45595
kjenne	-9.456
midler	-9.45605
ose	-9.45614
▁løv	-9.45657
▁års	-9.45659
▁1999	-9.45749
aceae	-9.45758
▁erstatte	-9.45791
▁gass	-9.45856
▁island	-9.45986
▁kirken	-9.46113
▁voks	-9.46195
▁mørke	-9.46207
▁folk	-9.46217
▁sw	-9.46287
rør	-9.46322
selskapet	-9.46482
39	-9.46491
▁sul	-9.46554
verket	-9.46564
▁mørk	-9.46567
▁glo	-9.46575
▁ann	-9.46601
▁grenser	-9.46655
▁strand	-9.46675
krets	-9.46728
tjeneste	-9.46787
ire	-9.46815
lov	-9.46846
wan	-9.46939
magasin	-9.47039
▁stav	-9.47041
▁råd	-9.47065
hel	-9.47085
▁sund	-9.47121
periode	-9.4713
vatnet	-9.47319
на	-9.4733
▁cy	-9.47411
▁ris	-9.47421
vinger	-9.47514
istiske	-9.47592
hø	-9.47628
▁nevnes	-9.47636
▁she	-9.4764
▁reg	-9.47644
▁eksempler	-9.4767
▁fredrik	-9.47705
▁sogn	-9.47741
▁politiker	-9.47748
▁dar	-9.47781
fart	-9.47821
ges	-9.47836
▁arbeidet	-9.47889
organ	-9.47919
▁kap	-9.48015
▁app	-9.48023
72	-9.48035
▁bind	-9.4808
▁ferdig	-9.48117
snitt	-9.4812
▁enkelte	-9.48154
92	-9.48301
▁tradisjonell	-9.48313
▁edderkopp	-9.48382
▁prosess	-9.4839
▁nils	-9.48411
▁dyre	-9.48417
▁cal	-9.48423
▁syv	-9.48461
shire	-9.48494
▁nesten	-9.48495
▁smal	-9.48571
▁för	-9.48595
▁godt	-9.48607
▁stø	-9.48621
▁hon	-9.48642
skje	-9.48724
48	-9.48794
kler	-9.48798
▁berlin	-9.48811
▁stort	-9.48818
gruppe	-9.48832
the	-9.48847
▁kj	-9.48856
▁ger	-9.48895
tag	-9.48908
47	-9.48934
▁regionen	-9.48953
▁bio	-9.48996
▁vid	-9.49083
44	-9.49112
▁hjem	-9.49174
▁qu	-9.49174
▁cho	-9.49191
▁tha	-9.49262
▁larven	-9.49315
▁mun	-9.49326
▁il	-9.49343
▁ett	-9.49352
▁hind	-9.49448
ér	-9.49523
pel	-9.4963
▁louis	-9.49646
▁direkte	-9.49652
▁2014	-9.4966
▁bakvingen	-9.49663
▁sykdom	-9.49717
76	-9.4973
▁char	-9.49747
▁trykk	-9.49753
▁transport	-9.4978
▁ref	-9.49792
▁kil	-9.49801
parti	-9.49864
▁sim	-9.49902
▁drama	-9.50063
▁fortsatt	-9.50243
ical	-9.50266
ô	-9.50311
▁london	-9.50312
▁brukte	-9.50335
ney	-9.50336
ati	-9.50345
▁funksjon	-9.50362
▁sve	-9.5046
▁renner	-9.50529
89	-9.50557
▁krist	-9.50627
▁henrik	-9.50667
▁auto	-9.5067
▁produkt	-9.50686
▁årlig	-9.507
ante	-9.50721
enhet	-9.50748
retning	-9.50764
▁flu	-9.50796
utstyr	-9.50816
lar	-9.50819
vitenskap	-9.50832
▁arn	-9.50889
▁tyskland	-9.50894
σ	-9.50982
▁world	-9.50982
felt	-9.50994
66	-9.51004
▁leg	-9.51126
97	-9.51263
nor	-9.51292
hall	-9.5132
▁lø	-9.51394
▁zo	-9.51397
▁bj	-9.51434
▁løper	-9.51446
▁sko	-9.51482
foss	-9.51554
▁fugle	-9.51561
08	-9.51572
fu	-9.51603
▁dor	-9.51637
▁1990	-9.51676
▁tung	-9.51689
▁metall	-9.51695
▁ken	-9.51727
▁nan	-9.51769
▁lyn	-9.51791
▁type	-9.51793
▁bygde	-9.51809
rev	-9.51832
ctor	-9.51852
▁cam	-9.51868
▁kjøpt	-9.51884
gul	-9.51997
forsvar	-9.52108
svik	-9.52109
▁hvis	-9.52118
▁indisk	-9.52199
våg	-9.52263
departementet	-9.52338
▁national	-9.52339
uch	-9.52354
▁2013	-9.52359
kraftverk	-9.52387
▁middel	-9.52388
arter	-9.52389
blomst	-9.52422
▁steder	-9.52422
▁hjemme	-9.5246
▁albert	-9.52529
▁natt	-9.52547
nik	-9.52581
ån	-9.5261
pal	-9.52662
sang	-9.52671
ture	-9.52695
hav	-9.52719
stol	-9.52741
▁sort	-9.52769
brun	-9.52788
brudd	-9.52919
▁grand	-9.52934
▁nar	-9.53014
▁gun	-9.53028
69	-9.53047
partiet	-9.53049
▁lan	-9.53065
▁høsten	-9.53079
▁slike	-9.53194
▁kongen	-9.53286
▁comp	-9.53317
vekst	-9.53347
els	-9.53444
press	-9.53538
▁nes	-9.53541
▁euro	-9.53543
▁dyr	-9.5369
▁cre	-9.53698
18	-9.53698
п	-9.53712
mma	-9.53736
messig	-9.53739
▁gitt	-9.53747
ato	-9.53759
▁power	-9.53767
ordenen	-9.5384
▁wu	-9.53871
▁seil	-9.53946
▁kategori	-9.53979
vold	-9.54032
▁boken	-9.54088
lings	-9.54117
fabrikk	-9.54259
▁lek	-9.54289
▁up	-9.54375
▁landskap	-9.54403
feld	-9.54422
87	-9.54459
linjen	-9.54494
▁drev	-9.54645
▁frukt	-9.54647
▁kul	-9.54781
▁fest	-9.54789
▁larvene	-9.54825
▁zu	-9.54886
▁regnes	-9.54936
▁ky	-9.5502
industri	-9.55062
vig	-9.55069
feltet	-9.55084
▁maur	-9.55102
▁horn	-9.55133
utdanning	-9.5515
▁kloster	-9.55159
▁behandling	-9.55215
▁star	-9.55312
yang	-9.55337
▁avdeling	-9.5535
prisen	-9.55388
▁eget	-9.55393
slav	-9.55408
skij	-9.55418
▁kontroll	-9.55422
▁kin	-9.55435
stedet	-9.5548
▁kas	-9.5548
▁menneske	-9.55595
▁gam	-9.55655
▁varme	-9.55674
samfunn	-9.55707
▁q	-9.55748
▁andreas	-9.55752
hua	-9.55762
▁sentrum	-9.55774
hai	-9.55801
▁middelsstor	-9.55811
plasser	-9.55851
▁frø	-9.55882
jord	-9.55919
▁rei	-9.55929
▁slo	-9.56109
▁høyde	-9.56124
▁flor	-9.56153
▁hud	-9.5618
▁ven	-9.56259
▁skade	-9.56263
▁pave	-9.56323
▁elve	-9.56352
88	-9.56361
▁that	-9.56405
gikk	-9.56408
▁historisk	-9.5645
sjoner	-9.56474
▁dokument	-9.5652
▁university	-9.56527
▁indre	-9.56583
▁løp	-9.56583
▁mill	-9.56679
▁jesu	-9.56734
af	-9.56768
bakken	-9.56832
▁verdi	-9.56842
74	-9.56843
motor	-9.56881
▁pris	-9.57006
▁tj	-9.57047
▁munn	-9.5706
lon	-9.57068
▁johann	-9.57141
▁deler	-9.57177
▁redaktør	-9.57219
myndighet	-9.57234
▁dato	-9.57237
▁2016	-9.57254
▁2017	-9.57255
▁ungdoms	-9.57258
▁mik	-9.5731
46	-9.57328
ledning	-9.57329
▁søster	-9.57332
gne	-9.57435
0	-9.57472
▁tjeneste	-9.575
▁ask	-9.57553
▁sports	-9.57702
▁karakter	-9.57784
▁gren	-9.57786
▁may	-9.57797
▁bit	-9.57817
virk	-9.57881
▁kam	-9.57893
▁japan	-9.57967
▁gjeld	-9.57982
▁spansk	-9.58007
avis	-9.58008
▁angrep	-9.5802
▁web	-9.58092
▁bass	-9.58092
▁staten	-9.58118
ål	-9.58146
nia	-9.58159
forbundet	-9.58165
▁tim	-9.5828
▁felt	-9.58302
ric	-9.58305
ique	-9.5832
▁sho	-9.58383
▁elv	-9.58384
stamme	-9.58507
▁vokal	-9.58539
▁eng	-9.58552
ite	-9.58593
isere	-9.586
▁nam	-9.58653
▁universitet	-9.58654
▁brenselkilden	-9.58678
▁omtrent	-9.58678
▁service	-9.58678
▁1980	-9.58698
klubben	-9.58715
maskin	-9.58737
beskytte	-9.5877
liste	-9.58832
ppen	-9.58846
bare	-9.58862
▁forsknings	-9.58879
can	-9.58887
well	-9.5892
96	-9.58957
søk	-9.58971
pha	-9.59051
hund	-9.59138
▁jen	-9.59154
▁internasjonal	-9.59187
gro	-9.59209
▁viktig	-9.59249
int	-9.59324
▁én	-9.59349
ance	-9.59372
▁jern	-9.59483
▁rund	-9.59536
▁produksjon	-9.59545
▁forbindelse	-9.59574
aksjon	-9.59618
▁delt	-9.59686
▁dam	-9.59712
dro	-9.59721
ledd	-9.59743
manns	-9.59762
▁motta	-9.59772
12	-9.59819
▁drift	-9.59822
▁forhold	-9.59836
grunn	-9.59865
fjell	-9.59922
lly	-9.59925
hm	-9.59929
▁nest	-9.60104
ε	-9.60143
▁nowiki	-9.60143
▁nordøst	-9.60147
▁charles	-9.60184
▁por	-9.60189
kirken	-9.60217
▁black	-9.60223
løs	-9.60284
▁instrument	-9.6029
gli	-9.60422
▁gru	-9.60462
win	-9.60476
onia	-9.60557
stø	-9.60602
året	-9.60605
▁litteratur	-9.6077
strand	-9.60837
områdene	-9.60844
gata	-9.60909
▁grunnlagt	-9.60943
på	-9.60966
språk	-9.6098
▁variant	-9.60987
▁ør	-9.61002
▁finans	-9.61009
▁hum	-9.6107
▁bolig	-9.61098
19	-9.61258
▁anna	-9.61412
▁thr	-9.61512
øyene	-9.61602
▁opprettet	-9.61626
▁middelalder	-9.61641
▁hage	-9.61657
cell	-9.61736
35	-9.61742
▁museum	-9.61759
▁bob	-9.61761
▁kode	-9.61811
wer	-9.61832
heten	-9.61838
▁offisiell	-9.61843
▁britiske	-9.61864
ax	-9.61865
▁olav	-9.61883
▁epi	-9.61884
▁bay	-9.61885
▁stasjonen	-9.6189
handel	-9.61919
ada	-9.61922
riket	-9.62014
grupper	-9.6226
▁kraftverk	-9.62306
▁flyplass	-9.62357
▁musiker	-9.62365
▁aust	-9.62386
▁klo	-9.62435
▁70	-9.62436
▁fot	-9.62496
▁borger	-9.62528
avdeling	-9.6255
▁uttrykk	-9.62633
▁time	-9.6268
▁vä	-9.62695
▁gram	-9.62703
▁veien	-9.62734
▁oppdage	-9.62743
▁rå	-9.62744
▁veg	-9.62809
politikk	-9.62858
▁meg	-9.62859
17	-9.62889
gler	-9.62995
ost	-9.63011
▁artikkel	-9.63117
λ	-9.6314
▁kulturminner	-9.6314
▁tam	-9.63144
▁typisk	-9.63145
▁kropp	-9.6317
▁jazz	-9.63195
▁produsent	-9.63248
▁wil	-9.63284
ary	-9.63301
stid	-9.63342
▁vinner	-9.63346
▁hansen	-9.63408
ritt	-9.6346
▁grunnla	-9.63483
▁dekk	-9.63694
cheng	-9.63775
mur	-9.63792
▁real	-9.63798
▁song	-9.63834
gården	-9.63913
▁studert	-9.63926
tun	-9.63975
handler	-9.63984
▁markeds	-9.63989
▁besøk	-9.64036
▁old	-9.6409
58	-9.64095
▁ære	-9.64125
▁60	-9.6415
▁north	-9.64164
▁verden	-9.64181
▁nr	-9.64187
▁try	-9.64203
mas	-9.64239
havet	-9.64257
▁cra	-9.64309
arm	-9.64392
gy	-9.64406
▁kommunene	-9.6444
eier	-9.64444
▁jean	-9.64493
▁vær	-9.64631
63	-9.64663
▁tilsvarende	-9.64672
▁oblast	-9.64685
tom	-9.64692
øn	-9.64693
gor	-9.64695
▁city	-9.64861
▁pot	-9.64873
▁selve	-9.64888
▁sju	-9.65005
▁rolle	-9.65051
▁laur	-9.6508
▁live	-9.65122
ies	-9.65156
komme	-9.65179
skudd	-9.65187
▁gutt	-9.65224
▁trekk	-9.65232
ān	-9.65235
▁løs	-9.65384
field	-9.65425
delen	-9.65444
▁wilhelm	-9.65447
▁tank	-9.65464
▁eiendom	-9.65509
▁rob	-9.65513
▁sentrale	-9.65525
▁korte	-9.65537
▁lærer	-9.65537
▁deltok	-9.65544
bru	-9.65547
▁samfunns	-9.65565
▁tittel	-9.65607
▁dø	-9.6562
historie	-9.65639
loven	-9.65678
ras	-9.65694
illa	-9.65707
▁åpnet	-9.65747
▁nasjonale	-9.65837
▁skips	-9.65851
dorf	-9.65887
dor	-9.65903
pho	-9.65954
▁typer	-9.66021
▁klasse	-9.66058
ming	-9.66113
ß	-9.66166
gangen	-9.66201
ín	-9.66208
▁esp	-9.66219
bibliotek	-9.66229
formede	-9.66262
▁lengde	-9.66263
▁eldre	-9.66366
▁angel	-9.66375
▁kjøre	-9.66405
våpen	-9.66439
▁hå	-9.66457
bol	-9.66548
▁ran	-9.66561
▁sun	-9.66573
▁etablert	-9.66611
sol	-9.66693
åpning	-9.66705
løper	-9.66759
gress	-9.66836
▁svenske	-9.66859
▁svarte	-9.66865
pin	-9.6697
я	-9.67016
▁joseph	-9.67016
lapp	-9.67024
▁blue	-9.67055
▁king	-9.67081
▁daniel	-9.67091
▁nav	-9.67105
ping	-9.67167
last	-9.67288
▁inntil	-9.67393
uf	-9.67402
medaljen	-9.67407
mond	-9.67429
▁festival	-9.67476
▁fan	-9.67503
▁figur	-9.67541
▁tall	-9.67556
▁vas	-9.67591
▁gy	-9.67621
ulf	-9.67634
▁zi	-9.67775
▁byprefekturet	-9.6781
▁naturgass	-9.67819
▁cur	-9.67839
▁klima	-9.67849
kirke	-9.67892
korps	-9.67995
▁wat	-9.68118
ringen	-9.6813
aria	-9.68184
▁foss	-9.68212
dens	-9.6823
▁mø	-9.68315
▁skrive	-9.68352
▁start	-9.68356
arbeider	-9.68411
▁geo	-9.68447
▁blei	-9.68501
▁komp	-9.68584
lip	-9.68586
▁foreldre	-9.68611
▁totalt	-9.68621
64	-9.68638
▁dansk	-9.68667
hjul	-9.68685
lett	-9.68721
▁holdt	-9.68841
▁ud	-9.68873
figur	-9.68891
vekt	-9.6897
folk	-9.68988
▁utført	-9.68998
▁mol	-9.69002
▁kjell	-9.69072
løst	-9.691
▁forkorte	-9.69132
▁hellig	-9.69301
▁finland	-9.69317
rup	-9.69328
▁enhet	-9.69396
▁anton	-9.6941
▁tilhørte	-9.69416
▁livs	-9.6943
▁1997	-9.69433
▁1995	-9.69435
▁forenkle	-9.69461
▁likevel	-9.69478
utgivelse	-9.69504
▁180	-9.69556
sport	-9.69568
▁uk	-9.69579
▁daglig	-9.69613
▁interesse	-9.69675
▁gard	-9.69728
▁ark	-9.69734
aktiv	-9.69868
▁gå	-9.69973
▁neu	-9.69998
▁populær	-9.70007
phy	-9.70034
▁hode	-9.70074
▁cro	-9.70129
▁drive	-9.70217
▁elektro	-9.70222
▁eldste	-9.70231
tunnelen	-9.70259
▁hannen	-9.70265
rim	-9.70284
▁mennesker	-9.70332
plassen	-9.70369
▁35	-9.70372
bygging	-9.70452
91	-9.70469
program	-9.70525
lingen	-9.70566
festival	-9.70573
medlem	-9.7058
▁hovedrollene	-9.70656
holm	-9.7077
bul	-9.7084
▁gui	-9.70956
ative	-9.70991
▁økonomisk	-9.71018
▁1994	-9.71049
▁club	-9.71061
▁statsminister	-9.7107
▁kjerne	-9.71114
13	-9.7122
▁long	-9.71406
produkt	-9.71412
ult	-9.71418
iger	-9.71467
▁symbol	-9.71558
endt	-9.71616
▁gil	-9.71622
ön	-9.71645
ball	-9.71675
▁landet	-9.71723
▁provins	-9.71749
dige	-9.71771
gal	-9.71805
skolen	-9.71849
under	-9.71873
lom	-9.71894
▁italia	-9.71954
▁legge	-9.72061
▁grense	-9.72118
▁base	-9.72199
enberg	-9.72223
▁bla	-9.72367
▁nrk	-9.72395
▁nabo	-9.72507
▁omtale	-9.72508
▁rygg	-9.72601
▁årene	-9.72681
løpet	-9.72683
▁1993	-9.72709
▁nærmest	-9.72717
▁mannskapet	-9.72721
▁resultat	-9.72746
▁utgi	-9.72748
▁minst	-9.72772
▁primær	-9.72799
▁stammer	-9.72812
▁nev	-9.72848
▁betegne	-9.72868
▁love	-9.72947
▁virksomhet	-9.73086
▁que	-9.73126
▁ple	-9.73212
oner	-9.73218
▁cri	-9.73252
rygg	-9.73253
samisk	-9.73319
▁tegnet	-9.73334
cal	-9.73376
eller	-9.7338
▁stiftet	-9.73406
com	-9.73463
▁bygningen	-9.73506
▁prosjekt	-9.73669
▁henry	-9.73688
bell	-9.73689
yu	-9.73926
▁snø	-9.7393
▁marie	-9.74002
oma	-9.74036
eide	-9.74054
16	-9.74147
farge	-9.74273
▁mess	-9.74291
kommunikasjon	-9.74397
▁inngår	-9.74398
▁klassisk	-9.744
ström	-9.74401
▁york	-9.74405
ич	-9.74409
▁perioden	-9.74424
flu	-9.74431
▁vanlige	-9.74454
▁aldri	-9.74487
▁meget	-9.74503
vari	-9.7452
▁fortsatte	-9.74528
▁havne	-9.74537
roll	-9.74537
løsning	-9.7456
kkel	-9.74744
bladet	-9.74891
▁vor	-9.74915
▁log	-9.74928
21	-9.74964
▁helge	-9.75018
hard	-9.75029
▁spill	-9.75036
▁merke	-9.75041
trær	-9.75053
lich	-9.75089
cho	-9.75137
skapet	-9.75139
▁tradisjon	-9.75199
▁dyp	-9.75254
▁prosent	-9.75258
▁trondheim	-9.75264
bia	-9.75271
▁multi	-9.75281
▁konsert	-9.75297
37	-9.75337
▁mah	-9.75364
▁satt	-9.75377
▁fått	-9.754
▁dj	-9.75444
▁gje	-9.75462
tta	-9.75497
▁sommeren	-9.75521
kka	-9.7556
▁kraftig	-9.7559
elige	-9.75621
sø	-9.75667
▁tsj	-9.75763
aya	-9.75887
▁plat	-9.75941
▁landsbyen	-9.76099
▁øvrig	-9.76113
▁1992	-9.76131
▁nattfly	-9.76142
lser	-9.7623
trinn	-9.76267
▁att	-9.76278
▁sterkt	-9.7629
25	-9.76313
mil	-9.76318
▁buss	-9.76396
▁nummer	-9.76416
awa	-9.76498
▁asia	-9.76502
▁hva	-9.76506
vind	-9.76515
▁mir	-9.76522
ith	-9.76525
▁glass	-9.76551
▁bomb	-9.76692
▁makt	-9.76752
vesen	-9.76845
styrt	-9.76853
▁whi	-9.76861
hin	-9.76959
▁univers	-9.76963
▁http	-9.76987
▁skille	-9.77003
▁stod	-9.77033
▁henne	-9.7709
▁kroppen	-9.77117
▁høyt	-9.77199
gol	-9.77204
▁hend	-9.77235
spor	-9.77305
analyse	-9.77324
virksomhet	-9.77464
▁holder	-9.77476
kri	-9.77584
▁matt	-9.77622
spon	-9.77635
▁has	-9.77642
fond	-9.77687
▁forsvars	-9.77745
▁stam	-9.77745
skriv	-9.77813
ual	-9.77814
▁unge	-9.77836
▁orkester	-9.77842
â	-9.7786
č	-9.7786
κ	-9.7786
з	-9.7786
▁friedrich	-9.7786
▁betydelig	-9.77861
oide	-9.77868
▁1987	-9.77877
▁2015	-9.779
zu	-9.77938
line	-9.78013
merket	-9.78045
▁demokrat	-9.78068
ough	-9.78075
▁hill	-9.78081
▁problem	-9.78117
▁tenn	-9.78126
▁front	-9.7814
▁gau	-9.78146
gående	-9.78187
hof	-9.78204
▁los	-9.78291
▁oftest	-9.78334
fjellet	-9.78389
arten	-9.78476
▁single	-9.78526
▁prest	-9.78541
formen	-9.78554
▁ron	-9.78623
▁ye	-9.78637
▁tett	-9.78668
kilde	-9.78679
45	-9.78697
amin	-9.78738
▁1981	-9.78745
▁sørøst	-9.78748
▁biskop	-9.78759
▁1988	-9.78762
▁qua	-9.788
▁marine	-9.78824
ona	-9.78857
▁adel	-9.7887
▁privat	-9.78877
▁utvide	-9.78944
▁israel	-9.78961
havn	-9.79022
fjellene	-9.79051
▁cm	-9.79168
▁danse	-9.79188
▁kart	-9.79244
bånd	-9.79273
bud	-9.79312
kontor	-9.79326
▁troll	-9.79336
▁alb	-9.79414
▁rosen	-9.79418
▁inge	-9.79493
grep	-9.79526
krigen	-9.79537
▁danske	-9.79576
▁harald	-9.79595
▁arrangere	-9.79639
▁tydelig	-9.79642
vikler	-9.79645
▁føl	-9.79655
▁bronse	-9.79673
▁ost	-9.79677
▁samle	-9.79699
vert	-9.79743
▁direktør	-9.79836
hopp	-9.7987
▁motstand	-9.79894
▁møte	-9.79924
▁fjord	-9.79994
regn	-9.80006
nic	-9.80053
▁steve	-9.80077
▁last	-9.80086
mbo	-9.80118
▁gjort	-9.80126
sluttet	-9.802
elv	-9.80243
ppel	-9.80243
▁plu	-9.80305
▁hvite	-9.80372
flo	-9.80376
▁temperatur	-9.80401
ù	-9.80539
▁kardinal	-9.80539
▁øvre	-9.8054
▁hurtig	-9.80546
bal	-9.8056
▁aktivitet	-9.80607
▁trommer	-9.80622
idrett	-9.8069
▁monte	-9.80705
later	-9.80729
▁tverr	-9.80737
▁hit	-9.80739
katt	-9.80759
▁økt	-9.80768
▁bryst	-9.8085
▁hunnen	-9.80896
shan	-9.80946
▁begrepet	-9.80998
▁45	-9.81033
▁fylket	-9.81086
una	-9.81166
▁lot	-9.81237
▁gjeste	-9.81255
▁nederlandsk	-9.81283
▁energiselskape	-9.81329
▁ali	-9.81401
▁fulgte	-9.81448
▁fjerde	-9.81452
▁høye	-9.81482
rekord	-9.81624
fot	-9.81651
▁røde	-9.81672
▁bærer	-9.81711
▁sar	-9.81715
▁lokale	-9.81741
trekk	-9.8179
▁fry	-9.81863
ico	-9.8193
kamera	-9.81945
▁buk	-9.8195
▁turist	-9.82052
▁dun	-9.82093
▁benyttet	-9.82366
▁mester	-9.82375
28	-9.82376
▁1972	-9.82385
▁plate	-9.82406
▁canada	-9.82408
▁skatte	-9.82426
▁innsjøen	-9.82428
ryd	-9.82433
▁kok	-9.82473
▁sivil	-9.82506
ili	-9.8252
bygning	-9.82525
▁stift	-9.82568
▁leir	-9.82571
▁fyrst	-9.82591
fekt	-9.82743
olo	-9.82756
▁dynastiet	-9.82811
park	-9.82992
▁music	-9.8304
▁spiss	-9.83046
cio	-9.83232
hild	-9.83235
farget	-9.8325
▁qi	-9.83271
▁maskin	-9.83289
ë	-9.83291
▁europeisk	-9.83292
▁benytter	-9.83294
▁gunnar	-9.83295
▁south	-9.83304
▁kha	-9.83354
▁derimo	-9.83383
▁slott	-9.83517
type	-9.83569
fre	-9.83624
ami	-9.83645
▁enten	-9.83788
dam	-9.83794
▁lære	-9.83824
▁stoff	-9.83938
▁forlag	-9.83943
virkning	-9.84009
▁sesongen	-9.84009
▁tilhøre	-9.84104
nummer	-9.84122
▁barb	-9.84144
▁gall	-9.84174
▁komponist	-9.84227
▁magnus	-9.84234
▁rose	-9.84235
▁ønske	-9.84241
▁170	-9.84252
▁referere	-9.84253
saker	-9.84258
▁160	-9.84287
parken	-9.84319
regi	-9.84325
▁fisk	-9.84349
anda	-9.84358
▁tai	-9.84369
gno	-9.84451
▁ledd	-9.84503
▁sco	-9.84525
sia	-9.84689
▁grev	-9.84775
▁simon	-9.84831
27	-9.84833
oksid	-9.84866
▁vinge	-9.84954
▁blomster	-9.8503
14	-9.85074
▁wer	-9.85085
▁lyst	-9.85093
▁original	-9.85166
▁1982	-9.85169
▁1984	-9.85169
▁benyttes	-9.8517
▁digital	-9.8517
tek	-9.85177
▁thu	-9.85194
▁video	-9.85205
bour	-9.85234
▁kalte	-9.85391
▁class	-9.85441
▁cl	-9.85472
bad	-9.85513
▁utdanne	-9.85537
▁heng	-9.8555
pass	-9.85614
▁jack	-9.8564
▁ordens	-9.85656
▁etablerte	-9.85657
▁foto	-9.85665
▁hodet	-9.85764
ører	-9.85908
▁forfatteren	-9.85931
▁brand	-9.85968
▁kryss	-9.85974
▁otto	-9.85977
fil	-9.86124
▁1991	-9.86138
▁jim	-9.8616
▁personer	-9.86224
uel	-9.86235
▁cru	-9.86241
kje	-9.86269
▁jevn	-9.86291
ats	-9.86392
▁vold	-9.8641
▁anlegget	-9.8658
▁material	-9.86582
▁chu	-9.86642
▁omfattet	-9.86665
▁fyr	-9.86711
▁heste	-9.86845
▁papir	-9.8686
marked	-9.86917
kanten	-9.8694
kultur	-9.86963
▁gjøre	-9.86977
spinner	-9.86984
rådet	-9.87053
▁festning	-9.8706
▁kilometer	-9.87083
π	-9.87083
▁millioner	-9.87084
▁frederik	-9.87088
▁ordfører	-9.87115
▁kjønn	-9.87141
▁sven	-9.87213
▁forsøk	-9.87259
▁england	-9.87381
▁high	-9.87397
▁underlagt	-9.87413
▁iv	-9.87426
▁vill	-9.87429
vision	-9.8748
▁chang	-9.87505
▁500	-9.87529
▁påvirke	-9.87533
▁jur	-9.87539
▁faren	-9.87563
▁olsen	-9.87597
tog	-9.87611
person	-9.87637
gue	-9.8765
▁dir	-9.87687
▁trafikk	-9.8794
post	-9.87985
▁1979	-9.88054
▁royal	-9.88061
▁xiàn	-9.88062
▁group	-9.88091
▁tørr	-9.88121
▁fjær	-9.88123
▁stål	-9.88147
øye	-9.88194
▁award	-9.88196
▁dersom	-9.88199
▁byer	-9.88215
▁stri	-9.88245
cl	-9.88275
▁syr	-9.8841
▁kost	-9.88468
▁retning	-9.88478
ville	-9.88494
lam	-9.88507
ко	-9.88565
meter	-9.88666
mba	-9.88696
▁forsker	-9.88722
▁regjeringen	-9.88724
▁ves	-9.88771
kunst	-9.88813
▁eik	-9.8883
▁polar	-9.88837
fartøy	-9.88871
▁bølge	-9.88877
iva	-9.89015
ă	-9.89034
ekspedisjon	-9.89034
▁alternativ	-9.89034
▁1986	-9.89057
▁betegnelsen	-9.89079
osa	-9.89121
▁trak	-9.89128
▁brann	-9.89128
ox	-9.89165
▁yo	-9.89239
stripe	-9.89306
▁solo	-9.89342
▁mikro	-9.89364
▁cle	-9.8939
▁jakt	-9.89468
zj	-9.89482
▁sendt	-9.89505
ç	-9.89572
ifisert	-9.89587
▁skriver	-9.89597
former	-9.89636
▁kri	-9.89637
▁søk	-9.89664
▁klokke	-9.89677
utstilling	-9.89705
▁spille	-9.89787
▁rør	-9.89817
▁krigen	-9.89818
museum	-9.89868
▁hul	-9.89891
▁gode	-9.89904
▁wel	-9.89943
▁formel	-9.89976
tjenester	-9.89998
▁republi	-9.9002
ǎ	-9.90024
teknikk	-9.90026
▁divisjon	-9.90027
▁tids	-9.90036
▁gustav	-9.90049
kort	-9.90088
nie	-9.90089
▁pap	-9.90132
▁ansvar	-9.90179
▁organisasjonen	-9.90326
▁franc	-9.90343
▁organisasjon	-9.90376
▁preste	-9.90396
▁sunn	-9.90535
▁ledelse	-9.90588
▁rang	-9.90618
▁aur	-9.90661
bank	-9.90724
gruppa	-9.90745
distrikt	-9.90831
produsent	-9.90881
▁bedre	-9.90956
økonom	-9.90985
▁records	-9.91025
▁fremdeles	-9.91026
▁nordvest	-9.91035
▁1960	-9.91051
▁bein	-9.91051
steder	-9.91064
▁mono	-9.91065
▁danmark	-9.9107
▁saint	-9.91174
lege	-9.91193
iano	-9.91209
▁teksten	-9.91213
▁from	-9.91273
▁moren	-9.91416
foreningen	-9.91431
▁hopp	-9.91537
▁ross	-9.91558
hed	-9.91619
lum	-9.91636
bein	-9.91712
▁avis	-9.91745
komst	-9.9177
▁hil	-9.91784
24	-9.91813
▁ey	-9.91865
▁holde	-9.91879
▁jacob	-9.91957
▁uavhengig	-9.92034
løft	-9.92053
▁smith	-9.92056
▁alfred	-9.9209
▁roll	-9.92118
▁operasjon	-9.92242
▁qui	-9.92394
wald	-9.92408
▁kata	-9.92415
▁union	-9.92425
▁human	-9.92445
▁fordi	-9.92474
55	-9.92575
▁oc	-9.92596
driv	-9.92601
▁åpen	-9.92635
▁max	-9.92661
▁luc	-9.92681
▁corn	-9.92705
▁scene	-9.92717
▁dro	-9.92782
hei	-9.92814
▁tau	-9.92868
▁disk	-9.92878
▁intern	-9.92906
▁afrika	-9.93049
▁ukrainsk	-9.93055
▁hustru	-9.93057
▁norrøn	-9.9306
▁nedenfor	-9.93061
▁sørvest	-9.93062
▁representant	-9.93065
▁slank	-9.93085
▁kai	-9.93118
sion	-9.93123
▁romersk	-9.93148
▁artister	-9.93153
▁lignende	-9.93166
▁fabrikk	-9.93171
somme	-9.93176
▁eksempelvis	-9.9318
kontrakt	-9.93244
▁total	-9.93294
▁stig	-9.93305
▁nasjonalpark	-9.93319
▁langt	-9.93338
▁verne	-9.93411
▁test	-9.93531
33	-9.93573
hem	-9.93616
▁andersen	-9.93645
bak	-9.9366
▁paris	-9.9379
▁betydninger	-9.93799
▁neste	-9.93882
▁herman	-9.93921
▁ec	-9.93938
▁naturlig	-9.93968
▁gården	-9.9397
prosess	-9.93987
funksjon	-9.94007
▁bøker	-9.94047
ć	-9.94086
▁jule	-9.94092
▁1976	-9.94107
▁1978	-9.9411
▁stol	-9.94133
▁endret	-9.94142
▁tema	-9.94158
▁mangler	-9.94196
▁øye	-9.94207
basert	-9.94225
▁menighet	-9.94252
▁mig	-9.94267
▁32	-9.9429
▁kvinner	-9.94321
jö	-9.94336
▁akt	-9.94394
▁с	-9.94408
▁his	-9.94483
prosjekt	-9.94514
▁shan	-9.94544
▁bach	-9.94546
▁geir	-9.94552
▁gold	-9.9457
▁bord	-9.9465
▁phil	-9.94681
▁rep	-9.94693
▁kreve	-9.94744
arbeidet	-9.94755
▁90	-9.94776
▁dog	-9.94793
able	-9.9487
▁beg	-9.94881
gift	-9.94966
▁pun	-9.94982
hallen	-9.94994
▁tale	-9.95021
▁uttale	-9.95029
▁brev	-9.95073
▁utføre	-9.95086
▁prege	-9.951
▁roma	-9.95124
▁administrativ	-9.95127
▁deriblant	-9.95127
▁1975	-9.95128
▁nordisk	-9.95132
▁hom	-9.95142
▁1968	-9.95152
▁1985	-9.95152
lignende	-9.95154
▁wen	-9.95256
▁fjorden	-9.95272
▁od	-9.95354
▁områder	-9.95408
forhold	-9.95427
serien	-9.95493
▁harry	-9.95494
nytt	-9.95599
▁rute	-9.95649
▁hoff	-9.95677
kjør	-9.95686
▁furu	-9.95716
styrke	-9.95718
artikler	-9.95725
▁følge	-9.9574
▁34	-9.95801
ledende	-9.95829
kil	-9.95843
▁200	-9.95848
▁ytter	-9.95889
▁måned	-9.95912
▁lie	-9.95928
isch	-9.95945
▁teori	-9.95975
▁ter	-9.9598
▁metal	-9.95982
▁kim	-9.95986
▁az	-9.95986
▁spise	-9.95988
slekten	-9.95989
▁krig	-9.96015
36	-9.96075
kall	-9.96085
▁sannsynlig	-9.9618
▁administrere	-9.9618
▁passasjer	-9.9618
▁school	-9.96182
▁rektor	-9.96183
▁melodi	-9.96188
▁medlemmene	-9.96189
veis	-9.96192
▁1970	-9.96205
▁relativ	-9.96207
▁dør	-9.96233
▁islam	-9.96272
▁kapell	-9.96316
▁east	-9.96344
ensis	-9.96407
▁stopp	-9.96422
eringen	-9.96444
▁prisen	-9.96454
bakk	-9.96476
levende	-9.96554
tsu	-9.96556
38	-9.96608
▁svak	-9.96617
▁feil	-9.96631
▁ube	-9.96729
▁150	-9.96743
▁villa	-9.96751
▁inte	-9.96774
26	-9.96949
▁pala	-9.96982
▁størrelse	-9.97001
istene	-9.97012
oppgave	-9.97186
forbindelse	-9.97233
ы	-9.97244
▁profesjonell	-9.97244
▁stockholm	-9.97244
▁parlament	-9.97244
▁sigurd	-9.97245
▁måte	-9.97257
▁bekrefte	-9.97273
utøver	-9.97292
▁varierer	-9.97293
ovo	-9.97457
▁avisen	-9.97458
ст	-9.97464
▁was	-9.9752
ii	-9.97548
▁gyl	-9.97556
varer	-9.97564
▁hest	-9.97617
▁fler	-9.97643
▁ara	-9.97811
verdig	-9.97861
språklig	-9.97879
▁bane	-9.97911
▁graf	-9.98004
holmen	-9.98015
vinner	-9.98176
▁hydro	-9.98212
▁knyttet	-9.98254
sekretær	-9.98307
ē	-9.98319
▁elektrisk	-9.98319
▁american	-9.98319
▁inneholdt	-9.9832
▁nilsen	-9.98334
stjerne	-9.98348
▁stadion	-9.98356
rek	-9.98367
norsk	-9.98405
▁led	-9.98434
▁400	-9.98545
▁chris	-9.98599
gått	-9.98829
▁ånd	-9.98878
▁adam	-9.98895
▁dommer	-9.98928
▁green	-9.98947
▁33	-9.98963
dahl	-9.98977
kasse	-9.99118
halvøya	-9.99158
▁kanon	-9.9921
▁gjer	-9.99252
spir	-9.99296
▁eventyr	-9.99406
▁publisert	-9.99406
▁vietnam	-9.99406
ος	-9.99414
▁reform	-9.99427
album	-9.99446
▁deles	-9.99579
▁malt	-9.99596
▁kara	-9.996
▁sjef	-9.99608
▁mobil	-9.99659
yuan	-9.9967
▁tatt	-9.99679
zon	-9.99693
dikt	-9.99772
▁team	-9.99785
▁tradisjonelle	-9.99789
åsen	-9.99811
▁universitetet	-9.9984
polis	-9.99869
▁bevegelse	-9.99968
ро	-10
koll	-10.0006
vor	-10.0011
▁artene	-10.0017
▁huset	-10.0017
▁fj	-10.0019
▁plassert	-10.002
▁kontor	-10.002
▁fett	-10.0021
▁skip	-10.0033
▁tilknyttet	-10.0051
▁1983	-10.0051
▁united	-10.0051
▁part	-10.0055
▁forretnings	-10.0061
▁effekt	-10.0062
▁bis	-10.0062
våk	-10.0063
house	-10.0068
▁samlet	-10.0073
▁vokalist	-10.0078
klassen	-10.0079
▁kampen	-10.0079
inntekt	-10.0084
verdi	-10.0088
▁drag	-10.0092
▁overfor	-10.0095
▁gis	-10.0096
flekk	-10.0097
▁kald	-10.0105
▁fløy	-10.0113
▁krav	-10.0123
▁rand	-10.0126
▁forskning	-10.0132
▁myk	-10.0142
roman	-10.0142
gate	-10.015
iga	-10.0153
▁cd	-10.0154
▁sav	-10.0154
▁ull	-10.0158
ś	-10.0162
μ	-10.0162
▁www	-10.0162
▁frankrike	-10.0164
▁stad	-10.0168
▁produksjons	-10.0169
▁hem	-10.0169
▁flagg	-10.0171
forskning	-10.0171
▁scott	-10.0174
▁mengde	-10.0175
bon	-10.0179
▁planter	-10.0179
dannelse	-10.0182
ovitsj	-10.0182
▁akademi	-10.0184
▁sønnen	-10.0185
▁linjen	-10.0193
▁opptre	-10.0193
▁morten	-10.0196
▁nettverk	-10.0204
▁befolkningen	-10.0209
hode	-10.0213
▁stille	-10.0216
▁kristen	-10.0217
▁ramme	-10.022
▁beskrev	-10.0226
▁anta	-10.0232
▁but	-10.0234
▁irsk	-10.0236
▁trolig	-10.0239
▁behandle	-10.0247
øvelse	-10.0259
pati	-10.026
▁eva	-10.027
▁forekommer	-10.0274
▁jørgen	-10.0274
▁bydel	-10.0284
trafikk	-10.0285
forfatter	-10.0285
▁bakke	-10.0294
▁out	-10.0302
▁tel	-10.0302
▁opphav	-10.0304
▁petr	-10.0309
▁maleri	-10.0309
▁verket	-10.031
slaget	-10.0312
ça	-10.0326
▁tettsted	-10.0332
▁pul	-10.0335
▁bell	-10.0336
▁teknisk	-10.034
iko	-10.034
▁emil	-10.0345
slett	-10.0346
▁hær	-10.0347
▁studio	-10.0348
▁boy	-10.0349
▁ts	-10.0357
▁38	-10.0362
uni	-10.0374
▁fru	-10.0377
▁sær	-10.0379
pra	-10.0379
bryte	-10.0385
▁kari	-10.0387
friidrettsutøver	-10.0388
▁prefektur	-10.0388
ž	-10.0388
▁regissert	-10.0388
▁episode	-10.0388
▁mei	-10.0388
▁rolf	-10.0389
▁programmet	-10.039
▁75	-10.039
▁omtalt	-10.0392
▁bakgrunn	-10.0392
▁paa	-10.0392
▁pad	-10.0393
▁poeng	-10.0395
insk	-10.0397
blanding	-10.0398
utvikling	-10.0399
▁sikkerhets	-10.0402
▁dager	-10.0403
hor	-10.0416
redning	-10.0418
▁trener	-10.0419
▁dahl	-10.0423
hop	-10.043
▁delvis	-10.0435
▁server	-10.0435
▁palm	-10.0447
▁damp	-10.045
▁aas	-10.0451
▁museet	-10.0465
bach	-10.0465
institu	-10.0469
▁roger	-10.0469
mennene	-10.0482
▁tone	-10.0486
▁karriere	-10.0486
▁førte	-10.0499
▁valgte	-10.0501
▁1973	-10.0503
▁alexander	-10.0503
▁flyttet	-10.0503
▁streng	-10.0504
▁1964	-10.0505
▁teknologi	-10.0505
▁36	-10.0506
▁møtte	-10.0507
▁journalist	-10.0509
▁klubb	-10.0512
▁lengst	-10.0514
▁vakt	-10.0514
▁øyene	-10.0526
▁brenn	-10.054
▁kalk	-10.057
▁idrettslag	-10.0576
▁tettstedet	-10.0582
mmel	-10.0585
war	-10.0593
snegl	-10.0602
▁olavs	-10.0605
▁dur	-10.0606
▁slå	-10.0606
▁heller	-10.061
væ	-10.0614
ς	-10.0618
▁religion	-10.0619
▁kunnskap	-10.0619
▁dronning	-10.0619
▁dårlig	-10.062
▁syl	-10.062
▁khan	-10.0621
▁drept	-10.0622
▁masse	-10.0622
23	-10.0622
▁vik	-10.0622
▁osv	-10.0623
bevegelsen	-10.0626
▁flertall	-10.0627
betegnelse	-10.0628
▁folket	-10.0634
botn	-10.0636
pil	-10.0636
▁sit	-10.0637
row	-10.0649
tain	-10.065
▁normal	-10.0653
hev	-10.0665
▁bydelen	-10.0666
▁krets	-10.0674
materiale	-10.068
▁forvingen	-10.0687
▁mente	-10.0694
▁grøn	-10.0698
▁yi	-10.0698
▁sca	-10.0699
▁jam	-10.0703
olje	-10.0705
▁kraftige	-10.0709
▁bou	-10.0712
▁wall	-10.0713
▁kvar	-10.0714
▁iii	-10.072
arisk	-10.0733
▁intel	-10.0735
▁styrmann	-10.0736
▁tyrkisk	-10.0737
▁nevnt	-10.0741
▁hov	-10.0745
▁175	-10.0745
ward	-10.0763
▁mitt	-10.0763
▁mary	-10.0765
▁ytre	-10.077
minne	-10.0775
▁professor	-10.0777
konge	-10.078
▁støttet	-10.0782
▁autonome	-10.0782
▁møter	-10.0783
▁våren	-10.0783
syke	-10.0793
dagen	-10.0796
▁tog	-10.0797
▁55	-10.0797
bygningen	-10.0798
ál	-10.0806
vall	-10.081
tårnet	-10.0812
gram	-10.082
▁historiker	-10.0827
ugh	-10.0828
enburg	-10.0833
▁penge	-10.0833
▁terr	-10.0833
eira	-10.0838
▁personlig	-10.0838
▁stilling	-10.0838
mming	-10.0839
▁bin	-10.0842
▁bytte	-10.0846
▁master	-10.0849
▁forbi	-10.0853
▁observa	-10.0854
▁australia	-10.0856
▁1977	-10.0856
▁skjær	-10.0856
▁vulkan	-10.0858
prinsipp	-10.0859
forskjell	-10.0859
▁oscar	-10.086
▁verb	-10.0862
▁ridder	-10.0862
ła	-10.0863
▁sku	-10.0866
▁johansen	-10.0875
▁ligne	-10.088
▁opprør	-10.0881
hui	-10.0886
▁rod	-10.0889
tempelet	-10.0893
▁betjener	-10.0894
bøker	-10.0899
▁regel	-10.0908
22	-10.0909
▁hotell	-10.0915
▁small	-10.0917
▁hammer	-10.0921
▁ungdom	-10.0926
tårn	-10.0935
▁term	-10.094
▁medisin	-10.0941
▁inc	-10.0945
formasjon	-10.0946
▁normalt	-10.0951
vingen	-10.0958
▁jiang	-10.096
▁eie	-10.0966
kjent	-10.097
▁jin	-10.0972
▁kva	-10.0973
▁københavn	-10.0976
▁bokstav	-10.0976
▁sykehus	-10.0977
▁1969	-10.0979
uz	-10.0979
▁michel	-10.0986
▁kjøl	-10.0987
▁hjerne	-10.0988
▁alltid	-10.0989
▁fc	-10.0995
ōng	-10.0996
▁metro	-10.1
flåte	-10.1
▁begynner	-10.1006
▁grupper	-10.1012
▁dannes	-10.1013
31	-10.1015
▁høyere	-10.1023
lä	-10.1024
▁arkiv	-10.1027
▁raskt	-10.1027
bandet	-10.1042
bekk	-10.105
ander	-10.1051
▁koll	-10.1057
▁ray	-10.1063
▁meta	-10.1063
alitet	-10.1072
▁stab	-10.1076
▁gruve	-10.1076
jiang	-10.1082
strup	-10.1087
▁vass	-10.109
▁fødsel	-10.1098
▁opprinnelse	-10.1098
▁storbritannia	-10.1098
▁vingespenn	-10.1098
▁alkohol	-10.1098
▁drammen	-10.1098
▁sekund	-10.1099
▁college	-10.1101
▁forteller	-10.1101
bjørk	-10.1104
▁fortsette	-10.1105
▁37	-10.1106
▁jordbruk	-10.1106
olu	-10.1109
▁sum	-10.1112
▁gjenopp	-10.1113
ful	-10.1118
▁jeff	-10.1126
▁konkurranse	-10.1126
komite	-10.1127
▁bety	-10.1129
▁sørlig	-10.1143
▁kåre	-10.1147
▁starter	-10.1159
skift	-10.1159
måte	-10.1161
▁jar	-10.1162
▁verd	-10.1166
artist	-10.1167
▁mcc	-10.1168
▁tan	-10.1171
▁kristin	-10.1177
▁sterke	-10.1178
▁arve	-10.1179
▁hente	-10.1183
typen	-10.1185
▁slu	-10.1186
▁funn	-10.1189
▁britisk	-10.1203
▁ansvarlig	-10.1205
ь	-10.122
▁hverandre	-10.1221
▁spesiell	-10.1222
▁company	-10.1222
▁mekanisk	-10.1222
▁bonde	-10.1222
▁jakob	-10.1222
▁tegneserie	-10.1222
hastighet	-10.1223
▁himmel	-10.1223
▁golf	-10.1224
vakt	-10.1225
▁1950	-10.1226
▁grensen	-10.1227
▁bydistrikt	-10.1228
▁bibel	-10.1232
▁hvordan	-10.1233
▁kru	-10.1234
eksamen	-10.124
uld	-10.1242
▁krysser	-10.1243
▁kommunal	-10.1249
miljø	-10.1259
▁skifte	-10.1261
▁miste	-10.1261
ship	-10.1262
▁hunde	-10.1272
▁shu	-10.1274
▁300	-10.1276
▁river	-10.1286
29	-10.1291
▁ulv	-10.1294
▁wade	-10.1302
ра	-10.1308
skipet	-10.1311
studier	-10.1316
▁blokk	-10.1325
▁former	-10.1327
▁private	-10.1328
ва	-10.1339
▁sider	-10.1342
▁tilgjengelig	-10.1346
spørsmål	-10.1346
▁inspirert	-10.1346
▁yngre	-10.1347
kompleks	-10.1347
▁dobbelt	-10.1347
▁dverg	-10.1349
▁1965	-10.135
hydr	-10.1351
▁føde	-10.1351
▁internett	-10.1352
▁brown	-10.1359
ин	-10.1369
teori	-10.1371
▁aar	-10.138
▁ung	-10.1382
grå	-10.1384
▁prøve	-10.139
▁øre	-10.1391
▁republikken	-10.1392
▁spp	-10.1393
forsker	-10.1394
seth	-10.1396
▁nådd	-10.1405
▁skipet	-10.1405
▁tann	-10.1409
▁menn	-10.141
▁overflate	-10.1427
▁tyr	-10.1431
alisme	-10.1451
lønn	-10.1457
▁skinn	-10.1458
▁lønn	-10.1459
næring	-10.146
▁eb	-10.1463
▁seier	-10.147
▁bud	-10.1471
▁etterhvert	-10.1473
▁oversatt	-10.1473
▁mala	-10.1477
rekk	-10.1479
asso	-10.1482
▁lansert	-10.1484
▁niels	-10.1489
▁dvs	-10.149
▁bland	-10.1493
▁strid	-10.1494
plattform	-10.1494
▁våg	-10.1495
▁bestemt	-10.1495
▁kanskje	-10.1499
▁sara	-10.1499
▁einar	-10.1502
▁hundre	-10.1508
▁rosa	-10.1508
løv	-10.1509
▁kali	-10.151
▁dru	-10.1511
▁xu	-10.1513
tunnel	-10.152
uru	-10.1527
▁kjemi	-10.1527
▁peder	-10.1535
▁avslutte	-10.154
hagen	-10.1546
▁gitarist	-10.1546
konkurransen	-10.156
▁berømte	-10.1577
spenning	-10.1579
punktet	-10.1579
▁00	-10.158
▁bai	-10.1582
myr	-10.1586
▁rollen	-10.1586
▁psyko	-10.1586
løk	-10.1589
ł	-10.1594
▁stadig	-10.1596
▁vitenskapelig	-10.1596
▁hæren	-10.1597
▁etterfulgt	-10.1601
▁firmaet	-10.1601
▁objekt	-10.1601
▁für	-10.1602
▁1966	-10.1604
▁familiegruppen	-10.1604
▁tun	-10.1607
▁pedersen	-10.1608
▁motiv	-10.1608
▁ker	-10.1613
drakt	-10.1614
▁utga	-10.1616
▁snakke	-10.1618
kontroll	-10.1618
▁oh	-10.1622
pul	-10.1626
▁petter	-10.1629
▁persisk	-10.163
dok	-10.1632
renn	-10.1632
▁vig	-10.1633
▁bodde	-10.1636
āng	-10.1642
▁befolkning	-10.1645
▁rec	-10.1648
▁korn	-10.1648
møte	-10.1658
▁165	-10.1663
voks	-10.1668
▁pont	-10.1673
▁lau	-10.1673
▁fjellet	-10.1677
▁larsen	-10.1678
▁vokser	-10.1686
stone	-10.1691
▁slått	-10.1695
▁grov	-10.1696
▁kjemisk	-10.1697
chel	-10.1699
▁frihet	-10.1702
▁nevne	-10.1709
▁arc	-10.1712
ч	-10.1729
▁suksess	-10.1731
kandidat	-10.1732
▁fokus	-10.1732
▁andré	-10.1732
▁qū	-10.1733
▁dialekt	-10.1734
▁handling	-10.1736
▁viklere	-10.1741
▁vanligste	-10.1742
▁kau	-10.1744
▁marg	-10.175
prest	-10.1757
▁sukker	-10.1759
plikt	-10.1761
data	-10.1763
▁populære	-10.1768
▁kjær	-10.1768
▁lim	-10.1769
ordning	-10.1773
tysk	-10.1774
ев	-10.1781
▁markert	-10.1789
sønn	-10.179
runde	-10.1794
▁øverste	-10.18
▁who	-10.1805
vang	-10.1807
domstol	-10.1809
▁funnet	-10.1812
iserer	-10.1823
brua	-10.1827
fyr	-10.1827
▁42	-10.1841
bukta	-10.1848
▁vent	-10.1849
galleri	-10.1853
fortelling	-10.1861
▁noctuidae	-10.1863
▁tortricidae	-10.1863
▁1962	-10.1863
▁ytterligere	-10.1863
▁reference	-10.1863
▁betrakte	-10.1863
▁svømme	-10.1863
▁stavanger	-10.1865
stemt	-10.1865
▁1974	-10.1865
▁frei	-10.1866
▁skotsk	-10.1866
▁solgte	-10.1868
▁antonio	-10.187
▁passerer	-10.1871
▁magnet	-10.1892
▁tynn	-10.1893
▁prof	-10.1893
àn	-10.1897
horn	-10.1901
▁samarbeidet	-10.1904
soldat	-10.1909
▁institut	-10.1911
medisin	-10.1914
▁skapte	-10.192
museet	-10.1921
▁evan	-10.1924
▁akk	-10.1928
aux	-10.1929
▁arg	-10.1936
kjede	-10.1937
▁64	-10.1937
▁wang	-10.1957
▁offisiel	-10.1958
▁listen	-10.1961
▁storm	-10.1973
▁chan	-10.1976
ington	-10.1978
finalen	-10.1984
▁bulgarsk	-10.1996
▁sovjetunionen	-10.1996
▁utnevnt	-10.1996
▁fiolin	-10.1996
▁insekt	-10.1997
▁efter	-10.1997
▁omfattende	-10.1999
▁1967	-10.1999
▁håkon	-10.1999
ional	-10.2004
▁bh	-10.2008
▁krim	-10.2014
▁sammenheng	-10.2017
strakt	-10.2019
bille	-10.202
▁arkitektur	-10.202
▁trond	-10.2022
kysten	-10.2032
▁atom	-10.2033
▁nei	-10.2034
▁rel	-10.2036
▁your	-10.2049
sentre	-10.2055
▁nivå	-10.2056
▁kvalitet	-10.2075
rock	-10.2079
▁netto	-10.208
▁wood	-10.2084
ferdig	-10.2085
plate	-10.2088
▁antenne	-10.2089
▁hevde	-10.209
søkte	-10.2092
▁kyr	-10.2094
▁bakkroppen	-10.2094
årig	-10.2095
▁carlo	-10.2095
▁åpne	-10.2101
makt	-10.2103
▁life	-10.2108
gass	-10.2118
▁ingeniør	-10.2123
rip	-10.2128
▁symptom	-10.2131
▁olympisk	-10.2131
▁moskva	-10.2131
▁pasient	-10.2131
▁mw	-10.2133
▁1963	-10.2134
▁inndelt	-10.2134
▁mytologi	-10.2137
▁uttalt	-10.214
▁rub	-10.2141
flat	-10.2141
▁økonomi	-10.2142
▁good	-10.216
▁sikte	-10.2162
▁krok	-10.2171
▁singel	-10.2177
▁sideelv	-10.218
tveit	-10.2184
folket	-10.2187
wood	-10.2189
▁ott	-10.2194
vard	-10.2197
maker	-10.2204
▁brem	-10.221
hunder	-10.2215
▁kammer	-10.2222
▁samisk	-10.2227
▁utvikler	-10.2228
▁skar	-10.2229
▁lån	-10.2232
▁lake	-10.2237
▁bag	-10.2246
▁havet	-10.2254
▁regional	-10.2254
▁bygda	-10.2262
▁nak	-10.2262
▁histori	-10.2262
ía	-10.2265
▁dekkvingene	-10.2268
▁kjøtt	-10.2268
kommisjon	-10.2269
▁sykkel	-10.227
▁1945	-10.227
mønster	-10.227
kommando	-10.2271
▁debuterte	-10.2272
▁ishockey	-10.2272
▁back	-10.2274
▁gli	-10.2283
psykologi	-10.2284
▁ferr	-10.2288
▁prins	-10.2291
▁filosofi	-10.2294
▁slaget	-10.2296
blomsterflue	-10.2296
▁butikk	-10.2298
▁tråd	-10.23
▁archi	-10.2307
▁struktur	-10.231
▁svein	-10.231
▁salg	-10.2314
▁koloni	-10.2315
sdatter	-10.2315
▁cup	-10.2315
▁kaller	-10.2316
▁malm	-10.2318
▁foreningen	-10.2323
▁bånd	-10.2325
▁øke	-10.2329
▁nedre	-10.2339
burn	-10.2341
▁nordlige	-10.2342
gjort	-10.2352
▁innhold	-10.236
range	-10.2366
stasjonen	-10.2371
▁thom	-10.2373
lidelse	-10.2379
▁orient	-10.2398
▁tolv	-10.2406
▁hebraisk	-10.2407
▁sjelden	-10.2407
▁nikola	-10.2407
▁major	-10.2408
▁tømmer	-10.2409
▁håndball	-10.241
▁sverre	-10.2411
stipend	-10.2411
▁manus	-10.2412
uba	-10.2413
blikk	-10.2417
▁aksje	-10.2422
▁ansatte	-10.2426
áng	-10.2429
▁skyldes	-10.2429
▁historien	-10.243
ridge	-10.2443
felle	-10.2444
▁kg	-10.2447
▁edi	-10.2451
aire	-10.2461
▁tusen	-10.2464
▁komme	-10.2466
tallet	-10.2466
▁korea	-10.2469
fan	-10.2477
hjem	-10.2478
avgift	-10.2483
▁ledes	-10.2483
▁alm	-10.2492
spiss	-10.2495
▁120	-10.2496
▁torg	-10.2496
▁spillet	-10.2499
▁vend	-10.2505
tropp	-10.2507
▁dio	-10.251
kål	-10.2518
▁kapp	-10.2528
▁institutt	-10.2537
stav	-10.254
▁introdusert	-10.2548
▁sistnevnte	-10.2548
▁deutsche	-10.2548
▁yrkes	-10.2548
▁østerrike	-10.2548
▁arthur	-10.2548
▁innspilling	-10.2548
▁hertug	-10.2548
▁prim	-10.2549
▁edward	-10.255
▁parallel	-10.255
▁1940	-10.2551
▁drikke	-10.256
▁tø	-10.2562
mesterskapet	-10.2567
tilbud	-10.2568
▁straffe	-10.2569
▁oversettelse	-10.2571
▁schi	-10.2577
▁gress	-10.2578
▁ankom	-10.258
▁ernst	-10.2585
▁show	-10.2585
▁filosof	-10.2591
administrasjon	-10.2598
▁morgen	-10.26
▁utvalg	-10.2603
vu	-10.2612
▁smak	-10.2614
▁clo	-10.2615
hjelp	-10.2616
▁kanalen	-10.262
▁trø	-10.2625
▁big	-10.2637
▁advokat	-10.2637
print	-10.2661
wick	-10.2663
▁østlig	-10.2665
teater	-10.2667
▁utover	-10.2683
zhi	-10.269
▁wol	-10.269
▁arrangert	-10.2691
▁trøndelag	-10.2691
▁fengsel	-10.2691
▁kaptein	-10.2691
▁fiktiv	-10.2691
▁forårsake	-10.2692
▁musikkalbum	-10.2693
▁finnmark	-10.2695
▁bevart	-10.2697
faktor	-10.27
▁jarl	-10.2704
endring	-10.2723
▁pensjon	-10.2726
▁01	-10.2731
kryp	-10.2732
▁fotballklubb	-10.2736
element	-10.2738
▁fol	-10.2763
▁bispedømme	-10.2772
▁lenge	-10.2781
▁platen	-10.2782
▁proto	-10.2788
▁gaten	-10.2798
▁ekstra	-10.2802
▁grunnlegger	-10.2804
jønn	-10.2805
▁hk	-10.2805
turnering	-10.2806
høgskole	-10.2807
▁medisinsk	-10.2827
▁beat	-10.283
▁behold	-10.2835
▁positiv	-10.2836
▁1971	-10.2836
▁katolsk	-10.2836
▁komponert	-10.2836
▁cirka	-10.2836
▁således	-10.2836
forsikring	-10.2836
blom	-10.2837
▁sentralbank	-10.2838
▁1939	-10.2839
▁1900	-10.2846
▁legend	-10.2851
fabrik	-10.2855
▁utnytte	-10.2856
▁carol	-10.2861
▁forlot	-10.2866
▁kreft	-10.287
▁ettersom	-10.288
▁bidrag	-10.288
▁innført	-10.2886
bury	-10.2891
cca	-10.2892
slått	-10.2894
isse	-10.2895
▁finale	-10.2896
▁kommun	-10.2897
▁vokste	-10.2902
▁posisjon	-10.2904
▁plast	-10.2904
posisjon	-10.2912
generasjon	-10.2932
▁qa	-10.2933
▁offiser	-10.2935
ен	-10.2951
▁signal	-10.2963
▁verneområde	-10.2971
▁prosjektet	-10.2972
▁kast	-10.2973
bestod	-10.2974
▁pels	-10.2978
▁undervisning	-10.2978
▁øker	-10.2981
▁lenger	-10.2982
х	-10.2983
▁varaordfører	-10.2983
▁shanghai	-10.2983
▁regissør	-10.2983
▁forholdsvis	-10.2983
▁kjærlighet	-10.2984
▁kontakt	-10.2984
▁angripe	-10.2985
▁vingene	-10.2985
▁vanskelig	-10.2986
▁mineral	-10.2986
▁stortings	-10.2986
▁forsvaret	-10.2986
politisk	-10.2987
▁sæ	-10.2988
masse	-10.2991
▁diesel	-10.2994
▁allmenn	-10.2996
▁nederland	-10.3014
mission	-10.3025
lista	-10.3027
▁organisert	-10.3029
▁piano	-10.3033
▁hin	-10.3033
▁typen	-10.3039
▁arv	-10.3042
▁viking	-10.3043
▁undersøkelse	-10.3047
aften	-10.3054
▁gott	-10.3054
▁politiet	-10.3063
regionen	-10.3067
▁landsby	-10.3073
▁white	-10.3073
▁spin	-10.3085
▁hö	-10.3094
▁sveits	-10.3106
▁pyr	-10.3107
ulær	-10.3112
▁gile	-10.3115
▁tour	-10.3123
▁gabriel	-10.3132
▁beijing	-10.3132
▁vunnet	-10.3132
▁alvorlig	-10.3132
▁debutalbum	-10.3132
▁videregående	-10.3135
▁telefon	-10.3136
terminal	-10.3137
alistisk	-10.3137
▁rov	-10.314
format	-10.3142
▁amerika	-10.3144
▁franz	-10.3145
▁vestlig	-10.3162
krig	-10.3168
▁guang	-10.3169
▁måne	-10.317
▁statlig	-10.3171
anlegget	-10.318
▁rib	-10.3183
▁rask	-10.3195
litt	-10.3197
▁bull	-10.3198
▁francis	-10.3203
▁liber	-10.3203
▁selge	-10.3219
zel	-10.322
grønn	-10.322
ection	-10.3229
▁nordland	-10.3231
para	-10.3233
▁lunge	-10.3233
▁begrep	-10.3235
leir	-10.3243
setting	-10.3247
grensen	-10.3251
▁155	-10.3256
▁tonn	-10.3263
kammer	-10.3263
▁hypo	-10.3265
forvaltning	-10.3276
▁sjeldne	-10.3283
▁skulptur	-10.3283
▁århundre	-10.3283
▁fysisk	-10.3284
▁batteri	-10.3284
komité	-10.3284
▁redusere	-10.3284
▁1928	-10.3286
▁1918	-10.3287
forestilling	-10.3295
▁terje	-10.3297
▁reaksjon	-10.3302
▁kontra	-10.3307
legging	-10.3309
▁oppdrag	-10.3314
▁luci	-10.3315
▁jonas	-10.3325
▁jøde	-10.3347
drev	-10.3365
▁rap	-10.3371
▁brei	-10.3371
tittel	-10.3384
ан	-10.3395
▁tab	-10.3403
reise	-10.3416
▁shar	-10.3422
▁corporation	-10.3437
▁religiøs	-10.3437
▁1956	-10.3437
▁1953	-10.3437
▁generelt	-10.3437
▁redusert	-10.3438
▁etterfølger	-10.3438
ль	-10.3439
▁adresse	-10.3439
▁då	-10.3441
▁1920	-10.3442
▁saga	-10.3449
kostnad	-10.3449
ни	-10.345
▁fritt	-10.345
▁kit	-10.3457
▁grønland	-10.3475
▁mølle	-10.3489
▁seine	-10.3493
▁bære	-10.35
▁alfa	-10.3506
▁sex	-10.3519
▁lord	-10.3519
▁kno	-10.3542
▁munk	-10.3544
▁bow	-10.3552
▁kongelig	-10.3562
▁laks	-10.3564
▁karbon	-10.3569
▁svar	-10.3572
elius	-10.358
høyskole	-10.3583
▁molde	-10.3583
▁tilstand	-10.3584
▁portrett	-10.3592
▁provinshovedsta	-10.3594
▁revolusjon	-10.3594
konstruksjon	-10.3594
▁færøyene	-10.3594
▁ekstrem	-10.3594
▁tabellen	-10.3594
▁nærmere	-10.3595
▁protein	-10.3595
▁energy	-10.3596
▁1958	-10.3596
▁tilsvarer	-10.3597
▁hev	-10.3603
ruten	-10.3605
▁town	-10.3606
▁veldig	-10.3611
▁nobel	-10.3613
bind	-10.3623
▁sesong	-10.3635
komedie	-10.3635
▁inneha	-10.3644
▁82	-10.3667
▁sovjetisk	-10.3686
klasse	-10.3701
▁tempel	-10.3702
▁alban	-10.3707
ador	-10.3722
gudinne	-10.3731
▁elisabeth	-10.3752
▁utgjorde	-10.3752
▁1959	-10.3752
▁henholdsvi	-10.3752
▁1952	-10.3752
▁jødisk	-10.3753
▁regulere	-10.3753
▁avhandling	-10.3753
▁studioalbum	-10.3753
▁elektronisk	-10.3754
▁1946	-10.3755
▁52	-10.3756
▁lengre	-10.3758
▁dong	-10.3759
▁oppnå	-10.3762
▁jud	-10.377
▁effektiv	-10.3771
▁barnehage	-10.3775
▁palass	-10.378
stell	-10.3784
▁silke	-10.3795
ле	-10.3806
cent	-10.381
stokk	-10.381
▁kommunist	-10.3814
næs	-10.3815
▁tradisjonel	-10.3816
▁spillerne	-10.3826
visning	-10.3827
rico	-10.3829
▁sterk	-10.3831
▁glu	-10.3844
▁sankt	-10.3853
itsj	-10.3856
▁bosetning	-10.3858
kanalen	-10.3864
▁egil	-10.3871
▁sats	-10.3872
arkiv	-10.3879
▁tell	-10.3885
▁sign	-10.3891
▁mega	-10.3899
jå	-10.3909
▁1957	-10.3914
▁millimeter	-10.3914
▁selvstendig	-10.3914
▁edvard	-10.3916
▁1955	-10.3916
▁what	-10.3916
brønn	-10.3916
▁isbn	-10.3916
▁fjellkjede	-10.3916
▁ekteskap	-10.3917
▁komposisjon	-10.3918
▁skjedde	-10.3918
▁befinne	-10.3919
▁røyk	-10.3922
▁ukjent	-10.3926
▁oberst	-10.3928
▁vegg	-10.3932
▁fremført	-10.3935
▁walk	-10.3942
▁84	-10.3953
lung	-10.3955
▁grunnlegge	-10.396
owski	-10.3968
▁tidsskriftet	-10.3979
▁heli	-10.398
▁nasjon	-10.3987
ка	-10.3992
rib	-10.3994
ки	-10.3997
▁600	-10.4014
▁tykk	-10.402
struktur	-10.4028
▁utenriks	-10.4031
profil	-10.404
sikkerhet	-10.4058
▁140	-10.4064
▁jia	-10.4077
eksperiment	-10.4078
▁association	-10.4078
▁erklært	-10.4078
▁giovann	-10.4078
▁thailand	-10.4078
▁naturreservat	-10.4078
veksling	-10.4078
▁hvilke	-10.4078
▁tropisk	-10.408
▁bakterie	-10.408
▁øyne	-10.4083
▁eksport	-10.4089
▁nicol	-10.4089
bebyggelse	-10.4094
serie	-10.4095
▁sikre	-10.4103
agua	-10.4111
▁saf	-10.4113
▁walter	-10.4123
recht	-10.4124
fred	-10.4125
bredde	-10.414
▁geit	-10.4154
▁utløp	-10.4159
▁hyper	-10.4178
▁snu	-10.4181
▁rig	-10.4183
▁irland	-10.4185
problem	-10.4196
frukt	-10.4196
▁wild	-10.4214
▁dyrke	-10.424
▁salme	-10.424
▁høg	-10.4243
▁utgangspunkt	-10.4244
▁1961	-10.4244
▁utbredt	-10.4244
▁registrert	-10.4244
kapasitet	-10.4244
▁adolf	-10.4244
▁1937	-10.4247
▁gråbrun	-10.4247
▁1919	-10.4247
kritiker	-10.4247
▁hovedkvarter	-10.4248
▁programleder	-10.4248
▁kvalifiser	-10.4252
▁snart	-10.4252
ск	-10.4255
▁corp	-10.4256
▁grim	-10.4257
▁landsforening	-10.4257
▁down	-10.4259
▁liberal	-10.4259
▁street	-10.4262
▁skjell	-10.4264
wich	-10.427
kledt	-10.4274
fysikk	-10.4275
▁sound	-10.4276
▁sym	-10.4279
▁57	-10.4282
▁län	-10.4282
▁karakteristisk	-10.4284
▁mynt	-10.4286
▁left	-10.43
distanse	-10.4306
▁oppleve	-10.4317
back	-10.4326
▁status	-10.4335
▁høst	-10.4337
▁forstå	-10.4339
▁skarp	-10.4344
odden	-10.4348
▁henri	-10.4355
▁hjemmebane	-10.4363
▁bratt	-10.4364
rente	-10.4369
▁rulle	-10.4374
avtale	-10.4375
▁skyld	-10.4397
ætt	-10.4398
utvalget	-10.4402
▁femte	-10.4409
▁trommeslager	-10.4414
▁1942	-10.4414
▁science	-10.4414
▁systematikk	-10.4414
▁airlines	-10.4414
▁unntak	-10.4414
strekningen	-10.4414
konferanse	-10.4414
▁fattig	-10.4414
▁fuktig	-10.4416
▁1914	-10.4416
▁1930	-10.4418
▁debut	-10.4422
▁nedlagt	-10.4428
▁hersker	-10.4428
▁slave	-10.4436
dommer	-10.445
▁utkom	-10.4459
dyktig	-10.4466
møll	-10.4476
▁skall	-10.4481
ario	-10.4502
ла	-10.4515
▁strekk	-10.4528
▁vet	-10.4534
amerikanske	-10.4544
provins	-10.4544
▁má	-10.4546
▁tromsø	-10.4552
▁lamb	-10.456
blank	-10.4563
▁alpin	-10.4566
følgende	-10.4585
▁arrangement	-10.4586
▁orchestra	-10.4586
▁tsjekkisk	-10.4586
▁public	-10.4586
opplæring	-10.4586
▁ludvig	-10.4586
▁antarktis	-10.4586
molekyl	-10.4586
▁skildre	-10.4587
kompetanse	-10.4587
turbin	-10.4587
stråling	-10.4587
institusjoner	-10.4587
▁1926	-10.4588
▁1948	-10.459
▁fotballspiller	-10.4591
▁detalj	-10.4593
▁pierre	-10.4598
▁kvinnelige	-10.46
▁knud	-10.4601
▁kjørt	-10.4615
▁angi	-10.4615
▁eriksen	-10.4616
▁1000	-10.4634
▁ørn	-10.4635
▁junior	-10.464
▁trenings	-10.4641
▁falk	-10.4643
▁hytte	-10.4651
▁johnson	-10.4652
▁oval	-10.4653
katalog	-10.4655
▁rid	-10.4658
kompani	-10.4663
▁norman	-10.4666
▁handle	-10.4671
hra	-10.4673
gjenger	-10.4679
kreft	-10.4682
forsyning	-10.469
▁plateselskap	-10.4691
▁frå	-10.4696
▁kval	-10.4697
▁victor	-10.4697
landslag	-10.4699
speil	-10.472
direktør	-10.4722
effekt	-10.4725
front	-10.473
dekket	-10.4739
ndra	-10.4749
▁publikum	-10.4762
▁windows	-10.4762
▁1941	-10.4762
▁senior	-10.4762
▁brenselstype	-10.4763
▁nærheten	-10.4767
▁lokalisert	-10.4771
traff	-10.4772
▁sverd	-10.4773
▁olaf	-10.4773
situasjon	-10.4777
▁77	-10.478
▁visse	-10.4782
rapport	-10.4786
▁right	-10.4792
▁forbinde	-10.4807
skyting	-10.481
skjoldet	-10.4814
▁antennene	-10.4822
▁audi	-10.4832
▁neger	-10.4837
▁victoria	-10.4843
▁philipp	-10.4851
▁modern	-10.4851
▁bassist	-10.4856
ló	-10.4856
vatn	-10.487
▁homo	-10.4888
▁schu	-10.4897
▁markere	-10.4902
akademi	-10.4904
instrument	-10.4904
strømmen	-10.4927
▁ovenfor	-10.494
▁krevde	-10.494
▁tvilling	-10.494
▁people	-10.494
▁ansikt	-10.494
▁symfoni	-10.494
▁nemlig	-10.494
▁begynnelsen	-10.4941
▁definert	-10.4941
▁kriminal	-10.4941
▁datamaskin	-10.4943
worth	-10.4943
rettigheter	-10.4944
▁nyhets	-10.4944
▁definere	-10.4945
▁stefan	-10.4946
▁francisco	-10.4946
▁hemmelig	-10.4947
ressurs	-10.4956
▁ungdomsskole	-10.4958
▁ferge	-10.4962
▁operere	-10.4968
▁smør	-10.4972
▁feire	-10.4974
▁jä	-10.4975
▁light	-10.4976
▁terror	-10.4978
▁young	-10.4982
invest	-10.502
▁øverst	-10.5026
▁aero	-10.5026
▁hovedrollen	-10.5027
▁spenn	-10.5029
skab	-10.5035
▁flyge	-10.5042
versjon	-10.5052
▁110	-10.5064
skade	-10.5065
▁metode	-10.5085
stue	-10.5089
transport	-10.509
▁slette	-10.509
▁gross	-10.5091
døgn	-10.5096
ар	-10.5098
tekst	-10.5103
▁ulik	-10.5103
▁regjer	-10.5104
▁aleksandr	-10.5122
▁1932	-10.5122
▁1951	-10.5122
▁oversikt	-10.5122
▁utdype	-10.5123
▁innskriften	-10.5123
▁1924	-10.5124
▁anvende	-10.5125
fenomen	-10.5126
▁protest	-10.5128
▁verdenskrig	-10.513
▁beregne	-10.5133
stråle	-10.5138
▁upp	-10.514
▁rednings	-10.5144
▁reserve	-10.5145
▁spring	-10.5147
▁innsjø	-10.5154
▁lavere	-10.5156
stigning	-10.5157
▁night	-10.5159
▁mulighet	-10.5164
▁panser	-10.5169
sidig	-10.5171
blå	-10.5171
ма	-10.5172
▁little	-10.5182
▁qing	-10.5192
svarte	-10.5206
▁låten	-10.5207
▁skyte	-10.525
ã	-10.5268
▁125	-10.5268
rommet	-10.5278
dynastiet	-10.5278
behandling	-10.5278
hånd	-10.5278
▁keyboard	-10.5307
▁opplagstall	-10.5307
▁1954	-10.5307
▁kombinasjon	-10.5307
▁church	-10.5307
sekvens	-10.5308
▁doktorgrad	-10.5308
▁innsats	-10.5308
▁kveld	-10.5309
▁øyvin	-10.5309
▁1933	-10.531
▁skjønn	-10.5312
▁telemark	-10.5313
▁styreleder	-10.5314
▁egypt	-10.5318
▁hovedkontor	-10.532
▁sammenligne	-10.5323
▁redd	-10.5324
▁bjerk	-10.5326
▁german	-10.5335
▁sandvik	-10.5338
time	-10.5341
rykket	-10.5343
▁tilpasse	-10.5345
▁troms	-10.5357
▁utdannelse	-10.5361
▁forbunds	-10.5361
▁agder	-10.5362
kjøring	-10.5362
▁barokk	-10.5374
▁call	-10.5376
jong	-10.538
pakke	-10.5397
▁forkortelse	-10.5417
▁musik	-10.5432
▁årsak	-10.544
▁arena	-10.5456
▁opprette	-10.5457
design	-10.5469
▁kø	-10.547
▁arab	-10.5472
kost	-10.5474
▁05	-10.5479
kunstner	-10.5485
▁brødrene	-10.5496
▁kollektiv	-10.5496
▁gymnas	-10.5496
▁mediebedrifte	-10.5496
▁ukraina	-10.5496
admiral	-10.5496
▁jacque	-10.5496
▁skottland	-10.5496
▁abraham	-10.5496
▁linux	-10.5496
▁heavy	-10.5496
▁geometr	-10.5496
▁valuta	-10.5497
▁arendal	-10.5498
▁skøyte	-10.5498
▁1935	-10.5499
▁1908	-10.55
▁brasil	-10.5501
bukk	-10.5509
▁samuel	-10.551
straße	-10.5511
▁luther	-10.5519
brand	-10.5524
▁vul	-10.5536
▁skuld	-10.5538
▁grund	-10.5548
▁sovjet	-10.5575
та	-10.558
▁frp	-10.5583
▁lykke	-10.5592
▁tidsskrift	-10.5613
▁bidra	-10.5651
▁font	-10.5658
løytnant	-10.5688
▁research	-10.5688
▁electric	-10.5688
▁ludwig	-10.5688
▁konkurrere	-10.5688
▁mexico	-10.5688
▁wid	-10.5688
vassdraget	-10.5688
▁fremstille	-10.5689
▁risiko	-10.569
▁sosiolog	-10.5691
▁stryk	-10.5692
▁spania	-10.5693
▁soldater	-10.5694
terapi	-10.5694
trukket	-10.5694
▁betong	-10.5696
▁programvare	-10.5696
▁nordsamisk	-10.5702
▁maritim	-10.5708
▁herbert	-10.5712
▁great	-10.5734
▁barneskole	-10.5738
jørn	-10.5748
familie	-10.5758
▁book	-10.5758
▁bö	-10.5759
styrken	-10.5761
▁klippe	-10.5786
▁musikalsk	-10.5805
▁signert	-10.5825
▁130	-10.5844
▁vekk	-10.5851
edderkopp	-10.5867
sykdom	-10.587
▁australsk	-10.5884
▁country	-10.5884
▁forøvrig	-10.5884
▁eventuel	-10.5884
▁tolkien	-10.5884
disiplin	-10.5884
▁sanskrit	-10.5884
førsel	-10.5884
▁alexandr	-10.5885
▁væske	-10.5885
komponent	-10.5886
▁central	-10.5886
▁1929	-10.5886
▁1936	-10.5887
▁godkjent	-10.5887
▁stiftelsen	-10.5887
▁nettsted	-10.5888
▁1947	-10.5888
▁novell	-10.5889
sjanger	-10.5893
▁forvaltnings	-10.5894
▁death	-10.5896
▁skytter	-10.5897
▁hitler	-10.5901
▁rapporter	-10.5901
strøk	-10.5902
▁onkel	-10.5905
▁skilt	-10.5907
▁ltd	-10.5909
▁forsterke	-10.591
▁knytte	-10.5911
▁alex	-10.5915
▁cross	-10.5918
hausen	-10.5924
▁domini	-10.5931
høyden	-10.5932
▁autonom	-10.6008
▁lill	-10.601
▁sender	-10.6011
▁flø	-10.6027
▁aksel	-10.6036
▁700	-10.6061
000	-10.6069
▁fyll	-10.6071
▁grei	-10.6071
▁egyptisk	-10.6072
▁skapt	-10.6075
▁jomfru	-10.6084
▁münchen	-10.6084
▁fullstendig	-10.6084
▁unicode	-10.6084
▁foregår	-10.6084
▁nedbør	-10.6084
▁zhang	-10.6085
▁josef	-10.6085
▁stortinget	-10.6085
▁1931	-10.6087
▁1938	-10.6087
▁tildeles	-10.6088
kvartett	-10.6088
▁2018	-10.6091
▁avledet	-10.6091
apparat	-10.6092
▁viktor	-10.6093
butikk	-10.6094
▁sebastian	-10.6094
▁nepal	-10.6095
vandring	-10.6096
▁jackson	-10.6098
▁besetning	-10.6101
▁likhet	-10.6118
▁cel	-10.612
relatert	-10.6124
▁heart	-10.6124
▁colli	-10.6126
løype	-10.6135
skaja	-10.6147
▁dance	-10.6155
stua	-10.6183
fallende	-10.6218
▁mette	-10.6233
izhi	-10.625
▁terreng	-10.6251
▁social	-10.6253
▁urban	-10.6276
resultat	-10.6279
aktivitet	-10.6284
▁aleksander	-10.6288
▁valgdeltakelse	-10.6288
▁dirigent	-10.6288
▁guvernør	-10.6288
▁1934	-10.6288
▁vilhelm	-10.6288
▁artilleri	-10.6288
▁utmerkelse	-10.6289
regulering	-10.6289
▁kobber	-10.6289
▁lewis	-10.6289
▁finskspråklig	-10.629
▁lukke	-10.6291
▁koreansk	-10.6292
▁kritikk	-10.6292
melding	-10.6292
▁1912	-10.6292
▁1944	-10.6292
bestemmelse	-10.6296
▁work	-10.6296
▁pettersen	-10.6299
orientert	-10.6304
▁partner	-10.6304
▁pepper	-10.6307
ière	-10.6312
▁plantefamilie	-10.6314
▁donau	-10.6315
▁orgel	-10.6322
▁menneskelig	-10.6328
▁plassering	-10.633
tvedt	-10.6332
▁skule	-10.6333
▁omhandle	-10.634
▁henning	-10.6343
støtte	-10.6344
▁trekant	-10.6346
▁disc	-10.6351
нов	-10.6358
grunnlag	-10.6365
▁variert	-10.6381
politi	-10.6392
▁etasje	-10.6393
▁philip	-10.6394
stikke	-10.6413
▁fish	-10.6414
ри	-10.6417
▁fuji	-10.6424
▁islandsk	-10.6435
▁wolf	-10.6444
hockey	-10.6491
setningen	-10.6494
teknologi	-10.6494
konsert	-10.6496
▁innflytelse	-10.6496
▁beseiret	-10.6497
▁restaurant	-10.6497
▁vedlikehold	-10.6497
▁vladimir	-10.6497
▁1906	-10.6497
▁beslektet	-10.6497
▁francesco	-10.6497
▁support	-10.6497
▁konsept	-10.6497
▁reklame	-10.6497
▁byfylke	-10.6497
▁prince	-10.6497
▁kristiansand	-10.6497
▁kommersiell	-10.6497
▁grün	-10.6498
▁kjøpmann	-10.6499
▁global	-10.6499
title	-10.6499
▁oppgaver	-10.6505
▁kaffe	-10.6506
▁arrest	-10.6519
▁frekvens	-10.6538
lengde	-10.6539
skår	-10.6548
▁katte	-10.6611
brett	-10.6665
kirche	-10.6683
stått	-10.6688
ated	-10.6692
▁kommunistisk	-10.6697
divisjon	-10.6709
▁mountain	-10.6709
▁virginia	-10.6709
sykepleie	-10.6709
betennelse	-10.671
grunnsstasjon	-10.671
▁ungarsk	-10.671
▁egenskaper	-10.671
▁negativ	-10.671
▁originaltittel	-10.671
▁serbisk	-10.671
▁praktisk	-10.671
representant	-10.6712
▁1925	-10.6713
▁redaksjon	-10.6713
tolkning	-10.6716
▁generell	-10.6718
bjørg	-10.6719
▁høyesterett	-10.6724
protokoll	-10.6727
▁filip	-10.6728
▁forvalte	-10.6735
▁utvikle	-10.674
▁jernbanestasjon	-10.6743
▁sveitsisk	-10.6748
▁manuel	-10.6757
▁athen	-10.6769
▁alpinist	-10.6772
kjemi	-10.6776
nettverk	-10.6786
smykke	-10.6787
▁hjemmeside	-10.6796
▁inneholde	-10.682
▁innerst	-10.6824
▁ytterst	-10.6829
▁skjold	-10.683
▁nerve	-10.6832
slutt	-10.6859
▁kirkegård	-10.6864
terrier	-10.6873
▁israelsk	-10.6874
forretning	-10.692
▁diplomat	-10.6927
▁petroleum	-10.6927
▁initiativ	-10.6927
konsulent	-10.6927
▁pradesh	-10.6927
▁kombinert	-10.6927
▁county	-10.6927
▁søvn	-10.6927
▁monroe	-10.6929
▁nkp	-10.6929
▁tørke	-10.693
▁communi	-10.693
▁fungert	-10.693
▁sophi	-10.693
▁import	-10.6931
redaktør	-10.6931
orkester	-10.6932
järvi	-10.6932
▁planlagt	-10.6936
▁1910	-10.6937
programmet	-10.6937
▁slange	-10.6946
▁vandre	-10.6948
seminar	-10.695
▁first	-10.6952
konsern	-10.6955
▁klatre	-10.6956
▁hvile	-10.6964
▁etappe	-10.6966
hytta	-10.6991
▁quart	-10.6999
knapp	-10.7004
▁endelig	-10.7032
bevegelse	-10.7048
artikkel	-10.7062
▁hotel	-10.7067
tilstand	-10.7077
▁musikal	-10.709
▁forskjellig	-10.7099
takelse	-10.71
quist	-10.713
▁nødvendig	-10.7149
▁undergrunnsbane	-10.7149
▁1949	-10.7149
▁krydder	-10.7149
▁innebærer	-10.7149
leksikon	-10.7149
▁søndag	-10.7149
▁essay	-10.715
▁margaret	-10.715
▁bodø	-10.715
▁frivillig	-10.7151
▁style	-10.7155
▁foretrekke	-10.7156
▁fullført	-10.7157
bringe	-10.7157
▁stadium	-10.7157
▁barndom	-10.7158
▁forlenge	-10.7159
▁bidro	-10.716
▁øystein	-10.7161
▁spesifik	-10.7163
▁bridge	-10.7165
älven	-10.7166
▁grunnlaget	-10.7167
▁dream	-10.7167
▁jacobsen	-10.7167
svermer	-10.7194
registre	-10.7198
sentrum	-10.7207
vitenskapelig	-10.7214
▁poll	-10.7233
kjerne	-10.7243
▁dukke	-10.7324
▁automat	-10.734
▁barcelona	-10.7376
▁favoritt	-10.7376
▁portugisisk	-10.7376
▁unntatt	-10.7376
▁seremoni	-10.7376
▁bryggeri	-10.7376
▁colombia	-10.7376
▁juridisk	-10.7376
▁leonard	-10.7376
▁ingrid	-10.7377
leverandør	-10.7377
▁kritisert	-10.7378
▁marcus	-10.7379
▁1923	-10.7379
▁akutt	-10.7379
▁1927	-10.738
▁borgermester	-10.738
▁1917	-10.7381
enøst	-10.7381
▁bygninger	-10.7386
børste	-10.7386
gjær	-10.7387
▁hydrogen	-10.7387
▁norway	-10.7387
▁fortellingen	-10.7391
ingeniør	-10.7391
arkitekt	-10.7391
sentral	-10.7392
▁lisens	-10.7394
▁skrå	-10.7396
▁ballett	-10.7398
pokal	-10.7402
▁variasjon	-10.7408
▁automatisk	-10.7419
▁know	-10.7421
kritisk	-10.7427
▁represent	-10.7445
▁oversette	-10.7453
▁bygnings	-10.7458
▁stabil	-10.7459
▁tallrik	-10.7471
▁nettside	-10.7486
sjön	-10.7498
kjøl	-10.7514
▁dynasti	-10.7532
▁styrte	-10.7535
▁split	-10.7557
laug	-10.7583
▁arrangør	-10.7609
▁erkebiskop	-10.7609
▁konservativ	-10.7609
▁rekrutt	-10.7609
▁anmelder	-10.7609
▁kristoffer	-10.7609
▁natrium	-10.7609
▁tyrkia	-10.7609
▁vesentlig	-10.7609
▁anerkjent	-10.7609
▁theodor	-10.7609
▁forbedre	-10.7609
▁visepresident	-10.761
▁spredt	-10.7611
konvensjon	-10.7611
▁ulykk	-10.7612
▁faktisk	-10.7612
▁disney	-10.7614
▁kontinental	-10.762
▁nederst	-10.7622
føderasjon	-10.7628
▁nevro	-10.7629
historisk	-10.763
▁point	-10.7636
nemnd	-10.7638
forsamlingen	-10.7655
▁varemerke	-10.7658
mengde	-10.7669
fasade	-10.7686
▁organisere	-10.7709
høyde	-10.7721
▁journal	-10.774
kvarter	-10.7828
▁misjons	-10.7832
▁lasse	-10.7836
▁aluminium	-10.7847
▁california	-10.7847
▁oppmerksomhet	-10.7847
▁kapittel	-10.7847
▁1943	-10.7847
▁vestfold	-10.7847
▁oxford	-10.7847
▁geografisk	-10.7847
▁1904	-10.7847
▁rumensk	-10.7848
▁axel	-10.7848
▁bløt	-10.7848
▁afrikansk	-10.7849
▁prinsesse	-10.7849
mekanisme	-10.785
▁arbeiderpartiet	-10.7851
▁søndr	-10.7852
▁opptrådt	-10.7854
▁smelte	-10.7855
script	-10.7855
▁indikere	-10.786
▁skaffe	-10.7861
▁biografi	-10.7863
bahn	-10.7887
vík	-10.7923
▁kä	-10.8085
▁afghanistan	-10.8091
▁langrennsløper	-10.8091
▁tusenårssted	-10.8091
▁1905	-10.8091
▁rudolf	-10.8091
▁istedenfor	-10.8091
▁management	-10.8091
▁pakistan	-10.8091
▁ødelegge	-10.8091
▁barnebarn	-10.8091
▁carafa	-10.8091
▁vegetasjon	-10.8091
▁fantasi	-10.8092
▁nektet	-10.8092
▁wolfgang	-10.8093
▁again	-10.8093
▁nøkkel	-10.8093
▁temple	-10.8094
▁micro	-10.8094
▁hjørne	-10.8094
▁space	-10.8094
▁gerhard	-10.8094
▁litterær	-10.8095
▁tvangs	-10.8095
▁flyselskap	-10.8095
▁1913	-10.8095
▁joachi	-10.8096
▁unngå	-10.8099
▁clark	-10.8101
▁meyer	-10.8102
liknende	-10.8103
▁formula	-10.8105
▁brent	-10.8119
▁studere	-10.8121
størrelse	-10.8123
undervisning	-10.8124
▁tolke	-10.8124
modellen	-10.8132
▁flykte	-10.814
syssel	-10.8144
▁grevskape	-10.8163
▁statsråd	-10.8173
▁blind	-10.8239
▁klage	-10.8241
▁sarpsborg	-10.8341
▁technology	-10.8341
▁bryllup	-10.8341
▁washington	-10.8341
▁østerriksk	-10.8341
▁1907	-10.8341
▁kjøkken	-10.8341
▁inspirasjon	-10.8341
▁oppdatert	-10.8341
▁investering	-10.8341
▁marilyn	-10.8341
▁ålesund	-10.8341
▁kalsium	-10.8342
▁hjelm	-10.8342
▁belgisk	-10.8343
▁cooper	-10.8344
▁claudi	-10.8344
▁gregor	-10.8346
▁skei	-10.8346
▁express	-10.8347
▁elementer	-10.8347
▁endringer	-10.8349
kobling	-10.8358
▁mandat	-10.8361
▁icao	-10.8365
▁motsetning	-10.8367
craft	-10.8372
temperatur	-10.8379
litteratur	-10.838
karriere	-10.838
▁maxim	-10.8396
▁kontrollert	-10.8401
▁astronomi	-10.8404
▁foll	-10.8424
▁harmoni	-10.8447
betjent	-10.8482
foretak	-10.8492
▁castel	-10.8508
ifikasjon	-10.8509
▁statue	-10.854
▁datterselskap	-10.8556
▁katedral	-10.8578
▁doktor	-10.8597
▁frankfurt	-10.8597
▁kromosom	-10.8597
▁society	-10.8597
▁1902	-10.8597
▁antagelig	-10.8597
▁tilsammen	-10.8597
▁overlevde	-10.8597
▁league	-10.8597
▁dominerer	-10.8597
▁hyppig	-10.8597
syklus	-10.8598
▁petersburg	-10.8598
▁uvanlig	-10.8598
▁drømme	-10.8598
▁kallenavn	-10.8598
▁regelmessig	-10.8599
▁komplett	-10.86
▁generalsekretær	-10.86
▁nicolai	-10.8601
▁hendelsen	-10.8602
▁hovedsete	-10.8605
▁rederi	-10.8624
▁sosialistisk	-10.8648
bølge	-10.8652
▁øygrupp	-10.8658
radio	-10.8683
pumpe	-10.878
metoden	-10.8833
instruktør	-10.886
ttoregistertonn	-10.886
▁anthony	-10.886
▁gælisk	-10.886
▁konstruert	-10.886
▁microsoft	-10.886
▁substantiv	-10.886
▁tibetansk	-10.886
▁malaysia	-10.886
▁arbeidsgiver	-10.886
▁kjennetegne	-10.886
▁asteroide	-10.886
▁trygve	-10.886
▁praksis	-10.8861
▁begravet	-10.8861
høvding	-10.8861
▁dollar	-10.8861
▁walisisk	-10.8861
▁fjeld	-10.8861
▁muslim	-10.8861
▁hovedpersonen	-10.8861
▁konsernet	-10.8862
▁flytende	-10.8863
▁reidar	-10.8865
▁opplevd	-10.8865
га	-10.8866
▁næringsliv	-10.8866
▁bbc	-10.8866
▁trenger	-10.8869
siktig	-10.8876
kampanje	-10.8882
hvelv	-10.8906
▁anslå	-10.8916
▁marcel	-10.8924
▁moderat	-10.8933
metoder	-10.8952
derav	-10.9014
frekven	-10.9077
▁dobbel	-10.9129
▁solgt	-10.9131
▁ambassadør	-10.9131
▁definisjon	-10.9131
▁douglas	-10.9131
▁færøysk	-10.9131
▁infanteri	-10.9131
▁embeds	-10.9131
▁mercedes	-10.9131
▁patriark	-10.9131
▁argument	-10.9131
▁stridsvogn	-10.9131
▁sparebank	-10.9131
▁eksisterte	-10.9131
▁nanjing	-10.9131
▁svovel	-10.9131
köping	-10.9131
▁lørdag	-10.9131
▁kvadrat	-10.9131
▁stephen	-10.9131
▁ungarn	-10.9131
▁cappelen	-10.9131
▁trompet	-10.9131
teatret	-10.9131
▁haakon	-10.9131
▁canadisk	-10.9131
▁innenriks	-10.9132
▁hvem	-10.9132
▁tilfeller	-10.9132
▁separat	-10.9132
omsorg	-10.9133
▁oppfølger	-10.9133
▁rakett	-10.9134
▁1922	-10.9134
▁glenn	-10.9134
▁trasé	-10.9135
▁1916	-10.9135
▁1921	-10.9135
▁massiv	-10.9136
▁andorra	-10.9138
▁antyde	-10.9138
▁kreert	-10.9139
▁when	-10.9141
dolph	-10.9147
attle	-10.9158
regjering	-10.9182
president	-10.919
partei	-10.9217
▁pansre	-10.9236
▁etnisk	-10.9276
eiro	-10.936
▁hospital	-10.9394
▁basketball	-10.9408
▁champion	-10.9408
▁elizabeth	-10.9408
▁installert	-10.9408
▁uttrykt	-10.9408
▁buddhist	-10.9408
▁forkroppen	-10.9408
▁identitet	-10.9408
▁dominerende	-10.9408
▁engasjert	-10.9408
▁kennedy	-10.9408
vurdering	-10.9408
▁apotek	-10.9408
▁utspring	-10.9408
▁picture	-10.9409
▁animasjon	-10.9409
▁embets	-10.9409
▁amatør	-10.9409
▁belgia	-10.9409
▁charlotte	-10.9409
▁detroit	-10.9409
▁gummi	-10.9409
▁bærum	-10.941
byrået	-10.941
▁brigade	-10.9411
▁tønne	-10.9411
▁debatt	-10.9412
▁styremedlem	-10.9412
▁manager	-10.9413
▁bokstavelig	-10.9413
▁sørensen	-10.9415
▁moore	-10.9418
▁text	-10.9418
▁hawk	-10.9421
▁flanke	-10.9423
▁ibsen	-10.9425
▁forfatte	-10.9442
spect	-10.9446
befolkning	-10.9476
brenning	-10.9484
▁identifi	-10.9485
prøve	-10.9489
utenriksminister	-10.9489
▁sokn	-10.9501
▁symbolisere	-10.9518
bukten	-10.9585
sæter	-10.9593
signal	-10.9637
▁bevege	-10.9672
▁brensel	-10.9693
direktoratet	-10.9694
▁argentina	-10.9694
▁inklusiv	-10.9694
▁inskripsjon	-10.9694
▁involvert	-10.9694
▁matematikk	-10.9694
▁napoleon	-10.9694
▁network	-10.9694
▁norwegian	-10.9694
▁omdøpt	-10.9694
▁svalbard	-10.9694
▁kambodsja	-10.9694
▁territorie	-10.9694
▁łód	-10.9694
bataljon	-10.9694
▁chicago	-10.9694
▁ødelagt	-10.9694
▁taylor	-10.9694
▁utnevne	-10.9694
▁patrick	-10.9694
▁selvmord	-10.9694
▁igjennom	-10.9694
▁forsvant	-10.9695
▁praktiser	-10.9695
▁wagner	-10.9695
▁utseende	-10.9695
▁sektor	-10.9695
▁føderal	-10.9696
▁two	-10.9697
▁hvete	-10.9703
gjenstander	-10.9706
▁avansert	-10.971
▁sosialdemokrat	-10.9716
▁særeg	-10.9725
▁søyle	-10.9741
väg	-10.9769
basseng	-10.9814
lokale	-10.9834
▁illustrasjon	-10.9988
ский	-10.9988
▁academy	-10.9988
▁bulgaria	-10.9988
▁entertainment	-10.9988
▁filippinene	-10.9988
▁hviterussisk	-10.9988
▁instruksjon	-10.9988
▁kronprins	-10.9988
▁manuskript	-10.9988
▁terrengsyklist	-10.9988
▁columbia	-10.9988
▁kommandant	-10.9988
▁krystall	-10.9988
▁maksimal	-10.9988
▁nabokommunene	-10.9988
▁selvbiografi	-10.9988
▁innspilt	-10.9988
▁akershus	-10.9988
▁benjamin	-10.9988
▁nøyaktig	-10.9988
▁hensikt	-10.9988
▁halvorsen	-10.9988
▁kreditt	-10.9988
▁history	-10.9988
▁erobret	-10.9988
▁bjarne	-10.9988
▁texas	-10.9988
▁rogaland	-10.9988
▁project	-10.9989
▁sandefjord	-10.9989
▁nelson	-10.9989
▁trondhjem	-10.9989
▁respons	-10.999
▁styring	-10.999
▁christensen	-10.999
▁identifisert	-10.9991
▁puerto	-10.9992
▁oliver	-10.9992
▁jerry	-10.9993
▁hjemmekampe	-10.9993
▁overlever	-10.9994
▁stedsnavn	-11.0002
▁skuespill	-11.0011
▁størst	-11.0012
▁bønn	-11.003
historiker	-11.0073
papir	-11.0074
forandring	-11.0111
▁sjakk	-11.0138
galakse	-11.0246
trådte	-11.0285
▁cerambyc	-11.0291
▁frilufts	-11.0291
▁mobiltelefon	-11.0291
inspektør	-11.0291
▁aftenposten	-11.0291
▁ferdinand	-11.0291
▁kommandør	-11.0291
▁midlertidig	-11.0291
▁toppnivådomene	-11.0291
kommanderende	-11.0291
▁fakultet	-11.0291
▁innendørs	-11.0291
▁1903	-11.0291
▁innbyggerne	-11.0291
▁mongolia	-11.0291
▁isotop	-11.0291
zhōu	-11.0291
▁utenlandske	-11.0291
▁diagnose	-11.0291
▁disponere	-11.0292
▁björn	-11.0292
installasjon	-11.0292
▁snorre	-11.0292
▁kombinere	-11.0292
▁anerkjenne	-11.0292
▁skjøt	-11.0292
▁lingvist	-11.0292
▁redigert	-11.0293
▁beordre	-11.0293
▁etterkommer	-11.0293
▁eddie	-11.0294
sykling	-11.0294
▁tempo	-11.0295
▁avgjørelse	-11.0296
mouth	-11.0299
▁romsdal	-11.0301
▁ytelse	-11.0314
kvinne	-11.0369
forberede	-11.0373
about	-11.0375
▁vincen	-11.0404
klipp	-11.0481
astronom	-11.0526
▁fasettøynene	-11.0604
▁jordskjelv	-11.0604
▁köln	-11.0604
▁luxembourg	-11.0604
▁oksygen	-11.0604
▁satellitt	-11.0604
▁utdødd	-11.0604
▁publisere	-11.0604
▁vertikal	-11.0604
▁kroatisk	-11.0604
▁piauí	-11.0604
▁1882	-11.0604
▁tilføyd	-11.0604
▁ukentlig	-11.0604
▁tilskuere	-11.0604
tekniker	-11.0604
▁arkeologisk	-11.0604
▁testament	-11.0604
▁felix	-11.0604
▁regulert	-11.0604
▁oldtids	-11.0604
▁söder	-11.0604
▁zhao	-11.0604
▁chamber	-11.0605
▁slakte	-11.0605
▁spirit	-11.0605
▁systematisk	-11.0605
jīng	-11.0605
▁claude	-11.0605
▁skikkelse	-11.0605
pseudonym	-11.0606
▁finansiert	-11.0606
▁sannhet	-11.0606
mønstre	-11.0606
▁anklage	-11.0608
▁dekorert	-11.0608
▁jonath	-11.061
▁slippe	-11.0613
▁koreograf	-11.0617
▁klepp	-11.0621
▁jerem	-11.0625
konkurranse	-11.0633
▁bakkropp	-11.0692
offiser	-11.0709
tradisjon	-11.071
gjest	-11.0793
kringkasting	-11.0926
▁generalmajor	-11.0926
▁göteborg	-11.0926
▁helsingfors	-11.0926
▁hongkong	-11.0926
▁horisontal	-11.0926
▁konkurrent	-11.0926
▁lawrence	-11.0926
▁magazine	-11.0926
▁psykisk	-11.0926
▁keramikk	-11.0926
▁rasmussen	-11.0926
▁sammenslåing	-11.0926
▁1909	-11.0926
▁absolut	-11.0926
▁1881	-11.0926
▁gjald	-11.0926
▁registrering	-11.0927
▁по	-11.0927
▁wright	-11.0927
▁psych	-11.0927
▁verdensarv	-11.0927
▁valentin	-11.0928
▁propell	-11.0928
▁onsdag	-11.0928
▁søsken	-11.0929
▁sergej	-11.0931
▁omfatte	-11.0956
hammad	-11.0969
▁ekstern	-11.0974
▁advent	-11.0989
embete	-11.1009
studio	-11.1043
demokratisk	-11.107
▁blanc	-11.1095
amerikaner	-11.1234
alliansen	-11.1242
bransjen	-11.1243
▁development	-11.126
▁prestegjeld	-11.126
terapeut	-11.126
▁konstitusjon	-11.126
▁lokomotiv	-11.126
▁operativsystem	-11.126
▁perspektiv	-11.126
▁salvador	-11.126
▁særskilt	-11.126
▁business	-11.126
▁ferskvann	-11.126
▁matthew	-11.126
▁hiphop	-11.126
▁mandsju	-11.126
ñ	-13.2543
