<unk>	0
<s>	0
</s>	0
.	-3.26006
s	-3.56511
e	-3.59574
▁i	-3.62842
▁og	-3.91823
t	-4.03059
▁	-4.10872
er	-4.14276
en	-4.20666
▁av	-4.38185
r	-4.56039
▁er	-4.575
▁en	-4.58983
▁som	-4.64872
▁for	-4.75507
▁til	-4.75711
▁på	-4.85337
et	-5.0021
▁med	-5.00405
n	-5.06633
▁den	-5.08887
▁ble	-5.13926
▁det	-5.23374
▁var	-5.23735
▁de	-5.26585
▁fra	-5.40692
a	-5.42925
▁han	-5.4742
▁å	-5.48602
▁et	-5.55619
▁har	-5.58706
ene	-5.59799
d	-5.80271
ne	-5.85996
i	-5.87805
▁at	-5.90004
▁ved	-5.94927
k	-6.09343
o	-6.09397
▁om	-6.10842
y	-6.11348
▁også	-6.13924
▁etter	-6.14383
g	-6.19103
de	-6.2156
▁ut	-6.23339
te	-6.30637
l	-6.31127
▁under	-6.31442
re	-6.33345
▁men	-6.38482
▁s	-6.38838
▁over	-6.40141
p	-6.41281
▁opp	-6.423
▁eller	-6.42531
▁seg	-6.46795
m	-6.48478
f	-6.49404
▁da	-6.49997
▁kan	-6.50252
▁hadde	-6.50342
▁to	-6.51482
▁inn	-6.5484
▁ikke	-6.61284
v	-6.61499
▁be	-6.63146
in	-6.6593
▁mot	-6.69966
us	-6.70738
▁sin	-6.72708
▁a	-6.74702
an	-6.7509
ing	-6.75901
b	-6.76674
▁andre	-6.76711
▁18	-6.78232
u	-6.79183
c	-6.79354
al	-6.81281
le	-6.83899
▁mellom	-6.84441
▁født	-6.85934
▁første	-6.90285
▁hun	-6.90342
▁1	-6.90688
▁ha	-6.91301
h	-6.91459
▁dette	-6.95188
ende	-6.95614
▁tre	-6.95712
▁f	-6.9643
on	-6.97171
▁hans	-6.97606
na	-6.97968
sen	-6.98512
ter	-6.98893
▁the	-7.00661
ri	-7.0378
sk	-7.0442
is	-7.0485
▁fikk	-7.09206
▁år	-7.0991
▁man	-7.10575
ar	-7.13905
▁ligger	-7.14171
▁denne	-7.14637
ch	-7.14975
▁u	-7.15888
▁blant	-7.16181
▁la	-7.17186
▁m	-7.18053
▁kom	-7.1839
ia	-7.18505
z	-7.19257
▁nord	-7.19352
▁2	-7.20209
▁flere	-7.20558
▁der	-7.21653
▁re	-7.21857
▁se	-7.21954
ta	-7.22578
land	-7.24905
▁sammen	-7.25427
▁nå	-7.25852
w	-7.26594
um	-7.27174
lig	-7.27858
vis	-7.29178
▁ca	-7.29877
la	-7.29991
ma	-7.30633
▁17	-7.31651
▁hvor	-7.32797
il	-7.33222
▁gjennom	-7.3442
▁d	-7.34615
nde	-7.34952
ens	-7.35657
be	-7.35795
ng	-7.35857
▁c	-7.35898
▁her	-7.35964
▁3	-7.36796
ler	-7.37128
iske	-7.37414
ke	-7.3833
▁al	-7.39897
el	-7.40109
ge	-7.40413
▁før	-7.40869
j	-7.41339
▁del	-7.41519
▁p	-7.41558
▁stor	-7.41645
ve	-7.42293
▁død	-7.42484
li	-7.42601
▁norsk	-7.4311
da	-7.43628
▁blir	-7.43652
▁mange	-7.44697
øy	-7.45418
▁g	-7.46173
▁an	-7.46804
lo	-7.47319
▁k	-7.47467
nes	-7.47593
▁alle	-7.4765
▁5	-7.48309
▁så	-7.4853
▁kommune	-7.48537
ver	-7.48689
ur	-7.48826
▁byen	-7.48947
ck	-7.49333
ø	-7.49478
▁of	-7.49994
di	-7.50163
ner	-7.50248
ra	-7.50677
é	-7.50684
isk	-7.51099
x	-7.51283
▁senere	-7.51315
ro	-7.51538
ul	-7.51996
or	-7.52099
▁mer	-7.52197
id	-7.52335
▁tidligere	-7.5271
ning	-7.53635
▁disse	-7.53669
der	-7.5425
den	-7.54301
▁bo	-7.54441
ut	-7.54619
▁sitt	-7.55035
kt	-7.55082
▁annet	-7.55108
as	-7.55217
ga	-7.55845
▁ny	-7.56235
▁vi	-7.57284
at	-7.57409
▁b	-7.57688
▁h	-7.58518
▁noen	-7.5881
▁siden	-7.59154
▁kr	-7.60046
▁sør	-7.60354
▁le	-7.60969
▁st	-7.61093
▁tallet	-7.61541
▁16	-7.61627
▁ga	-7.61858
for	-7.62472
▁ro	-7.62924
▁være	-7.63188
▁4	-7.63419
▁si	-7.63771
ske	-7.64145
▁kon	-7.64265
os	-7.64546
▁15	-7.64594
▁sa	-7.65031
▁v	-7.65282
▁store	-7.65427
bo	-7.6577
▁selv	-7.65872
kk	-7.66093
▁land	-7.66416
▁kjent	-7.66545
it	-7.66649
si	-7.66742
▁ned	-7.66874
ger	-7.67623
son	-7.6775
▁norge	-7.67928
▁ta	-7.69216
ig	-7.69304
▁li	-7.69392
ti	-7.69433
▁pi	-7.69534
gen	-7.69924
▁o	-7.70025
▁rundt	-7.70159
lige	-7.70218
vi	-7.70255
erte	-7.71152
▁10	-7.71154
▁t	-7.7178
▁ra	-7.71956
stad	-7.72107
▁mens	-7.73166
▁by	-7.73398
▁vært	-7.7372
ør	-7.7415
ton	-7.74214
▁samme	-7.74465
▁j	-7.75178
to	-7.75442
ka	-7.75556
me	-7.76449
het	-7.76686
▁ho	-7.76846
▁hoved	-7.77353
skap	-7.77625
ik	-7.77764
▁sine	-7.78205
▁grunn	-7.78337
▁kunne	-7.78433
▁noe	-7.78456
ha	-7.78575
man	-7.78636
▁ti	-7.78718
▁både	-7.78805
▁l	-7.79054
by	-7.79198
▁tid	-7.79229
▁co	-7.79566
▁ni	-7.79678
var	-7.80342
▁dag	-7.80738
▁he	-7.80765
else	-7.81181
▁vest	-7.81188
▁ham	-7.81193
▁vil	-7.81318
ker	-7.81403
erne	-7.82264
▁6	-7.82483
ry	-7.82503
ja	-7.82712
ang	-7.82776
▁navnet	-7.82805
ell	-7.83201
▁frem	-7.833
▁km	-7.83322
▁di	-7.83414
▁blitt	-7.83454
▁8	-7.83827
th	-7.8432
1	-7.84376
▁skal	-7.84408
ce	-7.8452
▁mest	-7.84596
mp	-7.84705
▁finnes	-7.85359
▁enn	-7.85548
ad	-7.85685
▁gikk	-7.87002
▁pa	-7.88105
berg	-7.88305
▁ar	-7.88408
▁in	-7.88442
▁navn	-7.88455
ven	-7.88497
ff	-7.88519
▁ofte	-7.88605
▁ol	-7.88688
▁øst	-7.88821
▁bi	-7.88914
va	-7.88955
mi	-7.89067
ist	-7.8912
▁norske	-7.89571
dal	-7.89646
▁per	-7.89941
▁n	-7.90122
sa	-7.90209
▁7	-7.90323
co	-7.9036
▁skulle	-7.9107
mann	-7.92223
▁du	-7.92279
▁samt	-7.9232
▁kalt	-7.92429
ste	-7.92664
ba	-7.92991
▁ri	-7.93228
▁lo	-7.93269
▁ma	-7.93476
▁fire	-7.94077
men	-7.94169
▁po	-7.94186
bu	-7.94341
▁14	-7.94534
▁su	-7.94754
▁12	-7.94821
▁w	-7.95225
mo	-7.9525
▁na	-7.95808
▁fri	-7.95959
▁august	-7.95959
▁januar	-7.95959
▁mor	-7.95999
ling	-7.96083
▁sk	-7.96766
od	-7.96856
▁ba	-7.96878
▁amerikansk	-7.97644
asjon	-7.98284
▁sp	-7.98322
▁bak	-7.98344
▁oslo	-7.98693
▁as	-7.98979
▁tilbake	-7.99017
▁fa	-7.99102
å	-7.9913
▁fram	-7.99198
▁tok	-7.99203
ær	-7.99413
om	-7.99614
▁bu	-7.99858
rett	-8.00191
▁9	-8.0027
▁mai	-8.00425
▁går	-8.00441
pa	-8.00453
▁vant	-8.00533
▁kirke	-8.00772
▁mars	-8.01188
mer	-8.01197
▁slik	-8.01278
2	-8.01429
▁nye	-8.01638
▁lag	-8.01868
▁me	-8.02217
▁bare	-8.02319
ant	-8.02557
▁lu	-8.02773
pe	-8.0286
▁pro	-8.02885
ster	-8.02982
ol	-8.03446
▁juli	-8.03661
▁gang	-8.03757
gang	-8.04418
av	-8.04451
▁no	-8.04763
ion	-8.04764
▁far	-8.04819
do	-8.05191
▁mo	-8.05195
▁dem	-8.05338
io	-8.05695
▁hele	-8.06211
go	-8.06549
▁bli	-8.06832
bi	-8.06989
ic	-8.07336
ca	-8.0789
▁lang	-8.07891
iv	-8.08538
▁mi	-8.08718
▁hos	-8.0935
nd	-8.09593
▁tv	-8.09639
▁gi	-8.10889
▁11	-8.10896
tor	-8.1103
▁mål	-8.11067
▁største	-8.111
im	-8.11269
ni	-8.11439
un	-8.11934
▁meter	-8.12251
▁mar	-8.12657
▁000	-8.13093
▁sønn	-8.13377
▁skole	-8.13386
sh	-8.13536
▁and	-8.1363
▁rekke	-8.13949
gi	-8.13952
ly	-8.13971
▁kina	-8.14495
ed	-8.14797
▁20	-8.15092
▁fly	-8.15164
▁siste	-8.15166
▁y	-8.15325
ko	-8.15433
▁or	-8.1587
▁ka	-8.16043
æ	-8.16078
vik	-8.16318
▁usa	-8.16661
ment	-8.16748
▁utgitt	-8.16763
▁te	-8.16814
ho	-8.17215
▁bar	-8.1722
sjon	-8.17227
ok	-8.17301
fa	-8.17326
ru	-8.17341
▁nær	-8.17759
ingen	-8.17842
kker	-8.17976
tu	-8.1805
ering	-8.18452
▁juni	-8.18556
▁vanlig	-8.18614
sta	-8.18947
pp	-8.19813
▁desember	-8.20022
sel	-8.20374
▁vann	-8.20544
ll	-8.20558
ir	-8.20619
▁0	-8.20707
▁13	-8.20756
▁sch	-8.21289
op	-8.21631
▁ad	-8.21805
▁tillegg	-8.21832
▁oktober	-8.22171
am	-8.22417
ans	-8.22422
hold	-8.22432
▁pe	-8.22771
▁do	-8.22811
gg	-8.23003
ov	-8.23012
▁bestå	-8.23315
6	-8.23459
▁spilte	-8.23485
po	-8.23635
je	-8.23869
▁september	-8.23923
▁so	-8.23938
▁få	-8.24196
tter	-8.24297
▁først	-8.24318
tra	-8.24447
over	-8.24673
▁rett	-8.24681
kke	-8.24746
pi	-8.24789
▁fi	-8.25835
▁området	-8.25959
▁tor	-8.26039
este	-8.26077
▁november	-8.26158
▁r	-8.26364
opp	-8.26761
▁art	-8.26883
lag	-8.27263
▁go	-8.27534
▁film	-8.27537
▁fem	-8.28137
▁ei	-8.28154
▁am	-8.2828
▁april	-8.28444
år	-8.2867
ord	-8.28725
▁sol	-8.29184
▁el	-8.29299
▁ge	-8.29518
▁2010	-8.29617
▁mindre	-8.2962
▁egen	-8.29628
▁uten	-8.29967
▁kun	-8.30071
▁må	-8.30164
▁kinesisk	-8.30547
▁2008	-8.30552
und	-8.30804
▁ne	-8.3124
▁laget	-8.31351
ard	-8.31358
▁spiller	-8.31397
art	-8.31756
sted	-8.31771
lin	-8.31856
á	-8.31945
▁like	-8.32179
stre	-8.32717
ag	-8.32745
▁høy	-8.32823
gu	-8.32872
▁små	-8.32954
kom	-8.32954
▁lys	-8.33125
▁deres	-8.33226
tal	-8.33227
▁ski	-8.33234
▁bruk	-8.33268
▁jo	-8.33295
au	-8.33325
ium	-8.33411
▁ko	-8.33579
▁kultur	-8.33717
▁hu	-8.33745
▁igjen	-8.33915
lu	-8.33944
ring	-8.33991
▁innen	-8.34007
mon	-8.34146
▁sam	-8.34505
ty	-8.34889
▁videre	-8.34904
vin	-8.34955
ings	-8.35431
▁x	-8.35468
▁tro	-8.35587
▁ki	-8.35607
▁gu	-8.35673
▁leder	-8.35836
bar	-8.35946
▁begynte	-8.36083
ak	-8.36165
▁kort	-8.36471
mb	-8.36821
▁folke	-8.36854
ina	-8.36996
▁ak	-8.37135
▁lov	-8.37179
▁par	-8.37305
▁februar	-8.37894
lse	-8.37908
▁30	-8.38726
hu	-8.38905
les	-8.39157
▁2007	-8.39183
ud	-8.39211
▁musikk	-8.39253
▁kommer	-8.39307
▁ru	-8.39444
▁imidlertid	-8.39689
▁kar	-8.39784
verk	-8.40411
tte	-8.40481
ft	-8.40523
▁eks	-8.40606
kon	-8.40643
ns	-8.40771
inn	-8.40837
ningen	-8.40878
▁brukt	-8.41177
del	-8.41378
ber	-8.41391
ier	-8.4152
▁hus	-8.41689
▁john	-8.41738
▁filmen	-8.41833
ü	-8.42044
▁tri	-8.42051
tak	-8.42113
▁plass	-8.42439
▁hver	-8.4249
▁derfor	-8.42758
min	-8.43077
▁langs	-8.43311
▁kong	-8.43384
▁tiden	-8.43413
▁døde	-8.43602
▁opprinnelig	-8.43647
▁særlig	-8.43664
▁satt	-8.43731
itet	-8.43798
▁gir	-8.43965
▁fast	-8.44095
ö	-8.44226
ron	-8.44241
▁gjen	-8.44435
▁ulike	-8.4456
▁forhold	-8.44605
▁ty	-8.44681
sp	-8.44868
▁2006	-8.45012
no	-8.45052
▁nor	-8.45083
em	-8.45161
▁ville	-8.45457
▁gamle	-8.4555
▁russisk	-8.4556
▁con	-8.45624
▁brukes	-8.45681
▁kv	-8.45735
3	-8.4592
▁helt	-8.4595
len	-8.46087
hi	-8.46235
▁mye	-8.46326
▁innbyggere	-8.46376
▁ab	-8.46412
▁startet	-8.4645
if	-8.46534
▁2009	-8.46665
elle	-8.46799
▁medlem	-8.46814
▁skrevet	-8.47041
▁året	-8.4716
▁lever	-8.47232
stein	-8.47289
▁lå	-8.47316
▁tyske	-8.47331
▁eksempel	-8.47418
tur	-8.47423
▁2005	-8.47775
▁skrev	-8.47893
▁større	-8.47901
ede	-8.48056
▁all	-8.48069
▁vei	-8.48071
▁parti	-8.48079
▁form	-8.48155
dalen	-8.48294
følge	-8.48347
▁dr	-8.48662
▁liv	-8.48697
▁alt	-8.489
▁bra	-8.48964
siden	-8.4901
tre	-8.49032
▁beste	-8.49118
▁ja	-8.49167
▁syn	-8.49559
wa	-8.49812
▁hel	-8.49869
▁norges	-8.50007
▁tysk	-8.50092
hus	-8.5027
let	-8.50286
▁gjorde	-8.5051
▁årene	-8.50783
▁engelsk	-8.5084
▁gud	-8.51177
▁san	-8.51246
lat	-8.51381
▁deretter	-8.51529
▁gruppen	-8.51641
▁tra	-8.51769
▁hennes	-8.52207
▁new	-8.52287
tten	-8.52296
inger	-8.52712
est	-8.52758
▁svær	-8.52801
▁fjell	-8.52813
▁sjø	-8.52938
isme	-8.52943
▁dagen	-8.53394
ska	-8.53402
▁språk	-8.53501
▁bok	-8.53681
ill	-8.53686
stand	-8.53773
▁deltok	-8.53918
ny	-8.54178
▁europa	-8.54242
▁25	-8.54593
▁plan	-8.54596
▁ord	-8.54641
▁kommunen	-8.54932
▁kunst	-8.55277
sten	-8.55294
nder	-8.55356
ian	-8.55503
ie	-8.55567
ks	-8.55706
▁barn	-8.55747
▁bandet	-8.55888
ci	-8.5597
▁tyskland	-8.56097
▁ju	-8.56424
he	-8.56593
ius	-8.56756
tiske	-8.56876
fi	-8.57014
▁wi	-8.57076
sch	-8.57096
slag	-8.57104
▁begge	-8.5718
ys	-8.57209
tok	-8.57214
per	-8.5736
▁em	-8.57426
dd	-8.5754
ä	-8.57633
▁nasjonal	-8.57689
▁bl	-8.57996
▁ch	-8.58253
ting	-8.58421
ot	-8.58503
ken	-8.58526
▁øy	-8.58607
▁rom	-8.58669
met	-8.58863
dre	-8.58917
uten	-8.59168
tisk	-8.59207
▁sett	-8.5923
kel	-8.59266
du	-8.5937
▁halv	-8.59406
▁car	-8.59546
▁fu	-8.59681
▁sted	-8.59716
▁provinsen	-8.59959
▁seks	-8.60061
▁president	-8.60123
▁mag	-8.60308
▁val	-8.60311
itt	-8.60312
nn	-8.60488
▁mat	-8.60571
▁2004	-8.60954
burg	-8.60954
uk	-8.61077
bre	-8.61573
▁fleste	-8.62069
▁tidlig	-8.62212
▁samtidig	-8.6223
▁vel	-8.62324
▁måtte	-8.6259
▁øya	-8.62655
í	-8.62827
ong	-8.62971
▁arbeidet	-8.62972
▁bygget	-8.62978
ley	-8.62988
▁albumet	-8.63048
▁2011	-8.63216
▁kjente	-8.63265
▁stein	-8.63322
tan	-8.6348
ku	-8.63602
sse	-8.63631
▁fo	-8.63758
tid	-8.63812
▁konge	-8.63813
▁hen	-8.63819
▁min	-8.64224
▁verdens	-8.6426
til	-8.64296
elsen	-8.64356
▁my	-8.64375
stil	-8.6451
▁stedet	-8.64531
▁ingen	-8.64674
mar	-8.64776
mor	-8.64847
▁hi	-8.649
lot	-8.65008
▁24	-8.6531
▁fag	-8.65319
ug	-8.65432
ine	-8.65502
vel	-8.65669
ran	-8.65707
▁2000	-8.65849
▁bil	-8.66075
res	-8.66177
tiden	-8.66473
kning	-8.66536
▁kor	-8.66538
▁sommer	-8.66708
▁dermed	-8.66914
▁bergen	-8.67007
ow	-8.67024
▁fotball	-8.67094
▁kalles	-8.67143
▁sv	-8.67509
▁bre	-8.67816
plass	-8.67887
▁pre	-8.67945
▁bru	-8.68174
and	-8.68286
vo	-8.6838
so	-8.68532
▁va	-8.69214
▁meg	-8.69284
▁familien	-8.6936
▁ver	-8.6944
5	-8.69477
▁bro	-8.69711
ller	-8.69905
rik	-8.70103
ac	-8.70585
isering	-8.70678
▁sverige	-8.70681
▁kal	-8.70694
▁gitt	-8.7092
▁kj	-8.70978
za	-8.71334
▁perioden	-8.71531
mm	-8.71607
▁støtte	-8.71764
▁hvert	-8.71945
▁landet	-8.72011
▁person	-8.72075
▁motor	-8.72143
ham	-8.72178
dom	-8.72357
kan	-8.72571
▁deler	-8.72689
dyr	-8.72766
legg	-8.73016
▁23	-8.73201
▁sand	-8.73247
bil	-8.73297
▁nytt	-8.73358
▁19	-8.73423
ó	-8.73425
▁gift	-8.73512
ung	-8.73517
▁sto	-8.73537
▁ganger	-8.73634
▁selskapet	-8.73985
▁millioner	-8.74119
▁fe	-8.74226
ige	-8.74261
▁olympisk	-8.74272
▁grad	-8.74548
▁betyr	-8.74641
skole	-8.74754
▁gull	-8.74812
isert	-8.75006
▁pla	-8.75041
ds	-8.75062
▁utviklet	-8.75085
ære	-8.75101
▁21	-8.75235
▁god	-8.75268
dig	-8.75376
form	-8.75742
▁lokal	-8.75854
ki	-8.76076
▁innenfor	-8.76199
▁barne	-8.76431
▁verk	-8.76853
▁gammel	-8.76875
gel	-8.77087
▁mulig	-8.77166
▁sal	-8.77639
fer	-8.77695
▁hol	-8.77781
eres	-8.77941
tatt	-8.78039
▁ku	-8.78336
▁midt	-8.78522
▁tar	-8.788
▁forskjellige	-8.78929
dy	-8.78947
og	-8.78962
jø	-8.79143
øya	-8.79262
lands	-8.79509
▁ledet	-8.79632
ninger	-8.79739
▁cha	-8.79744
▁ført	-8.79746
▁basert	-8.79792
landet	-8.79844
værende	-8.7985
8	-8.80016
▁farge	-8.80106
▁ur	-8.80233
▁stort	-8.80281
▁22	-8.80317
▁pu	-8.8032
far	-8.80383
▁tredje	-8.80643
val	-8.80758
▁utenfor	-8.80782
▁sta	-8.81007
elig	-8.81248
▁spilt	-8.81473
▁allerede	-8.81477
50	-8.81598
sett	-8.81651
tro	-8.81739
fe	-8.81769
▁mal	-8.8185
▁2002	-8.81884
▁klubben	-8.81922
▁natur	-8.81994
heim	-8.82227
kl	-8.82258
▁ste	-8.82309
▁side	-8.82479
▁lange	-8.82558
rom	-8.8282
▁følgende	-8.82835
▁z	-8.82865
▁fransk	-8.82876
bruk	-8.82965
▁arbeider	-8.8305
▁grav	-8.8309
▁annen	-8.83106
▁fordi	-8.83199
▁får	-8.83344
mål	-8.83413
▁jeg	-8.83558
tar	-8.83586
ighet	-8.83713
▁gav	-8.83722
ation	-8.83737
sson	-8.83951
▁mon	-8.83974
ket	-8.84003
fly	-8.84018
▁ser	-8.84092
▁liten	-8.84134
▁datter	-8.8415
føring	-8.84428
▁op	-8.84546
▁jord	-8.8461
ou	-8.84632
▁står	-8.84643
▁sentral	-8.84741
▁roman	-8.84748
▁tur	-8.84857
▁berg	-8.84881
▁pan	-8.84974
ya	-8.85022
▁forfatter	-8.85194
▁ed	-8.85261
▁band	-8.85318
mmer	-8.85357
borg	-8.85375
▁gjerne	-8.85483
▁general	-8.85887
▁nesten	-8.85896
▁100	-8.8599
ld	-8.86262
han	-8.86304
che	-8.86329
▁prest	-8.86352
leg	-8.86355
▁bas	-8.86421
▁sy	-8.86424
▁serien	-8.86479
▁pr	-8.86682
▁ren	-8.86697
▁forbindelse	-8.86873
yl	-8.86919
▁britiske	-8.86939
▁sangen	-8.87294
▁mu	-8.8749
ris	-8.87514
а	-8.87539
▁historie	-8.87579
mun	-8.87631
▁vinter	-8.87659
ju	-8.87662
▁tatt	-8.87717
▁viktig	-8.87757
heten	-8.87767
▁slutt	-8.88274
▁svensk	-8.88276
▁tak	-8.88279
bok	-8.88352
ah	-8.88401
las	-8.88585
▁jan	-8.88621
▁kn	-8.88984
▁antall	-8.89019
dring	-8.89073
▁godt	-8.89126
bel	-8.89136
▁verden	-8.8924
▁2001	-8.89254
▁luft	-8.89292
▁stat	-8.89382
▁industri	-8.89591
▁lite	-8.8987
bro	-8.90012
ologi	-8.90065
▁inkludert	-8.90084
▁spesielt	-8.90084
▁london	-8.90084
▁skog	-8.90127
ator	-8.90189
ab	-8.90199
▁omkring	-8.90514
▁skuespiller	-8.90522
▁gl	-8.90764
ikk	-8.90804
▁slekt	-8.90811
▁on	-8.90816
gre	-8.9082
▁von	-8.90855
▁mann	-8.90898
lser	-8.90982
▁dis	-8.91132
▁bor	-8.91135
satt	-8.9114
▁kl	-8.91249
▁felles	-8.91384
▁2003	-8.9139
▁wa	-8.91416
▁ben	-8.91477
▁mil	-8.9153
▁styre	-8.91626
▁radio	-8.91637
▁spor	-8.91656
▁stil	-8.91812
▁såkalt	-8.91815
▁arbeid	-8.91904
▁van	-8.92006
▁danne	-8.92015
▁litt	-8.92176
▁1990	-8.92259
▁england	-8.92266
▁pass	-8.92357
plan	-8.92378
ph	-8.92462
par	-8.9254
▁fortsatt	-8.92578
▁hal	-8.92614
▁dikt	-8.92622
▁frankrike	-8.9269
ømme	-8.92764
▁bruker	-8.92868
▁stats	-8.92874
ip	-8.92934
▁valg	-8.93084
▁elven	-8.93151
q	-8.93204
dag	-8.93243
▁tu	-8.933
▁vise	-8.93525
stilling	-8.93543
▁delstaten	-8.93593
▁krigen	-8.93714
▁col	-8.93807
▁viser	-8.93872
▁kur	-8.94024
anske	-8.94166
vei	-8.94186
▁moderne	-8.94205
▁gjør	-8.94212
jer	-8.94433
▁william	-8.94461
▁hatt	-8.94584
▁28	-8.94722
▁familie	-8.94725
pen	-8.94782
▁flyttet	-8.94843
▁anti	-8.9486
▁én	-8.94956
▁gul	-8.95129
▁india	-8.95133
kul	-8.95284
▁hånd	-8.95384
▁menneske	-8.9544
my	-8.95475
▁ø	-8.95523
ica	-8.95583
▁fylke	-8.95589
▁karl	-8.95805
▁1999	-8.95819
alt	-8.95904
▁bror	-8.95907
▁rock	-8.96011
su	-8.96065
▁com	-8.96084
spill	-8.96151
▁lav	-8.96237
banen	-8.96332
nk	-8.96375
ding	-8.96414
inne	-8.9646
▁50	-8.96574
mat	-8.96655
▁27	-8.9678
▁via	-8.9686
rak	-8.97002
▁paul	-8.97037
▁tilhører	-8.97063
▁hav	-8.97101
▁lett	-8.97244
▁personer	-8.97416
tegn	-8.97456
▁måte	-8.97506
▁krigs	-8.97558
van	-8.97574
▁flo	-8.97619
fra	-8.97743
7	-8.97845
▁slag	-8.97866
laget	-8.9795
▁gra	-8.98094
svis	-8.98226
▁blå	-8.98255
▁gruppe	-8.9833
film	-8.98361
▁folk	-8.98415
▁mont	-8.98469
▁rød	-8.98531
9	-8.98596
▁brun	-8.98646
ister	-8.98684
▁internasjonale	-8.98821
▁slutten	-8.98832
▁cl	-8.9884
idae	-8.98858
▁borger	-8.98879
▁sesongen	-8.98909
nings	-8.99009
▁produsert	-8.99038
ød	-8.99057
red	-8.99138
▁tjeneste	-8.99207
kamp	-8.99376
forening	-8.9944
▁orden	-8.99479
00	-8.99482
▁rø	-8.99583
▁mus	-8.99856
▁red	-8.99909
▁bygge	-8.99922
▁1980	-8.99987
▁eu	-9.00102
jo	-9.0015
▁vin	-9.00173
råd	-9.00265
ek	-9.00298
løp	-9.00372
▁kirken	-9.00527
kar	-9.00607
fl	-9.00673
▁bør	-9.00751
▁franske	-9.00892
▁åpnet	-9.00909
▁keiser	-9.0091
asjonen	-9.00926
mester	-9.01042
ym	-9.01053
tz	-9.01104
sjef	-9.01382
▁skolen	-9.01392
▁egne	-9.01404
▁betydning	-9.01408
kr	-9.01572
▁nett	-9.01594
▁rev	-9.01621
▁hjemme	-9.01662
▁inneholder	-9.01665
▁langt	-9.01676
▁hjem	-9.01746
▁album	-9.01836
ā	-9.01889
▁ett	-9.01889
▁holdt	-9.01961
▁grunnlagt	-9.02332
▁italiensk	-9.02372
▁os	-9.02412
▁spille	-9.02493
▁lik	-9.02493
▁tap	-9.02518
▁nu	-9.02543
iet	-9.02637
selskap	-9.02649
punkt	-9.02758
▁tildelt	-9.02786
▁mis	-9.02856
▁26	-9.02983
sti	-9.03111
▁blad	-9.0316
ski	-9.03256
tel	-9.03348
▁we	-9.03421
▁fiske	-9.0343
setning	-9.03434
▁reise	-9.03553
we	-9.03661
▁finne	-9.03675
bygd	-9.03684
▁samarbeid	-9.03686
▁bill	-9.038
▁sen	-9.03827
▁lands	-9.03938
spiller	-9.03971
cu	-9.04029
▁opprettet	-9.04152
▁herre	-9.04201
istiske	-9.04301
▁etablert	-9.04533
▁universitet	-9.04611
tall	-9.04698
sund	-9.04749
bygning	-9.04767
▁qu	-9.04767
ach	-9.05074
▁kla	-9.05092
▁full	-9.05152
bygg	-9.05235
и	-9.05321
▁robert	-9.05371
▁skade	-9.05381
▁sendt	-9.05398
▁br	-9.05498
sto	-9.05508
▁lin	-9.0554
▁je	-9.05554
▁best	-9.05693
▁es	-9.05783
ight	-9.05894
ismen	-9.05907
mme	-9.06036
▁ordet	-9.06059
kken	-9.06088
anger	-9.0614
▁29	-9.06188
▁representert	-9.06323
nske	-9.06324
elt	-9.06337
▁medlemmer	-9.0639
▁mark	-9.06427
▁ten	-9.06457
▁historisk	-9.06493
anlegg	-9.06503
▁nok	-9.06507
▁sentrum	-9.06603
ay	-9.06659
▁sang	-9.06689
▁teater	-9.06769
enes	-9.06783
▁danmark	-9.06837
▁venstre	-9.06847
▁th	-9.06859
blad	-9.06883
▁serie	-9.06896
▁lyd	-9.0704
▁arm	-9.07218
▁delen	-9.07255
▁carl	-9.07255
▁1994	-9.07342
dde	-9.07469
ai	-9.0768
ze	-9.07696
▁fre	-9.07729
▁ber	-9.07773
▁vis	-9.07817
vann	-9.07867
▁fåt	-9.07878
▁pri	-9.08085
▁arter	-9.08151
▁kraft	-9.08265
ving	-9.08323
vet	-9.08332
▁eldre	-9.084
▁verdenskrig	-9.08421
▁hør	-9.08447
veien	-9.08448
▁dess	-9.08496
stående	-9.08498
▁arbeids	-9.08577
leder	-9.08608
▁gjort	-9.08767
ble	-9.08818
▁gran	-9.08844
båt	-9.08903
▁omfatter	-9.08918
▁viktigste	-9.08946
ater	-9.08989
▁sak	-9.08992
gård	-9.0901
▁veien	-9.09021
ille	-9.09125
ji	-9.09259
gitt	-9.0942
yn	-9.09434
▁elva	-9.09466
▁kunstner	-9.09528
▁berlin	-9.09626
▁ev	-9.09629
▁sig	-9.09729
fjorden	-9.09744
ps	-9.09775
▁fant	-9.09897
▁pl	-9.09906
▁løpet	-9.09946
▁af	-9.09966
king	-9.09987
fri	-9.10003
føre	-9.10183
▁fin	-9.10207
▁organ	-9.10291
▁studert	-9.10446
▁moh	-9.10454
bane	-9.10468
▁hard	-9.10474
▁kvinne	-9.1057
▁sosial	-9.10656
bygging	-9.1066
▁havn	-9.10662
mot	-9.10703
▁hvis	-9.10766
▁peter	-9.10818
tsj	-9.10882
kast	-9.10914
▁sterkt	-9.10931
gle	-9.10955
▁komme	-9.10972
fjord	-9.10973
▁liste	-9.11036
▁tom	-9.11057
▁aktiv	-9.11104
▁arkitekt	-9.11109
familien	-9.11206
▁hjelp	-9.11265
▁enkelte	-9.11395
▁benyttet	-9.11403
▁ke	-9.1144
ros	-9.11516
▁politiker	-9.11531
▁ferdig	-9.11551
tikk	-9.11752
▁mm	-9.11759
ola	-9.11764
▁forsøk	-9.1177
ino	-9.11838
▁tittelen	-9.11893
pper	-9.11966
produksjon	-9.12028
▁1970	-9.12035
liggende	-9.12098
▁gård	-9.12217
▁rolle	-9.12226
▁minst	-9.12258
▁politiske	-9.12259
▁bilde	-9.12274
▁valgt	-9.12307
▁riks	-9.12396
▁fall	-9.12518
▁delt	-9.12566
lys	-9.12576
ark	-9.12579
istisk	-9.12585
▁bal	-9.12733
sky	-9.12742
▁funnet	-9.12791
▁versjon	-9.12805
nyin	-9.12812
▁bri	-9.12871
▁q	-9.12883
▁paris	-9.12908
▁års	-9.12992
rå	-9.1308
▁russland	-9.13099
▁gal	-9.13151
▁dannet	-9.13154
▁minne	-9.13183
▁utnevnt	-9.13344
øl	-9.13401
▁kampen	-9.13612
▁åtte	-9.13641
lett	-9.13668
▁gresk	-9.13709
▁storbritannia	-9.1418
▁spe	-9.14187
▁energi	-9.14236
▁johan	-9.14237
▁31	-9.14314
kal	-9.14407
▁foran	-9.1449
▁danske	-9.14661
▁kontroll	-9.14744
▁høyre	-9.1475
▁krig	-9.14829
up	-9.14857
departementet	-9.14921
▁mac	-9.14925
▁system	-9.14942
skje	-9.15105
▁svenske	-9.15115
▁mc	-9.15137
▁fred	-9.15142
▁christian	-9.15216
ap	-9.15247
▁betydelig	-9.15276
▁omtrent	-9.15277
net	-9.15315
▁mennesker	-9.15355
gh	-9.15371
▁ras	-9.15475
▁40	-9.15497
skip	-9.1555
▁epi	-9.15597
mark	-9.15833
lsen	-9.15856
▁regjeringen	-9.15857
▁båt	-9.15873
grad	-9.15873
▁høyeste	-9.15882
▁fortsatte	-9.15996
▁stasjon	-9.16044
vær	-9.16085
▁york	-9.16385
▁bur	-9.16467
log	-9.165
kor	-9.16534
menn	-9.16605
▁gri	-9.16732
▁indre	-9.16749
dan	-9.16806
▁ry	-9.16831
▁1989	-9.1695
året	-9.16967
▁kro	-9.17032
▁ag	-9.17072
▁post	-9.17093
▁gjøre	-9.17093
lis	-9.17163
▁you	-9.17255
▁universitetet	-9.17354
▁lokale	-9.17391
▁stjerne	-9.17482
▁likevel	-9.17547
under	-9.17654
ale	-9.17656
zi	-9.1766
fin	-9.17812
▁topp	-9.17829
▁university	-9.18072
▁za	-9.18147
nntil	-9.1821
▁bygd	-9.18222
▁nummer	-9.18244
ana	-9.18343
▁sanger	-9.18344
▁start	-9.18403
▁vol	-9.18516
skog	-9.18603
▁1993	-9.18638
▁1996	-9.18645
▁tru	-9.18649
liv	-9.18737
syn	-9.18884
lle	-9.18964
▁ly	-9.19136
▁eget	-9.19159
som	-9.19168
о	-9.19204
▁direkte	-9.1921
vitenskap	-9.1921
xi	-9.19213
▁italia	-9.19218
▁fylkesvei	-9.1922
lå	-9.19264
ons	-9.19367
▁fle	-9.19386
lekt	-9.19398
▁bort	-9.19537
band	-9.19551
▁tekst	-9.19629
ara	-9.19646
▁trykk	-9.19668
▁2012	-9.19795
rin	-9.19822
▁mel	-9.1989
ari	-9.1989
chi	-9.19899
▁enkelt	-9.1997
▁seil	-9.1999
▁slaget	-9.2015
▁seier	-9.20199
▁høyde	-9.20236
▁knytte	-9.20363
▁1992	-9.20369
port	-9.20381
▁handels	-9.20396
▁ettersom	-9.20619
sak	-9.20655
▁vo	-9.20715
senter	-9.20737
▁vekt	-9.20752
▁gr	-9.20792
▁vm	-9.20822
▁våpen	-9.20863
▁partiet	-9.20896
е	-9.20944
▁1987	-9.20954
▁militær	-9.21112
▁gate	-9.21239
▁helse	-9.21406
fyl	-9.2143
▁sm	-9.21435
▁gro	-9.21508
▁venn	-9.21509
▁hovedsakelig	-9.21536
▁1984	-9.21536
drag	-9.21593
system	-9.21608
▁syd	-9.21657
ika	-9.21679
▁periode	-9.21711
trykk	-9.21838
▁park	-9.21891
arbeid	-9.2191
gjør	-9.21967
р	-9.22117
▁drept	-9.22117
▁1995	-9.22126
▁wo	-9.22142
▁henhold	-9.22168
▁dra	-9.2224
▁mur	-9.2238
▁kron	-9.22582
fall	-9.22633
handling	-9.22694
▁1960	-9.22722
ice	-9.22767
kant	-9.22945
▁ul	-9.23129
▁opera	-9.23167
▁modell	-9.23212
▁kongen	-9.23218
▁folkerepublikk	-9.23304
▁aldri	-9.23502
mu	-9.23506
way	-9.23582
▁linje	-9.23607
▁finn	-9.23722
▁60	-9.23873
▁eldste	-9.23903
▁staten	-9.23914
▁studie	-9.23918
gar	-9.23956
▁besto	-9.23972
gan	-9.24103
▁bern	-9.2411
vern	-9.24126
▁legge	-9.24355
▁regnes	-9.24355
▁pris	-9.2445
▁lege	-9.24466
▁ring	-9.24491
▁kyst	-9.24492
ini	-9.24492
▁mari	-9.24498
▁standard	-9.24521
▁sj	-9.24587
▁samle	-9.24595
▁professor	-9.24608
▁landets	-9.24655
▁hva	-9.24656
▁finland	-9.2474
minister	-9.24775
▁regionen	-9.24806
▁amerika	-9.24893
olog	-9.24912
sjøen	-9.24921
▁utvikling	-9.24957
▁para	-9.24998
rop	-9.2506
pris	-9.25141
▁skrift	-9.25346
side	-9.25521
▁hall	-9.25533
▁eid	-9.25539
▁au	-9.25585
▁strøm	-9.25655
▁angrep	-9.25665
old	-9.25696
è	-9.25721
ð	-9.25721
rat	-9.25732
gruppen	-9.25795
▁kamp	-9.25847
▁mod	-9.25894
▁dal	-9.25919
mannen	-9.25927
navn	-9.26042
▁gå	-9.26054
▁les	-9.26067
ferd	-9.26254
sj	-9.26283
lan	-9.26292
▁bred	-9.26314
bor	-9.26338
▁1988	-9.26341
▁1997	-9.26341
hl	-9.26385
▁sha	-9.26393
▁renn	-9.26525
▁biskop	-9.26601
40	-9.26662
▁olje	-9.26733
▁holde	-9.26796
▁kvinner	-9.26797
ban	-9.26877
eier	-9.26881
är	-9.26893
▁fjern	-9.26957
▁thomas	-9.26967
▁selskap	-9.27043
▁opprør	-9.2709
▁olav	-9.27099
▁virke	-9.27159
▁oppdaget	-9.27256
▁hø	-9.27508
▁sølv	-9.27567
▁dansk	-9.27606
▁gje	-9.27631
▁bank	-9.27692
▁sogn	-9.27743
ført	-9.27754
▁jernbane	-9.27769
▁steder	-9.27804
que	-9.27814
▁resultat	-9.27854
▁pat	-9.27918
▁ky	-9.27977
nte	-9.28061
stasjon	-9.28171
▁1998	-9.28205
▁port	-9.28325
▁punkt	-9.28411
▁bjørn	-9.28505
▁dager	-9.28526
oc	-9.28555
▁ce	-9.28681
▁områder	-9.2875
▁fil	-9.28774
bru	-9.28979
ford	-9.29226
lik	-9.29408
▁1991	-9.29459
▁ac	-9.29476
lene	-9.29484
stat	-9.2953
▁blod	-9.29563
ild	-9.29575
gikk	-9.29583
iserte	-9.29626
20	-9.29658
▁stu	-9.29716
▁politisk	-9.29827
▁west	-9.29903
▁møte	-9.29988
navnet	-9.30237
▁ap	-9.30247
▁utgjør	-9.30312
▁politi	-9.30421
▁skje	-9.30425
kje	-9.30492
ben	-9.30629
byen	-9.30651
▁funksjon	-9.30665
▁kilometer	-9.30737
▁hvordan	-9.30819
givelse	-9.30847
▁mos	-9.30903
▁studio	-9.30942
rus	-9.31017
▁verdi	-9.31023
▁mester	-9.31036
krigen	-9.31038
rum	-9.3108
bra	-9.3111
bl	-9.31186
▁befolkningen	-9.31189
▁følge	-9.31212
▁trondheim	-9.31388
▁sh	-9.31414
▁slo	-9.31453
▁tele	-9.31544
▁xi	-9.31591
▁svart	-9.31683
bin	-9.3174
▁can	-9.3189
▁plante	-9.31911
full	-9.31915
pol	-9.32165
handler	-9.3226
▁overtok	-9.324
▁natt	-9.32435
▁styrke	-9.32473
dra	-9.32489
områder	-9.32654
ial	-9.32663
▁grensen	-9.32672
▁informasjon	-9.32706
▁hopp	-9.3271
forbund	-9.32714
▁martin	-9.32719
pl	-9.32733
sje	-9.32829
▁lille	-9.32945
▁grev	-9.32984
mal	-9.3302
drift	-9.3307
ida	-9.33222
prosess	-9.33298
▁egg	-9.33329
▁århundre	-9.33344
▁2013	-9.33359
▁tradisjonell	-9.33413
sis	-9.33458
▁johannes	-9.33478
▁erik	-9.33484
▁hy	-9.33494
ografi	-9.33648
styre	-9.33703
ram	-9.3372
▁bø	-9.33732
▁meste	-9.33787
▁henne	-9.338
▁500	-9.33863
▁david	-9.34012
ix	-9.3422
organ	-9.34234
▁uttrykk	-9.34234
▁ball	-9.34288
samling	-9.3436
▁don	-9.34534
hr	-9.3465
evne	-9.34674
▁1985	-9.34683
▁hevde	-9.34684
▁1972	-9.34684
▁skjer	-9.34685
▁statsminister	-9.34688
området	-9.3478
▁jobb	-9.34786
all	-9.34867
▁sørlig	-9.34875
65	-9.34895
▁grå	-9.3495
formet	-9.35114
tus	-9.35236
▁cor	-9.3534
▁dronning	-9.35347
▁brasil	-9.35349
▁stavanger	-9.35352
ther	-9.35529
▁kat	-9.35543
▁neste	-9.35547
▁viktige	-9.35597
▁boken	-9.35624
retning	-9.35665
lia	-9.35687
skrift	-9.35752
bri	-9.3578
▁varme	-9.35784
▁sc	-9.35787
▁flat	-9.35833
rud	-9.35863
▁pol	-9.35971
▁syv	-9.35997
▁kjøpt	-9.36087
▁bedre	-9.36161
▁engelske	-9.36169
elva	-9.3622
▁skrive	-9.36236
huset	-9.36306
▁pra	-9.36329
nor	-9.36371
▁korte	-9.36499
▁konsert	-9.3653
▁los	-9.36576
▁populær	-9.36662
▁hvilke	-9.36699
▁2015	-9.36718
så	-9.36738
▁lagt	-9.36775
skolen	-9.3685
▁finsk	-9.36922
▁chi	-9.36996
tis	-9.37044
lighet	-9.37065
4	-9.37117
▁divisjon	-9.37117
90	-9.37162
▁bruke	-9.37171
▁kra	-9.37226
tol	-9.3725
▁høsten	-9.37305
▁sag	-9.37321
▁tegn	-9.37325
▁religiøs	-9.37384
▁sannsynlig	-9.37384
▁gen	-9.3744
▁gode	-9.37471
▁tett	-9.37483
▁eier	-9.37522
sjoner	-9.37543
shire	-9.37637
▁turn	-9.37761
10	-9.3778
språk	-9.37817
album	-9.37844
▁tradisjon	-9.37983
ani	-9.38
▁pal	-9.38053
▁tilsvarende	-9.38074
▁james	-9.38099
▁henrik	-9.38113
▁reist	-9.38134
▁son	-9.38144
▁cent	-9.3815
▁klasse	-9.38165
bud	-9.38219
kle	-9.38321
▁sentrale	-9.38359
▁maria	-9.38434
▁litteratur	-9.38452
skapet	-9.38453
▁kreve	-9.38531
▁ledd	-9.38533
▁lars	-9.38577
vit	-9.38696
ano	-9.38699
gul	-9.387
▁air	-9.38706
▁slått	-9.38711
▁george	-9.38776
▁1986	-9.38784
▁offentlig	-9.38788
▁sørøst	-9.3879
▁hår	-9.38791
▁åpen	-9.38832
▁kors	-9.38858
søk	-9.38905
▁ska	-9.38907
▁munn	-9.38947
hy	-9.39035
▁gren	-9.39069
60	-9.39078
▁lind	-9.39128
med	-9.39184
fon	-9.39192
▁data	-9.39237
grunn	-9.39247
organisasjon	-9.39283
▁super	-9.3935
alder	-9.39457
▁inter	-9.39483
▁nordøst	-9.39498
▁island	-9.39518
▁vår	-9.39522
▁enhet	-9.39699
loven	-9.39718
lev	-9.39929
▁vestlig	-9.39952
▁christ	-9.40028
▁dy	-9.40111
▁begynnelsen	-9.40175
▁2014	-9.40187
▁poeng	-9.40198
▁pave	-9.40243
48	-9.40281
ativ	-9.40361
▁endret	-9.40406
▁ger	-9.40463
▁løs	-9.40862
▁karakter	-9.4088
▁representant	-9.40881
▁beskytte	-9.40882
▁not	-9.40885
▁stiftet	-9.40888
messig	-9.40891
▁1977	-9.40894
ming	-9.40928
66	-9.40928
▁mø	-9.41099
jen	-9.41132
▁anders	-9.41232
▁grand	-9.4131
▁viste	-9.41347
▁råd	-9.41357
▁dan	-9.41396
stykke	-9.41526
ald	-9.41551
▁suksess	-9.41595
▁hverandre	-9.41596
▁lær	-9.41715
30	-9.41753
sjonen	-9.41866
86	-9.41893
▁uni	-9.41895
don	-9.41902
▁nrk	-9.41927
▁ep	-9.41953
▁fylkes	-9.41989
▁klar	-9.41999
▁stra	-9.4202
iner	-9.42066
▁dom	-9.42085
▁dyr	-9.42102
kj	-9.42125
▁jern	-9.42137
▁menn	-9.42144
▁spesial	-9.42199
of	-9.42225
fest	-9.42269
iz	-9.42294
▁arrangert	-9.42315
▁israel	-9.42315
▁oppkalt	-9.4232
▁vokst	-9.42397
har	-9.42472
▁latin	-9.42496
▁ter	-9.42571
▁hvit	-9.42596
itz	-9.426
▁sommeren	-9.42684
mus	-9.42813
stan	-9.4294
▁canada	-9.43041
▁len	-9.43048
▁egentlig	-9.4308
▁nordvest	-9.43093
▁ønsket	-9.43155
▁design	-9.4342
▁lærer	-9.43496
ita	-9.4364
▁endt	-9.43693
▁bad	-9.43835
havet	-9.43841
▁kle	-9.43862
dle	-9.43881
dor	-9.43915
▁makt	-9.43946
▁trolig	-9.4404
▁transport	-9.44143
▁200	-9.44164
wi	-9.44211
bbe	-9.44262
skilt	-9.44418
▁københavn	-9.44505
nu	-9.44507
▁hei	-9.4452
▁altså	-9.44532
▁fulgte	-9.44595
▁80	-9.44731
▁maskin	-9.44769
▁jon	-9.44774
ath	-9.44803
▁tal	-9.44822
▁begrepet	-9.44862
▁afrika	-9.44997
område	-9.4503
▁heter	-9.45076
▁livet	-9.45153
▁område	-9.45156
akademi	-9.45232
▁gården	-9.45241
▁1974	-9.45257
▁prosent	-9.45258
▁sommerfugl	-9.45259
gra	-9.45325
▁un	-9.45331
pass	-9.45368
▁alb	-9.45376
tale	-9.45454
▁tross	-9.45487
64	-9.45509
▁tung	-9.45605
▁sul	-9.45614
▁fla	-9.45663
▁fører	-9.45704
▁sun	-9.45737
medalje	-9.45767
▁ram	-9.4591
н	-9.45977
▁1982	-9.45992
▁derimot	-9.45999
mes	-9.46013
▁kroppen	-9.46121
nett	-9.4615
▁miljø	-9.46152
nik	-9.46323
▁rus	-9.46372
ffe	-9.46406
kin	-9.46451
ib	-9.46491
bert	-9.46527
▁region	-9.46708
▁lengre	-9.46761
▁1940	-9.46763
holm	-9.46766
70	-9.46823
▁oppført	-9.4694
get	-9.46962
rør	-9.47028
▁real	-9.47073
▁ob	-9.47098
ologisk	-9.47129
bær	-9.47211
ås	-9.47248
▁erstattet	-9.47255
ama	-9.4727
▁følger	-9.47367
bus	-9.47376
musikk	-9.47512
▁brann	-9.47563
▁sammenheng	-9.47571
▁vind	-9.47643
▁fest	-9.47665
tive	-9.47695
73	-9.47738
▁tall	-9.47774
lla	-9.47849
▁brukte	-9.4788
gne	-9.47928
▁bel	-9.47943
styrt	-9.47998
▁dia	-9.48063
▁smal	-9.48124
▁1979	-9.48265
▁1983	-9.48278
▁1973	-9.4828
▁war	-9.48363
zo	-9.48436
67	-9.48526
▁avdeling	-9.48528
▁holm	-9.48529
▁drift	-9.48595
▁nest	-9.48607
▁kloster	-9.48613
▁retning	-9.48647
▁skip	-9.48664
▁asia	-9.4867
▁figur	-9.48756
▁unge	-9.48822
▁180	-9.48976
parti	-9.49016
▁2016	-9.49057
▁1900	-9.49059
fag	-9.49064
dels	-9.49183
dia	-9.49261
gangen	-9.49298
dals	-9.49312
▁ansvar	-9.49336
▁høyere	-9.49346
▁drev	-9.49357
▁regjering	-9.49371
▁middel	-9.49422
▁raskt	-9.49527
▁fjorden	-9.49832
systemet	-9.49925
▁bygningen	-9.49938
heng	-9.49939
▁flagg	-9.50223
▁utvikle	-9.5027
skudd	-9.50299
rad	-9.50323
felt	-9.50331
▁effekt	-9.50369
lagt	-9.50392
cy	-9.50436
▁ex	-9.50454
aks	-9.50465
▁privat	-9.50563
▁plassert	-9.50584
▁stockholm	-9.5059
kh	-9.50613
▁nærings	-9.50705
▁stod	-9.50726
▁huset	-9.50773
stoff	-9.50781
▁knut	-9.50791
▁resten	-9.50832
isten	-9.50862
▁britisk	-9.5101
▁dro	-9.51017
lie	-9.51042
på	-9.51136
▁vas	-9.51161
▁national	-9.51378
nivå	-9.51387
▁1975	-9.51392
▁gass	-9.51409
▁ledelse	-9.51424
▁finans	-9.51432
mel	-9.51468
▁dersom	-9.515
▁kraftverk	-9.51568
løse	-9.5169
ms	-9.51736
▁type	-9.51816
sam	-9.5186
▁spi	-9.51881
selskapet	-9.52011
ive	-9.5209
▁gar	-9.52133
trekk	-9.5216
▁dårlig	-9.52173
▁midten	-9.52173
▁lengde	-9.52187
▁delta	-9.52189
▁valgte	-9.52201
▁black	-9.52214
▁roma	-9.52256
ls	-9.52435
▁elve	-9.5246
▁idretts	-9.52535
▁faren	-9.52635
▁svarte	-9.52747
▁mulighet	-9.52848
47	-9.52876
▁stø	-9.52877
36	-9.52929
▁relativ	-9.52972
▁vanskelig	-9.52979
az	-9.52991
▁musikkalbum	-9.52998
rådet	-9.53086
eide	-9.53152
ance	-9.53163
▁ære	-9.53181
mand	-9.53281
▁ci	-9.53288
ringen	-9.53333
▁nils	-9.53493
▁cm	-9.53504
▁løp	-9.53591
▁lenge	-9.53632
▁tanke	-9.53641
▁sky	-9.53672
▁us	-9.53692
34	-9.53694
▁lund	-9.53758
▁1981	-9.53778
▁publisert	-9.53778
▁student	-9.53779
virkning	-9.53805
lang	-9.53844
▁ven	-9.53848
qui	-9.53866
▁ytre	-9.53887
▁regel	-9.53942
ij	-9.5399
▁temp	-9.54011
▁miste	-9.54124
69	-9.54206
folk	-9.54299
▁larven	-9.5431
eks	-9.54351
▁utdanne	-9.54353
▁handling	-9.54367
▁nasjonale	-9.54532
▁stemme	-9.54586
▁heller	-9.54605
▁1968	-9.54606
zhou	-9.54607
▁1978	-9.54607
kla	-9.54632
▁alltid	-9.54647
▁stadig	-9.54666
▁årlig	-9.54763
tion	-9.54764
▁trafikk	-9.5487
midler	-9.54895
▁distrikt	-9.54897
78	-9.54998
▁veg	-9.55002
▁japan	-9.55113
▁bolig	-9.55115
▁høyt	-9.55138
hel	-9.55157
▁hvite	-9.55166
▁forsvar	-9.55182
▁hodet	-9.55207
▁ji	-9.55227
fører	-9.55328
▁kroner	-9.5536
▁finalen	-9.55373
riket	-9.554
▁bøker	-9.554
ub	-9.55401
л	-9.5541
kapasitet	-9.55411
▁1945	-9.55422
▁kanal	-9.55521
nc	-9.55619
▁jens	-9.55659
▁sju	-9.5568
▁skape	-9.55684
▁plate	-9.55692
▁vinner	-9.55708
▁grupper	-9.5601
▁karriere	-9.5606
▁samling	-9.56077
▁hest	-9.56128
▁retts	-9.56175
▁shi	-9.56231
▁fjerde	-9.56237
▁sivil	-9.56244
▁1956	-9.56252
▁1969	-9.56253
▁1950	-9.56271
ula	-9.5631
ette	-9.56342
62	-9.56344
▁rot	-9.56362
samfunn	-9.56366
▁produkt	-9.56387
▁bane	-9.56398
▁kam	-9.56503
▁ze	-9.56637
ux	-9.56653
▁fange	-9.567
stå	-9.56729
▁nordlige	-9.56738
án	-9.5675
▁skapt	-9.56773
▁sø	-9.56813
▁che	-9.56832
ekte	-9.56851
▁delvis	-9.56853
▁krav	-9.57011
▁oppgave	-9.57038
merket	-9.57059
▁øverst	-9.57071
▁1948	-9.57089
▁bind	-9.57105
stikk	-9.57111
▁riksvei	-9.57111
bilde	-9.57133
hvert	-9.57166
▁ana	-9.57225
▁nr	-9.57253
▁merke	-9.57343
aksjon	-9.57434
▁pop	-9.57468
verket	-9.57491
▁arten	-9.57498
68	-9.57558
▁myr	-9.57576
merke	-9.57641
▁lan	-9.57824
▁typisk	-9.57914
▁1920	-9.57932
▁ban	-9.57969
løper	-9.58003
▁skipet	-9.58035
▁eg	-9.5806
▁produksjon	-9.58131
▁undersøkelse	-9.58139
gna	-9.58145
standen	-9.58174
▁sende	-9.58309
▁journalist	-9.58311
58	-9.58345
▁bodd	-9.58484
▁mente	-9.58488
57	-9.5854
▁skyld	-9.58571
bø	-9.586
▁lar	-9.58698
▁totalt	-9.5874
▁1976	-9.58758
field	-9.58814
▁regn	-9.58823
kraft	-9.58824
▁daglig	-9.58919
▁1800	-9.58957
ved	-9.58966
▁sub	-9.59018
▁reform	-9.5903
▁nabo	-9.59033
asj	-9.5908
▁70	-9.59144
▁hovedstaden	-9.59243
▁thor	-9.59254
grense	-9.59282
▁militære	-9.59365
asjoner	-9.59436
satte	-9.59603
▁kardinal	-9.59613
▁world	-9.59613
▁1962	-9.59629
▁areal	-9.59636
▁sørvest	-9.59654
ction	-9.59688
▁offisielle	-9.59707
▁økonomiske	-9.59709
▁rik	-9.59729
våpen	-9.59736
industri	-9.59743
49	-9.59803
▁skatt	-9.59846
gift	-9.59985
▁hor	-9.60126
linje	-9.60135
▁kanon	-9.602
▁polen	-9.60242
▁museum	-9.60269
▁organisasjonen	-9.60285
▁bon	-9.60336
▁teori	-9.60341
▁formel	-9.60341
sal	-9.60353
▁greske	-9.60374
ata	-9.60392
gren	-9.60435
▁test	-9.60548
▁city	-9.6055
63	-9.60618
kunst	-9.6062
54	-9.60652
▁time	-9.60695
▁trans	-9.6071
▁feil	-9.60733
77	-9.61029
44	-9.61042
▁felt	-9.61137
▁stille	-9.61149
▁opphav	-9.61166
▁georg	-9.61211
arm	-9.61288
gje	-9.6129
▁turist	-9.61339
▁klassisk	-9.61346
▁havet	-9.61349
▁mw	-9.61372
▁interesse	-9.61375
▁profesjonell	-9.61389
▁dyre	-9.61396
jev	-9.61426
▁scene	-9.61441
▁virksomhet	-9.61519
▁oppdrag	-9.61588
▁anne	-9.61827
▁sir	-9.61873
▁just	-9.61915
tig	-9.61963
ori	-9.61978
plikt	-9.61987
▁fyr	-9.62027
▁drama	-9.62051
▁kjerne	-9.62051
▁ting	-9.62065
▁direktør	-9.62123
prisen	-9.62199
ú	-9.62221
▁øvrig	-9.62222
▁foreldre	-9.62223
▁grense	-9.62233
▁anlegget	-9.62242
▁søster	-9.62263
▁regi	-9.62273
▁omfattende	-9.62284
hav	-9.62304
styrke	-9.62387
75	-9.62541
ritt	-9.62601
blokk	-9.6264
fart	-9.6271
▁harald	-9.62727
56	-9.62798
lut	-9.62836
▁slike	-9.62887
▁nederlandsk	-9.62991
cia	-9.63001
▁spansk	-9.63034
▁listen	-9.63047
▁mørk	-9.63064
ich	-9.63078
▁fredrik	-9.63093
▁jacob	-9.63108
▁fokus	-9.63109
▁nærmest	-9.63113
▁rike	-9.6312
▁1958	-9.63124
mengde	-9.63159
▁fremme	-9.63165
ire	-9.63196
gjort	-9.63198
strøm	-9.63265
▁velge	-9.63367
▁metall	-9.63375
▁elv	-9.63406
▁kraftig	-9.63417
▁lenger	-9.63448
▁betegnelsen	-9.63537
▁variant	-9.63545
▁ek	-9.63568
bare	-9.63612
dri	-9.63695
mesterskapet	-9.63701
▁selve	-9.63706
▁løv	-9.63751
▁borg	-9.63858
▁naturlig	-9.63876
▁solgt	-9.63932
▁alder	-9.63941
▁stammer	-9.63967
▁dyp	-9.63987
à	-9.63999
▁passasjer	-9.63999
▁1965	-9.64021
▁eiendom	-9.64092
▁adel	-9.64097
▁400	-9.64175
regionen	-9.64197
▁kas	-9.64205
▁lø	-9.64221
gaard	-9.64252
kommune	-9.64267
ric	-9.64278
krets	-9.64307
▁cup	-9.64365
▁rein	-9.64376
▁beskrive	-9.64383
gruppe	-9.64426
▁flu	-9.64441
▁økonomi	-9.64445
▁fot	-9.6446
aktig	-9.6452
▁styrker	-9.64558
▁hit	-9.64569
publi	-9.64584
▁vid	-9.64611
▁utdanning	-9.64635
41	-9.64671
kur	-9.64696
▁ken	-9.64733
▁fø	-9.6483
ali	-9.64834
hal	-9.64842
▁sur	-9.64852
▁1971	-9.64912
af	-9.64917
▁omtalt	-9.64932
▁bakgrunn	-9.64944
▁økonomisk	-9.64947
▁befolkning	-9.64983
tic	-9.64984
▁kos	-9.65061
▁fremst	-9.65077
▁slekten	-9.65102
▁win	-9.65114
manns	-9.65119
▁kilde	-9.65212
▁japansk	-9.6525
▁fal	-9.65254
ordenen	-9.65261
kjempe	-9.65275
orm	-9.65313
plasser	-9.65317
▁personlig	-9.65319
gående	-9.65346
bry	-9.65368
▁klarte	-9.65418
cc	-9.65447
pla	-9.65493
tun	-9.65516
▁bygde	-9.65546
▁leir	-9.65637
▁åpne	-9.65644
72	-9.65652
gger	-9.65659
▁distriktet	-9.65712
dokument	-9.6573
stø	-9.65767
▁melodi	-9.65815
▁kontakt	-9.65815
▁mol	-9.65825
▁nivå	-9.65834
skjær	-9.65836
▁bevart	-9.65841
tjeneste	-9.65846
▁ya	-9.65916
møte	-9.66064
▁motstand	-9.66109
▁lot	-9.66177
▁tha	-9.66198
▁sel	-9.6622
▁arabisk	-9.66262
▁øke	-9.66302
our	-9.66457
▁tilby	-9.66645
▁enten	-9.66677
▁sovjetunionen	-9.66727
▁fotballspiller	-9.6676
▁sikre	-9.66768
▁sten	-9.66779
dar	-9.66858
▁gard	-9.66916
brudd	-9.66971
▁grønn	-9.67048
▁hin	-9.67093
▁begynner	-9.67123
haug	-9.67131
▁redaktør	-9.67141
▁vik	-9.67145
▁internasjonal	-9.67232
ria	-9.67277
▁prisen	-9.67306
ansk	-9.67344
▁kamper	-9.67455
87	-9.67485
▁bygg	-9.67509
▁sterk	-9.67515
▁ph	-9.67517
▁kol	-9.67618
к	-9.67647
▁symbol	-9.67651
hastighet	-9.67657
magasin	-9.67675
▁besøk	-9.67702
▁fortsette	-9.67708
83	-9.67857
vatnet	-9.67921
▁produsent	-9.67936
▁union	-9.67943
▁iii	-9.68012
▁ran	-9.6811
▁vold	-9.68139
▁etablerte	-9.68198
motor	-9.68202
valg	-9.68229
▁leve	-9.68248
fu	-9.68318
▁musiker	-9.68332
▁katolske	-9.68431
▁ii	-9.68433
▁uavhengig	-9.68435
▁louis	-9.68588
▁spania	-9.68588
▁nevnes	-9.68589
▁stortinget	-9.68591
▁klima	-9.68591
▁1957	-9.68605
▁helge	-9.68612
▁nådd	-9.68699
fo	-9.68724
visning	-9.68804
cha	-9.68847
▁sesong	-9.6886
▁trak	-9.68872
▁sterke	-9.68913
▁polsk	-9.69005
fang	-9.6901
▁yu	-9.69017
løs	-9.69057
▁buss	-9.69118
▁35	-9.69161
▁fordelt	-9.69208
ios	-9.69263
fisk	-9.69294
▁sovjetisk	-9.69327
rike	-9.69332
press	-9.69395
linjen	-9.69398
hund	-9.69401
▁ytterligere	-9.69531
▁krysse	-9.69539
gard	-9.6954
▁koloni	-9.69541
▁1964	-9.69551
ville	-9.69595
▁slott	-9.69653
ura	-9.69663
▁program	-9.69719
▁oftest	-9.69722
▁komponist	-9.69786
▁utført	-9.69832
▁ole	-9.69852
▁ube	-9.69878
ball	-9.69967
▁prøve	-9.69985
▁organisasjon	-9.6999
stedet	-9.70025
con	-9.70041
▁strid	-9.70073
klar	-9.7008
well	-9.70185
ins	-9.70185
42	-9.70189
▁posisjon	-9.70191
▁krist	-9.702
fjellet	-9.70403
▁1952	-9.70483
▁nødvendig	-9.70483
▁primær	-9.70484
▁østerrike	-9.70484
▁hjerte	-9.70485
▁element	-9.70487
▁1946	-9.70498
ith	-9.70511
▁historien	-9.70586
▁fugle	-9.70794
▁bidrag	-9.708
▁hæren	-9.70802
elli	-9.70812
org	-9.7099
▁ramme	-9.71012
klubb	-9.71103
▁ann	-9.71107
▁90	-9.71137
ney	-9.71166
▁omfatte	-9.71295
person	-9.71311
senteret	-9.71439
š	-9.71445
▁tilgjengelig	-9.71445
▁trøndelag	-9.71445
▁teknisk	-9.71445
▁øvre	-9.71445
▁richard	-9.71445
▁skjedde	-9.71464
▁ordfører	-9.71469
▁livs	-9.71484
hard	-9.71635
▁led	-9.71636
mund	-9.71648
ies	-9.71689
▁elev	-9.71706
sdag	-9.71755
▁domin	-9.71767
18	-9.71841
▁lære	-9.7185
▁masse	-9.71969
pu	-9.71974
▁anton	-9.71998
▁jorden	-9.72013
▁forskning	-9.72104
▁sau	-9.72189
fugl	-9.72284
▁materiale	-9.72309
▁strand	-9.72326
▁rapport	-9.72416
▁religion	-9.72416
▁1963	-9.72433
▁1967	-9.72436
▁problem	-9.72495
▁bol	-9.72567
▁fv	-9.72595
▁she	-9.7261
kjøp	-9.72658
▁sort	-9.72735
figur	-9.72773
▁ordenen	-9.72891
▁nordland	-9.72924
▁buk	-9.72949
vekt	-9.72951
59	-9.72974
gjorde	-9.72974
▁fro	-9.72974
▁stav	-9.73023
▁irland	-9.73043
▁tettstedet	-9.73047
ky	-9.73108
ora	-9.73125
▁stan	-9.73173
▁bay	-9.73206
▁dam	-9.7321
▁michael	-9.73396
▁norrøn	-9.73396
▁voksne	-9.73401
▁1939	-9.73409
▁1966	-9.73418
▁gifte	-9.73501
80	-9.73504
win	-9.73534
arbeidet	-9.73545
▁røde	-9.73603
▁hed	-9.73686
▁påvirke	-9.73698
▁trekk	-9.73717
▁kristne	-9.73744
▁wal	-9.73758
▁sar	-9.73858
lund	-9.73868
atet	-9.7389
▁tema	-9.73961
spor	-9.73963
grav	-9.74012
samisk	-9.74039
▁programmet	-9.7407
▁ungdoms	-9.74154
▁klubb	-9.74218
▁offisiel	-9.74276
▁revolusjon	-9.74282
▁nan	-9.74337
zz	-9.74397
stro	-9.74404
våg	-9.74459
▁tegnet	-9.74464
▁kjønn	-9.74482
▁kjenne	-9.74519
▁front	-9.74568
car	-9.74585
▁innført	-9.74616
▁romerske	-9.7462
▁debutert	-9.74622
▁euro	-9.74665
jan	-9.74673
▁slå	-9.74679
▁bispedømme	-9.74687
▁verne	-9.74723
▁river	-9.74775
▁sund	-9.7478
▁off	-9.74789
▁tapte	-9.7486
oni	-9.74972
▁konkurranse	-9.75249
▁hill	-9.7525
voll	-9.75286
▁produksjons	-9.75287
▁alternativ	-9.75386
▁selvstendig	-9.75386
▁fengsel	-9.75386
▁1955	-9.75398
strand	-9.75418
▁møtte	-9.75422
▁løper	-9.75508
parten	-9.75652
▁ankom	-9.75654
leie	-9.7567
delen	-9.75714
hn	-9.7582
ledning	-9.75821
strid	-9.75824
▁hell	-9.7585
arbeider	-9.76037
▁avisen	-9.76055
▁kjøpe	-9.76058
lad	-9.76067
foss	-9.7617
74	-9.7618
▁vær	-9.76201
tog	-9.7621
▁gjelder	-9.76292
▁hær	-9.76374
▁original	-9.76379
▁fremdeles	-9.76396
▁charles	-9.76422
▁snakke	-9.76431
43	-9.76464
stått	-9.76488
▁total	-9.76492
▁skille	-9.76497
▁gjennomført	-9.76501
▁samlet	-9.76597
▁albert	-9.76609
vind	-9.76668
gata	-9.76693
▁metal	-9.76699
▁flyplass	-9.76708
▁spre	-9.76716
▁høye	-9.76765
95	-9.76811
mba	-9.76834
▁salt	-9.76849
abel	-9.77054
forhold	-9.77058
▁cal	-9.77086
atur	-9.77202
skifte	-9.77243
▁egypt	-9.77259
▁kysten	-9.77279
kro	-9.77374
▁berømt	-9.77416
▁yngre	-9.77418
ão	-9.77445
▁kart	-9.77449
▁stasjonen	-9.77465
▁avhengig	-9.77486
▁fjellet	-9.77581
▁landslag	-9.77624
▁straffe	-9.77692
09	-9.77699
▁benyttes	-9.77732
85	-9.7774
▁regne	-9.77855
▁prosjekt	-9.77918
▁foss	-9.77939
løst	-9.77946
arter	-9.77992
▁skips	-9.78032
▁150	-9.78036
▁will	-9.78085
kysten	-9.78134
▁kh	-9.78174
▁hovedstad	-9.78195
gal	-9.78245
▁stoppe	-9.78266
▁motiv	-9.78345
▁holder	-9.7843
▁ishockey	-9.78447
▁2017	-9.78471
▁markeds	-9.78494
▁brev	-9.78532
▁sette	-9.78542
▁rygg	-9.78548
pel	-9.7858
▁samfunns	-9.78586
firma	-9.78722
▁politikk	-9.78775
▁rute	-9.78853
stid	-9.78901
▁45	-9.78931
▁åpning	-9.79052
▁lek	-9.79067
ob	-9.7907
kirken	-9.79198
▁spar	-9.79257
herre	-9.79268
farge	-9.79276
▁stand	-9.79306
▁forsvars	-9.79374
rich	-9.79376
46	-9.79462
▁behandling	-9.79482
▁elektrisk	-9.79489
▁publikum	-9.79489
▁wilhelm	-9.79489
▁1951	-9.79489
▁kunnskap	-9.7949
▁hovedrollen	-9.79491
▁bronse	-9.79508
slaget	-9.79519
▁lansert	-9.7952
▁jordbruk	-9.79527
▁bibel	-9.79587
oll	-9.79592
stripe	-9.79604
▁størrelse	-9.79606
▁landbruk	-9.79617
▁rund	-9.79655
ade	-9.79658
trådte	-9.7971
▁kristen	-9.79783
▁hundre	-9.79815
▁lage	-9.79842
▁sjef	-9.79859
▁spørsmål	-9.79908
▁landsby	-9.79931
▁operasjon	-9.79936
▁cap	-9.79965
▁kull	-9.79979
▁innehold	-9.79999
▁stål	-9.80103
▁tale	-9.80129
▁malt	-9.80147
tha	-9.80148
▁tog	-9.80224
levende	-9.80225
▁bud	-9.80298
11	-9.80304
▁studier	-9.80367
▁nordisk	-9.80395
trinn	-9.80434
▁temperatur	-9.80436
▁marine	-9.8044
▁international	-9.80542
▁1961	-9.80542
▁stadion	-9.80546
▁hertug	-9.80549
▁himmel	-9.80553
▁fjord	-9.80596
▁award	-9.80631
gin	-9.807
▁blei	-9.80761
▁europeiske	-9.80777
▁indisk	-9.80854
▁lev	-9.80864
▁singel	-9.80939
▁folket	-9.80966
▁soldater	-9.81007
▁teksten	-9.81016
▁utviklingen	-9.81022
low	-9.81033
▁mad	-9.81087
kraftverk	-9.81128
▁north	-9.81178
▁king	-9.81249
▁republikken	-9.81313
с	-9.81599
▁app	-9.81604
▁installert	-9.81606
▁betrakte	-9.81606
▁fungere	-9.81616
▁1918	-9.81624
▁1930	-9.8163
▁tolv	-9.81641
▁dog	-9.81691
øvelse	-9.81737
▁administrasjons	-9.81776
▁bla	-9.8179
hol	-9.81792
▁frank	-9.81906
▁kontor	-9.81943
▁forteller	-9.82045
▁char	-9.82079
▁sli	-9.82102
15	-9.82146
bjørn	-9.82154
▁sent	-9.82234
▁klo	-9.82254
▁fisk	-9.82269
▁heng	-9.8227
▁kap	-9.82372
▁vanlige	-9.82402
▁hoff	-9.8256
α	-9.8268
▁college	-9.82684
▁drive	-9.82688
▁1947	-9.82702
▁saint	-9.82709
nsk	-9.82724
▁eksistere	-9.82755
▁wei	-9.82759
▁fordel	-9.82799
▁byer	-9.82923
▁tids	-9.82968
▁kilder	-9.83003
mynt	-9.8302
04	-9.83092
kos	-9.83116
▁preget	-9.83124
▁arn	-9.83141
▁forfatteren	-9.83145
▁kai	-9.83187
▁aktivitet	-9.83242
▁måned	-9.83254
ledende	-9.83275
▁innsjøen	-9.8333
fot	-9.83372
▁østlig	-9.83469
▁ok	-9.83513
▁danse	-9.83539
▁odd	-9.83556
etter	-9.83613
▁star	-9.83637
▁hud	-9.83654
▁landsbyen	-9.8366
▁od	-9.83729
▁univers	-9.83745
▁folketelling	-9.83768
▁spesiell	-9.83768
▁bølge	-9.83791
▁ungdom	-9.838
▁forretnings	-9.83831
her	-9.83879
▁likhet	-9.83968
rick	-9.8397
▁py	-9.83974
bit	-9.83988
oid	-9.84026
▁støttet	-9.84061
veis	-9.841
▁sko	-9.8411
▁die	-9.8412
søkte	-9.84128
▁tusen	-9.8424
▁hjelpe	-9.84249
▁auto	-9.84306
▁ask	-9.84315
45	-9.84403
ér	-9.84523
▁gall	-9.84613
forsker	-9.84629
▁mørke	-9.8468
▁verket	-9.84753
в	-9.84856
▁australia	-9.84867
▁konflikt	-9.84867
▁lengst	-9.84874
▁1936	-9.84888
kirke	-9.84986
▁mid	-9.84992
▁sports	-9.8501
lingen	-9.85037
▁brand	-9.8508
▁jakt	-9.85109
▁anna	-9.85112
▁het	-9.85204
▁regjerings	-9.85211
▁sider	-9.8522
historie	-9.85233
▁offiser	-9.85376
▁måneder	-9.85409
▁teknologi	-9.85436
▁sku	-9.85491
▁markert	-9.8555
▁dj	-9.85669
▁utvidet	-9.85672
dam	-9.85699
▁video	-9.85703
▁pin	-9.85713
din	-9.85834
▁bj	-9.85866
institusjon	-9.85978
▁inkludere	-9.85978
▁kategori	-9.85978
▁aust	-9.85983
▁south	-9.85984
▁frukt	-9.86014
bia	-9.86073
▁behandle	-9.86113
▁krets	-9.86155
▁fabrikk	-9.86184
▁gyl	-9.8619
tek	-9.86195
bakk	-9.86208
▁artene	-9.86214
▁årsak	-9.86246
▁rh	-9.8626
▁grenser	-9.86297
▁falt	-9.86314
▁bry	-9.86387
▁sønnen	-9.86401
strekker	-9.86495
ppel	-9.86525
verdig	-9.86548
▁nasjon	-9.86574
kultur	-9.86593
vig	-9.86608
▁forsknings	-9.86625
middel	-9.86626
▁sykehus	-9.86668
komite	-9.86729
▁stig	-9.86761
▁nyere	-9.86792
▁frø	-9.86798
sammen	-9.86815
▁kjempe	-9.8682
▁haug	-9.8696
uf	-9.87002
53	-9.87073
▁formann	-9.87086
ο	-9.87101
▁fullstendig	-9.87101
▁introdusert	-9.87101
▁oversikt	-9.87103
▁hode	-9.87104
kjent	-9.87127
ppen	-9.8715
▁gjenopp	-9.87196
▁laste	-9.87217
sberg	-9.87238
▁kvinnelig	-9.87252
▁up	-9.87332
feltet	-9.87354
veg	-9.87412
▁tettsted	-9.87555
▁gutt	-9.87621
99	-9.87689
▁forskjell	-9.87727
serien	-9.87805
▁kjøl	-9.87822
25	-9.87877
ikken	-9.87923
vest	-9.87938
▁saken	-9.87967
ör	-9.88038
vinger	-9.88084
▁omtale	-9.88162
▁california	-9.88238
▁utgangspunkt	-9.88238
▁kritikk	-9.88238
▁nærmere	-9.88244
▁lufthavn	-9.88248
▁sier	-9.88249
ische	-9.8827
▁vinge	-9.88272
▁nærheten	-9.8832
▁dor	-9.88324
▁bytte	-9.88369
▁lavere	-9.8839
mod	-9.88425
▁representerer	-9.88487
▁master	-9.88498
ova	-9.88534
▁mak	-9.88541
▁sammenligne	-9.88695
▁rollen	-9.88725
dorf	-9.88774
▁overfor	-9.88794
ish	-9.88856
▁stamme	-9.88921
▁spill	-9.88925
valget	-9.88998
▁problemer	-9.89006
zh	-9.8902
▁hunnen	-9.89085
▁runde	-9.89151
sket	-9.8924
programmer	-9.89262
▁jule	-9.89303
▁nevnt	-9.89309
kop	-9.8933
24	-9.89348
▁joseph	-9.89387
plate	-9.89388
▁arrangere	-9.89388
▁300	-9.89389
▁fc	-9.89397
▁1953	-9.89404
▁skotsk	-9.8941
▁jazz	-9.89412
▁populære	-9.89451
▁jarl	-9.8946
▁driver	-9.8952
▁korea	-9.89552
▁nederland	-9.89558
▁kommuner	-9.89622
▁organisert	-9.89652
delt	-9.89727
pur	-9.8983
▁larvene	-9.89853
▁femte	-9.89992
kol	-9.90043
ernes	-9.90099
▁eie	-9.90214
▁bell	-9.90228
▁bidra	-9.90311
▁øyene	-9.90324
voks	-9.90324
▁kil	-9.90352
▁dør	-9.90366
illa	-9.90367
▁ves	-9.90378
▁rep	-9.90381
sekretær	-9.90535
т	-9.9055
▁royal	-9.90553
▁tydelig	-9.90557
▁unntak	-9.90569
▁videregående	-9.90581
▁eli	-9.90714
▁våren	-9.90717
▁rosen	-9.90727
▁arne	-9.90744
▁normalt	-9.90753
▁ansatte	-9.90773
ón	-9.90931
▁sykdom	-9.9096
▁nar	-9.9097
▁jean	-9.9102
▁music	-9.91052
▁spenning	-9.91054
▁endelig	-9.91111
▁qui	-9.91129
wan	-9.91228
oto	-9.91243
▁hellige	-9.91268
▁områdene	-9.91306
vekst	-9.91337
▁instrument	-9.91364
oy	-9.91369
▁rask	-9.91415
▁rå	-9.91491
pan	-9.91526
gå	-9.91537
▁bibliotek	-9.91543
▁bosatt	-9.91561
▁normal	-9.91567
▁doktorgrad	-9.91726
▁opprinnelse	-9.91726
▁betegne	-9.91727
▁sistnevnte	-9.91728
▁hustru	-9.9173
▁magnus	-9.91732
▁oscar	-9.91745
▁1944	-9.91749
▁private	-9.91769
▁snø	-9.91793
lem	-9.91806
grupper	-9.9186
▁solo	-9.91887
▁klart	-9.91939
▁horn	-9.91967
▁konkurransen	-9.91989
▁fremste	-9.92024
▁motsetning	-9.92029
▁athen	-9.92068
partiet	-9.92127
gården	-9.92216
▁kha	-9.92236
kammer	-9.9225
▁kontrakt	-9.92259
▁nø	-9.92282
▁liberal	-9.92338
▁hon	-9.92552
maskin	-9.92561
formen	-9.92578
blant	-9.92587
▁bit	-9.92668
▁flåte	-9.92689
følgende	-9.92797
▁lignende	-9.92839
▁vitenskapelig	-9.92854
hø	-9.92892
ł	-9.92917
▁united	-9.92919
▁snart	-9.92927
▁tidspunkt	-9.92933
▁dialekt	-9.92933
▁1924	-9.92934
▁middelalderen	-9.9297
høgskole	-9.92999
▁stortings	-9.93015
39	-9.93043
▁bosetning	-9.93048
▁kongelige	-9.93091
stri	-9.931
▁cirk	-9.9312
fil	-9.93136
▁angrepet	-9.93144
▁peder	-9.93281
hm	-9.93302
▁jevn	-9.93342
▁apo	-9.93374
krig	-9.93386
▁term	-9.93401
distanse	-9.93474
▁amt	-9.93532
35	-9.93601
▁bestemme	-9.93632
▁thi	-9.93778
hør	-9.93818
fjell	-9.93905
▁møter	-9.93918
▁gitar	-9.93937
▁utover	-9.93971
▁may	-9.9401
ping	-9.94017
▁ligne	-9.94079
▁records	-9.94122
▁company	-9.94122
▁school	-9.94122
▁1959	-9.94142
▁1941	-9.94143
▁1949	-9.94144
▁angeles	-9.94167
▁landskapet	-9.9422
71	-9.94232
▁undervisning	-9.94369
▁bord	-9.94417
feld	-9.94464
kov	-9.94557
▁svak	-9.94626
▁single	-9.9466
▁tropp	-9.94675
▁cu	-9.94754
▁mill	-9.94884
anda	-9.9492
produsent	-9.94968
▁sim	-9.95047
▁tittel	-9.95069
klubben	-9.95076
▁dynastiet	-9.95213
▁storm	-9.95287
▁kjøre	-9.95333
▁innflytelse	-9.95338
▁etterfulgt	-9.95341
▁skottland	-9.95341
▁inspirert	-9.95341
▁tegneserie	-9.9535
▁1932	-9.95355
▁1954	-9.95364
▁uttalt	-9.95414
▁daniel	-9.95418
▁1500	-9.95465
▁bryst	-9.95494
▁henry	-9.95511
▁spin	-9.95512
▁produsere	-9.95518
▁pen	-9.95549
skriv	-9.956
rolle	-9.95717
▁maur	-9.95759
vor	-9.95767
▁kongens	-9.95769
▁ekspedisjon	-9.95773
▁typer	-9.95864
▁utdannelse	-9.95872
▁parken	-9.95879
dagen	-9.96015
▁song	-9.96046
16	-9.96133
▁atom	-9.96246
vogn	-9.9626
øyene	-9.96281
▁romersk	-9.96294
svarer	-9.96386
▁elever	-9.96422
▁hage	-9.96441
▁trener	-9.96515
myndighet	-9.96543
▁blomster	-9.96574
▁administrativ	-9.96576
▁tilhørte	-9.96578
▁ekteskap	-9.96585
▁streng	-9.96586
▁institutt	-9.96598
▁camp	-9.96737
type	-9.96757
▁tang	-9.96839
▁marie	-9.96899
▁marc	-9.96902
▁fyrst	-9.96981
litt	-9.97044
stift	-9.97045
ulykke	-9.97077
▁forvaltning	-9.97095
▁rør	-9.97108
▁fn	-9.97127
13	-9.97305
▁forsøkt	-9.97426
▁jag	-9.97457
distrikt	-9.97489
sey	-9.97489
avdeling	-9.97501
▁harry	-9.97578
nummer	-9.97597
▁presse	-9.97655
skjell	-9.97661
kanten	-9.97718
▁hotell	-9.97732
▁vist	-9.97779
▁offentlige	-9.9779
▁kjærlighet	-9.97826
▁tilknytte	-9.97826
▁beijing	-9.97826
▁bidro	-9.97831
▁flertall	-9.97833
▁protest	-9.97843
▁mikro	-9.97869
▁high	-9.97875
▁nam	-9.979
hall	-9.97905
▁valget	-9.97907
later	-9.97951
▁kropps	-9.98124
▁banen	-9.9815
rommet	-9.98189
somme	-9.98235
▁base	-9.98252
lov	-9.98279
▁00	-9.98336
▁virkelig	-9.98354
▁bydel	-9.98421
▁gau	-9.98442
▁bonde	-9.98522
fjellene	-9.98548
istene	-9.98688
hem	-9.9873
▁liga	-9.98769
▁kreft	-9.9897
▁vunnet	-9.99092
▁moskva	-9.99092
▁jødisk	-9.99093
▁hemmelig	-9.99102
▁1928	-9.99107
try	-9.99177
▁rad	-9.99188
▁irsk	-9.99211
kamera	-9.99223
▁enkle	-9.99229
89	-9.9924
▁effektiv	-9.99246
22	-9.99379
▁32	-9.99414
▁damp	-9.99428
lapp	-9.99438
▁gui	-9.99536
gno	-9.99542
▁bevegelse	-9.99572
▁rei	-9.99609
▁inntekt	-9.99677
▁viking	-9.99686
museet	-9.99721
sjø	-9.99731
▁johann	-9.99731
▁rekord	-9.99753
▁glo	-9.99764
tag	-9.99841
▁utga	-9.99958
▁stilling	-9.9997
feng	-10.0016
ograf	-10.0023
hjem	-10.0023
saker	-10.0026
▁tonn	-10.003
▁således	-10.0037
▁kombinert	-10.0037
▁innsats	-10.0038
▁terror	-10.0038
▁1919	-10.0039
▁1943	-10.0039
ingeniør	-10.0041
äl	-10.0043
17	-10.0048
▁dekket	-10.005
▁fartøy	-10.0053
▁eik	-10.0062
▁ein	-10.0065
▁rang	-10.0071
▁historiker	-10.0074
▁status	-10.0078
▁grunnla	-10.0086
▁føde	-10.0088
▁metode	-10.0097
▁ansvarlig	-10.0118
qua	-10.0122
▁33	-10.0123
▁bånd	-10.0136
▁ung	-10.0136
post	-10.0137
pho	-10.014
▁uttale	-10.0142
▁tekster	-10.0144
vinner	-10.0146
▁forsvaret	-10.0153
syre	-10.0158
▁toppen	-10.016
ough	-10.0162
▁salg	-10.0165
ī	-10.0167
ū	-10.0167
▁utbredt	-10.0167
▁positiv	-10.0167
▁innspilling	-10.0168
▁glass	-10.0169
▁ansatt	-10.017
oth	-10.017
▁tilhenger	-10.0173
▁hersker	-10.0176
staten	-10.0177
▁filmer	-10.0184
gon	-10.0185
▁stoff	-10.0189
ona	-10.019
verdi	-10.019
områdene	-10.0191
▁formen	-10.0201
▁ansett	-10.0207
▁zo	-10.023
84	-10.0231
▁gun	-10.0234
27	-10.0237
▁avsluttet	-10.024
▁bestemt	-10.0244
▁selge	-10.0247
▁nes	-10.0255
▁prins	-10.0264
▁bob	-10.0265
▁poly	-10.0268
forfatter	-10.0271
▁mary	-10.0272
▁slave	-10.0294
▁kristian	-10.0294
▁regissert	-10.0299
▁fattig	-10.0299
▁1912	-10.03
▁1938	-10.03
▁mytologi	-10.0303
hopp	-10.0305
▁cra	-10.0307
▁solgte	-10.0311
▁trekke	-10.0316
▁1700	-10.0317
▁formål	-10.0321
▁nm	-10.0322
19	-10.0327
▁dato	-10.033
14	-10.0338
▁kvalitet	-10.0341
kort	-10.0346
▁freds	-10.0358
▁timer	-10.0364
▁tunnel	-10.0366
▁bestemte	-10.0366
▁struktur	-10.0372
94	-10.0372
▁inndel	-10.0373
bakken	-10.0381
▁cy	-10.04
▁innsjø	-10.0401
▁39	-10.0403
▁800	-10.0405
prosjekt	-10.0406
avis	-10.0406
▁sport	-10.0411
▁riket	-10.0414
▁stemmer	-10.0415
bank	-10.0425
▁statlig	-10.0426
▁økte	-10.043
▁middelsstor	-10.0432
▁objekt	-10.0432
▁islam	-10.0433
▁1929	-10.0433
▁veldig	-10.0439
stasjonen	-10.0443
snitt	-10.0446
▁gil	-10.0452
kilden	-10.0455
dahl	-10.0457
▁tun	-10.0461
hode	-10.0462
▁arv	-10.0464
▁musikken	-10.0469
▁nordover	-10.0477
▁gru	-10.0478
mennene	-10.0478
▁fritt	-10.0478
dekke	-10.0481
yang	-10.0486
▁sete	-10.0488
ön	-10.0499
bell	-10.0504
▁artikkel	-10.0507
▁max	-10.0515
▁linjen	-10.0526
▁skriver	-10.0534
fold	-10.0534
virksomhet	-10.054
utvikling	-10.054
produkt	-10.0543
miljø	-10.0545
hin	-10.055
▁utvalg	-10.0551
▁søke	-10.0552
▁cam	-10.0552
▁medisin	-10.0555
55	-10.0555
▁internasjonalt	-10.0556
▁1908	-10.0567
▁service	-10.0567
▁digital	-10.0567
▁redusert	-10.0567
▁studenter	-10.0567
▁allierte	-10.0567
basert	-10.057
▁tørr	-10.057
▁skaffe	-10.0571
▁dø	-10.0575
ary	-10.0575
parken	-10.0578
▁vokalist	-10.0582
skipet	-10.0583
opplysning	-10.0585
▁wat	-10.0586
▁fantes	-10.0589
▁gått	-10.0589
fabrikk	-10.0591
▁ender	-10.0592
▁bærer	-10.0595
sfjorden	-10.0597
▁green	-10.0599
▁underlagt	-10.0602
▁final	-10.0603
▁festival	-10.0605
▁andreas	-10.0613
▁cand	-10.0614
▁advokat	-10.0617
▁systemet	-10.0621
▁medlemmene	-10.0622
forestilling	-10.063
▁unna	-10.0631
▁kalk	-10.0633
28	-10.0638
▁nød	-10.0651
blom	-10.0652
sport	-10.0658
ici	-10.0663
▁intern	-10.067
▁opphold	-10.067
▁wien	-10.0683
sikkerhet	-10.0685
taker	-10.0696
marked	-10.0704
▁astronom	-10.0704
ō	-10.0704
▁1937	-10.0704
▁eksempler	-10.0704
▁overflate	-10.0704
▁referere	-10.0705
▁grunnlegger	-10.0705
▁smith	-10.0706
▁kg	-10.0711
21	-10.0711
▁bygninger	-10.0712
▁sveits	-10.0714
▁utgave	-10.0721
festivalen	-10.0723
▁petter	-10.0734
reise	-10.0737
▁vekst	-10.0755
▁typen	-10.0765
▁utføre	-10.0778
ity	-10.0779
▁uker	-10.0782
▁utenriks	-10.0786
rup	-10.079
▁andreplass	-10.0792
▁sluttet	-10.0803
misjon	-10.0806
▁forskere	-10.0822
▁tårn	-10.0824
forskning	-10.0827
vakt	-10.0829
hallen	-10.0841
▁kommunikasjon	-10.0843
▁mexico	-10.0843
▁ungarn	-10.0843
▁premier	-10.0846
▁und	-10.0847
▁län	-10.0848
rettigheter	-10.0849
▁keiseren	-10.0851
▁sikkerhets	-10.0852
▁kapell	-10.0852
▁nedlagt	-10.0853
▁ukjent	-10.0853
▁reaksjon	-10.0856
fond	-10.0857
▁kraftige	-10.0861
▁oppnådd	-10.0863
▁økt	-10.0865
▁37	-10.087
▁spanske	-10.087
ikere	-10.0872
▁fløy	-10.0873
▁utgi	-10.0875
brød	-10.0881
leir	-10.0888
foreningen	-10.0892
▁score	-10.0894
▁gruppa	-10.0895
07	-10.0896
løpet	-10.0903
▁bull	-10.0908
38	-10.0908
ella	-10.0909
▁beskrevet	-10.0914
32	-10.0919
▁idrettslag	-10.092
▁sven	-10.0934
slav	-10.0939
▁vegg	-10.0941
landskap	-10.096
administrasjon	-10.0961
▁debut	-10.0962
program	-10.0962
front	-10.0967
▁troll	-10.097
▁friedrich	-10.0984
▁akershus	-10.0984
▁regissør	-10.0984
▁generelt	-10.0984
▁brøt	-10.0984
▁ark	-10.0985
▁behov	-10.0985
▁myndighetene	-10.0985
▁ridder	-10.0985
▁bronsemedalje	-10.0985
▁mangler	-10.0986
▁håkon	-10.0986
▁gjeste	-10.0986
▁finnmark	-10.0987
▁boy	-10.0989
avtale	-10.099
▁endre	-10.0992
▁bortsett	-10.0998
▁bombe	-10.1003
▁uke	-10.1012
▁overført	-10.1022
▁unn	-10.1028
former	-10.1029
▁run	-10.103
skij	-10.1031
allianse	-10.1038
▁cur	-10.1047
▁utstilling	-10.1048
96	-10.1058
▁politiet	-10.1063
▁koll	-10.1066
jon	-10.1072
itter	-10.1073
range	-10.1074
▁tryg	-10.1075
▁fotograf	-10.1087
wald	-10.1089
logi	-10.1094
▁inge	-10.1094
forbindelse	-10.1096
▁lake	-10.1097
▁æ	-10.1098
▁deri	-10.11
lé	-10.1103
▁tilbud	-10.1108
▁cho	-10.1112
▁syke	-10.1114
98	-10.1115
vold	-10.1119
gav	-10.112
▁stol	-10.1124
▁american	-10.1127
▁alkohol	-10.1127
▁club	-10.1129
▁bydelen	-10.1129
▁spredt	-10.1129
▁anledning	-10.1136
▁fli	-10.1139
▁plassering	-10.1151
▁ull	-10.1157
▁kjell	-10.1159
▁eksempelvis	-10.1163
▁praksis	-10.117
bein	-10.1173
97	-10.1177
▁ekstra	-10.1179
▁oversatt	-10.1185
▁menighet	-10.1189
mil	-10.1196
gått	-10.1202
▁vannet	-10.1202
▁sats	-10.1206
tallet	-10.1208
mmet	-10.1209
▁senter	-10.1211
rakk	-10.1228
▁prosjektet	-10.123
▁versjonen	-10.1233
angrep	-10.1258
kjønn	-10.1259
▁tan	-10.126
▁guvernør	-10.1272
▁verdenscup	-10.1272
▁alvorlig	-10.1272
▁anerkjent	-10.1272
▁brensel	-10.1272
▁registrert	-10.1272
▁psykolog	-10.1272
▁multi	-10.1273
▁kveld	-10.1273
▁etterfølger	-10.1274
▁philip	-10.1274
domstol	-10.1276
trukket	-10.128
▁portrett	-10.128
fartøy	-10.1281
▁drag	-10.1282
▁dokumenter	-10.1285
▁forvingen	-10.1289
▁human	-10.1299
▁bredt	-10.1302
▁tone	-10.1309
▁trø	-10.1313
▁morgen	-10.1315
dannelse	-10.1316
klær	-10.1317
▁vakt	-10.1322
cl	-10.1326
▁insekter	-10.1326
▁roll	-10.133
▁foreningen	-10.1332
▁edderkoppen	-10.1332
▁skall	-10.1333
cul	-10.1333
▁planter	-10.1336
▁filosofi	-10.1338
halvøya	-10.1341
▁signal	-10.1348
▁stilte	-10.1353
▁sist	-10.1365
liste	-10.1379
▁55	-10.1393
handel	-10.1399
konkurranse	-10.1406
▁fylket	-10.1411
▁starter	-10.1413
▁75	-10.1414
92	-10.1416
▁oppdag	-10.1417
▁tilknytning	-10.1419
▁erkebiskop	-10.1419
▁nominert	-10.1419
▁jakob	-10.1419
▁sachsen	-10.1419
▁begrenset	-10.1419
▁fysisk	-10.142
▁fullført	-10.1422
▁turneringen	-10.1423
mur	-10.1424
▁east	-10.1425
▁rose	-10.1426
▁1600	-10.1429
▁dommer	-10.1429
▁butikk	-10.1429
▁provins	-10.143
▁vii	-10.1431
▁skiller	-10.1436
▁saga	-10.1448
000	-10.1448
▁intens	-10.145
▁nasjonalpark	-10.1452
▁zu	-10.1462
▁zi	-10.1474
vannet	-10.1475
▁former	-10.1476
▁synes	-10.1484
▁hydro	-10.1487
▁38	-10.1492
spekt	-10.1494
▁begrep	-10.1496
▁nav	-10.1497
▁mobil	-10.1498
▁flyet	-10.1508
▁tradisjonel	-10.1509
havn	-10.1516
▁motstander	-10.1517
▁nettverk	-10.1523
▁kommunist	-10.1524
brakt	-10.1525
▁penge	-10.1529
12	-10.1536
▁leon	-10.155
▁gram	-10.1555
trafikk	-10.1558
drevet	-10.1561
▁hurtig	-10.1567
▁ulv	-10.1567
▁county	-10.1568
▁christoph	-10.1568
hjørne	-10.1568
▁inngår	-10.1569
▁riktig	-10.157
▁maleri	-10.1571
▁leker	-10.1571
▁varierer	-10.1574
▁hentet	-10.1576
▁1000	-10.158
▁lønn	-10.158
▁jobbet	-10.1582
▁atlant	-10.1582
▁vannkraftverk	-10.1585
▁tråd	-10.1587
søn	-10.1588
▁telemark	-10.159
▁katolsk	-10.1593
▁bakken	-10.1595
▁gold	-10.1599
ward	-10.1607
▁utløp	-10.1611
dyktig	-10.1615
▁kule	-10.1617
▁kritiker	-10.1628
▁vogn	-10.1635
▁svar	-10.1636
▁orkester	-10.1638
▁gruve	-10.1648
▁rand	-10.1652
▁demokrat	-10.1663
ico	-10.1664
hild	-10.1667
com	-10.1675
▁pun	-10.1682
▁svi	-10.1689
▁frihet	-10.1693
time	-10.1701
▁600	-10.1702
aya	-10.1703
▁deles	-10.1704
▁vill	-10.1711
hånd	-10.1712
▁vet	-10.1713
▁europe	-10.1714
▁stå	-10.1719
▁svalbard	-10.172
▁vingespenn	-10.172
▁league	-10.172
▁edvard	-10.172
▁operatør	-10.172
▁major	-10.172
▁beholdt	-10.1721
▁power	-10.1721
▁1921	-10.1721
▁1927	-10.1722
▁scott	-10.1723
▁diplomat	-10.1725
▁vert	-10.1725
kontor	-10.1727
▁hovedsak	-10.173
▁detalj	-10.173
▁grønland	-10.1733
bak	-10.1735
▁anse	-10.1736
▁munk	-10.1743
ledd	-10.1746
▁ønske	-10.1748
▁spiss	-10.1757
▁120	-10.1775
▁blanding	-10.1779
▁bevis	-10.1782
▁hil	-10.1783
▁språket	-10.1788
▁bakkroppen	-10.1795
▁hug	-10.1802
▁tilfeller	-10.1819
▁klassen	-10.1821
▁town	-10.1826
▁utøver	-10.1836
▁latinsk	-10.1847
▁wh	-10.1855
▁hjul	-10.1857
▁vokal	-10.186
▁stam	-10.1861
født	-10.1872
▁individ	-10.1873
▁pakistan	-10.1873
▁xiàn	-10.1873
▁kommunal	-10.1874
▁redusere	-10.1874
▁frederik	-10.1874
komité	-10.1875
▁sjelden	-10.1878
▁dvs	-10.188
kjøretøy	-10.1882
lønn	-10.1882
▁rov	-10.1885
▁shan	-10.1885
▁matt	-10.1892
▁tau	-10.1896
strakt	-10.1901
▁sørover	-10.1908
▁with	-10.1909
▁tilhøre	-10.1911
▁adam	-10.1914
31	-10.1916
▁myk	-10.1918
23	-10.1922
pil	-10.1923
bygget	-10.1937
▁utfor	-10.1939
88	-10.1941
▁poet	-10.1943
▁interesser	-10.1944
▁hannen	-10.1948
▁visse	-10.1951
▁spillet	-10.1952
oksid	-10.1953
▁utstyr	-10.1953
▁styrkene	-10.1954
▁dømt	-10.1962
kilde	-10.1981
aria	-10.1985
formede	-10.1987
▁din	-10.2003
folket	-10.2011
setting	-10.2016
▁pap	-10.2021
▁aleksander	-10.203
▁argument	-10.203
▁konkurrere	-10.203
▁hendelser	-10.203
▁dollar	-10.203
▁definert	-10.203
▁1922	-10.2032
▁gustav	-10.2032
▁1942	-10.2032
▁signert	-10.2032
▁1910	-10.2033
medlem	-10.2036
▁bekrefte	-10.2036
▁sverd	-10.2036
▁romanen	-10.2038
makten	-10.2038
▁brenn	-10.2041
▁kommunistisk	-10.2043
politikk	-10.2043
▁france	-10.2043
▁vekk	-10.2044
kasse	-10.2045
lengde	-10.2045
▁spise	-10.2051
▁white	-10.2053
▁musikalsk	-10.2087
ittisk	-10.2101
kran	-10.2103
▁rob	-10.2109
▁utsatt	-10.211
▁parlament	-10.2116
▁medisinsk	-10.2116
▁dikter	-10.2118
▁lån	-10.212
▁arve	-10.2124
verden	-10.2125
▁trær	-10.2129
▁ross	-10.2135
▁ønsker	-10.2138
▁sørge	-10.2151
än	-10.2152
▁dun	-10.2155
▁bevege	-10.2157
onia	-10.2165
▁dyrke	-10.2165
matisk	-10.2166
▁santa	-10.2172
▁jur	-10.2176
▁salme	-10.2176
▁steve	-10.2181
▁kropp	-10.2183
▁whi	-10.2188
friidrettsutøver	-10.2188
▁vulkan	-10.2188
▁minutter	-10.2188
▁oblast	-10.2189
▁ødelagt	-10.2189
▁edward	-10.219
▁1923	-10.219
▁samfunnet	-10.2191
▁olsen	-10.2191
▁beregne	-10.2192
dikt	-10.2204
▁lyn	-10.2214
▁gitarist	-10.2228
ox	-10.2231
zy	-10.2234
▁malm	-10.2235
▁voksen	-10.2239
▁handel	-10.2243
▁korn	-10.2244
row	-10.2246
▁eva	-10.2248
▁kontinent	-10.2256
▁parlamentet	-10.2262
▁utstyrt	-10.2264
▁regional	-10.2269
spillet	-10.2269
▁fan	-10.2272
turnering	-10.2275
▁makten	-10.2276
▁cro	-10.2291
byrå	-10.2294
▁platen	-10.2295
▁skjold	-10.2298
▁ef	-10.2298
▁170	-10.2305
▁kok	-10.2306
▁paven	-10.2312
▁produksjonen	-10.2322
elv	-10.2327
▁gress	-10.2332
▁forbundet	-10.2338
▁bunn	-10.234
▁fødsel	-10.235
▁antagelig	-10.235
▁eventuel	-10.235
▁jørgen	-10.235
▁utenlandske	-10.235
frekvens	-10.235
kompleks	-10.235
▁nektet	-10.235
stipend	-10.2351
▁slank	-10.2351
▁litterær	-10.2352
strømmen	-10.2352
▁fjernsyn	-10.2353
▁vokser	-10.2354
▁skiftet	-10.2354
▁erklært	-10.2358
▁aksje	-10.2366
▁pensjon	-10.2368
▁billed	-10.2369
▁niels	-10.237
▁walter	-10.2371
▁driv	-10.2373
masse	-10.2385
▁tå	-10.2389
tjenesten	-10.239
▁kaste	-10.2391
redning	-10.2395
▁fotballklubb	-10.2403
▁skyte	-10.2404
▁aur	-10.2407
▁kommando	-10.2418
hei	-10.2419
▁konstruksjon	-10.242
▁tilfelle	-10.2432
stemt	-10.2448
cal	-10.2479
rekke	-10.2488
▁tour	-10.2489
▁teknikk	-10.249
ical	-10.2491
▁legen	-10.2497
▁lam	-10.2513
▁science	-10.2514
▁alexander	-10.2514
▁angripe	-10.2514
▁nedbør	-10.2514
▁ekstrem	-10.2514
▁konstant	-10.2514
▁faktisk	-10.2514
strøk	-10.2514
▁otto	-10.2515
teri	-10.2515
▁håndball	-10.2516
▁hindre	-10.2517
kampanje	-10.2524
rykk	-10.2525
▁show	-10.2526
renn	-10.2526
fyr	-10.2529
▁kalle	-10.2531
▁agder	-10.2533
▁bevegelsen	-10.2555
zj	-10.2561
▁besøkt	-10.2565
▁krim	-10.2581
▁boka	-10.2586
head	-10.2589
▁kino	-10.2594
▁festning	-10.2596
▁samarbeidet	-10.2596
▁brede	-10.2606
familie	-10.2607
▁beskrev	-10.2608
▁avtale	-10.2619
▁old	-10.2622
▁vingene	-10.2626
▁våg	-10.265
29	-10.2657
▁tam	-10.2658
sjanger	-10.2659
▁tann	-10.2664
rygg	-10.268
▁1905	-10.268
▁beseiret	-10.268
▁initiativ	-10.268
▁involvert	-10.268
▁konsept	-10.268
▁midlertidig	-10.268
▁ødelegge	-10.268
▁kaptein	-10.268
▁negativ	-10.268
▁sprint	-10.2681
▁oberst	-10.2681
rock	-10.2681
▁debutalbum	-10.2681
▁nedenfor	-10.2681
▁1933	-10.2682
ов	-10.2682
▁1931	-10.2682
▁1934	-10.2684
▁myndigheter	-10.2684
▁internett	-10.2684
▁stillingen	-10.2685
stjerne	-10.2688
melding	-10.2693
▁celle	-10.2697
▁flykte	-10.2697
▁sco	-10.2698
ois	-10.2714
▁press	-10.2714
▁levde	-10.2715
▁mørkere	-10.2721
▁palm	-10.2722
dommer	-10.2722
▁medvirke	-10.2725
uch	-10.2728
park	-10.273
▁kapp	-10.2746
botn	-10.275
▁plattform	-10.2751
▁funn	-10.2752
ordning	-10.2753
▁grunnlaget	-10.2756
▁kode	-10.2757
tunnelen	-10.2765
▁sikker	-10.2766
▁jim	-10.2768
▁erobret	-10.2777
▁snu	-10.2784
▁kim	-10.2792
▁plateselskap	-10.2798
▁aar	-10.2811
▁ytter	-10.2813
▁forble	-10.2814
▁brudd	-10.2814
▁avgjøre	-10.2815
ulf	-10.2819
▁skinn	-10.2823
▁prinsipp	-10.2825
▁hamar	-10.2836
▁festningen	-10.2846
▁konservativ	-10.285
▁innbyggertall	-10.285
▁autonom	-10.285
▁karbon	-10.285
▁jesus	-10.2851
▁1914	-10.2852
▁1917	-10.2852
▁arbeiderpartiet	-10.2852
▁papir	-10.2854
▁alfred	-10.2855
▁klokken	-10.2855
▁bakterie	-10.2857
▁eksport	-10.2858
▁stabil	-10.2858
faktor	-10.2858
▁jun	-10.2861
▁piano	-10.2862
▁rednings	-10.2864
▁avholdt	-10.2868
vald	-10.2871
▁grøn	-10.2872
▁ost	-10.2873
▁forekommer	-10.2882
▁sikte	-10.2882
▁tverr	-10.2882
▁trond	-10.2884
▁dobbelt	-10.2889
▁knap	-10.289
▁junior	-10.29
fant	-10.2903
▁bære	-10.2917
▁unngå	-10.2921
cci	-10.2927
▁comp	-10.2929
▁vinne	-10.2934
▁betale	-10.2936
▁motsatt	-10.2951
▁ec	-10.297
▁homo	-10.2974
årig	-10.2979
▁penger	-10.2981
roman	-10.2989
▁bou	-10.2997
▁korps	-10.3008
belteasteroide	-10.3022
▁byprefekture	-10.3022
▁nowiki	-10.3022
▁østerriksk	-10.3022
▁beslutte	-10.3022
stråling	-10.3023
▁sølvmedalje	-10.3024
▁1935	-10.3025
▁1913	-10.3025
▁løsning	-10.3026
kompani	-10.3028
▁svømme	-10.3029
▁fortellingen	-10.303
spissen	-10.3033
forsyning	-10.3034
skuespill	-10.3035
▁bio	-10.3037
▁verd	-10.3041
▁brygge	-10.3041
▁gö	-10.3042
bøker	-10.3046
eppe	-10.3048
bøl	-10.3051
▁meta	-10.3053
▁spring	-10.3054
▁intel	-10.3075
politisk	-10.309
▁kab	-10.3093
▁grei	-10.3097
▁grov	-10.3098
▁villa	-10.31
▁nedre	-10.3103
olje	-10.3105
▁tidsskrift	-10.3127
▁bach	-10.313
løsning	-10.3135
bukta	-10.316
perioden	-10.3164
▁forbinde	-10.3171
▁fru	-10.3173
▁øre	-10.3189
spir	-10.3195
kvalifisering	-10.3198
▁ambassadør	-10.3198
▁1926	-10.3198
▁vilhelm	-10.3198
▁hensikt	-10.3198
▁radikal	-10.3198
▁bodø	-10.3198
pedagog	-10.3198
▁bøkene	-10.3198
aceae	-10.32
▁tropisk	-10.32
▁1925	-10.32
▁1904	-10.32
▁estland	-10.3201
▁group	-10.3201
▁konsul	-10.3202
▁luther	-10.3207
▁artister	-10.3208
kommisjonen	-10.3209
▁hitler	-10.3212
▁tromme	-10.3215
▁arkitektur	-10.3217
hul	-10.3225
måte	-10.3225
▁antatt	-10.3226
jö	-10.3226
forbundet	-10.3227
▁team	-10.3228
flo	-10.324
▁bygda	-10.3242
▁oppleve	-10.3244
kreft	-10.3249
klasse	-10.3249
jå	-10.3251
▁vennskap	-10.3253
▁ytterst	-10.3263
temperatur	-10.3269
▁hå	-10.3288
▁kjemisk	-10.329
▁kandidat	-10.3295
▁høst	-10.3296
igere	-10.3297
▁sho	-10.33
▁vente	-10.3305
stav	-10.3307
▁aas	-10.3308
▁oliv	-10.3308
▁beau	-10.3317
alistisk	-10.3338
▁wel	-10.3341
▁neu	-10.3344
møll	-10.335
▁produserer	-10.335
▁middelalder	-10.337
ß	-10.3376
▁eventyr	-10.3376
▁strekningen	-10.3376
vassdraget	-10.3376
▁friidrett	-10.3376
▁ludvig	-10.3376
▁alexandr	-10.3376
▁forbedre	-10.3377
▁oppfatte	-10.3377
▁golf	-10.3377
▁generasjon	-10.3378
▁godkjent	-10.3379
▁studere	-10.3388
▁phil	-10.3392
materiale	-10.3396
direktør	-10.3396
hjul	-10.3397
funksjon	-10.3397
▁hellas	-10.3399
▁angi	-10.3399
▁gjeld	-10.3399
▁oppløst	-10.3406
▁gjenstand	-10.3407
▁jack	-10.3409
typen	-10.3413
▁kulturell	-10.3416
▁tromsø	-10.3416
▁corn	-10.3419
▁gjennomsnittlig	-10.3421
▁skulptur	-10.3422
▁persisk	-10.343
▁utnytte	-10.3437
bevegelsen	-10.344
▁tidsskriftet	-10.3451
▁vestre	-10.3454
▁roger	-10.3455
▁cri	-10.3461
▁benytter	-10.3464
▁rester	-10.3464
opera	-10.3467
▁vitne	-10.3476
▁innhold	-10.3497
▁wood	-10.3499
seth	-10.3505
▁mini	-10.3513
▁mao	-10.3521
lignende	-10.3529
▁antenne	-10.3531
▁vor	-10.3531
mmel	-10.3532
låten	-10.3551
▁oppmerksomhet	-10.3558
▁brødrene	-10.3558
▁krevde	-10.3558
▁tyrkisk	-10.3558
▁foregår	-10.3558
serie	-10.3558
horn	-10.3559
▁kobber	-10.3559
▁invasjon	-10.3559
▁frivillig	-10.356
▁wolf	-10.356
▁divers	-10.3561
▁befinne	-10.3561
▁sjette	-10.3561
▁house	-10.3563
vika	-10.3564
fell	-10.3565
eksamen	-10.3571
▁ungdomsskole	-10.3575
▁markere	-10.3575
hjelp	-10.3582
gress	-10.3583
▁geir	-10.3585
▁marin	-10.3588
▁georgia	-10.359
▁johnson	-10.3593
▁sær	-10.3595
ál	-10.36
emble	-10.3607
bringe	-10.3609
▁lunge	-10.3618
▁verb	-10.362
▁komedie	-10.3626
sundet	-10.3632
▁løfte	-10.3635
▁chile	-10.3651
▁hammer	-10.3653
katt	-10.3654
▁sideelv	-10.3656
▁melk	-10.3663
wich	-10.3669
korps	-10.3675
▁gjennomføre	-10.3694
▁cuba	-10.37
regning	-10.3706
▁troms	-10.3713
▁paus	-10.3713
hed	-10.3713
formasjon	-10.3715
uksjon	-10.3719
▁700	-10.3726
strategi	-10.3743
bredden	-10.3743
løytnant	-10.3743
▁arrestert	-10.3743
▁elisabeth	-10.3743
▁helsingfors	-10.3743
▁jerusalem	-10.3743
▁okkupasjon	-10.3743
ström	-10.3743
▁administrere	-10.3743
bataljon	-10.3743
▁sykkel	-10.3743
▁preussen	-10.3743
▁uvanlig	-10.3743
▁anvende	-10.3745
▁fiolin	-10.3746
▁telefon	-10.3746
væske	-10.3746
▁formula	-10.3749
▁jiang	-10.3753
▁feire	-10.3753
▁anlagt	-10.3759
▁tredjeplass	-10.3766
teknikk	-10.377
bibliotek	-10.3772
▁hull	-10.3775
analyse	-10.3777
▁web	-10.378
▁hekk	-10.3783
snegl	-10.3792
øst	-10.3796
▁oversettelse	-10.3808
▁kin	-10.3811
▁østre	-10.3818
ique	-10.3825
tårn	-10.3828
▁dol	-10.3832
▁andel	-10.3839
▁long	-10.3853
tekst	-10.3879
▁avtalen	-10.3881
stell	-10.3886
▁verdensmester	-10.3887
verv	-10.3893
▁arab	-10.3898
cent	-10.391
▁gaten	-10.3921
institut	-10.3921
arisk	-10.3924
fortelling	-10.3927
▁etablering	-10.3932
▁grunnleggende	-10.3932
▁utgivelsen	-10.3933
▁innebære	-10.3933
▁sentralbank	-10.3934
bach	-10.3934
▁romsdal	-10.3937
▁planlagt	-10.3938
▁fremført	-10.3944
skrevet	-10.395
▁syl	-10.3951
▁liber	-10.3953
▁deltaker	-10.3958
grensen	-10.3959
effekt	-10.3964
▁oppsto	-10.3971
partner	-10.3971
▁kristin	-10.3976
olin	-10.398
polis	-10.3984
▁mottatt	-10.3994
historisk	-10.4012
▁blande	-10.4014
▁torg	-10.4017
forsvar	-10.4018
grid	-10.4029
▁beina	-10.4035
▁wang	-10.404
trener	-10.4051
skyting	-10.4052
▁flest	-10.4059
▁forskjellig	-10.4066
løft	-10.4077
▁foto	-10.4085
vikler	-10.409
rute	-10.409
regime	-10.4091
▁160	-10.4091
▁out	-10.4096
▁akseptert	-10.4124
▁ortodoks	-10.4124
▁patriark	-10.4124
▁færøyene	-10.4124
▁british	-10.4124
▁kombinasjon	-10.4124
▁sigurd	-10.4124
▁mekanisk	-10.4124
▁fjær	-10.4124
▁eksistert	-10.4125
▁arendal	-10.4126
▁anklage	-10.4126
▁brown	-10.4128
▁halvparten	-10.4128
▁erfaring	-10.4129
▁bispe	-10.4138
▁gott	-10.4139
cra	-10.414
▁drikke	-10.4142
▁arkeolog	-10.4143
▁ordnet	-10.4143
▁christiania	-10.4151
▁wales	-10.4152
▁antennene	-10.4157
næring	-10.4159
▁mjø	-10.4166
▁puppe	-10.4173
▁tyskerne	-10.4176
▁tykk	-10.4179
forståelse	-10.4197
wick	-10.4203
▁laks	-10.421
▁kåret	-10.4216
▁kjemi	-10.4219
listen	-10.4224
lærer	-10.4235
▁forklare	-10.4235
festival	-10.424
maker	-10.4258
tysk	-10.4271
base	-10.4279
▁grunnlov	-10.4291
▁cru	-10.4299
kirk	-10.4301
iansk	-10.4302
fast	-10.4304
▁asteroide	-10.432
▁hordaland	-10.432
komponent	-10.432
▁ovenfor	-10.432
▁fenomen	-10.432
▁juridisk	-10.432
▁kristiansand	-10.432
▁geografisk	-10.432
▁arthur	-10.4321
palasset	-10.4321
▁yrkes	-10.4321
▁erstatning	-10.4321
▁bakvingen	-10.4321
▁bedriften	-10.4322
▁1916	-10.4323
▁1911	-10.4323
▁debatt	-10.4325
teater	-10.4325
monument	-10.4326
▁regiment	-10.4327
▁respekt	-10.4331
▁byggingen	-10.4334
▁klatre	-10.4336
▁forvente	-10.4337
ernst	-10.4348
▁oppstod	-10.4352
▁statsråd	-10.4353
▁håp	-10.4357
sosial	-10.436
studie	-10.4363
tind	-10.4387
▁back	-10.4392
▁mau	-10.4414
periode	-10.4417
▁who	-10.4425
▁bryte	-10.4428
vandring	-10.4429
▁preg	-10.4462
▁pont	-10.4465
turbin	-10.447
▁drap	-10.4474
▁ulik	-10.449
▁toll	-10.45
▁kår	-10.4504
▁sveitsisk	-10.4507
høyde	-10.4511
▁arrangement	-10.452
▁frankfurt	-10.452
▁minoritet	-10.452
▁separat	-10.452
▁fungerte	-10.452
kompetanse	-10.452
▁hebraisk	-10.452
▁tabellen	-10.4521
▁hendelsen	-10.4521
▁utmerkelse	-10.4521
▁fjordane	-10.4521
▁døgn	-10.4522
▁opposisjon	-10.4522
evangeli	-10.4523
▁reserve	-10.4523
▁opplevd	-10.4523
▁svein	-10.4524
▁mengder	-10.4525
▁utgaven	-10.4525
▁operere	-10.4533
bransje	-10.4535
▁humor	-10.4536
▁1897	-10.4536
▁1898	-10.4536
klassen	-10.4545
▁gradvis	-10.456
▁vanligste	-10.456
teori	-10.4562
befolkning	-10.4563
▁sovjet	-10.4564
oppgave	-10.4568
▁sving	-10.4572
▁nerve	-10.4574
bunn	-10.4592
versjon	-10.4593
profil	-10.4602
▁lykke	-10.4608
▁hytte	-10.4611
▁polar	-10.4611
▁mah	-10.4628
departement	-10.4652
slått	-10.4653
▁beskrivelse	-10.4658
▁modern	-10.466
▁vende	-10.4664
▁wu	-10.4666
start	-10.4693
redaksjon	-10.4695
▁bau	-10.47
bolig	-10.4704
observasjon	-10.4724
▁kollektiv	-10.4724
▁manuskript	-10.4724
▁portugisisk	-10.4724
▁utelukke	-10.4724
▁1879	-10.4724
▁1902	-10.4724
▁stridsvogn	-10.4724
▁gregor	-10.4724
▁avdøde	-10.4724
▁frykt	-10.4724
▁thailand	-10.4724
opplæring	-10.4725
▁ansikt	-10.4725
▁canadisk	-10.4725
▁oppstår	-10.4725
▁betjene	-10.4725
kjøring	-10.4726
▁unntatt	-10.4727
▁900	-10.4727
gutt	-10.4733
▁medaljen	-10.4733
▁allmenn	-10.4735
utvalg	-10.4736
▁prosessen	-10.4741
▁ibsen	-10.4743
▁young	-10.4748
▁grunnlag	-10.475
▁gli	-10.4758
▁sandnes	-10.4762
nemlig	-10.4767
▁lord	-10.4771
karriere	-10.4783
▁emil	-10.4789
▁seire	-10.4793
behandling	-10.4795
▁synlig	-10.4799
▁rulle	-10.4838
▁from	-10.484
▁osv	-10.4844
▁brå	-10.4857
▁esp	-10.4872
▁lyng	-10.4877
drakt	-10.4899
▁flytte	-10.4901
▁orient	-10.4923
▁oppnå	-10.4924
▁vietnam	-10.4933
▁fakultet	-10.4933
▁naturreservat	-10.4933
▁prestegjeld	-10.4933
▁restaurant	-10.4933
▁shanghai	-10.4933
▁renessanse	-10.4933
▁uansett	-10.4933
▁rogaland	-10.4933
▁belgia	-10.4933
veksling	-10.4933
▁drammen	-10.4933
▁forsvant	-10.4933
▁bbc	-10.4933
▁gunnar	-10.4933
▁josef	-10.4933
▁hjerne	-10.4933
teatret	-10.4933
▁väst	-10.4933
▁prinsesse	-10.4933
▁forårsake	-10.4933
▁datamaskin	-10.4934
▁import	-10.4934
▁hovedkvarter	-10.4935
▁britene	-10.4936
▁2018	-10.4939
▁vendt	-10.4944
▁tilfeldig	-10.4944
▁street	-10.4947
▁filosof	-10.4953
fred	-10.4956
▁stiftelsen	-10.4973
bånd	-10.4983
museum	-10.4984
▁edderkopp	-10.4997
▁victoria	-10.5
▁hørte	-10.5031
elleve	-10.5032
▁math	-10.5036
▁angel	-10.5061
▁blu	-10.5063
▁mannlig	-10.5064
bour	-10.507
tagelse	-10.5088
▁hval	-10.5093
stemme	-10.5131
▁alpin	-10.5132
funn	-10.5143
▁columbia	-10.5145
▁windows	-10.5145
▁1903	-10.5146
▁beslektet	-10.5146
▁buskerud	-10.5146
▁komponert	-10.5146
▁referanse	-10.5146
▁rådgiver	-10.5146
▁heinrich	-10.5146
▁innbyggerne	-10.5146
▁stafett	-10.5146
▁electr	-10.5146
▁semifinale	-10.5146
▁skjul	-10.5146
▁praktisk	-10.5146
▁tilskuer	-10.5146
traktaten	-10.5146
▁rykket	-10.5147
▁firmaet	-10.5148
▁generell	-10.5148
▁1915	-10.5149
▁tjue	-10.5151
▁tegninger	-10.5152
▁skytter	-10.5153
▁stykket	-10.5154
▁holdning	-10.5154
▁demokratiske	-10.5155
▁onkel	-10.5156
▁fredrikstad	-10.5156
▁bakke	-10.5158
▁lokalisert	-10.5163
stemning	-10.5177
▁uavhengighet	-10.518
▁aksel	-10.5181
▁østover	-10.5181
▁sankt	-10.519
▁raf	-10.5196
▁akku	-10.52
▁johansen	-10.5201
▁server	-10.5201
vá	-10.5205
modell	-10.5212
skyld	-10.5218
▁benytte	-10.5227
utstyr	-10.5237
▁etasje	-10.5238
▁brutt	-10.5286
▁jente	-10.5311
▁250	-10.5313
▁elite	-10.5314
▁bang	-10.532
terje	-10.5342
▁basis	-10.5344
▁hellig	-10.5346
regn	-10.5348
▁arkeologisk	-10.5351
løk	-10.5357
▁oppdagelse	-10.5359
▁argentina	-10.5363
▁münchen	-10.5363
▁washington	-10.5363
▁gymnas	-10.5363
▁skjønt	-10.5363
▁jesuitt	-10.5363
▁annonsert	-10.5363
▁antarktis	-10.5363
▁tømmer	-10.5363
▁claud	-10.5364
▁regler	-10.5364
▁jøder	-10.5364
▁kronologisk	-10.5366
▁1909	-10.5366
▁definere	-10.5366
opptreden	-10.5368
▁arkiv	-10.537
▁skutt	-10.5371
▁filip	-10.5371
▁larvik	-10.5372
▁donau	-10.5372
▁franz	-10.5372
▁barndom	-10.5375
▁økende	-10.5379
▁1896	-10.538
▁1894	-10.5382
▁lisens	-10.5382
▁1814	-10.5382
▁down	-10.5384
▁rifle	-10.5385
▁prosti	-10.5387
▁1880	-10.5388
▁panser	-10.539
▁soldatene	-10.5391
▁gjeng	-10.5394
▁familiegruppe	-10.5397
▁130	-10.5403
▁konsekven	-10.5414
▁qing	-10.542
konsert	-10.5426
▁slippe	-10.5433
▁chang	-10.5433
▁glad	-10.5435
▁simon	-10.5437
bød	-10.5448
stue	-10.5451
økonom	-10.5459
▁urban	-10.5489
▁sjel	-10.5501
▁etnisk	-10.5514
gjenger	-10.5519
▁overleve	-10.5541
ship	-10.5549
▁terreng	-10.5573
▁francis	-10.5582
▁elektronisk	-10.5585
▁nøytral	-10.5585
▁1906	-10.5585
▁anerkjenne	-10.5585
▁intervju	-10.5585
▁vesentlig	-10.5585
▁individuell	-10.5585
▁henrettet	-10.5585
▁mektig	-10.5585
▁presentert	-10.5585
▁fett	-10.5586
▁omdanne	-10.5587
▁hvile	-10.5587
▁foreslått	-10.5588
▁overlevd	-10.5588
▁programvare	-10.5589
▁trenger	-10.559
▁meldt	-10.5593
▁misjons	-10.5595
psyko	-10.5601
▁blind	-10.5604
▁ferr	-10.5605
løv	-10.5618
▁metro	-10.5619
▁verksted	-10.5623
▁romania	-10.5628
▁deltatt	-10.5631
▁vindu	-10.5631
▁statue	-10.5634
kommende	-10.564
▁variert	-10.5645
▁frakte	-10.5649
tempelet	-10.565
regjering	-10.5651
▁slette	-10.5666
kall	-10.5673
tenkt	-10.5675
utenriksminister	-10.5679
33	-10.5679
vall	-10.5684
strup	-10.5688
▁luci	-10.5704
▁falk	-10.5727
▁kunstig	-10.5728
▁dynasti	-10.574
støtte	-10.5744
▁koste	-10.575
▁tjene	-10.5754
▁dominert	-10.5761
enhver	-10.5785
▁afghanistan	-10.5812
▁australsk	-10.5812
▁barcelona	-10.5812
▁dekkvingene	-10.5812
▁elizabeth	-10.5812
▁milliarder	-10.5812
▁sportsutøver	-10.5812
▁beslutning	-10.5812
▁definisjon	-10.5812
▁engasjert	-10.5812
▁innspilt	-10.5812
▁investering	-10.5812
▁etablere	-10.5812
▁ungarsk	-10.5813
▁reklame	-10.5813
▁kritisert	-10.5813
▁selvmord	-10.5813
▁avledet	-10.5813
budsjett	-10.5813
▁automatisk	-10.5813
▁belgisk	-10.5813
▁kjørt	-10.5814
▁manager	-10.5814
▁1907	-10.5815
▁hedmark	-10.5815
▁spesifik	-10.5816
▁1200	-10.5816
▁vestfold	-10.5819
▁hensyn	-10.582
▁michel	-10.5821
apparat	-10.5824
▁kaffe	-10.5825
▁plast	-10.5827
▁gjennombrudd	-10.5829
språklige	-10.583
▁kommunestyre	-10.5832
▁1889	-10.5833
▁hypo	-10.5838
▁utenom	-10.5852
▁morten	-10.5863
forsamlingen	-10.5863
posisjon	-10.5874
utdanning	-10.5881
▁smak	-10.5881
instrument	-10.5883
▁kjede	-10.5919
korset	-10.5922
▁utøve	-10.5946
▁histori	-10.5983
▁exp	-10.5984
▁klokke	-10.5984
▁kupp	-10.5998
▁kirkegård	-10.6004
▁europeisk	-10.6011
▁frei	-10.6013
▁helst	-10.6023
▁inneba	-10.6028
▁fjellkjeden	-10.6045
▁umiddelbart	-10.6045
▁nøyaktig	-10.6045
▁ressurs	-10.6045
▁etterkommer	-10.6045
▁hvem	-10.6045
▁haakon	-10.6045
mouth	-10.6046
▁rolf	-10.6046
▁brigade	-10.6046
▁forkortet	-10.6046
▁oppfølger	-10.6047
▁great	-10.6049
▁jackson	-10.6052
worth	-10.6057
▁cross	-10.6061
▁koble	-10.6062
▁sammenlagt	-10.6068
▁night	-10.6068
▁personlighet	-10.607
▁ledes	-10.6078
▁einar	-10.6081
▁innerst	-10.6081
mannskapet	-10.609
▁utvidelse	-10.6105
▁republikk	-10.611
elius	-10.6119
skjold	-10.6121
▁hender	-10.6126
endt	-10.6135
straff	-10.6143
▁furu	-10.6159
▁tiår	-10.6223
prest	-10.6232
▁vannkraft	-10.627
▁spenn	-10.6271
▁dverg	-10.6272
▁eksperiment	-10.6283
▁konkurrert	-10.6283
▁symfoni	-10.6283
▁1901	-10.6283
▁hjort	-10.6283
▁forhindre	-10.6283
▁oxford	-10.6283
▁bærum	-10.6283
▁senior	-10.6283
▁føderal	-10.6284
▁kryp	-10.6284
▁kritisk	-10.6285
▁tildeles	-10.6286
mønster	-10.6286
на	-10.6288
hest	-10.6288
▁blues	-10.6292
▁røtter	-10.6297
▁katedral	-10.6299
▁egyptiske	-10.63
▁tolke	-10.6303
▁för	-10.6305
▁jeff	-10.6309
redskap	-10.6311
▁prix	-10.6314
▁vestsiden	-10.6318
▁etappe	-10.632
burn	-10.6362
▁afrikansk	-10.6364
programmet	-10.6369
vilje	-10.6376
▁klippe	-10.638
maleri	-10.6386
▁ferge	-10.6389
▁wall	-10.6419
stokk	-10.642
▁begynne	-10.642
reich	-10.6426
▁kontrollert	-10.6433
næs	-10.6452
▁trodd	-10.646
▁fulgt	-10.6497
økonomi	-10.6504
▁dreie	-10.6507
seksjon	-10.6526
▁atmosfære	-10.6527
▁country	-10.6527
▁lillehammer	-10.6527
▁lokomotiv	-10.6527
▁maksimal	-10.6527
▁millimeter	-10.6527
▁påbegynt	-10.6527
▁utbredelse	-10.6527
▁infanteri	-10.6527
▁adolf	-10.6527
▁global	-10.6527
▁zealand	-10.6527
▁igjennom	-10.6527
▁valuta	-10.6527
▁sektor	-10.6527
▁utnevne	-10.6527
▁systematisk	-10.6528
▁bebyggelse	-10.6528
▁svekke	-10.6528
▁programleder	-10.653
▁nyhets	-10.653
▁skarp	-10.653
▁birke	-10.6532
town	-10.6534
▁analyser	-10.6535
▁frp	-10.6535
▁institute	-10.6537
▁senator	-10.6537
▁messe	-10.6538
vilkår	-10.6539
▁kristiania	-10.6541
▁variasjon	-10.6552
▁drepe	-10.6552
▁öst	-10.6553
▁lettere	-10.6556
▁dukket	-10.6561
ministre	-10.6607
kontroll	-10.6615
problem	-10.6615
amerikansk	-10.6616
kolon	-10.6624
▁filosofisk	-10.6639
ition	-10.667
kjerne	-10.6682
tjente	-10.6693
▁hä	-10.6715
▁gjennomsnitt	-10.6727
▁størst	-10.6754
▁split	-10.6764
pningsseremonien	-10.6777
▁jomfru	-10.6777
▁vancouver	-10.6777
▁vedlikehold	-10.6777
▁virginia	-10.6777
▁istedenfor	-10.6777
▁naturgass	-10.6777
▁church	-10.6777
▁nynorsk	-10.6777
▁risiko	-10.6777
▁rektor	-10.6777
▁kapital	-10.6777
▁korrekt	-10.6777
▁utseende	-10.6778
▁ektemann	-10.6778
▁josé	-10.6779
▁smelte	-10.6779
▁felttog	-10.6779
▁kongedømmet	-10.6779
▁tallrike	-10.6779
▁oldtiden	-10.678
▁næringsliv	-10.678
▁tusenårs	-10.6781
▁syria	-10.6782
▁bjerk	-10.6783
▁antikken	-10.6786
▁knud	-10.6792
▁tvunge	-10.6793
▁1892	-10.6796
▁smør	-10.6798
▁idé	-10.6798
▁1899	-10.6802
cheng	-10.6804
▁skygge	-10.6805
▁1895	-10.6805
▁1885	-10.6806
verktøy	-10.6826
gol	-10.6828
register	-10.6834
▁agent	-10.6843
▁oversette	-10.6864
▁ligge	-10.6916
▁life	-10.6944
tavle	-10.6996
trær	-10.6998
virke	-10.7001
▁hjel	-10.7004
▁1300	-10.7031
▁luxembourg	-10.7033
▁mobiltelefon	-10.7033
▁oksygen	-10.7033
▁tønsberg	-10.7033
▁geometri	-10.7033
▁embeds	-10.7033
▁søndag	-10.7033
▁dresden	-10.7033
▁gordon	-10.7034
▁massiv	-10.7034
▁regulere	-10.7034
▁skildre	-10.7034
forsikring	-10.7034
▁innvalgt	-10.7034
▁forklaring	-10.7036
▁opptrer	-10.7037
▁vurdert	-10.7037
▁stengt	-10.7038
▁francisco	-10.7038
▁langrenn	-10.7039
hausen	-10.7039
▁komposisjon	-10.7042
▁sykdommen	-10.7043
▁høyesterett	-10.7049
▁nederlag	-10.7052
▁1888	-10.7053
▁1884	-10.7056
▁jonas	-10.706
▁jurist	-10.7066
▁ligning	-10.7068
relatert	-10.7079
▁vurdere	-10.7088
balanse	-10.7119
divisjon	-10.7135
wood	-10.7135
finalen	-10.7136
▁erstatte	-10.7151
musiker	-10.7154
▁brent	-10.7163
einere	-10.7168
▁avisa	-10.7174
▁rådhus	-10.7189
stevne	-10.7196
▁absolutt	-10.7216
▁betegnelse	-10.7221
▁nettsted	-10.7238
▁lill	-10.7248
▁tilsyne	-10.7257
pumpe	-10.729
direktorat	-10.7296
▁bulgaria	-10.7297
▁douglas	-10.7297
▁konstruert	-10.7297
▁låtskriver	-10.7297
▁muslimsk	-10.7297
▁territorie	-10.7297
▁göteborg	-10.7297
▁kronprins	-10.7297
▁sammenslåing	-10.7297
▁taylor	-10.7297
▁1876	-10.7297
▁beatles	-10.7297
▁skøyter	-10.7297
▁parallell	-10.7297
▁fødselsår	-10.7297
syklus	-10.7297
▁overraske	-10.7298
▁stefan	-10.7298
▁markedet	-10.7299
▁fuktig	-10.73
▁betong	-10.7301
vatn	-10.7301
▁høydepunkt	-10.7302
▁østfold	-10.7304
givende	-10.7305
▁forlenge	-10.7305
▁grep	-10.7306
▁biologisk	-10.731
▁nedtegne	-10.7313
skikkelse	-10.7318
▁alpinist	-10.7319
▁datert	-10.7319
▁fritz	-10.732
▁ddr	-10.7322
▁thom	-10.7333
sentral	-10.7406
utgave	-10.7427
prege	-10.7432
table	-10.7502
ault	-10.7503
forstyrrelse	-10.7561
▁molekyl	-10.7567
kvalifisert	-10.7567
▁allikevel	-10.7567
▁heidelberg	-10.7567
▁hollywood	-10.7567
▁inskripsjon	-10.7567
▁kjønnsmodne	-10.7567
▁tsjekkisk	-10.7567
▁tyrkia	-10.7567
▁chicago	-10.7567
▁ferskvann	-10.7567
▁katolikk	-10.7567
▁koalisjon	-10.7567
▁1893	-10.7567
▁manchester	-10.7567
▁offensiv	-10.7567
▁uttrykt	-10.7567
▁bystatus	-10.7567
▁amatør	-10.7567
▁kavaleri	-10.7567
köping	-10.7567
▁lørdag	-10.7567
▁langvarig	-10.7567
▁diagnose	-10.7567
▁sjeldne	-10.7567
▁kommersiell	-10.7567
▁theodor	-10.7567
▁nikola	-10.7567
▁vegetasjon	-10.7568
▁bedrifter	-10.7568
▁osmansk	-10.7568
ск	-10.7568
▁kjennetegne	-10.7568
▁bensin	-10.757
▁generalsekretær	-10.757
▁fortellinger	-10.7571
▁gravlagt	-10.7572
▁gullmedalje	-10.7573
▁styreleder	-10.7574
▁utvide	-10.7577
▁hyper	-10.7577
▁kongress	-10.7579
orientert	-10.7582
▁söd	-10.7583
▁avansert	-10.7589
▁talent	-10.7596
▁tidligst	-10.7599
aften	-10.7601
▁trikke	-10.7608
betaling	-10.7618
0	-10.7633
▁forrig	-10.7642
▁kult	-10.7645
▁silv	-10.7657
▁kostnad	-10.7658
dynastiet	-10.7683
størrelse	-10.7683
tradisjon	-10.7683
▁million	-10.769
åpne	-10.7694
grø	-10.7703
fleks	-10.771
▁ørn	-10.7722
▁fortelle	-10.7756
▁opprette	-10.776
▁nazi	-10.7767
tilbud	-10.777
▁styremedlem	-10.7802
▁bryllup	-10.7845
▁napoleon	-10.7845
▁observato	-10.7845
▁omdøpt	-10.7845
▁prefektur	-10.7845
▁tsjekkoslovakia	-10.7845
▁trommeslager	-10.7845
▁heavy	-10.7845
▁misjonær	-10.7845
▁kommentar	-10.7845
▁benedikt	-10.7845
▁hovedpersonen	-10.7845
▁søvn	-10.7845
▁streik	-10.7846
▁tennis	-10.7846
▁opprettelsen	-10.7846
▁nymfe	-10.7846
▁novelle	-10.7847
▁omsorg	-10.7847
▁pastor	-10.7847
krystall	-10.7847
▁våt	-10.7847
▁utforming	-10.7847
▁silke	-10.7847
▁fortalte	-10.7847
▁øynene	-10.7848
planlegging	-10.7852
▁hovedkontor	-10.7852
▁sykdommer	-10.7853
▁forenkle	-10.7855
▁mandat	-10.7862
hydr	-10.7862
▁nordsid	-10.7882
▁otta	-10.7883
▁grund	-10.7884
▁fasci	-10.7888
løype	-10.789
vík	-10.7891
fabrik	-10.7894
nevnte	-10.7894
lending	-10.7897
▁bevisst	-10.7917
▁spesialisert	-10.7924
▁hevn	-10.7958
dømt	-10.7968
kål	-10.7978
slekten	-10.8011
▁organisk	-10.8015
klipp	-10.8021
▁victor	-10.8038
fordeling	-10.8057
gjerd	-10.8064
▁angelsaksisk	-10.813
▁forøvrig	-10.813
▁integrert	-10.813
▁liverpool	-10.813
▁sarpsborg	-10.813
▁vladimir	-10.813
▁alminnelig	-10.813
▁hertugdømme	-10.813
▁inspirasjon	-10.813
▁returnert	-10.813
▁regulering	-10.813
▁charlotte	-10.813
▁zhang	-10.8131
▁seksuell	-10.8131
▁dominerende	-10.8131
▁ordinær	-10.8131
▁skjøt	-10.8131
▁erobring	-10.8131
▁noensinne	-10.8131
▁aktør	-10.8131
▁protein	-10.8132
▁innlemme	-10.8132
▁mineral	-10.8133
▁strategisk	-10.8133
▁flytende	-10.8133
▁regelmessig	-10.8133
▁turbiner	-10.8134
▁point	-10.8135
▁tibet	-10.8136
▁nattfly	-10.8137
▁sirkel	-10.8137
▁kongsberg	-10.8137
▁blank	-10.8143
▁straks	-10.8145
vitenskapelige	-10.8146
▁manglen	-10.8147
▁moderat	-10.815
artikkel	-10.8151
▁kreis	-10.8168
▁sosialistisk	-10.8246
kandidat	-10.8262
struktur	-10.8262
litteratur	-10.8263
sentrum	-10.8265
grønn	-10.8269
▁dramatisk	-10.8272
graph	-10.8272
kjøl	-10.828
bald	-10.8287
metoden	-10.8295
▁moll	-10.8316
stigning	-10.8319
psykiatri	-10.8424
▁anbefalt	-10.8424
▁hjalp	-10.8424
▁konstitusjon	-10.8424
▁ukraina	-10.8424
▁portugal	-10.8424
▁1891	-10.8424
▁fysikk	-10.8424
▁assistent	-10.8425
▁søndre	-10.8425
▁komplett	-10.8425
▁hyppig	-10.8425
▁flyktning	-10.8425
▁konkurs	-10.8425
▁ørken	-10.8425
▁senterpartiet	-10.8425
▁isolert	-10.8426
▁lojal	-10.8426
▁kullkraftverk	-10.8426
▁verdensrekord	-10.8426
▁tillatelse	-10.8426
▁barokk	-10.8427
▁fangst	-10.8427
▁nkp	-10.8427
▁vakre	-10.8428
▁bayern	-10.8428
▁disney	-10.8429
▁akademisk	-10.843
▁døtre	-10.8431
▁fasade	-10.8432
▁alex	-10.8434
▁kreert	-10.8435
▁bønn	-10.8446
politi	-10.8451
bragt	-10.8497
▁domkirke	-10.8553
tittelen	-10.8561
prøve	-10.8566
▁rangert	-10.8577
▁hylle	-10.8579
menneskelig	-10.8637
▁pels	-10.8654
ifikasjon	-10.8723
kongedømme	-10.8726
▁admiral	-10.8727
▁bachelor	-10.8727
▁elektrisitet	-10.8727
▁evolusjon	-10.8727
▁favoritt	-10.8727
▁ferdinand	-10.8727
▁kristendommen	-10.8727
▁observert	-10.8727
▁restaurering	-10.8727
▁resultert	-10.8727
▁rudolf	-10.8727
▁ukrainsk	-10.8727
▁utslipp	-10.8727
▁foreløpig	-10.8727
▁atlanterhavet	-10.8727
▁könig	-10.8727
▁1882	-10.8727
▁innledet	-10.8727
▁oppdatert	-10.8727
▁autoritet	-10.8727
▁embets	-10.8727
▁utspring	-10.8727
▁regulert	-10.8728
▁margaret	-10.8728
▁sluppe	-10.8728
givenhet	-10.8728
▁bøndene	-10.8728
▁invitert	-10.8728
▁walisisk	-10.8728
▁skjebne	-10.8728
▁trengte	-10.8728
▁lewis	-10.8728
▁visepresident	-10.8729
▁für	-10.8729
▁beordre	-10.8729
▁serbisk	-10.8729
▁claus	-10.8729
▁døpt	-10.8729
▁utfordre	-10.8733
reglene	-10.8736
▁reager	-10.8737
▁meteor	-10.8739
▁tsar	-10.874
revolusjonen	-10.876
▁ekstern	-10.8761
▁avskjed	-10.8762
demokrati	-10.8827
▁skanse	-10.8832
▁betinge	-10.8842
pierre	-10.885
▁erobre	-10.8865
design	-10.8878
teknologi	-10.8879
signal	-10.8881
rekord	-10.8882
▁avgjørelse	-10.8892
middag	-10.8914
▁iransk	-10.8916
lokale	-10.8917
inndeling	-10.8922
▁kriminal	-10.8943
champ	-10.8953
▁journal	-10.8955
▁tjenestegjor	-10.8994
▁regjer	-10.9012
▁gjengjeld	-10.904
▁instruksjon	-10.904
▁musikkvideo	-10.904
▁venezia	-10.904
▁øyeblikk	-10.904
▁genitali	-10.904
▁kommandant	-10.904
▁forkroppen	-10.904
▁litauen	-10.904
▁lyktes	-10.904
▁permanent	-10.904
▁1881	-10.904
▁antyder	-10.904
▁registrering	-10.904
▁veksel	-10.904
▁gråbrun	-10.904
▁nøkkel	-10.904
▁fiendtlig	-10.904
protokoll	-10.904
▁frimurer	-10.904
▁kongsvinger	-10.904
presentasjon	-10.904
▁dramatiker	-10.904
▁protestantisk	-10.904
▁snorre	-10.904
▁ntnu	-10.904
▁armenia	-10.9041
▁andré	-10.9041
▁vurdering	-10.9041
▁særskilt	-10.9041
▁pistol	-10.9041
▁bolivia	-10.9042
▁sosiolog	-10.9042
▁kråk	-10.9042
▁bløt	-10.9043
▁grammy	-10.9043
▁elsker	-10.9045
▁grafisk	-10.9046
▁ivareta	-10.905
▁benevn	-10.9085
feiring	-10.9098
▁ideologi	-10.9182
▁avslutte	-10.9184
transport	-10.9201
åpning	-10.9209
▁anslå	-10.9228
distribusjon	-10.9362
sbestemmelse	-10.9362
▁academy	-10.9362
▁amsterdam	-10.9362
▁antwerpen	-10.9362
▁indikerer	-10.9362
▁operativsystem	-10.9362
▁sanskrit	-10.9362
▁buddhist	-10.9363
potensial	-10.9363
▁diskusjon	-10.9363
▁epigyn	-10.9363
▁langrennsløper	-10.9363
▁konsernet	-10.9363
▁skihopper	-10.9363
▁fremtidig	-10.9363
▁aktuell	-10.9363
▁prosessor	-10.9363
▁testamente	-10.9363
▁bokstaven	-10.9363
▁beleiring	-10.9363
▁tolkning	-10.9363
▁verdensarv	-10.9363
▁central	-10.9363
▁fiktiv	-10.9363
▁tirol	-10.9364
▁embete	-10.9364
▁dekorert	-10.9364
ovitsj	-10.9365
▁originaltittel	-10.9368
▁røyk	-10.9372
dimensjon	-10.9378
▁manuel	-10.9391
prinsippet	-10.9411
vennlig	-10.9475
betjent	-10.9478
▁kallenavn	-10.9513
interesse	-10.9536
registr	-10.9603
aktivitet	-10.9673
demonstrasjon	-10.9696
reservoar	-10.9696
▁cæsar	-10.9696
▁dirigent	-10.9696
▁etiopia	-10.9696
▁köln	-10.9696
▁microsoft	-10.9696
▁pedipalpene	-10.9696
▁psykisk	-10.9696
▁symptom	-10.9696
▁babylon	-10.9696
▁billboard	-10.9696
▁svømming	-10.9696
▁abraham	-10.9696
▁gjøvik	-10.9696
▁teoretisk	-10.9696
▁angivelig	-10.9696
▁bosnia	-10.9696
▁hamilton	-10.9696
▁pseudonym	-10.9696
▁diameter	-10.9696
▁deutsche	-10.9696
▁referert	-10.9696
▁bjørk	-10.9696
▁tverrbånd	-10.9696
▁organisere	-10.9697
▁sosialdemokrat	-10.9697
▁underholdning	-10.9697
▁eksistens	-10.9697
▁gabriel	-10.9697
▁harrison	-10.9697
▁dvd	-10.9697
▁fremstilt	-10.9698
▁bedrifts	-10.9698
▁samuel	-10.97
kriterie	-10.9702
kobling	-10.9706
mekanisme	-10.9706
▁tildeling	-10.9709
▁forvalte	-10.9748
▁begynt	-10.9761
▁storkors	-10.981
orkester	-10.9879
flagg	-10.9884
▁stiftelse	-10.9974
skvadron	-11.0041
▁ambassade	-11.0041
▁association	-11.0041
▁cambridge	-11.0041
▁corporation	-11.0041
▁forvandling	-11.0041
▁matematikk	-11.0041
▁mongolia	-11.0041
▁plutselig	-11.0041
▁shakespeare	-11.0041
▁stjørdal	-11.0041
▁undergrunnsbane	-11.0041
kommanderende	-11.0041
▁avslørt	-11.0041
▁fundament	-11.0041
▁skroget	-11.0041
▁jamaica	-11.0041
▁sicilia	-11.0041
▁double	-11.0041
▁avslutning	-11.0041
▁blomstre	-11.0041
▁nominasjon	-11.0041
▁stephen	-11.0041
▁rødbrun	-11.0041
▁bmw	-11.0041
▁ålesund	-11.0041
▁liknende	-11.0041
shaw	-11.0041
▁mount	-11.0042
▁monroe	-11.0042
▁utpekt	-11.0042
▁veteran	-11.0043
▁nepal	-11.0043
▁innviet	-11.0044
▁hurtigrute	-11.0044
▁first	-11.0045
▁stryk	-11.0045
▁keltisk	-11.0051
▁kunngjor	-11.0055
▁napoli	-11.0057
▁nederst	-11.0064
mission	-11.0067
edderkopper	-11.012
▁ferie	-11.014
resultat	-11.0235
kontrakt	-11.0236
offiser	-11.0236
redaktør	-11.0236
inntekt	-11.0236
▁voldsom	-11.0241
▁musikal	-11.0267
villig	-11.0318
krisen	-11.0321
▁usikker	-11.0327
sykling	-11.0381
▁illustrere	-11.0398
▁jacques	-11.0398
▁kapittel	-11.0398
▁makedonia	-11.0398
▁parallelt	-11.0398
▁petroleum	-11.0398
▁republikansk	-11.0398
▁society	-11.0398
▁westfalen	-11.0398
katastrofe	-11.0398
▁besittelse	-11.0398
▁brønn	-11.0398
▁guddommelig	-11.0398
▁progressiv	-11.0398
▁utendørs	-11.0398
▁anmelder	-11.0398
▁innvandre	-11.0398
▁manusforfatter	-11.0398
▁latvia	-11.0398
▁innehaver	-11.0398
▁sylinder	-11.0398
▁syklist	-11.0398
▁bokstaver	-11.0398
pyramide	-11.0398
▁dublin	-11.0398
▁fantasy	-11.0398
▁tilnærme	-11.0398
▁ringerike	-11.0398
▁statsborger	-11.0398
▁wright	-11.0398
▁monarken	-11.0398
▁giovan	-11.0399
▁barnehage	-11.0399
▁lagtinget	-11.0399
▁redigert	-11.0399
▁batteri	-11.0399
▁detroit	-11.0399
▁delstats	-11.0399
▁kalender	-11.0401
▁titler	-11.0401
▁kanadisk	-11.0402
terapi	-11.0403
▁forstyrre	-11.0405
▁snare	-11.0406
▁armensk	-11.0411
▁flanke	-11.0412
▁foretrekke	-11.0415
partei	-11.0424
▁rykte	-11.0425
▁søyle	-11.0441
▁trappe	-11.0457
bestyrer	-11.0457
flyvning	-11.0476
tilsynet	-11.0478
▁kjeve	-11.0479
bevegelse	-11.0516
▁soldat	-11.0558
▁bakkropp	-11.0585
president	-11.0606
konstruksjon	-11.0606
medisin	-11.0606
biskop	-11.0607
▁øygrupp	-11.0611
kvarter	-11.068
▁dobbel	-11.0698
▁konsentrasjon	-11.0718
▁bulgarsk	-11.0768
▁engasjement	-11.0768
▁football	-11.0768
▁interessant	-11.0768
▁konsentrert	-11.0768
▁management	-11.0768
▁pennsylvania	-11.0768
▁prøyssisk	-11.0768
▁basketball	-11.0768
▁benjamin	-11.0768
▁pilegrim	-11.0768
▁rekrutt	-11.0768
▁syklon	-11.0768
▁libanon	-11.0768
▁sebasti	-11.0768
▁support	-11.0768
▁katalog	-11.0768
▁taiwan	-11.0768
▁texas	-11.0768
▁interiør	-11.0768
▁frogner	-11.0768
▁eidsvoll	-11.0768
▁mountain	-11.0768
▁haugesund	-11.0768
▁matematisk	-11.0768
▁betydningsfull	-11.0768
▁oppgradert	-11.0768
▁nelson	-11.0768
▁innstiftet	-11.0768
▁begravet	-11.0769
leverandør	-11.0769
▁martyr	-11.0769
▁færre	-11.0769
kvartett	-11.0769
▁varierende	-11.0769
▁ekspert	-11.077
▁tørke	-11.077
▁margret	-11.077
▁relasjon	-11.0773
▁spyd	-11.0777
▁ytelse	-11.0793
▁valgdelta	-11.0806
plikasjon	-11.0845
treffer	-11.0903
▁nevro	-11.0904
kledt	-11.0925
forandring	-11.0937
▁bearbeide	-11.0939
kloster	-11.099
plattform	-11.0991
kommando	-11.0991
forvaltning	-11.0991
variant	-11.0994
sykdom	-11.0995
profet	-11.1096
▁undersøkt	-11.1115
katedralen	-11.1128
▁bysantinsk	-11.1153
▁innvilget	-11.1153
▁metropolitan	-11.1153
▁resolusjon	-11.1153
▁territorium	-11.1153
▁vålerenga	-11.1153
▁arrangør	-11.1153
▁popularitet	-11.1153
▁styrmann	-11.1153
infeksjon	-11.1153
▁antakelig	-11.1153
▁arbeidsgiver	-11.1153
▁airlines	-11.1153
▁opphevet	-11.1153
▁forfremme	-11.1153
▁sogneprest	-11.1153
▁kontroversiell	-11.1153
▁nevø	-11.1153
▁grafikk	-11.1153
▁bristol	-11.1153
▁http	-11.1153
▁axel	-11.1153
▁petersburg	-11.1153
▁kontrast	-11.1153
▁symbolisere	-11.1153
▁hospital	-11.1154
▁rumensk	-11.1154
▁innflytelsesrik	-11.1154
▁finansiert	-11.1154
▁framstilt	-11.1154
materiell	-11.1154
fornøyd	-11.1155
▁forkortelse	-11.1155
rettighetene	-11.1157
▁ødela	-11.1173
▁sofie	-11.1174
▁fylle	-11.1191
premie	-11.1259
▁vokte	-11.1264
hvelv	-11.1266
spørsmål	-11.1391
kritiker	-11.1425
medlemmene	-11.1456
vurder	-11.1464
▁aleksandr	-11.1553
▁aluminium	-11.1553
▁færøysk	-11.1553
▁generalmajor	-11.1553
▁jurisdiksjon	-11.1553
▁lincoln	-11.1553
▁palestinsk	-11.1553
▁picture	-11.1553
▁universität	-11.1553
▁varaordfører	-11.1553
▁anbefale	-11.1553
▁garnison	-11.1553
▁høvding	-11.1553
▁melbourne	-11.1553
▁respons	-11.1553
▁sparebank	-11.1553
▁skjønnhet	-11.1553
▁1861	-11.1553
▁florida	-11.1553
▁vertikal	-11.1553
betennelse	-11.1553
▁diamant	-11.1554
relieff	-11.1554
▁dybde	-11.1554
▁søsken	-11.1554
▁rettferdig	-11.1555
▁beskjed	-11.1555
strålen	-11.1555
▁sannhet	-11.1555
▁gjenopprette	-11.1558
▁verdslig	-11.1559
▁cruise	-11.156
▁amalie	-11.1563
▁monarki	-11.1572
▁genetisk	-11.1573
kollega	-11.1574
▁clemen	-11.1578
▁bjørg	-11.1591
▁frederic	-11.1599
kommunistpartiet	-11.164
kirch	-11.1642
▁forfatte	-11.1754
arkitekt	-11.1808
blanding	-11.1812
▁bokstavelig	-11.1969
▁jordskjelv	-11.1969
▁kontinuerlig	-11.1969
▁korrupsjon	-11.1969
▁ludwig	-11.1969
▁malaysia	-11.1969
▁vellykket	-11.1969
▁volleyball	-11.1969
▁fjorten	-11.1969
▁gjensidig	-11.1969
▁innendørs	-11.1969
▁potensiel	-11.1969
▁selvbiografi	-11.1969
▁thriller	-11.1969
ã	-11.909
