<unk>	0
<s>	0
</s>	0
.	-3.29206
▁i	-3.44774
e	-3.66762
s	-3.75912
▁og	-3.82728
t	-4.16779
▁	-4.17795
▁av	-4.27625
er	-4.28794
en	-4.31482
▁en	-4.45555
▁som	-4.46145
▁til	-4.57707
▁er	-4.57973
▁for	-4.68306
r	-4.68373
▁på	-4.70406
▁den	-4.88455
▁ble	-4.88788
▁det	-4.92165
▁med	-4.94053
n	-4.95853
▁var	-5.00263
et	-5.0457
▁de	-5.0939
▁han	-5.12519
▁å	-5.23136
▁fra	-5.28785
▁et	-5.46807
▁har	-5.49236
▁at	-5.59265
ene	-5.59646
a	-5.6463
ne	-5.91351
▁ved	-5.93356
i	-5.98278
▁etter	-6.0008
▁om	-6.01405
▁også	-6.02387
▁men	-6.09409
k	-6.10539
▁ut	-6.14421
d	-6.15725
y	-6.19687
▁seg	-6.20358
o	-6.20475
▁under	-6.21051
▁ikke	-6.26591
te	-6.27379
▁hadde	-6.275
▁over	-6.33285
▁da	-6.36212
▁to	-6.37527
▁opp	-6.38746
g	-6.38866
p	-6.38928
▁inn	-6.42738
m	-6.43205
de	-6.43747
▁eller	-6.44745
▁kan	-6.47519
re	-6.49828
▁andre	-6.51798
l	-6.5699
▁første	-6.5854
▁hun	-6.61806
▁sin	-6.61862
f	-6.62194
▁dette	-6.62516
▁mot	-6.64124
v	-6.70299
▁år	-6.73438
▁18	-6.78282
▁ha	-6.78782
▁mellom	-6.79134
es	-6.80329
▁a	-6.81107
ter	-6.81564
▁hans	-6.8176
▁1	-6.84678
▁kom	-6.86103
▁der	-6.87018
▁født	-6.8711
▁be	-6.87113
h	-6.87892
▁fikk	-6.88597
c	-6.8901
▁f	-6.90239
u	-6.91223
us	-6.93554
in	-6.94166
ing	-6.9501
b	-6.95713
▁s	-6.95943
al	-6.96516
sk	-6.96594
▁denne	-6.97913
▁tre	-6.99004
▁flere	-6.99752
▁hvor	-6.99806
an	-7.00355
▁man	-7.02037
ende	-7.02234
▁nord	-7.08951
le	-7.09439
na	-7.09784
▁2	-7.09789
▁the	-7.10529
▁sammen	-7.10815
▁del	-7.12238
▁blant	-7.13659
▁u	-7.16074
▁før	-7.16303
▁c	-7.17587
▁mange	-7.20192
on	-7.20216
▁senere	-7.20613
▁tallet	-7.20902
▁så	-7.21582
▁stor	-7.22264
lig	-7.2483
▁ligger	-7.2522
land	-7.25472
di	-7.27083
z	-7.27197
▁død	-7.2836
sen	-7.29077
▁m	-7.29135
▁alle	-7.30853
▁ca	-7.30976
▁norge	-7.31221
▁la	-7.3147
ra	-7.31717
▁mer	-7.32288
▁selv	-7.32692
▁tidligere	-7.3334
▁17	-7.33526
gikk	-7.33698
vis	-7.33948
ar	-7.34066
j	-7.34322
▁være	-7.34818
▁noen	-7.34828
▁3	-7.34984
▁siden	-7.35197
▁norsk	-7.35629
ri	-7.35684
▁k	-7.37218
der	-7.37313
is	-7.37346
▁se	-7.37917
▁blir	-7.3816
▁disse	-7.3894
▁b	-7.38966
w	-7.38996
▁blitt	-7.39196
ta	-7.40032
la	-7.40077
li	-7.41403
▁vært	-7.41657
▁ol	-7.41798
▁4	-7.41982
▁re	-7.42099
ske	-7.42578
▁her	-7.43257
be	-7.43661
▁gjennom	-7.43798
▁annet	-7.43807
ia	-7.43915
▁sitt	-7.44033
▁sør	-7.44056
ur	-7.44556
um	-7.44748
▁store	-7.44841
▁byen	-7.45089
▁land	-7.456
▁samme	-7.45747
▁kjent	-7.465
ch	-7.46964
ke	-7.46967
▁g	-7.47853
iske	-7.4957
▁kommune	-7.49701
▁ny	-7.50081
ens	-7.50119
ler	-7.50669
ere	-7.51932
ck	-7.52328
ste	-7.52481
▁al	-7.53002
▁d	-7.53252
▁of	-7.53718
or	-7.53971
tt	-7.54463
▁grunn	-7.54709
▁ga	-7.5492
ma	-7.55069
▁vi	-7.55104
▁vant	-7.5563
ver	-7.55961
ng	-7.56083
▁5	-7.56229
▁an	-7.56877
for	-7.57025
▁noe	-7.57076
id	-7.57167
▁rundt	-7.57174
nde	-7.57236
▁tid	-7.57395
il	-7.57938
▁15	-7.57996
▁p	-7.58221
▁16	-7.58243
▁kunne	-7.58332
▁bo	-7.58352
▁mens	-7.58377
▁frem	-7.59554
▁ta	-7.60217
ning	-7.60757
øy	-7.61881
▁vest	-7.62566
isk	-7.62892
▁skulle	-7.62956
▁di	-7.63017
as	-7.63115
ut	-7.63204
▁både	-7.63734
▁vil	-7.63742
lo	-7.63818
os	-7.63943
▁enn	-7.64876
▁øst	-7.65025
▁bare	-7.65403
kt	-7.65904
▁10	-7.66446
▁ned	-7.66559
▁spilt	-7.66646
nes	-7.68189
x	-7.6824
▁dag	-7.68413
da	-7.68439
▁sine	-7.68742
ist	-7.68834
bo	-7.69381
el	-7.69389
▁nå	-7.69845
▁ham	-7.70009
▁mest	-7.70068
▁tilbake	-7.70471
▁sa	-7.708
é	-7.70987
▁ra	-7.71047
▁skal	-7.71242
▁kr	-7.71284
at	-7.71624
ul	-7.72621
▁norske	-7.7267
mann	-7.73575
▁st	-7.73889
mi	-7.74938
▁usa	-7.74982
▁ofte	-7.75028
▁ro	-7.75498
ad	-7.75524
den	-7.75781
▁navn	-7.75905
▁bli	-7.76088
ge	-7.76163
▁h	-7.76165
ø	-7.76205
▁na	-7.76214
ti	-7.7624
je	-7.7639
▁lag	-7.76459
▁fire	-7.76643
▁8	-7.76781
▁by	-7.768
▁gang	-7.76875
▁oslo	-7.77412
▁slik	-7.77568
ker	-7.77591
th	-7.77722
▁nye	-7.78604
ff	-7.7892
ba	-7.79661
▁6	-7.8014
ig	-7.80643
▁ba	-7.81077
▁meter	-7.81165
▁hoved	-7.81312
▁navnet	-7.81427
mo	-7.81531
▁hele	-7.81764
▁tok	-7.82165
▁siste	-7.82318
ro	-7.82674
▁deltok	-7.82805
skap	-7.83299
▁august	-7.83396
erne	-7.83463
ol	-7.83494
▁ti	-7.83536
▁mai	-7.83666
me	-7.83704
erte	-7.83898
▁januar	-7.84352
▁finnes	-7.84448
▁km	-7.84663
else	-7.84847
si	-7.85416
son	-7.85996
å	-7.86207
▁mars	-7.86306
▁l	-7.87059
pp	-7.8719
lige	-7.87914
▁ho	-7.88164
▁få	-7.88167
▁7	-7.88176
nd	-7.88419
▁000	-7.88952
it	-7.89018
ga	-7.89043
ka	-7.89327
▁he	-7.89532
▁v	-7.89667
▁fri	-7.89703
to	-7.90179
om	-7.90406
▁le	-7.906
▁dem	-7.90668
vi	-7.91142
ner	-7.91145
ha	-7.91493
▁mål	-7.91572
▁si	-7.92051
stad	-7.92951
▁kirke	-7.93067
▁pi	-7.93357
var	-7.93503
▁fram	-7.93622
by	-7.93824
het	-7.9387
▁kalt	-7.94253
ry	-7.94377
▁o	-7.94653
ven	-7.95817
rett	-7.95982
ell	-7.96538
ton	-7.96605
▁2008	-7.96968
▁når	-7.97124
sa	-7.97158
▁sp	-7.97399
ang	-7.97563
ger	-7.97803
▁juli	-7.97831
▁20	-7.97903
▁pa	-7.98009
pe	-7.98223
▁bak	-7.98753
▁laget	-7.98981
mer	-7.99186
kk	-7.99512
dal	-7.99518
▁per	-7.99526
▁ka	-7.99633
am	-7.99681
▁ni	-7.99745
sjon	-7.9982
▁største	-7.99966
gen	-8.00015
▁12	-8.0008
▁april	-8.00102
ve	-8.00139
berg	-8.00153
man	-8.00292
▁li	-8.00431
▁går	-8.00458
▁14	-8.00902
▁juni	-8.01574
▁rekke	-8.01599
▁t	-8.01689
▁11	-8.01911
opp	-8.02138
▁satt	-8.0243
▁utgitt	-8.02642
▁kon	-8.02741
ær	-8.0283
▁ar	-8.02971
▁igjen	-8.03145
▁du	-8.03207
▁uten	-8.0355
ja	-8.03819
▁tillegg	-8.03939
▁landet	-8.03984
▁9	-8.04005
▁årene	-8.04399
▁sk	-8.04783
ling	-8.04891
mp	-8.05155
▁pro	-8.05242
▁oktober	-8.05493
ør	-8.05854
co	-8.05991
▁området	-8.06244
ek	-8.06483
▁først	-8.06968
▁hos	-8.07048
go	-8.07206
▁as	-8.07573
▁lang	-8.07708
asjon	-8.0773
▁september	-8.07895
▁far	-8.08111
gi	-8.08541
▁n	-8.08814
▁fly	-8.093
▁året	-8.09639
av	-8.09743
▁0	-8.09878
▁plass	-8.10143
▁beste	-8.10283
ik	-8.10821
▁13	-8.10837
▁rett	-8.11344
▁ville	-8.11364
▁europa	-8.12034
▁bruk	-8.12157
▁kun	-8.12404
▁2010	-8.12462
▁ak	-8.12667
tre	-8.12753
del	-8.12903
▁vanlig	-8.13044
▁fem	-8.13089
▁samt	-8.13347
▁w	-8.13407
gang	-8.13563
ic	-8.13624
▁mindre	-8.13746
▁2009	-8.13957
▁ma	-8.14013
▁deres	-8.14035
ce	-8.14255
▁el	-8.14435
▁j	-8.14459
▁desember	-8.14599
▁film	-8.14831
ns	-8.15182
▁folke	-8.15467
▁februar	-8.15689
▁døde	-8.15759
men	-8.15796
▁eks	-8.16039
ty	-8.1624
ment	-8.16347
år	-8.16623
▁begynte	-8.16944
▁lo	-8.16946
▁november	-8.17903
▁olympisk	-8.17903
▁alt	-8.18128
▁tiden	-8.18497
▁2007	-8.1926
▁mo	-8.19464
▁kong	-8.20031
od	-8.20078
▁kina	-8.20515
▁bu	-8.2102
▁leder	-8.21233
▁co	-8.21306
▁or	-8.21492
ier	-8.21563
bu	-8.21904
▁pe	-8.21936
▁brukt	-8.223
▁hennes	-8.22649
▁filmen	-8.22852
▁sønn	-8.22991
▁tyskland	-8.23057
▁mar	-8.23387
bi	-8.23545
▁videre	-8.23684
▁bestå	-8.2373
▁tv	-8.23912
▁bi	-8.24329
▁gjorde	-8.24564
▁like	-8.24598
▁mor	-8.24834
▁so	-8.24973
▁form	-8.25019
▁y	-8.2506
im	-8.25074
ion	-8.25129
▁go	-8.25581
tal	-8.25743
ll	-8.25783
▁ri	-8.26503
va	-8.26643
▁ko	-8.26715
▁30	-8.26746
▁2005	-8.26808
ings	-8.27041
midlertid	-8.27291
sel	-8.27362
tid	-8.27405
▁gjen	-8.27536
▁ei	-8.27726
▁gi	-8.28303
▁forskjellig	-8.2845
ant	-8.28518
▁mye	-8.28577
▁new	-8.29077
▁lov	-8.2931
ku	-8.29345
▁skole	-8.29556
▁medlem	-8.29666
▁innen	-8.29819
▁løpet	-8.29908
▁me	-8.30096
▁tyske	-8.3047
▁po	-8.30524
▁større	-8.3055
▁helt	-8.30694
ering	-8.31071
len	-8.31254
▁barn	-8.31428
▁hver	-8.31479
ni	-8.31654
▁gamle	-8.32076
▁perioden	-8.32205
au	-8.32297
ster	-8.32312
per	-8.32314
▁spiller	-8.32345
ed	-8.32376
▁and	-8.33529
▁innbyggere	-8.33636
ft	-8.33669
sh	-8.33797
do	-8.33985
ko	-8.34034
▁sommer	-8.34048
ring	-8.34059
▁eksempel	-8.34426
▁frankrike	-8.34428
▁2006	-8.34435
ir	-8.34768
tak	-8.34893
op	-8.35101
▁ad	-8.35148
▁am	-8.35225
ikk	-8.35374
▁do	-8.35522
▁kommer	-8.35609
▁sverige	-8.35756
▁kort	-8.36089
ok	-8.36091
un	-8.36268
▁svær	-8.36366
▁lu	-8.36378
▁fleste	-8.36403
▁ganger	-8.36458
▁tatt	-8.3665
ca	-8.36738
▁bygget	-8.36793
▁vann	-8.36854
ingen	-8.37181
▁nær	-8.37215
▁hu	-8.373
dd	-8.37451
dag	-8.3755
▁må	-8.38071
over	-8.38146
lu	-8.38188
no	-8.38201
▁deretter	-8.38242
▁no	-8.38265
▁langs	-8.38279
▁ver	-8.38405
▁2011	-8.38476
▁skrevet	-8.3875
▁albumet	-8.38782
lin	-8.38972
▁ski	-8.39089
▁gu	-8.39138
▁ingen	-8.39232
sted	-8.39408
▁politisk	-8.39495
▁startet	-8.39603
▁kultur	-8.39921
▁ulike	-8.40078
ä	-8.4037
mme	-8.40508
▁sol	-8.40547
▁skrev	-8.40572
▁par	-8.40655
▁london	-8.40695
▁mat	-8.40854
▁sted	-8.41254
kom	-8.41383
1	-8.41534
▁sett	-8.41688
pa	-8.41709
▁bar	-8.41743
▁samtidig	-8.41827
pi	-8.41837
▁tro	-8.41854
▁gitt	-8.42079
▁john	-8.42117
▁begge	-8.424
tur	-8.42429
▁god	-8.42772
▁bandet	-8.42773
▁sch	-8.42774
bar	-8.42963
▁amerikanske	-8.43018
▁øy	-8.43037
io	-8.4309
æ	-8.43172
▁brukes	-8.4326
▁parti	-8.43553
derfor	-8.43668
ina	-8.43761
▁måtte	-8.43843
▁høy	-8.44061
▁x	-8.44101
▁2004	-8.44135
▁fa	-8.44234
▁kunst	-8.44305
sta	-8.44348
▁vei	-8.44845
▁kinesisk	-8.45006
▁seks	-8.45159
▁hvert	-8.45318
▁egen	-8.45407
dan	-8.45658
▁engelsk	-8.45997
▁norges	-8.46187
▁z	-8.46407
▁særlig	-8.46504
▁flytte	-8.46547
▁nasjonal	-8.46568
met	-8.46734
gg	-8.46896
á	-8.46935
▁deler	-8.46999
inn	-8.47062
▁lys	-8.47076
ld	-8.47313
hold	-8.4735
▁dermed	-8.47421
▁mi	-8.47561
▁pu	-8.47662
elsen	-8.47712
▁25	-8.47783
▁språk	-8.47822
ov	-8.47891
▁sam	-8.48058
ningen	-8.48122
lag	-8.48165
▁musikk	-8.48251
▁ju	-8.48267
▁annen	-8.48546
kker	-8.48669
▁fotball	-8.48799
▁tra	-8.48917
ord	-8.48967
ard	-8.49223
stand	-8.49375
▁england	-8.49522
3	-8.49777
▁etablert	-8.49893
ho	-8.49945
▁holde	-8.49993
▁verdens	-8.50096
▁vm	-8.50131
vin	-8.50182
▁president	-8.5026
▁hus	-8.50292
▁mann	-8.50366
kke	-8.50605
▁min	-8.50742
▁tysk	-8.50753
6	-8.50771
sett	-8.51057
▁lå	-8.51568
po	-8.51631
▁mulig	-8.51643
tra	-8.51743
▁grad	-8.51987
▁provinsen	-8.52158
ige	-8.52362
kel	-8.52542
▁san	-8.52662
▁liv	-8.52849
sp	-8.53133
▁verdenskrig	-8.53293
▁fast	-8.53387
ie	-8.53399
ans	-8.53903
plass	-8.54057
til	-8.54161
▁tri	-8.54229
▁va	-8.54237
vik	-8.54311
▁eneste	-8.54372
siden	-8.54452
iv	-8.55037
▁støtte	-8.553
mon	-8.55388
▁kommunen	-8.55411
▁slutten	-8.55522
▁små	-8.55972
verk	-8.5614
▁2000	-8.56208
▁verden	-8.5656
▁arbeidet	-8.5662
▁ki	-8.57143
▁amerikansk	-8.57266
▁jo	-8.57275
▁sentral	-8.57292
løp	-8.57395
▁bergen	-8.57423
▁russisk	-8.57512
ister	-8.57752
dalen	-8.57772
▁gruppen	-8.57863
▁klubben	-8.57964
▁gull	-8.58106
▁komme	-8.58217
mb	-8.58305
▁britiske	-8.58316
iser	-8.58747
▁ført	-8.58762
vo	-8.58768
▁tredje	-8.58818
▁spille	-8.58943
tor	-8.59004
▁stein	-8.59159
▁te	-8.59215
▁ch	-8.5923
ius	-8.59232
▁tidlig	-8.59344
▁ru	-8.59366
▁gud	-8.59473
▁slutt	-8.59517
▁su	-8.59688
ken	-8.59759
▁nytt	-8.59797
▁em	-8.60007
▁delen	-8.60173
elle	-8.60358
▁2003	-8.60556
▁tor	-8.60676
▁person	-8.60716
▁stort	-8.60894
▁øya	-8.61022
ly	-8.61308
ks	-8.61398
sj	-8.61407
▁sto	-8.61427
▁ser	-8.6147
hu	-8.6152
▁hel	-8.61738
▁2002	-8.61935
▁konge	-8.62019
ud	-8.62166
▁lever	-8.62606
▁24	-8.62684
ong	-8.62701
ble	-8.62718
▁2001	-8.6334
mmer	-8.63515
ot	-8.63573
far	-8.63581
▁gammel	-8.6368
▁fransk	-8.63757
ci	-8.63835
▁sesongen	-8.63922
▁millioner	-8.63928
▁1990	-8.6404
ting	-8.64454
ede	-8.6446
ny	-8.64486
lot	-8.64685
▁kjente	-8.64887
les	-8.64952
▁syn	-8.64999
if	-8.65079
▁gresk	-8.65236
▁bok	-8.65246
▁sjø	-8.65257
▁utviklet	-8.6554
▁ja	-8.65557
▁krigen	-8.6588
par	-8.66023
▁fi	-8.66232
tiske	-8.66352
▁viktig	-8.66402
isme	-8.66411
▁22	-8.66438
▁21	-8.66596
▁gir	-8.66638
▁all	-8.66723
ag	-8.6674
he	-8.66753
▁gift	-8.66799
rik	-8.66938
▁forbindelse	-8.67255
▁fortsatt	-8.673
▁sv	-8.67477
▁serien	-8.67547
▁storbritannia	-8.67651
ak	-8.67776
▁kn	-8.67911
ber	-8.67935
▁bra	-8.67952
▁we	-8.68009
▁ge	-8.68342
ow	-8.68457
sten	-8.68561
ö	-8.6868
▁ren	-8.68918
▁gruppe	-8.68997
▁familien	-8.69174
lse	-8.69386
▁100	-8.69436
▁holdt	-8.69553
tan	-8.69561
tiden	-8.69709
▁bort	-8.69829
▁r	-8.69885
lands	-8.69933
▁23	-8.69969
▁stedet	-8.70159
min	-8.70183
▁antall	-8.70272
▁selskapet	-8.70313
▁menn	-8.70438
fa	-8.70692
ley	-8.70718
▁halv	-8.70879
▁19	-8.709
følge	-8.70941
▁ab	-8.70973
vei	-8.71137
▁gjort	-8.71142
lat	-8.71171
▁pre	-8.71172
burg	-8.71263
ron	-8.71402
▁forhold	-8.71493
itt	-8.71507
▁wa	-8.71599
▁nummer	-8.7173
▁danmark	-8.71792
▁1980	-8.71793
▁franske	-8.7181
▁mennesker	-8.7183
▁vel	-8.7186
▁grav	-8.7216
tok	-8.72492
kor	-8.72551
▁omkring	-8.72559
landet	-8.72694
▁side	-8.727
▁lokal	-8.72952
ian	-8.73191
▁je	-8.73279
mar	-8.73428
ine	-8.73462
hus	-8.73476
▁historie	-8.73489
▁sand	-8.73875
mor	-8.7408
bre	-8.74259
▁stat	-8.74304
▁sl	-8.74339
▁nor	-8.74363
ran	-8.74774
2	-8.75033
bl	-8.75115
stein	-8.75195
▁bl	-8.75199
▁1999	-8.75308
jø	-8.75618
▁sangen	-8.75628
ac	-8.75727
▁ord	-8.75808
▁kontroll	-8.75897
▁paris	-8.76006
▁kirken	-8.7601
ü	-8.761
værende	-8.76209
▁langt	-8.76284
bb	-8.76365
▁allerede	-8.76512
▁universitetet	-8.76621
▁åtte	-8.7687
yl	-8.76881
ham	-8.769
jo	-8.76905
▁hi	-8.76994
▁my	-8.77009
form	-8.77041
▁delstaten	-8.77338
▁godt	-8.77362
slag	-8.77471
▁hatt	-8.77488
ium	-8.77603
▁får	-8.77833
▁fant	-8.78109
▁india	-8.78117
▁1970	-8.78133
▁50	-8.7852
inger	-8.7854
▁plan	-8.78563
▁ne	-8.78658
▁mon	-8.78663
▁midt	-8.78725
▁bygge	-8.7876
▁basert	-8.78872
▁mag	-8.78958
▁hen	-8.79243
▁art	-8.7925
▁kalles	-8.79323
▁general	-8.79357
▁fo	-8.79506
uk	-8.79691
00	-8.79773
mål	-8.79775
ó	-8.79775
▁fjell	-8.79928
så	-8.80222
▁con	-8.80246
▁bil	-8.80274
ald	-8.80335
▁opprinnelig	-8.80556
▁afrika	-8.80607
í	-8.8061
▁henne	-8.8068
hi	-8.80695
▁fred	-8.80819
▁ur	-8.8083
▁28	-8.80952
▁tar	-8.81146
dom	-8.8131
▁hjem	-8.81485
▁ty	-8.81551
▁kal	-8.8161
▁bro	-8.81663
▁gjern	-8.81969
▁utenfor	-8.82001
spill	-8.82293
▁gå	-8.82363
▁kor	-8.82397
▁ledet	-8.82402
▁lite	-8.82483
ninger	-8.82505
heten	-8.82508
▁liten	-8.82629
▁italia	-8.82736
▁jord	-8.8333
hø	-8.83394
▁familie	-8.83429
▁2012	-8.83601
▁gjøre	-8.83893
▁sc	-8.84147
▁forfatter	-8.84196
▁funnet	-8.84233
forbund	-8.84404
▁viser	-8.84443
▁innenfor	-8.84992
sch	-8.85254
ving	-8.85314
▁russland	-8.85334
rø	-8.85366
▁moderne	-8.85505
▁natur	-8.85639
fjord	-8.85661
dig	-8.85743
▁foran	-8.8577
gel	-8.85775
▁1992	-8.85777
▁valgt	-8.85826
ære	-8.86206
and	-8.86336
▁lagt	-8.86388
▁bety	-8.86459
▁økonomisk	-8.86475
▁au	-8.86713
za	-8.86763
▁hav	-8.87062
▁fiske	-8.87177
ator	-8.87201
lan	-8.87315
▁1994	-8.87559
▁1998	-8.87559
▁én	-8.87589
▁arbeider	-8.87715
▁skog	-8.87756
satt	-8.87774
▁motor	-8.87787
▁opprettet	-8.88008
itet	-8.88031
nske	-8.88037
▁ben	-8.88056
▁elven	-8.88234
isering	-8.88299
ou	-8.88481
▁27	-8.88569
▁folk	-8.88614
lev	-8.88723
let	-8.8888
fe	-8.89103
▁gav	-8.89205
▁meste	-8.89225
▁rom	-8.89306
▁styre	-8.8937
▁ros	-8.89397
uten	-8.89401
▁berg	-8.89409
▁utnevnt	-8.89528
▁fl	-8.89715
▁fag	-8.89718
▁1996	-8.89832
lø	-8.89947
menn	-8.90099
skole	-8.90263
▁fe	-8.90551
▁minst	-8.90671
▁knytte	-8.90751
tisk	-8.90888
▁hy	-8.90972
▁car	-8.90983
▁svensk	-8.90998
▁krigs	-8.91006
▁befolkningen	-8.91059
▁valg	-8.91106
▁kvinner	-8.91111
▁begynnelsen	-8.9122
und	-8.91664
▁spesielt	-8.91684
rk	-8.91796
▁internasjonale	-8.91805
▁radio	-8.91839
dre	-8.919
▁fu	-8.91971
kan	-8.9198
▁medlemmer	-8.91987
▁står	-8.92053
kon	-8.92144
isert	-8.92373
▁spor	-8.9262
▁dikt	-8.92709
▁26	-8.92733
▁vinter	-8.92816
▁åpnet	-8.92834
▁serie	-8.9286
▁nok	-8.92886
bok	-8.92921
▁betydning	-8.931
▁sosial	-8.93234
ill	-8.9333
ds	-8.93492
skje	-8.93536
▁amerika	-8.93559
▁stats	-8.93573
▁kvinne	-8.93634
bruk	-8.93701
▁partiet	-8.93828
▁litt	-8.93841
▁1960	-8.94063
▁ras	-8.94087
▁stil	-8.94322
▁1995	-8.9454
▁viktigste	-8.94613
▁pla	-8.94693
▁karl	-8.94763
▁aldri	-8.94773
▁vise	-8.94842
▁skuespiller	-8.95046
▁nesten	-8.9512
van	-8.95405
▁militær	-8.95462
▁slått	-8.95588
ung	-8.95657
▁fått	-8.95725
▁rolle	-8.95963
▁paul	-8.96216
▁dr	-8.96348
▁felles	-8.96488
dt	-8.96508
▁høyeste	-8.96518
▁produsert	-8.96607
▁gjør	-8.96644
gu	-8.96645
▁divisjon	-8.96683
▁bru	-8.96687
sson	-8.96857
dy	-8.9686
▁31	-8.96882
▁york	-8.96974
mm	-8.97018
▁bygd	-8.97274
4	-8.97297
ya	-8.9744
▁personer	-8.97511
fi	-8.97519
▁40	-8.97526
▁cha	-8.97534
føring	-8.97568
▁pave	-8.97698
▁tur	-8.97886
▁aktiv	-8.9796
▁omtrent	-8.97966
▁lav	-8.98297
▁dannet	-8.9836
▁29	-8.98419
film	-8.98451
▁sølv	-8.98466
▁venstre	-8.98466
leder	-8.98504
▁slaget	-8.98547
og	-8.98631
▁gra	-8.98742
▁fall	-8.98817
▁høyre	-8.98839
lla	-8.98843
▁arbeids	-8.98846
▁jeg	-8.98953
▁1991	-8.98976
▁følge	-8.98982
kle	-8.99062
▁kongen	-8.99072
▁tu	-8.99112
val	-8.99247
▁eget	-8.99278
ab	-8.99293
ich	-8.99306
▁vin	-8.99315
▁angrep	-8.99326
laget	-8.99485
▁riks	-8.99527
▁bruker	-8.99701
ighet	-8.99931
▁århundre	-8.99981
bane	-9.00018
▁lange	-9.00057
ska	-9.00179
▁lokale	-9.00187
▁lands	-9.00409
▁lik	-9.00421
yn	-9.00516
▁professor	-9.00575
▁svenske	-9.00743
▁prest	-9.00801
fra	-9.00956
▁resten	-9.01104
elig	-9.01176
▁park	-9.01193
tar	-9.01237
▁ku	-9.01295
tiv	-9.01356
▁1988	-9.01525
tz	-9.01527
tro	-9.01565
heim	-9.01574
▁bror	-9.01654
ale	-9.01668
▁keiser	-9.01677
ød	-9.01681
▁berlin	-9.01706
mat	-9.01706
▁industri	-9.01728
▁mel	-9.01773
▁forsøk	-9.018
▁bor	-9.01817
▁dagens	-9.01846
elt	-9.01857
kken	-9.01925
▁bre	-9.01978
fly	-9.02029
▁datter	-9.02078
ys	-9.02143
▁on	-9.0222
art	-9.0222
▁krig	-9.02258
su	-9.02259
▁mil	-9.02355
▁kar	-9.02443
▁best	-9.026
mu	-9.0263
▁historisk	-9.02726
spiller	-9.028
▁kl	-9.02813
▁ferdig	-9.02815
▁von	-9.02861
ug	-9.03003
▁brasil	-9.03085
▁seil	-9.03152
▁delt	-9.03175
▁jernbane	-9.0327
▁ap	-9.03405
▁slekt	-9.03414
▁post	-9.03489
▁skip	-9.03513
▁kron	-9.03514
senter	-9.03525
▁kamp	-9.03572
▁1993	-9.03614
▁luft	-9.0366
▁kamper	-9.03982
ki	-9.04041
tes	-9.04051
råd	-9.04078
▁universitet	-9.04091
50	-9.0412
▁hovedsakelig	-9.04144
▁bestemt	-9.04403
forening	-9.04405
▁vo	-9.04433
ph	-9.04442
vel	-9.0445
han	-9.04562
▁menneske	-9.0461
▁roman	-9.04692
▁kur	-9.04752
▁band	-9.04825
▁likevel	-9.04916
asje	-9.05061
▁egne	-9.05092
ap	-9.05143
anske	-9.05201
▁sentrum	-9.05395
▁politiker	-9.05402
▁makt	-9.05602
▁hol	-9.05608
imot	-9.05653
▁bri	-9.05689
▁handels	-9.05785
▁danske	-9.0589
▁staten	-9.06093
▁organ	-9.06123
▁ed	-9.06199
▁solgt	-9.06295
▁lille	-9.06339
▁barne	-9.06417
▁farge	-9.06419
ation	-9.06496
▁finalen	-9.06503
ologi	-9.06571
▁hjelp	-9.06698
bra	-9.0683
▁th	-9.06867
▁rød	-9.06989
▁ett	-9.07104
▁hva	-9.07142
▁university	-9.07372
▁regnes	-9.07474
året	-9.0772
bin	-9.07767
а	-9.07916
▁2013	-9.07922
▁tross	-9.08024
▁pal	-9.08081
▁følgende	-9.08111
▁gul	-9.08123
anger	-9.08166
minister	-9.08261
▁orden	-9.08281
tion	-9.08309
▁pan	-9.08462
▁200	-9.08469
▁1997	-9.0848
▁tittelen	-9.08495
figur	-9.08501
språk	-9.08611
▁benyttet	-9.08614
▁skrive	-9.08787
wa	-9.08815
ps	-9.08885
bygning	-9.08963
▁van	-9.08971
▁arrangert	-9.0903
▁inkludert	-9.0903
▁fortsatte	-9.09033
▁roma	-9.09037
▁interesse	-9.09172
▁hal	-9.09201
iet	-9.0923
departementet	-9.09411
▁mu	-9.09575
▁trondheim	-9.09591
ica	-9.09615
▁danne	-9.09809
▁seier	-9.09843
▁anti	-9.09865
▁reist	-9.09892
ide	-9.09951
banen	-9.09992
▁veien	-9.10061
▁enkelte	-9.10112
▁direkte	-9.1015
▁tildelt	-9.10204
▁os	-9.10216
▁sørlig	-9.10322
▁skolen	-9.10332
▁dager	-9.10346
bel	-9.10442
▁engelske	-9.10515
▁arter	-9.10606
▁christian	-9.10653
▁erstatte	-9.10742
▁ev	-9.10833
ott	-9.10874
▁biskop	-9.10914
▁utvikling	-9.10962
▁endt	-9.1112
▁resultat	-9.11164
▁val	-9.11378
nings	-9.11432
▁gri	-9.11441
sto	-9.11567
stilling	-9.11723
▁eldste	-9.11855
borg	-9.11867
▁rock	-9.12061
▁tjeneste	-9.12161
øya	-9.122
▁liste	-9.12201
▁peter	-9.12251
▁steder	-9.1246
▁sig	-9.12679
▁tak	-9.12688
▁sang	-9.12707
skip	-9.12717
▁høyde	-9.12924
lsen	-9.12983
tu	-9.13026
▁sha	-9.13062
system	-9.13123
▁indre	-9.13145
▁port	-9.13259
øl	-9.1327
vil	-9.13307
▁grunnlagt	-9.13418
bil	-9.13437
▁sal	-9.13572
▁dess	-9.13575
▁eldre	-9.13626
log	-9.1377
rå	-9.14002
em	-9.14096
▁via	-9.14302
ros	-9.14341
før	-9.14399
▁våpen	-9.14412
▁topp	-9.14566
▁samarbeid	-9.1473
▁reise	-9.14737
syn	-9.14757
▁hverandre	-9.14762
▁hvit	-9.14879
kamp	-9.14902
▁midten	-9.14947
▁teater	-9.15016
▁sak	-9.15037
▁fre	-9.15283
▁kilometer	-9.15354
▁drept	-9.15354
▁skade	-9.15379
▁arten	-9.15461
▁wi	-9.15473
asjonen	-9.15494
▁com	-9.15619
▁regionen	-9.15627
▁ettersom	-9.15628
▁fange	-9.15651
tør	-9.15742
▁1989	-9.15957
▁1987	-9.15958
▁1940	-9.15962
▁energi	-9.16004
▁op	-9.16046
▁xi	-9.16159
▁møte	-9.16252
est	-9.1626
▁eu	-9.16368
▁dyr	-9.16562
vet	-9.16594
ire	-9.16596
▁inneholder	-9.16607
▁herre	-9.16657
▁plate	-9.16669
agn	-9.16683
▁opprør	-9.16737
ru	-9.16745
▁meg	-9.16856
▁nordlige	-9.16868
king	-9.1688
▁les	-9.1701
▁hvilke	-9.17151
▁slike	-9.17243
ev	-9.1743
veien	-9.17471
▁gen	-9.1749
▁sm	-9.1749
▁sendt	-9.17638
▁slo	-9.17752
▁album	-9.17752
kal	-9.17757
▁styrker	-9.17757
▁1920	-9.17771
▁pr	-9.17818
▁spe	-9.17873
gl	-9.17927
▁fremst	-9.17938
▁leker	-9.17948
▁bel	-9.18052
▁neste	-9.18077
▁sesong	-9.18166
▁kraft	-9.1818
▁2015	-9.1838
zo	-9.18433
tin	-9.18446
rig	-9.1849
▁brun	-9.18497
▁1800	-9.18534
▁tap	-9.1857
▁turn	-9.18595
▁ø	-9.18644
▁2014	-9.18991
▁1900	-9.19004
merke	-9.19024
▁europeisk	-9.19103
▁full	-9.19134
▁produksjon	-9.19188
▁kors	-9.19193
▁dansk	-9.19278
▁col	-9.1928
båt	-9.19332
▁ly	-9.19381
▁betydelig	-9.19598
▁vanskelig	-9.19598
▁1984	-9.19606
▁poeng	-9.19833
bygd	-9.19851
▁sanger	-9.19924
▁bør	-9.20045
▁miljø	-9.20084
lik	-9.20106
som	-9.20106
ding	-9.20114
fjorden	-9.20129
fl	-9.20202
▁omfatter	-9.20218
plan	-9.2028
▁arbeid	-9.20323
liggende	-9.2035
▁ke	-9.20352
▁verk	-9.20421
istisk	-9.20488
▁nett	-9.20503
▁kv	-9.20514
ple	-9.20628
▁opera	-9.20658
▁sen	-9.20778
sjef	-9.2084
▁elva	-9.20892
▁ten	-9.20961
▁områder	-9.21026
▁kra	-9.21076
▁lett	-9.21127
▁japan	-9.21132
▁asia	-9.21198
leg	-9.2127
sky	-9.21335
▁hånd	-9.21422
ju	-9.21435
▁johan	-9.21578
bru	-9.21625
▁klar	-9.21673
▁start	-9.21822
▁tilhører	-9.21878
▁ønsket	-9.21889
▁høsten	-9.21898
mester	-9.21968
ringen	-9.22107
gitt	-9.22181
▁lege	-9.22236
▁bedre	-9.22249
jør	-9.22259
▁mester	-9.2229
▁stasjon	-9.2245
bro	-9.22451
▁syv	-9.22465
inne	-9.2249
▁ordet	-9.22616
▁ring	-9.22624
▁flo	-9.22729
▁arm	-9.2273
▁sannsynlig	-9.22742
▁canada	-9.22745
▁bronse	-9.22747
▁besøk	-9.22759
aks	-9.22801
▁stre	-9.22806
▁lyd	-9.22929
nor	-9.23009
▁hvis	-9.23046
ris	-9.23217
▁mente	-9.23223
fall	-9.23343
▁australia	-9.23383
▁dra	-9.23405
▁60	-9.23622
▁faren	-9.23683
drag	-9.23715
▁ber	-9.23728
▁ry	-9.23808
▁alder	-9.23849
vann	-9.23923
▁kroppen	-9.2403
▁prosent	-9.24034
▁1968	-9.24037
kar	-9.24075
▁sogn	-9.2416
nntil	-9.24162
▁minne	-9.2422
▁utgjør	-9.24243
sjoner	-9.24243
▁samle	-9.24249
▁finner	-9.24333
▁høyere	-9.24366
▁område	-9.24535
navn	-9.24589
che	-9.2467
dor	-9.24682
▁1945	-9.24686
handling	-9.2476
stat	-9.24874
▁500	-9.24963
▁løp	-9.2512
▁jan	-9.25129
▁periode	-9.25217
▁stjerne	-9.25234
▁suksess	-9.25332
ai	-9.25498
fri	-9.25722
▁konsert	-9.2574
ari	-9.25784
skilt	-9.2579
▁rike	-9.25867
▁verdi	-9.25926
▁hjemme	-9.25944
▁sovjetunionen	-9.25989
ført	-9.26009
▁lin	-9.26083
▁lenger	-9.2613
▁sommeren	-9.26152
▁blå	-9.26206
▁system	-9.26369
stykke	-9.26409
pol	-9.26414
▁sta	-9.26599
gh	-9.26645
▁regjeringen	-9.26662
▁robert	-9.26686
▁fylke	-9.2689
▁bjørn	-9.26923
▁cor	-9.26948
▁virke	-9.27247
▁viss	-9.27257
▁finne	-9.27286
▁fjerde	-9.27318
▁bevis	-9.27405
8	-9.2745
res	-9.27473
▁retning	-9.27495
istiske	-9.27522
▁ul	-9.2758
30	-9.27659
we	-9.27683
▁bal	-9.2771
▁ang	-9.27753
▁1974	-9.27996
▁1973	-9.27997
▁1975	-9.28003
lys	-9.28023
stil	-9.28043
ford	-9.28069
▁vår	-9.28071
stående	-9.28079
▁enkelt	-9.28088
lett	-9.28345
▁gro	-9.2839
▁kat	-9.28516
▁besto	-9.28564
▁los	-9.28641
zi	-9.28732
▁rev	-9.28764
▁endret	-9.2882
▁versjon	-9.28821
led	-9.28861
▁hæren	-9.28938
▁maria	-9.29012
7	-9.29062
▁rø	-9.29068
grad	-9.29141
▁voksne	-9.29345
▁1950	-9.29366
▁nordøst	-9.29383
▁tilfelle	-9.29395
mark	-9.29486
▁eid	-9.29579
▁nest	-9.29595
и	-9.3003
▁informasjon	-9.3003
▁fer	-9.3003
▁1948	-9.30037
▁klasse	-9.30153
ille	-9.30223
▁ex	-9.30279
sis	-9.30303
▁slekten	-9.30375
stra	-9.30383
▁skje	-9.30497
område	-9.30616
▁unge	-9.30667
▁helse	-9.30714
▁1983	-9.3073
▁samling	-9.30756
▁viste	-9.3089
▁heller	-9.30994
▁kraftig	-9.31047
20	-9.31217
grunn	-9.31243
▁bur	-9.31299
▁mod	-9.31359
rin	-9.31407
▁gren	-9.31429
▁bodde	-9.31472
dyr	-9.31553
▁litteratur	-9.31701
huset	-9.31804
▁valgte	-9.31902
gård	-9.3194
▁william	-9.32113
▁sentrale	-9.32125
▁spania	-9.32127
▁you	-9.32201
▁grensen	-9.32325
▁skjer	-9.32405
▁koloni	-9.32428
▁funksjon	-9.32446
ida	-9.32526
kraft	-9.32611
▁gård	-9.32617
▁dro	-9.32776
kast	-9.32843
▁trans	-9.32895
stasjon	-9.32913
chi	-9.32971
▁finland	-9.32978
itz	-9.32985
port	-9.33
▁regjering	-9.33039
ight	-9.33076
gar	-9.33108
▁totalt	-9.33132
stilt	-9.3318
aksjon	-9.33258
all	-9.33392
ismen	-9.33444
graf	-9.33461
ach	-9.33464
fisk	-9.33557
ons	-9.33631
rus	-9.33668
sjøen	-9.33732
lene	-9.33737
elser	-9.33741
▁qu	-9.33773
▁fin	-9.33791
løs	-9.33821
▁samlet	-9.33843
olog	-9.33844
▁q	-9.33906
▁japansk	-9.33927
▁klarte	-9.33976
▁københavn	-9.34241
▁city	-9.34272
selskap	-9.34298
▁mos	-9.34387
tning	-9.34619
q	-9.34732
ria	-9.34792
ull	-9.34878
▁svarte	-9.34909
▁mont	-9.35052
dde	-9.35069
▁skille	-9.35117
▁ter	-9.35179
▁politi	-9.35183
▁nrk	-9.35237
sak	-9.35275
▁lengde	-9.35308
▁styrke	-9.35317
våg	-9.35461
▁pol	-9.35469
ski	-9.35474
bygg	-9.35476
mal	-9.35521
trykk	-9.35581
▁thomas	-9.35685
▁1981	-9.35694
▁vokste	-9.35696
▁statsminister	-9.35703
▁mark	-9.35718
▁bygningen	-9.358
▁lei	-9.35801
ah	-9.35828
xi	-9.35917
▁bruke	-9.36048
▁70	-9.36111
styre	-9.36216
▁slag	-9.36275
▁mur	-9.36309
retning	-9.36328
▁soldater	-9.36422
▁1978	-9.36422
lis	-9.36439
▁sørøst	-9.36444
sund	-9.36449
▁sammenheng	-9.36475
givelse	-9.36522
▁pat	-9.36593
pu	-9.36604
▁carl	-9.36659
gre	-9.36741
▁artene	-9.36748
▁tekst	-9.36759
▁bilde	-9.36894
▁tegn	-9.37057
tel	-9.37099
▁kle	-9.3712
▁relativ	-9.3715
▁david	-9.37154
▁1985	-9.37161
▁1952	-9.37162
▁vol	-9.37221
ini	-9.3724
▁stadig	-9.37241
▁johannes	-9.37293
ket	-9.37299
kri	-9.3733
har	-9.37398
ås	-9.37446
▁kje	-9.37594
fo	-9.37626
▁nederland	-9.37738
▁regnet	-9.37782
navnet	-9.37849
▁sterkt	-9.37859
▁mm	-9.37872
▁1986	-9.37898
▁dia	-9.37936
▁raskt	-9.37983
▁henrik	-9.38018
ika	-9.38042
kket	-9.38067
ji	-9.38281
▁effekt	-9.38309
▁nivå	-9.3831
▁oppdaget	-9.38434
cy	-9.38482
▁80	-9.38487
▁stod	-9.38499
▁regi	-9.38561
▁standard	-9.38653
▁finans	-9.38662
▁brukte	-9.38774
▁katolske	-9.38806
▁chi	-9.38828
▁livet	-9.38835
▁handling	-9.38916
▁bank	-9.39104
satte	-9.39212
▁kart	-9.39245
▁blad	-9.39329
▁kardinal	-9.39389
rike	-9.39436
▁militære	-9.39466
ice	-9.39559
side	-9.39625
40	-9.39672
▁gar	-9.39683
▁britisk	-9.39945
eres	-9.40029
ind	-9.40124
▁1969	-9.40158
▁1972	-9.40158
▁boken	-9.40188
▁martin	-9.40204
▁para	-9.4021
▁råd	-9.40262
▁tanke	-9.40301
▁blod	-9.40389
▁ac	-9.40447
75	-9.40538
▁utviklingen	-9.40553
▁ii	-9.40568
du	-9.4065
full	-9.40659
▁hit	-9.40836
▁oppkalt	-9.40914
▁dronning	-9.40914
ferd	-9.40952
▁merke	-9.40984
akt	-9.40999
▁kul	-9.41006
ive	-9.41035
▁kampen	-9.41056
stu	-9.41074
▁finsk	-9.41074
▁lær	-9.41089
området	-9.41107
▁vestlig	-9.41124
▁ska	-9.41154
▁tall	-9.41169
▁ledelse	-9.41177
▁ag	-9.41256
▁lærer	-9.41401
bygging	-9.41479
64	-9.41483
▁fulgte	-9.41649
▁stockholm	-9.41679
republikken	-9.41689
▁1964	-9.41696
az	-9.41696
ino	-9.41755
▁latin	-9.4176
▁forsvar	-9.4186
▁viktige	-9.41885
byen	-9.41919
don	-9.41931
▁ansvar	-9.41984
▁gode	-9.42031
mel	-9.42182
▁sju	-9.42208
▁direktør	-9.42312
▁mus	-9.42349
of	-9.42384
è	-9.42454
▁nordvest	-9.42456
▁red	-9.42466
▁300	-9.42578
blad	-9.4265
▁selskap	-9.42679
kra	-9.42684
▁kryss	-9.42719
▁tradisjon	-9.42732
▁skipet	-9.42782
verket	-9.42837
ritt	-9.429
krigen	-9.42931
▁olje	-9.42944
lagt	-9.42955
66	-9.43049
ze	-9.43104
▁tapte	-9.43219
asjoner	-9.43229
▁østerrike	-9.43237
▁sende	-9.43238
▁bronsemedalje	-9.43242
▁fylkesvei	-9.43268
▁trykk	-9.43322
▁måneder	-9.43348
▁mas	-9.43357
▁jobb	-9.43363
▁dersom	-9.43389
▁erik	-9.43529
bilde	-9.43698
▁delta	-9.43725
samling	-9.43732
▁offentlig	-9.43774
vær	-9.43791
▁drift	-9.43803
familien	-9.43823
nis	-9.43824
▁island	-9.43884
▁hær	-9.43922
▁møtte	-9.43984
sal	-9.4401
▁ytterligere	-9.44023
▁svart	-9.44028
▁1979	-9.44035
▁egentlig	-9.44042
▁stilling	-9.44117
▁holm	-9.44131
▁mal	-9.44229
▁plassert	-9.44244
ana	-9.44359
enes	-9.44377
▁reform	-9.44396
▁avdeling	-9.44554
▁hvite	-9.44666
ath	-9.44682
▁lenge	-9.44736
▁1982	-9.44829
▁gifte	-9.4483
▁1930	-9.44836
▁arkitekt	-9.45012
▁tom	-9.45114
▁sterk	-9.45178
▁dagen	-9.45213
▁historien	-9.4529
▁hør	-9.4534
▁drev	-9.45353
▁anders	-9.4539
▁stiftet	-9.45422
▁personlig	-9.45431
▁israel	-9.45509
▁felt	-9.4554
▁1924	-9.45626
regionen	-9.45694
▁tal	-9.45718
▁båt	-9.45914
sjonen	-9.45924
▁pris	-9.45982
▁fjorden	-9.46043
▁studerte	-9.46137
hl	-9.46161
▁karriere	-9.46181
▁skjedde	-9.46435
▁sluttet	-9.46448
▁såkalte	-9.46456
▁bakgrunn	-9.46463
▁180	-9.46475
rio	-9.46488
▁brann	-9.46567
▁vind	-9.46597
brudd	-9.46678
cc	-9.46714
▁prosess	-9.46729
▁stra	-9.46814
▁ci	-9.4684
37	-9.46921
rom	-9.46927
parti	-9.46997
organ	-9.47008
net	-9.47011
▁gass	-9.47094
▁kunstner	-9.47191
ial	-9.47219
▁dårlig	-9.47237
▁års	-9.47275
folk	-9.47297
▁gutt	-9.47299
▁grand	-9.47302
▁regn	-9.47328
middel	-9.47338
▁regel	-9.47349
▁plante	-9.47434
▁kjempe	-9.47458
ville	-9.47462
▁hundre	-9.47471
▁gal	-9.47482
▁vekt	-9.47484
▁naturlig	-9.47602
▁leve	-9.47663
▁syd	-9.47741
fer	-9.47807
▁hodet	-9.47809
▁linje	-9.4784
deling	-9.47859
▁spi	-9.47908
▁etterhvert	-9.48056
▁omfattende	-9.48056
▁sikre	-9.48061
syk	-9.48143
kjenn	-9.48232
▁hopp	-9.48272
▁hovedstaden	-9.48297
mannen	-9.48372
ano	-9.48413
▁måte	-9.48425
▁bill	-9.48429
▁munn	-9.48448
▁super	-9.48514
▁400	-9.48629
▁ji	-9.48666
▁ting	-9.48704
søk	-9.48731
▁spesial	-9.48749
▁ansatt	-9.48855
▁air	-9.48868
anlegg	-9.48874
▁stavanger	-9.48891
▁1976	-9.48895
▁za	-9.48917
skrift	-9.49006
områder	-9.49092
▁athen	-9.49134
▁marine	-9.49177
felt	-9.49205
▁west	-9.49224
▁jon	-9.496
▁tilsvarende	-9.49716
▁stortinget	-9.49718
▁ve	-9.49776
stan	-9.49817
▁inter	-9.49977
▁sy	-9.49992
kant	-9.50071
▁eier	-9.50298
fart	-9.50319
▁tett	-9.50338
rop	-9.50374
trolig	-9.50443
cu	-9.50459
▁gran	-9.50483
▁norrøn	-9.50558
▁1965	-9.50571
▁strid	-9.50591
▁nu	-9.50607
▁fylkes	-9.50773
▁havet	-9.50849
skog	-9.50943
▁veg	-9.50955
gan	-9.50996
▁tettstedet	-9.5102
▁sterke	-9.51123
▁kysten	-9.512
▁slå	-9.51255
bus	-9.51299
▁gru	-9.51349
▁christ	-9.51397
▁egypt	-9.514
▁trøndelag	-9.51403
▁2016	-9.5142
▁sø	-9.51484
organisasjon	-9.51572
▁romerske	-9.51598
hr	-9.51621
▁moh	-9.51641
liste	-9.51693
▁wo	-9.51891
rud	-9.51911
▁sub	-9.51927
▁ball	-9.52176
virkning	-9.52231
▁klima	-9.52259
▁lengre	-9.52267
▁areal	-9.52273
▁1962	-9.52274
skapet	-9.52308
ledende	-9.52334
▁gjennomført	-9.52338
gruppen	-9.52352
▁iii	-9.52359
▁representerte	-9.5243
▁korte	-9.5248
▁skape	-9.52499
▁stemme	-9.5261
▁programmet	-9.52672
▁motstand	-9.52888
gjorde	-9.52973
▁gre	-9.53003
▁uavhengig	-9.53042
akademi	-9.53097
▁richard	-9.5312
▁utdannet	-9.5312
vern	-9.53127
tale	-9.53155
▁opprinnelige	-9.53231
39	-9.53268
▁befolkning	-9.53269
periode	-9.53329
▁konkurransen	-9.53337
▁oppført	-9.53348
idae	-9.53441
60	-9.53476
▁posisjon	-9.53479
▁overtok	-9.53533
▁frank	-9.53534
▁vunnet	-9.53545
▁gate	-9.53564
det	-9.53578
▁dal	-9.53648
▁aktivitet	-9.5366
43	-9.53681
arbeid	-9.53766
▁produsere	-9.5399
▁kontakt	-9.53994
▁hest	-9.53996
▁1956	-9.54001
▁1977	-9.54003
ita	-9.54032
▁trakk	-9.54096
▁grense	-9.54104
▁region	-9.54142
valget	-9.54143
▁størrelse	-9.54219
▁løs	-9.54305
▁kyst	-9.54634
kro	-9.54692
stri	-9.54701
▁jobbet	-9.54769
ms	-9.54868
▁sørvest	-9.54868
▁kh	-9.54873
▁ven	-9.54903
▁valget	-9.55075
ved	-9.55091
▁grenser	-9.55102
▁høye	-9.55176
▁hall	-9.55195
▁saken	-9.55264
tri	-9.55295
▁mis	-9.55306
▁rus	-9.55383
▁strøm	-9.55415
▁runde	-9.5543
▁virksomhet	-9.557
gle	-9.55801
▁studie	-9.55861
drift	-9.55895
▁gje	-9.55976
▁thor	-9.55976
▁olav	-9.56043
tegn	-9.56058
▁not	-9.56154
▁uttrykk	-9.5622
▁tele	-9.5625
▁italienske	-9.5626
▁pot	-9.56486
▁presse	-9.56492
▁vist	-9.56529
ål	-9.56551
▁mw	-9.56552
jen	-9.56619
▁selvstendig	-9.56645
▁1936	-9.56654
▁årlig	-9.5668
▁legge	-9.56693
zhou	-9.5676
55	-9.56777
▁lære	-9.56779
produksjon	-9.56912
lia	-9.56915
▁grå	-9.56995
bert	-9.57007
▁vinner	-9.57076
▁kilde	-9.57102
▁het	-9.57123
▁mac	-9.57132
▁us	-9.57159
▁fest	-9.57222
62	-9.57335
▁bøker	-9.57445
▁politikk	-9.57496
▁konflikt	-9.57545
▁foreldre	-9.57547
▁offiser	-9.57559
▁ordfører	-9.57562
▁ytre	-9.57682
▁sel	-9.57684
▁lars	-9.57707
▁cu	-9.57741
ark	-9.57792
▁stift	-9.57794
70	-9.57926
▁variant	-9.57952
▁folket	-9.58053
▁cup	-9.58095
ola	-9.58126
dra	-9.58149
tatt	-9.58163
▁af	-9.58179
jern	-9.58204
▁museum	-9.58289
tall	-9.58337
▁ledd	-9.5837
abel	-9.5838
▁flat	-9.58437
▁beijing	-9.58455
up	-9.58459
▁1967	-9.5847
mand	-9.58488
under	-9.58507
▁fla	-9.58546
med	-9.5859
ama	-9.58629
▁enten	-9.58641
rådet	-9.58677
▁innført	-9.5869
af	-9.58732
▁dan	-9.5874
▁nabo	-9.58761
▁journalist	-9.58763
heter	-9.58776
▁økonomi	-9.5885
▁jern	-9.58893
▁styrkene	-9.58909
kla	-9.5891
▁sir	-9.58934
band	-9.58937
▁transport	-9.58944
38	-9.58961
▁andreplass	-9.59107
formen	-9.59111
▁høyt	-9.59135
25	-9.59311
▁grønn	-9.59346
о	-9.59368
▁tilgjengelig	-9.59372
▁front	-9.59377
tjeneste	-9.59396
▁forsvars	-9.5944
gren	-9.59606
▁status	-9.59614
▁gården	-9.59639
▁pl	-9.5972
fører	-9.59781
▁egg	-9.59944
▁tropp	-9.59948
▁korea	-9.5998
▁hjelpe	-9.6007
ink	-9.6015
dals	-9.60282
▁opprinnelse	-9.60298
▁1941	-9.60309
▁1939	-9.60316
▁1966	-9.60318
▁søster	-9.6033
▁feil	-9.60427
▁virkelig	-9.60447
▁ep	-9.60485
▁kast	-9.60534
lle	-9.60545
▁don	-9.60595
▁utført	-9.60617
wi	-9.60701
▁hoff	-9.60744
▁operasjon	-9.60775
▁type	-9.60801
▁hevdet	-9.60811
bor	-9.60837
tus	-9.60988
hel	-9.60991
▁krav	-9.61059
messig	-9.61229
ð	-9.61233
▁nærmest	-9.61235
▁sil	-9.61239
age	-9.61269
▁pop	-9.61392
▁grev	-9.61436
legge	-9.61498
fat	-9.61505
▁nådd	-9.61523
▁prosjekt	-9.61526
▁nevnt	-9.61715
▁øke	-9.61717
▁ung	-9.61973
▁sier	-9.62053
musikk	-9.62062
▁fot	-9.62083
▁hertug	-9.62088
▁mc	-9.62092
▁oppdag	-9.62117
▁maskin	-9.62146
lser	-9.62167
р	-9.62176
▁original	-9.62176
▁salt	-9.62176
▁organisasjonen	-9.62215
65	-9.62226
▁90	-9.62333
▁oppgave	-9.62333
▁historiker	-9.62359
▁grunnlag	-9.62405
lv	-9.62574
stikk	-9.62638
▁studier	-9.6268
▁temperatur	-9.62701
▁son	-9.62833
nik	-9.62848
▁klart	-9.62861
lem	-9.62871
uc	-9.62885
▁grupper	-9.62941
stol	-9.62986
▁følger	-9.63014
nyin	-9.63038
sekretær	-9.63113
▁daglig	-9.63123
▁øvrig	-9.63128
▁mengde	-9.63139
▁1963	-9.63144
▁1961	-9.63145
▁straff	-9.63179
▁score	-9.63183
▁debutert	-9.63241
▁bomb	-9.63307
havet	-9.63337
▁spørsmål	-9.63434
bytte	-9.63508
▁kol	-9.63576
▁redaktør	-9.63584
her	-9.63607
▁beskrive	-9.63613
▁påvirke	-9.63634
▁krets	-9.63785
▁dom	-9.6379
▁nils	-9.63795
▁george	-9.63931
▁borger	-9.63949
▁festning	-9.63991
pris	-9.64011
▁kost	-9.64057
▁time	-9.64089
с	-9.6409
▁fokus	-9.64092
▁1947	-9.64105
ula	-9.64111
▁omtalt	-9.6412
▁bispedømme	-9.64239
▁åpen	-9.6427
linjen	-9.64292
▁symbol	-9.64293
▁formann	-9.64321
▁kla	-9.64363
▁anlegget	-9.64502
▁livs	-9.64504
▁prøve	-9.64517
gift	-9.64579
lå	-9.64586
▁irland	-9.64602
▁forfatteren	-9.64614
ologisk	-9.64682
▁materiale	-9.64777
▁røde	-9.64784
▁bygg	-9.64797
▁international	-9.65061
▁nødvendig	-9.65061
▁publisert	-9.65061
▁charles	-9.65073
▁varme	-9.65074
▁1944	-9.65076
▁1971	-9.65076
61	-9.65165
▁falt	-9.65195
▁hente	-9.65209
▁kir	-9.65213
rat	-9.65231
▁plassering	-9.65232
gruppe	-9.65257
▁kristne	-9.65303
▁byens	-9.65313
rum	-9.65351
▁singel	-9.65381
punkt	-9.65383
elige	-9.65442
iner	-9.65448
nivå	-9.65508
shire	-9.65604
cia	-9.6566
▁formel	-9.65681
midler	-9.65713
bud	-9.65714
off	-9.65757
▁delvis	-9.65907
pan	-9.65924
ves	-9.65936
arter	-9.65995
▁stø	-9.66012
▁ekteskap	-9.66041
▁friidrett	-9.66041
▁hjerte	-9.66041
▁national	-9.66041
▁øvre	-9.66041
58	-9.66044
▁tolk	-9.6612
▁cm	-9.66129
orm	-9.66151
▁polsk	-9.66159
elva	-9.66203
▁tusen	-9.66278
67	-9.66309
▁liga	-9.6635
grense	-9.6643
▁adel	-9.66447
lighet	-9.66484
ins	-9.66502
▁begrepet	-9.6653
▁velge	-9.66535
systemet	-9.66595
▁kanal	-9.66738
▁vet	-9.66743
vekt	-9.66839
▁skottland	-9.67031
▁klassisk	-9.67032
▁bevart	-9.67053
▁dyp	-9.67141
▁bolig	-9.67165
▁union	-9.67165
▁stoppe	-9.67193
52	-9.67239
flåte	-9.67268
▁rad	-9.6728
▁stu	-9.67378
▁enhet	-9.67386
▁produksjons	-9.67393
trekk	-9.67449
▁italiensk	-9.6746
▁sh	-9.67472
▁sjef	-9.67478
eller	-9.67506
krets	-9.67512
▁uker	-9.67517
▁fjellet	-9.67564
▁østlig	-9.67617
▁teksten	-9.6763
stru	-9.67704
▁pri	-9.67707
▁sette	-9.67828
▁filosofi	-9.67937
▁program	-9.67948
▁nærings	-9.67959
▁ordenen	-9.67968
▁unntak	-9.6805
san	-9.68092
▁rot	-9.68252
▁årsak	-9.68256
▁ansatte	-9.68257
▁festival	-9.68302
63	-9.68419
▁utdanning	-9.68497
▁glo	-9.68512
51	-9.68583
▁trekk	-9.68665
ografi	-9.6868
▁produkt	-9.68748
▁ob	-9.68794
løse	-9.68873
▁fører	-9.68919
▁sport	-9.6892
heng	-9.68925
▁populær	-9.68967
▁profesjonell	-9.69041
▁betrakte	-9.69042
▁arabisk	-9.69043
▁mistet	-9.69065
valg	-9.69172
▁vitenskapelig	-9.69201
iti	-9.69278
▁snø	-9.69442
▁femte	-9.69464
▁jorden	-9.69491
▁tema	-9.69521
▁distrikt	-9.6956
▁riket	-9.69563
▁skrift	-9.69612
▁forsøkt	-9.69637
▁begynner	-9.69667
▁len	-9.69686
▁teori	-9.69713
▁kroner	-9.69724
▁fordelt	-9.69952
▁utstyr	-9.69964
▁antagelig	-9.70062
▁utbredt	-9.70062
▁lansert	-9.70064
magasin	-9.70073
▁jarl	-9.70102
gangen	-9.70103
▁fotballspiller	-9.70103
▁nærheten	-9.70119
▁behandling	-9.7023
formet	-9.70288
▁offentlige	-9.70386
hn	-9.70463
▁data	-9.70539
▁offisielle	-9.70564
▁brev	-9.70566
ori	-9.70582
ix	-9.70709
former	-9.70734
▁løv	-9.70749
▁masse	-9.70754
▁nev	-9.70755
▁tegne	-9.70755
▁revolusjon	-9.70926
▁fugle	-9.70941
▁smal	-9.70953
▁anta	-9.7101
▁pass	-9.7102
▁klubb	-9.71051
▁1946	-9.71093
▁ishockey	-9.71093
▁louis	-9.71093
▁fremdeles	-9.71093
▁sjelden	-9.71109
▁1959	-9.71109
▁harald	-9.71116
▁sku	-9.71261
ben	-9.71279
▁tung	-9.7135
▁gått	-9.71436
eier	-9.71441
▁test	-9.71505
▁forteller	-9.71524
▁vik	-9.71579
▁øyene	-9.71619
skolen	-9.71722
▁fil	-9.71728
vesen	-9.71733
kysten	-9.71752
90	-9.71778
▁stand	-9.71869
cha	-9.71877
▁privat	-9.71881
▁lind	-9.71939
ub	-9.72012
ias	-9.72022
fabrikk	-9.72084
▁publikum	-9.72134
▁allierte	-9.72135
▁frederik	-9.7214
▁1932	-9.72145
field	-9.72179
▁angeles	-9.72207
▁selve	-9.72226
▁sky	-9.72242
▁fordel	-9.72303
▁jøde	-9.72362
▁sendte	-9.72382
▁vis	-9.72392
▁preget	-9.72487
▁leg	-9.72634
verdig	-9.72748
59	-9.72755
▁avisen	-9.72784
▁elev	-9.72795
etter	-9.72885
▁oversatt	-9.72955
▁prisen	-9.73087
10	-9.73096
▁sovjetisk	-9.73134
▁hard	-9.73153
▁betegne	-9.73169
▁innflytelse	-9.7318
е	-9.73183
▁fengsel	-9.73187
▁united	-9.73188
▁1928	-9.73196
▁musikkalbum	-9.73203
▁rute	-9.73218
▁knut	-9.73297
pro	-9.73381
▁øverste	-9.73455
▁wal	-9.73546
plasser	-9.73563
iserte	-9.73567
▁endelig	-9.7365
▁bred	-9.73661
iz	-9.7368
▁huset	-9.73721
løpet	-9.73777
ara	-9.73815
▁mege	-9.73886
47	-9.73949
▁forskning	-9.73985
klar	-9.73988
▁forskjell	-9.74071
▁tonn	-9.74092
▁lot	-9.74135
▁800	-9.74146
▁borg	-9.74149
▁bosatt	-9.74159
▁tog	-9.74166
▁anne	-9.74243
▁utgangspunkt	-9.74251
▁teknisk	-9.74251
▁fyr	-9.74264
▁henhold	-9.74307
▁trafikk	-9.7432
▁stav	-9.74344
72	-9.74381
▁can	-9.74387
▁verket	-9.744
▁kongelige	-9.7441
ish	-9.74422
69	-9.74432
▁sti	-9.74515
87	-9.74519
stro	-9.74563
▁just	-9.74701
▁områdene	-9.74737
▁sykdom	-9.74766
hund	-9.74778
82	-9.74802
57	-9.74827
vitenskap	-9.74852
▁nr	-9.74871
▁win	-9.749
44	-9.74938
støt	-9.74941
▁kjøpe	-9.75006
forhold	-9.75059
▁rekord	-9.75082
▁åpne	-9.75086
▁arv	-9.75131
71	-9.7525
▁polen	-9.75271
▁toppen	-9.75283
fag	-9.75296
▁komponist	-9.75326
▁passasjer	-9.75326
skjold	-9.75327
▁1942	-9.75336
▁1912	-9.75337
▁1958	-9.75344
▁sveits	-9.75354
▁hår	-9.75368
▁kanon	-9.75369
83	-9.75394
▁uke	-9.75425
ild	-9.75584
▁total	-9.75632
møte	-9.75657
liv	-9.75705
▁natt	-9.75746
grep	-9.75749
▁åpning	-9.75838
▁hve	-9.7585
▁bane	-9.75922
våpen	-9.7597
bjørn	-9.75971
legg	-9.76005
▁distriktet	-9.76066
▁bass	-9.76128
lei	-9.76151
▁støttet	-9.76153
91	-9.76173
gata	-9.76179
fin	-9.76188
▁mari	-9.76197
▁spill	-9.7623
unt	-9.76272
eks	-9.76287
gra	-9.7634
▁james	-9.76419
▁punkt	-9.76452
▁kreve	-9.76516
▁utdannelse	-9.76558
▁vold	-9.76562
▁lau	-9.76571
stått	-9.76581
▁bind	-9.76589
grav	-9.76661
▁danse	-9.76713
levende	-9.76717
76	-9.7678
▁hode	-9.76781
▁heter	-9.76782
▁bern	-9.76797
senteret	-9.77012
85	-9.77046
kh	-9.77096
▁nasjonale	-9.77101
lly	-9.77238
▁karakter	-9.77303
ör	-9.77328
▁avtale	-9.7738
▁gjelder	-9.77405
qui	-9.77431
▁modell	-9.77479
▁150	-9.77494
▁typisk	-9.77515
▁lar	-9.77602
▁1700	-9.77687
holm	-9.77721
atet	-9.77734
kin	-9.77745
▁kontor	-9.77823
▁pen	-9.77844
kka	-9.77847
press	-9.77857
77	-9.7788
gard	-9.77957
▁problem	-9.77981
hor	-9.78016
5	-9.78097
▁synes	-9.78187
prosess	-9.78203
klubb	-9.78425
05	-9.78445
ledning	-9.78456
▁kil	-9.78474
kirke	-9.785
▁gitar	-9.78585
68	-9.78594
aktig	-9.78601
▁1908	-9.78623
▁oversikt	-9.78624
▁royal	-9.78625
korps	-9.78627
▁1949	-9.78639
▁sommerfugl	-9.78642
▁larvene	-9.78697
▁solo	-9.78727
▁føde	-9.78798
ringer	-9.78834
samisk	-9.78891
visning	-9.78895
▁stasjonen	-9.78904
▁snakke	-9.78911
▁oppdrag	-9.78915
▁flyplass	-9.78937
tog	-9.78981
▁bry	-9.78983
79	-9.79005
▁dyre	-9.79018
▁spillet	-9.79188
▁sent	-9.79281
gående	-9.79375
▁war	-9.79447
▁base	-9.79461
▁venn	-9.79465
▁bad	-9.79568
▁konkurranse	-9.79578
que	-9.79714
ib	-9.79736
▁league	-9.79747
▁metode	-9.79764
▁1951	-9.79765
▁vær	-9.79768
▁avhengig	-9.79789
▁undersøkelse	-9.79872
▁bedrift	-9.79882
▁sider	-9.79915
▁georg	-9.80004
▁hovedstad	-9.80025
▁rh	-9.80061
▁bø	-9.80095
▁havne	-9.80119
▁internasjonal	-9.8016
▁dømt	-9.80237
▁sur	-9.80436
strøm	-9.80501
▁eg	-9.80507
bank	-9.80562
▁student	-9.8062
▁produsent	-9.80693
49	-9.80863
▁musiker	-9.80867
▁alvorlig	-9.80883
▁objekt	-9.80883
▁1918	-9.80893
▁drama	-9.80898
80	-9.80902
situasjon	-9.80905
▁alltid	-9.80967
wood	-9.80981
▁renner	-9.81062
lus	-9.81094
▁økt	-9.81103
▁stille	-9.81141
ryk	-9.81144
▁problemer	-9.81195
win	-9.8127
kos	-9.81382
▁tru	-9.81426
bry	-9.81443
nett	-9.81478
▁ran	-9.81478
▁utvidet	-9.8153
▁systemet	-9.81576
parten	-9.81608
▁drive	-9.8163
▁romersk	-9.81774
ob	-9.81828
▁tårn	-9.81838
▁est	-9.81877
▁she	-9.81964
▁pin	-9.81979
well	-9.8202
▁akershus	-9.82032
▁berømt	-9.82032
▁melodi	-9.82036
▁oppnådd	-9.82211
▁organisert	-9.82254
▁aust	-9.82263
arbeider	-9.82281
tek	-9.82284
▁bosetning	-9.82289
gna	-9.82304
▁vitenskap	-9.82344
▁strekk	-9.82354
▁beskrevet	-9.82364
▁pra	-9.82367
▁forsknings	-9.82406
▁35	-9.825
▁vid	-9.82577
▁banen	-9.8259
gjort	-9.82682
▁opphold	-9.82689
▁epi	-9.82726
▁heng	-9.82786
mus	-9.82889
▁representert	-9.82961
vig	-9.83022
▁ram	-9.8306
▁mak	-9.83064
▁middel	-9.83067
84	-9.83186
▁california	-9.83195
▁tydelig	-9.83199
▁alpin	-9.83205
▁sølvmedalje	-9.83207
▁metall	-9.83215
▁hustru	-9.83224
▁black	-9.83235
▁innsjøen	-9.8333
way	-9.83351
▁beskytte	-9.83364
▁ban	-9.8338
loven	-9.83406
still	-9.83425
89	-9.83431
▁tidspunkt	-9.83439
▁regjerings	-9.83455
▁stoff	-9.83537
▁nm	-9.83716
▁nes	-9.83751
mund	-9.83809
▁vannet	-9.83854
▁institutt	-9.83877
▁byer	-9.83885
alis	-9.83931
ordenen	-9.84129
▁tunnel	-9.84177
▁gjeste	-9.84196
▁benyttes	-9.8424
▁sportsutøver	-9.84372
▁nærmere	-9.84376
▁1937	-9.84396
▁videregående	-9.844
▁trekke	-9.84404
▁republikken	-9.84429
▁våren	-9.84444
gul	-9.84509
serien	-9.84656
▁hei	-9.84695
▁likhet	-9.84721
▁blo	-9.8477
gy	-9.84784
▁dynastiet	-9.84814
▁buss	-9.8483
spor	-9.84833
▁rå	-9.84861
▁utgave	-9.85035
▁salme	-9.85086
ante	-9.85101
▁rollen	-9.85196
unk	-9.85222
mesterskapet	-9.85234
fon	-9.85287
gården	-9.85388
▁skips	-9.85401
▁auto	-9.85426
▁tekster	-9.85466
▁wil	-9.85496
alderen	-9.85555
▁forekommer	-9.85562
▁spesiell	-9.85563
▁kunnskap	-9.85564
▁1938	-9.85584
▁video	-9.85586
▁middelalderen	-9.85595
▁ky	-9.85614
▁jule	-9.85618
▁bibel	-9.85623
▁py	-9.85687
▁hunnen	-9.857
▁skatte	-9.85701
53	-9.85837
▁lage	-9.85948
▁instrument	-9.86058
▁lund	-9.86065
▁leo	-9.86067
▁mørk	-9.86075
▁syk	-9.86153
▁stammer	-9.86172
▁sønnen	-9.86178
▁bakken	-9.86275
delen	-9.86415
festival	-9.86442
▁bit	-9.86444
▁star	-9.86453
▁sist	-9.86459
99	-9.86563
▁stilt	-9.8657
slutning	-9.86666
arm	-9.86691
▁turneringen	-9.86713
▁installert	-9.86767
▁invasjon	-9.8677
▁lengst	-9.86775
▁skaffe	-9.86777
▁sekund	-9.86778
▁godkjent	-9.86785
medalje	-9.8686
▁cap	-9.86863
▁leir	-9.8688
▁motsetning	-9.86899
▁gjenopp	-9.86908
ette	-9.8698
kommune	-9.87001
▁jakt	-9.87001
ance	-9.87167
hode	-9.87246
▁dø	-9.87341
snitt	-9.87402
stedet	-9.87404
▁filmer	-9.87414
▁mørke	-9.87468
kjempe	-9.8749
▁hor	-9.87527
▁fn	-9.87631
gje	-9.8765
▁omtale	-9.87785
▁design	-9.87789
▁måned	-9.87823
▁samfunns	-9.8787
▁vietnam	-9.87875
▁hell	-9.87876
н	-9.87975
bær	-9.87978
▁1904	-9.87986
▁elektrisk	-9.87986
▁offisielt	-9.87986
▁school	-9.87987
▁oscar	-9.87987
▁tilhørt	-9.87989
▁college	-9.87989
▁flertall	-9.87992
▁levde	-9.87995
▁1954	-9.88003
▁veldig	-9.8804
ova	-9.88045
fest	-9.881
▁turist	-9.88126
▁landbruk	-9.8814
▁tolv	-9.88221
gav	-9.88257
rakt	-9.88305
▁gruve	-9.88328
▁sn	-9.88333
▁junior	-9.88346
dagen	-9.88363
▁flagg	-9.88427
▁vinge	-9.88488
▁inntekt	-9.88507
▁ris	-9.88609
▁lignende	-9.88617
▁idretts	-9.88642
▁populære	-9.88646
54	-9.887
▁makten	-9.88739
▁ungdoms	-9.88755
historie	-9.8877
▁ok	-9.8894
▁havn	-9.88948
▁benytte	-9.89048
følgende	-9.89107
▁sports	-9.89111
▁betegnelsen	-9.89123
vinner	-9.89153
▁inspirert	-9.89221
▁mexico	-9.89221
▁nominert	-9.89221
▁moskva	-9.89221
▁jødisk	-9.89222
▁premier	-9.89225
▁mytologi	-9.89239
▁jens	-9.8925
▁ana	-9.89251
▁anledning	-9.89282
selskapet	-9.893
▁forretnings	-9.89309
spekt	-9.89328
▁kilder	-9.89356
▁sammenlagt	-9.89359
teri	-9.89366
▁bidrag	-9.89444
▁damp	-9.89475
▁timer	-9.89478
jev	-9.89573
▁viking	-9.89638
▁ønsker	-9.89714
45	-9.89728
tun	-9.89764
lli	-9.89771
19	-9.8979
person	-9.8986
dro	-9.89953
▁sykehus	-9.90009
▁provins	-9.901
▁hører	-9.90164
▁helge	-9.90195
▁kg	-9.90267
▁trener	-9.90269
▁forsvaret	-9.90338
qu	-9.904
▁utga	-9.90431
▁studio	-9.90467
▁ødelagt	-9.90472
▁1919	-9.90488
▁2017	-9.90493
▁1955	-9.90494
kilde	-9.90541
hal	-9.90556
▁innsats	-9.90565
▁kari	-9.90593
▁sund	-9.90596
▁kalle	-9.9065
▁vanlige	-9.90666
▁slott	-9.90681
▁kampene	-9.90694
▁malt	-9.90703
▁formål	-9.90816
▁normalt	-9.90879
56	-9.90927
▁bol	-9.90964
▁mary	-9.91055
▁tettsted	-9.91083
▁søke	-9.91107
▁kontrakt	-9.91151
▁uni	-9.91191
▁sul	-9.91195
artist	-9.91345
gin	-9.91433
ani	-9.91454
▁ungdom	-9.91508
▁skyld	-9.91599
▁600	-9.91603
▁innehold	-9.91629
▁bord	-9.91723
▁records	-9.91737
▁world	-9.91737
▁ungarn	-9.91738
▁myndighetene	-9.91743
▁kropps	-9.91744
▁1934	-9.91747
▁snart	-9.91753
▁rykket	-9.91756
▁skotsk	-9.91763
▁jordbruk	-9.91776
▁landsbyen	-9.9189
är	-9.91924
▁strand	-9.9193
ois	-9.92023
▁studenter	-9.92032
▁old	-9.9208
ux	-9.9216
▁rapport	-9.92196
▁zh	-9.92247
▁king	-9.92248
▁listen	-9.92364
▁avstand	-9.92403
enberg	-9.92533
▁dør	-9.92557
post	-9.92611
▁skapte	-9.92677
lund	-9.92729
distrikt	-9.92772
kunst	-9.92803
pel	-9.92898
▁univers	-9.93005
▁tilknytning	-9.93019
▁michael	-9.93019
▁erkebiskop	-9.93019
▁jazz	-9.93019
▁edvard	-9.9302
▁behov	-9.93021
▁stadion	-9.93022
▁medlemmene	-9.93027
▁1929	-9.93032
▁medaljer	-9.93034
▁vendt	-9.93077
renn	-9.93095
▁bryst	-9.93148
▁hellige	-9.93189
▁sete	-9.93201
ernes	-9.93237
▁kvinnelig	-9.93264
▁guvernør	-9.93372
▁forstå	-9.93422
09	-9.93481
▁svak	-9.93554
holdsvis	-9.93576
▁wien	-9.93628
▁klo	-9.93692
▁hull	-9.93694
kov	-9.93722
▁kjønn	-9.93878
halvøya	-9.93997
kontor	-9.94107
▁unn	-9.94112
▁kvart	-9.94123
▁opphav	-9.94206
økonom	-9.94295
▁alternativ	-9.94318
▁erklært	-9.94318
▁generelt	-9.94318
▁hurtig	-9.94318
▁belgia	-9.94318
▁redusert	-9.94318
▁1917	-9.94328
▁spredt	-9.9434
▁fredrik	-9.94341
hol	-9.94341
▁bidro	-9.94347
▁mun	-9.94347
▁hellas	-9.94387
▁mid	-9.94411
▁north	-9.94503
grupper	-9.9453
▁sort	-9.94612
▁ansett	-9.9462
gger	-9.94666
▁nordisk	-9.94754
▁rang	-9.94836
▁endre	-9.94872
73	-9.94909
▁slags	-9.9496
▁avsluttet	-9.94992
▁ph	-9.9505
▁utvikle	-9.95061
▁ansvarlig	-9.95124
rolle	-9.95245
▁kristen	-9.95327
feltet	-9.95348
▁kjøpte	-9.95349
▁utover	-9.95379
▁south	-9.95473
▁tittel	-9.9553
haug	-9.95536
staten	-9.95544
▁tempel	-9.95634
▁således	-9.95634
▁dialekt	-9.95634
▁folketelling	-9.95634
▁nektet	-9.95635
▁bokstav	-9.95635
▁hovedrollen	-9.95635
▁fal	-9.95659
▁tredjeplass	-9.95732
▁aksje	-9.95742
▁1600	-9.95798
▁håp	-9.95913
sser	-9.95936
▁fortsette	-9.9607
nnen	-9.96164
▁poly	-9.96203
▁nød	-9.96294
partiet	-9.96304
gått	-9.96356
▁bonde	-9.96375
▁off	-9.96414
skyting	-9.96444
alitet	-9.96768
▁spanske	-9.9683
▁fc	-9.96884
▁larven	-9.96931
▁1926	-9.96967
▁fullstendig	-9.96967
▁introdusert	-9.96967
▁fremme	-9.96974
▁tidsskrift	-9.96976
▁kjøre	-9.96999
▁blue	-9.96999
▁redd	-9.97025
▁ukjent	-9.97038
hm	-9.97052
▁flekk	-9.97053
▁1500	-9.9707
▁stan	-9.97087
▁deltaker	-9.97089
▁landene	-9.97114
▁unngå	-9.9713
▁morgen	-9.97182
▁beregne	-9.97214
▁jean	-9.97321
▁wh	-9.97378
11	-9.97402
41	-9.97402
▁lede	-9.97528
▁vokser	-9.97581
▁irsk	-9.97614
mø	-9.97639
▁sim	-9.97648
▁arbeide	-9.97675
▁stål	-9.97783
svik	-9.97869
81	-9.97876
▁passer	-9.97895
▁nan	-9.97986
styrt	-9.98072
album	-9.98125
kultur	-9.98152
▁dekket	-9.98168
▁bygde	-9.98178
▁inf	-9.9823
▁overgang	-9.9828
runde	-9.98303
slekt	-9.98309
▁praksis	-9.98318
▁fattig	-9.9832
▁edward	-9.98326
▁1927	-9.98328
▁1914	-9.9833
▁1933	-9.98333
▁1953	-9.98337
▁fullført	-9.98341
▁typer	-9.984
▁avholdt	-9.98423
▁nyere	-9.98452
▁krist	-9.98458
▁prins	-9.98468
▁intern	-9.9852
▁lek	-9.98549
▁bunn	-9.98708
▁maur	-9.98719
sol	-9.98729
▁representerer	-9.98734
handler	-9.98835
▁gangen	-9.98841
▁dukke	-9.98857
▁mulighet	-9.98886
▁spre	-9.98927
stoff	-9.98938
▁minutter	-9.98989
án	-9.98994
foreningen	-9.99094
ommun	-9.99101
▁45	-9.99119
finn	-9.99132
▁sau	-9.99156
chu	-9.9923
ā	-9.99272
wan	-9.99299
▁fan	-9.99331
▁stol	-9.99416
▁sivile	-9.99509
født	-9.99562
▁32	-9.99568
høy	-9.99584
pass	-9.99599
lov	-9.9967
▁etterfulgt	-9.99688
▁lønn	-9.99692
▁bånd	-9.99697
æl	-9.99719
▁bygninger	-9.99741
▁arkitektur	-9.99791
▁riksvei	-9.99908
▁undervisning	-9.99954
▁ankom	-9.9996
▁bryte	-10.0002
▁tang	-10.0004
▁maler	-10.0008
▁utsatt	-10.0008
▁språket	-10.001
▁dokumenter	-10.0011
▁camp	-10.0022
▁politiet	-10.0028
▁haug	-10.0029
▁bilder	-10.0032
last	-10.0041
▁begrep	-10.0053
▁kjenne	-10.0058
▁jente	-10.0058
ric	-10.0059
▁elv	-10.0061
▁tidlige	-10.0078
▁romanen	-10.0085
konkurranse	-10.0094
▁laste	-10.0096
mitt	-10.0103
▁ridder	-10.0108
ingeniør	-10.0109
blant	-10.011
▁signert	-10.011
▁administrasjons	-10.011
▁kjerne	-10.0115
▁rygg	-10.0117
▁nedlagt	-10.0117
skipet	-10.0119
▁landsby	-10.0127
▁spansk	-10.0131
ary	-10.0134
▁tromsø	-10.0141
▁hindre	-10.0141
▁sko	-10.0143
arkiv	-10.0144
▁overført	-10.0147
▁nordover	-10.0151
▁samfunnet	-10.0163
trinn	-10.0167
▁shi	-10.0175
▁innhold	-10.0184
ppel	-10.0187
▁forskere	-10.0191
▁stillingen	-10.0196
gram	-10.0198
▁foregå	-10.02
▁tj	-10.0202
▁motiv	-10.0202
▁ya	-10.0206
▁rep	-10.0209
▁starten	-10.0213
▁kone	-10.0217
arbeidet	-10.0218
stripe	-10.0219
▁bydelen	-10.0225
▁vinteren	-10.0231
aktiv	-10.0234
rute	-10.0243
▁diplomat	-10.0249
▁tilknytte	-10.0249
▁dollar	-10.0249
▁funn	-10.0249
▁magnus	-10.0249
95	-10.0251
▁1905	-10.0251
▁1943	-10.0251
▁kjøl	-10.0255
▁phil	-10.0256
▁albert	-10.0258
rick	-10.026
▁foruten	-10.0269
▁antatt	-10.0269
▁stabil	-10.0272
▁gla	-10.0274
▁lavere	-10.0278
▁kommunikasjon	-10.0278
duk	-10.0283
▁tradisjonelle	-10.0284
▁markert	-10.0285
slått	-10.0299
▁bud	-10.0299
ball	-10.0299
▁indisk	-10.0301
▁behandle	-10.0307
mil	-10.0311
▁ulik	-10.0312
▁kraftverk	-10.0313
fugl	-10.0328
stall	-10.0332
▁penger	-10.0335
▁enda	-10.0342
▁mik	-10.0343
▁bob	-10.0346
▁fartøy	-10.0356
▁æ	-10.0363
trafikk	-10.0371
▁bevege	-10.0373
▁max	-10.0375
▁gil	-10.0378
88	-10.0379
▁vekst	-10.0381
sso	-10.039
▁1906	-10.0391
▁regissert	-10.0391
▁himmel	-10.0391
▁finnmark	-10.0392
▁hemmelig	-10.0393
▁1911	-10.0393
▁myndigheter	-10.0393
▁angripe	-10.0393
▁otto	-10.0395
▁hovedsak	-10.0398
stasjonen	-10.0404
▁flykte	-10.0406
▁tiår	-10.0419
▁sivil	-10.042
▁kjøpt	-10.0425
▁mad	-10.0427
▁insekter	-10.0427
town	-10.0429
▁mill	-10.0432
▁saga	-10.0432
▁dato	-10.0437
▁salg	-10.044
▁utenriks	-10.0446
▁dobbelt	-10.0455
▁normal	-10.0458
▁tour	-10.0481
▁bære	-10.0488
▁tids	-10.0489
▁kreft	-10.05
▁organisasjon	-10.0502
▁myr	-10.0504
▁planet	-10.0515
▁løper	-10.0517
løsning	-10.0519
▁bidra	-10.0521
sem	-10.0521
på	-10.0521
24	-10.0523
voll	-10.0527
▁debut	-10.0528
skudd	-10.0529
prosjekt	-10.0529
▁villa	-10.0535
høgskole	-10.0535
▁beseiret	-10.0536
▁joseph	-10.0536
▁nedbør	-10.0536
▁sistnevnte	-10.0537
gruppa	-10.0537
▁hotell	-10.0538
▁protest	-10.0538
▁erfaring	-10.0539
▁east	-10.0542
▁eksport	-10.0542
▁hydro	-10.0543
▁telemark	-10.0546
▁liberal	-10.0547
▁henry	-10.0563
▁mottatt	-10.0564
iteten	-10.0565
▁resultatet	-10.0567
▁aller	-10.0576
trener	-10.0577
rommet	-10.0578
▁sj	-10.0579
▁sten	-10.0595
▁ferd	-10.0596
riket	-10.0596
▁religion	-10.06
▁single	-10.0603
▁harry	-10.0605
plate	-10.0611
▁forslag	-10.0615
▁lån	-10.0617
▁odd	-10.062
lapp	-10.0624
kirken	-10.0624
▁elever	-10.0626
▁bevegelse	-10.0641
strand	-10.0646
ctor	-10.0663
▁may	-10.0667
folket	-10.067
▁gall	-10.0674
▁fyrst	-10.0675
kjær	-10.0677
finalen	-10.0679
gass	-10.0681
▁1913	-10.0683
▁kommunal	-10.0683
▁kritikk	-10.0683
▁kombinert	-10.0683
▁yngre	-10.0684
▁arbeiderpartiet	-10.0685
▁1957	-10.0686
▁planlagt	-10.0687
▁high	-10.0687
strøk	-10.0687
▁daniel	-10.0689
▁nevnes	-10.0691
øst	-10.0692
▁jevn	-10.0694
dommer	-10.0696
ada	-10.07
▁moren	-10.0703
▁nasjonalpark	-10.071
▁kino	-10.071
▁kongens	-10.0712
oth	-10.0712
97	-10.0715
bakken	-10.0716
▁irak	-10.0718
deler	-10.0719
angrep	-10.0727
▁metal	-10.0731
fylt	-10.0735
▁fro	-10.0743
▁lykke	-10.0744
▁bølge	-10.0745
▁styret	-10.0749
kjent	-10.075
▁teknologi	-10.0754
▁sørge	-10.0762
▁tvil	-10.0764
▁gis	-10.0769
legging	-10.0771
slav	-10.0772
yang	-10.0781
▁prosjektet	-10.0793
▁vinne	-10.0794
▁blomster	-10.0803
▁hamar	-10.0804
▁møter	-10.082
▁finn	-10.0822
▁vern	-10.0827
lad	-10.083
forskning	-10.083
▁doktorgrad	-10.0833
▁involvert	-10.0833
▁wilhelm	-10.0833
▁kjærlighet	-10.0833
▁geografisk	-10.0833
▁jakob	-10.0833
▁tale	-10.0834
▁oppløst	-10.0834
▁1921	-10.0834
▁kam	-10.0834
▁sagt	-10.0837
▁arne	-10.0837
▁markeds	-10.0837
▁award	-10.0841
sending	-10.0841
▁uttalt	-10.0842
▁omfattet	-10.0843
forsyning	-10.0844
bebyggelse	-10.0847
▁æres	-10.0848
▁båten	-10.0852
▁will	-10.0852
▁green	-10.0853
▁ec	-10.0863
▁styrte	-10.0867
▁private	-10.0869
▁utvalg	-10.0877
▁registrert	-10.0878
trukket	-10.0879
▁formen	-10.088
▁peder	-10.088
▁frihet	-10.0883
▁atom	-10.0886
▁angrepet	-10.0888
▁begynne	-10.089
▁fantes	-10.0902
▁run	-10.0903
▁34	-10.0913
▁nø	-10.0918
gaard	-10.0925
33	-10.0927
▁nederlandske	-10.0936
jord	-10.0953
▁levert	-10.0956
93	-10.096
15	-10.0968
▁økte	-10.0968
bånd	-10.0983
▁hendelser	-10.0985
▁antenne	-10.0985
▁sar	-10.0986
▁anklage	-10.0986
▁henholdsvis	-10.0986
▁gullmedalje	-10.0987
hall	-10.0988
ence	-10.099
typen	-10.0991
▁arrestert	-10.0994
▁jag	-10.0996
▁agder	-10.0998
dahl	-10.1001
leir	-10.1015
distanse	-10.1019
ical	-10.102
▁forbundet	-10.1021
▁selge	-10.1023
▁hind	-10.1025
▁statue	-10.1028
kjøp	-10.1028
fjell	-10.103
▁klassen	-10.1031
▁42	-10.1041
øyene	-10.1046
▁driver	-10.1048
▁skapt	-10.1051
▁menighet	-10.1054
▁sum	-10.1056
mmy	-10.1061
▁populært	-10.1067
▁erobret	-10.1073
35	-10.1075
kur	-10.1082
▁kap	-10.1082
▁dor	-10.1105
▁kapp	-10.1108
cus	-10.1113
sfjorden	-10.113
▁østerriksk	-10.1138
▁fødsel	-10.1138
▁hensikt	-10.1138
▁arrangere	-10.1138
▁major	-10.1138
▁län	-10.1138
program	-10.1138
▁tryg	-10.114
▁litterær	-10.114
hånd	-10.114
▁1925	-10.1141
▁1000	-10.1143
▁varierer	-10.1145
▁landskapet	-10.1149
▁tørr	-10.1155
eksamen	-10.1156
▁gjeld	-10.1157
fik	-10.1158
▁lyn	-10.1164
▁tyskerne	-10.1174
▁stemmer	-10.118
▁up	-10.1184
▁keiseren	-10.1203
▁nordland	-10.1205
jan	-10.1205
▁edderkopp	-10.1211
▁verker	-10.1215
▁bredt	-10.1216
kommende	-10.1217
handel	-10.1231
▁truet	-10.1231
ky	-10.1234
somme	-10.1234
▁marie	-10.1252
lista	-10.1254
▁celle	-10.127
▁rein	-10.1279
linjer	-10.1281
mba	-10.1284
48	-10.1288
parken	-10.129
myndighet	-10.1291
▁argument	-10.1294
mønster	-10.1294
▁rogaland	-10.1294
▁gustav	-10.1294
▁praktisk	-10.1294
▁fysisk	-10.1295
▁fjerne	-10.1299
tjenesten	-10.1299
front	-10.13
havn	-10.1301
▁kull	-10.1302
▁rulle	-10.1303
▁primær	-10.1305
vannet	-10.1314
▁fritt	-10.1322
▁inkluderer	-10.1323
▁pensjon	-10.1328
bevegelsen	-10.1335
områdene	-10.1342
▁luc	-10.1347
▁arve	-10.1362
▁horn	-10.1365
▁hud	-10.1382
ign	-10.1392
▁scene	-10.1402
86	-10.1406
▁troll	-10.1408
øvelse	-10.1417
masse	-10.142
shi	-10.142
96	-10.1425
78	-10.1426
▁dog	-10.1426
92	-10.1432
▁tapt	-10.1437
▁modellen	-10.1442
sport	-10.1448
▁eventyr	-10.1453
▁individuell	-10.1453
▁faktisk	-10.1453
▁reserve	-10.1454
▁unntatt	-10.1454
▁beholdt	-10.1454
▁smith	-10.1454
vatnet	-10.1454
dyktig	-10.1454
▁håndball	-10.1454
komité	-10.1454
▁demokrat	-10.1456
utvikling	-10.1458
▁kvalitet	-10.1459
tittel	-10.1462
maskin	-10.1463
▁sikkerhets	-10.1464
kampen	-10.1466
▁mikro	-10.1477
▁kommuner	-10.1479
▁samarbeidet	-10.1482
▁underlagt	-10.1496
▁halvdel	-10.1505
▁skifte	-10.1507
▁advokat	-10.1509
▁episode	-10.1516
▁versjonen	-10.1516
▁stå	-10.1517
▁tilhøre	-10.1518
kolleg	-10.1519
▁religiøse	-10.152
▁fløy	-10.1521
▁nasjon	-10.153
▁ara	-10.1531
klubben	-10.1534
▁nederlandsk	-10.1539
▁drap	-10.1543
▁bydel	-10.1545
▁svar	-10.1554
▁johann	-10.1562
▁press	-10.1571
▁sun	-10.1571
vind	-10.1575
ico	-10.1589
▁musikken	-10.159
74	-10.1597
▁dam	-10.1597
▁eiendom	-10.1607
sikkerhet	-10.1608
▁spiss	-10.1608
▁initiativ	-10.1614
▁kristiansand	-10.1614
konferanse	-10.1614
▁cou	-10.1614
▁utgivelsen	-10.1615
gjøre	-10.1619
▁gli	-10.1621
▁ordre	-10.1624
virksomhet	-10.1624
forfatter	-10.1624
samfunn	-10.1626
▁effektiv	-10.163
▁1890	-10.1632
hild	-10.1637
kveld	-10.1639
▁sikker	-10.164
ön	-10.1643
ledet	-10.1646
▁hval	-10.1648
fang	-10.1652
byrå	-10.1652
dannelse	-10.1659
▁utbygging	-10.1661
▁anton	-10.1665
▁venner	-10.1665
▁uttale	-10.1667
▁kaptein	-10.1669
▁parlamentet	-10.1669
▁nedre	-10.167
slaget	-10.168
▁ref	-10.1682
▁long	-10.1684
▁bibliotek	-10.1684
▁bla	-10.1687
▁butikk	-10.1693
▁ulykke	-10.1693
12	-10.1694
▁orkester	-10.1695
▁grov	-10.1695
▁maleri	-10.1697
▁bay	-10.1707
▁handler	-10.1709
▁roll	-10.1713
▁ger	-10.1714
▁handel	-10.1715
marked	-10.1717
▁mesterskap	-10.172
▁real	-10.1723
▁sho	-10.1724
▁mesterskapet	-10.1732
▁fjellene	-10.1733
oli	-10.1734
herre	-10.1739
▁uttrykket	-10.1741
industrien	-10.1742
▁syke	-10.1754
▁kalk	-10.1756
▁dyrke	-10.1765
▁helst	-10.177
▁alkohol	-10.1778
▁antwerpen	-10.1778
▁fjernsyn	-10.1778
▁katedral	-10.1778
▁penge	-10.1779
▁studioalbum	-10.1779
▁krevd	-10.1779
▁islam	-10.1779
▁1915	-10.178
strekning	-10.178
▁1910	-10.1781
▁internett	-10.1781
mond	-10.1783
▁verdensmester	-10.1783
▁sovjet	-10.1786
medlem	-10.1788
▁1896	-10.179
forbindelse	-10.1791
vekst	-10.1794
▁spise	-10.1794
▁utstilling	-10.1795
▁char	-10.1805
▁sørover	-10.1815
▁mynt	-10.1815
▁overflate	-10.1816
foss	-10.1818
94	-10.1825
▁mobil	-10.1826
▁unna	-10.1826
98	-10.1827
▁artikkel	-10.1827
▁33	-10.1828
vakt	-10.1834
▁fylket	-10.1835
▁grunnla	-10.1844
drevet	-10.1848
▁elve	-10.1852
36	-10.1859
▁slett	-10.1859
▁verdenscupen	-10.1861
yll	-10.1867
▁und	-10.187
▁anlegg	-10.1876
▁representant	-10.1888
ische	-10.1896
ative	-10.1908
▁forholdet	-10.1917
32	-10.192
▁120	-10.1927
▁oppnå	-10.193
ney	-10.1931
▁tradisjonel	-10.1936
▁karrieren	-10.1941
▁portugal	-10.1945
▁stafett	-10.1945
▁anerkjent	-10.1945
▁terror	-10.1945
▁riktig	-10.1945
▁1923	-10.1946
▁1916	-10.1946
29	-10.1953
▁show	-10.1955
mur	-10.1956
▁storm	-10.1956
kapasitet	-10.1959
▁gold	-10.1963
▁overfor	-10.1965
▁innsjø	-10.1966
avdeling	-10.1967
21	-10.1968
▁opptatt	-10.1977
tred	-10.1978
▁stig	-10.1979
serie	-10.199
dam	-10.1993
kraftverk	-10.1994
▁brand	-10.1995
▁planter	-10.2001
▁linjen	-10.2002
▁inge	-10.2006
▁perioder	-10.2019
▁museet	-10.2043
▁avtalen	-10.2043
endring	-10.2049
▁hannen	-10.205
analyse	-10.2057
▁fortsetter	-10.2063
▁løsning	-10.2068
hallen	-10.2074
forestilling	-10.2076
▁song	-10.2083
▁medisin	-10.2086
▁proto	-10.2086
▁ey	-10.2087
▁ekspedisjon	-10.2089
▁individ	-10.2114
▁1901	-10.2114
▁administrativ	-10.2114
traktaten	-10.2114
▁vilhelm	-10.2114
▁terreng	-10.2114
▁hå	-10.2115
svarer	-10.2115
▁grunnlegger	-10.2115
▁utøve	-10.2115
▁filip	-10.2115
▁manager	-10.2116
▁mangler	-10.2116
▁rund	-10.212
▁frykt	-10.212
▁tegneserie	-10.2124
▁meldt	-10.2125
▁glass	-10.2129
▁ost	-10.2133
▁forvingen	-10.2135
linje	-10.2137
▁team	-10.2137
▁brenn	-10.214
▁mol	-10.2147
▁hardt	-10.2158
▁idrettslag	-10.2166
▁36	-10.2167
▁internasjonalt	-10.2179
▁avgjøre	-10.2195
▁streng	-10.2205
▁struktur	-10.2207
▁music	-10.2216
▁kloster	-10.2221
▁evne	-10.2223
▁urban	-10.2231
▁log	-10.2232
livet	-10.2233
virke	-10.2235
▁dj	-10.2235
▁cre	-10.2248
▁fry	-10.225
▁tha	-10.225
22	-10.2251
▁bevegelsen	-10.2252
reise	-10.2257
redning	-10.2261
▁måten	-10.2276
ania	-10.2286
▁helsingfors	-10.2287
▁kvalifisert	-10.2287
▁okkupert	-10.2287
▁ludvig	-10.2287
▁oppmerksomhet	-10.2287
▁ødelegge	-10.2287
▁kategori	-10.2287
▁sprint	-10.2287
kompleks	-10.2287
▁1935	-10.2289
▁britene	-10.2289
▁studere	-10.229
konvensjon	-10.2292
▁formula	-10.2292
▁bekrefte	-10.2292
▁lokalisert	-10.2293
▁tilhenger	-10.2294
bø	-10.2304
▁tråd	-10.2306
fyr	-10.2323
▁synge	-10.2333
vold	-10.2334
ping	-10.2335
makten	-10.2338
▁alf	-10.2343
▁andreas	-10.2345
tyder	-10.2348
jö	-10.2354
▁regional	-10.2362
▁sunn	-10.2366
▁kandidat	-10.2367
komiteen	-10.237
▁utføre	-10.238
fjellet	-10.2386
▁institusjon	-10.239
16	-10.2393
▁samfunn	-10.24
▁sær	-10.2422
ittisk	-10.2426
▁omkom	-10.2443
▁paven	-10.2448
▁santa	-10.2453
▁700	-10.2457
▁vokal	-10.2458
▁hill	-10.246
▁synlig	-10.246
▁vulkan	-10.2462
▁nedenfor	-10.2463
▁saint	-10.2465
▁hensyn	-10.2467
firma	-10.2468
innspilling	-10.2482
▁følelse	-10.2486
▁prim	-10.2496
▁søkt	-10.2502
▁tilpasse	-10.2514
▁elver	-10.2515
▁foss	-10.2522
sammen	-10.2528
▁sammenligne	-10.2531
▁ekspedisjonen	-10.2548
▁forklare	-10.2558
tekst	-10.2564
▁dokument	-10.2579
▁sw	-10.2581
kanten	-10.2587
▁gy	-10.2589
ington	-10.2597
▁blomst	-10.2601
▁brøt	-10.261
▁anna	-10.2611
▁priser	-10.2611
▁representanter	-10.2614
▁fon	-10.2625
ledd	-10.2628
iansk	-10.2629
otball	-10.2636
▁barna	-10.2637
в	-10.2639
▁eksempler	-10.2641
▁nøyaktig	-10.2641
▁positiv	-10.2641
▁alexander	-10.2641
▁county	-10.2641
▁ekstrem	-10.2641
▁semifinale	-10.2641
▁innlemme	-10.2641
veg	-10.2643
▁foreslått	-10.2644
faktor	-10.2644
▁hjul	-10.2645
▁operativ	-10.2645
▁øvelsen	-10.2645
bukta	-10.2646
▁hersker	-10.2652
▁landslaget	-10.2653
▁lam	-10.2655
▁gjenstand	-10.2656
▁legger	-10.2667
▁brem	-10.2669
bøker	-10.2673
▁foreningen	-10.2699
42	-10.2704
læring	-10.2706
▁grunnlov	-10.2718
rup	-10.2731
▁elektron	-10.2739
▁cand	-10.2742
▁typen	-10.2746
▁religiøs	-10.2747
▁flest	-10.2754
▁kode	-10.2797
▁stam	-10.2799
▁hed	-10.281
▁bygda	-10.2816
▁amsterdam	-10.2823
▁barcelona	-10.2823
▁konservativ	-10.2823
▁etablere	-10.2823
▁forårsake	-10.2823
▁forvaltning	-10.2823
▁opptrådt	-10.2823
▁begrenset	-10.2823
▁brødrene	-10.2823
▁luther	-10.2823
▁romsdal	-10.2824
▁philip	-10.2824
▁byprefektur	-10.2824
▁jackson	-10.2826
rettigheter	-10.2829
▁tverr	-10.2835
▁metro	-10.2835
▁petter	-10.2836
tunnel	-10.2838
ith	-10.2839
▁tilbud	-10.2839
▁grønland	-10.284
▁befinne	-10.2843
▁ekstra	-10.2848
eppe	-10.285
▁dommer	-10.2851
produsent	-10.2853
▁europe	-10.2853
befolkning	-10.2854
▁prinsipp	-10.2854
▁muligheten	-10.2858
▁betegnelse	-10.2858
▁bio	-10.286
nummer	-10.2861
▁simon	-10.2861
▁bein	-10.2863
galleri	-10.2873
18	-10.2875
▁vedtatt	-10.2877
▁bredde	-10.2878
▁gard	-10.2893
▁natten	-10.2893
▁musikalsk	-10.2907
pho	-10.2914
tårn	-10.2928
▁måter	-10.2938
28	-10.2944
styrken	-10.2947
spir	-10.2948
arten	-10.2959
▁forlate	-10.2962
fond	-10.2968
▁kok	-10.2975
▁avvist	-10.2979
▁bærer	-10.2984
▁kommunistisk	-10.2989
▁kommunist	-10.2994
▁rand	-10.3
administrasjon	-10.3004
▁motta	-10.3004
atisk	-10.3005
▁münchen	-10.3008
▁pakistan	-10.3008
▁skjønt	-10.3008
▁vesentlig	-10.3008
▁digital	-10.3008
▁radikal	-10.3008
▁kombinasjon	-10.3008
▁drammen	-10.3008
▁presentert	-10.3008
▁papir	-10.3008
▁definert	-10.3008
▁blanding	-10.3009
▁generasjon	-10.3009
▁etterfølger	-10.301
▁manchester	-10.3014
bestemmelse	-10.3015
▁forkorte	-10.3017
▁beskyttelse	-10.3017
▁vg	-10.3018
▁prix	-10.3019
lé	-10.3024
▁anse	-10.3039
direktør	-10.3042
museum	-10.3042
▁romerne	-10.3047
stjerne	-10.3055
▁hage	-10.3064
▁bøkene	-10.3071
▁human	-10.309
▁betale	-10.3091
▁cal	-10.3097
ulf	-10.3098
prisen	-10.3098
▁bakke	-10.3107
▁munk	-10.3107
▁beskrivelse	-10.3108
▁emi	-10.312
▁elementer	-10.3127
skade	-10.3138
14	-10.3146
ridge	-10.3155
▁sja	-10.3178
▁napoleon	-10.3196
friidrettsutøver	-10.3196
▁innbyggertall	-10.3196
▁milliarder	-10.3196
▁eventuel	-10.3196
▁avdøde	-10.3196
▁arthur	-10.3197
▁mektig	-10.3197
▁svømme	-10.3197
▁bilen	-10.3197
▁beordre	-10.3197
▁osmansk	-10.3197
▁håkon	-10.3198
▁boka	-10.3199
▁halvparten	-10.3199
▁menneskelig	-10.32
▁kristiania	-10.3202
▁andel	-10.3207
▁elite	-10.3207
▁armé	-10.321
▁kommunestyre	-10.3211
▁uavhengighet	-10.3214
▁magnet	-10.3219
bygget	-10.3224
▁wall	-10.3228
▁nordmenn	-10.3232
▁wales	-10.3238
høyde	-10.3239
▁rester	-10.3251
▁fotograf	-10.3253
▁manus	-10.3275
politisk	-10.3284
familie	-10.3296
▁spar	-10.3314
▁gress	-10.332
▁motstander	-10.333
gua	-10.333
▁modern	-10.333
botn	-10.3334
▁gaten	-10.3349
▁krim	-10.3358
▁esp	-10.3368
melding	-10.3378
▁middelalder	-10.3384
▁hul	-10.3386
▁fjernet	-10.3387
▁organisasjoner	-10.3387
▁afghanistan	-10.3389
▁aleksander	-10.3389
▁konkurrert	-10.3389
▁1931	-10.3389
▁american	-10.3389
▁artikler	-10.3389
▁utbredelse	-10.3389
▁club	-10.3389
▁rektor	-10.3389
▁jørgen	-10.3389
▁debatt	-10.339
▁nasjoner	-10.339
▁1922	-10.3391
▁generell	-10.3391
▁endringer	-10.3392
▁manuskript	-10.3392
gjøring	-10.3393
▁langrenn	-10.3394
▁hitler	-10.3404
▁fasci	-10.3407
▁molde	-10.3409
blokk	-10.341
▁lord	-10.3417
ique	-10.342
kurat	-10.3427
turneringen	-10.343
▁besøkte	-10.3458
punktet	-10.3492
onia	-10.3496
▁trær	-10.3506
▁rør	-10.352
▁bell	-10.3523
ough	-10.3526
strømmen	-10.3535
▁utvikler	-10.356
▁jacob	-10.3575
▁institut	-10.358
▁chicago	-10.3585
▁eksperiment	-10.3585
▁regissør	-10.3585
▁rådgiver	-10.3585
▁lagkonkurransen	-10.3585
▁henrettet	-10.3585
▁opplysning	-10.3585
▁soldatene	-10.3585
▁markedet	-10.3586
▁dominerende	-10.359
▁hendelsen	-10.359
uv	-10.359
▁turbin	-10.359
▁byggingen	-10.3595
▁ibsen	-10.3597
▁reaksjon	-10.3603
▁olsen	-10.3603
▁skudd	-10.3604
versjon	-10.3609
▁vakt	-10.3618
▁lake	-10.3626
awa	-10.3626
rekord	-10.3631
low	-10.3639
▁million	-10.3648
▁konstruksjon	-10.3652
basert	-10.3654
▁vitne	-10.3654
▁kritiker	-10.3655
▁tromme	-10.3682
▁scenen	-10.3682
▁brede	-10.3683
▁kraftverket	-10.3685
▁skan	-10.3686
▁vente	-10.3689
▁arkeologisk	-10.3708
▁utgaven	-10.3721
▁størst	-10.373
skiftet	-10.3734
▁rammet	-10.3736
kamerat	-10.3738
▁hekk	-10.3753
17	-10.3755
▁bou	-10.3759
▁kapasitet	-10.3768
▁170	-10.3778
▁1200	-10.3782
▁akseptert	-10.3785
▁konkurrere	-10.3785
▁portugisisk	-10.3785
▁etterkommer	-10.3785
▁redusere	-10.3785
▁josef	-10.3785
▁cirka	-10.3785
▁kongedømmet	-10.3788
▁tjue	-10.3789
▁hvile	-10.379
▁sverd	-10.379
▁forbudt	-10.3791
▁allmenn	-10.3794
▁fortellingen	-10.3796
spenn	-10.38
▁utgi	-10.3801
▁with	-10.3805
▁hamburg	-10.3809
▁statlig	-10.381
▁arrangement	-10.3818
▁østover	-10.3821
▁stamme	-10.3823
▁deltatt	-10.3823
miljø	-10.3837
▁roger	-10.3838
chel	-10.3838
▁domin	-10.3842
▁frukt	-10.3842
domstol	-10.3849
▁brø	-10.3855
▁høst	-10.3864
ulert	-10.3865
▁klosteret	-10.3866
▁vekk	-10.3872
forsamlingen	-10.3872
▁elektronisk	-10.3877
▁syr	-10.3891
▁term	-10.3893
▁vokse	-10.3904
▁episoden	-10.3909
▁etnisk	-10.3916
▁parlament	-10.392
økende	-10.392
▁satse	-10.3924
▁mala	-10.3934
▁øverst	-10.3937
▁trening	-10.3937
▁troms	-10.3949
▁drei	-10.3956
▁okkupasjon	-10.3966
▁republikk	-10.3976
alisme	-10.3987
▁1902	-10.3989
▁asteroide	-10.3989
▁engasjert	-10.3989
▁friedrich	-10.3989
▁ektemann	-10.3989
▁negativ	-10.3989
▁adolf	-10.3989
▁uvanlig	-10.3989
▁utseende	-10.3989
▁allianse	-10.3989
stipend	-10.399
▁stengt	-10.399
▁referere	-10.3991
▁psyko	-10.3991
▁moderat	-10.3992
vandring	-10.3992
▁opplevd	-10.3992
▁dvs	-10.3994
▁vokalist	-10.3998
▁1898	-10.4003
▁cuba	-10.4003
▁1893	-10.4004
▁fremført	-10.4006
▁kara	-10.4018
kreft	-10.4038
▁buk	-10.404
▁dramatisk	-10.4047
mming	-10.4057
▁hevder	-10.4057
▁fungerer	-10.4064
▁gui	-10.4069
fartøy	-10.4071
▁intel	-10.4073
▁oppfatte	-10.4076
▁yu	-10.4083
▁bakkroppen	-10.4084
feld	-10.4087
ordnet	-10.4088
hard	-10.4091
▁disk	-10.4096
▁teknikk	-10.4101
▁frakte	-10.4105
▁fase	-10.4127
▁lukke	-10.413
forsker	-10.4131
▁toll	-10.4133
▁handle	-10.4138
▁preg	-10.4139
▁planen	-10.4148
▁katolsk	-10.415
▁gjennomsnitt	-10.4155
▁intens	-10.4156
▁tau	-10.4158
▁160	-10.4166
▁intervju	-10.4197
▁skulptur	-10.4197
▁tyrkia	-10.4197
▁returnert	-10.4197
▁konstruert	-10.4197
▁kommersiell	-10.4197
▁selvmord	-10.4197
▁forbedre	-10.4198
▁ombord	-10.4198
▁trengte	-10.4198
▁arendal	-10.4198
▁sjette	-10.4198
▁hedmark	-10.4198
▁firmaet	-10.4199
▁afrikansk	-10.4199
▁lufthavn	-10.4199
▁imperi	-10.4202
▁hjerne	-10.4203
fred	-10.4205
asia	-10.4207
▁anlagt	-10.4213
▁spenning	-10.4213
▁latinske	-10.4215
▁beslutning	-10.4216
▁gitarist	-10.4217
▁white	-10.4222
▁kammer	-10.4224
▁statsråd	-10.4231
▁verv	-10.424
▁gradvis	-10.4242
▁frø	-10.425
falt	-10.4259
▁kjemi	-10.4263
pul	-10.4265
mengde	-10.4269
▁48	-10.4275
▁eik	-10.428
motor	-10.4284
▁polar	-10.4285
▁kåret	-10.4289
▁strak	-10.4312
▁ramme	-10.4333
▁medisinsk	-10.4334
▁tenke	-10.4335
sundet	-10.4338
dikt	-10.4338
bakk	-10.4354
▁cra	-10.4354
▁mening	-10.4375
▁from	-10.4382
▁borgerkrigen	-10.4385
tallet	-10.4387
▁geo	-10.4389
fortelling	-10.4401
skutt	-10.4402
▁bispe	-10.4407
▁forhindre	-10.441
▁lillehammer	-10.441
▁referanse	-10.441
▁sigurd	-10.441
▁uansett	-10.441
▁sjeldne	-10.441
▁frivillig	-10.441
▁palestin	-10.441
▁antarktis	-10.441
▁inngår	-10.441
▁skjøt	-10.441
stitu	-10.4411
▁overraske	-10.4411
▁parallel	-10.4412
▁verdensrekord	-10.4412
▁group	-10.4412
▁tropisk	-10.4412
▁brown	-10.4413
▁trenger	-10.4413
▁900	-10.4416
▁åpenbar	-10.4416
▁tvunge	-10.4417
▁holdning	-10.4417
▁programmer	-10.4419
▁fastlandet	-10.4421
▁1897	-10.4427
▁mannlig	-10.4427
▁1899	-10.443
roman	-10.4432
▁variasjon	-10.4432
ward	-10.4435
▁demningen	-10.4439
▁skyte	-10.4443
soldat	-10.4443
▁smak	-10.4451
bunn	-10.4455
▁oversettelse	-10.4456
jul	-10.446
▁adresse	-10.4463
▁koll	-10.4468
produkt	-10.4473
materiale	-10.4473
▁klippe	-10.4486
▁kapell	-10.4488
▁adam	-10.4491
▁antikken	-10.45
▁forent	-10.4507
isse	-10.4511
23	-10.4522
▁tidvis	-10.4529
▁ytterst	-10.4529
fjellene	-10.4531
▁designet	-10.4533
▁neu	-10.4573
▁thi	-10.4591
▁innvie	-10.4593
▁gjennomgå	-10.4598
▁registr	-10.4605
▁skuespill	-10.4615
▁tradisjonell	-10.4617
▁eksemplarer	-10.4627
▁innendørs	-10.4627
▁skøyter	-10.4627
▁utelukkende	-10.4627
▁service	-10.4627
frekvens	-10.4627
▁tyrkisk	-10.4628
▁hjal	-10.4628
▁bodø	-10.4628
▁landslags	-10.4628
▁oberst	-10.4628
▁multi	-10.4628
▁skytter	-10.4628
▁prinsesse	-10.4628
▁etappe	-10.463
▁røyk	-10.463
▁jurist	-10.463
▁møre	-10.463
▁overlevd	-10.4631
▁monark	-10.4632
▁alfred	-10.4633
fold	-10.4638
▁tronen	-10.4639
▁hylle	-10.464
▁1895	-10.4645
▁nederlag	-10.4647
34	-10.4647
▁oval	-10.4649
veggen	-10.4656
▁arena	-10.4659
▁kjell	-10.4661
▁musik	-10.4672
▁oppsto	-10.4677
▁emil	-10.4689
problem	-10.4695
▁bull	-10.4698
▁stemmene	-10.4702
▁element	-10.4709
▁home	-10.4736
▁vingene	-10.4748
▁histori	-10.475
klasse	-10.4754
sats	-10.4755
▁beina	-10.476
grensen	-10.4762
gud	-10.4762
▁tykk	-10.4763
▁vogn	-10.4778
▁damer	-10.483
▁demokratisk	-10.4845
▁kristian	-10.4846
▁washington	-10.485
▁infanteri	-10.485
▁oppretthold	-10.485
▁utnytte	-10.485
▁utmerkelse	-10.485
▁skarp	-10.4852
▁1909	-10.4853
▁1100	-10.4853
▁ulv	-10.4854
▁kår	-10.4855
▁lidelse	-10.4856
▁fabrikken	-10.486
▁gudinne	-10.4872
▁walter	-10.4878
▁torg	-10.4884
møll	-10.4892
▁stang	-10.4897
27	-10.4904
bredd	-10.4908
▁liber	-10.4919
karriere	-10.4923
havs	-10.4943
▁ytter	-10.4954
▁sving	-10.4966
vika	-10.4974
bød	-10.4984
styrker	-10.4992
▁niels	-10.4994
verdi	-10.5014
▁kjemisk	-10.502
vall	-10.5054
▁sveitsisk	-10.5071
▁ambassadør	-10.5077
▁argentina	-10.5077
▁ressurs	-10.5077
▁territorie	-10.5077
▁alfabet	-10.5077
▁assistent	-10.5077
▁astronom	-10.5077
▁færøyene	-10.5077
▁jesuitt	-10.5077
▁konsept	-10.5077
▁science	-10.5077
▁offensiv	-10.5077
▁kommando	-10.5077
▁avviklet	-10.5077
▁autonom	-10.5077
▁oppfatning	-10.5077
skij	-10.5077
▁golf	-10.5077
▁egenskaper	-10.5077
▁opptreden	-10.5077
▁beskjed	-10.5078
ов	-10.5078
bury	-10.5078
▁einar	-10.5078
▁definere	-10.5079
▁klokken	-10.5081
syre	-10.5081
▁medaljen	-10.5086
▁whi	-10.5087
▁respekt	-10.5089
▁1878	-10.5093
▁clar	-10.5094
▁gjennombrudd	-10.5094
▁skjær	-10.5098
▁opplæring	-10.5099
▁1880	-10.51
▁jack	-10.5109
▁persisk	-10.5111
▁skyldes	-10.5111
▁qi	-10.5135
pinner	-10.5156
kjønn	-10.5156
effekt	-10.5157
polis	-10.5157
▁fotballklubb	-10.5157
kongedømme	-10.5165
▁vende	-10.518
▁play	-10.5191
lærer	-10.5195
alisert	-10.521
kasse	-10.5222
▁hagen	-10.5223
▁tell	-10.5227
▁steve	-10.5228
▁stammen	-10.5228
▁fortelle	-10.5235
▁plateselskap	-10.5237
▁euro	-10.5239
▁stab	-10.5239
prest	-10.5239
▁detalj	-10.5243
▁gjennomføre	-10.5275
▁hil	-10.5277
▁fremmed	-10.5284
▁sosialistisk	-10.5284
▁turnering	-10.5286
klassen	-10.5297
▁ønske	-10.5302
▁forsker	-10.5306
▁fakultet	-10.5309
▁vurdert	-10.5309
▁innbyggerne	-10.5309
▁kavaleri	-10.5309
▁reklame	-10.531
▁risiko	-10.531
▁forsvant	-10.531
▁fjær	-10.531
▁datamaskin	-10.531
▁novell	-10.5311
▁stemt	-10.5311
▁sjanger	-10.5312
▁ligner	-10.5312
▁opptrer	-10.5313
relatert	-10.5316
▁mord	-10.5318
▁avansert	-10.5324
tagelse	-10.5332
▁tvang	-10.5343
▁næringsliv	-10.5352
▁vestover	-10.5353
▁konsul	-10.5361
▁chang	-10.5362
▁river	-10.5365
▁grøn	-10.5365
▁kamera	-10.5367
▁meta	-10.5378
wald	-10.5384
historisk	-10.5393
utvikle	-10.5394
sønn	-10.5397
▁arkeolog	-10.5402
▁løfte	-10.5408
▁baron	-10.5421
▁web	-10.5429
▁dominere	-10.5449
▁markere	-10.5457
industri	-10.5503
krig	-10.551
kanalen	-10.5516
▁dverg	-10.554
observasjon	-10.5548
▁angelsaksisk	-10.5548
▁beslutte	-10.5548
▁christopher	-10.5548
▁hovedkvarter	-10.5548
▁liverpool	-10.5548
▁shanghai	-10.5548
▁spesifik	-10.5548
▁vedlikehold	-10.5548
▁hordaland	-10.5548
▁separat	-10.5548
▁thailand	-10.5548
▁midtøsten	-10.5548
orientert	-10.5548
▁prince	-10.5548
▁sicilia	-10.5548
▁hjørne	-10.5548
▁sandefjord	-10.5548
▁tillatelse	-10.5548
▁bbc	-10.5549
▁telefon	-10.5549
▁leilighet	-10.555
▁vannkraftverk	-10.5551
▁slaver	-10.5554
▁biografi	-10.5554
egnet	-10.5559
teori	-10.5559
▁artister	-10.5564
▁innlede	-10.5573
▁250	-10.5574
register	-10.5596
▁brakt	-10.56
regiment	-10.5619
▁pga	-10.5628
▁variert	-10.564
wiki	-10.5644
måte	-10.565
hjem	-10.5654
▁plei	-10.5654
▁ligge	-10.5656
▁teologi	-10.5676
▁såkalt	-10.5782
▁snu	-10.5785
▁bulgaria	-10.5791
▁integrert	-10.5791
▁juridisk	-10.5791
▁symfoni	-10.5791
▁australsk	-10.5791
▁company	-10.5791
▁eksisterende	-10.5791
▁yngste	-10.5792
seremoni	-10.5792
▁amatør	-10.5792
▁alexandr	-10.5792
teatret	-10.5792
▁stridsvogn	-10.5792
▁dvd	-10.5792
▁oblast	-10.5793
▁enhver	-10.5794
▁operatør	-10.5796
▁1300	-10.581
▁oppstod	-10.5815
▁life	-10.5816
oksid	-10.5821
▁queen	-10.5835
▁vennskap	-10.5835
▁eksil	-10.5851
start	-10.5859
▁blande	-10.5859
utstillingen	-10.5861
▁vanligste	-10.5861
brødre	-10.5862
▁utøvere	-10.5868
▁och	-10.588
modell	-10.5888
gjennom	-10.5896
konsert	-10.5901
▁angel	-10.5903
▁låten	-10.5907
▁brutt	-10.5907
talende	-10.5912
kongen	-10.5917
studie	-10.5928
▁osv	-10.5929
▁brag	-10.5943
▁ideologi	-10.5964
▁fau	-10.5968
▁blind	-10.5979
dow	-10.5982
▁kulturell	-10.6021
▁sideelv	-10.6031
▁1907	-10.6041
▁administrere	-10.6041
▁elizabeth	-10.6041
▁jerusalem	-10.6041
▁middelsstor	-10.6041
▁omdøpt	-10.6041
▁ortodoks	-10.6041
▁1903	-10.6041
▁lørdag	-10.6041
▁zealand	-10.6041
▁evangeli	-10.6041
▁tabellen	-10.6041
veksling	-10.6042
▁ovenfor	-10.6042
▁diverse	-10.6042
▁preussen	-10.6042
▁kritisert	-10.6042
▁statsborger	-10.6042
▁diameter	-10.6042
▁egyptisk	-10.6042
▁utforming	-10.6042
▁medvirket	-10.6043
givende	-10.6044
wick	-10.6044
▁øynene	-10.6045
▁oldtiden	-10.6045
▁kritisk	-10.6046
▁midlertidig	-10.6046
▁østfold	-10.6047
▁drikke	-10.6047
▁foretatt	-10.6048
▁idé	-10.6055
▁alban	-10.6059
▁1894	-10.6059
▁1886	-10.606
▁drepe	-10.606
▁1885	-10.6068
bringe	-10.6068
▁christiania	-10.6074
▁etterpå	-10.6086
politikk	-10.6113
ān	-10.6118
musiker	-10.6144
▁edi	-10.6145
▁tjenestegjor	-10.6148
▁bratt	-10.6156
▁dominert	-10.6164
forsvar	-10.6187
trær	-10.6187
▁strategi	-10.6189
kjel	-10.62
▁fungere	-10.6205
▁trond	-10.6212
▁øre	-10.6229
drakt	-10.6245
▁unik	-10.6264
▁konstant	-10.6285
▁huske	-10.6287
kvalifisering	-10.6293
▁basketball	-10.6298
løytnant	-10.6298
vassdraget	-10.6298
▁definisjon	-10.6298
▁göteborg	-10.6298
▁heidelberg	-10.6298
▁invitert	-10.6298
▁nøytral	-10.6298
▁tønsberg	-10.6298
▁litauen	-10.6298
▁hyppig	-10.6298
▁lyktes	-10.6298
▁ungarsk	-10.6298
▁utgravning	-10.6298
▁tilbrakt	-10.6298
kommisjonen	-10.6298
apparat	-10.6298
▁elleve	-10.6299
▁særskilt	-10.6299
▁kjennetegn	-10.63
▁konsekvens	-10.63
vokst	-10.63
▁akademisk	-10.6305
▁betalt	-10.6306
▁svekke	-10.6307
▁tibet	-10.6308
▁dokumentar	-10.6308
▁brent	-10.6308
▁tjener	-10.6308
▁forandre	-10.631
▁tretti	-10.6312
▁kunstløp	-10.6315
▁1892	-10.6317
▁britis	-10.6317
▁geir	-10.6321
▁ungdomsskole	-10.6325
▁manglen	-10.6328
▁1860	-10.6332
▁rykte	-10.6333
▁greide	-10.6334
▁110	-10.6337
▁åttende	-10.6338
▁beholde	-10.6338
▁cru	-10.634
▁spesialisert	-10.634
▁karakteristisk	-10.6347
▁tidligst	-10.6357
▁filosof	-10.6369
▁marx	-10.6373
spissen	-10.6376
skrevet	-10.6396
▁milit	-10.6407
▁fru	-10.6412
▁kru	-10.6469
▁lyng	-10.6481
▁falk	-10.6484
▁palass	-10.6516
▁annonsert	-10.6561
▁innspilt	-10.6561
▁restaurant	-10.6561
▁oxford	-10.6561
▁permanent	-10.6561
▁minoritet	-10.6561
▁nøkkel	-10.6561
▁eksistens	-10.6561
▁nikola	-10.6561
▁betydningsfull	-10.6561
▁brensel	-10.6561
forstyrre	-10.6561
▁sachsen	-10.6561
▁utpekt	-10.6561
sammenslåing	-10.6561
▁døgn	-10.6561
▁betjene	-10.6562
▁pastor	-10.6562
▁gratis	-10.6562
▁innebære	-10.6562
▁wolf	-10.6563
▁francisco	-10.6564
▁strekningen	-10.6566
kjøretøy	-10.6567
▁gyld	-10.6568
▁fulgt	-10.6571
▁sukker	-10.6579
▁1889	-10.6587
stadiet	-10.6593
stråle	-10.6597
▁vev	-10.66
▁trodd	-10.6606
betaling	-10.6609
▁estland	-10.6615
▁stund	-10.6629
▁brei	-10.6637
▁kval	-10.6645
▁mah	-10.6646
▁trekant	-10.6652
formede	-10.6671
▁erobre	-10.6679
▁driv	-10.6687
▁nettverk	-10.6688
▁muslimsk	-10.6717
løft	-10.6742
▁snakk	-10.6765
strup	-10.6783
støl	-10.6787
▁plast	-10.6794
▁voldsom	-10.6805
▁kontinent	-10.6808
▁påbegynt	-10.6831
▁resultert	-10.6831
▁svalbard	-10.6831
▁komponert	-10.6831
▁victoria	-10.6831
▁gymnas	-10.6831
kompetanse	-10.6831
▁landskamper	-10.6831
▁kapital	-10.6831
▁fiktiv	-10.6831
▁senior	-10.6832
▁wagner	-10.6832
▁skildre	-10.6832
▁trykt	-10.6832
▁dødsfall	-10.6832
▁debutalbum	-10.6832
▁partner	-10.6832
▁psykologi	-10.6833
▁power	-10.6833
▁alpene	-10.6834
▁tynne	-10.6834
▁split	-10.6836
▁gravlagt	-10.6837
▁opprettelse	-10.6838
▁befeste	-10.684
▁operere	-10.6841
▁jacobsen	-10.6846
▁datert	-10.6854
▁1881	-10.6855
▁foto	-10.6857
brigade	-10.6865
▁lettere	-10.6874
revolusjonen	-10.6876
▁agent	-10.6879
hed	-10.6883
▁samtlige	-10.6884
▁utvide	-10.6907
▁pike	-10.6911
▁departement	-10.6919
▁framtid	-10.6921
▁tallrik	-10.6932
▁glad	-10.6949
institutt	-10.6954
temperatur	-10.6955
regjering	-10.6955
museet	-10.6959
skrive	-10.6974
maleri	-10.6977
▁valle	-10.7002
▁rapportert	-10.7008
▁finale	-10.7015
▁grei	-10.7034
▁beskrev	-10.704
▁senke	-10.7043
pierre	-10.708
▁ond	-10.7081
▁francis	-10.7106
▁sosialdemokrat	-10.7109
bataljon	-10.7109
▁favoritt	-10.7109
▁fengslet	-10.7109
▁færøysk	-10.7109
▁virginia	-10.7109
▁automatisk	-10.7109
▁sparebank	-10.7109
▁fenomen	-10.7109
▁vellykke	-10.7109
budsjett	-10.7109
▁protestantisk	-10.7109
▁mekanisk	-10.7109
bransjen	-10.7109
▁kampanje	-10.7109
▁fremtidig	-10.7109
▁noensinne	-10.711
▁misjons	-10.711
▁opposisjon	-10.711
▁grevskapet	-10.7111
▁smelte	-10.7112
▁slank	-10.7112
▁svein	-10.7112
▁programleder	-10.7113
▁norway	-10.7113
▁sverre	-10.7113
▁investering	-10.7114
▁forlenge	-10.7114
balanse	-10.7114
▁2018	-10.7114
▁central	-10.7116
▁hevn	-10.7117
▁rednings	-10.712
▁bystyre	-10.7126
▁kristus	-10.713
▁hevde	-10.7143
▁israelsk	-10.7147
▁gjennomsnittlig	-10.718
▁furu	-10.7193
regning	-10.7204
flaten	-10.722
struktur	-10.724
kontrakt	-10.724
teknikk	-10.7241
▁verdenscup	-10.7253
▁minutt	-10.7254
▁trent	-10.7255
myr	-10.7263
▁chile	-10.7289
▁islandsk	-10.7294
dømmet	-10.7294
▁henri	-10.7303
ordningen	-10.7329
gutt	-10.7358
▁invest	-10.7392
belteasteroide	-10.7395
▁absolutt	-10.7395
▁prøvd	-10.7395
ström	-10.7395
▁aluminium	-10.7395
▁jamaica	-10.7395
▁popularitet	-10.7395
▁ukraina	-10.7395
▁bystatus	-10.7395
▁ferskvann	-10.7395
▁tømmer	-10.7395
▁nobelpris	-10.7395
▁diskusjon	-10.7395
▁embets	-10.7395
▁claud	-10.7395
▁fiolin	-10.7395
▁hebraisk	-10.7395
▁søndag	-10.7395
▁valuta	-10.7395
stråling	-10.7395
leverandør	-10.7395
▁beleiring	-10.7395
▁anerkjenne	-10.7395
▁karbon	-10.7395
▁tjente	-10.7395
▁innvalgt	-10.7396
▁naturreservat	-10.7396
fysikk	-10.7396
▁visepresident	-10.7396
▁rolf	-10.7396
▁forklaring	-10.7397
▁søndr	-10.7397
▁samlealbum	-10.7397
▁rytter	-10.7397
▁omdanne	-10.7398
▁generalsekretær	-10.7399
▁programvare	-10.74
vitsj	-10.74
▁sykkel	-10.74
▁eiendommen	-10.7401
▁vestfold	-10.7401
▁tegninger	-10.7402
▁komposisjon	-10.7403
▁fossil	-10.7404
▁michel	-10.7406
▁mandat	-10.7407
chester	-10.7409
▁kreert	-10.741
▁rival	-10.7411
▁smitte	-10.7413
▁eurovis	-10.7418
▁1888	-10.7418
▁håndverk	-10.7419
▁silke	-10.7426
skrekk	-10.7435
▁romania	-10.7439
▁sikte	-10.7443
▁undertegne	-10.7444
▁pels	-10.7484
kongress	-10.7516
forskjell	-10.7534
hjelp	-10.7535
transport	-10.7535
▁anslå	-10.7558
▁spring	-10.7566
▁oversette	-10.7598
▁barba	-10.7626
▁oppleve	-10.7665
▁usikker	-10.7675
▁georgia	-10.7682
▁association	-10.7689
▁forgjenger	-10.7689
▁society	-10.7689
▁embeds	-10.7689
▁forveksle	-10.7689
▁gunnar	-10.7689
▁mislykke	-10.7689
▁utslipp	-10.7689
▁grunnleggende	-10.7689
▁tilslutt	-10.7689
▁texas	-10.7689
▁stjørdal	-10.7689
▁unesco	-10.7689
▁ansikt	-10.7689
▁ove	-10.7689
▁forberede	-10.769
materiell	-10.769
▁regler	-10.769
▁gregor	-10.769
▁anvende	-10.769
▁kobber	-10.769
▁mineral	-10.7691
▁våt	-10.7691
▁myrdet	-10.7691
▁regelmessig	-10.7691
▁import	-10.7691
▁larvik	-10.7695
▁center	-10.7696
▁bønn	-10.7696
▁stalin	-10.7701
▁syria	-10.7701
▁foreslo	-10.7706
▁night	-10.7707
▁3000	-10.7708
▁panser	-10.7709
▁1874	-10.771
▁schles	-10.7713
abilit	-10.7722
▁billed	-10.7727
lignende	-10.7729
▁tretten	-10.7737
▁smerte	-10.7739
▁utvidelse	-10.7745
▁besetning	-10.7752
feng	-10.7752
▁idrett	-10.7754
▁pont	-10.7762
▁ørn	-10.7794
▁keiserlig	-10.7795
gress	-10.7806
▁strategisk	-10.7815
representant	-10.7821
cupen	-10.7827
▁sjel	-10.7832
tradisjon	-10.7832
▁avslutte	-10.7835
utgave	-10.786
time	-10.7867
▁kvit	-10.7871
▁representere	-10.7898
styrke	-10.7901
redskap	-10.7902
setninger	-10.7923
▁dynasti	-10.7923
medlemmer	-10.7954
▁symptom	-10.7992
▁bysantinsk	-10.7992
▁country	-10.7992
▁gjaldt	-10.7992
▁kristendommen	-10.7992
▁könig	-10.7992
▁libanon	-10.7992
▁prøyssisk	-10.7992
▁vatikan	-10.7992
▁colombia	-10.7992
▁florida	-10.7992
▁class	-10.7992
▁canadisk	-10.7992
▁global	-10.7992
▁andré	-10.7992
▁armenia	-10.7992
▁oppfordre	-10.7993
▁vingespenn	-10.7993
▁sydney	-10.7994
▁middelhavet	-10.7994
▁dekorert	-10.7994
worth	-10.7994
▁bayern	-10.7994
▁fortellinger	-10.7995
▁kongeriket	-10.7996
sikring	-10.7997
▁spyd	-10.7998
▁eiendommer	-10.7999
▁fangst	-10.7999
▁innspillingen	-10.8
▁fredrikstad	-10.8001
▁sjakk	-10.8002
▁klatre	-10.8004
▁konstantin	-10.8007
▁piano	-10.8007
▁1814	-10.8011
▁skjell	-10.8013
▁prestasjon	-10.8016
▁kontinental	-10.8018
▁kjøtt	-10.8018
▁hertugdømme	-10.8022
▁morten	-10.803
gevær	-10.8034
▁domkirke	-10.8043
▁suge	-10.8057
▁verksted	-10.8062
milton	-10.8071
▁kunstnerisk	-10.808
▁vektklasse	-10.8096
▁sandvik	-10.8099
orkester	-10.815
vunnet	-10.815
kontroll	-10.815
klokke	-10.8174
preg	-10.819
cheng	-10.8203
▁musikal	-10.8277
fedre	-10.8294
▁rekrutt	-10.8304
▁atmosfære	-10.8304
▁jomfru	-10.8304
▁jugoslavia	-10.8304
▁koalisjon	-10.8304
▁lokomotiv	-10.8304
▁sarpsborg	-10.8304
▁skandinavia	-10.8304
▁tilstrekkelig	-10.8304
▁venezia	-10.8304
▁vladimir	-10.8304
▁buskerud	-10.8304
▁kommandant	-10.8304
▁kvadrat	-10.8304
▁misjonær	-10.8304
▁anmelder	-10.8304
▁istedenfor	-10.8304
▁testamente	-10.8304
▁grammati	-10.8304
▁massakre	-10.8305
▁contest	-10.8305
▁lewis	-10.8305
▁utsikt	-10.8305
▁cross	-10.8306
▁serbisk	-10.8306
▁fienden	-10.8306
▁väst	-10.8307
▁ekspert	-10.8307
skildring	-10.8307
▁naturvitenskap	-10.8309
▁folketallet	-10.8309
▁ferdigstilt	-10.831
aceae	-10.831
▁tilfeldig	-10.8313
▁biologisk	-10.8314
▁holstein	-10.8314
▁sykdommen	-10.8314
▁hovedkontor	-10.8314
▁thu	-10.8316
▁befal	-10.8319
førsel	-10.8319
▁søyle	-10.8323
▁blokker	-10.8326
▁steg	-10.8327
▁bakerst	-10.834
foretak	-10.8373
▁skriftlig	-10.8395
▁sparta	-10.8398
tropp	-10.8416
▁ferie	-10.8433
opplevelse	-10.8439
butikk	-10.8467
lengde	-10.847
redaktør	-10.8473
funksjon	-10.8473
ulykke	-10.8475
teknologi	-10.8476
utvalg	-10.8516
skrog	-10.8572
reisende	-10.8576
▁molekyl	-10.8627
▁championship	-10.8627
▁dekkvingene	-10.8627
▁hongkong	-10.8627
▁inskripsjon	-10.8627
▁makedonia	-10.8627
▁mongolia	-10.8627
▁observert	-10.8627
▁representasjon	-10.8627
▁sluppet	-10.8627
▁øyeblikk	-10.8627
▁avslørt	-10.8627
▁hospital	-10.8627
▁vinterleker	-10.8627
▁fjordane	-10.8627
▁primitiv	-10.8627
▁romerriket	-10.8627
▁trommeslager	-10.8627
▁bøndene	-10.8627
▁beslektet	-10.8627
▁kommentar	-10.8627
▁flukt	-10.8627
▁bærum	-10.8627
▁stadium	-10.8628
▁umulig	-10.8628
▁uenighet	-10.8628
▁gerhard	-10.8628
▁massiv	-10.8628
▁fragment	-10.8628
▁tendens	-10.8628
▁referert	-10.8628
▁stillehavet	-10.8629
▁erstatning	-10.8629
fellesskap	-10.8629
▁systematisk	-10.863
▁forandring	-10.863
▁fruktbar	-10.8631
▁keltisk	-10.8635
▁gjentatt	-10.8637
▁døtre	-10.8637
▁jiang	-10.8641
▁fremstille	-10.8642
▁great	-10.8648
▁klage	-10.8651
▁overføre	-10.8651
nevnte	-10.8679
▁franz	-10.8685
▁høydepunkt	-10.8717
utenriksminister	-10.8794
drive	-10.8795
kandidat	-10.8805
medisin	-10.8805
utdanning	-10.8806
bestemt	-10.8806
aktivitet	-10.8818
▁nettsted	-10.8821
programmet	-10.8824
▁hjemmebane	-10.8832
▁antikke	-10.8841
samband	-10.8916
▁begivenhet	-10.896
▁identifisere	-10.896
▁identifisert	-10.896
▁svømming	-10.896
▁tsjekkoslovakia	-10.896
kommanderende	-10.896
▁varaordfører	-10.896
▁windows	-10.896
▁church	-10.896
▁kjørte	-10.896
▁slippe	-10.896
▁dagbladet	-10.8961
▁forenklet	-10.8961
▁atlanta	-10.8961
▁skjult	-10.8961
▁psykisk	-10.8961
▁germansk	-10.8961
▁verktøy	-10.8961
▁seinere	-10.8961
ев	-10.8961
▁vegetasjon	-10.8962
▁erobring	-10.8962
▁poesi	-10.8962
▁flytende	-10.8963
▁nymf	-10.8963
на	-10.8964
▁oppfølger	-10.8964
▁borgermester	-10.8964
▁blank	-10.8967
▁kostbar	-10.8969
▁donau	-10.8971
▁rifle	-10.8977
ndorf	-10.8982
vietnamesisk	-10.8991
▁tilsyne	-10.8995
▁nederst	-10.9001
nemlig	-10.9002
▁lavest	-10.9004
▁benevn	-10.9008
▁lunge	-10.9011
skred	-10.9051
rakett	-10.9083
▁krise	-10.9083
▁muslim	-10.9104
▁rådhus	-10.9145
fattet	-10.9153
bæk	-10.916
▁inneba	-10.9186
klipp	-10.9188
▁bryllup	-10.9305
▁columbia	-10.9305
▁cæsar	-10.9305
▁elisabeth	-10.9305
▁forøvrig	-10.9305
▁invadert	-10.9305
▁låtskriver	-10.9305
▁maksimal	-10.9305
▁pasienter	-10.9305
▁patriark	-10.9305
▁renessanse	-10.9305
▁shakespeare	-10.9305
▁fjellkjede	-10.9305
▁essay	-10.9305
▁felttoget	-10.9305
landkreis	-10.9305
▁identitet	-10.9305
▁madrid	-10.9305
▁trussel	-10.9305
▁begravet	-10.9305
▁massac	-10.9306
▁trondhjem	-10.9306
▁für	-10.9306
▁kullkraftverk	-10.9306
▁avdekket	-10.9306
▁røtter	-10.9307
▁bakvingen	-10.9307
▁kalender	-10.9307
▁betong	-10.9308
▁regent	-10.9308
▁møller	-10.9309
▁følt	-10.931
▁isolert	-10.9311
▁kvalifiserings	-10.9311
nevner	-10.9316
reglene	-10.9318
▁alex	-10.9321
▁drøm	-10.9326
▁talent	-10.9327
▁ballett	-10.9353
▁avskjed	-10.9353
syklus	-10.9376
▁vestsid	-10.939
rørende	-10.9415
▁frost	-10.9447
▁boligområde	-10.95
funn	-10.9503
president	-10.9507
bibliotek	-10.9507
dømt	-10.9508
streng	-10.9514
prøve	-10.9515
teater	-10.9538
amerikanske	-10.9662
▁aftenposten	-10.9662
▁ammunisjon	-10.9662
▁forfremme	-10.9662
▁innvandrer	-10.9662
▁konstantinopel	-10.9662
▁leipzig	-10.9662
▁matematikk	-10.9662
▁væpne	-10.9662
▁marokko	-10.9662
▁division	-10.9662
▁charlotte	-10.9662
▁senterpartiet	-10.9662
▁utspring	-10.9662
▁margaret	-10.9662
▁heavy	-10.9662
▁andorra	-10.9663
▁nepal	-10.9663
▁skåne	-10.9663
▁ålesund	-10.9663
▁forekomst	-10.9663
▁narvik	-10.9663
▁tverrbånd	-10.9663
▁søsken	-10.9663
terminal	-10.9665
▁antonio	-10.9667
▁gjenopprette	-10.9669
▁persia	-10.9671
▁lisens	-10.9674
vervet	-10.9681
▁identisk	-10.9681
▁arrest	-10.9689
▁manuel	-10.9699
▁down	-10.9715
▁begynt	-10.9773
institusjoner	-10.9812
▁rangert	-10.9834
posisjon	-10.9867
instrument	-10.9878
litteratur	-10.9878
inntekt	-10.9878
divisjon	-10.9879
likevel	-10.9879
bølge	-10.9881
opprøret	-10.9919
bryggeri	-11.0022
disiplin	-11.0033
▁assosiert	-11.0033
▁edinburgh	-11.0033
▁jersey	-11.0033
▁konkurrent	-11.0033
▁kronprins	-11.0033
▁lofoten	-11.0033
▁observato	-11.0033
▁skandinavisk	-11.0033
▁uoffisiel	-11.0033
▁fjorten	-11.0033
▁jordskjelv	-11.0033
▁konstitusjon	-11.0033
▁michigan	-11.0033
▁progressiv	-11.0033
▁beatles	-11.0033
▁geometri	-11.0033
▁haugesund	-11.0033
▁uttrykt	-11.0033
▁konklave	-11.0033
▁sympati	-11.0033
▁løslatt	-11.0033
▁komplett	-11.0033
▁frimurer	-11.0033
▁langvarig	-11.0033
▁anthon	-11.0033
▁konkurs	-11.0033
▁kriminal	-11.0033
▁batteri	-11.0033
▁rettssak	-11.0033
▁begravelse	-11.0033
▁skjebne	-11.0033
▁drivstoff	-11.0033
▁normannisk	-11.0033
▁føderasjon	-11.0033
▁hovedpersonen	-11.0033
▁vilkår	-11.0034
▁dream	-11.0034
reaktor	-11.0034
▁kristiansund	-11.0034
▁baseball	-11.0034
hendelse	-11.0034
▁døpt	-11.0035
▁fiender	-11.0035
fiction	-11.0035
kjøring	-11.0035
rettighetene	-11.0036
▁nyhets	-11.0036
▁relasjon	-11.0037
▁pioner	-11.0037
▁viii	-11.0037
terapi	-11.0038
▁tsar	-11.0041
fylling	-11.0042
▁rederi	-11.0047
▁møtt	-11.0052
forhandle	-11.0068
▁brygge	-11.0072
▁sokn	-11.0089
vennlig	-11.012
farget	-11.0142
▁detaljert	-11.0146
▁messe	-11.0175
▁avgjørelse	-11.0184
sosialistiske	-11.0206
▁bakkropp	-11.024
sykehus	-11.0265
▁styremedlem	-11.0283
design	-11.0298
lokale	-11.0298
gjerd	-11.0335
göt	-11.0349
næringen	-11.0366
▁guddommelig	-11.0417
▁hollywood	-11.0417
▁hønefoss	-11.0417
▁korrupsjon	-11.0417
▁larvestadiet	-11.0417
▁legendarisk	-11.0417
▁lincoln	-11.0417
▁metamorfose	-11.0417
▁millimeter	-11.0417
▁puppestadi	-11.0417
▁republikansk	-11.0417
▁resolusjon	-11.0417
▁restaurert	-11.0417
▁sebastian	-11.0417
▁alminnelig	-11.0417
▁angivelig	-11.0417
▁depresjon	-11.0417
▁statistikk	-11.0417
▁tsjekkisk	-11.0417
▁foreløpig	-11.0417
kostnadene	-11.0417
▁omsorg	-11.0417
▁söder	-11.0417
▁ulovlig	-11.0417
▁aktuell	-11.0417
▁benedikt	-11.0417
▁castle	-11.0418
▁klostre	-11.0418
▁bebodd	-11.0418
▁kjøpmann	-11.0418
▁søvn	-11.0418
▁seoul	-11.0418
▁vakre	-11.0418
▁beundre	-11.0418
▁russerne	-11.0418
▁sibir	-11.0419
▁fuktig	-11.042
▁axel	-11.042
mekanisme	-11.0422
▁kanadisk	-11.0423
▁fylle	-11.0424
▁flanke	-11.0424
▁skygge	-11.0424
▁organisere	-11.0425
voksende	-11.0426
▁brønn	-11.0427
▁særeg	-11.0429
▁maritim	-11.043
▁kristelig	-11.0435
▁stedsnavn	-11.0437
▁datering	-11.0439
strakte	-11.0443
▁hastighet	-11.0463
▁utnevnelse	-11.0466
▁borgerkrig	-11.0467
▁studert	-11.0558
sentral	-11.0675
byrd	-11.0762
▁kollektiv	-11.0787
muligheter	-11.0787
direktoratet	-11.0817
▁ambassade	-11.0817
▁corporation	-11.0817
▁engasjement	-11.0817
▁frankfurt	-11.0817
▁høvding	-11.0817
▁kambodsja	-11.0817
▁konsentrert	-11.0817
▁köln	-11.0817
▁pasienten	-11.0817
▁pennsylvania	-11.0817
▁rudolf	-11.0817
▁satellitt	-11.0817
▁styrmann	-11.0817
▁aleksandr	-11.0817
▁carolina	-11.0817
▁ferdinand	-11.0817
▁fiendtlig	-11.0817
▁utendørs	-11.0817
▁flyktninger	-11.0817
▁slesvig	-11.0817
▁kypros	-11.0817
▁nicola	-11.0817
▁nominasjon	-11.0817
▁regulert	-11.0817
▁dublin	-11.0817
▁korrekt	-11.0817
▁nelson	-11.0817
▁theodor	-11.0818
▁geistlig	-11.0818
▁walisisk	-11.0818
▁utfordre	-11.0819
▁suppl	-11.082
▁samuel	-11.082
▁embete	-11.0822
▁høgskolen	-11.0822
▁kongressen	-11.0822
▁krigsfange	-11.0823
▁elsker	-11.0825
▁utløst	-11.0829
▁kreis	-11.0832
▁nerve	-11.0834
flytting	-11.0863
▁kutte	-11.0874
▁innerst	-11.0945
▁flue	-11.0955
forhandlingene	-11.0959
bevegelse	-11.098
avtalen	-11.1037
vogner	-11.1057
▁utforske	-11.1076
poeng	-11.1085
gripe	-11.1196
fogd	-11.1212
sekvens	-11.1232
▁orientering	-11.1234
instruktør	-11.1234
▁aristokrat	-11.1234
▁bachelor	-11.1234
▁council	-11.1234
▁douglas	-11.1234
▁folkeavstemning	-11.1234
▁heinrich	-11.1234
▁illustrert	-11.1234
▁innstifte	-11.1234
▁luxembourg	-11.1234
▁matematiker	-11.1234
▁meteorologi	-11.1234
▁newcastle	-11.1234
▁restaurering	-11.1234
▁singapore	-11.1234
▁skilsmisse	-11.1234
▁slalåm	-11.1234
▁verneplikt	-11.1234
flokkurin	-11.1234
▁babylon	-11.1234
▁besittelse	-11.1234
▁billboard	-11.1234
▁selvbiografi	-11.1234
▁abraham	-11.1234
▁forberedt	-11.1234
▁katolikk	-11.1234
▁ritual	-11.1234
▁rovdyr	-11.1234
▁amundsen	-11.1234
▁faktum	-11.1234
▁bjerk	-11.1234
▁arsenal	-11.1234
▁valdres	-11.1234
▁rikard	-11.1234
▁færre	-11.1235
▁betingelse	-11.1235
▁seksuell	-11.1235
▁ørken	-11.1235
▁bemerket	-11.1235
▁embede	-11.1235
▁tåke	-11.1236
▁nkp	-11.1236
▁abbed	-11.1236
▁føle	-11.1236
▁boston	-11.1237
▁year	-11.1237
▁kunngjor	-11.1283
stigning	-11.129
palasset	-11.1308
bundet	-11.1328
▁undersøke	-11.1366
▁tsje	-11.1496
advokat	-11.1514
kritiker	-11.1514
sesongen	-11.1514
europeisk	-11.1515
biskop	-11.1515
sentrum	-11.1515
variant	-11.1517
åpning	-11.1524
lektor	-11.1576
▁atlanterhavet	-11.1669
▁cambridge	-11.1669
▁frelsesarmeen	-11.1669
▁generalmajor	-11.1669
▁indirekte	-11.1669
▁mccartney	-11.1669
▁mountain	-11.1669
▁normandie	-11.1669
▁plutselig	-11.1669
▁pronotum	-11.1669
▁pseudo	-11.1669
▁skribent	-11.1669
▁territorium	-11.1669
▁tilstedeværelse	-11.1669
▁vålerenga	-11.1669
▁fremtredende	-11.1669
▁helikopter	-11.1669
▁oksygen	-11.1669
▁spellemannpris	-11.1669
▁taliban	-11.1669
▁overbevist	-11.1669
▁forplikte	-11.1669
▁ptolem	-11.1669
▁stephen	-11.1669
▁mangfold	-11.1669
▁ukentlig	-11.1669
▁katalog	-11.1669
▁parlamentarisk	-11.1669
▁stefan	-11.1669
▁autoritet	-11.1669
▁kortvarig	-11.1669
▁barnebarn	-11.1669
▁rosenborg	-11.1669
▁tilnærme	-11.1669
▁tempo	-11.1669
▁serbia	-11.1669
▁utfordring	-11.1669
▁lennon	-11.1669
▁libya	-11.1669
▁utbruddet	-11.167
▁rumensk	-11.167
▁prefekturet	-11.167
▁tokyo	-11.167
▁feiring	-11.167
installasjon	-11.167
▁delstats	-11.167
▁fredsavtale	-11.167
▁charlie	-11.167
▁pluss	-11.167
konsernet	-11.1671
betjent	-11.1671
▁squa	-11.1672
▁suveren	-11.1672
▁forelske	-11.1674
▁undersøkt	-11.1674
mission	-11.168
komite	-11.175
rhein	-11.1766
realistisk	-11.1838
▁koreansk	-11.1866
konstruksjon	-11.1968
ekspedisjon	-11.1968
bøkene	-11.1969
utstyr	-11.1969
kaptein	-11.197
kryss	-11.1971
▁kredit	-11.2011
▁utstrakt	-11.208
▁komponent	-11.2123
helikoptre	-11.2123
▁apostolisk	-11.2123
▁beliggenhet	-11.2123
▁democra	-11.2123
▁etiopia	-11.2123
▁guangdong	-11.2123
▁gudbrandsdal	-11.2123
▁kringkastings	-11.2123
▁mislyktes	-11.2123
▁münster	-11.2123
▁prestegjeld	-11.2123
▁pyramid	-11.2123
▁skihopper	-11.2123
▁vancouver	-11.2123
▁wergeland	-11.2123
mønstre	-11.2123
patrulje	-11.2123
▁matematisk	-11.2123
▁pattedyr	-11.2123
▁utdødd	-11.2123
dynamisk	-11.2123
▁gjensidig	-11.2123
▁opphevet	-11.2123
▁support	-11.2123
▁bosnia	-11.2123
▁sivilisasjon	-11.2123
▁dresden	-11.2123
▁napoli	-11.2123
▁gælisk	-11.2123
▁forsterket	-11.2124
▁samvelde	-11.2124
▁firkant	-11.2124
mouth	-11.2124
▁snorre	-11.2124
▁disney	-11.2124
▁haakon	-11.2124
▁veksle	-11.2124
grunnsstasjon	-11.2124
▁finansiell	-11.2124
▁theatre	-11.2125
▁pepper	-11.2125
▁syklist	-11.2125
▁bjørg	-11.2125
▁innflytelsesrik	-11.2126
▁skjule	-11.2126
▁guinea	-11.2127
▁bjar	-11.2129
▁mystisk	-11.2134
belastning	-11.2138
oidea	-11.214
hytta	-11.2164
▁cruise	-11.2193
berørt	-11.2195
kommunistpartiet	-11.2203
▁hedensk	-11.2212
oppgjør	-11.2261
bourg	-11.2275
▁sammensetning	-11.2281
▁centr	-11.229
misbruk	-11.2304
▁respons	-11.2325
spørsmål	-11.2445
arkitekt	-11.2445
koloni	-11.2447
atherin	-11.2456
ydning	-11.253
▁journal	-11.2576
▁utarbeide	-11.2588
prefektur	-11.2594
▁inspirasjon	-11.2599
konservator	-11.2599
▁distribusjon	-11.2599
▁filippinene	-11.2599
▁indonesia	-11.2599
▁interessant	-11.2599
▁keyboard	-11.2599
▁kontinuerlig	-11.2599
▁kroatia	-11.2599
▁ludwig	-11.2599
▁musikkvideo	-11.2599
▁warszawa	-11.2599
▁gerilja	-11.26
▁hypotese	-11.26
▁sichuan	-11.26
▁sørkoreansk	-11.26
▁våpenhvile	-11.26
▁ekspansjon	-11.26
▁mandsju	-11.26
▁torpedo	-11.26
▁arbeidsgiver	-11.26
▁diagnose	-11.26
lovgivning	-11.26
▁flaggbærer	-11.26
▁jupiter	-11.26
▁taiwan	-11.26
▁tragedie	-11.26
▁forbrytelse	-11.26
▁gustaf	-11.26
inspektør	-11.26
▁attentat	-11.26
▁konkret	-11.26
platået	-11.26
▁grekerne	-11.26
▁cecil	-11.26
▁regjere	-11.26
metabol	-11.26
▁ordinær	-11.26
blomsterflue	-11.26
▁henrettelse	-11.26
▁amalie	-11.26
▁deltakelse	-11.2601
▁detroit	-11.2601
▁harrison	-11.2601
▁delegasjon	-11.2601
▁moralsk	-11.2602
▁sannhet	-11.2604
▁snare	-11.262
knutepunkt	-11.2622
▁sjanse	-11.2623
▁genetisk	-11.2627
▁fullføre	-11.263
kapell	-11.2665
flyvning	-11.2674
sponsor	-11.2882
hovedstad	-11.2911
størrelse	-11.2945
grønn	-11.2945
politiker	-11.2945
flagg	-11.2947
▁inkludere	-11.3006
hastigheten	-11.304
shemmede	-11.3099
skrittspartiet	-11.3099
▁anatolia	-11.3099
▁cromwell	-11.3099
▁drøbak	-11.3099
▁ektefelle	-11.3099
▁forkroppen	-11.3099
▁kapittel	-11.3099
▁kaukasus	-11.3099
▁kennedy	-11.3099
▁klassiker	-11.3099
▁riksantikvaren	-11.3099
▁synonym	-11.3099
▁sørafrikansk	-11.3099
▁tilflukt	-11.3099
0	-11.6286
9	-11.9815
