<unk>	0
<s>	0
</s>	0
.	-3.29709
▁i	-3.46122
e	-3.69134
s	-3.73569
▁og	-3.82535
▁	-4.00525
t	-4.16391
en	-4.2858
▁av	-4.29081
er	-4.29641
▁som	-4.45203
▁en	-4.46978
▁er	-4.58292
▁til	-4.6062
r	-4.66607
▁for	-4.67001
▁på	-4.71517
▁den	-4.88377
▁ble	-4.90126
▁med	-4.91964
▁det	-4.92967
▁var	-5.0187
et	-5.0479
n	-5.06142
▁de	-5.07914
▁han	-5.13102
▁å	-5.23265
▁fra	-5.30116
▁et	-5.46668
▁har	-5.47775
ene	-5.56014
▁at	-5.60222
a	-5.63978
ne	-5.90283
▁ved	-5.9292
▁om	-5.97413
▁etter	-6.00732
▁også	-6.01433
d	-6.06502
i	-6.07606
k	-6.09309
▁men	-6.09634
o	-6.19787
▁ut	-6.20662
▁seg	-6.21033
y	-6.21546
▁ikke	-6.25164
▁under	-6.2522
▁hadde	-6.26073
▁da	-6.31224
▁over	-6.32118
f	-6.38249
▁to	-6.39545
de	-6.41666
▁eller	-6.4205
m	-6.42137
▁opp	-6.43676
te	-6.44394
g	-6.46215
▁inn	-6.50752
re	-6.5206
▁kan	-6.52881
l	-6.55448
▁andre	-6.55828
▁sin	-6.59256
▁første	-6.61996
▁hun	-6.62641
▁1	-6.66381
in	-6.67639
▁dette	-6.68182
▁mot	-6.68975
ing	-6.71009
v	-6.72103
▁år	-6.72411
u	-6.75865
▁ha	-6.76696
▁be	-6.7706
p	-6.8006
es	-6.81509
c	-6.82277
▁mellom	-6.82572
b	-6.8258
▁hans	-6.83296
al	-6.86174
le	-6.86227
▁18	-6.8639
▁født	-6.86813
us	-6.8743
▁a	-6.87626
▁der	-6.90334
▁kom	-6.91751
▁fikk	-6.92331
▁s	-6.93938
▁tre	-6.95821
an	-6.96077
sk	-6.96325
▁denne	-6.97543
ende	-6.98726
▁flere	-6.99553
▁hvor	-7.00089
h	-7.00441
▁man	-7.02931
vis	-7.04621
▁nord	-7.05341
▁f	-7.07762
▁alle	-7.08664
ter	-7.08934
▁del	-7.10474
on	-7.11219
blant	-7.11568
▁før	-7.11986
▁2	-7.12209
▁sammen	-7.14894
▁the	-7.17116
▁mange	-7.18047
na	-7.18267
ri	-7.18433
▁re	-7.20253
▁så	-7.204
ar	-7.20847
▁norge	-7.22156
ia	-7.22195
▁u	-7.2278
▁tallet	-7.23294
▁la	-7.24568
▁ligger	-7.25052
▁nå	-7.27226
▁g	-7.27446
▁stor	-7.27486
▁senere	-7.28294
▁død	-7.28381
▁selv	-7.2978
▁3	-7.29945
▁se	-7.30169
▁m	-7.30402
sen	-7.30478
land	-7.32596
▁norsk	-7.33511
w	-7.3438
▁mer	-7.34675
ke	-7.3497
il	-7.35045
▁ca	-7.3524
▁noen	-7.35817
▁17	-7.36154
nde	-7.36211
▁byen	-7.36736
ske	-7.37532
▁gjennom	-7.37729
ra	-7.37731
▁c	-7.37962
▁siden	-7.38471
▁være	-7.38953
▁land	-7.39579
▁blir	-7.39797
is	-7.40448
▁disse	-7.4053
▁vært	-7.41794
▁tidligere	-7.41833
▁sitt	-7.41982
blitt	-7.42568
la	-7.42922
▁her	-7.43444
▁ol	-7.4361
▁kjent	-7.43731
as	-7.44081
▁annet	-7.44301
▁5	-7.44883
▁p	-7.45714
▁kommune	-7.46231
å	-7.46608
at	-7.46842
▁4	-7.47133
▁vi	-7.47355
z	-7.47391
▁sør	-7.47669
▁store	-7.48695
be	-7.48845
ck	-7.48964
ch	-7.49191
▁samme	-7.49196
ur	-7.49382
ens	-7.49854
iske	-7.50575
ma	-7.50757
ning	-7.51015
lig	-7.51225
der	-7.51357
li	-7.52066
▁ny	-7.5213
▁tid	-7.53403
▁an	-7.53857
lo	-7.53972
for	-7.54086
▁b	-7.54891
ta	-7.55779
▁dag	-7.55911
ere	-7.56191
▁of	-7.56227
▁ra	-7.56401
▁ta	-7.57073
ver	-7.57154
▁frem	-7.57156
▁k	-7.57647
▁noe	-7.57753
▁både	-7.57787
um	-7.5824
▁al	-7.58481
isk	-7.58697
x	-7.5878
ste	-7.58947
j	-7.58997
▁rundt	-7.59044
▁16	-7.59995
▁d	-7.60552
▁gikk	-7.60768
▁15	-7.61724
▁kr	-7.62274
os	-7.6235
ro	-7.62498
▁kunne	-7.63743
ler	-7.63781
▁bo	-7.63964
tt	-7.64375
▁mens	-7.64664
bo	-7.65059
▁grunn	-7.65525
▁nye	-7.65789
el	-7.65798
▁vant	-7.65943
▁skulle	-7.66328
▁ned	-7.66639
▁h	-7.66644
▁sine	-7.67116
▁ba	-7.67243
▁ham	-7.67592
▁sa	-7.68065
▁by	-7.68377
or	-7.68516
lige	-7.68597
▁10	-7.68662
▁kon	-7.69012
▁mest	-7.69099
ger	-7.69486
kt	-7.69884
ut	-7.70037
▁ti	-7.70047
▁enn	-7.70181
ner	-7.7021
da	-7.70243
▁ga	-7.70754
▁6	-7.7087
▁vest	-7.71196
ør	-7.71431
▁vil	-7.71755
øy	-7.71913
▁bare	-7.71914
▁norske	-7.72133
▁tilbake	-7.72222
▁pa	-7.72238
ve	-7.72613
nes	-7.72775
it	-7.73515
▁bli	-7.7369
den	-7.73719
ge	-7.7396
▁gang	-7.74164
▁km	-7.76273
▁skal	-7.76793
ø	-7.77014
▁navn	-7.7702
▁tok	-7.77327
▁oslo	-7.776
ul	-7.77941
▁000	-7.7833
▁øst	-7.78834
▁navnet	-7.7884
▁di	-7.79345
▁fire	-7.79663
mann	-7.80656
ry	-7.80663
▁lag	-7.80693
ton	-7.81054
▁ro	-7.82109
▁siste	-7.82305
é	-7.82424
▁le	-7.82568
nd	-7.82702
▁slik	-7.82839
ig	-7.82973
di	-7.83223
erne	-7.83474
▁ofte	-7.83528
▁meter	-7.83828
ist	-7.83843
▁hele	-7.84532
si	-7.84622
▁mars	-7.84825
dal	-7.84952
▁januar	-7.84999
▁finnes	-7.85409
▁august	-7.85481
▁li	-7.85964
ker	-7.85965
▁deltok	-7.85999
je	-7.86056
to	-7.86076
gen	-7.86237
▁pi	-7.86439
▁hoved	-7.86574
▁usa	-7.86614
▁fri	-7.8668
by	-7.86828
▁st	-7.86907
stad	-7.87105
▁7	-7.8717
ba	-7.87972
▁ni	-7.88182
▁8	-7.88483
▁du	-7.88527
var	-7.88727
▁ar	-7.88746
▁juli	-7.89017
ment	-7.89041
id	-7.89084
ic	-7.89236
▁dem	-7.89799
ng	-7.90009
son	-7.90149
ga	-7.90357
ad	-7.90459
ka	-7.90557
▁fram	-7.91074
▁største	-7.91097
▁få	-7.91187
▁kalt	-7.91249
▁mai	-7.91632
▁12	-7.9184
me	-7.92029
▁si	-7.92329
mi	-7.92368
ol	-7.92726
▁o	-7.92844
▁ri	-7.93778
sa	-7.93793
tor	-7.93973
ff	-7.94202
▁2008	-7.9424
▁sp	-7.95199
▁ho	-7.95206
pp	-7.96191
▁n	-7.96685
vi	-7.96836
▁laget	-7.97122
men	-7.97523
▁per	-7.97895
mer	-7.97996
▁rekke	-7.98152
▁j	-7.98209
▁20	-7.99162
gang	-7.99541
▁mål	-7.99746
kk	-8.00107
ell	-8.00119
mp	-8.00342
skap	-8.01337
▁2007	-8.01913
man	-8.02054
▁området	-8.02601
▁fransk	-8.02632
▁igjen	-8.02864
else	-8.03472
ja	-8.03665
▁14	-8.03866
▁bruk	-8.04665
▁v	-8.04689
▁bak	-8.04828
erte	-8.04871
▁9	-8.04887
▁landet	-8.0517
år	-8.05317
th	-8.05597
het	-8.05748
▁tillegg	-8.05854
▁11	-8.05944
ær	-8.05988
▁lang	-8.0605
▁utgitt	-8.06258
▁po	-8.06489
▁kirke	-8.06491
▁april	-8.06575
▁ru	-8.06587
un	-8.06645
ven	-8.07206
▁samt	-8.0736
▁na	-8.07446
▁plass	-8.07473
▁juni	-8.07543
do	-8.07646
▁mar	-8.0774
▁he	-8.07874
ha	-8.08067
sjon	-8.08211
▁årene	-8.0873
▁først	-8.08811
pe	-8.09406
▁far	-8.09424
bi	-8.09448
▁do	-8.09844
▁l	-8.09854
▁mor	-8.09893
ti	-8.09946
▁november	-8.10016
mo	-8.10862
▁begynte	-8.1099
▁spilte	-8.11101
opp	-8.11463
▁europa	-8.11476
▁no	-8.1152
▁går	-8.11603
▁vanlig	-8.11604
gi	-8.11643
▁13	-8.12265
va	-8.12333
▁hos	-8.12663
ek	-8.1294
▁2006	-8.1316
ns	-8.13569
▁2010	-8.13808
▁brukt	-8.14006
▁døde	-8.14121
▁co	-8.14371
▁0	-8.14443
▁rett	-8.14789
co	-8.14795
2	-8.1517
▁fly	-8.15178
▁februar	-8.15738
elig	-8.15897
▁bi	-8.16048
▁deres	-8.16489
asjon	-8.16533
▁ma	-8.16698
ion	-8.16787
▁desember	-8.16834
tter	-8.16987
▁ka	-8.17023
▁gi	-8.17077
▁tiden	-8.17366
ok	-8.17441
▁mindre	-8.17721
▁pe	-8.17788
▁kun	-8.17977
▁t	-8.18065
▁sk	-8.18087
▁pro	-8.18094
▁året	-8.18586
ko	-8.18671
iv	-8.18742
▁alt	-8.18798
ant	-8.18936
▁tyskland	-8.18948
▁september	-8.19064
▁so	-8.19189
▁leder	-8.19694
▁like	-8.19807
▁gjorde	-8.1989
▁fem	-8.20097
ling	-8.2014
bu	-8.2019
▁egen	-8.20238
▁satt	-8.20284
midlertid	-8.20427
▁as	-8.2055
▁beste	-8.20616
æ	-8.20758
▁oktober	-8.20884
▁helt	-8.2107
▁fa	-8.21238
ir	-8.21264
im	-8.21375
ks	-8.21591
▁bestå	-8.21673
▁am	-8.21834
tur	-8.21855
▁el	-8.22101
▁nær	-8.22311
▁mo	-8.22404
op	-8.22432
od	-8.22506
ho	-8.22775
▁vann	-8.22825
▁eksempel	-8.22973
▁par	-8.23006
ard	-8.23227
▁ville	-8.2337
ie	-8.23547
ak	-8.23563
lag	-8.23731
▁større	-8.23979
fa	-8.24089
no	-8.24443
▁kina	-8.24497
▁2009	-8.24636
rede	-8.24893
▁lo	-8.24961
ed	-8.24968
▁tv	-8.2502
▁tyske	-8.25056
▁bu	-8.2512
▁olympisk	-8.25345
vik	-8.25667
▁w	-8.2591
▁sverige	-8.26068
om	-8.26187
len	-8.26289
3	-8.26405
▁brukes	-8.2677
▁mye	-8.27001
ang	-8.27107
ikk	-8.27671
ca	-8.28423
▁ei	-8.28645
rett	-8.2887
▁medlem	-8.28911
ster	-8.2937
▁ulike	-8.29863
ce	-8.29911
▁form	-8.302
av	-8.30295
▁spiller	-8.30435
▁deretter	-8.30535
▁or	-8.30658
▁bar	-8.30691
▁ko	-8.30752
▁videre	-8.30768
▁innen	-8.312
▁sommer	-8.31375
tak	-8.31495
▁2005	-8.31546
▁in	-8.31553
▁tatt	-8.31691
▁me	-8.31729
▁film	-8.31734
ingen	-8.31801
▁hennes	-8.31901
▁sønn	-8.31931
▁uten	-8.3248
sh	-8.33204
▁gamle	-8.3334
▁hver	-8.33783
am	-8.33783
sted	-8.34099
ku	-8.34134
go	-8.34325
del	-8.34327
po	-8.34335
▁svær	-8.3447
berg	-8.34685
▁em	-8.35069
ä	-8.35085
▁barn	-8.35443
▁kunst	-8.35527
dan	-8.35687
ik	-8.35813
▁grad	-8.35966
▁su	-8.36026
▁and	-8.36177
ni	-8.36417
▁skole	-8.36418
ering	-8.36699
▁arbeidet	-8.37245
▁særlig	-8.37333
▁go	-8.37384
und	-8.37493
io	-8.37498
sel	-8.37582
▁2011	-8.37868
▁sol	-8.37868
▁kultur	-8.37912
au	-8.37945
▁kommer	-8.37952
per	-8.37966
ud	-8.38276
▁mat	-8.38497
▁startet	-8.38719
▁gjen	-8.3883
gu	-8.38855
▁gift	-8.39164
▁frankrike	-8.39234
▁filmen	-8.39332
▁skrevet	-8.39573
▁25	-8.3958
▁langs	-8.39724
▁lov	-8.39907
▁folke	-8.40046
▁y	-8.40138
ina	-8.40141
kul	-8.40272
▁perioden	-8.40376
▁ingen	-8.40384
▁hu	-8.40575
▁fleste	-8.40682
▁tro	-8.40809
kker	-8.40914
▁måtte	-8.40926
▁r	-8.41235
▁politisk	-8.41253
▁skrev	-8.41355
▁parti	-8.41365
▁te	-8.41585
▁lever	-8.41631
ron	-8.42017
tal	-8.42042
rmed	-8.42104
nk	-8.42136
ring	-8.42496
bar	-8.4251
ö	-8.42599
▁dr	-8.42703
▁30	-8.42879
▁kong	-8.42887
▁hvert	-8.43163
sta	-8.43306
1	-8.43481
lse	-8.4372
ting	-8.43777
▁må	-8.43886
▁sam	-8.43977
▁bl	-8.43986
▁hus	-8.44185
▁tysk	-8.44313
ft	-8.44552
derfor	-8.44822
▁john	-8.44873
▁ganger	-8.44887
▁2004	-8.44913
▁ski	-8.45007
▁høy	-8.4507
▁ver	-8.45073
▁new	-8.45313
▁lå	-8.45653
▁london	-8.45787
▁klubben	-8.45799
tre	-8.45864
met	-8.45987
á	-8.46346
tte	-8.46575
▁språk	-8.46591
▁musikk	-8.46619
▁2000	-8.46972
▁innbyggere	-8.46972
▁nest	-8.47062
▁god	-8.47115
over	-8.47125
▁seks	-8.47317
▁mi	-8.47619
▁ju	-8.47859
▁fast	-8.47911
▁gitt	-8.48192
▁deler	-8.48298
mb	-8.48476
▁begge	-8.48834
▁eks	-8.48887
▁vm	-8.4905
kom	-8.49168
▁nytt	-8.49182
▁kort	-8.49267
▁amerikansk	-8.49641
▁lu	-8.49666
▁england	-8.49702
les	-8.4974
▁bygget	-8.49877
▁engelsk	-8.49953
▁samtidig	-8.50327
▁gu	-8.50397
▁nasjonal	-8.50524
▁san	-8.50645
▁liv	-8.50921
▁jo	-8.50937
▁bandet	-8.51053
▁bok	-8.51592
inger	-8.51604
▁små	-8.51632
dag	-8.52146
▁kinesisk	-8.52172
▁fo	-8.52192
▁bra	-8.52472
itt	-8.52488
▁amerikanske	-8.52739
▁russisk	-8.52803
▁ad	-8.52864
min	-8.53101
▁verdens	-8.53141
ian	-8.53294
tra	-8.53433
▁pre	-8.53896
▁sett	-8.53917
▁fi	-8.53953
lu	-8.54011
ings	-8.54165
▁gull	-8.542
▁slutten	-8.54491
ium	-8.54755
tid	-8.54812
ong	-8.54955
verk	-8.55082
gg	-8.55173
▁ja	-8.55579
▁verdenskrig	-8.5571
art	-8.55717
ber	-8.55915
pa	-8.56131
▁løpet	-8.56199
ningen	-8.56343
ag	-8.56455
▁albumet	-8.5678
▁stedet	-8.56837
▁lys	-8.57008
▁forhold	-8.57243
hold	-8.57337
▁sch	-8.5745
▁norges	-8.5749
▁sted	-8.57577
▁vei	-8.57626
▁sesongen	-8.57654
ly	-8.57838
▁gud	-8.57953
▁gammel	-8.57992
kj	-8.58024
▁tri	-8.58051
▁øy	-8.58084
▁va	-8.58341
▁pu	-8.58484
▁sjø	-8.58535
ll	-8.58586
stil	-8.58684
slag	-8.58688
▁øya	-8.58745
bruk	-8.58771
▁tredje	-8.58948
▁ge	-8.58954
inn	-8.59154
▁tidlig	-8.59212
▁forskjellige	-8.5929
▁nor	-8.59532
▁x	-8.59546
▁annen	-8.59667
ken	-8.6006
▁fotball	-8.60404
▁gruppen	-8.60703
▁stein	-8.6085
stand	-8.60857
tisk	-8.61039
▁støtte	-8.61203
▁mulig	-8.61284
▁ord	-8.61306
▁100	-8.61329
▁etablert	-8.61374
gel	-8.61574
▁spilt	-8.6164
lin	-8.61652
ige	-8.61706
▁2002	-8.61734
par	-8.61755
▁eneste	-8.61866
uten	-8.61922
▁historie	-8.61934
▁kommunen	-8.62107
kon	-8.62231
sten	-8.62336
▁flyttet	-8.62406
mme	-8.62442
▁bergen	-8.62817
▁millioner	-8.62974
ede	-8.62979
ny	-8.63001
▁britiske	-8.63055
▁fortsatt	-8.63069
▁kjente	-8.63302
▁opprinnelig	-8.63416
▁holde	-8.63437
dig	-8.63587
▁bort	-8.63736
▁hatt	-8.63805
▁ak	-8.63817
▁fant	-8.6384
▁kongen	-8.63955
▁krigen	-8.64139
hu	-8.64414
▁sto	-8.64475
tiden	-8.64798
▁tra	-8.64915
ley	-8.6512
▁provinsen	-8.65232
▁selskapet	-8.65636
▁all	-8.65667
som	-8.65672
▁ab	-8.65843
▁verden	-8.66174
ot	-8.66251
▁con	-8.66439
lat	-8.66477
stre	-8.66723
▁side	-8.66774
elle	-8.66796
▁19	-8.66811
pi	-8.67035
▁2001	-8.67052
▁gir	-8.67175
▁1980	-8.67409
tiske	-8.67492
stein	-8.67625
▁viktig	-8.67797
▁basert	-8.68084
ci	-8.68205
▁car	-8.68281
▁2003	-8.68522
▁fordi	-8.68534
ü	-8.68877
▁president	-8.68933
mmer	-8.68992
let	-8.69052
mon	-8.69057
ius	-8.69182
ier	-8.69486
▁vel	-8.69498
kke	-8.69506
dd	-8.69958
▁danmark	-8.69998
form	-8.70267
▁kamp	-8.70269
▁sendt	-8.70405
▁utviklet	-8.7043
hus	-8.70484
fi	-8.70534
▁bil	-8.70565
▁kar	-8.70664
▁konge	-8.70705
løp	-8.7092
▁henne	-8.70947
▁ty	-8.71381
▁pla	-8.71534
vin	-8.71642
▁spille	-8.71768
▁storbritannia	-8.7189
ninger	-8.71953
ord	-8.71969
▁delen	-8.7203
▁familien	-8.72052
▁fjell	-8.7218
sti	-8.7227
itet	-8.72322
nder	-8.72359
val	-8.72372
▁wi	-8.7242
▁liten	-8.72544
▁delstaten	-8.72684
▁min	-8.72834
anske	-8.72872
▁førte	-8.72893
far	-8.72925
▁gjort	-8.73121
▁23	-8.73165
til	-8.73218
▁midt	-8.73441
▁ki	-8.73642
▁forfatter	-8.73693
▁omkring	-8.73822
▁antall	-8.73868
▁plate	-8.73895
ans	-8.73924
ine	-8.7402
kan	-8.74069
▁familie	-8.74152
ran	-8.74201
▁produksjon	-8.74306
▁moderne	-8.74347
▁1990	-8.7461
▁paris	-8.74617
▁én	-8.74633
wa	-8.74681
▁gruppe	-8.74719
ull	-8.74993
▁general	-8.75
ty	-8.75088
ov	-8.75249
lands	-8.75252
▁bygge	-8.75266
6	-8.75294
kor	-8.75438
▁21	-8.75453
tan	-8.75606
tu	-8.75626
▁arbeid	-8.76017
spill	-8.76143
▁syn	-8.7669
▁sand	-8.76716
siden	-8.76794
▁bro	-8.76975
kel	-8.76999
▁1999	-8.77397
følge	-8.77524
▁svensk	-8.77675
mål	-8.77823
ow	-8.77826
▁person	-8.77835
▁ne	-8.78006
▁økonomisk	-8.7836
lot	-8.78382
▁holdt	-8.78436
▁arbeider	-8.78487
▁gjern	-8.78638
▁22	-8.78811
so	-8.78886
▁1970	-8.79029
▁26	-8.79196
▁elven	-8.79267
plan	-8.79334
▁stat	-8.79392
ac	-8.7943
▁grav	-8.79529
▁står	-8.79776
▁sangen	-8.8002
▁ser	-8.80055
vo	-8.80098
▁kal	-8.80136
▁italia	-8.80268
▁forbindelse	-8.80388
▁får	-8.80432
▁ledet	-8.80467
elsen	-8.80544
▁hen	-8.80565
▁hovedsak	-8.80701
sp	-8.8078
▁viser	-8.808
▁hi	-8.80915
▁tor	-8.8092
bb	-8.80978
ld	-8.81092
▁spesielt	-8.81097
▁kirken	-8.81207
▁mann	-8.81228
▁z	-8.81361
▁halv	-8.81486
▁ku	-8.81765
ki	-8.81988
▁slutt	-8.82018
bil	-8.82034
▁vise	-8.82514
fjorden	-8.82548
leg	-8.82702
så	-8.83035
▁serien	-8.83092
▁lite	-8.83152
za	-8.83233
ill	-8.83265
▁stort	-8.83281
ham	-8.83434
▁jord	-8.83488
valg	-8.83523
hi	-8.83869
▁godt	-8.83918
handling	-8.83939
isere	-8.83972
í	-8.84065
▁aktiv	-8.84074
▁utenfor	-8.84177
▁tar	-8.84252
▁kn	-8.84282
dom	-8.84282
▁roman	-8.84477
▁sentral	-8.8448
▁russland	-8.84509
▁1996	-8.84513
▁nok	-8.84681
▁funnet	-8.84728
▁kalles	-8.84895
▁lokal	-8.84907
▁langt	-8.85009
▁opprettet	-8.8521
sj	-8.85331
▁fre	-8.85358
▁luft	-8.85413
sto	-8.85477
▁cha	-8.85565
ighet	-8.85787
▁fag	-8.85962
▁hjem	-8.86158
▁tu	-8.86385
▁berg	-8.86596
▁bruker	-8.86717
dde	-8.86875
plass	-8.8695
isme	-8.86995
▁skolen	-8.87012
landet	-8.87021
▁mennesker	-8.87113
▁reise	-8.87133
▁gr	-8.87207
▁bre	-8.87278
kken	-8.8732
▁organ	-8.8752
drift	-8.87567
▁utnevnt	-8.87593
▁lange	-8.87655
ug	-8.877
▁betydning	-8.8804
▁universitetet	-8.88172
▁hol	-8.884
ød	-8.88491
vei	-8.8856
▁meste	-8.8859
▁24	-8.88631
▁natur	-8.88785
▁ch	-8.88786
gh	-8.88921
he	-8.89016
▁innenfor	-8.89047
▁mon	-8.89252
▁my	-8.89488
▁tegn	-8.8949
lik	-8.89537
▁bred	-8.89618
bre	-8.89755
isering	-8.89782
▁keiser	-8.89832
van	-8.89936
▁serie	-8.90033
▁valgt	-8.9029
føring	-8.90293
▁vinter	-8.90382
satt	-8.90633
▁gå	-8.90647
▁datter	-8.90726
▁kampen	-8.90813
▁partiet	-8.90825
▁menn	-8.90834
▁50	-8.90926
▁jeg	-8.91138
mar	-8.91146
and	-8.91299
dalen	-8.91306
▁periode	-8.91351
▁foran	-8.91437
▁led	-8.91455
▁ed	-8.91503
▁neste	-8.91535
ya	-8.91739
▁ras	-8.91845
▁bety	-8.92007
▁27	-8.92062
▁veien	-8.92155
pre	-8.92248
▁tross	-8.92271
mark	-8.92315
est	-8.92334
ou	-8.92363
▁følge	-8.92527
anger	-8.92706
ys	-8.92707
▁dikt	-8.92757
▁bygd	-8.92823
kket	-8.92955
▁paul	-8.92961
▁åpnet	-8.92977
em	-8.93082
▁28	-8.93116
▁full	-8.93204
▁kvinner	-8.93233
▁barne	-8.93246
lsen	-8.93505
▁forsøk	-8.93563
sch	-8.93585
▁solgt	-8.93597
ica	-8.93714
▁åtte	-8.93758
pen	-8.93799
▁begynnelsen	-8.94065
▁gjøre	-8.94156
tar	-8.94158
▁kvinne	-8.9416
vel	-8.94171
▁arbeids	-8.94259
50	-8.94321
setning	-8.94408
▁gra	-8.94466
▁fått	-8.94741
▁vo	-8.94755
▁delt	-8.94865
▁befolkningen	-8.95051
laget	-8.95086
▁val	-8.95188
▁militær	-8.95201
▁tap	-8.95226
rik	-8.95291
▁teater	-8.95365
▁enkelt	-8.95399
▁verk	-8.95454
▁italiensk	-8.95504
▁brasil	-8.95508
▁slag	-8.95811
▁skip	-8.95826
▁gjør	-8.95861
ip	-8.95878
▁afrika	-8.9598
▁rolle	-8.96112
▁motor	-8.96144
ide	-8.96202
▁radio	-8.96273
▁mag	-8.96315
▁band	-8.96459
bok	-8.96533
▁skog	-8.96554
jo	-8.96728
▁ren	-8.96728
hø	-8.96834
▁skuespiller	-8.97007
▁fl	-8.97085
mor	-8.97168
▁fred	-8.97169
▁minst	-8.97176
sett	-8.97211
du	-8.97393
▁1960	-8.97468
▁dager	-8.97499
40	-8.97604
▁hy	-8.97609
bel	-8.97617
▁berlin	-8.97693
▁lagt	-8.97733
▁best	-8.97782
▁kje	-8.97994
▁personer	-8.98176
lå	-8.98503
▁ter	-8.98681
fly	-8.98692
stat	-8.98754
▁medlemmer	-8.98814
▁måte	-8.98842
▁høyde	-8.98938
skole	-8.98956
▁venstre	-8.98965
sund	-8.98998
vann	-8.99083
▁europeisk	-8.99189
ight	-8.99305
▁via	-8.99433
▁tjeneste	-8.99505
spiller	-8.99621
▁farge	-8.99626
4	-8.99786
▁nummer	-8.99853
▁bor	-8.9987
▁hav	-8.99885
▁omtrent	-8.9996
▁viktigste	-9.00037
▁ur	-9.00165
10	-9.00184
▁album	-9.00344
▁slo	-9.00471
▁1992	-9.00475
ju	-9.00534
▁valg	-9.006
borg	-9.00612
▁slått	-9.00643
▁pan	-9.00791
tro	-9.00879
øl	-9.00987
get	-9.01059
bygg	-9.01109
▁svenske	-9.01143
▁staten	-9.0117
▁eget	-9.0126
▁ben	-9.01361
vet	-9.01374
ving	-9.01471
▁bri	-9.01485
rø	-9.01536
burg	-9.0181
▁rom	-9.0203
▁bestemt	-9.02061
▁felles	-9.02072
▁riks	-9.02551
▁folk	-9.02609
▁styre	-9.02696
sson	-9.02749
▁sig	-9.02753
▁mil	-9.02763
▁fall	-9.02909
▁1998	-9.03051
ach	-9.03257
if	-9.03304
▁regnes	-9.03364
▁hjelp	-9.03376
▁gul	-9.03467
departementet	-9.03569
▁krig	-9.03578
jer	-9.03612
tz	-9.03646
ó	-9.03746
▁universitet	-9.03942
▁stil	-9.04029
iet	-9.04066
heten	-9.04096
▁1994	-9.04104
su	-9.04153
fjord	-9.04603
▁sølv	-9.04618
▁såkalt	-9.04627
▁2012	-9.04634
tin	-9.0482
▁fylke	-9.04884
▁menneske	-9.04915
▁com	-9.05116
▁dess	-9.05121
vær	-9.05164
veien	-9.05182
▁danne	-9.0526
▁topp	-9.05299
øya	-9.05355
▁likevel	-9.0541
30	-9.05704
▁romersk	-9.05718
▁kv	-9.05819
▁stats	-9.0598
▁karl	-9.05992
▁park	-9.06026
ferd	-9.0606
ket	-9.06088
▁litteratur	-9.06133
▁ø	-9.06135
▁orden	-9.06148
▁york	-9.06229
▁knytte	-9.06229
▁1997	-9.06235
▁steder	-9.06441
rå	-9.06516
▁dagens	-9.0661
▁følgende	-9.06678
mat	-9.06691
bygd	-9.06747
▁kor	-9.06747
heim	-9.06748
▁inkludert	-9.06769
▁aldri	-9.06853
▁fortsatte	-9.06857
▁ry	-9.06944
ska	-9.07013
▁jernbane	-9.07029
▁pris	-9.0716
▁we	-9.07198
▁lik	-9.07286
▁minne	-9.07332
▁krigs	-9.07458
▁enkelte	-9.07468
▁slekt	-9.07581
▁fin	-9.07643
stående	-9.07748
▁områder	-9.07782
▁hva	-9.07962
isert	-9.08258
ph	-9.08308
▁anti	-9.08395
▁university	-9.08408
▁kla	-9.08511
▁dra	-9.08513
bro	-9.08519
føre	-9.0856
arbeid	-9.08576
▁hevde	-9.08967
▁samarbeid	-9.08976
▁resultat	-9.08978
▁litt	-9.09084
▁lett	-9.09215
▁regjeringen	-9.09261
▁regn	-9.09335
mun	-9.09379
▁tildelt	-9.09495
▁utvikling	-9.09564
stykke	-9.09593
gitt	-9.09766
▁ly	-9.09852
gn	-9.09959
råd	-9.0999
▁christian	-9.10013
▁gav	-9.10039
▁direkte	-9.10075
▁robert	-9.10118
tiv	-9.10149
film	-9.10197
han	-9.10233
▁lege	-9.10289
▁tak	-9.10289
▁egne	-9.10355
▁komme	-9.10423
▁møte	-9.10469
▁ettersom	-9.10503
▁divisjon	-9.10516
▁internasjonale	-9.10627
▁eldste	-9.10637
▁drept	-9.10638
▁sentrum	-9.10641
▁gate	-9.10749
▁wa	-9.1075
ble	-9.10787
▁sv	-9.10822
dyr	-9.1088
▁politiker	-9.10927
▁bank	-9.11018
▁ke	-9.11051
▁flo	-9.11086
▁viste	-9.11185
▁dannet	-9.11197
▁500	-9.11202
▁vanskelig	-9.11206
▁1989	-9.11209
▁sang	-9.1126
▁engelske	-9.11287
stilling	-9.1136
▁makt	-9.11589
sky	-9.11627
▁rø	-9.11736
up	-9.11839
▁spe	-9.11919
▁blå	-9.1195
ika	-9.1202
▁arter	-9.12088
lev	-9.12096
uk	-9.12142
elt	-9.12156
▁lav	-9.12196
dring	-9.12216
▁eu	-9.12276
▁høyre	-9.12326
▁kilometer	-9.12341
▁representert	-9.12341
▁1988	-9.12348
▁suksess	-9.12569
▁seier	-9.12577
▁mulighet	-9.12752
▁1940	-9.12936
▁mu	-9.12939
res	-9.13088
syn	-9.13135
ung	-9.13194
dy	-9.13327
q	-9.13339
▁vekt	-9.13352
▁jan	-9.13385
▁cor	-9.13492
▁31	-9.13561
▁ett	-9.13622
▁produsert	-9.13628
▁kontroll	-9.13653
ps	-9.13789
pt	-9.13897
▁hal	-9.14002
▁1984	-9.14082
▁lei	-9.14179
▁dansk	-9.14424
kamp	-9.1449
▁van	-9.1461
▁arrangert	-9.1466
▁1995	-9.14669
▁vokst	-9.1467
▁1920	-9.14676
▁dis	-9.14716
▁hel	-9.14783
yn	-9.14795
ita	-9.14903
nings	-9.15003
punkt	-9.15172
▁opprør	-9.15257
▁2013	-9.15261
▁eldre	-9.15263
▁energi	-9.15307
▁japan	-9.15509
▁renn	-9.15676
▁vin	-9.158
ds	-9.15849
fer	-9.15882
leder	-9.1603
▁spor	-9.16084
▁leker	-9.16095
▁johan	-9.16188
tel	-9.16193
▁fu	-9.16202
og	-9.16254
▁larven	-9.16312
▁liste	-9.16316
▁høyeste	-9.16426
▁danske	-9.16446
▁sanger	-9.16508
▁sj	-9.16519
ssen	-9.16572
▁utgjør	-9.16644
▁tittelen	-9.16755
året	-9.1683
▁lands	-9.16836
▁bedre	-9.16922
sjoner	-9.1731
▁benyttet	-9.17404
▁29	-9.17415
▁århundre	-9.17637
fjell	-9.17657
▁fiske	-9.17694
▁angrep	-9.17744
▁skille	-9.17748
▁op	-9.17805
zi	-9.18019
tall	-9.1805
▁start	-9.18147
tok	-9.18296
▁livet	-9.18363
▁elva	-9.18369
all	-9.18395
▁rock	-9.18469
▁slaget	-9.1856
▁sal	-9.18593
banen	-9.18676
▁professor	-9.18852
▁nordlig	-9.18912
ald	-9.18969
▁handels	-9.19149
▁tilhører	-9.19177
▁roma	-9.19205
▁herre	-9.19365
▁dom	-9.19387
▁on	-9.19427
▁nordøst	-9.19468
▁1972	-9.19477
▁sl	-9.19603
▁helse	-9.19605
▁carl	-9.1971
▁grunnlagt	-9.19758
▁tur	-9.19811
nntil	-9.1982
istisk	-9.19822
▁unge	-9.19856
kant	-9.19881
▁hvis	-9.19893
nne	-9.19895
▁os	-9.19934
▁200	-9.19966
▁fange	-9.19975
ich	-9.19983
▁post	-9.20051
yl	-9.20082
▁1900	-9.20083
▁1968	-9.20092
▁poeng	-9.20097
pl	-9.20253
båt	-9.20254
heng	-9.20288
asjonen	-9.20308
che	-9.20346
ana	-9.20382
▁hjemme	-9.20491
lighet	-9.20522
rom	-9.2059
ru	-9.20676
▁københavn	-9.20704
▁finalen	-9.20705
▁dårlig	-9.20705
▁1973	-9.20713
▁1950	-9.20727
▁bill	-9.20802
selskap	-9.20813
▁au	-9.20917
▁mente	-9.20962
▁system	-9.21042
▁sak	-9.21129
▁1983	-9.21339
▁bø	-9.21473
lan	-9.21491
▁lyd	-9.21512
▁mal	-9.21515
▁port	-9.21531
nge	-9.21621
ah	-9.21642
old	-9.21922
▁40	-9.21928
▁voksne	-9.21958
▁1993	-9.21965
▁dro	-9.2201
▁natt	-9.22037
mester	-9.22187
▁lærer	-9.22291
▁tekst	-9.22361
tale	-9.22388
▁sir	-9.22472
▁amerika	-9.22548
▁dyr	-9.22582
▁stockholm	-9.22591
▁betydelig	-9.22592
▁prosent	-9.22596
▁boken	-9.22604
▁1985	-9.22604
▁lille	-9.22655
▁mis	-9.22783
ep	-9.23048
▁sosial	-9.23068
▁sy	-9.23089
▁sen	-9.23104
▁william	-9.23228
▁fil	-9.23236
▁ordet	-9.23248
ister	-9.23351
▁klar	-9.23404
▁mark	-9.23536
▁linje	-9.23551
▁pr	-9.23606
▁brun	-9.2365
▁karriere	-9.23733
▁besto	-9.23754
▁th	-9.23783
▁2014	-9.23879
ini	-9.23965
▁sport	-9.24112
▁rød	-9.24128
▁sky	-9.24154
mengde	-9.24157
stan	-9.24187
▁midten	-9.24262
▁peter	-9.24266
ori	-9.24333
zo	-9.24401
stasjon	-9.2441
øn	-9.24419
▁nett	-9.24462
▁1800	-9.24514
▁sørøst	-9.24516
▁1991	-9.2452
▁tru	-9.24591
fl	-9.24652
▁ber	-9.24668
▁rike	-9.24731
ls	-9.24774
området	-9.24779
▁katolske	-9.24801
▁havn	-9.24819
fall	-9.2489
▁ul	-9.24926
▁von	-9.25033
mm	-9.25045
▁grand	-9.25088
løs	-9.25162
▁omfatter	-9.25164
▁kron	-9.25167
log	-9.252
bygging	-9.2525
bin	-9.2528
▁kunstner	-9.25335
ation	-9.25338
▁viss	-9.25359
▁regionen	-9.25393
▁koloni	-9.25462
▁høyere	-9.25467
ab	-9.25563
▁bal	-9.25565
▁mont	-9.25598
fri	-9.25653
20	-9.25752
▁område	-9.25752
sis	-9.25776
▁trondheim	-9.2582
▁gro	-9.25898
▁jon	-9.25935
▁pave	-9.26015
forening	-9.26114
▁merke	-9.26119
▁gen	-9.26228
▁militære	-9.26228
lene	-9.2625
skip	-9.26315
▁seil	-9.26459
▁nordvest	-9.26478
▁thomas	-9.26503
▁drift	-9.26515
regionen	-9.26643
▁tradisjon	-9.26668
▁britisk	-9.26709
▁biskop	-9.26813
sam	-9.26847
drag	-9.27009
gar	-9.27078
▁bru	-9.27107
▁vår	-9.27141
▁bør	-9.2737
fra	-9.27376
▁arten	-9.2739
alt	-9.27449
▁finner	-9.27537
▁posisjon	-9.27674
▁syv	-9.278
▁studert	-9.27811
▁ferdig	-9.27859
olog	-9.27872
75	-9.27948
▁resten	-9.27971
▁skrive	-9.28008
▁høsten	-9.28269
jen	-9.28299
ologi	-9.28466
▁klasse	-9.28532
▁gren	-9.28598
ale	-9.28599
▁inneholder	-9.28607
red	-9.28608
med	-9.28626
rig	-9.28901
▁br	-9.28941
mand	-9.28967
▁kamper	-9.29008
▁konsert	-9.29064
gl	-9.29074
▁ring	-9.29095
▁hverandre	-9.29151
▁sannsynlig	-9.29151
▁opera	-9.29188
▁møtte	-9.29194
▁offentlig	-9.29271
▁lær	-9.29276
gård	-9.29385
▁gresk	-9.29392
▁kur	-9.29431
▁felt	-9.29575
▁art	-9.29664
jel	-9.2967
▁delta	-9.29874
▁indre	-9.29949
▁leve	-9.30004
▁ve	-9.30012
▁stadig	-9.30057
system	-9.30085
gruppen	-9.30343
▁sta	-9.30361
sjøen	-9.30406
ice	-9.30497
▁kl	-9.30526
▁sesong	-9.3053
▁henrik	-9.30539
▁egentlig	-9.30544
▁industri	-9.30569
▁raskt	-9.30606
fe	-9.30628
▁stasjon	-9.30636
▁mus	-9.30659
▁sha	-9.30662
▁gar	-9.30723
▁stjerne	-9.30994
gle	-9.31006
kla	-9.3105
▁versjon	-9.31067
har	-9.31108
▁1979	-9.31217
▁bøker	-9.31284
pro	-9.31402
▁heller	-9.31464
ara	-9.31599
▁sørlig	-9.31715
liggende	-9.31869
▁rev	-9.31884
▁etterhvert	-9.319
▁1982	-9.3191
▁bur	-9.3191
▁sh	-9.31969
gikk	-9.32047
▁kry	-9.32238
navn	-9.32372
▁funksjon	-9.3245
tru	-9.32484
hy	-9.32498
▁skjer	-9.32522
▁1964	-9.32612
nce	-9.32613
▁ev	-9.32791
▁90	-9.32837
▁faren	-9.33104
ib	-9.33174
▁asia	-9.33184
▁los	-9.33208
▁egypt	-9.33246
▁ste	-9.33291
▁sovjetunionen	-9.33304
▁elev	-9.33512
mel	-9.33633
▁wal	-9.33662
▁finne	-9.33676
medalje	-9.33685
▁avdeling	-9.33714
▁samle	-9.33771
▁dal	-9.33797
▁vol	-9.33824
▁hånd	-9.33859
rus	-9.33859
▁1986	-9.34027
▁1930	-9.34036
▁alder	-9.34057
▁mac	-9.34162
gra	-9.34227
▁trak	-9.34245
ay	-9.34259
▁program	-9.34338
▁forsvar	-9.34383
▁totalt	-9.34421
▁lokale	-9.34429
tyr	-9.3449
▁politi	-9.34623
▁kraft	-9.34638
▁fjerde	-9.34655
ski	-9.34715
▁canada	-9.34731
søk	-9.34815
ding	-9.34993
tjeneste	-9.35073
inne	-9.35366
▁brukte	-9.35428
▁400	-9.35447
▁1945	-9.35455
givelse	-9.35521
▁sammenheng	-9.35539
alder	-9.35623
▁maria	-9.36133
▁hvilke	-9.36171
▁areal	-9.36187
kar	-9.36215
fest	-9.3632
pu	-9.36373
ologisk	-9.36387
istiske	-9.36524
▁plassert	-9.3653
▁sm	-9.36534
lagt	-9.3658
mu	-9.36582
▁svarte	-9.36622
stra	-9.36647
▁regi	-9.36716
▁olje	-9.36725
▁stod	-9.36892
▁østerrike	-9.36902
▁spi	-9.36989
▁opprinnelige	-9.36995
lla	-9.37018
menn	-9.37122
▁kat	-9.37166
▁syd	-9.37289
legg	-9.3729
▁latin	-9.37345
fyl	-9.37349
▁nev	-9.37361
▁cla	-9.37466
port	-9.37469
▁våpen	-9.37533
▁skade	-9.37564
и	-9.37637
▁dronning	-9.3764
▁interesse	-9.37642
▁1975	-9.37656
▁måneder	-9.37674
▁arm	-9.37714
▁feil	-9.37718
▁ep	-9.37772
▁samlet	-9.37833
▁hær	-9.37893
retning	-9.37908
kraft	-9.38022
▁retning	-9.38048
▁svart	-9.38067
vinne	-9.38081
styre	-9.38176
▁anders	-9.38231
ført	-9.38245
▁lenge	-9.38266
▁styrke	-9.38267
skog	-9.38363
▁1976	-9.38388
▁prest	-9.38526
▁xi	-9.38611
ms	-9.38709
grad	-9.38724
▁kroppen	-9.38746
▁havet	-9.38761
▁råd	-9.38925
▁dyp	-9.38927
▁styrker	-9.39019
▁don	-9.39042
▁enhet	-9.39051
rum	-9.39086
▁klart	-9.39115
▁james	-9.39128
▁1974	-9.39136
▁1987	-9.39136
▁spania	-9.3914
pol	-9.39272
▁overtok	-9.39359
▁plan	-9.39492
▁erstattet	-9.39557
ji	-9.39637
ida	-9.39656
▁gran	-9.39681
▁valgte	-9.39758
▁iii	-9.39829
▁lengre	-9.39876
▁sikre	-9.39881
▁verdi	-9.39884
▁1948	-9.3989
▁oppnå	-9.39907
jør	-9.39989
▁enten	-9.40059
tog	-9.40076
▁grensen	-9.40092
▁mur	-9.40137
▁bror	-9.40237
▁endt	-9.40246
▁ii	-9.40255
fag	-9.40288
▁fal	-9.40354
mal	-9.40453
områder	-9.40509
▁lars	-9.40536
▁sc	-9.40588
▁bronse	-9.40631
område	-9.40643
▁fredrik	-9.4066
qui	-9.40685
bane	-9.4077
▁meg	-9.40823
▁kol	-9.40946
dt	-9.40959
▁flat	-9.41143
▁stu	-9.41208
bert	-9.41218
▁mw	-9.41254
▁ønsket	-9.41265
▁besøk	-9.41323
messig	-9.41393
▁1981	-9.41407
tunnel	-9.4141
▁2015	-9.41419
▁fylkesvei	-9.41432
▁alltid	-9.41439
▁sogn	-9.41539
▁skape	-9.41681
▁miljø	-9.41701
▁mege	-9.41702
stid	-9.41755
sak	-9.41842
▁virke	-9.41899
▁nådd	-9.41907
▁skjedde	-9.41949
▁munn	-9.42134
▁trøndelag	-9.42166
▁studie	-9.4221
kra	-9.42243
▁nrk	-9.42451
▁hopp	-9.42471
▁løp	-9.42476
▁tapte	-9.42485
▁skipet	-9.42544
gge	-9.42555
mannen	-9.42621
nett	-9.42644
▁para	-9.42651
▁krav	-9.42674
▁sterkt	-9.4271
kin	-9.42743
virkning	-9.42942
▁2016	-9.42959
▁bakgrunn	-9.42966
▁skyld	-9.42974
▁george	-9.42993
▁kra	-9.4311
▁ag	-9.43224
▁type	-9.43273
▁gode	-9.43277
▁student	-9.43332
▁oppdaget	-9.43358
idae	-9.43379
merke	-9.43431
▁sve	-9.43504
▁60	-9.43515
▁grupper	-9.43538
ille	-9.43602
▁data	-9.43623
▁kanskje	-9.43723
sjef	-9.43732
▁blad	-9.43734
▁bevart	-9.4374
▁martin	-9.43798
▁stemme	-9.43851
▁ang	-9.43855
▁qu	-9.43887
▁mel	-9.44002
vig	-9.44007
▁lære	-9.44024
fon	-9.44103
▁lengde	-9.44105
kjenne	-9.44174
lis	-9.44248
▁stand	-9.44263
▁fe	-9.44386
▁bruke	-9.4444
а	-9.44504
е	-9.4451
▁oppkalt	-9.44512
▁1969	-9.44521
▁statsminister	-9.44522
▁hundre	-9.44525
minister	-9.4454
▁hvit	-9.44631
▁hall	-9.4464
▁oppført	-9.44681
▁olav	-9.44707
gan	-9.44709
▁finland	-9.44815
værende	-9.44966
▁inter	-9.45015
▁vestlig	-9.45038
▁klarte	-9.45094
oc	-9.45138
xi	-9.45144
▁plante	-9.45219
▁båt	-9.45255
eier	-9.45263
▁australia	-9.45303
▁hertug	-9.45306
ör	-9.45347
▁air	-9.4536
ativ	-9.45414
▁nu	-9.4549
pris	-9.45553
▁teksten	-9.45555
▁bilde	-9.45557
asjoner	-9.45566
dømme	-9.45595
▁hed	-9.45604
trolig	-9.45605
familien	-9.45618
▁befolkning	-9.4563
lle	-9.45656
▁west	-9.45685
▁artene	-9.45796
chi	-9.45819
▁erik	-9.4582
organisasjon	-9.45885
virke	-9.45938
selskapet	-9.45972
▁80	-9.45972
ford	-9.45973
▁hår	-9.4599
byen	-9.46115
▁1967	-9.46117
bø	-9.46135
▁lin	-9.46189
her	-9.4634
▁thor	-9.46362
▁gal	-9.46407
▁endret	-9.46463
66	-9.46509
▁jern	-9.46546
▁tall	-9.46548
ial	-9.46685
rike	-9.46783
▁ball	-9.46859
▁beskrive	-9.46952
37	-9.46965
▁union	-9.46966
▁punkt	-9.46979
▁blod	-9.47018
▁varme	-9.47066
▁regel	-9.47084
▁mester	-9.47144
▁str	-9.47322
sser	-9.47397
ismen	-9.47426
▁soldater	-9.47436
▁sub	-9.47448
ark	-9.47493
produksjon	-9.47525
ð	-9.47723
▁kardinal	-9.47723
▁nærmest	-9.47724
▁mc	-9.47736
ins	-9.47736
▁informasjon	-9.47742
▁india	-9.478
▁selskap	-9.47807
tes	-9.47933
▁trykk	-9.47983
▁kle	-9.48012
vid	-9.48041
▁gass	-9.48091
sette	-9.48102
dra	-9.48172
▁hæren	-9.48461
▁relativ	-9.48543
folk	-9.48557
▁standard	-9.48572
▁sun	-9.48617
gruppe	-9.48628
▁bjørn	-9.4871
tårn	-9.48738
▁je	-9.48826
wi	-9.48862
▁valget	-9.48868
▁nivå	-9.491
▁regjering	-9.49106
▁slekten	-9.49143
▁ska	-9.49166
▁drev	-9.49347
kjøp	-9.49349
▁1962	-9.49369
▁skottland	-9.49369
▁tilsvarende	-9.49369
▁kontakt	-9.49372
hr	-9.49474
▁ap	-9.49492
▁david	-9.49559
▁mm	-9.49661
▁dagen	-9.49666
▁super	-9.49681
▁fest	-9.49687
▁problemer	-9.49728
▁stiftet	-9.49794
elser	-9.49809
▁sommeren	-9.49839
▁mod	-9.49867
bra	-9.49971
▁johannes	-9.5011
styrke	-9.50127
ath	-9.5019
sekretær	-9.50202
85	-9.50215
▁you	-9.50227
▁city	-9.5024
▁ven	-9.50251
▁lenger	-9.5048
parti	-9.5048
▁pass	-9.50679
▁sel	-9.50705
▁tom	-9.50723
▁kraftverk	-9.50738
fisk	-9.50747
▁stø	-9.50831
don	-9.50832
▁representant	-9.50878
stall	-9.50949
gren	-9.50956
▁kraftig	-9.51014
forskjell	-9.51042
▁1966	-9.5106
▁maskin	-9.5108
▁historien	-9.51174
▁motstand	-9.51263
▁arkitekt	-9.51321
under	-9.51368
▁fremst	-9.51371
▁nederland	-9.51417
arbeider	-9.51679
nor	-9.51799
▁sentrale	-9.51829
▁syk	-9.51858
▁produsere	-9.5189
▁kristne	-9.51895
▁1971	-9.519
▁populær	-9.52087
▁af	-9.52168
▁sjef	-9.52168
▁legge	-9.52172
▁forsøkt	-9.52198
itz	-9.52214
▁q	-9.52298
▁anlegget	-9.52332
mus	-9.52469
▁stra	-9.52552
ritt	-9.52589
kast	-9.52674
▁real	-9.52732
▁ytterligere	-9.52744
▁størrelse	-9.52793
skolen	-9.52836
▁finsk	-9.52844
▁snar	-9.52888
ekte	-9.52924
cia	-9.53041
▁huset	-9.5307
krigen	-9.53088
▁styrkene	-9.53142
▁tele	-9.53251
▁historiske	-9.53343
▁col	-9.5342
▁war	-9.53427
satte	-9.53511
▁pol	-9.53566
▁fotballspiller	-9.53639
las	-9.53665
▁kroner	-9.53737
▁hvite	-9.53923
hall	-9.53987
▁avis	-9.54025
▁bolig	-9.54059
loven	-9.5409
▁lage	-9.54148
gående	-9.54155
86	-9.54191
▁utstyr	-9.5434
▁red	-9.54433
▁1936	-9.54476
▁1963	-9.54476
▁vunnet	-9.54476
▁stavanger	-9.54487
▁betegnelsen	-9.54499
▁brann	-9.54527
▁ytre	-9.54571
fil	-9.54574
▁fulgte	-9.54669
▁pri	-9.5467
▁sende	-9.5469
▁island	-9.54711
▁grå	-9.54716
▁venn	-9.54719
▁sette	-9.54754
we	-9.54779
▁turn	-9.54826
vern	-9.54869
▁chi	-9.54904
▁krets	-9.55063
spor	-9.55131
▁region	-9.55161
vitenskap	-9.55294
▁300	-9.55353
▁omfattende	-9.55353
р	-9.55353
▁sørvest	-9.55355
▁1924	-9.55363
▁gjenopp	-9.55381
▁fordel	-9.55515
▁samling	-9.55648
tion	-9.55932
▁rik	-9.56172
stol	-9.56187
skrift	-9.56191
▁slike	-9.56219
▁college	-9.56244
tegn	-9.56356
kal	-9.56456
ola	-9.56549
▁daglig	-9.56621
▁liga	-9.56699
▁jorden	-9.56751
▁kilde	-9.568
senter	-9.5681
felt	-9.56856
▁karakter	-9.56955
▁moh	-9.57007
▁israel	-9.57054
▁strøm	-9.57105
▁stortinget	-9.57135
▁lengst	-9.57135
▁femte	-9.57138
▁bad	-9.5721
stikk	-9.57259
musikk	-9.57318
liv	-9.57391
▁wo	-9.5743
▁les	-9.57545
▁naturlig	-9.57577
lser	-9.57598
▁fylkes	-9.57623
gangen	-9.57709
fekt	-9.57822
figur	-9.5792
▁kjempe	-9.57928
navnet	-9.57931
о	-9.58028
rin	-9.58029
▁ordfører	-9.58048
ria	-9.58053
▁nåværende	-9.58112
▁variant	-9.58119
▁ban	-9.58157
▁privat	-9.58212
▁innført	-9.58216
▁fot	-9.58319
▁spesial	-9.58328
gna	-9.58349
▁nabo	-9.58375
endte	-9.5841
▁irland	-9.58423
▁undersøkelse	-9.58468
▁stammer	-9.58604
▁design	-9.58624
55	-9.58887
▁bind	-9.589
▁1977	-9.58951
▁1952	-9.58956
▁1947	-9.58958
▁åpne	-9.58975
▁teori	-9.58981
ire	-9.59015
▁verne	-9.59042
▁polen	-9.5907
48	-9.59088
▁modell	-9.59137
▁fjorden	-9.59254
▁hovedstaden	-9.5933
▁tittel	-9.59369
▁kors	-9.59469
organ	-9.59535
▁årlig	-9.59548
▁effekt	-9.59616
▁politikk	-9.59654
vesen	-9.59696
ban	-9.59705
▁uavhengig	-9.59721
▁1938	-9.59868
▁1944	-9.59875
▁mari	-9.59891
▁reiste	-9.59905
▁mos	-9.59909
▁sterk	-9.59932
▁dia	-9.59962
▁utført	-9.60113
▁dans	-9.60118
▁operasjon	-9.60121
ming	-9.60207
▁henhold	-9.60276
▁dy	-9.60351
▁70	-9.60393
way	-9.6041
▁redaktør	-9.60449
▁museum	-9.60451
▁offisielle	-9.60536
cc	-9.60539
▁ledd	-9.60541
▁konkurranse	-9.60585
▁fremdeles	-9.60785
▁1965	-9.60793
▁1978	-9.60795
▁foreldre	-9.60796
lie	-9.6083
▁egg	-9.60833
▁nasjonale	-9.61016
▁behandling	-9.61037
▁status	-9.61042
▁jobb	-9.61084
▁begrepet	-9.6114
▁bern	-9.6123
▁tett	-9.61233
lling	-9.61247
▁skapt	-9.61284
47	-9.61312
abel	-9.61319
▁utvidet	-9.61322
▁utdanne	-9.61391
bud	-9.61397
▁jobbet	-9.61467
▁viktige	-9.61511
ix	-9.61522
ub	-9.61547
ari	-9.61629
trykk	-9.61645
▁kyst	-9.61673
▁1500	-9.61719
▁national	-9.61719
mund	-9.61733
▁jens	-9.61735
▁nevnt	-9.61743
lys	-9.61757
▁nærheten	-9.61769
▁grenser	-9.61825
▁frank	-9.61839
haug	-9.61867
▁bass	-9.61904
▁us	-9.61943
▁folkerepublikk	-9.61966
fart	-9.61979
▁bir	-9.61995
▁spørsmål	-9.62076
ild	-9.62154
midler	-9.62169
huset	-9.62254
▁japansk	-9.62261
64	-9.62317
▁bla	-9.62328
▁års	-9.62378
▁transport	-9.62382
72	-9.62508
samling	-9.6251
▁1912	-9.62671
▁1956	-9.62677
▁1946	-9.62678
▁kysten	-9.6274
cy	-9.62745
▁kh	-9.62798
▁euro	-9.62837
▁dø	-9.62904
kysten	-9.62905
▁selve	-9.62925
retten	-9.62931
▁trans	-9.62938
▁tanke	-9.63037
▁ex	-9.63181
brudd	-9.63237
ros	-9.63237
▁aktivitet	-9.63315
▁ramme	-9.63333
▁elve	-9.63353
nyin	-9.63359
▁formel	-9.63363
havet	-9.63468
▁salg	-9.6347
▁bj	-9.63526
▁nærings	-9.6359
44	-9.63609
▁opprinnelse	-9.63615
ā	-9.63615
ze	-9.6363
▁1949	-9.6363
former	-9.63665
▁son	-9.63787
▁hodet	-9.63896
▁plassering	-9.63968
senteret	-9.63991
▁byer	-9.64025
rud	-9.64398
anlegg	-9.64422
▁grense	-9.64423
▁klubb	-9.64429
▁stilling	-9.64441
▁folket	-9.64475
▁gru	-9.64482
▁utviklingen	-9.64518
▁vist	-9.64568
▁nødvendig	-9.64576
▁debutert	-9.64587
▁musikkalbum	-9.64589
är	-9.6461
univers	-9.64613
bevegelsen	-9.64629
bladet	-9.64654
zhou	-9.6471
▁christ	-9.64753
▁østlig	-9.64838
▁120	-9.65132
▁ac	-9.65293
tus	-9.65294
jon	-9.65395
▁skrift	-9.65419
hl	-9.65537
▁1939	-9.65558
▁unntak	-9.65566
▁gjennomført	-9.6563
▁borger	-9.65654
systemet	-9.65657
våpen	-9.65686
▁rot	-9.65738
▁anne	-9.65741
▁eier	-9.65773
▁fabrikk	-9.65788
▁sterke	-9.6584
▁hest	-9.65852
verket	-9.65929
▁slå	-9.65933
▁gått	-9.65983
▁problem	-9.65986
forbund	-9.66067
▁nederlandsk	-9.66104
▁akademi	-9.66137
▁sveits	-9.66196
▁sier	-9.66228
▁gården	-9.66259
▁nr	-9.66288
grense	-9.66366
▁gård	-9.66396
▁vanlige	-9.66413
eres	-9.6643
▁finans	-9.66471
trekk	-9.66498
▁religion	-9.66528
▁flagg	-9.66554
▁cm	-9.66578
▁bodde	-9.66642
▁fro	-9.66667
▁athen	-9.66763
▁oppdrag	-9.66768
▁vind	-9.66817
▁vold	-9.66833
▁tettsted	-9.66859
▁eid	-9.66868
▁uke	-9.66874
▁begynner	-9.67024
▁cup	-9.67197
▁dyre	-9.6729
▁za	-9.67374
▁gjelder	-9.67429
▁personlig	-9.67436
▁klassisk	-9.67519
▁bronsemedalje	-9.67529
▁1959	-9.67533
▁sommerfugl	-9.67543
fugl	-9.67571
▁korea	-9.67572
43	-9.67624
grunn	-9.67665
▁forfatteren	-9.67781
▁symbol	-9.67823
linje	-9.67852
▁nasjon	-9.68031
▁bane	-9.68039
▁total	-9.68112
▁røde	-9.68155
rykket	-9.68259
prisen	-9.68264
iti	-9.68343
▁forsvars	-9.68379
▁can	-9.68504
▁fengsel	-9.68518
▁sølvmedalje	-9.68535
▁vitenskapelig	-9.68565
spiss	-9.68579
▁rad	-9.6858
sler	-9.68603
dagen	-9.68608
lly	-9.68645
87	-9.68661
▁kommet	-9.68665
kjempe	-9.68674
industri	-9.68715
kunst	-9.68746
reis	-9.68755
grav	-9.68889
▁not	-9.68931
▁avisen	-9.68982
ora	-9.69063
▁organisasjonen	-9.69069
stoff	-9.6911
▁adel	-9.69231
▁kontrakt	-9.69238
tta	-9.69311
70	-9.69488
▁utbredt	-9.69528
▁kunnskap	-9.69529
▁1958	-9.69543
sket	-9.69587
▁løv	-9.69651
▁base	-9.69725
trop	-9.69878
blokk	-9.69887
▁prøve	-9.70001
esse	-9.70036
▁tung	-9.70071
slaget	-9.7009
skapet	-9.70106
▁sluttet	-9.70158
▁distrikt	-9.70207
▁høyt	-9.70283
▁stav	-9.70304
▁metall	-9.70331
▁forteller	-9.70362
rådet	-9.7038
que	-9.70404
▁prisen	-9.70424
▁het	-9.70448
▁økonomi	-9.70449
▁stilt	-9.70471
▁beskytte	-9.70473
språk	-9.70496
▁ansvar	-9.70545
▁publisert	-9.70548
▁richard	-9.70549
▁ekteskap	-9.70556
▁omtalt	-9.7058
▁35	-9.70588
▁mas	-9.70715
▁bygde	-9.70743
▁bygningen	-9.70904
▁ji	-9.70918
▁time	-9.71012
▁prosjekt	-9.71048
▁skips	-9.7121
▁drive	-9.71228
▁vis	-9.71355
levende	-9.7139
▁ob	-9.71424
aktig	-9.71437
▁middelalderen	-9.71505
▁øyene	-9.71515
▁spanske	-9.7154
▁øvre	-9.7158
▁faktisk	-9.71582
▁fokus	-9.71582
▁metode	-9.71595
▁kart	-9.71662
linjen	-9.71741
▁kongelige	-9.71753
klubb	-9.71857
▁andreplass	-9.71978
udi	-9.7203
▁derimo	-9.72037
▁bord	-9.72086
67	-9.72096
74	-9.72119
▁kap	-9.72132
▁fører	-9.72163
gri	-9.72202
▁ting	-9.72239
▁runde	-9.72252
▁økt	-9.72297
▁programmet	-9.72297
▁utdanning	-9.72305
▁studenter	-9.72398
▁ishockey	-9.72621
▁mexico	-9.72621
▁beijing	-9.72621
▁tydelig	-9.72623
▁melodi	-9.72624
▁snakke	-9.7264
▁hoff	-9.72837
elva	-9.73022
hal	-9.73048
▁løs	-9.73055
▁fla	-9.73119
▁forskning	-9.73126
94	-9.73131
▁internasjonal	-9.73179
▁følger	-9.73231
gav	-9.73241
holm	-9.73328
▁tettstedet	-9.73352
▁utover	-9.73355
▁sovjetisk	-9.73422
▁hovedstad	-9.73474
af	-9.73538
▁forut	-9.73543
▁politiet	-9.73645
▁arabisk	-9.73674
▁betrakte	-9.73675
▁mistet	-9.73702
▁stille	-9.73752
▁gutt	-9.73806
▁mottok	-9.73904
▁motsetning	-9.73952
▁historisk	-9.74008
tag	-9.74083
▁salt	-9.74156
▁årsak	-9.74177
▁festival	-9.74195
▁stasjonen	-9.74327
oll	-9.74394
▁borg	-9.74417
ction	-9.74449
▁sur	-9.74542
▁vinner	-9.74632
▁tj	-9.74663
lv	-9.74675
60	-9.74678
▁original	-9.74737
▁1700	-9.74737
▁1942	-9.74737
▁600	-9.74737
▁800	-9.74737
▁representere	-9.74737
▁brøt	-9.7474
▁1961	-9.74753
▁søster	-9.7476
▁2017	-9.74761
▁sil	-9.74766
field	-9.74775
▁stoppe	-9.74857
▁riksvei	-9.7486
▁nar	-9.74888
▁heter	-9.749
▁våren	-9.74926
▁oppgave	-9.74939
▁sort	-9.74984
formet	-9.75042
pel	-9.75055
historie	-9.75069
09	-9.75159
52	-9.75174
49	-9.75176
▁bel	-9.752
▁presse	-9.75225
følgende	-9.75244
▁grøn	-9.75268
imot	-9.75299
shire	-9.75359
▁vet	-9.75366
nch	-9.7545
▁samfunns	-9.75461
▁musiker	-9.7552
▁prins	-9.75572
▁virksomhet	-9.75607
▁mid	-9.75622
ula	-9.75626
hel	-9.7563
rev	-9.75666
ios	-9.75683
partiet	-9.75769
▁endre	-9.75776
▁gangen	-9.75778
iserte	-9.75779
▁berømt	-9.75813
▁ungarn	-9.75813
▁oversikt	-9.75814
▁1955	-9.75833
▁direktør	-9.75904
▁flykte	-9.75915
mennene	-9.7593
▁ungdom	-9.76026
▁ankom	-9.76029
fører	-9.76039
▁ph	-9.76061
▁sund	-9.76078
▁journalist	-9.76084
last	-9.76114
▁vendt	-9.76118
57	-9.76142
▁avhengig	-9.76151
nivå	-9.76199
bygning	-9.76203
tti	-9.76256
▁sykehus	-9.76295
ther	-9.76348
▁hente	-9.76383
▁fc	-9.76475
46	-9.76551
▁odd	-9.76568
▁180	-9.76589
fu	-9.76623
▁trekke	-9.76646
deling	-9.76665
▁fjellet	-9.76705
▁selvstendig	-9.76777
▁mol	-9.76783
56	-9.76803
kler	-9.76811
▁vannet	-9.76856
ved	-9.76894
▁elektrisk	-9.769
▁league	-9.769
▁bokstav	-9.76901
▁1928	-9.76907
▁jazz	-9.76912
side	-9.76916
▁1954	-9.76917
▁1957	-9.76917
▁kanon	-9.76941
▁veldig	-9.76953
▁hell	-9.76965
▁opphav	-9.76969
▁kris	-9.77
▁drama	-9.77013
løpet	-9.77026
▁fyr	-9.77046
▁likhet	-9.77069
53	-9.7708
▁arv	-9.77109
41	-9.77132
hund	-9.77157
kirke	-9.77191
▁institutt	-9.77262
kommune	-9.7733
are	-9.77381
▁erobret	-9.77413
band	-9.77481
bilde	-9.77489
▁ung	-9.77554
iz	-9.77615
skifte	-9.77719
ino	-9.77755
wood	-9.77864
▁materiale	-9.77908
▁1932	-9.77998
▁allierte	-9.77999
▁united	-9.77999
▁produsent	-9.7803
▁strid	-9.78038
▁jordbruk	-9.78047
▁angeles	-9.78083
org	-9.78113
▁lavere	-9.78194
grep	-9.78228
▁oftest	-9.78263
54	-9.78275
90	-9.78276
veg	-9.78284
▁åpen	-9.78292
▁smal	-9.78311
▁høye	-9.78319
▁grunnlag	-9.78371
▁preget	-9.78381
▁georg	-9.78454
▁tidlige	-9.78558
79	-9.78703
korps	-9.78703
▁greske	-9.78729
▁distriktet	-9.78749
5	-9.78756
rey	-9.78803
gift	-9.7881
ografi	-9.78948
▁kjøpe	-9.79058
az	-9.79094
▁praksis	-9.7911
▁tilgjengelig	-9.7911
▁kritikk	-9.7911
▁situasjon	-9.79111
▁fattig	-9.79111
regnet	-9.79116
▁zh	-9.79195
05	-9.79201
▁star	-9.7921
▁yngre	-9.79245
▁formann	-9.79311
▁anta	-9.79342
▁hit	-9.79425
ani	-9.79511
▁øke	-9.79538
fær	-9.7955
serien	-9.79567
▁cap	-9.79572
▁hor	-9.79609
▁lund	-9.79618
▁veg	-9.79671
ade	-9.7968
▁masse	-9.79722
▁klo	-9.7977
35	-9.79793
stått	-9.79917
trådte	-9.80117
vekt	-9.80132
21	-9.80144
ansk	-9.80161
è	-9.80194
fo	-9.80203
▁innflytelse	-9.80227
▁livs	-9.80253
▁pen	-9.80276
▁len	-9.80322
hav	-9.8033
ap	-9.80331
▁behov	-9.80342
▁hjelpe	-9.80384
▁falt	-9.80489
bunn	-9.80496
▁she	-9.80657
▁samfunnet	-9.80679
▁ekspedisjon	-9.80706
▁konkurransen	-9.80719
▁dømt	-9.80795
▁mak	-9.80856
▁områdene	-9.80897
▁sju	-9.80956
▁sist	-9.80967
ville	-9.81016
▁bosatt	-9.81089
▁uttrykk	-9.81146
▁offentlige	-9.81179
▁tromsø	-9.81334
▁korte	-9.81358
▁komponist	-9.81369
▁sportsutøver	-9.81369
▁wilhelm	-9.81369
▁installert	-9.8137
▁episode	-9.81371
▁1908	-9.81386
▁sider	-9.81401
▁profesjonell	-9.81408
delt	-9.81421
▁jevn	-9.81442
ledning	-9.81453
▁hve	-9.81453
▁hellas	-9.8146
59	-9.81478
▁skatte	-9.81486
▁tropp	-9.81543
øyene	-9.81546
▁delvis	-9.81577
▁nærmer	-9.81579
76	-9.81738
▁rollen	-9.81767
▁fisk	-9.81883
▁lese	-9.81919
kontor	-9.81973
våg	-9.82124
▁ek	-9.82146
strand	-9.82322
▁lind	-9.82376
hn	-9.82419
▁win	-9.82427
▁benyttes	-9.82455
▁1951	-9.82519
▁utgangspunkt	-9.82519
▁alvorlig	-9.82519
▁lansert	-9.8253
▁video	-9.82531
▁solo	-9.82533
hjul	-9.82545
▁svak	-9.82597
▁bosetning	-9.82639
án	-9.82642
løse	-9.82716
80	-9.82757
▁press	-9.82787
ira	-9.82825
▁typer	-9.82856
▁holm	-9.82919
▁republikken	-9.82975
▁nils	-9.8298
ky	-9.83006
ral	-9.83068
lia	-9.83084
jan	-9.83093
▁opphold	-9.83308
gon	-9.834
stri	-9.83455
▁handel	-9.83518
▁off	-9.83527
▁produkt	-9.83588
arter	-9.83625
▁spesiell	-9.83682
▁single	-9.83692
▁1927	-9.83692
▁cirk	-9.83721
akk	-9.83732
▁spill	-9.83739
▁black	-9.83753
61	-9.83761
plassen	-9.83774
▁jakt	-9.83881
▁passer	-9.8392
vor	-9.84072
▁ze	-9.84088
▁turner	-9.84121
83	-9.84162
▁kull	-9.84165
15	-9.84204
prosess	-9.84208
▁rekord	-9.84219
▁bidra	-9.84354
▁hei	-9.84362
innen	-9.84414
▁lan	-9.8448
vende	-9.84587
▁populære	-9.84791
minne	-9.84792
▁brev	-9.84816
instrument	-9.84824
▁lån	-9.84848
н	-9.8485
▁1000	-9.84858
▁erkebiskop	-9.84859
▁hjerte	-9.8486
▁planlagt	-9.84874
▁primær	-9.84876
▁vitenskap	-9.84882
▁kam	-9.85019
saker	-9.85071
ringen	-9.85078
68	-9.85134
stø	-9.85243
69	-9.85285
gne	-9.85318
▁grev	-9.8539
▁riket	-9.85464
▁uker	-9.85465
▁søke	-9.85467
▁char	-9.85481
▁tour	-9.8552
▁fugle	-9.8552
08	-9.8554
58	-9.85634
bet	-9.85679
ali	-9.85799
▁kontor	-9.85877
▁lot	-9.8589
▁ya	-9.85917
▁ungdoms	-9.86001
offisielt	-9.86049
▁1600	-9.86049
▁records	-9.86049
▁tilknytning	-9.86049
▁moskva	-9.86049
▁tidspunkt	-9.86061
▁ansatt	-9.86077
▁skje	-9.86129
▁landskapet	-9.86134
▁avstand	-9.86135
▁markert	-9.86142
▁spillet	-9.86157
▁tredjeplass	-9.8621
▁tolv	-9.86259
▁organisert	-9.86267
▁gjeste	-9.86354
▁teknisk	-9.86371
▁kjøre	-9.86386
feltet	-9.8639
95	-9.8642
▁inntekt	-9.86443
▁plu	-9.86614
73	-9.86615
bjørn	-9.86641
plikt	-9.86719
▁enda	-9.86778
▁arve	-9.86811
▁fremme	-9.8684
▁tonn	-9.86899
▁sw	-9.8694
well	-9.87007
▁omtale	-9.87172
▁cr	-9.8718
kka	-9.8725
▁school	-9.87254
▁louis	-9.87254
▁1953	-9.87273
▁1943	-9.87275
▁elv	-9.87276
▁kristen	-9.87316
▁banen	-9.87415
▁ansatte	-9.87451
program	-9.87489
▁pra	-9.87523
▁bob	-9.87645
ulykke	-9.87665
▁ram	-9.87694
▁anton	-9.87764
▁fremste	-9.87765
▁fjern	-9.87863
festival	-9.87871
▁støttet	-9.8793
stripe	-9.87955
▁kjøpte	-9.87968
dam	-9.88
arm	-9.88029
▁sent	-9.88129
▁idretts	-9.88219
▁ære	-9.88258
▁tale	-9.88262
▁rute	-9.88345
▁epi	-9.88413
▁tilknytte	-9.88473
▁län	-9.88475
▁spredt	-9.88476
▁1919	-9.8849
▁bidro	-9.88498
▁jarl	-9.88517
øs	-9.88538
▁eiendom	-9.88566
rommet	-9.88586
▁stol	-9.8868
▁polsk	-9.88719
▁leir	-9.88744
▁lek	-9.88756
▁gla	-9.88801
▁formål	-9.88877
▁king	-9.88895
▁minutter	-9.88951
delen	-9.88997
▁reist	-9.89081
▁penger	-9.89238
▁temperatur	-9.89238
▁tilfeller	-9.89269
▁harald	-9.89333
▁forble	-9.89341
▁45	-9.89567
▁fylket	-9.89632
▁ordenen	-9.89669
▁flyplass	-9.8968
▁artikkel	-9.89708
▁california	-9.89708
▁sjelden	-9.89708
▁element	-9.89713
▁bevegelse	-9.89715
parten	-9.89727
▁1941	-9.89727
▁skilt	-9.89746
19	-9.8976
▁tusen	-9.90052
▁dynastiet	-9.9008
kle	-9.90167
▁økte	-9.90217
bor	-9.90248
▁historiker	-9.90248
▁synes	-9.90372
krets	-9.90431
hag	-9.90449
holdt	-9.90474
▁lau	-9.90477
jev	-9.90482
▁forsvaret	-9.90521
92	-9.90591
▁aller	-9.90594
økonom	-9.90599
▁betegne	-9.90638
▁hode	-9.90681
▁strand	-9.90716
82	-9.9072
▁anna	-9.90736
dorf	-9.90738
▁kvinnelig	-9.90742
▁test	-9.90886
▁således	-9.90958
▁magnus	-9.90959
▁royal	-9.9096
▁skotsk	-9.90984
skriv	-9.90992
hode	-9.91057
▁kir	-9.9108
hov	-9.91201
▁haug	-9.91276
lapp	-9.91279
▁verket	-9.91413
kur	-9.915
▁33	-9.91512
rang	-9.91536
▁medlemmene	-9.91539
▁shi	-9.91621
▁organisasjon	-9.91702
fang	-9.91771
▁motiv	-9.91819
▁ky	-9.91831
▁fn	-9.91906
▁lignende	-9.91906
▁orkester	-9.91955
▁beseiret	-9.92223
▁1933	-9.92223
▁michael	-9.92223
▁belgia	-9.92224
▁redusert	-9.92224
▁frederik	-9.92227
▁norrøn	-9.92227
trykt	-9.92233
kilde	-9.92247
▁bygning	-9.92284
▁mottatt	-9.92293
gjøre	-9.92397
▁sykdom	-9.92425
vatnet	-9.92501
▁green	-9.92644
drevet	-9.92649
▁vekst	-9.92668
▁ask	-9.93017
▁kg	-9.93108
kampen	-9.93148
▁offiser	-9.9319
▁kandidat	-9.93281
▁oppdag	-9.93296
stedet	-9.93335
▁stoff	-9.93385
lov	-9.93456
handel	-9.93471
▁toppen	-9.93483
▁ledelse	-9.93497
▁inspirert	-9.93505
▁positiv	-9.93505
▁edvard	-9.93506
▁skaffe	-9.93518
▁fordelt	-9.93519
▁1905	-9.93525
▁fullført	-9.93529
▁kongedømme	-9.93533
▁tvunge	-9.93539
stasjonen	-9.93573
▁kammer	-9.93651
▁jean	-9.93718
▁preste	-9.9376
plasser	-9.93799
ksjonen	-9.93865
▁sul	-9.93895
▁ansett	-9.93902
▁maler	-9.93923
ova	-9.93935
eringen	-9.93947
▁scoret	-9.93953
▁dekket	-9.9401
18	-9.94071
▁sønnen	-9.94103
▁internasjonalt	-9.94133
▁ønsker	-9.94154
▁tradisjonelle	-9.94159
▁markeds	-9.94169
▁ansvarlig	-9.94204
slutning	-9.94235
▁iso	-9.94242
miljø	-9.94286
tis	-9.94395
lid	-9.94399
forhold	-9.94481
▁bol	-9.94495
▁yu	-9.94513
▁snø	-9.94618
lang	-9.94642
81	-9.94694
▁diplom	-9.94804
▁jødisk	-9.94806
▁typisk	-9.94807
▁friidrett	-9.9483
▁fartøy	-9.9489
▁religiøse	-9.94895
gard	-9.94896
▁tørr	-9.94908
low	-9.95027
voll	-9.9506
▁ube	-9.95116
▁saken	-9.95156
▁kalle	-9.95193
periode	-9.95242
▁øverste	-9.95243
▁bredd	-9.95251
▁forskere	-9.95331
person	-9.95479
▁tema	-9.95539
mos	-9.95544
▁avsluttet	-9.95562
▁bevis	-9.95568
ij	-9.95591
▁tenn	-9.95602
▁ind	-9.95604
▁teknologi	-9.9562
▁regional	-9.95762
▁rapport	-9.95793
▁måned	-9.96067
▁fungerte	-9.9612
▁fødsel	-9.9612
▁ukjent	-9.9612
▁innsats	-9.96122
▁passasjer	-9.96125
▁håndball	-9.96129
▁hemmelig	-9.9613
▁båten	-9.96134
▁1926	-9.96134
97	-9.96167
eksamen	-9.96196
analyse	-9.96198
bær	-9.96219
▁rund	-9.96251
▁deltaker	-9.96255
ifisert	-9.9627
▁ran	-9.96342
▁vid	-9.96376
▁selge	-9.96449
▁bygninger	-9.96459
▁utmerke	-9.96472
▁pop	-9.96492
▁tog	-9.96515
ney	-9.96611
▁øyer	-9.96628
▁dobbelt	-9.96672
▁stift	-9.96759
▁arts	-9.96772
staten	-9.96903
▁innsjøen	-9.96914
▁debut	-9.96989
▁løper	-9.96993
▁spar	-9.97016
▁jag	-9.97026
▁max	-9.97112
▁buss	-9.97178
the	-9.97247
enberg	-9.97285
▁up	-9.97289
gata	-9.97295
▁regjerings	-9.97316
▁redde	-9.97374
ati	-9.97425
▁administrativ	-9.97453
▁dokumenter	-9.97453
▁fullstendig	-9.97453
▁international	-9.97453
▁tilhørte	-9.97453
▁premier	-9.97457
▁innspilling	-9.9746
▁south	-9.97462
▁1918	-9.97471
enhet	-9.97472
▁saint	-9.97479
▁viking	-9.97488
▁nan	-9.97525
▁forholdet	-9.97553
▁sø	-9.97569
▁former	-9.9757
▁unn	-9.97605
parken	-9.97742
▁rygg	-9.97765
▁est	-9.97849
▁irsk	-9.97936
▁studier	-9.97955
▁anlegg	-9.98079
▁sten	-9.98099
22	-9.98122
▁gall	-9.98138
▁funn	-9.98155
gram	-9.98168
▁gard	-9.98174
▁overfor	-9.98174
vogn	-9.98228
▁rå	-9.98242
▁trafikk	-9.9832
distrikt	-9.98338
vekst	-9.98366
▁innsjø	-9.98422
▁bevege	-9.98442
▁grei	-9.98463
liste	-9.98488
▁private	-9.98536
25	-9.9854
▁harry	-9.98671
bakk	-9.98687
▁møter	-9.98693
▁ark	-9.98741
▁cent	-9.98775
▁skudd	-9.98775
▁initiativ	-9.98805
▁daniel	-9.98845
▁tronen	-9.98862
▁styret	-9.98867
▁albert	-9.98908
sberg	-9.98914
▁hud	-9.98952
▁mad	-9.98983
▁spansk	-9.99023
▁akt	-9.99056
▁un	-9.99101
▁helge	-9.9911
ign	-9.99219
▁gruve	-9.99348
▁beskrevet	-9.9937
▁endelig	-9.99381
▁mørke	-9.99407
plate	-9.9943
▁gyl	-9.995
lund	-9.99504
▁bakken	-9.99509
▁nedre	-9.99642
▁senter	-9.99717
forsker	-9.99762
handlet	-9.99869
▁kreft	-9.99969
▁filosofi	-10.0002
ér	-10.0003
▁fløy	-10.0003
pur	-10.0005
71	-10.0005
▁utføre	-10.001
▁turneringen	-10.0013
▁alternativ	-10.0017
▁involvert	-10.0017
▁folketelling	-10.0018
▁nedbør	-10.0018
▁fysisk	-10.0018
▁1922	-10.0019
▁mytologi	-10.002
▁skiftet	-10.0021
▁1910	-10.0022
▁stortings	-10.0026
▁flekk	-10.0027
▁arkitektur	-10.0027
▁knut	-10.0039
▁søkt	-10.0047
trekning	-10.0047
▁tekster	-10.0047
▁normalt	-10.0048
herre	-10.0058
▁borgerkrig	-10.0061
▁tids	-10.0064
gaard	-10.0065
ada	-10.0072
▁sku	-10.0091
▁filmer	-10.0094
▁cal	-10.0099
▁oversatt	-10.0105
▁horn	-10.0106
▁venner	-10.0111
▁sær	-10.0113
middel	-10.0113
virksomhet	-10.0113
forbindelse	-10.0114
▁bydelen	-10.0114
serie	-10.0121
gende	-10.0127
▁bud	-10.0131
▁mill	-10.0136
▁nes	-10.0152
typen	-10.0155
ledd	-10.0156
magasin	-10.0156
▁publikum	-10.0156
arrangement	-10.0156
▁antagelig	-10.0156
▁world	-10.0156
▁regissert	-10.0156
▁oscar	-10.0156
▁ridder	-10.0157
▁tegneserie	-10.0157
▁otto	-10.0158
▁charles	-10.0159
gate	-10.016
▁meldt	-10.0161
▁bibel	-10.0165
▁åpning	-10.0168
▁grunnlegge	-10.0171
▁sammenlagt	-10.0172
pan	-10.0173
▁timer	-10.0184
▁tyskerne	-10.0185
kirken	-10.0189
mur	-10.0191
bank	-10.0196
▁maur	-10.0197
▁ein	-10.0203
▁unna	-10.0207
ball	-10.0219
hm	-10.022
▁32	-10.0224
kreis	-10.0225
spi	-10.0226
▁mesterskapet	-10.0231
gått	-10.0233
▁bølge	-10.0234
▁linjen	-10.0243
▁nordland	-10.0252
▁atom	-10.0254
jiang	-10.0255
møte	-10.026
lom	-10.0261
syre	-10.0263
▁mini	-10.0263
hai	-10.0268
▁enkle	-10.0277
rolle	-10.0279
▁song	-10.0283
▁salme	-10.0292
▁malt	-10.0294
▁tradisjonel	-10.0295
▁studio	-10.0297
▁1904	-10.0297
▁østerriksk	-10.0297
▁generelt	-10.0297
▁uvanlig	-10.0297
▁himmel	-10.0297
▁vokser	-10.0297
▁tidsskrift	-10.0298
▁landsby	-10.0298
▁sverd	-10.0301
▁videregående	-10.0301
snitt	-10.0306
89	-10.0306
▁landslaget	-10.031
▁tverr	-10.031
▁keiseren	-10.0313
▁registrert	-10.0313
▁team	-10.0314
▁verker	-10.0314
litt	-10.0324
skatt	-10.0327
▁kanal	-10.0331
kkel	-10.0335
▁parlamentet	-10.0342
trafikk	-10.0346
▁che	-10.0348
▁cd	-10.0355
later	-10.0355
alitet	-10.0356
98	-10.0358
45	-10.0366
▁forsknings	-10.0372
▁mørk	-10.0378
nær	-10.0382
ano	-10.0384
ernes	-10.0395
▁bibliotek	-10.0396
kapasitet	-10.0401
▁kommuner	-10.0402
avdeling	-10.0405
▁straffe	-10.0407
▁dato	-10.0412
▁velge	-10.0416
angrep	-10.042
post	-10.0421
▁dommer	-10.0425
34	-10.0435
▁front	-10.044
▁svømme	-10.044
▁bispedømme	-10.044
▁snu	-10.0441
▁1934	-10.0442
▁1915	-10.0442
▁hustru	-10.0445
▁nedlagt	-10.045
shi	-10.0451
▁listen	-10.0453
▁angrepet	-10.046
butikk	-10.0466
▁ekstra	-10.0468
16	-10.0471
strekker	-10.0476
▁irak	-10.0476
▁nordisk	-10.0478
▁utgave	-10.0482
▁nordover	-10.0483
▁wat	-10.0485
ische	-10.0489
▁vii	-10.0491
oni	-10.0493
▁fortsette	-10.0494
▁bombe	-10.0502
klassen	-10.0508
▁hydro	-10.0511
grupper	-10.0511
▁utsatt	-10.0515
ish	-10.0529
88	-10.053
turbin	-10.0535
nik	-10.0538
▁150	-10.0538
▁od	-10.0538
ura	-10.0542
▁thi	-10.0549
blad	-10.0563
23	-10.057
ammen	-10.058
▁akershus	-10.0585
▁kvalifisering	-10.0585
▁begrenset	-10.0585
▁oversettelse	-10.0585
▁finnmark	-10.0586
▁1914	-10.0586
▁etterfølger	-10.0587
ingeniør	-10.0587
▁romanen	-10.0587
▁effektiv	-10.059
▁filip	-10.0591
▁hitler	-10.0592
▁fan	-10.0593
▁utvikle	-10.0594
▁bay	-10.0596
▁bånd	-10.06
ordning	-10.0605
▁yng	-10.0605
▁nasjonalpark	-10.0615
▁ranger	-10.0618
▁por	-10.062
▁sivil	-10.0626
▁svi	-10.063
▁middel	-10.0632
▁tilfelle	-10.0638
mod	-10.0641
distanse	-10.0642
▁rob	-10.0648
▁utdannelse	-10.0655
▁poly	-10.066
▁dog	-10.0663
kanten	-10.0676
▁jente	-10.0686
▁auto	-10.0692
slått	-10.0698
bru	-10.0699
▁luk	-10.0705
rich	-10.0707
▁sagt	-10.0711
verdig	-10.0718
▁systemet	-10.0729
▁etterfulgt	-10.0732
▁kategori	-10.0732
▁lagkonkurransen	-10.0732
▁dollar	-10.0732
mmy	-10.0732
▁overflate	-10.0732
▁levde	-10.0733
▁1917	-10.0734
plattform	-10.0734
▁undervisning	-10.0734
▁1925	-10.0734
faktor	-10.0735
rettigheter	-10.0737
▁sørge	-10.074
▁eli	-10.0745
▁rose	-10.0745
▁beholdt	-10.0747
▁behandle	-10.0748
▁wil	-10.0755
▁sko	-10.0762
▁marine	-10.0764
▁kaptein	-10.0775
iansk	-10.0777
▁mary	-10.0782
▁institusjon	-10.0783
▁kode	-10.0791
▁cu	-10.0806
klær	-10.0812
lam	-10.0816
▁klassen	-10.0818
▁aust	-10.0821
11	-10.0828
slekt	-10.0833
▁hind	-10.0834
▁demokratisk	-10.084
elli	-10.0848
strøm	-10.0848
konkurranse	-10.0849
finner	-10.0851
▁lø	-10.086
pat	-10.0862
setting	-10.0865
vind	-10.0871
▁verdensmester	-10.0877
fabrikk	-10.088
lyst	-10.0881
kommunikasjon	-10.0881
▁eksperiment	-10.0881
▁liberal	-10.0881
▁hotell	-10.0882
▁1913	-10.0883
▁1937	-10.0885
▁dit	-10.0885
▁tø	-10.089
▁tang	-10.0903
foss	-10.0905
▁avtalen	-10.0907
ity	-10.092
▁insekter	-10.0921
▁mannskap	-10.0924
▁foreningen	-10.0925
▁kåre	-10.0927
▁eg	-10.0934
▁north	-10.0938
▁scene	-10.094
▁laste	-10.0942
▁utstilling	-10.0945
▁rein	-10.0951
▁musikken	-10.0951
▁anse	-10.0954
gjort	-10.0955
▁edderkopp	-10.0956
▁storm	-10.0962
▁gil	-10.0964
▁indisk	-10.0977
▁pin	-10.098
rator	-10.0983
▁ordre	-10.0994
øvelse	-10.0996
▁skriver	-10.0997
samfunn	-10.1002
mesterskapet	-10.1013
gler	-10.1014
99	-10.1014
mont	-10.102
▁stå	-10.1026
▁vokal	-10.103
▁sistnevnte	-10.1033
▁washington	-10.1033
▁kombinert	-10.1033
▁angripe	-10.1033
▁invasjon	-10.1033
▁1921	-10.1035
major	-10.1036
wan	-10.1036
dro	-10.1036
▁anledning	-10.104
▁gjeld	-10.1047
▁mik	-10.1051
▁myr	-10.1051
▁slett	-10.1055
dighet	-10.1063
alist	-10.1069
▁sideelv	-10.1074
betegnelse	-10.1079
24	-10.1084
kommisjon	-10.1085
pass	-10.1106
▁utvalg	-10.1106
▁dor	-10.1107
▁bidrag	-10.1111
▁tha	-10.1112
39	-10.1129
politikk	-10.1139
▁france	-10.1145
▁sim	-10.1145
riket	-10.1146
▁høre	-10.1149
▁bygda	-10.1152
▁trekk	-10.1154
▁lønn	-10.116
07	-10.1162
▁frihet	-10.1165
och	-10.1167
▁forekommer	-10.1187
▁radikal	-10.1187
▁vesentlig	-10.1187
▁hovedrollen	-10.1187
▁doktorgrad	-10.1187
▁eksistert	-10.1187
▁kjønn	-10.1187
▁smith	-10.1187
▁fjernsyn	-10.1188
▁1929	-10.1188
▁1923	-10.1189
motor	-10.1189
språklig	-10.1189
▁bekrefte	-10.1191
▁streng	-10.1191
▁high	-10.1192
▁kapell	-10.1194
▁stabil	-10.1196
▁hill	-10.1198
▁1898	-10.1198
▁agder	-10.1199
17	-10.1201
▁uavhengighet	-10.1212
▁vakt	-10.1215
▁flåte	-10.1221
▁besøkte	-10.1227
▁underlagt	-10.123
▁indian	-10.1231
▁revolusjon	-10.1239
▁medisin	-10.124
▁lee	-10.1242
hem	-10.1249
▁kommando	-10.1258
▁verdenscupen	-10.126
▁kai	-10.1266
trinn	-10.1268
▁innhold	-10.1278
▁freds	-10.1281
alisme	-10.1284
▁roll	-10.129
▁samtid	-10.129
▁vær	-10.129
▁dør	-10.1308
▁oss	-10.1312
prosjekt	-10.1318
▁versjonen	-10.132
▁stemmer	-10.1328
rekke	-10.1339
в	-10.1342
▁1906	-10.1343
▁advokat	-10.1343
▁arrestert	-10.1343
▁godkjent	-10.1343
▁jerusalem	-10.1343
▁portugisisk	-10.1343
▁ødelagt	-10.1343
▁vilhelm	-10.1343
▁forbedre	-10.1343
▁kommunal	-10.1343
▁hurtig	-10.1343
▁krevd	-10.1344
▁romsdal	-10.1344
▁alpin	-10.1345
78	-10.1345
kompani	-10.1347
▁islam	-10.1351
▁olsen	-10.1354
▁kilder	-10.1361
kh	-10.1369
sjø	-10.137
byrå	-10.1375
▁sau	-10.1389
▁cro	-10.1389
▁prinsipp	-10.139
runde	-10.1392
▁bom	-10.1396
▁skjær	-10.1396
▁stål	-10.1401
▁santa	-10.1403
▁troll	-10.1404
▁overleve	-10.1409
▁kjøpt	-10.1415
pet	-10.1417
styrt	-10.1436
klasse	-10.1438
▁700	-10.1441
▁bonde	-10.1443
▁struktur	-10.1447
iteten	-10.1458
▁elite	-10.146
▁app	-10.1461
▁ligne	-10.1467
▁jule	-10.1467
26	-10.1468
▁alene	-10.1475
▁sete	-10.1484
▁starten	-10.149
▁blomster	-10.1491
▁sosiale	-10.1492
▁py	-10.1498
taler	-10.1499
▁vietnam	-10.1501
▁introdusert	-10.1502
▁joseph	-10.1502
▁portugal	-10.1502
▁county	-10.1502
▁kontinent	-10.1502
▁gustav	-10.1502
▁klima	-10.1502
▁1931	-10.1503
▁1911	-10.1503
▁studere	-10.1505
atet	-10.1509
▁armé	-10.1511
▁detalj	-10.1512
makten	-10.1515
ella	-10.1522
▁homo	-10.1524
ami	-10.1536
▁øvrige	-10.1538
▁junior	-10.154
områdene	-10.1541
▁motsatt	-10.1565
kop	-10.1575
▁nm	-10.1578
▁spise	-10.1578
hol	-10.1585
▁bydel	-10.1587
▁wei	-10.1597
▁stamme	-10.1609
▁tilbud	-10.1611
▁bærer	-10.1612
▁lykke	-10.1613
▁sammenligne	-10.1618
▁kil	-10.1625
teri	-10.1633
listen	-10.1641
13	-10.1643
▁vinge	-10.1645
født	-10.1648
▁trener	-10.1649
dannelse	-10.1653
ordenen	-10.1655
84	-10.1655
▁kristian	-10.1656
▁betale	-10.1657
▁kapp	-10.1659
høgskole	-10.166
▁aleksander	-10.1663
▁guvernør	-10.1663
▁okkupasjon	-10.1663
kostnad	-10.1663
▁vestfold	-10.1663
▁utseende	-10.1663
▁nominert	-10.1665
▁hersker	-10.1672
▁glass	-10.1678
▁eksempler	-10.1682
▁wh	-10.1708
▁foss	-10.171
▁marie	-10.171
▁oppleve	-10.171
▁flytte	-10.1714
▁språket	-10.1714
▁stillingen	-10.1728
bakken	-10.1733
▁makten	-10.1752
▁fritt	-10.1753
klubben	-10.1759
▁rør	-10.1762
▁bestemme	-10.1786
▁landsbyen	-10.1795
kov	-10.1797
▁eide	-10.1797
▁populært	-10.18
▁nam	-10.1804
album	-10.1808
bånd	-10.181
▁arkeologisk	-10.1812
▁jacob	-10.1816
forsyning	-10.1817
verv	-10.182
▁anerkjent	-10.1827
▁ødelegge	-10.1827
▁rogaland	-10.1827
▁litterær	-10.1827
▁kropps	-10.1827
komité	-10.1828
kjær	-10.1828
▁1909	-10.183
▁luther	-10.183
▁stig	-10.1834
▁mynt	-10.1837
lyn	-10.1838
▁gjenstand	-10.1838
▁prix	-10.1838
▁planet	-10.1843
▁human	-10.1848
▁antatt	-10.1849
start	-10.1849
▁gold	-10.1858
77	-10.1866
▁halvdel	-10.1868
tekst	-10.1874
flu	-10.1878
▁kanalen	-10.188
▁provins	-10.1882
▁landene	-10.1884
▁utgaven	-10.1887
slav	-10.1897
▁metal	-10.1905
▁presidenten	-10.1908
93	-10.1915
▁just	-10.1917
▁henholds	-10.1926
stemt	-10.1929
▁måten	-10.193
somme	-10.1936
ón	-10.1937
▁slave	-10.1941
▁klosteret	-10.1945
▁ok	-10.1951
illa	-10.1955
▁byttet	-10.1955
▁festning	-10.1957
▁normal	-10.1961
gården	-10.197
▁beg	-10.197
▁tell	-10.1971
con	-10.1979
direktør	-10.1979
▁penge	-10.1984
myndighet	-10.1991
kraftverk	-10.1992
▁objekt	-10.1994
▁milliard	-10.1994
▁dialekt	-10.1994
▁eventyr	-10.1994
▁monument	-10.1994
▁flertall	-10.1994
▁arrangere	-10.1994
▁stadion	-10.1994
▁riktig	-10.1995
▁arbeiderpartiet	-10.1996
▁driver	-10.1996
▁formula	-10.1998
▁vokalist	-10.1999
landskap	-10.2001
▁vinteren	-10.2001
▁nederlag	-10.2007
▁kjøl	-10.2013
▁damp	-10.202
▁jack	-10.202
▁rulle	-10.202
▁æres	-10.2024
▁resultatet	-10.2033
▁overført	-10.2035
▁kim	-10.2042
38	-10.2047
▁phil	-10.2047
▁landslags	-10.205
▁sveitsisk	-10.2051
rute	-10.2058
▁mø	-10.2063
▁prosess	-10.2081
▁rep	-10.2086
▁modellen	-10.2092
▁sentralt	-10.2098
▁teknikk	-10.2118
havn	-10.2125
foreningen	-10.2132
zy	-10.2133
▁handler	-10.2143
▁institut	-10.2143
▁eventuel	-10.2163
▁hordaland	-10.2163
▁avdøde	-10.2163
▁kommersiell	-10.2163
▁bryst	-10.2163
▁håp	-10.2163
▁nektet	-10.2163
▁kveld	-10.2164
▁utenlandsk	-10.2164
▁etappe	-10.2165
▁1916	-10.2165
tempel	-10.2165
▁debatt	-10.2166
▁frykt	-10.2167
▁erfaring	-10.2167
▁blue	-10.2168
▁hensyn	-10.2168
▁forkorte	-10.2168
▁spenning	-10.2173
bebyggelse	-10.2177
▁lyn	-10.218
▁løse	-10.2181
▁arkeolog	-10.2187
▁250	-10.2192
row	-10.2195
▁geografisk	-10.2202
▁idrettslag	-10.2203
▁uttale	-10.2224
sport	-10.223
itu	-10.2239
ania	-10.2239
▁brand	-10.2254
▁buk	-10.2262
hild	-10.2264
▁frø	-10.2266
på	-10.228
▁fv	-10.2281
▁turist	-10.2282
▁andreas	-10.2283
▁mei	-10.2284
▁sivile	-10.2286
▁old	-10.229
skipet	-10.2292
folket	-10.2294
▁kulturell	-10.2304
▁erklærte	-10.2308
▁vg	-10.2313
skij	-10.2314
▁administrasjons	-10.2319
96	-10.2321
halvøya	-10.2323
▁grunnlov	-10.2326
▁broren	-10.2333
▁våg	-10.2334
▁antwerpen	-10.2335
▁stafett	-10.2335
▁lyktes	-10.2335
▁jakob	-10.2336
▁mektig	-10.2336
▁strekningen	-10.2336
▁utgivelsen	-10.2337
▁lufthavn	-10.2337
bøker	-10.2337
▁deriblant	-10.2337
▁skøyte	-10.2338
▁drammen	-10.2338
måte	-10.2338
▁beslutt	-10.2346
fartøy	-10.2348
▁tsj	-10.2349
▁kommunestyre	-10.2349
aktiv	-10.2351
▁sikte	-10.2352
▁nød	-10.2355
▁sankt	-10.2367
trær	-10.2369
kommende	-10.237
▁styrte	-10.2376
▁skadet	-10.2382
▁long	-10.2386
▁evne	-10.2394
brun	-10.2394
▁bio	-10.2396
▁minister	-10.2398
▁hindre	-10.2398
▁hellige	-10.2398
▁johann	-10.2402
▁planer	-10.2403
zz	-10.2417
▁hull	-10.2417
▁katolsk	-10.2433
▁will	-10.2437
▁utenriks	-10.2445
slett	-10.2447
vika	-10.2449
▁utga	-10.2451
▁hekk	-10.2471
▁hardt	-10.2478
▁vente	-10.2493
produsent	-10.2506
utvikling	-10.2506
maskin	-10.2506
▁alexander	-10.2511
▁nøyaktig	-10.2511
▁australsk	-10.2511
▁returnert	-10.2511
opplæring	-10.2511
▁ekstrem	-10.2511
▁autonom	-10.2511
▁overtatt	-10.2511
▁sjette	-10.2511
mønster	-10.2512
▁philip	-10.2513
▁1935	-10.2514
▁gitar	-10.2514
▁east	-10.2516
▁varierer	-10.2516
▁uttalt	-10.2519
▁føde	-10.252
▁drepe	-10.252
▁gitarist	-10.252
▁planen	-10.2521
ois	-10.2521
▁1896	-10.2522
▁mobil	-10.2523
▁nevnes	-10.2523
▁brenn	-10.2526
▁munk	-10.2533
▁samfunn	-10.2534
▁handlingen	-10.2536
vol	-10.2536
▁respekt	-10.2538
▁hendelser	-10.2544
▁65	-10.2546
park	-10.2565
▁statue	-10.257
▁gruppa	-10.2576
▁mangle	-10.2577
▁bilder	-10.2577
▁bryte	-10.2587
▁utlandet	-10.2596
▁celle	-10.2609
▁kloster	-10.2625
▁prosjektet	-10.2631
▁arne	-10.2631
▁39	-10.2634
▁oppfatte	-10.2635
▁artister	-10.2636
▁begrep	-10.264
▁virkelig	-10.2642
▁tho	-10.2644
▁tradisjonell	-10.2644
▁torg	-10.2655
▁ulik	-10.2657
ance	-10.267
▁kjerne	-10.2677
▁grunnlegger	-10.2685
forskning	-10.2687
regjering	-10.2688
friidrettsutøver	-10.2689
▁1901	-10.2689
▁kvalifisert	-10.2689
▁cra	-10.2689
▁club	-10.269
▁opptatt	-10.269
▁allianse	-10.269
▁reaksjon	-10.269
▁edward	-10.269
▁parallel	-10.2691
▁generasjon	-10.2691
▁internett	-10.2692
▁award	-10.2697
▁cru	-10.2698
▁sikkerhets	-10.2703
▁vennskap	-10.271
▁kraftige	-10.271
▁34	-10.2713
▁christiania	-10.2713
▁villa	-10.2714
▁legger	-10.2717
▁motta	-10.272
svarer	-10.2723
▁grønland	-10.2727
▁gli	-10.2734
familie	-10.275
trener	-10.2758
gul	-10.2768
▁rådgiver	-10.2772
løft	-10.278
▁museet	-10.2797
feld	-10.2805
▁svar	-10.2812
▁may	-10.2815
▁intern	-10.2826
▁36	-10.2854
▁gy	-10.2855
ikere	-10.2859
wald	-10.286
▁forbundet	-10.2867
▁maleri	-10.2869
▁akseptert	-10.2871
▁konkurrere	-10.2871
▁oppmerksomhet	-10.2871
▁kombinasjon	-10.2871
▁bodø	-10.2871
▁ungarsk	-10.2871
traktaten	-10.2872
▁frivillig	-10.2873
▁generell	-10.2873
▁tjue	-10.2873
▁endringer	-10.2877
▁musik	-10.2878
▁byggingen	-10.2879
jord	-10.2879
▁høyesterett	-10.2884
▁white	-10.2886
▁knap	-10.2886
▁gun	-10.2889
▁motstander	-10.2891
▁henry	-10.2891
fot	-10.2892
▁estland	-10.29
feng	-10.2907
▁eksemplarer	-10.2909
▁morgen	-10.2909
perioden	-10.2927
bygget	-10.2932
scen	-10.2938
▁camp	-10.2942
▁planter	-10.2955
▁virksomheten	-10.2964
vold	-10.2965
slutt	-10.2967
komedie	-10.2975
▁konstruksjon	-10.2976
▁music	-10.2988
type	-10.299
hed	-10.2994
▁cho	-10.2995
29	-10.3014
bak	-10.3016
vikler	-10.302
ltatt	-10.3023
cupen	-10.3029
▁kyr	-10.304
hører	-10.305
▁forhindre	-10.3056
▁definert	-10.3056
▁hensikt	-10.3056
▁innbyggerne	-10.3056
▁arthur	-10.3057
▁reklame	-10.3057
▁musikalsk	-10.3057
konferanse	-10.3057
▁semifinalen	-10.3057
▁valuta	-10.3057
▁inneholdt	-10.3057
▁elleve	-10.3057
▁nedenfor	-10.3057
▁1907	-10.3059
▁myndigheter	-10.3059
historisk	-10.3061
▁trær	-10.3066
▁portrett	-10.3067
▁show	-10.3067
kjøretøy	-10.307
▁frakte	-10.3071
▁tvang	-10.3076
▁oberst	-10.3081
▁organisasjoner	-10.3082
dé	-10.3091
eppe	-10.3095
▁hendelsen	-10.3103
cca	-10.3118
duk	-10.3121
komiteen	-10.313
▁administrasjon	-10.3136
▁velger	-10.3141
▁begynne	-10.3149
▁bakke	-10.3149
▁uttrykke	-10.315
▁finn	-10.3153
▁38	-10.3168
▁latinsk	-10.3168
▁beskrev	-10.3177
▁ønske	-10.3183
▁kommunistisk	-10.3185
▁fremmed	-10.3188
▁festningen	-10.319
▁kast	-10.319
forbundet	-10.3192
▁vekk	-10.3202
▁drap	-10.3208
12	-10.3214
▁gjennomsnitt	-10.3216
sending	-10.3229
65	-10.3237
▁mangler	-10.3241
▁eva	-10.3241
▁kreve	-10.3242
▁infanteri	-10.3245
▁amsterdam	-10.3245
▁juridisk	-10.3245
▁middelsstor	-10.3245
▁svalbard	-10.3245
▁umiddelbar	-10.3245
▁unntatt	-10.3245
▁etablere	-10.3245
▁belgisk	-10.3246
▁debutalbum	-10.3246
fysikk	-10.3246
▁jesus	-10.3246
gjøring	-10.3246
▁protest	-10.3246
▁oblast	-10.3246
▁cel	-10.3247
▁telemark	-10.3248
▁forbudt	-10.325
▁eksport	-10.3251
skudd	-10.3254
▁palm	-10.3257
hopp	-10.3262
▁dj	-10.3262
▁omfattet	-10.3264
▁uni	-10.3265
høyde	-10.3266
27	-10.3268
▁kino	-10.3271
▁niels	-10.3285
▁sikker	-10.3291
strømmen	-10.3296
▁oppsto	-10.3297
▁kapasitet	-10.3298
▁synge	-10.3324
▁klokken	-10.3335
▁grov	-10.3342
▁ledelsen	-10.3353
▁tam	-10.3354
melding	-10.3359
▁ost	-10.3359
▁rand	-10.3367
▁tynn	-10.3372
▁samlingen	-10.3377
▁utgi	-10.3391
▁republikk	-10.3418
91	-10.3424
▁tau	-10.3429
▁bull	-10.3434
▁hunnen	-10.3436
ith	-10.3437
løytnant	-10.3437
▁ambassadør	-10.3437
▁engasjert	-10.3437
▁renessanse	-10.3437
▁skjønt	-10.3437
▁pakistan	-10.3437
▁alkohol	-10.3437
▁henrettet	-10.3438
▁definere	-10.3438
▁sprint	-10.3438
▁referere	-10.3438
▁oppløst	-10.3439
▁kvalitet	-10.3439
▁bakkroppen	-10.3439
▁påvirket	-10.3441
▁dominerende	-10.3441
▁allmenn	-10.3444
▁økende	-10.3449
turneringen	-10.345
forfatter	-10.345
▁møre	-10.346
▁stab	-10.3461
minert	-10.3469
▁tråd	-10.3479
ical	-10.3487
drakt	-10.3491
▁fungerer	-10.3493
▁wales	-10.3493
▁fotballklubb	-10.3494
grønn	-10.3501
▁papir	-10.3505
▁vitne	-10.3521
misjon	-10.3542
krit	-10.3543
com	-10.3547
lærer	-10.3558
▁fortsetter	-10.3566
▁øverst	-10.3567
ansett	-10.358
▁sosialistisk	-10.3591
▁brakt	-10.3602
▁gress	-10.3604
versjon	-10.3605
▁forbunds	-10.3605
▁fyrst	-10.3615
▁scor	-10.3627
▁individ	-10.3633
▁tønsberg	-10.3633
▁utelukke	-10.3633
▁tyrkisk	-10.3634
▁kristiansand	-10.3634
▁avgjørende	-10.3634
▁presentert	-10.3634
▁jøder	-10.3634
▁blanding	-10.3634
▁novell	-10.3635
▁prosessen	-10.3635
væske	-10.3635
▁halvparten	-10.3636
▁town	-10.3638
▁jackson	-10.3638
▁dvs	-10.3638
idrett	-10.3644
produkt	-10.365
materiale	-10.365
▁lord	-10.3654
spring	-10.3655
▁oppstod	-10.3658
▁unngå	-10.3667
▁kontrollert	-10.3676
▁seire	-10.3677
▁pensjon	-10.3678
▁samarbeidet	-10.368
▁master	-10.3682
forsamlingen	-10.369
▁rester	-10.3704
▁frukt	-10.3707
▁tjenestegjor	-10.3718
▁ennå	-10.373
▁krever	-10.3735
8	-10.374
rakte	-10.3768
▁løsning	-10.3778
▁opprettelse	-10.3793
▁skuespill	-10.3817
livet	-10.3821
▁helsingfors	-10.3833
▁katedral	-10.3833
▁1902	-10.3834
▁artikler	-10.3834
▁vulkan	-10.3834
▁kjærlighet	-10.3834
▁ludvig	-10.3834
▁fjordane	-10.3834
▁redusere	-10.3834
stipend	-10.3834
▁forårsake	-10.3835
▁prinsesse	-10.3836
▁voksen	-10.3837
▁monark	-10.3838
▁hørt	-10.3838
▁hjerne	-10.3839
▁antikken	-10.3839
fulle	-10.384
▁drikke	-10.3843
▁innlede	-10.3847
▁utgjorde	-10.3848
▁middelalder	-10.3849
▁havnet	-10.3851
▁1890	-10.3853
▁1870	-10.3855
▁ombord	-10.3856
▁metro	-10.3856
formasjon	-10.3859
▁karakteristisk	-10.3873
▁steve	-10.3881
▁kvart	-10.3895
▁høst	-10.3897
▁sho	-10.39
▁benytter	-10.391
▁artist	-10.3911
jern	-10.3917
▁kalk	-10.3922
domstol	-10.3923
ansvaret	-10.393
▁hastighet	-10.393
▁meta	-10.3931
verden	-10.3938
▁fjernet	-10.3948
ahl	-10.3949
▁menneskelig	-10.3949
▁kok	-10.3955
▁hammer	-10.3956
▁utøver	-10.3957
▁strak	-10.3976
avgift	-10.3976
▁bytte	-10.3982
▁øvrig	-10.3991
▁fulgt	-10.3992
kritiker	-10.3993
▁prakt	-10.3995
▁sum	-10.3997
▁gö	-10.4
▁slott	-10.4
▁flest	-10.4001
▁myk	-10.4009
tain	-10.4032
▁utvikler	-10.4036
▁afghanistan	-10.4038
▁american	-10.4038
▁negativ	-10.4038
▁gunnar	-10.4038
▁vedtatt	-10.4038
▁myndighetene	-10.4039
▁britene	-10.4041
▁talent	-10.4043
ryd	-10.4043
dikt	-10.4044
▁medaljen	-10.4046
▁etasje	-10.4046
▁andel	-10.4047
▁israelsk	-10.4055
problem	-10.4062
▁demningen	-10.4063
▁helst	-10.4071
kall	-10.4078
▁sørover	-10.4078
ldre	-10.408
▁oppstår	-10.408
▁utbrudd	-10.4082
enhver	-10.4083
▁sovjet	-10.4087
▁cand	-10.4088
▁skinn	-10.4101
▁neu	-10.4102
krig	-10.4109
▁nettverk	-10.4112
▁statlig	-10.4116
▁strøk	-10.4117
▁larve	-10.4118
▁dyktig	-10.4125
▁kortere	-10.4132
▁vingene	-10.4145
▁korn	-10.4163
▁sag	-10.4179
▁mesterskap	-10.4187
reformen	-10.4196
▁wu	-10.42
tasj	-10.4209
handler	-10.4222
aria	-10.4228
▁kjø	-10.4229
▁stam	-10.423
table	-10.4237
▁psyko	-10.424
▁bou	-10.4241
▁inkluderer	-10.4246
▁münchen	-10.4246
▁1903	-10.4246
▁individuell	-10.4246
▁terreng	-10.4246
▁separat	-10.4246
▁jørgen	-10.4246
▁rektor	-10.4246
▁midlertidig	-10.4249
▁signert	-10.425
▁alfred	-10.425
bukta	-10.4251
▁onkel	-10.4252
▁interessert	-10.4254
▁aksje	-10.4255
▁statsråd	-10.4258
▁enorm	-10.4264
spreng	-10.4266
▁nazi	-10.4272
konsert	-10.4277
▁synlig	-10.4282
bevisst	-10.4282
▁aksjon	-10.4288
▁vegg	-10.4292
▁inneha	-10.4294
▁praktisk	-10.4299
▁vestre	-10.4301
▁markedet	-10.4301
▁roger	-10.4313
regiment	-10.4318
galleri	-10.4326
▁brutt	-10.4336
▁bjør	-10.4336
sikkerhet	-10.4343
▁aur	-10.4353
strid	-10.4353
hei	-10.4355
▁låten	-10.4362
▁luc	-10.4385
▁bære	-10.4394
flåten	-10.4413
blomst	-10.4416
▁regjer	-10.4434
bury	-10.4438
31	-10.4449
botn	-10.4458
▁alexandr	-10.4459
▁barcelona	-10.4459
▁elizabeth	-10.4459
▁hovedkvarter	-10.4459
▁kronprins	-10.4459
▁millimeter	-10.4459
▁konsept	-10.4459
▁fenomen	-10.4459
▁foregår	-10.4459
▁færøyene	-10.4459
▁canadisk	-10.4459
▁bøkene	-10.4459
▁rolf	-10.4459
▁paven	-10.446
▁stengt	-10.446
▁telefon	-10.4461
▁kritisk	-10.4461
▁anklage	-10.4461
▁german	-10.4462
▁vannkraftverk	-10.4462
▁lokalisert	-10.4467
firma	-10.4469
hørende	-10.447
▁1891	-10.447
▁verd	-10.4471
▁skutt	-10.4471
▁barndom	-10.4471
▁anlagt	-10.4476
strup	-10.4482
kreft	-10.449
▁queen	-10.4492
▁markere	-10.4494
hjem	-10.4497
▁billed	-10.4497
▁utvidelse	-10.4498
▁simon	-10.45
▁eik	-10.4501
▁mord	-10.4521
▁cur	-10.4543
makt	-10.4568
▁hellig	-10.4578
▁parlament	-10.4607
▁schw	-10.4619
▁hul	-10.4659
▁beregne	-10.4663
opera	-10.4674
▁kriminal	-10.4676
▁administrere	-10.4676
▁byprefekture	-10.4676
▁elisabeth	-10.4676
▁innbyggertall	-10.4676
▁tsjekkoslovakia	-10.4676
▁tyrkia	-10.4676
▁utslipp	-10.4676
▁skjold	-10.4676
▁forklaring	-10.4677
▁studioalbum	-10.4677
▁beordre	-10.4677
▁utpekt	-10.4677
▁bayern	-10.4677
▁flytende	-10.4678
qua	-10.4678
grensen	-10.468
▁kjørt	-10.4683
▁piano	-10.4683
▁semi	-10.4684
▁fortellingen	-10.4685
fronten	-10.4685
redaksjon	-10.4691
▁magnet	-10.4698
▁brent	-10.47
skrevet	-10.4704
▁fyll	-10.4705
▁persisk	-10.4714
kandidat	-10.4714
litteratur	-10.4715
▁melk	-10.4716
▁forstå	-10.4721
forestilling	-10.4729
▁straff	-10.4738
basert	-10.4743
▁grunnla	-10.4747
lekene	-10.4759
▁intel	-10.4769
▁beina	-10.4772
brød	-10.4775
wick	-10.4776
▁prim	-10.4778
▁grevskap	-10.4782
▁ytterst	-10.4791
▁rosen	-10.4793
▁fel	-10.4798
▁slaver	-10.4822
▁kvit	-10.4835
▁modern	-10.4838
▁fry	-10.4849
▁trening	-10.4869
▁skyte	-10.4872
▁ross	-10.4878
fotograf	-10.4883
onia	-10.4893
▁registr	-10.4895
▁company	-10.4898
▁symfoni	-10.4898
konsulent	-10.4898
▁texas	-10.4898
▁kobber	-10.4899
▁utgravning	-10.4899
regulering	-10.4899
▁hvile	-10.4899
▁utnytte	-10.4899
bestemmelse	-10.49
▁overraske	-10.49
▁reserve	-10.49
▁magasinet	-10.49
▁foreslått	-10.4902
▁beskrivelse	-10.4905
▁tolke	-10.4905
▁saga	-10.4906
▁kristiania	-10.4909
verdi	-10.4911
▁mikro	-10.4914
▁angel	-10.4926
▁forvingen	-10.493
▁østover	-10.4931
posisjon	-10.4931
▁adam	-10.4939
representant	-10.4942
▁with	-10.4944
▁hil	-10.4947
▁dahl	-10.4951
▁kara	-10.4952
▁utarbeide	-10.4957
kasse	-10.4977
▁kastet	-10.4984
▁glad	-10.4986
14	-10.4986
▁million	-10.4991
▁preg	-10.4997
▁vä	-10.5009
▁dru	-10.5029
▁gjennomføre	-10.5035
yang	-10.5035
▁ytter	-10.5037
formede	-10.505
▁medisinsk	-10.505
▁spesialiser	-10.5051
▁dynasti	-10.5057
▁samisk	-10.5065
▁hannen	-10.5072
polis	-10.5078
▁trø	-10.5097
brua	-10.511
▁muslimsk	-10.5126
▁science	-10.5126
▁seremoni	-10.5126
▁skulptur	-10.5126
▁vingespenn	-10.5126
▁vurdert	-10.5126
▁yrkes	-10.5126
▁tilskuere	-10.5126
▁sachsen	-10.5126
▁forsvant	-10.5126
▁scott	-10.5126
▁trengte	-10.5126
▁karbon	-10.5126
▁verdensrekord	-10.5127
▁firmaet	-10.5127
▁bbc	-10.5127
▁søndag	-10.5127
▁smitte	-10.5129
▁dominert	-10.513
▁brown	-10.5131
▁biografi	-10.5132
▁lisens	-10.5135
▁komposisjon	-10.5136
▁forsterke	-10.5138
▁trodde	-10.5138
▁britis	-10.5139
▁tilbyr	-10.5139
▁kjøtt	-10.5139
▁fett	-10.5143
▁troms	-10.5144
▁forvente	-10.5145
▁brødrene	-10.5151
▁romerne	-10.5155
▁etterpå	-10.5159
▁walter	-10.5161
▁petter	-10.5162
▁kommunist	-10.5166
styring	-10.5166
▁tilpasse	-10.5174
orkester	-10.5174
divisjon	-10.5175
funksjon	-10.5175
karriere	-10.5176
▁hamar	-10.5186
▁dramatisk	-10.5189
jö	-10.5189
▁urban	-10.5193
▁slottet	-10.5203
▁intens	-10.5227
▁fusjon	-10.5247
▁satse	-10.5262
▁teologi	-10.5269
bord	-10.5272
▁innerst	-10.5291
lö	-10.5314
▁marinen	-10.5319
▁cou	-10.5326
▁bang	-10.5341
▁religiøs	-10.5342
▁inndel	-10.5356
viklet	-10.5358
▁chicago	-10.5358
▁göteborg	-10.5358
▁hjalp	-10.5358
▁patriark	-10.5358
▁aktuelle	-10.5358
veksling	-10.5358
▁thailand	-10.5358
▁senator	-10.5358
▁flyktning	-10.5359
▁tilhengere	-10.5359
ов	-10.5359
▁kjemisk	-10.5359
▁sydney	-10.536
▁forgjenger	-10.536
▁forklare	-10.5361
▁stiftelsen	-10.5361
▁overlevd	-10.5361
▁programleder	-10.5362
psykologi	-10.5362
sikring	-10.5363
▁forretnings	-10.5363
▁mandat	-10.5364
▁nylig	-10.5365
brygg	-10.5366
▁eiendommen	-10.5366
følelse	-10.5372
▁street	-10.5374
▁datert	-10.5378
▁soldatene	-10.5385
▁malm	-10.5405
▁toll	-10.5407
▁fortalt	-10.5409
hjelp	-10.5414
effekt	-10.5416
nummer	-10.5417
▁scenen	-10.5422
lock	-10.5439
▁polar	-10.5441
▁bestand	-10.5453
▁mount	-10.5456
løy	-10.5465
lønn	-10.5489
▁fase	-10.549
▁sagn	-10.5491
bryter	-10.5498
redskap	-10.55
▁slu	-10.55
▁demokrat	-10.5506
legging	-10.5513
▁coll	-10.5513
▁forvaltnings	-10.5543
▁bell	-10.555
lich	-10.557
▁angelsaksisk	-10.5596
▁argentina	-10.5596
▁konservative	-10.5596
▁republikansk	-10.5596
▁virginia	-10.5596
▁beleiring	-10.5596
kompleks	-10.5596
▁antarktis	-10.5596
▁preussen	-10.5596
▁selvmord	-10.5596
▁skjul	-10.5596
▁inngår	-10.5597
▁oppløsning	-10.5597
▁terror	-10.5597
stigning	-10.5598
▁wolf	-10.5598
gjald	-10.5598
▁skarp	-10.5599
pakt	-10.5599
▁krysser	-10.5599
▁trenger	-10.56
▁akkur	-10.5601
▁trukket	-10.5601
▁sykdommen	-10.5603
▁turné	-10.5607
▁arena	-10.5611
▁beslutning	-10.5618
▁1880	-10.5618
▁bow	-10.5628
▁tann	-10.5631
▁web	-10.5632
▁vestover	-10.5634
▁figuren	-10.5636
▁lettere	-10.5638
▁grim	-10.5641
▁kongelig	-10.5647
▁1850	-10.565
offiser	-10.5656
modell	-10.5664
▁victoria	-10.5665
▁tenke	-10.5691
gress	-10.5691
høyskole	-10.5708
bring	-10.5712
gjeng	-10.5712
▁tykk	-10.5765
spesifik	-10.5782
næs	-10.5787
▁skall	-10.58
▁antyde	-10.5827
dommer	-10.5834
▁opplysning	-10.5837
▁global	-10.584
▁konflikten	-10.584
▁shanghai	-10.584
▁kvadrat	-10.584
▁regissør	-10.584
▁christoph	-10.584
▁fjær	-10.584
▁adolf	-10.584
▁sigurd	-10.584
▁krysset	-10.584
offensiv	-10.584
▁betjene	-10.5841
bridge	-10.5844
▁michel	-10.5844
▁åpenbar	-10.5846
▁gullmedalje	-10.5847
▁avvist	-10.5847
▁manchester	-10.5848
▁split	-10.5853
▁regler	-10.5854
▁johnson	-10.5874
▁proto	-10.5875
▁derfra	-10.5881
▁trygg	-10.5885
▁nordmenn	-10.5885
teknikk	-10.5906
▁kjell	-10.5911
▁from	-10.5912
celle	-10.5929
▁usikker	-10.5933
base	-10.5977
▁ulv	-10.5996
▁life	-10.5999
▁sparta	-10.6
kris	-10.6019
fallende	-10.6036
▁160	-10.6036
▁vindu	-10.6048
oksid	-10.6064
fred	-10.6078
▁verb	-10.6084
▁innspilt	-10.609
▁nowiki	-10.609
▁skjønn	-10.609
▁fjorten	-10.609
▁invitert	-10.609
▁utbredelse	-10.609
▁øyeblikk	-10.609
▁misjonær	-10.609
▁hebraisk	-10.609
▁eksisterer	-10.609
▁opptreden	-10.609
▁operatør	-10.609
▁dverg	-10.6091
▁konstant	-10.6091
▁import	-10.6092
▁fortellinger	-10.6093
▁opplevd	-10.6094
▁gravlagt	-10.6096
▁kongress	-10.6096
▁sykkel	-10.6097
▁kjenner	-10.6097
▁benytte	-10.6107
▁1884	-10.6107
166	-10.6108
▁1892	-10.6112
▁furu	-10.6131
▁kontrollere	-10.6133
▁gjennomsnittlig	-10.614
▁ferge	-10.6142
▁fortelle	-10.6153
fattet	-10.6156
medlem	-10.6159
kontrakt	-10.6163
politisk	-10.6164
teater	-10.6197
▁talt	-10.6209
▁pavelig	-10.6232
lignende	-10.6242
harmoni	-10.6252
▁kirkegård	-10.626
▁opprette	-10.6266
▁steg	-10.6271
▁finale	-10.6272
28	-10.6276
stue	-10.6339
▁francis	-10.6344
▁elektronisk	-10.6347
▁ferskvann	-10.6347
▁konstitusjon	-10.6347
▁prøvd	-10.6347
▁midtøsten	-10.6347
▁referanse	-10.6347
▁church	-10.6347
▁håkon	-10.6347
▁østfold	-10.6347
▁ovenfor	-10.6347
▁evangeli	-10.6347
▁lørdag	-10.6347
▁zealand	-10.6347
▁langrenn	-10.6347
▁mekanisk	-10.6347
▁igjennom	-10.6347
artilleri	-10.6347
▁datamaskin	-10.6348
▁slank	-10.6348
▁adresse	-10.6348
brønn	-10.6348
▁ektemann	-10.6349
▁oldtiden	-10.635
▁føderal	-10.635
▁wilson	-10.6354
fortelling	-10.6354
▁unik	-10.6354
▁stalin	-10.6355
▁feire	-10.6356
▁nedtegne	-10.6357
▁hylle	-10.6359
▁anvende	-10.636
▁røtter	-10.6361
▁jacobsen	-10.6363
▁plei	-10.6363
▁gjennombrudd	-10.6364
▁beskyttelse	-10.6366
▁lista	-10.6386
nemlig	-10.6387
▁beliggende	-10.6391
▁johansen	-10.6394
gass	-10.6405
▁orient	-10.6425
bibliotek	-10.6426
forsvaret	-10.6426
utdanning	-10.6426
transport	-10.6426
▁strategisk	-10.6427
▁marked	-10.643
musiker	-10.6437
▁protestantisk	-10.6441
▁khan	-10.6451
▁rapportert	-10.6491
▁formidle	-10.6498
▁løfte	-10.6508
▁whi	-10.6567
fellesskap	-10.6581
▁innlemmet	-10.661
▁konsekvens	-10.661
▁liverpool	-10.661
▁manuskript	-10.661
▁beskjed	-10.661
▁cambridge	-10.661
▁innebærer	-10.661
▁innvandre	-10.661
▁litauen	-10.661
▁kommandør	-10.661
▁service	-10.661
▁tabellen	-10.661
▁gymnas	-10.661
▁digital	-10.661
▁kritisert	-10.661
▁golf	-10.661
▁multi	-10.661
skildring	-10.6611
▁avdekket	-10.6611
▁manager	-10.6611
▁hval	-10.6612
▁skildre	-10.6613
▁betong	-10.6614
▁2018	-10.6617
▁håndverk	-10.6617
▁bakterie	-10.6619
▁fastlandet	-10.6623
▁tegninger	-10.6625
▁1877	-10.6627
▁forlate	-10.6627
▁1871	-10.663
▁sukker	-10.6633
▁kupp	-10.6635
▁1860	-10.6636
▁selvstendighet	-10.664
▁traff	-10.664
▁lunge	-10.6647
▁kass	-10.6673
▁stund	-10.6681
finalen	-10.6696
stjerne	-10.6702
▁pont	-10.6713
afrikanske	-10.6717
▁hjemmebane	-10.6721
▁rosa	-10.6721
▁formell	-10.6725
▁koste	-10.6727
møll	-10.6728
▁erstatte	-10.6743
▁georgia	-10.6755
▁øygrupp	-10.679
orientert	-10.6799
▁industriell	-10.6805
▁bratt	-10.6808
▁170	-10.6812
▁avslutte	-10.6847
sykdommer	-10.6857
ward	-10.6871
▁blind	-10.6874
▁definisjon	-10.688
▁fengslet	-10.688
▁friedrich	-10.688
▁innendørs	-10.688
▁matematikk	-10.688
▁oksygen	-10.688
▁restaurant	-10.688
▁resultert	-10.688
▁trommeslager	-10.688
▁fjellkjede	-10.688
▁risiko	-10.688
▁beatles	-10.688
▁utfordring	-10.688
▁trussel	-10.688
ström	-10.688
▁avledet	-10.688
pedagog	-10.688
▁vakre	-10.688
▁bispe	-10.6881
▁opposisjon	-10.6881
▁innvalgt	-10.6882
▁francisco	-10.6883
▁kreert	-10.6883
▁syria	-10.6884
▁justis	-10.6892
▁young	-10.6893
▁humor	-10.6893
▁1893	-10.6897
▁forrige	-10.6899
▁fremført	-10.6899
▁1888	-10.69
▁1889	-10.69
▁1897	-10.6902
▁variasjon	-10.6906
▁utenom	-10.6912
▁ungdomsskole	-10.6913
▁helhet	-10.6917
▁qing	-10.6924
chester	-10.694
struktur	-10.6974
kontroll	-10.6975
programmet	-10.6979
utenriksminister	-10.6992
samband	-10.7023
ique	-10.7029
▁gjø	-10.7042
▁islandsk	-10.7049
drive	-10.7066
▁skjell	-10.7069
seth	-10.707
vassdraget	-10.7071
massen	-10.7074
grunnlaget	-10.708
gjorde	-10.7087
▁helg	-10.7109
▁histor	-10.712
kirk	-10.7156
▁indonesia	-10.7158
▁jugoslavia	-10.7158
▁kristendommen	-10.7158
▁molekyl	-10.7158
▁skjøt	-10.7158
▁society	-10.7158
▁windows	-10.7158
▁intervju	-10.7158
▁etablering	-10.7158
▁stridsvogn	-10.7158
budsjett	-10.7158
▁ansikt	-10.7158
▁erobring	-10.7158
▁haakon	-10.7158
▁tjente	-10.7159
worth	-10.7159
▁arendal	-10.7159
▁stråle	-10.7159
▁fruktbar	-10.7161
▁følt	-10.7161
▁sjakk	-10.7161
▁torino	-10.7163
▁kongsberg	-10.7163
▁keltisk	-10.7164
▁pumpe	-10.7171
▁tjener	-10.7172
▁jeff	-10.7174
▁bystyre	-10.7176
▁1899	-10.7177
▁tillatt	-10.718
▁egyptiske	-10.7181
▁1895	-10.7183
▁hamburg	-10.7184
▁forskjellig	-10.7191
▁størst	-10.7191
cheng	-10.7208
▁wang	-10.7211
▁flue	-10.7224
▁trond	-10.7236
president	-10.7259
redaktør	-10.726
amerikanske	-10.726
museum	-10.726
design	-10.7271
masse	-10.7292
demokrati	-10.7342
▁lyng	-10.7344
annon	-10.736
stadiet	-10.7431
tegning	-10.7443
3000	-10.7443
▁bulgaria	-10.7443
▁columbia	-10.7443
▁sjeldne	-10.7443
▁avslørt	-10.7443
▁fakultet	-10.7443
▁kavaleri	-10.7443
▁eksistens	-10.7443
▁fiolin	-10.7444
▁atlanta	-10.7444
▁margaret	-10.7444
▁hjørne	-10.7444
▁josef	-10.7444
▁foretatt	-10.7444
mouth	-10.7444
▁kopier	-10.7445
▁bakvingen	-10.7445
▁innviet	-10.7445
minoritet	-10.7445
▁sverre	-10.7446
▁tallrike	-10.7446
▁nkp	-10.7448
▁rednings	-10.7448
▁styreleder	-10.745
▁dyrket	-10.745
▁donau	-10.7454
▁rykte	-10.7459
▁1865	-10.746
▁1868	-10.7469
▁1883	-10.747
▁beholde	-10.7481
▁vev	-10.7487
flytte	-10.7503
▁chang	-10.7523
▁chile	-10.7529
temperatur	-10.7554
teknologi	-10.7555
maleri	-10.7576
▁styremedlem	-10.7582
▁skjel	-10.759
▁cuba	-10.7611
tveit	-10.7622
▁victor	-10.7654
▁fru	-10.7682
skribent	-10.7738
▁antennene	-10.7738
▁engasjement	-10.7738
▁hollywood	-10.7738
▁kollektiv	-10.7738
▁kompetanse	-10.7738
▁konkurrert	-10.7738
▁maksimal	-10.7738
▁okkupert	-10.7738
▁pasienten	-10.7738
pyramide	-10.7738
▁hospital	-10.7738
▁komponert	-10.7738
▁stråling	-10.7738
▁symptom	-10.7738
▁heinrich	-10.7738
▁taiwan	-10.7738
▁konvensjon	-10.7738
▁testamente	-10.7738
▁unesco	-10.7738
▁landskamper	-10.7738
▁madrid	-10.7738
▁slippe	-10.7738
▁skåne	-10.7738
▁lewis	-10.7738
betjent	-10.7739
▁power	-10.774
▁virkeligheten	-10.774
▁røyk	-10.774
kamerat	-10.7742
▁tilbrakt	-10.7743
▁revolusjonær	-10.7744
▁øvelsen	-10.7747
▁popul	-10.7749
▁arkiv	-10.775
▁1814	-10.7752
ørret	-10.7755
▁ddr	-10.7757
▁1878	-10.7758
▁filosofisk	-10.7771
▁lavest	-10.7775
▁oval	-10.7777
▁næringsliv	-10.7778
kommunistpartiet	-10.778
▁erklært	-10.7789
▁forståelse	-10.78
▁silke	-10.7806
▁sønd	-10.7828
▁utvide	-10.7847
akademi	-10.7855
åpne	-10.7863
▁verdenscup	-10.79
▁inneba	-10.7918
kjøring	-10.7924
▁väst	-10.7986
▁brødre	-10.8008
▁utforme	-10.802
▁omdanne	-10.8031
▁asteroide	-10.8041
▁babylon	-10.8041
▁bataljon	-10.8041
▁mangfold	-10.8041
▁michigan	-10.8041
▁observert	-10.8041
▁tsjekkia	-10.8041
▁æthel	-10.8041
▁eksisterende	-10.8041
▁identifisert	-10.8041
▁admiral	-10.8041
▁automatisk	-10.8041
▁embeds	-10.8041
▁kjennetegn	-10.8041
▁amatør	-10.8041
▁styrmann	-10.8041
▁vellykke	-10.8041
▁seinere	-10.8041
▁noensinne	-10.8041
▁ørken	-10.8042
▁fangst	-10.8043
▁poesi	-10.8043
▁regelmessig	-10.8044
▁opptrer	-10.8044
▁tømmer	-10.8044
▁group	-10.8046
▁programvare	-10.8047
▁medførte	-10.8048
▁lidelse	-10.8049
▁operere	-10.8049
▁gratis	-10.805
▁fossile	-10.8052
▁mannsnavn	-10.8052
▁tilfeldig	-10.8054
▁koble	-10.8057
▁smak	-10.8059
▁nettside	-10.807
▁tsar	-10.807
▁mannlig	-10.8072
register	-10.808
spinner	-10.8091
▁skriftlig	-10.8096
▁egil	-10.811
tavle	-10.8114
▁variert	-10.8115
▁tidligst	-10.8131
debut	-10.815
aktivitet	-10.8184
tilbud	-10.8259
▁qi	-10.8284
tetthet	-10.8288
spekter	-10.8321
medlemmer	-10.8344
▁møtt	-10.8351
belteasteroide	-10.8353
svømming	-10.8353
▁anatolia	-10.8353
▁heidelberg	-10.8353
▁jomfru	-10.8353
▁makedonia	-10.8353
▁pasienter	-10.8353
▁særskilt	-10.8353
▁venezia	-10.8353
▁etterkommere	-10.8353
▁statistikk	-10.8353
▁sparebank	-10.8353
▁stjørdal	-10.8353
▁vannpolo	-10.8353
football	-10.8353
▁annonsert	-10.8353
▁diskusjon	-10.8353
▁skihopper	-10.8353
palasset	-10.8353
▁massiv	-10.8353
▁tempo	-10.8354
▁hjelm	-10.8354
▁sosialdemokrat	-10.8354
▁planlegging	-10.8354
▁jurist	-10.8355
▁kristus	-10.8356
▁kongeriket	-10.8357
▁tildeles	-10.8357
vatn	-10.8358
▁svekket	-10.8359
▁høgskolen	-10.8359
▁skygge	-10.8362
▁prosessor	-10.8362
▁franz	-10.8363
▁uniform	-10.8378
▁smerte	-10.838
▁fjerdeplass	-10.8385
▁personlighet	-10.84
▁vassdrag	-10.8452
▁nettsted	-10.8466
sluppe	-10.8469
▁home	-10.8471
konstruksjon	-10.8491
▁rådhus	-10.8493
museet	-10.8499
▁etnisk	-10.8544
støtte	-10.8561
▁henge	-10.8563
▁vestsid	-10.8676
infeksjon	-10.8676
▁association	-10.8676
▁beliggenhet	-10.8676
▁bryllup	-10.8676
▁country	-10.8676
▁demonstrasjon	-10.8676
▁hongkong	-10.8676
▁låtskriver	-10.8676
▁påbegynt	-10.8676
▁skandinavia	-10.8676
▁vedlikehold	-10.8676
▁bachelor	-10.8676
▁buskerud	-10.8676
▁søknad	-10.8676
▁regulert	-10.8676
▁bryggeri	-10.8676
▁invester	-10.8676
▁nicola	-10.8676
▁fremtidig	-10.8676
▁senior	-10.8676
▁brensel	-10.8676
▁utsikt	-10.8676
▁oppretthold	-10.8676
▁andré	-10.8676
▁søsken	-10.8676
▁uklar	-10.8676
▁utforming	-10.8677
▁ekspert	-10.8677
▁viktor	-10.8677
aceae	-10.8678
▁kalender	-10.8678
▁nymfe	-10.8678
gjerd	-10.8678
▁alpene	-10.8679
vitsj	-10.8679
▁milano	-10.8679
▁relasjon	-10.868
▁forandre	-10.868
▁søstre	-10.868
▁betalt	-10.8685
▁syntes	-10.8688
▁hevn	-10.8689
▁sjanse	-10.8693
▁bruce	-10.8694
finansiert	-10.8701
betaling	-10.8705
▁krigsskip	-10.8755
▁klippe	-10.8766
bølge	-10.8828
radio	-10.8831
▁erobre	-10.8853
sdatter	-10.8889
▁vanligst	-10.8891
▁fungere	-10.8914
pakke	-10.8944
savtale	-10.8959
▁dominere	-10.9004
▁offentliggjor	-10.9006
▁assosiert	-10.9009
▁kroatia	-10.9009
▁nøkkel	-10.9009
▁progressiv	-10.9009
▁resolusjon	-10.9009
▁vurdering	-10.9009
observasjon	-10.9009
▁jersey	-10.9009
▁konstruert	-10.9009
▁vålerenga	-10.9009
▁dirigent	-10.9009
▁istedenfor	-10.9009
▁permanent	-10.9009
▁bystatus	-10.9009
▁gregor	-10.9009
▁haugesund	-10.9009
▁stephen	-10.9009
▁ferdigstilt	-10.9009
▁tendens	-10.9009
▁alminnelig	-10.901
▁varierende	-10.901
▁stadium	-10.901
▁osmansk	-10.901
▁senterpartiet	-10.9011
▁utmerkelser	-10.9011
▁rosenborg	-10.9011
▁oppfølger	-10.9011
▁kaffe	-10.9011
на	-10.9011
▁vandre	-10.9012
▁tørke	-10.9012
▁nyhets	-10.9012
▁streik	-10.9013
▁rettssak	-10.9014
▁tilsammen	-10.9015
▁avbildet	-10.9016
▁tropisk	-10.9019
▁koreansk	-10.9019
▁forandring	-10.9019
▁holdning	-10.902
forekomst	-10.9023
▁forretningsmann	-10.9023
▁månen	-10.9031
▁ibsen	-10.9032
▁agent	-10.9067
oppdagelse	-10.91
▁offisiell	-10.91
teatret	-10.9133
work	-10.916
tradisjon	-10.9171
▁turisme	-10.9189
▁protestant	-10.9234
▁strategi	-10.9246
klipp	-10.9262
▁trikke	-10.9267
▁døgn	-10.9345
ressurs	-10.9351
▁napoleon	-10.9354
▁integrer	-10.9354
▁koalisjon	-10.9354
▁konkludert	-10.9354
▁meksikansk	-10.9354
▁microsoft	-10.9354
▁pseudo	-10.9354
▁tilstrekkelig	-10.9354
høvding	-10.9354
▁european	-10.9354
▁muslimer	-10.9354
▁oxford	-10.9354
▁popularitet	-10.9354
▁sammenslåing	-10.9354
▁undergrunnsbane	-10.9354
▁jesuitt	-10.9354
komponent	-10.9354
disiplin	-10.9354
grunnsstasjon	-10.9354
▁barnebarn	-10.9354
▁nikola	-10.9354
▁serbia	-10.9354
▁avskjed	-10.9354
▁verdensarv	-10.9354
▁stefan	-10.9354
▁hovedpersonen	-10.9354
▁myrdet	-10.9355
▁patent	-10.9355
materiell	-10.9356
konsernet	-10.9356
▁underviste	-10.9356
▁rhin	-10.9357
▁fienden	-10.9357
▁borgermester	-10.9358
▁howard	-10.9359
▁pierre	-10.9359
▁hittil	-10.936
▁menigheten	-10.9363
▁söd	-10.9366
▁syklist	-10.9368
▁ferje	-10.9373
▁bryn	-10.9377
syssel	-10.9378
balanse	-10.9378
tyder	-10.938
rhein	-10.9385
▁astronomi	-10.939
▁nederst	-10.9406
head	-10.9414
▁klokke	-10.9448
▁begynt	-10.9458
▁skjedd	-10.9463
▁domkirke	-10.9469
lektor	-10.9477
biskop	-10.9528
▁bringe	-10.9529
hvit	-10.9538
foretak	-10.9555
▁minutt	-10.9571
▁afrikansk	-10.9573
snegl	-10.9597
▁dekkvingene	-10.9711
▁forfremme	-10.9711
▁forøvrig	-10.9711
▁konsentrert	-10.9711
▁kringkasting	-10.9711
▁napoléon	-10.9711
▁psykisk	-10.9711
▁restaurert	-10.9711
▁rudolf	-10.9711
▁shakespeare	-10.9711
▁alfabet	-10.9711
▁besittelse	-10.9711
▁diagnose	-10.9711
▁favoritt	-10.9711
▁invadert	-10.9711
▁ensemble	-10.9711
▁fiendtlig	-10.9711
▁ukraina	-10.9711
▁tolkning	-10.9711
▁1863	-10.9711
▁identitet	-10.9711
▁umulig	-10.9711
▁ordinær	-10.9711
▁spredning	-10.9711
▁statsborger	-10.9711
▁reformasjonen	-10.9711
▁sicilia	-10.9711
▁begravet	-10.9711
▁langvarig	-10.9711
leverandør	-10.9711
▁underholdning	-10.9712
▁majoritet	-10.9712
▁maritim	-10.9712
▁systematisk	-10.9712
▁middelhavet	-10.9713
▁isolert	-10.9713
▁mineral	-10.9713
▁visepresident	-10.9713
▁naturgass	-10.9713
▁samlealbum	-10.9713
apparat	-10.9713
▁skiskyt	-10.9714
▁senatet	-10.9715
ization	-10.9715
▁pioner	-10.9715
▁forfølgelse	-10.9716
▁misjons	-10.972
▁søyle	-10.9728
relatert	-10.9762
▁kritikere	-10.9792
bevegelse	-10.9816
kroppen	-10.9895
edderkopp	-10.9897
dømt	-10.9898
fotball	-10.9899
lokale	-10.9917
▁teatr	-10.9955
▁tryg	-11.0014
utstillingen	-11.0059
▁anerkjennelse	-11.0081
▁annerledes	-11.0081
▁britannia	-11.0081
▁bysantinsk	-11.0081
▁forvandling	-11.0081
▁geometri	-11.0081
▁identifisere	-11.0081
▁katolikker	-11.0081
▁leipzig	-11.0081
▁lillehammer	-11.0081
▁luxembourg	-11.0081
▁malaysia	-11.0081
▁mongolia	-11.0081
▁prøyssisk	-11.0081
▁utnevnelse	-11.0081
inspektør	-11.0081
kommanderende	-11.0081
▁ektefelle	-11.0081
▁færøysk	-11.0081
▁arrangør	-11.0081
▁billboard	-11.0081
▁indikerer	-11.0081
▁torpedo	-11.0081
▁anmelder	-11.0081
▁hjort	-11.0081
▁vinterleker	-11.0081
▁fiktiv	-11.0081
▁presidentvalget	-11.0081
▁ohio	-11.0081
▁deutsche	-11.0082
▁frimurer	-11.0082
▁charlotte	-11.0082
▁gjennomgår	-11.0082
▁nepal	-11.0082
▁arsenal	-11.0082
▁bærum	-11.0082
▁skjebne	-11.0082
▁trondhjem	-11.0082
▁bøndene	-11.0082
▁ulovlig	-11.0082
▁hyppig	-11.0082
▁kjernekraftverk	-11.0082
▁dvd	-11.0082
▁dekorert	-11.0082
▁utbyggingen	-11.0083
▁great	-11.0083
▁utfordre	-11.0083
▁omstridt	-11.0083
katalog	-11.0083
▁central	-11.0083
▁innflytelsesrik	-11.0084
mekanisme	-11.0084
▁erstatning	-11.0084
▁ressurser	-11.0084
▁følelser	-11.0084
▁ivareta	-11.0084
▁kunstakademi	-11.0084
monopol	-11.0084
▁divers	-11.0085
▁kanadisk	-11.0085
▁moderat	-11.0087
▁fremstille	-11.0088
▁stevn	-11.009
▁ballett	-11.0091
▁frp	-11.0091
▁lojal	-11.0091
syklus	-11.0093
▁pirat	-11.0096
▁down	-11.0097
▁bolivia	-11.0098
verktøy	-11.0101
lengde	-11.0116
▁manuel	-11.0119
kjernen	-11.012
▁bevare	-11.0123
forvaltning	-11.0168
strof	-11.0175
kål	-11.021
kledt	-11.0259
hastighet	-11.0281
sosialistisk	-11.0281
▁soldat	-11.0283
befolkning	-11.0283
europeisk	-11.0283
sentral	-11.0289
aften	-11.0315
gruv	-11.0323
▁undersøke	-11.0445
▁inspirasjon	-11.0466
skrittspartiet	-11.0466
▁angivelig	-11.0466
▁avskaffet	-11.0466
▁interessant	-11.0466
▁jordskjelv	-11.0466
▁kambodsja	-11.0466
▁naturreservat	-11.0466
▁opphørte	-11.0466
▁palestina	-11.0466
▁plutselig	-11.0466
▁sarpsborg	-11.0466
▁singapore	-11.0466
▁tsjekkisk	-11.0466
▁patriot	-11.0466
▁velkjent	-11.0466
▁komplett	-11.0466
▁styreformann	-11.0466
▁colombia	-11.0466
▁antakelig	-11.0466
▁komplisert	-11.0466
▁guinea	-11.0466
▁jamaica	-11.0466
▁dramatiker	-11.0466
▁utrydde	-11.0466
▁referert	-11.0466
▁kombinere	-11.0466
▁flukt	-11.0466
▁seksuell	-11.0467
▁gjentatt	-11.0467
▁mastergrad	-11.0468
▁deltakelse	-11.0468
▁fuktig	-11.0468
▁stillehavet	-11.0468
▁fiender	-11.0469
▁møller	-11.047
▁rettferdig	-11.047
▁tenkt	-11.0471
▁utløst	-11.0474
flyging	-11.0478
▁avansert	-11.0481
▁flanke	-11.0482
▁forestillingen	-11.0489
▁amerikanere	-11.0492
▁voldsom	-11.0494
▁fotografi	-11.0511
▁nerve	-11.0513
9	-11.0594
▁ideologi	-11.0663
rådgiver	-11.0682
kommando	-11.0682
medlemmene	-11.0682
politiker	-11.0683
rekord	-11.0684
▁chris	-11.0733
ledelse	-11.0735
skjæring	-11.0767
▁absolut	-11.0866
▁atlanterhavet	-11.0866
▁championship	-11.0866
▁cæsar	-11.0866
▁eksplosjon	-11.0866
▁inskripsjon	-11.0866
▁intellektuell	-11.0866
▁klassifisert	-11.0866
▁ludwig	-11.0866
▁narkotika	-11.0866
▁puppestadi	-11.0866
▁sjokolade	-11.0866
▁slalåm	-11.0866
▁tórshavn	-11.0866
▁fundament	-11.0866
▁illustrasjon	-11.0866
▁forveksle	-11.0866
▁friluft	-11.0866
▁klassiker	-11.0866
▁marokko	-11.0866
▁overbevist	-11.0866
▁utdødd	-11.0866
▁grekerne	-11.0866
▁vurdere	-11.0866
▁beregning	-11.0866
▁avstemning	-11.0866
▁florida	-11.0866
▁ntnu	-11.0866
bransjen	-11.0866
▁beslektet	-11.0866
▁forklart	-11.0866
▁uteksa	-11.0866
▁forlenget	-11.0866
▁sandefjord	-11.0866
▁embets	-11.0866
▁brussel	-11.0866
▁gjenvalgt	-11.0866
▁seoul	-11.0866
▁contest	-11.0866
▁oppfordre	-11.0867
▁vegetasjon	-11.0867
▁kroppsbygning	-11.0867
▁betydningsfull	-11.0868
▁smelte	-11.0869
▁araber	-11.0869
▁oversetter	-11.0871
▁clark	-11.0872
▁spurt	-11.0872
▁stedsnavn	-11.0878
▁genetisk	-11.0885
schaft	-11.0889
▁rifle	-11.09
appell	-11.1
sykehus	-11.1099
prøve	-11.1104
utgave	-11.1122
duoen	-11.1135
blikk	-11.114
gjest	-11.1215
▁aftenposten	-11.1283
▁aluminium	-11.1283
▁begivenhet	-11.1283
▁ferdinand	-11.1283
▁filippinene	-11.1283
▁hiphop	-11.1283
▁hockey	-11.1283
▁indoeuropeisk	-11.1283
▁legendarisk	-11.1283
▁palestinsk	-11.1283
▁uppsala	-11.1283
▁vancouver	-11.1283
▁diskutert	-11.1283
▁reservoar	-11.1283
▁amazon	-11.1283
▁gerhard	-11.1283
▁krønike	-11.1283
▁manusforfatter	-11.1283
▁linux	-11.1283
▁romerriket	-11.1283
▁square	-11.1283
▁foreløpig	-11.1283
▁grammati	-11.1283
leksikon	-11.1283
▁essay	-11.1283
▁theodor	-11.1283
▁rockeband	-11.1283
▁kortvarig	-11.1283
▁petersburg	-11.1283
▁kommentar	-11.1283
▁ferdigheter	-11.1283
▁alaska	-11.1283
▁stanley	-11.1283
▁kvartfinalen	-11.1283
▁walisisk	-11.1283
▁seminar	-11.1283
▁protein	-11.1283
▁amerikanerne	-11.1283
▁sibir	-11.1283
▁dream	-11.1284
▁skikkelse	-11.1284
jylland	-11.1284
▁nyheter	-11.1284
▁akutt	-11.1285
terapi	-11.1285
▁batteri	-11.1286
▁gerai	-11.1288
vennlig	-11.1288
▁knust	-11.1289
▁tåle	-11.129
mission	-11.1292
▁kunngjor	-11.1295
krem	-11.1298
▁håndtere	-11.1305
ladning	-11.1315
villig	-11.1318
oppgjør	-11.1388
bukten	-11.1493
historiker	-11.1534
ekspedisjon	-11.1534
likevel	-11.1535
dyktig	-11.1535
brann	-11.1544
▁dreie	-11.1591
7	-11.1599
fabrik	-11.1615
▁nordsid	-11.1641
plagg	-11.1715
▁doktor	-11.1717
direktoratet	-11.1717
instruktør	-11.1717
▁akseptere	-11.1717
▁corporation	-11.1717
▁elektrisitet	-11.1717
▁etiopia	-11.1717
▁kontinuerlig	-11.1717
▁lokomotiv	-11.1717
▁melbourne	-11.1717
▁observato	-11.1717
▁publikasjon	-11.1717
▁skandinavisk	-11.1717
▁våpenhvile	-11.1717
▁pattedyr	-11.1717
▁public	-11.1717
▁opphevet	-11.1717
▁tilnærming	-11.1717
kommentator	-11.1717
▁forberedt	-11.1717
▁mandsju	-11.1717
▁innstifte	-11.1717
▁sebasti	-11.1717
▁eidsvoll	-11.1717
▁veksel	-11.1717
▁østtyske	-11.1718
▁sluttspillet	-11.1718
▁nynorsk	-11.1718
▁mikael	-11.1718
▁kjæreste	-11.1718
▁diameter	-11.1718
▁russerne	-11.1718
▁muntlig	-11.1718
▁castle	-11.1718
▁konsesjon	-11.1718
metabol	-11.1718
▁begrunnelse	-11.1718
▁kontrast	-11.1718
▁depresjon	-11.1718
▁konkurs	-11.1718
▁kristelig	-11.1718
▁meteor	-11.1718
kobling	-11.1719
▁framstilt	-11.1719
▁serbisk	-11.1719
▁pianist	-11.172
▁mysteri	-11.172
▁barokk	-11.1722
▁psykologisk	-11.1722
▁instrumental	-11.173
ière	-11.1733
døgnflue	-11.1737
▁bakerst	-11.1747
▁stanse	-11.1774
brenn	-11.1829
inndelingen	-11.1888
▁dobbel	-11.1981
arkitekt	-11.1989
suksess	-11.1989
▁oppstå	-11.2049
▁slange	-11.2053
▁astronom	-11.2124
asiatiske	-11.2146
perspektiv	-11.2172
▁administrert	-11.2172
▁aserbajdsjan	-11.2172
▁etterkrigstiden	-11.2172
▁evolusjon	-11.2172
▁ferguson	-11.2172
▁frankfurt	-11.2172
▁karosseri	-11.2172
▁kasakhstan	-11.2172
▁keramikk	-11.2172
▁metamorfose	-11.2172
▁restaurering	-11.2172
▁sogneprest	-11.2172
▁sørkoreansk	-11.2172
▁wergeland	-11.2172
▁hypotese	-11.2172
▁immigra	-11.2172
▁teoretisk	-11.2172
▁1851	-11.2172
▁isabella	-11.2172
▁operativsystem	-11.2172
▁ptolem	-11.2172
▁særdeles	-11.2172
▁taylor	-11.2172
▁forsterkning	-11.2172
▁rovdyr	-11.2172
▁faktum	-11.2172
▁forlengelse	-11.2172
▁gunstig	-11.2172
▁gårdbruker	-11.2172
▁minnesmerke	-11.2172
▁benedikt	-11.2172
▁snorre	-11.2172
▁autoritet	-11.2172
▁vietnamesisk	-11.2172
▁østersjøen	-11.2172
▁fjelltopp	-11.2173
▁søvn	-11.2173
▁dybde	-11.2173
▁vilkår	-11.2173
▁omvendt	-11.2173
▁tokyo	-11.2173
▁tilnærme	-11.2176
▁blomstre	-11.2176
▁verdslig	-11.2178
▁napoli	-11.2185
▁skuffe	-11.2187
ifikasjon	-11.2283
strøk	-11.2464
spørsmål	-11.2465
studier	-11.2465
revolusjonen	-11.2474
▁inneholde	-11.2553
kvadratkilometer	-11.2648
privilegie	-11.2648
▁academy	-11.2648
▁apostolisk	-11.2648
▁billedkunstner	-11.2648
▁canterbury	-11.2648
▁electric	-11.2648
▁generalguvernør	-11.2648
▁glasgow	-11.2648
▁guddommelig	-11.2648
▁konkurrent	-11.2648
▁königs	-11.2648
▁management	-11.2648
▁mislykket	-11.2648
▁omdøpt	-11.2648
▁toppscorer	-11.2648
▁westminster	-11.2648
▁utendørs	-11.2648
▁vertikal	-11.2648
▁abraham	-11.2648
▁primitiv	-11.2648
▁1862	-11.2648
▁reaktor	-11.2648
▁hertugdømmet	-11.2648
▁stimul	-11.2648
▁frogner	-11.2648
▁utsagn	-11.2648
▁brothers	-11.2648
▁gordon	-11.2648
▁cecil	-11.2648
▁hebei	-11.2648
▁dovre	-11.2649
▁assistere	-11.2649
▁bebodd	-11.2649
▁dåp	-11.2649
mønstre	-11.265
▁burgund	-11.265
▁oppfylle	-11.2651
passasje	-11.2651
▁samuel	-11.2652
vík	-11.266
vinnerne	-11.2775
gruppa	-11.2904
▁hendelse	-11.2926
regnskap	-11.2934
frukt	-11.2964
▁utøve	-11.2985
▁geograf	-11.2995
▁ambassade	-11.3148
▁elefant	-11.3148
flokkurin	-11.3148
▁anbefale	-11.3148
▁douglas	-11.3148
▁gjengjeld	-11.3148
▁innvilget	-11.3148
▁kollaps	-11.3148
▁landhockey	-11.3148
▁lincoln	-11.3148
▁matematiker	-11.3148
▁mccartney	-11.3148
▁musikkvideo	-11.3148
▁normandie	-11.3148
▁roosevelt	-11.3148
▁territorium	-11.3148
▁tippeliga	-11.3148
▁uruguay	-11.3148
▁westfalen	-11.3148
▁gabriel	-11.3148
▁vatikan	-11.3148
lovgivning	-11.3148
▁arbeidsgiver	-11.3148
▁innvandring	-11.3148
▁jacque	-11.3148
▁libanon	-11.3148
▁telegraf	-11.3148
▁latvia	-11.3148
▁målvakt	-11.3148
symmetri	-11.3148
▁porsgrunn	-11.3148
▁innvendig	-11.3148
▁kontroversiell	-11.3148
▁middelhavs	-11.3148
▁forenklet	-11.3148
0	-12.7792
