<unk>	0
<s>	0
</s>	0
.	-3.23132
s	-3.50381
e	-3.59386
▁i	-3.74657
▁og	-3.97789
t	-4.01731
▁	-4.08047
en	-4.08455
er	-4.11037
▁av	-4.49328
r	-4.52989
▁er	-4.56614
▁en	-4.68719
▁som	-4.80133
▁for	-4.84324
n	-4.88726
▁til	-4.89456
et	-4.89999
▁på	-4.98612
▁med	-5.07261
▁den	-5.21072
▁ble	-5.3098
a	-5.32098
▁var	-5.33298
▁de	-5.3842
▁det	-5.43477
▁fra	-5.51366
ene	-5.60977
▁har	-5.63826
▁et	-5.66627
▁å	-5.7002
▁han	-5.70573
d	-5.74329
ne	-5.79278
i	-5.82427
k	-5.91964
o	-5.95495
▁ved	-6.00763
y	-6.0088
g	-6.10076
l	-6.13082
m	-6.14669
▁at	-6.15657
▁også	-6.18657
te	-6.22794
▁ut	-6.26638
f	-6.26838
▁om	-6.2702
re	-6.30057
▁etter	-6.30668
p	-6.34835
de	-6.38925
▁under	-6.39449
▁s	-6.41281
▁eller	-6.42995
▁over	-6.45239
▁opp	-6.46775
▁kan	-6.47134
▁men	-6.52996
c	-6.55162
▁to	-6.55664
h	-6.5623
ing	-6.56666
v	-6.60916
▁da	-6.61946
▁inn	-6.62032
▁be	-6.62344
us	-6.62379
▁a	-6.6268
b	-6.64288
es	-6.64391
▁seg	-6.66799
an	-6.67503
▁hadde	-6.72341
on	-6.72385
in	-6.75063
▁18	-6.77095
na	-6.773
al	-6.78393
ter	-6.79875
▁ikke	-6.80133
▁andre	-6.81198
le	-6.84692
▁p	-6.87018
▁sin	-6.87127
▁the	-6.87675
sk	-6.88058
is	-6.88863
▁mellom	-6.89626
u	-6.90244
j	-6.91363
ar	-6.93182
ia	-6.93823
▁mot	-6.95052
▁ha	-6.97333
▁k	-6.98052
▁født	-6.98315
ende	-6.99185
▁hans	-7.00663
▁la	-7.02206
▁f	-7.02332
▁tre	-7.02432
▁1	-7.03355
▁hun	-7.03413
um	-7.06293
▁dette	-7.06725
▁m	-7.07136
▁c	-7.10426
▁u	-7.10698
▁første	-7.11001
or	-7.1102
z	-7.12021
ens	-7.12781
▁ligger	-7.13269
ri	-7.16838
▁blant	-7.17667
il	-7.17804
▁nord	-7.18299
ch	-7.18446
land	-7.18706
la	-7.19306
▁man	-7.20271
w	-7.21304
▁g	-7.21592
▁sammen	-7.229
▁se	-7.22957
▁d	-7.23764
ur	-7.25871
ta	-7.2702
▁gjennom	-7.27334
el	-7.27356
▁denne	-7.27996
▁flere	-7.2826
▁fikk	-7.2855
as	-7.29639
lig	-7.2974
x	-7.29811
▁der	-7.30302
▁2	-7.30759
▁b	-7.31791
iske	-7.31978
ning	-7.32745
▁ca	-7.33074
ke	-7.3315
ng	-7.33236
li	-7.33476
ver	-7.33563
vis	-7.33628
▁ro	-7.35078
▁her	-7.35556
der	-7.36734
isk	-7.37027
ra	-7.37125
nde	-7.37175
ck	-7.37872
▁hvor	-7.38303
▁re	-7.39193
kk	-7.39487
da	-7.39526
▁år	-7.39703
▁alle	-7.4008
øy	-7.41113
▁3	-7.41403
▁al	-7.41598
ske	-7.41775
▁an	-7.42424
▁stor	-7.42577
é	-7.4258
be	-7.42862
lo	-7.43055
▁kom	-7.43547
▁of	-7.44459
▁h	-7.44466
os	-7.44875
▁blir	-7.45371
å	-7.45961
▁17	-7.46914
▁kommune	-7.47997
den	-7.48958
ut	-7.49251
▁o	-7.49499
▁del	-7.49645
▁tidligere	-7.49784
bo	-7.49897
▁v	-7.50316
▁ny	-7.50324
for	-7.50416
▁før	-7.5066
ge	-7.50912
▁li	-7.50954
▁ra	-7.51542
ff	-7.51969
nes	-7.52008
▁norsk	-7.53057
▁død	-7.53679
▁sa	-7.54319
▁n	-7.54846
ma	-7.54924
▁annet	-7.55469
to	-7.55634
stad	-7.56091
ig	-7.56244
▁l	-7.56304
th	-7.56729
ve	-7.56866
▁he	-7.57666
ro	-7.57992
▁e	-7.58224
at	-7.58414
ø	-7.58441
▁15	-7.58651
▁bo	-7.58721
▁mer	-7.58765
▁by	-7.59263
▁sør	-7.59621
ler	-7.59659
▁hoved	-7.59844
ad	-7.60073
ga	-7.60395
▁disse	-7.60779
kt	-7.60801
▁4	-7.61
▁så	-7.61348
ul	-7.61739
▁16	-7.61833
ist	-7.61917
ka	-7.62054
id	-7.6304
son	-7.63285
▁mange	-7.6346
di	-7.64192
▁5	-7.64208
▁sitt	-7.6462
ger	-7.64659
▁byen	-7.64695
si	-7.64903
▁in	-7.64911
▁ti	-7.65119
▁t	-7.66467
erte	-7.66693
▁vi	-7.67011
▁senere	-7.67675
man	-7.67687
▁le	-7.67733
▁kon	-7.6799
mo	-7.68089
▁mens	-7.69214
▁na	-7.69757
▁være	-7.69843
▁st	-7.70315
ic	-7.7103
het	-7.71264
▁noen	-7.71994
ton	-7.72054
ha	-7.72126
▁ofte	-7.72221
▁pa	-7.72234
sa	-7.72284
ry	-7.72604
▁land	-7.73094
op	-7.7316
ker	-7.74018
lige	-7.74976
▁co	-7.75165
▁as	-7.7529
▁vest	-7.75329
▁di	-7.76338
▁bi	-7.76618
▁j	-7.76621
▁siden	-7.76629
ja	-7.77285
▁ni	-7.77546
▁ga	-7.77956
▁navnet	-7.78338
▁kr	-7.79089
ner	-7.79124
▁frem	-7.79905
tt	-7.79971
mann	-7.80042
▁ka	-7.80299
ær	-7.80386
mi	-7.80475
▁per	-7.80897
▁kjent	-7.80995
me	-7.81087
bi	-7.81223
ba	-7.81475
▁store	-7.81734
▁rundt	-7.81777
mp	-7.81966
▁ma	-7.81977
▁tallet	-7.81999
ell	-7.82614
▁fri	-7.82728
ør	-7.82747
nd	-7.83166
▁10	-7.83386
ion	-7.83549
▁øst	-7.83638
dal	-7.83738
▁selv	-7.83948
co	-7.83999
by	-7.84056
▁ned	-7.84658
▁ba	-7.84957
▁si	-7.85145
skap	-7.85191
▁ta	-7.85748
ik	-7.85808
ko	-7.85982
▁dag	-7.86297
▁du	-7.86685
▁pro	-7.86927
▁and	-7.8743
va	-7.87504
▁går	-7.8763
ti	-7.87678
▁12	-7.8788
▁vil	-7.88065
mer	-7.88501
je	-7.88791
▁7	-7.88921
▁ar	-7.89046
▁sine	-7.89866
ce	-7.90164
ed	-7.90488
tra	-7.90513
▁nå	-7.9102
erne	-7.9113
▁8	-7.91176
▁no	-7.91341
▁6	-7.91814
pe	-7.91845
go	-7.92029
ang	-7.92355
▁skal	-7.92489
▁bu	-7.92541
▁mo	-7.92559
2	-7.92735
ven	-7.92921
om	-7.93281
ring	-7.9349
▁ol	-7.93548
men	-7.93604
▁samt	-7.93635
▁mar	-7.93959
▁lo	-7.93988
ö	-7.94096
it	-7.94144
gi	-7.94665
▁sp	-7.94837
ant	-7.94842
▁w	-7.95138
▁fly	-7.95163
do	-7.95216
▁fire	-7.95249
▁mest	-7.95613
berg	-7.95777
gen	-7.95865
ster	-7.96032
▁ho	-7.96044
▁me	-7.9605
▁finnes	-7.96413
▁vært	-7.9642
▁bak	-7.96469
▁både	-7.96558
ho	-7.96815
▁enn	-7.97044
ly	-7.97343
▁norge	-7.97348
▁kalt	-7.98061
▁9	-7.98374
else	-7.98511
ol	-7.98798
ling	-7.98847
▁13	-7.98927
▁ri	-7.99047
▁navn	-7.99339
▁hos	-7.9942
▁bar	-7.99904
▁noe	-8.00096
▁te	-8.00311
▁su	-8.00769
asjon	-8.00785
3	-8.01142
var	-8.01214
▁do	-8.01353
am	-8.01597
▁mai	-8.01975
▁mor	-8.02125
▁samme	-8.02283
vik	-8.02409
▁14	-8.02496
av	-8.02541
▁far	-8.0275
lin	-8.02961
á	-8.03034
sel	-8.03607
▁po	-8.03745
▁skulle	-8.0389
▁grunn	-8.03942
▁lang	-8.04843
▁norske	-8.04879
▁ru	-8.05001
▁ham	-8.0528
po	-8.05293
▁fa	-8.05362
au	-8.05397
▁blit	-8.05518
▁tid	-8.05539
▁km	-8.05945
ste	-8.06155
vi	-8.06164
pa	-8.06499
▁hu	-8.06972
▁august	-8.07032
æ	-8.07075
len	-8.07316
ku	-8.0739
▁mars	-8.08068
▁kunne	-8.08181
▁tok	-8.08518
▁største	-8.08679
▁gikk	-8.08727
▁11	-8.08804
ll	-8.08806
▁so	-8.08832
▁fram	-8.08895
gu	-8.09079
▁ne	-8.09308
▁kirke	-8.09547
opp	-8.09663
▁vant	-8.10744
ov	-8.10781
sh	-8.10904
▁når	-8.1111
od	-8.11176
sta	-8.11225
ard	-8.1136
pp	-8.11559
▁januar	-8.1196
▁slik	-8.12111
▁gi	-8.12112
▁sol	-8.12326
▁sam	-8.12499
▁mål	-8.12905
tor	-8.13015
ok	-8.13084
ings	-8.13325
▁r	-8.13461
▁juli	-8.13999
rett	-8.1406
ir	-8.14332
▁ko	-8.14603
▁film	-8.14694
▁bestå	-8.15014
ment	-8.15519
▁pi	-8.15738
▁ak	-8.15842
▁kinesisk	-8.15968
ier	-8.16097
kke	-8.16577
▁hele	-8.16783
un	-8.16989
ca	-8.1703
▁y	-8.1737
▁oslo	-8.17779
▁nær	-8.17799
tter	-8.17826
▁lu	-8.18002
▁tra	-8.18097
▁nye	-8.18511
▁bra	-8.18548
▁sch	-8.18672
▁lag	-8.18826
▁sk	-8.19224
elle	-8.19432
▁tro	-8.19483
gg	-8.20453
ns	-8.20527
▁tilbake	-8.20555
hold	-8.20718
im	-8.20902
verk	-8.20946
bu	-8.21036
▁20	-8.21218
▁am	-8.21387
no	-8.21487
▁el	-8.21844
gang	-8.21887
▁dem	-8.22384
▁gu	-8.22506
år	-8.23118
ni	-8.23288
▁området	-8.2329
▁meter	-8.23295
ede	-8.2341
▁fi	-8.23794
ering	-8.23808
▁or	-8.24075
▁bli	-8.24097
▁musikk	-8.24625
▁juni	-8.24625
▁jo	-8.24914
▁ad	-8.24962
▁john	-8.25575
▁sønn	-8.25884
▁tri	-8.25968
ag	-8.26174
▁bare	-8.26185
inn	-8.26406
▁pe	-8.26412
▁par	-8.27254
ber	-8.27593
ty	-8.27616
ü	-8.27733
1	-8.27816
▁leder	-8.27994
▁utgitt	-8.28028
ld	-8.2823
lag	-8.2829
▁mi	-8.28359
▁folke	-8.28673
▁mat	-8.29541
dag	-8.29717
ä	-8.30058
▁gang	-8.30083
▁0	-8.30151
▁små	-8.30267
▁tor	-8.3028
ina	-8.30433
▁skole	-8.3051
vin	-8.30513
▁ge	-8.30648
wa	-8.30659
▁hi	-8.30819
▁april	-8.30849
▁2010	-8.30861
▁vanlig	-8.31114
00	-8.31969
este	-8.31997
ot	-8.32322
lu	-8.32627
▁hel	-8.32639
▁først	-8.32778
▁like	-8.32897
▁kunst	-8.32898
over	-8.32922
ft	-8.33192
▁ski	-8.3375
▁langs	-8.33781
▁imidlertid	-8.34064
▁siste	-8.34108
▁form	-8.34327
▁rekke	-8.34436
sjon	-8.34568
▁gift	-8.34724
hi	-8.34727
▁ei	-8.34745
▁innen	-8.34758
▁000	-8.34792
▁egen	-8.34913
ingen	-8.35073
del	-8.35454
io	-8.35661
▁pre	-8.35759
▁tillegg	-8.35827
ium	-8.3584
▁bil	-8.3598
▁fem	-8.36078
▁usa	-8.36262
ikk	-8.36279
tal	-8.36332
sted	-8.36383
▁høy	-8.36428
ci	-8.36486
ian	-8.36686
stre	-8.36721
▁con	-8.37182
▁vann	-8.37206
stein	-8.3755
▁lys	-8.3761
les	-8.37648
bar	-8.37665
tan	-8.37892
ine	-8.3819
▁deres	-8.38208
siden	-8.38254
▁laget	-8.38341
▁2008	-8.38366
▁eks	-8.38407
kel	-8.38537
▁lov	-8.38601
ong	-8.38626
▁bl	-8.38937
▁x	-8.38949
▁tv	-8.39122
gn	-8.39126
▁gir	-8.39188
▁brukes	-8.39216
▁new	-8.39261
▁spilte	-8.39541
▁kun	-8.39605
dan	-8.39665
▁russisk	-8.39731
▁februar	-8.39828
▁pu	-8.39926
▁rett	-8.40059
▁kalles	-8.40112
mar	-8.40252
▁min	-8.40288
følge	-8.40302
▁provinsen	-8.40385
▁wa	-8.40477
▁verdens	-8.40539
▁ab	-8.40563
ny	-8.40885
ow	-8.40912
5	-8.41292
mb	-8.41698
▁uten	-8.41746
▁kommer	-8.41795
▁ulike	-8.42069
met	-8.42536
▁2007	-8.42591
▁barn	-8.42693
▁desember	-8.43094
▁innehold	-8.431
▁car	-8.43154
min	-8.43215
hus	-8.43292
▁fjell	-8.43499
▁gjen	-8.43546
▁all	-8.43696
▁spiller	-8.43761
nder	-8.43816
ud	-8.44077
▁september	-8.4438
▁go	-8.44435
tisk	-8.44632
ius	-8.44689
sten	-8.44896
▁få	-8.44933
▁ja	-8.45019
ningen	-8.45117
▁språk	-8.45149
ie	-8.45321
tre	-8.45443
tte	-8.45711
▁lever	-8.46072
▁god	-8.46262
▁ki	-8.46458
itet	-8.46478
isme	-8.46487
▁bruk	-8.4669
art	-8.46731
ac	-8.46906
tak	-8.46986
▁begynte	-8.47178
▁mal	-8.47476
▁oktober	-8.47534
▁opprinnelig	-8.47801
tok	-8.47893
▁mindre	-8.48088
▁kina	-8.48386
ord	-8.484
mor	-8.48651
▁kl	-8.48665
▁eksempel	-8.48811
slag	-8.49
▁nor	-8.49237
ak	-8.49263
per	-8.49286
▁ty	-8.49434
▁san	-8.49612
▁kultur	-8.49897
bel	-8.50044
ron	-8.50109
▁skrevet	-8.5014
und	-8.50213
▁videre	-8.50261
ige	-8.50587
form	-8.50952
▁hus	-8.51054
▁liv	-8.51063
▁startet	-8.51147
ran	-8.51194
▁hver	-8.51251
▁gruppen	-8.5128
inger	-8.51497
7	-8.51909
▁engelsk	-8.51969
▁30	-8.52145
tiske	-8.52208
ken	-8.52281
▁sjø	-8.52314
▁øy	-8.52421
dd	-8.52642
▁je	-8.5273
ou	-8.52849
▁alt	-8.53055
▁skrev	-8.53085
hu	-8.53304
▁kong	-8.53399
▁november	-8.53588
kon	-8.536
mon	-8.53762
▁begge	-8.53878
▁vei	-8.53919
▁fast	-8.54004
ks	-8.54561
▁hen	-8.54686
lse	-8.54905
▁lå	-8.55002
jo	-8.55074
▁ver	-8.55077
▁president	-8.55157
▁nasjonal	-8.55264
▁stein	-8.55379
▁medlem	-8.55411
▁svær	-8.55487
6	-8.55508
▁tysk	-8.55914
▁særlig	-8.55918
▁filmen	-8.55984
▁vel	-8.56309
▁helt	-8.56311
burg	-8.56472
▁sv	-8.56827
▁landet	-8.57121
▁døde	-8.57222
▁igjen	-8.57344
▁2006	-8.57353
▁mye	-8.57434
sp	-8.57514
dalen	-8.57701
▁hennes	-8.57714
4	-8.57862
tid	-8.58027
sch	-8.5815
▁innenfor	-8.5831
fi	-8.58391
ju	-8.58656
▁mu	-8.58682
▁roman	-8.58776
▁ch	-8.58844
til	-8.58945
ley	-8.5905
▁plass	-8.59174
▁sand	-8.59421
▁wi	-8.59434
▁norges	-8.5953
▁fu	-8.59556
▁kort	-8.59573
mark	-8.59662
▁bro	-8.60144
▁2009	-8.60345
▁deretter	-8.60379
▁gjorde	-8.60391
gren	-8.60473
▁syn	-8.60554
▁større	-8.60587
dig	-8.606
sson	-8.6064
▁kjente	-8.60659
fe	-8.60736
▁familien	-8.60823
em	-8.61088
▁ren	-8.61129
▁derfor	-8.61172
vo	-8.61295
ki	-8.61299
ble	-8.61337
ska	-8.6134
▁ste	-8.61355
▁årene	-8.6136
▁bok	-8.61369
ans	-8.61419
ator	-8.61579
stand	-8.6172
▁kor	-8.62007
ighet	-8.62143
▁2005	-8.62491
ug	-8.62574
elsen	-8.62808
let	-8.62924
▁my	-8.62945
▁ju	-8.63297
▁com	-8.63592
og	-8.63613
▁brukt	-8.63729
▁gamle	-8.6377
▁beste	-8.64113
▁bety	-8.64279
lot	-8.64318
▁ur	-8.64633
▁ed	-8.64695
iv	-8.64761
du	-8.64816
fly	-8.64895
▁on	-8.6508
▁berg	-8.65188
▁motor	-8.65212
ting	-8.65477
▁styre	-8.6554
▁25	-8.65673
kom	-8.65687
tu	-8.65741
sto	-8.65754
tion	-8.66085
▁amerikansk	-8.66096
uk	-8.66102
▁parti	-8.66137
▁innbyggere	-8.66275
▁samtidig	-8.66275
▁mon	-8.66309
anske	-8.66559
▁2011	-8.66605
▁cha	-8.66846
▁ord	-8.66862
vel	-8.66949
jer	-8.67326
tz	-8.67584
▁mark	-8.67687
▁bandet	-8.679
▁fag	-8.67971
▁dagen	-8.67985
ham	-8.68071
▁side	-8.68107
▁pla	-8.68153
▁året	-8.6825
rede	-8.68354
dy	-8.68452
ab	-8.68556
▁må	-8.68598
bb	-8.68625
ologi	-8.68628
▁bru	-8.68644
▁kar	-8.68718
▁art	-8.68722
▁mil	-8.68834
ill	-8.68978
vei	-8.69029
if	-8.69192
▁forskjellig	-8.69219
▁tyske	-8.69502
▁vin	-8.69563
▁tidlig	-8.69586
ó	-8.6972
bruk	-8.70188
løp	-8.70283
▁gresk	-8.70439
▁tilhører	-8.7057
▁satt	-8.70745
▁va	-8.70981
lan	-8.71229
▁dermed	-8.71264
▁val	-8.71267
ich	-8.71425
ide	-8.71582
▁ingen	-8.71668
dre	-8.71792
▁seks	-8.71827
▁tur	-8.71861
▁natur	-8.71996
▁orden	-8.72039
tar	-8.7219
lat	-8.72255
bok	-8.72339
lands	-8.72448
▁hol	-8.72565
za	-8.73148
pen	-8.73179
▁halv	-8.73321
▁rom	-8.7335
tiden	-8.73373
ung	-8.73385
▁24	-8.7354
▁via	-8.73599
isering	-8.73713
▁kommunen	-8.73909
ninger	-8.73937
▁svensk	-8.74066
▁selskapet	-8.74072
▁mag	-8.74212
▁datter	-8.74586
▁ville	-8.74631
▁person	-8.74646
nn	-8.74659
▁jord	-8.74767
yl	-8.74979
▁sommer	-8.75122
ip	-8.75153
▁em	-8.75459
▁gul	-8.7548
ation	-8.7559
▁we	-8.75646
landet	-8.75649
▁gull	-8.75768
▁grav	-8.76035
▁tiden	-8.76036
▁gjerne	-8.76083
pi	-8.76398
▁midt	-8.76452
▁21	-8.76488
▁farge	-8.76505
▁ku	-8.76604
▁europa	-8.76633
est	-8.76669
▁tu	-8.76886
▁grad	-8.76914
▁ben	-8.77121
▁dikt	-8.77161
lene	-8.77304
elig	-8.77373
▁støtte	-8.77464
borg	-8.77484
▁22	-8.77573
▁hvert	-8.77701
itt	-8.77733
handling	-8.77756
▁2002	-8.77888
tiv	-8.78104
о	-8.78229
val	-8.78252
su	-8.78272
øya	-8.78338
▁os	-8.78367
▁vise	-8.78395
far	-8.784
tel	-8.78531
▁tar	-8.78625
▁fo	-8.78751
▁slutt	-8.78775
▁can	-8.78776
nk	-8.78912
cu	-8.78922
▁luft	-8.7895
yn	-8.78998
tur	-8.79024
▁bor	-8.79041
▁meg	-8.79122
ris	-8.79335
mme	-8.79351
he	-8.79408
mmer	-8.7963
dom	-8.79751
stasjon	-8.79828
uten	-8.79838
▁sal	-8.79968
▁op	-8.80134
▁gud	-8.80341
van	-8.80613
▁tredje	-8.80757
▁sverige	-8.80808
▁øya	-8.80818
▁lange	-8.80818
▁sj	-8.80905
port	-8.8096
familien	-8.8101
▁bygget	-8.81047
tatt	-8.81177
▁gammel	-8.81186
▁verk	-8.81338
▁basert	-8.81524
▁utviklet	-8.81542
▁betydning	-8.81558
▁christian	-8.81571
satt	-8.81665
spill	-8.8186
▁bre	-8.81934
▁sted	-8.82157
par	-8.8219
▁fotball	-8.82206
leg	-8.82326
▁general	-8.82349
▁amerikanske	-8.82394
▁sentral	-8.82396
my	-8.82398
▁bergen	-8.82498
▁hav	-8.82571
▁forfatter	-8.82674
▁jan	-8.82881
▁23	-8.83015
▁måtte	-8.83099
▁hal	-8.83153
▁står	-8.8316
leder	-8.83262
fjorden	-8.83368
ica	-8.83385
▁2004	-8.83458
prosess	-8.83498
heim	-8.835
▁sto	-8.83506
▁brun	-8.83638
▁au	-8.83765
ssen	-8.83815
▁sett	-8.83841
▁sig	-8.8395
▁fin	-8.84051
▁vis	-8.8435
plan	-8.8439
ek	-8.84453
▁bred	-8.84466
▁lav	-8.84546
▁gruppe	-8.84675
▁utenfor	-8.84702
lsen	-8.84772
▁vo	-8.84791
▁sta	-8.84935
▁van	-8.85137
▁lokal	-8.85212
vet	-8.85261
bro	-8.85563
mål	-8.85624
▁kal	-8.85647
▁ganger	-8.8567
▁arbeidet	-8.85803
▁liten	-8.85819
isert	-8.86016
tro	-8.86052
▁følgende	-8.86267
▁skog	-8.86299
bra	-8.86405
▁von	-8.86433
▁19	-8.86434
bil	-8.86532
▁dr	-8.86568
▁forhold	-8.8662
tin	-8.86635
kar	-8.86698
▁bygd	-8.8683
▁deltok	-8.8706
▁annen	-8.87072
bre	-8.87114
▁deler	-8.87265
inyin	-8.87418
▁viser	-8.87458
mm	-8.87649
▁paul	-8.87762
bygg	-8.87823
▁organ	-8.87853
▁barne	-8.87976
▁ag	-8.88079
ana	-8.88103
50	-8.8812
▁omkring	-8.88148
▁kur	-8.88517
▁fylke	-8.8854
▁spilt	-8.88621
pol	-8.88667
ding	-8.88821
ppe	-8.88855
í	-8.88951
veien	-8.89007
а	-8.89212
che	-8.8933
▁bruker	-8.89469
forening	-8.89692
isere	-8.89697
▁sangen	-8.89711
dyr	-8.89743
▁ve	-8.89754
▁band	-8.89765
▁fransk	-8.89767
▁tekst	-8.89774
▁keiser	-8.89777
han	-8.89835
sti	-8.89906
▁albumet	-8.89956
▁får	-8.90094
skole	-8.90234
sj	-8.90382
▁konge	-8.90521
▁28	-8.90599
sund	-8.90631
▁fred	-8.90639
▁col	-8.90644
▁bri	-8.90653
▁lands	-8.90807
lik	-8.90821
▁nytt	-8.90824
▁pan	-8.90839
ph	-8.90894
q	-8.90956
▁klubben	-8.90966
▁red	-8.91046
▁rød	-8.91109
▁bas	-8.91143
▁tyskland	-8.91202
▁chi	-8.91208
ru	-8.91304
ps	-8.91369
▁2000	-8.9138
fa	-8.91383
rak	-8.914
ah	-8.91462
▁menneske	-8.91484
kan	-8.91563
ino	-8.91815
▁antall	-8.91927
▁plan	-8.92002
dde	-8.92346
selskap	-8.92387
and	-8.92444
▁historie	-8.92463
▁lett	-8.92541
laget	-8.92596
▁fleste	-8.92686
▁kv	-8.92814
heten	-8.92891
▁mari	-8.92961
▁nett	-8.93011
▁z	-8.93123
▁ledet	-8.93159
gel	-8.93191
▁liste	-8.932
▁mulig	-8.93416
▁flytte	-8.93461
rø	-8.93498
sky	-8.93562
▁sen	-8.93598
▁hy	-8.93675
ale	-8.93744
▁gitt	-8.93912
▁skuespiller	-8.93916
▁hø	-8.93956
asjonen	-8.93962
▁valgt	-8.93982
gre	-8.93997
fra	-8.9424
▁industri	-8.94258
▁gra	-8.94292
▁jeg	-8.94309
▁tom	-8.9448
▁sang	-8.94554
▁italiensk	-8.94775
▁regi	-8.94889
▁vinter	-8.94969
ya	-8.9516
▁serien	-8.95248
føring	-8.95302
▁anti	-8.95342
ros	-8.95343
▁sosial	-8.95345
ski	-8.95421
fl	-8.95571
▁rø	-8.95573
▁omfatter	-8.95602
iet	-8.95629
▁gar	-8.95662
ferd	-8.95683
▁stort	-8.95956
ā	-8.96068
lit	-8.96101
ds	-8.96146
▁stat	-8.96197
▁familie	-8.96275
ice	-8.96405
▁spe	-8.96485
▁lite	-8.96726
▁hatt	-8.96806
ika	-8.96889
▁peter	-8.96935
▁valg	-8.9697
▁plate	-8.97233
▁elven	-8.97292
▁arbeider	-8.97559
kor	-8.97584
▁post	-8.97818
▁stedet	-8.97915
▁park	-8.97942
▁riks	-8.98031
banen	-8.98066
øv	-8.9823
vann	-8.98321
vær	-8.98364
▁pri	-8.98408
▁arbeids	-8.98531
idae	-8.98708
samling	-8.98835
setning	-8.98986
ller	-8.99004
som	-8.99016
▁spesielt	-8.99152
▁kla	-8.99208
▁mel	-8.99229
rå	-8.99381
før	-8.99488
▁dess	-8.99558
▁fylkesvei	-8.99611
▁mis	-8.99637
band	-8.99729
dra	-8.99781
ach	-8.9997
▁egne	-8.99996
▁2003	-9.00069
akt	-9.00187
▁pr	-9.00252
▁fant	-9.00541
▁britiske	-9.00599
▁internasjonale	-9.00666
gård	-9.00723
▁kongen	-9.00871
sjøen	-9.00872
styre	-9.00887
▁1990	-9.00965
▁2001	-9.00984
zi	-9.00996
værende	-9.01078
ksjon	-9.01096
▁kol	-9.01145
▁you	-9.01151
▁versjon	-9.01222
▁ek	-9.0142
▁arbeid	-9.01436
▁lik	-9.01493
▁perioden	-9.01527
▁produsert	-9.01591
film	-9.01633
▁mus	-9.01718
bane	-9.01753
▁cor	-9.01859
chi	-9.0225
kamp	-9.02281
▁lei	-9.02738
▁27	-9.0279
mel	-9.02921
▁stats	-9.03034
▁reg	-9.03111
▁radio	-9.03214
▁inkludert	-9.03262
▁gjør	-9.03273
spiller	-9.03274
elt	-9.03339
▁stil	-9.03413
▁folkerepublikk	-9.03474
▁delstaten	-9.03523
kant	-9.03637
▁rock	-9.03657
▁50	-9.03696
▁såkalt	-9.03729
▁vol	-9.03754
las	-9.03822
ini	-9.03958
▁rev	-9.04154
▁fortsatt	-9.04284
liggende	-9.04299
ze	-9.04347
▁100	-9.04372
ive	-9.04417
▁full	-9.04458
▁venn	-9.04488
øl	-9.04501
mal	-9.04527
▁gro	-9.04554
▁robert	-9.04752
▁gav	-9.04787
ys	-9.04788
bygd	-9.04942
båt	-9.04961
råd	-9.04962
▁skolen	-9.04967
side	-9.05172
gar	-9.05175
els	-9.05182
▁viktig	-9.05273
▁fe	-9.05283
ight	-9.05295
lev	-9.05405
▁ry	-9.05421
▁sak	-9.05464
fri	-9.05503
▁kje	-9.05548
ji	-9.05677
▁opprettet	-9.05689
▁26	-9.05699
senter	-9.05744
▁ke	-9.05779
▁én	-9.05828
▁blå	-9.05834
▁don	-9.05848
mu	-9.05932
oc	-9.06049
▁1980	-9.06108
▁aktiv	-9.06131
▁etablert	-9.06216
▁31	-9.06236
▁moderne	-9.06261
▁staten	-9.06502
▁lille	-9.0667
▁fil	-9.06678
lei	-9.06902
blad	-9.0691
▁stra	-9.06937
▁millioner	-9.06962
▁lyd	-9.06973
▁bilde	-9.06993
▁bur	-9.07064
▁fre	-9.07082
▁lars	-9.0724
▁gje	-9.07278
▁jernbane	-9.07288
▁universitet	-9.07378
mun	-9.07391
▁bror	-9.07464
▁tele	-9.07466
▁angrep	-9.07541
ay	-9.07658
и	-9.07679
▁sm	-9.07732
▁sanger	-9.07747
▁arter	-9.07827
▁mac	-9.07837
hl	-9.07881
ater	-9.07966
stående	-9.07981
grad	-9.07993
we	-9.08018
▁enkelte	-9.08038
fjord	-9.08079
▁klar	-9.08292
▁bjørn	-9.08293
stil	-9.08326
xi	-9.08546
▁40	-9.08549
▁åtte	-9.08594
30	-9.08649
▁moh	-9.08782
▁tittelen	-9.08796
▁carl	-9.08803
▁eu	-9.08824
vern	-9.08841
▁29	-9.08952
▁mann	-9.0897
minister	-9.08987
hr	-9.09318
pro	-9.09394
▁blad	-9.09609
▁militær	-9.09713
▁hjem	-9.09741
▁forbindelse	-9.09805
▁pris	-9.10049
res	-9.10244
inne	-9.10258
▁tildelt	-9.10291
▁krigs	-9.10384
▁fer	-9.1041
▁felles	-9.10425
▁fordi	-9.10463
skje	-9.10494
▁hovedsakelig	-9.10519
▁johan	-9.1072
▁system	-9.10838
▁godt	-9.10851
▁knytte	-9.11014
▁england	-9.11038
▁minne	-9.11136
ås	-9.1129
pper	-9.11353
mat	-9.11383
▁gate	-9.11408
▁william	-9.11519
legg	-9.11544
▁syd	-9.11555
▁viktigste	-9.11561
▁slekt	-9.11567
▁mm	-9.1168
▁bygge	-9.11721
▁xi	-9.11782
▁langt	-9.11897
▁utgjør	-9.11908
л	-9.12027
▁bal	-9.12119
lys	-9.1219
ym	-9.1226
är	-9.12349
▁opera	-9.12373
sak	-9.12392
▁tru	-9.12447
syn	-9.12544
▁les	-9.12568
▁dy	-9.12608
▁bort	-9.12624
ære	-9.12633
▁nu	-9.12655
of	-9.12706
▁arm	-9.12843
▁elva	-9.12937
▁kirken	-9.1295
▁ly	-9.13077
stilt	-9.13082
system	-9.13159
▁ex	-9.13204
9	-9.13286
▁finner	-9.13353
▁foran	-9.13382
qu	-9.13443
▁gre	-9.13453
lie	-9.13522
ister	-9.13525
vitenskap	-9.13573
bru	-9.13581
▁politi	-9.13605
olog	-9.13614
bygning	-9.13703
р	-9.13734
▁ber	-9.13782
▁sesongen	-9.1383
løs	-9.13861
ving	-9.13891
punkt	-9.13921
ub	-9.13946
cy	-9.13969
fer	-9.14025
ologisk	-9.14077
▁1999	-9.14092
▁2012	-9.14098
tes	-9.14153
stilling	-9.1419
▁hår	-9.14199
rat	-9.14332
kle	-9.14353
▁ten	-9.14367
▁hjemme	-9.14446
øn	-9.14507
▁hånd	-9.14533
е	-9.14599
▁teater	-9.14679
▁bj	-9.14695
▁plante	-9.14701
sett	-9.14834
▁ring	-9.14895
enes	-9.14938
▁helse	-9.14996
▁sha	-9.14997
▁kvinne	-9.15112
▁london	-9.15128
▁1989	-9.15134
▁martin	-9.15197
don	-9.15233
▁karl	-9.15327
▁ordet	-9.15412
▁møte	-9.15588
ð	-9.15654
▁spor	-9.15825
skip	-9.15852
▁reise	-9.16027
asjoner	-9.1605
kraft	-9.16062
▁svart	-9.16074
▁stemme	-9.16078
stat	-9.16082
▁medlemmer	-9.16089
10	-9.1617
▁omtrent	-9.16183
▁holdt	-9.16273
rik	-9.16286
ola	-9.16507
▁sc	-9.16602
▁stre	-9.16727
▁verden	-9.16791
▁hvit	-9.16824
20	-9.1685
heter	-9.16863
▁hard	-9.16916
▁besto	-9.17013
red	-9.17015
skog	-9.17123
område	-9.17226
▁russland	-9.17304
▁data	-9.1732
▁folk	-9.17324
lis	-9.17354
▁olav	-9.17384
▁veien	-9.17463
▁ø	-9.17559
▁eier	-9.17566
plass	-9.17581
iz	-9.17816
▁tal	-9.17847
nsk	-9.17883
▁arkitekt	-9.18108
▁hvis	-9.18192
▁kat	-9.1839
▁album	-9.18648
lighet	-9.187
▁grunnlagt	-9.18808
▁pal	-9.19061
▁tjeneste	-9.19064
ano	-9.19066
rus	-9.19086
▁makt	-9.19114
▁lege	-9.19137
▁politiker	-9.1916
▁mont	-9.19391
▁pl	-9.19453
kjempe	-9.19474
▁olje	-9.19612
▁serie	-9.19644
▁litt	-9.19775
▁maria	-9.19927
▁1996	-9.19978
▁res	-9.19991
king	-9.19997
ire	-9.19999
ark	-9.20018
sjef	-9.2003
▁air	-9.20044
pris	-9.20095
området	-9.20162
rom	-9.20183
bær	-9.20209
▁fla	-9.20274
▁nok	-9.20293
▁erik	-9.20306
▁pave	-9.20417
▁kilometer	-9.2052
▁topp	-9.20537
▁ban	-9.20603
mus	-9.20616
vid	-9.20672
▁bø	-9.20711
▁dia	-9.20757
▁åpnet	-9.20784
▁grå	-9.20963
fall	-9.21015
▁gal	-9.21046
▁sølv	-9.21076
▁ev	-9.21126
▁best	-9.21157
▁vekt	-9.21161
ald	-9.21168
eres	-9.21183
tning	-9.21273
▁ap	-9.2147
▁slag	-9.21555
▁1998	-9.21646
▁eget	-9.21654
▁ett	-9.2176
ula	-9.21792
up	-9.21806
folk	-9.21952
dals	-9.21992
▁personer	-9.22092
▁representert	-9.22196
▁spi	-9.22198
▁nesten	-9.22249
▁ser	-9.22317
rid	-9.22325
▁svenske	-9.22406
▁ska	-9.22514
▁gjort	-9.22516
fo	-9.22524
ford	-9.22573
lle	-9.22637
alt	-9.22669
▁nest	-9.2268
områder	-9.22691
ú	-9.22761
▁dokument	-9.22761
▁direkte	-9.22761
▁venstre	-9.22765
selskapet	-9.22806
▁tak	-9.22902
▁vår	-9.22916
▁bør	-9.22943
▁utvikling	-9.22957
kjenne	-9.23102
▁dis	-9.23122
▁trans	-9.23122
▁latin	-9.23123
▁fiske	-9.23123
▁franske	-9.23233
▁mennesker	-9.23235
rud	-9.23279
messig	-9.23334
▁danmark	-9.23349
▁årlig	-9.2336
▁ferdig	-9.23412
▁blod	-9.23426
gitt	-9.23434
▁island	-9.23516
lagt	-9.23568
▁mur	-9.23625
▁delt	-9.23733
ført	-9.23863
▁kamp	-9.23912
▁ul	-9.23977
▁produksjon	-9.23989
▁david	-9.24043
way	-9.24054
▁hjelp	-9.24076
mannen	-9.24151
bert	-9.24335
ban	-9.24386
byen	-9.24404
▁design	-9.24409
▁olympisk	-9.24475
ismen	-9.24481
60	-9.24497
▁enkelt	-9.24525
▁høyre	-9.24564
asje	-9.24626
▁handels	-9.24661
▁sø	-9.24671
▁son	-9.24711
▁partiet	-9.24711
▁60	-9.24722
▁sentrum	-9.24826
▁para	-9.25045
▁trondheim	-9.25058
▁dal	-9.25094
led	-9.25122
gruppen	-9.25157
▁seil	-9.25247
kje	-9.25296
▁gri	-9.25334
▁ob	-9.25335
ari	-9.25531
nett	-9.25567
▁krigen	-9.25567
▁sh	-9.25568
▁ført	-9.25606
▁studert	-9.25646
ara	-9.25686
lia	-9.25759
fag	-9.25853
ai	-9.25943
▁ledd	-9.25944
▁sil	-9.25969
mester	-9.26019
▁bank	-9.26042
▁økonomisk	-9.26047
▁års	-9.26224
▁bedre	-9.26478
▁slo	-9.26589
▁drept	-9.26809
▁2013	-9.26818
▁fall	-9.26848
▁dra	-9.2686
▁høyeste	-9.26867
▁ac	-9.26887
holm	-9.26933
▁tatt	-9.26961
ita	-9.26979
▁berlin	-9.27044
▁mas	-9.27136
▁spansk	-9.2715
menn	-9.27224
ida	-9.27306
▁dyr	-9.27316
valg	-9.27341
trykk	-9.27352
▁frankrike	-9.27405
▁herre	-9.27406
▁romersk	-9.27447
istiske	-9.27508
navn	-9.27544
▁energi	-9.27546
huset	-9.2762
▁egg	-9.27702
▁ør	-9.2771
▁kraft	-9.27778
ull	-9.27866
hall	-9.27903
▁samarbeid	-9.27952
▁ant	-9.27965
▁india	-9.27975
▁eid	-9.2798
▁1960	-9.28009
▁sendt	-9.28041
oli	-9.28077
▁sommerfugl	-9.28245
▁1988	-9.28605
▁1982	-9.28605
sjoner	-9.28644
▁verdi	-9.2867
ap	-9.28682
▁henne	-9.28705
▁grev	-9.2892
pu	-9.29054
▁len	-9.29102
▁samling	-9.29176
▁produsere	-9.29196
all	-9.29298
▁lek	-9.29309
▁not	-9.29408
snitt	-9.29443
▁studie	-9.29631
▁slike	-9.29638
▁ji	-9.29731
è	-9.29759
▁stjerne	-9.29857
vil	-9.29858
▁tap	-9.29864
▁af	-9.29923
▁rolle	-9.29933
▁uni	-9.29948
▁miljø	-9.29969
løse	-9.29974
havet	-9.30047
▁punkt	-9.30058
▁viktige	-9.30238
▁smal	-9.30319
▁betydelig	-9.30415
▁1991	-9.3042
▁italia	-9.30424
▁regnes	-9.30674
tjeneste	-9.3076
▁gran	-9.30898
▁hest	-9.30933
oni	-9.31021
α	-9.31025
▁lokale	-9.31045
▁kroppen	-9.31057
▁sir	-9.31118
▁utgav	-9.31221
▁kyst	-9.31278
gan	-9.31301
old	-9.31394
▁sub	-9.31495
ep	-9.31586
▁ci	-9.31617
▁oppkalt	-9.31643
▁1995	-9.31651
tegn	-9.31652
nntil	-9.3166
hy	-9.31674
▁nils	-9.31765
▁skade	-9.31921
ledes	-9.31937
skapet	-9.32043
kin	-9.32049
▁finsk	-9.32073
▁spille	-9.32096
▁selskap	-9.32123
▁kul	-9.32177
lett	-9.32196
▁dans	-9.32227
akademi	-9.32266
▁brø	-9.32287
▁hall	-9.32325
▁distrikt	-9.32361
▁port	-9.32382
zhou	-9.3243
▁gla	-9.32461
elva	-9.32577
slekt	-9.32632
drag	-9.32716
anger	-9.32817
bud	-9.32818
▁thomas	-9.32888
▁legge	-9.3294
▁start	-9.33191
▁mod	-9.33409
▁borger	-9.33448
▁virke	-9.33478
▁york	-9.33521
▁mad	-9.33697
▁sogn	-9.33713
▁danske	-9.33765
▁dan	-9.33805
gift	-9.33894
▁mos	-9.33923
▁funksjon	-9.34076
▁ya	-9.34164
▁lin	-9.34331
▁lær	-9.34436
▁ettersom	-9.34437
▁zh	-9.34465
itz	-9.34477
rop	-9.34494
our	-9.34577
ativ	-9.34654
70	-9.3466
▁korte	-9.34679
mand	-9.34709
▁gren	-9.34763
▁tilsvarende	-9.34787
▁dom	-9.34854
hel	-9.34864
ien	-9.34898
sal	-9.34899
kast	-9.34928
iver	-9.34932
kla	-9.34932
ix	-9.34952
sam	-9.34984
▁dannet	-9.35038
▁råd	-9.35183
▁resultat	-9.35209
▁skip	-9.35217
▁za	-9.35241
▁west	-9.35287
▁fl	-9.35288
▁aldri	-9.35433
▁1970	-9.35443
▁krig	-9.35451
▁george	-9.35477
▁eldre	-9.35485
▁trekk	-9.35486
søk	-9.35528
aksjon	-9.35533
fjell	-9.3555
kh	-9.35597
▁henrik	-9.35602
▁strøm	-9.35659
▁menn	-9.35771
shi	-9.35909
▁fremst	-9.35928
▁regionen	-9.35962
▁fortsatte	-9.35994
systemet	-9.36016
▁delen	-9.36039
int	-9.36056
▁stasjon	-9.36084
tør	-9.36101
▁br	-9.36179
▁produkt	-9.36241
▁fåt	-9.36448
lement	-9.36461
▁politisk	-9.36715
rum	-9.36716
▁katolsk	-9.36724
▁afrika	-9.36736
▁solgt	-9.36762
▁rot	-9.36788
▁stu	-9.36799
▁james	-9.36814
▁80	-9.36875
▁havn	-9.36877
▁hor	-9.37014
▁johannes	-9.37033
hund	-9.37075
▁biskop	-9.37143
▁shi	-9.37228
▁trykk	-9.37271
▁1984	-9.37387
▁ball	-9.3742
▁slekten	-9.37433
ved	-9.37455
▁økt	-9.37459
▁lind	-9.37546
48	-9.37564
▁boken	-9.37578
age	-9.37703
anlegg	-9.37735
▁syv	-9.37833
▁minst	-9.37865
navnet	-9.37866
▁gen	-9.37977
▁eldste	-9.38035
rin	-9.38077
qui	-9.38279
bilde	-9.38424
istisk	-9.38525
året	-9.38547
▁hed	-9.3859
ial	-9.3865
▁symbol	-9.38696
▁christ	-9.38701
her	-9.38779
▁type	-9.38823
▁politiske	-9.38965
organisasjon	-9.39011
bjørn	-9.39013
krets	-9.39059
våg	-9.39071
eri	-9.39099
▁konsert	-9.39117
tall	-9.39121
▁fjern	-9.39175
nu	-9.39182
▁heter	-9.39204
▁veg	-9.39204
▁våpen	-9.39211
musikk	-9.39215
wi	-9.39279
▁georg	-9.39369
▁1997	-9.39371
▁holde	-9.39376
▁flagg	-9.3943
givelse	-9.39432
verket	-9.39441
▁kinas	-9.39562
ata	-9.39608
▁benyttet	-9.39729
▁gl	-9.39743
tta	-9.39762
▁inter	-9.39773
▁mø	-9.39853
▁grønn	-9.39895
▁1992	-9.40043
▁kra	-9.40117
▁tett	-9.4018
▁indre	-9.40198
alder	-9.40288
98	-9.40333
▁jon	-9.40422
klubb	-9.4047
forbund	-9.40567
▁anne	-9.40604
merke	-9.40614
akk	-9.40633
▁dager	-9.40691
▁1994	-9.40718
▁brasil	-9.40722
▁standard	-9.40727
erende	-9.4076
▁university	-9.4077
▁dansk	-9.4086
▁japan	-9.40867
vare	-9.4092
▁svarte	-9.41009
produksjon	-9.41068
tol	-9.41074
▁europeisk	-9.41139
▁pop	-9.41157
▁slutten	-9.41184
elser	-9.41224
▁mc	-9.41279
▁stø	-9.41365
▁høyde	-9.41387
▁folketelling	-9.4139
▁gård	-9.41416
iner	-9.41455
▁renner	-9.4153
ød	-9.41576
▁bass	-9.41592
39	-9.41651
brudd	-9.41718
▁kryss	-9.4174
fest	-9.41785
mis	-9.41832
▁bel	-9.41907
▁paris	-9.41932
ringen	-9.42018
▁avdeling	-9.42022
▁grand	-9.42049
fører	-9.42057
rit	-9.42069
▁grense	-9.42091
fisk	-9.42102
▁kir	-9.42106
med	-9.42132
satte	-9.42213
▁museum	-9.42292
▁munn	-9.42304
▁figur	-9.42338
▁dam	-9.42369
▁høyere	-9.42377
▁pra	-9.42427
program	-9.42492
pl	-9.42521
▁super	-9.42559
iti	-9.42601
▁storbritannia	-9.42765
▁1976	-9.42775
▁slått	-9.42777
har	-9.4283
▁bad	-9.42955
kra	-9.42965
▁thor	-9.43036
▁populær	-9.43037
aktig	-9.43078
▁drev	-9.43109
▁modell	-9.43119
▁dyp	-9.43124
▁vas	-9.43174
ins	-9.4319
8	-9.43227
ani	-9.43291
▁sterkt	-9.43323
ish	-9.43351
▁ze	-9.43372
▁linje	-9.43379
▁befolkningen	-9.43515
liv	-9.43581
▁opprør	-9.43615
skrift	-9.43619
▁regjeringen	-9.43656
▁felt	-9.4366
plat	-9.43747
▁kvinner	-9.43776
▁følger	-9.43915
▁slaget	-9.43976
▁karakter	-9.44001
▁kontroll	-9.44053
▁syk	-9.44074
▁tha	-9.44112
68	-9.44141
с	-9.44153
▁professor	-9.44159
press	-9.44183
▁følge	-9.44272
organ	-9.44322
cc	-9.44322
▁un	-9.44573
bø	-9.44574
▁kron	-9.44589
▁løpet	-9.44615
vit	-9.44662
syk	-9.44746
▁plassert	-9.44763
instrument	-9.448
82	-9.44822
▁1993	-9.44863
▁offentlig	-9.44874
▁lengde	-9.44874
▁sag	-9.44971
▁kunstner	-9.45148
▁åpning	-9.45227
los	-9.45463
án	-9.45504
bus	-9.45516
▁nærings	-9.45568
▁fest	-9.45574
▁utnevnt	-9.45578
▁egentlig	-9.45603
vig	-9.45643
ance	-9.45945
80	-9.45994
▁gode	-9.45996
▁retning	-9.45996
felt	-9.46006
▁sel	-9.4606
▁natt	-9.46088
▁spre	-9.46088
▁ram	-9.461
retning	-9.4611
▁ang	-9.46195
▁michael	-9.46286
▁oppdaget	-9.4629
▁poeng	-9.46317
▁tj	-9.46319
tale	-9.46319
▁likevel	-9.46341
▁verdenskrig	-9.46382
▁sy	-9.4644
▁oppført	-9.4649
tic	-9.46538
▁wal	-9.46573
▁informasjon	-9.466
elige	-9.46614
ther	-9.46618
▁nabo	-9.46636
▁sund	-9.46674
▁wil	-9.46702
▁led	-9.46752
▁middel	-9.46801
▁bind	-9.46807
▁grensen	-9.4681
36	-9.46831
stoff	-9.46869
▁cla	-9.46875
▁fot	-9.46913
к	-9.46955
▁skje	-9.46966
▁dronning	-9.4701
▁flat	-9.47019
▁bon	-9.47054
▁områder	-9.4713
▁utstyr	-9.47132
▁anders	-9.47137
kere	-9.47388
fin	-9.4748
nivå	-9.47523
▁tegne	-9.47524
deling	-9.47546
▁unge	-9.47565
▁sim	-9.47599
▁jern	-9.4761
stri	-9.47775
▁henhold	-9.47805
78	-9.47841
▁båt	-9.47845
▁edderkopp	-9.47851
▁uttrykk	-9.47967
▁stilling	-9.47968
grunn	-9.48206
▁180	-9.4821
▁produsent	-9.48244
▁lærer	-9.48247
▁måte	-9.48315
▁skjer	-9.48335
▁elv	-9.48373
park	-9.48391
sette	-9.48425
▁sommeren	-9.48432
▁time	-9.48434
▁2014	-9.48482
▁regjering	-9.48494
66	-9.48522
▁behandling	-9.48598
▁skrift	-9.48621
▁fv	-9.48648
▁myr	-9.48664
▁delta	-9.48776
▁elve	-9.48888
▁interesse	-9.48902
ult	-9.48913
▁maskin	-9.48923
fu	-9.48924
▁stiftet	-9.49048
▁universitetet	-9.49103
▁war	-9.49145
▁gitar	-9.49159
à	-9.49195
▁1986	-9.49208
▁sur	-9.49323
▁nordøst	-9.49397
aks	-9.49486
▁regel	-9.49509
71	-9.49601
iserte	-9.49665
strøm	-9.49719
▁drift	-9.49797
ama	-9.49832
▁skrive	-9.49907
abel	-9.49912
lang	-9.49915
sekretær	-9.49936
▁gjøre	-9.49953
96	-9.49985
lla	-9.49993
departementet	-9.50108
▁økonomi	-9.50176
▁utført	-9.50201
cia	-9.50242
senteret	-9.50267
▁forsøk	-9.5044
▁turn	-9.50443
▁transport	-9.50486
ite	-9.5051
lek	-9.50537
▁brukte	-9.50557
▁die	-9.50601
▁los	-9.50663
arbeid	-9.50668
▁skyld	-9.50715
▁region	-9.50726
▁spar	-9.50736
40	-9.50879
ple	-9.50915
farge	-9.50958
lund	-9.50996
que	-9.51015
▁jean	-9.51132
unt	-9.51228
▁litteratur	-9.51307
▁forfatteren	-9.51382
linjen	-9.51419
▁ordenen	-9.51465
▁kjøpt	-9.51515
▁tall	-9.5157
▁distriktet	-9.51654
rør	-9.51665
ky	-9.51698
vatnet	-9.51789
jen	-9.5191
▁gården	-9.51975
pir	-9.52048
▁drive	-9.52052
▁hvite	-9.52113
▁arrangert	-9.52192
▁richard	-9.52192
medalje	-9.52192
midler	-9.52194
▁nærmest	-9.52197
▁regn	-9.52199
▁mester	-9.5227
arm	-9.52289
▁totalt	-9.52335
shire	-9.52401
▁she	-9.52417
▁danne	-9.52452
▁kam	-9.52543
▁sentrale	-9.52639
▁periode	-9.52682
low	-9.52695
▁arten	-9.52759
79	-9.52832
virkning	-9.52932
ō	-9.52955
▁øverst	-9.52957
▁1950	-9.52983
▁sørøst	-9.52992
ob	-9.53003
▁lund	-9.53053
▁vik	-9.53169
gjorde	-9.53371
▁tradisjon	-9.53455
nar	-9.5351
▁metall	-9.53516
▁japansk	-9.5357
gruppe	-9.53589
part	-9.53685
oll	-9.53694
š	-9.53725
▁funnet	-9.5373
▁1979	-9.53739
cha	-9.53883
▁høsten	-9.53901
ala	-9.53937
▁fro	-9.53959
krigen	-9.54015
▁kampen	-9.54102
▁salt	-9.54119
gått	-9.54127
▁lø	-9.5415
▁sau	-9.54266
arter	-9.54267
mper	-9.54292
dor	-9.5441
▁ky	-9.54472
▁suksess	-9.545
▁2017	-9.54517
▁2016	-9.54521
▁sivil	-9.54555
▁steder	-9.54569
▁cr	-9.54611
▁åpen	-9.54635
▁ungdoms	-9.5464
▁løp	-9.54694
▁q	-9.54703
▁skr	-9.54717
skolen	-9.54758
ømme	-9.54793
▁løs	-9.54802
▁fjord	-9.5481
▁løper	-9.54823
tus	-9.54991
graf	-9.55053
77	-9.55254
▁århundre	-9.55282
▁1974	-9.55294
▁variant	-9.55365
▁stod	-9.55386
▁kva	-9.5542
bor	-9.55421
▁prest	-9.55445
▁gru	-9.5548
gl	-9.55493
▁undersøkelse	-9.55504
▁epi	-9.55523
ping	-9.55678
▁komp	-9.55734
▁500	-9.55735
uc	-9.55752
zz	-9.55768
▁delvis	-9.55817
▁ii	-9.55838
▁glo	-9.55967
▁effekt	-9.55986
▁just	-9.56002
▁1985	-9.56081
▁1987	-9.56083
▁samle	-9.56086
▁wo	-9.56267
▁cu	-9.56301
▁danner	-9.56492
▁vid	-9.56645
▁israel	-9.56685
87	-9.5672
▁ledelse	-9.56796
▁hva	-9.5683
zo	-9.56833
▁komponist	-9.56862
▁mengde	-9.5687
gården	-9.56872
▁1978	-9.56878
▁statsminister	-9.56882
▁frank	-9.56891
▁daglig	-9.57047
▁bygg	-9.57143
lser	-9.57164
▁gass	-9.5727
▁lagt	-9.5732
▁nordlige	-9.57355
34	-9.57452
▁holm	-9.57559
ora	-9.57698
▁black	-9.5772
▁nordvest	-9.57734
▁styrke	-9.57799
▁stadig	-9.57805
▁200	-9.57863
▁motstand	-9.57918
▁spesial	-9.57996
▁lau	-9.58048
▁sn	-9.58067
▁nummer	-9.58102
get	-9.58124
▁kanal	-9.5815
kri	-9.58172
▁krist	-9.58177
▁marine	-9.58189
▁størrelse	-9.58252
▁hell	-9.58336
▁vokst	-9.58346
tti	-9.58401
▁publisert	-9.58469
▁relativ	-9.58469
▁profesjonell	-9.5847
▁klassisk	-9.5847
▁foreldre	-9.58471
▁komme	-9.58485
rike	-9.58498
▁forskning	-9.58501
▁louis	-9.58506
samfunn	-9.5855
haug	-9.58557
▁riksvei	-9.5856
▁bygningen	-9.58642
▁maur	-9.58737
▁lære	-9.58772
▁stasjonen	-9.58866
▁heller	-9.58869
▁karriere	-9.5892
▁bruke	-9.58964
ain	-9.59022
merket	-9.59176
▁dro	-9.59207
▁bern	-9.59262
▁world	-9.59282
skudd	-9.59303
▁areal	-9.59306
gler	-9.59309
▁2015	-9.59311
▁møtte	-9.59316
▁sports	-9.59316
▁samfunns	-9.59385
fal	-9.59419
▁leg	-9.59432
▁franc	-9.59437
▁hovedstaden	-9.59496
så	-9.59515
▁hær	-9.59583
▁mottok	-9.59587
▁idretts	-9.59646
▁ansvar	-9.59673
▁merke	-9.59741
nis	-9.59895
▁verne	-9.59904
▁hit	-9.59929
stille	-9.59934
gger	-9.6001
▁erstattet	-9.60056
▁fj	-9.60101
▁dårlig	-9.60104
▁stavanger	-9.6011
▁musikkalbum	-9.60114
▁cal	-9.60124
88	-9.60184
▁gå	-9.60268
▁vold	-9.60283
mod	-9.60313
▁ana	-9.60339
▁cm	-9.60363
▁tegn	-9.60385
▁ter	-9.60524
▁che	-9.60562
hol	-9.60564
▁ph	-9.6058
▁hovedstad	-9.60635
gjør	-9.60721
fart	-9.60782
ney	-9.60829
tog	-9.60865
jev	-9.60867
ence	-9.60877
ade	-9.6088
gram	-9.60909
▁gjelder	-9.60929
▁fjerde	-9.60931
▁tydelig	-9.60933
▁1977	-9.60943
ij	-9.60944
stedet	-9.60971
▁sørvest	-9.60976
▁bestemt	-9.6104
tsj	-9.61172
▁student	-9.61259
sser	-9.61305
rådet	-9.61307
▁real	-9.61311
ografi	-9.61371
win	-9.61488
lære	-9.61577
▁forsvar	-9.61687
▁benyttes	-9.61689
▁arn	-9.61742
▁stockholm	-9.61761
▁char	-9.61812
▁hører	-9.61823
loven	-9.61843
▁city	-9.61872
74	-9.61897
vesen	-9.62023
stu	-9.62062
▁fører	-9.62086
▁nasjonale	-9.62164
▁anlegget	-9.62189
67	-9.62306
▁gutt	-9.62311
delen	-9.62328
▁musiker	-9.62333
▁viste	-9.62348
veg	-9.62386
44	-9.62432
▁aust	-9.62452
gata	-9.6249
▁ønsket	-9.62506
din	-9.62556
ekspedisjon	-9.62601
▁hovedrollen	-9.62604
▁charles	-9.6263
ille	-9.62638
▁ole	-9.62638
bin	-9.6266
▁administrasjons	-9.62669
63	-9.62684
gra	-9.62767
▁varme	-9.62791
mma	-9.628
▁70	-9.62802
▁bay	-9.62832
▁35	-9.62843
motor	-9.62847
▁kategori	-9.62855
hode	-9.62878
▁kart	-9.62896
86	-9.62921
▁foss	-9.62947
▁kost	-9.63055
utstilling	-9.63064
▁sykdom	-9.63151
▁harald	-9.63179
jiang	-9.63198
ott	-9.632
▁temperatur	-9.63248
▁por	-9.63279
▁røde	-9.63309
skriv	-9.63323
kropp	-9.63416
▁kjerne	-9.63505
lv	-9.63506
▁neste	-9.63521
84	-9.63545
ville	-9.63554
08	-9.63644
▁kors	-9.63816
▁kraftverk	-9.63914
58	-9.63926
vekt	-9.64091
nom	-9.64141
ura	-9.64154
▁naturlig	-9.64258
stor	-9.64288
hav	-9.64294
▁københavn	-9.64303
▁derimo	-9.64315
▁1975	-9.64316
gna	-9.64455
65	-9.6451
svis	-9.64693
klar	-9.64726
▁finland	-9.64882
the	-9.64894
▁ting	-9.64964
org	-9.64981
øst	-9.65014
▁uke	-9.65026
▁kjøre	-9.6509
▁fredrik	-9.6514
▁etterhvert	-9.65166
▁cup	-9.65187
pur	-9.65199
▁lenger	-9.65208
▁borg	-9.65219
▁nam	-9.65221
orm	-9.65299
stid	-9.65361
lapp	-9.65417
▁fange	-9.65511
vind	-9.65534
▁begrepet	-9.65539
▁indisk	-9.65545
▁resten	-9.6555
▁app	-9.65567
▁besøk	-9.65587
pel	-9.65591
▁leir	-9.65671
▁nevnes	-9.65758
▁engelske	-9.65823
på	-9.65835
pan	-9.65874
▁drama	-9.65885
▁organisasjon	-9.65886
▁rad	-9.65936
▁britisk	-9.65945
strand	-9.66017
ī	-9.66035
▁lengre	-9.6606
medlem	-9.66068
▁vær	-9.66113
evne	-9.66175
▁slott	-9.66219
▁klasse	-9.66259
▁auto	-9.66271
85	-9.66402
▁amerika	-9.66437
▁virksomhet	-9.66563
▁dog	-9.66565
bri	-9.66638
jan	-9.6664
▁oppgave	-9.66642
partiet	-9.66725
▁passer	-9.66741
73	-9.66759
gående	-9.66769
▁selve	-9.66808
dam	-9.66813
▁retts	-9.66839
▁1972	-9.66912
▁prosent	-9.66918
▁sikre	-9.66928
ão	-9.66946
▁søster	-9.66978
▁sterke	-9.66984
▁kh	-9.67019
▁rik	-9.67025
▁leve	-9.67069
tek	-9.6708
▁albert	-9.67102
▁påvirke	-9.67124
▁faren	-9.67173
ios	-9.67212
▁tung	-9.67241
nevn	-9.67283
ball	-9.67301
62	-9.67319
▁stav	-9.67347
▁koloni	-9.67386
▁fjorden	-9.67404
parti	-9.6743
▁hei	-9.67477
▁fal	-9.67535
▁divisjon	-9.67542
▁utdanning	-9.67543
▁mørk	-9.67652
▁metal	-9.67721
▁thi	-9.67728
kilden	-9.67802
▁ordfører	-9.67821
▁1930	-9.67823
▁altså	-9.67826
▁omfattende	-9.67847
bygging	-9.67929
▁dersom	-9.6796
▁jobb	-9.67968
oy	-9.67981
▁pass	-9.68143
▁gui	-9.68149
▁syr	-9.68151
az	-9.68166
46	-9.68246
▁sju	-9.68329
▁kraftig	-9.68365
▁enten	-9.68495
▁bygde	-9.68624
well	-9.68631
▁eksempler	-9.6869
▁parlament	-9.6869
▁hjerte	-9.68693
stø	-9.68772
mas	-9.68913
omme	-9.68929
▁operasjon	-9.68954
▁ö	-9.69028
▁total	-9.69043
▁kroner	-9.69051
▁euro	-9.69175
35	-9.69175
▁gy	-9.69266
н	-9.69282
kammer	-9.69299
▁sten	-9.69302
▁organisasjonen	-9.69319
riket	-9.69324
▁ep	-9.69342
90	-9.69354
▁bolig	-9.69436
field	-9.69464
▁avis	-9.6956
▁kardinal	-9.69591
▁vanskelig	-9.69596
▁south	-9.696
▁lufthavn	-9.69603
▁sky	-9.69662
gangen	-9.69676
yang	-9.6968
▁brann	-9.69697
heng	-9.69703
▁bøker	-9.69736
gard	-9.69737
ori	-9.69872
plasser	-9.69899
grav	-9.69899
▁strand	-9.69914
one	-9.70059
▁bla	-9.70187
▁jens	-9.70195
▁grupper	-9.70251
▁mill	-9.70273
▁forsvars	-9.70399
▁landsby	-9.70407
▁flo	-9.70461
т	-9.70492
▁1983	-9.705
м	-9.705
▁hurtig	-9.70504
▁kontakt	-9.70507
▁typisk	-9.70507
fyll	-9.7054
elli	-9.70572
gaard	-9.70605
▁inkluderer	-9.70645
▁fugle	-9.70665
▁vinge	-9.70777
delse	-9.70835
eks	-9.70841
▁gun	-9.70844
atur	-9.70925
▁redaktør	-9.70947
sol	-9.70995
mund	-9.71039
▁utvikle	-9.71078
▁rein	-9.71254
▁løv	-9.713
▁1981	-9.71418
▁opprinnelse	-9.71418
skjold	-9.7142
▁eg	-9.71533
historie	-9.71583
▁spilles	-9.71671
▁seier	-9.71731
▁90	-9.71773
ico	-9.71806
43	-9.71861
▁wei	-9.7187
bare	-9.71912
slav	-9.71959
▁befolkning	-9.71986
▁het	-9.72002
hn	-9.72008
▁tang	-9.72062
▁und	-9.72083
▁trafikk	-9.72087
▁est	-9.7215
▁festning	-9.72229
18	-9.72238
▁skape	-9.72248
drift	-9.7232
▁berømt	-9.72344
▁religiøs	-9.72344
▁national	-9.72344
▁arabisk	-9.72345
▁begynnelsen	-9.7235
▁knut	-9.72353
▁jazz	-9.7237
saker	-9.72381
▁us	-9.7244
fugl	-9.72445
▁haug	-9.725
▁skips	-9.7251
▁gall	-9.72519
▁innsjøen	-9.72549
▁alb	-9.72591
forsker	-9.72617
trolig	-9.72618
▁dyre	-9.72654
▁tanke	-9.72659
▁styrker	-9.72681
lus	-9.72686
▁cap	-9.72743
▁pot	-9.72747
▁1800	-9.72817
▁hellig	-9.72824
▁stille	-9.72895
▁klo	-9.72899
▁larven	-9.72918
▁område	-9.7293
▁scene	-9.72938
▁domin	-9.72965
person	-9.73031
▁skipet	-9.73032
▁formel	-9.73043
vest	-9.73098
▁offisiel	-9.73165
hal	-9.73196
stru	-9.73248
illa	-9.7325
▁privat	-9.73275
▁sannsynlig	-9.73278
▁passasjer	-9.73278
▁øvrig	-9.73279
▁hvilke	-9.73279
▁1969	-9.73292
▁rute	-9.73302
▁hustru	-9.73311
▁buss	-9.7333
▁hå	-9.73347
▁kull	-9.73451
14	-9.73532
▁forsknings	-9.73646
▁nr	-9.73683
▁driver	-9.73695
gikk	-9.73725
▁mak	-9.73742
▁fylkes	-9.73745
gle	-9.73767
stall	-9.73809
full	-9.73818
▁win	-9.73832
voll	-9.73854
▁poly	-9.73901
▁off	-9.73928
▁mik	-9.73959
▁mente	-9.74024
▁nederlandsk	-9.74025
ritt	-9.74045
▁høyt	-9.74063
▁formann	-9.74144
▁betegne	-9.74213
▁international	-9.74222
▁utdannet	-9.74222
д	-9.74222
▁religion	-9.74222
▁1920	-9.74247
25	-9.74254
▁teori	-9.74395
▁song	-9.74407
76	-9.74413
wood	-9.74418
▁mørke	-9.74418
våpen	-9.74438
▁45	-9.74449
▁jakt	-9.74554
rup	-9.74569
▁test	-9.74668
ón	-9.74681
▁kj	-9.74688
ben	-9.74753
▁arne	-9.7477
▁sende	-9.74774
▁militære	-9.7479
▁prosjekt	-9.74791
▁vit	-9.74809
▁kast	-9.74846
▁grenser	-9.7485
rad	-9.74864
▁sko	-9.74879
▁høye	-9.74982
▁rå	-9.74988
▁hage	-9.75032
▁historiske	-9.75099
47	-9.75134
ér	-9.75148
▁observa	-9.75174
▁hverandre	-9.75174
kommunikasjon	-9.75175
▁brensel	-9.75176
manns	-9.75183
▁1971	-9.75192
kapasitet	-9.75217
▁bakgrunn	-9.7522
komst	-9.75232
▁sjef	-9.75246
vikler	-9.75492
▁program	-9.75524
lon	-9.75597
▁anna	-9.75751
▁uavhengig	-9.75933
formet	-9.76008
▁raskt	-9.76014
41	-9.76054
▁kristian	-9.76061
slaget	-9.7607
▁stoppe	-9.76078
▁havet	-9.76091
språk	-9.76097
feltet	-9.76104
▁voksne	-9.76136
▁1945	-9.76146
hastighet	-9.76147
▁1973	-9.76151
▁melodi	-9.76153
▁1968	-9.76155
▁tids	-9.76165
vinger	-9.76169
▁johann	-9.76195
samisk	-9.7628
15	-9.76286
▁bol	-9.76302
uf	-9.7632
ische	-9.76336
▁mini	-9.76376
▁innført	-9.76377
▁anton	-9.76378
▁union	-9.76403
kommune	-9.76426
møte	-9.76464
▁pol	-9.76469
▁tross	-9.76472
▁regjerings	-9.76473
▁samlet	-9.76517
▁sørlige	-9.76534
kirke	-9.76593
99	-9.76597
nik	-9.76602
▁hopp	-9.76653
▁pin	-9.76668
▁lan	-9.76669
▁hoff	-9.76703
ova	-9.76727
under	-9.76764
luk	-9.76831
▁polsk	-9.76873
▁overfor	-9.76881
bul	-9.76903
▁roma	-9.76968
▁north	-9.77039
▁klubb	-9.77105
▁tilgjengelig	-9.77106
▁1952	-9.77106
▁teknisk	-9.77107
▁fengsel	-9.77107
▁vitenskapelig	-9.77113
▁sykehus	-9.7712
▁1967	-9.77123
▁ok	-9.77145
fat	-9.77182
▁stammer	-9.77196
▁presse	-9.77201
▁streng	-9.77256
▁gam	-9.77268
▁representerer	-9.77358
bånd	-9.77376
69	-9.77447
herre	-9.77522
trinn	-9.77594
spor	-9.77604
59	-9.77643
▁kontor	-9.77672
▁tettstedet	-9.77892
▁representant	-9.77972
▁elektrisk	-9.78087
▁spesiell	-9.78088
▁canada	-9.7809
▁markeds	-9.78093
▁mulighet	-9.78115
trekk	-9.78141
▁opphav	-9.7816
▁rask	-9.78169
▁skifte	-9.78181
lov	-9.78206
▁hæren	-9.78211
svik	-9.78278
▁pen	-9.78359
produsent	-9.78378
middel	-9.78395
rio	-9.78422
fang	-9.78464
lid	-9.7847
▁ref	-9.78566
▁300	-9.78594
▁hjelpe	-9.78622
levende	-9.78708
▁camp	-9.78777
49	-9.78813
▁posisjon	-9.7886
▁log	-9.78969
kov	-9.79074
▁xiàn	-9.79077
▁øvre	-9.79085
▁omtalt	-9.79113
▁eiendom	-9.79141
▁alltid	-9.79155
▁kilde	-9.79182
▁problem	-9.79279
▁stan	-9.79283
byrå	-9.79348
▁rike	-9.79367
stykke	-9.79401
▁vm	-9.79406
▁larvene	-9.79415
▁prisen	-9.79502
komme	-9.79572
plassen	-9.7959
fil	-9.79593
▁kil	-9.7969
▁cam	-9.79756
▁krets	-9.7985
01	-9.79975
▁institutt	-9.80034
38	-9.8006
▁stift	-9.80066
▁1965	-9.80094
▁spania	-9.80106
bridge	-9.8013
▁holder	-9.80139
▁jøde	-9.80162
sberg	-9.80199
▁landbruk	-9.80214
▁korea	-9.80218
▁krav	-9.80264
▁direktør	-9.80287
▁bomb	-9.80373
75	-9.80398
▁eli	-9.80424
▁tettsted	-9.80432
▁fyr	-9.8047
▁nes	-9.80532
▁sesong	-9.80584
▁grunnlag	-9.80597
▁sterk	-9.80639
▁rase	-9.80791
▁sær	-9.80946
▁tam	-9.80958
hild	-9.80996
▁front	-9.81005
▁vokal	-9.8103
▁teksten	-9.81055
▁bronse	-9.81085
▁1956	-9.81087
▁innbyggertall	-9.81087
▁innflytelse	-9.81087
▁joseph	-9.81087
▁school	-9.81087
▁lengst	-9.81095
▁1940	-9.81106
▁rang	-9.81128
▁1900	-9.8115
ikken	-9.81158
▁iii	-9.81159
▁sammenheng	-9.8117
dro	-9.81208
▁fulgte	-9.81211
▁overflate	-9.81221
▁livet	-9.81243
▁mobil	-9.81286
kunst	-9.81345
▁bispedømme	-9.81353
▁sønnen	-9.81446
pek	-9.81525
▁vend	-9.81577
▁jevn	-9.81612
16	-9.81634
▁elev	-9.81673
barn	-9.81702
fond	-9.81936
gul	-9.82
▁blei	-9.82005
▁stol	-9.82012
▁zi	-9.82073
▁deriblant	-9.82107
ι	-9.82107
▁bokstav	-9.82109
▁1966	-9.82127
▁lansert	-9.82135
▁hon	-9.82139
dis	-9.82172
▁flyplass	-9.82274
hev	-9.82323
▁hud	-9.82352
▁kvinnelig	-9.82368
ugh	-9.8239
▁ansvarlig	-9.82413
▁utøve	-9.82416
▁bio	-9.82459
▁qu	-9.82467
kka	-9.82472
▁feil	-9.82498
vekst	-9.82512
▁endret	-9.82517
▁sort	-9.82572
▁atom	-9.82591
▁begynner	-9.8262
▁reform	-9.82638
95	-9.82667
▁master	-9.82677
▁ramme	-9.82749
▁star	-9.82778
fulle	-9.82813
▁thr	-9.82873
▁flå	-9.8293
▁omtale	-9.82948
▁bevegelse	-9.82987
в	-9.83112
▁jur	-9.83134
▁original	-9.83135
▁inspirert	-9.83138
▁sovjetunionen	-9.83138
▁byprefekturet	-9.83138
konstruksjon	-9.83138
ρ	-9.83138
▁middelsstor	-9.83138
▁alf	-9.83145
▁ytre	-9.83292
▁henry	-9.83321
▁ung	-9.83334
foss	-9.83341
▁heng	-9.83404
▁bry	-9.83461
▁vind	-9.83463
▁zu	-9.83509
▁folket	-9.83606
▁journalist	-9.83697
▁øke	-9.83777
mond	-9.83803
▁kalk	-9.83928
▁turist	-9.83931
tun	-9.84075
▁gjeste	-9.84099
etter	-9.84147
▁trøndelag	-9.8418
▁østerrike	-9.84181
▁ekteskap	-9.84182
▁forteller	-9.84188
▁video	-9.842
▁våren	-9.842
▁finalen	-9.84202
▁programmet	-9.84207
▁hode	-9.84265
▁yu	-9.84323
▁odd	-9.84326
▁rollen	-9.84368
▁fas	-9.84431
kanten	-9.84433
▁kristen	-9.84526
familie	-9.8455
virksomhet	-9.84597
utvikling	-9.84599
▁klima	-9.84622
ies	-9.84703
ordenen	-9.84798
▁tilhøre	-9.84842
▁flu	-9.84887
▁bull	-9.8493
▁senter	-9.84996
▁utføre	-9.85034
arbeider	-9.85035
▁dø	-9.85078
▁hertug	-9.8517
▁tårn	-9.85202
ß	-9.85232
▁objekt	-9.85232
▁nærmere	-9.85243
ов	-9.85249
▁skjedde	-9.85254
▁harry	-9.85255
▁1948	-9.85255
artist	-9.85257
gjøre	-9.85294
▁avhengig	-9.85304
gå	-9.85318
▁kalte	-9.85351
▁saint	-9.85367
▁måneder	-9.85383
92	-9.85406
▁landsbyen	-9.85417
12	-9.8545
town	-9.85473
▁artene	-9.8551
▁produksjons	-9.85569
▁nivå	-9.85577
▁lage	-9.85671
forbindelse	-9.85675
▁byer	-9.85681
▁bord	-9.85738
pass	-9.85772
kjøp	-9.85837
▁finne	-9.8596
▁buk	-9.86086
▁ube	-9.86094
91	-9.861
lokk	-9.86116
cher	-9.86119
▁qui	-9.86182
▁huset	-9.86219
ity	-9.86219
▁sette	-9.86225
▁och	-9.86277
chu	-9.8628
hai	-9.86283
▁australia	-9.86296
▁ansatte	-9.86341
▁jordbruk	-9.86348
grupper	-9.86404
løpet	-9.8642
▁rob	-9.86432
▁provins	-9.86455
anda	-9.8646
äl	-9.86496
ette	-9.86506
▁que	-9.86511
▁svak	-9.86523
▁overgang	-9.86532
▁frø	-9.86553
▁klokke	-9.86561
▁foruten	-9.86614
gjort	-9.86654
▁spill	-9.86677
▁kari	-9.86745
bevegelsen	-9.8675
▁nrk	-9.86801
▁kraftige	-9.8684
▁sven	-9.86897
▁glass	-9.86952
▁verket	-9.87083
aya	-9.87109
fabrikk	-9.87267
øyene	-9.87291
▁tai	-9.87299
▁historien	-9.87329
økonom	-9.87343
▁beskytte	-9.87354
▁administrativ	-9.87372
▁kjemisk	-9.87378
▁frederik	-9.8738
▁ridder	-9.87381
▁blue	-9.87409
høgskole	-9.87415
▁forretnings	-9.87441
▁offisielle	-9.87502
▁nådd	-9.87505
▁zo	-9.87542
▁livs	-9.87605
▁mw	-9.87627
▁rygg	-9.87722
▁bane	-9.87725
trekning	-9.87732
▁rh	-9.878
▁single	-9.8785
▁støttet	-9.87854
24	-9.87964
▁roll	-9.87983
▁dør	-9.87996
sler	-9.88034
cal	-9.88037
▁tog	-9.88044
enberg	-9.88121
▁teknologi	-9.88145
▁etablerte	-9.88192
▁1957	-9.88459
▁etterfulgt	-9.88459
▁arrangere	-9.88459
▁1964	-9.88471
19	-9.88473
▁1962	-9.88476
▁operatør	-9.88479
▁videregående	-9.88484
sket	-9.88609
mba	-9.88609
▁cho	-9.8865
uri	-9.88692
▁bryst	-9.88717
▁amt	-9.88748
▁kysten	-9.88758
▁opptre	-9.88771
▁årsak	-9.88849
trær	-9.88853
dekke	-9.88883
dikt	-9.88919
22	-9.88928
▁regnet	-9.88968
feld	-9.88972
alis	-9.88984
▁damp	-9.89024
▁stoff	-9.89093
▁lev	-9.89193
vold	-9.89303
syre	-9.89312
▁hunnen	-9.89338
▁dynastiet	-9.89369
▁music	-9.89371
time	-9.89404
▁konflikt	-9.89557
▁college	-9.89564
▁1936	-9.89579
▁fremdeles	-9.89597
▁horn	-9.89608
▁may	-9.89615
▁andreas	-9.8962
tha	-9.89645
▁miste	-9.89684
▁kanon	-9.89693
▁velge	-9.89704
▁nan	-9.89751
▁gor	-9.89766
▁avisen	-9.89768
▁with	-9.89844
kol	-9.89851
▁up	-9.89886
▁petter	-9.89888
▁politikk	-9.89913
▁strid	-9.89938
▁cra	-9.89974
28	-9.89975
▁tapte	-9.9001
▁rør	-9.9002
▁brev	-9.90023
▁cel	-9.90055
▁jag	-9.90065
typen	-9.90096
maskin	-9.90127
valget	-9.9017
▁normalt	-9.90212
nummer	-9.90224
▁spiss	-9.90309
ical	-9.90316
ith	-9.90318
▁dato	-9.90365
▁typer	-9.90379
▁hodet	-9.90585
▁jacob	-9.90613
▁1954	-9.90669
▁nowiki	-9.90669
▁records	-9.90669
▁wilhelm	-9.90669
б	-9.90669
▁kunnskap	-9.9067
▁tilhørte	-9.9067
▁1959	-9.90685
▁hotell	-9.90685
▁internasjonal	-9.9069
▁finans	-9.90706
▁studier	-9.90739
▁skille	-9.9082
▁planet	-9.90844
▁øyene	-9.90844
▁magnet	-9.90851
▁personlig	-9.90861
lad	-9.9089
▁tverr	-9.9093
▁bonde	-9.91043
dorf	-9.91065
31	-9.91067
▁tittel	-9.91067
odi	-9.91154
lem	-9.91193
▁stig	-9.9126
▁forsøkt	-9.91295
▁orkester	-9.91296
▁listen	-9.91317
89	-9.91422
▁mol	-9.91439
▁bølge	-9.91456
▁hill	-9.91472
stått	-9.91478
▁aktivitet	-9.91482
▁tema	-9.91653
▁kloster	-9.91665
san	-9.91709
zy	-9.9173
▁lot	-9.91784
▁introdusert	-9.91792
▁united	-9.91795
▁premier	-9.91797
▁1963	-9.91811
▁fordelt	-9.91832
▁bidro	-9.91847
▁straffe	-9.91847
▁award	-9.91892
trådte	-9.91959
stikk	-9.92037
▁lavere	-9.92065
▁oppdrag	-9.92077
▁vers	-9.9209
▁masse	-9.92122
▁ris	-9.92163
▁old	-9.92191
▁kvalitet	-9.92236
▁stamme	-9.92251
▁normal	-9.92312
kirken	-9.92325
festival	-9.92375
mennene	-9.92389
ledende	-9.9239
55	-9.92524
▁beat	-9.92527
▁vinner	-9.92533
▁will	-9.92547
▁sider	-9.92597
▁rep	-9.92784
dagen	-9.92839
▁ger	-9.92901
23	-9.9291
belteasteroide	-9.92929
▁alternativ	-9.92929
▁selvstendig	-9.92929
▁sistnevnte	-9.92929
▁ytterligere	-9.92929
▁1938	-9.92945
▁32	-9.92947
▁1958	-9.92947
11	-9.92989
▁rund	-9.93016
▁kamper	-9.93026
kostnad	-9.93048
▁gjennomført	-9.93077
▁bodde	-9.93101
▁utviklingen	-9.93219
▁artikkel	-9.9348
kultur	-9.9355
▁sovjetisk	-9.93658
▁400	-9.93683
▁landskapet	-9.93747
▁long	-9.93774
▁kår	-9.93779
▁klarte	-9.93791
▁tradisjonell	-9.93829
▁din	-9.93846
forhold	-9.93856
▁æ	-9.93983
▁ishockey	-9.94078
▁publikum	-9.94078
▁1937	-9.9409
▁snakke	-9.94094
▁finnmark	-9.94096
▁1946	-9.94096
▁fungere	-9.94101
aceae	-9.94103
▁fotballspiller	-9.94116
▁bevart	-9.94118
skipet	-9.94124
studi	-9.94137
▁flertall	-9.9416
▁føde	-9.94189
▁brygge	-9.94209
▁tørr	-9.94224
▁prins	-9.94239
▁blomster	-9.94241
▁lenge	-9.9431
▁spørsmål	-9.94605
▁likhet	-9.9462
▁vannet	-9.94626
▁moren	-9.94639
▁intern	-9.94648
distrikt	-9.94667
▁endt	-9.94698
prosjekt	-9.94717
▁prøve	-9.94735
kort	-9.94818
▁offiser	-9.94933
type	-9.94985
▁wh	-9.94989
▁liga	-9.94995
▁betegnelsen	-9.95044
deles	-9.9511
off	-9.95126
avtale	-9.95166
ulf	-9.95173
rick	-9.95178
▁55	-9.95196
́	-9.95241
▁primær	-9.95242
▁regissert	-9.95242
▁omfatte	-9.95265
klubben	-9.95275
▁tilfelle	-9.9529
▁ari	-9.95292
▁mid	-9.95302
▁län	-9.95302
serien	-9.95412
istene	-9.95508
bur	-9.95513
▁lignende	-9.95532
▁kaptein	-9.95552
rolle	-9.95593
motiv	-9.95765
▁jule	-9.95859
aria	-9.95895
▁preste	-9.95933
gjen	-9.96012
▁preget	-9.96015
▁bånd	-9.96093
▁marie	-9.96118
rek	-9.96126
▁ask	-9.96181
ín	-9.96257
61	-9.96373
▁struktur	-9.96382
än	-9.9639
▁oblast	-9.96418
▁østlig	-9.96461
▁snart	-9.96467
▁jarl	-9.96487
▁kim	-9.96499
▁hevdet	-9.96507
rute	-9.96526
▁gjenopp	-9.96548
▁arve	-9.96549
▁graf	-9.96611
▁kg	-9.96632
▁historisk	-9.96645
post	-9.96677
▁yo	-9.96686
▁sier	-9.96737
▁kok	-9.96761
ledd	-9.96911
sang	-9.96917
vor	-9.96942
▁solo	-9.97142
▁meste	-9.97197
▁avstand	-9.97221
▁bibliotek	-9.97264
sport	-9.97381
havn	-9.97394
▁luc	-9.97419
▁ark	-9.97426
▁prosjektet	-9.97428
▁grunnla	-9.97434
vinner	-9.9744
mesterskapet	-9.97454
▁russ	-9.97567
▁fødsel	-9.97606
г	-9.97608
▁1953	-9.97608
▁norrøn	-9.97612
▁hemmelig	-9.97617
▁1942	-9.97622
▁1928	-9.97623
▁1944	-9.97628
▁sunn	-9.97748
▁arkitektur	-9.97767
▁dekker	-9.97772
▁mary	-9.97875
fylt	-9.97983
▁lån	-9.9799
▁kommunene	-9.9802
▁king	-9.98079
▁oversatt	-9.98113
▁egypt	-9.98155
▁1000	-9.98199
mitt	-9.98247
forskning	-9.98337
bler	-9.98351
▁stykke	-9.98441
▁bob	-9.98484
▁dun	-9.98514
▁gard	-9.98515
cker	-9.98571
basert	-9.98572
isjon	-9.98573
▁vanlige	-9.98575
flate	-9.9865
▁sveits	-9.98673
▁rand	-9.98703
krig	-9.9872
handel	-9.98763
bank	-9.98778
▁california	-9.98812
▁positiv	-9.98813
ström	-9.98813
▁redusert	-9.98815
▁femte	-9.9886
▁konkurranse	-9.98864
▁bærer	-9.98952
64	-9.98965
17	-9.9898
bukta	-9.99049
▁gis	-9.99053
▁motsetning	-9.99078
ella	-9.99102
▁rosen	-9.99106
fot	-9.99118
ernes	-9.99164
verdig	-9.99193
deler	-9.99223
▁fjellet	-9.99286
▁bidrag	-9.99291
astro	-9.99406
firma	-9.99416
▁viking	-9.99427
▁tradisjonelle	-9.99428
▁irland	-9.99499
figur	-9.99573
▁åpne	-9.99632
komedie	-9.99637
rommet	-9.99692
stemm	-9.99706
▁troll	-9.99718
▁bou	-9.99745
feng	-9.99758
▁base	-9.99814
▁markert	-9.99865
▁ulv	-9.99909
▁magasin	-9.99933
▁brand	-9.99946
▁vokser	-10.0003
▁kin	-10.0004
▁studio	-10.0004
▁smith	-10.0005
▁1912	-10.0005
▁1939	-10.0006
▁storm	-10.0007
▁formula	-10.0009
▁dvs	-10.001
▁otto	-10.0012
▁high	-10.0014
inae	-10.0015
▁lønn	-10.0025
▁innsjø	-10.0025
▁gau	-10.0042
finale	-10.0048
▁rap	-10.0049
▁valget	-10.0052
▁web	-10.0057
▁kristne	-10.0061
▁dor	-10.0071
▁fabrikk	-10.0072
▁sun	-10.0076
trafikk	-10.0076
21	-10.0081
forsvar	-10.0083
sand	-10.0091
▁tale	-10.0096
▁jim	-10.01
▁bydelen	-10.0102
▁bydel	-10.0105
▁ost	-10.0106
bein	-10.0109
▁bredd	-10.011
wald	-10.012
foreningen	-10.0124
▁alkohol	-10.0127
▁fullstendig	-10.0127
▁pasient	-10.0127
▁nedenfor	-10.0128
▁debuterte	-10.0131
▁alpin	-10.0135
▁æres	-10.0136
halvøya	-10.0149
▁vä	-10.0153
▁boy	-10.0158
▁vakt	-10.0159
▁hundre	-10.0167
ktig	-10.0169
▁alder	-10.0171
▁matt	-10.0183
42	-10.0184
jord	-10.0188
▁fylket	-10.0189
▁leon	-10.0193
▁historiker	-10.0193
▁tw	-10.0196
▁fremme	-10.0212
▁landskap	-10.0212
▁asia	-10.0217
oth	-10.022
26	-10.0222
▁fritt	-10.0223
▁cur	-10.023
▁utover	-10.0235
▁fisk	-10.0239
97	-10.0247
94	-10.0247
▁tone	-10.0249
▁tilknyttet	-10.0252
▁vingespenn	-10.0252
й	-10.0252
▁installert	-10.0252
▁league	-10.0252
▁stål	-10.0252
▁1955	-10.0253
▁tonn	-10.0257
▁skilt	-10.026
olje	-10.0267
▁ekstra	-10.0273
fekt	-10.0291
▁grov	-10.0291
▁finn	-10.0304
▁fantes	-10.0313
45	-10.0318
arbeidet	-10.0323
▁fc	-10.0332
32	-10.0333
▁kommun	-10.0337
avdeling	-10.0343
norsk	-10.0355
▁nedre	-10.0356
▁jobbet	-10.0365
▁nav	-10.0372
▁tsj	-10.0373
formen	-10.0375
afrikansk	-10.0376
ł	-10.0378
▁service	-10.0378
▁skottland	-10.0378
▁digital	-10.0378
▁moskva	-10.0378
▁episode	-10.0379
▁stortinget	-10.0379
▁kjærlighet	-10.0379
▁analyse	-10.038
ulykke	-10.0384
pin	-10.0384
▁varierer	-10.0385
▁flekk	-10.0394
▁organisert	-10.0402
▁eksempelvis	-10.041
rød	-10.0419
▁kata	-10.0424
ordning	-10.0437
▁kode	-10.0441
▁beskrevet	-10.0445
▁strekk	-10.0445
løsning	-10.0465
forfatter	-10.0467
museum	-10.0467
▁skatte	-10.0468
regionen	-10.047
▁frukt	-10.0471
kontor	-10.0477
▁bære	-10.0484
eringen	-10.0487
rog	-10.0487
▁blokk	-10.0487
▁kreft	-10.049
▁saken	-10.0504
▁drammen	-10.0507
▁gustav	-10.0507
▁oversikt	-10.0507
▁unntak	-10.0508
▁1941	-10.0508
strøk	-10.0509
▁referere	-10.0509
▁filosofi	-10.051
▁fon	-10.0511
▁verd	-10.0514
▁innsats	-10.0516
▁tour	-10.0522
▁ein	-10.0522
forskjell	-10.0526
▁salg	-10.0531
▁bit	-10.0532
▁jack	-10.0534
▁forlag	-10.054
prisen	-10.0549
▁lager	-10.0558
sfjorden	-10.0561
▁republikken	-10.0563
▁områdene	-10.0565
▁tann	-10.0567
hard	-10.0567
▁festival	-10.0569
▁olsen	-10.0573
▁kompleks	-10.0574
botn	-10.059
minne	-10.0601
▁brenn	-10.0603
iger	-10.061
▁sikkerhets	-10.0614
sjø	-10.0615
ryd	-10.0618
styrke	-10.0626
▁offentlige	-10.0634
ο	-10.0636
▁kjønn	-10.0636
▁ukjent	-10.0636
▁soldater	-10.0636
▁global	-10.0636
▁cirka	-10.0636
komité	-10.0637
▁1961	-10.0638
én	-10.064
▁signert	-10.0641
skij	-10.0643
ania	-10.0645
▁kropps	-10.0645
linje	-10.0646
▁materiale	-10.0646
▁bunn	-10.0647
com	-10.0651
▁rei	-10.0652
▁38	-10.0653
▁middelalder	-10.0658
uch	-10.0666
▁kapit	-10.067
▁human	-10.0673
▁preg	-10.0677
▁søke	-10.0687
ique	-10.0687
▁ungdom	-10.0689
37	-10.0691
strup	-10.0697
▁innhold	-10.0724
▁kara	-10.073
miljø	-10.0731
▁utvalg	-10.0732
▁syl	-10.0753
▁starter	-10.0754
▁utvidet	-10.0755
▁slå	-10.0756
▁midten	-10.0757
stig	-10.0761
ū	-10.0767
▁kombinert	-10.0768
▁konstant	-10.0768
▁bakkroppen	-10.0768
▁nikola	-10.0768
▁alvorlig	-10.0768
▁bakvingen	-10.0768
▁magnus	-10.0769
▁1918	-10.077
▁philip	-10.0771
▁studenter	-10.0771
▁mytologi	-10.0771
strategi	-10.0772
▁pil	-10.0775
▁veldig	-10.0777
▁nevnt	-10.0777
▁bakken	-10.0781
▁inneha	-10.0793
▁skriver	-10.0798
passet	-10.0801
▁status	-10.0814
▁cd	-10.082
▁mono	-10.0821
▁bach	-10.0829
steder	-10.0832
▁whi	-10.0838
▁anim	-10.0844
▁medisin	-10.0846
▁luk	-10.0852
▁politiet	-10.0854
låt	-10.0864
produkt	-10.0867
▁bell	-10.0868
▁krever	-10.087
verdi	-10.087
klassen	-10.0873
ary	-10.0875
▁metode	-10.0882
styrt	-10.0895
myndighet	-10.0898
▁enkle	-10.09
▁dialekt	-10.0901
▁himmel	-10.0901
▁sho	-10.0902
▁fokus	-10.0902
▁scott	-10.0903
▁sverd	-10.0906
▁luther	-10.0907
▁erklært	-10.0909
▁utløp	-10.091
▁nærheten	-10.0911
▁mikro	-10.0922
33	-10.093
zh	-10.0932
day	-10.0933
▁vist	-10.0937
idrett	-10.0942
▁måne	-10.0945
▁kongelige	-10.0948
▁regissør	-10.0956
▁sikker	-10.0958
▁korn	-10.0958
▁butikk	-10.0958
▁falt	-10.0973
▁nordisk	-10.0973
▁skapte	-10.0979
▁idrettslag	-10.0982
▁gruve	-10.0983
▁slave	-10.0984
▁utga	-10.0985
▁dobbelt	-10.099
▁irsk	-10.0997
▁fotograf	-10.0998
uv	-10.0998
▁tromsø	-10.1003
▁sideelv	-10.1008
museet	-10.1009
turbin	-10.1015
▁forkorte	-10.1016
fjellet	-10.1034
▁utgangspunkt	-10.1036
▁aksept	-10.1036
moen	-10.1037
▁1932	-10.1038
▁1935	-10.1039
▁institusjon	-10.104
▁skiller	-10.1042
næs	-10.1043
oid	-10.1043
ön	-10.1049
▁kommuner	-10.1051
▁75	-10.1053
kysten	-10.1056
▁tolv	-10.1061
▁linjen	-10.1062
▁mynt	-10.1065
▁systemet	-10.1067
▁singel	-10.1074
▁nordland	-10.1077
industri	-10.1079
▁slu	-10.1079
hed	-10.1088
▁advokat	-10.1094
▁snø	-10.1094
▁myk	-10.1097
▁kald	-10.1098
▁kjøl	-10.1101
▁kjøpe	-10.1105
▁junior	-10.1108
▁funn	-10.1113
▁kontrakt	-10.1115
09	-10.1122
▁mangler	-10.1132
▁hov	-10.1134
▁beskriver	-10.1137
oma	-10.1154
modell	-10.1154
▁trener	-10.1166
▁runde	-10.1172
▁sjelden	-10.1173
▁private	-10.1174
bille	-10.1176
▁sete	-10.1179
vika	-10.1182
▁villa	-10.1186
▁øyer	-10.1191
▁forbundet	-10.1195
▁tegneserie	-10.1197
innspilling	-10.12
kall	-10.1202
▁selge	-10.1204
▁team	-10.1209
▁filosof	-10.1209
▁sti	-10.122
▁spenning	-10.1222
▁vestlige	-10.1222
▁endelig	-10.1227
sanger	-10.1229
gli	-10.1234
▁33	-10.1236
▁river	-10.1244
▁dukke	-10.1246
▁fyrst	-10.1249
bol	-10.1249
kritiker	-10.1252
▁stand	-10.1256
lé	-10.1258
▁meta	-10.1261
▁demokrat	-10.1262
stemt	-10.1266
▁fan	-10.1272
kjeden	-10.1282
iansk	-10.1282
direktør	-10.1283
▁regional	-10.1285
▁lim	-10.1292
▁blomst	-10.1295
strid	-10.1298
kanalen	-10.1302
turnering	-10.1309
▁svar	-10.1309
▁thu	-10.1312
ç	-10.1312
▁eventyr	-10.1312
▁kritikk	-10.1312
▁liberal	-10.1313
▁naturgass	-10.1314
plattform	-10.1314
▁1924	-10.1314
▁1949	-10.1314
▁protest	-10.1315
▁spredt	-10.1317
▁120	-10.1317
▁skyte	-10.132
▁betrakte	-10.132
▁artister	-10.1321
▁wall	-10.1328
▁endre	-10.133
▁melk	-10.1337
næring	-10.1341
▁pensjon	-10.1342
▁tilbud	-10.1344
▁nederland	-10.1344
lignende	-10.1348
rygg	-10.1349
▁petro	-10.1353
▁dahl	-10.1363
ordnet	-10.1365
▁ulik	-10.1368
▁minutter	-10.1381
▁føl	-10.1387
▁ork	-10.1387
▁sul	-10.1393
▁andersen	-10.14
▁max	-10.142
dannelse	-10.1421
politikk	-10.1426
▁avsluttet	-10.1427
alitet	-10.1434
▁neu	-10.1438
▁grunnlegge	-10.1445
27	-10.1451
bakk	-10.1451
▁gener	-10.1452
▁1906	-10.1453
▁1951	-10.1453
hjørne	-10.1453
▁håndball	-10.1455
▁group	-10.1456
▁håkon	-10.1456
▁nasjonalpark	-10.1457
▁nicol	-10.1458
▁grunnlegger	-10.1459
▁bekrefte	-10.146
▁bakke	-10.146
distanse	-10.146
▁yngre	-10.1472
▁agder	-10.148
▁oppnådd	-10.1483
▁plassering	-10.1489
▁kommunal	-10.1492
▁overført	-10.1494
▁stam	-10.1498
▁undervisning	-10.1502
▁snu	-10.152
▁kandidat	-10.1525
bak	-10.153
▁signal	-10.1534
▁santa	-10.1539
spesifi	-10.1547
linjer	-10.156
▁bidra	-10.1564
▁ytter	-10.157
født	-10.1574
▁uttale	-10.1579
▁vor	-10.1579
▁bein	-10.1587
ough	-10.1595
▁konkurrere	-10.1596
▁eventuel	-10.1596
▁club	-10.1596
overvåk	-10.1596
▁studioalbum	-10.1596
▁utnytte	-10.1597
▁för	-10.1597
▁1933	-10.1597
▁1919	-10.1598
▁formål	-10.1601
følgende	-10.161
masse	-10.161
▁lyn	-10.1612
▁effektiv	-10.1612
▁dekket	-10.1612
kasse	-10.1622
zu	-10.1623
▁ansatt	-10.1628
klasse	-10.1632
▁ligne	-10.1641
tallet	-10.1643
▁spise	-10.1645
▁chang	-10.1648
▁toppen	-10.1651
▁polen	-10.1654
▁jorden	-10.1654
▁vii	-10.1655
▁medie	-10.1662
▁vogn	-10.1665
▁ønsker	-10.1673
▁kai	-10.1674
sentre	-10.1679
▁hydro	-10.1682
▁kreve	-10.1686
▁nettverk	-10.1687
▁vekst	-10.1689
▁larve	-10.1691
▁disk	-10.17
▁skul	-10.1705
▁høst	-10.1709
øvelse	-10.171
hjem	-10.1725
administrasjon	-10.1729
▁dj	-10.1733
▁sving	-10.1738
▁sport	-10.174
▁doktorgrad	-10.1741
▁godkjent	-10.1741
▁beijing	-10.1741
▁kommando	-10.1741
▁mekanisk	-10.1741
▁fysisk	-10.1741
vogn	-10.1743
▁power	-10.1743
▁skarp	-10.1744
▁tråd	-10.1745
▁portrett	-10.1749
▁hentet	-10.1751
▁dommer	-10.1753
▁unngå	-10.1753
▁befinne	-10.1754
▁tenn	-10.1755
▁fordel	-10.1761
▁42	-10.1761
eksamen	-10.1762
klær	-10.1763
▁ran	-10.1764
styrken	-10.1765
▁qi	-10.1767
▁tusen	-10.1773
▁sankt	-10.1773
stemning	-10.1776
makt	-10.1777
▁fler	-10.1783
▁alv	-10.1787
▁behandle	-10.1795
iva	-10.1798
▁rulle	-10.18
▁slett	-10.1803
rev	-10.1805
mur	-10.1806
▁vent	-10.1808
▁tropp	-10.1817
▁angel	-10.1818
▁eva	-10.1822
▁evne	-10.1823
▁klassen	-10.1826
versjon	-10.1842
▁tell	-10.1848
▁vingene	-10.1859
▁tun	-10.1862
▁sæ	-10.1867
▁beskrive	-10.1868
drevet	-10.1871
industrien	-10.1873
horn	-10.1884
rekke	-10.1886
▁nødvendig	-10.1888
▁forekommer	-10.1888
▁fattig	-10.1888
▁royal	-10.1889
▁1943	-10.189
forbundet	-10.1891
▁komposisjon	-10.1892
korps	-10.1902
▁pap	-10.1903
▁utdannelse	-10.1908
hei	-10.1919
▁inge	-10.1922
teori	-10.1925
ington	-10.1929
hua	-10.1931
oksid	-10.1933
▁samarbeidet	-10.1942
▁rune	-10.1953
▁vig	-10.1954
▁boka	-10.1954
▁spillet	-10.1959
▁revolusjon	-10.1964
▁patri	-10.197
▁reiste	-10.1972
▁tryg	-10.1975
▁wolf	-10.1978
▁musikalsk	-10.1988
▁insekter	-10.1991
▁problemer	-10.1992
▁sup	-10.2008
▁modern	-10.2009
▁visse	-10.2012
▁middelalderen	-10.2014
▁sørge	-10.2019
politisk	-10.2021
▁bosatt	-10.2026
hør	-10.2027
drakt	-10.203
▁oppmerksomhet	-10.2037
▁hordaland	-10.2037
▁science	-10.2037
▁situasjon	-10.2037
▁edvard	-10.2037
stråling	-10.2037
▁hjerne	-10.2038
▁forårsake	-10.2038
▁gunnar	-10.2039
prinsipp	-10.2039
▁1934	-10.204
▁skotsk	-10.204
mønster	-10.204
▁skaffe	-10.2041
▁kyr	-10.2042
▁ibsen	-10.2043
▁tilbyr	-10.2046
▁daniel	-10.2047
▁papir	-10.205
▁show	-10.2053
▁angeles	-10.2059
▁deltaker	-10.2073
▁styrte	-10.2078
▁athen	-10.2083
▁phil	-10.2091
▁gress	-10.2091
▁frihet	-10.2092
▁celle	-10.2096
▁vunnet	-10.2098
galleri	-10.21
årig	-10.2108
▁37	-10.2111
▁iso	-10.2114
▁ferge	-10.2117
▁150	-10.2123
▁internasjonalt	-10.2131
▁elever	-10.2148
▁khan	-10.215
▁64	-10.2158
▁manus	-10.2167
▁wel	-10.2169
tunnelen	-10.2172
▁trommer	-10.2185
▁timer	-10.2188
▁østerriksk	-10.2189
▁jørgen	-10.2189
▁kontinent	-10.2189
▁respekt	-10.2189
▁rektor	-10.2189
▁golf	-10.2189
▁medlemmene	-10.219
▁generelt	-10.219
▁edward	-10.219
▁konkurransen	-10.2191
▁avledet	-10.2191
▁samfunnet	-10.2192
måte	-10.2195
▁piano	-10.2198
▁line	-10.22
bedrift	-10.2208
lak	-10.2209
▁gitarist	-10.2213
bakken	-10.2217
handler	-10.2223
▁1700	-10.2227
▁morten	-10.2229
cio	-10.2229
▁nordover	-10.2241
▁adam	-10.2244
▁kap	-10.2255
delt	-10.2258
▁tilstand	-10.2261
▁kjell	-10.2262
▁motta	-10.2266
▁virkelig	-10.2276
bad	-10.2279
▁600	-10.2285
▁måned	-10.229
▁nyere	-10.2299
vannet	-10.2299
▁bevis	-10.2299
preg	-10.2304
▁internett	-10.2306
13	-10.2308
▁planter	-10.2309
▁vestre	-10.2314
listen	-10.2322
hånd	-10.2329
stjerne	-10.233
▁stortings	-10.2331
▁aar	-10.2336
▁washington	-10.2343
▁praksis	-10.2343
▁county	-10.2343
▁negativ	-10.2343
▁jødisk	-10.2343
▁ekstrem	-10.2343
▁1947	-10.2345
▁slank	-10.2345
▁1914	-10.2345
▁house	-10.2348
▁debut	-10.2349
▁east	-10.2357
▁forvingen	-10.2357
▁hovedsak	-10.2364
gate	-10.2365
områdene	-10.2369
melding	-10.2375
utgave	-10.238
høy	-10.2382
▁65	-10.2385
faktor	-10.2395
▁tunnelen	-10.2399
▁vill	-10.2404
livet	-10.2406
kompani	-10.2409
formede	-10.2412
▁semi	-10.2412
▁sats	-10.2414
gress	-10.2431
▁hul	-10.2435
logi	-10.2441
▁roger	-10.2441
ulær	-10.2442
▁underlag	-10.2447
▁tau	-10.2447
▁ull	-10.2454
▁kali	-10.2459
▁tunnel	-10.246
▁schw	-10.2462
kapital	-10.2471
▁175	-10.2478
materiale	-10.2487
hjul	-10.2488
▁inntekt	-10.2489
bygningen	-10.2492
rekord	-10.2493
bøker	-10.2499
▁anerkjent	-10.2499
▁australsk	-10.2499
▁utbredt	-10.2499
▁nominert	-10.2499
▁oscar	-10.2499
▁firmaet	-10.2501
▁1910	-10.2503
kommisjon	-10.2509
▁grim	-10.2512
▁reaksjon	-10.2515
▁billed	-10.2516
▁demningen	-10.2517
▁maleri	-10.2522
itten	-10.2533
bury	-10.2535
▁morgen	-10.2538
▁hannen	-10.2539
▁arv	-10.2556
stans	-10.2559
▁båten	-10.2566
misjon	-10.2569
▁opprette	-10.2581
lønn	-10.2589
▁mangle	-10.2593
▁populært	-10.2596
row	-10.2606
forsyning	-10.2608
▁shan	-10.2608
▁klosteret	-10.2612
prest	-10.2624
▁modellen	-10.2628
▁foregå	-10.2642
konkurranse	-10.2649
▁forsvaret	-10.2652
teater	-10.2653
bevisst	-10.2655
▁guvernør	-10.2658
▁utenlandske	-10.2658
▁jakob	-10.2658
▁geografisk	-10.2658
▁rogaland	-10.2658
▁nedbør	-10.2658
▁arthur	-10.2658
▁autonom	-10.2659
stipend	-10.2659
▁islam	-10.266
▁bakteri	-10.2661
▁tilhenger	-10.2661
▁friidrett	-10.2662
ía	-10.2664
▁vokalist	-10.2667
▁hjul	-10.267
▁rekord	-10.267
▁nm	-10.269
liste	-10.2691
ima	-10.2691
kontroll	-10.2692
nemlig	-10.2692
vald	-10.2702
sjö	-10.2733
▁fle	-10.2739
▁green	-10.2756
▁foreningen	-10.2759
▁handel	-10.2762
▁kapp	-10.2763
onia	-10.2764
▁stilt	-10.2778
▁skatt	-10.278
▁tradisjonel	-10.2782
▁verb	-10.2782
ward	-10.2785
roman	-10.2789
base	-10.2791
▁sara	-10.2795
▁jente	-10.2808
▁medisinsk	-10.2809
на	-10.2818
▁redusere	-10.2819
▁oversettelse	-10.2819
hopp	-10.2825
bind	-10.2829
▁forsterke	-10.2832
førsel	-10.2834
▁bosetning	-10.2838
▁audi	-10.2848
▁karakteristisk	-10.2856
▁generasjon	-10.2856
kilde	-10.2857
▁gold	-10.286
▁anlegg	-10.2861
▁yng	-10.2877
▁beskrivelse	-10.2889
▁170	-10.2892
fred	-10.2897
▁trening	-10.2903
▁kristin	-10.2905
lysning	-10.2907
dahl	-10.2917
▁riket	-10.2932
▁fløy	-10.2935
▁besøkt	-10.2938
kommende	-10.2942
▁bevege	-10.2947
▁qua	-10.295
▁800	-10.2952
▁artikler	-10.2966
▁kval	-10.2966
▁oppnå	-10.2973
▁teknikk	-10.2978
historisk	-10.2979
▁involvert	-10.2983
▁millimeter	-10.2983
vassdraget	-10.2983
▁mexico	-10.2983
▁erkebiskop	-10.2983
▁fungerte	-10.2983
regulering	-10.2984
▁belgisk	-10.2984
▁betjene	-10.2984
▁oppfatte	-10.2984
▁litterær	-10.2985
▁1911	-10.2985
▁fullført	-10.2986
▁eies	-10.2987
▁svømme	-10.2987
▁michel	-10.2989
▁wu	-10.2993
▁eksport	-10.2995
urg	-10.2996
▁hersker	-10.3
▁lykke	-10.3001
▁aksje	-10.3004
▁retur	-10.3008
▁kopi	-10.3011
▁kilder	-10.3012
▁kjær	-10.3013
▁kino	-10.3022
▁fisker	-10.3023
▁unn	-10.3034
▁kjørt	-10.3045
▁fortsette	-10.3046
▁sca	-10.3056
▁white	-10.3066
▁utenriks	-10.3081
serie	-10.3092
▁steve	-10.3096
effekt	-10.3112
▁lord	-10.312
zon	-10.3133
▁europe	-10.3145
▁beina	-10.3146
vang	-10.3147
▁fartøy	-10.3149
▁1905	-10.3149
▁færøyene	-10.3149
▁astronom	-10.3149
▁krevde	-10.3149
▁tyrkisk	-10.3149
▁skjær	-10.3149
▁ungarsk	-10.315
▁allierte	-10.315
▁tømmer	-10.315
▁skildre	-10.315
▁bodø	-10.315
▁debutalbum	-10.315
▁inngår	-10.315
ич	-10.315
▁kristiansand	-10.315
▁ødelegge	-10.315
▁myndighetene	-10.3151
▁etterkommer	-10.3151
▁1925	-10.3152
▁mineral	-10.3154
skifte	-10.3156
▁jackson	-10.3156
▁out	-10.3157
▁hevde	-10.3159
▁etappe	-10.3161
▁studere	-10.3161
▁gjenstand	-10.3162
▁feire	-10.3162
▁inndelt	-10.3167
▁ombord	-10.3168
▁dyrke	-10.3168
▁ankom	-10.3176
skikk	-10.3178
▁drikke	-10.3181
▁eik	-10.3181
▁spring	-10.3196
▁troms	-10.3198
▁rac	-10.3198
▁mottatt	-10.3203
kjerne	-10.3205
▁peder	-10.321
▁geo	-10.3211
logen	-10.3234
▁orient	-10.3236
▁penger	-10.3262
▁mitt	-10.3265
nøtt	-10.3268
aften	-10.3277
▁arkiv	-10.3297
▁mei	-10.3302
▁alexander	-10.3319
▁kjennetegn	-10.3319
frekvens	-10.3319
able	-10.3319
▁rapporter	-10.3319
▁prinsesse	-10.332
▁faktisk	-10.332
▁1921	-10.3321
▁1922	-10.3321
angrep	-10.3323
▁stikk	-10.3323
▁medaljen	-10.3324
▁telemark	-10.3326
▁diplomat	-10.3327
komiteen	-10.3331
▁hitler	-10.3331
▁sikte	-10.3347
▁drag	-10.3347
▁hellas	-10.3348
▁tvang	-10.3353
▁arc	-10.3363
▁løsning	-10.3369
▁museet	-10.337
▁skulptur	-10.3374
vatn	-10.3378
wick	-10.3384
▁demokratisk	-10.339
▁qa	-10.3393
▁synes	-10.3396
redskap	-10.34
▁fett	-10.3403
▁fol	-10.3417
▁from	-10.3423
slutt	-10.3428
▁handler	-10.3433
▁skjø	-10.3435
bød	-10.3436
▁back	-10.3445
▁az	-10.3447
▁american	-10.3451
hagen	-10.3453
mag	-10.3455
▁antenne	-10.3472
gass	-10.3481
▁stab	-10.3485
▁1907	-10.3491
▁aleksander	-10.3491
▁antagelig	-10.3491
▁katedral	-10.3491
▁vulkan	-10.3491
▁kombinasjon	-10.3491
▁oppstår	-10.3491
▁hindre	-10.3492
▁utmerkelse	-10.3492
▁andré	-10.3492
▁behov	-10.3492
▁arendal	-10.3494
trykt	-10.3494
▁arbeiderpartiet	-10.3494
trener	-10.3494
▁stryk	-10.3495
▁familiegruppen	-10.3495
album	-10.3496
▁sjanger	-10.3496
▁programvare	-10.3496
struktur	-10.3497
teknikk	-10.3497
▁kapell	-10.3502
▁kongedømme	-10.3518
tårn	-10.3523
▁forholds	-10.3524
cca	-10.3535
fartøy	-10.3538
▁salme	-10.3538
▁coll	-10.3541
ual	-10.3544
virk	-10.3545
▁emil	-10.3548
▁medvirke	-10.355
▁kjøtt	-10.355
▁osv	-10.3553
reise	-10.3562
▁skut	-10.3566
▁bryte	-10.3569
periode	-10.3581
tank	-10.3583
▁beskrev	-10.3587
▁56	-10.3588
cheng	-10.3598
▁vev	-10.3598
skyting	-10.3601
▁fel	-10.361
▁hil	-10.3611
▁gruppa	-10.3611
▁cro	-10.3622
▁skinn	-10.3622
seth	-10.3652
stell	-10.3658
setting	-10.3667
▁dollar	-10.3667
▁komponert	-10.3667
▁angripe	-10.3667
▁terror	-10.3667
▁nymfe	-10.3668
▁1927	-10.3669
ев	-10.3669
▁etterfølger	-10.3669
▁uttalt	-10.3678
▁riktig	-10.3679
▁score	-10.3682
▁ære	-10.3684
▁grei	-10.3693
▁little	-10.3704
▁1600	-10.3706
▁torg	-10.3718
finne	-10.3719
▁indi	-10.3719
▁jam	-10.3727
▁anse	-10.373
bredd	-10.3737
▁fru	-10.3738
▁statlig	-10.3738
bukk	-10.3761
▁egyptisk	-10.3764
▁styrkene	-10.3774
lich	-10.3778
bord	-10.3781
▁fortsetter	-10.3783
▁skapt	-10.3786
▁etasje	-10.3787
rock	-10.3791
work	-10.3791
▁hk	-10.3791
ligste	-10.3801
løft	-10.3821
▁baron	-10.3822
▁ingeniør	-10.3825
vendt	-10.3831
▁initiativ	-10.3845
▁friedrich	-10.3845
konferanse	-10.3845
▁frivillig	-10.3846
▁fiolin	-10.3846
▁kriminal	-10.3846
▁partner	-10.3847
apparat	-10.3849
sseremonien	-10.385
▁erfaring	-10.385
▁anvende	-10.3851
▁sykkel	-10.3852
fortelling	-10.3852
▁nevne	-10.3854
▁programmer	-10.3854
▁biografi	-10.3855
▁fremført	-10.3859
▁forbunds	-10.386
▁malm	-10.386
▁lidelse	-10.3866
▁angi	-10.3868
▁håndverk	-10.3868
▁walter	-10.3882
▁kha	-10.3886
▁1500	-10.3886
spinner	-10.3891
▁poli	-10.3891
▁betegnelse	-10.3903
▁benytter	-10.3905
▁andreplass	-10.3912
alistisk	-10.3914
▁vall	-10.3916
▁simon	-10.3923
▁gli	-10.3944
▁mølle	-10.3947
perioden	-10.3955
vakt	-10.3978
sdatter	-10.398
▁vindu	-10.4003
▁sekund	-10.4013
▁administrere	-10.4027
▁1929	-10.4027
▁portugisisk	-10.4027
▁symptom	-10.4027
▁ludvig	-10.4027
▁kulturminner	-10.4027
▁vesentlig	-10.4027
▁hendelser	-10.4027
▁anerkjenne	-10.4028
▁major	-10.4028
▁1917	-10.4029
▁anklage	-10.403
sosialistisk	-10.4033
▁alfred	-10.4037
magasin	-10.4042
tagelse	-10.4044
▁reserve	-10.4044
▁jud	-10.4062
▁multi	-10.4063
▁kommunist	-10.4065
▁furu	-10.407
grensen	-10.407
▁persisk	-10.408
asso	-10.4085
▁tyng	-10.4092
▁arrangement	-10.4099
brand	-10.4105
▁tempel	-10.4119
orientert	-10.4119
▁metro	-10.4122
▁begrep	-10.4133
▁sammenligne	-10.4133
▁160	-10.4141
phy	-10.4148
konsern	-10.4151
▁grøn	-10.4152
▁cath	-10.4161
▁latinsk	-10.4169
▁penge	-10.417
▁opphold	-10.417
▁avvist	-10.4174
▁dru	-10.4181
▁flor	-10.4186
dommer	-10.4187
▁kran	-10.4203
sikkerhet	-10.4212
▁pakistan	-10.4212
▁kommersiell	-10.4213
▁adresse	-10.4214
▁debatt	-10.4215
▁beholdt	-10.4215
▁sjette	-10.4217
▁mjø	-10.4217
pråklig	-10.4227
problem	-10.4231
▁gjennombrudd	-10.4231
▁manuel	-10.4234
▁reist	-10.4235
tittel	-10.4237
▁ali	-10.4237
montert	-10.4238
styring	-10.424
▁gradvis	-10.4248
▁histori	-10.4248
▁tyskerne	-10.4251
▁sandnes	-10.4254
▁polar	-10.4255
▁jul	-10.4279
regime	-10.4282
fabrik	-10.4283
▁gw	-10.4286
artikler	-10.4289
tekst	-10.4306
bach	-10.4315
▁synge	-10.4326
▁raf	-10.4344
▁pik	-10.435
▁vegg	-10.4353
▁saga	-10.4365
▁institut	-10.4367
▁big	-10.4368
▁cover	-10.4387
▁frei	-10.4392
▁tilknytning	-10.4401
▁asteroide	-10.4401
▁midlertidig	-10.4401
▁münchen	-10.4401
▁ungarn	-10.4401
▁hebraisk	-10.4401
▁rettigheter	-10.4401
▁hyppig	-10.4401
kjøring	-10.4401
▁bøkene	-10.4402
▁hjal	-10.4402
▁josé	-10.4403
▁1926	-10.4403
▁1923	-10.4403
terminal	-10.4404
▁nedlagt	-10.4415
▁elektron	-10.4417
▁german	-10.4418
▁skygge	-10.442
kjøretøy	-10.4422
representant	-10.4423
funksjon	-10.4424
design	-10.4427
ingeniør	-10.4427
utstyr	-10.4428
bebyggelse	-10.4429
▁jonas	-10.4431
▁levde	-10.4434
▁henri	-10.4442
▁erstatte	-10.4444
bunn	-10.4446
▁trond	-10.4448
▁fortalt	-10.445
zel	-10.4453
▁great	-10.4455
▁cru	-10.4457
▁statsråd	-10.4466
tidsskrift	-10.4469
▁yrkes	-10.4471
▁bag	-10.4472
mesterskap	-10.4486
▁strip	-10.4489
▁hammer	-10.4499
▁shu	-10.4507
regning	-10.4513
▁frakte	-10.4517
▁fns	-10.4565
▁chile	-10.4577
▁140	-10.4587
▁1904	-10.4593
▁beseiret	-10.4593
▁dekkvingene	-10.4593
▁forøvrig	-10.4593
▁symfoni	-10.4593
▁tønsberg	-10.4593
▁company	-10.4593
▁kjønnsmod	-10.4593
▁lørdag	-10.4593
▁separat	-10.4594
▁tilsvarer	-10.4594
yuan	-10.4594
▁kunde	-10.4594
▁elleve	-10.4595
▁fangst	-10.4595
fysikk	-10.4595
vandring	-10.4595
▁brutt	-10.4595
▁flytende	-10.4596
▁frykt	-10.4599
▁antonio	-10.4602
▁turneringen	-10.4603
▁filip	-10.4604
▁nederst	-10.4611
▁georgia	-10.4621
▁brei	-10.4623
▁arkeolog	-10.4625
▁lunge	-10.4631
allianse	-10.4633
▁homo	-10.4634
maleri	-10.4634
seier	-10.4643
kreft	-10.4644
aux	-10.4687
▁unna	-10.4691
▁51	-10.4699
▁delstat	-10.4703
▁vekk	-10.4705
▁klage	-10.4706
▁grunnlov	-10.4733
▁700	-10.4739
slått	-10.4742
▁departement	-10.4744
▁hve	-10.4754
▁nazi	-10.4773
fallende	-10.4776
▁kollektiv	-10.4789
▁okkupasjon	-10.4789
løytnant	-10.4789
▁svalbard	-10.4789
▁umiddelbar	-10.4789
▁windows	-10.4789
▁argument	-10.4789
▁konsept	-10.4789
▁hensikt	-10.4789
▁sigurd	-10.479
▁adolf	-10.479
▁ansikt	-10.479
▁juridisk	-10.479
▁ødelagt	-10.479
sats	-10.479
▁universe	-10.479
▁1913	-10.4791
▁rolf	-10.4792
▁1908	-10.4793
▁fjernsyn	-10.4793
▁stiftelsen	-10.4793
sikring	-10.4793
▁sverre	-10.4794
▁pedersen	-10.4796
▁forenkle	-10.4796
▁høyesterett	-10.4799
▁1890	-10.4815
▁fasci	-10.4819
hjelp	-10.482
▁ernst	-10.4826
▁einar	-10.4826
front	-10.4827
▁utbygging	-10.4834
ovitsj	-10.4842
pakke	-10.4843
ittisk	-10.485
▁silke	-10.4858
stripe	-10.4862
▁verksted	-10.4875
blomst	-10.4877
▁jung	-10.4888
▁verdensmester	-10.4901
▁psykolog	-10.4914
▁fry	-10.492
kongen	-10.4937
▁arkeologisk	-10.4967
ctu	-10.4968
maker	-10.4971
▁gott	-10.4983
▁frankfurt	-10.4989
▁milliarder	-10.4989
▁anbefal	-10.4989
▁konstruert	-10.4989
▁geometri	-10.4989
▁belgia	-10.499
▁fiktiv	-10.499
▁kredit	-10.499
▁josef	-10.499
▁brigade	-10.499
▁seinere	-10.499
▁invasjon	-10.4991
▁dømt	-10.4991
▁1915	-10.4992
▁søndag	-10.4992
▁forvaltnings	-10.4993
▁svein	-10.4994
strømmen	-10.4995
head	-10.4995
▁victoria	-10.4998
▁down	-10.5001
▁hamburg	-10.5012
▁armé	-10.5014
▁sammenlagt	-10.5017
▁panser	-10.5018
litteratur	-10.5024
vokst	-10.5026
sentral	-10.5027
▁server	-10.5029
puls	-10.5036
luft	-10.5051
▁løfte	-10.5062
▁ytterst	-10.5063
▁skall	-10.5068
▁fremmed	-10.5083
▁gö	-10.5089
illo	-10.5091
metode	-10.5106
▁ønske	-10.5109
agon	-10.5136
bryter	-10.5137
▁hamar	-10.5139
stokk	-10.5155
▁sønd	-10.5166
▁165	-10.5174
ς	-10.5193
▁beslutning	-10.5193
friidrettsutøver	-10.5193
▁afghanistan	-10.5193
▁restaurant	-10.5193
▁sjeldne	-10.5193
▁tyrkia	-10.5193
▁jesuitt	-10.5194
▁erobret	-10.5194
▁evangeli	-10.5194
▁thailand	-10.5194
▁monument	-10.5194
▁detaljer	-10.5194
▁batteri	-10.5194
▁karbon	-10.5194
▁individ	-10.5195
givning	-10.5195
▁opposisjon	-10.5195
▁unntatt	-10.5195
brev	-10.5196
▁foreslått	-10.5196
▁1931	-10.5196
▁1916	-10.5196
▁pierre	-10.5198
▁vestfold	-10.5198
▁kommunistisk	-10.5199
▁allmenn	-10.5203
ка	-10.5208
▁betale	-10.5211
▁hvile	-10.5212
0	-10.5218
skrevet	-10.5219
▁brødrene	-10.522
▁vannkraftverk	-10.522
▁munk	-10.5227
▁intens	-10.5231
▁israelsk	-10.524
▁skrå	-10.5243
▁elektro	-10.5247
spiss	-10.5247
▁synlig	-10.5251
▁musikal	-10.5261
blå	-10.5265
behandling	-10.5268
▁molde	-10.5277
▁falk	-10.5314
▁term	-10.532
▁ansett	-10.5334
▁gyld	-10.5337
▁mah	-10.538
høyde	-10.5393
▁takke	-10.5394
▁atmosfære	-10.5402
▁engasjert	-10.5402
▁ukraina	-10.5402
▁taylor	-10.5402
▁central	-10.5402
▁linux	-10.5402
▁church	-10.5402
▁regulere	-10.5402
▁utgivelsen	-10.5404
▁1909	-10.5404
▁novell	-10.5404
▁tidspunkt	-10.5405
▁tabellen	-10.5406
▁lokalisert	-10.541
▁misjons	-10.5411
▁bydistrikt	-10.5411
▁økende	-10.5415
▁bedriften	-10.5416
▁markere	-10.5424
fold	-10.5428
▁night	-10.5431
relatert	-10.5439
▁antennene	-10.5442
▁sørover	-10.545
▁million	-10.5455
▁book	-10.5466
▁vitne	-10.5479
▁mach	-10.5484
▁palass	-10.5495
talende	-10.5503
fyr	-10.551
▁gjeng	-10.5518
▁pels	-10.5529
▁forstå	-10.5547
▁driv	-10.555
forståelse	-10.556
▁kvit	-10.5582
▁who	-10.5589
▁54	-10.559
kollen	-10.5599
▁elisabeth	-10.5615
▁jomfru	-10.5615
▁konkurrert	-10.5615
▁akershus	-10.5615
▁nøyaktig	-10.5615
▁registrert	-10.5615
▁døgn	-10.5615
▁amatør	-10.5615
▁beregne	-10.5615
▁kobber	-10.5615
▁gabriel	-10.5615
▁praktisk	-10.5615
▁qū	-10.5616
▁rednings	-10.5616
▁definere	-10.5617
▁1901	-10.5618
▁kritisk	-10.5618
▁tropisk	-10.5618
▁dyktig	-10.5618
▁planlagt	-10.562
▁2018	-10.5621
▁beslutte	-10.5624
▁orgel	-10.563
▁grønland	-10.5634
▁instrumenter	-10.5634
▁1894	-10.5634
▁kristiania	-10.5637
▁söd	-10.5637
▁1899	-10.564
▁automatisk	-10.5644
▁tredjeplass	-10.5645
▁antatt	-10.5653
institutt	-10.5662
▁ungdomsskole	-10.5663
posisjon	-10.5664
▁næringsliv	-10.5667
▁fotballklubb	-10.5668
▁skjerm	-10.568
▁variert	-10.568
stift	-10.5682
sønn	-10.5683
blokk	-10.5689
▁krok	-10.5697
▁begynne	-10.5721
ario	-10.5733
▁vanligst	-10.5738
▁låten	-10.5741
▁drap	-10.5748
▁elektronisk	-10.5757
▁handle	-10.577
▁xu	-10.5776
▁elite	-10.5796
▁motsatt	-10.5801
manuskript	-10.5831
▁heinrich	-10.5832
▁napoleon	-10.5832
▁renessanse	-10.5832
territorie	-10.5832
vurdering	-10.5832
▁ovenfor	-10.5832
▁forgjenger	-10.5832
▁reklame	-10.5832
▁anledning	-10.5832
▁fenomen	-10.5832
▁sachsen	-10.5832
veksling	-10.5832
▁parallell	-10.5832
▁zealand	-10.5832
ος	-10.5832
▁definert	-10.5832
▁nektet	-10.5833
▁sukker	-10.5834
▁sentralbank	-10.5835
▁hovedkvarter	-10.5835
▁oppfølger	-10.5835
▁brown	-10.5835
▁tynne	-10.5836
legging	-10.5837
▁kontrollert	-10.5838
▁hovedkontor	-10.5841
▁balanse	-10.5849
▁inngikk	-10.5864
▁nettsted	-10.5864
temperatur	-10.5865
▁geir	-10.5868
betaling	-10.5877
▁brent	-10.5879
▁krim	-10.5891
fast	-10.5906
ansvar	-10.592
▁wales	-10.5923
▁avslutte	-10.5962
▁innlede	-10.5984
▁dverg	-10.6043
seremoni	-10.6049
▁styrmann	-10.6054
▁buskerud	-10.6054
▁embets	-10.6054
▁uvanlig	-10.6054
molekyl	-10.6054
hospital	-10.6054
▁ålesund	-10.6054
▁kjøpmann	-10.6055
▁utseende	-10.6055
▁strekningen	-10.6056
▁bronsemedalje	-10.6056
▁romsdal	-10.6057
▁våt	-10.6059
▁margret	-10.606
▁røyk	-10.6062
▁skytter	-10.6063
▁indikere	-10.6063
følelse	-10.6068
trukket	-10.6068
▁drepe	-10.6083
▁rykke	-10.6084
▁1886	-10.6085
▁romerne	-10.6094
▁isbre	-10.6097
kamerat	-10.6109
▁estland	-10.6111
▁puppe	-10.6113
▁hval	-10.6119
▁sovjet	-10.6134
▁biller	-10.6139
▁stabil	-10.6164
▁slektning	-10.6172
▁lyng	-10.62
▁kulturell	-10.6223
▁mira	-10.6227
▁smak	-10.623
brett	-10.6259
▁senke	-10.6268
demokra	-10.6269
fedre	-10.6269
▁ludwig	-10.6281
▁portugal	-10.6281
▁mesteparten	-10.6281
▁avdøde	-10.6282
▁vilhelm	-10.6282
▁halvparten	-10.6282
▁tilsammen	-10.6282
▁heavy	-10.6282
▁selvmord	-10.6282
▁antarktis	-10.6282
▁psykisk	-10.6282
▁tidsskriftet	-10.6283
▁stefan	-10.6284
▁hørte	-10.6284
▁divers	-10.6286
▁skjønn	-10.6286
▁kongelig	-10.6286
▁igjennom	-10.6287
▁nattfly	-10.6287
▁rakett	-10.6289
▁profil	-10.6291
▁øvelsen	-10.6291
▁skjell	-10.6292
▁traktat	-10.6293
▁avansert	-10.6294
▁fredrikstad	-10.6295
▁cross	-10.6296
▁tjener	-10.6301
▁bestemme	-10.6302
▁kaffe	-10.6303
▁1885	-10.6312
▁republikk	-10.6318
▁sound	-10.6318
▁østover	-10.6323
▁helgen	-10.6328
arkitekt	-10.6344
▁personlighet	-10.6344
offiser	-10.6345
mengde	-10.637
statue	-10.6371
arkiv	-10.638
trakte	-10.6402
ан	-10.6425
▁skru	-10.6427
▁billen	-10.6436
start	-10.6439
ин	-10.645
vitsj	-10.6473
▁gyl	-10.6473
▁størst	-10.6473
tavle	-10.6513
▁association	-10.6514
▁corporation	-10.6514
▁dirigent	-10.6514
▁matematikk	-10.6514
▁popularitet	-10.6514
▁pronotum	-10.6514
▁sammenslåing	-10.6514
▁trommeslager	-10.6514
▁utslipp	-10.6514
▁manchester	-10.6514
▁abraham	-10.6514
▁individuell	-10.6514
▁radikal	-10.6514
▁sektor	-10.6514
▁pistol	-10.6515
▁hull	-10.6516
▁innebære	-10.6517
▁import	-10.6518
▁myndigheter	-10.6519
▁kongsberg	-10.652
▁hensyn	-10.6524
vilkår	-10.6525
▁good	-10.6545
krem	-10.6552
blom	-10.6554
▁kontrollere	-10.6555
▁prix	-10.6556
▁skanse	-10.6578
bibliotek	-10.6582
divisjon	-10.6582
utdanning	-10.6582
transport	-10.6583
teknologi	-10.6584
tradisjon	-10.6586
gudinne	-10.6609
bukten	-10.6621
drive	-10.6629
▁muslimsk	-10.6634
▁mcc	-10.6643
▁utarbeide	-10.6645
skade	-10.6665
▁forklare	-10.6669
▁urban	-10.6688
veps	-10.6715
stitusjon	-10.6741
▁victor	-10.6742
▁tidligst	-10.6745
▁barcelona	-10.6752
▁elizabeth	-10.6752
▁fundament	-10.6752
▁maksimal	-10.6752
▁shanghai	-10.6752
▁forveksle	-10.6752
▁colombia	-10.6752
▁kavaleri	-10.6752
▁referanse	-10.6752
▁tallrike	-10.6755
▁oppløst	-10.6755
▁bedrifter	-10.6757
▁tegninger	-10.6759
▁action	-10.676
▁alex	-10.6764
▁sekundær	-10.6774
▁tolke	-10.6775
▁1895	-10.6779
mannskapet	-10.6782
ventil	-10.6789
▁utvidelse	-10.6793
▁skriftlig	-10.6799
▁blind	-10.6806
▁pall	-10.6819
frukt	-10.6826
befolkning	-10.6826
▁insekt	-10.6827
bølge	-10.683
psykologi	-10.6854
▁rhin	-10.6911
eira	-10.6912
ра	-10.6916
▁palme	-10.6924
▁lou	-10.693
▁kamera	-10.6944
hytte	-10.6944
▁fulgt	-10.6966
▁inspirasjon	-10.6979
▁lukke	-10.6979
pedagog	-10.6995
▁vietnam	-10.6996
direktoratet	-10.6996
▁arrestert	-10.6996
▁færøysk	-10.6996
▁terreng	-10.6996
▁sandefjord	-10.6996
▁hindu	-10.6996
▁forbedre	-10.6997
gruppa	-10.6997
▁hovedpersonen	-10.6997
▁oberst	-10.6997
▁søkte	-10.6999
▁sølvmedalje	-10.6999
▁skuespill	-10.6999
▁borgermester	-10.7
▁kronologisk	-10.7
worth	-10.7
givende	-10.7
▁antikken	-10.7
▁østfold	-10.7001
▁trenger	-10.7002
ritual	-10.7004
▁frp	-10.7005
▁bernard	-10.7007
▁mannlig	-10.7007
▁eirik	-10.7008
▁fortellingen	-10.7009
▁forløper	-10.7009
▁bispe	-10.7009
▁nedtegne	-10.701
▁mandat	-10.7011
▁wol	-10.7018
▁1897	-10.7019
▁franz	-10.7019
▁1861	-10.702
kjenning	-10.7021
▁rival	-10.7022
▁1892	-10.7023
▁johansen	-10.7024
▁class	-10.703
▁indianer	-10.7036
▁gjennomføre	-10.7037
▁statistisk	-10.705
aktivitet	-10.7053
regjering	-10.7076
musiker	-10.7077
medlemmer	-10.7089
▁hä	-10.7109
▁punk	-10.7223
▁christopher	-10.7246
▁football	-10.7246
▁kjøkken	-10.7246
▁naturreservat	-10.7246
▁society	-10.7246
▁investering	-10.7246
▁vedlikehold	-10.7246
▁rådgiver	-10.7246
▁skjult	-10.7246
▁diskusjon	-10.7246
▁overlevde	-10.7246
▁alexandr	-10.7246
▁bmw	-10.7247
▁senior	-10.7247
▁valuta	-10.7247
▁presentert	-10.7247
▁axel	-10.7247
▁dream	-10.7247
▁patriark	-10.7248
▁kryp	-10.7248
▁beskyttelse	-10.7251
▁konstitusjon	-10.7251
▁sultan	-10.7252
▁fuktig	-10.7253
▁nød	-10.7271
▁1889	-10.7272
▁ddr	-10.7275
▁sveitsisk	-10.7275
▁plast	-10.7282
▁uavhengighet	-10.7299
▁spenn	-10.7312
▁terra	-10.7322
resultat	-10.7333
amerikanske	-10.7333
▁petr	-10.7358
tveit	-10.7359
▁anslå	-10.7362
recht	-10.7367
▁kunstnerisk	-10.7386
støtte	-10.7386
utvalget	-10.7417
ifikasjon	-10.7449
▁cuba	-10.7462
▁infanteri	-10.7502
▁ambassadør	-10.7502
▁bulgaria	-10.7502
▁kvalifisering	-10.7502
▁særskilt	-10.7502
▁øyeblikk	-10.7502
▁sosialdemokrat	-10.7503
kompetanse	-10.7503
▁originaltittel	-10.7503
▁identifisert	-10.7503
▁vegetasjon	-10.7503
▁serbisk	-10.7504
▁für	-10.7504
▁eksistert	-10.7504
betjent	-10.7504
▁smelte	-10.7507
▁betong	-10.7508
▁overlever	-10.7509
▁elsker	-10.7509
▁medaljer	-10.7509
▁hydrogen	-10.751
▁mektig	-10.7511
▁lisens	-10.7517
▁valley	-10.7518
▁tsar	-10.7522
▁tjue	-10.7526
▁utvide	-10.753
knapp	-10.7556
ørret	-10.7558
biskop	-10.7596
oppgave	-10.7598
▁ferje	-10.7601
kunstner	-10.7612
▁dramatisk	-10.7616
▁halvdel	-10.7625
▁hyper	-10.7627
tempelet	-10.7634
bæk	-10.7642
▁landområde	-10.7658
▁utforme	-10.7682
fase	-10.7705
▁krise	-10.7709
▁annonsert	-10.7766
▁hollywood	-10.7766
▁meksikansk	-10.7766
▁rudolf	-10.7766
▁tsjekkisk	-10.7766
▁1902	-10.7766
▁soldatene	-10.7766
▁utbredelse	-10.7766
▁1883	-10.7766
▁artilleri	-10.7766
▁kritisert	-10.7766
▁eksisterer	-10.7766
▁henrettet	-10.7766
▁ektemann	-10.7766
▁innlemme	-10.7766
▁patron	-10.7767
▁utfordre	-10.7767
▁slippe	-10.7768
▁oppdagelse	-10.7768
▁oldtiden	-10.777
▁budskap	-10.777
▁drømme	-10.7771
▁dominert	-10.7773
ulv	-10.7773
▁gravlagt	-10.7773
▁home	-10.7774
▁byggingen	-10.7777
▁eiendommen	-10.7779
▁jacobsen	-10.778
▁what	-10.7781
▁sending	-10.7781
▁barneskole	-10.7827
▁generell	-10.7875
radio	-10.788
▁klippe	-10.7891
▁glem	-10.7921
▁barokk	-10.7934
▁etnisk	-10.7966
▁espe	-10.8002
▁vannkraft	-10.8013
▁bataljon	-10.8036
▁bryllup	-10.8036
▁låtskriver	-10.8036
▁ortodoks	-10.8036
▁chicago	-10.8036
▁göteborg	-10.8036
▁kronprins	-10.8036
▁matematisk	-10.8036
▁embeds	-10.8036
▁francisco	-10.8036
▁stridsvogn	-10.8036
▁alfabet	-10.8036
▁risiko	-10.8036
▁unesco	-10.8036
▁regulert	-10.8036
▁margaret	-10.8036
▁avskaffe	-10.8036
▁serbia	-10.8036
infeksjon	-10.8036
▁utsikt	-10.8036
▁sprint	-10.8037
▁føderal	-10.8037
▁døpt	-10.8038
ст	-10.8038
▁forbinder	-10.8039
▁konsekvens	-10.804
▁konservative	-10.804
klinikk	-10.8041
▁kniv	-10.8042
forestillinger	-10.8043
bevegelse	-10.8045
▁kongress	-10.8046
▁ørken	-10.8049
▁meldt	-10.8054
▁flest	-10.8055
▁ekstern	-10.8062
leggelse	-10.8072
▁spesialisert	-10.8087
▁hylle	-10.8092
konsert	-10.8131
forstyrrelse	-10.8139
sentrum	-10.8145
lokale	-10.8148
▁ressurs	-10.8158
▁ligge	-10.8166
▁øygrupp	-10.8185
palasset	-10.8193
▁universit	-10.8207
sykdom	-10.8242
register	-10.8268
▁fakultet	-10.8314
▁favoritt	-10.8314
▁heidelberg	-10.8314
▁kullkraftverk	-10.8314
▁langrennsløper	-10.8314
▁omdøpt	-10.8314
▁påbegynt	-10.8314
▁vladimir	-10.8314
▁admiral	-10.8314
▁benjamin	-10.8314
▁country	-10.8314
▁genitali	-10.8314
▁pseudonym	-10.8314
▁innbyggerne	-10.8314
▁eksistens	-10.8314
▁skihopper	-10.8314
▁tvilling	-10.8314
▁kommentar	-10.8314
▁charlotte	-10.8314
▁prince	-10.8314
▁etablere	-10.8314
▁barnehage	-10.8314
▁kampanje	-10.8314
statistikk	-10.8315
▁fylkeskommune	-10.8316
▁armenia	-10.8316
▁gratis	-10.8316
▁temple	-10.8316
▁patent	-10.8316
▁gjøvik	-10.8316
▁datamaskin	-10.8316
mouth	-10.8317
▁dominerende	-10.8317
▁opplevd	-10.8318
mekanisme	-10.8319
▁straks	-10.8331
▁blank	-10.8332
ière	-10.8334
▁bjerk	-10.8337
▁maxim	-10.8339
▁variasjon	-10.8348
▁undervist	-10.8354
syklus	-10.8392
kledt	-10.8394
▁tretten	-10.84
▁omdanne	-10.842
dynastiet	-10.8429
butikk	-10.8431
▁grund	-10.8439
▁forkortelse	-10.8443
▁energiselskape	-10.8568
▁angelsaksisk	-10.8599
▁argentina	-10.8599
▁gjaldt	-10.8599
▁intelligen	-10.8599
▁pedipalpene	-10.8599
▁venezia	-10.8599
▁1903	-10.8599
▁buddhist	-10.8599
▁intervju	-10.8599
▁satellitt	-10.8599
▁identitet	-10.8599
▁artsbestemmelse	-10.8599
▁division	-10.8599
▁litauen	-10.8599
▁baptist	-10.8599
▁innstiftet	-10.86
kvartett	-10.86
▁ulovlig	-10.86
forbedring	-10.86
▁korrekt	-10.86
▁skåne	-10.86
▁knud	-10.8601
▁utforming	-10.8601
teoretisk	-10.8601
syndrom	-10.8602
▁immun	-10.8603
▁nkp	-10.8604
▁koreansk	-10.8617
▁absolutt	-10.8624
▁ballett	-10.8629
▁operere	-10.8634
flue	-10.8645
▁dreie	-10.8667
kontrakt	-10.8723
▁asiatisk	-10.873
byrd	-10.8735
mottak	-10.8783
▁psyko	-10.8883
▁forhindre	-10.8893
▁helsingfors	-10.8893
▁liverpool	-10.8893
▁microsoft	-10.8893
▁nøytral	-10.8893
▁observert	-10.8893
▁ukrainsk	-10.8893
▁varaordfører	-10.8893
▁innendørs	-10.8893
▁kommandør	-10.8893
▁jacque	-10.8893
▁hjort	-10.8894
▁permanent	-10.8894
▁utspring	-10.8894
▁snorre	-10.8894
▁deutsche	-10.8894
▁forsvant	-10.8894
▁grammati	-10.8894
▁forandring	-10.8894
▁flyktning	-10.8894
▁ntnu	-10.8894
▁overraske	-10.8895
▁osmansk	-10.8896
▁svekke	-10.8896
▁bbc	-10.8896
▁massiv	-10.8897
▁referert	-10.8898
▁disney	-10.8898
▁programleder	-10.8898
▁spyd	-10.8898
▁forbudt	-10.8908
hertugdømmet	-10.8913
rhein	-10.8919
vík	-10.8922
omsorg	-10.8974
gruv	-10.8999
signal	-10.9004
orkester	-10.9026
europeisk	-10.9027
størrelse	-10.9027
grønn	-10.9027
kloster	-10.9027
karriere	-10.9104
▁usikker	-10.9129
▁automat	-10.9159
▁kontinuerlig	-10.9197
▁kroatia	-10.9197
▁prøyssisk	-10.9197
▁publikasjon	-10.9197
▁rekrutt	-10.9197
▁ferskvann	-10.9197
▁pradesh	-10.9197
konsulent	-10.9197
▁sophie	-10.9197
▁texas	-10.9197
▁aktuell	-10.9197
▁stephen	-10.9197
▁middle	-10.9197
▁haakon	-10.9197
▁opplevelse	-10.9197
teatret	-10.9197
▁contest	-10.9197
▁erobring	-10.9198
▁samlealbum	-10.9198
▁fragment	-10.9198
▁protein	-10.9198
▁gerhard	-10.9198
kobling	-10.9198
▁gregor	-10.9199
▁tillatelse	-10.9199
rettighetene	-10.9199
▁tørke	-10.92
▁bengal	-10.92
▁komplett	-10.9201
▁enhver	-10.9202
▁stengt	-10.9202
▁betalt	-10.9203
▁western	-10.9204
▁lojal	-10.9207
▁genetisk	-10.9213
▁operert	-10.9216
▁forskjellen	-10.9223
▁moderat	-10.923
▁bønn	-10.923
klorid	-10.925
▁guddomme	-10.9253
dekorasjon	-10.9262
▁slange	-10.9285
▁domkirke	-10.9311
kvinne	-10.9381
hvelv	-10.9384
foretak	-10.9406
▁lakse	-10.9426
▁brødre	-10.9477
traktaten	-10.9493
▁aleksandr	-10.9509
▁allikevel	-10.9509
▁aluminium	-10.9509
▁eksemplarer	-10.9509
▁ektefelle	-10.9509
▁ferdinand	-10.9509
▁françois	-10.9509
▁lillehammer	-10.9509
▁oksygen	-10.9509
▁project	-10.9509
▁tortricidae	-10.9509
▁undergrunnsbane	-10.9509
▁meteorologi	-10.9509
▁progressiv	-10.9509
▁1881	-10.9509
▁opprettholde	-10.9509
▁operativsystem	-10.9509
▁oppdatert	-10.9509
▁stafett	-10.9509
▁angivelig	-10.9509
▁gråbrun	-10.9509
▁tilnærme	-10.9509
▁begravet	-10.9509
fiendtlig	-10.9509
▁verdensarv	-10.9509
▁opplysninger	-10.951
▁lagtinget	-10.951
▁http	-10.951
▁bærum	-10.951
▁erstatning	-10.951
▁visepresident	-10.951
▁felix	-10.9511
▁florida	-10.9511
▁utstrakt	-10.9511
▁anthon	-10.9511
materiell	-10.9513
▁akutt	-10.9515
▁nyhets	-10.9516
▁domstolen	-10.9516
▁death	-10.9518
dømmet	-10.9521
▁nederlag	-10.9523
ograph	-10.9523
møll	-10.9538
▁syklist	-10.9539
planlegging	-10.9577
nathan	-10.9601
▁marcus	-10.9616
utenriksminister	-10.964
kompleks	-10.9661
interesse	-10.9665
▁utforske	-10.976
▁definisjon	-10.9832
▁eksperimenter	-10.9832
▁engasjement	-10.9832
▁illustratør	-10.9832
▁intellektuell	-10.9832
▁nøkkel	-10.9832
▁research	-10.9832
▁salvador	-10.9832
▁varmekraftverk	-10.9832
▁koalisjon	-10.9832
▁sanskrit	-10.9832
▁1893	-10.9832
▁arbeidsgiver	-10.9832
▁westfalen	-10.9832
▁svovel	-10.9832
▁helgeland	-10.9832
▁haugesund	-10.9832
▁nevø	-10.9832
▁rederiet	-10.9832
▁ordinær	-10.9832
▁petersburg	-10.9832
▁kallenavne	-10.9832
▁claude	-10.9832
▁redigert	-10.9833
▁konkurs	-10.9833
▁prefekturet	-10.9833
▁manuskriptet	-10.9834
▁innviet	-10.9834
▁forklaring	-10.9835
mønstre	-10.9835
▁skjønt	-10.9836
▁sannhet	-10.9836
republikken	-10.9838
▁circ	-10.985
bjørg	-10.9858
pokal	-10.987
lån	-10.9875
oppdrett	-10.9891
▁benytte	-10.99
▁innerst	-10.9905
▁america	-10.9908
vennlig	-10.9978
▁blanc	-10.9984
kandidat	-10.9994
▁overføre	-11.0014
klipp	-11.0027
▁dynasti	-11.0085
forvaltning	-11.0163
prefektur	-11.0164
konsentrasjon	-11.0165
▁bulgarsk	-11.0165
▁interessant	-11.0165
▁lokomotiv	-11.0165
▁montenegro	-11.0165
▁giovanni	-11.0165
▁konsentrert	-11.0165
▁management	-11.0165
▁mountain	-11.0165
▁wergeland	-11.0165
▁vertikal	-11.0165
kommanderende	-11.0165
▁mangfold	-11.0165
▁frigjøring	-11.0165
domstol	-11.0165
▁skøyter	-11.0165
▁modifiser	-11.0165
▁dimensjon	-11.0165
▁forandret	-11.0165
▁prøvd	-11.0165
▁fødselsår	-11.0165
▁seksuell	-11.0166
skildring	-11.0166
▁trengte	-11.0166
▁rumensk	-11.0166
▁claudi	-11.0167
▁prinsippet	-11.0168
▁korpset	-11.0168
▁forberede	-11.0169
terapi	-11.0169
kollega	-11.0169
▁mikael	-11.0169
thorax	-11.017
fjeld	-11.0186
▁utskil	-11.0189
▁beskjed	-11.0193
▁åndelig	-11.0211
president	-11.0339
medisin	-11.0339
redaktør	-11.034
▁minutt	-11.0342
abilitet	-11.0376
▁omhandle	-11.0409
konservativ	-11.0505
sekvens	-11.0506
▁ødela	-11.0509
▁budsjett	-11.051
▁fremtredende	-11.051
▁innspilt	-11.051
▁public	-11.051
▁terrengsyklist	-11.051
▁virginia	-11.051
terapeut	-11.051
▁business	-11.051
▁etableringen	-11.051
▁piauí	-11.051
▁könig	-11.051
▁anmelder	-11.051
▁railway	-11.051
▁1857	-11.051
▁komponent	-11.051
▁1872	-11.051
▁apotek	-11.051
▁dedikert	-11.051
▁konsonant	-11.051
▁krystall	-11.051
▁nobelpris	-11.051
▁gustaf	-11.051
▁sicilia	-11.051
▁testamente	-11.051
▁fremtidig	-11.051
▁skipsreder	-11.051
▁wright	-11.051
▁stråle	-11.051
artikkel	-11.0511
▁castle	-11.0511
▁christensen	-11.0511
▁ekspert	-11.0511
▁harmoni	-11.0512
▁bolivia	-11.0512
▁utpekt	-11.0513
▁grieg	-11.0514
▁havneby	-11.0515
▁nevro	-11.0515
▁plikt	-11.0518
dolph	-11.0534
▁bakerst	-11.0534
blomsterflue	-11.0536
▁søyle	-11.0548
▁avskjed	-11.0553
kulasjon	-11.0555
reidar	-11.0565
tabell	-11.0624
▁dobbel	-11.063
bestemmelse	-11.068
historiker	-11.0697
provinsen	-11.0697
dekning	-11.07
amerika	-11.0701
åpning	-11.0705
ressurser	-11.0707
blikk	-11.0759
▁diplom	-11.0849
distribusjon	-11.0867
entreprenør	-11.0867
▁amsterdam	-11.0867
▁assosiert	-11.0867
▁billboard	-11.0867
▁evolusjon	-11.0867
▁indirekte	-11.0867
▁karosseri	-11.0867
▁makedonia	-11.0867
▁pennsylvania	-11.0867
▁prestegjeld	-11.0867
▁resolusjon	-11.0867
▁helikopter	-11.0867
▁pattedyr	-11.0867
▁velkjent	-11.0867
▁diagnose	-11.0867
▁høvding	-11.0867
▁invadert	-11.0867
▁sichuan	-11.0867
▁reduksjon	-11.0867
▁history	-11.0867
▁jupiter	-11.0867
▁kristoffer	-11.0867
▁interiør	-11.0867
▁offensiv	-11.0867
▁tilskuere	-11.0867
▁resultert	-11.0867
▁hybrid	-11.0867
▁misjonær	-11.0867
▁statsborger	-11.0867
▁people	-11.0867
leverandør	-11.0867
▁nelson	-11.0867
avslutning	-11.0868
▁avgjørende	-11.0868
selskab	-11.0868
▁beordre	-11.0868
▁vakre	-11.0868
annibal	-11.0868
▁systematisk	-11.0868
jylland	-11.0869
▁fantasi	-11.087
▁dvd	-11.087
▁navnedag	-11.087
▁clark	-11.0871
▁embete	-11.0871
▁bringe	-11.0872
▁cruise	-11.0875
▁utløst	-11.0878
▁samuel	-11.0883
kjerring	-11.09
følsom	-11.1047
spørsmål	-11.1067
▁gjø	-11.1086
▁forhandle	-11.1088
basseng	-11.109
brenning	-11.1128
middag	-11.1168
ч	-11.1236
▁columbia	-11.1237
▁forvandling	-11.1237
▁kristendommen	-11.1237
▁okkupert	-11.1237
▁parallelt	-11.1237
▁plutselig	-11.1237
▁restaurering	-11.1237
▁sebastian	-11.1237
▁sjokolade	-11.1237
▁territorium	-11.1237
▁douglas	-11.1237
▁primitiv	-11.1237
▁hiphop	-11.1237
▁natrium	-11.1237
▁1856	-11.1237
▁trondhjems	-11.1237
▁fiction	-11.1237
▁uansett	-11.1237
grunnsstasjon	-11.1237
▁komplisert	-11.1237
▁begravelse	-11.1238
▁invitert	-11.1238
▁bristol	-11.1238
▁tilbrakt	-11.1238
▁pianist	-11.1238
▁finansiert	-11.1238
▁spøk	-11.1239
▁uenighet	-11.1239
▁søsken	-11.124
▁sergej	-11.1242
▁hawk	-11.1246
▁fogd	-11.1247
▁koreograf	-11.1259
▁holdning	-11.1259
forvalter	-11.128
håndtering	-11.1287
kjøl	-11.1328
▁lignin	-11.137
▁tjenestegjor	-11.1389
▁forfatte	-11.1399
fløyte	-11.1415
hovedstad	-11.142
▁muslim	-11.1426
prøve	-11.1462
kvarter	-11.1462
informasjon	-11.1471
▁bearbeide	-11.1476
gyldig	-11.1494
edderkopper	-11.1535
fordelingen	-11.1542
▁innenriks	-11.1574
symmetrisk	-11.1622
▁aftenposten	-11.1622
▁inklusiv	-11.1622
▁jerusalem	-11.1622
▁kambodsja	-11.1622
▁keyboard	-11.1622
▁konklusjon	-11.1622
▁köln	-11.1622
▁lincoln	-11.1622
▁løpebiller	-11.1622
▁narkotika	-11.1622
▁shakespeare	-11.1622
▁skøyteløper	-11.1622
▁årsjubileum	-11.1622
▁depresjon	-11.1622
▁reservoar	-11.1622
▁vellykke	-11.1622
▁hønefoss	-11.1622
kringkasting	-11.1622
▁kroatisk	-11.1622
▁1854	-11.1622
▁landkreis	-11.1622
▁erkebispedømme	-11.1622
▁systematikk	-11.1622
▁kontroversiell	-11.1622
▁africa	-11.1622
▁stimul	-11.1622
▁grekerne	-11.1622
▁nominasjon	-11.1622
▁protestantisk	-11.1622
▁beleiring	-11.1622
▁avviklet	-11.1622
▁utgravning	-11.1622
▁knust	-11.1622
▁nichol	-11.1623
▁skjebne	-11.1623
ã	-11.7952
