<unk>	0
<s>	0
</s>	0
.	-3.29409
▁i	-3.46243
e	-3.69536
s	-3.73663
▁og	-3.83259
▁	-4.17474
▁av	-4.27434
t	-4.30129
en	-4.3139
er	-4.3165
▁som	-4.44426
▁en	-4.46017
r	-4.49478
▁er	-4.57725
▁til	-4.58851
▁for	-4.67067
▁på	-4.72641
▁ble	-4.88587
▁den	-4.89383
▁det	-4.92531
▁med	-4.92569
et	-4.99253
▁var	-5.02464
▁de	-5.05077
n	-5.09634
▁han	-5.15253
▁å	-5.26678
▁fra	-5.35146
▁et	-5.4647
▁har	-5.50772
a	-5.59583
ene	-5.59933
▁at	-5.61238
ne	-5.91305
▁ved	-5.9364
▁om	-5.98632
▁men	-6.01767
▁etter	-6.01841
▁også	-6.04185
d	-6.11014
▁ut	-6.13688
i	-6.14941
k	-6.19557
te	-6.1959
▁seg	-6.20588
▁under	-6.22515
▁hadde	-6.27861
y	-6.28153
▁ikke	-6.28443
▁da	-6.29244
o	-6.34243
▁over	-6.35639
g	-6.37802
▁to	-6.40225
▁opp	-6.41724
▁eller	-6.43179
▁kan	-6.4543
▁inn	-6.45887
m	-6.45897
de	-6.47003
re	-6.49466
v	-6.55192
▁andre	-6.57034
▁sin	-6.59881
▁første	-6.61924
l	-6.62505
▁mot	-6.6394
▁hun	-6.6693
▁dette	-6.68555
▁s	-6.73035
f	-6.73322
u	-6.75336
p	-6.77816
▁be	-6.78298
▁år	-6.80312
es	-6.81248
▁hans	-6.82162
▁mellom	-6.82462
ing	-6.8289
▁1	-6.84083
c	-6.84719
▁ha	-6.8565
▁bli	-6.8604
▁født	-6.86283
h	-6.87457
▁a	-6.87849
in	-6.87876
▁18	-6.88579
▁fikk	-6.89662
▁kom	-6.92116
us	-6.9304
le	-6.93615
▁f	-6.93618
al	-6.9408
▁denne	-6.95331
▁tre	-6.95505
ri	-6.95965
an	-6.97549
▁flere	-7.00089
b	-7.00763
na	-7.0141
▁der	-7.0317
ende	-7.0446
nde	-7.04578
▁del	-7.04993
▁man	-7.05342
▁sammen	-7.06329
▁blant	-7.07716
▁alle	-7.08556
z	-7.08721
sk	-7.11457
on	-7.11552
▁hvor	-7.12634
sen	-7.13355
▁2	-7.1462
▁så	-7.14677
▁the	-7.14875
ar	-7.15115
vis	-7.15475
▁nå	-7.16119
ter	-7.16748
▁før	-7.16751
▁nord	-7.17233
is	-7.18073
▁g	-7.18995
ia	-7.20183
di	-7.21206
▁tallet	-7.23167
▁ligger	-7.23384
▁mange	-7.24173
▁u	-7.27968
▁død	-7.2817
ta	-7.2831
▁stor	-7.28832
▁norge	-7.29335
▁selv	-7.29725
▁la	-7.29797
▁siden	-7.29816
lig	-7.304
▁mer	-7.30678
▁senere	-7.30839
▁kommune	-7.32372
▁3	-7.32629
▁være	-7.33388
w	-7.33516
▁disse	-7.3408
▁byen	-7.3568
j	-7.35948
ch	-7.36039
▁re	-7.36156
▁noen	-7.36336
▁m	-7.36499
▁sør	-7.37383
▁ca	-7.37683
▁tidligere	-7.38425
land	-7.3883
▁gjennom	-7.39511
▁blitt	-7.40133
▁an	-7.4036
ere	-7.41193
▁annet	-7.41281
▁kjent	-7.41363
der	-7.41379
▁kr	-7.41421
▁se	-7.41535
▁her	-7.41648
▁5	-7.41774
▁17	-7.41808
▁ol	-7.43673
ke	-7.43852
la	-7.44218
ma	-7.44243
iske	-7.44381
▁sitt	-7.45554
▁norsk	-7.45693
▁vært	-7.45842
as	-7.46235
▁al	-7.46313
▁ny	-7.46534
▁4	-7.46604
be	-7.46785
um	-7.48443
▁samme	-7.48519
▁store	-7.50096
å	-7.50181
da	-7.50209
ur	-7.50723
or	-7.51128
▁tid	-7.512
▁t	-7.51349
for	-7.51581
▁c	-7.51722
ng	-7.52494
▁land	-7.52793
ra	-7.5291
el	-7.53284
os	-7.54387
▁k	-7.54471
ck	-7.54773
ens	-7.55533
▁b	-7.56272
▁noe	-7.56379
▁p	-7.56458
▁of	-7.56944
▁ro	-7.56995
▁gikk	-7.57011
at	-7.57103
é	-7.58128
kt	-7.58208
▁frem	-7.5867
▁grunn	-7.58829
▁ga	-7.58865
▁rundt	-7.59018
▁16	-7.59223
ge	-7.59654
ut	-7.59736
ske	-7.59818
▁15	-7.60071
▁gang	-7.60624
it	-7.60862
▁dag	-7.61246
den	-7.61383
ang	-7.61543
il	-7.61759
▁le	-7.62329
▁kunne	-7.62351
▁mens	-7.62527
▁både	-7.62701
nes	-7.63637
ig	-7.6379
tt	-7.64312
▁10	-7.64502
øy	-7.64519
▁he	-7.64709
▁sa	-7.64756
▁bo	-7.64824
isk	-7.65325
▁vant	-7.65392
▁vil	-7.65444
▁enn	-7.65552
▁vest	-7.6557
▁skulle	-7.65573
▁ta	-7.65868
bo	-7.6614
▁vi	-7.66299
▁mest	-7.66496
to	-7.66897
▁øst	-7.67262
▁ra	-7.67743
▁tilbake	-7.67848
ti	-7.68085
▁ned	-7.68255
▁nye	-7.68581
lo	-7.68772
▁d	-7.68866
ver	-7.68952
ler	-7.69777
nd	-7.70117
ning	-7.70371
id	-7.7072
ga	-7.70747
▁sine	-7.71007
▁by	-7.71681
x	-7.72715
▁norske	-7.73057
▁km	-7.73524
ner	-7.73882
▁ham	-7.74312
▁h	-7.7435
ul	-7.74378
▁bare	-7.75602
▁slik	-7.76553
man	-7.76816
▁7	-7.76974
▁6	-7.77428
▁usa	-7.77573
▁skal	-7.78376
▁navn	-7.78439
ry	-7.78526
ka	-7.78577
▁navnet	-7.79321
▁august	-7.79465
▁oslo	-7.79484
ker	-7.79654
▁kon	-7.80139
▁hele	-7.80432
ba	-7.80531
lige	-7.80637
ø	-7.81109
▁pi	-7.81218
▁o	-7.81416
▁fram	-7.81455
erne	-7.8191
th	-7.81917
▁li	-7.81972
ad	-7.82029
gi	-7.82234
mo	-7.82303
▁mai	-7.82373
▁finnes	-7.8289
li	-7.82983
het	-7.83233
▁di	-7.83434
▁få	-7.84367
▁st	-7.84615
ol	-7.84725
▁siste	-7.84828
dal	-7.84945
▁lag	-7.85029
▁w	-7.85359
▁mars	-7.85656
▁januar	-7.85741
▁tok	-7.85894
vi	-7.86077
ro	-7.86139
▁hoved	-7.86182
▁000	-7.86625
kk	-7.86853
me	-7.87016
ger	-7.87475
ster	-7.87879
▁12	-7.88024
▁meter	-7.88463
mp	-7.88497
▁v	-7.88556
▁fire	-7.88571
▁ofte	-7.88865
mann	-7.88941
ve	-7.8945
sa	-7.89758
▁rekke	-7.89814
▁største	-7.89928
▁ar	-7.90267
▁na	-7.90295
▁brukt	-7.90336
▁ho	-7.90504
▁deltok	-7.90594
ja	-7.90948
skap	-7.91162
▁8	-7.91193
ste	-7.91259
▁ti	-7.91708
ør	-7.92429
▁mo	-7.92916
mer	-7.92918
ton	-7.93043
▁kalt	-7.93175
▁dem	-7.93366
son	-7.93388
erte	-7.93807
gen	-7.94147
▁11	-7.94246
▁si	-7.9492
ha	-7.9545
▁po	-7.9619
▁laget	-7.9622
ær	-7.96316
▁su	-7.96329
▁fri	-7.9634
stad	-7.96402
▁mål	-7.97049
▁kirke	-7.9717
▁bak	-7.97183
ic	-7.97366
ö	-7.98125
▁området	-7.98709
▁ri	-7.98868
▁igjen	-7.98871
je	-7.99268
▁14	-7.99507
▁juli	-7.99673
▁landet	-7.99715
by	-7.99743
ist	-7.99842
mi	-8.00075
▁vanlig	-8.00179
▁per	-8.00264
▁2008	-8.01119
▁ni	-8.01766
opp	-8.01777
▁årene	-8.01928
▁9	-8.02221
am	-8.02275
▁co	-8.02876
▁først	-8.02899
▁tillegg	-8.03438
▁går	-8.03514
ik	-8.03733
▁lang	-8.03813
ns	-8.04929
ff	-8.05171
▁20	-8.05451
▁plass	-8.05486
▁fly	-8.05774
var	-8.05843
ko	-8.0588
ven	-8.05896
▁ba	-8.06396
▁13	-8.06646
▁n	-8.06925
▁lo	-8.07151
pp	-8.0732
co	-8.07367
ment	-8.07416
▁ka	-8.07433
ell	-8.07494
▁sp	-8.07518
▁l	-8.07583
▁2007	-8.08163
▁spilte	-8.08331
▁utgitt	-8.0843
▁ma	-8.08878
▁samt	-8.09112
▁september	-8.09175
▁april	-8.0938
▁hos	-8.09399
▁fa	-8.0959
▁juni	-8.0996
este	-8.10181
io	-8.10202
▁tro	-8.10545
▁begynte	-8.1093
▁in	-8.11017
tter	-8.11322
om	-8.11615
▁oktober	-8.11662
si	-8.12028
tor	-8.12037
▁november	-8.12294
▁mindre	-8.123
▁februar	-8.12505
▁deres	-8.12544
▁no	-8.13042
▁gjorde	-8.1306
▁videre	-8.13165
▁2010	-8.13363
▁far	-8.13635
ert	-8.13864
▁fem	-8.141
tu	-8.14303
▁pa	-8.1451
▁desember	-8.14645
ingen	-8.14783
▁bruk	-8.14814
bu	-8.15095
▁mar	-8.15363
▁du	-8.15454
berg	-8.15455
bi	-8.15702
▁døde	-8.16242
▁bi	-8.16449
asjon	-8.16819
▁tiden	-8.16864
▁rett	-8.17091
pe	-8.18135
▁j	-8.18687
▁kun	-8.18705
▁ville	-8.18731
un	-8.1881
ant	-8.1887
▁2009	-8.19072
▁nær	-8.19425
▁eksempel	-8.19518
▁helt	-8.19687
▁mye	-8.20421
▁sverige	-8.2066
▁mor	-8.20766
ed	-8.20854
ca	-8.21157
▁fi	-8.21425
ho	-8.2144
▁bar	-8.21456
▁gi	-8.21503
▁skole	-8.21682
▁imidlertid	-8.21815
▁pro	-8.21926
▁musikk	-8.21984
▁ei	-8.22088
▁like	-8.22124
▁året	-8.22396
▁uten	-8.22561
▁y	-8.22802
▁new	-8.22807
▁leder	-8.23041
▁ki	-8.23168
va	-8.23229
▁større	-8.23256
im	-8.23476
▁gjen	-8.24066
od	-8.24132
op	-8.24204
▁medlem	-8.24245
else	-8.24278
▁beste	-8.24343
▁film	-8.25171
ion	-8.25272
▁2006	-8.25366
ce	-8.25428
▁barn	-8.2556
po	-8.25783
ling	-8.26043
go	-8.26312
▁spiller	-8.26679
▁el	-8.26699
▁go	-8.27087
ok	-8.27111
ering	-8.27395
▁30	-8.27931
▁form	-8.28011
ni	-8.28202
gang	-8.28247
▁tv	-8.28261
▁olympisk	-8.28292
▁europa	-8.28511
▁sønn	-8.28542
dd	-8.28726
▁tatt	-8.28743
au	-8.28879
▁ingen	-8.29032
▁bu	-8.29146
▁kong	-8.29233
▁tyske	-8.29308
ard	-8.2953
▁do	-8.296
▁0	-8.29729
▁vann	-8.29759
1	-8.29991
▁innen	-8.30241
itet	-8.30617
▁brukes	-8.3065
lse	-8.30751
▁mi	-8.31025
▁opprinnelig	-8.31311
sh	-8.31391
▁hver	-8.31573
▁tyskland	-8.31677
hold	-8.31915
kker	-8.31932
▁me	-8.32042
▁2011	-8.32343
▁deretter	-8.32353
▁ko	-8.32655
▁ulike	-8.32731
▁må	-8.32834
del	-8.33051
ot	-8.33406
2	-8.33417
æ	-8.33492
tal	-8.33602
▁or	-8.33623
▁2005	-8.33647
▁gift	-8.33766
▁so	-8.33823
do	-8.33835
inger	-8.33877
▁kultur	-8.3402
▁sommer	-8.34418
rett	-8.34732
▁derfor	-8.34912
▁2004	-8.34961
ring	-8.3521
sta	-8.35242
▁tysk	-8.36187
▁små	-8.36592
▁alt	-8.36771
▁kommer	-8.36779
ag	-8.36786
▁england	-8.37102
gg	-8.37136
men	-8.37142
svært	-8.37441
dan	-8.37693
▁25	-8.37925
▁egen	-8.37972
sted	-8.38091
pi	-8.3824
▁perioden	-8.38727
lin	-8.38803
▁parti	-8.38988
▁and	-8.39083
▁deler	-8.39253
rede	-8.39288
pa	-8.39376
▁sted	-8.39423
▁amerikanske	-8.39651
dag	-8.39832
▁ganger	-8.39857
over	-8.39915
▁satt	-8.40292
▁mat	-8.40304
▁innbyggere	-8.40396
ord	-8.40434
siden	-8.40468
▁filmen	-8.40468
▁hennes	-8.40486
▁par	-8.40595
år	-8.40637
▁ru	-8.40774
ina	-8.40784
▁gitt	-8.40953
▁tra	-8.41262
ningen	-8.4146
▁gamle	-8.41521
▁sol	-8.41987
inn	-8.42255
ty	-8.42332
▁hvert	-8.42466
ov	-8.42617
les	-8.4262
▁john	-8.42625
min	-8.42628
▁skrevet	-8.42639
▁fr	-8.42666
ow	-8.4268
▁lå	-8.42907
sjon	-8.42956
▁samtidig	-8.42964
kke	-8.43059
tid	-8.43235
ll	-8.43327
▁langs	-8.43386
▁gu	-8.43455
▁begge	-8.43524
vo	-8.43759
▁forskjellige	-8.43967
len	-8.43977
▁særlig	-8.44119
▁fast	-8.44362
▁bra	-8.44803
▁london	-8.44975
▁annen	-8.45176
mme	-8.45244
▁språk	-8.45806
▁plan	-8.45893
fa	-8.46021
▁måtte	-8.46176
▁løpet	-8.46259
▁nasjonal	-8.46321
iv	-8.4635
▁startet	-8.46443
gu	-8.46499
▁kort	-8.46635
tak	-8.46644
tur	-8.46796
á	-8.47064
lag	-8.47343
▁em	-8.4741
▁folke	-8.47447
▁lu	-8.47624
▁bestå	-8.47711
▁fleste	-8.48044
kom	-8.48051
▁bandet	-8.48055
art	-8.48201
▁lever	-8.48266
▁sett	-8.48704
▁liv	-8.48832
▁etablert	-8.48855
▁ak	-8.48976
ings	-8.48994
ft	-8.49204
▁hus	-8.49238
rmed	-8.4924
▁jo	-8.49277
▁gull	-8.49386
sel	-8.49627
nn	-8.49657
▁fotball	-8.50222
ius	-8.50226
ir	-8.50451
▁skrev	-8.50631
▁ju	-8.5098
▁arbeidet	-8.50981
▁frankrike	-8.51012
no	-8.51356
▁seks	-8.51445
ikk	-8.51688
▁antall	-8.51998
▁albumet	-8.52078
tan	-8.52086
▁kinesisk	-8.52262
▁stedet	-8.52286
▁dagen	-8.5233
ks	-8.52387
00	-8.52558
▁te	-8.52578
ek	-8.52827
▁engelsk	-8.52992
▁hel	-8.53131
▁tredje	-8.53169
ru	-8.5319
ige	-8.53209
▁kina	-8.53227
▁spilt	-8.53258
sett	-8.53539
▁mulig	-8.53623
ak	-8.53627
form	-8.53748
und	-8.53963
slag	-8.5414
▁ad	-8.54279
▁bygget	-8.54413
▁bok	-8.54437
uten	-8.54624
▁høy	-8.54734
ü	-8.54813
▁lys	-8.54887
▁amerikansk	-8.54909
sp	-8.54957
▁grad	-8.54992
vik	-8.55002
ran	-8.55149
▁nytt	-8.5527
▁2000	-8.55495
▁millioner	-8.5568
▁vm	-8.55791
▁kunst	-8.56089
▁verdens	-8.56372
▁ne	-8.56443
vin	-8.56771
▁pe	-8.56828
ier	-8.56861
▁kl	-8.56934
▁klubben	-8.56964
▁z	-8.57239
▁bil	-8.57401
verk	-8.57439
ian	-8.57467
▁x	-8.57612
ku	-8.57744
▁sesongen	-8.57821
▁ski	-8.57837
▁slutten	-8.57882
▁r	-8.57891
▁ord	-8.58145
mb	-8.58146
stand	-8.58166
▁konge	-8.58444
ie	-8.5846
mon	-8.58666
▁mann	-8.58751
av	-8.58808
▁verdenskrig	-8.58808
bar	-8.59023
lu	-8.59029
isme	-8.59051
▁støtte	-8.59145
▁100	-8.59336
▁all	-8.59466
▁as	-8.59472
tra	-8.59746
ble	-8.59746
▁va	-8.5997
tten	-8.6004
bruk	-8.60053
▁lov	-8.60144
▁serien	-8.60148
gn	-8.60267
▁tri	-8.60354
hus	-8.60424
tiden	-8.60584
▁kommunen	-8.60751
▁gruppen	-8.60902
▁norges	-8.61098
▁2001	-8.61164
▁dyr	-8.61286
▁sam	-8.61545
▁sjø	-8.61685
▁krigen	-8.61698
ber	-8.61988
▁person	-8.62011
▁ført	-8.62121
ny	-8.62338
if	-8.62519
▁ab	-8.62595
følge	-8.62654
▁flyttet	-8.63237
7	-8.63397
▁2002	-8.63603
per	-8.63845
ken	-8.63951
ron	-8.63987
tiske	-8.64018
▁fo	-8.64215
▁gir	-8.64223
stre	-8.64242
handling	-8.64245
▁bas	-8.64317
▁britiske	-8.6438
▁bl	-8.64652
ium	-8.64681
kl	-8.64752
est	-8.64773
ighet	-8.64775
▁2003	-8.65018
▁tor	-8.6505
ud	-8.65297
tre	-8.6545
▁president	-8.6573
▁val	-8.65761
ine	-8.65772
sten	-8.65789
▁langt	-8.65849
ä	-8.65938
▁side	-8.6603
▁halv	-8.66368
▁danmark	-8.66454
▁delen	-8.66503
elle	-8.66638
▁bergen	-8.66831
▁øy	-8.66931
▁sand	-8.67217
▁viktig	-8.67281
▁red	-8.67359
▁øya	-8.67383
satt	-8.67479
▁verden	-8.67688
▁basert	-8.6789
▁innehold	-8.67919
▁selskapet	-8.68042
▁ver	-8.6815
▁hu	-8.68181
▁holdt	-8.68323
▁gresk	-8.68375
lev	-8.68402
ld	-8.6841
rik	-8.68466
▁sk	-8.68545
▁holde	-8.68577
▁stort	-8.68789
met	-8.68793
▁storbritannia	-8.69024
▁kjente	-8.69031
let	-8.6908
▁historie	-8.69656
▁19	-8.69689
dalen	-8.69766
ou	-8.69794
▁am	-8.6986
▁sch	-8.70268
▁sto	-8.70376
▁ch	-8.71118
▁24	-8.7116
▁ge	-8.7128
▁vei	-8.71522
ac	-8.71568
fe	-8.71672
▁tidlig	-8.71741
til	-8.71749
ting	-8.71794
isering	-8.72316
▁fred	-8.72584
▁ser	-8.72686
bb	-8.72715
▁car	-8.72876
ley	-8.72934
tte	-8.72969
▁fortsatt	-8.73052
leg	-8.73223
▁delstaten	-8.73228
▁eks	-8.73414
▁ja	-8.73447
▁personer	-8.73577
▁gammel	-8.73597
▁gud	-8.73743
▁sangen	-8.73766
▁arbeid	-8.73778
▁kirken	-8.73785
▁meg	-8.73849
▁franske	-8.73991
▁50	-8.74508
ald	-8.74752
▁lokal	-8.74781
▁san	-8.74975
▁bro	-8.75069
▁lite	-8.75133
▁opprettet	-8.75377
▁pu	-8.75587
▁gjort	-8.75764
▁22	-8.75788
▁farge	-8.75895
▁ledet	-8.75956
mor	-8.75976
▁innenfor	-8.76057
▁utenfor	-8.76068
▁21	-8.7608
▁ben	-8.76384
▁vise	-8.76414
▁tar	-8.7642
▁os	-8.7643
▁utviklet	-8.76605
ide	-8.7679
▁fag	-8.76967
mar	-8.77053
he	-8.77081
og	-8.77097
▁slutt	-8.77407
▁nok	-8.77416
▁1980	-8.77578
▁gre	-8.77727
▁pre	-8.77931
stein	-8.78092
▁fjell	-8.78283
▁paris	-8.78332
▁omkring	-8.78388
▁gjern	-8.78423
▁funnet	-8.78589
▁min	-8.78726
▁1998	-8.78802
hu	-8.79014
▁hatt	-8.79068
▁medlemmer	-8.79075
▁gruppe	-8.79146
▁1990	-8.79216
ly	-8.79346
▁sentral	-8.79472
▁syn	-8.79626
▁forfatter	-8.79691
mål	-8.79736
▁provinsen	-8.79785
▁familien	-8.79789
▁god	-8.79832
tisk	-8.7986
▁liten	-8.79898
▁kamp	-8.79981
▁skolen	-8.80049
▁con	-8.80053
▁23	-8.80192
▁26	-8.80233
▁kn	-8.80395
▁full	-8.80731
▁fransk	-8.80916
▁svenske	-8.80927
▁bygge	-8.8099
løp	-8.81007
det	-8.81175
▁1999	-8.81297
▁midt	-8.81305
▁mennesker	-8.8152
sø	-8.81658
▁on	-8.81661
▁får	-8.81905
▁meste	-8.82055
▁bru	-8.82096
▁forbindelse	-8.82142
▁familie	-8.82166
▁stein	-8.82177
▁ras	-8.82193
▁forhold	-8.82337
▁27	-8.82367
▁nor	-8.82378
ris	-8.82421
isert	-8.82439
▁enkelte	-8.82612
fl	-8.82651
ninger	-8.8276
▁hi	-8.82788
val	-8.82943
▁politiske	-8.82962
spill	-8.83059
▁lands	-8.83133
▁foran	-8.83169
▁cha	-8.83238
tiv	-8.83333
í	-8.8342
▁dikt	-8.83515
▁følge	-8.83634
▁dr	-8.83844
▁general	-8.83848
▁bort	-8.83853
▁moderne	-8.83882
▁universitetet	-8.84023
anske	-8.84226
3	-8.84342
▁art	-8.8436
ip	-8.84373
▁arbeider	-8.84574
kan	-8.84682
tar	-8.84685
▁bre	-8.84771
heten	-8.84783
▁rolle	-8.84976
▁spesielt	-8.85156
▁betydning	-8.85169
▁kalles	-8.85261
▁paul	-8.85285
▁gjør	-8.85319
ham	-8.85452
fjorden	-8.85469
▁står	-8.85615
▁kongen	-8.85759
ci	-8.85973
▁én	-8.86068
▁mil	-8.8634
▁lav	-8.86359
▁wa	-8.86416
mmer	-8.86443
and	-8.86664
▁serie	-8.86848
▁begynnelsen	-8.86924
▁datter	-8.87342
▁ty	-8.87375
▁romersk	-8.87388
ator	-8.87464
▁gå	-8.87516
ju	-8.87591
▁valgt	-8.87763
▁bety	-8.88026
▁au	-8.88196
▁slaget	-8.88229
▁egne	-8.8827
▁stat	-8.88278
▁kvinner	-8.88372
ong	-8.88413
vann	-8.88617
▁nesten	-8.88738
tok	-8.88823
ica	-8.88901
▁gra	-8.88907
▁elven	-8.88914
▁vel	-8.88995
▁dis	-8.89089
▁reise	-8.89155
▁russland	-8.89175
elig	-8.89306
▁kv	-8.89413
▁my	-8.89436
▁kor	-8.89446
ill	-8.89603
▁henne	-8.89846
▁befolkningen	-8.8989
bre	-8.89925
▁prest	-8.90056
▁berg	-8.90069
▁york	-8.9009
▁minst	-8.90201
▁viser	-8.90432
▁bruker	-8.90444
▁2012	-8.9056
▁gjøre	-8.90575
▁veien	-8.90662
værende	-8.90743
▁menn	-8.9077
tall	-8.9078
bok	-8.90786
▁skog	-8.9081
▁danne	-8.90857
▁1960	-8.91022
hi	-8.91084
▁åpnet	-8.91108
▁sv	-8.91246
▁åtte	-8.91423
▁inkludert	-8.91478
▁ed	-8.91637
landet	-8.91691
▁hjem	-8.91701
▁kvinne	-8.9184
▁stil	-8.92134
sj	-8.92141
▁periode	-8.92256
du	-8.92294
▁staten	-8.92317
so	-8.92447
▁afrika	-8.92531
▁fått	-8.92607
lands	-8.92798
▁arter	-8.92832
▁grav	-8.9288
▁knytte	-8.92888
▁godt	-8.92946
borg	-8.92995
nk	-8.93032
sak	-8.9307
▁partiet	-8.9322
▁felles	-8.93374
▁kur	-8.93399
ó	-8.93777
▁1992	-8.93842
▁italia	-8.93843
kamp	-8.93924
ater	-8.93951
itt	-8.9402
▁peter	-8.94518
rak	-8.94566
▁stra	-8.94698
bil	-8.94707
▁28	-8.94756
▁1996	-8.94801
50	-8.94851
jo	-8.94875
6	-8.94893
asje	-8.94945
▁pr	-8.94963
kal	-8.95021
▁hol	-8.95036
vel	-8.95131
▁motor	-8.95138
▁31	-8.95179
▁rom	-8.95203
▁spille	-8.95273
▁italiensk	-8.95279
▁hy	-8.95451
▁hen	-8.95582
▁stats	-8.95667
▁radio	-8.95788
▁luft	-8.958
▁tur	-8.95917
▁aktiv	-8.9633
▁divisjon	-8.96469
kon	-8.96508
▁hal	-8.96571
▁styre	-8.96635
yn	-8.96658
▁brasil	-8.96747
▁1970	-8.96748
▁pan	-8.96778
▁handels	-8.9681
▁29	-8.96819
ich	-8.96847
stat	-8.96867
▁com	-8.9699
ving	-8.97168
plass	-8.97173
▁fu	-8.97289
ya	-8.9733
▁hav	-8.97339
▁lagt	-8.97431
▁keiser	-8.97521
ika	-8.97556
▁valg	-8.97567
▁1994	-8.97736
▁slag	-8.97895
ede	-8.98037
▁jeg	-8.9806
▁svensk	-8.98178
▁1997	-8.98234
▁hjelp	-8.98324
▁gl	-8.98345
dning	-8.98362
▁forsøk	-8.98503
ps	-8.98695
▁nummer	-8.987
▁utnevnt	-8.98728
▁katolsk	-8.98728
▁verk	-8.98741
▁råd	-8.9888
▁angrep	-8.98947
my	-8.98972
sch	-8.98978
▁ett	-8.99127
▁topp	-8.99134
▁amerika	-8.99169
▁kontroll	-8.99232
▁økonomisk	-8.9928
punkt	-8.99357
▁lange	-8.99366
▁album	-8.99416
øya	-8.99556
▁natur	-8.99586
sson	-8.99597
▁folk	-8.99638
▁makt	-8.99666
▁india	-8.99795
skje	-8.99826
▁historisk	-8.99846
▁bill	-8.99861
▁arbeids	-8.99962
▁spor	-9.00007
cu	-9.00035
råd	-9.00087
ab	-9.00103
▁tegn	-9.00146
▁slått	-9.00257
▁ren	-9.00271
▁bestemt	-9.00301
fly	-9.00359
nske	-9.00368
▁ku	-9.00397
▁universitet	-9.00559
▁gav	-9.0056
▁betydelig	-9.00754
dig	-9.00851
wa	-9.00861
heim	-9.0103
▁ring	-9.01086
kant	-9.01095
▁jord	-9.011
uk	-9.01217
▁mø	-9.01255
ller	-9.01455
▁fortsatte	-9.0149
▁komme	-9.01531
▁direkte	-9.01781
bra	-9.01825
▁bor	-9.01991
▁internasjonale	-9.01993
▁karl	-9.02156
▁fant	-9.02296
par	-9.02371
▁ur	-9.02374
▁bygd	-9.02451
▁jernbane	-9.02452
sky	-9.02545
▁mari	-9.02578
▁gul	-9.02736
▁suksess	-9.0293
▁vin	-9.02933
isere	-9.03174
rom	-9.03382
▁ke	-9.03385
samling	-9.03392
▁rø	-9.0344
fall	-9.03681
▁høyre	-9.03729
▁militær	-9.03751
▁1991	-9.03875
▁1984	-9.03876
lat	-9.03972
ys	-9.03989
ale	-9.04123
▁plat	-9.04338
▁ø	-9.04503
▁tittelen	-9.04513
▁park	-9.04514
▁nett	-9.04514
laget	-9.04648
▁pris	-9.04669
▁vinter	-9.04699
▁samarbeid	-9.0481
▁fin	-9.0486
▁likevel	-9.04962
▁lett	-9.04975
gel	-9.05028
▁litt	-9.05159
▁40	-9.05189
▁opera	-9.05359
▁lærer	-9.05431
▁william	-9.05466
▁sentrum	-9.0547
▁lokale	-9.05475
▁drev	-9.05571
▁sendt	-9.05616
ung	-9.0575
▁mag	-9.0584
skole	-9.05897
mu	-9.0592
▁kron	-9.05953
▁op	-9.05982
▁1988	-9.0601
▁teater	-9.06033
▁band	-9.06034
▁viktigste	-9.06066
▁robert	-9.06069
▁sak	-9.06197
▁ferdig	-9.06225
vei	-9.06248
anger	-9.06273
▁kar	-9.06396
▁høyde	-9.06525
▁venstre	-9.06555
za	-9.06595
▁regn	-9.06635
▁benyttet	-9.06725
▁anti	-9.06734
em	-9.06778
▁sang	-9.06799
▁dansk	-9.06903
▁krig	-9.06903
▁rød	-9.06958
▁sha	-9.06975
tel	-9.07049
▁liste	-9.07061
▁delt	-9.07103
▁dess	-9.0726
▁vo	-9.07546
▁representert	-9.07634
pu	-9.07719
▁resten	-9.07777
stilt	-9.07778
iet	-9.078
tz	-9.08136
kar	-9.08187
lå	-9.0831
bygging	-9.08459
▁ter	-9.0846
▁organ	-9.08467
▁hva	-9.0851
sjoner	-9.08551
▁ska	-9.08602
▁krigs	-9.08618
▁barne	-9.0865
▁drept	-9.08737
føre	-9.08739
▁flo	-9.08745
▁danske	-9.08752
▁orden	-9.08762
▁q	-9.08798
elsen	-9.08812
▁ettersom	-9.08963
ket	-9.09106
ds	-9.09127
kel	-9.09234
▁ste	-9.09245
▁sølv	-9.09293
▁aldri	-9.09295
▁1995	-9.09302
▁ul	-9.09303
▁2013	-9.09303
▁solgt	-9.09307
▁verdi	-9.09463
▁kraft	-9.09516
▁fiske	-9.09517
spiller	-9.0957
▁hvis	-9.09617
kken	-9.09684
su	-9.09709
▁lik	-9.09827
ski	-9.09923
▁produsert	-9.09959
▁dro	-9.10006
▁tross	-9.10017
▁sanger	-9.10072
▁regjeringen	-9.10201
stilling	-9.10326
▁tildelt	-9.1035
fin	-9.10376
▁dager	-9.10442
dre	-9.10466
▁minne	-9.1047
▁sj	-9.10553
dy	-9.10579
bro	-9.10629
▁skade	-9.10656
▁europeisk	-9.1068
▁mu	-9.10698
▁regionen	-9.10704
▁vekt	-9.10725
▁sy	-9.10762
▁skuespiller	-9.10968
▁arrangert	-9.10977
▁omtrent	-9.10977
ød	-9.11013
▁best	-9.11245
▁litteratur	-9.11272
▁eu	-9.11372
merke	-9.11444
▁hovedsakelig	-9.11552
▁eldre	-9.11572
▁politiker	-9.11586
ah	-9.11592
▁høyeste	-9.11621
▁endte	-9.11628
▁regnes	-9.11724
yl	-9.11842
▁post	-9.11843
gående	-9.11883
▁berlin	-9.1189
▁sen	-9.11942
▁måte	-9.12006
▁200	-9.12142
▁pol	-9.12187
▁mis	-9.12232
oc	-9.12402
▁fall	-9.12406
▁roman	-9.12645
▁2014	-9.12701
▁steder	-9.12813
tin	-9.12922
▁via	-9.13092
▁elv	-9.13098
anlegg	-9.13106
dyr	-9.13399
pro	-9.13418
▁wi	-9.13432
▁kat	-9.13518
▁ve	-9.13532
▁ev	-9.1355
res	-9.1357
bygd	-9.1369
▁professor	-9.13946
▁tjeneste	-9.13947
lan	-9.14041
▁mon	-9.14144
▁neste	-9.14184
rø	-9.14214
▁von	-9.14249
jen	-9.14291
▁mark	-9.14328
▁christian	-9.14373
▁roma	-9.14385
che	-9.14399
▁1900	-9.14467
ska	-9.14496
vet	-9.14512
▁lenge	-9.14531
van	-9.1454
system	-9.14587
stasjon	-9.14612
nings	-9.14686
fy	-9.147
▁pla	-9.14779
forening	-9.14808
▁områder	-9.14832
▁russisk	-9.14884
ay	-9.14914
▁dannet	-9.14994
▁finner	-9.1515
▁kje	-9.15282
▁tak	-9.1543
▁grensen	-9.15483
▁stjerne	-9.15549
▁arm	-9.15604
▁vanskelig	-9.15618
▁såkalt	-9.15623
elt	-9.15636
▁nordøst	-9.15676
ki	-9.1583
kor	-9.15887
zi	-9.15949
▁fl	-9.15982
▁britisk	-9.16188
▁1972	-9.16211
lø	-9.16393
▁system	-9.16443
burg	-9.1648
▁linje	-9.16484
▁kraftig	-9.16512
▁viste	-9.16546
▁sig	-9.16601
▁bal	-9.1666
fo	-9.16806
▁canada	-9.1681
▁århundre	-9.1681
▁resultat	-9.16817
▁1920	-9.16832
bel	-9.16845
▁johan	-9.17044
▁seil	-9.17199
▁tom	-9.17208
▁gal	-9.17338
▁kilometer	-9.17412
▁eldste	-9.17412
▁1985	-9.17423
anse	-9.17433
▁slo	-9.17475
▁gate	-9.17603
▁besto	-9.1772
▁heller	-9.17766
ister	-9.1779
▁sterkt	-9.17825
minister	-9.17946
forbund	-9.18006
han	-9.18015
▁hverandre	-9.18018
▁prosent	-9.18023
▁van	-9.18028
kning	-9.18045
▁tap	-9.18049
▁60	-9.18102
lis	-9.18109
▁finne	-9.18386
▁lyd	-9.18421
▁ønsket	-9.18506
fri	-9.18597
▁gro	-9.18681
▁helse	-9.18923
▁grunnlagt	-9.18929
port	-9.18939
parten	-9.19053
▁havn	-9.19059
▁boken	-9.1909
ai	-9.1922
▁bri	-9.19227
▁stockholm	-9.19241
▁voksne	-9.19241
ive	-9.19267
folk	-9.1947
istiske	-9.19477
▁qu	-9.19479
sund	-9.19535
▁følgende	-9.19592
▁skip	-9.19629
▁enkelt	-9.19816
mel	-9.19848
▁studert	-9.19866
▁sesong	-9.19946
rek	-9.19976
▁jan	-9.20057
▁kamper	-9.20076
liggende	-9.2009
aksjon	-9.2011
lsen	-9.20127
▁pave	-9.20318
▁trondheim	-9.2048
▁biskop	-9.20481
▁skrive	-9.20576
▁1800	-9.20682
ologi	-9.20766
▁bred	-9.20789
jel	-9.20989
▁versjon	-9.20993
▁stasjon	-9.20995
bane	-9.2104
mark	-9.21093
▁dårlig	-9.21105
▁ly	-9.21105
▁slekt	-9.21234
område	-9.21245
▁midten	-9.2125
fi	-9.21259
far	-9.21445
▁unge	-9.21518
▁japan	-9.21638
▁renn	-9.21645
▁leker	-9.21664
▁tilsvare	-9.21816
▁rike	-9.21817
▁sal	-9.21867
▁riks	-9.21879
ola	-9.22081
▁interesse	-9.22096
▁mod	-9.22217
gitt	-9.22273
▁bror	-9.22366
▁1993	-9.22373
▁1950	-9.22389
full	-9.22408
jer	-9.22486
▁ky	-9.2262
▁konsert	-9.2264
ismen	-9.22645
▁hjemme	-9.2265
▁våpen	-9.22724
▁mel	-9.22777
nor	-9.22889
plan	-9.2294
mal	-9.2294
vitenskap	-9.22963
▁lenger	-9.22983
и	-9.23003
▁1986	-9.23012
▁2015	-9.2302
▁br	-9.23021
▁syv	-9.23041
kommun	-9.23042
▁fe	-9.23057
eget	-9.23058
akt	-9.23115
▁fylke	-9.23292
dt	-9.23367
55	-9.23396
ach	-9.23405
gar	-9.23464
veien	-9.23523
▁indre	-9.23524
▁university	-9.23647
▁1989	-9.23652
▁poeng	-9.23664
▁møtte	-9.23672
▁sogn	-9.23832
▁leve	-9.23901
banen	-9.24014
▁cla	-9.24142
▁sta	-9.24246
▁1975	-9.243
brudd	-9.24336
▁gård	-9.24355
pt	-9.24512
▁politi	-9.24539
▁seier	-9.2455
▁mal	-9.24564
stra	-9.24583
fjord	-9.24604
▁politisk	-9.24797
båt	-9.2482
nntil	-9.24842
▁hvilke	-9.24939
dom	-9.24951
ros	-9.25072
gl	-9.25243
xi	-9.25353
bygning	-9.25454
▁års	-9.25503
▁1987	-9.25602
gh	-9.25624
▁kjøpt	-9.25653
▁lille	-9.25663
▁asia	-9.25863
vær	-9.25894
▁bruke	-9.25932
navn	-9.26059
▁gran	-9.2621
ation	-9.2628
▁sammenheng	-9.26301
rat	-9.26305
ight	-9.26316
▁you	-9.26328
regionen	-9.2671
▁los	-9.2671
selskap	-9.26754
▁fange	-9.26887
loven	-9.26941
sjøen	-9.27018
▁offentlig	-9.27027
▁finalen	-9.27103
skip	-9.27158
▁alder	-9.2735
▁viss	-9.2739
▁miljø	-9.27519
▁sannsynlig	-9.27579
lett	-9.27589
tes	-9.27697
▁arten	-9.27777
▁blå	-9.27834
▁rock	-9.27875
▁sørøst	-9.27891
▁løp	-9.27914
5	-9.28127
8	-9.28191
hy	-9.28194
▁sovjetunionen	-9.28251
▁russiske	-9.28412
▁stre	-9.28425
stil	-9.2851
▁je	-9.28564
områder	-9.28588
▁xi	-9.286
▁bank	-9.286
▁industri	-9.28675
▁klar	-9.28735
ano	-9.28748
ice	-9.28869
▁she	-9.28873
▁drift	-9.28875
▁møte	-9.28893
▁slekten	-9.28898
øl	-9.28972
▁raskt	-9.29023
q	-9.29238
føring	-9.29342
ære	-9.29424
▁omfatter	-9.29523
las	-9.29582
asjonen	-9.29587
▁1981	-9.29607
bert	-9.29608
▁kroppen	-9.29611
▁ii	-9.29663
▁ber	-9.29835
▁bjørn	-9.29864
▁styrke	-9.29936
▁styrker	-9.30057
▁hånd	-9.30145
menn	-9.30297
marked	-9.30317
oli	-9.30333
tro	-9.30368
▁militære	-9.30447
▁sørlig	-9.30469
▁ex	-9.30484
▁nrk	-9.30503
gård	-9.30545
mm	-9.3067
▁utgjør	-9.30777
▁lær	-9.30813
▁lege	-9.30851
▁tilhører	-9.30861
▁virke	-9.3091
а	-9.30972
▁samling	-9.30977
▁felt	-9.30978
leder	-9.31011
abel	-9.31156
▁koloni	-9.31222
▁nu	-9.31411
▁island	-9.31434
skapet	-9.31455
▁delta	-9.31606
mat	-9.31645
ino	-9.31663
▁1940	-9.31687
▁1978	-9.31688
▁vår	-9.31744
▁energi	-9.31763
som	-9.31779
▁pal	-9.32072
gan	-9.32113
film	-9.3212
▁engelske	-9.32159
ål	-9.32235
sal	-9.32331
▁elva	-9.3248
20	-9.32515
mester	-9.32527
▁dra	-9.32548
▁eid	-9.32561
▁kors	-9.32703
▁karriere	-9.32796
▁samle	-9.32831
nce	-9.32833
▁dom	-9.32869
bin	-9.32916
▁mus	-9.33008
▁nest	-9.33011
▁tapte	-9.33068
▁standard	-9.33105
givelse	-9.33123
▁sju	-9.33147
huset	-9.33155
▁avdeling	-9.33233
tsj	-9.33248
pl	-9.3332
▁nordlige	-9.33452
▁bolig	-9.33524
pper	-9.33698
▁kardinal	-9.33788
▁1968	-9.338
▁spania	-9.33801
▁regi	-9.33876
▁sc	-9.33914
▁kul	-9.34083
▁sosial	-9.34109
▁fulgte	-9.34125
▁hø	-9.3417
pol	-9.34216
byr	-9.34229
bygg	-9.34276
lle	-9.3431
fer	-9.34317
▁mac	-9.34345
syn	-9.34358
▁we	-9.34514
▁1948	-9.34517
▁egentlig	-9.34523
▁vind	-9.34539
området	-9.34622
▁lars	-9.34685
▁trykk	-9.34738
▁uttrykk	-9.34782
▁80	-9.34834
▁500	-9.34868
▁historien	-9.34878
▁carl	-9.34893
▁endret	-9.34915
▁eier	-9.35
før	-9.35165
▁mester	-9.35184
▁program	-9.35375
▁arkitekt	-9.35396
▁para	-9.35452
▁finland	-9.35484
fra	-9.35686
▁pl	-9.35691
ini	-9.35702
▁korea	-9.35727
▁vestlig	-9.35882
▁brun	-9.35895
▁australia	-9.35947
▁dersom	-9.36057
▁hvit	-9.36091
▁david	-9.36121
▁sommeren	-9.36122
cc	-9.36608
▁don	-9.36658
▁fremdeles	-9.36701
▁bør	-9.36709
▁ordet	-9.3685
▁valgte	-9.36901
bl	-9.36967
▁sø	-9.36985
▁pra	-9.36986
▁slike	-9.37376
▁samlet	-9.37403
lagt	-9.37425
kje	-9.37484
▁blod	-9.37488
gruppen	-9.37626
gikk	-9.37749
▁eg	-9.37909
▁herre	-9.37926
▁start	-9.37941
▁stand	-9.37969
▁forsøkt	-9.38001
▁bedre	-9.38065
ritt	-9.38104
▁port	-9.38123
▁tekst	-9.3816
▁1982	-9.38161
▁1965	-9.38169
valg	-9.38196
ana	-9.38268
▁stu	-9.38276
evne	-9.38365
▁totalt	-9.38403
retning	-9.38505
trykk	-9.38563
▁enhet	-9.38619
side	-9.38626
▁jobb	-9.38655
don	-9.38675
isten	-9.38679
misjon	-9.38714
▁lei	-9.38806
▁israel	-9.38821
▁københavn	-9.38899
▁1964	-9.38912
vern	-9.38965
▁tall	-9.38994
▁syd	-9.39058
fag	-9.39369
▁høsten	-9.39403
pris	-9.39434
gre	-9.39477
pel	-9.39497
▁kampen	-9.39627
▁trøndelag	-9.39651
festival	-9.39653
▁oppført	-9.39654
▁nordvest	-9.39655
▁1945	-9.39657
▁1966	-9.39665
▁ac	-9.39716
▁mm	-9.39796
▁trans	-9.39816
▁besøk	-9.40101
▁rad	-9.40169
▁grev	-9.40246
▁gode	-9.4041
▁stadig	-9.40431
▁måneder	-9.40454
▁union	-9.40492
▁livet	-9.40578
har	-9.40782
red	-9.40844
året	-9.40912
lot	-9.40968
▁grupper	-9.4102
rin	-9.41029
messig	-9.41167
▁relativ	-9.41172
▁ass	-9.41188
▁statsminister	-9.41188
▁forsvar	-9.41292
▁punkt	-9.41305
▁klasse	-9.4134
▁spi	-9.41371
▁virksomhet	-9.41401
▁tu	-9.41473
olog	-9.41554
▁posisjon	-9.41572
▁finsk	-9.41616
65	-9.41648
▁cor	-9.41662
▁gar	-9.41753
age	-9.41797
▁plassert	-9.41807
▁stod	-9.41913
▁etterhvert	-9.41942
produksjon	-9.41954
▁2016	-9.41962
▁henrik	-9.41971
▁tele	-9.42027
▁bygningen	-9.42033
▁adel	-9.42144
▁tradisjon	-9.4216
▁kunstner	-9.42261
▁pri	-9.42274
pen	-9.42288
▁svarte	-9.42295
▁produksjon	-9.42329
ms	-9.42338
▁menneske	-9.42432
ph	-9.42467
▁nivå	-9.42533
zo	-9.42555
medalje	-9.42557
▁symbol	-9.42716
▁dronning	-9.4272
▁lengde	-9.42725
▁1979	-9.42729
grad	-9.42739
▁omfattende	-9.42771
▁mont	-9.42887
▁redaktør	-9.42977
▁oppdaget	-9.43202
rus	-9.43328
hund	-9.43333
lene	-9.43384
▁ap	-9.43391
▁tett	-9.43435
▁za	-9.43484
▁1983	-9.43509
dra	-9.43549
▁spe	-9.43556
▁brann	-9.43569
navnet	-9.43603
så	-9.43628
▁havet	-9.43689
ford	-9.43739
istisk	-9.4377
▁overtok	-9.43811
▁kal	-9.43832
ji	-9.43866
▁studie	-9.43957
dde	-9.44068
▁dyp	-9.44267
▁skr	-9.44274
37	-9.44281
▁1930	-9.44301
▁hæren	-9.44405
løse	-9.44434
lov	-9.44444
legge	-9.44571
vinne	-9.44602
▁region	-9.44638
▁løs	-9.44649
▁areal	-9.44665
▁sm	-9.44705
▁viktige	-9.44778
skog	-9.44841
▁mulighet	-9.44853
▁dia	-9.44863
drift	-9.44954
е	-9.45078
р	-9.45078
ial	-9.45081
▁stortinget	-9.45081
departementet	-9.45134
▁olje	-9.4514
▁vis	-9.45168
▁ry	-9.45169
▁col	-9.45205
blad	-9.45222
▁mas	-9.45224
▁olav	-9.45234
sjef	-9.4526
▁latin	-9.45311
byen	-9.45347
eres	-9.45354
▁fal	-9.45382
fon	-9.45429
▁røde	-9.45457
▁cm	-9.45593
fest	-9.45609
▁krav	-9.45624
▁moh	-9.45648
▁egypt	-9.45707
int	-9.45726
vid	-9.45738
ologisk	-9.45807
▁plante	-9.45822
▁beijing	-9.45879
▁fylkesvei	-9.45886
▁kol	-9.45911
▁klarte	-9.46021
systemet	-9.46113
bø	-9.46172
▁irland	-9.46321
▁svart	-9.46363
▁enten	-9.46423
tegn	-9.4647
▁hvite	-9.46533
▁ag	-9.4655
ther	-9.46551
▁femte	-9.46643
nett	-9.46687
▁bronse	-9.46691
▁1973	-9.46696
▁vokste	-9.46704
▁skje	-9.46752
▁skipet	-9.4691
▁opprør	-9.46911
lser	-9.47021
standen	-9.47096
30	-9.47154
chi	-9.47166
lik	-9.47245
▁george	-9.47283
▁uavhengig	-9.47369
▁anders	-9.47369
▁fjerde	-9.47423
qu	-9.47462
▁område	-9.47471
▁bakgrunn	-9.47519
▁sterk	-9.47554
▁strid	-9.47671
▁ung	-9.47671
våg	-9.47687
▁gen	-9.47771
lys	-9.47814
▁ledd	-9.47835
▁hopp	-9.47875
▁faren	-9.47947
▁super	-9.47957
▁res	-9.48056
▁nederland	-9.48112
▁lind	-9.48141
▁franc	-9.48158
▁grand	-9.4821
▁fyr	-9.48345
▁sovjetisk	-9.48397
▁størrelse	-9.48451
▁real	-9.48535
old	-9.48537
rike	-9.48544
▁sette	-9.48585
▁regjering	-9.48607
▁naturlig	-9.48673
▁not	-9.4868
king	-9.48806
▁skrift	-9.48808
graf	-9.48837
ledes	-9.48837
valget	-9.48842
▁180	-9.48853
ringen	-9.48861
stø	-9.48952
▁informasjon	-9.49144
▁stiftet	-9.49148
▁innført	-9.49151
styre	-9.49158
▁hær	-9.49251
elser	-9.49294
▁th	-9.49332
▁jorden	-9.49364
▁egg	-9.49395
iti	-9.49475
ativ	-9.49497
▁høyere	-9.49575
arbeid	-9.4959
▁polen	-9.49617
▁ep	-9.49641
ym	-9.49678
▁gren	-9.49723
makt	-9.49776
idae	-9.49869
kket	-9.49882
▁sende	-9.49952
trolig	-9.49981
▁sikre	-9.49985
▁utført	-9.49986
▁vol	-9.50014
▁stilling	-9.50018
▁city	-9.50033
▁bilde	-9.50053
▁sikkerhet	-9.5006
▁jakt	-9.50146
▁sentrale	-9.50278
▁hall	-9.50294
48	-9.50295
▁spørsmål	-9.50375
hav	-9.5051
▁høye	-9.5053
mannen	-9.50631
nik	-9.50818
▁james	-9.50822
▁stavanger	-9.50824
verket	-9.50913
▁retning	-9.50937
itz	-9.5095
▁ekteskap	-9.5096
gress	-9.51038
trekk	-9.51084
▁utvikle	-9.51164
▁effekt	-9.51278
▁erstattet	-9.51301
▁syk	-9.51315
▁70	-9.51326
▁ji	-9.51328
▁formel	-9.51507
39	-9.51509
▁west	-9.5155
up	-9.51564
ding	-9.5157
▁35	-9.51623
с	-9.51665
slutning	-9.51682
▁skyld	-9.51687
mengde	-9.51829
krigen	-9.51848
▁nederlandsk	-9.51888
▁hundre	-9.51902
ull	-9.52027
ille	-9.52067
mus	-9.52139
lighet	-9.52148
▁grønn	-9.5215
lia	-9.52203
▁nådd	-9.52274
▁krist	-9.52355
▁lin	-9.52391
▁erik	-9.52455
è	-9.5252
▁motsetning	-9.5252
▁klart	-9.52638
fart	-9.52653
fal	-9.52671
skrift	-9.52707
▁athen	-9.52734
▁kyst	-9.52753
▁båt	-9.52842
▁preget	-9.52869
60	-9.52971
musikk	-9.52988
▁transport	-9.52993
▁motstand	-9.53175
senter	-9.53199
▁cup	-9.53281
▁administrasjon	-9.53382
▁representere	-9.53382
▁1967	-9.53397
▁legge	-9.53455
▁ytre	-9.53466
▁knut	-9.53559
fisk	-9.53589
▁iii	-9.5359
nivå	-9.53617
ins	-9.53747
▁thor	-9.53747
▁utviklingen	-9.53751
rasjon	-9.53791
66	-9.53795
▁selskap	-9.53829
▁beskrive	-9.53902
▁gården	-9.53984
lla	-9.53995
▁blad	-9.54047
▁fjorden	-9.54174
all	-9.54205
▁1976	-9.54263
lus	-9.54293
▁christ	-9.54342
▁rute	-9.54358
drag	-9.54394
▁mørke	-9.54424
▁hoff	-9.54538
hr	-9.54574
▁turn	-9.54579
▁kra	-9.54614
▁sky	-9.5467
▁ball	-9.54685
▁kontrakt	-9.54749
▁fører	-9.54872
▁museum	-9.54887
▁sil	-9.54892
▁borger	-9.55072
ā	-9.55129
▁gjennomført	-9.55132
▁artene	-9.55201
lie	-9.5536
▁400	-9.55405
løs	-9.55441
▁funksjon	-9.55741
bru	-9.55848
ient	-9.5588
▁student	-9.55909
▁kull	-9.5592
▁organisasjonen	-9.5599
formet	-9.55991
▁nevnt	-9.56014
▁thomas	-9.56015
▁pass	-9.56023
95	-9.56085
▁feil	-9.56114
gjøre	-9.56145
▁gru	-9.56166
▁300	-9.56203
▁nabo	-9.56303
▁journalist	-9.56327
▁bern	-9.56352
▁programmet	-9.56432
▁veg	-9.56433
iz	-9.56436
grav	-9.56466
▁operasjon	-9.56572
▁air	-9.56612
▁maria	-9.56614
sis	-9.56724
▁inter	-9.5673
▁figur	-9.56759
▁flat	-9.56761
▁mc	-9.56793
▁vold	-9.56882
▁bøker	-9.56883
▁rapport	-9.56907
▁louis	-9.56907
ild	-9.56963
▁slå	-9.57044
▁satte	-9.57098
▁revolusjon	-9.57127
▁johannes	-9.57145
▁sel	-9.57161
▁behandling	-9.57199
▁kle	-9.57205
▁design	-9.57266
▁offiser	-9.57361
▁andreplass	-9.57766
the	-9.57797
▁kontakt	-9.57812
▁gutt	-9.57815
▁1974	-9.57817
virkning	-9.57826
parti	-9.57901
sjonen	-9.5791
▁gått	-9.57949
▁fordel	-9.57969
lling	-9.58028
kast	-9.58092
85	-9.58183
eier	-9.58188
bri	-9.58192
▁selve	-9.58236
▁festning	-9.58562
▁lek	-9.5858
▁tilknytning	-9.58716
▁sørvest	-9.58721
▁rus	-9.58723
▁1969	-9.58727
cha	-9.58745
▁grense	-9.58757
▁led	-9.58767
▁gjenopp	-9.58833
▁folket	-9.58986
▁fil	-9.59007
▁befolkning	-9.59107
▁merke	-9.59109
ikken	-9.59231
rådet	-9.59248
▁mur	-9.59304
▁daglig	-9.59329
▁prisen	-9.59397
med	-9.5949
▁fest	-9.59522
▁stemme	-9.59543
▁kraftverk	-9.59546
67	-9.59596
▁chi	-9.59618
о	-9.59629
▁nødvendig	-9.59634
▁skjedde	-9.59644
▁1912	-9.59645
rum	-9.59663
▁henhold	-9.59682
▁tal	-9.59739
person	-9.59805
▁bø	-9.59826
▁stykke	-9.59904
san	-9.59936
▁trekke	-9.60043
▁stan	-9.60126
▁sve	-9.60139
▁falt	-9.60346
▁modell	-9.6036
38	-9.60398
ani	-9.60399
familien	-9.60409
▁soldater	-9.605
▁tilgjengelig	-9.6056
▁ytterligere	-9.6056
▁finans	-9.60567
▁1936	-9.60569
▁bur	-9.60581
▁fotballspiller	-9.60594
ffer	-9.60801
we	-9.60942
▁ansatt	-9.60955
gruppe	-9.61004
▁prøve	-9.61022
54	-9.61029
▁tru	-9.61271
mun	-9.6129
▁klassisk	-9.61494
▁oppkalt	-9.61499
▁bevart	-9.61514
way	-9.61584
▁velge	-9.61589
tog	-9.61628
▁kreve	-9.61642
▁lære	-9.61646
▁valget	-9.6179
▁ledelse	-9.61832
▁runde	-9.61834
styrke	-9.6185
▁fremst	-9.61866
▁strøm	-9.61867
▁nasjonale	-9.61891
▁phil	-9.61914
skriv	-9.61929
▁årlig	-9.62123
▁ci	-9.6235
▁1924	-9.62449
▁1949	-9.6245
▁sønnen	-9.6247
kkel	-9.62471
▁alltid	-9.62502
▁skape	-9.62558
tør	-9.62584
gangen	-9.62604
▁tusen	-9.62623
▁øyene	-9.62628
gjorde	-9.62652
ves	-9.62794
▁sykdom	-9.62964
klar	-9.63076
▁forfatteren	-9.63115
ria	-9.63141
▁krets	-9.63163
museet	-9.63232
▁wo	-9.63236
64	-9.63238
stående	-9.63253
nyin	-9.63338
▁maskin	-9.63345
▁populær	-9.63347
▁grunnlag	-9.63383
▁innflytelse	-9.63384
▁fokus	-9.63392
▁1962	-9.63405
▁snakke	-9.63408
▁time	-9.6349
▁type	-9.63523
▁prosess	-9.63544
arbeider	-9.63567
skifte	-9.6361
▁fot	-9.63629
▁utvikling	-9.63634
▁privat	-9.63729
rud	-9.63767
▁hovedstaden	-9.63812
▁variant	-9.63827
lek	-9.6397
tion	-9.63999
▁distrikt	-9.64004
bilde	-9.64112
▁teori	-9.64145
dret	-9.64159
▁høyt	-9.64211
10	-9.64256
esse	-9.64264
kin	-9.6429
wood	-9.64308
▁fengsel	-9.64352
▁united	-9.64353
▁brøt	-9.64354
▁1971	-9.64362
▁ger	-9.64403
▁bodde	-9.64419
historiker	-9.6448
▁japansk	-9.64517
▁ramme	-9.64579
havet	-9.64615
▁varme	-9.64649
▁forlot	-9.64676
▁fjern	-9.64689
▁avisen	-9.64718
lar	-9.64776
ografi	-9.64798
▁beskrevet	-9.64827
▁vunnet	-9.64857
▁ob	-9.64899
▁bad	-9.64913
▁utvidet	-9.64914
▁hard	-9.64922
▁toppen	-9.64932
▁kost	-9.65131
▁kam	-9.65144
vig	-9.65208
78	-9.65237
trådte	-9.65284
▁original	-9.65323
▁utdannet	-9.65323
▁snart	-9.65326
▁retts	-9.65354
hl	-9.65379
▁tanke	-9.65383
▁regel	-9.65439
▁polsk	-9.65474
▁scene	-9.6554
▁personlig	-9.65641
▁liga	-9.6569
▁jobbet	-9.65697
▁drive	-9.65727
våpen	-9.65751
møte	-9.65767
▁can	-9.6582
▁stø	-9.6589
▁hor	-9.65951
▁bind	-9.6602
pan	-9.66145
▁metall	-9.66146
▁tung	-9.66159
▁ting	-9.66264
▁league	-9.66303
▁hertug	-9.66306
▁publisert	-9.6631
▁anlegget	-9.66323
▁nærheten	-9.66368
▁martin	-9.66385
▁cap	-9.66407
rakk	-9.66429
▁undersøkelse	-9.66449
sberg	-9.66575
▁uni	-9.66604
▁kart	-9.66668
▁fla	-9.66674
▁sent	-9.66737
sku	-9.66752
▁fc	-9.66837
är	-9.66887
▁huset	-9.66889
rene	-9.67014
▁akt	-9.67115
på	-9.67188
▁produsent	-9.67204
tis	-9.67223
▁ban	-9.6723
▁1952	-9.6731
▁altså	-9.67329
▁black	-9.67346
▁jern	-9.67418
▁kanon	-9.67432
▁vet	-9.67497
▁len	-9.67547
▁overgang	-9.67561
▁grenser	-9.67575
▁politikk	-9.6758
▁utdanning	-9.6766
▁plate	-9.67669
▁plassering	-9.67774
▁vik	-9.67793
legg	-9.67793
▁stoppe	-9.6781
▁tettstedet	-9.67871
styret	-9.67913
▁skjer	-9.67937
hø	-9.6794
▁fjellet	-9.67995
79	-9.68037
lke	-9.68208
plat	-9.68247
liv	-9.68253
▁formann	-9.68294
▁1958	-9.68309
▁mistet	-9.68321
fører	-9.68359
▁grå	-9.68392
▁nr	-9.68509
▁årsak	-9.68603
▁kristne	-9.68669
▁bla	-9.68705
▁begrepet	-9.68776
▁bygde	-9.68822
gy	-9.68825
▁listen	-9.68866
▁musiker	-9.68875
ston	-9.68963
▁lau	-9.69079
▁skille	-9.69251
▁af	-9.69273
▁mexico	-9.69303
▁richard	-9.69303
▁hjerte	-9.69304
▁melodi	-9.69307
▁frederik	-9.69308
▁klima	-9.69321
sser	-9.69363
▁uttalt	-9.69364
52	-9.69384
selskapet	-9.69422
▁90	-9.69532
▁hvorav	-9.69554
▁just	-9.69555
innspilling	-9.69579
▁klo	-9.69612
▁benytte	-9.69632
▁viking	-9.69648
gjort	-9.69683
▁sub	-9.6969
▁økonomi	-9.69756
▁skilt	-9.69812
▁reiste	-9.69892
▁smal	-9.69924
▁riket	-9.69986
▁data	-9.69987
▁son	-9.70081
organ	-9.70202
ferd	-9.70207
40	-9.70209
▁sjef	-9.70249
▁kommet	-9.70261
▁strand	-9.7028
▁california	-9.70324
▁michael	-9.70324
▁selvstendig	-9.70324
▁episode	-9.70324
▁løv	-9.70373
▁dal	-9.70407
stamme	-9.70419
▁teksten	-9.70454
▁østlig	-9.7048
▁masse	-9.70544
▁hud	-9.70549
▁georg	-9.70567
▁prosjekt	-9.70664
kraft	-9.7078
▁total	-9.70813
▁styrkene	-9.70821
industri	-9.70871
kunst	-9.70876
▁kroner	-9.70894
oll	-9.71024
rimot	-9.71038
cia	-9.71079
mmen	-9.71151
▁beskytte	-9.71197
midler	-9.71214
▁spesial	-9.71339
▁produsere	-9.71354
▁profesjonell	-9.71354
▁kunnskap	-9.71356
▁1977	-9.71363
▁1918	-9.71368
▁1944	-9.71368
▁friidrett	-9.71372
58	-9.7139
ien	-9.71406
▁1700	-9.71453
linjen	-9.71465
▁forskjell	-9.71483
oppgave	-9.71486
▁endre	-9.71588
▁45	-9.71633
▁dy	-9.71646
ora	-9.71851
▁lan	-9.719
▁hår	-9.71901
kultur	-9.71912
▁pat	-9.72125
▁hovedstad	-9.72161
ark	-9.72189
▁sau	-9.72281
hall	-9.72323
▁uke	-9.72333
▁national	-9.72396
kra	-9.7241
▁1959	-9.72412
▁sommerfugl	-9.72416
field	-9.72485
▁debutert	-9.72528
spiss	-9.72529
linje	-9.72632
zhou	-9.72672
4	-9.72688
▁internasjonal	-9.72702
▁kongelige	-9.72705
▁stasjonen	-9.72716
75	-9.72753
ire	-9.72757
▁single	-9.72794
▁odd	-9.7281
▁områdene	-9.72848
ix	-9.72907
▁ram	-9.72919
▁hell	-9.72924
fu	-9.72937
▁idretts	-9.72979
spor	-9.72998
sol	-9.73015
▁press	-9.73017
▁øke	-9.7302
former	-9.73138
wi	-9.73147
tus	-9.73216
▁tema	-9.7334
▁bel	-9.73347
gne	-9.73443
▁1908	-9.73449
▁konflikt	-9.73449
▁hevdet	-9.73449
▁øvre	-9.73449
kapasitet	-9.73449
▁1946	-9.73464
▁1941	-9.73464
▁1939	-9.7347
streng	-9.73491
▁hei	-9.73529
▁innsats	-9.73537
▁tredjeplass	-9.7359
▁slott	-9.73595
▁borg	-9.73606
▁oppdrag	-9.73649
▁love	-9.7369
▁war	-9.73778
senteret	-9.73784
ved	-9.73809
stikk	-9.73822
nu	-9.73855
▁saken	-9.73892
▁pop	-9.73893
▁vitenskapelig	-9.73936
68	-9.73947
▁munn	-9.73981
▁mid	-9.74034
løst	-9.74075
pet	-9.74133
gata	-9.74135
▁produksjons	-9.74194
▁vist	-9.74223
▁offisielle	-9.7428
▁direktør	-9.74351
▁drama	-9.74383
▁presse	-9.74401
▁nærings	-9.74452
90	-9.74487
▁ungarn	-9.74514
▁østerrike	-9.74514
▁typisk	-9.74515
▁nærmest	-9.74518
ob	-9.7452
▁gjest	-9.74523
▁snø	-9.74606
levende	-9.74669
▁kysten	-9.7485
▁dø	-9.74855
▁dømt	-9.74909
▁tog	-9.74911
▁salt	-9.74959
▁påvirke	-9.74968
stedet	-9.74969
▁metal	-9.75024
▁hodet	-9.75053
▁sul	-9.75081
▁gass	-9.7509
▁fortsette	-9.75108
▁stilt	-9.75143
▁hin	-9.75274
▁venn	-9.75277
gra	-9.75284
▁kilder	-9.75292
▁problem	-9.75298
▁brev	-9.75302
lly	-9.75328
▁karakter	-9.7537
ben	-9.75377
▁stille	-9.75379
▁konkurransen	-9.75409
folkerepublikken	-9.75588
▁opprinnelse	-9.75588
▁world	-9.75588
▁overført	-9.75593
▁bronsemedalje	-9.75599
▁lengre	-9.756
▁college	-9.75602
▁sølvmedalje	-9.75604
▁fredrik	-9.75604
pr	-9.75607
▁omtalt	-9.75618
▁front	-9.75648
▁stammer	-9.75658
▁angeles	-9.75663
▁het	-9.75701
▁damp	-9.75741
▁opphav	-9.75854
▁zh	-9.75871
63	-9.75886
▁korte	-9.76107
▁jon	-9.7611
▁fremme	-9.76135
▁aktivitet	-9.76142
▁prins	-9.76151
fjell	-9.76215
kop	-9.76217
ordenen	-9.76322
lede	-9.76344
zz	-9.7638
47	-9.76394
▁passer	-9.76411
▁kalle	-9.76543
▁forsvars	-9.76586
42	-9.7667
▁religion	-9.76675
▁foreldre	-9.76677
▁søke	-9.76678
▁sivil	-9.7668
▁jazz	-9.76692
▁søster	-9.76738
▁rot	-9.7678
▁virkelig	-9.76817
▁leir	-9.76877
▁test	-9.76909
62	-9.76921
vekt	-9.76933
af	-9.77069
▁fløy	-9.7709
▁ven	-9.77197
▁begynner	-9.7723
61	-9.77245
regnet	-9.7731
pass	-9.77315
distrikt	-9.7734
▁bane	-9.77348
språk	-9.7736
krets	-9.77374
▁lignende	-9.7744
▁tale	-9.77447
gift	-9.77447
▁lot	-9.77474
▁anta	-9.77477
▁åpen	-9.77537
▁danse	-9.77582
▁offentlige	-9.77584
later	-9.77606
▁byer	-9.77607
án	-9.77705
▁hit	-9.77731
▁skottland	-9.77774
▁lengst	-9.77779
▁medlemmene	-9.77781
▁1942	-9.77791
▁1963	-9.77791
▁kjenne	-9.77827
plikt	-9.77884
▁flykte	-9.77914
▁rang	-9.77974
gene	-9.78006
▁verne	-9.78018
▁sur	-9.78046
tjeneste	-9.78071
ville	-9.78078
▁endelig	-9.78111
▁sete	-9.78235
▁hjelpe	-9.78239
▁sier	-9.7832
riket	-9.78354
bjørn	-9.78466
▁kloster	-9.78548
▁produkt	-9.78597
shire	-9.78658
aktig	-9.78714
ction	-9.78748
▁glo	-9.78772
kysten	-9.78787
▁studier	-9.78791
sekretær	-9.7887
▁komponist	-9.78885
▁praksis	-9.78885
▁betrakte	-9.78885
▁moskva	-9.78885
▁spesiell	-9.78885
▁oversikt	-9.78886
▁behov	-9.78888
ão	-9.78898
▁lansert	-9.789
▁1938	-9.78905
▁ordfører	-9.78907
▁veldig	-9.78917
gaard	-9.78935
▁spansk	-9.78967
▁tromsø	-9.79024
▁spill	-9.79116
▁vid	-9.79147
▁trekk	-9.79267
▁shi	-9.79277
▁skips	-9.79319
stille	-9.79349
▁omtale	-9.79379
▁nordisk	-9.79382
▁tropp	-9.7939
▁bakken	-9.79402
▁bonde	-9.79459
▁tour	-9.79465
▁enda	-9.79466
strøm	-9.79603
korps	-9.79616
elva	-9.79709
park	-9.79733
▁tittel	-9.79757
▁turneringen	-9.79761
▁kjøpe	-9.7977
▁uker	-9.79791
09	-9.79822
heng	-9.79871
rykket	-9.79885
følgende	-9.79895
▁trener	-9.79903
▁åpne	-9.79936
vers	-9.79953
▁1956	-9.80009
▁flertall	-9.80009
▁kritikk	-9.8001
▁tidspunkt	-9.80011
▁kreft	-9.80016
▁skotsk	-9.80022
▁charles	-9.80034
▁kjø	-9.80044
▁romanen	-9.80114
▁larven	-9.80163
▁gitarist	-9.80227
59	-9.80321
voll	-9.80439
▁hører	-9.80623
felt	-9.80871
▁fn	-9.80925
que	-9.80951
hode	-9.81048
▁fremste	-9.81141
▁school	-9.81145
▁publikum	-9.81145
▁2017	-9.81161
▁1961	-9.81162
▁1954	-9.81165
▁anne	-9.81224
▁saint	-9.81237
▁bj	-9.81302
her	-9.81308
▁un	-9.8132
▁1500	-9.81328
▁lavere	-9.81419
▁avsluttet	-9.81741
cy	-9.81766
▁sterke	-9.81771
▁kristen	-9.81772
▁char	-9.81823
▁fordelt	-9.81833
qui	-9.81876
▁overfor	-9.81905
▁middelalderen	-9.81946
▁800	-9.82063
▁sir	-9.82085
▁spre	-9.82146
▁klubb	-9.82202
svik	-9.82285
▁international	-9.82294
▁1928	-9.82307
▁premier	-9.82311
▁oppdag	-9.82312
▁sku	-9.82329
▁kontor	-9.82383
klubben	-9.8242
▁myr	-9.82459
▁trafikk	-9.82464
motor	-9.82573
dor	-9.82582
▁fø	-9.82648
▁che	-9.82698
19	-9.82768
▁støttet	-9.8277
stoff	-9.8283
▁sport	-9.82883
istene	-9.82902
▁aust	-9.82991
rør	-9.8302
lend	-9.83026
▁opptre	-9.83049
▁materiale	-9.83154
▁distriktet	-9.83169
▁republikken	-9.8317
▁motiv	-9.83176
veg	-9.83269
▁sund	-9.83323
▁harry	-9.83334
▁ask	-9.83447
▁administrativ	-9.83457
▁kontinent	-9.83457
skjold	-9.83458
▁levde	-9.83467
▁sykehus	-9.83476
▁organisert	-9.8349
snitt	-9.835
▁hente	-9.83545
▁eiendom	-9.83551
gren	-9.83594
kjøp	-9.83798
83	-9.83816
▁ungdoms	-9.83856
▁flagg	-9.83898
▁kast	-9.83926
jev	-9.84106
hal	-9.84237
organisasjon	-9.84276
virksomhet	-9.84281
▁senter	-9.84284
87	-9.84389
▁utover	-9.84399
16	-9.84413
25	-9.8444
strand	-9.84551
▁utgangspunkt	-9.84633
▁alvorlig	-9.84634
▁teknisk	-9.84634
▁utbredt	-9.84634
▁passasjer	-9.84634
▁stadion	-9.84636
▁synes	-9.84641
forvaltning	-9.84643
▁rollen	-9.84646
▁1943	-9.84649
▁spredt	-9.84658
▁forsknings	-9.84689
▁kjerne	-9.84693
▁våren	-9.84699
shi	-9.84767
kammer	-9.84802
▁cirk	-9.8482
▁religiøse	-9.84833
▁filosofi	-9.84838
gården	-9.849
▁hill	-9.84984
tatt	-9.85003
org	-9.8501
▁heter	-9.85043
▁normalt	-9.8505
▁rev	-9.85103
15	-9.85112
41	-9.85337
strekker	-9.85382
▁utgave	-9.85412
hel	-9.85414
▁star	-9.85464
of	-9.85475
▁sluttet	-9.85551
kår	-9.85628
▁jens	-9.85629
stykke	-9.85665
▁vannet	-9.85687
band	-9.85812
▁alternativ	-9.85824
▁pen	-9.85848
▁1955	-9.85855
hjul	-9.85882
▁nils	-9.85938
▁sunn	-9.86158
▁bol	-9.86231
▁heng	-9.86269
løpet	-9.86331
▁sank	-9.86423
▁studenter	-9.86482
▁allierte	-9.86506
▁sider	-9.86507
▁spise	-9.86578
▁betegnelsen	-9.86659
▁utvalg	-9.86659
▁sveits	-9.86672
▁dobbelt	-9.86709
▁tha	-9.86744
▁kald	-9.86799
kh	-9.86839
▁ph	-9.86894
46	-9.86914
▁båten	-9.87026
stru	-9.87026
▁sjelden	-9.87029
▁rekord	-9.87033
▁invasjon	-9.87034
mund	-9.871
bevegelsen	-9.87111
▁stortings	-9.87115
▁albert	-9.87148
▁inkluderer	-9.87174
prisen	-9.87182
▁bevis	-9.87221
▁rygg	-9.87258
▁us	-9.87349
skolen	-9.87424
rop	-9.87457
ney	-9.87638
▁avtale	-9.87708
▁problemer	-9.87745
▁provins	-9.87771
▁dan	-9.87785
▁slave	-9.87825
▁frank	-9.8786
kort	-9.87887
serien	-9.87905
▁ya	-9.87966
skudd	-9.87978
ub	-9.88059
▁flekk	-9.88101
▁cal	-9.88226
в	-9.88241
▁elektro	-9.88245
▁erklært	-9.88248
▁etterfulgt	-9.88248
▁bosetning	-9.8825
▁fullført	-9.8825
▁fungere	-9.88254
▁vanlige	-9.88278
▁avhengig	-9.88316
▁middel	-9.88431
kirken	-9.88457
▁unntak	-9.88462
plasser	-9.88521
▁maur	-9.88622
53	-9.88643
73	-9.88714
lem	-9.8873
▁institutt	-9.88737
▁bon	-9.88938
▁tårn	-9.89047
▁følger	-9.89066
program	-9.89184
▁fugle	-9.89235
▁fabrikk	-9.8924
bare	-9.89283
unt	-9.89333
▁forsvaret	-9.89403
▁samfunns	-9.89419
sport	-9.89452
86	-9.89471
▁erkebiskop	-9.89483
▁belgia	-9.89483
▁arabisk	-9.89484
▁royal	-9.89486
▁nærmere	-9.89489
▁song	-9.89504
▁innsjøen	-9.89521
▁arkitektur	-9.8958
▁auto	-9.89583
▁ledende	-9.89615
ón	-9.89638
▁win	-9.89687
▁likhet	-9.89701
▁morgen	-9.89706
▁oftest	-9.89729
ova	-9.89832
rim	-9.89878
▁begrenset	-9.89905
▁pin	-9.89908
delt	-9.89941
▁forteller	-9.89949
▁larvene	-9.89974
▁ordenen	-9.90124
▁tettsted	-9.90163
▁vinge	-9.90171
▁bestemme	-9.90245
sler	-9.90328
gram	-9.90375
▁bidra	-9.90473
komst	-9.90506
▁dog	-9.90513
▁ube	-9.90631
▁stå	-9.90632
▁1957	-9.90733
▁fullstendig	-9.90733
▁ødelagt	-9.90734
▁yngre	-9.90734
▁håndball	-9.90741
44	-9.90747
▁1910	-9.90755
▁jarl	-9.90772
grupper	-9.90801
▁nordland	-9.90834
▁bosatt	-9.90901
▁tonn	-9.90951
▁forbundet	-9.90958
▁sports	-9.91023
▁nø	-9.91064
▁foss	-9.9108
ulykke	-9.91106
▁fylkes	-9.9122
▁anton	-9.91236
▁angrepet	-9.91278
▁salg	-9.9129
holdsvis	-9.91322
fugl	-9.91334
▁teknologi	-9.91372
runde	-9.91382
▁livs	-9.91394
▁minutter	-9.91407
▁hve	-9.91531
▁opphold	-9.91544
▁cent	-9.91677
▁buss	-9.91729
▁linjen	-9.9178
føringen	-9.91823
▁økte	-9.9189
delen	-9.91917
▁forskning	-9.91953
23	-9.91975
▁bispedømme	-9.91999
▁tydelig	-9.92
▁magnus	-9.92001
▁element	-9.92004
▁1933	-9.92008
▁musikkalbum	-9.92017
▁video	-9.9202
press	-9.92037
▁ukjent	-9.92062
▁forretnings	-9.92097
▁1600	-9.92114
49	-9.92129
▁flyplass	-9.92173
▁150	-9.92262
strid	-9.92311
▁lage	-9.92404
▁cro	-9.92441
▁temperatur	-9.92527
trinn	-9.92531
▁omfatte	-9.9254
▁kampene	-9.92542
▁samfunnet	-9.92665
▁kg	-9.92789
post	-9.92802
▁mak	-9.92897
43	-9.9291
samisk	-9.93064
▁atom	-9.93067
▁mw	-9.93116
▁føde	-9.93123
▁måned	-9.93225
▁gjelder	-9.93235
▁maler	-9.93278
▁joseph	-9.93281
▁jacob	-9.93281
▁hurtig	-9.93282
▁redusert	-9.93282
▁edvard	-9.93291
▁1932	-9.93296
▁henholdsvis	-9.93298
▁spanske	-9.93309
▁ansvar	-9.93312
▁hitler	-9.9334
ansk	-9.93367
bakken	-9.93447
▁konkurranse	-9.93462
klubb	-9.93541
80	-9.9356
ører	-9.9361
▁internasjonalt	-9.93666
▁utga	-9.93698
▁king	-9.93732
▁indisk	-9.93817
ekter	-9.93824
stått	-9.93991
▁ok	-9.94017
▁populære	-9.94081
artist	-9.94099
reise	-9.94156
▁normal	-9.94156
▁hom	-9.9418
dagen	-9.94199
▁instrument	-9.94221
▁sendte	-9.94266
komite	-9.94276
76	-9.94374
▁gitar	-9.94428
win	-9.94577
▁oppmerksomhet	-9.94579
▁registrert	-9.9458
▁styrt	-9.94581
▁bokstav	-9.94581
hastighet	-9.94584
skjær	-9.94586
▁ridder	-9.94587
▁hemmelig	-9.94592
▁hustru	-9.946
▁1937	-9.94607
fil	-9.94702
▁1000	-9.94724
▁æres	-9.94736
▁kh	-9.94785
slaget	-9.94793
▁jean	-9.94794
▁ek	-9.94814
▁økt	-9.9483
▁solo	-9.94908
▁vakt	-9.95008
▁jevn	-9.9503
18	-9.95074
ima	-9.95079
ij	-9.95164
serie	-9.95179
▁handel	-9.95231
▁33	-9.95246
▁landskapet	-9.95247
▁spar	-9.95366
▁turist	-9.95553
bær	-9.95565
prosess	-9.95685
avdeling	-9.95687
▁vær	-9.95831
▁records	-9.95895
▁sistnevnte	-9.95895
▁østerriksk	-9.95895
▁dollar	-9.95896
▁overflate	-9.95898
▁faktisk	-9.95902
▁bygninger	-9.95938
mil	-9.95992
▁kvinnelige	-9.96016
▁organisasjon	-9.96266
▁samarbeidet	-9.96371
dam	-9.96462
▁medisin	-9.96483
▁vinner	-9.96597
▁utføre	-9.96694
trop	-9.96716
▁penger	-9.96721
▁sosiale	-9.96819
▁regjerings	-9.96971
trafikk	-9.97036
88	-9.97111
▁kongens	-9.97167
▁anledning	-9.97229
▁anerkjent	-9.97229
▁hevder	-9.97229
▁sportsutøver	-9.9723
▁1947	-9.97249
legging	-9.97264
▁sagt	-9.97284
▁snu	-9.97314
stro	-9.97385
▁live	-9.97439
mennene	-9.97502
rygg	-9.97505
▁32	-9.97526
▁typer	-9.97543
▁bidrag	-9.97604
▁dukke	-9.97635
▁handler	-9.97659
▁bibliotek	-9.97701
▁vokser	-9.97768
▁vinne	-9.97768
▁kjøre	-9.97795
▁språket	-9.97814
▁kinas	-9.97977
giver	-9.97983
▁arv	-9.98022
▁teknikk	-9.98122
▁sla	-9.98129
▁bord	-9.98196
grunn	-9.98218
▁bygg	-9.98293
▁dommer	-9.98345
▁rose	-9.98368
middel	-9.98405
historie	-9.98409
vind	-9.9842
kraftverk	-9.98442
▁lyn	-9.98447
▁lagene	-9.98473
rad	-9.98543
▁landsbyen	-9.98559
▁1906	-9.9858
▁bakkropp	-9.9858
▁inspirert	-9.9858
▁1914	-9.98589
▁1925	-9.98599
veksle	-9.98621
eksamen	-9.98655
▁detalj	-9.98659
▁marine	-9.98673
▁riksvei	-9.98691
slekt	-9.98722
▁bakke	-9.98749
▁oppnådd	-9.98772
ain	-9.98803
nasjon	-9.989
▁kari	-9.98958
ick	-9.99013
feld	-9.99066
▁kap	-9.99087
bunn	-9.99121
gal	-9.99136
▁skapte	-9.99152
verdig	-9.99177
▁dør	-9.99214
▁natt	-9.9923
leir	-9.99265
partiet	-9.99292
▁mesterskapet	-9.99393
▁malt	-9.99414
▁stoff	-9.99686
▁mill	-9.99708
tribu	-9.99728
▁legen	-9.99742
▁poly	-9.9976
▁gruve	-9.99808
haug	-9.99823
▁gun	-9.99827
▁lund	-9.99897
▁univers	-9.99933
▁frivillig	-9.9995
▁offisielt	-9.9995
▁sekund	-9.99951
plassen	-9.99956
▁län	-9.99981
▁blue	-9.99987
▁angripe	-9.99989
▁planlagt	-9.99997
kåret	-10.0004
▁enkle	-10.0006
▁systemet	-10.0012
▁hode	-10.0013
fylt	-10.0021
▁status	-10.0028
▁verdensmester	-10.003
▁insekter	-10.0035
▁institusjon	-10.0037
jern	-10.0044
▁debut	-10.0046
▁representant	-10.006
▁bob	-10.0065
▁sær	-10.0066
▁samfunn	-10.0076
ky	-10.0091
kamera	-10.0104
▁starten	-10.0114
04	-10.0126
ekspedisjon	-10.0131
lang	-10.0132
▁arrestert	-10.0134
▁beseiret	-10.0134
▁dokumenter	-10.0134
▁wilhelm	-10.0134
▁generelt	-10.0134
▁kombinert	-10.0134
▁liberal	-10.0134
▁folketelling	-10.0134
▁norrøn	-10.0134
▁riktig	-10.0135
97	-10.0135
▁antenne	-10.0135
▁skiftet	-10.0137
05	-10.0143
elli	-10.0145
▁grø	-10.0148
21	-10.0155
24	-10.0158
▁kaptein	-10.017
vatnet	-10.0172
lapp	-10.0174
▁fisk	-10.0176
▁sti	-10.0176
▁horn	-10.0188
con	-10.019
▁timer	-10.0192
mesterskapet	-10.0199
▁stål	-10.0199
▁bombe	-10.0201
▁bevegelsen	-10.0202
▁øvelse	-10.0214
▁rå	-10.023
▁motstander	-10.0231
lon	-10.0232
▁fjernet	-10.0238
▁ansatte	-10.0239
▁produksjonen	-10.0243
▁øvrige	-10.0244
▁tradisjonelle	-10.0251
skipet	-10.0252
▁cd	-10.0274
▁deriblant	-10.0275
▁elektrisk	-10.0275
▁harald	-10.0275
▁positiv	-10.0275
▁oscar	-10.0275
▁kjærlighet	-10.0275
▁fysisk	-10.0275
▁1921	-10.0276
▁1953	-10.0277
▁gjeld	-10.028
▁hovedsak	-10.0285
▁politiet	-10.0294
▁demokratisk	-10.0296
▁skiller	-10.0297
▁nm	-10.0302
▁gold	-10.0302
▁lån	-10.0302
▁maleri	-10.0304
▁studio	-10.0307
▁ishockey	-10.0311
type	-10.0314
▁slett	-10.0315
kampen	-10.0317
▁øverste	-10.0324
kjent	-10.0327
▁lykke	-10.033
84	-10.033
▁erobret	-10.0333
steder	-10.0333
▁gil	-10.0334
▁unna	-10.0334
12	-10.0335
arbeidet	-10.0337
holm	-10.0338
klassen	-10.0344
ball	-10.0354
▁max	-10.0356
vakt	-10.0361
▁bydel	-10.0362
▁rør	-10.037
▁filmer	-10.0384
82	-10.0386
▁sist	-10.0391
▁sli	-10.0405
gli	-10.0416
▁installert	-10.0418
▁utnytte	-10.0418
▁fle	-10.0418
▁etterfølger	-10.042
99	-10.042
▁gjennomsnitt	-10.0425
▁henry	-10.0432
▁planter	-10.0439
▁junior	-10.0458
dannelse	-10.0459
▁od	-10.0461
▁verket	-10.0464
▁benyttes	-10.0469
▁utstilling	-10.0474
▁bry	-10.0485
▁bølge	-10.0491
bach	-10.0492
▁funn	-10.0502
▁landene	-10.0514
bia	-10.0515
well	-10.0529
▁landsby	-10.0533
▁euro	-10.0541
▁villa	-10.0541
▁vendt	-10.0553
samfunn	-10.0554
ordning	-10.0555
н	-10.0561
kanten	-10.0562
▁frykt	-10.0563
▁1904	-10.0564
▁signert	-10.0565
▁løsning	-10.0569
▁bibel	-10.057
▁soldat	-10.0572
rap	-10.0574
▁anna	-10.0574
▁makten	-10.0578
rolle	-10.0583
▁straffe	-10.0588
▁haug	-10.0589
▁hage	-10.0589
▁johann	-10.059
mma	-10.0591
▁vedtatt	-10.0596
dro	-10.0605
▁rein	-10.0615
32	-10.0618
▁camp	-10.0622
områdene	-10.0622
artikler	-10.0638
ula	-10.0639
26	-10.064
▁mesterskap	-10.0646
▁bydelen	-10.0652
▁vii	-10.066
▁tilfeller	-10.0667
▁santa	-10.0668
stemt	-10.0674
▁kjempe	-10.0698
prosjekt	-10.0704
front	-10.0705
myndighet	-10.0707
magasin	-10.0709
▁eventyr	-10.071
▁1951	-10.071
▁nominert	-10.071
▁arrangere	-10.071
▁award	-10.071
▁primær	-10.071
▁diplom	-10.071
▁nevnes	-10.071
▁mytologi	-10.0712
▁bidro	-10.0713
▁tvunge	-10.0714
▁jordbruk	-10.0715
▁nedlagt	-10.0719
fartøy	-10.0723
▁ansett	-10.0723
iene	-10.0726
▁jack	-10.0727
▁intern	-10.0727
tyder	-10.0732
▁olsen	-10.0732
▁driver	-10.0733
▁svak	-10.074
▁antatt	-10.0743
ili	-10.0743
ity	-10.0746
▁underlagt	-10.0751
▁dato	-10.0753
▁kvalitet	-10.0755
▁north	-10.0758
94	-10.0761
▁vers	-10.0768
▁manus	-10.0771
kritiker	-10.0771
▁tegnet	-10.0773
▁ana	-10.0794
▁begrep	-10.0798
▁banen	-10.0802
▁sten	-10.0807
sburg	-10.0813
somme	-10.0814
▁yu	-10.0818
oni	-10.082
sper	-10.0821
hard	-10.0827
▁mad	-10.0832
plante	-10.0834
▁vekst	-10.0837
født	-10.0859
▁australsk	-10.0859
▁kategori	-10.0859
▁vietnam	-10.0859
▁antagelig	-10.0859
▁formula	-10.0862
▁sikker	-10.0868
▁gods	-10.0871
▁edderkopp	-10.0875
▁bryst	-10.0875
språklig	-10.0876
▁lord	-10.0881
▁gau	-10.0888
▁natten	-10.0891
▁spillet	-10.0892
lli	-10.0893
▁fortalt	-10.0894
▁kommunikasjon	-10.0895
▁gruppa	-10.09
▁formål	-10.0907
▁parlamentet	-10.0913
▁luc	-10.0915
35	-10.0916
▁skaffe	-10.0918
89	-10.0922
▁kandidat	-10.0924
▁keiseren	-10.0932
▁tidlige	-10.0938
▁innhold	-10.0952
▁ris	-10.0953
▁elever	-10.0965
▁typen	-10.0969
▁stillingen	-10.097
▁landslag	-10.0973
▁dekket	-10.0974
bakk	-10.099
▁oppstå	-10.0994
øyene	-10.0996
92	-10.1003
▁nes	-10.1006
▁bære	-10.1007
▁eksempler	-10.101
▁fødsel	-10.101
▁finnmark	-10.101
▁tempel	-10.101
▁smith	-10.101
▁islam	-10.1011
▁kommunal	-10.1011
▁1931	-10.1012
▁forvente	-10.102
▁utstyrt	-10.102
▁amt	-10.1022
lé	-10.1031
▁utdannelse	-10.1033
▁plasser	-10.1034
farge	-10.104
hed	-10.1044
gått	-10.1046
▁sort	-10.1047
69	-10.105
▁forskere	-10.1053
forsker	-10.106
foreningen	-10.1064
sida	-10.1065
▁kval	-10.1066
▁opplag	-10.1068
▁gard	-10.1069
ish	-10.1082
▁oversatt	-10.1084
▁troll	-10.1091
▁endringer	-10.1094
▁struktur	-10.1098
▁stav	-10.1099
▁tang	-10.1099
▁arve	-10.1117
▁prosjektet	-10.1118
▁former	-10.1128
ough	-10.113
än	-10.1132
▁rh	-10.1137
▁lønn	-10.1148
▁akademi	-10.1157
74	-10.1158
▁kristian	-10.116
▁representanter	-10.1163
▁forekommer	-10.1164
▁county	-10.1164
▁orkester	-10.1164
▁antarktis	-10.1164
▁muslim	-10.1164
▁mikro	-10.1164
feltet	-10.1165
▁hotell	-10.1165
▁1934	-10.1166
▁1927	-10.1166
▁1926	-10.1166
▁1923	-10.1166
▁myndigheter	-10.1166
tittel	-10.1167
faktor	-10.1169
▁hersker	-10.1174
avtale	-10.118
low	-10.118
deles	-10.1184
▁hum	-10.1189
▁stol	-10.1193
▁tilhøre	-10.1194
palass	-10.1195
▁statlig	-10.1198
▁hannen	-10.1203
▁wal	-10.1203
▁bay	-10.1205
▁cy	-10.1208
▁ark	-10.1212
▁dor	-10.1215
mond	-10.1225
▁ansvarlig	-10.1231
▁kjønn	-10.1237
▁hellige	-10.1249
▁landslaget	-10.1249
▁vinteren	-10.126
▁ønsker	-10.1268
▁tapt	-10.1271
93	-10.1275
▁berømte	-10.1278
▁jødiske	-10.1283
handel	-10.1289
▁hunnen	-10.1291
▁mørk	-10.1295
▁holm	-10.1301
28	-10.1302
politikk	-10.1307
hn	-10.131
▁washington	-10.132
▁edward	-10.132
▁club	-10.1321
▁tilhørte	-10.1323
konkurranse	-10.1324
▁kulturell	-10.1325
ira	-10.1328
▁high	-10.1336
tank	-10.1352
▁bud	-10.1359
▁ånd	-10.1372
96	-10.1373
▁besøkt	-10.1385
▁populært	-10.1388
▁bevegelse	-10.1392
▁markert	-10.14
▁utøver	-10.1408
masse	-10.1416
▁klassen	-10.1419
▁ankom	-10.1422
▁klosteret	-10.1423
▁tunnel	-10.143
stasjonen	-10.143
▁varierer	-10.1435
▁tilfelle	-10.145
98	-10.1453
▁epi	-10.1456
▁reist	-10.1456
▁øyer	-10.1468
▁may	-10.1473
▁objekt	-10.1479
▁ressurs	-10.1479
▁rand	-10.1479
▁dialekt	-10.1479
▁alexander	-10.1479
▁doktorgrad	-10.1479
▁utenlandsk	-10.148
▁litterær	-10.148
▁1935	-10.1481
ping	-10.1485
blokk	-10.1486
utvikling	-10.1486
▁publi	-10.1488
▁alene	-10.1488
▁ekstra	-10.1489
flåte	-10.149
▁løper	-10.149
▁søkt	-10.1494
▁hellas	-10.1495
▁skatte	-10.1497
▁sammenlagt	-10.1499
▁pensjon	-10.15
70	-10.1501
▁formen	-10.1518
▁akse	-10.1518
▁frukt	-10.1526
▁imot	-10.1527
slav	-10.1542
▁will	-10.1547
▁åpning	-10.1554
▁beskrev	-10.1569
▁stam	-10.1576
▁cho	-10.1599
▁sim	-10.1602
▁stemmer	-10.1609
▁tekster	-10.1611
▁mangle	-10.1613
13	-10.1617
halvøya	-10.1623
71	-10.1624
dommen	-10.1627
▁fjord	-10.1637
▁antwerpen	-10.164
▁introdusert	-10.164
▁juridisk	-10.164
▁overraske	-10.1641
▁eksistert	-10.1641
▁blanding	-10.1641
▁terror	-10.1642
▁befinne	-10.1642
▁blomster	-10.1642
▁dvs	-10.1645
▁betegne	-10.1645
▁luther	-10.1645
lund	-10.1645
▁debatt	-10.1646
▁reserve	-10.1646
▁otto	-10.1647
▁stabil	-10.1648
forbindelse	-10.165
forskning	-10.1651
maskin	-10.1654
forestilling	-10.1661
lyn	-10.1661
▁fantas	-10.1666
▁fan	-10.1671
▁tvang	-10.1674
▁niels	-10.1674
forbundet	-10.1679
▁mary	-10.1683
▁arne	-10.1687
▁eli	-10.1688
▁telemark	-10.1689
▁kongedømmet	-10.1691
▁human	-10.1692
▁music	-10.1693
▁forskjellig	-10.1696
trukket	-10.1701
grense	-10.1714
lyst	-10.1719
▁variere	-10.172
▁laste	-10.1736
illa	-10.1738
▁ulik	-10.1745
▁ligne	-10.1754
mitt	-10.1755
fjellet	-10.1758
▁fjellene	-10.1764
▁møter	-10.1775
▁160	-10.1781
▁sovjet	-10.1788
▁cu	-10.179
▁vegg	-10.1791
▁jule	-10.1802
▁forstå	-10.1803
▁skjønt	-10.1804
▁himmel	-10.1804
▁major	-10.1805
▁nektet	-10.1805
▁generasjon	-10.1805
▁definert	-10.1805
▁mongol	-10.1805
▁1913	-10.1806
▁monark	-10.1807
▁1919	-10.1807
▁michel	-10.1808
▁nan	-10.1808
▁fartøy	-10.1812
▁tilhenger	-10.1813
▁meldt	-10.1813
▁kvart	-10.1819
bøker	-10.1826
▁effektiv	-10.1829
nummer	-10.1832
▁stig	-10.1832
▁kino	-10.1836
▁peder	-10.184
▁scor	-10.184
▁vitne	-10.1846
▁skudd	-10.1852
▁thi	-10.1856
▁dj	-10.1857
▁halvdel	-10.1857
▁venner	-10.186
▁kilde	-10.1864
▁nyere	-10.1865
▁nedre	-10.1871
▁strøk	-10.1881
▁bærer	-10.1881
▁brutt	-10.1886
▁mennesket	-10.189
lib	-10.1892
▁wien	-10.1894
▁vente	-10.1897
▁ordre	-10.1898
▁unn	-10.19
▁storm	-10.1908
▁måten	-10.1911
grep	-10.1912
▁private	-10.1912
▁disk	-10.1924
▁salme	-10.1929
▁bit	-10.1931
▁hamar	-10.1946
▁landskap	-10.1953
bol	-10.1954
27	-10.1959
trekning	-10.196
▁skriver	-10.1967
vokst	-10.1971
▁1902	-10.1971
friidrettsutøver	-10.1971
▁dynastiet	-10.1972
▁drammen	-10.1973
▁godkjent	-10.1973
▁arbeiderpartiet	-10.1973
▁medaljer	-10.1975
▁mobil	-10.1984
produsent	-10.1986
miljø	-10.1986
hånd	-10.1986
kur	-10.199
▁modellen	-10.1991
▁fylket	-10.1993
kryss	-10.1994
▁ære	-10.1994
▁uavhengighet	-10.1998
▁wales	-10.1999
▁tyskerne	-10.2004
▁gradvis	-10.2013
▁innsjø	-10.2018
▁hardt	-10.2019
rute	-10.2021
▁presidenten	-10.2024
▁evne	-10.2024
▁fantes	-10.2028
▁legger	-10.2031
▁grunnla	-10.2032
▁dun	-10.2037
▁unngå	-10.2041
ulf	-10.2043
11	-10.2044
▁jente	-10.206
▁fulgt	-10.206
▁ønske	-10.2066
▁tilbud	-10.2066
▁rob	-10.2121
▁sko	-10.2122
▁oppnå	-10.2124
▁tradisjonel	-10.2131
gul	-10.2132
▁mini	-10.2136
kasse	-10.214
▁involvert	-10.2141
▁artikkel	-10.2141
▁vilhelm	-10.2141
▁forårsake	-10.2141
▁kombinasjon	-10.2141
▁scott	-10.2141
▁papir	-10.2143
gard	-10.2148
▁tverr	-10.2153
▁kanalen	-10.2154
▁agder	-10.2155
kjempe	-10.2168
▁celle	-10.2169
▁isteden	-10.2169
vendt	-10.2177
36	-10.2178
æl	-10.2183
▁utviklings	-10.2188
lønn	-10.2195
bank	-10.2204
▁hull	-10.2206
▁long	-10.2209
▁bestående	-10.2214
▁verdenscupen	-10.2224
hørt	-10.224
▁tell	-10.2262
perioden	-10.2269
▁kommunistisk	-10.2271
▁brand	-10.2279
▁tau	-10.2279
▁filosof	-10.2283
rup	-10.2309
olo	-10.2312
advokat	-10.2313
▁barcelona	-10.2313
▁portugisisk	-10.2313
▁tilknyttet	-10.2313
▁argument	-10.2313
▁vesentlig	-10.2313
▁eventuel	-10.2313
▁service	-10.2313
▁kristiansand	-10.2313
▁hendelsen	-10.2313
▁arthur	-10.2313
firmaet	-10.2313
▁fjær	-10.2313
▁myndighetene	-10.2314
▁1916	-10.2315
▁kritisk	-10.2316
▁700	-10.2317
▁jackson	-10.2317
▁cre	-10.2324
▁avholdt	-10.2326
▁bio	-10.2333
slått	-10.2334
forfatter	-10.2334
▁deltatt	-10.2343
hai	-10.2343
bein	-10.2352
blomst	-10.2353
▁styret	-10.2373
▁gyl	-10.2376
▁bull	-10.2385
dorf	-10.2386
herre	-10.2389
typen	-10.2391
▁regional	-10.2393
▁kode	-10.2399
▁prinsipp	-10.24
kov	-10.2402
medlem	-10.2417
▁synlig	-10.2419
▁rund	-10.2427
▁75	-10.2432
▁turner	-10.2435
▁kjell	-10.2437
▁forholdet	-10.2438
syre	-10.2438
▁byttet	-10.244
▁kanal	-10.2445
oth	-10.2449
▁vekk	-10.2451
▁bilder	-10.2453
speil	-10.2459
▁kapp	-10.2468
datert	-10.2487
høgskole	-10.2488
▁korn	-10.2488
▁oppfatte	-10.2488
dynasti	-10.2488
▁ortodoks	-10.2488
▁münchen	-10.2488
▁foregår	-10.2488
▁individuell	-10.2488
▁signal	-10.249
▁1905	-10.2491
▁1915	-10.2491
kjøtt	-10.2491
▁internett	-10.2492
▁artister	-10.2496
▁inntekt	-10.2498
▁spenning	-10.2498
▁oversettelse	-10.2499
▁situasjon	-10.2502
▁armé	-10.2504
litt	-10.2513
▁mottatt	-10.2518
liste	-10.252
stjerne	-10.2522
town	-10.2531
▁fv	-10.2532
▁bou	-10.2542
▁analyse	-10.2546
kirke	-10.255
▁ferd	-10.2563
ique	-10.257
▁nettverk	-10.2574
▁beskrivelse	-10.2575
wald	-10.2576
duk	-10.2586
▁bredt	-10.2592
▁vogn	-10.2592
▁ref	-10.26
▁anse	-10.2609
ståelse	-10.2616
▁kalk	-10.2619
vold	-10.262
▁skapt	-10.2621
▁behandle	-10.263
▁jim	-10.264
▁motta	-10.2643
▁600	-10.2646
▁bevege	-10.266
▁lake	-10.2664
▁individ	-10.2667
▁akershus	-10.2667
▁guvernør	-10.2667
▁konkurrere	-10.2667
▁okkupasjon	-10.2667
▁stafett	-10.2667
▁kommersiell	-10.2667
▁regissert	-10.2667
▁beholdt	-10.2668
▁lufthavn	-10.2668
▁1911	-10.2669
▁fortellingen	-10.2672
▁eksport	-10.2673
▁vokalist	-10.2684
▁reaksjon	-10.2686
direktør	-10.2694
vekst	-10.2696
▁resultatet	-10.2703
ania	-10.2703
kontor	-10.2703
▁cur	-10.2714
▁semifinalen	-10.2714
▁reform	-10.2715
▁irske	-10.2722
▁up	-10.2735
▁kopi	-10.2737
dikt	-10.2741
▁drei	-10.2748
foss	-10.2749
▁idrettslag	-10.2752
▁tvil	-10.2761
▁inge	-10.2763
ische	-10.277
listen	-10.277
▁fotograf	-10.281
▁utstyr	-10.2819
ledd	-10.2824
▁situasjonen	-10.2835
agon	-10.2836
▁bekrefte	-10.2849
▁milliarder	-10.2849
▁håkon	-10.2849
▁hjal	-10.2849
▁rektor	-10.2849
▁utmerkelse	-10.2849
▁klipp	-10.2849
▁estland	-10.2851
stipend	-10.2851
▁undervisning	-10.2851
▁1909	-10.2852
▁forbedre	-10.2853
▁paven	-10.2859
▁tho	-10.2864
▁verv	-10.2865
▁term	-10.2869
staten	-10.2879
▁sara	-10.2879
figur	-10.288
modell	-10.288
▁lim	-10.2892
høyde	-10.2893
dyktig	-10.2895
angrep	-10.2897
▁bryte	-10.2897
▁jøder	-10.2903
▁musikalsk	-10.2905
▁katedral	-10.2911
▁mol	-10.295
▁ansvaret	-10.2951
▁steve	-10.2959
▁utsatt	-10.296
▁avtalen	-10.2961
▁boy	-10.2963
▁tiår	-10.2967
▁øverst	-10.2969
▁web	-10.2969
▁andel	-10.2973
familie	-10.2977
▁mangel	-10.298
▁sw	-10.2987
▁bånd	-10.2989
31	-10.2996
91	-10.3002
▁36	-10.3008
forsyning	-10.3014
▁vokal	-10.3021
ander	-10.303
▁kjempet	-10.303
▁170	-10.3034
▁friedrich	-10.3034
▁initiativ	-10.3034
▁manchester	-10.3034
▁negativ	-10.3034
▁lagkonkurransen	-10.3034
▁avdøde	-10.3034
▁terreng	-10.3034
▁gustav	-10.3034
▁redusere	-10.3034
▁opplysning	-10.3034
▁sprint	-10.3034
▁krevd	-10.3034
▁tolv	-10.3035
▁glass	-10.3035
▁kjennetegn	-10.3035
▁1917	-10.3035
▁generell	-10.3036
▁1929	-10.3036
▁fjernsyn	-10.3036
▁foreslått	-10.3036
▁hensyn	-10.3038
▁studere	-10.3038
▁drepe	-10.3043
▁organisasjoner	-10.3043
▁departementet	-10.3051
▁1890	-10.3052
▁120	-10.3053
▁hindre	-10.3057
▁team	-10.3062
bygget	-10.3067
laks	-10.307
34	-10.3075
ois	-10.308
wiki	-10.3093
østover	-10.3097
▁master	-10.3097
▁river	-10.3101
lærer	-10.3116
bour	-10.3133
▁bell	-10.3136
skyting	-10.3137
▁etnisk	-10.3145
▁versjonen	-10.3151
▁uttale	-10.3154
vard	-10.316
45	-10.3161
▁wei	-10.3162
▁størst	-10.3163
▁wil	-10.3165
▁foreta	-10.3169
idrett	-10.317
▁truet	-10.3179
▁verken	-10.3191
▁bladet	-10.3196
▁ull	-10.3204
▁pap	-10.3212
▁bytte	-10.3214
awa	-10.3217
kastet	-10.3221
▁protest	-10.3222
▁hovedkvarter	-10.3223
▁komponert	-10.3223
▁1901	-10.3223
▁etablere	-10.3223
konferanse	-10.3223
▁ungarsk	-10.3223
▁brødrene	-10.3223
▁atmosfære	-10.3224
▁stengt	-10.3225
▁anklage	-10.3225
havn	-10.3225
▁erfaring	-10.3225
▁dominerende	-10.3228
▁alfred	-10.3228
▁east	-10.3229
▁forsterke	-10.3235
korset	-10.3238
▁preg	-10.3243
▁seire	-10.3252
lære	-10.3264
▁foreningen	-10.3264
▁arkeologisk	-10.3265
krig	-10.3265
▁mangler	-10.3281
ella	-10.3283
▁samtid	-10.3289
▁fritt	-10.329
▁simon	-10.3291
▁kilden	-10.3299
fabrikk	-10.33
▁beregne	-10.3315
▁frakte	-10.332
▁fotballklubb	-10.332
▁hammer	-10.3322
ance	-10.3332
▁vingene	-10.3333
hua	-10.3334
efant	-10.3337
head	-10.3342
29	-10.335
▁vg	-10.3354
▁mannlig	-10.3356
▁løfte	-10.3357
sats	-10.3371
▁tykk	-10.3382
▁old	-10.3389
drakt	-10.3395
aria	-10.3401
▁konsekvens	-10.3415
▁astronom	-10.3415
▁hordaland	-10.3415
▁grunnleggende	-10.3415
▁referanse	-10.3415
▁presentert	-10.3415
regulering	-10.3415
▁seinere	-10.3415
▁allianse	-10.3416
▁trær	-10.3416
▁osmansk	-10.3416
▁definere	-10.3417
konvensjon	-10.3421
▁fredrikstad	-10.3421
▁hjerne	-10.3423
▁fyll	-10.3424
▁sof	-10.3428
▁34	-10.3428
▁kjøl	-10.3429
▁1880	-10.343
▁nasjoner	-10.3432
▁skyte	-10.3441
bell	-10.3445
▁innlede	-10.3446
grensen	-10.3447
album	-10.3453
▁sørover	-10.346
▁selge	-10.346
▁penge	-10.3465
▁steg	-10.3467
▁betegnelse	-10.3487
▁tradisjonell	-10.349
kilde	-10.3495
▁inndel	-10.3507
▁kai	-10.351
▁nam	-10.3513
▁ef	-10.3514
▁kha	-10.3526
▁stab	-10.3529
▁vedtok	-10.3534
felle	-10.3549
▁intens	-10.3572
▁opprøret	-10.3589
▁score	-10.3605
▁svar	-10.3607
livet	-10.3608
▁definisjon	-10.3611
▁elizabeth	-10.3611
▁helsingfors	-10.3611
▁liverpool	-10.3611
▁midtøsten	-10.3611
▁pakistan	-10.3611
▁vurdert	-10.3611
▁ludvig	-10.3611
brødre	-10.3611
▁white	-10.3611
▁hovedrollen	-10.3611
▁kvalifisert	-10.3611
▁elleve	-10.3612
▁sjette	-10.3612
▁tegneserie	-10.3612
▁rolf	-10.3613
▁manager	-10.3613
verden	-10.3614
▁ekspedisjonen	-10.3616
▁kristiania	-10.3621
▁byggingen	-10.3623
▁bispe	-10.3624
sosialistisk	-10.3628
▁takket	-10.3629
▁cra	-10.3632
setting	-10.3635
com	-10.364
▁lista	-10.3645
▁torg	-10.3661
▁kommando	-10.3665
teori	-10.3675
▁tun	-10.3675
▁burde	-10.368
▁utlandet	-10.3708
▁buk	-10.372
▁schi	-10.3727
periode	-10.3731
▁parlament	-10.3738
▁betale	-10.3741
▁marinen	-10.3746
fattet	-10.3749
klasse	-10.375
tekst	-10.3751
▁singelen	-10.3755
fred	-10.3773
▁bygda	-10.3775
▁flest	-10.3775
▁zu	-10.3807
▁etablering	-10.3811
▁kriminal	-10.3811
▁portugal	-10.3811
▁resultert	-10.3811
▁akseptert	-10.3811
▁artilleri	-10.3811
▁tømmer	-10.3811
▁østfold	-10.3811
▁jørgen	-10.3811
▁tyrkisk	-10.3811
▁hensikt	-10.3811
▁embets	-10.3811
▁henrettet	-10.3811
▁sachsen	-10.3811
▁brensel	-10.3811
▁valuta	-10.3811
▁håp	-10.3811
▁innvalgt	-10.3812
▁dverg	-10.3812
▁1922	-10.3813
komité	-10.3813
▁group	-10.3814
▁klokken	-10.3815
▁krysser	-10.3815
▁mengder	-10.3816
▁gullmedalje	-10.3816
▁sverd	-10.3818
▁feire	-10.3818
▁skjønn	-10.382
▁aksje	-10.3821
▁nederlag	-10.3822
bebyggelse	-10.3825
▁cuba	-10.3831
▁undergrunns	-10.3834
▁nerv	-10.3838
▁beskyttelse	-10.3842
▁oppløst	-10.3844
grip	-10.3848
▁jag	-10.3851
▁tenn	-10.3858
bånd	-10.386
sending	-10.3867
▁menneskelig	-10.3877
77	-10.3879
▁million	-10.3882
cupen	-10.3884
rommet	-10.3889
▁ash	-10.3901
▁grov	-10.3902
ikere	-10.3927
▁dru	-10.3931
▁reformer	-10.3936
▁handle	-10.3938
▁frø	-10.394
▁vite	-10.3945
hopp	-10.3953
kall	-10.3954
turneringen	-10.3955
▁vende	-10.3959
▁frihet	-10.3965
▁hil	-10.3977
▁drap	-10.3986
▁latinsk	-10.3996
▁south	-10.4
▁aleksander	-10.4015
▁umiddelbart	-10.4015
▁forhindre	-10.4015
▁nøyaktig	-10.4015
▁separat	-10.4015
▁testamente	-10.4015
▁texas	-10.4015
▁hendelser	-10.4015
▁identifiser	-10.4015
▁søndag	-10.4015
▁alkohol	-10.4015
▁bøkene	-10.4015
▁utseende	-10.4016
▁arendal	-10.4016
▁kveld	-10.4016
ов	-10.4016
▁referere	-10.4017
▁stiftelse	-10.4017
▁kreert	-10.4023
tillatelse	-10.4025
▁tronen	-10.4026
▁kapell	-10.4026
▁folketall	-10.4027
▁mynt	-10.4027
høyskole	-10.4028
▁prix	-10.403
▁molde	-10.4036
▁with	-10.4037
▁utgaven	-10.4041
▁johnson	-10.4043
▁wall	-10.4051
▁neu	-10.4052
tunnelen	-10.4059
▁gymnas	-10.4062
materiale	-10.4069
produkt	-10.4069
▁dahl	-10.4075
formede	-10.4081
tjenesten	-10.4088
løft	-10.409
▁saga	-10.4091
▁tråd	-10.4096
▁rettigheter	-10.4101
▁planen	-10.4115
▁arkiv	-10.4119
▁sparta	-10.4133
fjellene	-10.4148
▁nød	-10.4158
▁overleve	-10.4164
start	-10.4169
▁revet	-10.4169
▁strak	-10.4175
▁høst	-10.4186
takelse	-10.4203
virke	-10.4205
polis	-10.4217
komedie	-10.4218
offensiv	-10.4223
▁1903	-10.4223
▁afghanistan	-10.4223
▁amsterdam	-10.4223
▁chicago	-10.4223
▁engasjert	-10.4223
▁renessanse	-10.4223
pedagog	-10.4224
▁ytterst	-10.4224
▁avgjørende	-10.4224
▁utgivelsen	-10.4224
▁grunnlegger	-10.4224
▁rådgiver	-10.4225
prest	-10.4227
▁oppgaver	-10.4227
▁nasjonalpark	-10.4228
▁brygge	-10.423
▁show	-10.4231
▁mandat	-10.4233
▁1892	-10.4238
▁økende	-10.4242
▁petter	-10.4247
gav	-10.4255
▁eksemplarer	-10.426
hver	-10.4273
▁arrangement	-10.4281
akademi	-10.4281
instrument	-10.4281
museum	-10.4282
▁nordover	-10.4283
▁ferge	-10.4294
måte	-10.4295
▁konstruksjon	-10.4298
▁begrens	-10.4299
versjon	-10.4302
▁helst	-10.4313
▁eksisterer	-10.4322
hest	-10.4324
handler	-10.4338
▁inngang	-10.4346
eppe	-10.4348
▁borgerkrigen	-10.4372
▁coll	-10.4377
▁uro	-10.4383
▁religiøs	-10.44
stemme	-10.4421
▁britis	-10.4433
▁fakultet	-10.4436
▁sjeldne	-10.4436
▁skulptur	-10.4436
▁victoria	-10.4436
▁zealand	-10.4436
▁administrere	-10.4436
▁lyktes	-10.4436
▁rogaland	-10.4436
▁jakob	-10.4436
▁flyktning	-10.4437
▁studioalbum	-10.4437
▁strekningen	-10.4437
▁nedenfor	-10.4437
▁konservative	-10.4438
▁britene	-10.4439
▁hovedkontor	-10.4441
▁beslutte	-10.4441
stråle	-10.4442
▁komposisjon	-10.4444
ifisert	-10.4444
▁franz	-10.4445
▁myk	-10.4448
▁night	-10.445
▁1899	-10.4452
▁1200	-10.4452
▁munk	-10.4453
stemning	-10.4457
▁kongelig	-10.4457
▁begrave	-10.4458
▁bredde	-10.4459
▁ungdomsskole	-10.4462
butikk	-10.4472
gjør	-10.4481
▁sho	-10.4499
historisk	-10.45
▁mono	-10.4513
bryter	-10.452
▁forklare	-10.4522
▁kjemisk	-10.4532
▁plateselskap	-10.4541
▁ennå	-10.4541
▁paus	-10.4542
▁brenn	-10.4543
22	-10.4566
▁opprettelse	-10.4571
bring	-10.458
▁ledelsen	-10.4586
sjø	-10.4591
▁ross	-10.4597
▁medisinsk	-10.4622
konge	-10.4636
▁troms	-10.464
▁meta	-10.464
dommer	-10.4643
celle	-10.4648
løytnant	-10.4654
▁ukraina	-10.4654
▁utelukke	-10.4654
▁konsept	-10.4654
▁vestfold	-10.4654
▁oblast	-10.4654
▁multi	-10.4654
▁grønland	-10.4654
▁oberst	-10.4654
▁debutalbum	-10.4654
▁besetning	-10.4654
▁beskjed	-10.4655
skade	-10.4659
▁avledet	-10.4659
▁mannskapet	-10.466
▁portrett	-10.4661
▁lokalisert	-10.4662
gjenstander	-10.4665
▁kok	-10.4671
▁enorm	-10.4677
▁ektemann	-10.4678
▁brent	-10.4682
▁bag	-10.4685
▁overtatt	-10.4687
▁tenke	-10.4691
▁johansen	-10.4696
▁tidsskriftet	-10.471
funksjon	-10.4721
regjering	-10.4721
▁drikke	-10.4724
effekt	-10.4724
bad	-10.4746
▁begynne	-10.4762
▁gjennomgå	-10.478
ington	-10.4791
▁verd	-10.4795
▁hul	-10.4813
▁inngå	-10.483
stift	-10.4839
▁slu	-10.4843
▁magne	-10.4859
17	-10.4868
▁skuespill	-10.4869
▁ekte	-10.4869
▁jona	-10.4871
strømmen	-10.4873
phi	-10.4873
▁lillehammer	-10.4876
▁jesuitt	-10.4876
▁regissør	-10.4876
▁yngste	-10.4876
▁digital	-10.4876
▁adolf	-10.4876
▁geografisk	-10.4876
▁noensinne	-10.4876
▁usikker	-10.4876
▁langrenn	-10.4876
▁ålesund	-10.4876
▁følelse	-10.4876
▁fjordane	-10.4876
▁innebære	-10.4877
▁golf	-10.4877
▁anvende	-10.4877
▁middelhavet	-10.4877
▁malm	-10.4877
▁avansert	-10.4878
sikring	-10.4878
▁markedet	-10.488
▁filip	-10.4881
metode	-10.4887
▁talent	-10.489
▁walter	-10.489
▁1897	-10.4892
▁tørr	-10.4894
nngår	-10.4895
▁gjennombrudd	-10.4897
▁israelsk	-10.4899
▁cand	-10.4901
▁slippe	-10.4905
▁sikte	-10.4907
▁opptatt	-10.4908
▁wu	-10.4915
▁ligge	-10.4918
▁lettere	-10.492
▁synd	-10.4924
▁tjenestegjor	-10.4925
kilden	-10.4926
skij	-10.4929
galleri	-10.4933
oksid	-10.4934
▁kim	-10.494
▁stemmene	-10.4947
▁statue	-10.4949
▁hellig	-10.4951
hjem	-10.4953
▁opptak	-10.5011
▁larve	-10.5039
holt	-10.5054
▁argentina	-10.5103
▁jerusalem	-10.5103
▁fungerte	-10.5103
▁permanent	-10.5103
▁thailand	-10.5103
▁canadisk	-10.5103
▁nedbør	-10.5103
▁karbon	-10.5103
▁regler	-10.5104
▁returnert	-10.5104
▁telefon	-10.5106
▁prinsesse	-10.5106
▁skjell	-10.5116
▁1898	-10.5118
kjøretøy	-10.5119
▁trening	-10.5122
▁oppstod	-10.5124
▁metro	-10.5126
partner	-10.5134
▁vanligst	-10.5136
▁fyrste	-10.5142
▁skinn	-10.5148
▁egyptisk	-10.5152
▁huske	-10.5155
▁retur	-10.5157
▁hekk	-10.5171
teknikk	-10.5181
33	-10.5182
pha	-10.5201
▁beina	-10.5203
▁dramatisk	-10.5203
▁voksen	-10.5204
▁domkirke	-10.5204
▁cri	-10.5215
▁flytte	-10.5221
▁singel	-10.5239
ahl	-10.5239
horn	-10.5246
▁kent	-10.5262
▁fett	-10.5276
▁psykolog	-10.5279
▁petr	-10.5305
▁høre	-10.5325
▁hjørne	-10.5336
▁kvadrat	-10.5336
▁midlertidig	-10.5336
▁intervju	-10.5336
▁reklame	-10.5336
▁innbyggerne	-10.5336
▁vulkan	-10.5336
▁annonsert	-10.5336
▁fengsle	-10.5336
▁preussen	-10.5336
▁ombord	-10.5336
▁brigade	-10.5336
▁fremført	-10.5336
▁innlemme	-10.5336
▁belgisk	-10.5336
▁josé	-10.5337
▁opposisjon	-10.5337
▁sydney	-10.5337
▁våt	-10.5338
▁wolf	-10.5339
▁metoden	-10.5341
▁tjue	-10.5343
▁donau	-10.5345
▁holdning	-10.5353
bukta	-10.5362
▁fremmed	-10.5366
hof	-10.5366
▁kommunist	-10.5367
▁forvingen	-10.537
▁næringsliv	-10.5383
▁marx	-10.5389
gudinne	-10.5397
utenriksminister	-10.5399
▁elev	-10.5403
ansett	-10.5421
gjennom	-10.5427
maleri	-10.5438
tårn	-10.5438
▁frei	-10.5438
melding	-10.5441
aux	-10.546
▁erstatte	-10.5461
▁split	-10.5471
▁thu	-10.5475
▁kara	-10.5481
▁schw	-10.5487
▁american	-10.5487
▁elske	-10.5489
burn	-10.5491
lignende	-10.5498
talende	-10.5502
kongen	-10.5507
▁pek	-10.5539
▁synge	-10.5539
▁satse	-10.5552
bury	-10.5562
work	-10.5569
lokomotiv	-10.5574
▁bulgaria	-10.5574
▁dokumentar	-10.5574
▁ferdinand	-10.5574
▁napoleon	-10.5574
▁svalbard	-10.5574
▁tyrkia	-10.5574
▁spesifik	-10.5574
traktaten	-10.5574
▁nemlig	-10.5574
▁josef	-10.5574
▁praktisk	-10.5574
▁ørken	-10.5574
▁romsdal	-10.5575
▁mjø	-10.5575
▁flåten	-10.5576
seminar	-10.5576
▁hydrogen	-10.5577
▁sverre	-10.5578
alisert	-10.558
▁divers	-10.5585
▁1896	-10.5589
▁1893	-10.559
▁1884	-10.5591
▁christiania	-10.5605
▁tynn	-10.5608
▁emne	-10.5611
▁beholde	-10.5612
▁spring	-10.5612
▁nedover	-10.5615
▁adam	-10.5624
▁1850	-10.5626
▁tann	-10.5649
skrevet	-10.5652
▁angel	-10.5662
▁motsatt	-10.5663
▁forlate	-10.5666
gjøring	-10.5694
▁ungdom	-10.5701
▁eksistere	-10.5708
▁skatt	-10.5722
▁utenriks	-10.5726
iansk	-10.5764
▁gjennomføre	-10.5778
▁tidligst	-10.5781
▁columbia	-10.5818
▁football	-10.5818
▁manuskript	-10.5818
▁anerkjenne	-10.5818
▁litauen	-10.5818
▁castle	-10.5818
▁ekstrem	-10.5818
▁autonom	-10.5818
▁særskilt	-10.5818
▁gregor	-10.5819
▁import	-10.582
▁900	-10.5821
▁daniel	-10.5822
▁skarp	-10.5822
▁etappe	-10.5824
kapital	-10.5829
stell	-10.583
▁1891	-10.5831
▁vannkraftverk	-10.5834
▁håndverk	-10.5834
▁1889	-10.5835
▁sideelv	-10.5841
▁romerne	-10.5843
▁jury	-10.5854
▁vennskap	-10.5869
bedriften	-10.5876
▁geo	-10.589
▁middelalder	-10.5892
▁statsråd	-10.5895
kontroll	-10.5914
hjelp	-10.5914
▁bratt	-10.5953
jord	-10.597
▁eik	-10.6
møll	-10.6011
▁unnta	-10.6019
▁wel	-10.6047
▁oppsto	-10.6053
▁byprefektur	-10.6068
▁matematikk	-10.6068
▁tønsberg	-10.6068
▁kollektiv	-10.6068
svømming	-10.6068
▁sluppet	-10.6068
▁church	-10.6068
veksling	-10.6068
opplæring	-10.6068
▁uvanlig	-10.6068
▁forbudt	-10.6068
▁hebraisk	-10.6068
▁bærum	-10.6068
teatret	-10.6068
▁oppløsning	-10.6068
▁trengte	-10.6068
▁titler	-10.6069
▁jesus	-10.6069
▁føderal	-10.6069
▁røyk	-10.6072
▁turbin	-10.6073
▁2018	-10.6074
▁skygge	-10.6075
▁allmenn	-10.6077
▁1877	-10.6081
blikk	-10.6084
▁georgia	-10.6086
kampanje	-10.6097
▁1860	-10.6098
▁eksil	-10.61
▁derfra	-10.6102
sdatter	-10.6103
▁elevene	-10.6114
▁ørn	-10.6133
reformen	-10.6137
▁nato	-10.6153
▁rulle	-10.6153
amerikanske	-10.6161
politisk	-10.6171
nøye	-10.618
▁minutt	-10.6187
gods	-10.6192
samband	-10.6197
▁endring	-10.62
▁trodd	-10.6208
botn	-10.6208
sammen	-10.6242
14	-10.6251
revolusjonen	-10.626
▁110	-10.6266
årig	-10.6286
karriere	-10.6289
logen	-10.631
▁ferskvann	-10.6324
▁forfremme	-10.6324
▁frekvens	-10.6324
▁gjaldt	-10.6324
▁konkurrert	-10.6324
▁prefektur	-10.6324
▁science	-10.6324
skribent	-10.6324
▁1907	-10.6324
▁færøyene	-10.6324
▁forkropp	-10.6324
▁lørdag	-10.6324
▁respekt	-10.6324
molekyl	-10.6324
▁betydningsfull	-10.6324
▁bodø	-10.6324
▁kavaleri	-10.6324
▁dominert	-10.6325
▁skildre	-10.6325
▁erobring	-10.6325
▁oppheve	-10.6325
▁fortellinger	-10.6326
▁brown	-10.6327
▁syria	-10.6328
▁house	-10.6328
▁investering	-10.6328
strup	-10.6329
gjær	-10.6329
▁wilson	-10.6329
▁hørte	-10.6331
▁biografi	-10.6332
▁skytter	-10.6334
▁tilfeldig	-10.6335
stadiet	-10.6336
▁stalin	-10.6336
▁fastlandet	-10.6337
▁bygnings	-10.6344
▁deltager	-10.6344
alistisk	-10.6348
▁koble	-10.6349
▁opprette	-10.635
▁1840	-10.635
▁1830	-10.6357
bau	-10.637
▁skikkelse	-10.6375
▁utvidelse	-10.6383
▁utvide	-10.6392
▁trapp	-10.6399
▁låten	-10.642
▁nordmenn	-10.6461
▁avslutte	-10.648
▁samtale	-10.648
▁kontrollert	-10.6484
▁foto	-10.6484
▁spin	-10.6529
▁finale	-10.653
kompleks	-10.6555
▁ødelegge	-10.6561
svømme	-10.6583
▁angelsaksisk	-10.6587
▁elisabeth	-10.6587
▁konstitusjon	-10.6587
▁låtskriver	-10.6587
▁okkupert	-10.6587
▁omdøpt	-10.6587
▁prøyssisk	-10.6587
▁society	-10.6587
▁vedlikehold	-10.6587
▁virginia	-10.6587
▁francisco	-10.6587
▁kritisert	-10.6587
▁risiko	-10.6587
▁konstruert	-10.6587
▁ovenfor	-10.6587
▁hyppig	-10.6587
▁fysikk	-10.6587
▁kommentar	-10.6587
▁alexandr	-10.6587
▁contest	-10.6588
▁demokrati	-10.6588
▁kalender	-10.6588
▁bayern	-10.6589
▁utforming	-10.6589
▁kunstig	-10.6589
▁innviet	-10.6589
▁programleder	-10.6591
▁generalsekretær	-10.6591
vatn	-10.6591
▁tibet	-10.6592
▁gravlagt	-10.6592
▁onkel	-10.6595
▁skall	-10.6596
snegl	-10.66
▁orgel	-10.6601
▁knud	-10.6602
▁oppleve	-10.6602
▁1894	-10.6606
▁1300	-10.6614
▁1885	-10.6618
▁lunge	-10.6619
sidig	-10.6621
▁akku	-10.6624
▁jødene	-10.663
▁glad	-10.6634
▁karakteristisk	-10.6641
▁hylle	-10.6643
▁skikk	-10.6649
▁hval	-10.6652
▁helhet	-10.6667
slutt	-10.6668
struktur	-10.6703
kontrakt	-10.6703
▁urban	-10.6708
▁trent	-10.6732
yuan	-10.6734
▁kjemi	-10.6755
▁56	-10.6765
▁afrikansk	-10.6791
mming	-10.6801
preg	-10.6813
▁invest	-10.6857
▁patriark	-10.6857
▁hollywood	-10.6857
▁middelsstor	-10.6857
▁utbredelse	-10.6857
▁invitert	-10.6858
▁oxford	-10.6858
protokoll	-10.6858
▁romerriket	-10.6858
▁bebodd	-10.6858
▁gunnar	-10.6858
▁selvmord	-10.6858
▁bedrifter	-10.6858
▁bønder	-10.6858
▁betjene	-10.6858
▁adresse	-10.6858
leverandør	-10.6859
▁prosti	-10.6859
beordret	-10.6859
▁forgjenger	-10.686
▁borgermester	-10.686
▁smelte	-10.6861
▁einar	-10.6862
▁tropisk	-10.6866
førsel	-10.6866
▁moderat	-10.6872
▁eurovis	-10.6873
▁røtter	-10.6874
▁idé	-10.6875
▁1870	-10.6875
montert	-10.6876
▁hamburg	-10.6878
▁kupp	-10.688
▁1886	-10.688
▁panser	-10.6883
sprang	-10.6886
bevegelse	-10.6887
spinner	-10.689
▁øre	-10.6895
▁demningen	-10.6896
▁fasci	-10.6897
▁vandre	-10.69
▁queen	-10.6901
▁isbre	-10.6904
▁geit	-10.691
balanse	-10.6913
▁persisk	-10.6914
▁frod	-10.6922
▁dobbel	-10.693
▁histor	-10.6932
▁republikk	-10.6933
spreng	-10.6947
matisk	-10.695
kjøring	-10.696
▁emil	-10.6962
▁walk	-10.697
▁nova	-10.6979
forsvar	-10.6982
▁markere	-10.7015
▁140	-10.7017
▁esp	-10.7028
▁chile	-10.7032
▁elite	-10.7032
▁betydd	-10.7043
▁tidsskrift	-10.7063
anlagt	-10.7096
▁regjer	-10.7109
▁jugoslavia	-10.7135
▁påbegynt	-10.7135
▁restaurant	-10.7135
▁skandinavisk	-10.7135
ström	-10.7135
▁pasienten	-10.7135
▁utslipp	-10.7135
▁christoph	-10.7135
▁øyeblikk	-10.7135
▁dagbladet	-10.7135
▁utpekt	-10.7135
▁utsikt	-10.7136
▁haakon	-10.7136
▁tilskuere	-10.7136
▁sektor	-10.7136
▁stadium	-10.7136
sammenslåing	-10.7136
▁tokyo	-10.7136
▁lojal	-10.7136
▁massiv	-10.7137
▁flytende	-10.7137
▁bakterie	-10.7137
worth	-10.7138
▁strip	-10.7138
▁franskmennene	-10.7138
▁tjent	-10.7139
▁slank	-10.7141
▁barneskole	-10.7144
▁høyesterett	-10.7148
▁innvandring	-10.7151
▁ibsen	-10.7152
▁1871	-10.7153
▁3000	-10.7159
▁romania	-10.7175
▁utenom	-10.7177
▁vokse	-10.7185
▁arena	-10.7192
▁stund	-10.7203
▁wild	-10.7214
▁sveitsisk	-10.7219
▁great	-10.7227
transport	-10.7267
▁lukke	-10.728
drive	-10.7281
vogn	-10.7292
gevær	-10.7303
skjerm	-10.7317
økonomi	-10.7319
▁klage	-10.732
skjø	-10.7333
fedre	-10.7354
jong	-10.7386
▁punk	-10.7394
vandring	-10.7396
▁mose	-10.7416
▁kvalifiserings	-10.7421
▁britannia	-10.7421
▁etterkommere	-10.7421
▁kroatia	-10.7421
▁prøvd	-10.7421
▁sarpsborg	-10.7421
▁trommeslager	-10.7421
▁verdensrekord	-10.7421
▁vingespenn	-10.7421
▁oppfatning	-10.7421
▁stridsvogn	-10.7421
▁fattige	-10.7421
▁evangeli	-10.7421
▁fenomen	-10.7421
stråling	-10.7421
▁bøndene	-10.7421
▁kobber	-10.7421
▁eksistens	-10.7421
▁tabellen	-10.7421
▁klatre	-10.7422
▁medførte	-10.7422
▁fragment	-10.7422
▁forkortet	-10.7423
▁krysset	-10.7423
aceae	-10.7423
styremedlem	-10.7424
▁skihopp	-10.7424
▁jurist	-10.7424
▁spesialisert	-10.7425
▁profil	-10.7427
▁antikken	-10.7428
▁regimet	-10.7429
▁sykdommen	-10.743
▁biologisk	-10.7432
▁tennis	-10.7433
▁forrige	-10.7434
▁bønn	-10.7435
▁variasjon	-10.744
▁1882	-10.7442
▁1888	-10.7443
▁smerte	-10.7457
▁oval	-10.7459
▁europavei	-10.746
▁slange	-10.7471
▁jeff	-10.7512
▁arkeologi	-10.7541
▁ideal	-10.7553
posisjon	-10.7558
vunnet	-10.7561
grønn	-10.7561
litteratur	-10.7561
musiker	-10.7572
▁verdenscup	-10.7574
▁ideologi	-10.7606
▁industriell	-10.7667
▁hytte	-10.7672
▁utøve	-10.7696
▁kronprins	-10.7715
kommanderende	-10.7715
▁færøysk	-10.7715
▁heinrich	-10.7715
▁kommandant	-10.7715
▁observasjon	-10.7715
▁ukrainsk	-10.7715
▁uttrykt	-10.7715
▁naturgass	-10.7715
▁beatles	-10.7715
▁nynorsk	-10.7715
▁ansikt	-10.7715
▁global	-10.7715
▁amatør	-10.7715
apparat	-10.7715
▁skjebne	-10.7715
▁mekanisk	-10.7715
▁senior	-10.7715
▁tempo	-10.7716
▁egenskaper	-10.7716
▁datamaskin	-10.7716
▁vakre	-10.7716
▁medvirket	-10.7717
▁bbc	-10.7717
mekanisme	-10.7717
▁bassist	-10.7718
▁för	-10.7719
▁bunnen	-10.772
▁sjanger	-10.7722
medlemmer	-10.7722
▁tsar	-10.7725
▁rytter	-10.7729
▁blokker	-10.7735
▁morten	-10.7746
▁hydro	-10.7755
▁bevare	-10.7756
▁ferie	-10.7796
embete	-10.7809
hugg	-10.7819
time	-10.7838
▁fusjon	-10.7852
annon	-10.7853
teknologi	-10.7864
offiser	-10.7864
tilbud	-10.7864
kanalen	-10.7866
bølge	-10.7866
ан	-10.7867
на	-10.7867
basert	-10.7902
▁messe	-10.7906
▁palme	-10.7939
▁konstant	-10.8002
▁hvile	-10.8015
direktoratet	-10.8018
▁bysantinsk	-10.8018
▁innendørs	-10.8018
▁innspilt	-10.8018
▁oksygen	-10.8018
▁pyramide	-10.8018
▁væpne	-10.8018
▁company	-10.8018
▁ptolem	-10.8018
▁1881	-10.8018
budsjett	-10.8018
▁benedikt	-10.8018
▁diameter	-10.8018
▁flukt	-10.8018
erklæring	-10.8018
▁forsvant	-10.8018
▁nevner	-10.8018
▁apollo	-10.8018
▁central	-10.8018
▁fremtidig	-10.8019
▁narvik	-10.8019
▁knapp	-10.8019
▁omsetning	-10.8019
▁underholdning	-10.8019
materiell	-10.8019
▁forberede	-10.8019
▁mineral	-10.8019
▁tilpasset	-10.802
▁sentralbank	-10.8021
▁prince	-10.8022
▁nyhets	-10.8022
▁hittil	-10.8023
▁bjerk	-10.8024
▁skrog	-10.8024
▁døgn	-10.8025
▁amfi	-10.8028
▁bystyre	-10.8028
▁1814	-10.803
▁kunstløp	-10.8032
▁forløper	-10.8034
▁alex	-10.8034
▁olaf	-10.8038
▁tilsyne	-10.8039
▁fjerdeplass	-10.8047
settelse	-10.8066
▁skriftlig	-10.8076
▁variert	-10.8088
smykke	-10.8109
avisen	-10.8134
▁øygrupp	-10.814
konsul	-10.8194
ernst	-10.8203
▁fortelle	-10.8231
▁krise	-10.8236
▁hjemmebane	-10.8252
▁akademisk	-10.8258
▁kunstnerisk	-10.827
▁demokrat	-10.8283
▁kirkegård	-10.8314
▁slektning	-10.8318
▁vannkraft	-10.8324
▁musikkvideo	-10.8331
▁aftenposten	-10.8331
▁folkeavstemning	-10.8331
▁frankfurt	-10.8331
▁makedonia	-10.8331
▁shanghai	-10.8331
demonstrasjon	-10.8331
▁florida	-10.8331
▁dublin	-10.8331
▁nobelpris	-10.8331
▁skøyter	-10.8331
▁væske	-10.8331
▁walisisk	-10.8331
▁nepal	-10.8331
jylland	-10.8331
▁automatisk	-10.8331
▁andré	-10.8331
▁larvik	-10.8332
▁visepresident	-10.8332
▁magasinet	-10.8333
▁metoder	-10.8333
▁sirkel	-10.8334
▁døpt	-10.8335
▁serbia	-10.8335
▁velstående	-10.8335
▁styreleder	-10.8337
▁lidelse	-10.8338
▁organisere	-10.8338
▁eiendommen	-10.8341
vesenet	-10.8341
▁senator	-10.8341
ndringer	-10.8342
▁lovgive	-10.8343
▁åpenbar	-10.8345
▁regiment	-10.8345
▁tillatt	-10.8346
▁konstantin	-10.8348
▁skutt	-10.835
▁personlighet	-10.8362
bukten	-10.8364
flytting	-10.838
▁øvrig	-10.8399
▁offisiell	-10.84
skaffet	-10.8405
▁iransk	-10.8409
▁smak	-10.8447
syklist	-10.8488
▁svekke	-10.8488
spørsmål	-10.8499
europeisk	-10.8499
skilt	-10.8504
fast	-10.8507
arkiv	-10.8517
▁pels	-10.8531
▁teologi	-10.8549
økonom	-10.8591
pierre	-10.864
▁infanteri	-10.8647
▁innbyggertall	-10.8653
▁kennedy	-10.8653
▁nøytral	-10.8653
▁observert	-10.8653
▁symptom	-10.8653
▁tsjekkia	-10.8653
▁embeds	-10.8653
▁opprettholde	-10.8653
▁bystatus	-10.8653
▁sigurd	-10.8653
▁diskusjon	-10.8653
▁margaret	-10.8653
▁ulovlig	-10.8653
▁senatet	-10.8654
▁beleiring	-10.8654
▁tilbrakt	-10.8654
▁vegetasjon	-10.8654
▁dvd	-10.8654
▁snorre	-10.8654
▁rettferdig	-10.8655
▁nkp	-10.8655
▁erstatning	-10.8655
▁oppfølger	-10.8656
▁butikker	-10.8656
▁fuktig	-10.8657
▁oldtiden	-10.8657
▁gjentatt	-10.8661
▁skjøt	-10.8666
▁drøm	-10.8667
▁befolke	-10.8678
▁kunngjor	-10.8678
▁benevn	-10.8685
▁komplekse	-10.8693
▁font	-10.8717
register	-10.8727
▁jødisk	-10.8733
▁parallell	-10.8738
▁magnetisk	-10.8743
▁teologisk	-10.8782
▁08	-10.8787
ytelse	-10.8795
areal	-10.8795
krem	-10.8801
representant	-10.8815
strøk	-10.8832
aktivitet	-10.8832
inndeling	-10.8833
vitenskapelig	-10.8856
▁erobre	-10.8864
stokk	-10.8903
▁sterkest	-10.8918
utstyr	-10.8954
▁dominere	-10.8978
▁forbinde	-10.8981
▁allikevel	-10.8987
▁douglas	-10.8987
▁forvandling	-10.8987
▁hertugdømme	-10.8987
▁plutselig	-10.8987
▁symfoni	-10.8987
▁tsjekkoslovakia	-10.8987
▁asteroide	-10.8987
▁billboard	-10.8987
▁kompetanse	-10.8987
▁maksimal	-10.8987
▁narkotika	-10.8987
▁felttoget	-10.8987
▁sicilia	-10.8987
▁utspring	-10.8987
▁innrømme	-10.8987
▁trussel	-10.8987
▁fiolin	-10.8987
▁sandefjord	-10.8987
▁batteri	-10.8988
▁referert	-10.8988
▁senterpartiet	-10.8988
▁protestant	-10.8988
▁stillehavet	-10.8989
▁barokk	-10.8989
▁forklaring	-10.899
▁dylan	-10.8991
▁gjenopprette	-10.8991
▁nestleder	-10.8991
▁kjæreste	-10.8992
▁protestantiske	-10.8993
▁sykkel	-10.8995
▁forsvinne	-10.8997
▁forandring	-10.8998
▁down	-10.9004
▁tildeling	-10.9004
hvelv	-10.9015
betaling	-10.9018
▁amerikanere	-10.9019
▁krigsskip	-10.9044
▁berømt	-10.9077
▁inneba	-10.916
▁forhandle	-10.9168
divisjon	-10.9171
studier	-10.9177
tradisjon	-10.9178
nærmet	-10.9182
programmet	-10.9182
▁romantisk	-10.9188
▁messi	-10.9194
▁sjakk	-10.9219
kjønn	-10.9241
ittisk	-10.9308
nskripsjon	-10.9331
▁eksperimenter	-10.9331
▁elektrisitet	-10.9331
▁engasjement	-10.9331
▁interessant	-10.9331
▁korrupsjon	-10.9331
▁mccartney	-10.9331
▁puppestadi	-10.9331
▁sosialdemokrat	-10.9331
▁utgravninger	-10.9331
▁rosenborg	-10.9331
▁tolkning	-10.9332
▁fiktiv	-10.9332
▁arsenal	-10.9332
▁misjonær	-10.9332
▁ntnu	-10.9332
▁indikere	-10.9332
▁tendens	-10.9332
▁grammati	-10.9332
▁ekspert	-10.9332
▁dekorert	-10.9333
▁serbisk	-10.9333
▁samlealbum	-10.9333
▁uefa	-10.9334
▁oppfordre	-10.9334
▁power	-10.9334
▁väst	-10.9334
▁regelmessig	-10.9334
▁alpene	-10.9334
▁utfordre	-10.9335
▁svømmer	-10.9338
▁larvestadie	-10.9358
▁månen	-10.9368
dybde	-10.937
aften	-10.937
turnering	-10.9375
▁avskjed	-10.9394
▁utarbeide	-10.9406
stigning	-10.9443
▁setning	-10.9446
øvels	-10.9446
interesser	-10.9495
▁bringe	-10.952
kandidat	-10.9534
student	-10.9534
prøve	-10.9537
▁bevisst	-10.9551
vennlig	-10.9567
klokke	-10.9575
katastrofe	-10.9689
▁country	-10.9689
▁konsentrert	-10.9689
▁köln	-10.9689
▁normandie	-10.9689
▁styrmann	-10.9689
▁lincoln	-10.9689
▁ludwig	-10.9689
▁nidaros	-10.9689
▁seremoni	-10.9689
▁utnevnelse	-10.9689
▁alpint	-10.9689
▁nevø	-10.9689
▁utrydde	-10.9689
betennelse	-10.9689
▁moderniser	-10.9689
▁avviklet	-10.9689
▁mektig	-10.9689
▁betalte	-10.9689
▁systematisk	-10.9689
▁stefan	-10.9689
▁dåp	-10.9689
▁korrekt	-10.9689
▁kristendommen	-10.969
konsernet	-10.969
ovitsj	-10.969
▁reformasjonen	-10.9691
▁adskilt	-10.9691
▁seksjon	-10.9692
▁abbed	-10.9693
forekomster	-10.9693
▁hvileperiode	-10.9694
▁fylkesting	-10.9695
bjørg	-10.9699
måne	-10.9699
▁innstifte	-10.9703
▁søyle	-10.9705
fortelling	-10.972
▁agent	-10.9724
▁hevn	-10.9813
▁ungdomme	-10.9816
▁arkeolog	-10.9824
▁statistisk	-10.9854
rettigheter	-10.9904
temperatur	-10.9904
konsert	-10.9905
flyttet	-10.9905
utgave	-10.9918
▁vassdrag	-10.9928
blom	-11.0031
▁ambassadør	-11.0059
▁bulgarsk	-11.0059
▁forøvrig	-11.0059
▁generalmajor	-11.0059
▁gjengjeld	-11.0059
▁göteborg	-11.0059
▁innvandrer	-11.0059
▁jersey	-11.0059
▁skjult	-11.0059
▁territorium	-11.0059
▁utendørs	-11.0059
bataljon	-11.0059
fyrstedømme	-11.0059
potensial	-11.0059
▁bachelor	-11.0059
▁frimurer	-11.0059
▁taiwan	-11.0059
▁colombia	-11.0059
▁overbevist	-11.0059
▁tønne	-11.0059
▁essay	-11.0059
▁regulert	-11.0059
▁republikansk	-11.0059
▁faktum	-11.0059
▁hedmark	-11.0059
▁theodor	-11.0059
▁abbey	-11.0059
▁regulere	-11.0059
▁skåne	-11.0059
satellitt	-11.0059
▁hjelm	-11.0059
▁ordinær	-11.0059
▁bmw	-11.0059
▁seoul	-11.0059
▁lewis	-11.0059
▁undertegnet	-11.006
▁sibir	-11.006
▁utstrekning	-11.006
▁moralsk	-11.006
▁blomstre	-11.0062
▁riksdagen	-11.0062
orientert	-11.0063
▁bundes	-11.0063
▁leilighet	-11.0063
▁oppdagelsen	-11.0063
▁tenkt	-11.0064
▁etterlatt	-11.0069
▁patent	-11.0073
▁skuespillerinne	-11.0077
▁dialog	-11.008
▁gör	-11.0081
syklus	-11.0148
bæk	-11.0159
▁borgerkrig	-11.0178
hausen	-11.019
gjeng	-11.02
▁koreansk	-11.0202
▁jøde	-11.027
institutt	-11.0289
design	-11.0294
debut	-11.0295
▁musikal	-11.0325
føtt	-11.0374
brenning	-11.0402
premie	-11.0423
spellemannprisen	-11.0443
▁assosiert	-11.0443
▁drivstoff	-11.0443
▁frilufts	-11.0443
▁jordskjelv	-11.0443
▁komponent	-11.0443
▁massachusetts	-11.0443
▁meksikansk	-11.0443
▁millimeter	-11.0443
▁pennsylvania	-11.0443
▁pronotum	-11.0443
▁sørafrikansk	-11.0443
▁warszawa	-11.0443
▁windows	-11.0443
▁brønn	-11.0444
▁buskerud	-11.0444
▁cambridge	-11.0444
▁komplisert	-11.0444
▁avslørt	-11.0444
▁taylor	-11.0444
lovgivning	-11.0444
▁mislykke	-11.0444
▁geometri	-11.0444
koalisjon	-11.0444
▁baseball	-11.0444
▁madrid	-11.0444
bransjen	-11.0444
▁barnehage	-11.0444
▁lennon	-11.0444
▁gabriel	-11.0444
▁verdensarv	-11.0444
▁ektefelle	-11.0444
▁giovan	-11.0444
▁naturreservat	-11.0444
▁færre	-11.0444
▁dream	-11.0445
▁temple	-11.0445
betjent	-11.0445
▁poesi	-11.0446
▁meyer	-11.0448
▁spurt	-11.0448
▁moore	-11.0448
▁avgjørelse	-11.0449
▁domstolen	-11.045
▁vinterleke	-11.0452
midlene	-11.0464
▁rykte	-11.0467
▁nederst	-11.0471
▁smitte	-11.0483
▁pyr	-11.0484
▁stavkirke	-11.0487
▁omdanne	-11.0534
fordeling	-11.0599
muligheter	-11.0605
sykdom	-11.0692
▁plei	-11.0711
bombe	-11.0734
konservativ	-11.084
▁psyko	-11.0842
▁doktor	-11.0843
skvadron	-11.0843
▁association	-11.0843
▁basketball	-11.0843
▁cæsar	-11.0843
▁dekkvingene	-11.0843
▁guddommelig	-11.0843
▁kasakhstan	-11.0843
▁metamorfose	-11.0843
▁palestinsk	-11.0843
▁perspektiv	-11.0843
▁shakespeare	-11.0843
▁vålerenga	-11.0843
▁evolusjon	-11.0844
▁gjøvik	-11.0844
▁jomfru	-11.0844
▁matematiker	-11.0844
▁westminster	-11.0844
▁ekteparet	-11.0844
▁høvding	-11.0844
▁latvia	-11.0844
▁linux	-11.0844
▁hiphop	-11.0844
▁eidsvoll	-11.0844
▁autoritet	-11.0844
▁løslatt	-11.0844
▁kontrast	-11.0844
▁wagner	-11.0844
mouth	-11.0844
▁speider	-11.0844
▁germansk	-11.0844
▁apple	-11.0845
▁uenighet	-11.0845
piercing	-11.0845
▁detroit	-11.0845
▁søsken	-11.0845
▁claudi	-11.0846
føderasjonen	-11.0846
▁programvare	-11.0848
▁suveren	-11.0848
▁forelske	-11.0848
▁guinea	-11.0854
reglene	-11.0855
▁operert	-11.0856
psykologi	-11.0944
løyp	-11.0955
▁america	-11.0992
gruv	-11.1026
▁treffe	-11.1063
dømt	-11.1106
utdanning	-11.1106
variant	-11.1107
åpning	-11.1113
▁åpningsseremoni	-11.126
belteasteroide	-11.126
inspektør	-11.126
nsentrasjonsleir	-11.126
▁alpinist	-11.126
▁babylon	-11.126
▁championship	-11.126
▁filippinene	-11.126
▁fjellkjeden	-11.126
▁hongkong	-11.126
▁innsbruck	-11.126
▁kapittel	-11.126
▁kontinuerlig	-11.126
▁kvartfinalen	-11.126
▁libanon	-11.126
▁orchestra	-11.126
▁popularitet	-11.126
▁søknad	-11.126
▁tilstrekkelig	-11.126
▁vurdering	-11.126
▁bryllup	-11.126
▁müller	-11.126
▁teoretisk	-11.126
▁uavgjort	-11.126
▁1856	-11.126
▁katarina	-11.126
▁kjønnsmod	-11.126
▁identitet	-11.126
▁jupiter	-11.126
▁veksel	-11.126
▁forsiktig	-11.126
▁komplett	-11.126
▁dresden	-11.126
▁sophie	-11.126
▁dramatiker	-11.126
▁kortvarig	-11.126
▁henrettelse	-11.126
▁axel	-11.126
▁forsterkning	-11.126
▁rhinen	-11.1261
▁venezia	-11.1261
▁protein	-11.1261
▁redigert	-11.1261
▁theatre	-11.1261
▁lensmann	-11.1262
▁samuel	-11.1262
▁kaffe	-11.1262
▁høgskolen	-11.1263
▁innflytelsesrik	-11.1263
▁fylkeskommune	-11.1263
▁søndr	-11.1264
terapi	-11.1264
▁tørke	-11.1265
▁trefning	-11.1267
palpene	-11.1268
vitasjon	-11.1268
▁forenkle	-11.1271
▁flanke	-11.1276
gjerde	-11.1279
▁håndtere	-11.1282
▁rederi	-11.129
betingelse	-11.13
▁utforske	-11.13
bundet	-11.1317
opplevelse	-11.137
omsorg	-11.1394
prinsippet	-11.1476
konstruksjon	-11.154
bibliotek	-11.154
flagg	-11.1542
▁kongedømme	-11.1557
hockeyspiller	-11.1612
▁departement	-11.1623
krisen	-11.1663
▁ødela	-11.1695
▁alminnelig	-11.1695
▁ambassade	-11.1695
▁arrangør	-11.1695
▁fattigdom	-11.1695
▁godkjenne	-11.1695
▁heidelberg	-11.1695
▁illustrasjon	-11.1695
▁integrert	-11.1695
▁leipzig	-11.1695
▁mangfold	-11.1695
▁porsgrunn	-11.1695
▁slovakia	-11.1695
▁stjørdal	-11.1695
▁trondhjem	-11.1695
▁imperiet	-11.1695
▁sympati	-11.1695
▁flaggbærer	-11.1695
▁oriental	-11.1695
▁anmelder	-11.1695
▁firenze	-11.1695
▁annerledes	-11.1695
▁patrick	-11.1695
▁grundig	-11.1695
▁haugesund	-11.1695
▁rockeband	-11.1695
▁matematisk	-11.1695
▁oppgradert	-11.1695
▁ohio	-11.1695
▁følte	-11.1695
▁konkurs	-11.1695
▁algerie	-11.1695
▁frigjørings	-11.1695
▁brussel	-11.1696
▁kombinere	-11.1696
▁normannisk	-11.1696
▁krigsfange	-11.1696
▁videreført	-11.1696
▁kommisjonen	-11.1696
▁rumensk	-11.1696
▁samsvar	-11.1696
▁sannhet	-11.1699
metabol	-11.17
▁verdslig	-11.1701
▁clark	-11.1702
▁slep	-11.1704
▁fossile	-11.1708
▁maritim	-11.1738
inguis	-11.1752
▁rikdom	-11.1759
▁forbli	-11.178
vassdraget	-11.1852
ministre	-11.189
redaktør	-11.1995
domstol	-11.2142
▁uoffisiel	-11.2149
skrittspartiet	-11.2149
▁angivelig	-11.2149
▁broadway	-11.2149
▁corporation	-11.2149
▁kentucky	-11.2149
▁kleopatra	-11.2149
▁konstantinopel	-11.2149
▁kreditert	-11.2149
▁opprettholdt	-11.2149
▁propaganda	-11.2149
▁psykisk	-11.2149
▁rehabiliter	-11.2149
▁vedkommende	-11.2149
▁vladimir	-11.2149
▁ekspansjon	-11.215
▁krønike	-11.215
▁leopold	-11.215
▁vertikal	-11.215
▁celtic	-11.215
▁luftforsvaret	-11.215
▁marokko	-11.215
▁castilla	-11.215
▁hjort	-11.215
▁division	-11.215
▁leonard	-11.215
▁sediment	-11.215
▁heavy	-11.215
▁africa	-11.215
▁forfatning	-11.215
▁stephen	-11.215
▁chelsea	-11.215
▁langvarig	-11.215
▁burgund	-11.215
▁deltagelse	-11.215
▁seksuell	-11.215
▁feiring	-11.215
▁lingvist	-11.215
▁bistå	-11.215
▁libya	-11.215
▁utkjempet	-11.215
▁fremtreden	-11.2151
▁plukke	-11.2151
▁sosiologi	-11.2151
▁styring	-11.2151
▁verktøy	-11.2151
samfund	-11.2151
▁pianist	-11.2151
▁bakvingen	-11.2152
▁fjorten	-11.2153
▁keltisk	-11.2156
bedring	-11.2156
▁kanadisk	-11.2159
▁pumpe	-11.216
▁isolert	-11.2161
dekorasjon	-11.2164
▁rytme	-11.2165
▁ekstern	-11.2173
▁genetisk	-11.2175
▁levninge	-11.218
▁rakett	-11.219
pleie	-11.2322
katedralen	-11.2462
president	-11.247
problemer	-11.2471
forsøk	-11.2471
størrelse	-11.2471
arkitekt	-11.2471
analyse	-11.2476
▁insekt	-11.2488
kledt	-11.2533
▁kjær	-11.2617
▁anatolia	-11.2626
▁argentinsk	-11.2626
▁aristoteles	-11.2626
▁artsbestemme	-11.2626
▁billedhugger	-11.2626
▁etiopia	-11.2626
▁keyboard	-11.2626
▁konstituer	-11.2626
▁pilegrim	-11.2626
▁primitiv	-11.2626
▁tilnærming	-11.2626
▁vancouver	-11.2626
▁volleyball	-11.2626
▁wergeland	-11.2626
▁diagnose	-11.2626
▁entreprenør	-11.2626
▁garnison	-11.2626
▁grimstad	-11.2626
▁kosovo	-11.2626
▁registrering	-11.2626
▁synonym	-11.2626
▁utdødd	-11.2626
▁european	-11.2626
▁ustabil	-11.2626
▁abraham	-11.2626
▁populasjon	-11.2626
▁forberedt	-11.2626
▁gustaf	-11.2626
▁skildring	-11.2626
▁statistikk	-11.2626
▁rovdyr	-11.2626
▁jernalder	-11.2626
▁mikael	-11.2626
▁napoli	-11.2626
▁trykt	-11.2626
▁utfordring	-11.2626
▁cecil	-11.2626
▁baptist	-11.2626
▁avbrutt	-11.2626
apotek	-11.2627
▁elektronisk	-11.2627
▁bunker	-11.2627
▁reagere	-11.2628
▁relasjon	-11.2628
▁bløt	-11.2629
▁presentere	-11.263
sylindre	-11.264
skrekk	-11.2664
hampton	-11.2666
kirch	-11.2707
▁nigeria	-11.2741
krevende	-11.2816
bdomen	-11.2819
▁alliert	-11.284
▁begynt	-11.2873
institusjon	-11.2971
sesongen	-11.2972
kloster	-11.2972
ferdigheter	-11.3121
▁inspirasjon	-11.3126
▁trønder	-11.3126
ephalothorax	-11.3126
instruktør	-11.3126
landeveissyklist	-11.3126
▁atlanterhavet	-11.3126
▁beskyldt	-11.3126
▁forutsetning	-11.3126
▁fundament	-11.3126
▁hawaii	-11.3126
▁horisontal	-11.3126
▁hypotese	-11.3126
▁klassifisert	-11.3126
▁krystall	-11.3126
▁luxembourg	-11.3126
▁onlyinclude	-11.3126
▁reflektere	-11.3126
▁representasjon	-11.3126
▁resolusjon	-11.3126
▁restaurert	-11.3126
▁singapore	-11.3126
▁spitsbergen	-11.3126
▁tanzania	-11.3126
▁uppsala	-11.3126
▁uruguay	-11.3126
▁vellykket	-11.3126
▁venezuela	-11.3126
▁verdensbasis	-11.3126
▁zimbabwe	-11.3126
▁fysiker	-11.3126
▁holmenkoll	-11.3126
▁hønefoss	-11.3126
▁invadert	-11.3126
0	-11.3393
ã	-12.4085
9	-12.4105
