<unk>	0
<s>	0
</s>	0
.	-3.29694
▁i	-3.47077
e	-3.63857
s	-3.74149
▁og	-3.83381
t	-4.09711
▁av	-4.27447
er	-4.28673
▁	-4.2964
en	-4.30706
▁som	-4.4403
▁en	-4.45479
r	-4.53571
▁er	-4.57476
▁til	-4.58658
▁for	-4.6371
▁på	-4.69857
▁den	-4.87098
▁ble	-4.872
▁med	-4.92522
▁det	-4.93066
▁var	-5.01473
n	-5.02421
et	-5.03634
▁de	-5.1071
▁han	-5.14456
▁å	-5.24094
▁fra	-5.32329
▁et	-5.46963
▁har	-5.50626
ene	-5.60671
▁at	-5.61034
a	-5.67075
ne	-5.891
▁ved	-5.93473
▁om	-5.96722
▁etter	-5.9801
i	-6.00646
▁også	-6.02833
▁men	-6.06599
d	-6.09775
▁ut	-6.12914
▁seg	-6.20104
▁ikke	-6.24425
▁under	-6.26061
k	-6.26969
▁hadde	-6.28793
▁da	-6.28958
o	-6.29383
▁over	-6.33971
y	-6.3414
▁to	-6.40496
de	-6.409
g	-6.41333
l	-6.41739
te	-6.43239
▁opp	-6.43864
▁eller	-6.44744
▁inn	-6.47419
▁kan	-6.47886
▁andre	-6.52544
p	-6.55917
m	-6.58499
▁første	-6.60063
f	-6.60897
▁sin	-6.60952
▁18	-6.6163
▁hun	-6.6164
re	-6.66408
▁s	-6.67411
v	-6.68884
▁dette	-6.68949
▁mot	-6.68997
ing	-6.73028
▁1	-6.73259
▁år	-6.73284
c	-6.74623
▁bli	-6.80627
▁mellom	-6.82685
▁f	-6.86007
▁be	-6.86153
▁ha	-6.86449
▁hans	-6.8844
▁født	-6.88626
on	-6.88691
es	-6.90181
▁kom	-6.90328
u	-6.91488
▁tre	-6.92263
h	-6.92426
sk	-6.93012
▁fikk	-6.94015
▁der	-6.95048
b	-6.95578
▁a	-6.9566
▁flere	-6.97892
al	-6.98415
▁denne	-6.99245
us	-6.99595
le	-7.00402
▁man	-7.00915
ter	-7.05532
in	-7.07519
▁nord	-7.08312
na	-7.10891
▁2	-7.109
▁sammen	-7.11262
for	-7.11799
ri	-7.11863
▁så	-7.13025
an	-7.13105
▁blant	-7.13513
▁hvor	-7.13888
▁mange	-7.16681
is	-7.16964
▁la	-7.17205
ende	-7.1809
▁del	-7.18341
▁the	-7.19488
▁tallet	-7.19823
nde	-7.20132
▁før	-7.20533
ia	-7.21784
sen	-7.232
▁selv	-7.24644
▁senere	-7.25183
▁alle	-7.25302
▁ligger	-7.25652
▁stor	-7.27586
la	-7.27856
or	-7.28507
▁re	-7.2862
▁død	-7.28976
▁3	-7.29474
▁norge	-7.3039
▁u	-7.3154
▁m	-7.31955
w	-7.32181
di	-7.33008
▁c	-7.33025
ta	-7.33095
ur	-7.33959
▁b	-7.34091
▁ca	-7.34228
▁noen	-7.34345
▁være	-7.34938
▁mer	-7.35559
▁byen	-7.35622
land	-7.35865
▁17	-7.3595
ske	-7.36202
ar	-7.36266
z	-7.36338
▁kommune	-7.37498
▁siden	-7.38006
▁norsk	-7.38232
▁gjennom	-7.38888
▁g	-7.38916
vis	-7.39014
▁blit	-7.39754
▁kr	-7.40509
ke	-7.40637
um	-7.41266
▁5	-7.41525
▁disse	-7.41767
▁tidligere	-7.42419
▁ol	-7.4273
▁4	-7.42875
▁kjent	-7.42998
▁sør	-7.43017
at	-7.43237
▁her	-7.43378
der	-7.44194
▁sitt	-7.44374
▁k	-7.44696
▁annet	-7.44803
be	-7.44894
▁se	-7.46881
▁vært	-7.47268
ch	-7.47516
▁bo	-7.47537
▁ny	-7.47556
li	-7.47745
▁vi	-7.48055
▁tid	-7.48607
▁di	-7.48638
▁an	-7.49049
ig	-7.49154
▁land	-7.4939
lig	-7.49563
ra	-7.5011
▁st	-7.50138
▁noe	-7.50535
øy	-7.50665
▁store	-7.50749
ens	-7.50922
▁15	-7.51233
ma	-7.51412
▁samme	-7.52011
▁le	-7.52275
▁rundt	-7.52464
▁p	-7.52487
▁16	-7.5251
iske	-7.52631
kt	-7.52668
▁gikk	-7.53684
ning	-7.56821
lo	-7.5704
▁d	-7.57267
as	-7.5753
it	-7.58162
▁ro	-7.58414
ør	-7.58479
os	-7.58817
ler	-7.59148
ste	-7.59599
ver	-7.60295
▁tilbake	-7.60657
▁of	-7.61103
▁frem	-7.61247
▁mens	-7.61419
j	-7.61579
▁kunne	-7.6237
ut	-7.62872
▁sine	-7.62938
▁bare	-7.62983
▁ham	-7.63397
▁grunn	-7.63515
▁dag	-7.63981
▁mest	-7.64535
ck	-7.6461
het	-7.65043
▁vant	-7.65276
x	-7.65454
▁al	-7.65556
id	-7.65742
▁vil	-7.66159
nes	-7.66673
tt	-7.66861
ol	-7.67498
ry	-7.67629
▁gang	-7.67634
ka	-7.67641
▁ga	-7.67707
▁sa	-7.68175
▁ned	-7.69249
▁by	-7.69437
▁skulle	-7.69479
▁6	-7.70221
nd	-7.70253
▁både	-7.70307
ul	-7.70478
den	-7.70729
▁10	-7.71055
▁ofte	-7.71131
th	-7.71265
▁vest	-7.71454
bo	-7.71504
▁enn	-7.7228
me	-7.72326
▁t	-7.72434
▁øst	-7.72562
da	-7.7307
▁tok	-7.73204
skap	-7.73446
il	-7.73578
isk	-7.73623
▁nye	-7.74324
▁norske	-7.74459
▁ta	-7.74807
ro	-7.75964
▁ma	-7.76845
▁kon	-7.76986
ton	-7.77357
é	-7.77432
▁fire	-7.77913
kk	-7.78217
▁km	-7.78297
ll	-7.78506
▁8	-7.7901
▁l	-7.79055
▁januar	-7.79154
▁e	-7.79321
ge	-7.79407
▁7	-7.79528
▁h	-7.79715
▁usa	-7.79859
ng	-7.79909
▁fram	-7.80161
▁navnet	-7.80975
by	-7.81285
▁slik	-7.81528
ner	-7.81854
▁oslo	-7.8194
▁meter	-7.82355
▁navn	-7.82417
son	-7.82645
▁skal	-7.82698
ad	-7.82737
ist	-7.8302
ga	-7.83021
▁innen	-7.83126
▁august	-7.83176
▁få	-7.83643
▁v	-7.83728
▁o	-7.83841
ja	-7.83919
▁siste	-7.84244
lige	-7.84359
▁mars	-7.8484
▁ra	-7.85063
mann	-7.85437
sa	-7.86201
▁lag	-7.86523
mi	-7.86524
▁kirke	-7.86544
ic	-7.86655
▁mai	-7.86662
▁000	-7.87081
ger	-7.87269
▁li	-7.87335
▁største	-7.87418
▁deltok	-7.88056
▁si	-7.88263
▁ti	-7.88614
stad	-7.8863
▁nå	-7.88884
▁pi	-7.88926
▁dem	-7.89101
▁9	-7.89718
erte	-7.90041
ø	-7.90539
▁juli	-7.90553
ær	-7.90802
▁hele	-7.90819
op	-7.9087
ve	-7.91104
erne	-7.91107
man	-7.91377
▁ni	-7.9149
▁na	-7.91576
el	-7.92419
▁hoved	-7.92907
to	-7.94033
▁finnes	-7.9433
om	-7.94393
▁igjen	-7.94897
sjon	-7.94914
ö	-7.95239
▁12	-7.96009
am	-7.96026
ff	-7.9628
▁per	-7.96464
▁rekke	-7.9653
▁juni	-7.97169
gi	-7.98292
▁går	-7.98478
▁når	-7.9861
▁tillegg	-7.99396
▁området	-7.99549
▁kalt	-7.99848
▁fri	-7.99918
▁du	-7.99919
▁he	-8.00033
ha	-8.00237
▁2010	-8.00549
pp	-8.00618
▁laget	-8.00712
▁11	-8.0073
▁ar	-8.0088
▁14	-8.01302
▁samt	-8.01411
▁ba	-8.01754
▁20	-8.01785
▁først	-8.01795
▁årene	-8.02128
▁lang	-8.02783
▁mål	-8.03767
▁2008	-8.0399
▁bak	-8.046
gen	-8.0499
▁ka	-8.05294
▁13	-8.05672
mo	-8.0598
▁mor	-8.06379
ven	-8.07131
▁kun	-8.0716
si	-8.07602
▁brukt	-8.07642
mer	-8.08151
▁mindre	-8.08162
ce	-8.08176
dal	-8.08475
gang	-8.08835
ell	-8.08852
else	-8.08875
▁ho	-8.09159
berg	-8.09439
▁pro	-8.09485
ti	-8.09913
av	-8.09951
▁as	-8.09961
▁plass	-8.09997
▁landet	-8.10317
opp	-8.10577
▁deres	-8.10802
ba	-8.10813
bi	-8.10854
je	-8.10894
bu	-8.11004
▁oktober	-8.11027
ns	-8.11083
▁vanlig	-8.11111
▁n	-8.1119
▁april	-8.11236
▁0	-8.11451
▁2007	-8.1166
▁begynte	-8.11982
ring	-8.12113
▁bu	-8.12303
ster	-8.12542
▁desember	-8.1271
pe	-8.12784
▁su	-8.13183
▁far	-8.13309
po	-8.13381
co	-8.13613
▁hos	-8.13652
ker	-8.13772
▁tro	-8.13935
▁skole	-8.14162
▁bruk	-8.14446
▁lo	-8.14808
▁tiden	-8.15018
▁fem	-8.15609
ik	-8.15624
▁året	-8.15726
ko	-8.15913
▁gjorde	-8.16004
▁alt	-8.16043
▁pa	-8.16445
▁utgitt	-8.16674
▁februar	-8.16823
▁døde	-8.17554
var	-8.17554
go	-8.17742
▁europa	-8.18018
▁j	-8.18462
va	-8.18883
▁spilte	-8.19715
▁2006	-8.19973
▁fa	-8.20333
▁september	-8.20423
ingen	-8.2047
sp	-8.20672
▁eksempel	-8.20882
▁2005	-8.20888
▁medlem	-8.20927
▁like	-8.21049
▁w	-8.21218
au	-8.2124
▁videre	-8.21351
▁tyskland	-8.21439
ak	-8.2149
ment	-8.2163
▁nær	-8.21729
▁gi	-8.22033
▁november	-8.22273
▁fly	-8.22329
▁ulik	-8.22781
ant	-8.2293
▁leder	-8.23495
▁in	-8.23723
▁tv	-8.23772
▁ju	-8.23943
ir	-8.24058
over	-8.2414
do	-8.24157
▁2009	-8.24402
▁mo	-8.24478
▁ville	-8.24502
▁større	-8.24695
sh	-8.24815
un	-8.25501
▁sønn	-8.25652
bar	-8.25976
å	-8.25998
▁film	-8.26135
asjon	-8.2615
ok	-8.2619
ni	-8.2635
rett	-8.26457
tor	-8.27152
▁beste	-8.27248
år	-8.2726
▁imidlertid	-8.27298
men	-8.2768
▁spiller	-8.27769
▁so	-8.27789
ek	-8.27796
▁filmen	-8.28
▁svær	-8.28141
▁mar	-8.2826
lag	-8.28481
tu	-8.28635
▁30	-8.28671
tur	-8.28751
▁bestå	-8.28807
▁bar	-8.28991
▁helt	-8.29056
▁ru	-8.29113
ku	-8.29169
▁co	-8.29226
▁barn	-8.29387
▁egen	-8.29645
▁hver	-8.2972
▁sverige	-8.30035
æ	-8.30272
▁musikk	-8.30287
▁rett	-8.30467
vi	-8.30906
▁gjen	-8.31113
▁no	-8.31252
▁uten	-8.31344
ling	-8.31514
▁deretter	-8.31575
▁mye	-8.31709
iv	-8.31922
pa	-8.32063
ks	-8.32078
▁kina	-8.32183
▁gamle	-8.32589
▁go	-8.32689
ly	-8.32902
ho	-8.32945
▁jo	-8.33122
▁sp	-8.33233
▁par	-8.33264
▁tatt	-8.33311
lin	-8.33405
im	-8.33506
▁folke	-8.33612
▁olympisk	-8.3376
▁lov	-8.34212
ard	-8.34682
tak	-8.35044
▁new	-8.35273
ningen	-8.35327
▁hennes	-8.35494
ag	-8.35537
lu	-8.35734
▁ver	-8.35862
▁tyske	-8.35906
▁kunst	-8.35926
▁må	-8.35931
▁am	-8.3599
mp	-8.35993
ä	-8.36035
▁y	-8.36331
len	-8.36575
▁hvert	-8.36717
▁brukes	-8.36833
▁sch	-8.36869
sted	-8.37007
▁sett	-8.37035
▁innbyggere	-8.37087
▁hu	-8.37214
▁kommer	-8.37308
▁bra	-8.3787
▁bygget	-8.37909
▁vann	-8.37947
▁lå	-8.38096
itt	-8.38125
▁startet	-8.38128
▁2004	-8.38186
▁mat	-8.38264
▁lu	-8.38447
▁ri	-8.38529
▁sesongen	-8.38558
ov	-8.38572
▁ei	-8.38811
ina	-8.38861
ering	-8.39137
▁and	-8.39312
ca	-8.39361
▁john	-8.39558
▁2011	-8.3956
▁sol	-8.39661
▁kong	-8.39704
▁særlig	-8.39842
stil	-8.39933
▁bi	-8.40249
ft	-8.40284
▁do	-8.4049
no	-8.40491
▁el	-8.40536
▁satt	-8.40694
▁ch	-8.4076
ed	-8.41156
tal	-8.41434
▁fleste	-8.41482
sel	-8.41728
▁russisk	-8.42082
▁ab	-8.42195
▁ingen	-8.4231
▁form	-8.42397
ings	-8.42454
▁bok	-8.42517
▁begge	-8.42691
▁gruppen	-8.42728
tter	-8.43289
▁engelsk	-8.43469
▁sommer	-8.43485
▁amerikanske	-8.43638
▁liv	-8.43825
▁2003	-8.44099
▁tysk	-8.44269
▁skrevet	-8.44337
▁nytt	-8.44384
elle	-8.44746
▁ganger	-8.44846
▁kinesisk	-8.44967
ion	-8.45004
á	-8.45033
lev	-8.45303
▁løpet	-8.45332
dag	-8.45425
▁gitt	-8.45444
▁mann	-8.45536
▁mi	-8.45544
▁bandet	-8.45653
sj	-8.45848
▁or	-8.45849
▁parti	-8.45945
dd	-8.46072
▁london	-8.46145
ud	-8.46251
kker	-8.46253
ld	-8.46359
vik	-8.4644
▁kultur	-8.46455
ium	-8.46831
▁skrev	-8.46951
od	-8.47417
▁frankrike	-8.47639
▁dagen	-8.47647
▁dermed	-8.47672
▁klubben	-8.47718
lse	-8.47943
▁100	-8.48117
▁bergen	-8.48213
ang	-8.48239
ie	-8.48292
▁eks	-8.48473
▁ko	-8.48628
▁em	-8.4909
▁ski	-8.49129
hu	-8.49137
▁pe	-8.49249
▁amerikansk	-8.49255
inn	-8.49416
▁gir	-8.4947
ier	-8.49492
slag	-8.49723
▁hus	-8.49751
▁england	-8.49774
▁min	-8.49786
▁øya	-8.49881
▁sam	-8.50079
▁mulig	-8.5013
▁språk	-8.50145
pi	-8.50311
▁lever	-8.50465
▁perioden	-8.50476
▁president	-8.5049
▁verdens	-8.5075
anske	-8.50771
min	-8.51134
ans	-8.51288
▁små	-8.51334
▁kort	-8.51689
▁r	-8.51787
▁2000	-8.51974
▁fast	-8.52166
▁etablert	-8.52254
▁ført	-8.52266
▁vei	-8.5243
siden	-8.52455
▁måtte	-8.52575
ord	-8.52614
▁san	-8.52778
▁tor	-8.5286
▁øy	-8.52951
▁albumet	-8.52965
▁arbeidet	-8.53141
elsen	-8.5316
▁seks	-8.53336
per	-8.53393
▁deler	-8.53927
hus	-8.54028
▁verden	-8.54263
ber	-8.54357
▁kjente	-8.5449
▁forhold	-8.54527
ian	-8.54749
▁sted	-8.54968
▁sjø	-8.55305
▁tra	-8.5575
satt	-8.5589
hold	-8.55893
itet	-8.56079
▁norges	-8.56305
▁høy	-8.56305
del	-8.5637
▁25	-8.56478
ige	-8.56513
▁samtidig	-8.56764
▁person	-8.56809
inger	-8.56881
▁po	-8.57035
sti	-8.57108
▁slutten	-8.5731
stand	-8.57545
▁gresk	-8.57644
▁ad	-8.57822
tro	-8.57998
▁spilt	-8.58127
ede	-8.5818
▁nor	-8.5837
mål	-8.58411
▁britiske	-8.58513
▁ja	-8.58515
▁gl	-8.58568
▁hen	-8.58693
tan	-8.587
let	-8.5873
▁va	-8.58811
▁pu	-8.58914
▁x	-8.59002
ius	-8.59091
▁gammel	-8.59097
▁forskjellige	-8.59134
▁provinsen	-8.5916
▁stedet	-8.59164
les	-8.59273
yl	-8.59279
▁tidlig	-8.59288
▁god	-8.59384
und	-8.59401
▁stort	-8.59693
▁vm	-8.5976
derfor	-8.59765
▁nasjonal	-8.59823
▁sv	-8.60317
verk	-8.60614
▁stat	-8.60749
gu	-8.6104
▁verdenskrig	-8.61194
tiv	-8.61302
▁langs	-8.61321
mb	-8.61322
tra	-8.6136
▁støtte	-8.61371
tiske	-8.61384
▁all	-8.62008
dre	-8.62277
vin	-8.62341
▁kommunen	-8.62343
tten	-8.62842
▁2001	-8.62895
▁tri	-8.63221
▁fred	-8.6346
▁annen	-8.63482
▁dr	-8.64286
▁grad	-8.64667
rø	-8.64761
▁2002	-8.65012
▁eneste	-8.65153
sett	-8.65208
bruk	-8.65235
▁vis	-8.65391
▁viktig	-8.65576
▁sto	-8.65765
▁gull	-8.66016
▁serien	-8.6619
kl	-8.66256
mm	-8.66276
tiden	-8.66429
▁tredje	-8.66608
art	-8.66774
▁me	-8.66866
▁ne	-8.67194
▁bro	-8.67344
▁1990	-8.67543
sten	-8.67554
mmer	-8.67974
▁gift	-8.67987
vel	-8.68318
▁historie	-8.68359
stein	-8.68639
▁te	-8.68812
ken	-8.68931
▁gjort	-8.69113
ale	-8.69126
▁krigen	-8.69298
▁storbritannia	-8.6939
ting	-8.69406
▁slutt	-8.6941
▁holdt	-8.69421
▁side	-8.69478
▁plan	-8.69877
▁selskapet	-8.6988
6	-8.69944
nk	-8.70032
wa	-8.70114
ninger	-8.702
sta	-8.70228
dig	-8.70251
ill	-8.70326
ow	-8.70341
▁familie	-8.70349
ü	-8.70518
▁1999	-8.70525
▁allerede	-8.70529
▁stein	-8.70596
▁bygge	-8.70718
▁produksjon	-8.7079
▁19	-8.70846
▁gud	-8.70931
▁langt	-8.71212
▁1980	-8.71286
▁kalles	-8.71531
▁arbeid	-8.71569
▁22	-8.71747
så	-8.71879
tid	-8.71929
ong	-8.71991
▁danmark	-8.72046
▁konge	-8.72067
▁ord	-8.72114
lot	-8.72126
▁21	-8.7215
▁lokal	-8.7229
ty	-8.72355
ran	-8.72459
▁lite	-8.7246
følge	-8.72605
▁basert	-8.72767
▁utnevnt	-8.72882
io	-8.73441
▁millioner	-8.73441
▁fortsatt	-8.73698
▁bl	-8.73812
▁sk	-8.74045
▁får	-8.74152
mon	-8.74272
▁syn	-8.74351
▁halv	-8.74355
▁flyttet	-8.74574
▁fotball	-8.74605
bb	-8.74784
▁godt	-8.7492
isme	-8.7505
▁lys	-8.75053
em	-8.75096
▁wi	-8.75244
▁utviklet	-8.75455
▁forfatter	-8.75469
▁forbindelse	-8.75485
kon	-8.75574
▁fl	-8.75826
▁gjern	-8.76042
hi	-8.76253
ding	-8.76328
vo	-8.76472
▁universitetet	-8.76636
▁familien	-8.76719
1	-8.76723
▁sendt	-8.76771
2	-8.76888
▁verk	-8.76892
▁funnet	-8.76976
▁bru	-8.77082
rik	-8.77102
▁arbeider	-8.77279
val	-8.77302
ci	-8.77359
landet	-8.77411
▁sangen	-8.77437
▁fo	-8.77482
▁gruppe	-8.77506
▁delen	-8.77652
▁kn	-8.77669
▁fi	-8.77805
▁politiske	-8.7803
▁utenfor	-8.78119
▁ledet	-8.78263
▁kar	-8.78341
ny	-8.78404
▁sta	-8.78504
▁fått	-8.78571
ham	-8.78584
▁sand	-8.78666
▁delstaten	-8.78937
gre	-8.79021
▁rolle	-8.79058
▁kal	-8.79093
ya	-8.79096
▁menn	-8.79097
▁franske	-8.79119
tar	-8.79135
kan	-8.79136
ikk	-8.79268
▁hatt	-8.7928
▁fjell	-8.79377
▁fin	-8.79538
mar	-8.79755
▁kirken	-8.79771
gg	-8.79844
▁general	-8.80031
▁moderne	-8.80052
▁opprinnelig	-8.803
▁mennesker	-8.80365
su	-8.80778
ac	-8.808
▁23	-8.80817
▁hol	-8.80876
▁stil	-8.80909
▁ste	-8.8096
▁hel	-8.81001
▁nok	-8.81094
▁vel	-8.81215
▁tar	-8.81281
▁je	-8.81341
▁hi	-8.81441
▁bort	-8.8168
▁omkring	-8.81708
▁1970	-8.81718
▁én	-8.81733
▁mal	-8.81838
▁sentral	-8.82126
▁midt	-8.82237
▁krigs	-8.82292
▁reise	-8.82326
▁liten	-8.82491
▁grav	-8.82556
▁24	-8.82672
▁internasjonale	-8.82717
▁my	-8.82728
ys	-8.82841
▁vo	-8.82841
▁prest	-8.8294
▁br	-8.82964
jen	-8.82983
ley	-8.83318
▁ser	-8.83397
▁står	-8.83416
▁pre	-8.8355
dom	-8.83566
▁kamp	-8.83592
7	-8.83612
▁åpnet	-8.83626
isering	-8.83684
▁1994	-8.83851
▁personer	-8.83955
▁militær	-8.84086
▁wa	-8.84147
▁kvinner	-8.84188
ki	-8.84288
tikk	-8.84386
▁vise	-8.84588
▁antall	-8.84644
he	-8.84655
▁spesielt	-8.84711
▁ur	-8.84714
leg	-8.8494
▁mark	-8.85094
í	-8.85145
▁dager	-8.85172
▁svensk	-8.85205
fe	-8.85217
nings	-8.85333
▁50	-8.85526
▁åtte	-8.85552
▁betydning	-8.85586
skje	-8.85598
▁28	-8.85749
til	-8.85998
▁26	-8.86107
▁gu	-8.86518
▁bygd	-8.86523
▁styre	-8.87009
mor	-8.87018
løp	-8.87031
▁gjøre	-8.8733
▁1998	-8.87366
▁enkelte	-8.87558
ds	-8.87574
ator	-8.87613
heten	-8.87789
▁valgt	-8.87845
▁aktiv	-8.87872
▁kvinne	-8.87893
▁gjør	-8.87993
▁krig	-8.88023
▁con	-8.88032
5	-8.88103
bud	-8.88115
▁paris	-8.88233
▁orden	-8.88251
▁valg	-8.88287
▁skog	-8.88333
▁rom	-8.884
▁partiet	-8.8855
▁fag	-8.88589
▁york	-8.88712
▁opprettet	-8.88714
▁art	-8.88715
▁folk	-8.88842
▁ki	-8.88912
▁elven	-8.8931
bil	-8.8946
▁spille	-8.89469
▁val	-8.89621
▁italia	-8.89629
▁nesten	-8.89631
▁jord	-8.8964
▁hva	-8.89681
▁fransk	-8.89759
▁ben	-8.89858
▁følge	-8.89972
▁27	-8.90044
▁au	-8.90207
▁natur	-8.90458
▁1960	-8.9055
▁tur	-8.90682
▁berg	-8.907
fa	-8.90709
▁mil	-8.90994
▁1996	-8.91011
fly	-8.91348
▁arter	-8.91428
▁romersk	-8.91498
▁hal	-8.91512
▁barne	-8.91555
bel	-8.91581
skole	-8.91593
▁interesse	-8.91631
▁bred	-8.91643
▁fant	-8.91902
▁2012	-8.91948
▁jobbe	-8.91964
dalen	-8.92156
▁økonomisk	-8.92259
tre	-8.92328
▁fu	-8.92374
▁ak	-8.92431
▁skolen	-8.92487
vei	-8.93086
▁veien	-8.93115
▁fremst	-8.93151
▁kongen	-8.93258
ach	-8.93279
▁minst	-8.93308
dy	-8.9335
▁begynnelsen	-8.93356
ot	-8.93395
3	-8.93463
▁skuespiller	-8.93473
form	-8.93648
▁slaget	-8.93748
ine	-8.93843
▁kontroll	-8.93877
▁dikt	-8.93963
▁full	-8.9432
graf	-8.94547
▁russland	-8.94789
▁viser	-8.94836
▁medlemmer	-8.9486
▁hjem	-8.94902
sch	-8.94908
bygg	-8.94912
cu	-8.95046
▁henne	-8.95271
ive	-8.95311
uk	-8.95323
▁roma	-8.95363
tion	-8.95463
red	-8.95514
▁bor	-8.95541
▁29	-8.95574
▁lange	-8.95583
▁gå	-8.95597
▁red	-8.95626
za	-8.95632
jo	-8.95802
▁organ	-8.95946
▁gro	-8.95987
▁serie	-8.96012
up	-8.96074
par	-8.96093
kant	-8.96127
▁dom	-8.96158
▁råd	-8.96173
plass	-8.96212
▁komme	-8.9647
iker	-8.96549
▁tross	-8.96609
▁ren	-8.96724
▁regjeringen	-8.96761
▁tap	-8.96767
▁luft	-8.9679
▁delt	-8.96838
▁keiser	-8.96883
▁direkte	-8.96915
ford	-8.96945
sson	-8.97053
▁bruker	-8.97177
ab	-8.97178
▁col	-8.97307
▁vinter	-8.97401
kom	-8.97504
▁historisk	-8.9751
heim	-8.97606
iet	-8.97719
met	-8.97722
▁tjeneste	-8.97773
vet	-8.97898
▁farge	-8.98011
laget	-8.98315
ju	-8.98324
menn	-8.98485
mester	-8.98504
▁universitet	-8.98527
▁eget	-8.98551
lle	-8.98576
est	-8.98697
▁1997	-8.98726
▁1993	-8.98729
▁karl	-8.988
▁gav	-8.98848
▁lav	-8.98905
▁radio	-8.98925
▁foran	-8.98992
bre	-8.99072
▁sen	-8.99085
lands	-8.9918
▁felles	-8.99232
▁arbeids	-8.99268
and	-8.99334
føring	-8.99366
dan	-8.99442
▁litt	-8.99592
▁hjelp	-8.99596
spill	-8.99644
▁aldri	-8.99805
▁best	-8.99881
▁menneske	-8.99908
▁chi	-9.00253
▁befolkningen	-9.00361
▁seier	-9.00446
vær	-9.00498
▁ge	-9.00567
han	-9.0069
▁svenske	-9.00694
▁pan	-9.00744
▁inkludert	-9.00746
▁tu	-9.00854
50	-9.01092
tes	-9.01136
▁nummer	-9.0115
▁afrika	-9.01249
▁slag	-9.01316
▁dro	-9.01326
▁måte	-9.0137
▁stats	-9.01486
▁divisjon	-9.01503
▁paul	-9.0151
▁gul	-9.01519
lå	-9.01544
▁hy	-9.01597
▁ettersom	-9.01605
▁opera	-9.01772
▁betydelig	-9.01774
▁drept	-9.01774
mat	-9.01847
sund	-9.0186
ah	-9.01951
▁sang	-9.02099
▁tak	-9.02104
▁ed	-9.02235
stående	-9.02295
▁car	-9.02312
bok	-9.02318
▁we	-9.02392
▁ras	-9.02424
▁bil	-9.02425
▁on	-9.0257
▁datter	-9.02668
spiller	-9.02727
▁sentrum	-9.0296
far	-9.03042
▁berlin	-9.03155
▁kur	-9.03166
▁skip	-9.03301
▁kilometer	-9.03336
▁betyr	-9.03338
plan	-9.03473
fjorden	-9.03573
▁hav	-9.03596
stilling	-9.03768
▁bre	-9.03822
▁omtrent	-9.03863
▁produsert	-9.03863
▁likevel	-9.03903
ister	-9.03945
▁engelske	-9.03946
hl	-9.03966
ringen	-9.03996
▁ku	-9.03998
stan	-9.04225
ip	-9.04297
▁pave	-9.04299
▁arrangert	-9.04392
bin	-9.04398
▁fylke	-9.04587
▁staten	-9.04639
▁31	-9.04797
stre	-9.04888
▁vanskelig	-9.04927
pen	-9.0493
▁1989	-9.04932
▁band	-9.04956
ller	-9.05014
burg	-9.0513
led	-9.05282
kor	-9.05383
ført	-9.05451
▁knytte	-9.05459
▁hovedsakelig	-9.05465
▁danne	-9.05642
bra	-9.05712
van	-9.05725
▁1995	-9.06004
▁spor	-9.06024
▁bror	-9.061
▁lagt	-9.06113
we	-9.06143
log	-9.06253
▁politisk	-9.06293
▁motor	-9.06297
▁representert	-9.06537
▁såkalt	-9.06541
▁slått	-9.06561
▁befolkning	-9.06667
ó	-9.06765
▁makt	-9.06803
▁kor	-9.06806
øya	-9.06871
▁danske	-9.06967
råd	-9.06974
▁mari	-9.06991
▁mester	-9.06992
mu	-9.07188
▁sal	-9.07198
▁bestemt	-9.07251
▁ber	-9.07286
som	-9.07289
ou	-9.07335
▁via	-9.07367
▁fiske	-9.07497
▁handels	-9.07577
▁rød	-9.07594
▁inneholde	-9.07635
▁ferdig	-9.07657
▁ø	-9.07665
tisk	-9.07683
▁dannet	-9.07688
ppe	-9.07761
▁periode	-9.07773
▁ett	-9.07961
ica	-9.07963
▁pass	-9.08007
▁forsøk	-9.08087
forening	-9.08111
▁sanger	-9.08301
▁høyde	-9.08425
▁følgende	-9.08457
legg	-9.08501
▁angrep	-9.08517
▁grunnlagt	-9.0865
▁eu	-9.08845
▁holde	-9.08992
▁seil	-9.09044
▁riks	-9.09055
▁pla	-9.0907
jø	-9.09094
▁finalen	-9.09193
elig	-9.09203
▁kron	-9.09261
▁hverandre	-9.09284
▁århundre	-9.09284
▁hevde	-9.09309
▁egne	-9.09382
▁album	-9.09464
jer	-9.09605
gar	-9.09652
▁meget	-9.09652
▁skade	-9.09668
▁høyre	-9.09669
▁johan	-9.09714
▁mis	-9.09826
▁brasil	-9.09852
▁gal	-9.09865
kamp	-9.09946
▁benyttet	-9.10055
▁ty	-9.10102
nntil	-9.10154
▁steder	-9.10176
borg	-9.10193
▁topp	-9.10362
fall	-9.10365
mel	-9.10376
▁italiensk	-9.10405
▁dårlig	-9.10405
▁1992	-9.10415
▁lett	-9.10544
kken	-9.10586
▁klar	-9.10698
ien	-9.10705
ps	-9.10729
▁park	-9.10734
vann	-9.10745
ris	-9.10854
▁system	-9.10886
▁liste	-9.10894
▁200	-9.10918
▁th	-9.11033
▁40	-9.1113
gel	-9.11194
▁rock	-9.11196
▁fortsatte	-9.11407
▁1991	-9.11538
▁sø	-9.11569
▁vin	-9.11738
▁legge	-9.11761
▁bal	-9.11957
if	-9.1198
▁lyd	-9.12004
▁eldre	-9.12149
▁sl	-9.12254
▁slo	-9.12352
kel	-9.12454
▁tildelt	-9.12533
▁william	-9.12684
▁venstre	-9.12691
bygning	-9.12691
▁herre	-9.12731
▁lik	-9.12731
lene	-9.12792
ød	-9.12836
kning	-9.12884
ving	-9.12943
▁mon	-9.13032
▁jan	-9.13188
che	-9.1324
▁university	-9.13265
▁1985	-9.13271
▁von	-9.13283
▁resultat	-9.13305
▁lille	-9.13313
▁ly	-9.1335
▁europeisk	-9.13373
▁drev	-9.13385
▁hvis	-9.13511
lsen	-9.13542
ug	-9.13627
▁regnes	-9.13743
her	-9.13831
▁eldste	-9.13844
▁teater	-9.13846
▁endte	-9.13894
▁1800	-9.13909
▁våpen	-9.1405
bygd	-9.14104
▁møte	-9.1413
▁peter	-9.14136
▁løs	-9.14328
tin	-9.14472
▁wh	-9.1453
▁nordlig	-9.14537
▁biskop	-9.14594
▁politiker	-9.14727
film	-9.14756
rev	-9.14814
ika	-9.14826
▁mu	-9.14989
▁industri	-9.15087
ation	-9.15121
▁kamper	-9.15223
▁virke	-9.15275
▁vekt	-9.15288
▁minne	-9.15375
rak	-9.15416
ay	-9.15423
▁arm	-9.15484
lat	-9.1555
og	-9.1558
▁jeg	-9.1559
▁sølv	-9.156
▁sig	-9.1565
of	-9.1566
dyr	-9.15758
▁bedre	-9.158
mmen	-9.15947
fra	-9.15982
▁finner	-9.16114
▁2013	-9.16215
▁hjemme	-9.16235
ologi	-9.16239
▁robert	-9.16255
▁lege	-9.16463
elt	-9.16615
▁tegn	-9.16646
▁elv	-9.16666
veien	-9.16728
▁professor	-9.16802
▁trondheim	-9.16802
▁1988	-9.16808
▁kroppen	-9.16818
dømme	-9.16822
bru	-9.16838
br	-9.1705
▁kraftig	-9.1705
▁roman	-9.17115
ap	-9.17171
fi	-9.17192
heng	-9.17253
▁amerika	-9.17311
▁ska	-9.17336
▁ve	-9.17376
▁mag	-9.17639
my	-9.17772
▁lands	-9.17963
▁samarbeid	-9.17974
tatt	-9.17997
messig	-9.18011
▁nu	-9.1805
det	-9.18063
liggende	-9.18214
banen	-9.18257
▁sak	-9.18398
▁post	-9.18412
ph	-9.1842
▁skille	-9.18542
▁regionen	-9.18626
▁brukte	-9.18729
▁xi	-9.18754
skip	-9.18795
isere	-9.18829
▁unge	-9.19056
bro	-9.19067
▁kje	-9.19068
▁lokale	-9.19087
punkt	-9.19132
båt	-9.19141
▁studert	-9.19235
▁meste	-9.19284
ska	-9.19409
ight	-9.19436
▁sy	-9.19496
▁enkelt	-9.19611
▁stjerne	-9.19621
asjonen	-9.19714
gård	-9.1972
▁1920	-9.19865
▁data	-9.19912
▁renn	-9.19935
▁litteratur	-9.19992
▁sha	-9.20031
▁dansk	-9.20221
▁lenger	-9.20223
▁helse	-9.20245
▁hånd	-9.20259
▁pris	-9.2026
skapet	-9.20362
yn	-9.20457
а	-9.20468
øl	-9.20506
ru	-9.20529
▁viktigste	-9.20568
ita	-9.20603
▁mente	-9.20735
▁militære	-9.20747
▁fange	-9.20898
▁z	-9.20934
sto	-9.20953
▁brun	-9.21012
▁britisk	-9.21021
▁pat	-9.21101
▁bel	-9.21111
▁india	-9.21349
▁samlet	-9.21413
grad	-9.21456
▁tilhører	-9.21495
føre	-9.21496
pro	-9.21656
▁christian	-9.21668
▁fall	-9.21675
stat	-9.21685
merke	-9.2174
departementet	-9.21795
▁ter	-9.21858
mark	-9.219
▁qu	-9.22053
▁finne	-9.22165
▁miljø	-9.22225
30	-9.22225
▁plassert	-9.22236
▁sc	-9.22344
▁elva	-9.22423
▁resten	-9.22502
▁rø	-9.22512
▁tru	-9.2259
kast	-9.22739
▁område	-9.22933
▁grensen	-9.23171
▁bur	-9.23291
▁sesong	-9.23603
▁møtte	-9.23641
▁tekst	-9.23649
▁ul	-9.2368
▁energi	-9.23705
▁tittelen	-9.23818
▁boken	-9.23838
▁cla	-9.23851
▁krav	-9.2386
▁os	-9.2389
side	-9.23902
brudd	-9.23934
▁anti	-9.23934
▁nett	-9.24004
ung	-9.24015
▁områder	-9.24033
ski	-9.24171
system	-9.24186
folk	-9.24212
▁opprør	-9.24295
▁bank	-9.24372
▁spe	-9.24405
▁kunstner	-9.2443
lighet	-9.2453
▁utgjør	-9.24574
so	-9.24625
▁utvikling	-9.24709
rat	-9.24791
▁cha	-9.24873
▁ag	-9.24922
▁1964	-9.24943
▁skr	-9.24975
▁bas	-9.25031
▁indre	-9.25048
vil	-9.25105
▁flo	-9.25107
ym	-9.252
70	-9.2525
anger	-9.25289
▁omfatter	-9.25384
▁dyr	-9.25575
kal	-9.25583
▁stockholm	-9.25585
▁poeng	-9.25593
▁com	-9.25644
isert	-9.25664
kar	-9.25752
▁finland	-9.25793
▁lærer	-9.25898
handling	-9.25927
▁heller	-9.2594
▁leker	-9.25998
▁pol	-9.26088
▁1984	-9.26252
▁1979	-9.26252
▁2014	-9.26255
▁dessut	-9.26258
▁1950	-9.26264
▁retning	-9.26322
▁ac	-9.2634
▁delta	-9.26351
idae	-9.26428
▁hvit	-9.26462
port	-9.26634
ana	-9.2668
▁neste	-9.2669
▁løp	-9.26702
jør	-9.26734
▁gar	-9.26744
▁60	-9.26865
▁sterkt	-9.26892
▁høyeste	-9.26918
▁viste	-9.27237
▁ledelse	-9.27423
elser	-9.27583
▁besto	-9.27599
▁hvordan	-9.27682
▁midten	-9.27727
styre	-9.27731
▁klasse	-9.27795
sak	-9.2785
▁dra	-9.27868
sal	-9.28185
▁stod	-9.28218
vern	-9.28359
stra	-9.28541
▁japan	-9.28638
▁erstattet	-9.28694
retning	-9.28696
▁karriere	-9.28703
q	-9.28776
lik	-9.28909
▁1983	-9.28929
▁henrik	-9.28953
▁båt	-9.28972
ori	-9.29098
▁fil	-9.29123
▁endret	-9.29177
▁lenge	-9.29212
gitt	-9.29234
80	-9.29404
▁sosial	-9.29411
stol	-9.29432
▁selskap	-9.29498
▁fe	-9.29527
▁suksess	-9.2959
▁københavn	-9.29599
▁1948	-9.29605
ble	-9.2971
▁arten	-9.29734
af	-9.2992
medalje	-9.3004
trykk	-9.30116
▁carl	-9.30166
ino	-9.30181
▁sommeren	-9.30238
▁felt	-9.3026
▁los	-9.30322
sky	-9.30354
▁verdi	-9.30419
stø	-9.30541
▁tom	-9.3061
▁nordøst	-9.30626
▁gra	-9.30751
gh	-9.30771
året	-9.30855
▁kraft	-9.30899
bor	-9.30919
istiske	-9.30985
▁1900	-9.30985
▁vår	-9.31082
▁linje	-9.31248
lan	-9.31266
abel	-9.31296
lis	-9.31298
▁kle	-9.31304
fri	-9.31403
tok	-9.31405
▁island	-9.31412
▁ring	-9.31518
tel	-9.31529
▁ap	-9.31603
▁sentrale	-9.31674
▁statsminister	-9.31677
produkt	-9.31782
iner	-9.31811
▁blå	-9.31844
▁skrive	-9.31847
aksjon	-9.3185
▁politi	-9.3192
▁op	-9.31955
▁samle	-9.31983
▁spi	-9.3209
▁1940	-9.32381
▁nest	-9.32415
fjord	-9.32449
▁mus	-9.3251
▁kampen	-9.32603
▁ii	-9.32635
▁mel	-9.32651
▁koloni	-9.32694
sjøen	-9.32719
▁gen	-9.32953
▁kjøpt	-9.3311
▁bill	-9.33434
▁satte	-9.33543
rom	-9.33584
ji	-9.33598
▁ke	-9.33616
▁1977	-9.33781
▁1981	-9.33791
▁1969	-9.33793
▁alltid	-9.33817
drift	-9.33844
▁alder	-9.33844
▁ten	-9.33909
▁høyere	-9.33975
▁tapte	-9.34077
områder	-9.3409
iz	-9.34162
▁ci	-9.34313
▁sørøst	-9.34474
▁thomas	-9.34495
▁prosent	-9.34503
rus	-9.34538
▁størrelse	-9.34545
▁bruke	-9.34774
▁lengde	-9.3478
styr	-9.34795
rud	-9.34935
res	-9.34949
▁posisjon	-9.34975
▁moh	-9.35057
и	-9.35215
▁ang	-9.3522
▁cor	-9.35314
▁rad	-9.35397
▁sm	-9.35419
▁regjering	-9.35427
▁offentlig	-9.35458
nte	-9.35492
▁funksjon	-9.35548
syn	-9.35672
▁mont	-9.35834
fal	-9.3587
els	-9.3599
▁blod	-9.35999
komm	-9.36112
▁versjon	-9.36131
▁uttrykk	-9.36173
full	-9.36181
▁skipet	-9.3623
20	-9.36258
samling	-9.36359
▁van	-9.36387
▁utdanne	-9.36502
▁høsten	-9.36507
▁bøker	-9.36591
▁pri	-9.36622
▁sikre	-9.36674
▁arkitekt	-9.36738
get	-9.36775
▁sogn	-9.36802
jel	-9.36859
▁innført	-9.36881
▁historien	-9.37172
▁havet	-9.37231
ismen	-9.37369
▁canada	-9.37409
▁500	-9.37414
▁1976	-9.37417
king	-9.37419
▁bjørn	-9.37425
pu	-9.37468
leder	-9.37475
▁kla	-9.37572
hy	-9.37638
ros	-9.37682
▁student	-9.37689
selskap	-9.377
itz	-9.37855
familien	-9.37881
▁gri	-9.38089
▁dronning	-9.38151
▁skjedde	-9.38153
fo	-9.38201
▁fre	-9.38203
▁venn	-9.38333
bygging	-9.38345
▁politikk	-9.38372
▁nrk	-9.38379
▁pr	-9.38492
▁svart	-9.38606
ida	-9.38692
tz	-9.3875
old	-9.38856
asj	-9.38883
▁1945	-9.389
zi	-9.38932
▁slike	-9.38953
▁motstand	-9.3896
▁feil	-9.38964
▁vestlig	-9.38992
▁mm	-9.39043
▁david	-9.39052
▁hø	-9.39138
området	-9.3918
age	-9.39257
▁syk	-9.39298
drag	-9.39312
løs	-9.39339
▁programmet	-9.39341
▁kl	-9.39494
▁olje	-9.3964
▁oppkalt	-9.39647
▁1986	-9.39655
▁city	-9.39697
▁regel	-9.39742
▁sh	-9.39809
▁overtok	-9.39849
▁slekt	-9.39865
kraft	-9.39953
▁styrker	-9.4008
▁lære	-9.40173
kje	-9.40215
▁trekk	-9.40325
▁studie	-9.40348
▁sannsynlig	-9.40401
▁stortinget	-9.40404
▁faren	-9.40408
▁1982	-9.40409
▁1936	-9.4041
▁para	-9.40516
▁gren	-9.40598
▁katolske	-9.40676
▁sende	-9.4069
▁lei	-9.4071
▁raskt	-9.4071
▁nivå	-9.4078
▁areal	-9.4084
▁ordet	-9.41086
▁bør	-9.41097
all	-9.41103
▁artene	-9.41156
▁sovjetunionen	-9.41164
▁hertug	-9.41167
▁george	-9.41176
▁1987	-9.41176
tog	-9.41272
▁sil	-9.41327
ferd	-9.41357
▁oppført	-9.41394
▁japansk	-9.41486
▁stra	-9.41557
▁valgte	-9.41582
arbeid	-9.41707
parti	-9.4174
▁asia	-9.41742
▁reiste	-9.41828
▁svarte	-9.41832
nett	-9.41839
▁gre	-9.41848
▁vol	-9.41849
krigen	-9.41851
▁samling	-9.41891
▁bronse	-9.41927
▁trøndelag	-9.41933
▁voksne	-9.41934
▁klassisk	-9.41934
▁1972	-9.41945
ms	-9.41957
pol	-9.4203
▁syd	-9.42033
▁bilde	-9.42095
▁hopp	-9.42106
fer	-9.42114
▁livet	-9.42134
▁sju	-9.42211
▁stasjon	-9.42248
▁gode	-9.42375
▁ry	-9.42397
▁totalt	-9.42404
way	-9.42469
▁bolig	-9.42627
▁vik	-9.42639
▁1930	-9.42729
▁sørlige	-9.43012
▁mod	-9.43064
▁fulgte	-9.43083
istisk	-9.43148
▁museum	-9.43296
▁israel	-9.43361
▁drift	-9.43417
▁fjerde	-9.43455
▁mur	-9.43475
▁1973	-9.43501
▁rev	-9.43511
▁wal	-9.43531
▁styrke	-9.43568
ekte	-9.43576
▁åpen	-9.43633
sø	-9.43669
dor	-9.43695
▁olav	-9.43729
▁skips	-9.43737
valget	-9.4377
tjeneste	-9.43784
▁hæren	-9.43952
enes	-9.44034
gan	-9.44161
▁ønsket	-9.44206
ari	-9.44221
▁etterhvert	-9.44279
unn	-9.44287
▁standard	-9.443
mannen	-9.44381
kryss	-9.44467
produksjon	-9.445
▁klarte	-9.44623
▁flat	-9.44646
sjoner	-9.44669
▁forsøkt	-9.44692
xi	-9.44771
▁kul	-9.4483
▁eier	-9.44972
mal	-9.45011
▁1975	-9.45083
▁drama	-9.45088
grense	-9.45166
▁sammenheng	-9.45177
▁dy	-9.45224
▁nederland	-9.45267
tus	-9.45487
66	-9.45503
område	-9.4552
▁mos	-9.45603
ice	-9.45619
▁region	-9.45636
bane	-9.45644
vare	-9.45856
▁1967	-9.45885
▁virksomhet	-9.45902
standen	-9.45912
mun	-9.46067
▁tradisjon	-9.4617
reg	-9.46208
▁effekt	-9.46257
▁prøve	-9.46299
bilde	-9.463
▁hær	-9.46406
tegn	-9.46455
gne	-9.46592
▁christ	-9.46673
▁kardinal	-9.46677
▁offisiell	-9.46677
▁nåværende	-9.46713
99	-9.46765
▁kol	-9.46798
▁mc	-9.46807
don	-9.46841
▁q	-9.46916
▁sir	-9.46932
▁trans	-9.46948
▁syv	-9.46982
inne	-9.47059
▁brann	-9.47082
delse	-9.47141
▁solgt	-9.47292
▁prosess	-9.47321
sjef	-9.47369
▁rike	-9.47396
▁adel	-9.47433
chi	-9.47455
▁pra	-9.47469
▁australia	-9.4749
▁original	-9.4749
▁tilsvarende	-9.47491
▁kontakt	-9.47494
ai	-9.47548
▁egg	-9.47568
▁tall	-9.47673
ib	-9.47704
▁borger	-9.47705
47	-9.47817
▁super	-9.47849
▁skrift	-9.47872
▁300	-9.4789
du	-9.47891
ub	-9.47921
gge	-9.47975
▁smal	-9.4799
▁hvite	-9.48081
handler	-9.48298
▁stavanger	-9.48316
gj	-9.4833
virkning	-9.48337
▁figur	-9.48343
▁handling	-9.48354
▁hovedstaden	-9.48457
byen	-9.48669
▁za	-9.48696
ini	-9.48768
▁stiftet	-9.48886
▁modell	-9.48946
▁trykk	-9.4912
▁1974	-9.4915
▁vokste	-9.49158
▁hest	-9.49177
ark	-9.49185
▁måneder	-9.49286
▁beskrive	-9.49333
▁punkt	-9.4949
bas	-9.49776
▁delvis	-9.49782
▁konsert	-9.49799
under	-9.49835
navn	-9.49858
▁regne	-9.49897
▁erik	-9.49926
▁sørvest	-9.49972
▁øverst	-9.49977
▁spania	-9.4998
▁gård	-9.49983
▁teori	-9.49998
▁dyp	-9.49999
▁kors	-9.50076
lang	-9.50107
bert	-9.50132
▁tett	-9.50143
ze	-9.50204
gruppen	-9.50328
▁forsvar	-9.5044
▁direktør	-9.50449
▁natt	-9.50474
▁skje	-9.50495
tall	-9.50602
▁1956	-9.5081
▁1944	-9.50826
▁egentlig	-9.50839
▁kjøre	-9.5085
▁rik	-9.50867
▁maria	-9.5097
▁ky	-9.51068
▁liga	-9.51084
alder	-9.51096
▁oppdaget	-9.5115
▁sterk	-9.51226
huset	-9.51338
musikk	-9.51359
værende	-9.51365
dde	-9.51407
▁ex	-9.51467
▁fylkesvei	-9.51671
▁2017	-9.51678
▁blad	-9.51694
▁hit	-9.51706
▁bodde	-9.51735
▁æ	-9.51767
▁80	-9.51771
▁marine	-9.51852
våg	-9.51914
▁leve	-9.51952
▁400	-9.51965
▁hodet	-9.51967
▁krets	-9.51996
▁styrkene	-9.52034
ativ	-9.52089
▁plate	-9.52218
▁kap	-9.52339
▁personlig	-9.5236
▁kyst	-9.52361
40	-9.52365
55	-9.52379
▁fest	-9.52384
▁start	-9.52445
о	-9.52507
▁nødvendig	-9.52512
▁nordvest	-9.52514
▁1965	-9.52524
kirke	-9.52608
igh	-9.52613
▁ekspedisjon	-9.5266
▁tung	-9.52687
rin	-9.52691
▁kysten	-9.52691
▁utstyr	-9.52719
▁symbol	-9.52719
▁hundre	-9.52856
▁jon	-9.52877
▁regn	-9.52986
▁kommet	-9.53067
▁port	-9.5311
▁avdeling	-9.53207
▁debutert	-9.53216
▁gjeld	-9.53322
hr	-9.53338
▁fjorden	-9.53372
▁øvrig	-9.53374
▁west	-9.53381
▁folketelling	-9.53384
▁ytre	-9.53433
eres	-9.53442
rå	-9.53485
▁jern	-9.53503
last	-9.53565
▁hvilke	-9.53581
▁tele	-9.53597
▁stand	-9.53678
▁gran	-9.53708
▁sky	-9.53743
▁kart	-9.53777
▁cm	-9.53928
39	-9.53969
▁hall	-9.54085
ål	-9.54228
▁informasjon	-9.5426
▁2016	-9.54264
▁falt	-9.54323
▁vitenskapelig	-9.54342
gruppe	-9.54449
▁valget	-9.54508
▁skape	-9.54611
▁begrepet	-9.54634
▁brev	-9.5465
▁iii	-9.54662
▁stilling	-9.54857
▁gje	-9.54875
▁pop	-9.55031
▁son	-9.55065
▁af	-9.55106
▁opprinnelse	-9.55121
▁fengsel	-9.55121
▁rapport	-9.55121
▁1978	-9.55138
▁2015	-9.55147
▁martin	-9.55187
▁bygningen	-9.55227
▁likhet	-9.55258
▁journalist	-9.55322
▁latin	-9.55407
▁musiker	-9.55497
▁irland	-9.55534
▁anlegget	-9.55571
▁wo	-9.55572
▁maskin	-9.55637
gift	-9.55678
▁tanke	-9.55704
▁don	-9.55907
▁gutt	-9.55987
▁østerrike	-9.56007
▁kristne	-9.56007
skog	-9.56031
78	-9.5604
▁fot	-9.56047
▁stadig	-9.56052
▁henhold	-9.56058
▁finans	-9.56123
forbund	-9.56214
▁avisen	-9.56223
lagt	-9.56223
ther	-9.56377
▁gifte	-9.56386
vid	-9.5641
▁slekten	-9.5647
ringer	-9.56544
band	-9.5663
ire	-9.56659
▁front	-9.56851
▁bevart	-9.56915
▁sel	-9.56965
elige	-9.56975
organ	-9.56982
anlegg	-9.56991
38	-9.57212
▁aktivitet	-9.57241
▁het	-9.5735
▁dyre	-9.57451
59	-9.57562
▁nederlandsk	-9.57587
▁sovjetisk	-9.57692
skolen	-9.57764
▁huset	-9.57772
▁betrakte	-9.578
▁relativ	-9.578
▁snakke	-9.57815
▁eiendom	-9.5788
▁grå	-9.57931
▁maler	-9.57931
▁soldater	-9.57933
nivå	-9.58006
▁sette	-9.58021
▁grenser	-9.58027
gangen	-9.58057
▁un	-9.58082
▁redaktør	-9.58168
▁utført	-9.58172
44	-9.58204
▁inter	-9.58225
formet	-9.58338
▁nådd	-9.58383
92	-9.5846
bø	-9.58521
▁kir	-9.58562
▁uavhengig	-9.58583
senter	-9.58706
sekretær	-9.58709
▁lengre	-9.58712
▁1952	-9.58724
▁merke	-9.58736
cc	-9.58748
▁kv	-9.58757
kket	-9.58774
▁gy	-9.58801
▁slå	-9.58854
▁runde	-9.5886
▁høyt	-9.58898
▁oppdrag	-9.58906
▁nærings	-9.58954
fart	-9.58956
▁varme	-9.58967
gående	-9.59024
▁fyr	-9.59046
▁fylkes	-9.59138
stru	-9.59233
▁eid	-9.59342
▁plante	-9.59367
lling	-9.59576
stav	-9.59587
▁skottland	-9.59626
▁produsere	-9.59627
▁college	-9.5963
▁lansert	-9.5963
▁1971	-9.5964
▁1963	-9.59642
dra	-9.59644
▁omtalt	-9.59654
▁borg	-9.59659
▁strekke	-9.5974
▁athen	-9.59773
▁not	-9.59902
mot	-9.59908
hel	-9.59945
gna	-9.6002
▁års	-9.60029
▁formel	-9.60048
skrift	-9.60113
organisasjon	-9.60119
▁enten	-9.60154
rang	-9.60244
ild	-9.60301
▁utvidet	-9.60325
trolig	-9.60515
▁konflikt	-9.60552
▁ytterligere	-9.60552
kapasitet	-9.60554
stasjon	-9.60557
▁ting	-9.60593
▁omfattende	-9.60599
part	-9.60632
▁variant	-9.60643
▁egypt	-9.60651
▁utviklingen	-9.6069
▁plassering	-9.60713
▁distrikt	-9.60741
▁viktige	-9.60783
fisk	-9.608
▁transport	-9.60839
▁kraftverk	-9.60866
▁vist	-9.60992
program	-9.61049
maskin	-9.6107
▁lot	-9.61105
systemet	-9.61122
▁femte	-9.61299
navnet	-9.61431
minister	-9.61444
▁tan	-9.61468
▁johannes	-9.61494
▁1924	-9.61498
▁1946	-9.61502
▁1968	-9.61502
▁fotballspiller	-9.61516
▁revolusjon	-9.61517
hal	-9.61613
▁klubb	-9.61625
▁you	-9.61767
▁fordelt	-9.61775
eier	-9.61816
▁spørsmål	-9.61921
69	-9.62024
fag	-9.62026
▁artist	-9.62263
▁lage	-9.62282
▁ledd	-9.62359
fest	-9.62393
▁økonomi	-9.62429
▁tilgjengelig	-9.6243
▁1958	-9.62446
▁1966	-9.6245
▁fremdeles	-9.62464
▁søster	-9.62487
dals	-9.62577
gl	-9.62594
▁ungdoms	-9.62603
pris	-9.62605
▁dersom	-9.62626
▁vold	-9.62737
▁naturlig	-9.62753
med	-9.62758
▁70	-9.62835
grav	-9.62863
76	-9.63056
▁strøm	-9.63066
▁gården	-9.63102
ial	-9.63115
▁nasjonale	-9.63184
yd	-9.63326
valg	-9.6337
▁komponist	-9.63383
▁1928	-9.63393
▁1955	-9.63401
93	-9.63452
▁bakgrunn	-9.63633
▁design	-9.63762
▁offiser	-9.63773
67	-9.63887
lek	-9.63899
grunn	-9.63925
hav	-9.63939
▁ken	-9.63988
felt	-9.6403
▁øyene	-9.6408
▁nevnt	-9.64114
fører	-9.64218
løse	-9.64258
▁lars	-9.64332
▁gru	-9.64482
▁hei	-9.64489
▁grønn	-9.64508
ledes	-9.64513
▁gate	-9.64536
vig	-9.64559
lys	-9.64577
▁hår	-9.64585
▁tusen	-9.64619
hund	-9.64665
▁dan	-9.64682
▁fremme	-9.64711
▁presse	-9.64772
▁polen	-9.64808
▁forsknings	-9.6483
▁folket	-9.64834
▁grense	-9.64904
▁fjellet	-9.64925
bry	-9.64949
hall	-9.64962
▁trak	-9.64963
▁sjef	-9.64991
64	-9.65069
▁distriktet	-9.65077
ano	-9.65098
løper	-9.65109
▁war	-9.65121
▁lin	-9.65132
bus	-9.65156
▁sluttet	-9.65187
fin	-9.65209
▁strid	-9.65212
kro	-9.65212
är	-9.65217
▁middelalderen	-9.65247
▁ev	-9.6526
54	-9.65268
▁festival	-9.6532
▁bronsemedalje	-9.65327
▁organisasjonen	-9.65365
▁bane	-9.65396
ara	-9.65403
▁union	-9.6542
▁king	-9.65426
58	-9.65479
▁oppgave	-9.65502
uc	-9.65511
▁hoff	-9.65526
▁90	-9.6557
kin	-9.6562
linje	-9.65647
▁opprinnelige	-9.65657
▁tegne	-9.65676
▁kommuner	-9.65756
▁veg	-9.65782
▁reform	-9.65833
elva	-9.65841
▁følger	-9.6588
▁populær	-9.65897
språk	-9.65932
▁mac	-9.65988
holm	-9.66022
saker	-9.66042
▁hjelpe	-9.66089
▁air	-9.66101
▁sent	-9.66111
ani	-9.66156
kirken	-9.66287
▁utbredt	-9.66296
▁nærmest	-9.66297
kh	-9.66493
▁sterke	-9.66502
▁undersøkelse	-9.66523
▁fører	-9.6654
trekk	-9.66607
▁stemme	-9.66692
▁organisasjon	-9.66707
63	-9.66748
▁time	-9.66768
▁base	-9.6677
▁kreve	-9.66828
asjoner	-9.66964
62	-9.66989
▁østlig	-9.67041
gav	-9.67065
gikk	-9.67069
▁salg	-9.67136
▁pen	-9.67185
▁national	-9.67286
▁united	-9.67286
▁bø	-9.67295
▁1912	-9.67296
▁jernbane	-9.67368
▁grev	-9.67371
ritt	-9.67395
08	-9.67405
zhou	-9.67452
▁vanlige	-9.67499
nik	-9.67537
vit	-9.67548
▁regi	-9.67576
forsker	-9.67604
▁stift	-9.67612
▁wil	-9.67632
ved	-9.67642
folkerepublikken	-9.67649
▁bern	-9.67665
ple	-9.67707
▁heter	-9.67733
▁tale	-9.67736
▁privat	-9.67807
eide	-9.67809
▁grand	-9.67822
våpen	-9.6793
4	-9.67944
▁sub	-9.67947
▁forskning	-9.68005
▁karakter	-9.68033
▁utvikle	-9.68072
pre	-9.68182
▁nr	-9.68248
▁mas	-9.68272
▁publikum	-9.68286
▁motsetning	-9.68287
▁1947	-9.68306
▁bibel	-9.68337
▁angeles	-9.68369
▁besøk	-9.68432
▁havn	-9.68537
▁årlig	-9.6854
▁fro	-9.68672
▁kjerne	-9.68732
mund	-9.68901
kunst	-9.68905
▁nils	-9.68977
▁sund	-9.69023
iver	-9.6905
▁stykke	-9.69069
94	-9.69077
▁sveits	-9.69087
▁mw	-9.69099
▁grupper	-9.69127
følgende	-9.69155
▁kontor	-9.69217
ð	-9.69296
▁1954	-9.69313
▁ordfører	-9.69314
34	-9.69344
▁korte	-9.69377
▁rot	-9.69404
▁preg	-9.6942
68	-9.69422
▁unntak	-9.69434
off	-9.69466
øyene	-9.69491
▁hor	-9.69546
fon	-9.69606
00	-9.6963
▁tettsted	-9.69644
61	-9.69662
▁vinner	-9.69686
49	-9.69691
fil	-9.69713
▁formann	-9.69848
midler	-9.69898
stoff	-9.6991
har	-9.69911
gjøre	-9.69997
medlem	-9.70001
lie	-9.70024
skifte	-9.70062
▁skjer	-9.70169
▁røde	-9.70212
л	-9.70316
е	-9.70316
▁kunnskap	-9.70318
▁fjerne	-9.70337
▁skilt	-9.70339
field	-9.70368
vekt	-9.70404
52	-9.70526
▁overgang	-9.70543
▁stre	-9.70543
▁total	-9.70612
vømm	-9.70614
▁nyere	-9.70824
aktig	-9.70863
vesen	-9.70941
51	-9.71048
▁sau	-9.71078
57	-9.71103
74	-9.71245
▁sommerfugl	-9.71365
▁spill	-9.71375
42	-9.71403
▁bosatt	-9.71528
▁program	-9.71734
rio	-9.7177
▁ung	-9.71815
86	-9.71818
table	-9.71932
fang	-9.71942
▁munn	-9.71987
▁mun	-9.72078
85	-9.72104
verket	-9.72148
ance	-9.72174
▁forfatteren	-9.72232
▁ep	-9.72234
▁uke	-9.72275
▁mengde	-9.72315
▁middel	-9.72376
▁brøt	-9.72394
▁harald	-9.72411
▁jarl	-9.72417
▁ball	-9.72457
▁gjennomført	-9.7251
▁mangle	-9.72557
loven	-9.72562
▁mottok	-9.7259
▁høye	-9.72628
▁anne	-9.72632
▁problem	-9.72633
▁bind	-9.72648
▁operasjon	-9.72693
▁nabo	-9.72719
▁fla	-9.72728
60	-9.72743
åk	-9.72887
▁slave	-9.72921
▁øke	-9.72947
87	-9.7297
▁sier	-9.73151
25	-9.73178
på	-9.73201
▁betegnelsen	-9.73201
ix	-9.73246
▁utover	-9.73381
▁gått	-9.73427
▁california	-9.73441
▁elektrisk	-9.73441
▁publisert	-9.73441
▁ishockey	-9.73441
▁kritikk	-9.73442
▁norrøn	-9.73445
▁james	-9.73446
gjorde	-9.73528
stå	-9.73629
▁sn	-9.73668
▁hud	-9.73724
▁områdene	-9.73773
▁enda	-9.73774
▁lø	-9.73843
partiet	-9.73852
▁klart	-9.73868
▁hell	-9.74052
▁sport	-9.74085
rick	-9.74086
klubb	-9.74114
▁gangen	-9.74193
▁aust	-9.74258
43	-9.74264
▁støttet	-9.7434
rådet	-9.74342
▁stille	-9.74352
▁char	-9.74388
▁beskytte	-9.74402
spor	-9.74404
è	-9.74483
▁alternativ	-9.74505
▁religion	-9.74505
▁vunnet	-9.74506
▁typisk	-9.74507
bia	-9.74521
▁1949	-9.74523
▁leir	-9.74552
46	-9.74571
▁ledende	-9.7458
▁slott	-9.74675
selskapet	-9.74856
▁45	-9.74859
▁35	-9.74883
▁ze	-9.74902
▁tittel	-9.74952
▁uker	-9.74962
lia	-9.74984
▁metode	-9.75014
▁tids	-9.75038
▁teksten	-9.75092
▁kroner	-9.75094
▁gass	-9.75099
▁ansatt	-9.75181
gjort	-9.75238
▁sur	-9.75278
▁lek	-9.75288
korps	-9.75317
▁bevis	-9.75379
▁tour	-9.75385
qu	-9.7539
▁konkurranse	-9.75449
▁georg	-9.75488
▁ger	-9.75512
▁filosofi	-9.7558
▁mexico	-9.75581
▁teknisk	-9.75581
▁yngre	-9.75582
▁fokus	-9.75583
▁musikkalbum	-9.75592
▁1942	-9.75598
▁1962	-9.75599
▁helge	-9.75663
▁styrt	-9.75667
▁turner	-9.75681
▁jorden	-9.75728
▁jakt	-9.75784
well	-9.75805
▁type	-9.75874
▁prosjekt	-9.75897
▁lind	-9.75982
ova	-9.76011
▁vid	-9.76041
▁zh	-9.76138
▁verne	-9.76172
72	-9.7618
▁tyn	-9.76275
▁fc	-9.76308
▁ok	-9.76314
▁representant	-9.76345
lar	-9.7646
plasser	-9.76547
wood	-9.76555
▁allierte	-9.76668
▁tydelig	-9.76669
▁ridder	-9.7667
▁lengst	-9.76672
ball	-9.76673
▁friidrett	-9.76687
▁black	-9.76702
▁kast	-9.76709
int	-9.76727
▁ordenen	-9.76737
▁vind	-9.76775
▁jøde	-9.76807
▁utgave	-9.76836
▁stoppe	-9.76906
mid	-9.76921
arbeider	-9.77012
▁mulighet	-9.77021
▁endelig	-9.77049
41	-9.77074
▁byer	-9.77095
din	-9.77107
000	-9.77126
▁sul	-9.77128
sser	-9.77129
kropp	-9.77222
shire	-9.77233
▁anders	-9.77249
▁systemet	-9.77435
tek	-9.77653
▁mistet	-9.77658
▁cent	-9.77675
vinner	-9.77755
▁innflytelse	-9.77762
▁wilhelm	-9.77766
▁stadion	-9.77769
rike	-9.77777
▁bidro	-9.77787
▁1700	-9.7781
▁behov	-9.77841
▁innsats	-9.77867
stri	-9.77886
mper	-9.77978
▁prisen	-9.77991
71	-9.78113
▁nes	-9.78114
nyin	-9.78175
▁meg	-9.78237
▁kilde	-9.78239
ins	-9.78252
▁institutt	-9.78265
▁150	-9.78294
▁sider	-9.78334
▁opphav	-9.784
▁åpne	-9.78485
▁idretts	-9.78501
formen	-9.78536
kultur	-9.78641
▁can	-9.78663
stått	-9.78725
▁met	-9.78773
▁rekord	-9.78881
▁1953	-9.78893
▁charles	-9.789
37	-9.78926
▁tredjeplass	-9.78966
▁holder	-9.7905
▁toppen	-9.79082
▁cup	-9.79146
cher	-9.79255
89	-9.79338
ind	-9.79339
▁løv	-9.79379
▁kongelige	-9.79392
▁dø	-9.79414
▁produsent	-9.79519
▁rykke	-9.79545
▁skriver	-9.79749
sens	-9.79771
kjær	-9.79849
▁international	-9.80001
▁profesjonell	-9.80001
▁beijing	-9.80001
▁1937	-9.80018
▁1908	-9.8002
▁1938	-9.80022
▁1500	-9.80037
ish	-9.80046
▁lavere	-9.80112
▁spa	-9.80118
▁nar	-9.80131
04	-9.80134
skjold	-9.80178
15	-9.80233
▁registrert	-9.80242
havet	-9.80243
▁sort	-9.80294
83	-9.80322
75	-9.80444
▁junior	-9.80446
▁mø	-9.80492
▁daglig	-9.80502
hev	-9.80515
▁sønnen	-9.80551
gra	-9.80575
▁ansatte	-9.80622
▁materiale	-9.80681
▁us	-9.80786
kkel	-9.80883
▁hed	-9.81013
anser	-9.81039
▁hurtig	-9.81137
▁installert	-9.81137
▁episode	-9.81138
▁ekteskap	-9.8115
▁mytologi	-9.81154
▁snart	-9.81161
▁1939	-9.81162
▁bad	-9.81216
▁antatt	-9.81248
▁akt	-9.81266
haug	-9.81298
▁koll	-9.81363
▁metal	-9.81425
▁dal	-9.81427
prisen	-9.81447
▁språket	-9.8145
▁viking	-9.81513
jan	-9.81538
▁utdannelse	-9.81548
81	-9.81548
▁py	-9.81558
▁iso	-9.818
delen	-9.81883
▁klassen	-9.81902
▁vet	-9.81953
▁økt	-9.82067
▁spiss	-9.82114
▁moskva	-9.82287
▁passasjer	-9.82287
▁elev	-9.82291
▁straffe	-9.82308
▁1959	-9.82308
▁trafikk	-9.8231
kov	-9.82334
▁derimo	-9.82355
▁aksje	-9.82359
▁livs	-9.8237
▁skaffe	-9.82408
▁gjenopp	-9.82414
▁solgte	-9.8258
▁she	-9.82664
▁hum	-9.82687
▁tal	-9.827
løpet	-9.82715
▁linjen	-9.82884
serien	-9.83015
trådte	-9.83021
cha	-9.83074
vitenskap	-9.83082
lund	-9.83089
person	-9.8309
▁populære	-9.83099
tis	-9.83215
stid	-9.83367
73	-9.83385
ordenen	-9.83393
95	-9.83402
▁finsk	-9.83424
▁tilknytte	-9.8345
linjen	-9.83461
▁sykehus	-9.83467
visning	-9.83474
▁jevn	-9.83507
▁nedlagt	-9.83515
▁forretnings	-9.83519
az	-9.83579
gon	-9.83606
▁behandling	-9.8364
ola	-9.83674
preget	-9.83685
▁strand	-9.83689
▁tema	-9.83689
rek	-9.837
▁singel	-9.83749
▁kam	-9.83786
▁utdanning	-9.83961
▁vannet	-9.83988
▁por	-9.84023
▁spesial	-9.84241
▁drive	-9.84243
zz	-9.84257
arm	-9.84285
▁banen	-9.84309
win	-9.84371
▁landsby	-9.8439
ona	-9.84455
cia	-9.84529
▁stammer	-9.84536
53	-9.84611
▁spesiell	-9.84626
▁tolv	-9.84638
▁1932	-9.84638
▁1918	-9.84643
▁1941	-9.84644
▁1951	-9.84645
▁korea	-9.84675
▁andreplass	-9.84675
ban	-9.84679
▁stasjonen	-9.84691
plikt	-9.8471
79	-9.84834
regionen	-9.8487
kjøp	-9.84991
▁normalt	-9.85021
21	-9.85081
▁forteller	-9.85095
▁bibliotek	-9.85125
▁studier	-9.85253
65	-9.85275
klubben	-9.85301
forskning	-9.85318
18	-9.85402
▁mes	-9.85429
liv	-9.85456
▁rygg	-9.85496
kamera	-9.85535
▁riket	-9.85578
▁turist	-9.856
▁måned	-9.85619
▁hard	-9.85634
krets	-9.85688
kommune	-9.85717
endring	-9.8572
▁bonde	-9.85771
▁fugle	-9.85781
lov	-9.85787
▁offisielt	-9.85817
▁dialekt	-9.85817
▁world	-9.85817
▁louis	-9.85817
▁redusert	-9.85818
▁melodi	-9.85819
▁gitar	-9.8582
▁1917	-9.85831
▁1921	-9.85833
▁1934	-9.85835
gren	-9.85862
hjul	-9.85883
▁ask	-9.85956
senteret	-9.85966
▁oppnådd	-9.85983
▁lund	-9.8607
▁thor	-9.86077
fat	-9.86132
▁representanter	-9.86171
▁økte	-9.86178
▁beskrevet	-9.86233
▁historiker	-9.86239
snitt	-9.86254
▁fordel	-9.86298
▁masse	-9.86456
▁temperatur	-9.86471
pel	-9.86533
ula	-9.86577
▁kjøpe	-9.8659
▁kanon	-9.86597
▁benytte	-9.86603
fu	-9.86666
▁gjeste	-9.86856
slaget	-9.86886
vekst	-9.86892
▁aller	-9.869
▁buss	-9.8691
▁timer	-9.87013
▁fullstendig	-9.87021
▁league	-9.87021
▁tilknytning	-9.87021
▁østerriksk	-9.87021
▁frykt	-9.87022
▁spillet	-9.87026
▁1933	-9.8703
▁våren	-9.87043
▁fullført	-9.87051
sang	-9.87062
▁jordbruk	-9.87068
▁nærheten	-9.87099
▁konkurransen	-9.87118
▁bord	-9.87137
▁knut	-9.87167
▁mill	-9.87181
▁nan	-9.87194
▁undervisning	-9.87234
90	-9.87325
▁leo	-9.87347
10	-9.87387
ich	-9.87441
mus	-9.87626
▁forsvars	-9.87643
▁ban	-9.87655
▁kg	-9.87687
▁star	-9.87785
hm	-9.87817
09	-9.87826
ney	-9.87877
press	-9.88003
▁solo	-9.88191
▁nordland	-9.88232
▁anledning	-9.88242
▁sistnevnte	-9.88242
▁foreldre	-9.88243
▁avhengig	-9.88244
▁tidspunkt	-9.88255
▁hovedstad	-9.88289
▁kost	-9.8829
▁prins	-9.8833
▁riksvei	-9.88334
▁stamme	-9.88472
84	-9.88478
▁republikken	-9.88489
gler	-9.88533
▁saken	-9.88618
▁overført	-9.88648
▁minutter	-9.88655
▁sist	-9.88657
gå	-9.88714
kra	-9.88863
▁frank	-9.88872
▁lignende	-9.88874
▁hører	-9.88922
▁up	-9.88937
▁synes	-9.88964
▁vendt	-9.89056
▁dekket	-9.89123
▁ungdom	-9.89137
▁800	-9.89256
▁test	-9.8929
▁tidlige	-9.89328
▁studenter	-9.89366
møte	-9.89379
▁sports	-9.89426
▁sportsutøver	-9.89475
▁hjerte	-9.89477
▁fattig	-9.89477
▁nærmere	-9.8948
illa	-9.89499
arter	-9.8956
▁cel	-9.89608
lære	-9.89628
dro	-9.89763
▁32	-9.89861
▁hellige	-9.89868
▁stoff	-9.90086
▁ob	-9.90148
ville	-9.90181
▁senter	-9.90238
ram	-9.90262
▁danse	-9.90275
▁dog	-9.90278
▁motiv	-9.90289
▁dommer	-9.90336
▁normal	-9.90343
▁bol	-9.90343
▁sko	-9.90346
▁turneringen	-9.90366
▁magn	-9.90413
voll	-9.90428
▁retts	-9.90498
que	-9.90519
ér	-9.90535
▁song	-9.90556
▁hage	-9.90582
▁filmer	-9.90584
▁havne	-9.90615
strøm	-9.90622
orm	-9.90701
▁fisk	-9.90701
в	-9.90718
▁berømt	-9.90725
▁kategori	-9.90725
▁school	-9.90726
▁bosetning	-9.90727
▁markeds	-9.90729
sis	-9.9073
▁invest	-9.90731
lapp	-9.90743
▁1000	-9.90799
fjell	-9.90802
▁spanske	-9.90959
▁hind	-9.91043
▁medisin	-9.91105
▁status	-9.91108
▁regjerings	-9.91135
▁bombe	-9.91145
▁cd	-9.91234
▁åpning	-9.91244
▁alf	-9.91399
▁landskapet	-9.91422
trukket	-9.9145
▁offentlige	-9.91563
▁tettstedet	-9.91599
▁jule	-9.91623
▁vær	-9.91675
▁rang	-9.91696
nos	-9.91865
▁ram	-9.91891
▁himmel	-9.91992
teknikk	-9.91992
▁premier	-9.91993
▁royal	-9.91994
▁bispedømme	-9.92
mynt	-9.92
jev	-9.92005
▁rollen	-9.92025
▁hustru	-9.92025
▁uttalt	-9.92048
▁hentet	-9.92049
▁score	-9.92058
▁fan	-9.92066
eksamen	-9.92103
▁effektiv	-9.92177
▁harry	-9.92184
ios	-9.9224
▁motstander	-9.9226
▁ara	-9.92372
▁cro	-9.92427
▁problemer	-9.92443
11	-9.92461
▁led	-9.92487
svik	-9.92508
▁ven	-9.92545
▁teknologi	-9.92689
▁begynner	-9.92838
▁funn	-9.9284
▁ube	-9.92897
fugl	-9.93104
▁jens	-9.93169
▁benyttes	-9.93241
gaard	-9.93272
▁erklært	-9.93273
▁richard	-9.93274
park	-9.93281
▁tog	-9.933
▁metall	-9.93301
▁flekk	-9.9336
skipet	-9.93374
▁søke	-9.93416
▁lyn	-9.93433
trinn	-9.93452
▁selve	-9.93456
▁organisert	-9.93472
▁forekommer	-9.93549
low	-9.93554
▁rose	-9.93569
▁insekter	-9.93597
▁endre	-9.93626
▁kjønn	-9.93651
▁haug	-9.9383
▁ris	-9.93831
sil	-9.93884
▁opphold	-9.93914
▁makten	-9.9399
▁stol	-9.93991
▁shi	-9.94012
uten	-9.9402
▁handle	-9.94052
dagen	-9.94203
▁rein	-9.94256
mond	-9.94383
▁eg	-9.94398
▁sosiale	-9.94431
▁spansk	-9.94435
virksomhet	-9.94521
figur	-9.94523
▁antagelig	-9.94572
▁oversikt	-9.94573
▁klima	-9.94574
vatnet	-9.94577
▁invasjon	-9.94577
▁unngå	-9.94577
prinsipp	-9.94584
▁sølvmedalje	-9.94592
▁1961	-9.94593
▁videregående	-9.94611
▁dokumenter	-9.94651
▁kanal	-9.94663
gle	-9.94715
▁peder	-9.94864
▁angrepet	-9.94925
▁kjøl	-9.94953
▁overfor	-9.94975
▁indisk	-9.95119
19	-9.95128
gata	-9.9515
▁uni	-9.95197
▁private	-9.952
▁ligne	-9.95217
▁rute	-9.95217
▁stilte	-9.95224
▁kilder	-9.95301
▁avsluttet	-9.95364
▁utvalg	-9.9569
▁selvstendig	-9.95764
▁rask	-9.95821
▁vakt	-9.95831
trafikk	-9.95853
bjørn	-9.95857
▁michael	-9.95888
▁hemmelig	-9.95888
▁ødelagt	-9.95889
▁sekund	-9.95898
▁jazz	-9.9591
▁fredrik	-9.95912
▁verket	-9.95914
▁sykdom	-9.9592
▁polsk	-9.95926
▁typer	-9.95948
▁avholdt	-9.95991
▁overflate	-9.96005
▁kvinnelige	-9.96009
▁horn	-9.96019
▁versjonen	-9.96045
▁vekst	-9.96055
▁cal	-9.96119
motor	-9.96159
▁objekt	-9.96208
iserte	-9.96299
▁gram	-9.963
▁salt	-9.96359
▁ph	-9.96392
▁cap	-9.96432
▁north	-9.9645
plassen	-9.9645
plate	-9.96472
▁markert	-9.96583
nær	-9.96643
▁penge	-9.96652
strand	-9.96712
▁utsatt	-9.96792
▁arve	-9.96803
▁ankom	-9.96849
▁vinne	-9.96872
▁festning	-9.96903
▁spre	-9.96932
▁samfunn	-9.96965
ali	-9.97112
jon	-9.97192
bånd	-9.97201
▁etterfulgt	-9.97221
▁edvard	-9.97222
▁kristen	-9.9723
▁levde	-9.97234
▁1943	-9.97242
▁1957	-9.97243
▁nordisk	-9.97243
▁ukjent	-9.9727
▁hersker	-9.97286
▁lyse	-9.9729
▁administrativ	-9.97293
▁dato	-9.97358
▁fylket	-9.97414
▁jean	-9.97546
san	-9.97582
▁bevegelse	-9.97648
▁tilfelle	-9.97691
stripe	-9.97737
▁borgerkrig	-9.97805
verdig	-9.97806
▁instrument	-9.97844
duk	-9.97867
▁dømt	-9.97886
dus	-9.98122
▁fløy	-9.98196
▁rh	-9.98226
▁bry	-9.98395
▁stav	-9.98438
our	-9.98446
klassen	-9.98523
▁introdusert	-9.98573
▁joseph	-9.98573
▁kontinent	-9.98573
▁alvorlig	-9.98573
▁studere	-9.98574
▁nektet	-9.98576
▁alpin	-9.98585
▁1929	-9.98586
▁skotsk	-9.98599
▁forkorte	-9.98639
▁ekstra	-9.98664
▁tverr	-9.987
▁forstå	-9.98723
pass	-9.9876
studi	-9.98782
▁mid	-9.98852
▁orkester	-9.98991
▁ansvar	-9.99011
delingen	-9.99012
▁mad	-9.99024
▁oversatt	-9.9932
▁gard	-9.9935
avdeling	-9.99428
▁kreft	-9.99448
▁tunnel	-9.99506
dekke	-9.99519
▁bidra	-9.99538
▁bunn	-9.99544
▁sti	-9.99561
▁tromsø	-9.99569
listen	-9.99661
▁hill	-9.99669
▁tang	-9.99743
▁svak	-9.99744
17	-9.99747
▁latinsk	-9.99775
▁oss	-9.99828
н	-9.99932
festival	-9.99935
▁1906	-9.99942
▁pasient	-9.99943
▁finnmark	-9.99943
▁øvre	-9.99943
▁arabisk	-9.99945
▁flertall	-9.99949
▁oscar	-9.99953
▁1914	-9.99955
▁1922	-9.99955
vokst	-9.99969
▁meldt	-9.99976
▁flagg	-9.99978
middel	-9.9999
mod	-10
▁resultatet	-10.0023
▁tonn	-10.0023
bevegelsen	-10.003
foss	-10.0035
ough	-10.0036
enberg	-10.0043
hard	-10.0044
▁hode	-10.0046
istene	-10.0047
▁pet	-10.0048
▁mol	-10.0061
▁eva	-10.0062
▁kontrakt	-10.0064
▁trener	-10.0067
staten	-10.0074
35	-10.0074
▁utstilling	-10.0077
▁kil	-10.0079
▁bygde	-10.0092
arbeidet	-10.0098
▁opptre	-10.0105
▁tilfeller	-10.0107
▁kloster	-10.0108
▁forsvaret	-10.011
▁anna	-10.0112
stedet	-10.0113
▁odd	-10.0129
▁ya	-10.0132
▁guvernør	-10.0133
▁nominert	-10.0133
▁arrangere	-10.0133
▁belgia	-10.0133
▁ungarn	-10.0133
▁begrenset	-10.0133
▁rammet	-10.0134
▁1931	-10.0134
samfunn	-10.0137
▁armé	-10.0143
▁anlegg	-10.0149
ira	-10.0153
▁samarbeidet	-10.0156
▁dynastiet	-10.0162
▁praksis	-10.0163
▁oversettelse	-10.0164
▁representerer	-10.0171
kampen	-10.0178
ott	-10.0181
▁involvert	-10.0182
23	-10.0183
97	-10.019
▁internasjonal	-10.0194
▁bydelen	-10.0202
handel	-10.0203
serie	-10.0203
ky	-10.0206
▁samfunnet	-10.0207
▁scene	-10.0209
uf	-10.0209
hn	-10.021
mesterskapet	-10.0211
▁epi	-10.0211
▁kata	-10.0219
án	-10.0242
iger	-10.0246
▁dj	-10.026
▁bio	-10.0261
▁kha	-10.0262
▁listen	-10.0263
▁penger	-10.0268
gin	-10.027
▁od	-10.0271
▁sjelden	-10.0274
▁jacob	-10.0274
▁islam	-10.0275
▁skøyt	-10.0276
konkurranse	-10.028
distrikt	-10.028
▁deltaker	-10.0285
▁pensjon	-10.0298
▁tyskerne	-10.0298
feltet	-10.0304
▁atom	-10.0304
bakken	-10.0305
▁mik	-10.0313
ingeniør	-10.0323
▁kvalitet	-10.0326
16	-10.0327
forestilling	-10.0329
kritiker	-10.0334
▁france	-10.0341
▁stå	-10.0346
ryd	-10.0346
jiang	-10.0352
tallet	-10.0352
▁landsbyen	-10.0353
blad	-10.0354
▁skjøn	-10.0361
▁reist	-10.0361
▁klo	-10.0365
▁fortsette	-10.0373
▁kandidat	-10.0373
▁kampene	-10.0383
▁deles	-10.0384
▁korn	-10.0394
▁rå	-10.04
▁south	-10.0401
▁vitenskap	-10.041
▁bakken	-10.041
▁forskjell	-10.041
ella	-10.0414
▁eksempler	-10.0417
▁muslim	-10.0417
▁1904	-10.0419
▁flyet	-10.042
skij	-10.042
▁bygninger	-10.0422
▁1600	-10.0422
▁hovedsak	-10.0424
prosjekt	-10.0425
24	-10.0425
▁mikro	-10.0427
▁betegne	-10.0428
▁provins	-10.0429
▁sammenlagt	-10.0431
▁tvang	-10.0435
avtale	-10.0442
▁bob	-10.0445
▁styret	-10.0449
▁stemmer	-10.0451
drakt	-10.0454
▁fyrst	-10.0462
▁kvart	-10.0472
deles	-10.0477
▁holm	-10.0486
▁real	-10.0502
▁tha	-10.0503
36	-10.0504
▁sag	-10.0507
▁skapte	-10.0514
▁tårn	-10.0518
atisk	-10.0518
▁føre	-10.0528
språklig	-10.0542
ij	-10.0547
▁pal	-10.0553
stall	-10.0554
myndighet	-10.0559
с	-10.0561
к	-10.0561
▁bilen	-10.0562
▁dollar	-10.0562
▁fungere	-10.0562
▁myndighetene	-10.0562
▁ark	-10.0563
▁skiftet	-10.0565
▁beslutte	-10.0565
kommisjon	-10.0565
▁veldig	-10.0568
slått	-10.0571
▁hydro	-10.0573
96	-10.0578
gården	-10.0581
▁båten	-10.0581
element	-10.0584
▁pala	-10.0591
▁gjenstand	-10.0595
▁36	-10.0596
▁hindre	-10.0601
▁utføre	-10.0615
▁flytte	-10.062
▁sivile	-10.0637
▁mørke	-10.0643
▁fjord	-10.0645
ón	-10.0647
▁imot	-10.066
▁irsk	-10.066
gjør	-10.0667
lyst	-10.0672
28	-10.0674
▁former	-10.0676
▁liberal	-10.0683
slekt	-10.069
▁stillingen	-10.0701
▁turn	-10.0701
▁lagene	-10.0702
oth	-10.0705
▁synge	-10.0708
▁eventyr	-10.0709
▁fødsel	-10.0709
▁generelt	-10.0709
▁medlemmene	-10.071
▁spredt	-10.071
▁1919	-10.0711
▁bevege	-10.0713
▁løper	-10.0715
▁saint	-10.0718
▁albert	-10.0719
front	-10.0721
historie	-10.0722
hjem	-10.0723
▁spise	-10.073
døde	-10.0736
▁handel	-10.0741
▁salme	-10.0746
▁sku	-10.075
▁skatte	-10.0755
trær	-10.0759
▁kalle	-10.0768
foreningen	-10.0788
deler	-10.0791
ada	-10.0795
▁ji	-10.0799
▁skylde	-10.0802
pha	-10.0824
▁pin	-10.0827
45	-10.083
alistisk	-10.0831
▁vinteren	-10.0834
▁kjempe	-10.0836
nasjon	-10.084
▁velge	-10.0848
▁kristian	-10.0851
▁inspirert	-10.0858
▁kvalifisering	-10.0858
▁portugal	-10.0858
▁geografisk	-10.0858
▁primær	-10.0858
▁utenlandsk	-10.0859
▁1916	-10.086
▁1935	-10.086
▁medaljer	-10.0861
▁pot	-10.0862
98	-10.0867
▁kull	-10.087
▁bryst	-10.0871
▁arkitektur	-10.0872
▁fortalt	-10.0892
▁underlagt	-10.0893
▁gruve	-10.0894
▁bit	-10.0899
▁sli	-10.0903
▁innsjøen	-10.0904
▁kari	-10.0908
kilden	-10.0911
▁arne	-10.0914
gard	-10.0917
typen	-10.0926
▁museet	-10.093
▁700	-10.093
▁sikker	-10.0931
▁kongens	-10.0933
rich	-10.0946
▁omtale	-10.0947
▁slags	-10.0951
▁starten	-10.0954
fjellet	-10.0957
virke	-10.0957
former	-10.0975
rommet	-10.0992
▁kode	-10.0995
delt	-10.0995
▁innsjø	-10.0998
vinger	-10.1
▁landskap	-10.1
▁lån	-10.1002
▁flyplass	-10.1005
politikk	-10.1006
▁perioder	-10.1007
▁individ	-10.101
løytnant	-10.101
▁beseiret	-10.101
▁tilhørte	-10.101
▁halvparten	-10.101
▁innlemme	-10.101
iblant	-10.101
▁jødisk	-10.101
▁faktisk	-10.101
▁fysisk	-10.101
▁bispe	-10.1011
komité	-10.1011
▁bånd	-10.1012
▁tvunge	-10.1013
▁daniel	-10.1014
▁bekrefte	-10.1014
▁oppmerksomhet	-10.1014
▁may	-10.1015
firma	-10.1018
▁hom	-10.1019
vind	-10.1021
▁single	-10.1022
angrep	-10.1027
▁kaptein	-10.1038
▁ønsker	-10.1039
▁sankt	-10.1039
▁gold	-10.1039
▁tekster	-10.1041
frukt	-10.1041
▁hull	-10.1044
▁sun	-10.1047
▁win	-10.1054
▁olsen	-10.1055
ologisk	-10.1071
▁sete	-10.1076
kled	-10.1078
▁tradisjonelle	-10.108
▁klosteret	-10.1087
▁planter	-10.1095
▁struktur	-10.11
▁øyer	-10.1104
▁konserter	-10.1117
▁populært	-10.1118
▁dor	-10.1121
▁besøkt	-10.1129
▁byttet	-10.1131
hem	-10.1153
makten	-10.116
▁alkohol	-10.1163
▁county	-10.1163
▁anerkjent	-10.1163
▁litterær	-10.1164
▁antenne	-10.1164
▁scott	-10.1165
▁påvirket	-10.1165
▁1925	-10.1166
▁endringer	-10.1166
▁sverd	-10.1169
▁detalj	-10.1173
▁hellas	-10.1173
▁brenn	-10.1177
▁føde	-10.1177
▁foreningen	-10.1185
▁tegneserie	-10.1188
kasse	-10.1189
▁rør	-10.1198
▁omfatte	-10.1199
qui	-10.12
halvøya	-10.12
01	-10.1204
▁grei	-10.1207
12	-10.1209
▁rulle	-10.1222
vannet	-10.1222
▁opptil	-10.1224
▁forble	-10.1234
riket	-10.1235
▁streng	-10.1235
holdsvis	-10.1237
hode	-10.1239
▁music	-10.124
▁bull	-10.1243
▁tvil	-10.125
▁begrep	-10.125
▁edderkopp	-10.1259
finn	-10.1281
26	-10.1296
▁bla	-10.1297
▁75	-10.1304
styrke	-10.1308
▁venner	-10.1312
ander	-10.1313
▁dør	-10.1314
▁1907	-10.132
▁konservativ	-10.132
▁okkupasjon	-10.132
▁hensikt	-10.132
▁hendelsen	-10.132
▁lufthavn	-10.1321
▁etterfølger	-10.1321
▁1915	-10.1322
▁filip	-10.1324
▁religiøse	-10.1328
▁politiet	-10.1329
skudd	-10.1342
▁grader	-10.1342
▁møter	-10.1344
bøker	-10.1347
▁sagt	-10.1349
ence	-10.1352
▁wales	-10.1361
▁johann	-10.1363
▁phil	-10.1365
▁tone	-10.1375
▁institusjon	-10.1386
▁finske	-10.1389
▁tolk	-10.1409
82	-10.1431
▁fabrikk	-10.1433
▁tsj	-10.1433
▁frø	-10.1442
▁flåte	-10.145
▁larven	-10.1459
▁laste	-10.1462
forbundet	-10.1466
▁driver	-10.147
▁vokal	-10.1476
høgskole	-10.1478
konstruksjon	-10.1478
▁fungerte	-10.1478
▁vesentlig	-10.1478
▁vulkan	-10.1478
▁hvem	-10.1478
▁arrestert	-10.1479
konferanse	-10.1479
▁edward	-10.1479
▁1927	-10.148
▁godkjent	-10.148
▁drammen	-10.1481
farge	-10.1483
▁eksport	-10.1484
32	-10.1485
veg	-10.1491
▁utga	-10.1492
▁befinne	-10.1493
▁enheter	-10.1499
▁utøver	-10.1507
▁morgen	-10.1507
kraftverk	-10.1516
▁opptatt	-10.1522
▁advokat	-10.1522
▁halvdel	-10.1523
periode	-10.1524
gate	-10.153
▁bay	-10.1531
forhold	-10.1544
▁andreas	-10.155
▁snø	-10.1552
▁samfunns	-10.1555
områdene	-10.1563
car	-10.1567
▁formen	-10.1567
bakk	-10.1573
ob	-10.1574
▁hekk	-10.1583
▁prosjektet	-10.1583
øvelse	-10.1586
▁tradisjonel	-10.1589
▁bilder	-10.1591
egnet	-10.1602
▁cupen	-10.1608
▁slett	-10.161
stasjonen	-10.162
▁press	-10.1627
▁demokratisk	-10.1628
strid	-10.163
▁argument	-10.164
▁münchen	-10.164
▁positiv	-10.164
▁regissert	-10.164
▁kombinert	-10.164
▁vokser	-10.164
▁hovedrollen	-10.164
▁län	-10.164
▁major	-10.164
▁studio	-10.1641
▁generasjon	-10.1641
▁hotell	-10.1641
▁henholdsvis	-10.1642
▁planlagt	-10.1643
▁vente	-10.1644
vandring	-10.1645
▁hitler	-10.165
▁magnus	-10.1653
▁sørge	-10.166
▁vegg	-10.1663
fabrikk	-10.1666
finalen	-10.1668
▁kommunikasjon	-10.1672
gått	-10.1677
alitet	-10.1691
▁begynne	-10.1694
▁master	-10.1695
▁max	-10.17
▁troll	-10.17
▁vitne	-10.1703
▁motsatt	-10.1703
▁lam	-10.1704
▁ansett	-10.1704
leie	-10.1707
▁nev	-10.171
▁innhold	-10.1718
▁varierer	-10.1722
▁skapt	-10.1722
bringe	-10.1726
▁redde	-10.1759
ity	-10.176
renn	-10.1763
29	-10.1771
▁hunnen	-10.178
mula	-10.1785
▁records	-10.1804
▁artikkel	-10.1804
▁erkebiskop	-10.1804
▁stafett	-10.1804
▁referanse	-10.1804
▁club	-10.1804
▁smith	-10.1804
▁forbedre	-10.1804
▁frederik	-10.1804
situasjon	-10.1804
ов	-10.1805
▁telemark	-10.1806
▁frihet	-10.1806
▁forlenge	-10.1807
▁hensyn	-10.1808
▁programmer	-10.181
▁psykologi	-10.1813
rolle	-10.1823
▁sovjet	-10.1823
galleri	-10.1824
▁soldat	-10.1829
vold	-10.1831
▁bydel	-10.1831
forbindelse	-10.1834
▁kropps	-10.1835
▁forholdet	-10.1836
▁rund	-10.1843
klasse	-10.1848
▁arrangement	-10.1848
▁will	-10.1852
▁evne	-10.1853
▁antikken	-10.1857
▁statlig	-10.1863
▁fantes	-10.1864
▁plateselskap	-10.1867
▁ulykke	-10.187
▁administrasjons	-10.1871
con	-10.1871
▁enkle	-10.1878
13	-10.1881
alisme	-10.1887
komiteen	-10.1891
▁magasin	-10.1894
▁foss	-10.1896
27	-10.1902
▁wei	-10.1909
runde	-10.1911
rakk	-10.1916
▁behandle	-10.1916
kysten	-10.1928
ain	-10.193
▁fartøy	-10.193
▁600	-10.1951
▁damp	-10.1952
▁ama	-10.1956
▁mono	-10.1958
▁sim	-10.1959
▁yu	-10.1964
▁1905	-10.197
▁portugisisk	-10.197
▁washington	-10.197
▁inneholdt	-10.197
▁kombinasjon	-10.197
▁48	-10.1971
▁beholdt	-10.1971
▁bølge	-10.1972
sikkerhet	-10.1974
▁portrett	-10.1976
▁east	-10.1977
▁økende	-10.1983
hov	-10.1994
▁nevnes	-10.1995
▁kino	-10.1995
▁henry	-10.1996
bank	-10.1999
▁internasjonalt	-10.2002
utvikling	-10.2003
▁mottatt	-10.2006
født	-10.2006
▁parken	-10.2009
▁mobil	-10.2014
▁camp	-10.2015
▁kjempet	-10.202
logen	-10.2024
▁andel	-10.2032
▁semifinalen	-10.2032
▁auto	-10.2041
▁stam	-10.2046
industrien	-10.2047
▁bære	-10.2049
▁verdensmester	-10.206
▁administrasjon	-10.207
▁fritt	-10.2073
▁sammenligne	-10.2077
▁kåre	-10.2081
▁aker	-10.2081
▁nm	-10.2083
▁santa	-10.2088
▁keiseren	-10.2094
elli	-10.2119
▁medisinsk	-10.2131
▁eventuel	-10.214
▁regissør	-10.214
▁ødelegge	-10.214
▁akershus	-10.214
▁brensel	-10.214
▁myndigheter	-10.2142
▁protest	-10.2143
▁æres	-10.2146
▁120	-10.2147
▁landene	-10.2147
univers	-10.2149
▁grønland	-10.2149
▁line	-10.2151
▁agder	-10.2157
▁romanen	-10.2169
▁gun	-10.217
▁nasjonalpark	-10.217
hånd	-10.2176
prosess	-10.2176
88	-10.2177
modell	-10.2179
▁lykke	-10.2179
▁cre	-10.2183
sport	-10.2183
▁rettigheter	-10.2185
▁mørk	-10.2196
▁andersen	-10.2202
▁kjemi	-10.2203
▁munk	-10.2207
▁bryte	-10.2213
gul	-10.2222
▁poly	-10.2224
▁minister	-10.2225
▁ansvaret	-10.2228
▁grunnlov	-10.2234
chang	-10.2235
▁sær	-10.2252
▁innlede	-10.2268
▁skuespill	-10.2268
ønne	-10.2278
▁starter	-10.2278
▁kanalen	-10.2279
▁saga	-10.2286
▁jernbanen	-10.2286
løsning	-10.2297
▁forlate	-10.2298
▁disk	-10.23
reise	-10.2306
▁doktorgrad	-10.2312
▁gui	-10.2312
▁kristiansand	-10.2312
▁hendelser	-10.2312
▁radikal	-10.2312
▁praktisk	-10.2312
dannelse	-10.2313
kaffe	-10.2313
▁håkon	-10.2313
▁video	-10.2314
▁løfte	-10.2314
▁monark	-10.2315
▁erfaring	-10.2315
sats	-10.232
▁bevegelsen	-10.232
▁europe	-10.2321
start	-10.2329
▁high	-10.2336
anda	-10.2337
▁poet	-10.2355
grupper	-10.2366
▁fotograf	-10.2368
▁vekk	-10.2375
▁tilhøre	-10.2377
▁anton	-10.2382
▁oppdag	-10.2383
▁snu	-10.2385
▁spenning	-10.2393
▁green	-10.2397
▁etasje	-10.2398
▁dalen	-10.2402
▁human	-10.2408
▁drap	-10.2409
▁sivil	-10.2409
ische	-10.241
▁ana	-10.2423
østregionen	-10.2427
▁grunnlegger	-10.2428
▁37	-10.2431
▁ost	-10.2438
▁avtale	-10.2449
▁larvene	-10.2458
▁storm	-10.2458
▁oppnå	-10.2471
▁innbyggertall	-10.2488
▁science	-10.2488
▁tyrkisk	-10.2488
▁bodø	-10.2488
▁rektor	-10.2488
▁eksistert	-10.2488
▁oppløst	-10.2489
▁anklage	-10.2489
▁1923	-10.249
▁etappe	-10.249
▁brygge	-10.2491
▁ferd	-10.2496
▁stabil	-10.2498
▁rand	-10.2499
▁kapell	-10.2501
rekke	-10.2504
▁modellen	-10.2508
▁isteden	-10.2518
▁gradvis	-10.2519
▁33	-10.2526
miljø	-10.253
amerikansk	-10.253
▁gil	-10.253
stykke	-10.2539
▁dyrke	-10.2541
▁cu	-10.2542
▁alv	-10.2546
nummer	-10.2557
▁erobret	-10.2562
▁ansvarlig	-10.2566
▁bygda	-10.2577
▁fulgt	-10.258
▁nød	-10.2585
▁jente	-10.259
▁larve	-10.2594
skyting	-10.2598
gro	-10.2602
▁selge	-10.2606
fekt	-10.2614
livet	-10.2614
▁terror	-10.2614
vakt	-10.2622
▁rob	-10.2622
▁satse	-10.2643
▁900	-10.265
strek	-10.2664
▁definisjon	-10.2666
▁pakistan	-10.2666
▁referere	-10.2666
stråling	-10.2666
▁kjørt	-10.2667
makt	-10.2667
▁antyde	-10.2668
▁signert	-10.2669
▁debatt	-10.2669
▁mary	-10.2684
▁nasjoner	-10.2685
innspilling	-10.2687
kompleks	-10.2689
▁synlig	-10.2692
▁kim	-10.2695
▁kommando	-10.2705
museum	-10.2712
▁sørover	-10.2713
friidrettsutøver	-10.272
▁parlamentet	-10.272
▁utbygging	-10.2721
bal	-10.2721
▁troms	-10.2725
▁beregne	-10.2726
▁fiende	-10.2726
▁nordover	-10.2732
▁inntekt	-10.2732
▁verdenscupen	-10.2735
▁carol	-10.274
▁wu	-10.2742
lé	-10.2744
fell	-10.2744
parken	-10.2745
▁grunnlegge	-10.2746
▁grunnla	-10.2747
▁luc	-10.2749
muler	-10.2754
▁betegnelse	-10.2758
liste	-10.2759
▁kvit	-10.2764
▁nø	-10.2769
▁avtalen	-10.2789
styrken	-10.2798
▁tenke	-10.2807
▁levende	-10.2815
bær	-10.2821
▁bou	-10.2822
▁forbundet	-10.2823
▁frakte	-10.2824
▁kai	-10.2828
▁skudd	-10.2828
▁ønske	-10.2829
▁1902	-10.2848
▁hordaland	-10.2848
▁kjærlighet	-10.2848
▁etablere	-10.2848
▁eksisterer	-10.2848
▁definert	-10.2848
fysikk	-10.2849
▁thi	-10.2849
konvensjon	-10.2849
▁romsdal	-10.2849
▁import	-10.2849
▁1913	-10.285
▁høst	-10.2851
▁butikk	-10.2861
▁1896	-10.2865
▁inkluderer	-10.2879
▁inneha	-10.2879
22	-10.2886
▁gua	-10.2891
14	-10.2892
feld	-10.2895
blokk	-10.2897
▁intens	-10.29
▁kalk	-10.2903
▁stig	-10.2903
kontor	-10.2907
▁markedet	-10.2918
▁paven	-10.2919
fartøy	-10.2925
▁urban	-10.2925
industri	-10.2926
▁kjell	-10.2928
åsen	-10.2937
▁kjenner	-10.2939
▁geo	-10.2946
▁utgaven	-10.2947
▁smak	-10.2951
kjent	-10.2953
▁debut	-10.2959
havn	-10.2971
▁ull	-10.2971
▁festningen	-10.2971
▁hardt	-10.2976
slav	-10.2984
▁est	-10.299
▁kommunistisk	-10.2996
▁strak	-10.2997
▁sikkerhets	-10.3001
▁delstat	-10.3001
▁demokrati	-10.3006
▁negativ	-10.3033
▁uvanlig	-10.3033
▁forsvant	-10.3033
▁cirka	-10.3033
▁sprint	-10.3033
▁alexander	-10.3033
▁overraske	-10.3034
▁glass	-10.3035
mønster	-10.3035
▁1200	-10.3036
▁dvs	-10.3038
▁michel	-10.3039
faktor	-10.3039
▁anvende	-10.304
▁rykte	-10.3044
hver	-10.3049
▁team	-10.3056
▁israelsk	-10.3064
▁myr	-10.3069
fred	-10.3079
▁foto	-10.3079
▁umiddelbart	-10.308
idrett	-10.3085
▁hil	-10.309
▁elever	-10.3091
mengde	-10.3095
levende	-10.3101
▁00	-10.3101
ruten	-10.3102
▁hannen	-10.3105
▁gruppa	-10.3105
▁typen	-10.3111
▁vedtatt	-10.3117
▁tam	-10.3139
▁kok	-10.3142
zon	-10.3142
▁web	-10.3148
▁betale	-10.3152
▁måten	-10.3157
▁gaten	-10.3161
▁talt	-10.3164
bygget	-10.3169
▁qui	-10.3173
▁jag	-10.3206
▁plu	-10.321
▁mesterskapet	-10.322
▁katedral	-10.3222
▁afghanistan	-10.3222
▁artikler	-10.3222
▁engasjert	-10.3222
▁millimeter	-10.3222
▁manchester	-10.3222
▁sjette	-10.3222
▁respekt	-10.3222
▁blanding	-10.3223
▁kveld	-10.3223
▁nedenfor	-10.3223
slett	-10.3224
▁1910	-10.3225
▁arbeiderpartiet	-10.3225
▁utgivelsen	-10.3225
▁langrenn	-10.3226
▁otto	-10.3226
▁holdning	-10.3227
▁1100	-10.3228
▁eli	-10.3229
kostnad	-10.3236
▁lønn	-10.3242
▁metro	-10.3245
▁jack	-10.3246
dikt	-10.3248
▁uavhengighet	-10.3248
perioden	-10.3254
▁cra	-10.3256
▁akademi	-10.3259
maleri	-10.3259
▁britene	-10.326
vika	-10.3271
▁kulturell	-10.3277
▁velger	-10.3278
måte	-10.3284
▁idrettslag	-10.329
▁long	-10.3295
▁melk	-10.3296
▁krim	-10.3296
▁cru	-10.3302
▁paus	-10.3307
▁town	-10.3309
▁zo	-10.3315
▁miste	-10.3315
▁hastighet	-10.3316
▁cou	-10.3322
▁tell	-10.3322
▁regional	-10.3324
byrå	-10.3333
▁flyktet	-10.3335
▁fjellene	-10.3344
wald	-10.3347
▁vende	-10.3364
▁vinge	-10.3365
▁fortsetter	-10.3367
▁tradisjonell	-10.3369
▁sca	-10.3371
▁skyte	-10.3383
▁seremoni	-10.3414
▁chicago	-10.3414
▁hjal	-10.3414
▁sachsen	-10.3414
▁redusere	-10.3414
▁palm	-10.3415
▁beskjed	-10.3415
▁brown	-10.3416
▁1926	-10.3416
plattform	-10.3417
▁situasjonen	-10.3417
▁lært	-10.3417
▁signal	-10.3418
▁jackson	-10.3419
▁feire	-10.3421
▁nylig	-10.344
▁tykk	-10.344
▁østover	-10.3451
▁seire	-10.3452
akademi	-10.3455
▁bidrag	-10.346
▁næringsliv	-10.3463
▁analyse	-10.3468
▁utgangspunktet	-10.347
▁kortere	-10.3471
kandidat	-10.3473
tittel	-10.3477
▁65	-10.3478
versjon	-10.348
tårn	-10.349
bevisst	-10.3496
komedie	-10.3503
▁evangeli	-10.3522
▁eik	-10.3525
▁helst	-10.3531
▁katolsk	-10.3539
▁platen	-10.3545
▁kjemisk	-10.3554
kilde	-10.3558
▁dobbelt	-10.3559
bladet	-10.3567
mpl	-10.359
▁muligheten	-10.359
▁steg	-10.3602
ifisert	-10.3604
▁kommunist	-10.3605
▁christopher	-10.361
▁fakultet	-10.361
▁ludvig	-10.361
▁lyktes	-10.361
▁rogaland	-10.361
▁kommunal	-10.361
▁rio	-10.3611
▁parallel	-10.3613
▁håndball	-10.3613
▁award	-10.3618
▁middelalder	-10.3626
▁romerne	-10.363
▁show	-10.363
▁arkiv	-10.3633
type	-10.3633
▁christiania	-10.3634
▁run	-10.3643
▁angel	-10.3645
▁blande	-10.3646
▁sveitsisk	-10.3651
demokrat	-10.3652
▁billed	-10.3654
▁arkeolog	-10.3656
turneringen	-10.3673
ansett	-10.3673
økonomi	-10.3673
tunnel	-10.3676
sey	-10.3681
samisk	-10.3681
karriere	-10.3689
▁landslaget	-10.3691
zy	-10.3695
31	-10.37
masse	-10.3709
▁kongedømmet	-10.3714
vogn	-10.3735
▁størst	-10.3747
▁samisk	-10.3751
▁bærer	-10.3752
øst	-10.3771
▁villa	-10.3806
▁elektro	-10.3809
▁asteroide	-10.381
▁initiativ	-10.381
▁prøyssisk	-10.381
▁eksperiment	-10.381
▁konsept	-10.381
▁nøyaktig	-10.381
▁byprefekturet	-10.381
▁monument	-10.381
▁lagkonkurransen	-10.381
▁ungarsk	-10.3811
▁inngår	-10.3811
▁reserve	-10.3812
dyktig	-10.3813
▁røyk	-10.3813
▁elementer	-10.3813
▁gravlagt	-10.3814
▁skj	-10.3821
48	-10.3829
flate	-10.3829
▁1897	-10.383
▁1890	-10.3833
▁undervist	-10.3833
▁kammer	-10.3835
▁håp	-10.384
▁petter	-10.3846
flåten	-10.3847
▁unnta	-10.3856
▁skinn	-10.3861
com	-10.3864
house	-10.3864
posisjon	-10.3867
▁250	-10.3871
▁kongelig	-10.3888
yang	-10.3891
høyde	-10.3905
▁medvirke	-10.3908
▁bladet	-10.3919
▁fylt	-10.3932
▁tjenestegjor	-10.3937
▁boka	-10.3944
▁byggingen	-10.3954
▁blokk	-10.3963
roman	-10.3963
▁grep	-10.398
▁neu	-10.398
▁høre	-10.3987
ctor	-10.3989
▁mannlig	-10.4002
høyskole	-10.4007
▁administrere	-10.4014
▁astronom	-10.4014
▁innbyggerne	-10.4014
veksling	-10.4014
▁nedbør	-10.4015
▁kvalifisert	-10.4015
▁avgjørende	-10.4015
▁utnytte	-10.4015
▁forårsake	-10.4015
▁riktig	-10.4015
▁1901	-10.4017
▁yrke	-10.4017
▁cur	-10.4021
▁1400	-10.4021
▁oppsto	-10.4025
▁vogn	-10.4026
▁republikk	-10.4029
▁barndom	-10.403
▁hamburg	-10.4033
▁arena	-10.4042
ordningen	-10.4043
▁omkom	-10.4045
▁ramme	-10.4052
▁fett	-10.4053
▁hamar	-10.4057
trener	-10.4059
▁nedre	-10.4061
▁utvidelse	-10.4061
▁buk	-10.4094
▁skyld	-10.4101
▁tråd	-10.4117
▁katt	-10.412
▁skatt	-10.4121
▁myk	-10.4149
▁fru	-10.4158
▁vg	-10.4161
▁avvist	-10.4161
▁street	-10.4163
▁lim	-10.4167
▁malm	-10.4173
seil	-10.4183
gudinne	-10.4198
▁landslag	-10.4202
▁bredde	-10.4205
▁bakke	-10.4212
ifikasjon	-10.4217
utgivelse	-10.4218
▁oppfatte	-10.422
▁pap	-10.422
▁barcelona	-10.4223
▁okkupert	-10.4223
▁individuell	-10.4223
▁tilhengere	-10.4223
▁biografi	-10.4223
▁allianse	-10.4224
▁hedmark	-10.4225
▁1911	-10.4225
▁tjue	-10.4226
▁gustav	-10.4226
▁angripe	-10.4227
▁fredrikstad	-10.4229
▁øvelsen	-10.4229
▁bystyre	-10.4241
▁unna	-10.4246
▁skjær	-10.4257
▁nordmenn	-10.4259
bad	-10.4266
▁vall	-10.4267
▁sho	-10.4277
▁legende	-10.428
▁eksemplarer	-10.4282
▁american	-10.4282
vang	-10.4284
▁tiår	-10.4288
▁beina	-10.4308
vendt	-10.4309
▁polar	-10.4311
spiss	-10.4311
chel	-10.4311
ulf	-10.4338
▁bytte	-10.4347
▁stål	-10.4347
ordning	-10.4349
▁brag	-10.4372
▁hvilken	-10.4384
▁beskrivelse	-10.4385
▁bell	-10.4389
▁ordre	-10.4397
▁160	-10.44
▁nevne	-10.44
formede	-10.4413
familie	-10.4413
▁raf	-10.4417
▁hov	-10.4421
samband	-10.4429
botn	-10.4429
takelse	-10.4431
▁friedrich	-10.4435
▁milliarder	-10.4435
▁offensiv	-10.4435
▁skulptur	-10.4435
▁vingespenn	-10.4435
▁virginia	-10.4435
▁færøyene	-10.4435
▁returnert	-10.4435
▁jakob	-10.4436
▁kommersiell	-10.4436
▁fjernsyn	-10.4436
▁bøkene	-10.4436
▁studioalbum	-10.4436
▁oppstår	-10.4436
▁søkte	-10.4436
▁hovedkvarter	-10.4437
▁prinsesse	-10.4437
▁klokken	-10.4438
▁papir	-10.4439
▁trenger	-10.444
▁skutt	-10.4447
▁scenen	-10.4448
▁nederlag	-10.4448
▁anlagt	-10.445
▁undergrunns	-10.4454
stråle	-10.4455
▁sikte	-10.4455
▁forvente	-10.4457
▁reaksjon	-10.4458
▁zu	-10.4463
▁water	-10.4494
▁dramatisk	-10.4506
▁verv	-10.4506
krig	-10.4513
forfatter	-10.4516
stjerne	-10.4517
effekt	-10.4518
▁nettverk	-10.4535
kreft	-10.4537
▁låten	-10.454
▁kva	-10.4548
ania	-10.4555
forsamlingen	-10.4559
▁kapp	-10.4567
▁uttale	-10.4571
syre	-10.4589
▁intern	-10.4595
talende	-10.4598
bredden	-10.4599
rute	-10.4605
settelse	-10.463
▁øre	-10.4643
▁kop	-10.4651
▁amsterdam	-10.4653
▁antwerpen	-10.4653
▁argentina	-10.4653
▁prøvd	-10.4653
▁vietnam	-10.4653
▁yngste	-10.4653
▁oppretthold	-10.4653
▁ekstrem	-10.4653
▁foregår	-10.4653
▁frivillig	-10.4653
▁tropper	-10.4654
▁kritisk	-10.4655
▁afrikansk	-10.4657
▁internett	-10.4657
▁1909	-10.4657
▁drikke	-10.4658
▁2018	-10.4659
▁victoria	-10.4663
▁gress	-10.4663
▁jim	-10.4666
▁1882	-10.4672
▁månen	-10.4674
bukta	-10.468
▁tempel	-10.4685
▁overleve	-10.4686
▁glad	-10.4687
▁grunnlag	-10.4689
▁server	-10.469
nemlig	-10.4697
▁oppstod	-10.4704
▁statsråd	-10.4706
▁sosialistisk	-10.4714
▁app	-10.4771
fyr	-10.4772
tagelse	-10.4775
▁bestand	-10.4796
fjellene	-10.4811
verdi	-10.4811
kongen	-10.4811
hopp	-10.4815
▁svar	-10.4849
troppen	-10.485
▁brit	-10.4873
▁registre	-10.4875
▁forhindre	-10.4875
▁gymnas	-10.4875
▁oksygen	-10.4875
▁opplæring	-10.4875
▁global	-10.4875
▁vilhelm	-10.4875
▁hjerne	-10.4875
▁igjennom	-10.4875
▁beordre	-10.4876
▁fjordane	-10.4876
▁naturreservat	-10.4876
▁osmansk	-10.4876
▁arendal	-10.4876
▁blomster	-10.4876
▁definere	-10.4877
▁manager	-10.4877
▁årsaken	-10.4878
▁føderal	-10.4879
▁kopier	-10.4879
▁philip	-10.4879
▁fortellingen	-10.4881
▁antas	-10.4881
▁hvile	-10.4881
▁dukket	-10.4884
▁tronen	-10.4887
▁1898	-10.4895
▁inndelt	-10.49
▁lista	-10.4904
▁simon	-10.4918
▁kompani	-10.492
▁regime	-10.4926
▁cuba	-10.4926
▁river	-10.493
▁tidsskriftet	-10.4935
embete	-10.4939
given	-10.4948
▁vingene	-10.4957
▁million	-10.4965
materiale	-10.4965
▁grunnlaget	-10.4971
seth	-10.4984
▁stab	-10.4985
▁pund	-10.4996
▁beskrev	-10.5032
33	-10.5049
▁grevskap	-10.5062
regning	-10.5084
▁hellig	-10.51
▁helsingfors	-10.5102
▁intervju	-10.5102
▁låtskriver	-10.5102
▁manuskript	-10.5102
▁utelukke	-10.5102
▁service	-10.5102
▁antarktis	-10.5102
▁alexandr	-10.5102
▁mektig	-10.5103
▁josef	-10.5103
▁senatet	-10.5103
▁debutalbum	-10.5103
▁oberst	-10.5103
▁noensinne	-10.5103
▁seinere	-10.5103
▁hørte	-10.5103
▁power	-10.5104
▁programleder	-10.5104
▁distanse	-10.5105
▁foreslått	-10.5106
▁blues	-10.5109
▁stemt	-10.511
▁lokalisert	-10.5113
▁fastlandet	-10.5114
batteri	-10.5118
▁lettere	-10.512
▁1888	-10.512
basert	-10.5125
▁comp	-10.5129
▁persisk	-10.5135
▁fremmed	-10.5136
him	-10.5137
▁møre	-10.5138
fik	-10.5142
▁karakteristisk	-10.5142
▁tø	-10.5154
▁sunn	-10.5156
▁tilpasse	-10.5172
▁ferr	-10.5182
▁musikalsk	-10.5196
struktur	-10.5198
problem	-10.5198
▁proto	-10.5201
fylt	-10.5201
programmet	-10.5202
cio	-10.521
▁virkelig	-10.5224
kall	-10.5224
▁flu	-10.5234
▁vanligst	-10.5235
▁variere	-10.5253
▁dol	-10.5253
tekst	-10.5254
▁utenriks	-10.5258
▁parlament	-10.5265
pil	-10.5266
▁gjennomføre	-10.5267
▁steve	-10.5286
▁play	-10.5288
jord	-10.5301
▁hå	-10.5327
▁australsk	-10.5335
▁jerusalem	-10.5335
▁konkurrert	-10.5335
▁middelsstor	-10.5335
▁renessanse	-10.5335
▁restaurant	-10.5335
▁tyrkia	-10.5335
▁oxford	-10.5335
▁beleiring	-10.5335
▁vestfold	-10.5335
▁digital	-10.5335
▁fenomen	-10.5335
▁nicola	-10.5335
▁lørdag	-10.5335
▁skjult	-10.5335
▁tilsvarer	-10.5335
▁forklare	-10.5335
▁utforming	-10.5336
▁kjennetegn	-10.5336
▁gregor	-10.5336
▁belgisk	-10.5336
▁slank	-10.5336
gjald	-10.5336
▁tømmer	-10.5337
▁menighet	-10.5337
▁opprettelse	-10.534
▁dominerende	-10.534
▁francis	-10.5342
▁tørr	-10.5343
▁allmenn	-10.5347
▁naz	-10.535
▁1814	-10.5352
▁utvide	-10.5356
▁adam	-10.5365
▁utenom	-10.5373
øver	-10.5376
▁1880	-10.5383
alisert	-10.5384
▁stemmene	-10.5406
▁pil	-10.541
▁roger	-10.5414
wich	-10.5421
▁diplomat	-10.5427
▁spring	-10.5431
album	-10.5433
produsent	-10.5436
direktør	-10.5436
historisk	-10.5437
politisk	-10.5437
utgave	-10.5456
8	-10.5457
ique	-10.5472
▁fase	-10.5487
▁sparta	-10.5491
▁arkeologisk	-10.553
▁euro	-10.553
▁ross	-10.5552
▁kulturminne	-10.5553
▁forskjellig	-10.5559
▁tau	-10.556
▁1891	-10.5573
▁bulgaria	-10.5573
▁observert	-10.5573
▁ortodoks	-10.5573
▁resultert	-10.5573
▁shanghai	-10.5573
▁svalbard	-10.5573
▁mesteparten	-10.5573
▁adolf	-10.5573
▁thailand	-10.5573
▁preussen	-10.5573
▁zealand	-10.5573
▁kritisert	-10.5573
▁arthur	-10.5573
apparat	-10.5574
▁erobring	-10.5574
▁fortellinger	-10.5574
▁wolf	-10.5575
▁søndag	-10.5575
vilkår	-10.5577
▁elleve	-10.5578
▁krise	-10.5581
▁klatre	-10.5583
▁forbunds	-10.5586
▁prix	-10.5591
▁beholde	-10.5593
▁fremført	-10.5596
betaling	-10.5602
▁romania	-10.5605
▁amerikaner	-10.561
▁utarbeidet	-10.5612
▁skjerm	-10.5615
▁lord	-10.5616
slutt	-10.5618
telling	-10.5619
▁stund	-10.5619
areal	-10.5641
▁akseptert	-10.567
▁elite	-10.5673
regjering	-10.568
▁unik	-10.5685
▁avisa	-10.5696
strup	-10.57
▁liber	-10.5701
▁110	-10.5706
sønn	-10.5715
▁cand	-10.5717
▁hjemmebane	-10.5725
▁utgangspunkt	-10.5747
drive	-10.5747
dratt	-10.5772
▁menneskelig	-10.578
budsjett	-10.5817
▁aleksander	-10.5817
▁angelsaksisk	-10.5817
▁liverpool	-10.5817
▁matematikk	-10.5817
▁territorie	-10.5817
▁tønsberg	-10.5817
▁innspilt	-10.5817
▁senior	-10.5817
▁utmerkelse	-10.5817
▁valuta	-10.5818
▁tjener	-10.5818
▁innebære	-10.5818
▁verdensrekord	-10.5818
▁bakterie	-10.5819
▁generell	-10.582
▁kongeriket	-10.582
▁skarp	-10.582
▁vannkraftverk	-10.5821
castle	-10.5821
▁håndverk	-10.5825
▁vokalist	-10.583
▁rival	-10.5832
▁talent	-10.5836
▁stortings	-10.5837
▁ibsen	-10.5838
dommer	-10.5839
▁selvstendighet	-10.584
▁avansert	-10.5846
▁slektning	-10.5846
▁1886	-10.5849
▁molde	-10.585
hed	-10.585
stadiet	-10.5852
▁walter	-10.5853
▁with	-10.5862
▁marx	-10.5867
▁skall	-10.5874
▁road	-10.5901
▁orient	-10.5902
▁såret	-10.5908
▁out	-10.5914
teknologi	-10.5919
▁erstatte	-10.5919
magasin	-10.593
temperatur	-10.593
gua	-10.5949
skikk	-10.5965
bunn	-10.597
forandring	-10.5976
▁spenn	-10.5997
maker	-10.6016
stokk	-10.6028
▁religiøs	-10.6054
belteasteroide	-10.6067
▁observasjon	-10.6067
▁påbegynt	-10.6067
▁juridisk	-10.6067
▁minoritet	-10.6067
▁naturgass	-10.6067
▁reklame	-10.6067
▁company	-10.6067
prefektur	-10.6067
▁protestantisk	-10.6067
▁henrettet	-10.6067
▁sjanger	-10.6067
traktaten	-10.6067
▁separat	-10.6067
▁utpekt	-10.6068
molekyl	-10.6068
▁bedriften	-10.6068
▁bbc	-10.6068
▁titler	-10.6068
▁bayern	-10.6068
▁flytende	-10.6069
▁telefon	-10.6069
▁francisco	-10.607
▁split	-10.6071
▁gullmedalje	-10.6073
▁spreng	-10.6077
▁piano	-10.6078
relatert	-10.6079
▁rettssak	-10.6082
▁akku	-10.6084
▁skjell	-10.6087
▁jeff	-10.6091
▁alban	-10.6092
▁estland	-10.6096
▁1895	-10.6096
besetning	-10.6108
▁emil	-10.6115
▁brødrene	-10.6115
▁bestemme	-10.6129
▁back	-10.6136
▁fond	-10.6145
▁variert	-10.6145
▁verksted	-10.6152
▁ytterst	-10.6154
▁fotballklubb	-10.6165
▁brent	-10.6167
▁etnisk	-10.6177
▁brem	-10.6182
hjelp	-10.6187
▁kjenne	-10.6188
forvaltning	-10.6199
▁grim	-10.6204
▁aksept	-10.622
▁brødre	-10.6274
▁gjennomsnitt	-10.629
▁ulv	-10.63
▁frei	-10.6305
▁franc	-10.6309
▁dverg	-10.6316
▁annonsert	-10.6323
▁beslutning	-10.6323
▁eurovision	-10.6323
▁forøvrig	-10.6323
▁heidelberg	-10.6323
▁identifisert	-10.6323
▁institute	-10.6323
▁kommandør	-10.6323
▁konkurrere	-10.6323
▁jomfru	-10.6323
▁landkreis	-10.6323
▁østfold	-10.6323
▁frigjøring	-10.6323
▁statsborger	-10.6323
▁fjellkjede	-10.6324
▁presentert	-10.6324
▁andré	-10.6324
▁kampanje	-10.6324
▁karbon	-10.6324
sammenslåing	-10.6324
▁firmaet	-10.6325
▁spurt	-10.6326
væske	-10.6327
▁koble	-10.6333
▁alfred	-10.6333
▁ddr	-10.6342
▁down	-10.6342
▁farlig	-10.6344
▁beskyttelse	-10.6349
▁ungdomsskole	-10.6357
wick	-10.6359
▁demningen	-10.6363
forsyning	-10.6366
▁hender	-10.6377
korset	-10.6397
▁mjø	-10.6409
▁ligge	-10.6417
▁anerkjenne	-10.6435
skrevet	-10.644
▁forvaltnings	-10.6452
▁tyve	-10.6457
▁britis	-10.646
trenge	-10.6463
skade	-10.6467
▁tidsskrift	-10.6518
rygg	-10.652
▁ytter	-10.6522
formasjon	-10.6544
▁klage	-10.6561
▁basis	-10.6578
▁favoritt	-10.6586
▁kommandant	-10.6586
▁kristendommen	-10.6586
▁lillehammer	-10.6586
▁eksisterende	-10.6586
▁autoritet	-10.6587
▁fjær	-10.6587
▁bakkroppen	-10.6587
▁strøk	-10.6587
▁strekningen	-10.6587
pedagog	-10.6587
▁oppfatning	-10.6587
▁selvmord	-10.6587
▁utseende	-10.6587
seminar	-10.6588
▁svein	-10.6589
▁kongressen	-10.6591
ière	-10.6592
▁svekke	-10.6595
▁blank	-10.6595
opplysning	-10.6599
▁lidelse	-10.6605
▁georgia	-10.6607
▁grøn	-10.6611
▁gjennombrudd	-10.6612
fattet	-10.6616
▁smerte	-10.6619
▁lunge	-10.6625
▁potter	-10.6627
▁inngikk	-10.6629
▁derfra	-10.6634
▁ennå	-10.6644
▁140	-10.6651
støtte	-10.666
▁skrå	-10.6702
elv	-10.6718
kontrakt	-10.672
bøl	-10.6745
▁pall	-10.6749
vegg	-10.6813
▁regjer	-10.6827
fallende	-10.6848
revolusjonen	-10.6848
stigning	-10.6853
▁allikevel	-10.6857
▁elisabeth	-10.6857
▁tsjekkoslovakia	-10.6857
▁ukraina	-10.6857
▁hjørne	-10.6857
▁arsenal	-10.6857
▁jørgen	-10.6857
▁skildre	-10.6857
▁dominert	-10.6857
▁novelle	-10.6858
▁opposisjon	-10.6858
▁stillehavet	-10.6858
▁sydney	-10.6859
▁relasjon	-10.6859
▁howard	-10.686
▁dylan	-10.6861
▁keltisk	-10.6861
▁nyhets	-10.6861
▁kreert	-10.6862
tysk	-10.6868
▁kval	-10.6871
▁gitarist	-10.6877
▁besøkende	-10.6879
▁syvende	-10.6884
▁geometri	-10.6887
▁1860	-10.6892
▁mørkere	-10.6893
▁morten	-10.6899
▁datert	-10.6905
▁qing	-10.6906
▁ideal	-10.6913
manuel	-10.6916
▁ferge	-10.6926
▁helhet	-10.6931
▁strategisk	-10.6933
lock	-10.6938
▁sønd	-10.6948
sommer	-10.6955
fremme	-10.699
hastighet	-10.6997
dømt	-10.6998
befolkningen	-10.6998
konsert	-10.6999
horn	-10.7016
▁teologi	-10.7017
ward	-10.7019
▁avslutte	-10.7037
▁fortelle	-10.7047
time	-10.706
▁mei	-10.7072
▁usikker	-10.708
▁terreng	-10.7111
▁fjern	-10.7131
teatret	-10.7134
kommanderende	-10.7135
▁atmosfære	-10.7135
▁frankfurt	-10.7135
▁nowiki	-10.7135
▁prestegjeld	-10.7135
▁vedlikehold	-10.7135
▁assistent	-10.7135
▁taylor	-10.7135
▁diskusjon	-10.7135
▁hyppig	-10.7135
▁risiko	-10.7135
▁canadisk	-10.7135
▁oldtiden	-10.7135
kobling	-10.7135
▁bedrifter	-10.7135
▁adresse	-10.7135
▁poesi	-10.7136
▁einar	-10.7137
▁tropisk	-10.7137
▁konsern	-10.7138
▁dokumentar	-10.7141
▁skygge	-10.7142
▁røtter	-10.7146
▁trodde	-10.7146
▁kristiania	-10.7149
▁falk	-10.7149
▁regler	-10.7152
kongress	-10.716
▁gjeldende	-10.7161
▁oppløsning	-10.7161
▁furu	-10.7167
polis	-10.7258
▁flykte	-10.727
▁tolkning	-10.7276
klokke	-10.7277
divisjon	-10.7284
brann	-10.7293
▁musikal	-10.7304
▁thu	-10.7314
▁from	-10.7316
▁tildeling	-10.737
ramme	-10.7374
brett	-10.7393
▁lukke	-10.7395
▁fiendtlig	-10.742
▁windows	-10.742
▁stridsvogn	-10.742
▁texas	-10.742
▁church	-10.742
▁konstruert	-10.742
▁fruktbar	-10.742
bataljon	-10.742
▁sigurd	-10.742
▁moderniser	-10.742
▁luthersk	-10.742
▁bærum	-10.742
▁tilsammen	-10.742
▁følelse	-10.7421
▁uklar	-10.7421
▁trengte	-10.7421
brigade	-10.7421
▁ektemann	-10.7421
▁elektronisk	-10.7421
▁tillatelse	-10.7422
▁massiv	-10.7422
▁mineral	-10.7422
▁nkp	-10.7423
planlegging	-10.7423
▁jurist	-10.7425
▁turné	-10.7429
blomst	-10.7432
▁foretatt	-10.7433
▁komposisjon	-10.7435
▁klær	-10.7435
▁1848	-10.744
▁reich	-10.7442
▁kunngjor	-10.7444
▁aksel	-10.7445
▁jernbanestasjon	-10.7447
▁planeten	-10.7453
▁indianer	-10.7455
▁tillit	-10.7469
▁klippe	-10.7477
avisen	-10.7478
bebyggelse	-10.7481
▁montert	-10.7481
▁hou	-10.7508
møll	-10.7514
▁kontrollere	-10.7521
▁øygrupp	-10.7528
▁cham	-10.7539
fast	-10.7556
viklet	-10.7566
vassdraget	-10.7569
instrument	-10.7577
spørsmål	-10.7578
funksjon	-10.7578
politiker	-10.7578
bestemmelse	-10.7587
▁vindu	-10.7604
tveit	-10.7615
▁punk	-10.7682
▁egyptisk	-10.7683
▁dokument	-10.7689
▁undersøke	-10.7697
▁mangfold	-10.7714
▁artilleri	-10.7714
▁buskerud	-10.7714
▁cambridge	-10.7714
▁country	-10.7714
▁filippinene	-10.7714
▁göteborg	-10.7714
▁hollywood	-10.7714
▁midlertidig	-10.7714
▁sjeldne	-10.7714
▁krønike	-10.7714
rettighetene	-10.7714
▁forklaring	-10.7714
▁unesco	-10.7714
førsel	-10.7714
▁nikola	-10.7714
▁autonom	-10.7715
▁fengsl	-10.7715
▁kvadrat	-10.7715
▁gunnar	-10.7715
▁kobber	-10.7715
▁golf	-10.7715
▁multi	-10.7715
ovitsj	-10.7715
ström	-10.7715
lignende	-10.7715
▁social	-10.7716
▁isolert	-10.7716
▁høgskolen	-10.7716
▁sverre	-10.7718
▁biologisk	-10.7719
▁slippe	-10.772
▁hovedkontor	-10.772
▁seksjon	-10.7721
▁trygg	-10.7722
▁group	-10.7723
▁innspillingen	-10.7723
▁passerer	-10.7725
▁landskamp	-10.7726
▁orgel	-10.7727
register	-10.7728
▁drepe	-10.7729
▁konstantin	-10.7732
▁flest	-10.7762
▁tidligst	-10.7764
▁agent	-10.7768
utenriksminister	-10.7773
▁oversette	-10.7783
▁evig	-10.7787
▁trent	-10.7793
sdatter	-10.7811
▁rangert	-10.7816
▁arving	-10.7818
komite	-10.7821
▁spesialiser	-10.7853
▁olympi	-10.7864
▁akademisk	-10.7867
kontroll	-10.7881
kanalen	-10.7883
museet	-10.7887
utstyr	-10.7907
orientert	-10.7915
prest	-10.7917
iansk	-10.7943
feng	-10.7956
▁oppdagelse	-10.7957
▁teologisk	-10.796
▁ressurs	-10.798
▁sentralbank	-10.7991
▁victor	-10.8012
stipend	-10.8016
▁napoleon	-10.8017
▁frekvens	-10.8017
▁fundament	-10.8017
▁luxembourg	-10.8017
▁maksimal	-10.8017
▁territorium	-10.8017
▁diameter	-10.8017
▁innendørs	-10.8017
▁nøytral	-10.8017
disiplin	-10.8017
katastrofe	-10.8017
▁mislykke	-10.8017
▁identitet	-10.8017
▁jupiter	-10.8017
▁kjøtt	-10.8017
▁testament	-10.8017
▁embets	-10.8017
▁invitert	-10.8017
▁skåne	-10.8017
▁ansikt	-10.8018
▁trussel	-10.8018
▁tilfeldig	-10.8018
▁walisisk	-10.8018
▁contest	-10.8018
▁spredning	-10.8018
▁umulig	-10.8018
▁kongsberg	-10.8018
▁visepresident	-10.8019
▁bassist	-10.8019
▁partner	-10.8019
▁rolf	-10.802
▁oppfølger	-10.802
kjøring	-10.8021
terapi	-10.8021
▁sirkel	-10.8023
▁styreleder	-10.8024
▁skrog	-10.8024
▁døtre	-10.8024
▁dagbladet	-10.8025
▁fraksjon	-10.8025
▁1300	-10.8027
▁høyesterett	-10.803
▁forlatt	-10.8031
metode	-10.8033
▁tilsyne	-10.8036
utvikle	-10.8055
▁gjennomsnittlig	-10.8073
▁personlighet	-10.8079
gripe	-10.8104
▁bønn	-10.8108
strømmen	-10.8152
▁tredjedel	-10.8163
▁forsterke	-10.8168
utdanning	-10.8193
▁diplomatisk	-10.8213
oksid	-10.8244
utstillingen	-10.8274
▁costa	-10.8294
kjerne	-10.83
▁bachelor	-10.833
▁infanteri	-10.833
▁columbia	-10.833
▁konstitusjon	-10.833
▁kronprins	-10.833
▁rekrutt	-10.833
▁sanskrit	-10.833
▁sluppet	-10.833
▁særskilt	-10.833
▁gabriel	-10.833
▁uttrykt	-10.833
▁angivelig	-10.833
▁linux	-10.833
▁sogneprest	-10.833
▁margaret	-10.833
▁langvarig	-10.833
▁sjakk	-10.833
▁depresjon	-10.833
▁venezia	-10.833
▁fremtidig	-10.833
▁tempo	-10.833
▁vakre	-10.833
mouth	-10.8331
▁bakvingen	-10.8331
▁larvik	-10.8331
▁stengt	-10.8331
▁protein	-10.8331
▁oblast	-10.8332
hjort	-10.8332
ан	-10.8332
▁gjenopprette	-10.8333
▁kanadisk	-10.8333
▁divers	-10.8334
▁sykdommen	-10.8337
▁programvare	-10.8337
▁onkel	-10.8338
▁flukt	-10.8339
▁ballett	-10.8339
▁young	-10.8344
▁befolke	-10.8346
▁mandat	-10.8348
▁brian	-10.8349
plikasjon	-10.8352
▁geir	-10.8352
▁karakterisert	-10.8355
▁apple	-10.8362
▁panser	-10.8369
town	-10.8387
▁utøve	-10.8392
holt	-10.8441
▁innerst	-10.8442
▁kongedømme	-10.8493
institusjon	-10.8515
bibliotek	-10.8516
yuan	-10.8552
▁strategi	-10.8563
tempelet	-10.8604
lokomotiv	-10.8652
▁1903	-10.8652
▁adskilt	-10.8652
▁ambassadør	-10.8652
▁katolikk	-10.8652
▁konsentrert	-10.8652
▁observato	-10.8652
▁society	-10.8652
▁trommeslager	-10.8652
▁ukrainsk	-10.8652
▁embeds	-10.8652
▁forveksle	-10.8652
▁utbredelse	-10.8652
▁faktum	-10.8653
▁prince	-10.8653
▁referert	-10.8653
▁turbiner	-10.8653
erklæring	-10.8653
▁benedikt	-10.8653
▁sandefjord	-10.8653
▁flyktning	-10.8653
▁tennis	-10.8653
▁moderat	-10.8653
▁drømme	-10.8653
ск	-10.8653
▁indikere	-10.8654
▁innflytelsesrik	-10.8654
▁innviet	-10.8654
▁opplevelse	-10.8654
worth	-10.8654
vík	-10.8655
▁døgn	-10.8655
▁reformasjonen	-10.8656
▁pierre	-10.8657
▁clark	-10.8657
▁konsul	-10.8658
▁stedsnavn	-10.8658
▁fylle	-10.8659
▁nevø	-10.866
▁sykkel	-10.8661
▁operere	-10.8661
▁forenkle	-10.8661
▁vandre	-10.8663
▁rytter	-10.8665
▁opptreden	-10.8665
▁fjerdeplass	-10.8667
▁tillatt	-10.8669
0	-10.8674
torget	-10.8704
▁stanse	-10.8783
▁sideelv	-10.8845
redaktør	-10.8849
▁nettsted	-10.885
offiser	-10.885
musiker	-10.8853
arrest	-10.889
▁lærd	-10.8902
▁dynasti	-10.8916
▁konstant	-10.8967
▁academy	-10.8986
▁kroatia	-10.8986
▁palestina	-10.8986
▁psykisk	-10.8986
▁innvandrer	-10.8986
▁klassifiser	-10.8986
▁voksende	-10.8986
▁resterende	-10.8986
▁utspring	-10.8986
▁følte	-10.8986
▁bøndene	-10.8986
▁domstolen	-10.8986
▁skjøt	-10.8986
▁automatisk	-10.8986
▁syria	-10.8986
▁dvd	-10.8987
▁ekspert	-10.8987
▁uefa	-10.8987
▁skikkelse	-10.8987
▁senterpartiet	-10.8988
▁betjene	-10.8988
▁betalt	-10.8989
▁vinkel	-10.8993
▁økning	-10.8993
▁skytter	-10.8996
▁spyd	-10.8996
▁franz	-10.9001
▁ferje	-10.9017
▁variasjon	-10.9019
▁lavest	-10.9032
▁voldsom	-10.9054
blikk	-10.9078
▁presis	-10.9112
løv	-10.915
zhi	-10.9151
design	-10.9195
ulykke	-10.9199
▁romantisk	-10.9216
lokale	-10.9224
næs	-10.9225
lengde	-10.9226
▁ivareta	-10.9318
pakke	-10.932
▁assosiert	-10.9331
▁dekkvingene	-10.9331
▁fremtredende	-10.9331
▁generalmajor	-10.9331
▁illinois	-10.9331
▁jugoslavia	-10.9331
▁konstantinopel	-10.9331
▁omdøpt	-10.9331
▁pilegrim	-10.9331
▁spellemannpris	-10.9331
▁symfoni	-10.9331
▁venezuela	-10.9331
▁vålerenga	-10.9331
▁flaggbærer	-10.9331
▁1856	-10.9331
▁permanent	-10.9331
▁øyeblikk	-10.9331
▁beatles	-10.9331
▁fuktig	-10.9331
▁madrid	-10.9331
▁pianist	-10.9331
▁verdensarv	-10.9331
▁færre	-10.9331
▁nøkkel	-10.9332
▁tilnærme	-10.9333
▁myrdet	-10.9334
▁alpene	-10.9334
▁erstatning	-10.9334
▁nestleder	-10.9335
▁suksessfull	-10.9335
▁kryp	-10.9335
donald	-10.9337
▁alex	-10.9338
▁avdekket	-10.9338
▁genetisk	-10.9347
▁satellitt	-10.9348
hausen	-10.9353
aceae	-10.9356
gruppa	-10.9449
▁harmoni	-10.9506
kvad	-10.9531
▁verdenscup	-10.9549
markedet	-10.9551
flyttet	-10.9552
nnom	-10.9651
▁fjorten	-10.9688
▁forgjenger	-10.9688
▁illustrer	-10.9688
▁progressiv	-10.9688
▁propaganda	-10.9688
▁skandinavia	-10.9688
▁reservoar	-10.9688
▁minnesota	-10.9688
▁misjonær	-10.9688
▁vurdere	-10.9688
▁slovenia	-10.9688
▁fiolin	-10.9688
▁charlotte	-10.9688
▁finansiert	-10.9688
▁bønder	-10.9688
▁optim	-10.9689
▁ørken	-10.9689
▁innvalgt	-10.9689
materiell	-10.969
▁middelhavet	-10.969
▁virkeligheten	-10.969
▁velkjent	-10.9691
▁geologisk	-10.9691
▁gratis	-10.9692
▁pioner	-10.9692
palasset	-10.9693
▁sjanse	-10.9694
▁særeg	-10.9703
▁hekse	-10.9716
▁nederst	-10.9726
▁nerve	-10.9736
▁støv	-10.9749
▁avskjed	-10.9751
metrisk	-10.9755
▁kallenavn	-10.9844
direkte	-10.9923
▁kriminal	-10.9942
▁spesifik	-11.0056
ingsrepresentant	-11.0058
▁drivstoff	-11.0058
▁elizabeth	-11.0058
▁engasjement	-11.0058
▁færøysk	-11.0058
▁integrert	-11.0058
▁makedonia	-11.0058
▁skandinavisk	-11.0058
▁wergeland	-11.0058
▁billboard	-11.0058
▁ferdinand	-11.0058
▁giovanni	-11.0058
▁intelligen	-11.0058
▁patriark	-11.0058
▁plutselig	-11.0058
▁slalåm	-11.0058
▁taiwan	-11.0058
▁libanon	-11.0058
▁marokko	-11.0058
▁rettferdig	-11.0058
▁franskmennene	-11.0058
▁westfalen	-11.0058
▁ordinær	-11.0058
▁russerne	-11.0058
▁utstrakt	-11.0058
▁ovenfor	-11.0058
▁parlamentarisk	-11.0058
metabol	-11.0058
▁steinkjer	-11.0058
▁betydningsfull	-11.0058
▁imperiet	-11.0058
▁stephen	-11.0058
▁ferdigstilt	-11.0058
▁ulovlig	-11.0059
▁betydd	-11.0059
▁benevn	-11.0059
▁brussel	-11.0059
▁germansk	-11.0059
▁betingelse	-11.0059
▁sibir	-11.0059
▁tokyo	-11.0059
▁kullkraftverk	-11.0059
▁bjerk	-11.0059
▁samuel	-11.0059
▁detroit	-11.006
▁sosialdemokrat	-11.006
▁dekorert	-11.006
▁för	-11.0061
▁utgivelser	-11.0061
▁opplysninger	-11.0061
▁tallrike	-11.0061
▁smelte	-11.0062
▁knust	-11.0062
▁temple	-11.0063
▁antonio	-11.0064
▁napoli	-11.0074
spinner	-11.0125
kommunistpartiet	-11.0144
efte	-11.0198
bevegelse	-11.0211
hawk	-11.0274
▁ideologi	-11.029
president	-11.0305
historiker	-11.0306
kvalitet	-11.0306
inntekt	-11.0306
forsøk	-11.0306
radio	-11.031
debut	-11.0313
rensning	-11.0329
166	-11.0404
▁dominere	-11.0441
pningsseremonien	-11.0443
▁association	-11.0443
▁britannia	-11.0443
▁ferskvann	-11.0443
▁forvandling	-11.0443
▁indoeuropeisk	-11.0443
▁innsbruck	-11.0443
▁jordskjelv	-11.0443
▁kjøkken	-11.0443
▁kontinuerlig	-11.0443
▁lincoln	-11.0443
▁metamorfose	-11.0443
▁musikkvideo	-11.0443
▁popularitet	-11.0443
▁pyramide	-11.0443
▁homofil	-11.0443
▁invadert	-11.0443
▁landhockey	-11.0443
▁matematisk	-11.0443
▁regulering	-11.0443
▁substantiv	-11.0443
▁tsjekkisk	-11.0443
▁konklave	-11.0443
▁ntnu	-11.0443
▁regulert	-11.0443
▁fiction	-11.0443
▁midtøsten	-11.0443
▁eksistens	-11.0443
▁rosenborg	-11.0443
▁snorre	-11.0443
▁konsesjon	-11.0443
▁løslatt	-11.0443
▁akustisk	-11.0443
▁kommentar	-11.0443
▁mountain	-11.0443
▁hovedpersonen	-11.0443
bransjen	-11.0444
▁speider	-11.0444
▁justis	-11.0444
▁serbisk	-11.0444
▁samlealbum	-11.0444
▁nepal	-11.0444
▁blomstre	-11.0445
▁gerhard	-11.0445
▁fylkeskommune	-11.0445
▁brasiliansk	-11.0445
skildring	-11.0446
▁vinterleke	-11.0452
▁ordnet	-11.0453
▁utstedt	-11.0458
▁ferie	-11.0484
brenning	-11.0592
▁erobre	-11.0677
▁birg	-11.0696
aktivitet	-11.0706
sesongen	-11.0707
tetthet	-11.0719
▁representere	-11.0734
▁departement	-11.0798
▁dirigent	-11.0843
▁fasettøyne	-11.0843
▁guddommelig	-11.0843
▁infrastruktur	-11.0843
▁interessant	-11.0843
▁luftforsvaret	-11.0843
▁republikansk	-11.0843
▁salvador	-11.0843
▁tsjekkia	-11.0843
▁diagnose	-11.0843
▁komplisert	-11.0843
▁köln	-11.0843
▁vurdering	-11.0843
▁beskyld	-11.0843
▁hospital	-11.0843
▁hønefoss	-11.0843
▁bekjempe	-11.0843
infeksjon	-11.0843
▁romerriket	-11.0843
døgnflue	-11.0843
▁undersøkt	-11.0843
▁florida	-11.0843
▁hertugdømmet	-11.0843
▁finansiering	-11.0843
▁beslektet	-11.0843
▁bridge	-11.0843
▁mekanisk	-11.0843
▁kontrast	-11.0843
▁forsterkning	-11.0843
▁fiktiv	-11.0843
▁hebraisk	-11.0843
▁skjebne	-11.0843
▁utsikt	-11.0843
▁brønn	-11.0843
▁rumensk	-11.0843
▁geistlig	-11.0843
▁oppfordre	-11.0844
▁våt	-11.0845
▁patron	-11.0845
skriving	-11.0846
▁betong	-11.0846
onrad	-11.0847
▁avgjørelse	-11.0853
▁fangst	-11.0855
platå	-11.0855
▁tåke	-11.0857
syklus	-11.0865
løk	-11.0878
vokter	-11.0878
▁irakisk	-11.0884
håndtering	-11.0888
ressurser	-11.0893
underholdning	-11.0921
▁dobbel	-11.095
vennlig	-11.0972
work	-11.1009
tavle	-11.1013
fordeling	-11.1034
▁minutt	-11.1119
størrelse	-11.1123
fasade	-11.1134
▁antikke	-11.1135
klipp	-11.1182
▁formidle	-11.1224
▁narkotika	-11.1259
▁basketball	-11.1259
▁bokstavelig	-11.1259
▁corporation	-11.1259
▁cæsar	-11.1259
▁evolusjon	-11.1259
▁folkeavstemning	-11.1259
▁football	-11.1259
▁holmenkoll	-11.1259
▁komponent	-11.1259
▁melbourne	-11.1259
▁selvbiografi	-11.1259
▁søknad	-11.1259
▁vampyr	-11.1259
▁frimurer	-11.1259
▁komponert	-11.1259
demonstrasjon	-11.1259
▁besittelse	-11.1259
▁heinrich	-11.1259
▁utdødd	-11.1259
▁utgravninger	-11.1259
▁latvia	-11.1259
▁ukentlig	-11.1259
▁imponere	-11.1259
▁operativsystem	-11.1259
▁apollo	-11.1259
▁avskaffet	-11.126
▁dresden	-11.126
▁heavy	-11.126
▁komplett	-11.126
▁jersey	-11.126
▁kristus	-11.126
▁forklart	-11.126
▁korsfarer	-11.126
▁gjennomgår	-11.126
▁seoul	-11.126
▁central	-11.126
▁seksuell	-11.126
▁barnehage	-11.126
▁lagtinget	-11.126
begivenhet	-11.1261
▁kalender	-11.1261
▁tørke	-11.1263
▁regent	-11.1263
▁smitte	-11.1263
▁utløst	-11.1266
▁fossile	-11.127
▁operert	-11.1271
▁rytme	-11.1272
▁sperre	-11.1276
▁befeste	-11.1278
▁nigeria	-11.128
▁befan	-11.1281
kollega	-11.1283
▁bakerst	-11.1288
▁universi	-11.1289
▁barokk	-11.1292
▁ligning	-11.1308
flyvning	-11.1357
dekorasjon	-11.1358
oppdrett	-11.1364
sterkere	-11.1534
▁teolog	-11.1544
fotograf	-11.1557
universitetet	-11.1558
interesse	-11.1558
fløy	-11.1559
sykdom	-11.156
grønn	-11.1571
▁svinge	-11.1636
nevnte	-11.1658
orkester	-11.1687
▁aggressiv	-11.1694
▁anatolia	-11.1694
▁bysantinsk	-11.1694
▁eksplosjon	-11.1694
▁etiopia	-11.1694
▁illustrasjon	-11.1694
▁meksikansk	-11.1694
▁mongolia	-11.1694
▁omsorgs	-11.1694
▁oppvarming	-11.1694
▁publikasjon	-11.1694
▁republikaner	-11.1694
▁sarpsborg	-11.1694
▁sjokolade	-11.1694
▁sparebank	-11.1694
▁baptist	-11.1694
▁tilstrekkelig	-11.1694
▁våpenhvile	-11.1694
▁kristelig	-11.1694
▁statistikk	-11.1694
▁arbeidsgiver	-11.1694
▁stjørdal	-11.1694
▁dublin	-11.1694
▁haugesund	-11.1694
▁ringerike	-11.1694
▁føydal	-11.1694
▁deutsche	-11.1694
▁verdslig	-11.1694
▁forekomst	-11.1695
▁begravet	-11.1695
▁cecil	-11.1695
▁forandret	-11.1695
nsentrasjonsleir	-11.1695
▁dåp	-11.1695
▁haakon	-11.1695
▁macao	-11.1695
▁middle	-11.1695
▁innledning	-11.1695
▁slovensk	-11.1695
▁fangenskap	-11.1695
▁saturn	-11.1695
▁tendens	-11.1696
mønstre	-11.1696
▁squa	-11.1696
▁rapper	-11.1697
mekanisme	-11.1697
▁herald	-11.1697
▁omdanne	-11.1698
▁slavisk	-11.1698
▁kineser	-11.1699
▁presentere	-11.1699
knutepunkt	-11.1703
udolf	-11.1705
variable	-11.1712
▁identisk	-11.1727
bæk	-11.1747
kjennelse	-11.1766
vegetasjon	-11.1786
chuan	-11.1788
▁psyko	-11.1808
forhandlinger	-11.1815
▁vassdrag	-11.1914
plagg	-11.1942
▁semifinale	-11.1979
soldater	-11.2012
kloster	-11.2012
transport	-11.2013
student	-11.2013
åpning	-11.2026
kvarter	-11.2095
▁ødela	-11.2149
▁gjengjeld	-11.2149
▁petroleum	-11.2149
▁væpne	-11.2149
▁aftenposten	-11.2149
▁avslørt	-11.2149
▁business	-11.2149
▁elefant	-11.2149
▁forutsetning	-11.2149
▁identifisere	-11.2149
▁indonesia	-11.2149
▁inskripsjon	-11.2149
▁kjønnsmodne	-11.2149
▁koalisjon	-11.2149
▁lojalitet	-11.2149
▁matematiker	-11.2149
▁mccartney	-11.2149
▁mobiltelefon	-11.2149
▁philadelphia	-11.2149
▁shakespeare	-11.2149
▁singapore	-11.2149
▁vellykket	-11.2149
▁vladimir	-11.2149
▁ektefelle	-11.2149
▁lofoten	-11.2149
▁litauen	-11.2149
▁slesvig	-11.2149
▁syndrom	-11.2149
▁flandern	-11.2149
▁lennon	-11.2149
▁nominasjon	-11.2149
▁bowie	-11.2149
▁kortvarig	-11.2149
▁utsagn	-11.2149
▁amundsen	-11.2149
▁office	-11.2149
▁triumf	-11.2149
▁wright	-11.2149
▁gjenvalgt	-11.2149
▁sosiologi	-11.2149
▁earth	-11.2149
▁mikael	-11.2149
▁revidert	-11.2149
▁ålesund	-11.2149
▁sammensetning	-11.215
▁kjøpmann	-11.215
▁korrekt	-11.215
▁søvn	-11.215
▁landemerke	-11.215
▁mount	-11.215
▁skjule	-11.2153
▁ytelse	-11.2159
▁skuffe	-11.216
hampton	-11.2205
kjønn	-11.2217
stemme	-11.2245
▁plukke	-11.2301
ngrid	-11.2355
▁begynt	-11.2358
▁godkjenne	-11.2367
▁hytte	-11.2396
▁vestkyst	-11.2448
▁swi	-11.2468
resultat	-11.2488
biskop	-11.2489
sentrum	-11.2489
bestemt	-11.2489
tradisjon	-11.2489
▁america	-11.2489
▁konsentrasjon	-11.2624
flokkurin	-11.2625
▁aserbajdsjan	-11.2625
▁kromosom	-11.2625
▁laboratori	-11.2625
▁ludwig	-11.2625
▁novgorod	-11.2625
▁nynorsk	-11.2625
▁palestinsk	-11.2625
▁pennsylvania	-11.2625
▁primitiv	-11.2625
▁riksantikvaren	-11.2625
▁slovakia	-11.2625
▁tilstedeværelse	-11.2625
▁tippeliga	-11.2625
▁uenighet	-11.2625
▁uppsala	-11.2625
▁württemberg	-11.2625
▁jacque	-11.2625
▁oppmuntre	-11.2625
▁pattedyr	-11.2625
▁teoretisk	-11.2625
▁alminnelig	-11.2625
▁bomull	-11.2625
▁ustabil	-11.2625
▁anmelder	-11.2625
▁mandsju	-11.2625
▁opphørt	-11.2625
▁rovdyr	-11.2625
▁gravitasjon	-11.2625
▁eidsvoll	-11.2625
▁ingeborg	-11.2625
▁people	-11.2625
▁populasjon	-11.2625
▁nedrykk	-11.2625
▁atlanta	-11.2625
▁hektar	-11.2625
▁petersburg	-11.2625
▁husholdning	-11.2625
▁amatør	-11.2625
▁fascist	-11.2625
köping	-11.2625
▁reglene	-11.2625
leverandør	-11.2625
▁spøk	-11.2625
▁aktuell	-11.2626
▁henrettelse	-11.2626
▁slakte	-11.2626
▁guinea	-11.2626
▁dialog	-11.2626
▁redigert	-11.2626
▁dagsavis	-11.2629
▁marcel	-11.263
fylling	-11.2631
▁shetland	-11.2631
▁koreansk	-11.2638
▁planlegge	-11.2644
▁ekstern	-11.2664
▁maritim	-11.2668
streiken	-11.2697
pumpe	-11.2766
republikken	-11.2803
▁zoolog	-11.2836
▁eksemplar	-11.2982
rettigheter	-11.2986
arrangement	-11.2988
advokat	-11.2988
ansvarlig	-11.2988
provinsen	-11.2989
analyse	-11.299
koloni	-11.2992
gruve	-11.2995
kjøl	-11.3009
▁forekomme	-11.3026
prøve	-11.3061
nasjonalsosialis	-11.308
grunnsstasjon	-11.3083
krem	-11.3115
▁diplom	-11.3117
dynamisk	-11.3125
▁peloponnes	-11.3125
9	-11.8005
