<unk>	0
<s>	0
</s>	0
.	-3.18726
s	-3.38417
e	-3.58418
▁	-3.81768
▁i	-3.90713
t	-3.99618
▁og	-4.05202
er	-4.06275
en	-4.06988
▁er	-4.5615
▁av	-4.63211
r	-4.63821
n	-4.79304
▁en	-4.89112
et	-4.92708
▁for	-4.94422
▁som	-5.01133
▁til	-5.08042
a	-5.13269
▁på	-5.15569
▁med	-5.17975
▁den	-5.41905
▁var	-5.44854
▁de	-5.53003
▁ble	-5.55955
i	-5.57595
ene	-5.58241
▁fra	-5.59702
d	-5.62149
▁det	-5.70001
▁har	-5.7008
k	-5.70547
o	-5.72795
▁et	-5.79297
ne	-5.8447
y	-5.84951
▁han	-5.95998
▁å	-6.01579
te	-6.03979
m	-6.04608
g	-6.05086
l	-6.09785
f	-6.12103
▁ved	-6.1248
de	-6.255
p	-6.25973
h	-6.27848
▁også	-6.28664
v	-6.35115
▁ut	-6.38412
c	-6.39885
▁om	-6.41387
re	-6.41712
ing	-6.43269
▁eller	-6.4392
▁at	-6.46488
▁under	-6.46987
▁s	-6.47979
es	-6.49483
al	-6.49795
▁etter	-6.49846
u	-6.51074
an	-6.53064
in	-6.54446
▁kan	-6.54753
▁be	-6.564
▁to	-6.57321
us	-6.57642
b	-6.59379
▁opp	-6.59743
▁a	-6.61601
▁over	-6.63825
na	-6.65843
le	-6.68491
is	-6.72803
▁18	-6.73617
▁inn	-6.76497
▁the	-6.79517
on	-6.80662
▁da	-6.82032
la	-6.83501
ter	-6.84222
▁andre	-6.86465
▁men	-6.8654
ia	-6.87895
sk	-6.88999
j	-6.8943
ri	-6.90576
z	-6.91605
▁f	-6.92096
ar	-6.92127
w	-6.93906
▁m	-6.9645
▁seg	-6.96676
ende	-6.97089
▁hadde	-6.97154
▁ha	-6.99903
▁mellom	-7.00387
▁k	-7.00961
▁sin	-7.01
um	-7.02206
▁g	-7.03261
▁mot	-7.05271
ma	-7.05951
▁la	-7.05954
ke	-7.06587
▁d	-7.07382
▁ligger	-7.07526
▁se	-7.08518
▁tre	-7.08591
ens	-7.08847
▁b	-7.08864
▁1	-7.09684
ch	-7.1042
lig	-7.11321
or	-7.11699
▁ikke	-7.12699
▁u	-7.12746
▁hans	-7.12748
▁født	-7.15103
ck	-7.16258
▁p	-7.16495
land	-7.16728
for	-7.17339
▁al	-7.18379
▁of	-7.19105
il	-7.19147
blant	-7.19452
be	-7.19622
nde	-7.19953
isk	-7.20449
ta	-7.22076
▁an	-7.22665
▁ca	-7.23086
øy	-7.23425
x	-7.24285
ng	-7.25121
as	-7.25316
ra	-7.26347
▁h	-7.26541
ur	-7.26632
▁re	-7.27103
li	-7.27648
el	-7.27885
▁dette	-7.2887
▁c	-7.28976
é	-7.29961
iske	-7.303
▁hun	-7.30556
▁første	-7.30684
kk	-7.31359
▁her	-7.31475
ler	-7.32004
▁pi	-7.32606
▁man	-7.33118
ig	-7.33604
di	-7.34094
▁sammen	-7.34554
▁gjennom	-7.34689
nes	-7.34842
ka	-7.34992
ga	-7.36026
ut	-7.3653
der	-7.36747
▁le	-7.37562
▁flere	-7.37722
▁2	-7.37971
den	-7.38977
ver	-7.40074
▁der	-7.41086
▁nord	-7.41088
at	-7.41164
lo	-7.41953
▁bo	-7.42614
os	-7.42912
▁sa	-7.42948
to	-7.43134
▁fikk	-7.43657
ning	-7.43941
ba	-7.4414
▁l	-7.44986
▁vi	-7.45287
da	-7.45441
ul	-7.45564
ff	-7.46223
▁17	-7.46296
ry	-7.48376
▁denne	-7.48674
▁ro	-7.50177
son	-7.51056
ske	-7.51139
▁alle	-7.51152
▁stor	-7.51416
stad	-7.51611
ad	-7.51819
ve	-7.51859
▁3	-7.52977
▁16	-7.53199
ce	-7.53768
vi	-7.54163
ton	-7.5436
▁kon	-7.55043
▁15	-7.56215
▁co	-7.56337
ner	-7.56545
ro	-7.56694
▁blir	-7.56779
▁hoved	-7.57279
▁t	-7.57406
▁li	-7.57516
bo	-7.57909
▁he	-7.57926
ist	-7.58007
ger	-7.58417
▁st	-7.59171
mi	-7.59261
▁ny	-7.59775
▁ba	-7.59808
man	-7.60284
▁tidligere	-7.60357
▁ka	-7.60822
ge	-7.61396
▁j	-7.61464
▁by	-7.61871
gen	-7.62406
▁n	-7.62546
me	-7.63059
▁hvor	-7.63129
ø	-7.63957
▁ra	-7.64877
berg	-7.65694
▁kommune	-7.65888
▁ti	-7.661
▁in	-7.66667
▁pa	-7.6678
ell	-7.66883
▁and	-7.66937
▁w	-7.67185
▁del	-7.67747
▁annet	-7.67819
▁sør	-7.67968
dal	-7.6875
id	-7.68916
vis	-7.68921
tter	-7.6901
ling	-7.69259
ker	-7.69584
▁4	-7.70807
▁kom	-7.71013
▁død	-7.71376
mp	-7.71853
▁disse	-7.71985
ør	-7.72338
mo	-7.72598
▁v	-7.72821
▁innen	-7.72933
ol	-7.73001
ja	-7.73233
▁di	-7.73694
ko	-7.73846
▁før	-7.751
▁år	-7.75576
▁5	-7.75577
var	-7.75687
▁ni	-7.75826
2	-7.76194
th	-7.76252
▁mar	-7.76304
erte	-7.76307
del	-7.7648
▁per	-7.76575
▁fa	-7.76779
▁kr	-7.76972
▁10	-7.77152
co	-7.77395
it	-7.77536
lige	-7.77619
by	-7.77918
ö	-7.78445
▁mens	-7.78579
▁norsk	-7.78745
▁o	-7.78927
ak	-7.7903
á	-7.79377
▁mange	-7.79504
▁na	-7.79621
▁as	-7.79624
ed	-7.79702
▁sp	-7.80135
▁kinesisk	-7.80351
im	-7.80389
▁mer	-7.80787
▁sitt	-7.80926
ik	-7.81012
ll	-7.8106
▁ga	-7.81074
mann	-7.82025
erne	-7.8226
▁byen	-7.82334
tre	-7.82411
sjon	-7.82928
ic	-7.83077
bi	-7.83244
▁så	-7.83304
pe	-7.84148
▁ta	-7.84605
▁fri	-7.84955
▁samt	-7.84999
gi	-7.85452
je	-7.85739
▁går	-7.86096
▁po	-7.86273
▁bu	-7.86406
▁mo	-7.86437
kt	-7.86501
do	-7.86584
▁senere	-7.86775
▁no	-7.86793
▁me	-7.86869
▁øst	-7.86989
▁r	-7.87164
▁6	-7.87441
het	-7.87651
▁mor	-7.87701
æ	-7.87783
mer	-7.87833
ær	-7.88108
▁bi	-7.88736
▁7	-7.88824
▁kina	-7.89282
▁ru	-7.89346
▁kalt	-7.89449
ha	-7.89505
ti	-7.89546
un	-7.89567
▁pro	-7.89893
▁navnet	-7.90204
1	-7.90387
▁lo	-7.90844
▁bar	-7.91007
▁fly	-7.91235
ir	-7.91341
lin	-7.91615
▁noen	-7.92174
▁8	-7.92589
▁ri	-7.9269
▁lag	-7.92915
▁store	-7.92932
▁du	-7.93228
▁land	-7.93319
si	-7.93357
▁si	-7.93578
po	-7.93705
ns	-7.93725
go	-7.9405
va	-7.94137
▁kjent	-7.94616
men	-7.94919
▁12	-7.9495
▁navn	-7.95008
ring	-7.95051
else	-7.95221
▁vest	-7.95684
ang	-7.96208
▁nå	-7.96239
▁do	-7.96243
▁ned	-7.96396
3	-7.96456
ni	-7.96472
pp	-7.9682
▁finnes	-7.97046
ste	-7.97056
bu	-7.97248
ment	-7.97414
▁y	-7.97424
ä	-7.98307
▁lu	-7.98365
skap	-7.98936
no	-7.9976
rett	-7.9987
om	-8.00862
▁14	-8.00928
ov	-8.01181
▁vil	-8.01445
▁bak	-8.01572
▁ofte	-8.01602
▁ma	-8.01682
▁11	-8.02002
▁siden	-8.0203
▁ho	-8.02151
lag	-8.0233
ant	-8.02385
▁far	-8.02505
am	-8.02532
ly	-8.02589
▁dag	-8.02808
▁am	-8.02854
▁ko	-8.03129
▁være	-8.0324
opp	-8.03576
▁su	-8.04111
▁frem	-8.04419
tra	-8.05352
▁rundt	-8.05376
ina	-8.05587
▁skal	-8.05637
pa	-8.05707
gu	-8.05721
▁jo	-8.06129
▁selv	-8.0658
av	-8.06694
au	-8.07066
▁tra	-8.07117
▁el	-8.07156
vik	-8.08288
▁ei	-8.08799
sh	-8.08978
ster	-8.09411
▁hos	-8.09584
ok	-8.1086
▁km	-8.10979
▁både	-8.11004
▁ham	-8.11213
▁største	-8.11583
ie	-8.12126
od	-8.12203
io	-8.12348
▁or	-8.12541
▁13	-8.14117
ion	-8.14117
▁tor	-8.14296
▁ju	-8.14373
▁gu	-8.14751
sta	-8.14883
ca	-8.15061
▁mest	-8.15162
▁grunn	-8.15307
over	-8.15404
▁min	-8.15473
▁sine	-8.15506
▁hu	-8.15739
gg	-8.16605
▁0	-8.17218
00	-8.17326
ot	-8.17577
hold	-8.17612
▁9	-8.18194
ven	-8.18361
▁fire	-8.18394
▁består	-8.18455
▁kalles	-8.18731
▁russisk	-8.18751
▁film	-8.19233
▁fram	-8.19575
vin	-8.19721
gang	-8.20467
▁vann	-8.20468
▁mi	-8.2051
tur	-8.20525
▁sol	-8.20963
nd	-8.21003
▁20	-8.21107
▁con	-8.21163
▁sønn	-8.21274
▁ar	-8.21548
▁tid	-8.21566
▁te	-8.22004
▁tri	-8.22217
ci	-8.22333
ering	-8.22443
▁ol	-8.23194
▁pe	-8.23293
▁ja	-8.2351
▁sam	-8.23695
å	-8.23905
elle	-8.24186
▁lang	-8.24569
▁sch	-8.24899
▁kirke	-8.24938
▁vant	-8.24986
ier	-8.25105
▁mål	-8.25284
▁john	-8.2543
tal	-8.25596
bar	-8.25631
▁mars	-8.25662
ard	-8.26317
mar	-8.26425
mb	-8.2677
ag	-8.27043
sel	-8.27178
tor	-8.27397
ny	-8.27632
▁norge	-8.2765
▁langs	-8.27762
ian	-8.27777
ü	-8.27931
▁vært	-8.282
dre	-8.28366
hus	-8.28394
itt	-8.2875
▁mai	-8.28897
mon	-8.28984
met	-8.29198
dag	-8.29622
ber	-8.29773
▁norske	-8.29871
per	-8.30056
▁skole	-8.30163
▁mal	-8.304
iv	-8.30482
sted	-8.30575
▁car	-8.30598
▁bra	-8.30691
▁enn	-8.30734
ingen	-8.30834
▁kunst	-8.30921
▁når	-8.31082
op	-8.31185
▁san	-8.31323
▁gi	-8.31468
▁art	-8.31545
tid	-8.31721
▁slik	-8.31765
pi	-8.31819
ho	-8.32071
▁bare	-8.32216
▁sk	-8.32411
tak	-8.32583
▁tallet	-8.33014
▁ab	-8.3315
ord	-8.33382
ley	-8.33484
ium	-8.33731
▁blitt	-8.33765
9	-8.34078
wa	-8.34106
▁x	-8.34324
▁nær	-8.3433
bb	-8.34388
▁gjen	-8.34427
ting	-8.34436
▁samme	-8.34466
siden	-8.34519
í	-8.34829
▁mat	-8.34943
▁so	-8.35229
▁pu	-8.35289
ken	-8.35305
▁ad	-8.35422
▁kultur	-8.35431
▁lever	-8.35432
▁val	-8.35507
▁ak	-8.35608
▁videre	-8.35714
ikk	-8.35883
▁provinsen	-8.36084
▁hel	-8.3619
ede	-8.36393
hu	-8.36438
▁tv	-8.36891
▁fjell	-8.36989
▁engelsk	-8.37044
▁laget	-8.37046
tte	-8.37116
▁området	-8.372
nyin	-8.3742
▁juli	-8.37469
▁go	-8.37517
følge	-8.37878
▁hele	-8.38112
ong	-8.38384
▁wa	-8.38591
▁ge	-8.38758
▁fi	-8.38761
▁august	-8.38872
▁tok	-8.38898
▁små	-8.39087
stein	-8.39152
▁leder	-8.3943
ó	-8.39657
▁øy	-8.39776
▁jord	-8.39859
▁høy	-8.40247
art	-8.40253
▁skulle	-8.40274
▁oslo	-8.40323
dan	-8.40425
les	-8.40537
ningen	-8.4058
ius	-8.4071
▁gir	-8.40907
▁kunne	-8.41059
▁ski	-8.41321
▁nye	-8.41515
▁bro	-8.41608
▁musikk	-8.41619
▁gift	-8.41714
fa	-8.41761
ans	-8.41831
▁gikk	-8.41915
verk	-8.41977
lu	-8.42055
ung	-8.42242
ru	-8.42401
▁ur	-8.42606
▁ch	-8.42637
▁januar	-8.42641
han	-8.4265
este	-8.4307
bil	-8.43217
sch	-8.43386
uk	-8.43405
▁bok	-8.43662
hi	-8.4388
▁ne	-8.43903
ham	-8.44369
▁rekke	-8.44403
gel	-8.44711
und	-8.44744
▁like	-8.44849
▁spiller	-8.44933
kom	-8.45103
idae	-8.4525
▁folke	-8.45282
bel	-8.45337
▁eks	-8.4546
ator	-8.45573
▁sv	-8.4576
▁fu	-8.45789
▁utgitt	-8.45907
▁new	-8.46294
dalen	-8.46425
asjon	-8.46705
ty	-8.46935
▁lys	-8.46944
▁tro	-8.46948
▁hi	-8.47029
ine	-8.47105
▁brukes	-8.47305
min	-8.47534
▁my	-8.47562
▁rett	-8.47563
let	-8.47858
bre	-8.4799
ære	-8.48178
▁fransk	-8.48258
6	-8.48397
dd	-8.48521
▁all	-8.48616
▁fem	-8.48627
til	-8.48645
ow	-8.48683
▁bruk	-8.48694
и	-8.48816
▁juni	-8.48903
▁form	-8.48977
▁noe	-8.48977
itet	-8.49092
▁tilhører	-8.49247
and	-8.4929
▁sen	-8.49451
ran	-8.49566
vel	-8.4964
▁bl	-8.49666
mmer	-8.498
▁par	-8.49855
fi	-8.49861
▁nor	-8.50135
▁verdens	-8.50298
tisk	-8.50317
▁mag	-8.50522
▁sand	-8.5058
▁gruppen	-8.50587
anske	-8.50603
▁pre	-8.50802
▁fo	-8.50831
du	-8.50925
▁kun	-8.50942
▁30	-8.51066
mm	-8.51091
em	-8.51166
år	-8.51377
he	-8.51382
tiske	-8.51618
▁språk	-8.51649
ige	-8.51679
tro	-8.51703
▁spilte	-8.52225
kel	-8.52365
▁ki	-8.52665
▁må	-8.52812
nings	-8.52896
sse	-8.52898
▁skrevet	-8.52932
▁com	-8.53531
isme	-8.53613
heim	-8.53655
▁em	-8.53722
▁syn	-8.53906
ou	-8.53944
▁meter	-8.53966
▁kommer	-8.5423
▁tillegg	-8.54373
jo	-8.54522
▁fag	-8.54539
▁on	-8.5463
mål	-8.54923
▁ulike	-8.55109
form	-8.55182
stand	-8.55793
▁roman	-8.55888
vo	-8.56087
ju	-8.56469
est	-8.56757
kte	-8.56834
▁hus	-8.56912
▁va	-8.56926
fjorden	-8.57059
▁betyr	-8.5723
7	-8.57278
ab	-8.57354
ug	-8.57431
▁uten	-8.57439
ica	-8.5747
4	-8.57479
▁vel	-8.57888
ac	-8.57926
▁2008	-8.57929
ki	-8.58001
tu	-8.58068
tion	-8.5813
kon	-8.58768
▁dr	-8.58792
▁opprinnelig	-8.59042
▁kor	-8.59105
lse	-8.59116
▁skrev	-8.59145
▁bli	-8.59313
▁grav	-8.59315
ks	-8.59399
▁alt	-8.59408
sten	-8.59708
▁kar	-8.59752
▁von	-8.59945
▁september	-8.6018
▁folkerepublikk	-8.6018
slag	-8.60302
burg	-8.60316
▁bil	-8.60367
▁november	-8.60466
ku	-8.60507
▁wi	-8.60605
senter	-8.6061
▁fast	-8.60672
▁landet	-8.60741
tar	-8.60788
mor	-8.60865
ron	-8.60895
▁filmen	-8.60899
▁2007	-8.61055
▁vin	-8.61101
▁hver	-8.61149
▁usa	-8.61172
▁deres	-8.61239
▁je	-8.61447
ap	-8.61598
▁vei	-8.6162
5	-8.61747
▁col	-8.61779
borg	-8.6195
sp	-8.62145
ologi	-8.62146
tz	-8.623
lands	-8.62325
▁kong	-8.62528
ek	-8.62561
mme	-8.62631
mel	-8.62809
▁via	-8.62924
▁selskapet	-8.62948
▁ed	-8.63086
ding	-8.63128
▁stein	-8.63438
sti	-8.63442
▁000	-8.63535
ation	-8.63664
▁desember	-8.63673
▁sjø	-8.63756
▁egen	-8.64131
▁lå	-8.64198
▁familien	-8.64327
familien	-8.6445
inn	-8.64511
▁we	-8.64535
▁april	-8.64567
▁brun	-8.6457
▁berg	-8.6462
▁dan	-8.64767
▁plan	-8.64854
bruk	-8.65094
kan	-8.65313
sson	-8.65479
▁dem	-8.65532
▁tilbake	-8.65772
nder	-8.66003
gh	-8.66136
▁nasjonal	-8.66446
fly	-8.66482
ps	-8.66509
ld	-8.66671
val	-8.66685
▁hennes	-8.66775
kker	-8.6678
▁ku	-8.66889
▁rom	-8.67125
sett	-8.67184
▁eksempel	-8.67245
▁midt	-8.67315
▁februar	-8.67601
▁begge	-8.677
len	-8.67791
▁kort	-8.67912
tan	-8.67943
▁inneholder	-8.68024
jer	-8.68027
rik	-8.68057
▁oktober	-8.6822
▁siste	-8.68276
▁barn	-8.68283
yl	-8.68297
ud	-8.68469
tin	-8.68476
chi	-8.68486
▁mindre	-8.68574
▁gul	-8.68746
▁ste	-8.68806
▁sal	-8.68837
▁norges	-8.69044
far	-8.69079
▁ag	-8.69082
▁farge	-8.69192
▁parti	-8.69206
dig	-8.6922
▁liv	-8.69381
▁ord	-8.69421
løp	-8.69567
za	-8.69637
ach	-8.69693
▁ver	-8.69763
▁fe	-8.69767
▁særlig	-8.69851
if	-8.70001
ide	-8.7009
▁seks	-8.70091
▁2010	-8.70113
▁2006	-8.7026
▁verk	-8.70331
fe	-8.70339
▁z	-8.70393
▁derfor	-8.70412
▁tar	-8.70414
og	-8.70629
▁støtte	-8.70783
▁startet	-8.70813
▁tysk	-8.70944
▁kjente	-8.70952
▁gl	-8.71077
▁stats	-8.7129
ight	-8.71535
▁ben	-8.71753
▁hal	-8.72005
▁2009	-8.7202
о	-8.72423
е	-8.72443
▁helt	-8.72515
vet	-8.7256
▁bandet	-8.72712
▁van	-8.72732
▁cha	-8.72921
▁gjerne	-8.73062
▁mil	-8.73181
▁omfatter	-8.73308
▁19	-8.7366
▁hen	-8.73682
▁pan	-8.7372
▁gang	-8.73976
▁natur	-8.74161
▁2005	-8.74299
syn	-8.74306
▁ren	-8.74508
elt	-8.74556
ill	-8.74617
▁gamle	-8.74623
▁president	-8.74667
▁sentral	-8.74733
▁hol	-8.74741
а	-8.74818
▁gud	-8.74889
▁imidlertid	-8.74953
▁deretter	-8.7498
▁kla	-8.75027
▁rød	-8.7505
▁beste	-8.75144
▁mu	-8.75145
fra	-8.75322
▁gresk	-8.75413
øk	-8.7559
▁bre	-8.75638
▁tu	-8.75713
ble	-8.75727
▁kommunen	-8.75743
tiden	-8.75772
press	-8.75805
▁fred	-8.75873
▁skog	-8.76008
ninger	-8.76052
vann	-8.76119
tiv	-8.76496
ale	-8.76498
▁sett	-8.76536
▁først	-8.76556
▁hy	-8.76599
tel	-8.76602
par	-8.76627
yn	-8.76669
▁står	-8.7671
▁vise	-8.76824
inger	-8.76869
▁jan	-8.76904
▁sm	-8.77005
▁hav	-8.77018
bok	-8.77081
bra	-8.77091
▁fin	-8.77217
▁gull	-8.773
▁25	-8.77361
dyr	-8.77409
dy	-8.77651
kor	-8.77707
▁meg	-8.77908
▁moh	-8.77925
▁hø	-8.78114
▁bru	-8.78117
▁døde	-8.78362
▁person	-8.7841
ya	-8.78429
▁lokal	-8.78464
elsen	-8.78637
▁bor	-8.78704
my	-8.78949
satt	-8.78955
bro	-8.79018
▁op	-8.79074
stat	-8.79205
▁nu	-8.79325
ald	-8.79406
øya	-8.79414
▁ex	-8.79415
▁pr	-8.7971
▁kur	-8.79711
▁bill	-8.79828
▁chi	-8.79882
▁motor	-8.79892
▁innbyggere	-8.80056
▁sto	-8.80221
ighet	-8.80602
▁amerikansk	-8.80606
▁2011	-8.80768
▁datter	-8.80779
van	-8.81038
▁begynte	-8.81109
▁ingen	-8.81136
▁følgende	-8.81141
▁svensk	-8.81284
sund	-8.81336
▁fer	-8.81351
▁os	-8.81734
veien	-8.8174
anlegg	-8.81773
rede	-8.82037
att	-8.82107
su	-8.82117
▁fylke	-8.82264
▁tidlig	-8.82422
▁halv	-8.82449
▁konge	-8.82547
▁rø	-8.82579
ita	-8.82701
▁fotball	-8.82786
▁kl	-8.82834
▁sig	-8.82848
▁medlem	-8.82972
plan	-8.83165
skrift	-8.83269
▁2002	-8.83293
▁forskjellige	-8.83358
▁bruker	-8.83553
▁lav	-8.83671
kar	-8.83683
hy	-8.84118
▁større	-8.84167
▁tur	-8.84182
▁vanligvis	-8.84364
▁ber	-8.84491
▁general	-8.847
▁carl	-8.8474
ze	-8.84858
▁få	-8.85005
▁dermed	-8.85108
forening	-8.85142
▁uni	-8.85176
ji	-8.8518
▁nett	-8.8523
red	-8.85353
rom	-8.85372
har	-8.85437
ah	-8.85518
▁styre	-8.85689
setning	-8.85735
lene	-8.85871
▁anti	-8.85886
bl	-8.85942
ski	-8.86178
▁sak	-8.86311
▁radio	-8.86369
▁band	-8.86393
▁22	-8.8646
▁robert	-8.86611
spill	-8.86918
▁stat	-8.86919
ana	-8.86962
▁ji	-8.86977
50	-8.87069
▁mari	-8.87125
▁britisk	-8.87162
▁can	-8.87168
▁foran	-8.87203
ay	-8.87203
▁christian	-8.87318
mu	-8.8744
р	-8.87481
▁blå	-8.87533
iet	-8.87572
▁svær	-8.87597
▁samtidig	-8.87695
mester	-8.87723
ino	-8.88072
▁klar	-8.88105
▁paul	-8.88192
vær	-8.88244
▁sha	-8.88303
stående	-8.8851
▁får	-8.88682
▁au	-8.88718
▁24	-8.8877
▁brukt	-8.89043
▁ke	-8.89077
▁tredje	-8.89187
ath	-8.89207
▁slekt	-8.89249
rø	-8.89275
▁luft	-8.8931
▁str	-8.89385
▁ty	-8.89391
film	-8.89437
▁mont	-8.89444
▁you	-8.89485
fjord	-8.8954
▁lands	-8.89673
▁pla	-8.89772
værende	-8.89934
▁igjen	-8.89958
▁mye	-8.90047
▁litt	-8.90051
▁utenfor	-8.90078
▁side	-8.90139
▁mark	-8.90238
▁amerikanske	-8.90348
we	-8.90532
▁sh	-8.90535
▁vis	-8.90576
ris	-8.90773
▁park	-8.90989
log	-8.90996
bor	-8.9103
che	-8.91053
stoff	-8.91096
bin	-8.91104
lsen	-8.91251
pper	-8.91369
zi	-8.91437
▁mel	-8.91485
▁betydning	-8.91508
▁gjorde	-8.91586
kul	-8.91653
laget	-8.91798
ib	-8.91813
▁gav	-8.91825
▁gen	-8.91889
▁dy	-8.92171
▁sc	-8.92206
▁industri	-8.92267
▁spilt	-8.92275
ida	-8.92383
▁stra	-8.92578
landet	-8.92705
figur	-8.92721
skole	-8.92763
▁viser	-8.92784
▁spe	-8.92871
fer	-8.92953
▁sommer	-8.93065
▁tekst	-8.93071
▁sta	-8.93207
▁gra	-8.93292
▁tom	-8.93325
▁mac	-8.93342
lot	-8.93371
▁bergen	-8.93398
som	-8.93575
▁mon	-8.9378
rak	-8.93802
▁sangen	-8.94012
banen	-8.94015
port	-8.94047
▁basert	-8.94167
▁vo	-8.94205
tikk	-8.9438
▁skr	-8.94386
▁sang	-8.94398
anger	-8.94415
▁gar	-8.94473
▁tak	-8.94625
▁fylkesvei	-8.94701
gra	-8.94731
▁mus	-8.95125
lan	-8.95214
bygg	-8.95309
▁dagen	-8.95335
kommun	-8.95385
drift	-8.95393
gar	-8.95494
▁inkludert	-8.955
vern	-8.95607
▁arm	-8.95612
lå	-8.95731
kter	-8.95862
▁slutt	-8.95899
all	-8.95927
råd	-8.95964
▁god	-8.95973
▁dikt	-8.9599
stra	-8.96042
▁vinter	-8.9612
medalje	-8.96152
jen	-8.96207
▁ly	-8.96222
▁året	-8.96302
▁bal	-8.96335
▁serien	-8.96579
▁årene	-8.96829
ider	-8.9686
▁kat	-8.96885
plass	-8.97205
kal	-8.97242
net	-8.97579
ssen	-8.97685
▁lange	-8.98077
gre	-8.9818
gan	-8.98199
▁kv	-8.98239
▁af	-8.98265
▁don	-8.98369
▁peter	-8.98408
▁ry	-8.98527
our	-8.98545
▁minne	-8.98608
▁21	-8.98649
lle	-8.98722
▁mis	-8.9874
▁lov	-8.99048
leder	-8.99144
▁2000	-8.99201
ater	-8.99404
▁barne	-8.99659
▁måtte	-8.99703
ister	-8.9973
lagt	-8.99846
pro	-8.99884
ind	-9.00031
mat	-9.00058
▁plass	-9.00115
▁mann	-9.00225
▁blad	-9.00239
▁sj	-9.00272
▁2004	-9.00346
▁riks	-9.00407
▁christ	-9.00495
▁gammel	-9.00526
ther	-9.00701
skog	-9.00898
▁sverige	-9.00942
▁europa	-9.00946
▁topp	-9.00962
sto	-9.01045
▁full	-9.01099
▁albumet	-9.01114
ska	-9.01131
føring	-9.01191
dde	-9.01324
▁såkalt	-9.01375
▁bur	-9.0138
н	-9.01463
▁stil	-9.0147
▁ac	-9.01499
ör	-9.01561
▁tyske	-9.01646
▁omkring	-9.01806
▁skuespiller	-9.01917
▁br	-9.01919
▁post	-9.02096
valg	-9.02234
▁historie	-9.02246
▁høyeste	-9.02308
▁elven	-9.02454
è	-9.02631
▁øya	-9.02676
▁ul	-9.02737
▁mod	-9.02776
▁mm	-9.02782
alt	-9.02836
▁karl	-9.02851
▁lars	-9.03105
▁liten	-9.03121
gne	-9.03272
øl	-9.03273
▁arbeids	-9.03328
▁lett	-9.03528
▁william	-9.03556
▁arbeidet	-9.03607
▁erik	-9.03636
aks	-9.03644
40	-9.0367
▁red	-9.03823
kken	-9.03875
▁system	-9.03882
bert	-9.03973
▁kyst	-9.04011
sky	-9.04088
▁johan	-9.04195
▁pass	-9.04203
selskap	-9.04267
▁ven	-9.0436
▁bj	-9.04378
▁besto	-9.04407
▁fr	-9.04465
▁thomas	-9.04468
ola	-9.04506
▁q	-9.04514
ai	-9.04537
▁kvinne	-9.04543
▁vol	-9.04545
▁bygget	-9.04617
res	-9.04745
▁gruppe	-9.04747
à	-9.04889
▁sommerfugl	-9.04899
▁kal	-9.05057
▁versjon	-9.05091
isering	-9.05129
▁eu	-9.05142
▁gal	-9.05181
▁bjørn	-9.05289
▁ek	-9.05369
gående	-9.05439
sjoner	-9.05456
ice	-9.05483
▁mc	-9.05543
eres	-9.05555
▁100	-9.05611
▁gro	-9.05671
▁ap	-9.06042
styre	-9.06125
▁ganger	-9.06151
satte	-9.06271
ā	-9.06299
▁russland	-9.06307
▁jeg	-9.06312
▁familie	-9.06338
▁plante	-9.06367
▁23	-9.0644
▁forfatter	-9.06503
pen	-9.06525
▁kra	-9.06606
før	-9.06677
▁ras	-9.0669
▁dra	-9.06708
▁lille	-9.06765
▁rev	-9.06833
tør	-9.06881
▁fiske	-9.0692
kjøp	-9.07119
▁sub	-9.0714
bygd	-9.07154
▁politisk	-9.07239
▁jon	-9.07338
xi	-9.07368
ika	-9.0742
▁nytt	-9.07422
▁satt	-9.07518
▁klubben	-9.07525
lø	-9.07525
▁arter	-9.07733
▁produsert	-9.07808
▁sted	-9.08103
▁hvit	-9.08122
▁dia	-9.08142
dra	-9.08226
▁hvert	-9.08276
isert	-9.08284
spiller	-9.08361
▁ci	-9.08365
mannen	-9.08412
▁lyd	-9.08493
lett	-9.08591
isten	-9.08637
age	-9.08663
lek	-9.08706
kin	-9.08731
▁port	-9.08878
▁pri	-9.08912
▁ville	-9.08918
ket	-9.08931
▁egg	-9.08984
▁italiensk	-9.09002
▁fleste	-9.09047
forbund	-9.09181
lia	-9.09186
pu	-9.09253
ano	-9.09354
är	-9.09379
▁cor	-9.094
elig	-9.09414
system	-9.09416
▁ska	-9.09433
ð	-9.09466
▁jernbane	-9.09496
▁viktigste	-9.09504
▁liste	-9.09661
band	-9.09685
▁son	-9.09859
▁tru	-9.10069
pris	-9.10205
ller	-9.10211
stasjon	-9.1033
▁valg	-9.10492
▁menneske	-9.10599
▁fre	-9.10611
rus	-9.10617
mus	-9.10695
skip	-9.10775
▁enkelte	-9.10793
ive	-9.10846
▁modell	-9.10847
samling	-9.1085
ú	-9.10881
ū	-9.10881
▁opera	-9.10915
ros	-9.11013
q	-9.11103
án	-9.11162
▁stedet	-9.11187
▁bri	-9.11213
▁svart	-9.11236
▁ledet	-9.11278
▁mos	-9.11306
▁dessuten	-9.11358
▁para	-9.11445
▁david	-9.11449
▁lin	-9.11471
ås	-9.11566
▁georg	-9.11621
tus	-9.11632
fri	-9.11648
▁kirken	-9.11681
gård	-9.11765
nom	-9.11829
▁keiser	-9.11848
▁bør	-9.119
▁kle	-9.11917
▁utviklet	-9.11942
mark	-9.12046
nne	-9.12065
▁ordet	-9.1213
stå	-9.12259
▁herre	-9.12451
ich	-9.12493
ativ	-9.12496
▁slag	-9.12598
menn	-9.12644
▁fla	-9.12671
▁eier	-9.12695
▁ør	-9.12696
punkt	-9.12712
ix	-9.12873
ob	-9.12991
▁annen	-9.13039
ip	-9.13076
gren	-9.1321
▁fl	-9.13283
▁spesielt	-9.13285
▁følger	-9.13368
▁prest	-9.13445
▁stemme	-9.1353
▁representert	-9.13617
▁godt	-9.1366
▁spor	-9.13778
▁heter	-9.13819
▁antall	-9.13826
stall	-9.13971
▁bas	-9.14016
rat	-9.14026
gge	-9.14029
cy	-9.14099
båt	-9.14129
▁bø	-9.14165
vers	-9.14227
▁finner	-9.14245
▁arbeider	-9.14259
▁sosial	-9.14274
▁teater	-9.14307
▁za	-9.14309
▁rock	-9.14386
lys	-9.14396
gl	-9.14428
ite	-9.14465
ini	-9.14526
60	-9.1453
▁slekten	-9.14538
heten	-9.14545
bø	-9.14674
▁sølv	-9.14759
▁27	-9.14794
asj	-9.14946
ves	-9.14982
▁lik	-9.15
▁mulig	-9.15063
▁lite	-9.1508
▁40	-9.15082
▁50	-9.15196
ph	-9.15328
området	-9.15343
dals	-9.15364
byen	-9.15392
▁gran	-9.15484
▁26	-9.1549
▁elva	-9.15512
▁hatt	-9.15696
tegn	-9.15716
iserte	-9.15735
oph	-9.15791
▁høyre	-9.15901
part	-9.16004
leg	-9.16019
▁grå	-9.16073
ari	-9.16075
▁data	-9.16491
30	-9.16496
▁bank	-9.16505
gruppen	-9.16566
▁gri	-9.16642
way	-9.16685
ī	-9.16751
20	-9.16755
lis	-9.16857
▁tiden	-9.16907
▁les	-9.16984
kamp	-9.17011
▁bilde	-9.17013
▁ob	-9.17175
▁nesten	-9.17254
▁sanger	-9.17322
stilt	-9.17343
▁dom	-9.17356
▁martin	-9.1736
kle	-9.17366
▁distrikt	-9.17391
asjons	-9.17435
ford	-9.17449
▁kongen	-9.17463
▁tyskland	-9.17542
▁dal	-9.17558
▁grad	-9.17633
▁thor	-9.17663
▁trans	-9.17672
▁2001	-9.17785
▁egne	-9.17856
sjef	-9.18064
holm	-9.18102
gitt	-9.18218
▁air	-9.18251
▁helse	-9.18257
fon	-9.1832
▁handels	-9.18376
8	-9.18525
▁internasjonale	-9.18577
minister	-9.1861
▁28	-9.18734
rop	-9.18863
stu	-9.18866
ferd	-9.18882
tatt	-9.18948
ula	-9.19024
wi	-9.19152
▁samarbeid	-9.19191
bygning	-9.19296
▁riksvei	-9.19345
bud	-9.19395
ire	-9.19734
▁folketelling	-9.1982
grad	-9.19869
rud	-9.19906
▁punkt	-9.2005
tsj	-9.20053
▁lind	-9.20064
▁lege	-9.20079
▁stasjon	-9.20122
▁sø	-9.20136
▁organ	-9.2024
ani	-9.20273
▁arkitekt	-9.20292
▁pal	-9.20338
▁fjern	-9.20359
▁ban	-9.20634
▁gitt	-9.20673
up	-9.20742
itz	-9.2078
▁eget	-9.20829
▁ky	-9.20856
▁hovedsakelig	-9.2087
ub	-9.20877
▁stort	-9.20908
navnet	-9.20916
istiske	-9.20922
▁kron	-9.20928
ette	-9.21009
▁tittelen	-9.21012
▁utgjør	-9.2103
▁strøm	-9.2103
▁len	-9.21136
▁olje	-9.21307
▁gate	-9.21393
▁knytte	-9.21393
▁oppkalt	-9.21395
▁tildelt	-9.21452
▁blod	-9.21484
▁aktiv	-9.21585
▁gjør	-9.21629
▁serie	-9.2163
område	-9.21649
bane	-9.21721
tall	-9.21813
▁fil	-9.21834
▁bred	-9.22015
▁sil	-9.22019
64	-9.22096
king	-9.22231
ban	-9.22246
▁west	-9.22264
tic	-9.2244
д	-9.22452
▁bort	-9.22592
liv	-9.22863
▁hjem	-9.22877
områder	-9.22931
▁deler	-9.23085
▁fv	-9.23226
istisk	-9.2331
▁us	-9.23416
fisk	-9.23613
▁medlemmer	-9.23662
skje	-9.23761
last	-9.23823
▁bygge	-9.23882
senteret	-9.23935
stan	-9.23943
lev	-9.24016
▁hår	-9.24041
▁1989	-9.24076
▁31	-9.24076
sj	-9.24249
stilling	-9.24355
▁finsk	-9.24374
▁hvis	-9.24452
▁pen	-9.24583
▁militær	-9.24599
▁student	-9.24611
▁klasse	-9.24627
▁johannes	-9.24789
bus	-9.24804
▁kunstner	-9.24809
▁latin	-9.24822
▁moderne	-9.24832
▁syd	-9.24888
▁felles	-9.24895
inne	-9.24914
▁not	-9.24922
▁ring	-9.24958
int	-9.25002
fall	-9.25111
▁ser	-9.2514
10	-9.25155
▁direkte	-9.25155
elser	-9.25164
▁th	-9.25222
▁29	-9.25298
▁george	-9.25429
▁kryss	-9.25499
trykk	-9.25551
▁stjerne	-9.25569
drag	-9.25577
68	-9.25594
▁gre	-9.25661
dom	-9.25678
▁ang	-9.25727
▁nærings	-9.25749
▁dannet	-9.25753
▁angrep	-9.258
▁søk	-9.25855
▁åtte	-9.25865
våg	-9.26075
zz	-9.2621
festival	-9.2626
▁zh	-9.26272
75	-9.26287
park	-9.26433
▁viktig	-9.2645
elli	-9.26547
fag	-9.26619
klubb	-9.26656
▁veien	-9.26683
hn	-9.26693
л	-9.26812
bjørn	-9.26944
alis	-9.26962
▁pave	-9.27026
▁historisk	-9.27031
▁samle	-9.27122
▁xi	-9.2721
bri	-9.27223
▁våpen	-9.27261
▁offentlig	-9.27311
af	-9.27385
90	-9.27443
asjonen	-9.27471
▁album	-9.2762
▁miljø	-9.27644
▁bern	-9.27649
▁kraft	-9.2773
sjøen	-9.27737
cu	-9.27758
shi	-9.27884
36	-9.27888
86	-9.27898
lik	-9.27937
▁cl	-9.27975
ati	-9.27994
▁berlin	-9.27997
▁deltok	-9.28012
▁wo	-9.28013
▁ram	-9.28034
▁venn	-9.28086
samisk	-9.28092
fo	-9.28118
▁kol	-9.28125
▁båt	-9.28158
▁skjer	-9.28191
ick	-9.28533
▁grunnlagt	-9.28541
valget	-9.2859
kast	-9.28617
70	-9.28653
▁perioden	-9.28732
▁skolen	-9.28732
▁bror	-9.28746
▁ph	-9.28803
▁krigs	-9.2886
ella	-9.2891
▁best	-9.28975
▁fal	-9.29069
eks	-9.29095
▁het	-9.29129
▁kamp	-9.2917
▁overtok	-9.29211
rike	-9.29228
ologisk	-9.29362
▁frank	-9.29378
▁vekt	-9.29506
▁shi	-9.29557
▁studie	-9.29632
▁delstaten	-9.2964
▁venstre	-9.29642
▁pl	-9.29668
dor	-9.29681
tok	-9.29688
▁forhold	-9.29694
mal	-9.29696
▁etablert	-9.29708
organisasjon	-9.29812
tta	-9.29886
▁kh	-9.29965
▁ten	-9.29982
▁un	-9.30044
65	-9.30067
▁seil	-9.30104
▁reg	-9.30201
rum	-9.30286
▁grønn	-9.30317
▁elv	-9.3036
▁folk	-9.30363
arbeid	-9.30607
fest	-9.30611
bru	-9.30631
felt	-9.30708
▁1990	-9.30807
▁2003	-9.30813
utdanning	-9.30849
▁inkluderer	-9.30867
▁cla	-9.31017
▁fro	-9.31221
▁tegn	-9.31257
▁ordenen	-9.31276
evne	-9.31292
▁skrift	-9.31338
▁tele	-9.31345
don	-9.31362
α	-9.31371
▁national	-9.31372
qui	-9.31456
▁sir	-9.31472
▁nest	-9.316
cc	-9.31764
80	-9.31774
▁nils	-9.31853
▁tids	-9.31952
▁besøk	-9.31966
▁war	-9.31983
fugl	-9.32012
▁gru	-9.32061
▁flo	-9.32096
▁fortsatt	-9.32124
huset	-9.32228
▁fall	-9.32252
ografi	-9.32341
▁cas	-9.32383
vent	-9.32393
mul	-9.32411
▁london	-9.32545
▁styrke	-9.32631
rad	-9.32673
▁cu	-9.32756
▁fant	-9.32907
▁rot	-9.32984
elva	-9.32996
din	-9.32996
løse	-9.3312
▁millioner	-9.33137
sjonen	-9.33172
▁kje	-9.33216
▁pat	-9.33219
tale	-9.3324
18	-9.33272
▁hard	-9.33416
navn	-9.33449
jon	-9.33495
▁én	-9.33543
med	-9.33545
▁kontroll	-9.33679
▁resultat	-9.33733
▁eid	-9.33765
low	-9.33771
▁super	-9.33803
▁orden	-9.33948
▁pris	-9.33985
▁hånd	-9.34045
lighet	-9.34078
▁dyr	-9.342
▁staten	-9.342
▁sl	-9.34262
▁1999	-9.34348
gul	-9.34357
ori	-9.34542
kla	-9.34612
que	-9.34794
▁region	-9.34803
▁utgav	-9.34818
ish	-9.34843
▁partiet	-9.34845
▁gren	-9.34865
▁byprefekturet	-9.34933
▁stu	-9.34936
▁trondheim	-9.3494
▁1998	-9.34948
▁1980	-9.34949
kere	-9.35015
▁ep	-9.35041
of	-9.35167
▁energi	-9.35181
▁verden	-9.352
▁type	-9.35251
▁viktige	-9.3529
one	-9.35294
▁che	-9.35378
vinger	-9.35384
▁mø	-9.35425
retning	-9.35443
ym	-9.35621
▁inter	-9.35664
▁minst	-9.35728
▁mid	-9.35764
ført	-9.35808
▁sesongen	-9.35826
orm	-9.35827
zo	-9.35827
departementet	-9.35935
▁wal	-9.35939
▁åpnet	-9.35945
heng	-9.36039
99	-9.36075
oli	-9.36099
▁politi	-9.36118
▁bygd	-9.3612
▁mur	-9.36148
67	-9.36168
▁egentlig	-9.36173
▁reise	-9.36193
ial	-9.36237
▁vanlig	-9.36278
▁hei	-9.3633
vid	-9.3635
▁fest	-9.36576
▁hjemme	-9.36583
▁ter	-9.36587
haug	-9.36599
▁vit	-9.36616
▁borger	-9.36664
▁produksjon	-9.36676
ō	-9.36687
▁jern	-9.3674
▁lei	-9.36775
▁1992	-9.36777
▁2012	-9.36784
▁vas	-9.36795
▁james	-9.36858
ala	-9.36951
▁lev	-9.36954
rå	-9.36991
hund	-9.37016
▁politiker	-9.3712
dømme	-9.37167
ata	-9.37192
loven	-9.37201
▁universitet	-9.37403
▁jobbe	-9.37483
▁japansk	-9.37529
▁enkelt	-9.37541
skapet	-9.37673
▁design	-9.37685
▁mad	-9.37765
nivå	-9.37768
▁regi	-9.37835
▁cent	-9.37836
▁samling	-9.37837
▁bad	-9.3786
▁skje	-9.37942
ved	-9.37981
midler	-9.37985
cia	-9.37986
▁studert	-9.38014
jan	-9.38031
▁fredrik	-9.38034
ismen	-9.38041
▁makt	-9.38137
▁mas	-9.38165
▁funksjon	-9.38263
▁inntil	-9.38306
musikk	-9.38426
illa	-9.38472
▁spesial	-9.38535
▁betydelig	-9.38626
▁1997	-9.38641
ische	-9.3873
▁driver	-9.38755
▁hor	-9.38792
lie	-9.3894
the	-9.38944
▁distriktet	-9.38972
▁lær	-9.39068
▁kj	-9.39118
her	-9.39134
▁kilometer	-9.39255
tti	-9.39264
76	-9.39276
▁opprettet	-9.39321
▁flat	-9.39434
▁start	-9.39745
ith	-9.39748
▁drama	-9.39795
▁bla	-9.39797
▁hall	-9.39817
▁omtrent	-9.39887
▁museum	-9.39901
▁svenske	-9.39919
nett	-9.40176
▁maria	-9.40194
under	-9.40195
▁dis	-9.40213
▁sau	-9.40366
▁litteratur	-9.40442
▁ger	-9.40457
48	-9.40495
▁fordi	-9.40546
▁sel	-9.40718
▁ferdig	-9.40727
▁maskin	-9.40749
vig	-9.40754
▁dø	-9.40754
▁forbindelse	-9.40798
tog	-9.40834
ple	-9.40939
▁fugle	-9.40946
kraftverk	-9.40957
▁lokale	-9.40959
к	-9.40976
partiet	-9.41069
▁ve	-9.41074
ming	-9.41121
▁knut	-9.41163
▁standard	-9.41167
▁1994	-9.41178
▁university	-9.41235
▁arabisk	-9.41404
▁elev	-9.41448
96	-9.41555
kraft	-9.41583
▁selskap	-9.41591
95	-9.41624
78	-9.41637
98	-9.41674
stru	-9.41688
aktig	-9.41706
▁ønske	-9.41821
▁boken	-9.41869
ille	-9.41965
▁dansk	-9.42056
▁hest	-9.42107
▁mill	-9.42264
ød	-9.42288
mot	-9.42296
▁richard	-9.42461
▁nordvest	-9.42463
▁1996	-9.42476
▁ø	-9.42498
▁black	-9.42542
ansk	-9.4257
mund	-9.42575
97	-9.42601
т	-9.42629
▁holdt	-9.42633
▁kull	-9.42711
liggende	-9.42738
ova	-9.4274
▁pra	-9.42752
38	-9.42818
74	-9.42825
veg	-9.42927
▁rolle	-9.42949
led	-9.42954
15	-9.43013
ara	-9.43087
blad	-9.43099
selskapet	-9.43131
▁lek	-9.43144
pre	-9.4319
▁grev	-9.43193
oc	-9.43271
▁uttrykk	-9.43319
▁arbeid	-9.43422
▁tung	-9.4351
▁utvikling	-9.43521
kant	-9.43525
▁ole	-9.43542
▁professor	-9.43584
▁benyttet	-9.43666
▁informasjon	-9.43802
▁konsert	-9.43812
▁linje	-9.43864
bladet	-9.43947
ria	-9.43972
▁skade	-9.44009
▁biskop	-9.4416
▁pop	-9.44194
▁anne	-9.44195
bygging	-9.44197
▁løper	-9.44238
▁yu	-9.44274
▁real	-9.4429
▁hovedstad	-9.44315
▁anna	-9.44349
▁dam	-9.44363
fører	-9.44415
š	-9.44433
▁2013	-9.4445
▁sku	-9.44495
rich	-9.4452
▁die	-9.44522
▁økonomisk	-9.44587
▁hovedstaden	-9.44593
▁pol	-9.44613
55	-9.44622
fu	-9.44623
▁langt	-9.44643
parti	-9.44693
poli	-9.44702
▁havn	-9.44727
▁regionen	-9.44847
grunn	-9.44925
▁tal	-9.44959
cus	-9.44988
▁finland	-9.44993
tol	-9.45002
stil	-9.45003
▁stav	-9.45009
ram	-9.45017
у	-9.451
▁brann	-9.45138
▁louis	-9.45147
lapp	-9.45168
dar	-9.45254
66	-9.45317
▁komp	-9.45477
▁jean	-9.45539
▁gård	-9.45546
▁sentrum	-9.45551
lov	-9.45761
▁harald	-9.45778
▁øverst	-9.4578
nsk	-9.45808
▁trykk	-9.45825
lus	-9.45854
▁eldre	-9.45879
▁gass	-9.45923
92	-9.46024
▁anders	-9.46203
ance	-9.46215
▁legge	-9.4622
▁vår	-9.46224
well	-9.46361
▁delt	-9.46383
eier	-9.46411
▁frankrike	-9.46459
▁italia	-9.46465
▁syv	-9.4655
zhou	-9.46612
▁old	-9.46622
▁virksomhet	-9.46622
▁svarte	-9.4672
▁tett	-9.46825
▁fåt	-9.46825
▁salt	-9.4685
sam	-9.46868
47	-9.46876
▁brukte	-9.46906
hard	-9.4694
▁sur	-9.47026
ping	-9.47103
▁mørk	-9.47113
▁nærmest	-9.47132
▁york	-9.47132
▁1988	-9.47142
▁lund	-9.47164
danner	-9.47168
▁mak	-9.47289
▁internasjonal	-9.47407
farge	-9.47434
▁avdeling	-9.47613
cha	-9.47707
produksjon	-9.4771
formet	-9.47788
▁cal	-9.47843
▁bolig	-9.47895
nik	-9.47955
arter	-9.48023
ij	-9.48073
mand	-9.48086
mid	-9.48117
▁marine	-9.48127
▁nabo	-9.48146
iner	-9.48147
▁kul	-9.48209
▁mennesker	-9.48232
▁års	-9.48287
▁sogn	-9.4831
folk	-9.48351
ben	-9.48399
▁1983	-9.48502
asjoner	-9.48528
▁poly	-9.48538
▁ze	-9.48542
bilde	-9.48592
unt	-9.48682
get	-9.48744
▁indre	-9.48812
▁elve	-9.48816
året	-9.48849
▁metall	-9.48856
▁grense	-9.48879
mod	-9.48893
voll	-9.48955
▁gitar	-9.48971
kilden	-9.48981
hal	-9.49003
vei	-9.49063
hav	-9.49135
▁grunnla	-9.49147
▁hovedrollen	-9.492
field	-9.49241
▁time	-9.49243
oner	-9.49356
avis	-9.49577
▁kam	-9.49683
rin	-9.49697
pel	-9.49705
▁win	-9.49719
▁verdi	-9.49837
▁operatør	-9.49914
▁prosess	-9.49988
vekst	-9.50006
▁england	-9.50035
37	-9.50051
brudd	-9.50074
hø	-9.50147
ssi	-9.50178
ade	-9.50185
▁løs	-9.50215
39	-9.50277
tun	-9.50329
ón	-9.50329
gard	-9.5039
▁eli	-9.50403
▁japan	-9.50462
▁nes	-9.50465
historie	-9.50565
▁transport	-9.50574
▁søster	-9.50651
46	-9.50671
▁personer	-9.50705
▁populær	-9.50712
▁lærer	-9.50734
▁sten	-9.50776
▁henrik	-9.50853
▁regnes	-9.50868
▁sn	-9.50881
▁råd	-9.50943
▁rei	-9.5095
systemet	-9.5102
▁blei	-9.51034
▁cy	-9.51068
ringen	-9.51129
rør	-9.51152
▁larvene	-9.51156
▁felt	-9.51196
strøm	-9.51275
▁world	-9.51309
på	-9.51355
▁mottok	-9.51429
▁direktør	-9.51468
hol	-9.51476
▁veg	-9.51499
yll	-9.51504
▁qu	-9.51543
▁bon	-9.51577
ora	-9.51578
▁regn	-9.51586
▁180	-9.51608
▁forsknings	-9.51639
gruppe	-9.5167
▁grenser	-9.51692
▁gje	-9.5176
▁res	-9.51936
▁danske	-9.51985
▁ball	-9.52019
▁xiàn	-9.52023
▁eldste	-9.52025
havet	-9.52028
▁oppført	-9.52193
▁island	-9.52257
nis	-9.52305
▁jens	-9.52321
fjell	-9.52405
▁kors	-9.52499
▁årlig	-9.52519
handling	-9.52526
▁thi	-9.52597
ов	-9.52602
▁stiftet	-9.52606
▁kloster	-9.5261
▁eiendom	-9.52721
▁prosent	-9.52749
▁likevel	-9.52804
los	-9.52885
▁app	-9.5296
bry	-9.52964
▁hj	-9.52995
▁sky	-9.53004
▁idretts	-9.53012
▁vold	-9.53028
▁sy	-9.53045
vatnet	-9.53118
44	-9.53144
▁kroppen	-9.53163
▁hjelp	-9.53187
▁hud	-9.53328
skudd	-9.53345
▁just	-9.53352
▁innbyggertall	-9.53467
▁kristian	-9.53467
▁michael	-9.53468
kov	-9.53475
kunst	-9.5351
løst	-9.53529
▁slike	-9.53541
lei	-9.53551
iti	-9.53569
▁variant	-9.53584
organ	-9.53592
77	-9.53619
▁kir	-9.53625
▁vik	-9.53685
▁spansk	-9.53814
52	-9.53822
▁paris	-9.53858
▁tj	-9.53918
▁tall	-9.53936
verket	-9.5395
▁und	-9.54075
kning	-9.54142
gaard	-9.54169
с	-9.54185
42	-9.54201
▁1970	-9.54218
▁2014	-9.5422
industri	-9.54243
▁hom	-9.5425
▁mørke	-9.54251
88	-9.54265
▁sti	-9.5427
▁finans	-9.54295
▁sendt	-9.54321
iz	-9.5438
win	-9.54407
▁cap	-9.5448
▁spar	-9.54481
motor	-9.54534
▁hå	-9.54574
▁tradisjon	-9.54633
jiang	-9.5465
▁smal	-9.54699
▁sterkt	-9.54717
▁part	-9.54749
▁munn	-9.54759
▁haug	-9.54886
▁natt	-9.54912
▁tilsvarende	-9.54933
▁typisk	-9.54937
messig	-9.54939
▁1991	-9.54948
▁statsminister	-9.54957
▁offisiell	-9.55059
▁lan	-9.55061
▁she	-9.55168
tha	-9.55328
vogn	-9.55489
▁fortsatte	-9.5551
▁60	-9.55563
▁arten	-9.55583
ipp	-9.55586
▁star	-9.55588
б	-9.55673
▁middelsstor	-9.55674
▁flyttet	-9.55677
▁tjeneste	-9.55707
▁cm	-9.55727
gata	-9.55761
▁bel	-9.55786
▁renner	-9.55842
▁bind	-9.55851
kjede	-9.55996
▁sag	-9.56104
▁sommeren	-9.56112
jev	-9.56126
▁sentrale	-9.56145
▁dyp	-9.56146
ax	-9.56159
▁løv	-9.56179
▁tap	-9.56204
▁vid	-9.56224
delen	-9.56295
▁turn	-9.56312
▁ya	-9.56373
▁rik	-9.56382
▁krav	-9.56397
rev	-9.56407
lund	-9.56423
▁1995	-9.56439
hall	-9.56442
▁lengde	-9.56456
▁nordøst	-9.56474
▁dor	-9.56514
▁produkt	-9.56531
wood	-9.5657
ball	-9.56694
▁strand	-9.5675
▁plate	-9.5677
snitt	-9.56804
shire	-9.56818
▁problem	-9.56847
kur	-9.56909
▁tilby	-9.56965
stedet	-9.57025
▁interesse	-9.57198
▁danmark	-9.57201
▁sho	-9.57238
▁rein	-9.57262
▁nan	-9.57297
ild	-9.5732
▁tyn	-9.57414
▁merke	-9.57736
63	-9.57778
øm	-9.57826
▁virke	-9.57916
▁kraftverk	-9.57922
▁øke	-9.57998
▁mun	-9.58041
▁gjøre	-9.58046
▁nasjonale	-9.58049
styrke	-9.58062
▁johann	-9.58091
▁betegne	-9.58175
▁enhet	-9.5823
▁musiker	-9.58283
▁sun	-9.58295
▁will	-9.58379
▁sund	-9.58442
korps	-9.58529
bær	-9.58576
litt	-9.58589
▁polsk	-9.58621
▁trekk	-9.58671
ringer	-9.58699
virkning	-9.58706
▁1985	-9.58707
ept	-9.58711
▁charles	-9.58711
▁1986	-9.58715
tempel	-9.58716
skij	-9.58719
▁foss	-9.58762
▁tverr	-9.58795
merke	-9.58951
gje	-9.58983
ric	-9.59035
▁bay	-9.59058
lon	-9.59127
91	-9.59213
56	-9.59217
elige	-9.59279
▁delta	-9.5933
dia	-9.59354
й	-9.59462
▁lufthavn	-9.59471
gle	-9.59481
▁hjerte	-9.59523
▁produsent	-9.59526
▁stasjonen	-9.59536
våpen	-9.59626
87	-9.59779
▁skip	-9.59791
▁europeisk	-9.59797
grav	-9.59808
▁kanal	-9.59853
ordenen	-9.59898
utstilling	-9.59907
pan	-9.59945
на	-9.60022
aksjon	-9.60125
▁stan	-9.60146
▁tittel	-9.60248
▁krigen	-9.60302
▁slott	-9.60307
▁nevnes	-9.6031
▁myr	-9.60383
maskin	-9.60436
▁drift	-9.60441
lly	-9.60499
▁vokste	-9.60547
▁los	-9.60553
▁befolkningen	-9.6056
▁fremst	-9.60595
erende	-9.60695
▁fon	-9.60718
▁bygde	-9.60806
▁90	-9.60813
pur	-9.60816
57	-9.60893
▁dyre	-9.60917
▁møte	-9.60925
▁trafikk	-9.60939
▁grand	-9.61012
▁tydelig	-9.61021
▁jazz	-9.61058
vand	-9.61125
▁jag	-9.6113
stikk	-9.61177
tag	-9.61182
riket	-9.61399
▁daglig	-9.61454
løs	-9.61561
▁bedre	-9.61566
▁spille	-9.61671
els	-9.61721
▁møtte	-9.61842
▁totalt	-9.61913
▁foruten	-9.61938
▁middel	-9.62039
sport	-9.62079
▁vær	-9.62114
▁hoff	-9.62123
94	-9.62124
▁pin	-9.62157
▁kjøpte	-9.62309
tis	-9.62332
ins	-9.62527
▁kraftig	-9.62533
▁tatt	-9.62575
▁1993	-9.62599
▁komponist	-9.626
▁høyde	-9.6262
43	-9.62643
▁hell	-9.62766
▁metal	-9.62878
uf	-9.62885
▁aldri	-9.62887
old	-9.62888
fin	-9.629
▁sim	-9.62914
▁høyere	-9.62942
ritt	-9.62969
ammen	-9.63078
▁sli	-9.63085
▁nok	-9.63096
69	-9.6315
pol	-9.63158
58	-9.63159
▁32	-9.6319
styrt	-9.63217
▁jø	-9.63278
▁nam	-9.63348
▁holm	-9.63348
ity	-9.63387
▁fir	-9.63394
▁international	-9.63399
▁1978	-9.63419
qu	-9.63439
▁hit	-9.63453
▁larven	-9.63484
▁administrasjons	-9.63491
trekk	-9.63521
ér	-9.63697
▁mik	-9.63698
firma	-9.63816
▁gode	-9.63846
▁gjort	-9.63866
▁max	-9.63877
▁behandling	-9.63916
▁jevn	-9.63918
08	-9.63925
▁ok	-9.63965
в	-9.64046
▁test	-9.64054
▁sko	-9.64057
øyene	-9.64059
stor	-9.64093
gangen	-9.64143
standen	-9.64289
▁stilling	-9.64325
▁brit	-9.64326
▁regjeringen	-9.64338
▁hva	-9.64345
▁gården	-9.64361
sang	-9.64388
nor	-9.64446
▁slo	-9.64558
▁danse	-9.64593
▁bol	-9.64647
89	-9.6466
▁måte	-9.64672
ult	-9.64676
▁holde	-9.64687
vind	-9.64725
▁india	-9.64816
ledning	-9.64825
▁zo	-9.6485
nan	-9.64927
▁økt	-9.65002
▁1981	-9.65019
▁north	-9.65043
▁nev	-9.65069
▁stammer	-9.65104
▁wei	-9.65109
▁aust	-9.65135
▁løp	-9.65138
▁70	-9.65174
▁inndel	-9.65178
jar	-9.65191
▁effekt	-9.65238
bol	-9.65245
hel	-9.65278
▁gun	-9.65311
▁bass	-9.65431
▁edderkopp	-9.65633
▁fisk	-9.65679
virke	-9.65686
ney	-9.65717
enhet	-9.65751
▁luc	-9.65772
▁organisasjon	-9.65791
71	-9.65821
skjold	-9.6584
▁middelalder	-9.65845
▁2016	-9.65864
vekt	-9.66012
lj	-9.66099
dri	-9.66137
▁kris	-9.6633
klar	-9.66344
▁mester	-9.66369
▁80	-9.66429
slav	-9.66429
mur	-9.66472
manns	-9.66535
▁bit	-9.6658
fø	-9.66627
typen	-9.6666
ν	-9.66665
▁1979	-9.66665
▁elektrisk	-9.66665
▁joseph	-9.66665
▁sivil	-9.66679
▁cro	-9.66857
▁delen	-9.66942
▁est	-9.66984
▁union	-9.67004
▁auto	-9.67083
områdene	-9.67137
▁camp	-9.67298
ada	-9.67306
grense	-9.6732
▁song	-9.67348
▁selve	-9.67362
12	-9.67379
alder	-9.6738
▁høsten	-9.67423
▁kommunene	-9.67424
ì	-9.67498
▁egypt	-9.67498
▁derimot	-9.67499
▁fører	-9.675
▁2017	-9.67519
▁lau	-9.67526
hjul	-9.67543
gjøre	-9.6755
▁henne	-9.67558
hører	-9.67625
rekord	-9.67636
▁spilles	-9.67677
▁nø	-9.67709
lend	-9.67821
▁privat	-9.67864
▁funnet	-9.67963
▁universitetet	-9.67986
▁fremme	-9.68152
cho	-9.68289
▁drept	-9.68362
strand	-9.68374
▁hon	-9.68413
▁øvre	-9.68448
▁leir	-9.68475
gon	-9.68492
53	-9.68493
oni	-9.68555
vakt	-9.68562
▁utført	-9.68595
▁hund	-9.68695
84	-9.68752
▁ansvar	-9.68829
▁klo	-9.68879
▁høyt	-9.68892
▁bio	-9.68903
41	-9.68976
ulf	-9.6902
rup	-9.69036
vitenskap	-9.69046
marked	-9.69061
▁gard	-9.69087
23	-9.69146
́	-9.69186
▁hvilke	-9.69186
ρ	-9.69186
▁brensel	-9.69187
г	-9.69213
▁sørøst	-9.69233
▁hvite	-9.69248
vert	-9.69255
▁bibliotek	-9.69283
▁frukt	-9.69327
▁steder	-9.69382
stø	-9.69426
▁lot	-9.69573
▁dro	-9.6961
ough	-9.6966
▁redaktør	-9.69741
handler	-9.69786
▁måned	-9.69825
▁bygningen	-9.6987
▁ungdoms	-9.69909
▁korte	-9.69971
▁tradisjonell	-9.70005
▁horn	-9.7002
▁profesjonell	-9.70041
▁stockholm	-9.70041
▁publisert	-9.70041
▁2015	-9.70086
vikler	-9.70169
arm	-9.70201
▁rygg	-9.70252
▁eva	-9.70342
øst	-9.70353
▁trolig	-9.70371
▁love	-9.7045
gy	-9.70497
person	-9.7051
fjellet	-9.70521
▁astro	-9.70525
▁unn	-9.70616
▁fle	-9.70627
▁maur	-9.70663
▁åpen	-9.70664
▁organisasjonen	-9.70689
▁ett	-9.70698
▁adel	-9.70719
▁skrive	-9.70756
▁kilde	-9.70788
istene	-9.70797
yo	-9.70823
▁borg	-9.70844
▁nar	-9.70871
▁typer	-9.70889
hastighet	-9.70906
▁arne	-9.70923
▁vanlige	-9.7093
16	-9.70959
▁valgt	-9.70974
ima	-9.71021
▁landsbyen	-9.71073
▁albert	-9.71077
▁opprør	-9.71087
▁roll	-9.71109
▁bærer	-9.71149
85	-9.71186
▁din	-9.71203
▁vinner	-9.71229
▁rad	-9.71265
▁sul	-9.71364
▁vinge	-9.71439
car	-9.71456
are	-9.71522
com	-9.71525
▁bøker	-9.71558
▁ført	-9.71566
▁varme	-9.71571
ies	-9.71595
▁miste	-9.71635
▁olav	-9.71643
59	-9.71688
▁reform	-9.71747
gal	-9.71771
▁helge	-9.71816
roll	-9.7185
stripe	-9.7186
luk	-9.7187
▁dekk	-9.71907
▁andreas	-9.71911
▁områder	-9.71937
foss	-9.71995
▁with	-9.72023
handel	-9.72075
▁instrument	-9.72103
legge	-9.7212
▁ind	-9.72126
▁fjorden	-9.72139
leng	-9.72149
mond	-9.72162
▁bomb	-9.72192
▁cra	-9.72255
▁regjerings	-9.72272
brun	-9.72293
arbeider	-9.72379
▁motstand	-9.72467
▁kvinner	-9.72474
▁hunnen	-9.72543
▁lyn	-9.72545
▁seier	-9.72565
▁eksempler	-9.72649
▁olympisk	-9.72649
teknikk	-9.72651
▁klassisk	-9.72654
▁lengre	-9.72682
▁hustru	-9.7269
▁forsvars	-9.7271
▁prøve	-9.7273
▁200	-9.72772
con	-9.7278
▁koloni	-9.72828
▁forsøk	-9.7286
hag	-9.72867
rådet	-9.72888
▁sort	-9.72893
▁bob	-9.72931
side	-9.72982
▁cell	-9.73002
14	-9.73121
▁fylkes	-9.73162
språk	-9.73235
▁tang	-9.73352
pet	-9.73365
▁gå	-9.73387
▁kjerne	-9.73443
én	-9.73478
vas	-9.73491
logen	-9.73524
ι	-9.73534
▁representerer	-9.73549
▁antenne	-9.73593
▁gjelder	-9.7362
▁representant	-9.73632
▁bestemt	-9.73671
▁tsj	-9.73814
▁eng	-9.73843
▁område	-9.73856
▁bord	-9.73958
▁cre	-9.73997
bånd	-9.74055
tek	-9.74115
▁lære	-9.74281
ky	-9.74327
▁por	-9.74355
▁iii	-9.74379
▁ledd	-9.74381
▁teksten	-9.74406
▁tilhørte	-9.74427
▁wilhelm	-9.74427
▁dialekt	-9.7443
▁altså	-9.7443
▁stavanger	-9.74446
▁betegnelsen	-9.74469
bank	-9.74573
nie	-9.74593
▁symbol	-9.74668
ras	-9.74806
▁kost	-9.74828
▁ana	-9.74848
▁king	-9.749
svarer	-9.74942
▁syl	-9.7499
olo	-9.75001
▁kok	-9.75102
yang	-9.7514
▁klubb	-9.75174
▁glo	-9.75194
▁ting	-9.75211
▁1982	-9.75328
▁kardinal	-9.75328
▁dronning	-9.75332
▁roma	-9.75335
▁1960	-9.75358
formen	-9.75412
▁rosen	-9.75426
▁odd	-9.75449
▁saint	-9.75469
▁prim	-9.75479
innen	-9.75544
▁rike	-9.75596
▁benyttes	-9.75708
▁russ	-9.7572
▁kart	-9.75884
▁fulgte	-9.75915
bit	-9.75959
▁retning	-9.75975
25	-9.76011
▁vä	-9.76058
plasser	-9.76151
▁røde	-9.76217
▁temperatur	-9.76221
▁tå	-9.76234
pningsseremonien	-9.76237
▁faren	-9.76239
▁1984	-9.76255
▁hevde	-9.76294
svik	-9.76299
▁tema	-9.76337
19	-9.76398
kamera	-9.76459
▁former	-9.76463
▁rute	-9.76502
▁sports	-9.76503
▁nummer	-9.7653
▁meste	-9.76573
uch	-9.76597
24	-9.76754
▁naturlig	-9.76813
▁holder	-9.76824
medlem	-9.76828
▁spill	-9.7686
▁åpning	-9.76875
▁lar	-9.76878
▁fel	-9.76924
ico	-9.76954
▁cho	-9.77018
▁vokal	-9.77027
▁spiss	-9.77067
▁flaggbærer	-9.77155
▁sannsynlig	-9.77155
▁øvrig	-9.77158
51	-9.77186
▁enten	-9.77191
▁omtalt	-9.77193
▁och	-9.77204
▁dynastiet	-9.77218
▁aks	-9.77258
▁sju	-9.77318
▁struktur	-9.77321
▁slaget	-9.77389
klasse	-9.77395
▁forfatteren	-9.77497
▁akademi	-9.77525
▁opptre	-9.77533
bein	-9.77534
▁cur	-9.77563
▁ettersom	-9.77566
vre	-9.77689
54	-9.77755
krets	-9.77793
aktiv	-9.7783
▁orkester	-9.77922
▁stopp	-9.78003
▁forsker	-9.78047
▁høye	-9.78079
▁are	-9.78079
▁1976	-9.78105
▁ordfører	-9.78106
▁plassert	-9.78107
▁1975	-9.78107
▁epi	-9.7811
▁anlegget	-9.78126
▁poeng	-9.78137
än	-9.78197
dagen	-9.782
▁city	-9.78226
▁dersom	-9.78253
ali	-9.78253
▁för	-9.78321
▁hage	-9.78329
▁deles	-9.78384
trær	-9.78439
▁total	-9.78475
analyse	-9.7865
▁buss	-9.78711
м	-9.78726
ville	-9.7873
▁flu	-9.78821
▁kalte	-9.78859
▁normalt	-9.78871
zy	-9.78951
▁sørvest	-9.79019
▁1974	-9.79039
▁1967	-9.7904
aceae	-9.7905
▁fjord	-9.79052
▁listen	-9.7906
▁vind	-9.79065
▁od	-9.7911
▁grensen	-9.7912
▁komme	-9.79134
▁sesong	-9.79187
kler	-9.79217
▁sær	-9.79252
▁gau	-9.79374
11	-9.79528
▁gy	-9.79552
▁ris	-9.7956
vendt	-9.79563
▁euro	-9.79583
oth	-9.79743
▁rep	-9.79793
▁omtale	-9.79802
stykke	-9.79819
bunn	-9.79823
▁up	-9.7985
▁grupper	-9.79862
eringen	-9.79927
▁villa	-9.79937
formede	-9.79944
п	-9.79958
▁administrativ	-9.79959
▁alternativ	-9.79959
▁parlament	-9.79959
▁utdannet	-9.79959
▁arrangere	-9.79959
▁fremdeles	-9.79959
kandidat	-9.79963
▁video	-9.79993
fartøy	-9.79999
fil	-9.80032
▁valgte	-9.8008
▁scene	-9.80106
▁kristen	-9.80124
skolen	-9.80131
▁føde	-9.80151
▁følge	-9.80188
▁hopp	-9.80192
fabrikk	-9.80204
▁ari	-9.80241
▁asia	-9.80258
21	-9.80292
▁nrk	-9.80422
ary	-9.80473
▁may	-9.80501
▁zi	-9.80507
▁thr	-9.80527
▁hill	-9.8055
bakken	-9.80579
krigen	-9.80588
celle	-9.80661
virksomhet	-9.80664
gården	-9.80666
▁retts	-9.80676
▁tim	-9.80692
▁neste	-9.80772
nummer	-9.80784
▁forretnings	-9.80812
hode	-9.80819
▁krig	-9.80822
▁kampen	-9.80903
belteasteroide	-9.80911
▁fortelling	-9.80913
▁markeds	-9.80998
▁län	-9.81008
can	-9.81088
▁nr	-9.81102
▁festning	-9.81125
▁hydro	-9.81128
▁that	-9.81232
▁fyrst	-9.81282
▁fler	-9.8133
veis	-9.81355
▁snø	-9.81361
▁forsvar	-9.81454
fot	-9.81469
▁turist	-9.81519
▁spi	-9.81524
ctor	-9.81616
forbindelse	-9.81645
▁gil	-9.81658
middel	-9.81708
▁nederlandsk	-9.81715
▁erstattet	-9.81776
▁nådd	-9.81779
ura	-9.81805
▁karriere	-9.81818
▁hul	-9.81821
▁drive	-9.8183
maler	-9.81853
▁storbritannia	-9.81872
▁relativ	-9.81873
▁1987	-9.81893
▁nasjonalpark	-9.81903
▁snakk	-9.81905
▁phil	-9.8196
basert	-9.82015
▁sykehus	-9.82118
spor	-9.82176
▁prosjekt	-9.82253
▁eg	-9.8226
▁raskt	-9.82401
trinn	-9.8242
▁begrepet	-9.82463
gjø	-9.82465
▁single	-9.82473
▁gis	-9.82496
▁divisjon	-9.82505
gjorde	-9.82581
oppgave	-9.82615
prosjekt	-9.82632
vinge	-9.82641
▁republikken	-9.82648
▁anton	-9.82702
ark	-9.8277
▁aktivitet	-9.82823
▁original	-9.8284
я	-9.82843
▁norrøn	-9.82846
ич	-9.82856
▁blue	-9.8289
▁daniel	-9.82933
kirke	-9.83012
fang	-9.83027
▁bydelen	-9.83129
▁velge	-9.83132
ux	-9.83143
gikk	-9.83148
▁korea	-9.83149
▁budd	-9.8316
▁ung	-9.83215
▁stift	-9.83337
▁løpet	-9.83378
▁fange	-9.83407
▁hente	-9.83407
tjenester	-9.83417
hof	-9.83429
▁sykdom	-9.83477
▁regional	-9.83564
▁skips	-9.83566
▁500	-9.83737
▁kro	-9.8374
ç	-9.83824
▁københavn	-9.83824
▁fjerde	-9.83824
▁united	-9.83829
▁kontakt	-9.83834
▁forteller	-9.83845
▁teori	-9.83868
▁bakgrunn	-9.83873
visning	-9.83876
▁omfattet	-9.83898
▁uke	-9.83915
gå	-9.83966
stasjonen	-9.83999
▁mikro	-9.84038
▁voks	-9.84076
strid	-9.84079
▁skape	-9.84139
finn	-9.84159
lser	-9.84228
▁arve	-9.84301
pass	-9.84324
programmer	-9.84333
▁buk	-9.84354
▁dar	-9.84365
▁troll	-9.84419
løpet	-9.84436
▁kjell	-9.84458
▁ledelse	-9.8447
▁unge	-9.84602
▁benytte	-9.84612
cal	-9.84622
trekning	-9.84648
▁rund	-9.84672
▁tanke	-9.84692
kil	-9.8475
▁forskning	-9.84785
▁afrika	-9.84796
osa	-9.84805
▁trøndelag	-9.84814
▁teknisk	-9.84814
▁school	-9.84815
▁spesiell	-9.84815
▁bakvingen	-9.84816
▁autonom	-9.84828
▁kontor	-9.84849
gått	-9.84907
▁teknologi	-9.84972
enberg	-9.84986
fjellene	-9.84989
▁æ	-9.84999
plassen	-9.85005
▁ron	-9.85014
▁størrelse	-9.85016
▁verne	-9.85017
▁tettsted	-9.85068
liste	-9.85085
▁provins	-9.85126
▁rå	-9.85128
town	-9.8513
lege	-9.85196
ical	-9.85303
▁stod	-9.85308
full	-9.85454
▁indi	-9.85539
stamme	-9.85598
▁ask	-9.85634
▁flagg	-9.8564
▁fot	-9.8564
produkt	-9.85665
▁lagt	-9.85686
▁tilgjengelig	-9.85814
▁utnevnt	-9.85814
▁hverandre	-9.85814
▁religion	-9.85814
▁klima	-9.85815
▁dårlig	-9.85816
▁artikkel	-9.85834
▁club	-9.85835
▁bygg	-9.8587
▁streng	-9.85893
▁finn	-9.85933
cker	-9.85959
▁high	-9.85985
vå	-9.85985
▁sørlig	-9.85995
▁bydel	-9.85995
▁log	-9.86007
28	-9.86068
▁ran	-9.861
▁hodet	-9.86107
▁fyr	-9.86108
▁masse	-9.86138
▁materiale	-9.86161
▁zu	-9.86202
▁histo	-9.86213
anter	-9.86252
aya	-9.86325
lid	-9.86327
▁operasjon	-9.86377
fart	-9.86398
feltet	-9.86467
hop	-9.86468
▁frø	-9.86495
gri	-9.86504
▁kjempe	-9.86533
▁ramme	-9.86537
▁gyl	-9.86572
▁hode	-9.86657
▁prisen	-9.86698
▁dato	-9.86733
▁lim	-9.86749
▁økonomi	-9.86755
▁vingespenn	-9.86824
▁kategori	-9.86824
▁inspirert	-9.86824
kapasitet	-9.86824
▁regissert	-9.86824
▁handling	-9.86827
▁militære	-9.86842
▁oblast	-9.86845
▁1977	-9.86847
▁skipet	-9.86888
lysning	-9.86889
▁bevart	-9.86889
merket	-9.8689
▁alltid	-9.86927
▁dager	-9.86933
▁bevegelse	-9.86938
▁slutten	-9.87004
▁innført	-9.87037
▁ekspedisjon	-9.87105
prisen	-9.87127
▁ein	-9.87156
▁ant	-9.87171
▁solo	-9.87183
▁feil	-9.87193
▁drev	-9.87198
▁sven	-9.87319
▁gor	-9.87344
herre	-9.87376
▁krets	-9.87383
vit	-9.87398
▁musik	-9.8741
linjen	-9.87523
▁cri	-9.87533
lich	-9.87565
▁tha	-9.87582
zh	-9.87584
løsning	-9.87618
▁gram	-9.87756
▁jacob	-9.87784
▁stol	-9.87831
▁ytterligere	-9.87844
▁mongol	-9.87852
års	-9.87865
▁1968	-9.87874
▁1950	-9.87889
▁lansert	-9.87893
forskjell	-9.87946
▁300	-9.87962
dt	-9.88095
▁innsjøen	-9.88115
▁jule	-9.88298
▁delvis	-9.88303
vinner	-9.88363
▁hær	-9.88426
▁artene	-9.88759
produsent	-9.8879
▁long	-9.88818
č	-9.88875
▁stadion	-9.88883
▁musikkalbum	-9.88895
▁1964	-9.88906
▁dominere	-9.88917
▁syk	-9.8894
▁sor	-9.88953
▁syr	-9.88953
▁35	-9.88967
▁que	-9.88981
grupper	-9.89049
▁tho	-9.89089
▁slått	-9.89156
▁samlet	-9.89174
▁viste	-9.89206
gift	-9.8923
▁underlagt	-9.89268
▁tegnet	-9.89273
ges	-9.89367
▁45	-9.89376
▁hannen	-9.89508
▁produserer	-9.89516
upp	-9.8956
▁skatte	-9.89646
▁rør	-9.89688
økonom	-9.89748
samfunn	-9.89771
▁etablerte	-9.89787
▁dokument	-9.89811
trafikk	-9.89856
▁bane	-9.89857
▁ordens	-9.89885
▁konstant	-9.89925
▁melodi	-9.89928
esisk	-9.89928
▁vanskelig	-9.89931
serien	-9.89951
▁oversatt	-9.89951
bare	-9.8996
▁led	-9.9006
▁vitenskapelig	-9.90077
elv	-9.90225
▁petter	-9.90228
29	-9.90237
▁flyplass	-9.90271
▁jack	-9.90293
kysten	-9.90386
gruppa	-9.90429
▁lignende	-9.90604
▁påvirke	-9.9066
▁kalk	-9.90784
▁laste	-9.90792
▁hem	-9.90839
▁hotell	-9.90857
somme	-9.90871
oksid	-9.90874
syre	-9.90901
ô	-9.90969
ε	-9.90969
▁hurtig	-9.90971
▁marie	-9.90984
▁bydistrikt	-9.91014
pin	-9.91032
▁verdenskrig	-9.91043
vold	-9.91054
feld	-9.91055
▁romersk	-9.91058
▁periode	-9.9106
▁flor	-9.91075
▁sammenheng	-9.91083
ān	-9.91123
▁klokke	-9.91171
▁mol	-9.91175
rek	-9.91208
▁sjef	-9.91221
flåte	-9.91233
▁sønnen	-9.91298
▁melk	-9.91299
▁arch	-9.91333
▁olsen	-9.91458
▁sideelv	-9.91506
▁våren	-9.91612
▁kval	-9.91635
▁geo	-9.91647
▁harry	-9.91802
▁ull	-9.91815
▁kil	-9.91856
▁populære	-9.91864
åk	-9.91899
▁blomster	-9.91925
▁overfor	-9.91967
museum	-9.92023
▁jakt	-9.92029
zon	-9.92033
▁friedrich	-9.92033
▁1973	-9.92033
▁beijing	-9.92034
▁passasjer	-9.92034
▁bronse	-9.92067
35	-9.92083
▁spre	-9.92085
▁matt	-9.92096
▁historien	-9.92101
ão	-9.92121
▁jarl	-9.92159
▁meta	-9.92169
dro	-9.92291
hov	-9.92302
søn	-9.92333
▁fabrikk	-9.92343
▁sterke	-9.92374
▁lø	-9.9243
▁с	-9.92457
oft	-9.92527
33	-9.92535
▁dj	-9.92548
▁samfunns	-9.92573
▁europe	-9.92576
13	-9.92642
▁heng	-9.92707
verdig	-9.92739
komst	-9.92812
▁beskytte	-9.92879
▁tettstedet	-9.92885
anda	-9.92896
flue	-9.92897
▁records	-9.92923
▁penge	-9.92927
ß	-9.93073
prosess	-9.93088
sekretær	-9.93094
λ	-9.93109
▁1972	-9.93109
▁service	-9.93109
▁insekt	-9.93118
▁1966	-9.93135
høgskole	-9.93151
uni	-9.93195
ios	-9.93199
▁graf	-9.93294
▁ungdom	-9.93306
▁dog	-9.93426
▁henry	-9.93433
▁begynner	-9.93444
▁tårn	-9.93444
▁kreft	-9.93547
▁stam	-9.93572
▁gitarist	-9.93577
▁resten	-9.93584
▁finne	-9.93632
blomst	-9.93665
▁disk	-9.93669
▁damp	-9.93785
▁pala	-9.93786
skipet	-9.93823
hei	-9.93848
▁sterk	-9.93856
▁forkorte	-9.93919
wald	-9.94102
mengde	-9.94146
▁østerrike	-9.94198
▁nevnt	-9.94241
▁otto	-9.94242
phi	-9.94271
lutning	-9.94283
▁stål	-9.943
kilde	-9.94302
▁vestlig	-9.94365
▁program	-9.94376
▁bodde	-9.94377
▁stadig	-9.94377
▁adam	-9.94597
slaget	-9.94612
▁rollen	-9.9462
eller	-9.94683
▁ola	-9.94705
▁hum	-9.94761
▁ube	-9.94835
linje	-9.94891
gro	-9.94924
hua	-9.95044
17	-9.95049
dommen	-9.9507
▁rob	-9.95132
vor	-9.95248
▁irsk	-9.95261
▁avisen	-9.95285
▁objekt	-9.95295
▁inneholdt	-9.95295
▁inngår	-9.95297
▁royal	-9.95301
ström	-9.95302
▁deriblant	-9.95305
▁latinsk	-9.95318
▁oscar	-9.95319
▁gjeste	-9.95328
▁kjøre	-9.95347
forfatter	-9.95351
▁kara	-9.95419
▁åpne	-9.9545
▁tilhøre	-9.95454
▁areal	-9.9555
chester	-9.95758
▁mah	-9.95843
post	-9.95886
dam	-9.95989
▁comp	-9.96023
hallen	-9.96156
▁tam	-9.96191
▁stig	-9.96216
▁gods	-9.96395
▁suksess	-9.96406
▁hertug	-9.96413
▁1945	-9.9642
▁straffe	-9.96493
▁overflate	-9.96504
ål	-9.96569
▁gold	-9.9666
plikt	-9.96695
▁tog	-9.96796
▁nedre	-9.96857
base	-9.96869
▁kai	-9.96877
▁170	-9.9688
▁esp	-9.97001
▁kast	-9.97022
▁alf	-9.97062
row	-9.97068
▁qui	-9.97142
▁livs	-9.97194
▁human	-9.972
▁green	-9.97234
▁grunnlegger	-9.9728
▁cd	-9.97324
▁mei	-9.97418
▁py	-9.97429
ł	-9.9751
tunnelen	-9.97519
▁religiøs	-9.97529
▁tilknytte	-9.97529
▁element	-9.97537
kompleks	-9.97556
▁sverd	-9.9758
▁forenkle	-9.97603
▁behandle	-9.9761
▁bytte	-9.97621
fylt	-9.9766
▁sider	-9.97664
▁bach	-9.977
spekt	-9.97701
▁bell	-9.97734
arbeidet	-9.97772
▁stykke	-9.97868
▁produksjons	-9.9787
▁cru	-9.97946
▁utgi	-9.97956
▁mary	-9.97961
▁stille	-9.98025
▁steve	-9.9814
▁dun	-9.98148
▁base	-9.98196
▁journalist	-9.98242
▁øyene	-9.98267
aria	-9.98309
legger	-9.98319
▁mente	-9.98373
▁vokser	-9.98446
▁systemet	-9.98462
▁andersen	-9.985
▁tan	-9.98513
▁motiv	-9.98531
avtale	-9.98545
â	-9.98663
▁innflytelse	-9.98666
▁publikum	-9.98666
▁sovjetunionen	-9.98666
▁magnus	-9.98671
▁fokus	-9.98672
▁oppdaget	-9.98672
▁canada	-9.98691
▁1965	-9.98698
cul	-9.98811
▁amt	-9.98811
teori	-9.98819
▁formann	-9.98839
møte	-9.98869
▁fløy	-9.98969
levende	-9.99029
▁vitenskap	-9.99116
▁tusen	-9.99117
▁regel	-9.99172
▁nordlige	-9.99259
▁dommer	-9.99282
havn	-9.99371
lam	-9.99379
▁33	-9.99401
▁brev	-9.99446
gram	-9.99469
▁qua	-9.99512
kasse	-9.99562
qua	-9.9959
bakterie	-9.99591
▁drag	-9.99606
▁web	-9.9964
▁tann	-9.99691
▁gui	-9.99691
artikler	-9.99763
house	-9.99795
▁tegneserie	-9.99821
▁frederik	-9.99824
▁referere	-9.99836
▁power	-9.99838
▁1971	-9.99838
▁lengst	-9.99847
▁avhengig	-9.99888
▁bou	-9.99976
prins	-10
▁atom	-10.0003
▁oppdrag	-10.0011
▁regjering	-10.0012
roman	-10.0013
▁furu	-10.0014
▁dør	-10.0019
▁front	-10.0025
▁shan	-10.0029
▁ark	-10.0031
▁hjelpe	-10.0037
kirken	-10.0037
▁nivå	-10.0039
▁varierer	-10.0042
▁arn	-10.0044
ín	-10.0047
▁kg	-10.0051
▁ara	-10.0051
▁markert	-10.0056
▁programmet	-10.0078
▁out	-10.0079
▁rand	-10.0085
cent	-10.0087
vang	-10.0091
▁indisk	-10.0091
▁planter	-10.0097
▁administrere	-10.0098
▁rapport	-10.0098
▁nicola	-10.0098
▁college	-10.01
▁tilfelle	-10.011
▁chang	-10.0112
▁årsak	-10.0113
kjent	-10.0114
album	-10.0116
▁undervisning	-10.0117
▁yo	-10.0118
▁prof	-10.012
▁primær	-10.012
▁char	-10.0132
familie	-10.0142
▁aur	-10.0146
▁oppsto	-10.015
▁spillet	-10.0154
▁personlig	-10.0157
vol	-10.0163
▁34	-10.0167
yle	-10.0171
fulle	-10.0172
▁landskapet	-10.0172
▁irland	-10.0177
ici	-10.0178
foreningen	-10.0184
▁osv	-10.0196
27	-10.0215
▁arrangert	-10.0215
▁introdusert	-10.0215
▁opprinnelse	-10.0215
▁revolusjon	-10.0215
▁moskva	-10.0216
▁gunnar	-10.0216
▁bryst	-10.0216
▁medlemmene	-10.0216
▁hæren	-10.0217
▁himmel	-10.0217
▁lenger	-10.0219
▁santa	-10.0223
onia	-10.0223
▁award	-10.0227
distrikt	-10.0232
▁ånd	-10.0232
▁lam	-10.0233
▁bosetning	-10.0235
▁sunn	-10.0238
kultur	-10.0247
▁oftest	-10.0249
holdsvis	-10.0263
▁ork	-10.0272
▁prins	-10.0274
▁folket	-10.0275
ique	-10.0275
▁private	-10.0283
▁skapte	-10.0287
▁leve	-10.0293
inntekt	-10.0298
▁huset	-10.0304
▁israel	-10.0307
alitet	-10.0309
▁internett	-10.0311
awa	-10.0317
byrå	-10.0329
▁dur	-10.0334
▁hov	-10.0335
▁redusere	-10.0335
▁nedenfor	-10.0336
▁1969	-10.0337
▁group	-10.0337
▁kommunal	-10.0337
▁smith	-10.0338
▁fungere	-10.0338
kunnskap	-10.0339
▁metode	-10.0339
kop	-10.0342
▁inne	-10.0344
▁brand	-10.0345
▁grov	-10.0347
▁fylket	-10.0349
▁sikkerhets	-10.0359
▁cer	-10.0372
sjø	-10.0375
▁div	-10.0393
▁svak	-10.0395
▁maler	-10.0398
▁400	-10.0413
▁tale	-10.0416
▁havet	-10.042
lak	-10.0428
ån	-10.0429
▁gall	-10.0436
▁kjemisk	-10.0439
26	-10.0447
sentre	-10.0448
▁fjellet	-10.0451
rød	-10.0454
▁sistnevnte	-10.0455
▁århundre	-10.0455
▁nikola	-10.0455
▁1955	-10.0458
▁tone	-10.046
▁east	-10.0463
▁endret	-10.0464
▁medisin	-10.047
▁vet	-10.0474
▁motta	-10.0477
▁vannet	-10.0478
regionen	-10.0483
▁mangler	-10.0484
stille	-10.0485
soldat	-10.049
drakt	-10.0498
▁voksne	-10.05
▁wu	-10.0511
▁spise	-10.0521
▁verket	-10.0522
klubben	-10.0535
▁ferge	-10.0539
▁ves	-10.0541
▁grøn	-10.0542
▁gress	-10.0547
▁polen	-10.0548
▁vor	-10.0551
jord	-10.0551
tallet	-10.0553
▁vm	-10.0558
▁patri	-10.056
▁kin	-10.0569
livet	-10.0575
norsk	-10.0576
▁alexander	-10.0577
▁generelt	-10.0577
▁rektor	-10.0577
grep	-10.0578
▁henholdsvis	-10.0579
▁ishockey	-10.058
matisk	-10.0581
▁fotballspiller	-10.0581
▁politikk	-10.0582
kapit	-10.0589
▁einar	-10.0592
kanten	-10.0594
▁johansen	-10.0595
▁utviklingen	-10.0596
▁bibel	-10.0597
stjerne	-10.0608
kontor	-10.0618
▁heller	-10.0621
▁lenge	-10.0623
dannelse	-10.0624
▁hin	-10.0625
▁kjær	-10.0627
▁bånd	-10.0628
▁boy	-10.0634
▁strekk	-10.0635
▁neu	-10.0651
▁verd	-10.0669
hem	-10.0671
▁philip	-10.0674
▁alder	-10.0675
▁kommunikasjon	-10.0676
▁160	-10.0679
betegnelse	-10.0685
▁kommuner	-10.0692
myndighet	-10.0696
▁eide	-10.0697
▁dikter	-10.0699
▁eksperiment	-10.07
▁1962	-10.07
▁pasient	-10.07
rey	-10.0701
▁1912	-10.0703
▁1958	-10.0703
▁1956	-10.0703
▁1963	-10.0703
▁1952	-10.0703
▁tolv	-10.0704
amin	-10.0704
▁innsjø	-10.0705
▁1900	-10.0711
mennene	-10.0714
▁tørr	-10.0721
▁møter	-10.0726
▁debutert	-10.0729
hjem	-10.0729
▁teo	-10.0733
▁team	-10.0734
▁tapte	-10.0749
▁tradisjonelle	-10.0749
▁lyst	-10.0752
▁inge	-10.0753
onym	-10.0755
▁petr	-10.0757
▁konkurranse	-10.076
voks	-10.0762
▁from	-10.0764
▁simon	-10.0767
▁kroner	-10.0768
▁tonn	-10.0785
▁aksje	-10.0797
▁solgt	-10.0799
▁oc	-10.0804
▁beat	-10.0806
▁bull	-10.0809
22	-10.0813
▁salg	-10.0813
▁uavhengig	-10.0819
▁nowiki	-10.0825
▁1961	-10.0825
▁skjær	-10.0825
▁posisjon	-10.0825
▁golf	-10.0826
▁1919	-10.0828
innspilling	-10.0838
▁foto	-10.0844
▁syke	-10.0847
▁mobil	-10.0847
▁kjenne	-10.0848
▁vokalist	-10.0848
▁glass	-10.0852
utvikling	-10.0853
▁show	-10.0859
▁sie	-10.0861
▁bølge	-10.0861
hed	-10.0864
▁vestre	-10.087
▁livet	-10.0876
▁master	-10.0884
▁nem	-10.0888
▁sup	-10.0892
32	-10.0893
▁cup	-10.0895
▁kvalitet	-10.0898
▁preget	-10.0906
▁il	-10.0909
▁verb	-10.0922
program	-10.0922
▁niels	-10.0924
▁karakter	-10.0924
▁utføre	-10.0924
halvøya	-10.0925
dekke	-10.0929
▁fc	-10.0932
▁nettverk	-10.0933
zj	-10.0945
▁institut	-10.0948
ë	-10.0952
▁australia	-10.0952
▁eventyr	-10.0952
▁etterhvert	-10.0952
▁betjene	-10.0954
▁south	-10.0954
▁lønn	-10.0954
▁skjedde	-10.0955
▁1920	-10.0956
▁snart	-10.0957
▁multi	-10.0958
▁trommer	-10.0963
▁dvs	-10.0965
▁flertall	-10.0967
gli	-10.0974
utgivelse	-10.0993
▁ytre	-10.0996
▁kår	-10.0997
tjeneste	-10.0997
▁beina	-10.0998
▁mulighet	-10.1006
▁rose	-10.1007
▁skyld	-10.1015
▁begrep	-10.1017
pha	-10.1019
▁oliv	-10.1019
▁american	-10.102
▁befolkning	-10.1027
bukta	-10.1028
hai	-10.1034
▁1800	-10.1034
mitt	-10.1041
▁skriver	-10.1041
forhold	-10.1046
tilbud	-10.1051
ryk	-10.1079
▁science	-10.108
▁episode	-10.108
vall	-10.1081
▁stortinget	-10.1081
▁kveld	-10.1082
▁stortings	-10.1083
ordning	-10.1084
møll	-10.1085
▁luther	-10.1092
▁likhet	-10.1107
▁intern	-10.111
▁vill	-10.111
▁fru	-10.112
▁kald	-10.1121
konkurranse	-10.1123
▁emil	-10.1132
kjempe	-10.1134
▁magasin	-10.1138
strøk	-10.1138
▁koll	-10.1141
▁intel	-10.1142
hild	-10.1148
▁studio	-10.1156
▁ali	-10.1157
▁music	-10.1161
▁kapp	-10.1162
▁idrettslag	-10.1168
▁olavs	-10.117
▁rask	-10.1171
▁runde	-10.1178
45	-10.118
mbo	-10.118
▁kvart	-10.1181
▁try	-10.1183
▁prosjektet	-10.1187
kall	-10.119
▁offiser	-10.1196
▁utga	-10.1199
historiker	-10.1209
▁jørgen	-10.121
▁alvorlig	-10.121
▁cirka	-10.121
kritiker	-10.1211
plattform	-10.1211
▁kjærlighet	-10.1211
lignende	-10.1213
kommisjon	-10.1214
▁papir	-10.1214
▁forbundet	-10.1215
▁ross	-10.1217
▁islam	-10.122
▁kropps	-10.1228
masse	-10.1229
tekst	-10.1231
eppe	-10.1234
ikkel	-10.1236
ев	-10.124
▁kjøtt	-10.1241
▁wolf	-10.1245
▁katolske	-10.1246
stått	-10.1247
▁drei	-10.1247
endring	-10.1251
plate	-10.1254
avdeling	-10.1257
▁iso	-10.1268
▁vers	-10.1269
▁dekker	-10.127
▁skarp	-10.1271
bøker	-10.1272
krig	-10.1287
▁familiegruppe	-10.1289
opera	-10.1292
▁tau	-10.1294
later	-10.1295
støt	-10.1295
vision	-10.1295
▁kaptein	-10.1296
▁styrker	-10.13
hre	-10.1308
▁kva	-10.1312
▁rulle	-10.1314
▁ud	-10.1315
sket	-10.1326
▁preg	-10.1329
▁hed	-10.1329
▁whi	-10.1331
reise	-10.1335
▁uttale	-10.1336
▁etterfulgt	-10.1342
▁regissør	-10.1342
▁selvstendig	-10.1342
▁gustav	-10.1342
▁yngre	-10.1342
▁für	-10.1342
▁finnmark	-10.1343
▁1930	-10.1346
▁protest	-10.1346
▁artister	-10.135
▁spenning	-10.1353
erud	-10.1357
▁slave	-10.1358
▁arkitektur	-10.136
linjer	-10.137
▁kaller	-10.1384
▁gon	-10.1386
▁kari	-10.1391
amerikansk	-10.1397
▁landbruks	-10.1401
▁ansvarlig	-10.1401
lé	-10.1405
▁term	-10.1406
bygningen	-10.1412
▁spørsmål	-10.1414
modell	-10.1416
slekten	-10.1435
ifisert	-10.1437
▁sveits	-10.1447
▁ingeniør	-10.1455
▁manus	-10.1456
▁studier	-10.1464
hor	-10.1468
▁oversikt	-10.1475
▁debutalbum	-10.1475
ington	-10.1477
▁alfred	-10.1477
▁gjer	-10.1481
▁kjøl	-10.1482
cheng	-10.1482
▁hjerne	-10.1486
▁1000	-10.1488
kort	-10.1492
org	-10.15
▁kamper	-10.1503
▁nærmer	-10.1503
▁sankt	-10.1506
▁solgte	-10.1507
▁utøve	-10.1508
forestilling	-10.1508
chu	-10.151
▁class	-10.1511
able	-10.1512
▁hval	-10.1517
▁automat	-10.1519
bevegelsen	-10.1524
31	-10.1529
politikk	-10.1531
▁opphav	-10.1535
▁kode	-10.1536
0	-10.1539
▁føl	-10.1549
fekt	-10.155
▁skylde	-10.155
▁kilder	-10.1558
katt	-10.156
▁hellige	-10.1561
bakk	-10.1566
sdatter	-10.1575
▁selge	-10.1577
galleri	-10.1578
▁bidra	-10.1584
leir	-10.1586
▁dobbelt	-10.1589
feng	-10.1591
▁fotograf	-10.1601
▁utover	-10.1602
ο	-10.161
▁edvard	-10.161
▁naturgass	-10.1611
▁individ	-10.1612
▁utvikler	-10.1612
ifisering	-10.1616
▁bygda	-10.1616
▁starter	-10.1617
mmel	-10.1618
haus	-10.162
vari	-10.1626
▁skall	-10.163
▁kongelige	-10.1631
ordnet	-10.1633
▁tyr	-10.1639
▁normal	-10.164
▁mono	-10.1641
▁organisert	-10.1641
gjort	-10.1643
▁gott	-10.1644
▁wil	-10.1652
▁м	-10.1652
▁lord	-10.166
komedie	-10.1662
▁skille	-10.1669
▁statlig	-10.1672
▁bredd	-10.1676
lange	-10.168
▁beskrevet	-10.1682
▁mw	-10.1684
botn	-10.1686
▁pap	-10.1689
zar	-10.1691
▁utstyr	-10.1691
høyskole	-10.1693
▁fan	-10.1694
▁landskap	-10.1702
qi	-10.1704
▁bakkroppen	-10.1724
▁fett	-10.1726
ledet	-10.1727
▁hundre	-10.1733
▁skinn	-10.1736
▁portugisisk	-10.1747
▁ludvig	-10.1747
▁tømmer	-10.1747
▁company	-10.1747
gymnas	-10.1748
▁kjemi	-10.1749
▁slank	-10.1749
▁1959	-10.175
▁1957	-10.175
▁mannskapet	-10.175
▁nattfly	-10.175
oma	-10.1753
flekk	-10.1754
▁gjenopp	-10.1766
▁utdannelse	-10.1766
▁kraftige	-10.178
▁kim	-10.1785
▁sle	-10.1787
▁sete	-10.1796
rommet	-10.1802
▁vegg	-10.1803
▁dahl	-10.1813
serie	-10.1814
▁endelig	-10.1817
▁mitt	-10.1823
▁river	-10.1825
▁nordland	-10.1826
▁blanding	-10.1835
▁tai	-10.1837
stemt	-10.184
▁ost	-10.1841
▁poli	-10.1848
▁utvidet	-10.1848
▁bonde	-10.1851
▁berømte	-10.1853
▁drevet	-10.1854
▁debut	-10.1857
▁eik	-10.1864
▁indian	-10.1864
▁ild	-10.1878
▁fullstendig	-10.1886
▁mexico	-10.1886
▁fengsel	-10.1886
▁sigurd	-10.1886
▁betrakte	-10.1886
▁mekanisk	-10.1886
▁1953	-10.1889
▁mytologi	-10.189
fatning	-10.1896
▁tradisjonel	-10.1897
▁drikke	-10.1897
▁linjen	-10.1904
▁foreningen	-10.1907
▁play	-10.1907
▁hil	-10.1911
▁lavere	-10.1911
▁kanon	-10.1914
▁qa	-10.1914
▁rang	-10.1922
▁finalen	-10.1923
▁polar	-10.1927
▁menighet	-10.1929
▁politiet	-10.1932
▁forekommer	-10.1937
▁undersøkelse	-10.194
▁angel	-10.1942
maker	-10.1945
▁gruve	-10.195
hånd	-10.1952
▁handle	-10.196
▁endt	-10.1968
prest	-10.1976
▁maleri	-10.1978
næs	-10.198
▁liga	-10.198
āng	-10.1988
▁tun	-10.1989
▁tron	-10.1994
▁funn	-10.1997
bury	-10.2001
▁utstyrt	-10.2002
▁sønd	-10.2009
flat	-10.2013
▁pels	-10.2026
▁manuskript	-10.2027
▁utgangspunkt	-10.2027
▁vietnam	-10.2027
▁vulkan	-10.2027
▁monument	-10.2027
▁fiktiv	-10.2027
▁begynnelsen	-10.2027
time	-10.2029
▁1946	-10.203
▁drammen	-10.203
▁ridder	-10.2033
▁brenn	-10.2033
▁forvingen	-10.2034
▁uttalt	-10.2037
▁ledende	-10.2042
▁liberal	-10.2063
▁nordre	-10.2064
▁tunnel	-10.207
▁qi	-10.2071
▁ankom	-10.2074
▁sikre	-10.2082
▁morgen	-10.2084
spir	-10.2088
tysk	-10.2098
▁strid	-10.2103
▁samarbeidet	-10.2104
▁oh	-10.2124
▁inte	-10.2135
▁ey	-10.2146
▁nau	-10.2146
▁sco	-10.2149
horn	-10.2152
▁aas	-10.2154
▁bein	-10.2156
versjon	-10.216
▁vingene	-10.2161
▁chu	-10.2161
fyr	-10.2165
▁blokk	-10.2169
▁ukrainsk	-10.217
▁1949	-10.217
▁svømme	-10.217
stell	-10.2171
▁sekund	-10.2171
▁1929	-10.2172
▁institutt	-10.2172
▁generasjon	-10.2172
▁1944	-10.2173
▁skotsk	-10.2174
domstol	-10.2174
▁minutt	-10.2175
wick	-10.2177
▁portrett	-10.2181
skifte	-10.2186
▁stabil	-10.2186
▁arrest	-10.2188
▁korn	-10.2191
rekke	-10.2193
▁verksted	-10.2193
▁bære	-10.2194
▁lom	-10.2203
▁ray	-10.2204
▁landsby	-10.2216
▁slå	-10.2231
▁thu	-10.2233
sikkerhet	-10.2241
gutt	-10.2242
miljø	-10.2244
skrive	-10.2244
design	-10.2247
▁fritt	-10.2248
▁beskriver	-10.2255
▁tromsø	-10.2257
▁vunnet	-10.2264
▁anse	-10.2278
▁ref	-10.2282
cast	-10.2292
▁amerika	-10.2303
formasjon	-10.2303
kjel	-10.2308
▁herman	-10.2313
▁dekkvingene	-10.2315
konstruksjon	-10.2315
▁digital	-10.2315
▁forårsake	-10.2315
▁deutsche	-10.2315
▁redusert	-10.2315
▁premier	-10.2315
▁lån	-10.2318
▁1948	-10.2318
▁1918	-10.2318
▁sålede	-10.2319
▁michel	-10.2328
▁filosofi	-10.2329
bebyggelse	-10.2331
▁eksempelvis	-10.2338
▁vig	-10.234
konge	-10.2341
▁metro	-10.2344
▁morten	-10.2361
▁fry	-10.2364
▁fortsetter	-10.2367
▁peder	-10.237
▁kha	-10.2375
▁henri	-10.2388
▁pyr	-10.2397
▁femte	-10.2398
▁innhold	-10.2407
forsker	-10.2409
▁måne	-10.2409
folket	-10.2412
▁signal	-10.2413
eira	-10.2417
vika	-10.2421
▁elektron	-10.2433
▁dio	-10.2434
spinner	-10.2439
▁bispedømme	-10.2443
speil	-10.2444
▁storm	-10.2444
▁gli	-10.2448
34	-10.2454
blikk	-10.246
opplæring	-10.2462
frekvens	-10.2462
▁kombinert	-10.2462
▁registrert	-10.2462
▁musikalsk	-10.2462
▁hve	-10.2462
▁flytende	-10.2464
▁1936	-10.2466
▁definert	-10.2466
▁bakken	-10.247
▁butikk	-10.2473
▁arkeolog	-10.2475
▁nm	-10.2475
▁kvinnelige	-10.2477
▁trener	-10.2488
▁nederland	-10.2489
▁myk	-10.2494
yuan	-10.2501
▁billed	-10.2509
stone	-10.251
snegl	-10.251
dikt	-10.2511
▁status	-10.2528
▁viking	-10.2531
▁tour	-10.2535
zel	-10.2536
magasin	-10.2544
effekt	-10.2546
▁tross	-10.2547
problem	-10.2551
behandling	-10.2561
▁saga	-10.2563
▁modern	-10.2581
▁sats	-10.2585
▁forsøkt	-10.2586
▁abd	-10.2587
▁az	-10.2601
▁byfylke	-10.2611
▁california	-10.2611
▁millimeter	-10.2611
▁omfattende	-10.2611
▁færøyene	-10.2611
friidrettsutøver	-10.2611
▁kapell	-10.2611
komité	-10.2612
▁adresse	-10.2612
faktor	-10.2617
▁arc	-10.262
▁kristin	-10.262
▁veldig	-10.2621
▁henhold	-10.2625
▁franz	-10.2625
▁gjennomført	-10.2628
ledd	-10.2631
▁legend	-10.2632
▁oversettelse	-10.2638
▁persisk	-10.264
▁alba	-10.2642
▁walter	-10.2645
▁nordisk	-10.265
▁kali	-10.2652
verdi	-10.2667
▁sara	-10.2676
▁krever	-10.268
▁tykk	-10.2681
▁server	-10.2686
▁nyere	-10.2691
funksjon	-10.2698
▁radi	-10.2708
redskap	-10.2713
ansett	-10.2728
▁wel	-10.2732
tain	-10.2739
ovitsj	-10.2742
▁bygger	-10.2748
ς	-10.2762
▁kulturminner	-10.2762
▁utbredt	-10.2762
veksling	-10.2763
▁anerkjent	-10.2763
▁konsept	-10.2763
worth	-10.2764
▁kristne	-10.2764
▁1941	-10.2765
▁fremført	-10.2771
politisk	-10.2777
▁shu	-10.2786
▁sammenlagt	-10.2787
iseres	-10.2788
▁ple	-10.2788
▁ekstra	-10.2789
▁begrense	-10.2789
cup	-10.2796
▁frei	-10.2798
pleie	-10.2806
▁museet	-10.2823
▁slett	-10.2828
språklig	-10.2832
▁ulik	-10.2832
perioden	-10.2833
▁formen	-10.2834
▁khan	-10.2847
kreft	-10.2848
akademi	-10.2854
▁spin	-10.2862
født	-10.2865
kron	-10.2866
▁ranger	-10.2867
▁advokat	-10.2873
spiss	-10.2873
vatn	-10.2873
mesterskapet	-10.2876
▁kjønn	-10.2883
▁sikte	-10.2892
næring	-10.2896
▁arkiv	-10.2903
▁medisinsk	-10.291
tjenesten	-10.2911
arrangement	-10.2916
▁territori	-10.2916
▁alkohol	-10.2916
▁jakob	-10.2916
kjøring	-10.2917
▁ekteskap	-10.2917
ressurs	-10.2917
▁rolf	-10.2917
▁brasil	-10.2918
▁skøyte	-10.2919
▁1928	-10.2919
▁1954	-10.2919
▁mineral	-10.2919
▁1942	-10.292
▁sverre	-10.292
▁piano	-10.2945
ward	-10.295
▁birk	-10.2956
▁mir	-10.2957
▁johnson	-10.2962
høyden	-10.2974
▁silke	-10.2978
▁liber	-10.2986
▁chan	-10.2988
▁utvikle	-10.2992
▁kontrakt	-10.3004
dahl	-10.3012
instrument	-10.3013
historisk	-10.3013
tank	-10.3017
▁avsluttet	-10.302
▁600	-10.3037
▁sovjetisk	-10.3054
▁utløp	-10.3063
▁inc	-10.3066
cca	-10.3067
løytnant	-10.3072
▁shanghai	-10.3072
▁society	-10.3072
▁egenskaper	-10.3073
▁angripe	-10.3073
▁doktorgrad	-10.3073
▁andré	-10.3073
▁jødisk	-10.3074
▁1951	-10.3075
▁håkon	-10.3077
▁unntak	-10.3077
jå	-10.3079
kostnad	-10.3086
▁reaksjon	-10.3088
▁dru	-10.3103
▁filosof	-10.3108
idrett	-10.311
▁trø	-10.3111
▁stilt	-10.3112
▁kau	-10.3118
▁østlige	-10.3124
▁tråd	-10.3126
spreng	-10.3126
▁ulv	-10.3129
▁produsere	-10.3133
seth	-10.3135
stemme	-10.314
katalog	-10.3149
gaten	-10.3151
▁athen	-10.3152
kompani	-10.3153
▁aar	-10.3155
▁krim	-10.3162
▁dukke	-10.3162
▁roger	-10.3167
▁150	-10.3173
forskning	-10.3176
måte	-10.3187
▁corn	-10.3208
▁stab	-10.3209
rock	-10.321
▁landslag	-10.3218
▁gjeld	-10.322
lister	-10.3224
ь	-10.323
▁elisabeth	-10.3231
▁nødvendig	-10.3231
▁sjeldne	-10.3231
▁ekstrem	-10.3231
▁komponert	-10.3232
▁arthur	-10.3232
▁tyrkisk	-10.3232
▁utenlandsk	-10.3232
▁1934	-10.3233
▁1926	-10.3233
▁1927	-10.3233
olje	-10.3234
situasjon	-10.3235
▁1947	-10.3235
▁ligner	-10.3235
▁trenger	-10.3236
▁soldater	-10.3236
▁signert	-10.3238
▁bekrefte	-10.3238
▁regnet	-10.3241
▁game	-10.3243
▁skilt	-10.3244
▁demningen	-10.3245
▁hersker	-10.325
▁trond	-10.3251
▁gutte	-10.3252
▁isteden	-10.326
▁geir	-10.3264
▁sid	-10.327
gress	-10.3274
▁kammer	-10.3275
▁prakt	-10.3276
▁reserve	-10.3277
▁øv	-10.3286
stråle	-10.3287
flo	-10.3319
▁small	-10.3328
materiale	-10.3337
▁800	-10.3338
museet	-10.3346
stift	-10.3347
▁laks	-10.3354
utstyr	-10.3358
myr	-10.3373
givelse	-10.3388
radio	-10.3391
▁forbinde	-10.3392
▁schi	-10.3392
▁installert	-10.3393
▁county	-10.3393
▁kombinasjon	-10.3393
▁innsats	-10.3393
▁fysisk	-10.3393
▁oppstår	-10.3393
▁oberst	-10.3393
▁edward	-10.3395
▁tenk	-10.3395
▁tildeles	-10.3395
▁sykkel	-10.3396
▁sjelden	-10.3398
▁1940	-10.3399
▁diplomat	-10.3404
kampanje	-10.3408
▁nordsamisk	-10.341
cio	-10.3414
krat	-10.3414
▁behov	-10.3416
▁brei	-10.342
▁karakteristisk	-10.342
▁young	-10.3427
▁overført	-10.3429
▁bidrag	-10.345
▁torg	-10.3458
▁skar	-10.3458
fysikk	-10.3463
▁who	-10.3464
▁fantes	-10.3467
▁visse	-10.3474
setting	-10.3493
▁tell	-10.35
avgift	-10.3503
▁elektro	-10.3506
▁plateselskap	-10.3506
▁grim	-10.3511
▁skiller	-10.3518
▁forsvaret	-10.3528
▁anta	-10.3541
forvaltning	-10.355
type	-10.3554
ч	-10.3554
▁salme	-10.3556
▁utelukke	-10.3556
▁fjær	-10.3557
▁fattig	-10.3557
▁bærum	-10.3557
▁hovedsak	-10.3557
▁etterfølger	-10.3558
▁1924	-10.3559
▁telefon	-10.356
▁1938	-10.3561
▁erklært	-10.3564
▁allmenn	-10.3567
distanse	-10.3569
▁nød	-10.3571
eksamen	-10.3574
▁beskrive	-10.3574
▁sovjet	-10.3576
▁oppnådd	-10.358
▁utenom	-10.3582
▁konkurransen	-10.3588
▁vu	-10.3598
▁teologi	-10.3634
▁filip	-10.3643
regiment	-10.3645
kontroll	-10.3649
▁hammer	-10.366
aq	-10.3663
▁dyrke	-10.3664
▁foreldre	-10.3665
dommer	-10.3669
▁opprette	-10.3671
front	-10.3678
tittel	-10.368
▁presen	-10.3694
▁dverg	-10.3706
▁association	-10.3723
▁konkurrere	-10.3723
▁league	-10.3723
▁beslekte	-10.3723
▁kontinent	-10.3723
konferanse	-10.3723
▁fiolin	-10.3723
ος	-10.3724
▁brigade	-10.3724
stråling	-10.3724
▁1935	-10.3726
▁tropisk	-10.3726
▁1939	-10.3727
▁samuel	-10.3729
▁karbon	-10.3729
▁vanligste	-10.3735
bryter	-10.3737
ridge	-10.3737
planter	-10.3749
▁divers	-10.3751
▁grønland	-10.3761
▁fotballklubb	-10.3767
▁platen	-10.3768
tårn	-10.3771
▁skiftet	-10.3776
bach	-10.378
▁oppleve	-10.3782
bukk	-10.3785
▁tropp	-10.3785
ulykke	-10.3788
typer	-10.3808
skade	-10.3813
▁beskrev	-10.3814
▁schw	-10.3833
▁sender	-10.3845
bølge	-10.385
turnering	-10.3853
▁aksel	-10.3865
administrasjon	-10.3873
▁regjer	-10.3874
▁anker	-10.3876
ра	-10.3887
▁fødsel	-10.3892
▁guvernør	-10.3893
▁foregår	-10.3893
▁kritikk	-10.3893
▁http	-10.3893
▁eventuel	-10.3893
▁terror	-10.3893
▁patriark	-10.3894
▁programleder	-10.3895
▁1933	-10.3895
▁1921	-10.3896
▁svein	-10.3899
▁turneringen	-10.3901
▁scott	-10.3903
▁atlant	-10.3904
▁street	-10.3907
▁donau	-10.3909
turbin	-10.3916
▁orgel	-10.392
▁rau	-10.3923
▁brede	-10.3924
▁hytte	-10.3926
▁sørover	-10.3936
▁kjøpt	-10.3972
gass	-10.3973
▁glad	-10.3974
lä	-10.398
ship	-10.3988
▁verdensmester	-10.3991
board	-10.4014
strømmen	-10.4028
▁sik	-10.4036
▁cand	-10.4054
▁konflikt	-10.4065
▁initiativ	-10.4065
▁pakistan	-10.4065
▁positiv	-10.4065
▁vesentlig	-10.4065
▁kommando	-10.4065
▁erobret	-10.4065
▁ødelegge	-10.4065
▁nedbør	-10.4065
pedagog	-10.4065
▁kriminal	-10.4066
▁arendal	-10.4067
▁1932	-10.4067
▁anklage	-10.4068
▁1937	-10.4069
rettigheter	-10.4069
▁hindre	-10.4069
▁nærheten	-10.4074
▁passerer	-10.4077
veps	-10.408
▁sav	-10.4083
▁sving	-10.4091
▁synge	-10.4101
forsvar	-10.411
▁grunnlegge	-10.4114
▁clo	-10.4118
▁vekk	-10.4133
▁egil	-10.4143
brødre	-10.415
følelse	-10.4163
▁sammenligne	-10.4172
▁løfte	-10.4174
▁vev	-10.4199
direktør	-10.4201
▁offisiel	-10.421
▁larve	-10.4238
▁alpin	-10.4239
▁australsk	-10.424
▁komposisjon	-10.424
▁umiddelbar	-10.424
▁invest	-10.4241
▁hebraisk	-10.4241
▁utmerkelse	-10.4241
▁knud	-10.4241
▁naturreservat	-10.4241
▁belgisk	-10.4241
ль	-10.4242
▁anvende	-10.4243
mønster	-10.4243
▁1914	-10.4244
▁1908	-10.4244
▁spredt	-10.4246
▁hovedkontor	-10.4248
▁alex	-10.4255
ahl	-10.4256
▁grunnlaget	-10.4257
▁dokumentar	-10.4258
▁sukker	-10.4261
▁mynt	-10.4267
▁innerst	-10.4268
▁sveitsisk	-10.4278
▁jeff	-10.4283
sjö	-10.4283
▁even	-10.4293
▁pensjon	-10.4306
▁bakke	-10.4327
lista	-10.433
▁gaten	-10.4345
▁life	-10.4345
▁skapt	-10.4364
minne	-10.4367
data	-10.4368
▁chris	-10.4372
okså	-10.4379
▁falk	-10.4383
profil	-10.4395
chel	-10.4396
▁vindu	-10.4407
▁francis	-10.4415
republik	-10.4418
▁1906	-10.4419
vurdering	-10.4419
▁studioalbum	-10.442
▁forvaltnings	-10.4427
▁skytter	-10.4432
▁cel	-10.4442
▁kilo	-10.4451
skår	-10.4452
▁gjenstand	-10.4459
▁chile	-10.4464
▁rosa	-10.4493
▁raf	-10.4494
kledd	-10.4503
utøver	-10.4519
▁nova	-10.4534
slått	-10.4535
ко	-10.4535
▁jam	-10.4538
skyting	-10.4547
▁xu	-10.4556
fold	-10.4563
kroppen	-10.4565
struktur	-10.4568
▁elektronisk	-10.4579
ка	-10.4585
▁undergrunnsbane	-10.4601
▁hensikt	-10.4601
grunnsstasjon	-10.4601
▁negativ	-10.4602
▁protein	-10.4602
aften	-10.4603
▁novell	-10.4604
▁hemmelig	-10.4604
▁1923	-10.4604
strup	-10.4606
▁litterær	-10.4607
▁opptrådt	-10.4607
▁brown	-10.4609
▁flekker	-10.461
▁lokalisert	-10.4611
▁skjell	-10.4612
▁diesel	-10.4612
løpere	-10.4615
▁nedlagt	-10.4617
▁partner	-10.4621
▁effektiv	-10.4633
▁bety	-10.4642
▁befinne	-10.4649
ario	-10.4653
▁synlig	-10.467
▁krok	-10.4671
▁troms	-10.4682
▁munk	-10.4692
forsamlingen	-10.4722
▁angi	-10.4723
▁intens	-10.4734
klær	-10.4739
▁hellig	-10.4743
▁wang	-10.4755
▁kropp	-10.4756
teknologi	-10.4759
▁virkelig	-10.4762
ittisk	-10.4766
▁afghanistan	-10.4786
▁kollektiv	-10.4786
▁trommeslager	-10.4786
▁tønsberg	-10.4786
▁church	-10.4786
▁spania	-10.4786
▁seinere	-10.4787
▁eksistert	-10.4787
▁kryp	-10.4788
styring	-10.4788
▁godkjent	-10.4788
▁jones	-10.4788
▁stiftelsen	-10.4789
bestemmelse	-10.4792
▁antonio	-10.4793
nntatt	-10.4793
▁bidro	-10.4793
▁håndverk	-10.4794
▁blank	-10.4794
ни	-10.4795
▁jackson	-10.4797
▁ukjent	-10.48
bevisst	-10.4805
melding	-10.4807
▁skrå	-10.4822
▁represent	-10.4825
▁agder	-10.4831
presjon	-10.4832
pakke	-10.4844
▁qing	-10.4867
▁jud	-10.4886
▁white	-10.489
▁pont	-10.4895
blå	-10.4897
▁water	-10.4929
orientert	-10.4931
elius	-10.4941
president	-10.495
▁frihet	-10.4951
▁plast	-10.4955
medlemmer	-10.4958
▁institusjon	-10.4962
sidig	-10.4972
▁forgjenger	-10.4975
▁skjønn	-10.4975
▁admiral	-10.4975
▁skulptur	-10.4975
▁antagelig	-10.4975
▁vilhelm	-10.4975
▁www	-10.4975
▁kobber	-10.4975
forsikring	-10.4976
▁bøkene	-10.4976
▁gregor	-10.4976
▁hjort	-10.4976
▁prinsesse	-10.4977
▁tabellen	-10.498
apparat	-10.498
▁røyk	-10.498
▁tegninger	-10.4981
trådte	-10.4985
▁formula	-10.4985
▁synes	-10.4989
▁terje	-10.4994
▁wall	-10.4999
▁overleve	-10.5036
▁nazi	-10.5038
▁nordover	-10.5038
▁departement	-10.5041
vitsj	-10.5047
▁book	-10.5053
▁skyte	-10.5061
▁wales	-10.5074
▁finale	-10.5111
▁lou	-10.5113
▁bang	-10.5122
▁arab	-10.514
▁tolk	-10.5143
grønn	-10.5144
bibliotek	-10.5145
▁konservativ	-10.5167
▁reference	-10.5167
▁1905	-10.5167
▁symptom	-10.5167
▁regulering	-10.5167
▁skottland	-10.5167
▁yrkes	-10.5167
▁risiko	-10.5167
▁global	-10.5167
▁bjørk	-10.5168
▁gabriel	-10.5168
▁brødrene	-10.5169
▁frivillig	-10.5169
▁håndball	-10.5169
▁kino	-10.517
▁samfunnet	-10.517
angrep	-10.5172
duksjon	-10.5174
▁pedersen	-10.5175
▁pierre	-10.5176
▁gross	-10.518
▁eksport	-10.5181
▁anledning	-10.5185
ōng	-10.5191
▁good	-10.5196
▁angeles	-10.5202
▁nedover	-10.5204
▁jente	-10.5206
▁molde	-10.5209
▁great	-10.5221
▁maj	-10.5223
ле	-10.5252
pumpe	-10.5259
legging	-10.526
ла	-10.5276
støtte	-10.5327
zio	-10.533
ст	-10.5339
hjelp	-10.5345
ttle	-10.5352
▁1901	-10.5363
▁corporation	-10.5363
▁varaordfører	-10.5363
▁vedlikehold	-10.5363
▁1904	-10.5363
▁involver	-10.5363
▁væske	-10.5363
▁rogaland	-10.5363
▁stephen	-10.5363
▁ungarsk	-10.5363
▁strekningen	-10.5364
▁brøt	-10.5365
▁faktisk	-10.5365
konvensjon	-10.5367
▁firmaet	-10.5367
▁skaffe	-10.5372
▁wilson	-10.5372
periode	-10.5374
poll	-10.5376
▁ltd	-10.5379
ière	-10.5384
relatert	-10.5384
▁ungdomsskole	-10.5385
▁frykt	-10.5386
stemning	-10.5387
ва	-10.5392
▁sokn	-10.5405
▁markere	-10.5408
▁aero	-10.5408
▁mottatt	-10.541
▁solberg	-10.5412
hvit	-10.5414
▁hou	-10.5414
▁palme	-10.5427
listen	-10.5431
drive	-10.5442
▁49	-10.5455
▁etasje	-10.5458
▁wild	-10.5459
▁klippe	-10.5461
▁forklare	-10.5487
stigning	-10.549
▁score	-10.5491
▁fiskeri	-10.5501
▁smak	-10.5507
▁energiselskape	-10.5508
▁120	-10.5513
▁spring	-10.5543
▁lill	-10.5546
▁inspirasjon	-10.5563
▁hyppig	-10.5563
▁eksisterer	-10.5563
▁kjennetegne	-10.5564
▁kapital	-10.5564
▁kredit	-10.5564
▁programvare	-10.5565
▁datamaskin	-10.5566
▁bevege	-10.5566
▁1943	-10.5567
▁fullført	-10.5568
▁mengder	-10.5568
▁søndag	-10.5568
▁sjanger	-10.557
▁innlede	-10.5571
▁vannkraftverk	-10.5572
mission	-10.5576
skaja	-10.559
▁bruce	-10.5598
▁bosatt	-10.5612
recht	-10.5615
sykdommer	-10.5616
▁plassering	-10.562
▁kvit	-10.5622
ор	-10.5623
▁reich	-10.5627
grå	-10.563
▁samtid	-10.5634
▁ledes	-10.5636
tavle	-10.5645
▁erstatte	-10.5668
▁norman	-10.5675
▁låten	-10.5679
fordeling	-10.5719
▁hjemmebane	-10.5724
▁hyper	-10.5742
▁oppfatte	-10.5752
medisin	-10.5757
arkitekt	-10.5758
frukt	-10.5758
musiker	-10.5759
▁hovedkvarter	-10.5767
▁observat	-10.5767
▁innbyggerne	-10.5767
▁heinrich	-10.5767
▁etterkommer	-10.5767
▁beseire	-10.5767
▁amatør	-10.5767
▁bodø	-10.5768
▁forbedre	-10.5768
▁stadium	-10.5768
▁nepal	-10.5769
▁prefekturet	-10.5769
betjent	-10.577
▁mangle	-10.577
mekanisme	-10.577
▁utnytte	-10.5771
▁vestfold	-10.5771
▁1910	-10.5773
terminal	-10.5776
▁action	-10.5777
▁major	-10.5779
▁utgivelsen	-10.5783
▁høst	-10.5786
▁talent	-10.5789
▁personlighet	-10.5789
schaft	-10.5792
▁variere	-10.5799
▁tju	-10.5804
▁mau	-10.581
▁oval	-10.5827
laten	-10.5835
▁foreldrene	-10.584
nettverk	-10.5842
▁lunge	-10.5844
▁beskrivelse	-10.585
løft	-10.5865
▁sikker	-10.5867
ruten	-10.5874
zhi	-10.5875
konsert	-10.5893
▁estisk	-10.59
trisk	-10.5902
▁illu	-10.5908
▁landbruk	-10.5909
▁nasjon	-10.5927
ograph	-10.5935
▁praktisk	-10.5936
fallende	-10.5955
▁blind	-10.5966
terapi	-10.597
tradisjon	-10.5972
fabrik	-10.5972
representant	-10.5973
▁midlertidig	-10.5976
▁restaurant	-10.5976
▁ukraina	-10.5976
▁molekyl	-10.5976
▁østerriksk	-10.5976
▁alfabet	-10.5976
▁ansikt	-10.5976
▁resulter	-10.5976
▁valuta	-10.5976
▁kallenavn	-10.5976
syndrom	-10.5978
▁nettsted	-10.5978
▁tallrike	-10.5979
▁friidrett	-10.598
▁bensin	-10.5982
▁down	-10.5989
assa	-10.5992
register	-10.5996
registre	-10.5996
▁geometr	-10.6001
▁1885	-10.6005
▁sørge	-10.6014
▁omhandler	-10.6015
▁søyle	-10.6017
ар	-10.6026
▁audi	-10.6027
forsyning	-10.6031
▁islandsk	-10.6032
skjerm	-10.6032
▁1700	-10.6042
▁fortalt	-10.6052
fast	-10.6062
▁estland	-10.6063
dyktig	-10.6071
areal	-10.6071
▁oversette	-10.6073
lidelse	-10.6078
▁forkortelse	-10.6087
utgave	-10.6088
▁trekant	-10.6089
▁prinsipp	-10.6089
▁arg	-10.6091
▁forbunds	-10.6105
▁vestsid	-10.6114
▁størst	-10.6124
▁forskjellig	-10.6127
prefektur	-10.6187
kjøl	-10.6187
leddet	-10.6187
resultat	-10.6188
▁aleksander	-10.6188
▁giovanni	-10.6188
▁ludwig	-10.6188
▁styrmann	-10.6188
▁svalbard	-10.6188
▁aluminium	-10.6188
▁country	-10.6188
▁akershus	-10.6188
▁brønn	-10.6188
▁victoria	-10.6188
▁virgin	-10.6188
▁parallell	-10.6188
▁skildre	-10.6189
▁walisisk	-10.6189
provins	-10.6189
▁dominert	-10.6189
▁tilpasset	-10.6189
▁kommunistisk	-10.6191
▁bronsemedalje	-10.6191
▁josé	-10.6191
▁snu	-10.6193
▁moderat	-10.6196
▁romsdal	-10.6196
▁brutt	-10.6202
førsel	-10.6202
▁gradvis	-10.621
▁sound	-10.621
metri	-10.6217
▁birg	-10.6218
frem	-10.6236
sfære	-10.624
▁mask	-10.6243
▁kopi	-10.6244
▁grei	-10.6249
gods	-10.6253
▁nerve	-10.626
▁psykolog	-10.6304
▁ibn	-10.6315
▁700	-10.6321
▁skuespill	-10.6349
▁løk	-10.6363
kommende	-10.6373
▁öst	-10.6376
skrevet	-10.6396
▁bulgaria	-10.6406
▁1907	-10.6406
▁definisjon	-10.6406
▁frankfurt	-10.6406
▁maksimal	-10.6406
▁erkebiskop	-10.6406
▁utspring	-10.6406
▁ovenfor	-10.6406
▁hendelsen	-10.6406
leverandør	-10.6406
▁fenomen	-10.6406
▁alexandr	-10.6406
▁josef	-10.6406
▁kjøretøy	-10.6406
▁nektet	-10.6407
▁serbisk	-10.6407
▁føderal	-10.6407
▁overlevd	-10.6408
▁gråbrun	-10.6408
▁1913	-10.6409
institutt	-10.641
▁1911	-10.641
temperatur	-10.641
▁foregikk	-10.641
blokk	-10.6412
▁skygge	-10.6414
▁geit	-10.6421
fattet	-10.6423
▁hitler	-10.6427
fase	-10.6428
▁avholdt	-10.6429
kansler	-10.6443
▁humor	-10.6447
▁tyskerne	-10.6447
▁panser	-10.6451
knapp	-10.6455
▁bratt	-10.646
▁øygrupp	-10.6464
▁morris	-10.6467
▁rid	-10.6476
▁antatt	-10.6478
▁kreve	-10.655
kirch	-10.6557
bekken	-10.6565
▁utenriks	-10.658
burn	-10.661
▁rhe	-10.6614
▁datterselskap	-10.662
▁bulgarsk	-10.6628
▁lørdag	-10.6628
▁tvilling	-10.6628
▁kvadrat	-10.6628
▁kommersiell	-10.6628
▁belgia	-10.6628
▁wessel	-10.6629
▁lewis	-10.6629
▁foreslått	-10.663
▁1917	-10.6631
▁støv	-10.6632
▁kronologisk	-10.6632
▁1925	-10.6632
▁dømt	-10.6632
▁telemark	-10.6632
straße	-10.6635
▁endringer	-10.6635
▁styreleder	-10.6636
▁spesifik	-10.6636
▁bryggeri	-10.6637
▁mjø	-10.6637
▁ibsen	-10.6639
▁uavhengighet	-10.664
▁fremstille	-10.6641
▁jacobsen	-10.6642
sentral	-10.6643
fløy	-10.6643
debut	-10.6644
▁trygg	-10.6644
▁studere	-10.6645
▁onkel	-10.6647
vesenet	-10.6648
▁gjennombrudd	-10.6649
betaling	-10.6655
butikk	-10.6657
▁alpinist	-10.6659
▁foster	-10.666
▁spesialiser	-10.6662
ndorf	-10.6666
▁israelsk	-10.668
▁heart	-10.6681
planlegging	-10.6683
▁frigjør	-10.6688
hår	-10.6707
▁sjel	-10.6724
strek	-10.6745
▁krog	-10.6773
demokrati	-10.6774
▁sammensatt	-10.6774
redaksjon	-10.6778
▁kirkegård	-10.6784
▁katolsk	-10.6792
ск	-10.6796
▁neg	-10.6831
▁900	-10.684
▁amsterdam	-10.6855
▁jesuitt	-10.6855
▁washington	-10.6855
▁infanteri	-10.6855
▁renessanse	-10.6855
▁krevde	-10.6855
▁kongedømmet	-10.6855
▁terreng	-10.6855
▁thailand	-10.6855
▁haugesund	-10.6855
▁reklame	-10.6855
▁central	-10.6857
▁linux	-10.6858
▁1922	-10.6858
▁beholdt	-10.6858
▁clark	-10.6862
▁generell	-10.6862
▁meyer	-10.6864
▁larvik	-10.6865
▁rednings	-10.6867
▁lisens	-10.687
transport	-10.687
karriere	-10.6871
aktivitet	-10.6875
prøve	-10.6876
sdorf	-10.6879
▁hellas	-10.6887
blom	-10.6889
utenriksminister	-10.6905
▁bassist	-10.6931
kål	-10.6967
▁brød	-10.6995
▁demokratisk	-10.7018
▁urban	-10.7062
▁angelsaksisk	-10.7088
▁elizabeth	-10.7088
▁milliarder	-10.7088
▁1903	-10.7088
▁1909	-10.7088
▁juridisk	-10.7088
▁nøkkel	-10.7088
▁referanse	-10.7088
▁barnebarn	-10.7088
▁heavy	-10.7088
kompetanse	-10.7088
▁efter	-10.7089
▁innlemme	-10.7089
▁oppdagelse	-10.7089
▁myndighetene	-10.709
▁dream	-10.709
▁1931	-10.7091
▁social	-10.7091
▁1916	-10.7092
▁hindu	-10.7092
▁østfold	-10.7093
▁myndigheter	-10.7095
▁riktig	-10.7096
investering	-10.7099
▁bridge	-10.71
▁respekt	-10.7104
▁ørken	-10.7104
▁amerikaner	-10.7106
▁deltager	-10.7109
blomsterflue	-10.7121
tveit	-10.7121
▁evig	-10.7125
plikasjon	-10.7134
▁ballad	-10.715
lønn	-10.7167
▁puppe	-10.7171
▁nasa	-10.7179
▁harmoni	-10.7278
▁wol	-10.7291
kledt	-10.7294
▁barndom	-10.7305
▁oppnå	-10.7322
øvelse	-10.7325
direktoratet	-10.7326
▁football	-10.7326
▁windows	-10.7326
kommanderende	-10.7326
▁beslutte	-10.7326
▁jacque	-10.7326
▁baptist	-10.7326
▁uttrykt	-10.7326
▁dollar	-10.7326
▁geografisk	-10.7326
▁nominert	-10.7326
▁adolf	-10.7326
▁allierte	-10.7326
▁detroit	-10.7326
▁detaljer	-10.7327
▁regulere	-10.7327
▁akutt	-10.7328
mouth	-10.7328
▁stefan	-10.7328
▁gordon	-10.7328
▁manager	-10.7329
нов	-10.733
▁innebære	-10.733
▁komplett	-10.7331
stipend	-10.7331
▁debatt	-10.7335
▁kongress	-10.7335
▁tildeling	-10.7336
▁nevø	-10.734
▁motorvei	-10.7346
▁nevner	-10.7346
▁glans	-10.7349
offiser	-10.7351
▁eirik	-10.7351
europeisk	-10.7352
høyde	-10.7465
owski	-10.7472
▁statue	-10.7488
▁klage	-10.749
▁anerkjenne	-10.757
▁forøvrig	-10.757
▁oksygen	-10.757
▁pronotum	-10.757
▁asteroide	-10.757
▁bataljon	-10.757
▁embeds	-10.757
▁ferskvann	-10.757
▁kontrovers	-10.757
▁akseptert	-10.757
▁tyrkia	-10.757
▁kristiansand	-10.757
▁kapittel	-10.757
▁hovedpersonen	-10.757
▁tilskuer	-10.757
▁haakon	-10.757
▁utseende	-10.7571
▁originaltittel	-10.7571
▁nkp	-10.7572
▁import	-10.7573
▁fuktig	-10.7574
▁afrikansk	-10.7575
▁tidspunkt	-10.7575
▁monark	-10.7575
▁nyhets	-10.7575
▁francisco	-10.7576
▁stengt	-10.7578
▁avansert	-10.758
▁antikken	-10.7581
▁nederst	-10.7585
▁tørke	-10.7586
bispedømme	-10.7601
litteratur	-10.7602
▁gill	-10.7606
arkiv	-10.7619
▁utvidelse	-10.7623
▁akku	-10.7628
▁ligning	-10.7643
▁barneskole	-10.7671
▁tidligst	-10.7758
▁psyko	-10.7816
▁barcelona	-10.782
▁kjøkken	-10.782
▁oppmerksomhet	-10.782
▁aleksandr	-10.782
▁frilufts	-10.782
▁kennedy	-10.782
▁seremoni	-10.782
▁wergeland	-10.782
▁bokstaven	-10.782
▁taylor	-10.782
▁1882	-10.782
▁permanent	-10.782
▁theodor	-10.782
▁utsikt	-10.782
▁ytterst	-10.782
▁seksuell	-10.782
▁utnevne	-10.782
▁bmw	-10.7821
▁axel	-10.7821
▁kalender	-10.7822
▁poesi	-10.7823
▁bedriften	-10.7823
▁what	-10.7824
▁tennis	-10.7825
▁barokk	-10.7825
▁hvile	-10.7825
▁europavei	-10.7826
▁betong	-10.7826
▁historikeren	-10.7827
▁igjennom	-10.7827
▁grunnkrets	-10.7828
▁rhin	-10.7832
▁spyd	-10.7835
▁muskel	-10.7836
bjørg	-10.7844
▁tilsyne	-10.7848
ingeniør	-10.7858
regjering	-10.7858
studier	-10.7861
drevne	-10.7862
▁bønn	-10.7878
▁bryn	-10.7885
▁kontrollere	-10.7917
foretak	-10.7949
▁rådhus	-10.7979
bregne	-10.7992
bevegelse	-10.8003
▁symboliser	-10.8007
▁sjakk	-10.8033
▁orient	-10.8034
ifikasjon	-10.8067
hockey	-10.8069
distribusjon	-10.8076
▁françois	-10.8076
▁meksikansk	-10.8076
▁observasjon	-10.8076
▁orchestra	-10.8076
▁skihopper	-10.8076
▁technology	-10.8076
▁utbredelse	-10.8076
▁hordaland	-10.8076
▁portugal	-10.8076
infeksjon	-10.8076
▁francesc	-10.8076
▁selvmord	-10.8076
▁sachsen	-10.8076
▁zealand	-10.8076
▁rykket	-10.8077
▁canadisk	-10.8077
▁noctu	-10.8077
▁senior	-10.8077
▁nyheter	-10.8078
▁pistol	-10.8078
▁tempo	-10.8078
▁energy	-10.8081
▁bundes	-10.8083
▁gratis	-10.8089
▁koreograf	-10.8089
▁punk	-10.8093
▁ballett	-10.8094
seminar	-10.8098
▁kreert	-10.8099
▁benevn	-10.8103
▁söd	-10.8108
▁lykke	-10.8119
orkester	-10.8121
finalen	-10.8122
▁bryte	-10.8128
▁drepe	-10.8166
▁brent	-10.8167
bæk	-10.8172
▁demokrat	-10.8199
psykologi	-10.8202
▁universit	-10.8231
▁unngå	-10.8244
forstyrrelse	-10.8256
та	-10.8303
▁forhindre	-10.8339
▁network	-10.8339
▁sebastian	-10.8339
▁valgdeltakelse	-10.8339
▁litauen	-10.8339
▁pradesh	-10.8339
▁trygve	-10.8339
▁komponent	-10.8339
disiplin	-10.8339
▁kommentar	-10.8339
▁vassdrag	-10.8339
kommandør	-10.834
▁utarbeide	-10.8341
▁kongsberg	-10.8341
▁schön	-10.8341
▁elleve	-10.8342
▁hedmark	-10.8342
▁forklaring	-10.8342
▁døpt	-10.8342
▁bløt	-10.8343
▁årsproduksjon	-10.8343
▁disney	-10.8343
▁bispe	-10.8344
▁rakett	-10.8344
▁charlie	-10.8345
▁oppgaver	-10.8349
▁verneområde	-10.8351
▁lauren	-10.8352
▁tjener	-10.8358
sæter	-10.8362
▁keep	-10.8373
edderkopper	-10.8375
kommunikasjon	-10.8391
dynastiet	-10.8391
programmet	-10.8397
▁statistisk	-10.8412
kvinne	-10.843
▁enzym	-10.8449
vennlig	-10.8484
▁forekomme	-10.8486
▁fortsette	-10.8519
sosialistisk	-10.8558
▁etnisk	-10.8559
го	-10.8601
▁doktor	-10.8609
landeveissyklist	-10.861
▁ferdinand	-10.861
▁helikopter	-10.861
▁matematikk	-10.861
▁musikkvideo	-10.861
▁münchen	-10.861
▁omdøpt	-10.861
▁ortodoks	-10.861
▁sarpsborg	-10.861
budsjett	-10.861
▁sanskrit	-10.861
▁chicago	-10.861
▁nøyaktig	-10.861
▁ensemble	-10.861
▁fjeld	-10.861
▁sparebank	-10.861
▁grün	-10.861
▁tilhengere	-10.861
▁fødselsår	-10.861
▁fremtidig	-10.861
▁taiwan	-10.861
▁uvanlig	-10.861
▁vegetasjon	-10.8611
▁magnetisk	-10.8611
beregning	-10.8611
▁fangst	-10.8612
▁utfordre	-10.8612
▁generalsekretær	-10.8613
▁hjørne	-10.8614
▁jurist	-10.8615
▁howard	-10.8616
▁tilsammen	-10.8617
▁sultan	-10.8618
▁fasade	-10.8619
▁benjam	-10.862
▁bjarn	-10.8621
▁reager	-10.8622
▁stedsnavn	-10.8625
▁operere	-10.8638
▁variasjon	-10.8645
▁gudinne	-10.8656
▁kenya	-10.8657
jørn	-10.867
kjerne	-10.8679
summen	-10.8684
▁avslutte	-10.8702
kjemi	-10.8705
▁domkirke	-10.8705
margin	-10.871
▁variert	-10.8717
▁hjemmeside	-10.8743
basseng	-10.8788
▁skift	-10.8794
fellesskap	-10.8823
▁brygge	-10.8877
▁arrangør	-10.8887
▁douglas	-10.8887
▁electric	-10.8887
▁propaganda	-10.8887
▁tilknytning	-10.8887
▁keyboard	-10.8887
▁sichuan	-10.8887
▁utdødd	-10.8887
▁1902	-10.8887
▁lillehammer	-10.8887
▁engasjert	-10.8887
▁hendelser	-10.8887
▁konstruert	-10.8887
▁embets	-10.8887
▁gjald	-10.8887
▁svovel	-10.8888
▁etablering	-10.8888
skjelettet	-10.8888
▁alminnelig	-10.8888
▁arnold	-10.8889
▁barnehage	-10.889
▁pianist	-10.889
▁templ	-10.8892
▁smelte	-10.8894
▁avviste	-10.8896
balanse	-10.8896
▁moore	-10.8911
vilkår	-10.8912
arbon	-10.8952
kloster	-10.8952
forandring	-10.8963
▁utvide	-10.8963
vík	-10.8964
▁inneholde	-10.9069
torget	-10.9082
spect	-10.9099
▁overføre	-10.9105
▁bryllup	-10.9173
▁eksemplar	-10.9173
▁evolusjon	-10.9173
▁jerusalem	-10.9173
▁jurisdiksjon	-10.9173
▁kambodsja	-10.9173
▁tortricidae	-10.9173
▁diagnose	-10.9173
▁opposisjon	-10.9173
▁strategisk	-10.9173
▁rekrutt	-10.9173
fundament	-10.9173
▁1849	-10.9173
▁airlines	-10.9173
▁gustaf	-10.9173
▁evangel	-10.9173
▁gjær	-10.9173
▁prince	-10.9173
▁mektig	-10.9174
▁ragnar	-10.9174
▁skjebne	-10.9174
▁separat	-10.9174
definer	-10.9175
kirurgi	-10.9175
▁finskspråklig	-10.9175
materiell	-10.9175
▁micro	-10.9176
▁avgjørelse	-10.9176
▁arbeiderpartiet	-10.9178
▁øvelsen	-10.9183
▁ivareta	-10.9186
▁armensk	-10.9188
▁mandat	-10.9189
liknende	-10.92
syklus	-10.9225
▁italie	-10.9226
oppdrett	-10.924
størrelse	-10.9249
flagg	-10.9254
▁varemerke	-10.9259
tolkning	-10.9281
ræd	-10.9292
▁marcel	-10.9325
skutt	-10.9382
▁ideologi	-10.9388
▁journal	-10.9389
▁dynasti	-10.9389
▁columbia	-10.9467
▁generalmajor	-10.9467
▁innspilt	-10.9467
▁mountain	-10.9467
▁nintendo	-10.9467
▁tusenårssted	-10.9467
▁beregnet	-10.9467
▁business	-10.9467
▁hospital	-10.9467
▁ødelagt	-10.9467
▁operativsystem	-10.9467
▁yngste	-10.9467
▁nobelpris	-10.9467
▁traktat	-10.9467
▁people	-10.9467
▁wagner	-10.9468
▁petersburg	-10.9468
▁forsvant	-10.9468
▁pseudo	-10.9468
teatret	-10.9468
▁1881	-10.9468
▁kvalifisert	-10.9468
▁søvn	-10.9468
▁ekspert	-10.9468
▁definerer	-10.9471
▁isbn	-10.9472
▁opplevd	-10.9472
▁antyde	-10.9479
oidea	-10.9488
germansk	-10.9502
▁forvalte	-10.9516
▁anslå	-10.9545
advokat	-10.9551
professor	-10.9552
▁katedral	-10.9598
fogd	-10.9625
bird	-10.9653
▁academy	-10.977
▁argentina	-10.977
▁færøysk	-10.977
▁kromosom	-10.977
▁köln	-10.977
▁tsjekkia	-10.977
▁tsjekkisk	-10.977
▁vladimir	-10.977
▁picture	-10.977
eksplosjon	-10.977
▁tilslutt	-10.977
▁artilleri	-10.977
▁mangfold	-10.977
▁colombia	-10.977
▁1873	-10.977
▁halvorsen	-10.977
▁kjørte	-10.977
▁1872	-10.977
▁interiør	-10.977
▁antarktis	-10.977
▁sophie	-10.977
▁snorre	-10.9771
▁vennskaps	-10.9771
▁korrekt	-10.9771
▁gwh	-10.9771
▁allianse	-10.9771
▁utforming	-10.9772
▁claude	-10.9772
▁vakre	-10.9772
▁regelmessig	-10.9772
▁dekorert	-10.9772
▁hovedsete	-10.9776
kobling	-10.9777
▁rifle	-10.9779
▁elsker	-10.9783
finansiert	-10.9809
▁etappe	-10.9811
▁manuel	-10.983
▁hevn	-10.9859
▁omdanne	-10.9867
▁paleo	-10.9869
▁godkjenne	-11.0083
skilpadde	-11.0083
skvadron	-11.0083
▁ambassadør	-11.0083
▁dirigent	-11.0083
▁guangdong	-11.0083
▁gælisk	-11.0083
▁hongkong	-11.0083
▁hviterussisk	-11.0083
▁keramikk	-11.0083
▁kristoffer	-11.0083
▁petroleum	-11.0083
▁forveksle	-11.0083
▁parallelt	-11.0083
▁elefant	-11.0083
▁müller	-11.0083
▁vertikal	-11.0083
▁arbeidsgiver	-11.0083
▁democra	-11.0083
▁cappelen	-11.0083
▁charlotte	-11.0083
▁fungerte	-11.0083
▁leonard	-11.0083
▁matematisk	-11.0083
▁regulert	-11.0083
▁kritisert	-11.0083
▁ungarn	-11.0083
marskalk	-11.0085
▁sannhet	-11.0085
▁oppfølger	-11.0086
järvi	-11.0087
▁massiv	-11.0087
trukket	-11.009
palasset	-11.0093
begravelse	-11.0109
▁ytelse	-11.0111
syssel	-11.0117
dekorasjon	-11.0119
▁smitte	-11.013
▁sosialdemokrat	-11.0137
givende	-11.0141
▁gjennomføre	-11.0154
sentrum	-11.0188
▁avlang	-11.0192
▁america	-11.0234
embete	-11.0237
▁lukke	-11.0257
katedralen	-11.0264
▁knop	-11.0295
kollen	-11.0346
instruktør	-11.0405
publikasjon	-11.0405
▁ektefelle	-11.0405
▁favoritt	-11.0405
▁helsingfors	-11.0405
▁luxembourg	-11.0405
▁psykisk	-11.0405
▁reservoar	-11.0405
refleks	-11.0405
▁atmosfære	-11.0405
▁intervju	-11.0405
▁microsoft	-11.0405
▁jersey	-11.0405
▁railway	-11.0405
▁minoritet	-11.0405
▁kjønnsmod	-11.0405
▁stridsvogn	-11.0405
▁apotek	-11.0405
▁vurdere	-11.0405
▁preussen	-11.0405
▁ytterkant	-11.0405
bransjen	-11.0405
▁gjøvik	-11.0406
▁langvarig	-11.0406
▁fengsle	-11.0406
betennelse	-11.0406
▁fantasi	-11.0406
▁rumensk	-11.0406
▁virvel	-11.0406
▁redigert	-11.0406
▁beslutning	-11.0407
skildring	-11.0408
▁spirit	-11.0408
reservat	-11.0408
▁innviet	-11.0408
▁hørte	-11.0409
▁smykke	-11.041
▁guinea	-11.0411
gjerde	-11.0412
▁sergej	-11.0413
hjelm	-11.0418
▁organisere	-11.042
▁operert	-11.0421
▁nederlag	-11.0426
▁avskjed	-11.0448
sprang	-11.045
biograf	-11.0452
▁earl	-11.0457
▁republikk	-11.0473
beskyttelse	-11.0477
turné	-11.0483
vunnet	-11.052
redaktør	-11.052
divisjon	-11.0521
kaptein	-11.0524
▁begynne	-11.0633
fotograf	-11.0641
▁mariann	-11.0657
klipp	-11.0709
signal	-11.0715
▁anthony	-11.0739
▁filippinene	-11.0739
▁göteborg	-11.0739
▁hollywood	-11.0739
▁inklusiv	-11.0739
▁jomfru	-11.0739
▁kasakhstan	-11.0739
▁konstitusjon	-11.0739
▁løpebiller	-11.0739
▁napoleon	-11.0739
▁popularitet	-11.0739
▁konsekvens	-11.0739
▁symfoni	-11.0739
▁joachim	-11.0739
▁buskerud	-11.0739
▁nitrogen	-11.0739
▁meteorolog	-11.0739
▁oppdatert	-11.0739
▁pattedyr	-11.0739
▁argument	-11.0739
▁blood	-11.0739
▁innbefatte	-11.0739
▁margaret	-11.0739
▁begravet	-11.0739
▁konsesjon	-11.0739
▁eksistens	-11.0739
▁fjelltopp	-11.074
▁fremheve	-11.074
▁know	-11.074
▁visuell	-11.074
▁africa	-11.074
▁christensen	-11.0741
▁kniv	-11.0742
mandarin	-11.0743
▁space	-11.0743
▁presentert	-11.0744
▁blomstre	-11.0745
▁amalie	-11.0746
▁mikael	-11.0747
▁belønne	-11.0749
▁foretrekke	-11.0755
kollega	-11.0758
▁holdning	-11.0761
▁trondhjems	-11.0772
omsorg	-11.078
erklæring	-11.0791
▁dobbel	-11.0793
▁bakkropp	-11.0803
▁sofie	-11.0812
klub	-11.0836
hefte	-11.0846
sesongen	-11.0866
åpning	-11.0868
blanding	-11.0869
kvartett	-11.0926
fylling	-11.1027
▁lawrence	-11.1083
▁narkotika	-11.1083
▁pennsylvania	-11.1083
▁shakespeare	-11.1083
▁coverversjon	-11.1083
▁jordskjelv	-11.1083
▁konkurrent	-11.1083
▁progressiv	-11.1083
▁mikhail	-11.1083
▁abraham	-11.1083
▁1893	-11.1084
▁bystatus	-11.1084
▁public	-11.1084
▁bomull	-11.1084
▁sicilia	-11.1084
▁unesco	-11.1084
▁wright	-11.1084
mønstre	-11.1084
▁sandefjord	-11.1084
▁etablere	-11.1084
▁kalsium	-11.1084
▁drømme	-11.1085
▁nichol	-11.1085
▁beordre	-11.1085
▁monroe	-11.1086
▁veksle	-11.1086
▁tolkien	-11.1086
▁invasjon	-11.1087
▁xiao	-11.1088
▁techn	-11.109
▁spiral	-11.1094
isotop	-11.1097
▁tilfeldig	-11.11
▁direct	-11.1101
bedring	-11.1102
▁syklist	-11.1111
▁skjøt	-11.1153
kryss	-11.1225
åpne	-11.1293
enhver	-11.143
ская	-11.1441
▁argentinsk	-11.1441
▁aserbajdsjan	-11.1441
▁horisontal	-11.1441
▁konkurrert	-11.1441
▁lincoln	-11.1441
▁mobiltelefon	-11.1441
▁okkupert	-11.1441
▁opphørte	-11.1441
▁plutselig	-11.1441
▁spirakler	-11.1441
▁substantiv	-11.1441
▁terrengsyklist	-11.1441
▁toppscorer	-11.1441
▁babylon	-11.1441
ã	-11.3411
