<unk>	0
<s>	0
</s>	0
.	-3.18748
s	-3.36835
e	-3.52241
▁	-3.90037
▁i	-3.90448
t	-3.99967
▁og	-4.04325
er	-4.08289
en	-4.10338
r	-4.53142
▁er	-4.56216
▁av	-4.6369
n	-4.89161
▁en	-4.89373
▁for	-4.92859
et	-4.95512
▁som	-4.98415
▁til	-5.07192
▁på	-5.13852
a	-5.14622
▁med	-5.19071
▁den	-5.40242
▁var	-5.45403
▁de	-5.47642
i	-5.49813
▁ble	-5.55699
▁fra	-5.62968
d	-5.65691
ene	-5.68447
▁det	-5.68597
▁har	-5.69771
▁et	-5.75317
o	-5.79971
y	-5.828
ne	-5.83973
k	-5.85108
▁han	-5.93957
te	-5.9595
▁å	-6.00293
g	-6.01249
m	-6.01794
l	-6.13469
▁ved	-6.15794
▁også	-6.24192
de	-6.29422
h	-6.35043
f	-6.356
▁s	-6.35986
re	-6.36304
p	-6.36907
▁at	-6.38677
▁ut	-6.40154
v	-6.40898
c	-6.4129
▁eller	-6.43507
in	-6.45578
▁under	-6.45913
▁om	-6.4651
▁etter	-6.46954
▁a	-6.52585
us	-6.52995
ing	-6.56195
▁kan	-6.56524
b	-6.56656
an	-6.60211
▁be	-6.61488
▁to	-6.61639
▁opp	-6.62144
le	-6.63515
▁over	-6.63537
u	-6.68231
▁18	-6.71368
al	-6.71961
▁inn	-6.73877
sk	-6.76939
na	-6.78135
▁da	-6.82062
▁f	-6.83045
▁men	-6.83729
is	-6.83905
▁the	-6.8548
on	-6.86711
ter	-6.87526
ia	-6.90285
▁andre	-6.94294
ar	-6.94987
▁mot	-6.95082
la	-6.95184
▁m	-6.95375
z	-6.97762
▁seg	-6.97975
▁hadde	-6.98077
ende	-6.99544
▁ha	-7.01474
▁sin	-7.01909
▁mellom	-7.02356
w	-7.03291
um	-7.03844
▁la	-7.04479
▁b	-7.05373
▁tre	-7.0568
di	-7.07092
▁h	-7.08298
x	-7.09095
▁u	-7.09145
ch	-7.10357
▁ligger	-7.10561
▁d	-7.11273
or	-7.1129
j	-7.11759
ens	-7.12365
ur	-7.13222
il	-7.13695
▁ikke	-7.14039
land	-7.14483
▁født	-7.14984
▁p	-7.1545
ri	-7.15605
▁1	-7.15815
▁k	-7.15957
ta	-7.1602
▁hans	-7.17567
▁c	-7.19097
ø	-7.20772
▁an	-7.21454
▁al	-7.22697
ka	-7.24229
▁re	-7.24705
▁se	-7.24746
▁blant	-7.25001
lig	-7.25224
▁man	-7.25372
ke	-7.26043
ma	-7.2731
el	-7.27553
é	-7.2792
▁første	-7.27978
øy	-7.28315
▁dette	-7.28525
▁gjennom	-7.28627
der	-7.29158
ck	-7.29763
li	-7.3143
nde	-7.3228
▁nord	-7.32405
ng	-7.33166
nes	-7.33672
be	-7.33684
▁of	-7.34253
▁her	-7.34526
▁hun	-7.34929
ske	-7.35955
▁g	-7.37168
os	-7.38079
da	-7.38552
▁sammen	-7.38839
▁17	-7.39236
isk	-7.39456
ut	-7.40138
▁ca	-7.4025
iske	-7.41317
▁2	-7.41737
▁le	-7.41753
ra	-7.42265
as	-7.42463
▁der	-7.42704
ker	-7.431
▁ra	-7.43324
▁flere	-7.43803
▁fikk	-7.44613
ler	-7.44687
for	-7.44851
ning	-7.46069
▁n	-7.4633
▁l	-7.46359
ig	-7.46381
▁pa	-7.46522
▁denne	-7.46642
▁st	-7.4666
ga	-7.46799
▁bo	-7.47109
ba	-7.47231
å	-7.47486
tt	-7.4835
▁stor	-7.4848
den	-7.49035
ad	-7.49126
vis	-7.49285
ver	-7.49639
lige	-7.4986
me	-7.50088
ton	-7.51331
kk	-7.51397
▁16	-7.51957
at	-7.52015
ro	-7.52478
▁kon	-7.52782
stad	-7.54156
ger	-7.542
▁j	-7.54386
▁blir	-7.54691
ge	-7.54725
▁kom	-7.54857
to	-7.54965
▁sa	-7.55071
▁alle	-7.55383
son	-7.55601
▁in	-7.56245
ner	-7.56255
▁sp	-7.56881
▁5	-7.5751
▁3	-7.57671
th	-7.57783
▁hoved	-7.57879
si	-7.57893
ja	-7.58001
it	-7.58717
▁na	-7.59004
▁li	-7.59525
▁o	-7.60223
man	-7.60731
om	-7.61358
▁4	-7.61422
▁t	-7.61453
▁kommune	-7.61569
vi	-7.6183
bo	-7.62039
ve	-7.62686
ul	-7.63103
▁tidligere	-7.63257
▁di	-7.63424
ry	-7.63475
▁ro	-7.63592
1	-7.64123
▁mo	-7.64125
▁ka	-7.64435
▁v	-7.64456
▁co	-7.64939
▁ar	-7.65086
▁by	-7.65237
▁he	-7.66044
▁år	-7.66406
▁w	-7.66957
▁vi	-7.67133
▁sør	-7.67516
ell	-7.6772
▁annet	-7.67971
ik	-7.68024
▁mange	-7.68036
mi	-7.68131
▁hvor	-7.68249
▁ny	-7.68309
va	-7.68419
pe	-7.6906
ør	-7.69101
▁no	-7.69958
lo	-7.70031
ff	-7.70807
▁lo	-7.70947
mp	-7.71821
bi	-7.71832
▁si	-7.71942
▁disse	-7.72052
▁ti	-7.72654
▁før	-7.72658
▁mens	-7.72842
mo	-7.73144
un	-7.73168
▁15	-7.73221
erte	-7.73319
dal	-7.73354
▁kinesisk	-7.73554
▁del	-7.7393
▁per	-7.74163
▁and	-7.74217
▁ni	-7.74342
▁ma	-7.74426
ko	-7.75371
▁byen	-7.75606
▁ta	-7.75953
▁mer	-7.76192
▁norsk	-7.76386
ce	-7.76522
▁fa	-7.76812
by	-7.769
ang	-7.76994
co	-7.77198
▁as	-7.77428
kt	-7.77465
ic	-7.77585
▁r	-7.78597
▁mar	-7.78737
het	-7.78952
▁død	-7.79389
▁sitt	-7.79498
mann	-7.79896
æ	-7.80326
ed	-7.80631
▁ga	-7.80725
▁så	-7.81326
nd	-7.81501
▁vest	-7.82194
▁du	-7.82667
id	-7.82838
ol	-7.83093
var	-7.83145
▁10	-7.83625
▁bu	-7.84108
ist	-7.85373
ær	-7.8553
▁går	-7.85624
ha	-7.85749
▁samt	-7.86004
▁ned	-7.86037
berg	-7.86054
▁navnet	-7.86261
▁ho	-7.86778
▁te	-7.86929
gi	-7.86956
▁ri	-7.86964
vik	-7.87168
erne	-7.88451
▁finnes	-7.8852
ven	-7.88978
▁gu	-7.89039
á	-7.89089
gen	-7.89362
▁kina	-7.89375
sjon	-7.89375
del	-7.89404
▁ba	-7.89526
▁or	-7.90045
▁pi	-7.90124
mer	-7.90232
ion	-7.90273
▁mor	-7.9168
▁øst	-7.91702
▁noen	-7.91796
do	-7.91894
▁være	-7.92099
ier	-7.9216
▁store	-7.9253
ring	-7.9256
▁land	-7.92568
ard	-7.9271
▁kalt	-7.92877
▁bi	-7.92892
sh	-7.9347
▁senere	-7.93863
ie	-7.94001
▁fri	-7.94106
kke	-7.94151
▁kjent	-7.9416
▁skal	-7.94738
▁6	-7.95047
▁mest	-7.95235
ant	-7.95446
▁po	-7.9603
▁y	-7.96218
▁bestå	-7.96222
▁fly	-7.96337
lin	-7.96342
3	-7.97034
ö	-7.97134
▁ofte	-7.97254
rett	-7.97641
au	-7.97675
men	-7.97775
▁jo	-7.98217
4	-7.98398
▁7	-7.9856
▁vil	-7.98583
▁selv	-7.99456
ca	-7.99806
ov	-8.00046
je	-8.00051
▁siden	-8.00137
▁me	-8.00298
ir	-8.00642
▁12	-8.00857
▁navn	-8.00999
ru	-8.01006
tal	-8.01086
▁ru	-8.01335
▁ko	-8.01422
▁su	-8.01465
▁rundt	-8.01974
ste	-8.01988
▁do	-8.02015
bu	-8.02033
▁frem	-8.0258
▁far	-8.03287
ling	-8.03709
▁lu	-8.03885
▁fire	-8.03919
▁8	-8.04107
▁sch	-8.04139
im	-8.04282
▁so	-8.04392
ti	-8.04571
am	-8.04751
▁11	-8.04934
ly	-8.04991
▁både	-8.05241
po	-8.05318
▁sk	-8.05551
▁hel	-8.06238
else	-8.06455
▁nå	-8.06578
▁hos	-8.06644
go	-8.06655
skap	-8.06705
ster	-8.07262
6	-8.07276
▁bak	-8.07278
▁el	-8.07583
pa	-8.07708
gu	-8.07807
op	-8.08017
▁sine	-8.08113
gg	-8.08344
ns	-8.0841
▁dag	-8.0844
ment	-8.08446
▁bar	-8.08861
▁ne	-8.08935
▁14	-8.09256
ni	-8.09318
opp	-8.09623
pp	-8.0996
▁ol	-8.1009
hold	-8.10247
tor	-8.10596
▁ei	-8.11405
▁pe	-8.12014
▁13	-8.12384
av	-8.12432
ering	-8.12606
▁mal	-8.12679
ian	-8.12742
od	-8.12913
▁største	-8.13005
no	-8.13147
ek	-8.13811
ci	-8.1444
ll	-8.14474
ikk	-8.14847
ina	-8.14972
tter	-8.15206
▁ju	-8.15287
▁hu	-8.15378
▁sol	-8.16117
▁ja	-8.16146
ak	-8.16456
▁lang	-8.16476
▁9	-8.16655
år	-8.16684
5	-8.16802
▁skole	-8.16854
▁pro	-8.16953
les	-8.1699
▁fi	-8.17633
▁ad	-8.17849
ä	-8.18116
und	-8.18909
gang	-8.19142
▁lag	-8.19281
iv	-8.19389
▁norge	-8.19829
tra	-8.1995
ag	-8.20022
▁john	-8.20038
▁con	-8.20142
▁film	-8.20175
▁ge	-8.20384
▁nær	-8.20527
▁tid	-8.21145
▁gi	-8.21158
if	-8.21613
▁am	-8.2168
ok	-8.21746
io	-8.21822
vin	-8.21832
sel	-8.21906
tak	-8.22204
▁samme	-8.2226
elle	-8.22301
▁tallet	-8.22345
▁ski	-8.2244
▁sam	-8.22705
▁min	-8.22742
▁mi	-8.23051
ac	-8.23074
▁go	-8.23119
ü	-8.23157
▁tra	-8.23318
▁kalles	-8.2357
ord	-8.2377
▁tro	-8.23947
▁tri	-8.24031
▁tor	-8.24114
lag	-8.24633
▁bra	-8.25289
▁russisk	-8.25455
ings	-8.25556
▁20	-8.25749
▁slik	-8.25897
ken	-8.25919
ium	-8.2604
▁norske	-8.2632
▁mars	-8.26335
ingen	-8.26602
ny	-8.26669
▁langs	-8.26877
▁mål	-8.26886
▁fram	-8.27007
ks	-8.27052
ede	-8.27092
ber	-8.27152
▁ab	-8.27205
▁vant	-8.27373
bb	-8.27679
hus	-8.27686
▁enn	-8.27811
▁grunn	-8.27865
ow	-8.27878
sted	-8.27904
siden	-8.27977
▁vært	-8.28075
bar	-8.28265
mm	-8.28315
▁kirke	-8.2876
▁mai	-8.28862
▁amerikansk	-8.28958
len	-8.29417
vo	-8.29456
▁kunne	-8.29539
over	-8.29617
▁når	-8.29693
ho	-8.29813
▁vann	-8.30178
sp	-8.30482
▁pinyin	-8.30562
hu	-8.30758
▁km	-8.30766
▁sønn	-8.31016
▁alt	-8.31163
▁kr	-8.312
ou	-8.31266
▁ham	-8.3131
▁provinsen	-8.31617
lu	-8.32062
▁laget	-8.32242
sch	-8.32642
▁z	-8.33015
mb	-8.33435
▁kultur	-8.3352
▁høy	-8.33937
pi	-8.34052
▁små	-8.34186
▁par	-8.34261
▁mat	-8.34316
ó	-8.34406
▁august	-8.35148
▁0	-8.35187
dag	-8.35358
▁sta	-8.35458
▁wa	-8.35625
▁hi	-8.35855
▁juli	-8.35883
▁musikk	-8.36064
ot	-8.36187
▁fem	-8.36399
▁car	-8.36487
ud	-8.36584
▁leder	-8.36866
▁san	-8.36972
▁hele	-8.37332
stein	-8.37347
▁pu	-8.37378
▁kunst	-8.37438
per	-8.37532
fa	-8.37714
tisk	-8.37804
▁gjen	-8.3791
ft	-8.38069
▁gikk	-8.38216
▁innen	-8.38424
▁vel	-8.38534
dalen	-8.38583
▁tok	-8.38766
idae	-8.38837
▁ur	-8.39045
gel	-8.39167
mor	-8.39606
hi	-8.39767
▁gift	-8.39767
▁blitt	-8.39842
par	-8.39931
▁kommer	-8.39959
▁like	-8.40036
ong	-8.40055
▁ki	-8.40117
í	-8.40226
tid	-8.40757
tiske	-8.40792
este	-8.40886
itt	-8.41536
▁området	-8.41674
▁fransk	-8.41746
▁gruppen	-8.4221
▁ste	-8.42286
ine	-8.42358
ley	-8.42386
▁x	-8.42507
ki	-8.42711
stand	-8.42751
met	-8.43005
▁sand	-8.4309
min	-8.43194
2	-8.43464
yl	-8.43484
▁kong	-8.43756
▁oslo	-8.43821
▁all	-8.43877
▁nye	-8.43927
▁dr	-8.43966
▁noe	-8.4412
▁new	-8.44122
sta	-8.44314
▁bare	-8.44654
▁rekke	-8.44763
▁tv	-8.44769
▁folke	-8.44791
ku	-8.44911
asjon	-8.45237
▁hus	-8.45423
▁nor	-8.45606
▁ver	-8.45667
tur	-8.46142
sse	-8.46239
7	-8.46703
itet	-8.46707
▁skulle	-8.46749
▁vei	-8.47017
ningen	-8.4706
▁brukes	-8.47191
tz	-8.4722
▁øy	-8.47264
▁rett	-8.47387
ius	-8.47389
▁januar	-8.475
ug	-8.47586
ung	-8.47689
følge	-8.47734
▁tilhører	-8.48038
▁tysk	-8.48077
ica	-8.48134
▁gir	-8.48147
verk	-8.48384
и	-8.48411
ation	-8.48615
mar	-8.49043
а	-8.49216
▁ch	-8.49292
▁uten	-8.49303
▁bok	-8.4939
▁engelsk	-8.49395
▁pre	-8.49521
gn	-8.49522
▁språk	-8.49538
ty	-8.49672
▁nasjonal	-8.4987
tre	-8.49882
▁videre	-8.50084
til	-8.50239
nk	-8.50242
tte	-8.50251
▁wi	-8.50309
uten	-8.50421
▁hen	-8.50461
▁2010	-8.50593
▁stein	-8.50665
▁jord	-8.50704
▁midt	-8.5106
▁spiller	-8.51072
▁fast	-8.51331
▁ed	-8.51347
uk	-8.51539
▁spilte	-8.51577
ologi	-8.5161
▁utgitt	-8.52264
▁fjell	-8.52318
▁eks	-8.52427
▁em	-8.52583
ran	-8.52685
▁lever	-8.52687
jø	-8.52693
ans	-8.53097
tu	-8.53204
ting	-8.53349
▁fe	-8.53349
▁ty	-8.53427
ju	-8.53434
▁ulike	-8.53533
▁my	-8.53542
▁000	-8.53557
nings	-8.5362
▁hennes	-8.53642
▁kor	-8.53695
▁skrevet	-8.5372
▁kjente	-8.54045
▁rom	-8.54257
▁2005	-8.54308
▁bl	-8.5491
▁ben	-8.54949
▁må	-8.54977
▁kun	-8.55192
▁meter	-8.55212
est	-8.55267
▁lå	-8.5532
ya	-8.5564
ron	-8.5598
▁hver	-8.56045
▁tilbake	-8.56222
▁deres	-8.56236
ator	-8.56477
00	-8.56544
▁on	-8.56683
folkerepublikken	-8.56769
rik	-8.56895
dd	-8.5712
▁familien	-8.57252
sto	-8.57262
▁bli	-8.57419
▁imidlertid	-8.57602
jo	-8.57674
▁grav	-8.57772
▁2008	-8.57894
mmer	-8.58045
▁skrev	-8.58259
mon	-8.58277
kom	-8.58341
▁gresk	-8.58368
▁juni	-8.58418
▁september	-8.58444
▁betyr	-8.58448
▁fu	-8.58472
▁siste	-8.58748
▁innenfor	-8.58805
bil	-8.58978
▁tillegg	-8.58988
sten	-8.59
▁april	-8.59011
he	-8.5905
dre	-8.59101
ham	-8.59177
ph	-8.59238
em	-8.595
▁art	-8.59564
ska	-8.59702
kte	-8.59734
▁sjø	-8.59966
▁gud	-8.6004
som	-8.60177
▁verk	-8.60595
▁ak	-8.61022
▁berg	-8.6108
isme	-8.61151
▁fred	-8.61161
ill	-8.61179
▁kn	-8.61475
▁bro	-8.61487
▁usa	-8.61584
lands	-8.61683
▁liv	-8.61697
▁norges	-8.61701
▁president	-8.61721
▁verdens	-8.61837
let	-8.62084
▁mindre	-8.6221
▁brun	-8.62472
▁val	-8.62753
▁pan	-8.63005
lan	-8.6302
▁bill	-8.63191
▁kar	-8.63254
lse	-8.63276
▁februar	-8.63359
▁gamle	-8.63416
▁først	-8.63479
inn	-8.63536
▁bru	-8.63552
▁barn	-8.63616
▁th	-8.63673
ab	-8.63743
▁ku	-8.63763
▁fo	-8.63801
form	-8.63884
▁desember	-8.63953
▁spe	-8.63991
▁syn	-8.64082
▁sc	-8.64102
eres	-8.64166
borg	-8.64168
▁hy	-8.6418
log	-8.64197
van	-8.64361
▁gull	-8.64511
ighet	-8.64592
▁mu	-8.64671
▁dem	-8.64809
tar	-8.64899
▁parti	-8.64904
▁van	-8.65011
▁fag	-8.65031
elsen	-8.65035
slag	-8.65069
▁oktober	-8.65152
▁va	-8.65433
▁kommunen	-8.65511
yn	-8.65661
▁gul	-8.65846
▁landet	-8.66093
▁2007	-8.6617
▁kort	-8.66175
▁pr	-8.66367
ding	-8.66523
sson	-8.66575
▁bruk	-8.66583
▁inneholder	-8.66646
▁omfatter	-8.66759
▁derfor	-8.66901
ita	-8.67369
▁30	-8.67499
▁pla	-8.67518
stre	-8.6759
▁roman	-8.67615
far	-8.67686
▁sv	-8.68082
▁sal	-8.68342
fjorden	-8.68397
ige	-8.68528
fi	-8.68568
▁vin	-8.68586
▁døde	-8.68595
▁cha	-8.68703
▁særlig	-8.68841
▁lys	-8.68885
▁følgende	-8.68909
▁2006	-8.68974
▁skog	-8.69088
▁rød	-8.69095
о	-8.6964
dy	-8.69703
▁helt	-8.69953
▁sen	-8.69953
val	-8.6996
▁eksempel	-8.70042
▁via	-8.70107
ah	-8.70127
▁bil	-8.70152
▁deretter	-8.70153
ninger	-8.70162
tin	-8.70219
heim	-8.70321
▁gang	-8.7041
pper	-8.70428
▁filmen	-8.70499
cu	-8.70505
▁chi	-8.70587
▁form	-8.7077
▁natur	-8.71141
▁begge	-8.71152
za	-8.71297
▁vo	-8.71422
vel	-8.71528
syn	-8.71775
▁br	-8.71899
▁startet	-8.72035
sti	-8.72037
▁es	-8.72194
▁kal	-8.72565
tok	-8.72661
▁gjerne	-8.72761
▁beste	-8.72932
▁gra	-8.72962
vei	-8.72989
wa	-8.73213
▁sø	-8.73389
ble	-8.734
art	-8.73499
tan	-8.73501
▁medlem	-8.73634
kan	-8.73799
q	-8.73916
▁selskapet	-8.73934
▁sto	-8.7398
▁tar	-8.73984
▁2002	-8.73985
▁halv	-8.74055
så	-8.74214
▁november	-8.74307
▁af	-8.74507
ds	-8.74541
ris	-8.74768
▁god	-8.74844
▁svær	-8.74867
bok	-8.74916
▁tu	-8.74976
▁anti	-8.74986
kon	-8.75021
du	-8.75193
▁innbyggere	-8.75304
and	-8.75338
▁von	-8.75451
▁egen	-8.75893
▁stra	-8.76181
▁mag	-8.76372
ji	-8.76408
▁står	-8.76766
▁person	-8.7678
inger	-8.76854
øya	-8.76878
tall	-8.76879
kel	-8.76971
▁hol	-8.77009
▁mon	-8.77349
ale	-8.77378
▁konge	-8.77458
▁ord	-8.77661
▁2009	-8.77811
▁lange	-8.78382
▁op	-8.78427
▁bor	-8.78497
▁danne	-8.78802
▁sh	-8.78804
▁ber	-8.78875
▁fylke	-8.78904
▁25	-8.78914
▁hav	-8.78941
bro	-8.78966
▁2011	-8.79054
fly	-8.79166
dan	-8.79574
plan	-8.79682
hy	-8.7969
ight	-8.79708
isert	-8.79805
▁kje	-8.79928
skole	-8.79939
ap	-8.8009
zi	-8.80093
▁post	-8.80219
ana	-8.80247
fra	-8.80256
isering	-8.80272
stil	-8.80304
▁bandet	-8.80412
ski	-8.80959
▁opprinnelig	-8.80998
ach	-8.81026
▁hal	-8.81048
▁plass	-8.81112
▁meg	-8.81222
mu	-8.81465
tiden	-8.81565
kken	-8.8163
we	-8.81678
dyr	-8.8176
ald	-8.81781
mark	-8.81784
▁dikt	-8.81909
▁luft	-8.81916
▁side	-8.82004
▁ly	-8.82065
▁hør	-8.82154
▁blå	-8.8221
▁bergen	-8.82233
▁mil	-8.82328
tiv	-8.82344
▁ag	-8.82392
▁motor	-8.82567
▁vanligvis	-8.82608
ide	-8.82689
tro	-8.82813
▁datter	-8.82813
▁ry	-8.82916
mål	-8.82961
ay	-8.83021
kor	-8.83108
▁bruker	-8.83144
▁brukt	-8.83203
▁begynte	-8.83294
▁øya	-8.83301
▁gen	-8.83355
▁vise	-8.8344
▁kl	-8.83445
dra	-8.8346
▁ø	-8.83474
kr	-8.83483
▁pass	-8.83564
▁os	-8.83592
tatt	-8.83593
▁christian	-8.83677
▁ke	-8.83726
▁lav	-8.84061
▁sig	-8.84068
ep	-8.84274
▁mel	-8.84356
▁peter	-8.8441
▁lokal	-8.84457
▁større	-8.84492
pen	-8.84589
sj	-8.84593
▁nett	-8.84613
forening	-8.84704
▁tur	-8.84808
▁jan	-8.84855
▁ingen	-8.84869
▁plan	-8.84955
▁tom	-8.85063
▁sett	-8.85078
sett	-8.85092
▁lov	-8.85311
▁sentral	-8.85386
▁får	-8.85521
50	-8.85537
▁bø	-8.85596
▁cor	-8.8571
▁fin	-8.85774
ze	-8.8591
▁arbeids	-8.85942
▁paul	-8.85977
bruk	-8.85977
▁ev	-8.85993
▁tidlig	-8.86135
▁stats	-8.86199
lene	-8.86315
ai	-8.86407
▁samtidig	-8.86604
▁col	-8.86615
▁forskjellige	-8.86811
▁seks	-8.86823
spill	-8.86851
veien	-8.86886
▁mye	-8.87167
▁sak	-8.87286
iet	-8.87318
▁igjen	-8.87368
▁slekt	-8.87625
my	-8.87697
gar	-8.87745
rede	-8.87888
elig	-8.87958
▁dagen	-8.88016
▁litt	-8.88019
kje	-8.88095
▁tyske	-8.88203
▁can	-8.88225
▁riks	-8.88372
▁we	-8.8846
leg	-8.88707
▁gjorde	-8.88854
▁fylkesvei	-8.88883
værende	-8.8889
▁farge	-8.88898
▁sommer	-8.88918
▁ex	-8.88982
▁få	-8.8909
øl	-8.89108
▁rø	-8.89219
▁kra	-8.89258
merke	-8.89385
с	-8.89596
▁ren	-8.89604
▁moh	-8.89621
ida	-8.89699
▁vis	-8.9016
burg	-8.90212
chi	-8.9023
▁sj	-8.90383
▁kur	-8.90411
system	-8.90414
arbeid	-8.90425
grad	-8.90612
pris	-8.90996
han	-8.91084
gh	-8.91121
▁general	-8.91191
▁radio	-8.91208
▁serien	-8.91258
▁basert	-8.91284
▁svensk	-8.91328
banen	-8.91414
▁europa	-8.91677
selskap	-8.91705
ari	-8.91758
▁au	-8.91763
9	-8.9184
▁mari	-8.91951
▁gammel	-8.91985
▁fotball	-8.92249
▁opera	-8.92377
▁data	-8.92576
▁sang	-8.92647
▁utenfor	-8.92875
▁sosial	-8.93154
т	-8.93169
film	-8.93172
punkt	-8.93205
mat	-8.9343
dom	-8.93491
н	-8.93517
ino	-8.93591
▁sangen	-8.9366
ringer	-8.93782
mester	-8.93896
▁com	-8.93972
▁ob	-8.94
▁fiske	-8.94039
▁politisk	-8.94064
råd	-8.94257
▁liste	-8.94285
▁måtte	-8.94414
▁24	-8.94432
▁mark	-8.94491
е	-8.94713
mel	-8.94731
ú	-8.94779
▁dis	-8.94851
ice	-8.94972
▁grad	-8.95031
løp	-8.95043
ola	-8.95126
ip	-8.95146
▁etablert	-8.95193
▁jeg	-8.95195
▁eu	-8.95502
▁forfatter	-8.95507
▁red	-8.95543
lot	-8.95669
▁støtte	-8.95933
lev	-8.95951
▁carl	-8.96044
sund	-8.96194
vern	-8.9627
▁band	-8.96388
▁tredje	-8.96416
ini	-8.96426
▁elven	-8.96517
bane	-8.96688
▁vol	-8.96693
kter	-8.96794
▁viser	-8.96825
▁william	-8.96828
▁karl	-8.97085
ps	-8.97145
α	-8.97243
▁omkring	-8.97245
▁pri	-8.97265
ssen	-8.97283
istiske	-8.97288
vet	-8.97378
kar	-8.97483
▁22	-8.97521
▁pl	-8.97631
▁bred	-8.97655
don	-8.97889
▁spesiel	-8.97944
bre	-8.97975
▁ledet	-8.98039
kul	-8.98208
senter	-8.98214
▁23	-8.98428
leder	-8.98438
rom	-8.98497
▁2004	-8.98513
▁sted	-8.98537
anger	-8.98658
▁året	-8.9867
pre	-8.9874
laget	-8.98935
landet	-8.99069
xi	-8.99228
▁bur	-8.99244
tri	-8.99258
▁28	-8.99265
stat	-8.99301
rak	-8.9941
▁21	-8.99506
▁2000	-8.99651
▁je	-8.9973
our	-8.99733
ā	-8.99846
▁arm	-8.9988
▁kyst	-8.999
stan	-8.99929
rmed	-8.99965
tion	-9.00054
▁mus	-9.00098
▁gar	-9.00111
▁inkludert	-9.00197
med	-9.00263
▁bal	-9.00434
▁mm	-9.00628
skog	-9.00714
▁dy	-9.00762
res	-9.00796
▁tal	-9.00901
ller	-9.00907
familien	-9.00912
▁ve	-9.00963
▁100	-9.01071
▁mis	-9.01121
▁mac	-9.01256
asjonen	-9.01262
▁erik	-9.01273
▁lands	-9.01413
setning	-9.01463
▁stat	-9.01494
ild	-9.01516
▁eid	-9.01523
ppe	-9.01771
ford	-9.01798
bel	-9.01828
▁ac	-9.01858
▁spilt	-9.02018
▁lars	-9.02065
enes	-9.0209
án	-9.02113
fjord	-9.02269
rid	-9.02274
▁gruppe	-9.02371
vil	-9.024
▁mont	-9.024
▁årene	-9.02441
▁fle	-9.02489
▁foran	-9.02536
vær	-9.02639
▁gre	-9.02651
pla	-9.02693
è	-9.02772
▁ek	-9.02944
▁bjørn	-9.03104
▁bre	-9.03138
▁italiensk	-9.03241
rud	-9.0325
ister	-9.03272
▁kro	-9.03332
▁ordet	-9.03418
▁port	-9.03491
▁pol	-9.03538
▁albumet	-9.0376
▁fant	-9.03773
▁ap	-9.03823
▁mur	-9.03829
▁britisk	-9.03852
▁xi	-9.04203
bygd	-9.04256
lle	-9.04304
▁vinter	-9.04334
▁hvert	-9.04472
ving	-9.04488
istisk	-9.04572
▁stil	-9.04603
▁fleste	-9.04637
▁barne	-9.04644
▁mann	-9.04719
▁19	-9.0473
▁regn	-9.04755
▁fil	-9.04772
▁gro	-9.0495
▁utviklet	-9.05039
▁viktigste	-9.0506
▁finner	-9.05112
plass	-9.05336
kal	-9.05437
▁distrikt	-9.05528
tale	-9.05818
lighet	-9.05822
▁dess	-9.05908
cc	-9.05981
mal	-9.06015
▁nytt	-9.06112
ich	-9.06156
▁lei	-9.06193
▁slutt	-9.06215
up	-9.06292
▁blad	-9.0638
fe	-9.06519
skje	-9.06523
che	-9.06554
▁eier	-9.06745
isten	-9.06788
rin	-9.06934
▁hvit	-9.06977
▁menneske	-9.07251
▁les	-9.07412
ette	-9.07469
alt	-9.07477
▁familie	-9.07493
▁johan	-9.07603
▁liten	-9.07673
▁betydning	-9.07756
▁sommerfugl	-9.07766
▁produsert	-9.07772
skip	-9.07828
satt	-9.0783
▁arbeidet	-9.07947
▁ør	-9.07961
▁west	-9.07977
▁za	-9.08017
20	-9.08046
rike	-9.08062
br	-9.08151
▁sha	-9.08155
▁såkalt	-9.08222
▁robert	-9.08295
fall	-9.08423
▁valg	-9.08453
▁rev	-9.08454
▁pal	-9.08614
▁park	-9.0867
før	-9.08817
net	-9.0884
▁dan	-9.0901
navn	-9.09037
ban	-9.0907
ial	-9.09207
▁bygget	-9.09268
▁olje	-9.09312
▁annen	-9.0934
mannen	-9.09505
▁latin	-9.09564
ula	-9.09673
▁system	-9.09816
▁ring	-9.09846
▁lin	-9.09903
▁ville	-9.10011
р	-9.10116
jel	-9.1028
▁minne	-9.10492
sjøen	-9.10508
▁rock	-9.10749
▁you	-9.10767
ör	-9.10814
lia	-9.11016
▁privat	-9.11046
▁keiser	-9.11062
▁bror	-9.11095
▁gav	-9.11097
lagt	-9.11101
▁styre	-9.11138
fisk	-9.11152
▁bort	-9.11174
▁tiden	-9.11179
que	-9.11183
området	-9.113
kla	-9.11313
▁industri	-9.11334
▁ganger	-9.11412
▁egne	-9.11533
gge	-9.11581
ij	-9.11599
qu	-9.11649
▁handels	-9.1165
itz	-9.11695
ros	-9.11736
▁26	-9.11779
tegn	-9.11868
▁virke	-9.11896
bert	-9.11964
dø	-9.11965
▁folketelling	-9.12002
lett	-9.12004
▁skolen	-9.12097
▁martin	-9.12105
▁fer	-9.12106
▁bas	-9.1215
▁sm	-9.12163
▁ci	-9.12199
▁ji	-9.12227
▁trans	-9.12272
▁nu	-9.12298
vann	-9.12426
▁svart	-9.12469
▁tildelt	-9.12533
ære	-9.12535
ple	-9.12589
▁kir	-9.12659
▁un	-9.12833
▁kri	-9.1285
▁sky	-9.12852
gan	-9.12953
liggende	-9.12975
▁bygge	-9.12985
gren	-9.13036
stasjon	-9.13093
ive	-9.13122
▁hjemme	-9.1328
▁lø	-9.13334
ld	-9.13369
prosess	-9.13403
anlegg	-9.13436
▁lett	-9.13482
▁qu	-9.1355
▁båt	-9.13619
ket	-9.13734
▁skuespiller	-9.13735
lsen	-9.13736
▁følger	-9.14016
▁27	-9.14204
▁hard	-9.14427
sal	-9.14429
gjør	-9.14462
zhou	-9.14474
▁satt	-9.14548
30	-9.14628
elt	-9.14713
▁arkitekt	-9.14733
age	-9.14759
olog	-9.14886
iz	-9.14896
▁lind	-9.14907
▁hei	-9.14934
ologisk	-9.14969
stu	-9.14984
▁stjerne	-9.15029
hl	-9.15122
forbund	-9.15222
▁mc	-9.15235
▁lik	-9.15281
▁stort	-9.15297
dals	-9.15353
bin	-9.15398
▁fjern	-9.1552
sak	-9.15549
▁2001	-9.15713
▁bilde	-9.15714
fl	-9.15741
▁tyskland	-9.15795
▁bør	-9.15875
inne	-9.15877
▁david	-9.15937
ano	-9.15972
▁fortsatt	-9.15985
bygg	-9.1608
asjons	-9.16086
▁fv	-9.16169
lys	-9.16407
▁2003	-9.16498
ferd	-9.16519
▁kron	-9.16633
▁versjon	-9.16684
way	-9.16708
▁george	-9.16759
▁cla	-9.16834
▁fal	-9.16908
л	-9.16918
▁sverige	-9.16942
▁klubben	-9.16945
jen	-9.16988
▁tru	-9.16992
ara	-9.17
▁arbeider	-9.17034
▁mas	-9.17123
▁stre	-9.17151
asje	-9.17176
get	-9.17186
▁produsere	-9.17303
▁gran	-9.17443
▁gitt	-9.17466
▁grønn	-9.17491
▁russland	-9.17507
ib	-9.1779
▁lite	-9.17813
liv	-9.17875
▁india	-9.17904
ī	-9.17959
huset	-9.17975
tsj	-9.17986
▁helse	-9.17986
sky	-9.18116
▁lyd	-9.18149
▁representert	-9.18168
▁antall	-9.18262
stående	-9.18273
▁full	-9.18277
40	-9.18394
▁shi	-9.1843
▁slag	-9.18443
▁ser	-9.18471
▁flat	-9.18485
stykke	-9.18519
▁hor	-9.18634
▁spor	-9.18861
▁oppkalt	-9.18991
stra	-9.1901
▁renn	-9.19073
▁kle	-9.1908
▁ven	-9.19111
▁dom	-9.19144
▁gal	-9.19183
▁arter	-9.19187
bø	-9.1919
asjoner	-9.19217
ons	-9.19221
▁hatt	-9.19288
▁lær	-9.19294
gård	-9.19388
▁organ	-9.19501
▁felles	-9.1956
område	-9.19591
▁cas	-9.19597
▁internasjonale	-9.19685
cia	-9.19716
▁kam	-9.19745
▁modell	-9.19892
▁dia	-9.19928
og	-9.20006
red	-9.20079
▁pat	-9.20181
▁tekst	-9.20223
ix	-9.2023
▁nils	-9.2024
tel	-9.20248
▁plate	-9.20253
▁prest	-9.20265
▁gl	-9.20341
gitt	-9.20397
byen	-9.2043
▁samarbeid	-9.2046
▁inter	-9.20475
ð	-9.2055
▁heter	-9.20597
ani	-9.20616
bor	-9.20652
sam	-9.20689
organisasjon	-9.20708
mot	-9.20864
▁egg	-9.21161
▁50	-9.21165
▁tele	-9.21174
▁thor	-9.21179
ath	-9.21188
våg	-9.21275
ther	-9.21293
▁euro	-9.213
menn	-9.21316
▁wal	-9.21327
elva	-9.2135
bus	-9.21451
▁sub	-9.21466
▁enkelte	-9.21661
tig	-9.21697
▁klar	-9.21763
▁våpen	-9.21771
▁års	-9.2179
▁hår	-9.21796
▁bank	-9.21948
▁not	-9.2197
▁ger	-9.21995
gle	-9.22022
dømme	-9.22162
▁militær	-9.22167
▁ten	-9.22255
ata	-9.22265
▁nærings	-9.22276
ater	-9.2231
hal	-9.22347
elser	-9.2235
▁tak	-9.22399
ider	-9.22596
▁het	-9.22668
departementet	-9.22672
▁sil	-9.22675
▁1989	-9.22681
▁delstaten	-9.22693
vig	-9.227
ite	-9.22727
hr	-9.22729
▁air	-9.22742
▁universitet	-9.22765
ull	-9.22777
har	-9.22812
su	-9.22818
▁nesten	-9.22884
▁deler	-9.22943
▁hjem	-9.2305
▁punkt	-9.23175
dor	-9.23498
▁plante	-9.23606
▁don	-9.23744
all	-9.23757
▁sanger	-9.23777
▁vår	-9.23797
messig	-9.23847
▁q	-9.23848
▁overtok	-9.23982
kamp	-9.24179
▁kraft	-9.24182
▁stedet	-9.24186
stilling	-9.24193
▁samling	-9.24234
▁herre	-9.24303
▁moderne	-9.2434
▁ganske	-9.24354
mus	-9.24365
lie	-9.24397
▁kunstner	-9.24483
▁ball	-9.24507
▁fla	-9.24528
▁orden	-9.24541
▁sy	-9.24546
▁gate	-9.24547
spiller	-9.24685
▁sir	-9.24741
▁blod	-9.24794
▁gru	-9.24809
▁super	-9.24849
bra	-9.24958
trykk	-9.24972
▁teater	-9.24988
à	-9.2506
fri	-9.2506
føring	-9.25087
ies	-9.25095
nu	-9.25156
▁mad	-9.25174
▁frank	-9.25244
ssa	-9.25297
▁james	-9.25397
▁danmark	-9.25409
är	-9.25469
▁gr	-9.25504
fag	-9.25632
selskapet	-9.25658
▁fre	-9.25847
hall	-9.25936
gj	-9.25959
55	-9.25992
▁høyre	-9.26003
▁stemme	-9.26011
uc	-9.2603
▁lille	-9.26128
▁utgjør	-9.26132
▁arbeid	-9.2614
▁jernbane	-9.26144
aktig	-9.26265
nik	-9.26275
fon	-9.26386
cy	-9.26497
ub	-9.26503
lik	-9.26504
▁miljø	-9.26521
dde	-9.26544
▁kv	-9.26625
▁pris	-9.26627
▁aktiv	-9.26647
▁sel	-9.26725
▁viktig	-9.2675
▁politi	-9.26818
klubb	-9.26825
▁para	-9.26876
fo	-9.26884
full	-9.26893
rum	-9.27045
▁grå	-9.27114
side	-9.27136
ky	-9.27139
▁cl	-9.27171
sjef	-9.27295
▁fl	-9.27311
port	-9.27333
▁uk	-9.27355
д	-9.27618
jer	-9.27654
ann	-9.27655
▁31	-9.2768
styr	-9.27726
lon	-9.27837
produksjon	-9.27901
▁kvinne	-9.27914
▁thomas	-9.27984
pu	-9.28014
64	-9.28017
ativ	-9.28101
▁mulig	-9.28108
senteret	-9.28128
iserte	-9.28182
▁direkte	-9.28183
▁studert	-9.28197
tic	-9.28254
▁nok	-9.28273
led	-9.28438
systemet	-9.28445
▁gjør	-9.28552
navnet	-9.28775
▁eget	-9.28839
kin	-9.29053
misjon	-9.29108
▁staten	-9.2919
▁skje	-9.29198
▁regi	-9.29258
drag	-9.29317
▁2012	-9.29344
▁informasjon	-9.29352
▁gri	-9.29358
▁29	-9.29402
▁historie	-9.2942
▁deltok	-9.29433
▁ph	-9.2944
▁tjeneste	-9.29469
ira	-9.29493
felt	-9.29535
▁kongen	-9.29538
▁us	-9.29795
stoff	-9.29882
▁bri	-9.29888
▁university	-9.29902
▁dal	-9.29907
▁historisk	-9.29915
▁høyeste	-9.29954
qui	-9.30075
▁hånd	-9.3015
ismen	-9.30165
▁best	-9.30178
pol	-9.30204
pro	-9.30235
▁spesial	-9.30246
▁krigs	-9.30282
▁kol	-9.30324
▁kirken	-9.30399
tjeneste	-9.30486
▁ferdig	-9.30584
▁energi	-9.3061
▁elva	-9.3063
▁stu	-9.30687
▁georg	-9.30718
▁mod	-9.30731
▁regionen	-9.30744
65	-9.30824
▁tittelen	-9.30917
▁produksjon	-9.31024
heten	-9.31039
løse	-9.31119
▁kontroll	-9.31157
ction	-9.31174
▁inkluderer	-9.31181
aks	-9.31184
ringen	-9.31247
▁tall	-9.3131
▁lege	-9.31348
▁japansk	-9.31366
60	-9.31368
▁elev	-9.31368
rio	-9.31384
ura	-9.31594
▁ep	-9.31596
▁opprettet	-9.31645
brudd	-9.31684
lla	-9.31853
her	-9.31967
▁maria	-9.32019
▁die	-9.32049
tus	-9.32069
▁seil	-9.32085
gruppen	-9.32107
rop	-9.32139
▁én	-9.32236
▁merke	-9.32238
▁forhold	-9.32268
▁vanlig	-9.32299
▁imp	-9.32303
▁syd	-9.32363
ved	-9.3251
▁finsk	-9.32601
middel	-9.32628
fer	-9.32648
▁åpnet	-9.32682
løs	-9.32696
85	-9.32765
▁enkelt	-9.32796
ika	-9.32965
kra	-9.33037
▁ban	-9.33047
▁rot	-9.33052
▁ul	-9.33174
▁veien	-9.33312
samling	-9.33316
▁bygd	-9.33398
86	-9.33419
▁ska	-9.33599
rød	-9.33604
▁kh	-9.33606
▁mak	-9.33606
▁johannes	-9.33665
▁internasjonal	-9.33809
10	-9.33822
▁und	-9.33837
områder	-9.33859
▁folk	-9.33876
▁ære	-9.33949
▁standard	-9.34017
▁venstre	-9.3404
▁angrep	-9.34074
ов	-9.34121
minister	-9.34245
lis	-9.34344
▁linje	-9.34408
38	-9.34506
80	-9.34506
▁hovedsakelig	-9.34622
▁1980	-9.3463
▁tegn	-9.34718
ish	-9.34721
graf	-9.34721
▁partiet	-9.34754
▁ind	-9.34795
▁40	-9.34816
▁vekt	-9.34843
▁christ	-9.34925
▁produkt	-9.34976
▁skade	-9.35008
båt	-9.3517
š	-9.35224
▁erstatte	-9.35305
▁trykk	-9.35315
haug	-9.35337
▁sag	-9.35373
▁stasjon	-9.35418
tive	-9.35421
▁hall	-9.35435
39	-9.35457
retning	-9.35533
▁kla	-9.35593
▁cu	-9.35606
▁selskap	-9.35695
hund	-9.35711
м	-9.35834
zh	-9.35873
▁fredrik	-9.3588
▁politiker	-9.35907
▁skrift	-9.35954
▁perioden	-9.35991
▁varme	-9.36089
skrift	-9.3632
▁flo	-9.36347
loven	-9.36363
▁delt	-9.36378
▁hud	-9.36385
band	-9.36422
▁millioner	-9.36448
▁eldre	-9.36522
▁figur	-9.36566
▁turn	-9.36604
ført	-9.36624
▁knut	-9.36626
▁kamp	-9.36674
▁rolle	-9.36692
8	-9.36814
▁gla	-9.36817
ben	-9.36842
folk	-9.36849
▁son	-9.36872
ick	-9.369
▁omtrent	-9.37065
▁york	-9.37069
▁1970	-9.37074
lå	-9.37093
▁forbindelse	-9.37105
▁spansk	-9.37171
▁ze	-9.37221
▁studie	-9.37226
ød	-9.37371
▁inntil	-9.37375
▁che	-9.37445
42	-9.37545
▁reise	-9.37559
▁borger	-9.37579
▁1990	-9.377
▁ram	-9.37718
▁stø	-9.37723
▁regnes	-9.37899
rek	-9.37925
verket	-9.38007
▁strøm	-9.38032
formet	-9.38137
mund	-9.38212
cha	-9.38386
90	-9.38513
alis	-9.38726
▁bel	-9.389
▁råd	-9.38936
kov	-9.39035
▁jens	-9.39038
▁hjelp	-9.39056
▁bad	-9.39117
▁dra	-9.39227
68	-9.39281
▁mørk	-9.39296
fest	-9.39302
valg	-9.39362
▁konsert	-9.39484
▁slekten	-9.39544
▁international	-9.39572
▁world	-9.39573
▁byprefekturet	-9.39638
▁kall	-9.39645
▁kjøpt	-9.39674
løst	-9.39698
▁brukte	-9.39781
organ	-9.39809
ance	-9.39832
▁venn	-9.39834
▁åtte	-9.39876
▁viktige	-9.39885
musikk	-9.39956
gruppe	-9.40137
▁rund	-9.4014
▁ordenen	-9.40143
nivå	-9.40189
bygging	-9.40269
▁vir	-9.40329
▁avdeling	-9.40362
▁fro	-9.40382
▁tett	-9.40383
lling	-9.40409
▁dannet	-9.40434
▁veg	-9.40467
36	-9.40528
din	-9.4054
▁gitar	-9.40581
▁dansk	-9.40652
37	-9.40669
last	-9.4089
▁godt	-9.40996
nst	-9.41013
farge	-9.41052
▁funksjon	-9.41148
handling	-9.41252
abel	-9.41282
bilde	-9.41324
iner	-9.41405
af	-9.41421
eksjon	-9.41456
ms	-9.4149
heng	-9.41493
▁richard	-9.41497
▁administrasjons	-9.41526
▁war	-9.41623
▁fall	-9.4163
vert	-9.41862
▁region	-9.41885
delen	-9.41905
snitt	-9.41947
▁museum	-9.42048
▁korte	-9.42061
▁fremst	-9.42085
▁national	-9.42146
▁eldste	-9.42146
▁finans	-9.42191
▁skjer	-9.42237
fugl	-9.42289
org	-9.42409
▁cap	-9.4241
ram	-9.42412
▁utgav	-9.42449
▁uni	-9.42463
▁kap	-9.42473
▁serie	-9.42485
▁gass	-9.42519
▁borg	-9.42566
▁litteratur	-9.42573
▁trekk	-9.42619
arter	-9.42664
det	-9.42668
▁vas	-9.42741
▁180	-9.4276
▁london	-9.428
ama	-9.42801
▁knytte	-9.42802
▁1996	-9.42808
lang	-9.42841
▁regjeringen	-9.4291
▁grev	-9.42918
nor	-9.42953
▁samle	-9.42984
wi	-9.43035
▁stiftet	-9.4316
fabrikk	-9.43195
▁sur	-9.43209
▁len	-9.43237
søk	-9.43239
bær	-9.43261
▁resultat	-9.43269
året	-9.43283
▁makt	-9.43299
▁album	-9.4335
ν	-9.43456
kilden	-9.43462
▁1995	-9.43468
ansk	-9.43496
dar	-9.43559
▁jobbe	-9.43575
kop	-9.43583
▁smal	-9.43602
ala	-9.43641
▁lokale	-9.43724
▁win	-9.43791
språk	-9.43792
▁populær	-9.43802
ål	-9.43828
▁idretts	-9.44013
▁design	-9.44062
▁drama	-9.44069
ture	-9.44098
▁typisk	-9.44123
▁danske	-9.44148
ritt	-9.44149
▁oppført	-9.4427
parti	-9.44275
bygning	-9.44279
▁økonomisk	-9.44297
▁grense	-9.44339
gaard	-9.44399
▁fugle	-9.44426
▁lib	-9.44432
pir	-9.44445
fin	-9.44447
▁jon	-9.44603
▁kul	-9.44702
anske	-9.44703
▁sterkt	-9.44716
▁wo	-9.44764
▁biskop	-9.4479
ora	-9.44805
maskin	-9.44838
▁anne	-9.44864
▁hell	-9.449
▁salt	-9.44958
82	-9.45019
▁pen	-9.45031
zo	-9.45074
ori	-9.45086
▁pin	-9.4536
▁cm	-9.45391
▁utvikling	-9.45399
▁1994	-9.45466
skifte	-9.45499
sjoner	-9.45537
▁verdi	-9.4562
linje	-9.45783
ott	-9.45807
ith	-9.45865
▁sentrum	-9.45913
▁distriktet	-9.45932
grense	-9.46022
under	-9.46112
ati	-9.46116
▁betydelig	-9.46132
▁cam	-9.46152
▁sesongen	-9.46165
▁medlemmer	-9.46175
▁romersk	-9.46194
▁sogn	-9.46267
▁mill	-9.46341
ille	-9.46349
▁poly	-9.4638
sis	-9.4643
aksjon	-9.46445
▁drift	-9.4654
▁bolig	-9.46559
▁sølv	-9.46602
▁bygde	-9.46676
▁lan	-9.46804
▁1981	-9.46812
▁1999	-9.46824
▁myr	-9.46864
fu	-9.47012
▁driver	-9.47015
ón	-9.47037
▁svenske	-9.47049
▁berlin	-9.47066
press	-9.47066
▁operatør	-9.47083
▁uttrykk	-9.4709
▁dyr	-9.47226
▁ett	-9.47235
▁elve	-9.47254
rich	-9.47322
▁grand	-9.47335
▁anna	-9.47448
▁syv	-9.47467
kh	-9.47519
▁type	-9.47685
jon	-9.47701
korps	-9.47747
▁årlig	-9.47799
▁produsent	-9.47802
▁grunnlagt	-9.47864
▁bry	-9.47964
▁delta	-9.47967
▁paris	-9.48028
fører	-9.48082
▁indre	-9.48135
▁lærer	-9.48138
▁langt	-9.48153
▁xiàn	-9.48192
▁lufthavn	-9.48198
jev	-9.48198
▁2013	-9.48203
▁frankrike	-9.48203
▁nordøst	-9.48243
▁riksvei	-9.4826
▁ya	-9.48278
midler	-9.48427
lære	-9.4843
▁lund	-9.48432
skolen	-9.48449
gikk	-9.48473
int	-9.48526
95	-9.48576
▁pra	-9.48577
▁rik	-9.48592
78	-9.48647
▁just	-9.48666
kast	-9.48737
▁topp	-9.48782
▁rein	-9.4883
▁lengde	-9.4885
г	-9.48881
▁innbyggertall	-9.48881
▁1993	-9.48891
stedet	-9.48946
field	-9.48958
▁arne	-9.4896
nett	-9.48973
▁por	-9.48983
89	-9.49075
▁whi	-9.49118
vinger	-9.49136
▁reg	-9.49156
▁anders	-9.49197
▁nest	-9.49212
▁bon	-9.49289
▁henrik	-9.49294
▁slike	-9.49359
uf	-9.49503
▁hopp	-9.49513
▁ok	-9.49563
▁kilometer	-9.49581
▁egentlig	-9.49608
▁will	-9.49615
▁kloster	-9.49616
▁she	-9.49654
▁høsten	-9.49686
▁sn	-9.49715
▁up	-9.49752
lit	-9.49761
well	-9.49781
lar	-9.49793
ming	-9.49796
yo	-9.49809
ordenen	-9.49911
▁besto	-9.49984
mas	-9.50003
▁kil	-9.50042
oni	-9.50088
styre	-9.50152
▁cal	-9.50194
ō	-9.50217
▁arten	-9.5022
▁1997	-9.50296
havet	-9.5038
▁ole	-9.50521
ografi	-9.50594
▁verden	-9.50812
▁provins	-9.50825
deling	-9.50936
▁hvis	-9.50979
▁60	-9.51005
▁hovedstad	-9.51042
vekst	-9.51102
▁kors	-9.51166
▁kraftverk	-9.51241
▁bern	-9.51245
bri	-9.51262
▁middel	-9.51267
▁odd	-9.51333
▁blo	-9.5135
ob	-9.51352
▁hovedstaden	-9.51372
king	-9.51404
lus	-9.51416
▁dre	-9.51444
▁strand	-9.51463
iti	-9.51529
kunst	-9.51614
lund	-9.51626
▁hvite	-9.51654
▁tilsvarende	-9.51709
▁zo	-9.51954
tis	-9.52007
kant	-9.52136
vind	-9.52169
63	-9.52241
▁dyp	-9.52253
low	-9.52268
ges	-9.52276
▁representere	-9.5229
▁grenser	-9.52296
▁møte	-9.52384
48	-9.52399
▁statsminister	-9.52446
▁sim	-9.52447
▁felt	-9.52467
ence	-9.52589
▁student	-9.52881
▁haug	-9.52905
▁brit	-9.53018
oc	-9.53135
у	-9.53153
▁1983	-9.53153
▁middelsstor	-9.53153
▁louis	-9.53154
▁sko	-9.5316
▁metall	-9.53177
▁kroppen	-9.5318
▁england	-9.53188
vare	-9.53205
of	-9.5323
▁vik	-9.53233
▁personer	-9.53241
▁svarte	-9.53249
▁gje	-9.53337
▁ky	-9.53465
gra	-9.53556
▁time	-9.53578
99	-9.5362
▁edderkopp	-9.53681
skapet	-9.53691
pan	-9.53739
trekk	-9.53814
▁søster	-9.53968
▁motstand	-9.53999
bjørn	-9.5411
▁olav	-9.54131
▁flu	-9.54167
ova	-9.54174
partiet	-9.54212
på	-9.54221
▁hund	-9.54308
▁rei	-9.5432
sberg	-9.54506
satte	-9.54526
▁problem	-9.54593
▁maskin	-9.54604
▁boken	-9.54637
62	-9.54659
▁slott	-9.54758
74	-9.54762
▁nummer	-9.54775
klo	-9.54929
88	-9.54983
▁interesse	-9.55006
▁larven	-9.55071
58	-9.55125
oth	-9.55181
▁yu	-9.55206
▁åpen	-9.5523
▁fortsatte	-9.55318
▁seier	-9.55342
▁1998	-9.55369
▁sl	-9.55376
▁mennesker	-9.55439
shi	-9.55461
▁old	-9.55569
▁sendt	-9.55575
historie	-9.55618
eid	-9.55618
▁områder	-9.55663
к	-9.55663
kraft	-9.55731
▁cy	-9.55802
rat	-9.55809
▁tung	-9.55821
ric	-9.55823
bud	-9.55833
delse	-9.55947
▁enhet	-9.56031
▁nam	-9.56061
gard	-9.56081
▁pot	-9.5619
▁tradisjonell	-9.56254
▁fått	-9.56282
▁munn	-9.56365
▁sku	-9.56541
▁elv	-9.56565
kka	-9.56633
▁start	-9.56681
▁sten	-9.56704
rør	-9.56714
▁tilby	-9.56781
samisk	-9.56786
57	-9.56942
70	-9.57005
▁sentrale	-9.57012
▁larvene	-9.57053
▁konkurranse	-9.57146
industri	-9.57152
66	-9.57197
hav	-9.57235
lad	-9.57284
lser	-9.57536
pningsseremonien	-9.57614
▁kristian	-9.57629
▁lau	-9.57659
drift	-9.577
▁komme	-9.57771
▁eg	-9.57837
saker	-9.57856
▁gjøre	-9.57885
grunn	-9.57893
representant	-9.57989
▁leg	-9.5799
rup	-9.58012
▁daglig	-9.5808
▁mun	-9.58088
ffer	-9.58116
hel	-9.58137
voll	-9.58193
stamme	-9.58252
▁dyre	-9.58258
▁skille	-9.58276
▁løp	-9.58289
ū	-9.58368
б	-9.58378
▁italia	-9.58403
▁kjerne	-9.58437
los	-9.58651
elli	-9.587
etter	-9.58717
handler	-9.5884
08	-9.58849
▁klo	-9.5885
az	-9.58855
▁ang	-9.58958
▁transport	-9.58959
▁løv	-9.58962
▁virksomhet	-9.59028
ische	-9.59069
old	-9.5908
▁sykdom	-9.59095
44	-9.59118
59	-9.59131
▁1991	-9.59147
▁flaggbærer	-9.59147
▁1984	-9.59158
▁beskrev	-9.59165
ão	-9.59172
▁drev	-9.59199
▁black	-9.59209
wood	-9.59229
rig	-9.59232
plasser	-9.59275
▁syk	-9.59342
▁rygg	-9.59399
feld	-9.59436
▁professor	-9.59498
erende	-9.59601
▁steder	-9.59651
arm	-9.59665
▁minst	-9.59717
▁star	-9.59721
vesen	-9.59742
92	-9.59793
▁song	-9.59818
blad	-9.5987
▁festning	-9.59871
▁dar	-9.59883
ρ	-9.59922
▁trondheim	-9.59934
▁1992	-9.59934
15	-9.59972
▁solgt	-9.59987
▁økt	-9.59989
▁adel	-9.59998
▁tverr	-9.60001
▁stav	-9.60025
mod	-9.60076
▁holdt	-9.601
vers	-9.60102
97	-9.60185
▁vinge	-9.60297
▁kata	-9.6033
gul	-9.6034
▁king	-9.60347
medalje	-9.60473
▁nar	-9.60569
▁vit	-9.60628
▁kategori	-9.60703
skjold	-9.60705
▁dronning	-9.60707
▁hon	-9.60718
▁term	-9.60742
manns	-9.60752
▁likevel	-9.60761
stro	-9.60773
ping	-9.60909
▁forsknings	-9.60953
ér	-9.60962
tha	-9.60991
pel	-9.61148
▁bøker	-9.61171
skudd	-9.61247
▁bou	-9.61277
▁dam	-9.61294
ias	-9.61296
▁kat	-9.61319
hol	-9.61324
ledning	-9.61451
▁gård	-9.61452
▁sports	-9.61465
12	-9.61487
belteasteroide	-9.61491
▁hvilke	-9.61493
▁nes	-9.61533
ire	-9.61535
▁tam	-9.61603
46	-9.61678
bru	-9.61692
▁sw	-9.61758
▁bygg	-9.61774
▁spiss	-9.61809
▁gå	-9.61839
▁sende	-9.61846
▁holm	-9.61873
bånd	-9.61892
zy	-9.61934
ås	-9.61978
▁foss	-9.62038
▁love	-9.62058
▁70	-9.62079
▁sort	-9.62111
▁mø	-9.62133
con	-9.62223
▁prosjekt	-9.62229
▁est	-9.62266
virke	-9.62271
▁brensel	-9.62275
▁flyttet	-9.6229
▁1979	-9.62294
▁2014	-9.62304
▁klima	-9.62309
ria	-9.62317
lip	-9.6232
▁dato	-9.62332
▁vinner	-9.6238
▁lek	-9.62398
sport	-9.62463
dam	-9.62471
ön	-9.62473
▁holde	-9.62509
▁forsøk	-9.62602
▁bol	-9.62611
atet	-9.62615
▁komponist	-9.62647
▁japan	-9.62699
▁utdanne	-9.62867
▁pave	-9.62919
▁sund	-9.62981
ì	-9.63084
dige	-9.63085
virkning	-9.63109
▁off	-9.63118
▁magne	-9.63118
▁tatt	-9.63167
▁organisasjonen	-9.63199
▁sul	-9.63201
jiang	-9.63412
▁los	-9.63504
▁north	-9.63792
▁ledd	-9.63801
yang	-9.63855
tog	-9.63881
▁sau	-9.63883
▁eksempler	-9.63891
▁storbritannia	-9.63891
▁1972	-9.63902
▁stavanger	-9.63904
▁2017	-9.63913
▁nordvest	-9.63928
▁naturlig	-9.63958
▁brann	-9.63959
98	-9.63972
spon	-9.63973
cher	-9.64004
▁tids	-9.64043
▁henne	-9.6406
▁cro	-9.6412
rev	-9.64183
▁with	-9.64185
jern	-9.64205
fang	-9.64214
▁natt	-9.64244
▁real	-9.64289
25	-9.64327
kraftverk	-9.64333
▁thi	-9.64394
▁fører	-9.64446
▁danse	-9.64448
ney	-9.64543
▁nederlandsk	-9.64567
samfunn	-9.6457
holm	-9.64587
▁skyld	-9.64601
▁univers	-9.64688
▁fjerde	-9.64704
▁nærmest	-9.6471
▁1978	-9.64718
▁charles	-9.64737
gata	-9.64738
▁direktør	-9.64802
hjul	-9.64812
▁oppgave	-9.6485
kle	-9.64854
▁opprør	-9.64862
grav	-9.64865
gående	-9.64934
illa	-9.64984
slav	-9.65001
▁spille	-9.65024
▁gjort	-9.65135
▁fest	-9.65176
77	-9.65218
▁karakter	-9.65257
▁mester	-9.65266
bare	-9.65383
▁måte	-9.65399
▁vid	-9.65405
▁aust	-9.65414
▁harald	-9.65507
▁drept	-9.65536
▁utdanning	-9.65542
▁char	-9.6556
▁krav	-9.65564
▁sørøst	-9.6557
▁epi	-9.6557
▁feil	-9.6561
▁rå	-9.657
▁legge	-9.65754
▁pop	-9.6576
▁slo	-9.65785
▁dor	-9.65795
▁union	-9.6581
▁hed	-9.65866
▁symbol	-9.65879
ort	-9.65913
ella	-9.65915
▁jean	-9.65917
▁glo	-9.65926
win	-9.65943
▁mik	-9.6598
▁mikro	-9.65982
▁anlegget	-9.66017
▁island	-9.66035
▁hå	-9.66085
▁finland	-9.66091
49	-9.66184
▁cell	-9.66193
▁løper	-9.66215
▁krigen	-9.66274
jan	-9.66305
▁relativ	-9.66351
▁arabisk	-9.66351
▁aktivitet	-9.66366
▁jazz	-9.66405
cho	-9.66412
bein	-9.66424
▁markeds	-9.66427
▁lyn	-9.66494
▁høyde	-9.66528
rådet	-9.66562
▁spilles	-9.66755
vatnet	-9.66762
▁mid	-9.66795
fart	-9.66845
▁kristen	-9.66869
hjem	-9.66885
▁gam	-9.6692
▁skips	-9.66978
mul	-9.67077
▁instrument	-9.67082
vogn	-9.67134
menter	-9.67174
й	-9.67183
▁500	-9.6719
▁variant	-9.67284
▁dynastiet	-9.67372
skilt	-9.67392
fond	-9.67419
▁stammer	-9.67434
hov	-9.67451
▁begrepet	-9.67606
▁landsbyen	-9.67609
litt	-9.67632
▁kraftig	-9.67807
ima	-9.67867
▁skapt	-9.67908
ι	-9.68023
52	-9.68025
▁autonom	-9.68025
▁1982	-9.68039
linjen	-9.68088
istene	-9.68123
96	-9.68185
▁bet	-9.68259
▁fyr	-9.68338
▁olympisk	-9.68359
94	-9.68394
▁effekt	-9.68442
▁betegne	-9.6846
▁sommeren	-9.68467
bladet	-9.68481
person	-9.68652
▁formel	-9.68692
▁holder	-9.68697
rim	-9.68866
▁tilhørte	-9.68871
▁michael	-9.68871
▁katolsk	-9.68872
▁øverst	-9.68874
pha	-9.68881
brun	-9.68883
▁hevde	-9.68885
mond	-9.68904
▁spill	-9.68905
▁poeng	-9.68911
ato	-9.68938
▁derimo	-9.68945
67	-9.68955
wan	-9.68959
▁hodet	-9.69009
▁bass	-9.69049
▁franc	-9.69181
93	-9.69222
▁skrive	-9.69246
▁stam	-9.69334
▁nabo	-9.69355
skriv	-9.69418
våpen	-9.69469
▁johann	-9.69622
▁rad	-9.69629
▁neu	-9.69655
▁beskytte	-9.69668
tradisjon	-9.69671
ulf	-9.69686
▁jern	-9.69699
marked	-9.6971
▁redaktør	-9.69725
▁utnevnt	-9.69726
▁vingespenn	-9.69726
▁stilling	-9.69733
tti	-9.6975
▁betegnelsen	-9.69754
▁ført	-9.69833
▁vind	-9.69847
▁aldri	-9.69862
utstilling	-9.69962
▁max	-9.69982
▁rike	-9.7005
legge	-9.70078
museet	-9.70091
ras	-9.70179
dro	-9.70198
▁kull	-9.70231
▁fange	-9.70256
ade	-9.70272
▁tap	-9.70284
▁gy	-9.70304
▁benyttet	-9.70349
enberg	-9.70361
▁europeisk	-9.70459
blomst	-9.70497
▁zi	-9.70503
▁reform	-9.70513
84	-9.70533
▁gjelder	-9.70534
▁sun	-9.70576
▁1975	-9.70599
▁1988	-9.70602
▁oblast	-9.70606
▁festival	-9.70705
▁hill	-9.7074
syre	-9.70743
▁bla	-9.70795
ity	-9.70841
в	-9.70859
kontor	-9.70863
strand	-9.70868
▁bomb	-9.70895
▁ansvar	-9.70995
lly	-9.71005
▁cho	-9.71015
krets	-9.71016
▁bio	-9.71062
▁behandling	-9.71084
▁bind	-9.71143
87	-9.71162
▁inge	-9.71246
▁vokal	-9.71246
ømme	-9.71264
▁wil	-9.71313
▁selve	-9.71384
▁ana	-9.71399
▁offisiell	-9.71445
▁afrika	-9.7145
́	-9.71457
п	-9.71457
ekspedisjon	-9.71457
▁1976	-9.71457
▁elektrisk	-9.71457
▁opprinnelse	-9.71457
▁stockholm	-9.71457
▁norrøn	-9.71457
▁service	-9.71458
▁hjerte	-9.7146
▁canada	-9.71473
▁2016	-9.7149
▁enten	-9.71498
off	-9.71515
▁kjenne	-9.71515
▁fylkes	-9.7155
▁stasjonen	-9.71599
▁retts	-9.71625
uch	-9.71649
▁gode	-9.71656
▁frø	-9.71658
▁program	-9.71697
standen	-9.71735
▁ungdoms	-9.71793
oli	-9.71808
dorf	-9.71856
shire	-9.71886
▁gården	-9.71941
fjell	-9.71975
▁kost	-9.71996
roll	-9.72005
▁rang	-9.72025
▁påvirke	-9.72102
strøm	-9.72103
▁røde	-9.72113
▁forsker	-9.72115
dagen	-9.72144
▁høye	-9.72231
foss	-9.72271
▁hjelpe	-9.72295
▁fulgte	-9.72304
ο	-9.7233
▁1960	-9.72353
▁tang	-9.72394
kamera	-9.72585
19	-9.72655
▁måned	-9.72701
▁math	-9.72787
▁kontor	-9.72838
gress	-9.72847
lov	-9.72906
▁vær	-9.72984
▁bj	-9.72991
▁spa	-9.73115
▁penge	-9.73164
▁slaget	-9.73172
▁polsk	-9.73172
▁heng	-9.73185
▁prosent	-9.73256
▁2015	-9.73256
oper	-9.73312
▁samfunns	-9.73349
klasse	-9.73357
▁albert	-9.7338
lid	-9.73446
▁och	-9.73481
▁krig	-9.73525
▁gor	-9.7355
▁gil	-9.73566
▁universitetet	-9.73601
69	-9.73634
▁bedre	-9.73692
dekk	-9.73728
▁gren	-9.73789
jar	-9.73813
▁app	-9.73816
▁jag	-9.73864
▁ting	-9.73905
▁blei	-9.73943
innen	-9.73963
øst	-9.74019
▁teksten	-9.74033
hastighet	-9.74117
▁1985	-9.74131
▁video	-9.74157
▁bob	-9.74168
▁typer	-9.74193
▁innehold	-9.7421
▁tsj	-9.74256
mis	-9.74275
▁forsvar	-9.74289
pet	-9.74358
▁ce	-9.74383
▁tegnet	-9.74384
øyene	-9.74446
▁rute	-9.74527
stripe	-9.74566
▁kanal	-9.74571
▁nasjonale	-9.74595
▁hva	-9.74604
▁teknisk	-9.7463
▁havne	-9.74655
evne	-9.74664
▁nan	-9.7473
kkel	-9.74732
▁musiker	-9.74743
▁stod	-9.74755
▁iii	-9.74833
figur	-9.74848
▁periode	-9.74912
pl	-9.74957
72	-9.74989
▁ein	-9.75004
▁klassisk	-9.75015
▁uttale	-9.75075
▁ånd	-9.75083
▁landbruk	-9.75107
cker	-9.75111
▁kart	-9.75112
▁marine	-9.75128
chen	-9.75172
▁luc	-9.7518
▁test	-9.75203
▁materiale	-9.75215
▁jakt	-9.75237
▁arve	-9.75252
▁oftest	-9.75253
▁bærer	-9.75284
▁delen	-9.75346
cheng	-9.75366
park	-9.75382
▁mol	-9.75426
▁kampen	-9.75437
ary	-9.7552
▁forsvars	-9.7553
▁funnet	-9.75576
festival	-9.75799
▁sju	-9.75895
▁øvre	-9.75923
▁blue	-9.75946
▁frukt	-9.76
▁leir	-9.76014
▁sivil	-9.76028
tag	-9.76041
▁totalt	-9.76161
▁utført	-9.7619
▁lyse	-9.76209
trær	-9.76227
osa	-9.76266
▁sterke	-9.76305
▁viste	-9.76321
hopp	-9.76363
▁høyt	-9.76366
▁organisasjon	-9.76433
▁nordland	-9.76456
▁engelske	-9.76456
▁bud	-9.76465
▁snø	-9.76508
gården	-9.76529
▁teknologi	-9.76561
▁din	-9.76606
▁metal	-9.76676
▁temperatur	-9.76691
▁ledelse	-9.76725
▁mess	-9.76732
▁blomster	-9.76748
mand	-9.76808
nummer	-9.76838
▁religion	-9.7684
▁senter	-9.76851
▁1986	-9.76858
73	-9.76926
▁vanlige	-9.76976
▁zu	-9.7698
▁mørke	-9.7698
still	-9.76993
▁grensen	-9.77022
medaljen	-9.77174
▁wu	-9.77241
somme	-9.77268
▁luk	-9.77291
▁finn	-9.77292
▁drive	-9.77409
▁slutten	-9.77473
▁andreas	-9.7752
45	-9.77586
spor	-9.77662
mengde	-9.77714
▁total	-9.77719
▁publisert	-9.77766
▁plassert	-9.77767
▁melodi	-9.77773
▁sørvest	-9.77797
▁fjord	-9.77821
▁fisk	-9.7784
▁alltid	-9.77855
▁wei	-9.77865
18	-9.77935
sol	-9.78012
▁skipet	-9.78032
▁befolkningen	-9.78035
▁meta	-9.78047
▁retning	-9.7808
16	-9.78146
ico	-9.78148
35	-9.78205
▁grunnla	-9.78251
tun	-9.78291
▁neste	-9.7832
▁miste	-9.78342
▁sar	-9.78361
▁ron	-9.78364
arbeider	-9.7842
▁fyrst	-9.78462
▁ask	-9.78466
levende	-9.7865
ô	-9.787
▁administrativ	-9.787
▁berømt	-9.787
▁parlament	-9.787
▁1973	-9.78713
▁hit	-9.78725
▁bydistrikt	-9.78743
▁lagt	-9.78808
holmen	-9.78817
serien	-9.78817
vekt	-9.78851
bryte	-9.78899
valget	-9.78916
▁fot	-9.78931
▁dersom	-9.78945
kol	-9.78957
veg	-9.79005
eller	-9.79061
bak	-9.79062
▁35	-9.79109
lem	-9.79245
▁bygningen	-9.79258
ín	-9.79273
skjell	-9.79337
legger	-9.79337
▁svi	-9.79368
pur	-9.79396
krigen	-9.7943
ikken	-9.79575
havn	-9.79581
ult	-9.79615
▁egypt	-9.79644
▁records	-9.79644
▁tydelig	-9.7965
▁qū	-9.79656
▁club	-9.79662
elv	-9.79725
▁gyl	-9.79779
▁faren	-9.79797
▁henry	-9.79844
▁cre	-9.79877
mur	-9.79934
vendt	-9.79994
▁lam	-9.80052
▁nevnes	-9.80071
▁flor	-9.80088
▁phil	-9.80144
▁angel	-9.80176
gift	-9.80192
▁tanke	-9.80194
▁80	-9.80219
▁amt	-9.80268
▁nordlige	-9.80329
▁unge	-9.80386
fjellet	-9.80386
svarer	-9.80472
gler	-9.80506
17	-9.8052
ān	-9.80527
▁buss	-9.80539
▁dro	-9.80585
ç	-9.80596
▁smith	-9.80615
▁element	-9.80633
▁hvordan	-9.80734
▁akademi	-9.80751
75	-9.80777
prisen	-9.80822
▁forfatteren	-9.80824
ical	-9.80954
motor	-9.80964
▁nrk	-9.81033
▁teori	-9.81039
▁200	-9.81046
▁høyere	-9.81058
▁sjef	-9.81114
▁hil	-9.81135
▁skip	-9.81179
▁vm	-9.81305
▁hunnen	-9.81307
▁may	-9.81312
▁lære	-9.81344
79	-9.81453
▁py	-9.81532
▁elektro	-9.81551
▁regissert	-9.81558
▁hurtig	-9.81562
▁hage	-9.81563
▁1987	-9.81571
abler	-9.81734
▁tittel	-9.81734
ball	-9.81759
▁bay	-9.81845
▁mente	-9.819
▁damp	-9.81901
▁gis	-9.82011
rakte	-9.82078
▁auto	-9.8215
▁cra	-9.82168
isa	-9.82177
fjellene	-9.82224
▁normalt	-9.82249
▁tan	-9.82288
▁ken	-9.82329
▁israel	-9.82356
▁boy	-9.82368
▁lage	-9.82372
на	-9.82422
ß	-9.82482
forfatter	-9.82503
▁stoff	-9.82503
steder	-9.82514
ł	-9.82528
▁hverandre	-9.82529
▁foreldre	-9.82531
▁forholdsvis	-9.82532
kandidat	-9.82533
▁rob	-9.82547
▁terr	-9.8263
hard	-9.82635
kirke	-9.82638
▁lot	-9.82676
▁comp	-9.82703
▁sterk	-9.82733
▁bølge	-9.82738
71	-9.82756
▁linjen	-9.82775
▁kommunene	-9.82799
▁hul	-9.82913
▁jer	-9.82943
gå	-9.82945
kryss	-9.82971
▁bat	-9.83003
▁dj	-9.83057
wald	-9.83076
gli	-9.8327
▁indisk	-9.83323
ark	-9.83375
▁tilhøre	-9.83402
▁fjorden	-9.83403
ansen	-9.83418
▁camp	-9.83488
▁ris	-9.83501
album	-9.83503
▁øvrig	-9.83509
trinn	-9.8351
▁dårlig	-9.83511
plassen	-9.83521
▁power	-9.83527
aceae	-9.83551
▁gjeste	-9.8356
gal	-9.83643
▁city	-9.83656
▁hum	-9.83688
nie	-9.83742
▁kvart	-9.83789
ander	-9.83844
▁kunnskap	-9.83899
▁eli	-9.83923
▁kari	-9.83943
▁motiv	-9.83949
23	-9.83965
▁oversatt	-9.84019
cal	-9.84076
gon	-9.84151
▁orkester	-9.84319
snes	-9.84402
▁gall	-9.84441
lapp	-9.84486
▁beijing	-9.845
▁arrangere	-9.845
miljø	-9.84515
▁samlet	-9.84515
▁laste	-9.84566
later	-9.84586
▁bevegelse	-9.84621
▁eksempelvis	-9.84679
▁innført	-9.84709
▁cri	-9.84751
▁glass	-9.84819
▁sli	-9.84862
▁lyst	-9.84868
▁område	-9.84875
▁hæren	-9.84907
▁hoff	-9.84957
▁scene	-9.84993
22	-9.85042
▁størrelse	-9.85049
▁trafikk	-9.85064
mit	-9.85068
▁forvingen	-9.85108
▁klasse	-9.85119
bank	-9.85162
▁tettstedet	-9.85213
▁hode	-9.85269
kjøp	-9.85361
▁maur	-9.85469
gjorde	-9.8549
▁kardinal	-9.85499
▁joseph	-9.85499
▁nevnt	-9.85499
kommune	-9.85526
vitenskap	-9.85527
▁handling	-9.85586
hode	-9.85612
▁struktur	-9.85621
dommen	-9.85622
▁helge	-9.85631
▁gjenopp	-9.85634
▁utgivelse	-9.85637
▁alder	-9.85665
▁debuter	-9.85744
skij	-9.85764
bord	-9.85882
▁opphav	-9.8597
▁klubb	-9.85995
klubben	-9.85999
▁bestemt	-9.86001
høgskole	-9.86003
▁heste	-9.8603
▁syr	-9.86081
▁gram	-9.8611
olo	-9.86184
▁divisjon	-9.86223
▁bruke	-9.86285
▁asia	-9.86334
▁verne	-9.86418
▁lenger	-9.86476
▁gard	-9.86489
▁journalist	-9.86509
▁fokus	-9.86514
▁kalte	-9.8652
▁sykehus	-9.86529
▁livs	-9.86537
▁omtale	-9.86538
▁kjemisk	-9.8654
▁vokste	-9.86558
▁omtalt	-9.86563
▁qui	-9.86565
▁regjerings	-9.86567
▁varierer	-9.86572
▁kjempe	-9.86585
▁tradisjonelle	-9.86587
▁bodde	-9.8663
▁ytre	-9.86705
▁forskning	-9.8673
giver	-9.86887
fyr	-9.86957
▁vold	-9.86986
▁jevn	-9.86995
▁familiegruppe	-9.87046
▁jule	-9.87206
▁andersen	-9.87231
▁akt	-9.87303
inae	-9.87514
▁alternativ	-9.87529
▁1967	-9.87544
▁eie	-9.87653
firma	-9.87666
▁mobil	-9.87722
▁kva	-9.87741
▁tj	-9.87822
▁team	-9.8787
▁petter	-9.87871
▁klokke	-9.87908
▁valgte	-9.87948
forhold	-9.87958
▁opprinnelige	-9.87962
▁dager	-9.87984
▁reist	-9.87993
▁resten	-9.88017
▁sven	-9.88078
▁bestod	-9.88093
▁masse	-9.88173
formede	-9.88372
▁avisen	-9.88433
▁dun	-9.88438
▁militære	-9.88502
▁nr	-9.88505
▁vers	-9.88508
▁primær	-9.88562
kompleks	-9.88562
▁1969	-9.88574
▁1974	-9.88577
utvikling	-9.88586
▁bakvingen	-9.88588
prosjekt	-9.88657
▁flertall	-9.88671
ada	-9.88715
▁qi	-9.88745
ual	-9.88748
▁sønnen	-9.88907
bevegelsen	-9.88908
▁kommun	-9.88935
▁operasjon	-9.88935
▁lignende	-9.88951
▁fremme	-9.88959
cent	-9.88961
kysten	-9.891
▁ansatte	-9.89176
onia	-9.89176
yu	-9.89302
▁kvinner	-9.89381
▁byer	-9.89435
car	-9.89446
handel	-9.89543
ernes	-9.89587
▁forkorte	-9.89587
▁sannsynlig	-9.89602
▁1977	-9.89618
▁1958	-9.89619
▁flyplass	-9.89631
ppen	-9.89662
ward	-9.8969
▁stål	-9.89716
forbindelse	-9.89722
▁tw	-9.89793
yan	-9.89869
utøver	-9.89881
mini	-9.89951
bed	-9.89956
▁underlagt	-9.89969
▁simon	-9.90081
▁unn	-9.90124
▁led	-9.90153
▁solo	-9.90201
▁ung	-9.9023
kirken	-9.90293
feltet	-9.90401
ctor	-9.90503
▁økonomi	-9.90521
can	-9.90529
▁human	-9.90555
▁folket	-9.90568
ε	-9.90655
▁tilgjengelig	-9.90655
▁wilhelm	-9.90655
▁etterhvert	-9.90655
▁voksne	-9.90655
▁oppdaget	-9.9066
▁hertug	-9.90662
▁naturgass	-9.90667
▁benytte	-9.90713
hem	-9.90717
▁kjønn	-9.90725
åpning	-9.90726
▁front	-9.90728
▁myk	-9.90791
▁bydelen	-9.90809
▁huset	-9.90832
byrå	-9.90882
▁kode	-9.90923
▁marie	-9.90931
kurs	-9.90937
▁fylket	-9.90942
▁base	-9.90974
▁suksess	-9.91052
ledd	-9.91075
gor	-9.9122
▁innsjøen	-9.9123
▁bane	-9.91243
vinner	-9.91253
▁tai	-9.91272
▁roll	-9.91422
▁regional	-9.91436
▁åpne	-9.91693
sekretær	-9.91705
▁original	-9.91716
ù	-9.91719
▁profesjonell	-9.91719
▁fremdeles	-9.91719
▁group	-9.91747
▁multi	-9.91748
vold	-9.91759
▁nivå	-9.91803
▁hotell	-9.91805
ough	-9.91859
▁award	-9.91879
virksomhet	-9.91883
museum	-9.9189
awa	-9.91915
▁korea	-9.9192
uz	-9.9211
▁vet	-9.92112
▁rollen	-9.92183
▁adam	-9.92278
hei	-9.92292
aktiv	-9.92315
▁wel	-9.92323
▁sho	-9.9235
kjemi	-9.92377
▁regjering	-9.92402
øve	-9.92475
slaget	-9.92577
▁programmet	-9.92584
fot	-9.92628
▁150	-9.92717
▁prøve	-9.92769
konstruksjon	-9.92794
▁digital	-9.92795
▁kha	-9.92813
▁1968	-9.92814
▁mytologi	-9.92823
▁verdenskrig	-9.92837
▁metode	-9.92846
▁single	-9.92853
▁lansert	-9.92854
ryd	-9.92861
strid	-9.92924
distrikt	-9.92934
time	-9.92941
gått	-9.93004
▁inf	-9.93024
avdeling	-9.93038
14	-9.9311
vit	-9.93218
▁stopp	-9.93248
aria	-9.93272
▁produksjons	-9.93395
▁ansvarlig	-9.93398
▁ost	-9.93401
▁tettsted	-9.93413
ello	-9.9343
▁leve	-9.9347
▁web	-9.93498
▁atom	-9.93514
plikt	-9.93529
24	-9.93581
fil	-9.93753
▁kilde	-9.9381
▁kommuner	-9.93821
▁verket	-9.93832
▁københavn	-9.93881
▁nowiki	-9.93881
▁århundre	-9.93881
▁dialekt	-9.93882
▁south	-9.93887
▁royal	-9.93889
▁hannen	-9.9389
vunnet	-9.93891
▁insekt	-9.93892
▁forteller	-9.93906
▁1950	-9.93916
▁vitenskapelig	-9.9392
▁slank	-9.93926
▁løpet	-9.93947
▁sea	-9.94024
▁32	-9.94048
▁rose	-9.94088
▁personlig	-9.941
11	-9.94114
▁buk	-9.94154
▁benyttes	-9.94166
▁ray	-9.94302
duk	-9.94322
▁utga	-9.94325
bal	-9.9441
▁tonn	-9.94433
▁omfattet	-9.9448
basert	-9.94482
oksid	-9.94605
▁overgang	-9.94655
▁valgt	-9.94744
▁troll	-9.94833
▁presse	-9.94851
▁dør	-9.94853
▁amerika	-9.94971
institusjon	-9.9498
ë	-9.9498
▁trøndelag	-9.9498
▁himmel	-9.94981
▁lengre	-9.94986
▁1966	-9.94997
▁vanskelig	-9.95004
▁1930	-9.95006
▁sammenheng	-9.95087
▁bit	-9.9511
hua	-9.95131
▁saint	-9.95135
▁prisen	-9.95137
▁prins	-9.95172
▁try	-9.95182
▁trener	-9.9522
▁trond	-9.95221
▁stadig	-9.95267
▁hær	-9.95302
ppel	-9.95351
▁jack	-9.95359
én	-9.95365
fre	-9.95367
▁skatte	-9.95379
▁tema	-9.95381
▁studenter	-9.95397
▁gitarist	-9.95572
post	-9.95608
foreningen	-9.95657
▁90	-9.95661
▁bonde	-9.95744
områdene	-9.95853
trolig	-9.95866
bukta	-9.95917
κ	-9.96091
▁australia	-9.96091
▁konstant	-9.96101
▁styrke	-9.96136
▁michel	-9.96158
▁jarl	-9.96259
▁intern	-9.96337
dahl	-9.96362
ville	-9.96548
gav	-9.96549
▁ordens	-9.96593
▁brand	-9.96664
pass	-9.96709
kanten	-9.96788
▁gjer	-9.96819
28	-9.96867
una	-9.96879
trene	-9.96889
forbundet	-9.96916
▁følge	-9.96952
▁hovedrollene	-9.96984
▁villa	-9.97011
▁rør	-9.97057
21	-9.97107
▁long	-9.97166
▁gutt	-9.97178
▁turist	-9.97186
ς	-9.97208
▁jørgen	-9.97215
▁magnus	-9.97221
▁college	-9.97226
▁1963	-9.97233
▁ordfører	-9.97241
▁forenkle	-9.97254
▁posisjon	-9.97331
▁eiendom	-9.97345
lingen	-9.97407
▁för	-9.975
▁horn	-9.97557
tilbud	-9.9757
leir	-9.97592
▁yo	-9.97705
parken	-9.97763
än	-9.97764
▁gress	-9.97799
▁fortsette	-9.97856
kron	-9.97927
jord	-9.98025
alitet	-9.98052
▁uavhengig	-9.98203
▁filosofi	-9.98216
▁music	-9.98218
▁besøk	-9.98275
▁menn	-9.9828
▁bibliotek	-9.98283
war	-9.98283
▁kvinnelig	-9.98303
я	-9.98351
▁således	-9.98351
▁avslutte	-9.98351
▁skjedde	-9.98373
▁1964	-9.98374
▁lengst	-9.98375
▁sverd	-9.98402
▁sikre	-9.98436
▁offentlig	-9.98439
▁oc	-9.98447
dikt	-9.9851
▁ube	-9.98553
▁high	-9.98582
▁livet	-9.98591
▁gold	-9.98593
bach	-9.98621
▁strid	-9.98669
▁300	-9.98712
▁heller	-9.98823
▁1800	-9.98846
▁ran	-9.98851
zz	-9.98948
▁34	-9.98968
▁div	-9.98972
▁finne	-9.9899
▁master	-9.99021
▁prof	-9.99022
mesterskapet	-9.9904
sdatter	-9.99051
▁russ	-9.99073
▁roma	-9.99086
kort	-9.99118
▁antenne	-9.99173
▁sørlig	-9.99232
▁vor	-9.99268
yuan	-9.99279
▁lån	-9.99287
▁tau	-9.99327
31	-9.99363
▁kropps	-9.99417
▁steve	-9.99428
▁gruve	-9.9945
▁ali	-9.99459
σ	-9.99496
▁prefektur	-9.995
▁tilknyttet	-9.995
▁vokser	-9.99503
kommando	-9.99515
▁1940	-9.99527
bet	-9.99528
bridge	-9.99529
▁bevart	-9.99555
▁tilfelle	-9.99609
▁papir	-9.99637
▁bosetning	-9.99656
▁ekstra	-9.9968
itter	-9.99703
▁harry	-9.99864
▁markert	-9.99883
bol	-9.99937
▁spillet	-9.99945
tunnelen	-10.0001
▁regel	-10.0001
vari	-10.0001
▁mei	-10.0007
▁sider	-10.0008
▁fol	-10.0014
▁grupper	-10.0017
▁spise	-10.0024
▁tim	-10.0032
breen	-10.004
▁nådd	-10.0044
▁tha	-10.0051
▁gun	-10.0053
▁chu	-10.0053
konge	-10.0054
regn	-10.0057
▁45	-10.0058
▁fru	-10.0058
▁anton	-10.0058
oll	-10.0061
▁fjellet	-10.0063
▁kaptein	-10.0066
▁hustru	-10.0067
▁ridder	-10.0068
▁offisiel	-10.0068
▁1959	-10.0068
▁stortings	-10.0075
▁east	-10.0076
32	-10.0077
▁dekker	-10.0085
▁from	-10.0088
vev	-10.0095
▁bryst	-10.0098
▁maleri	-10.0102
▁santa	-10.0111
▁33	-10.0112
▁tale	-10.0114
zon	-10.0127
com	-10.0131
▁rase	-10.0134
matisk	-10.0135
jal	-10.0147
▁log	-10.015
▁kjell	-10.0151
▁innsjø	-10.0152
▁brenn	-10.0153
▁chang	-10.0154
▁artene	-10.0155
▁hundre	-10.0161
▁shan	-10.0165
▁kval	-10.0168
▁bord	-10.0175
▁bære	-10.0181
kapasitet	-10.0184
▁referere	-10.0184
▁united	-10.0184
▁frederik	-10.0185
▁kontakt	-10.0185
kontrakt	-10.0186
▁fengsel	-10.0186
▁alfred	-10.0191
våk	-10.0195
▁otto	-10.0197
▁kald	-10.0202
▁ari	-10.0202
bedriften	-10.0206
▁nasjonalpark	-10.0208
sand	-10.0211
▁organisert	-10.0212
forskning	-10.0219
zj	-10.0221
dannelse	-10.0224
▁normal	-10.0225
▁sunn	-10.0226
▁raskt	-10.0231
▁petr	-10.0231
styrke	-10.0242
fylt	-10.0248
▁undersøkelse	-10.025
▁brev	-10.0251
▁ec	-10.0252
skytter	-10.0253
▁ark	-10.0253
▁tann	-10.0254
▁offentlige	-10.0256
shan	-10.0263
13	-10.0265
▁skriver	-10.0268
▁artikkel	-10.0271
▁irsk	-10.0288
▁bronse	-10.0289
▁salg	-10.0295
▁rosen	-10.0295
▁jacob	-10.0296
rock	-10.0296
spinner	-10.0297
▁anta	-10.0302
▁deriblant	-10.0303
▁sovjetunionen	-10.0303
▁alkohol	-10.0303
▁1948	-10.0305
▁møtte	-10.0307
▁landslag	-10.0309
▁vannet	-10.031
▁listen	-10.0314
▁nø	-10.0315
parten	-10.0317
▁gjennomført	-10.0318
▁kai	-10.0322
herre	-10.0323
▁lavere	-10.0325
rekke	-10.0326
▁mw	-10.0329
▁tog	-10.0335
▁inndel	-10.0344
ár	-10.0346
effekt	-10.0347
bakken	-10.0349
▁kraftige	-10.0351
▁planet	-10.0359
▁olsen	-10.0362
▁svak	-10.0362
▁bånd	-10.0362
▁wolf	-10.0378
▁overfor	-10.0387
▁polar	-10.0388
rute	-10.0394
▁tour	-10.0395
sjö	-10.0399
kanalen	-10.0404
vika	-10.0407
▁aur	-10.0408
kler	-10.0411
leng	-10.0412
▁out	-10.0415
krig	-10.0417
pin	-10.042
▁kjøpe	-10.0421
τ	-10.0423
▁fødsel	-10.0423
▁school	-10.0424
ström	-10.0424
▁snakke	-10.0424
▁omfattende	-10.0426
▁mannskapet	-10.0426
▁tun	-10.0426
▁republikken	-10.0428
▁jordbruk	-10.043
▁län	-10.0433
▁forretnings	-10.0435
▁daniel	-10.0435
finn	-10.0439
▁effektiv	-10.0442
vikler	-10.045
▁bach	-10.0454
hagen	-10.0458
▁gau	-10.0458
▁tapt	-10.0463
▁75	-10.0464
mont	-10.0465
▁jim	-10.0468
▁vent	-10.0471
▁vakt	-10.0474
kultur	-10.0479
▁kast	-10.0481
▁leon	-10.0482
▁kyr	-10.0485
34	-10.0487
▁stol	-10.0489
legg	-10.0491
▁dog	-10.0493
▁disk	-10.0499
møte	-10.05
syke	-10.0503
▁hov	-10.0505
▁behandle	-10.0506
artikler	-10.0513
▁undervisning	-10.0525
ligste	-10.0525
▁areal	-10.0531
▁historiker	-10.0531
løpet	-10.0532
sundet	-10.0532
legging	-10.0534
frekvens	-10.0545
▁episode	-10.0546
▁nedenfor	-10.0546
▁1971	-10.0547
gri	-10.0549
▁dvs	-10.0557
▁arn	-10.056
▁føde	-10.0561
▁kg	-10.0563
▁green	-10.0566
head	-10.0572
▁az	-10.0573
åsen	-10.0576
▁vokalist	-10.0581
▁jøde	-10.0581
omme	-10.0585
▁eik	-10.0585
▁server	-10.0592
formen	-10.0597
▁nyere	-10.0599
▁storm	-10.06
▁funn	-10.0603
hof	-10.0604
grupper	-10.0612
▁dommer	-10.0619
sso	-10.0623
▁american	-10.0624
stasjonen	-10.0624
▁bakkroppen	-10.0634
▁river	-10.0635
▁stille	-10.064
▁mah	-10.0641
▁ramme	-10.0644
▁vestlig	-10.0644
▁kjøre	-10.0652
▁marg	-10.0654
▁stri	-10.0661
myndighet	-10.0665
▁innflytelse	-10.0669
▁eventyr	-10.0669
▁cirka	-10.0669
▁inngår	-10.0669
▁redusere	-10.0669
▁rolf	-10.067
▁fc	-10.067
▁brasil	-10.0673
▁selge	-10.0674
▁1900	-10.0674
▁utføre	-10.0674
▁gh	-10.0684
▁hjerne	-10.0685
▁fordelt	-10.0685
▁kapell	-10.0691
▁bunn	-10.0704
▁grunnlag	-10.0705
▁institutt	-10.0712
▁ross	-10.0716
▁peder	-10.0723
▁lim	-10.0729
distanse	-10.073
vang	-10.073
▁sof	-10.073
▁studio	-10.0733
masse	-10.0746
▁kara	-10.0765
▁programmer	-10.0771
▁kreft	-10.078
▁kåre	-10.078
▁kjøl	-10.0781
jønn	-10.0783
▁spenning	-10.0784
▁160	-10.0784
▁landsby	-10.0793
▁1956	-10.0794
▁arrangert	-10.0794
▁selvstendig	-10.0794
▁positiv	-10.0794
▁fjær	-10.0794
▁østerrike	-10.0794
▁tegneserie	-10.0795
ич	-10.0795
▁1945	-10.0796
▁islam	-10.0796
▁egenskaper	-10.0796
▁1965	-10.0797
▁musikkalbum	-10.0797
givelse	-10.0797
luk	-10.0799
▁vingene	-10.08
▁signal	-10.08
▁utviklings	-10.0802
▁manus	-10.0804
▁sikkerhets	-10.081
uel	-10.0817
▁delvi	-10.0823
▁koloni	-10.0825
▁støttet	-10.0836
▁revolusjon	-10.0844
produkt	-10.0846
trafikk	-10.0849
▁populære	-10.0858
▁møter	-10.0862
artist	-10.0867
former	-10.0867
▁innspilling	-10.0872
▁krever	-10.0879
serie	-10.0886
debut	-10.0886
▁tradisjonel	-10.0888
▁akk	-10.0891
▁strekk	-10.0899
strup	-10.09
▁olavs	-10.0903
tsu	-10.0905
▁karriere	-10.0906
▁stig	-10.0913
halvøya	-10.0917
staten	-10.0919
▁femte	-10.0919
▁sjelden	-10.0921
▁company	-10.0921
▁etterfølger	-10.0922
▁1936	-10.0923
▁1942	-10.0923
▁erobre	-10.0924
▁brygge	-10.0926
▁landskapet	-10.0929
▁kilder	-10.0935
snegl	-10.0944
▁deles	-10.0947
▁romanen	-10.0954
▁ull	-10.0956
▁morten	-10.0957
0	-10.0958
hai	-10.096
▁fler	-10.0971
▁emil	-10.0972
▁krets	-10.0974
▁salme	-10.0985
vakt	-10.1002
betegnelse	-10.1009
▁forsøkt	-10.1011
▁coll	-10.1012
▁endre	-10.1013
▁qua	-10.1027
▁forsvaret	-10.1031
slått	-10.1032
▁slett	-10.1035
▁nordisk	-10.1038
▁geo	-10.1038
26	-10.1048
arrangement	-10.1049
▁1954	-10.1049
▁medlemmene	-10.105
▁stadion	-10.105
▁invest	-10.105
▁mulighet	-10.105
▁fløy	-10.1052
▁fotballspiller	-10.1052
▁internett	-10.1053
▁dominere	-10.1054
▁kin	-10.1063
▁alf	-10.1064
▁koll	-10.1073
▁agder	-10.1078
base	-10.1088
gjort	-10.109
▁historien	-10.1097
▁mjø	-10.11
▁middelalderen	-10.1107
▁400	-10.1107
forestilling	-10.1108
regionen	-10.1111
▁løsning	-10.1112
▁latinsk	-10.1116
▁preget	-10.1123
sats	-10.1128
enburg	-10.1131
▁beskriver	-10.1137
flue	-10.114
chester	-10.1141
▁forbundet	-10.1152
▁øyene	-10.1166
▁kamper	-10.1169
data	-10.1178
▁introdusert	-10.1179
▁1961	-10.1179
▁jødisk	-10.1179
▁1918	-10.118
▁mineral	-10.1181
ligner	-10.1191
▁reaksjon	-10.1193
▁fett	-10.1197
▁kry	-10.12
▁likhet	-10.1201
▁melk	-10.1206
rommet	-10.1228
sikkerhet	-10.1229
▁vu	-10.1252
▁spørsmål	-10.1254
▁ønske	-10.1258
33	-10.1261
▁utover	-10.1286
▁aar	-10.1289
makt	-10.1289
▁slå	-10.1289
▁ingeniør	-10.1292
▁ild	-10.1297
▁tone	-10.1299
▁prosjektet	-10.1307
▁debutalbum	-10.131
▁etterfulgt	-10.131
▁skulptur	-10.131
▁utgangspunkt	-10.131
▁ytterligere	-10.131
▁science	-10.131
▁passasjer	-10.131
▁moskva	-10.131
▁gunnar	-10.131
▁fysisk	-10.131
ος	-10.1311
▁andré	-10.1311
▁1962	-10.1312
▁spania	-10.1313
▁fungere	-10.1314
▁gustav	-10.1314
komst	-10.1326
▁befinne	-10.1335
gol	-10.1336
▁våren	-10.1337
▁magasin	-10.134
tank	-10.1346
▁planter	-10.1351
▁lenge	-10.136
▁bispedømme	-10.1365
▁wall	-10.1372
▁ud	-10.138
▁sei	-10.1386
▁niels	-10.1387
botn	-10.1387
▁studier	-10.1388
▁fan	-10.1388
▁kroner	-10.1389
▁klassen	-10.1397
▁utløp	-10.1397
ledet	-10.1411
▁mir	-10.1414
▁offiser	-10.1425
▁sideelv	-10.1425
renn	-10.143
▁ferge	-10.1438
27	-10.144
▁inspirert	-10.1443
▁1947	-10.1443
▁objekt	-10.1444
▁jakob	-10.1444
▁redusert	-10.1444
▁alexander	-10.1444
▁rektor	-10.1444
▁kristiansand	-10.1444
▁1931	-10.1445
▁1952	-10.1445
tallet	-10.1446
▁1939	-10.1446
▁tolv	-10.1447
▁veldig	-10.1447
▁hentet	-10.1454
▁mary	-10.1457
alisme	-10.1462
▁slu	-10.1472
hed	-10.1475
▁nærmer	-10.1475
▁beat	-10.1476
drevet	-10.1479
▁smak	-10.1482
▁vist	-10.1482
▁begynner	-10.1488
istikk	-10.1492
▁sveits	-10.1495
▁henri	-10.1496
▁ønsket	-10.1497
formasjon	-10.1507
håndverk	-10.1512
funksjon	-10.1516
▁bakken	-10.1516
▁tromsø	-10.1519
▁platen	-10.1523
▁starter	-10.1524
▁khan	-10.1526
fekt	-10.1526
klær	-10.1534
ship	-10.1536
▁rod	-10.1537
ittisk	-10.1541
▁flagg	-10.1552
▁fritt	-10.1557
livet	-10.1559
▁comm	-10.156
▁utstyrt	-10.1564
styrken	-10.1568
▁avhengig	-10.1568
▁shanghai	-10.1579
▁friedrich	-10.1579
▁generelt	-10.1579
friidrettsutøver	-10.1579
▁kjærlighet	-10.158
▁brown	-10.1581
▁håkon	-10.1581
▁videregående	-10.1582
▁skotsk	-10.1582
domstol	-10.1583
▁tørr	-10.1584
▁krysser	-10.1584
tunnel	-10.1586
▁vall	-10.1588
landskap	-10.1591
▁170	-10.1592
▁toppen	-10.1593
▁kim	-10.1595
▁streng	-10.1599
▁tekster	-10.1614
▁havn	-10.1614
▁skjær	-10.1623
bygningen	-10.1625
▁ulv	-10.1629
▁drikke	-10.163
▁sesong	-10.1646
▁kalk	-10.1651
medlem	-10.1654
▁roger	-10.1654
produsent	-10.1655
president	-10.1657
▁00	-10.1658
▁forskjell	-10.166
forsker	-10.1664
▁utgi	-10.1667
▁vill	-10.1668
▁bygda	-10.1673
▁inntekt	-10.1674
anda	-10.1677
▁elske	-10.1679
▁eva	-10.1683
▁anlegg	-10.1685
▁final	-10.1686
▁rask	-10.1687
▁beina	-10.1688
▁søke	-10.1689
sentre	-10.1692
▁hemme	-10.1694
29	-10.1697
▁territori	-10.1716
▁doktor	-10.1716
▁arthur	-10.1716
pedagog	-10.1716
▁für	-10.1716
▁1957	-10.1718
▁finnmark	-10.1718
▁nattfly	-10.1718
▁fiolin	-10.1719
▁kvalitet	-10.1719
▁betjene	-10.1719
▁bakgrunn	-10.1721
▁grunnlegger	-10.1721
▁grunnlegge	-10.1722
tysk	-10.1722
▁skape	-10.1725
▁portrett	-10.1728
▁butikk	-10.1733
▁ulik	-10.1736
▁nederland	-10.1742
▁cur	-10.1749
minne	-10.1752
verdig	-10.1754
▁sankt	-10.1755
▁bidrag	-10.1756
▁top	-10.1759
▁slave	-10.1762
▁qing	-10.1767
▁liga	-10.177
▁utdannelse	-10.1774
▁oh	-10.1778
icus	-10.1781
jä	-10.1782
▁herman	-10.1792
amerikansk	-10.1796
▁politiet	-10.1805
ев	-10.1808
bøker	-10.1812
politikk	-10.1819
slekten	-10.1826
▁fry	-10.1828
tjenesten	-10.1838
ww	-10.1846
▁rep	-10.1847
dokument	-10.1847
▁administrere	-10.1854
▁negativ	-10.1855
▁blanding	-10.1856
▁kapp	-10.1856
▁tømmer	-10.1856
▁kjær	-10.1856
▁bell	-10.1869
▁områdene	-10.1873
▁metro	-10.1877
▁stift	-10.1883
skipet	-10.1889
▁brem	-10.1891
▁snu	-10.1893
verdi	-10.19
▁møll	-10.1906
▁underfamilien	-10.1906
stav	-10.1908
typer	-10.1913
▁endelig	-10.1919
mennene	-10.1922
▁hammer	-10.1928
program	-10.1932
ordning	-10.1942
løsning	-10.1942
roman	-10.195
▁nevne	-10.195
▁befolkning	-10.1955
modell	-10.1964
▁politikk	-10.1964
bury	-10.1964
▁enkle	-10.1972
blå	-10.1973
▁that	-10.1978
▁kok	-10.1984
▁intel	-10.1988
▁dekkvingene	-10.1995
▁regissør	-10.1995
▁utvidet	-10.1995
▁hebraisk	-10.1995
▁kombinert	-10.1995
▁nicola	-10.1995
▁drammen	-10.1995
▁1949	-10.1997
▁protest	-10.1998
▁oscar	-10.1998
▁philip	-10.2002
▁luther	-10.2005
psykologi	-10.2012
stab	-10.2017
▁blokk	-10.2024
stått	-10.2027
▁religiøse	-10.2035
zu	-10.204
▁parken	-10.2056
▁press	-10.2059
vingen	-10.2063
▁sav	-10.2064
▁endret	-10.2065
▁utvalg	-10.2067
sterke	-10.2068
støt	-10.2075
▁dobbelt	-10.2075
able	-10.2081
kontroll	-10.2082
konkurranse	-10.2083
▁institute	-10.2094
dommer	-10.2096
▁korn	-10.2103
tekst	-10.2109
▁grøn	-10.2112
teori	-10.2121
āng	-10.2123
▁arkiv	-10.2126
▁palm	-10.2134
▁kulturminner	-10.2138
▁sigurd	-10.2138
▁henholdsvis	-10.2138
▁kritikk	-10.2139
zan	-10.2139
▁dverg	-10.2139
▁1923	-10.214
mønster	-10.2141
flo	-10.2142
▁hotel	-10.2143
næring	-10.2143
lignende	-10.2148
mission	-10.215
bebyggelse	-10.2151
▁systemet	-10.2156
olje	-10.216
▁arkitektur	-10.2162
▁bull	-10.2165
▁endte	-10.2167
lich	-10.2168
pat	-10.2172
ко	-10.2173
▁bydel	-10.2179
▁class	-10.218
▁junior	-10.2181
grep	-10.219
▁baby	-10.2194
▁skarp	-10.2206
▁skall	-10.2206
▁hval	-10.2209
▁chan	-10.2217
▁wan	-10.222
▁sovjetisk	-10.2221
orum	-10.2228
▁prop	-10.223
▁øke	-10.2239
▁saga	-10.224
behandling	-10.2246
▁utstyr	-10.2258
▁marin	-10.2259
folket	-10.2264
gate	-10.227
▁vitenskap	-10.2274
▁høst	-10.2277
▁tykk	-10.2281
▁edvard	-10.2283
▁ekstrem	-10.2283
▁yngre	-10.2283
sekvens	-10.2283
▁ekteskap	-10.2284
fysikk	-10.2284
▁spre	-10.2285
▁foreningen	-10.2299
næs	-10.2311
ful	-10.2312
▁kanon	-10.2312
▁kristne	-10.2319
vannet	-10.2325
horn	-10.233
▁kommunal	-10.234
årig	-10.2342
▁tusen	-10.2343
gass	-10.2343
▁lønn	-10.2344
▁soldater	-10.2359
▁krist	-10.2369
▁pont	-10.237
000	-10.2387
liste	-10.239
endt	-10.239
uru	-10.2393
▁trø	-10.2399
▁cup	-10.2404
forsyning	-10.241
▁typen	-10.242
▁ankom	-10.242
eksperiment	-10.243
▁elisabeth	-10.243
▁nødvendig	-10.243
▁windows	-10.243
▁mexico	-10.243
gymnas	-10.243
▁muslim	-10.243
▁frivillig	-10.243
▁nikola	-10.243
ressurs	-10.2431
▁fartøy	-10.2431
▁studioalbum	-10.2431
▁1946	-10.2432
▁bakterie	-10.2433
▁1955	-10.2433
▁bang	-10.2434
▁bekrefte	-10.2434
▁1920	-10.2434
▁ishockey	-10.2435
ор	-10.2435
▁formål	-10.2438
▁modern	-10.2439
▁artister	-10.2441
▁ungdom	-10.2442
▁stabil	-10.2445
▁ledende	-10.2446
kjøretøy	-10.2451
▁dol	-10.2456
▁preg	-10.246
▁tenk	-10.2476
▁spesielle	-10.2479
olin	-10.2484
esisk	-10.2492
▁tråd	-10.2494
▁sla	-10.2495
▁former	-10.2499
▁kjøtt	-10.2501
ique	-10.2505
språklig	-10.2506
▁skinn	-10.2506
polis	-10.2507
myr	-10.2514
▁musikalsk	-10.2521
cio	-10.2522
▁slått	-10.2524
▁aas	-10.2531
▁innhold	-10.2533
født	-10.2535
idrett	-10.2554
spiss	-10.2555
ва	-10.2556
skjær	-10.2571
▁skuespill	-10.2572
løytnant	-10.2579
▁skottland	-10.2579
hjørne	-10.258
ovitsj	-10.2581
▁1933	-10.2581
▁1932	-10.2581
▁fullført	-10.2582
kompani	-10.2587
▁anvende	-10.2587
▁dahl	-10.2588
▁oversettelse	-10.2589
▁center	-10.259
▁eksistere	-10.259
▁hersker	-10.2592
▁bibel	-10.2593
▁innsats	-10.2594
eksamen	-10.2598
▁kongelige	-10.2607
▁teknikk	-10.2616
▁medisin	-10.2618
lutning	-10.2619
kjent	-10.2624
▁havet	-10.2624
▁schi	-10.2625
▁måne	-10.2626
▁tell	-10.2628
▁alv	-10.2642
▁karbon	-10.2646
▁gw	-10.2647
▁rand	-10.2649
▁viking	-10.2652
▁idrettslag	-10.2662
▁road	-10.2662
▁begrep	-10.2669
▁bin	-10.2672
▁life	-10.2672
▁levert	-10.2691
▁vig	-10.2693
ahn	-10.2696
▁back	-10.2709
▁vulkan	-10.2731
▁observer	-10.2731
▁ansikt	-10.2731
▁styrmann	-10.2731
▁rekord	-10.2732
▁forårsake	-10.2732
▁naturreservat	-10.2732
▁liberal	-10.2733
▁arendal	-10.2734
▁edward	-10.2734
▁foto	-10.2734
▁svømme	-10.2734
▁programvare	-10.2736
visning	-10.2739
▁ukjent	-10.274
worth	-10.274
▁styrker	-10.274
▁finalen	-10.2743
▁uttalt	-10.2743
▁tårn	-10.2744
ск	-10.2748
▁drag	-10.2755
▁grov	-10.276
▁oppdrag	-10.2768
▁forekommer	-10.2775
▁fotballklubb	-10.2777
▁nordover	-10.278
▁pul	-10.2794
politisk	-10.28
seth	-10.2804
ulykke	-10.2811
▁hekk	-10.2813
▁formen	-10.2815
republikk	-10.2819
▁sab	-10.2819
gjenger	-10.2835
oid	-10.286
▁øker	-10.2876
administrasjon	-10.2877
▁restaurant	-10.2885
▁utbredt	-10.2885
▁ludvig	-10.2885
▁christoph	-10.2885
▁alvorlig	-10.2885
▁adresse	-10.2886
▁arbeiderpartiet	-10.2887
▁røyk	-10.2892
▁trommer	-10.2899
▁dekket	-10.2901
konferanse	-10.2902
▁føl	-10.2903
▁600	-10.2907
▁pap	-10.2909
▁skaper	-10.2914
bukk	-10.2923
sidig	-10.293
▁samarbeidet	-10.2957
▁endringer	-10.298
▁francis	-10.2984
▁kru	-10.2993
▁asp	-10.2995
▁pierr	-10.3017
▁refl	-10.3026
rykket	-10.303
▁brødrene	-10.3041
▁publikum	-10.3041
▁sistnevnte	-10.3041
▁pil	-10.3041
▁major	-10.3041
▁yrkes	-10.3041
▁sukker	-10.3043
plattform	-10.3043
situasjon	-10.3047
analyse	-10.3056
▁divers	-10.3063
▁mynt	-10.3065
vatn	-10.3069
▁histori	-10.307
▁overleve	-10.3075
samband	-10.3081
lé	-10.3083
▁sikte	-10.3089
▁angi	-10.3124
lønn	-10.3124
▁middelalder	-10.3128
▁larve	-10.3132
▁mono	-10.3134
ligning	-10.3148
öl	-10.3151
slekt	-10.3158
teknikk	-10.3161
▁torg	-10.3165
▁nettverk	-10.317
måte	-10.3186
▁fotograf	-10.3186
▁gruppa	-10.3188
▁akershus	-10.32
▁erkebiskop	-10.32
▁oppstår	-10.32
orientert	-10.32
▁døgn	-10.32
▁definert	-10.32
▁http	-10.32
▁klipp	-10.3201
▁utnytte	-10.3201
▁1926	-10.3201
▁1944	-10.3202
▁tross	-10.3203
▁skjønn	-10.3204
▁beskrive	-10.3205
▁reserve	-10.3211
▁hamar	-10.3212
kostnad	-10.3215
▁aksje	-10.3215
▁bodø	-10.3218
▁henhold	-10.3219
tempelet	-10.3225
▁good	-10.3226
▁jesu	-10.3231
▁nerve	-10.3235
▁nedre	-10.324
▁tidsskriftet	-10.3254
▁retur	-10.3255
gud	-10.3257
▁1000	-10.3258
▁grim	-10.3265
drakt	-10.3268
▁oppleve	-10.3271
▁num	-10.3275
type	-10.3279
▁wol	-10.3294
▁lill	-10.3307
bolig	-10.3308
aux	-10.331
▁stilte	-10.3316
▁town	-10.3322
ordin	-10.3325
magasin	-10.3325
materiale	-10.3325
maker	-10.3331
▁øyne	-10.3333
▁raf	-10.334
▁regjer	-10.334
▁bidra	-10.3341
▁fullstendig	-10.3361
▁installert	-10.3361
▁ukrainsk	-10.3361
▁tyrkisk	-10.3361
▁ungarsk	-10.3361
▁premier	-10.3362
konvensjon	-10.3363
▁firmaet	-10.3363
▁1938	-10.3364
▁klarte	-10.3368
▁detalj	-10.3368
▁dokumenter	-10.3369
▁cel	-10.3371
▁house	-10.3373
sønn	-10.3375
typen	-10.3379
▁prosessen	-10.3383
▁ledes	-10.3393
▁birk	-10.3403
bygget	-10.3405
▁furu	-10.3406
▁morgen	-10.3412
▁kreve	-10.3428
▁fargen	-10.3442
▁kveld	-10.3456
vest	-10.3464
reise	-10.3473
▁proto	-10.3489
▁synes	-10.3493
bølge	-10.3496
grå	-10.3502
brand	-10.3514
▁opptre	-10.3524
▁millimeter	-10.3525
▁tønsberg	-10.3525
▁registrert	-10.3525
▁hjort	-10.3525
▁ovenfor	-10.3525
▁foregår	-10.3525
▁evangeli	-10.3525
▁integr	-10.3525
▁reklame	-10.3525
▁sachsen	-10.3525
▁bjørk	-10.3526
▁fiktiv	-10.3526
▁elektronisk	-10.3526
▁stiftelsen	-10.3527
▁sverre	-10.3528
rettigheter	-10.353
▁utvikler	-10.3534
▁1500	-10.3535
▁mangler	-10.3539
▁skar	-10.3541
▁spin	-10.3549
▁hovedrollen	-10.3559
▁dyrke	-10.3562
▁hev	-10.3562
▁walter	-10.3565
▁tynn	-10.357
▁velger	-10.3571
▁800	-10.3572
nymf	-10.3573
▁karakteristisk	-10.3581
melding	-10.359
▁skatt	-10.3592
mä	-10.3597
▁vegg	-10.3599
▁osv	-10.3612
▁verb	-10.3615
setting	-10.3622
▁overflate	-10.3628
fred	-10.3638
kling	-10.3641
▁munk	-10.3666
stell	-10.3672
bunn	-10.3673
▁bevege	-10.3675
▁supp	-10.3686
▁jud	-10.3687
konservativ	-10.3692
▁dirigent	-10.3692
▁1951	-10.3692
▁ukraina	-10.3692
▁pakistan	-10.3692
opplæring	-10.3692
▁geografisk	-10.3692
▁1928	-10.3693
▁1919	-10.3694
▁spredt	-10.3695
▁tegninger	-10.3697
▁scott	-10.3697
komiteen	-10.3702
▁cand	-10.3716
▁elite	-10.3725
aften	-10.3728
▁inneha	-10.3732
▁besøkte	-10.3738
▁fantes	-10.3741
perioden	-10.375
løk	-10.3756
stokk	-10.3758
▁feng	-10.3761
forvaltning	-10.3771
teater	-10.378
regiment	-10.3791
fold	-10.3799
▁frihet	-10.3812
▁utenriks	-10.382
strømmen	-10.3827
skrevet	-10.3832
akademi	-10.3834
▁tempel	-10.3835
vegg	-10.3836
tveit	-10.3839
gjennom	-10.384
▁1941	-10.3861
▁komponert	-10.3861
▁eventuel	-10.3861
▁strategi	-10.3861
▁kriminal	-10.3861
▁kobber	-10.3862
▁begynnelsen	-10.3862
▁stortinget	-10.3862
▁global	-10.3862
komité	-10.3863
▁unntak	-10.3866
▁sykkel	-10.3867
vald	-10.3873
▁piano	-10.3876
▁oppnådd	-10.3876
følgende	-10.3882
▁rest	-10.3902
einrich	-10.3908
▁great	-10.3909
▁dig	-10.3921
ин	-10.393
▁synge	-10.3952
▁forvaltnings	-10.3953
▁nød	-10.3954
▁xu	-10.3956
àn	-10.3963
▁handle	-10.3966
løft	-10.4006
historisk	-10.4009
hjelp	-10.401
▁forbinde	-10.4015
ч	-10.4031
ь	-10.4032
▁milliarder	-10.4034
vassdraget	-10.4034
▁1906	-10.4034
▁central	-10.4034
▁skildre	-10.4034
▁geometr	-10.4034
▁batteri	-10.4034
▁1914	-10.4036
▁1911	-10.4036
▁fuktig	-10.4036
▁komposisjon	-10.4039
▁svein	-10.4039
familie	-10.404
ла	-10.4041
▁styrte	-10.4041
faktor	-10.4041
▁frp	-10.4041
▁lokalisert	-10.4046
▁norman	-10.4046
▁ltd	-10.4046
▁fyll	-10.4047
▁thom	-10.4056
▁einar	-10.4057
▁krf	-10.4067
krem	-10.4073
▁overført	-10.4073
▁tilpasse	-10.4079
edderkopper	-10.4081
hvelv	-10.4082
▁forstå	-10.4085
▁athen	-10.409
øvelse	-10.4091
utgave	-10.4095
▁bassist	-10.4101
lock	-10.4113
▁thu	-10.4123
økonomi	-10.4124
aire	-10.4134
▁utvikle	-10.4137
lä	-10.4147
ен	-10.418
▁frei	-10.4184
struktur	-10.4188
direktør	-10.4188
▁energiselskape	-10.4189
stjerne	-10.4195
▁falk	-10.4201
utvalget	-10.4206
celler	-10.4208
▁beseiret	-10.4209
▁portugisisk	-10.4209
▁infanteri	-10.4209
▁væske	-10.4209
strekning	-10.4209
▁oversikt	-10.4209
▁opplysning	-10.4209
▁1924	-10.4211
▁1922	-10.4211
▁nærheten	-10.4218
▁fremført	-10.4219
▁rapporter	-10.4225
▁johansen	-10.4232
▁kunde	-10.4238
høyden	-10.4239
▁amfi	-10.424
▁show	-10.4242
illus	-10.4243
▁arena	-10.4245
hvit	-10.4254
▁oval	-10.4257
▁skyte	-10.4259
▁sving	-10.4276
▁who	-10.4279
▁østlige	-10.4281
▁hydro	-10.4292
▁stikk	-10.4299
blom	-10.4301
ønne	-10.4303
▁troms	-10.4304
fast	-10.434
▁kristin	-10.4346
posisjon	-10.4362
kommunikasjon	-10.4368
burn	-10.4383
▁california	-10.4388
▁corporation	-10.4388
▁hovedkvarter	-10.4388
▁konflikt	-10.4388
▁1953	-10.4388
▁kombinasjon	-10.4388
▁rogaland	-10.4388
▁minutter	-10.4388
▁deutsche	-10.4388
▁adolf	-10.4388
▁monument	-10.4388
▁gabriel	-10.4388
stipend	-10.4388
▁kjennetegne	-10.4388
▁bevisst	-10.4388
▁søvn	-10.4388
▁utenlandsk	-10.4389
utstyr	-10.439
▁1908	-10.439
▁josé	-10.439
▁telefon	-10.4391
▁brei	-10.4392
▁1910	-10.4393
▁signert	-10.4393
▁drap	-10.4395
▁høyesterett	-10.4399
▁franz	-10.44
▁down	-10.4401
▁popul	-10.4403
ōng	-10.4405
butikk	-10.4406
▁vä	-10.4414
▁enorm	-10.4416
▁hä	-10.442
▁pels	-10.4427
ка	-10.443
▁pensjon	-10.4434
▁islandsk	-10.4447
▁home	-10.4449
▁barb	-10.4452
▁synlig	-10.4462
zza	-10.4463
▁høg	-10.4482
▁sara	-10.4496
ер	-10.4507
▁tildele	-10.4513
▁medisinsk	-10.4515
▁rust	-10.4546
hovedstaden	-10.4555
▁aero	-10.4568
▁initiativ	-10.4569
▁1904	-10.4569
▁1943	-10.4569
▁referanse	-10.4569
▁tabellen	-10.4569
▁krevd	-10.4571
▁golf	-10.4571
▁håndball	-10.4573
▁1937	-10.4573
følelse	-10.4578
▁diplomat	-10.458
politi	-10.4581
▁skaffe	-10.4582
▁eb	-10.4582
▁hitler	-10.4583
▁antonio	-10.4584
▁gjeld	-10.4585
relatert	-10.4587
bedrifter	-10.4587
▁terror	-10.4591
▁vannkraftverk	-10.4593
forsvar	-10.4604
▁persisk	-10.4611
▁redd	-10.4635
▁innlede	-10.4641
▁victor	-10.4646
▁status	-10.4646
▁jeff	-10.4648
tårn	-10.4657
▁laks	-10.4664
▁hyper	-10.4665
▁chris	-10.4673
▁victoria	-10.4686
fallende	-10.4703
▁water	-10.4704
▁tø	-10.4707
▁mau	-10.4729
hara	-10.4739
▁1907	-10.4755
▁færøyene	-10.4755
▁østerriksk	-10.4755
▁respekt	-10.4755
▁kongedømmet	-10.4755
▁thailand	-10.4755
▁church	-10.4755
strøk	-10.4755
▁fjellkjede	-10.4755
▁fattig	-10.4755
▁gråbrun	-10.4757
▁monark	-10.4759
▁beslekte	-10.476
kilde	-10.4761
▁bidro	-10.4763
▁fortellingen	-10.4765
▁allmenn	-10.4765
førsel	-10.4767
▁demningen	-10.477
blikk	-10.4771
▁sammenlagt	-10.4781
▁jonas	-10.4785
▁plassering	-10.4786
▁kub	-10.479
▁geir	-10.4796
▁antennene	-10.4811
▁kommunistisk	-10.4813
trakk	-10.4824
▁120	-10.486
▁sikker	-10.4863
angrep	-10.4886
▁løfte	-10.4896
▁flåte	-10.4907
▁gli	-10.493
vokst	-10.4942
▁undergrunnsbane	-10.4943
▁county	-10.4943
▁taylor	-10.4943
▁praksis	-10.4943
veksling	-10.4943
▁vesentlig	-10.4943
▁dokumentar	-10.4944
▁oppstod	-10.4944
▁begrenset	-10.4944
▁dominert	-10.4944
▁belgisk	-10.4944
▁partner	-10.4944
▁dollar	-10.4945
▁oberst	-10.4945
▁1929	-10.4945
▁komedie	-10.4949
▁sjanger	-10.495
▁snart	-10.495
▁nedlagt	-10.496
listen	-10.4962
▁personlighet	-10.4964
dyktig	-10.4988
▁audi	-10.4996
▁beskrivelse	-10.5002
▁book	-10.5006
▁01	-10.5011
▁utsatt	-10.5017
▁hellas	-10.5022
overflaten	-10.5025
zzo	-10.5025
▁sovjet	-10.5025
støtte	-10.503
signal	-10.5033
iansk	-10.5057
▁forskjellig	-10.5058
recht	-10.5067
▁brent	-10.5069
▁900	-10.507
turnering	-10.5081
▁statlig	-10.5081
▁bestemme	-10.5091
kroppen	-10.5129
utdanning	-10.5132
grønn	-10.5135
▁advokat	-10.5136
▁manuskript	-10.5136
▁svalbard	-10.5136
▁trommeslager	-10.5136
▁innbyggerne	-10.5136
▁sichuan	-10.5136
▁anerkjent	-10.5136
▁stefan	-10.5137
▁1927	-10.5137
▁1935	-10.5138
▁samfunnet	-10.5139
▁våt	-10.5139
▁beregne	-10.5143
▁eksport	-10.5146
▁dream	-10.5147
▁lisens	-10.5147
▁hamburg	-10.5148
▁onkel	-10.5149
▁wang	-10.5163
▁ytterst	-10.5169
▁isteden	-10.517
▁light	-10.5171
▁operere	-10.5174
▁etappe	-10.5179
▁landskaps	-10.5181
▁barneskole	-10.5192
▁styrkene	-10.5206
metode	-10.5219
▁agent	-10.5219
▁vekk	-10.522
▁bakke	-10.5223
▁filosof	-10.5224
▁acc	-10.5229
bredd	-10.5235
▁arkeologisk	-10.5244
▁110	-10.5254
▁irland	-10.5276
odden	-10.5279
▁dong	-10.5297
treff	-10.5299
chel	-10.5302
▁kino	-10.5306
▁grunnlov	-10.5326
▁kollektiv	-10.5332
▁sjeldne	-10.5332
▁guvernør	-10.5332
redaktør	-10.5332
▁embets	-10.5332
▁belgia	-10.5332
▁opphør	-10.5332
▁valuta	-10.5332
▁regulere	-10.5332
frukt	-10.5332
ль	-10.5333
▁programleder	-10.5335
▁disney	-10.5336
apparat	-10.5336
front	-10.5337
▁bygninger	-10.5342
▁delgruppen	-10.5347
▁bredde	-10.5354
▁feire	-10.5355
▁vennskap	-10.5365
▁rosa	-10.5367
▁israelsk	-10.5367
schaft	-10.5376
▁molde	-10.5376
ра	-10.5383
fabrik	-10.5416
▁font	-10.5422
▁poli	-10.5423
kledd	-10.5441
avgift	-10.5443
▁ansatt	-10.5467
register	-10.5493
owski	-10.5502
▁psyko	-10.5508
▁individ	-10.5532
▁byfylke	-10.5532
▁country	-10.5532
▁oksygen	-10.5532
▁1903	-10.5532
▁league	-10.5532
grunnsstasjon	-10.5532
▁nedbør	-10.5532
▁radikal	-10.5532
▁theodor	-10.5532
▁angripe	-10.5532
▁faktisk	-10.5534
▁godkjent	-10.5534
▁1921	-10.5534
agon	-10.5535
▁telemark	-10.5537
▁turneringen	-10.5538
vandring	-10.5539
aktivitet	-10.554
▁hovedkontor	-10.5544
▁kath	-10.5545
kål	-10.5551
▁blande	-10.5561
hausen	-10.5564
▁panser	-10.5576
▁motsetning	-10.5577
fartøy	-10.5584
bestemmelse	-10.5584
▁aksel	-10.5593
▁mørkere	-10.5594
▁slip	-10.5602
periode	-10.5637
wall	-10.5639
▁rulle	-10.5664
verv	-10.5676
løpere	-10.5682
▁sammenligne	-10.5688
▁markere	-10.5702
▁visse	-10.572
▁alpin	-10.5726
jubileum	-10.5736
komponent	-10.5736
▁vilhelm	-10.5736
▁linux	-10.5736
▁amatør	-10.5736
ensemble	-10.5736
kjøring	-10.5736
▁utmerkelse	-10.5736
▁ytter	-10.5736
▁tennis	-10.5737
▁regelmessig	-10.5737
▁1912	-10.5739
▁1915	-10.5739
▁anklage	-10.574
▁mengder	-10.5741
▁styreleder	-10.5741
▁formula	-10.5746
▁blank	-10.5748
▁spreng	-10.575
▁alex	-10.5752
▁deltaker	-10.5762
▁frykt	-10.5763
▁alpinist	-10.5764
hest	-10.5775
▁kopi	-10.578
wick	-10.5781
▁1700	-10.5781
vík	-10.5784
veps	-10.5788
trådte	-10.5789
▁forkortelse	-10.5794
▁legend	-10.5802
▁small	-10.5826
▁blind	-10.5831
▁lykke	-10.5846
▁verdensmester	-10.5873
▁anslå	-10.5873
kall	-10.5879
▁mitt	-10.5883
▁bratt	-10.5891
stigning	-10.5905
▁plast	-10.591
▁vietnam	-10.5926
egenskap	-10.5928
tavle	-10.5934
skade	-10.5941
▁konkurrere	-10.5944
▁vedlikehold	-10.5944
▁benjamin	-10.5944
▁asteroide	-10.5944
▁fungerte	-10.5944
▁artilleri	-10.5944
▁fenomen	-10.5944
▁nominert	-10.5944
forstyrrelse	-10.5945
▁nøkkel	-10.5945
▁brøt	-10.5945
▁efter	-10.5946
▁1917	-10.5947
▁generalsekretær	-10.5947
dimensjon	-10.5949
▁oppfatte	-10.595
flat	-10.5951
▁fremstille	-10.5954
bibliotek	-10.5957
▁erklært	-10.5958
▁wilson	-10.5959
▁hjal	-10.5962
▁vanligste	-10.5963
tittel	-10.5964
▁donau	-10.5965
start	-10.597
hår	-10.5977
▁forvalte	-10.598
▁østover	-10.5982
medlemmer	-10.5993
▁cross	-10.5997
avtalen	-10.601
▁variert	-10.6031
knapp	-10.6056
▁prakt	-10.6058
▁bønn	-10.608
▁grend	-10.6083
▁barbar	-10.6139
overføring	-10.6146
gruppa	-10.6149
▁inndeling	-10.615
▁varaordfører	-10.6157
▁virginia	-10.6157
▁1905	-10.6157
▁rudolf	-10.6157
▁tsjekkisk	-10.6157
▁søndag	-10.6157
▁petersburg	-10.6157
▁nemlig	-10.6157
▁mekanisk	-10.6157
▁haakon	-10.6157
▁nektet	-10.6158
▁nepal	-10.6158
▁unngå	-10.6158
▁generasjon	-10.616
▁debatt	-10.6162
trukket	-10.6165
▁ytterkant	-10.6172
medisin	-10.6174
sentral	-10.6174
▁knud	-10.6176
▁hovedsak	-10.6179
▁kommunikasjons	-10.618
opptreden	-10.6184
problem	-10.6184
▁vindu	-10.6184
korset	-10.6193
▁behov	-10.6193
▁grønland	-10.6197
▁motsatt	-10.6198
maleri	-10.6199
▁solberg	-10.6203
lengde	-10.6206
stemme	-10.6215
▁sørge	-10.6226
flåt	-10.6233
▁estland	-10.6249
▁låten	-10.6256
settelse	-10.6265
▁statue	-10.6276
▁intens	-10.6317
huang	-10.6347
rapport	-10.6357
▁technology	-10.6374
▁1902	-10.6374
▁giovann	-10.6374
budsjett	-10.6374
kompetanse	-10.6374
▁alexandr	-10.6374
▁ungarn	-10.6374
▁hjelm	-10.6375
eremoni	-10.6376
▁rådgiver	-10.6376
▁1934	-10.6376
▁litterær	-10.6377
▁definere	-10.6377
▁1925	-10.6377
▁hedmark	-10.6379
▁gregor	-10.6379
▁koreansk	-10.6379
▁francisco	-10.638
▁terje	-10.638
▁2018	-10.638
▁pedersen	-10.6385
▁viklere	-10.6386
▁nordsamisk	-10.6393
▁anledning	-10.6396
dynastiet	-10.6397
design	-10.6402
▁heart	-10.6411
▁automatisk	-10.6417
▁hvile	-10.6417
▁silke	-10.6429
▁smerte	-10.6442
avisen	-10.6475
▁etnisk	-10.6488
▁palass	-10.6493
bekken	-10.6532
bjørg	-10.654
▁gjennomføre	-10.6582
karriere	-10.6594
kjører	-10.6596
skutt	-10.6596
▁1909	-10.6596
▁afghanistan	-10.6596
▁aleksander	-10.6596
▁association	-10.6596
▁gjaldt	-10.6596
▁göteborg	-10.6596
▁washington	-10.6596
▁tilslutt	-10.6596
▁juridisk	-10.6597
▁kontinental	-10.6597
▁kommersiell	-10.6597
▁originaltittel	-10.6597
▁beordre	-10.6597
▁snorre	-10.6598
terapi	-10.66
▁tallrike	-10.6601
givende	-10.6602
▁romsdal	-10.6604
▁planlagt	-10.6605
▁spyd	-10.6605
▁sekundær	-10.6606
▁takke	-10.661
▁klatre	-10.6611
kreft	-10.6611
▁ultra	-10.6613
▁biologisk	-10.6614
▁tradisjonen	-10.6614
▁profil	-10.6619
instrument	-10.6624
▁young	-10.6633
▁zhu	-10.6634
▁domkirke	-10.6686
høyde	-10.669
▁egil	-10.6715
nettverk	-10.6719
bringe	-10.6733
▁sveitsisk	-10.6737
elius	-10.6746
▁kirkegård	-10.6748
▁tidsskrift	-10.6749
▁gælisk	-10.6824
▁jerusalem	-10.6824
▁symfoni	-10.6824
▁australsk	-10.6824
▁intervju	-10.6824
▁antagelig	-10.6824
▁hospital	-10.6824
▁innebærer	-10.6824
▁renessanse	-10.6824
▁airlines	-10.6824
▁kritiker	-10.6824
▁kjørt	-10.6824
▁nevø	-10.6824
▁stephen	-10.6824
▁senior	-10.6824
regulering	-10.6824
▁utseende	-10.6824
▁protein	-10.6825
▁myndighetene	-10.6825
▁1913	-10.6826
▁1916	-10.6827
▁bosatt	-10.6829
▁vestfold	-10.6829
▁donald	-10.6831
▁generell	-10.6831
▁turbin	-10.6832
▁skrå	-10.6833
▁jackson	-10.6836
▁betong	-10.6836
▁ibsen	-10.6837
▁kvit	-10.6837
seksuell	-10.6838
▁hugh	-10.6843
▁filip	-10.6844
▁smør	-10.685
▁omhandle	-10.6851
▁jesuitt	-10.6852
blomsterflue	-10.6856
ingeniør	-10.6856
offiser	-10.6856
lista	-10.6857
▁nazi	-10.6858
europeisk	-10.6858
▁kvant	-10.6861
arkiv	-10.6871
endinger	-10.6901
▁klaver	-10.6903
▁opptrådt	-10.6949
▁puppe	-10.6957
▁dynasti	-10.698
▁religiøs	-10.6992
rente	-10.7023
▁arrangør	-10.7056
▁electric	-10.7056
▁elizabeth	-10.7056
▁engasjert	-10.7056
▁forøvrig	-10.7056
▁midlertidig	-10.7056
▁oppmerksomhet	-10.7056
▁patriark	-10.7056
▁sarpsborg	-10.7056
servatori	-10.7056
▁hordaland	-10.7056
▁permanent	-10.7056
▁parallell	-10.7056
▁axel	-10.7057
▁risiko	-10.7057
▁separat	-10.7057
▁serbisk	-10.7057
mekanisme	-10.7058
▁clark	-10.7064
▁bjerk	-10.7065
fortelling	-10.7065
▁valgdelta	-10.7067
▁økende	-10.7068
▁olaf	-10.7072
▁idé	-10.7081
historiker	-10.7094
temperatur	-10.7094
konsert	-10.7097
▁manuel	-10.7099
størrelse	-10.7114
stift	-10.7115
▁kaffe	-10.7141
drive	-10.7143
areal	-10.7143
forsamlingen	-10.7145
stråle	-10.7147
▁musikal	-10.7149
▁spesialiser	-10.7151
▁prost	-10.7182
▁klage	-10.7194
bæk	-10.7195
fried	-10.7208
▁færøysk	-10.7294
▁microsoft	-10.7294
▁society	-10.7294
▁tortricidae	-10.7294
▁vladimir	-10.7294
fattet	-10.7294
▁köln	-10.7294
▁etterkommer	-10.7294
▁krydder	-10.7295
▁people	-10.7295
ifikasjon	-10.7295
kommandant	-10.7295
▁uvanlig	-10.7295
▁energy	-10.7295
▁josef	-10.7295
▁hvem	-10.7295
▁brasiliansk	-10.7295
▁brigade	-10.7295
▁larvik	-10.7296
▁forbedre	-10.7297
▁what	-10.7297
▁føderal	-10.7297
▁akutt	-10.7297
▁grieg	-10.7297
▁poesi	-10.7298
▁fortellinger	-10.7298
▁manager	-10.7298
reservat	-10.7298
▁terreng	-10.7299
▁forklare	-10.7299
▁friidrett	-10.7299
▁østfold	-10.73
▁nobel	-10.7301
▁oppnå	-10.7303
▁eiendommen	-10.7303
▁biografi	-10.7308
▁bernard	-10.7308
▁trygg	-10.7315
▁stiftelse	-10.7316
▁tolke	-10.7316
oidea	-10.7317
▁fabrikken	-10.7319
▁uavhengighet	-10.733
syklus	-10.7336
orkester	-10.7338
blokk	-10.7339
▁lunge	-10.7353
skyld	-10.7353
basseng	-10.7366
økonom	-10.7378
▁republi	-10.7386
▁demokratisk	-10.7432
relasjon	-10.7474
skyting	-10.7493
▁automat	-10.7496
▁flø	-10.75
▁nevro	-10.7501
hockey	-10.7531
demokrati	-10.7538
▁astronomi	-10.7538
▁observasjon	-10.7538
▁sammenslåing	-10.7538
▁joachim	-10.7538
▁anmelder	-10.7538
▁apotek	-10.7538
konsulent	-10.7538
▁colombia	-10.7538
▁texas	-10.7538
▁lørdag	-10.7539
▁hindu	-10.7539
▁margaret	-10.7539
▁hendelsen	-10.7539
▁tilskuer	-10.7539
▁bærum	-10.7539
▁kritisert	-10.754
▁seinere	-10.754
▁oppdagelse	-10.754
▁skøyte	-10.7542
▁alpene	-10.7543
▁techn	-10.7544
▁trenger	-10.7545
▁myndigheter	-10.7545
▁import	-10.7545
▁fasade	-10.7546
▁avansert	-10.7551
▁jacobsen	-10.7553
▁åpnings	-10.7562
▁ivareta	-10.7567
troppen	-10.7567
sfære	-10.7577
▁hou	-10.7595
betaling	-10.7597
tagelse	-10.7598
infeksjon	-10.7602
kjøl	-10.7604
▁sølvmedalje	-10.7616
spenning	-10.7624
brook	-10.7632
løype	-10.7632
▁barokk	-10.7651
▁väst	-10.7661
▁praktisk	-10.7676
▁hytte	-10.7677
▁prinsipp	-10.7682
hawk	-10.7705
forberede	-10.7745
løv	-10.7768
▁vannkraft	-10.7772
lokomotiv	-10.7788
reservoar	-10.7788
▁argentina	-10.7788
▁kronprins	-10.7788
▁utelukkende	-10.7788
▁konsentrasjon	-10.7788
▁jacque	-10.7788
▁hensikt	-10.7788
▁syndrom	-10.7788
▁utspring	-10.7788
▁hindre	-10.7789
▁christensen	-10.7789
▁utforming	-10.779
konsernet	-10.7791
▁gerhard	-10.7792
▁allianse	-10.7792
▁bayern	-10.7792
▁werner	-10.7793
▁redaksjon	-10.7793
▁hydrogen	-10.7794
▁grunnkrets	-10.7796
▁skån	-10.7801
liknende	-10.7804
verdighet	-10.7815
▁ungdomsskole	-10.783
ekspert	-10.7832
programmet	-10.7849
føtt	-10.7854
▁gudinne	-10.789
▁öst	-10.7902
palasset	-10.7908
bevegelse	-10.7983
kjæ	-10.8005
▁bryllup	-10.8045
direktoratet	-10.8045
▁champion	-10.8045
▁inskripsjon	-10.8045
▁matematikk	-10.8045
▁reference	-10.8045
▁symptomer	-10.8045
▁atmosfære	-10.8045
▁francesco	-10.8045
▁resulter	-10.8045
▁testament	-10.8045
▁mountain	-10.8045
leverandør	-10.8045
▁prince	-10.8045
▁zhang	-10.8045
▁utsikt	-10.8045
▁walisisk	-10.8045
▁charlotte	-10.8046
▁innlemme	-10.8046
▁indikere	-10.8046
▁årsaken	-10.8046
▁marcus	-10.8047
▁elleve	-10.8047
▁opposisjon	-10.8047
▁oppfølger	-10.8047
alfabet	-10.8048
▁afrikansk	-10.8048
▁unntatt	-10.8048
▁beholdt	-10.8048
▁smelte	-10.8049
▁strekningen	-10.8053
betjent	-10.8053
▁samuel	-10.806
▁forandre	-10.8065
▁studere	-10.8065
▁glans	-10.8085
arkitekt	-10.8108
studier	-10.8111
programmer	-10.8116
møll	-10.8118
▁america	-10.8141
▁slakt	-10.8147
▁olympi	-10.8203
▁satse	-10.8223
flokkurin	-10.8308
▁lillehammer	-10.8308
▁nøytral	-10.8308
▁utbredelse	-10.8308
▁landkreis	-10.8308
▁veksel	-10.8308
▁tilnærme	-10.8308
▁stewart	-10.8308
▁dømt	-10.8308
▁individuell	-10.8308
▁krystall	-10.8308
▁kommentar	-10.8308
▁tvilling	-10.8308
▁cappelen	-10.8308
▁ektemann	-10.8308
diagnose	-10.8309
▁rumensk	-10.8309
▁avdøde	-10.8309
▁stadium	-10.8309
▁verneområder	-10.831
▁kreert	-10.8311
▁halvparten	-10.8311
▁høydepunkt	-10.8312
▁antyde	-10.8313
▁muskel	-10.8322
▁barnehage	-10.8335
▁jernbanestasjon	-10.8343
▁drepe	-10.8356
vennlig	-10.8372
produser	-10.8376
transport	-10.8379
radio	-10.8384
sykdom	-10.8384
▁galleri	-10.8404
▁balanse	-10.8407
artikkel	-10.8457
town	-10.8462
drevne	-10.8547
▁størst	-10.8555
psykiatri	-10.8578
▁fakultet	-10.8578
▁favoritt	-10.8578
▁forhindre	-10.8578
▁konkurrert	-10.8578
▁løpebiller	-10.8578
▁orchestra	-10.8578
kommanderende	-10.8578
▁rekrutt	-10.8578
▁könig	-10.8578
▁stridsvogn	-10.8578
▁konsesjon	-10.8579
▁hyppig	-10.8579
▁beslutning	-10.8579
▁finskspråklig	-10.858
▁sibir	-10.858
▁invasjon	-10.8581
forsikring	-10.8581
▁corneli	-10.8582
▁social	-10.8587
▁meyer	-10.8588
▁bundes	-10.8588
▁tjener	-10.8591
▁nederlag	-10.8594
▁stedsnavn	-10.8595
▁kreis	-10.8596
vietnamesisk	-10.8602
▁benevn	-10.8626
divisjon	-10.8656
resultat	-10.8656
undervisning	-10.8657
finalen	-10.8658
flagg	-10.8659
emmelig	-10.8665
▁beholde	-10.868
▁rho	-10.8699
stryk	-10.8708
▁arkeolog	-10.8721
▁nettside	-10.8746
▁omdanne	-10.8846
▁akseptert	-10.8856
▁aleksandr	-10.8856
▁angelsaksisk	-10.8856
▁definisjon	-10.8856
▁guangdong	-10.8856
▁identifisert	-10.8856
▁münchen	-10.8856
▁petroleum	-10.8856
▁psykisk	-10.8856
▁public	-10.8856
▁tusenårssted	-10.8856
▁tyrkia	-10.8856
▁soldatene	-10.8856
▁1901	-10.8856
▁ødelagt	-10.8856
▁oxford	-10.8856
▁oppdatert	-10.8856
▁bystatus	-10.8856
▁utvidelse	-10.8856
▁tilsammen	-10.8856
▁begravelse	-10.8856
▁skjebne	-10.8857
▁kombinere	-10.8857
▁noctu	-10.8857
▁vegetasjon	-10.8857
στ	-10.8857
▁svermer	-10.8857
▁support	-10.8858
▁svekke	-10.8859
▁tropisk	-10.8859
▁kristelig	-10.886
▁rhin	-10.8862
▁nyhets	-10.8862
▁bjarn	-10.8863
▁befal	-10.8865
straße	-10.8869
▁susan	-10.8875
▁arrestert	-10.8891
▁lauren	-10.8901
▁kontrollert	-10.8919
regjering	-10.8942
musiker	-10.8942
teknologi	-10.8943
▁endring	-10.8994
cliff	-10.9011
▁kenya	-10.9014
▁forløper	-10.9037
▁sekund	-10.9133
▁football	-10.9142
▁hollywood	-10.9142
▁illustrert	-10.9142
▁jurisdiksjon	-10.9142
▁konstruert	-10.9142
▁sanskrit	-10.9142
▁systematikken	-10.9142
▁maksimal	-10.9142
▁sykepleie	-10.9142
kringkasting	-10.9142
▁kennedy	-10.9142
symmetri	-10.9142
▁manglende	-10.9142
▁særskilt	-10.9142
▁kavaleri	-10.9142
▁nøyaktig	-10.9142
leksikon	-10.9142
▁vurdere	-10.9142
▁overlevde	-10.9142
▁mektig	-10.9142
▁underholdning	-10.9143
▁ordinær	-10.9143
▁lewis	-10.9143
▁sprint	-10.9143
▁theatre	-10.9143
▁overraske	-10.9143
mønstre	-10.9144
▁ingrid	-10.9145
▁isbn	-10.9146
▁prinsesse	-10.9146
▁pastor	-10.9146
nhild	-10.915
▁work	-10.9152
▁ytelse	-10.9168
▁riktig	-10.9169
plikasjon	-10.919
▁innerst	-10.9195
▁fasci	-10.923
provinsen	-10.9236
inntekt	-10.9237
prøve	-10.9237
sentrum	-10.9237
muligheter	-10.9238
derav	-10.9239
sekretariat	-10.9436
▁bulgaria	-10.9436
▁council	-10.9436
▁filippinene	-10.9436
▁frankfurt	-10.9436
▁luxembourg	-10.9436
▁margrethe	-10.9436
▁norwegian	-10.9436
▁ortodoks	-10.9436
▁stråling	-10.9436
▁wergeland	-10.9436
traktaten	-10.9436
▁fogderi	-10.9436
▁gustaf	-10.9436
▁verdenscup	-10.9436
▁frogner	-10.9436
▁komplett	-10.9436
▁fremtidig	-10.9436
▁ulovlig	-10.9436
▁pistol	-10.9436
▁misjonær	-10.9436
▁utnevne	-10.9436
skjelettet	-10.9436
▁presentert	-10.9437
▁hovedpersonen	-10.9437
kontinent	-10.9437
▁vakker	-10.9437
▁fantasi	-10.9437
▁cecil	-10.9437
▁optim	-10.9438
▁nyheter	-10.9438
▁mount	-10.9439
optera	-10.9439
▁flytende	-10.944
▁nkp	-10.9442
kobling	-10.9443
▁mandat	-10.9452
ière	-10.9455
▁rifle	-10.9467
▁variasjon	-10.9478
sparc	-10.9482
botten	-10.9489
▁nigeria	-10.9491
▁harmoni	-10.9496
utenriksminister	-10.9508
▁represent	-10.9523
litteratur	-10.9539
▁overføre	-10.9565
indeks	-10.9574
ogram	-10.9579
middag	-10.9673
▁kvalifisering	-10.9739
▁anerkjenne	-10.9739
▁bokstavelig	-10.9739
▁helikopter	-10.9739
▁innspilt	-10.9739
▁ludwig	-10.9739
▁musikkvideo	-10.9739
▁substantiv	-10.9739
▁müller	-10.9739
▁minoritet	-10.9739
▁portugal	-10.9739
▁torpedo	-10.9739
▁abraham	-10.9739
▁mangfold	-10.9739
▁opprettelsen	-10.9739
▁1876	-10.9739
▁kommunistparti	-10.9739
▁døpt	-10.9739
▁kenneth	-10.9739
▁argument	-10.9739
▁søndre	-10.9739
▁matematisk	-10.9739
▁venezia	-10.9739
▁heavy	-10.9739
▁semifinale	-10.9739
▁firkant	-10.9739
▁sandefjord	-10.9739
▁zealand	-10.9739
▁kjøpmann	-10.974
tolkning	-10.974
selskab	-10.974
▁paradis	-10.9741
▁fylkeskommune	-10.9741
▁kullkraftverk	-10.9741
▁vakre	-10.9743
▁opplevd	-10.9744
▁enhver	-10.9745
▁hovedsete	-10.9748
▁fulgt	-10.9749
▁øvelsen	-10.9753
kollega	-10.9755
▁analyser	-10.9757
bukten	-10.9758
▁nobelpris	-10.9764
▁genetisk	-10.9765
tilsynet	-10.9776
▁bronsemedalje	-10.9783
institutt	-10.9786
▁skjøt	-10.9787
plantefamilie	-10.9809
▁earl	-10.9815
dekning	-10.9839
▁dukket	-10.9852
▁demokrat	-10.9858
arrow	-10.9872
ograph	-10.9874
lokale	-10.9884
dampskibsselskab	-11.0051
▁aftenposten	-11.0051
▁barcelona	-11.0051
▁bulgarsk	-11.0051
▁hongkong	-11.0051
▁keyboard	-11.0051
▁lincoln	-11.0051
▁okkupasjon	-11.0051
▁omdøpt	-11.0051
▁research	-11.0051
▁sebastian	-11.0051
▁sjokolade	-11.0051
▁ferskvann	-11.0051
▁litauisk	-11.0051
▁vertikal	-11.0051
▁railway	-11.0051
▁konsonant	-11.0051
▁kristoffer	-11.0051
▁langvarig	-11.0052
▁stimul	-11.0052
▁ålesund	-11.0052
▁redigert	-11.0052
teatret	-11.0052
protokoll	-11.0052
▁systematisk	-11.0052
▁organisere	-11.0053
▁eksistert	-11.0053
materiell	-11.0053
▁arnold	-11.0053
▁tørke	-11.0054
▁tvangs	-11.0055
mouth	-11.0055
chéng	-11.0055
▁keltisk	-11.0061
▁sosialdemokrat	-11.0066
vilkår	-11.0068
kampanje	-11.0071
brønn	-11.0084
▁arrest	-11.01
dolph	-11.01
▁sjakk	-11.0126
innspilling	-11.0174
embete	-11.0227
▁begynne	-11.0264
▁bearbeide	-11.0304
▁styremedlem	-11.0333
▁frels	-11.0363
▁matematiker	-11.0374
▁absolutt	-11.0374
▁ekspansjon	-11.0374
▁elektrisitet	-11.0374
▁fremtredende	-11.0374
▁inklusiv	-11.0374
▁jomfru	-11.0374
▁kommandør	-11.0374
▁konsentrert	-11.0374
▁langrennsløper	-11.0374
▁mongolia	-11.0374
▁propaganda	-11.0374
▁shakespeare	-11.0374
▁terrengsyklist	-11.0374
führer	-11.0374
▁selvbiografi	-11.0374
▁sophie	-11.0374
▁gjøvik	-11.0374
▁1883	-11.0374
▁1891	-11.0374
▁baptist	-11.0374
▁carolina	-11.0374
▁antarktis	-11.0374
▁ragnar	-11.0374
▁interiør	-11.0374
▁uansett	-11.0374
▁frigjøring	-11.0374
▁invitert	-11.0374
▁vitamin	-11.0374
▁unesco	-11.0374
▁protestantisk	-11.0374
▁jamaica	-11.0374
▁betydningsfull	-11.0374
▁aktuell	-11.0374
▁forsvant	-11.0374
▁micro	-11.0375
▁dekorert	-11.0376
rettighetene	-11.0376
▁fremstilt	-11.0376
▁sannhet	-11.0377
avstemning	-11.0377
▁bedrifts	-11.0377
▁samtids	-11.0379
▁rakett	-11.038
▁koreograf	-11.0382
▁hjemmekampe	-11.0384
▁presentere	-11.0388
▁mohamm	-11.0389
▁skulde	-11.0402
▁katedral	-11.0449
skjerm	-11.0511
fløyte	-11.0554
drøm	-11.067
▁usikker	-11.0692
▁amsterdam	-11.0707
▁ektefelle	-11.0707
▁ferdinand	-11.0707
▁network	-11.0707
▁offshore	-11.0707
▁infrastruktur	-11.0707
▁låtskriver	-11.0707
▁mobiltelefon	-11.0707
▁bachelor	-11.0707
▁democra	-11.0707
▁kosovo	-11.0707
▁litauen	-11.0707
▁hamilton	-11.0707
▁regulert	-11.0707
▁patrick	-11.0707
▁svovel	-11.0707
▁tilhengere	-11.0707
järvi	-11.0707
▁barnebarn	-11.0708
▁wright	-11.0708
▁wagner	-11.0708
▁fangst	-11.0708
▁contest	-11.0708
▁korrekt	-11.0709
▁wessel	-11.0709
▁birger	-11.0709
▁oppheve	-11.0709
▁forklaring	-11.0709
▁varierende	-11.0709
▁apollo	-11.071
▁brenselstype	-11.0712
▁høi	-11.0716
▁styring	-11.0717
craft	-11.0723
▁armensk	-11.0729
▁nederst	-11.0731
▁moderat	-11.0737
▁lokalavis	-11.0748
▁tobakk	-11.0772
▁søyle	-11.0778
▁folkegrupp	-11.0789
flyvning	-11.079
spørsmål	-11.0852
universitet	-11.0852
teknisk	-11.0855
ground	-11.0873
kveld	-11.0903
▁institut	-11.0914
▁meteor	-11.0925
klub	-11.0957
▁buddhistisk	-11.1052
▁forveksles	-11.1052
▁frilufts	-11.1052
▁konkurrent	-11.1052
▁nøytron	-11.1052
▁philosoph	-11.1052
▁pronotum	-11.1052
▁skandinavisk	-11.1052
▁sogneprest	-11.1052
▁ødeleggelse	-11.1052
▁kjønnsmodn	-11.1052
▁stjørdal	-11.1052
▁chicago	-11.1052
▁tolkien	-11.1052
▁utendørs	-11.1052
▁beslutte	-11.1052
▁cruise	-11.1052
▁buddha	-11.1052
▁primitiv	-11.1052
▁1861	-11.1052
▁embeds	-11.1052
▁henrettet	-11.1052
▁begravet	-11.1052
▁referert	-11.1052
▁animasjon	-11.1053
▁trompet	-11.1053
▁verdensarv	-11.1053
▁dresden	-11.1053
▁respons	-11.1053
▁monroe	-11.1054
reduksjon	-11.1054
▁birgit	-11.1054
▁krypt	-11.1056
▁andorra	-11.1056
▁skrekk	-11.1057
▁kanadisk	-11.1058
▁innstifte	-11.1064
klinikk	-11.1066
ragende	-11.1066
▁mannsnavn	-11.1068
▁ministr	-11.1073
nemnd	-11.1078
ã	-12.1003
