<unk>	0
<s>	0
</s>	0
.	-3.28784
▁i	-3.53146
s	-3.65554
e	-3.68245
▁og	-3.87141
▁	-4.01518
t	-4.01542
en	-4.26405
▁av	-4.30726
er	-4.31295
r	-4.47198
▁en	-4.51562
▁som	-4.5279
▁er	-4.5786
▁til	-4.66762
▁for	-4.70616
▁på	-4.76545
▁den	-4.94579
▁med	-4.95337
▁ble	-4.9978
n	-5.01321
▁det	-5.051
et	-5.09061
▁var	-5.09092
▁de	-5.16194
▁han	-5.29336
▁å	-5.33145
▁fra	-5.35444
▁et	-5.51833
▁har	-5.54602
ene	-5.61161
a	-5.66403
▁at	-5.71556
ne	-5.91376
▁ved	-5.95735
i	-6.00553
▁om	-6.04676
▁etter	-6.04729
k	-6.0533
d	-6.05603
▁også	-6.07836
o	-6.12282
▁men	-6.16693
▁s	-6.18321
▁under	-6.20827
▁ut	-6.21578
y	-6.2382
te	-6.29021
▁seg	-6.30737
de	-6.32918
m	-6.35756
▁over	-6.36137
▁da	-6.36348
▁hadde	-6.3703
l	-6.37548
g	-6.405
▁opp	-6.42169
▁eller	-6.42192
▁ikke	-6.43663
▁to	-6.46991
p	-6.47351
▁kan	-6.47956
▁inn	-6.52071
ing	-6.52112
in	-6.60244
▁andre	-6.63368
▁sin	-6.63804
re	-6.65326
f	-6.69784
▁18	-6.71554
▁mot	-6.71918
▁hun	-6.72905
▁første	-6.74493
▁dette	-6.75076
us	-6.76779
▁a	-6.77149
v	-6.78167
h	-6.79206
c	-6.80986
▁be	-6.81624
es	-6.83288
▁mellom	-6.8422
al	-6.84226
▁født	-6.85415
▁bli	-6.85462
▁1	-6.85529
▁ha	-6.87213
is	-6.8753
an	-6.87667
b	-6.89137
▁f	-6.89565
▁år	-6.90081
▁hans	-6.9102
le	-6.9169
u	-6.92028
sk	-6.92868
▁tre	-6.95273
on	-6.97071
▁fikk	-6.97959
na	-7.02353
ter	-7.03565
▁der	-7.03809
▁kom	-7.04794
▁denne	-7.05132
ende	-7.07202
▁man	-7.08056
sen	-7.08245
▁flere	-7.09034
▁hvor	-7.10049
blant	-7.11019
▁the	-7.11863
la	-7.12498
▁2	-7.12722
▁alle	-7.14776
▁nord	-7.15041
▁del	-7.16824
▁sammen	-7.17036
ning	-7.18375
z	-7.18674
nde	-7.20654
vis	-7.20823
▁før	-7.21657
ra	-7.22768
lig	-7.24845
▁ligger	-7.25642
▁la	-7.26392
▁nå	-7.26467
ia	-7.26626
▁u	-7.26658
▁så	-7.26804
w	-7.27348
▁m	-7.28794
ri	-7.29071
li	-7.29171
▁stor	-7.29763
▁ca	-7.30161
▁3	-7.31279
ens	-7.31564
der	-7.31584
land	-7.3202
▁re	-7.32038
▁17	-7.33097
▁mange	-7.3312
ere	-7.36295
ar	-7.36432
▁død	-7.36534
▁p	-7.37459
ke	-7.37472
▁senere	-7.38006
▁k	-7.38196
ske	-7.38329
▁norsk	-7.38469
▁gjennom	-7.38542
▁mer	-7.38708
▁tallet	-7.38787
ta	-7.39456
um	-7.39887
▁norge	-7.4048
ch	-7.41452
▁her	-7.41687
▁byen	-7.41843
▁c	-7.42314
▁siden	-7.42834
▁selv	-7.42881
▁kommune	-7.43118
▁annet	-7.43603
▁noen	-7.44565
▁sør	-7.45529
▁h	-7.45565
▁tidligere	-7.45832
▁b	-7.4597
or	-7.46186
▁ny	-7.4627
▁sitt	-7.4677
▁være	-7.46869
▁4	-7.47436
▁kjent	-7.4754
▁al	-7.47601
be	-7.48289
iske	-7.48308
ma	-7.49242
▁se	-7.49326
▁ra	-7.49604
kt	-7.49779
ur	-7.49883
▁disse	-7.49896
da	-7.51227
tt	-7.51432
ut	-7.52328
ry	-7.52342
ng	-7.52541
▁blit	-7.52613
▁vi	-7.54045
id	-7.5405
kk	-7.54333
ro	-7.54667
▁g	-7.54702
▁bo	-7.54909
▁an	-7.55058
lo	-7.55256
▁kr	-7.55259
as	-7.55642
nes	-7.55803
ga	-7.55839
ver	-7.56144
ler	-7.56226
▁16	-7.56877
▁store	-7.57542
ff	-7.5803
▁5	-7.58123
ck	-7.58141
▁rundt	-7.58579
▁d	-7.58692
for	-7.58904
▁le	-7.59216
øy	-7.59291
x	-7.59692
▁vært	-7.59739
isk	-7.60316
▁mens	-7.60392
▁ol	-7.6081
▁land	-7.60893
▁li	-7.62165
▁15	-7.62194
▁of	-7.62914
il	-7.63077
it	-7.63389
▁noe	-7.63407
▁ro	-7.63791
▁samme	-7.64332
é	-7.64362
både	-7.64376
▁sine	-7.6474
▁st	-7.66137
den	-7.67063
bo	-7.67777
me	-7.68042
▁vil	-7.68058
▁ta	-7.68614
▁ga	-7.68707
j	-7.68822
▁frem	-7.68837
▁vest	-7.68858
lige	-7.69183
▁tid	-7.69258
os	-7.69509
▁ned	-7.69514
▁by	-7.69636
▁10	-7.69835
▁dag	-7.70321
mann	-7.7127
▁kunne	-7.72044
▁ba	-7.72122
ør	-7.72343
▁grunn	-7.72347
th	-7.73123
▁gikk	-7.73183
kulle	-7.73419
ner	-7.73518
▁fire	-7.73529
▁navnet	-7.73804
el	-7.74001
▁ofte	-7.74403
▁hver	-7.74457
ger	-7.74734
▁vant	-7.75494
at	-7.75828
▁øst	-7.75995
je	-7.76028
▁enn	-7.76389
mo	-7.764
▁na	-7.76518
ka	-7.76543
▁hoved	-7.76589
▁ma	-7.76928
▁o	-7.76967
▁mest	-7.7708
▁km	-7.7777
men	-7.77985
son	-7.78245
▁tok	-7.78549
ge	-7.78672
bi	-7.78924
ker	-7.79055
▁norske	-7.7928
het	-7.79322
ø	-7.79916
▁ham	-7.80076
▁di	-7.8041
ig	-7.81164
erte	-7.81519
sa	-7.81965
▁tilbake	-7.82089
to	-7.82214
▁skal	-7.82335
ve	-7.82417
ol	-7.82459
mer	-7.82626
ha	-7.82953
▁du	-7.83185
▁ni	-7.83211
▁7	-7.83524
ce	-7.83808
▁ti	-7.84005
ja	-7.84181
▁si	-7.84684
▁bare	-7.84721
di	-7.85106
▁mars	-7.85219
ste	-7.85235
å	-7.85258
▁fram	-7.85274
nd	-7.85307
stad	-7.85437
▁august	-7.85472
ton	-7.85662
▁slik	-7.85828
▁navn	-7.8638
▁6	-7.8654
▁hele	-7.86568
else	-7.86588
▁l	-7.87033
▁lag	-7.87183
▁he	-7.87397
▁nye	-7.87721
skap	-7.88601
ak	-7.89095
▁sa	-7.89642
▁gang	-7.89727
▁meter	-7.90247
gi	-7.90913
▁finnes	-7.91421
gen	-7.91531
var	-7.91664
man	-7.91935
▁8	-7.91935
▁oslo	-7.92138
▁ar	-7.9236
▁januar	-7.92613
ba	-7.92717
▁fri	-7.92906
▁kon	-7.92943
▁mai	-7.93231
dal	-7.93386
▁per	-7.93422
▁w	-7.9381
ad	-7.94226
si	-7.95505
▁pi	-7.9562
erne	-7.95649
▁pro	-7.95699
ang	-7.95803
mi	-7.96369
▁største	-7.9641
▁20	-7.96599
▁rekke	-7.96733
▁usa	-7.96822
▁siste	-7.96984
▁få	-7.97245
▁13	-7.98063
berg	-7.98301
▁14	-7.98856
▁juli	-7.99006
▁sp	-7.99425
▁kirke	-7.9967
by	-7.99676
▁lang	-7.99879
▁n	-7.99962
▁bi	-8.00129
▁dem	-8.00219
▁bak	-8.00816
▁j	-8.01
ist	-8.01042
▁mål	-8.01313
▁000	-8.01608
▁lo	-8.0164
▁området	-8.01689
▁fly	-8.02588
▁går	-8.0262
pe	-8.02864
ven	-8.02956
▁el	-8.03208
▁kalt	-8.03868
va	-8.0393
▁v	-8.03967
▁tro	-8.04171
▁t	-8.04357
▁far	-8.04383
▁po	-8.04609
▁12	-8.04626
▁ka	-8.04863
▁bu	-8.05688
ier	-8.05701
ti	-8.05913
ring	-8.06109
ll	-8.06157
▁vanlig	-8.06896
mp	-8.06978
▁samt	-8.071
▁co	-8.07102
ä	-8.07257
▁først	-8.07295
▁fa	-8.07619
▁do	-8.07825
▁me	-8.08045
om	-8.08631
▁9	-8.08997
▁2008	-8.09632
▁11	-8.09798
co	-8.09837
▁hos	-8.09875
▁ak	-8.10325
ul	-8.10398
go	-8.10601
ell	-8.10703
ic	-8.10799
gang	-8.1141
▁2007	-8.11439
ns	-8.11605
av	-8.11673
ie	-8.1179
▁in	-8.12322
▁film	-8.12566
▁no	-8.12865
æ	-8.12955
▁gi	-8.12957
▁deres	-8.13381
▁juni	-8.13449
▁tra	-8.13511
▁mor	-8.13542
▁april	-8.13694
▁spilte	-8.13722
ho	-8.13932
vik	-8.14031
▁deltok	-8.14152
ster	-8.144
▁landet	-8.14667
▁ho	-8.15033
ær	-8.15458
▁begynte	-8.15493
▁mo	-8.16196
▁uten	-8.16644
▁oktober	-8.16645
▁utgitt	-8.16941
▁skole	-8.17321
ok	-8.17324
▁bruk	-8.17755
▁igjen	-8.17947
od	-8.17963
▁tv	-8.18158
per	-8.18472
ment	-8.18474
▁eksempel	-8.18589
▁musikk	-8.19297
opp	-8.19331
▁ri	-8.19362
▁tillegg	-8.19407
tu	-8.19461
▁mindre	-8.19476
▁november	-8.19685
▁gjen	-8.1978
▁as	-8.20036
tor	-8.20215
▁satt	-8.20376
▁laget	-8.20466
▁må	-8.20838
ant	-8.21377
▁rett	-8.21628
▁alt	-8.21652
▁desember	-8.2169
▁årene	-8.21749
▁nær	-8.22004
bu	-8.22162
vi	-8.22272
sp	-8.22272
▁sk	-8.22452
▁februar	-8.22594
ingen	-8.22646
▁su	-8.22755
kke	-8.22768
▁gjorde	-8.23224
ian	-8.23248
ca	-8.23477
▁videre	-8.23758
▁fem	-8.23841
rett	-8.24059
▁gamle	-8.24196
▁2010	-8.24438
lin	-8.24465
am	-8.24485
▁beste	-8.24971
▁0	-8.25306
▁plass	-8.25423
▁ei	-8.25707
▁pa	-8.25863
▁året	-8.26251
▁september	-8.26529
▁ju	-8.2658
del	-8.26613
ling	-8.26638
▁brukt	-8.26677
midlertid	-8.26767
▁sol	-8.26933
▁kun	-8.27101
mm	-8.27264
▁mat	-8.27818
▁leder	-8.27847
tak	-8.28288
sh	-8.28469
▁te	-8.28549
▁par	-8.28574
lag	-8.28789
stre	-8.28813
▁y	-8.29024
▁like	-8.29053
▁sønn	-8.2914
▁hennes	-8.29167
ir	-8.29352
▁bar	-8.29356
over	-8.2937
▁ki	-8.29483
▁tiden	-8.29502
▁and	-8.29672
au	-8.29755
▁døde	-8.29821
tter	-8.2996
ed	-8.30147
op	-8.30225
▁mye	-8.30255
ard	-8.30511
▁2006	-8.30631
ö	-8.31499
▁spiller	-8.31848
▁2005	-8.31873
▁2009	-8.32117
mb	-8.32516
ikk	-8.32728
▁new	-8.32731
▁egen	-8.3276
pp	-8.3316
▁ski	-8.3325
▁små	-8.33663
sjon	-8.33694
▁kultur	-8.33698
im	-8.33825
▁bestå	-8.33847
io	-8.33848
tal	-8.34054
▁lov	-8.34153
un	-8.34203
▁bra	-8.34249
ering	-8.34357
▁pe	-8.34546
▁ko	-8.35036
iv	-8.35056
let	-8.35127
sel	-8.35315
▁30	-8.35393
▁sam	-8.35572
fa	-8.35853
▁so	-8.35912
▁europa	-8.35938
▁deretter	-8.35969
lse	-8.35992
▁filmen	-8.35995
hold	-8.36038
▁kong	-8.36077
▁helt	-8.36359
ni	-8.36398
▁vann	-8.36431
▁ville	-8.36501
▁innen	-8.36646
▁jo	-8.36727
▁lu	-8.36857
á	-8.36975
▁tidlig	-8.37113
▁derfor	-8.37186
▁særlig	-8.37266
pi	-8.37493
▁sch	-8.3777
len	-8.38116
▁liv	-8.38346
▁ulike	-8.38402
ken	-8.38564
inn	-8.39162
▁gu	-8.39169
ina	-8.39284
ion	-8.39427
tur	-8.39494
▁kunst	-8.3965
ud	-8.39663
▁barn	-8.39729
▁større	-8.39829
▁brukes	-8.39919
rede	-8.40011
do	-8.40599
▁medlem	-8.40891
asjon	-8.41225
kker	-8.41516
▁russisk	-8.41538
stand	-8.42023
▁høy	-8.42209
▁perioden	-8.42225
▁tor	-8.42253
▁tyske	-8.42278
▁form	-8.42323
ow	-8.42934
ko	-8.43253
▁eks	-8.4352
min	-8.43748
▁olympisk	-8.43751
bar	-8.43896
ov	-8.4407
satt	-8.44196
gu	-8.44291
sted	-8.44397
▁kommer	-8.44463
▁kinesisk	-8.44597
▁ge	-8.44615
▁2011	-8.44887
ningen	-8.44937
ty	-8.44965
▁x	-8.45121
▁mar	-8.45155
▁am	-8.45268
▁sommer	-8.45302
pa	-8.45383
ik	-8.45433
ny	-8.45494
elsen	-8.45536
sett	-8.45739
vin	-8.4587
dan	-8.45908
▁langs	-8.45973
▁fleste	-8.46066
▁tyskland	-8.46155
▁ver	-8.46161
▁ne	-8.46835
▁svært	-8.47469
▁va	-8.47565
ber	-8.47591
▁språk	-8.47723
▁fi	-8.47794
jø	-8.47874
▁seks	-8.47915
po	-8.48429
▁arbeidet	-8.4867
▁amerikansk	-8.48769
▁lå	-8.48798
lu	-8.48898
▁norges	-8.48917
▁begge	-8.48971
▁sted	-8.48993
▁måtte	-8.49252
▁vei	-8.49319
▁politisk	-8.49355
▁kal	-8.49369
▁nasjonal	-8.49559
ks	-8.49693
▁sverige	-8.49823
▁tatt	-8.49925
▁25	-8.50765
▁hu	-8.50942
▁em	-8.51005
siden	-8.5102
▁god	-8.51082
▁bygget	-8.51185
nk	-8.51281
▁tysk	-8.51403
▁lys	-8.51439
▁bandet	-8.51477
ag	-8.51537
▁dermed	-8.51661
ium	-8.51668
▁nytt	-8.51799
▁startet	-8.51941
▁sett	-8.51962
kom	-8.52051
1	-8.52068
▁skrev	-8.52192
elle	-8.52376
▁hen	-8.52526
ft	-8.52546
tre	-8.52599
følge	-8.52603
▁innbyggere	-8.52849
▁ad	-8.52983
▁ingen	-8.53007
ius	-8.5314
verk	-8.53302
▁deler	-8.53419
▁fast	-8.53475
▁ganger	-8.53654
▁ja	-8.53666
▁hus	-8.53734
▁pre	-8.53749
▁go	-8.54005
▁øy	-8.54073
▁samtidig	-8.54085
up	-8.54207
▁john	-8.5436
▁amerikanske	-8.54717
▁england	-8.54721
▁or	-8.54948
ci	-8.55019
▁kort	-8.55089
▁bergen	-8.5523
▁dr	-8.55294
ld	-8.5538
▁gruppen	-8.55436
▁gitt	-8.5547
▁folke	-8.55531
ans	-8.55553
tid	-8.55614
▁engelsk	-8.55716
▁konge	-8.55855
tra	-8.55875
▁provinsen	-8.56114
tro	-8.56117
dag	-8.56187
▁støtte	-8.56246
▁all	-8.56519
tisk	-8.56854
▁2001	-8.57256
▁side	-8.57328
▁forskjellig	-8.57408
▁selskapet	-8.57458
kor	-8.57504
▁parti	-8.57585
ü	-8.57888
▁mi	-8.58009
▁ab	-8.58019
slag	-8.5808
no	-8.58107
isme	-8.58625
ble	-8.58751
▁kina	-8.58754
mål	-8.58821
kel	-8.58869
▁2004	-8.58875
▁skrevet	-8.58879
▁san	-8.58926
ord	-8.58966
▁president	-8.58967
▁stedet	-8.59182
▁etablert	-8.5919
▁gir	-8.59194
▁bok	-8.5922
les	-8.59252
▁ru	-8.59329
år	-8.59357
▁dagen	-8.59374
hu	-8.60121
ru	-8.60198
▁albumet	-8.60249
▁nest	-8.60433
ot	-8.60559
form	-8.60781
▁os	-8.61069
í	-8.61173
hus	-8.61289
▁grad	-8.61555
▁london	-8.6218
sta	-8.62316
▁slutt	-8.62454
▁sto	-8.62465
ede	-8.63092
▁holde	-8.63175
▁gammel	-8.63197
00	-8.63312
▁hel	-8.6355
und	-8.63568
▁min	-8.63714
▁øya	-8.64047
landet	-8.64132
▁gull	-8.64269
▁mulig	-8.6436
tiden	-8.64386
ly	-8.6447
▁lever	-8.646
▁nor	-8.64687
▁gud	-8.64693
mar	-8.64773
▁verden	-8.64811
▁ch	-8.64849
▁2000	-8.64893
▁fotball	-8.65124
dd	-8.6522
rø	-8.65262
▁tredje	-8.65572
▁fo	-8.65592
▁r	-8.65767
▁krigen	-8.65812
art	-8.66071
▁tri	-8.66112
▁opprinnelig	-8.66242
▁ur	-8.66327
ong	-8.66371
▁24	-8.6642
sse	-8.66582
▁spilt	-8.66975
▁sjø	-8.67448
▁produksjon	-8.67459
▁mag	-8.67568
▁con	-8.67607
▁pla	-8.67752
▁klubben	-8.678
▁vel	-8.67948
▁viktig	-8.68103
▁sesongen	-8.68201
▁løpet	-8.68214
▁ord	-8.685
▁pu	-8.68652
▁annen	-8.68656
ku	-8.68786
elig	-8.69175
bb	-8.69316
løp	-8.69438
▁sand	-8.6944
tiske	-8.6978
▁1990	-8.69894
vel	-8.69918
▁fjell	-8.69929
▁kalles	-8.69944
▁serien	-8.70083
▁100	-8.70195
▁hi	-8.70831
ron	-8.70857
▁plan	-8.70909
ninger	-8.70934
▁stat	-8.70996
▁styre	-8.71082
så	-8.71226
▁19	-8.71344
▁basert	-8.7139
▁kommunen	-8.71411
▁midt	-8.71414
sten	-8.71544
▁svensk	-8.71606
vei	-8.72114
sj	-8.72175
▁danmark	-8.72478
tan	-8.72523
dre	-8.72549
mmer	-8.72901
▁godt	-8.73063
▁stein	-8.73266
▁bil	-8.73303
▁bl	-8.7338
▁22	-8.73434
lands	-8.73477
▁familien	-8.73845
and	-8.7391
stein	-8.73939
▁frankrike	-8.74364
met	-8.74598
▁cha	-8.74776
hi	-8.74863
▁tar	-8.7497
ys	-8.75033
▁syn	-8.75043
▁verdens	-8.75154
▁car	-8.75365
▁fransk	-8.75422
▁delstaten	-8.75659
kon	-8.75683
ab	-8.75934
▁innenfor	-8.75978
▁utviklet	-8.76024
ham	-8.7603
▁bort	-8.76055
▁21	-8.76177
▁spesielt	-8.76283
gre	-8.76348
▁natur	-8.76361
ska	-8.76366
▁bre	-8.76493
ator	-8.76502
▁førte	-8.7661
▁2003	-8.76736
▁slutten	-8.7675
tiv	-8.76819
fl	-8.76949
▁bro	-8.77153
▁dikt	-8.77254
vo	-8.77261
spill	-8.77406
dalen	-8.77503
par	-8.77659
▁ledet	-8.77785
▁antall	-8.77944
▁my	-8.78031
lev	-8.78149
fjorden	-8.78166
▁liten	-8.78168
▁fag	-8.78294
ologi	-8.78322
yl	-8.78477
▁britiske	-8.7849
▁fordi	-8.78587
gg	-8.78714
▁valg	-8.78757
▁hatt	-8.78878
▁50	-8.78932
ley	-8.78959
▁sangen	-8.78962
▁val	-8.78994
▁2002	-8.79048
▁verdenskrig	-8.79069
▁stort	-8.79296
▁rom	-8.79385
▁omkring	-8.7944
▁franske	-8.7957
▁forfatter	-8.79579
▁eneste	-8.79729
▁fe	-8.80121
▁flyttet	-8.80395
▁forhold	-8.80547
▁vinter	-8.80731
▁lange	-8.80861
far	-8.80948
▁fortsatt	-8.80995
▁sentral	-8.80997
▁23	-8.81234
▁sv	-8.81308
▁gre	-8.81339
ret	-8.81394
▁art	-8.81732
inger	-8.81932
▁medlemmer	-8.81939
▁kv	-8.81977
▁millioner	-8.82076
▁moderne	-8.82108
bil	-8.82186
lot	-8.82265
▁ku	-8.82352
▁vise	-8.82487
▁mann	-8.82578
ya	-8.82613
borg	-8.82653
▁ty	-8.82773
sch	-8.8288
sti	-8.83062
▁kar	-8.83073
▁lite	-8.83405
ige	-8.8343
▁enkelte	-8.8347
▁gift	-8.83553
▁holdt	-8.83588
▁finne	-8.83659
▁rolle	-8.83796
itet	-8.83913
▁står	-8.83933
▁ben	-8.83957
▁kn	-8.83969
heim	-8.84046
rik	-8.84098
▁ste	-8.84115
▁halv	-8.84122
za	-8.84126
▁kjente	-8.84187
▁storbritannia	-8.84368
tar	-8.8441
uk	-8.84423
▁mark	-8.84499
▁fant	-8.84551
burg	-8.84616
fo	-8.84667
▁1980	-8.84798
elser	-8.84936
▁stats	-8.84968
▁person	-8.8502
▁karl	-8.85149
dom	-8.85198
3	-8.85284
▁gjort	-8.85443
itt	-8.85617
▁tur	-8.85763
isering	-8.8592
ighet	-8.86265
▁ren	-8.86376
▁skuespiller	-8.86376
res	-8.86409
▁viser	-8.86623
▁grav	-8.86833
▁lokal	-8.86906
vær	-8.8697
est	-8.8702
▁paul	-8.87047
heten	-8.87201
▁langt	-8.87323
▁bred	-8.8736
▁gjerne	-8.87362
▁1970	-8.87365
▁historie	-8.87446
mon	-8.87456
▁bygge	-8.87724
▁rød	-8.87821
▁utnevnt	-8.87974
▁lands	-8.87992
▁mil	-8.88001
▁én	-8.88272
▁datter	-8.88578
▁solgt	-8.88684
ds	-8.88702
▁kor	-8.88756
▁skog	-8.88807
▁opprettet	-8.88956
▁luft	-8.89147
▁kvinne	-8.89203
▁utenfor	-8.89227
▁bru	-8.8928
▁folk	-8.89307
▁je	-8.89307
ou	-8.89308
if	-8.8931
▁com	-8.8937
▁india	-8.89676
▁universitetet	-8.89701
stil	-8.89745
▁resultat	-8.89775
spiller	-8.89823
▁ser	-8.89917
▁fåt	-8.90163
▁wa	-8.90205
▁kirken	-8.90447
▁romersk	-8.90471
▁arbeider	-8.90646
▁følge	-8.90856
▁vm	-8.90905
▁spille	-8.9091
▁band	-8.90991
▁hal	-8.91014
skje	-8.91283
▁motor	-8.91413
▁hjem	-8.91554
▁litt	-8.91664
jo	-8.91869
▁forbindelse	-8.91907
▁brun	-8.91985
▁26	-8.92014
▁egne	-8.92029
▁bruker	-8.92076
▁28	-8.92226
▁berg	-8.92506
▁får	-8.92566
▁menneske	-8.9261
bruk	-8.92681
▁sosial	-8.92744
▁åtte	-8.92779
mu	-8.92823
▁stra	-8.92827
▁slag	-8.92836
tatt	-8.92868
▁radio	-8.93027
▁farge	-8.93042
vann	-8.93069
▁reise	-8.93081
▁kl	-8.93093
skrift	-8.93195
em	-8.93265
▁gjør	-8.93534
▁general	-8.93624
▁partiet	-8.93912
bok	-8.93987
▁roman	-8.94143
til	-8.94262
▁familie	-8.94406
▁1999	-8.94559
▁jord	-8.9465
setning	-8.94827
▁skolen	-8.94839
▁ed	-8.95206
▁hav	-8.95236
ris	-8.95356
isere	-8.95396
▁militær	-8.95403
▁delta	-8.95527
▁stil	-8.95658
ica	-8.95679
ine	-8.95685
fly	-8.95809
fe	-8.9592
▁omtrent	-8.95962
2	-8.96057
▁au	-8.96222
veien	-8.96236
iet	-8.96272
▁paris	-8.96414
plass	-8.96505
▁z	-8.96539
▁serie	-8.9655
▁gruppe	-8.9671
▁staten	-8.96747
▁gul	-8.96776
lsen	-8.96793
▁aktiv	-8.96896
▁sig	-8.96903
ó	-8.96913
▁2012	-8.96925
▁keiser	-8.96952
▁mennesker	-8.97027
▁tittelen	-8.97041
▁danske	-8.97149
ju	-8.97226
▁gav	-8.97313
▁liste	-8.97357
▁betydning	-8.9739
ph	-8.97416
▁danne	-8.97484
▁rock	-8.97589
▁hva	-8.97675
bro	-8.97679
lene	-8.97763
▁åpnet	-8.97777
▁anti	-8.97863
▁york	-8.97872
▁gra	-8.97938
▁krigs	-8.98148
▁betydelig	-8.98355
pen	-8.98415
▁gjøre	-8.98472
▁tap	-8.98653
leder	-8.98658
ac	-8.98816
а	-8.98832
▁betyr	-8.98843
▁1994	-8.98848
lan	-8.98884
sto	-8.98902
øya	-8.99036
▁stemme	-8.99043
▁minst	-8.99058
▁via	-8.99113
▁kontroll	-8.99162
▁orden	-8.99175
▁elven	-8.99188
tz	-8.99239
sson	-8.99246
▁dia	-8.993
minister	-8.9931
▁kamp	-8.99386
▁ferdig	-8.99398
her	-8.9944
▁kongen	-8.99578
▁40	-8.99654
wa	-8.99663
ek	-8.99744
▁1992	-8.99825
▁1960	-8.99826
ald	-8.99892
▁full	-9.00115
▁delen	-9.00152
▁spor	-9.00232
▁nok	-9.00283
port	-9.00301
▁felles	-9.00318
departementet	-9.00487
che	-9.00499
▁universitet	-9.00778
▁såkalt	-9.00806
▁bror	-9.00811
▁1996	-9.00812
▁1991	-9.00813
stilt	-9.00964
▁minne	-9.01028
▁regjeringen	-9.01059
▁riks	-9.01128
▁følgende	-9.01133
mester	-9.01193
mark	-9.01297
senter	-9.01608
▁mus	-9.01635
punkt	-9.01657
bre	-9.0169
tte	-9.01701
▁on	-9.01702
mor	-9.01719
▁fred	-9.01777
▁fin	-9.01783
▁herre	-9.01806
▁veien	-9.01931
▁jeg	-9.023
▁italia	-9.02316
val	-9.02381
▁grunnlagt	-9.02419
▁krig	-9.02439
▁interesse	-9.0255
▁lav	-9.02558
▁historisk	-9.02591
som	-9.02607
▁arter	-9.02782
vet	-9.03049
▁27	-9.03085
▁internasjonale	-9.03301
▁sølv	-9.03315
▁brasil	-9.0332
we	-9.03352
▁we	-9.03447
▁foran	-9.03509
▁divisjon	-9.03592
▁organ	-9.03616
▁dannet	-9.03712
▁skade	-9.03719
и	-9.03829
▁wi	-9.03976
▁ul	-9.04002
kla	-9.04094
▁gå	-9.04213
ister	-9.04232
ation	-9.04345
▁1989	-9.04348
▁industri	-9.04441
▁gro	-9.04449
kan	-9.04467
▁inneholder	-9.04487
▁neste	-9.04648
▁sal	-9.04968
▁bri	-9.05059
du	-9.05067
▁johan	-9.05213
▁valgt	-9.05243
▁forsøk	-9.05374
▁1988	-9.05381
▁vin	-9.0541
▁steder	-9.05464
▁fortsatte	-9.05481
▁politiker	-9.05645
▁delt	-9.05687
▁van	-9.05702
▁fu	-9.05787
▁bill	-9.06131
▁hvi	-9.06173
▁bygd	-9.06329
istiske	-9.06416
▁bor	-9.06421
ving	-9.06639
skip	-9.06843
▁regi	-9.0695
▁1998	-9.06953
▁viktigste	-9.07012
▁personer	-9.0707
▁von	-9.07124
my	-9.07125
ale	-9.07132
▁lett	-9.07138
▁ber	-9.07212
▁31	-9.07472
▁italiensk	-9.07475
råd	-9.07494
▁roma	-9.07533
▁hjelp	-9.07637
▁eu	-9.07644
▁ettersom	-9.07744
▁høyre	-9.07899
▁mm	-9.07901
før	-9.07923
su	-9.07978
▁høyeste	-9.08027
▁produsert	-9.08157
▁hy	-9.08216
gel	-9.08491
▁ter	-9.08557
▁aldri	-9.08561
merke	-9.08566
▁slekt	-9.08575
▁henne	-9.08618
▁bal	-9.0864
dig	-9.08642
▁fylke	-9.08675
dyr	-9.0884
▁dager	-9.08851
▁post	-9.08933
▁barne	-9.08991
skole	-9.09053
▁qu	-9.0909
stilling	-9.09311
legg	-9.09335
dømme	-9.09419
fi	-9.09446
elt	-9.09503
▁vekt	-9.09556
▁christian	-9.09558
▁funnet	-9.09583
▁direkte	-9.0962
▁russland	-9.09621
mal	-9.09628
▁befolkningen	-9.09634
▁havn	-9.09682
ip	-9.09798
▁hol	-9.09813
▁tal	-9.09837
▁pan	-9.09849
▁sterkt	-9.09937
▁lik	-9.09969
▁afrika	-9.10235
▁tjeneste	-9.10297
vid	-9.10298
▁mont	-9.10313
▁peter	-9.10497
▁cor	-9.10657
▁knytte	-9.1071
▁lagt	-9.10767
he	-9.10877
▁svenske	-9.10907
▁album	-9.10949
istisk	-9.11192
føring	-9.11207
laget	-9.11234
▁hovedsakelig	-9.11269
▁arbeids	-9.11316
▁29	-9.11321
▁periode	-9.11361
ug	-9.11399
stra	-9.11588
isert	-9.11638
▁inkludert	-9.11811
▁university	-9.11813
▁1997	-9.11818
▁200	-9.11873
båt	-9.1195
anger	-9.11972
▁lokale	-9.12076
▁lyd	-9.12105
bane	-9.12108
▁hånd	-9.12136
språk	-9.12266
▁sang	-9.12278
▁benyttet	-9.12289
▁ry	-9.12357
▁nummer	-9.12477
rus	-9.12622
▁handels	-9.12654
▁fall	-9.1281
▁samarbeid	-9.12899
▁2013	-9.12938
▁gran	-9.13052
forening	-9.13056
▁tom	-9.13132
rin	-9.13327
▁samle	-9.13396
▁høyde	-9.13456
▁tross	-9.13536
liv	-9.13559
▁sy	-9.13648
han	-9.13657
▁kunstner	-9.13816
▁ob	-9.1386
▁eget	-9.13869
▁tu	-9.13942
ismen	-9.13953
▁dro	-9.13966
iner	-9.13972
▁teater	-9.14046
▁representert	-9.14052
▁kroppen	-9.14055
▁1984	-9.14061
▁tildelt	-9.14105
og	-9.14344
kant	-9.14488
▁jan	-9.14615
▁suksess	-9.14621
grad	-9.14627
stan	-9.14647
olog	-9.147
▁ly	-9.14767
of	-9.14799
▁plate	-9.14805
fall	-9.14828
▁pave	-9.14949
▁legge	-9.15167
styre	-9.15231
▁likevel	-9.15232
▁les	-9.15238
▁indre	-9.15268
▁tru	-9.15305
film	-9.15313
▁biskop	-9.1547
▁måte	-9.15496
kul	-9.15533
iker	-9.15684
led	-9.15718
▁dom	-9.15769
lle	-9.15923
▁klar	-9.15962
▁bank	-9.15972
van	-9.16015
▁ag	-9.16088
▁mon	-9.16163
▁system	-9.16223
50	-9.16238
▁kvinner	-9.16254
dy	-9.16262
tok	-9.16277
cu	-9.16292
bygd	-9.16317
▁best	-9.16336
▁verk	-9.1635
ung	-9.16405
▁energi	-9.16407
kar	-9.16525
▁slaget	-9.16603
▁ring	-9.16635
▁fiske	-9.16643
▁utgjør	-9.16757
▁pris	-9.16916
▁studert	-9.16928
▁1995	-9.16934
▁opprør	-9.16939
plan	-9.16947
menn	-9.1699
▁marked	-9.17012
▁rø	-9.17058
ski	-9.17087
yn	-9.1711
▁sentrum	-9.17256
idae	-9.17335
▁ordet	-9.17453
▁amerika	-9.1751
▁flo	-9.17542
▁regnes	-9.17706
gra	-9.17757
mat	-9.17777
lling	-9.17819
▁kraft	-9.17887
løs	-9.17995
▁turn	-9.18018
▁regjering	-9.18216
▁hvit	-9.18235
▁col	-9.18468
▁borger	-9.18633
▁william	-9.18691
▁venstre	-9.18712
▁omfatter	-9.18837
▁inntil	-9.18895
ah	-9.19173
▁angrep	-9.1934
▁slått	-9.19376
▁skip	-9.19487
banen	-9.19575
▁fer	-9.19676
nor	-9.19765
▁drept	-9.19886
messig	-9.19888
▁opera	-9.19947
▁tekst	-9.20038
▁bur	-9.20134
▁ve	-9.20324
old	-9.20364
ller	-9.2039
▁arbeid	-9.20398
loven	-9.20452
▁regionen	-9.20483
liggende	-9.20522
40	-9.20608
▁lille	-9.20664
▁bruke	-9.20665
6	-9.20904
▁lege	-9.20978
▁air	-9.21023
system	-9.21082
▁sak	-9.213
▁th	-9.21335
▁berlin	-9.21357
▁elva	-9.21402
løse	-9.21505
lei	-9.21561
tegn	-9.21628
▁kat	-9.21681
▁thomas	-9.21703
▁trondheim	-9.21703
▁slo	-9.21705
▁venn	-9.218
selskap	-9.2181
▁militære	-9.2182
▁enkelt	-9.21838
hr	-9.22158
▁sanger	-9.22169
▁makt	-9.22229
▁kilometer	-9.22317
▁miljø	-9.22341
▁ganske	-9.2237
▁plante	-9.2242
ari	-9.22465
▁strøm	-9.22472
▁helse	-9.2249
ført	-9.22531
▁mal	-9.22552
asjoner	-9.22815
▁tids	-9.22829
året	-9.22855
gle	-9.22901
▁eldste	-9.22934
▁begynnelsen	-9.22939
ill	-9.23091
king	-9.23214
▁komme	-9.23218
▁viste	-9.23405
▁kje	-9.23511
sund	-9.23525
20	-9.23531
о	-9.2355
gård	-9.23592
don	-9.23952
ros	-9.23976
ey	-9.24015
▁mel	-9.24127
▁karriere	-9.24146
▁1993	-9.24189
▁ke	-9.2419
▁regn	-9.24426
▁spe	-9.24457
▁meste	-9.24475
ino	-9.24512
ika	-9.24552
dde	-9.24574
stri	-9.2459
▁versjon	-9.24747
▁blå	-9.2478
chi	-9.24799
▁1920	-9.24826
▁hjemme	-9.24848
▁q	-9.24947
▁sogn	-9.24959
▁tett	-9.24962
▁gresk	-9.24971
▁seier	-9.25035
suten	-9.25056
mel	-9.25064
sjøen	-9.25084
ita	-9.25413
ive	-9.25488
▁olje	-9.25519
abel	-9.25549
▁fre	-9.25656
▁katolske	-9.25721
▁lei	-9.25787
▁natt	-9.25943
▁dansk	-9.25985
▁start	-9.26
▁chi	-9.26051
▁kjøpt	-9.26145
jer	-9.26178
▁svart	-9.26187
▁lærer	-9.26191
fri	-9.26192
pper	-9.26221
fer	-9.26328
sky	-9.26429
medalje	-9.26567
▁samling	-9.26652
ps	-9.26682
the	-9.26703
▁hevde	-9.26752
folk	-9.26889
▁eid	-9.27
▁litteratur	-9.2709
▁sesong	-9.27161
ki	-9.27208
rom	-9.27222
▁dis	-9.27244
oner	-9.27278
▁politi	-9.27363
▁vo	-9.2745
nett	-9.27529
▁tegn	-9.2767
kommun	-9.27686
ød	-9.27929
▁konsert	-9.27933
▁boken	-9.28013
▁vanskelig	-9.28017
▁1987	-9.28026
▁eldre	-9.28075
sak	-9.28148
skog	-9.282
▁olav	-9.28224
fjord	-9.2824
▁pl	-9.2832
▁møte	-9.28378
▁høyere	-9.28413
▁los	-9.28423
stat	-9.28431
sal	-9.28454
ay	-9.28476
▁engelske	-9.28537
▁dy	-9.28571
ple	-9.28612
▁hverandre	-9.28668
▁1972	-9.28676
kast	-9.28685
gitt	-9.28702
bel	-9.28713
▁menn	-9.28745
imot	-9.28808
▁åpen	-9.28819
▁professor	-9.28841
▁gal	-9.28852
▁virke	-9.28853
▁david	-9.2888
stå	-9.28912
▁retning	-9.28953
▁mur	-9.2901
trekk	-9.29061
stående	-9.29119
▁mos	-9.29156
lla	-9.29162
ford	-9.29177
området	-9.29238
▁nett	-9.29294
▁1979	-9.29332
▁informasjon	-9.29346
▁henrik	-9.2936
▁stadig	-9.29377
▁fange	-9.29408
▁500	-9.29422
ild	-9.29554
lv	-9.29587
selskapet	-9.29594
▁dra	-9.29639
tes	-9.29668
zi	-9.29812
▁prest	-9.30002
red	-9.30044
▁eier	-9.30223
▁prege	-9.30313
▁linje	-9.30415
▁meg	-9.30511
▁pr	-9.30521
▁miste	-9.30544
▁stasjon	-9.30602
▁sannsynlig	-9.30655
▁utvikling	-9.30662
▁1945	-9.30664
bert	-9.30665
▁2014	-9.30667
▁grå	-9.30713
ille	-9.30714
forbund	-9.30723
▁områder	-9.30777
▁høre	-9.30879
tikk	-9.30914
ach	-9.3092
fra	-9.30953
▁red	-9.31026
▁punkt	-9.31029
▁bestemt	-9.31031
▁topp	-9.31159
ze	-9.31199
▁dårlig	-9.31326
▁prosent	-9.31335
▁1986	-9.3134
handling	-9.31376
▁christ	-9.31462
rå	-9.31472
▁tradisjon	-9.31588
▁bilde	-9.31592
mannen	-9.31602
▁nordlige	-9.31736
gar	-9.31742
bl	-9.31883
▁skrift	-9.31957
▁1973	-9.32012
▁mege	-9.32017
vil	-9.32041
heng	-9.32056
føl	-9.32067
7	-9.32129
log	-9.32158
▁svarte	-9.3221
gan	-9.32413
▁størrelse	-9.32413
▁bjørn	-9.32443
ath	-9.32813
▁island	-9.32838
▁kron	-9.32924
▁1800	-9.32926
▁data	-9.32945
▁carl	-9.32948
▁vold	-9.32981
▁mac	-9.33004
af	-9.33073
▁areal	-9.33111
ice	-9.33154
ai	-9.33321
▁stockholm	-9.33367
▁møtte	-9.33382
▁bør	-9.33402
10	-9.33552
▁nu	-9.33563
▁artene	-9.33571
▁tak	-9.33628
▁lenge	-9.33657
▁cla	-9.33748
▁lenger	-9.33879
▁renn	-9.33954
arbeid	-9.34007
samling	-9.34008
▁robert	-9.34131
▁våpen	-9.34137
søk	-9.34138
▁gate	-9.34161
▁seil	-9.3443
▁vår	-9.34475
gj	-9.3448
▁tilhører	-9.34641
fest	-9.34676
▁1948	-9.34762
▁1968	-9.34765
▁statsminister	-9.34772
▁port	-9.34826
▁ett	-9.34844
▁len	-9.34891
▁sub	-9.34906
▁gar	-9.34953
ap	-9.35024
ket	-9.35077
pris	-9.3512
▁sentrale	-9.35231
▁heller	-9.35243
▁dyr	-9.35257
▁område	-9.35328
▁studie	-9.35516
▁verdi	-9.35606
▁samlet	-9.35653
▁gren	-9.35663
▁nordøst	-9.35861
▁sterk	-9.35865
dra	-9.35871
rek	-9.359
▁dekke	-9.3591
full	-9.36052
ini	-9.36086
område	-9.36087
▁stjerne	-9.36104
▁hard	-9.36144
е	-9.36147
▁sovjetunionen	-9.36154
byen	-9.36159
▁selskap	-9.36164
▁1985	-9.36167
▁1982	-9.36168
xi	-9.36342
▁sørlig	-9.36423
▁avdeling	-9.36464
ich	-9.36472
produksjon	-9.36479
q	-9.36518
▁endret	-9.36534
▁60	-9.3655
▁sta	-9.3655
▁britisk	-9.36569
ep	-9.36586
anske	-9.36635
vern	-9.3667
▁alder	-9.36675
band	-9.36687
områder	-9.36805
▁cm	-9.36847
▁relativ	-9.36864
▁fremst	-9.36899
ight	-9.36973
tus	-9.37091
▁op	-9.37092
▁mod	-9.37206
fag	-9.37275
▁endt	-9.37301
▁gen	-9.37349
▁årlig	-9.37356
▁århundre	-9.37579
▁fulgte	-9.37633
cc	-9.37672
lek	-9.37702
▁bygningen	-9.37747
▁båt	-9.37849
rike	-9.37914
dor	-9.37985
▁syv	-9.38042
syn	-9.38049
▁krav	-9.38081
▁ex	-9.38102
▁posisjon	-9.38122
jen	-9.38191
▁arm	-9.38233
▁blo	-9.38267
bra	-9.38287
▁arrangert	-9.38297
▁nordvest	-9.38302
cy	-9.38318
spor	-9.38362
▁johannes	-9.38498
▁sørøst	-9.38538
▁grand	-9.38566
lagt	-9.38608
▁områdene	-9.38761
▁don	-9.38788
▁tall	-9.38869
▁kamper	-9.38981
▁pol	-9.38984
▁japansk	-9.38994
bud	-9.39007
▁bø	-9.39017
▁1940	-9.39042
▁japan	-9.39065
omme	-9.39207
lys	-9.39239
side	-9.39311
▁fest	-9.39313
▁blod	-9.39335
▁trans	-9.39346
▁kors	-9.39397
▁israel	-9.39469
▁lengde	-9.39592
drag	-9.39611
9	-9.39637
linje	-9.39672
▁styrke	-9.39687
▁dronning	-9.39758
▁1964	-9.39765
▁sil	-9.39775
▁1900	-9.39788
▁mu	-9.39795
▁lin	-9.39902
▁ledd	-9.3991
▁gård	-9.3992
▁koloni	-9.3994
▁oppført	-9.39953
▁ev	-9.40059
hy	-9.40099
kamp	-9.40121
▁sendt	-9.40124
▁offentlig	-9.40163
standen	-9.40349
▁lø	-9.40374
▁københavn	-9.40487
▁1975	-9.40498
▁1950	-9.40509
lie	-9.40525
▁moh	-9.40554
▁klasse	-9.40596
bø	-9.40665
▁sende	-9.40673
▁sha	-9.40716
navnet	-9.40769
▁sc	-9.40857
itz	-9.40874
▁sir	-9.40996
gh	-9.41016
▁kur	-9.41017
tale	-9.41074
▁mari	-9.41127
▁midten	-9.41135
▁erik	-9.4114
vitenskap	-9.41172
▁soldater	-9.4124
familien	-9.41262
▁union	-9.41323
ana	-9.41385
▁overtok	-9.41467
▁utført	-9.41483
værende	-9.41525
gift	-9.41529
get	-9.41535
▁latin	-9.4157
▁skrive	-9.41576
▁europeiske	-9.41687
deling	-9.41757
▁styrker	-9.41846
▁para	-9.41849
ida	-9.4196
▁1976	-9.41987
▁1974	-9.41987
▁opprinnelige	-9.42121
anlegg	-9.42142
skapet	-9.42161
▁sent	-9.42163
▁snar	-9.42165
ola	-9.42201
▁bedre	-9.42213
▁jon	-9.42297
▁plassert	-9.42323
▁sund	-9.42408
▁funksjon	-9.42446
▁drift	-9.42498
stasjon	-9.42534
huset	-9.42571
lis	-9.42612
▁oppkalt	-9.42726
▁voksne	-9.42731
▁poeng	-9.42751
▁musiker	-9.42772
▁slike	-9.42792
▁af	-9.42962
ji	-9.43021
▁kul	-9.43104
ias	-9.4315
all	-9.43154
▁livet	-9.43183
▁george	-9.43276
ding	-9.43319
▁jernbane	-9.43385
trolig	-9.43446
▁faren	-9.4345
▁standard	-9.43506
▁trykk	-9.43638
▁resten	-9.43647
66	-9.43685
nik	-9.43706
▁za	-9.43729
▁nrk	-9.43732
▁skjer	-9.43876
war	-9.43943
sol	-9.43945
rio	-9.44134
▁fjerde	-9.44156
▁kra	-9.44164
▁vol	-9.44227
▁kardinal	-9.44247
lik	-9.4427
▁son	-9.44303
▁marine	-9.4431
retning	-9.44333
ringen	-9.4434
▁hær	-9.44356
▁super	-9.4436
fører	-9.44371
navn	-9.44378
que	-9.44411
▁sø	-9.44679
tårn	-9.44706
asj	-9.4472
▁følger	-9.44791
ater	-9.44819
▁brukte	-9.44832
▁naturlig	-9.44995
▁elektrisk	-9.45016
▁produsere	-9.45016
▁stavanger	-9.45025
▁stod	-9.4509
bryte	-9.4515
ms	-9.45154
▁modell	-9.45202
▁dyp	-9.45213
ære	-9.45245
pro	-9.45265
brudd	-9.45636
▁lengre	-9.45812
▁martin	-9.4582
▁ky	-9.45833
▁fla	-9.4588
▁hæren	-9.4591
▁xi	-9.45973
ction	-9.46004
rud	-9.46031
samisk	-9.46077
▁organisasjonen	-9.46128
ringer	-9.46181
▁maria	-9.46278
▁pal	-9.46341
▁anders	-9.46491
▁sag	-9.46495
ix	-9.46501
н	-9.4656
ā	-9.46573
▁1981	-9.4658
▁hvite	-9.46668
krigen	-9.46734
▁arkitekt	-9.4685
shire	-9.46853
øk	-9.46994
▁sh	-9.47006
dige	-9.47007
gruppen	-9.47013
86	-9.47085
▁handling	-9.47124
▁stiftet	-9.47137
▁mester	-9.47306
▁80	-9.47332
▁1978	-9.47377
▁city	-9.47418
▁fremme	-9.47478
▁klarte	-9.475
▁dersom	-9.47522
▁sommeren	-9.47552
▁gri	-9.47553
fin	-9.47673
78	-9.47674
▁ger	-9.47731
▁ii	-9.47775
▁forsvar	-9.47808
styrke	-9.47957
strøm	-9.47965
evne	-9.48002
▁teori	-9.4804
▁georg	-9.4806
stol	-9.48119
р	-9.48154
▁bakgrunn	-9.48174
sykl	-9.4818
▁tilsvarende	-9.48186
▁ram	-9.48241
▁ytre	-9.48244
▁syd	-9.48293
dals	-9.48391
▁kol	-9.48404
▁finland	-9.48477
▁kyst	-9.48482
▁eiendom	-9.48514
▁spi	-9.48641
styrt	-9.48708
38	-9.48829
▁gode	-9.48866
▁enhet	-9.49014
bygging	-9.49075
▁finsk	-9.49103
poli	-9.49108
tion	-9.49214
▁slekten	-9.49225
▁nabo	-9.49231
▁mulighet	-9.49262
▁skipet	-9.49266
▁valgte	-9.49424
fisk	-9.49427
▁års	-9.49543
industri	-9.49603
last	-9.49611
▁kampen	-9.49638
▁religiøs	-9.4976
▁australia	-9.4976
▁sørvest	-9.49765
ara	-9.49795
bilde	-9.49798
▁enten	-9.49837
▁hår	-9.49854
▁gla	-9.49958
▁innført	-9.49966
▁bad	-9.50017
▁påvirke	-9.50092
▁skje	-9.50118
▁hovedstaden	-9.5015
▁ball	-9.5023
▁høsten	-9.50271
▁effekt	-9.50327
tjeneste	-9.50413
▁høye	-9.50489
▁fil	-9.50506
▁råd	-9.50546
eres	-9.50564
с	-9.50573
▁løp	-9.50578
▁vokste	-9.5058
▁grensen	-9.50642
▁hundre	-9.50849
▁iii	-9.50869
▁fle	-9.51085
▁ci	-9.51185
gruppe	-9.51252
organisasjon	-9.51273
ð	-9.51393
▁hertug	-9.51396
▁mc	-9.51397
▁1952	-9.51408
felt	-9.51433
ben	-9.51443
▁grupper	-9.51448
▁hall	-9.51505
▁produkt	-9.5154
▁gården	-9.51553
▁kle	-9.51586
▁forsøkt	-9.51691
▁runde	-9.51698
▁forteller	-9.5173
▁befolkning	-9.51769
▁tele	-9.51842
▁oppdaget	-9.51945
age	-9.52008
▁viktige	-9.52087
våpen	-9.52088
▁munn	-9.52108
▁asia	-9.52156
▁bolig	-9.52199
▁bronse	-9.52228
▁1971	-9.52232
▁can	-9.52242
▁egg	-9.52351
kin	-9.52367
▁blad	-9.52369
▁bøker	-9.52434
▁sm	-9.52549
sket	-9.52571
▁maskin	-9.52598
▁tapte	-9.52615
▁virksomhet	-9.52714
▁rik	-9.52802
68	-9.52865
▁time	-9.52889
▁ska	-9.52937
under	-9.53018
▁2016	-9.5308
stid	-9.53173
55	-9.53196
tel	-9.53231
hel	-9.53239
este	-9.53291
bus	-9.53344
tek	-9.53398
▁viss	-9.53407
▁real	-9.53451
▁flat	-9.53493
▁smal	-9.53681
aktig	-9.53766
rich	-9.53804
▁ven	-9.53876
▁ytterligere	-9.53893
▁sikre	-9.53907
▁anne	-9.53962
ial	-9.54024
▁greske	-9.54034
nten	-9.54039
▁figur	-9.54043
asjons	-9.54183
▁inter	-9.542
sam	-9.54245
▁sammenheng	-9.5426
▁arten	-9.54267
▁180	-9.54285
▁beskrive	-9.54388
▁heter	-9.54445
grav	-9.54449
arm	-9.54592
gående	-9.54606
▁vestlig	-9.54682
vig	-9.54683
systemet	-9.54711
▁regel	-9.54854
misjon	-9.5497
80	-9.55036
lø	-9.55039
bygning	-9.55132
ferd	-9.55154
gne	-9.55196
▁ep	-9.55233
▁cup	-9.55303
▁temperatur	-9.55418
verket	-9.55436
▁she	-9.55483
▁klassisk	-9.55595
kapasitet	-9.55597
▁canada	-9.55602
▁fremdeles	-9.55634
valg	-9.55763
▁debutert	-9.55765
▁merke	-9.55801
▁erstattet	-9.55819
gge	-9.55858
▁motstand	-9.55905
▁vik	-9.55968
▁unge	-9.55969
▁nederlandsk	-9.56066
▁rike	-9.56114
▁aktivitet	-9.56183
▁utdanning	-9.56216
tta	-9.56288
▁kanon	-9.56311
54	-9.56371
▁svak	-9.56424
▁rot	-9.5646
▁1958	-9.56471
▁varme	-9.56536
▁frank	-9.56546
inyin	-9.56617
▁lars	-9.56649
zo	-9.56759
sjef	-9.56763
▁hodet	-9.56774
▁kart	-9.56857
▁besøk	-9.56897
▁brann	-9.56898
▁lek	-9.5703
ram	-9.57131
▁hit	-9.57133
▁ten	-9.57153
▁sj	-9.57175
dia	-9.57277
▁drama	-9.57303
▁ønsket	-9.57324
▁richard	-9.57327
▁østerrike	-9.57328
▁1965	-9.5734
▁imp	-9.57368
▁west	-9.57371
▁symbol	-9.57372
▁nærings	-9.5747
▁finalen	-9.57519
lia	-9.57524
▁stilling	-9.57578
▁het	-9.57684
▁mis	-9.57716
▁300	-9.57778
44	-9.57803
linjen	-9.57827
▁formel	-9.57852
▁scene	-9.57856
▁sel	-9.57864
▁kreve	-9.57872
ull	-9.5788
▁tung	-9.58083
sjoner	-9.58102
fart	-9.58191
▁etterhvert	-9.58204
82	-9.58207
▁kontakt	-9.58208
▁1967	-9.5822
▁fylkesvei	-9.58227
ografi	-9.58232
▁egentlig	-9.58249
▁400	-9.58259
▁høyt	-9.58315
▁utviklingen	-9.58334
gav	-9.58367
elva	-9.58455
cia	-9.58486
gikk	-9.58674
▁nådd	-9.58716
▁samfunns	-9.58727
asjonen	-9.58736
øl	-9.58744
iserte	-9.58833
▁mø	-9.58869
▁jobb	-9.58882
▁ungdoms	-9.58885
▁ang	-9.58991
ick	-9.59029
▁1977	-9.59102
▁2015	-9.59119
▁you	-9.59137
▁sivil	-9.59152
▁ac	-9.59161
har	-9.59253
▁led	-9.59282
▁forsknings	-9.59289
▁park	-9.59321
▁thor	-9.59362
▁journalist	-9.59455
rygg	-9.59455
trykk	-9.59508
▁raskt	-9.59517
▁grønn	-9.59561
▁design	-9.59631
▁ting	-9.59635
▁sul	-9.59699
regionen	-9.59721
39	-9.59723
ire	-9.59747
▁operasjon	-9.59877
▁uttrykk	-9.59881
▁personlig	-9.59883
gata	-9.59886
▁direktør	-9.59927
▁finans	-9.59971
в	-9.59973
▁leker	-9.59985
▁finn	-9.60037
▁fordelt	-9.60058
gjøre	-9.60063
▁velge	-9.60081
▁sider	-9.6009
med	-9.60141
▁wo	-9.60155
▁oppgave	-9.60168
ark	-9.60222
vesen	-9.6024
▁femte	-9.603
47	-9.60349
krets	-9.60412
▁polen	-9.60421
nene	-9.60451
tall	-9.60483
▁grense	-9.60486
▁nasjonale	-9.60488
▁huset	-9.60536
▁økonomiske	-9.60539
▁begynner	-9.60582
stått	-9.60592
▁region	-9.60668
▁behandling	-9.60763
▁veg	-9.60787
▁lede	-9.60799
▁offisiell	-9.60883
▁trøndelag	-9.60883
▁folketelling	-9.60883
▁spania	-9.60884
▁vå	-9.60886
▁øke	-9.60958
▁røde	-9.60988
▁zo	-9.61051
ansk	-9.6107
▁skips	-9.61072
▁lage	-9.61078
▁jakt	-9.61083
▁70	-9.61092
▁klubb	-9.61154
▁begrepet	-9.61206
unt	-9.61343
▁transport	-9.61353
▁lære	-9.61376
yo	-9.6144
▁sports	-9.61489
gren	-9.61556
▁retts	-9.61655
▁uni	-9.61658
▁spill	-9.61669
64	-9.6182
hund	-9.61849
nivå	-9.61854
▁sjef	-9.61855
skolen	-9.61865
▁vind	-9.62034
▁kilde	-9.62071
lov	-9.62078
tti	-9.62101
▁egypt	-9.62144
way	-9.62188
hall	-9.62192
▁student	-9.62229
unn	-9.62242
▁fot	-9.62265
▁rollen	-9.62307
46	-9.62335
▁type	-9.62403
▁omfatte	-9.62405
▁wal	-9.62462
▁grev	-9.62473
▁sovjetisk	-9.62498
▁totalt	-9.62564
85	-9.62603
folkerepublikken	-9.62709
▁profesjonell	-9.62709
▁national	-9.6271
▁nærmest	-9.62712
utdannet	-9.62713
▁klima	-9.62713
▁1963	-9.62725
▁alltid	-9.6277
▁måneder	-9.62797
▁james	-9.62805
lang	-9.62931
vir	-9.62942
▁jøde	-9.62943
▁stift	-9.62993
ib	-9.63059
▁gifte	-9.63105
▁privat	-9.6315
▁pass	-9.63204
kirke	-9.63404
▁prisen	-9.63407
ance	-9.63423
52	-9.63434
▁slå	-9.63513
è	-9.63613
▁opprinnelse	-9.63635
▁1983	-9.63644
magasin	-9.63651
▁1953	-9.63651
▁1944	-9.63653
▁2017	-9.63655
▁museum	-9.63683
37	-9.63692
▁drive	-9.63701
rådet	-9.63742
▁kongelige	-9.63798
ano	-9.63835
▁oppdrag	-9.63846
▁historien	-9.63864
▁fører	-9.63899
67	-9.63972
▁leve	-9.64015
▁bern	-9.6431
▁sterke	-9.64524
▁sju	-9.64533
▁episode	-9.64571
▁foreldre	-9.64571
▁sommerfugl	-9.64589
▁snakke	-9.64597
▁komponist	-9.64767
▁mottok	-9.64781
sjonen	-9.64901
▁ekspedisjon	-9.64928
56	-9.6496
klubb	-9.64985
▁folket	-9.65079
▁pri	-9.65127
▁mørk	-9.65178
stru	-9.65225
sberg	-9.65252
pet	-9.65285
▁revolusjon	-9.65285
▁pra	-9.65329
havet	-9.65339
4	-9.65363
▁felt	-9.6544
midler	-9.65498
▁representere	-9.65513
▁religion	-9.65513
▁selvstendig	-9.65513
▁1959	-9.65527
▁støttet	-9.65531
▁charles	-9.65532
▁vid	-9.65636
▁rad	-9.65735
▁stand	-9.65769
lly	-9.65831
▁omfattende	-9.65845
63	-9.6599
▁gje	-9.66049
▁nils	-9.66143
▁total	-9.66238
▁daglig	-9.66246
stoff	-9.66343
▁lot	-9.6637
rop	-9.66537
▁landbruk	-9.66572
▁preste	-9.6663
øyene	-9.6668
▁politikk	-9.66704
▁øyene	-9.66723
▁bon	-9.6674
▁pen	-9.66818
▁offentlige	-9.66888
87	-9.67121
▁mun	-9.67124
30	-9.67138
mand	-9.67216
▁passer	-9.67244
▁zh	-9.67318
▁vinner	-9.67322
lighet	-9.67323
ira	-9.67325
▁mengde	-9.67357
▁fro	-9.67387
▁ridder	-9.67431
▁1928	-9.67437
▁1949	-9.67442
ct	-9.67458
strand	-9.67504
▁90	-9.67544
lav	-9.67555
kjenne	-9.67592
voks	-9.67669
▁motsetning	-9.67681
▁base	-9.67682
mennene	-9.67729
▁mw	-9.67732
▁hvilke	-9.67733
▁kjempe	-9.67797
bytte	-9.67814
▁havet	-9.6797
høy	-9.68002
gard	-9.68034
74	-9.68069
vogn	-9.68092
53	-9.68185
▁kap	-9.68288
ú	-9.68398
š	-9.68398
▁typisk	-9.68402
mund	-9.68406
▁bronsemedalje	-9.68409
▁1924	-9.6841
▁1930	-9.68415
▁formann	-9.68509
▁hoff	-9.68642
▁bass	-9.68675
▁sier	-9.68686
▁45	-9.68738
▁kysten	-9.68782
▁kraftig	-9.68858
▁nevnt	-9.68866
▁fjorden	-9.68905
▁utvidet	-9.69004
ama	-9.69006
org	-9.69072
▁hei	-9.69083
▁forskning	-9.69161
▁kull	-9.69246
tog	-9.69255
▁hell	-9.69263
▁michael	-9.69378
▁oversikt	-9.69379
▁1912	-9.69391
▁ordfører	-9.69401
▁prins	-9.6944
▁fortsette	-9.69442
▁feil	-9.6953
▁krets	-9.6964
▁jorden	-9.69738
vor	-9.69746
▁us	-9.69765
▁løv	-9.69814
▁benytte	-9.69897
▁økonomisk	-9.69915
musikk	-9.69916
lus	-9.69998
▁oppdag	-9.70298
▁sau	-9.70299
▁gjelder	-9.70352
hav	-9.70358
▁alternativ	-9.70368
▁nødvendig	-9.70368
▁skottland	-9.70368
▁beijing	-9.70369
▁hurtig	-9.70369
▁louis	-9.70369
▁ledelse	-9.7047
▁kroner	-9.70476
gå	-9.70506
▁lau	-9.70548
medlem	-9.70574
trinn	-9.70608
bygg	-9.70658
▁hovedstad	-9.70686
rum	-9.70765
▁anlegget	-9.70778
lund	-9.70803
▁tettsted	-9.70827
▁win	-9.70964
rig	-9.70971
▁bane	-9.70981
▁lar	-9.71002
▁østlig	-9.71069
▁war	-9.711
gaard	-9.71125
▁ap	-9.71188
▁ungdom	-9.71331
▁ass	-9.7135
▁kunnskap	-9.7137
▁arabisk	-9.7137
kos	-9.71372
▁skjedde	-9.71381
▁1962	-9.71385
▁1956	-9.71386
▁musikkalbum	-9.71394
51	-9.71399
▁metall	-9.71414
▁søster	-9.71414
kjøp	-9.71495
▁jern	-9.71499
▁knut	-9.71511
▁middel	-9.71548
▁unntak	-9.71556
▁jens	-9.71565
tic	-9.71622
▁valget	-9.71642
▁jevn	-9.71666
▁undersøkelse	-9.71675
▁borg	-9.71681
sser	-9.71818
▁gått	-9.71823
▁stav	-9.71886
▁trafikk	-9.71915
▁stoppe	-9.72017
dam	-9.72147
▁fjellet	-9.72155
▁adel	-9.7222
▁middelalderen	-9.72289
▁verne	-9.72291
con	-9.72317
ugh	-9.72317
saker	-9.72333
▁øvre	-9.72379
▁rapport	-9.72379
▁pat	-9.72381
▁aust	-9.72451
▁bodde	-9.72469
zhou	-9.72504
veg	-9.72527
▁indi	-9.72621
76	-9.72663
58	-9.72711
gården	-9.72754
▁åpne	-9.72762
▁spørsmål	-9.72852
▁styrkene	-9.72899
▁heste	-9.72989
win	-9.73021
arbeider	-9.73049
ain	-9.73082
▁lån	-9.73105
plassen	-9.73236
▁korte	-9.7329
61	-9.73314
▁distrikt	-9.73332
instrument	-9.73381
▁presse	-9.73387
▁original	-9.73397
▁stortinget	-9.73402
▁streng	-9.73406
▁1966	-9.73421
ritt	-9.73424
▁bevart	-9.73426
▁omtalt	-9.73436
▁administrativ	-9.73482
grense	-9.73492
fil	-9.73537
▁tydelig	-9.7354
arbeidet	-9.73583
▁strid	-9.73629
▁reiste	-9.73663
vatnet	-9.73674
▁fjerne	-9.73675
qui	-9.73682
▁program	-9.73691
94	-9.73726
62	-9.73847
▁nederland	-9.73876
lære	-9.73919
▁stille	-9.73951
▁skapt	-9.74038
▁karakter	-9.74093
▁cent	-9.74114
vekt	-9.74184
▁gutt	-9.74212
▁rute	-9.74283
43	-9.74295
kle	-9.74303
slutning	-9.7432
▁tilgjengelig	-9.7443
▁1942	-9.74442
▁jordbruk	-9.7446
08	-9.74463
▁fotballspiller	-9.74472
▁foruten	-9.74566
▁falt	-9.74608
erende	-9.74662
▁artist	-9.74988
▁økonomi	-9.75011
▁riket	-9.7503
▁vanlige	-9.75046
▁oversatt	-9.75076
bevegelsen	-9.7512
turnering	-9.75121
84	-9.75235
▁anta	-9.75277
deles	-9.75298
els	-9.75336
▁forfatteren	-9.75391
voll	-9.75425
▁sluttet	-9.75428
án	-9.75466
▁california	-9.75472
▁hjerte	-9.75473
▁1969	-9.75486
▁dal	-9.75495
kirken	-9.75518
▁ung	-9.75518
▁avhengig	-9.75568
▁gjennomført	-9.75583
▁salt	-9.75609
▁rh	-9.75618
15	-9.75784
▁front	-9.75855
ria	-9.75989
kunst	-9.75992
skifte	-9.76088
drift	-9.76127
hal	-9.76172
▁virkelig	-9.76177
▁stø	-9.76189
▁trekk	-9.76206
▁bla	-9.76223
▁jobbet	-9.76258
▁listen	-9.76356
▁skul	-9.76455
▁gitar	-9.76459
л	-9.76524
▁records	-9.76524
▁moskva	-9.76524
▁yngre	-9.76526
▁norrøn	-9.76528
▁utbredt	-9.76528
▁world	-9.76536
ativ	-9.76544
▁black	-9.76574
▁snø	-9.76601
▁innsats	-9.76614
▁nåværende	-9.76624
organ	-9.76634
18	-9.76636
▁opphav	-9.76735
ub	-9.76817
▁byer	-9.76833
▁rose	-9.76837
hev	-9.76861
metode	-9.7687
▁fyr	-9.76878
gna	-9.76887
møte	-9.7689
▁lind	-9.76896
▁bind	-9.76948
stedet	-9.77031
▁teksten	-9.77048
▁festival	-9.77157
▁prosjekt	-9.7718
▁programmet	-9.77212
gangen	-9.77222
▁distriktet	-9.77227
▁tettstedet	-9.77239
kov	-9.77295
▁holm	-9.77392
▁dan	-9.77549
bunn	-9.77566
▁gass	-9.77577
▁publikum	-9.77588
▁publisert	-9.77588
korps	-9.7759
▁vitenskapelig	-9.77592
▁jazz	-9.77606
▁1946	-9.77607
field	-9.77631
dagen	-9.77647
16	-9.77763
tun	-9.77779
▁spesial	-9.77844
kop	-9.77899
album	-9.77928
▁rang	-9.7799
▁dø	-9.78014
▁besto	-9.78035
ordenen	-9.78048
60	-9.78069
▁historiker	-9.78073
▁grenser	-9.78091
▁ce	-9.78115
▁sim	-9.7815
dekke	-9.78246
▁opphold	-9.78266
▁kvinnelig	-9.78285
▁teknologi	-9.78305
▁løper	-9.78341
▁vis	-9.78361
mitt	-9.78399
oc	-9.78459
ral	-9.78623
▁betrakte	-9.78663
▁passasjer	-9.78663
▁jacob	-9.78665
▁jarl	-9.78702
plikt	-9.78799
blad	-9.78801
▁lavere	-9.78903
▁problemer	-9.78944
▁skatte	-9.78991
▁nes	-9.79007
fugl	-9.79016
91	-9.79029
▁star	-9.79031
▁nevnes	-9.79039
bjørn	-9.79045
▁ole	-9.79045
kraft	-9.79046
▁sur	-9.79127
ux	-9.79142
▁not	-9.79176
▁lund	-9.79187
▁flagg	-9.79191
65	-9.79196
▁tour	-9.79205
48	-9.79211
▁helge	-9.79215
▁fal	-9.79256
kol	-9.79275
▁fordel	-9.79377
49	-9.79382
▁ban	-9.79436
krig	-9.79449
bor	-9.79467
plate	-9.79481
parti	-9.79644
▁kjenne	-9.79657
▁kinas	-9.79728
▁innflytelse	-9.79743
▁wilhelm	-9.7975
▁vunnet	-9.79751
▁spesiell	-9.79751
▁fungere	-9.7976
▁1932	-9.79764
▁1939	-9.79771
▁1954	-9.79771
▁element	-9.79781
eksamen	-9.79815
elige	-9.79846
▁forskjell	-9.79849
▁utdannelse	-9.79861
ved	-9.79898
▁produsent	-9.79924
21	-9.79936
▁bosatt	-9.79959
trær	-9.80025
eksjon	-9.80031
ppen	-9.80099
forfatter	-9.80147
▁ek	-9.8022
▁frukt	-9.8026
▁studenter	-9.80323
▁rekord	-9.80422
ign	-9.80423
▁irland	-9.80442
▁kjerne	-9.80489
▁problem	-9.80575
▁kh	-9.80669
hn	-9.80671
▁mas	-9.80681
▁mid	-9.80697
▁uke	-9.807
▁sport	-9.80706
▁eg	-9.80798
▁sveits	-9.80803
71	-9.80813
▁installert	-9.80849
▁1934	-9.80865
▁erobre	-9.80872
▁est	-9.80905
▁skille	-9.80906
▁veldig	-9.8091
litt	-9.8104
ville	-9.81047
▁ub	-9.8106
▁ankom	-9.81072
dahl	-9.81144
▁stykke	-9.81158
▁økt	-9.81182
læring	-9.81191
oni	-9.81218
distrikt	-9.81296
avdeling	-9.8133
nerne	-9.8136
35	-9.81407
gler	-9.81415
▁skape	-9.81433
▁cal	-9.81493
klubben	-9.81541
oli	-9.81597
▁die	-9.81685
73	-9.81686
foss	-9.81738
▁kaste	-9.81765
kka	-9.81812
▁praksis	-9.8196
▁lansert	-9.81964
hastighet	-9.81964
▁1908	-9.81978
kjær	-9.82028
▁ran	-9.82048
ming	-9.82051
▁betegne	-9.8207
▁selve	-9.82126
jør	-9.82141
▁gru	-9.82141
vand	-9.82175
▁ansatte	-9.82238
▁toppen	-9.82243
▁north	-9.82334
▁brev	-9.82356
▁ekteskap	-9.82394
▁hage	-9.82411
festival	-9.82412
virksomhet	-9.82414
ult	-9.82487
gate	-9.82489
▁redaktør	-9.82502
▁bibliotek	-9.82502
▁betegnelsen	-9.826
25	-9.82776
▁kg	-9.82779
▁1500	-9.828
▁hopp	-9.82827
▁landsbyen	-9.82863
holm	-9.82882
▁uavhengig	-9.82948
▁ansatt	-9.83025
▁fengsel	-9.83084
▁skyld	-9.83105
▁shi	-9.83136
hjul	-9.83146
kritiker	-9.83148
▁elve	-9.83163
▁johann	-9.83174
delen	-9.83196
77	-9.83198
iz	-9.83202
▁bel	-9.83283
▁larvene	-9.83302
prisen	-9.83328
▁reform	-9.83334
▁sky	-9.8335
høgskole	-9.83358
eide	-9.8338
▁konkurranse	-9.83452
▁sykdom	-9.83492
verdi	-9.83622
▁viking	-9.83666
valget	-9.83697
▁strand	-9.8373
▁prøve	-9.83741
59	-9.83788
▁ze	-9.83878
nos	-9.83902
▁char	-9.83931
▁studier	-9.83943
▁nordland	-9.83946
▁filmer	-9.8395
▁materiale	-9.83965
▁flu	-9.84042
samfunn	-9.84049
formet	-9.84057
plasser	-9.84121
▁stasjonen	-9.84121
▁damp	-9.84129
▁single	-9.84143
stø	-9.8415
wood	-9.84199
ball	-9.842
▁fredrik	-9.84218
▁kategori	-9.8422
▁konflikt	-9.8422
▁melodi	-9.84223
▁test	-9.84227
lege	-9.8429
blokk	-9.84336
▁forretnings	-9.84364
▁spanske	-9.84394
endring	-9.84427
▁nasjon	-9.84481
▁reist	-9.84497
▁junior	-9.84555
▁athen	-9.84562
▁andreas	-9.84566
▁tittel	-9.84612
▁metal	-9.84651
hm	-9.84686
din	-9.84757
kultur	-9.84781
ij	-9.84867
partiet	-9.84934
▁cro	-9.84964
ada	-9.8498
▁saken	-9.84982
▁timer	-9.84983
kh	-9.84998
▁omtale	-9.8504
▁un	-9.85055
▁1700	-9.85075
▁trener	-9.85084
▁rev	-9.85165
▁institutt	-9.85165
ör	-9.85217
riket	-9.85254
▁nivå	-9.85326
▁sønnen	-9.85329
75	-9.85342
к	-9.8536
▁pasient	-9.8537
▁straffe	-9.85406
▁nærheten	-9.85444
▁klassen	-9.8546
▁gjenopp	-9.85503
kje	-9.85538
uf	-9.85615
▁pop	-9.85677
93	-9.85712
gjort	-9.85777
▁fugle	-9.85804
▁kam	-9.85886
trafikk	-9.85902
lte	-9.85933
▁bol	-9.85939
▁sendte	-9.85954
▁drevet	-9.8599
arter	-9.86024
bein	-9.86148
95	-9.8623
bare	-9.86254
▁kristen	-9.86301
mun	-9.86316
▁bay	-9.8641
▁cap	-9.86511
▁tilknytte	-9.86532
kommunikasjon	-9.86532
▁inspirert	-9.86532
▁ungarn	-9.86533
▁magnus	-9.86535
34	-9.86537
▁medlemmene	-9.86542
▁1936	-9.86545
tempel	-9.86545
▁1943	-9.86551
▁ya	-9.86571
▁ji	-9.86629
▁tradisjonelle	-9.86637
▁nr	-9.86656
▁flykte	-9.86668
▁klo	-9.86763
▁franc	-9.86766
▁ekstra	-9.86817
▁vær	-9.86832
▁jean	-9.86873
▁livs	-9.86884
▁flyplass	-9.86939
92	-9.8695
ål	-9.87008
57	-9.87086
haug	-9.87126
▁hud	-9.87236
▁regne	-9.87241
▁konkurransen	-9.87276
▁medisin	-9.87345
69	-9.87374
▁will	-9.87428
jiang	-9.87448
slaget	-9.87462
▁sette	-9.87463
▁harald	-9.87533
▁legen	-9.87552
mond	-9.8763
▁univers	-9.87691
▁etterfulgt	-9.87709
▁flåte	-9.87709
▁teknisk	-9.87709
▁united	-9.8771
▁fokus	-9.87712
▁elev	-9.8773
▁sølvmedalje	-9.87731
▁1947	-9.87731
▁våren	-9.87848
etter	-9.87858
▁dynastiet	-9.87879
▁forsvars	-9.8788
pol	-9.87891
▁inkluderer	-9.87895
skriv	-9.87899
▁kontor	-9.87934
byr	-9.8794
▁bevegelse	-9.87955
▁tusen	-9.88045
▁mill	-9.88048
▁landsby	-9.88112
▁mørke	-9.8815
alis	-9.88189
▁mad	-9.88252
kraftverk	-9.88286
▁private	-9.88332
▁overfor	-9.88438
grupper	-9.88484
nis	-9.88494
løpet	-9.88509
▁romanen	-9.88615
mil	-9.88639
▁ør	-9.88659
▁larven	-9.88717
▁stamme	-9.88744
▁lignende	-9.88772
▁aksept	-9.88899
▁bispedømme	-9.88899
▁fullstendig	-9.88899
▁tilknytning	-9.88899
▁utgangspunkt	-9.88899
▁liberal	-9.889
▁stadion	-9.88903
▁spredt	-9.88912
▁1933	-9.88915
▁skotsk	-9.88918
▁sjelden	-9.88921
▁tidspunkt	-9.88926
feng	-9.88979
▁nedlagt	-9.88982
▁bygde	-9.89091
▁arn	-9.89128
▁politiet	-9.89144
våg	-9.8915
qu	-9.89209
mur	-9.89211
▁got	-9.89219
▁status	-9.89309
fell	-9.8932
▁sort	-9.89336
▁kvalitet	-9.8934
▁plassering	-9.8935
▁marc	-9.89386
▁fremste	-9.89403
fu	-9.89429
inntekt	-9.89503
▁bob	-9.8952
▁vannet	-9.89608
vind	-9.89689
følgende	-9.89835
gy	-9.8986
bry	-9.89889
▁atom	-9.89899
▁bonde	-9.90009
▁kraftverk	-9.9008
elli	-9.90087
▁max	-9.90088
ani	-9.9011
▁freds	-9.9012
hard	-9.90181
▁effektiv	-9.90224
ish	-9.90231
▁kjøre	-9.90267
bær	-9.90295
ky	-9.90314
ado	-9.90361
98	-9.90362
▁gor	-9.9054
▁vet	-9.9059
server	-9.90635
▁hellige	-9.90642
▁masse	-9.90673
05	-9.90704
prosess	-9.90744
▁tonn	-9.90745
stikk	-9.90858
▁henhold	-9.90874
pan	-9.91017
jev	-9.91021
cha	-9.91139
istene	-9.91225
▁off	-9.91236
▁spansk	-9.91246
serien	-9.91273
▁kontinent	-9.91324
▁erkebiskop	-9.91324
▁lengst	-9.9133
▁1955	-9.91348
▁stammer	-9.91359
▁indisk	-9.91367
▁stabil	-9.91376
▁korea	-9.91403
▁overflate	-9.91419
▁nø	-9.91421
▁angeles	-9.91435
atet	-9.91461
▁endre	-9.91472
▁utgi	-9.91481
5	-9.91515
▁organisert	-9.91537
▁che	-9.91622
▁regjerings	-9.91644
▁overgang	-9.91692
upp	-9.91704
▁bidrag	-9.91769
▁minutter	-9.91831
lad	-9.91845
historie	-9.92005
▁innhold	-9.9203
▁apo	-9.92037
▁bølge	-9.92108
45	-9.92138
▁kreft	-9.92266
senteret	-9.92269
▁fjord	-9.92324
▁odd	-9.92358
ula	-9.92369
▁administrasjons	-9.92371
▁sti	-9.92407
▁buss	-9.92489
▁bygg	-9.92535
▁insekter	-9.92558
▁flertall	-9.92562
▁college	-9.92574
▁1961	-9.92578
▁1937	-9.92581
▁uttalt	-9.92631
▁kjøl	-9.92675
▁gil	-9.92677
▁riksvei	-9.92689
kanten	-9.92721
▁forkorte	-9.92721
▁henry	-9.92798
ryd	-9.92819
▁drev	-9.92864
▁bevis	-9.92918
iteten	-9.93073
▁kommunene	-9.9311
zz	-9.93169
rykket	-9.93178
▁kontrakt	-9.93231
▁provins	-9.93362
▁innsjøen	-9.93372
▁tilfeller	-9.93534
▁rask	-9.93595
▁grunnet	-9.93603
96	-9.93657
bach	-9.93756
▁uker	-9.93761
kilde	-9.93795
▁kaptein	-9.93809
▁jødisk	-9.9381
▁1957	-9.93826
▁avisen	-9.93875
▁måned	-9.94041
▁kommet	-9.94047
▁kristne	-9.9412
▁sykehus	-9.94145
kil	-9.94152
▁årsak	-9.94164
26	-9.94273
▁fylket	-9.94285
▁sær	-9.94286
▁35	-9.94297
▁beskrevet	-9.94363
▁endelig	-9.94369
33	-9.94486
▁horn	-9.94522
▁populær	-9.94525
90	-9.94552
▁behandle	-9.94552
▁dog	-9.94824
▁ana	-9.94832
▁vist	-9.94845
▁offisielt	-9.95074
▁school	-9.95075
▁lufthavn	-9.95085
▁1918	-9.95094
▁phil	-9.95101
▁otto	-9.95102
▁videregående	-9.95114
▁bygninger	-9.95115
▁øverste	-9.95275
low	-9.95291
▁elever	-9.95294
▁kjønn	-9.95325
▁bidra	-9.95438
▁euro	-9.95458
visning	-9.95513
▁studio	-9.95523
isten	-9.95775
▁avsluttet	-9.95813
program	-9.9583
▁internasjonal	-9.95868
hjem	-9.95875
▁dyre	-9.95904
▁turist	-9.95925
▁leir	-9.95978
▁krist	-9.9598
ulf	-9.96128
afrikansk	-9.96189
▁rus	-9.96329
▁introdusert	-9.96356
▁mexico	-9.96356
▁major	-9.96358
slekt	-9.96367
▁1917	-9.96369
øm	-9.9638
well	-9.96484
▁grunnlegge	-9.96502
▁tverr	-9.96512
mid	-9.96519
▁fylkes	-9.96586
kurs	-9.96704
▁skilt	-9.96743
27	-9.96755
▁filosofi	-9.96777
▁levert	-9.96834
ob	-9.96905
▁beskytte	-9.97084
31	-9.97094
vente	-9.97101
▁haug	-9.97119
▁åpning	-9.97146
▁organisasjon	-9.97151
▁score	-9.97277
▁trekke	-9.97283
19	-9.97334
▁utover	-9.97456
motor	-9.97474
▁rå	-9.97533
halvøya	-9.97571
▁polsk	-9.97598
institusjon	-9.97655
▁league	-9.97655
▁hensikt	-9.97655
▁orkester	-9.97656
▁royal	-9.97658
▁alpin	-9.97663
▁1938	-9.97682
▁1000	-9.97702
▁glo	-9.97721
▁hovedsak	-9.97728
▁hjelpe	-9.9791
▁kommuner	-9.97925
▁fisk	-9.98073
▁gard	-9.98087
ata	-9.98089
feld	-9.98238
▁sist	-9.98242
▁poly	-9.98323
lipp	-9.98336
▁offiser	-9.98394
▁log	-9.98398
▁innsjø	-9.98436
maskin	-9.98523
▁utgave	-9.98548
▁syr	-9.98571
▁marie	-9.98578
kjempe	-9.98653
▁dør	-9.98777
▁bevege	-9.98813
innen	-9.98829
▁parken	-9.98851
▁motiv	-9.98862
handel	-9.98863
32	-9.98946
sekretær	-9.98957
▁friidrett	-9.98971
▁fattig	-9.98972
▁frederik	-9.98975
▁elv	-9.98978
▁monark	-9.98989
72	-9.99034
feltet	-9.99035
▁eksistere	-9.99037
12	-9.99068
jan	-9.99084
▁slett	-9.99085
▁glass	-9.99138
▁hunnen	-9.99149
bladet	-9.99152
▁hor	-9.99156
▁spre	-9.99175
ledd	-9.99191
▁epi	-9.99217
▁tolv	-9.99291
artikler	-9.99312
▁kilder	-9.99337
type	-9.99433
▁solo	-9.99456
legging	-9.99572
▁kalte	-9.99617
▁nordisk	-9.99629
▁cur	-9.99632
▁kost	-9.99668
grunn	-9.99701
▁spise	-9.99765
farge	-9.99808
▁verker	-9.99811
▁cu	-9.99819
▁ansvarlig	-9.9988
24	-9.99907
▁king	-9.99936
▁idretts	-10.0008
▁tog	-10.0012
▁kongens	-10.0015
▁arne	-10.0016
ograf	-10.0019
04	-10.0024
kamera	-10.0026
▁malt	-10.0029
▁eksempler	-10.003
▁hemmelig	-10.003
▁populære	-10.003
▁berømt	-10.003
▁150	-10.0032
▁fullført	-10.0033
70	-10.0036
▁undervisning	-10.0053
▁oppnådd	-10.0054
▁36	-10.0059
▁klart	-10.0059
▁markert	-10.0063
▁alene	-10.0067
▁fc	-10.007
konge	-10.0079
▁nan	-10.0087
▁eva	-10.0093
▁grunnla	-10.0093
▁bestående	-10.0101
89	-10.0101
serie	-10.0102
ori	-10.0109
97	-10.0113
vinner	-10.0115
hed	-10.0133
▁tenn	-10.0141
▁hve	-10.0151
▁hovedrollen	-10.0156
øst	-10.0156
på	-10.0157
▁py	-10.0164
▁republikken	-10.0164
▁ishockey	-10.0166
▁1941	-10.0166
▁international	-10.0166
▁ekstrem	-10.0166
▁club	-10.0166
▁oscar	-10.0166
▁brøt	-10.0166
▁premier	-10.0166
▁kommunal	-10.0166
▁1935	-10.0168
rettigheter	-10.017
▁tegnet	-10.0175
▁jule	-10.0181
renn	-10.0185
skytter	-10.0194
▁samarbeidet	-10.0194
skatt	-10.0201
▁rob	-10.0203
▁slave	-10.0205
ico	-10.0206
▁tekster	-10.0207
▁verket	-10.0209
▁typer	-10.0212
gul	-10.0218
▁spin	-10.022
alitet	-10.023
duk	-10.0237
▁hode	-10.0238
▁strekke	-10.025
▁museet	-10.0266
ney	-10.0271
▁bord	-10.0272
▁app	-10.0272
▁kjøpe	-10.0273
eller	-10.0276
▁ordenen	-10.0288
▁dokument	-10.0288
▁løsning	-10.0291
ura	-10.0302
▁invasjon	-10.0303
▁islam	-10.0304
▁tilhørte	-10.0304
▁1951	-10.0305
▁tone	-10.0307
▁ukjent	-10.0308
▁turneringen	-10.031
▁gy	-10.0312
▁hellas	-10.0312
99	-10.0316
▁spillet	-10.0319
teri	-10.0319
▁linjen	-10.0323
nom	-10.0324
▁oversettelse	-10.0331
▁blei	-10.0332
▁utvikle	-10.0333
▁forbundet	-10.0337
▁enkle	-10.0341
spenning	-10.0351
fond	-10.0362
▁handler	-10.0372
▁artikkel	-10.0373
▁fyrst	-10.0392
▁utvalg	-10.0395
▁nam	-10.0398
gger	-10.04
utstilling	-10.0403
▁versjonen	-10.0403
shi	-10.0412
brun	-10.0415
11	-10.0416
▁tema	-10.0427
avtale	-10.0428
strekning	-10.0439
à	-10.0441
▁prinsipp	-10.0442
▁regissert	-10.0442
▁allierte	-10.0442
▁fysisk	-10.0442
▁utenlandsk	-10.0443
stasjonen	-10.0444
▁kampene	-10.0444
▁elektron	-10.0444
▁planlagt	-10.0445
▁utstyr	-10.0446
▁gjeld	-10.0447
blomst	-10.0447
▁rør	-10.0449
▁hek	-10.0455
skyting	-10.0457
▁grø	-10.046
ordning	-10.0466
▁fabrikk	-10.0467
byrå	-10.0478
▁nedre	-10.048
▁spiss	-10.048
gått	-10.048
▁æ	-10.0482
▁kommando	-10.0484
42	-10.0485
back	-10.0487
▁advokat	-10.0489
▁stig	-10.0498
▁paven	-10.05
▁driver	-10.0505
▁rein	-10.051
▁od	-10.0513
▁mik	-10.0515
▁utføre	-10.0519
▁former	-10.0519
▁øyer	-10.0532
▁synes	-10.0534
bånd	-10.0544
deler	-10.0551
▁ann	-10.0554
wan	-10.0563
▁dato	-10.0569
▁thi	-10.0571
▁hind	-10.0574
▁dj	-10.0575
stykke	-10.0578
▁edward	-10.0582
▁således	-10.0582
▁identifiser	-10.0582
▁alvorlig	-10.0582
▁smith	-10.0582
▁nærmere	-10.0583
▁kropps	-10.0584
▁video	-10.0585
▁fløy	-10.0586
▁vendt	-10.0587
ova	-10.0593
▁innlede	-10.0597
▁øvrige	-10.0597
▁bosetning	-10.0599
▁bombe	-10.0599
▁storm	-10.06
staten	-10.0616
▁bestod	-10.062
▁forholdsv	-10.0622
▁yu	-10.0622
▁krysse	-10.0634
matisk	-10.065
akademi	-10.0656
▁vedtatt	-10.0659
▁arbeide	-10.066
▁ekte	-10.0676
svik	-10.0682
stall	-10.0687
▁økte	-10.0689
prosjekt	-10.0689
forbindelse	-10.069
▁vii	-10.069
front	-10.0691
▁penger	-10.0698
pass	-10.0701
▁erstatte	-10.0702
▁debut	-10.0705
musik	-10.0707
▁møter	-10.0712
▁cd	-10.0713
▁gjeste	-10.0714
steder	-10.0718
▁brenn	-10.0719
▁stol	-10.0723
▁himmel	-10.0725
▁nominert	-10.0725
▁belgia	-10.0725
▁redusert	-10.0725
▁begrenset	-10.0725
▁eksistert	-10.0726
▁south	-10.0726
▁litterær	-10.0726
▁befinne	-10.0726
▁erklært	-10.0731
▁moren	-10.0738
vang	-10.0739
▁gangen	-10.0745
▁tilhøre	-10.0749
▁multi	-10.0751
▁ansvar	-10.0752
▁skudd	-10.0755
▁hon	-10.076
ön	-10.0777
▁korn	-10.0778
bygger	-10.0778
88	-10.0781
▁mini	-10.0781
▁landskapet	-10.0792
▁dømt	-10.0804
komite	-10.0813
▁skriver	-10.0813
▁benyttes	-10.0815
▁latinsk	-10.0818
▁tang	-10.0819
▁besøkt	-10.0821
forbundet	-10.0832
▁makten	-10.0838
▁utfor	-10.0843
▁stam	-10.0843
▁sammenligne	-10.0847
fre	-10.0853
▁planet	-10.0863
23	-10.0864
lingen	-10.0867
▁tell	-10.0868
▁frivillig	-10.087
▁ødelagt	-10.0871
▁vokser	-10.0874
skipet	-10.0874
▁primær	-10.0875
▁hentet	-10.0878
▁bibel	-10.0878
▁hitler	-10.088
snitt	-10.0881
▁salme	-10.0881
▁sar	-10.0886
▁danse	-10.0895
▁nyere	-10.0908
bak	-10.0912
▁kapp	-10.0918
fylt	-10.0923
▁opptil	-10.0926
▁samfunnet	-10.0937
▁hou	-10.0947
ruten	-10.0949
▁representant	-10.0952
bedrift	-10.0957
▁butikk	-10.0973
▁wei	-10.0976
▁mobil	-10.0976
▁tanke	-10.0977
klassen	-10.0983
▁struktur	-10.0987
angrep	-10.0987
vinger	-10.0993
forhold	-10.1015
ón	-10.1017
▁jakob	-10.1017
▁positiv	-10.1017
▁bodø	-10.1017
gende	-10.1018
▁deriblant	-10.1018
jon	-10.1019
▁1923	-10.1019
fik	-10.102
▁handel	-10.1021
▁oppmerksomhet	-10.1022
▁tørr	-10.1023
▁wien	-10.1025
bebyggelse	-10.1026
▁avtale	-10.1027
▁33	-10.1028
▁stå	-10.1029
▁vokalist	-10.1032
▁stillingen	-10.1033
▁skjær	-10.1051
▁singel	-10.1058
▁søkt	-10.1065
▁lam	-10.1075
firma	-10.1076
områdene	-10.1079
▁henholdsv	-10.1084
▁hindre	-10.1087
▁tilfelle	-10.1093
regn	-10.1099
▁tø	-10.1105
▁stilte	-10.1109
▁tha	-10.112
▁lønn	-10.113
▁alf	-10.1131
▁frihet	-10.1131
▁ama	-10.1132
kjønn	-10.1138
▁normal	-10.114
▁forsvaret	-10.1142
▁song	-10.1147
bøker	-10.1147
▁kj	-10.1158
▁buk	-10.1163
illa	-10.1164
▁1906	-10.1166
▁østerriksk	-10.1166
▁akershus	-10.1166
▁county	-10.1166
▁bidro	-10.1167
▁hjerne	-10.1167
▁1914	-10.1167
▁beholdt	-10.1168
▁blomster	-10.1169
lyst	-10.1169
▁modellen	-10.1169
▁kurs	-10.117
▁daniel	-10.1172
trukket	-10.1173
▁160	-10.1177
▁arkitektur	-10.1177
▁agder	-10.1186
▁tau	-10.1192
▁likhet	-10.1195
▁normalt	-10.1198
▁kha	-10.1207
▁systemet	-10.1207
▁antatt	-10.1208
▁banen	-10.121
▁overført	-10.121
▁tromsø	-10.1226
▁kanal	-10.123
bygget	-10.1238
rommet	-10.1243
▁samfunn	-10.1247
▁kai	-10.1247
▁typen	-10.1247
▁32	-10.1254
▁unn	-10.1259
▁fan	-10.1261
▁prosjektet	-10.1262
▁foss	-10.1263
▁utsatt	-10.1276
høyskole	-10.1277
▁mynt	-10.1285
▁tradisjonel	-10.1286
dorf	-10.1286
skudd	-10.1291
produkt	-10.1291
figur	-10.1291
vekst	-10.1293
mont	-10.1295
nummer	-10.1301
▁vokal	-10.1303
onia	-10.1307
▁keiseren	-10.1311
▁sten	-10.1312
bank	-10.1317
▁forekommer	-10.1318
▁joseph	-10.1318
▁generelt	-10.1318
▁alkohol	-10.1318
▁geografisk	-10.1318
▁gustav	-10.1318
kompleks	-10.1318
▁tegneserie	-10.1319
▁generasjon	-10.1319
sykkel	-10.1319
▁1913	-10.1319
▁1919	-10.132
▁diplomat	-10.1321
▁blue	-10.1321
▁grunnlegger	-10.1322
▁dommer	-10.1324
▁behov	-10.1329
▁bygda	-10.133
▁maleri	-10.133
▁avholdt	-10.1332
versjon	-10.1341
▁morgen	-10.1348
▁æres	-10.135
fabrikk	-10.1355
rev	-10.1356
▁bydel	-10.1358
▁peder	-10.1365
▁anton	-10.1379
▁papir	-10.1389
strid	-10.1389
▁marg	-10.1396
komedie	-10.1398
▁penge	-10.1402
kall	-10.1409
▁kim	-10.1413
▁celle	-10.1418
▁tråd	-10.1423
▁regional	-10.1426
politikk	-10.1431
▁bou	-10.1431
▁oc	-10.1432
næring	-10.1433
▁800	-10.1442
produsent	-10.1447
utvikling	-10.1447
middel	-10.1451
▁fartøy	-10.1461
yang	-10.1465
▁friedrich	-10.1472
▁digital	-10.1472
▁arrangere	-10.1472
▁nektet	-10.1472
▁bryst	-10.1472
▁andreplass	-10.1473
▁levde	-10.1473
▁oblast	-10.1474
▁skiller	-10.1487
givelse	-10.1489
▁unngå	-10.1495
▁auto	-10.1498
eppe	-10.1499
soldat	-10.15
▁tilbud	-10.1519
østregionen	-10.152
planter	-10.1528
▁frø	-10.1537
▁sun	-10.1552
mba	-10.1555
gelse	-10.1562
▁iran	-10.1564
foreningen	-10.1565
▁forskere	-10.1571
▁arve	-10.1575
▁funn	-10.1583
▁slott	-10.1586
▁jente	-10.1591
▁bærer	-10.1593
▁statlig	-10.1604
▁laste	-10.1604
▁intern	-10.1612
▁myk	-10.1617
tallet	-10.1621
myndighet	-10.1625
▁arrestert	-10.1628
▁pakistan	-10.1628
▁kombinert	-10.1628
▁objekt	-10.1628
▁krevde	-10.1628
▁innbyggertall	-10.1628
▁inneholdt	-10.1628
▁award	-10.1628
▁bokstav	-10.1628
▁definert	-10.1629
▁kveld	-10.1629
▁1921	-10.163
▁bekrefte	-10.1632
▁alfred	-10.1633
▁cru	-10.1634
▁varierer	-10.1636
kysten	-10.1636
13	-10.1636
▁føde	-10.1637
▁hersker	-10.1638
▁kapell	-10.1639
▁sikkerhets	-10.1642
▁vinne	-10.1645
▁kanalen	-10.1648
▁festning	-10.1652
▁uttale	-10.1657
▁vakt	-10.1671
▁underlagt	-10.1674
jord	-10.1675
distanse	-10.1678
vision	-10.1685
makt	-10.1687
▁camp	-10.1688
▁75	-10.1688
▁bredde	-10.1695
▁sho	-10.1701
▁niels	-10.1702
▁gruve	-10.1703
ity	-10.1712
holmen	-10.1713
▁jobber	-10.1716
▁kjell	-10.1722
▁ære	-10.1723
▁wan	-10.1726
▁fritt	-10.1734
filosof	-10.1735
gal	-10.1743
møll	-10.1747
▁hamar	-10.1752
▁utstyrt	-10.1752
▁sørge	-10.1752
22	-10.1753
▁sku	-10.1769
hild	-10.177
▁bakken	-10.1776
▁sunn	-10.1782
▁1909	-10.1787
▁sportsutøver	-10.1787
▁service	-10.1787
▁avdøde	-10.1787
▁ingeniør	-10.1787
▁anerkjent	-10.1787
▁cirka	-10.1787
▁grønland	-10.1787
▁län	-10.1787
▁fungert	-10.1787
▁fjernsyn	-10.1787
▁hustru	-10.179
▁anna	-10.1791
▁saint	-10.1792
▁vers	-10.1797
pur	-10.1798
▁angrepet	-10.1806
▁brødrene	-10.1807
▁gold	-10.1815
pho	-10.1817
▁nasjonalpark	-10.1818
▁tvang	-10.182
▁gradvis	-10.1823
▁betale	-10.1825
▁mottatt	-10.1827
▁bånd	-10.183
28	-10.1831
bygningen	-10.1835
▁nettverk	-10.1838
▁edderkopp	-10.1853
▁landslaget	-10.1854
hov	-10.1855
36	-10.1863
▁utøver	-10.1868
▁mol	-10.1879
tysk	-10.1879
▁harry	-10.1886
▁rund	-10.1887
▁ark	-10.1894
▁platen	-10.1898
liste	-10.1903
▁grunnlag	-10.1905
▁tj	-10.1913
▁kommunist	-10.1913
▁båten	-10.1926
▁oppnå	-10.1927
▁kristian	-10.1944
▁eventyr	-10.1948
▁halvparten	-10.1948
▁regissør	-10.1948
▁negativ	-10.1948
▁hendelsen	-10.1948
▁utseende	-10.1948
▁1929	-10.1949
▁signal	-10.1949
radikal	-10.195
▁1931	-10.195
▁etterfølger	-10.195
▁1926	-10.195
▁portrett	-10.1955
▁organisasjoner	-10.1964
▁dokumenter	-10.1965
agon	-10.1965
▁albert	-10.1965
ois	-10.1965
▁tredjeplass	-10.1966
eringen	-10.1968
▁team	-10.1971
▁grov	-10.1972
▁kjemi	-10.1983
fjell	-10.199
▁myr	-10.1995
▁run	-10.2007
havn	-10.2012
▁vitne	-10.2017
▁maur	-10.2018
▁populært	-10.2018
pul	-10.2021
listen	-10.2022
▁demokratisk	-10.2027
▁salg	-10.2029
ordnet	-10.2034
publi	-10.2036
▁prosessen	-10.2044
vold	-10.2048
▁kraftige	-10.2051
▁hotell	-10.2058
▁forholdet	-10.2058
▁evne	-10.2068
▁lyn	-10.2069
kampen	-10.2081
▁ligne	-10.2105
▁press	-10.2107
▁1903	-10.2112
▁aleksander	-10.2112
▁eksemplar	-10.2112
▁registrert	-10.2112
▁washington	-10.2112
▁kjærlighet	-10.2112
▁kritikk	-10.2112
▁golf	-10.2112
▁terror	-10.2113
▁republikk	-10.2114
▁1905	-10.2114
▁1910	-10.2116
faktor	-10.2116
▁high	-10.212
▁arkeologisk	-10.2128
▁gitarist	-10.2136
▁kloster	-10.2142
▁tradisjonell	-10.2143
▁polar	-10.2146
▁orient	-10.2149
uch	-10.2151
▁kino	-10.2152
▁sørover	-10.2152
ifisert	-10.2158
▁reaksjon	-10.2168
17	-10.2188
park	-10.2196
▁modern	-10.2197
øvelse	-10.2197
▁34	-10.22
▁beat	-10.2227
▁steve	-10.2241
▁sjøen	-10.2242
▁ull	-10.2242
masse	-10.2249
mesterskapet	-10.2258
▁landskap	-10.2268
forskning	-10.2269
▁ferge	-10.2269
tjenesten	-10.2279
▁initiativ	-10.2279
▁juridisk	-10.2279
▁terreng	-10.2279
▁frykt	-10.2279
▁faktisk	-10.2279
▁riktig	-10.228
▁godkjent	-10.228
▁skaffe	-10.2281
▁malm	-10.2283
▁ødelegge	-10.2285
bakken	-10.2289
makten	-10.229
▁show	-10.2292
▁søke	-10.2294
▁anlegg	-10.2296
▁forvingen	-10.2297
▁enorm	-10.23
▁wall	-10.2302
▁tyskerne	-10.2305
▁molde	-10.2314
parken	-10.2316
▁arrangement	-10.2317
▁nm	-10.2326
▁vekk	-10.2337
▁gruppa	-10.2351
kasse	-10.2352
▁long	-10.2356
▁may	-10.2357
83	-10.237
▁spar	-10.238
dikt	-10.2382
runde	-10.2387
iel	-10.2395
▁hill	-10.2396
forestilling	-10.2412
▁ytter	-10.2422
kreis	-10.2434
forsterke	-10.2434
museum	-10.244
▁alexander	-10.2448
konferanse	-10.2448
▁arthur	-10.2448
▁doktorgrad	-10.2449
▁sverd	-10.2451
▁1915	-10.2451
▁fjellene	-10.2452
▁skiftet	-10.2453
▁whi	-10.2454
▁lokalisert	-10.2454
post	-10.2456
▁drikke	-10.2456
▁fru	-10.2463
kredit	-10.2463
hode	-10.2466
speil	-10.2466
▁syke	-10.2471
▁1880	-10.2473
▁maler	-10.248
▁vekst	-10.248
▁samtlige	-10.249
▁begynne	-10.2504
▁unna	-10.2504
▁master	-10.2506
▁foregå	-10.2508
▁foreningen	-10.2518
▁svar	-10.2518
▁mesterskapet	-10.2519
▁brand	-10.252
▁hydro	-10.2522
formasjon	-10.2538
▁paus	-10.2539
forsyning	-10.2543
▁beskrev	-10.2554
▁graf	-10.2555
▁stål	-10.257
▁mangler	-10.2585
▁kå	-10.2585
▁gall	-10.2586
klær	-10.2595
▁700	-10.2598
▁prosess	-10.2601
▁fante	-10.262
▁eksperiment	-10.262
▁guvernør	-10.262
▁antagelig	-10.2621
▁kongedømmet	-10.2621
▁avgjørende	-10.2621
▁studere	-10.2621
▁belgisk	-10.2621
▁1927	-10.2623
▁svekke	-10.2623
▁dvs	-10.2625
▁planen	-10.2625
kompani	-10.2626
psykologi	-10.2629
hørt	-10.2633
▁motstander	-10.2635
▁utgjorde	-10.2636
basert	-10.2637
▁pensjon	-10.264
▁metro	-10.2641
▁olsen	-10.2644
▁sankt	-10.2654
▁elver	-10.2655
stoffer	-10.2664
▁ansett	-10.2668
▁drap	-10.2671
▁språket	-10.2673
▁tunnel	-10.2675
▁internasjonalt	-10.2693
vakt	-10.2701
▁kode	-10.2701
▁parker	-10.2711
▁institut	-10.2714
▁kandidat	-10.2715
▁avtalen	-10.2718
▁katolsk	-10.2719
▁bj	-10.2733
årene	-10.2755
▁teknikk	-10.2757
▁munk	-10.2757
▁fns	-10.2759
▁skuespill	-10.2762
▁bio	-10.2763
▁musikalsk	-10.2767
▁ferd	-10.2779
▁pel	-10.279
etten	-10.2791
▁1907	-10.2796
▁kvalifisering	-10.2796
▁situasjonen	-10.2796
▁kombinasjon	-10.2796
▁mytologi	-10.2796
ressurs	-10.2796
▁oppfatte	-10.2796
▁utmerkelse	-10.2796
assistent	-10.2797
▁manager	-10.2797
▁generell	-10.2798
▁1904	-10.2798
▁fredrikstad	-10.2802
kontor	-10.2804
▁nederlag	-10.2808
▁ind	-10.2811
ington	-10.2813
kongress	-10.283
▁rug	-10.2836
▁cand	-10.2842
▁hov	-10.2847
bekk	-10.285
▁skaper	-10.2851
kommende	-10.2854
▁bydelen	-10.2857
klasse	-10.2866
▁analyse	-10.2867
▁42	-10.2868
▁handle	-10.2876
sats	-10.2881
▁koll	-10.2886
▁sko	-10.2887
▁dobbelt	-10.2911
▁kryss	-10.2911
▁jag	-10.2917
syre	-10.2924
herre	-10.2924
azi	-10.2925
sosialistisk	-10.2928
▁ulik	-10.293
81	-10.2931
slått	-10.2936
▁cra	-10.2954
▁fv	-10.2954
løft	-10.2957
gua	-10.297
▁amsterdam	-10.2975
▁rogaland	-10.2975
▁referere	-10.2975
▁redusere	-10.2975
▁sistnevnte	-10.2975
▁håkon	-10.2976
▁oppløst	-10.2976
▁skøyte	-10.2977
▁1911	-10.2977
kjent	-10.2977
▁1916	-10.2977
▁michel	-10.2978
▁angripe	-10.2978
▁tvunge	-10.2979
miljø	-10.2979
▁beslutte	-10.298
▁120	-10.2981
▁kristiania	-10.2982
▁eksport	-10.2983
▁programmer	-10.2985
brød	-10.2985
måte	-10.2986
▁pap	-10.2988
▁human	-10.2998
▁jack	-10.3002
dyktig	-10.3005
▁vill	-10.3015
▁starter	-10.3022
▁kok	-10.3026
drakt	-10.303
▁statue	-10.303
▁forsker	-10.3035
▁idrettslag	-10.3035
▁troll	-10.3036
trådte	-10.3038
▁ønske	-10.3041
skij	-10.3044
▁mary	-10.3051
▁nazi	-10.3059
▁bilder	-10.3062
sending	-10.3064
▁vanligst	-10.3066
▁ork	-10.3095
jå	-10.3096
typen	-10.3104
▁klokken	-10.3109
▁tå	-10.3112
▁levende	-10.3124
▁kvart	-10.3138
▁representanter	-10.3147
▁avvist	-10.3149
▁vietnam	-10.3156
traktaten	-10.3156
▁ludvig	-10.3156
▁permanent	-10.3156
▁edvard	-10.3156
▁fenomen	-10.3156
▁rådgive	-10.3157
modell	-10.3157
▁antikken	-10.3157
▁1925	-10.3159
roman	-10.316
▁jernbanen	-10.316
▁hensyn	-10.3162
▁byggingen	-10.3167
▁roll	-10.317
ulykke	-10.3171
▁håndverk	-10.3176
▁vente	-10.318
▁sea	-10.3192
▁tilpasse	-10.3198
preg	-10.32
▁oppsto	-10.3201
wiki	-10.3203
rock	-10.321
partner	-10.3213
▁just	-10.3217
▁wor	-10.3217
▁medvirke	-10.3219
bred	-10.3223
▁fotballklubb	-10.3224
▁irak	-10.323
iva	-10.3231
▁flytte	-10.3238
▁løfte	-10.3238
▁snu	-10.3246
▁anse	-10.325
▁hammer	-10.3265
slutt	-10.3266
▁finale	-10.3269
▁ønsker	-10.3274
▁begrep	-10.3275
▁uttrykke	-10.3283
tunnelen	-10.3283
▁frakte	-10.3302
▁sikker	-10.331
▁600	-10.3312
▁redde	-10.3329
▁bakke	-10.3332
▁beseiret	-10.3342
▁münchen	-10.3342
▁artilleri	-10.3342
▁fiolin	-10.3342
▁josef	-10.3342
▁anledning	-10.3342
▁detaljer	-10.3342
▁håndball	-10.3343
▁arbeiderpartiet	-10.3344
relatert	-10.3345
▁medisinsk	-10.3345
▁wilson	-10.3346
▁villa	-10.3346
▁medaljer	-10.3348
▁konservative	-10.3349
konkurranse	-10.3349
▁sveitsisk	-10.3349
▁saga	-10.3352
▁prix	-10.3354
▁drei	-10.3357
▁aksje	-10.3359
▁1890	-10.336
▁etappe	-10.3362
▁white	-10.3372
bad	-10.3377
▁mikro	-10.3377
▁marx	-10.3378
▁seire	-10.338
▁halvdel	-10.3384
lend	-10.3389
▁esp	-10.3398
▁selge	-10.3399
▁simon	-10.34
▁fotograf	-10.3403
flekk	-10.3418
▁jim	-10.342
▁verdenscupen	-10.3422
▁forlate	-10.3433
▁strøk	-10.344
▁tank	-10.3451
▁lake	-10.3452
familie	-10.3456
▁egyptisk	-10.3457
▁pil	-10.3463
▁hannen	-10.3465
teater	-10.3476
▁delstat	-10.3492
lé	-10.35
▁luc	-10.3506
▁fødsel	-10.353
▁astronom	-10.353
▁barcelona	-10.353
▁hovedkvarter	-10.353
▁prøvd	-10.353
▁færøyene	-10.353
▁rektor	-10.3531
▁blanding	-10.3531
▁firmaet	-10.3532
▁tømmer	-10.3532
▁myndigheter	-10.3533
▁beskyttelse	-10.3534
▁jackson	-10.3535
▁tegninger	-10.3535
▁flekker	-10.3538
direktør	-10.3542
▁fremført	-10.3545
▁tun	-10.3546
▁festningen	-10.3548
▁vannkraftverk	-10.3548
▁verdensmester	-10.3548
▁inge	-10.3555
head	-10.3555
▁tilsvare	-10.3556
kjøretøy	-10.3561
▁beregne	-10.357
▁tann	-10.357
karriere	-10.3578
lement	-10.3582
▁umiddelbart	-10.3589
▁verb	-10.359
▁andel	-10.3594
▁zu	-10.36
▁meta	-10.3601
▁roger	-10.3602
▁rulle	-10.3604
ssing	-10.3617
akademiet	-10.3619
fjellet	-10.362
vald	-10.3636
yan	-10.3637
▁mannskap	-10.3639
forsamlingen	-10.3642
▁angel	-10.3656
▁sco	-10.366
79	-10.3667
▁rep	-10.3668
▁nevne	-10.367
▁boka	-10.3698
▁landslag	-10.3699
kjør	-10.3707
▁nova	-10.3708
▁gli	-10.3708
▁vg	-10.3713
▁1300	-10.3717
▁utvikler	-10.3717
▁jam	-10.372
▁bull	-10.3722
▁involvert	-10.3722
▁milliarder	-10.3722
budsjett	-10.3722
▁administrere	-10.3723
▁konsept	-10.3723
▁vilhelm	-10.3723
▁etterkommer	-10.3723
▁kritisert	-10.3723
▁nedbør	-10.3723
▁utnytte	-10.3723
komité	-10.3724
▁anklage	-10.3724
▁forklare	-10.3725
▁telemark	-10.3725
▁utgivelsen	-10.3726
▁endringer	-10.3727
▁vingesp	-10.3727
▁250	-10.3729
▁dverg	-10.3729
▁meldt	-10.373
▁tjener	-10.373
▁tropper	-10.3734
datert	-10.3737
historisk	-10.3738
▁beslutning	-10.3744
▁tynn	-10.3744
▁uavhengighet	-10.3746
▁dyrke	-10.3749
▁billed	-10.3751
bukta	-10.376
▁santa	-10.3768
▁eik	-10.3783
▁nordover	-10.3787
▁konstruksjon	-10.3789
uv	-10.3789
▁irske	-10.3795
▁krim	-10.3796
▁mønster	-10.3799
▁slottet	-10.3806
▁utenriks	-10.3814
▁bakkroppen	-10.3817
▁grunnlaget	-10.382
▁kvit	-10.3824
årig	-10.3849
▁hellig	-10.3857
start	-10.386
▁filip	-10.3872
▁bære	-10.3881
▁måten	-10.3887
ison	-10.3911
▁europe	-10.3913
stemm	-10.3915
▁katedral	-10.3919
▁ortodoks	-10.3919
▁restaurant	-10.3919
▁chicago	-10.3919
▁etablere	-10.3919
ström	-10.3919
▁kristiansand	-10.3919
▁stafett	-10.3919
▁fortellingen	-10.3919
▁monument	-10.3919
▁nikola	-10.3919
▁forbedre	-10.3919
terminal	-10.3919
▁sjette	-10.3919
▁inngår	-10.3919
▁anvende	-10.3919
▁myndighetene	-10.392
▁nedenfor	-10.392
▁slank	-10.392
▁1922	-10.3921
▁romsdal	-10.3921
▁debatt	-10.3921
▁erfaring	-10.3924
ariske	-10.3927
▁tolke	-10.3929
▁gjennombrudd	-10.3935
▁1100	-10.3936
hånd	-10.3938
▁1895	-10.3939
▁kammer	-10.3944
jö	-10.3947
▁johnson	-10.3947
▁tvers	-10.3954
trykket	-10.3962
▁kaller	-10.3971
▁kulturell	-10.3976
▁rester	-10.3998
fartøy	-10.4
dannelse	-10.4005
▁american	-10.4005
▁bratt	-10.4006
▁mangle	-10.4007
▁betegnelse	-10.4011
ppel	-10.4011
grensen	-10.4064
▁ross	-10.4072
harmoni	-10.4087
▁cre	-10.4088
enhver	-10.4098
▁bell	-10.4103
▁helsingfors	-10.4119
▁middelsstor	-10.4119
▁prøyssisk	-10.4119
▁hendelser	-10.4119
frekvens	-10.4119
▁innbyggerne	-10.4119
▁tillatelse	-10.4119
▁uvanlig	-10.4119
▁jørgen	-10.4119
▁debutalbum	-10.4119
▁definere	-10.4121
▁rammet	-10.4124
▁strekningen	-10.4125
▁gyld	-10.4126
skrevet	-10.4131
▁middelalder	-10.4137
▁økende	-10.4137
▁kommunestyre	-10.414
▁drepe	-10.4145
født	-10.4145
velle	-10.4146
administrasjon	-10.4149
wald	-10.416
▁oberst	-10.416
▁adam	-10.4164
▁music	-10.417
aria	-10.4174
sikkerhet	-10.4176
▁kara	-10.4177
fyr	-10.4179
▁ennå	-10.4185
fjellene	-10.4193
▁klosteret	-10.4201
▁ansvaret	-10.4212
tekst	-10.4222
▁tabellen	-10.4247
▁opprettelse	-10.425
▁prakt	-10.4257
▁hvilken	-10.4258
▁mesterskap	-10.4267
▁fjern	-10.427
▁revet	-10.4271
▁europeisk	-10.428
perioden	-10.4285
▁wu	-10.4292
stjerne	-10.4303
▁foto	-10.4321
sammenslåing	-10.4323
▁elisabeth	-10.4323
▁individuell	-10.4323
▁jerusalem	-10.4323
▁napoleon	-10.4323
▁okkupasjon	-10.4323
▁innebærer	-10.4323
▁preussen	-10.4323
▁dollar	-10.4323
▁sachsen	-10.4323
plattform	-10.4323
▁egenskaper	-10.4323
▁bøkene	-10.4323
▁foreta	-10.4323
▁studioalbum	-10.4324
▁flytende	-10.4325
▁konsern	-10.4325
▁foreslått	-10.4325
▁sverre	-10.4326
▁lært	-10.4326
▁avledet	-10.4326
▁opplevd	-10.4328
▁arkiv	-10.433
▁victoria	-10.434
▁with	-10.4344
▁1848	-10.4346
▁sammenlagt	-10.4346
regjering	-10.435
sønn	-10.4351
konsert	-10.4351
▁knap	-10.4352
▁wil	-10.4356
▁sovjet	-10.437
▁utbygging	-10.4376
▁river	-10.4377
▁ytterst	-10.4381
dommer	-10.439
løsning	-10.4415
▁prim	-10.4434
▁kraftverket	-10.4441
▁kari	-10.4449
ische	-10.445
▁vegg	-10.4475
ahl	-10.4487
ical	-10.4504
personell	-10.4517
▁internett	-10.452
▁aksjon	-10.4521
næs	-10.4529
▁melk	-10.453
▁matematikk	-10.4531
▁science	-10.4531
▁eventuel	-10.4531
▁nøyaktig	-10.4531
▁returnert	-10.4531
▁prefekt	-10.4531
▁texas	-10.4531
▁global	-10.4531
▁mektig	-10.4531
▁drammen	-10.4531
▁kobber	-10.4531
▁valuta	-10.4531
▁reklame	-10.4531
▁midlertidig	-10.4534
▁britene	-10.4534
▁skygge	-10.4534
▁piano	-10.4541
▁tilfeldig	-10.4541
▁feire	-10.4541
▁høyesterett	-10.4542
▁barndom	-10.4543
▁straks	-10.4543
▁tronen	-10.4544
▁øde	-10.4546
▁1899	-10.455
▁bau	-10.455
▁1898	-10.4552
▁oppstod	-10.4558
▁lunge	-10.4561
studie	-10.4565
▁budd	-10.4567
kjøring	-10.4584
▁parlamentet	-10.4596
lignende	-10.4603
▁gaten	-10.461
▁utøve	-10.4613
▁israelsk	-10.4613
▁stang	-10.4621
hei	-10.4631
forsker	-10.4642
▁helst	-10.465
▁rand	-10.4657
water	-10.4668
▁ørn	-10.4669
▁troms	-10.4674
vev	-10.4693
▁kjemisk	-10.4716
▁fargen	-10.4723
wich	-10.473
▁overleve	-10.473
▁1200	-10.4744
▁1901	-10.4744
▁angelsaksisk	-10.4744
▁tyrkia	-10.4744
▁ukraina	-10.4744
▁vesentlig	-10.4744
▁fjær	-10.4744
▁søndag	-10.4744
▁tilsammen	-10.4744
▁utgravning	-10.4744
▁parallel	-10.4746
▁ledelsen	-10.4746
▁sjanger	-10.4747
▁moderat	-10.4747
на	-10.4747
▁gravlagt	-10.4748
▁betalt	-10.475
▁town	-10.475
virke	-10.4754
▁emne	-10.4756
▁rival	-10.4757
▁street	-10.4757
▁ibsen	-10.476
▁1897	-10.4763
▁pala	-10.4767
▁kåret	-10.477
▁inneha	-10.4777
▁christiania	-10.4777
▁østover	-10.4783
▁petter	-10.4784
blå	-10.4794
▁chu	-10.4794
▁fortalt	-10.4796
▁vende	-10.4799
▁neu	-10.481
▁gjennomgå	-10.4816
▁histori	-10.4816
utenriksminister	-10.4816
▁hul	-10.4842
melding	-10.4843
periode	-10.4852
▁brutt	-10.4853
▁parlament	-10.4889
▁utkom	-10.4902
▁gjennomsnitt	-10.4904
▁mannlig	-10.4907
teori	-10.4917
▁skall	-10.4918
▁øverst	-10.4927
▁størst	-10.4928
▁vinge	-10.4938
▁900	-10.4947
zel	-10.4949
utgivelse	-10.4957
▁komponert	-10.4961
▁spesifik	-10.4961
▁testamente	-10.4961
▁innlemme	-10.4961
▁adolf	-10.4961
▁hjørne	-10.4961
▁forsvant	-10.4961
▁semifinale	-10.4961
▁rolf	-10.4962
▁separat	-10.4962
▁tilskuer	-10.4962
▁jesus	-10.4963
▁sekunder	-10.4963
▁forståelse	-10.4966
▁gullmedalje	-10.4967
▁britis	-10.4971
▁kommunistisk	-10.4973
▁fastlandet	-10.4974
▁41	-10.4978
▁anlagt	-10.4979
▁opptrådte	-10.4981
▁ungdomsskole	-10.4986
▁demningen	-10.499
▁estland	-10.5002
▁lettere	-10.5006
▁voksen	-10.5052
▁utgaven	-10.5054
▁låten	-10.5084
handler	-10.5085
personlighet	-10.511
▁patri	-10.514
▁sara	-10.5145
▁gjennomføre	-10.5147
▁nød	-10.5149
▁antenne	-10.5152
effekt	-10.5163
▁tykk	-10.5168
ittisk	-10.5177
▁konkurrert	-10.5183
▁mesteparten	-10.5183
▁portugisisk	-10.5183
▁påbegynt	-10.5183
▁svalbard	-10.5183
▁dominerende	-10.5183
▁australsk	-10.5183
▁nemlig	-10.5183
pedagog	-10.5184
▁tilhengere	-10.5184
▁dominert	-10.5184
▁frigjøring	-10.5186
▁fuktig	-10.5186
▁operere	-10.5189
▁bayern	-10.5192
▁onkel	-10.5193
innspilling	-10.5193
▁mandat	-10.5195
▁walter	-10.5211
struktur	-10.5229
temperatur	-10.523
▁coll	-10.5233
cul	-10.524
▁karakteristisk	-10.5242
▁smak	-10.5247
light	-10.5255
▁høst	-10.5278
▁beina	-10.5283
▁ordre	-10.5285
phy	-10.5316
▁etnisk	-10.5317
lyd	-10.533
tind	-10.5333
▁130	-10.5334
▁tenke	-10.5339
formede	-10.5359
brev	-10.5369
▁øvrig	-10.5386
wick	-10.5399
▁flest	-10.5401
gjorde	-10.5406
▁afghanistan	-10.5411
▁bulgaria	-10.5411
▁definisjon	-10.5411
▁elizabeth	-10.5411
▁heidelberg	-10.5411
▁okkupert	-10.5411
▁påvirkning	-10.5411
▁kommandør	-10.5411
▁embets	-10.5411
▁yngste	-10.5411
▁sigurd	-10.5411
▁yrkes	-10.5411
▁nøytr	-10.5411
materiell	-10.5412
▁adresse	-10.5412
▁utløp	-10.5412
▁kriminal	-10.5412
▁skarp	-10.5414
▁borgerkrigen	-10.5414
▁oldtid	-10.5416
▁igjennom	-10.5416
▁tilsyne	-10.542
▁metoden	-10.5422
▁skyte	-10.5423
▁armé	-10.5426
▁opplevelse	-10.5436
▁dukket	-10.5439
▁derfra	-10.5445
▁sikte	-10.5446
▁musikal	-10.5458
friidrettsutøver	-10.5461
teknikk	-10.5462
materiale	-10.5462
8	-10.5473
▁vingene	-10.5477
galleri	-10.5478
▁road	-10.548
▁mul	-10.5484
▁kirkelig	-10.5484
▁game	-10.5507
▁hull	-10.5509
▁palass	-10.552
▁gress	-10.5522
▁kortere	-10.5524
politisk	-10.5529
▁respekt	-10.5535
lengde	-10.5564
verden	-10.557
seil	-10.5608
▁bestemme	-10.5624
▁fulgt	-10.5625
▁forhindre	-10.5643
▁portugal	-10.5643
▁skjønt	-10.5643
▁skulptur	-10.5643
▁admiral	-10.5643
▁naturgass	-10.5643
▁tyrkisk	-10.5643
▁evangeli	-10.5643
▁antarktis	-10.5643
▁steg	-10.5643
▁hebraisk	-10.5643
▁skihopp	-10.5643
▁castle	-10.5643
▁kommersiell	-10.5643
▁mekanisk	-10.5643
▁lyktes	-10.5643
▁geologisk	-10.5644
▁sprint	-10.5644
▁automatisk	-10.5644
▁bakvingen	-10.5644
▁beordre	-10.5644
▁wolf	-10.5645
▁gregor	-10.5645
▁sentralbank	-10.5646
▁kronologi	-10.565
bury	-10.5655
▁meteor	-10.5659
▁vitenskaps	-10.566
botn	-10.5661
▁hå	-10.5663
▁homo	-10.5665
▁1870	-10.5665
betaling	-10.5674
finalen	-10.5675
▁antennene	-10.5679
▁sideelv	-10.5682
▁lista	-10.5683
▁persisk	-10.5688
posisjon	-10.5691
▁queen	-10.5696
kreft	-10.5697
▁mono	-10.5706
▁hotel	-10.5734
▁praktisk	-10.5734
strup	-10.5767
bord	-10.5781
▁lukke	-10.5789
verg	-10.5806
pha	-10.5816
bestemmelse	-10.5822
▁angi	-10.5823
ique	-10.5837
bass	-10.585
▁idrett	-10.5862
▁ambassadør	-10.5881
▁bryllup	-10.5881
▁gymnas	-10.5881
▁liverpool	-10.5881
▁millimeter	-10.5881
▁strategisk	-10.5881
▁hordaland	-10.5881
▁gunnar	-10.5881
▁konvensjon	-10.5881
▁lørdag	-10.5881
▁selvmord	-10.5881
▁utbredelse	-10.5882
▁brenselkilde	-10.5882
▁soldatene	-10.5882
▁sydney	-10.5883
▁mineral	-10.5883
▁arendal	-10.5883
▁finnmark	-10.5885
▁kongeriket	-10.5886
▁forbudt	-10.5891
▁skutt	-10.5896
▁regler	-10.5897
▁lykke	-10.5901
▁1860	-10.5909
▁nerve	-10.5924
▁lord	-10.5925
▁web	-10.5947
problem	-10.5952
horn	-10.5957
▁territor	-10.5966
▁beskrivelse	-10.5996
▁wild	-10.5998
levende	-10.6024
▁synge	-10.6041
vassdraget	-10.6058
▁urban	-10.6071
laten	-10.6093
flate	-10.61
▁intens	-10.6113
dratt	-10.6119
▁innspilt	-10.6125
▁observasjon	-10.6125
▁sarpsborg	-10.6125
▁engasjert	-10.6125
▁resultert	-10.6125
▁utelukke	-10.6125
▁diverse	-10.6125
▁risiko	-10.6125
▁uansett	-10.6125
▁ansikt	-10.6125
▁skjøt	-10.6126
▁oppstår	-10.6126
▁patriark	-10.6126
▁rednings	-10.6127
▁næringsliv	-10.6128
▁jurist	-10.6129
▁opptrer	-10.6129
▁domstol	-10.6129
▁import	-10.6129
▁akademisk	-10.6129
▁forberede	-10.613
14	-10.613
ière	-10.6131
sekund	-10.6133
▁east	-10.6133
▁komposisjon	-10.6134
▁skrå	-10.6137
▁scott	-10.6138
▁innspillingen	-10.6138
▁allianse	-10.614
kampanje	-10.6141
▁sjakk	-10.6143
▁statsråd	-10.6146
▁1889	-10.6148
▁hamburg	-10.615
fred	-10.615
▁romerne	-10.6152
▁lærd	-10.6153
▁life	-10.6161
otten	-10.6162
▁furu	-10.6165
▁etterpå	-10.617
▁møre	-10.6173
▁1850	-10.6178
▁elektro	-10.6183
▁romania	-10.6184
økonomi	-10.6191
utdanning	-10.6195
kanalen	-10.6197
▁barneskole	-10.6202
kran	-10.621
▁etasje	-10.6227
▁georgia	-10.6229
gjeng	-10.6249
▁pund	-10.6264
▁klage	-10.6268
forvaltning	-10.627
▁synlig	-10.6284
▁lyng	-10.6287
egnet	-10.6294
vatn	-10.6353
▁asteroide	-10.6375
▁ferdinand	-10.6375
▁jomfru	-10.6375
▁kvalifisert	-10.6375
▁dirigent	-10.6375
▁oxford	-10.6375
▁referanse	-10.6375
▁heinrich	-10.6375
▁vestfold	-10.6375
▁regulert	-10.6375
▁utspring	-10.6375
▁sjeldne	-10.6375
▁telefon	-10.6375
▁sandefjord	-10.6375
▁slapp	-10.6375
▁betydd	-10.6376
▁protest	-10.6376
▁bønder	-10.6376
▁stengt	-10.6378
▁programleder	-10.6378
▁senator	-10.6379
▁formula	-10.6381
▁dagbladet	-10.6384
førsel	-10.6387
▁1879	-10.6391
▁sound	-10.6393
▁1888	-10.6397
▁ombord	-10.6401
bringe	-10.6402
▁kent	-10.6429
bød	-10.6432
▁spesialiser	-10.6434
museet	-10.6451
▁verksted	-10.6455
▁sparta	-10.646
▁oversette	-10.6464
mengde	-10.6468
behandling	-10.6473
▁audi	-10.6489
qi	-10.6491
▁teologisk	-10.6502
lønn	-10.6514
▁rådhus	-10.6577
▁senke	-10.6582
▁konstant	-10.6592
▁psyko	-10.6619
vitsj	-10.6626
▁infanteri	-10.6632
▁jesuitt	-10.6632
belteasteroide	-10.6632
løytnant	-10.6632
pningsseremonien	-10.6632
▁antwerpen	-10.6632
▁argumenter	-10.6632
▁intervju	-10.6632
▁konkurrere	-10.6632
▁vedlikehold	-10.6632
▁windows	-10.6632
▁buskerud	-10.6632
▁ferskvann	-10.6632
▁tønsberg	-10.6632
▁xiàn	-10.6632
▁benedikt	-10.6632
▁opptreden	-10.6632
▁zealand	-10.6632
▁canadisk	-10.6632
▁fjellkjede	-10.6632
▁klatre	-10.6632
▁forårsake	-10.6632
▁fjordane	-10.6632
▁verdensrekord	-10.6633
▁poesi	-10.6634
▁prinsesse	-10.6634
▁fangst	-10.6636
▁smelte	-10.6636
▁foregikk	-10.6638
▁sykdommen	-10.6642
▁stalin	-10.6643
▁røtter	-10.6644
▁allmenn	-10.6646
▁170	-10.6647
▁idé	-10.6648
▁1883	-10.6651
▁1892	-10.6659
▁troppen	-10.666
▁1865	-10.6661
▁hylle	-10.6665
▁åndelig	-10.6666
avisen	-10.6728
demokrati	-10.6744
▁karbon	-10.6781
▁teologi	-10.6784
▁basis	-10.6805
▁klokke	-10.6809
▁stab	-10.682
▁falk	-10.6829
▁regjer	-10.6871
▁thu	-10.6894
symfoni	-10.6895
▁byprefekturet	-10.6895
▁embeds	-10.6895
▁luxembourg	-10.6895
▁etablering	-10.6895
▁flaggbærer	-10.6895
▁konstruert	-10.6895
▁hjort	-10.6895
▁ovenfor	-10.6895
▁nøkkel	-10.6895
▁henrettet	-10.6895
▁beleiring	-10.6895
▁fiktiv	-10.6895
▁hyppig	-10.6895
▁konverter	-10.6895
▁bærum	-10.6895
▁kjørte	-10.6895
▁kulturminne	-10.6896
▁betjene	-10.6896
▁kopier	-10.6896
▁kreert	-10.6899
kobling	-10.69
▁svein	-10.6901
▁klippe	-10.6905
▁bakterie	-10.6905
▁orgel	-10.6906
▁humor	-10.6907
▁holdning	-10.6909
▁forrige	-10.691
▁justis	-10.6911
▁brent	-10.6912
stigning	-10.6914
▁grim	-10.6915
▁arena	-10.6915
▁begrunne	-10.6919
▁grund	-10.6922
▁1400	-10.6922
▁talent	-10.6924
▁gudinne	-10.6927
▁lady	-10.6931
▁bassist	-10.6936
▁vennskap	-10.6938
recht	-10.6939
▁great	-10.6948
▁oks	-10.6954
▁francis	-10.6957
▁wales	-10.6958
teknologi	-10.6966
▁omhandle	-10.6967
kalender	-10.6981
oksid	-10.6982
medisin	-10.6984
▁håp	-10.6997
appara	-10.7
▁hytte	-10.7014
kontroll	-10.7039
▁ulv	-10.7086
▁brødre	-10.713
▁usikker	-10.7156
▁færøysk	-10.7165
▁kollektiv	-10.7165
▁konstitusjon	-10.7165
▁manuskript	-10.7165
▁muslimsk	-10.7165
▁skandinavia	-10.7165
▁company	-10.7165
▁istedenfor	-10.7165
▁angivelig	-10.7165
kompetanse	-10.7165
▁barnehage	-10.7165
▁uklar	-10.7166
▁innviet	-10.7166
▁bbc	-10.7167
▁føderal	-10.7167
▁einar	-10.7167
▁nyhets	-10.7168
terapi	-10.7169
▁tjue	-10.7171
▁kongsberg	-10.7173
▁kunngjor	-10.7173
▁donau	-10.7176
utvalget	-10.7182
finansiert	-10.7182
▁bedriften	-10.7185
▁1872	-10.719
▁för	-10.7192
▁smerte	-10.7193
▁rykte	-10.7193
▁koble	-10.7193
▁tsje	-10.7195
malerier	-10.7209
cour	-10.7229
worth	-10.7238
29	-10.7242
nettopp	-10.7243
0	-10.7245
▁kristin	-10.7252
▁arkeologi	-10.7258
radio	-10.7269
▁pont	-10.7273
butikk	-10.7274
▁forvaltnings	-10.7283
▁protestantisk	-10.729
▁døgn	-10.7296
▁million	-10.731
▁sjel	-10.7333
konsul	-10.7339
brua	-10.7363
▁opprette	-10.7374
▁hjemmebane	-10.7402
▁1902	-10.7443
▁fakultet	-10.7443
▁filippinene	-10.7443
▁konsekvens	-10.7443
▁popularitet	-10.7443
▁society	-10.7443
▁væpne	-10.7443
kommanderende	-10.7443
▁cambridge	-10.7443
▁manchester	-10.7443
▁alfabet	-10.7443
komponent	-10.7443
▁midtøsten	-10.7443
▁veksel	-10.7443
▁tilbrakt	-10.7443
mouth	-10.7443
▁brigade	-10.7443
▁autonom	-10.7444
▁varierende	-10.7444
▁elleve	-10.7444
▁massiv	-10.7444
aceae	-10.7446
▁utgivelser	-10.7446
▁bedrifter	-10.7448
▁hovedkontor	-10.745
▁ørken	-10.7451
▁antonio	-10.7451
turbin	-10.7455
tredende	-10.7455
▁egil	-10.7456
▁utvidelse	-10.7456
▁franz	-10.7456
▁forbruker	-10.7457
▁vandre	-10.7457
▁manuel	-10.7464
▁1896	-10.747
▁oval	-10.748
▁invest	-10.7499
revolusjonen	-10.7511
▁panser	-10.7516
▁satse	-10.7526
funksjon	-10.7548
bølge	-10.7551
programmet	-10.7552
▁cuba	-10.7573
støtte	-10.7594
relasjon	-10.7602
kjerne	-10.7603
torget	-10.7615
▁tyde	-10.7625
▁departement	-10.7626
▁tiår	-10.7647
▁reserve	-10.7657
▁svømmer	-10.7688
vennlig	-10.7692
▁skjold	-10.7694
▁nobel	-10.7718
vulkan	-10.7727
krem	-10.7728
▁bachelor	-10.7729
▁hollywood	-10.7729
▁lillehammer	-10.7729
▁maksimal	-10.7729
▁restaurer	-10.7729
▁dialekten	-10.7729
▁kommandant	-10.7729
▁atmosfære	-10.7729
▁diskusjon	-10.7729
▁katolikk	-10.7729
▁nevø	-10.7729
▁virkning	-10.7729
▁church	-10.7729
▁diameter	-10.7729
▁bøndene	-10.7729
▁amatør	-10.7729
▁ordinær	-10.7729
▁vegetasjon	-10.7729
▁haakon	-10.7729
teatret	-10.7729
▁dvd	-10.7729
▁innvalgt	-10.7729
▁rettferdig	-10.773
katalog	-10.773
▁forgjenger	-10.7731
ко	-10.7731
▁generalsekretær	-10.7731
▁leilighet	-10.7732
▁tropisk	-10.7733
▁røyk	-10.7733
▁ideologi	-10.7734
▁2018	-10.7738
▁biografi	-10.7741
▁young	-10.7747
▁1881	-10.7748
▁slippe	-10.775
▁nederst	-10.7753
▁brå	-10.7755
sfære	-10.7757
bevisst	-10.7759
svømme	-10.7769
▁konstantin	-10.7774
▁ektemann	-10.7789
▁variert	-10.7818
tittel	-10.7846
▁utvide	-10.785
tropp	-10.7862
reformen	-10.7873
▁luthersk	-10.7898
rekord	-10.7902
areal	-10.7932
▁vindu	-10.7951
▁stortings	-10.7964
stamme	-10.7995
▁vannkraft	-10.8007
gripe	-10.801
konservativ	-10.8011
veps	-10.8017
▁ambassade	-10.8023
▁favoritt	-10.8023
▁jordskjelv	-10.8023
▁koalisjon	-10.8023
▁kronprins	-10.8023
▁omdøpt	-10.8023
▁sluppet	-10.8023
▁trommeslager	-10.8023
▁vurdering	-10.8023
▁billboard	-10.8023
▁country	-10.8023
▁taylor	-10.8023
▁oppfatning	-10.8023
▁unesco	-10.8023
▁thailand	-10.8023
▁betydningsfull	-10.8023
▁senior	-10.8023
▁presentert	-10.8023
▁erstatning	-10.8023
▁undertegnet	-10.8024
▁seinere	-10.8024
▁datamaskin	-10.8025
▁turbiner	-10.8025
▁väst	-10.8025
▁streik	-10.8025
▁francisco	-10.8026
▁forlatt	-10.8027
▁forfølgelse	-10.8027
▁nkp	-10.8027
▁brown	-10.8027
▁menigheten	-10.8028
bridge	-10.8028
▁stedsnavn	-10.803
▁hørte	-10.8031
▁takket	-10.8032
▁medførte	-10.8032
▁larvik	-10.8033
▁regimet	-10.8034
▁stripe	-10.8036
▁1814	-10.8037
▁kunstløp	-10.8042
▁forandre	-10.8042
▁brygg	-10.8043
▁trygg	-10.8045
▁ddr	-10.8048
▁amfi	-10.8054
▁jernbanestasjon	-10.8061
▁landområde	-10.8063
▁tretten	-10.8069
tribun	-10.8076
▁nevro	-10.8076
▁agent	-10.8091
yuan	-10.8104
stell	-10.814
forskjell	-10.8145
design	-10.8148
utstyr	-10.8186
▁domkirke	-10.8204
▁fortelle	-10.8234
▁innerst	-10.825
▁inneba	-10.828
▁victor	-10.8299
▁lincoln	-10.8326
▁aftenposten	-10.8326
▁alminnelig	-10.8326
▁argentina	-10.8326
▁championship	-10.8326
▁göteborg	-10.8326
▁individuelt	-10.8326
▁jugoslavia	-10.8326
▁konstantinopel	-10.8326
▁låtskriver	-10.8326
▁shanghai	-10.8326
▁virginia	-10.8326
▁øyeblikk	-10.8326
▁regulere	-10.8326
▁sektor	-10.8326
▁andré	-10.8326
▁flyktning	-10.8326
▁biologisk	-10.8326
▁dødsfall	-10.8327
▁beskjed	-10.8327
▁naturreservat	-10.8327
▁forklaring	-10.8327
▁titler	-10.8328
▁territorium	-10.8328
▁central	-10.8329
▁tallrike	-10.833
▁samuel	-10.833
▁tillatt	-10.833
▁inndelt	-10.833
▁bjerk	-10.8331
▁styremedlem	-10.8331
▁laveste	-10.8331
▁clark	-10.8333
gjald	-10.8334
▁holstein	-10.8335
▁valley	-10.8338
▁spreng	-10.8339
▁misjons	-10.8343
▁rifle	-10.8343
▁demokrat	-10.8345
▁bryn	-10.8357
nevnte	-10.8359
▁skjell	-10.8374
▁folkeparti	-10.84
aften	-10.8409
▁gjennomsnittlig	-10.8419
▁dramatisk	-10.8431
litteratur	-10.8458
▁kostnad	-10.8548
▁avslutte	-10.8601
▁kirk	-10.8614
alliansen	-10.862
▁inspirasjon	-10.8638
▁absolutt	-10.8638
▁corporation	-10.8638
▁fiendtlig	-10.8638
▁hongkong	-10.8638
▁leipzig	-10.8638
▁rekrutt	-10.8638
▁offensiv	-10.8638
▁stråling	-10.8638
▁campbell	-10.8638
▁redaksjon	-10.8638
▁stridsvogn	-10.8638
▁philipp	-10.8638
▁annonsert	-10.8638
▁forfremme	-10.8638
▁tvilling	-10.8638
veksling	-10.8638
▁misjonær	-10.8638
▁ålesund	-10.8639
▁stadium	-10.8639
▁efter	-10.8639
▁utslipp	-10.8639
▁osmansk	-10.864
▁innvandre	-10.864
▁abbed	-10.864
▁søndr	-10.8641
▁grevskapet	-10.8641
▁disney	-10.8641
kirurg	-10.8642
økonom	-10.8642
▁horten	-10.8646
krisen	-10.8646
▁befal	-10.8651
▁utstillingen	-10.8654
▁søyle	-10.8665
▁fjerdeplass	-10.8676
▁stanse	-10.869
▁undervist	-10.8698
kirch	-10.8717
gjerning	-10.8717
▁skinne	-10.8721
offiser	-10.878
aktivitet	-10.878
sentrum	-10.8781
kloster	-10.8781
hvit	-10.88
▁treffe	-10.8816
▁protestant	-10.8817
▁hevn	-10.8864
prest	-10.8875
▁drivstoff	-10.8961
▁helikopter	-10.8961
▁skandinavisk	-10.8961
▁oksygen	-10.8961
▁symptom	-10.8961
▁tilstrekkelig	-10.8961
▁jersey	-10.8961
▁sparebank	-10.8961
▁vellykke	-10.8961
▁lagkonkurransen	-10.8961
▁utstrakt	-10.8961
▁ntnu	-10.8961
bransjen	-10.8961
▁margaret	-10.8961
▁utpekt	-10.8961
▁skåne	-10.8961
▁seoul	-10.8961
▁verdensarv	-10.8961
▁henrettelse	-10.8961
▁stadiet	-10.8961
jalp	-10.8962
▁sibir	-10.8962
▁erobring	-10.8962
▁kjennetegne	-10.8962
▁bryggeri	-10.8962
▁stillehavet	-10.8963
▁syklist	-10.8963
▁squa	-10.8963
▁sannhet	-10.8964
hausen	-10.8966
▁familiegruppen	-10.8966
▁hardanger	-10.8967
betingelse	-10.8967
▁hydrogen	-10.8968
▁spillefilm	-10.8969
▁programvare	-10.8969
▁mystisk	-10.897
▁frp	-10.8973
▁ragn	-10.8978
representant	-10.8988
rhein	-10.9004
kansler	-10.9009
▁oppleve	-10.901
▁stortingsvalg	-10.9012
kontrakt	-10.9101
kandidat	-10.9113
divisjon	-10.9114
sentral	-10.9116
dømt	-10.9118
falt	-10.9144
▁verdenscup	-10.915
▁minutt	-10.9157
bourg	-10.9174
bestand	-10.9233
litær	-10.9252
▁folketall	-10.9272
direktoratet	-10.9294
▁dekkvingene	-10.9294
▁frankfurt	-10.9294
▁interessant	-10.9294
▁kapittel	-10.9294
▁palestinsk	-10.9294
▁ukrainsk	-10.9294
▁columbia	-10.9294
▁invadert	-10.9294
▁skroget	-10.9294
▁vurdert	-10.9294
▁skjult	-10.9294
▁geometr	-10.9294
▁charlotte	-10.9294
▁landskamper	-10.9294
▁stuart	-10.9294
▁prince	-10.9294
▁beslektet	-10.9294
▁theodor	-10.9294
▁kontrast	-10.9294
▁russerne	-10.9294
▁ungarsk	-10.9294
▁skjebne	-10.9295
▁seksuell	-10.9295
syndrom	-10.9295
forsikring	-10.9295
▁kjernekraftverk	-10.9296
▁josé	-10.9296
▁pastor	-10.9296
▁gratis	-10.9296
▁middelhavet	-10.9296
▁tørke	-10.9297
seminar	-10.9297
▁fantasi	-10.9297
▁power	-10.9297
mekanisme	-10.9298
▁korpset	-10.9298
▁uniform	-10.9301
▁fossile	-10.9301
▁tsar	-10.9302
▁spurt	-10.9304
▁øvelsen	-10.9307
▁patent	-10.9313
gjerd	-10.9314
▁karakterisert	-10.9316
▁tjent	-10.9318
▁smitte	-10.9323
▁alex	-10.9328
hovedstad	-10.933
▁formidle	-10.9332
▁beholde	-10.9333
bukten	-10.9409
▁skuespillerinne	-10.9455
strøk	-10.9458
bestemt	-10.9458
utvikle	-10.9459
operasjon	-10.9476
fabrik	-10.9493
▁unnta	-10.9496
▁ammunisjon	-10.9639
▁assosiert	-10.9639
▁etiopia	-10.9639
▁football	-10.9639
▁forøvrig	-10.9639
▁mccartney	-10.9639
▁overraskende	-10.9639
▁progressiv	-10.9639
▁skribent	-10.9639
▁slalåm	-10.9639
▁styrmann	-10.9639
▁særskilt	-10.9639
▁tsjekkia	-10.9639
▁begrensning	-10.9639
▁propaganda	-10.9639
▁anmelder	-10.9639
▁bystatus	-10.9639
▁østfold	-10.9639
▁florida	-10.9639
▁forfatning	-10.9639
▁rosenborg	-10.9639
▁nynorsk	-10.9639
▁heavy	-10.9639
brønn	-10.9639
▁eksistens	-10.9639
▁tempo	-10.9639
▁maritim	-10.9639
▁korrekt	-10.964
▁uenighet	-10.964
▁vakre	-10.964
▁opposisjon	-10.964
▁tendens	-10.964
reservat	-10.9641
▁døpt	-10.9641
▁dekorert	-10.9641
▁public	-10.9642
ев	-10.9642
▁gjenopprette	-10.9643
▁utforming	-10.9644
▁ivareta	-10.9644
artikkel	-10.9644
▁pierre	-10.9645
▁vinterleke	-10.9652
funnet	-10.966
fluer	-10.9682
residens	-10.9711
▁tjenestegjor	-10.9711
ettighetene	-10.9763
transport	-10.9815
grønn	-10.9815
hjelp	-10.9816
resultat	-10.9816
▁bakkropp	-10.9821
åpning	-10.9826
kurat	-10.9844
fogd	-10.994
tjern	-10.9961
▁academy	-10.9996
▁allikevel	-10.9996
▁atlanterhavet	-10.9996
▁indonesia	-10.9996
▁konsentrert	-10.9996
▁kristendommen	-10.9996
▁musikkvideo	-10.9996
▁psykisk	-10.9996
▁vancouver	-10.9996
▁gerilja	-10.9996
▁minoritet	-10.9996
▁anvendt	-10.9996
▁avslørt	-10.9996
▁statistikk	-10.9996
▁taiwan	-10.9996
▁latvia	-10.9996
▁forvandling	-10.9996
▁senterpartiet	-10.9996
▁barnebarn	-10.9996
▁forenklet	-10.9996
▁grekerne	-10.9996
▁puppestadi	-10.9996
▁fremtidig	-10.9997
▁ulovlig	-10.9997
▁contest	-10.9997
▁originaltittel	-10.9997
▁giovan	-10.9997
▁trengte	-10.9997
▁søsken	-10.9997
▁kallenavn	-10.9997
betjent	-10.9998
traksjon	-10.9998
trilogi	-10.9999
▁fienden	-11
▁omdanne	-11
▁oppfølger	-11
▁økning	-11.0001
konsulent	-11.0001
▁spyd	-11.0004
▁pirat	-11.0009
▁fraksjon	-11.0017
▁særeg	-11.0019
monopol	-11.0021
plikasjon	-11.0052
mynt	-11.0088
palasset	-11.0099
brenning	-11.011
kledt	-11.0114
bragt	-11.0116
▁forfatte	-11.013
bibliotek	-11.0186
redaktør	-11.0186
befolkning	-11.0186
biskop	-11.0187
fylke	-11.0187
brann	-11.0192
gruve	-11.02
drive	-11.0206
▁glede	-11.0353
▁doktor	-11.0366
▁douglas	-11.0366
▁laboratorie	-11.0366
▁mislykke	-11.0366
▁mountain	-11.0366
▁keramikk	-11.0366
▁tilflukt	-11.0366
▁gabriel	-11.0366
▁sympati	-11.0366
▁uttrykt	-11.0366
▁hockey	-11.0366
▁litauen	-11.0366
▁regulering	-11.0366
▁abraham	-11.0366
▁identitet	-11.0366
▁individer	-11.0366
▁hertugdømmet	-11.0367
▁egenskapene	-11.0367
▁referert	-11.0367
▁alexandr	-11.0367
▁deutsche	-11.0367
▁nepal	-11.0367
▁visepresident	-11.0367
▁monroe	-11.0367
▁senatet	-11.0368
▁sviger	-11.0369
▁western	-11.0371
gjøring	-11.0371
▁ulykken	-11.0372
▁down	-11.0374
mission	-11.0375
▁pumpe	-11.0378
▁satellitt	-11.0392
▁ekstern	-11.0399
granat	-11.0405
amerikanske	-11.0407
▁variasjon	-11.0411
kommunistpartiet	-11.0437
▁forbli	-11.0484
bevegelse	-11.0484
▁luther	-11.0528
drevne	-11.0533
spørsmål	-11.057
provins	-11.0571
orientert	-11.0666
investering	-11.0675
▁brensel	-11.0751
høvding	-11.0751
ров	-11.0751
▁ambulanse	-11.0751
▁aristokrat	-11.0751
▁arrangør	-11.0751
▁bataljon	-11.0751
▁bysantinsk	-11.0751
▁engasjement	-11.0751
▁illustrasjon	-11.0751
▁infrastruktur	-11.0751
▁kroatia	-11.0751
▁mangfold	-11.0751
▁metamorfose	-11.0751
▁frilufts	-11.0751
▁innendørs	-11.0751
▁stabæk	-11.0751
▁undergrunnsbane	-11.0751
▁opprettholde	-11.0751
▁utdødd	-11.0751
▁sogneprest	-11.0751
▁torpedo	-11.0751
▁operativsystem	-11.0751
▁aspekt	-11.0751
anmeldelse	-11.0751
▁krystall	-11.0751
▁haugesund	-11.0751
▁africa	-11.0751
▁langvarig	-11.0751
▁frimurer	-11.0751
▁horisont	-11.0751
▁stimul	-11.0751
▁kjæreste	-11.0751
▁utfordring	-11.0752
▁batteri	-11.0752
▁für	-11.0752
▁oppfordre	-11.0753
▁innflytelsesrik	-11.0754
▁reformasjonen	-11.0754
▁stryk	-11.0754
▁tønne	-11.0755
▁belønne	-11.0756
▁utløst	-11.076
skrekk	-11.0761
▁basil	-11.0762
▁atlanti	-11.0767
▁nobelpris	-11.0784
▁anslå	-11.0831
view	-11.0853
▁vassdrag	-11.0858
kurv	-11.086
▁utforme	-11.0873
▁skanse	-11.0884
tradisjon	-11.0969
politiker	-11.0971
interesse	-11.0971
lokale	-11.0976
muligheter	-11.0992
▁fylkesting	-11.1007
▁inneholde	-11.1036
▁twi	-11.1051
▁forhandle	-11.106
høn	-11.1126
representasjon	-11.1151
▁association	-11.1151
▁britannia	-11.1151
▁generalmajor	-11.1151
▁ludwig	-11.1151
▁mongolia	-11.1151
▁republikansk	-11.1151
▁reservoar	-11.1151
▁westfalen	-11.1151
demonstrasjon	-11.1151
▁adoptert	-11.1151
▁aktuelle	-11.1151
▁lokomotiv	-11.1151
▁pattedyr	-11.1151
▁resolusjon	-11.1151
▁shandong	-11.1151
▁wergeland	-11.1151
▁teoretisk	-11.1151
▁forbedring	-11.1151
▁slesvig	-11.1151
▁forbinder	-11.1151
▁forkropp	-11.1151
▁frogner	-11.1151
▁tsjekkisk	-11.1151
▁faktum	-11.1151
▁hiphop	-11.1151
▁sicilia	-11.1151
▁noensinne	-11.1151
▁autoritet	-11.1151
▁arsenal	-11.1151
▁stanley	-11.1151
▁bebodd	-11.1151
▁stemte	-11.1152
▁bjørk	-11.1152
▁normannisk	-11.1152
infeksjon	-11.1152
▁systematisk	-11.1152
▁speider	-11.1152
▁micro	-11.1152
▁vilkår	-11.1152
▁søvn	-11.1152
▁burgund	-11.1153
▁embete	-11.1153
▁betong	-11.1155
▁blomstre	-11.1158
▁fasade	-11.1159
▁koreansk	-11.1161
kollega	-11.1162
stipend	-11.1164
▁befan	-11.1172
▁forvalte	-11.1183
▁vokte	-11.119
▁haiti	-11.1233
▁dobbel	-11.1297
▁overføre	-11.1308
gruppa	-11.1386
historiker	-11.1387
frukt	-11.1387
papir	-11.1387
arkitekt	-11.1387
flagg	-11.1391
pokal	-11.1435
kvinne	-11.1436
psykiatri	-11.1568
▁basketball	-11.1568
▁folkeavstemning	-11.1568
▁hønefoss	-11.1568
▁keyboard	-11.1568
▁korrupsjon	-11.1568
▁massachusetts	-11.1568
▁mongolsk	-11.1568
▁vatikan	-11.1568
▁vladimir	-11.1568
▁overvåke	-11.1568
▁carolina	-11.1568
▁litauisk	-11.1568
▁besittelse	-11.1568
▁primitiv	-11.1568
▁schwarz	-11.1568
▁kristoffer	-11.1568
▁essay	-11.1568
▁kortvarig	-11.1568
▁baptist	-11.1568
▁hedmark	-11.1568
▁dresden	-11.1568
▁komplett	-11.1568
▁axel	-11.1568
borough	-11.1568
▁middle	-11.1568
▁redigert	-11.1568
▁stefan	-11.1569
▁geistlig	-11.1569
▁magnetisk	-11.1569
verdighet	-11.1569
▁samsvar	-11.1569
▁stemning	-11.157
▁bjarn	-11.157
▁avgjørelse	-11.1571
▁bløt	-11.1572
▁advent	-11.1573
▁sosialdemokrat	-11.1573
▁kanadisk	-11.1574
▁løyp	-11.1575
▁mannsnavn	-11.1581
▁genetisk	-11.1588
▁sjanse	-11.1588
▁indikere	-11.1591
▁renessanse	-11.1597
missil	-11.1632
kvartett	-11.1666
kapsel	-11.172
▁begynt	-11.1747
forstyrrelse	-11.1778
journalist	-11.1822
▁puppe	-11.1831
▁høg	-11.1904
instruktør	-11.2002
▁gjengjeld	-11.2002
▁kennedy	-11.2002
▁langrennsløper	-11.2002
▁mobiltelefon	-11.2002
▁intelligen	-11.2002
▁narkotika	-11.2002
▁selvbiografi	-11.2002
▁utlendinger	-11.2002
▁democra	-11.2003
▁adskilt	-11.2003
▁fyrstedømme	-11.2003
▁steinkjer	-11.2003
▁imperiet	-11.2003
▁observert	-11.2003
▁madrid	-11.2003
▁russell	-11.2003
▁konsesjon	-11.2003
leverandør	-11.2003
▁martyr	-11.2003
▁færre	-11.2003
▁begravelse	-11.2003
▁kreativ	-11.2003
▁arkitektonisk	-11.2003
▁verktøy	-11.2003
▁bjørg	-11.2003
▁myrdet	-11.2004
▁reichs	-11.2004
▁barokk	-11.2004
▁serbisk	-11.2005
▁smykke	-11.2005
▁vulkansk	-11.2006
bjelke	-11.2007
▁våpenhvile	-11.201
▁instrumental	-11.2011
metabol	-11.202
fragment	-11.2075
▁tabell	-11.2171
▁arkeolog	-11.2258
forsvarsminister	-11.2272
mønster	-11.2275
flyttet	-11.2278
sykdom	-11.2279
analyse	-11.2279
uhl	-11.2333
▁tobakk	-11.236
presse	-11.2366
▁dynasti	-11.239
nnføringen	-11.243
▁fundament	-11.2457
▁omstendighet	-11.2457
flokkurin	-11.2457
▁aleksandr	-11.2457
▁anbefalt	-11.2457
▁annerledes	-11.2457
▁broadway	-11.2457
▁bulgarsk	-11.2457
▁business	-11.2457
▁innstiftet	-11.2457
▁instruksjon	-11.2457
▁komplisert	-11.2457
▁kontinuerlig	-11.2457
▁kontroversiell	-11.2457
▁larvestadie	-11.2457
▁meksikansk	-11.2457
▁storslalåm	-11.2457
▁stuttgart	-11.2457
▁tanzania	-11.2457
▁tilnærming	-11.2457
▁uppsala	-11.2457
▁venezuela	-11.2457
▁årsjubileum	-11.2457
▁mandsju	-11.2457
▁1841	-11.2457
▁fujian	-11.2457
▁kavaleri	-11.2457
▁quisling	-11.2457
▁isotop	-11.2457
▁vurdere	-11.2457
▁søknad	-11.2457
▁flandern	-11.2457
▁rovdyr	-11.2457
▁fantasy	-11.2457
▁utsagn	-11.2457
▁guinea	-11.2457
▁prestisje	-11.2457
▁birolle	-11.2457
▁nelson	-11.2457
▁veksle	-11.2457
▁utsikt	-11.2458
