<unk>	0
<s>	0
</s>	0
.	-3.28157
▁i	-3.52323
e	-3.67448
s	-3.70022
▁og	-3.8633
▁	-4.10453
en	-4.24509
er	-4.26838
t	-4.26932
▁av	-4.3155
▁en	-4.50898
▁som	-4.52747
▁er	-4.5738
▁til	-4.64346
r	-4.66489
▁for	-4.71805
▁på	-4.75706
▁med	-4.9498
▁den	-4.95362
et	-4.96308
▁ble	-4.97735
n	-5.03135
▁det	-5.05513
▁var	-5.10242
▁de	-5.11736
▁han	-5.2729
▁å	-5.31753
▁fra	-5.34641
▁et	-5.46751
a	-5.53313
▁har	-5.53361
ene	-5.57132
▁at	-5.70937
ne	-5.87221
▁ved	-5.94341
i	-5.96442
k	-6.00257
▁etter	-6.0275
▁om	-6.04627
▁også	-6.05929
o	-6.08537
d	-6.1184
▁men	-6.16482
y	-6.1789
te	-6.1801
▁ut	-6.1938
▁under	-6.22692
▁seg	-6.28318
l	-6.307
m	-6.30762
re	-6.36112
▁hadde	-6.37131
▁over	-6.3729
▁ikke	-6.37388
▁opp	-6.41749
▁to	-6.42131
▁da	-6.43494
▁eller	-6.44456
de	-6.46468
g	-6.47798
▁kan	-6.4848
p	-6.50105
▁inn	-6.53467
f	-6.54811
▁sin	-6.59907
▁andre	-6.60412
▁mot	-6.60981
in	-6.6634
ing	-6.69677
▁s	-6.72481
▁dette	-6.74427
▁første	-6.74463
▁18	-6.75593
▁be	-6.75652
v	-6.75896
▁hun	-6.76401
h	-6.77093
es	-6.79188
c	-6.80467
▁1	-6.80593
▁a	-6.82016
▁ha	-6.8395
▁f	-6.84049
us	-6.84269
▁år	-6.85019
▁mellom	-6.8522
▁født	-6.86996
u	-6.8826
b	-6.88358
▁hans	-6.91092
an	-6.91191
on	-6.93346
al	-6.93974
▁tre	-6.94271
▁der	-6.97141
is	-6.97175
▁fikk	-6.99611
sk	-7.00217
ende	-7.00595
ter	-7.0246
▁kom	-7.0271
le	-7.03486
▁denne	-7.06252
▁hvor	-7.06463
▁flere	-7.07723
▁man	-7.08784
▁the	-7.08816
na	-7.10284
▁blant	-7.10409
▁sammen	-7.11483
▁m	-7.12249
▁nord	-7.12389
ia	-7.12483
ar	-7.13928
▁c	-7.14547
ri	-7.16192
la	-7.1953
▁2	-7.21391
kk	-7.22059
▁så	-7.23603
▁ligger	-7.24124
lig	-7.2467
z	-7.25747
▁før	-7.26096
ra	-7.29696
▁del	-7.30511
land	-7.31039
▁gjennom	-7.31339
▁mange	-7.31377
sen	-7.31383
nde	-7.31543
▁u	-7.31924
▁stor	-7.32348
▁17	-7.33687
▁la	-7.33798
▁tallet	-7.3394
▁3	-7.34232
▁død	-7.34575
▁mer	-7.34595
ur	-7.35292
ch	-7.35307
▁norsk	-7.35428
ke	-7.35751
▁kr	-7.36676
ere	-7.37013
▁senere	-7.37224
▁ca	-7.37676
▁se	-7.37719
▁re	-7.38056
▁alle	-7.38565
▁byen	-7.38652
▁disse	-7.39452
▁p	-7.4028
w	-7.40599
▁her	-7.41805
il	-7.41934
▁an	-7.41988
▁noen	-7.42131
▁selv	-7.42143
▁annet	-7.42566
▁siden	-7.42674
um	-7.43086
▁kommune	-7.43389
▁sitt	-7.43715
▁blir	-7.43811
ig	-7.44015
▁g	-7.44272
li	-7.44519
▁ny	-7.44589
x	-7.44962
▁kjent	-7.45052
iske	-7.45148
▁d	-7.45617
▁al	-7.46165
▁bo	-7.46461
▁tidligere	-7.46608
ske	-7.47006
or	-7.47515
▁sør	-7.48571
as	-7.48582
▁norge	-7.48771
▁være	-7.49155
be	-7.49462
el	-7.49809
▁of	-7.49975
▁5	-7.50091
▁k	-7.50255
▁vi	-7.50515
ta	-7.50913
ck	-7.50989
▁store	-7.5229
di	-7.52396
▁ol	-7.52992
ma	-7.53076
pp	-7.5389
isk	-7.54009
j	-7.54094
▁frem	-7.54168
ens	-7.5453
▁ga	-7.54861
vis	-7.5492
ning	-7.54991
▁land	-7.56017
▁4	-7.56155
nes	-7.56712
ner	-7.56747
for	-7.57237
▁vært	-7.57416
ut	-7.58009
▁b	-7.58121
▁samme	-7.5936
at	-7.59404
▁16	-7.59687
▁blitt	-7.59729
tt	-7.5996
▁grunn	-7.60216
▁sp	-7.60262
▁mens	-7.60376
me	-7.60534
▁vil	-7.60633
ve	-7.61841
os	-7.62091
lo	-7.6266
▁sine	-7.62904
øy	-7.63469
▁st	-7.63898
▁15	-7.63954
▁t	-7.64364
ng	-7.64619
ad	-7.64938
▁tid	-7.65346
ø	-7.66132
▁kunne	-7.6614
▁mest	-7.66311
▁rundt	-7.66841
▁gikk	-7.6744
▁sa	-7.67441
da	-7.67464
▁noe	-7.68001
▁h	-7.68131
▁dag	-7.68151
ry	-7.68692
é	-7.68991
erne	-7.69038
▁ra	-7.69097
it	-7.69146
▁le	-7.69256
▁ta	-7.6947
▁li	-7.69973
th	-7.70125
▁ned	-7.70672
▁vest	-7.70956
▁by	-7.71902
om	-7.72562
mer	-7.73163
der	-7.73252
▁vant	-7.73438
▁enn	-7.74119
ste	-7.74179
både	-7.74186
ert	-7.74364
▁6	-7.74476
ver	-7.74497
▁o	-7.74513
ff	-7.75744
ist	-7.75773
bo	-7.75784
den	-7.75931
▁km	-7.76163
id	-7.76601
▁navnet	-7.76607
▁bare	-7.77373
▁skulle	-7.77766
▁nå	-7.78182
▁ham	-7.7906
▁norske	-7.79199
▁øst	-7.79767
ka	-7.79983
▁gang	-7.80696
▁10	-7.8079
stad	-7.80926
mo	-7.81282
▁n	-7.81533
ker	-7.81573
ce	-7.81938
vi	-7.82221
ger	-7.82542
▁ro	-7.82554
son	-7.82678
▁skal	-7.82801
▁ofte	-7.82888
erte	-7.83193
ul	-7.83698
ell	-7.83847
▁navn	-7.83935
ton	-7.83941
▁lag	-7.83943
▁slik	-7.84606
▁in	-7.84817
▁hoved	-7.84973
▁ni	-7.85075
▁w	-7.85112
ga	-7.85236
▁du	-7.85422
mp	-7.86139
▁v	-7.86342
▁meter	-7.86879
▁l	-7.87007
ment	-7.87311
je	-7.87554
▁8	-7.87555
▁finnes	-7.87611
▁mars	-7.87715
▁ti	-7.87929
▁tilbake	-7.88051
▁august	-7.8821
▁fire	-7.88375
▁7	-7.88503
to	-7.88575
ge	-7.88828
▁ba	-7.88951
skap	-7.89205
▁bli	-7.89565
man	-7.89917
sa	-7.89998
▁fram	-7.90242
å	-7.90359
▁nye	-7.90493
▁si	-7.90495
het	-7.90516
kt	-7.90618
▁usa	-7.90743
▁kon	-7.90893
mann	-7.91485
▁hele	-7.91539
asjon	-7.91755
ro	-7.9223
bu	-7.92288
▁12	-7.9294
▁tok	-7.93342
lige	-7.93495
▁fri	-7.93798
▁ho	-7.94278
ol	-7.94345
co	-7.94476
dal	-7.94531
ic	-7.94551
▁juli	-7.94857
▁januar	-7.94907
▁når	-7.95021
▁he	-7.95272
▁co	-7.95372
▁000	-7.95674
▁kirke	-7.95677
▁14	-7.95723
▁kalt	-7.95828
▁mål	-7.95874
var	-7.95883
▁mai	-7.96161
▁na	-7.96371
▁siste	-7.96593
▁oslo	-7.96683
nd	-7.96768
tid	-7.96873
ha	-7.96913
▁få	-7.97092
ør	-7.97269
ler	-7.97438
▁lang	-7.97486
ja	-7.97587
▁per	-7.97866
▁går	-7.98023
mi	-7.98045
▁største	-7.98254
▁11	-7.98347
sjon	-7.98383
else	-7.98389
opp	-7.98473
▁far	-7.986
av	-7.99084
▁pro	-7.99294
▁lo	-7.99372
ven	-8.00279
▁pa	-8.00942
▁dem	-8.0108
▁13	-8.01666
op	-8.01922
by	-8.02151
gen	-8.03364
▁hos	-8.03382
ho	-8.03499
▁videre	-8.03986
un	-8.04166
▁20	-8.04746
▁bak	-8.04978
▁el	-8.05079
▁2008	-8.05114
si	-8.06505
▁di	-8.06767
▁mo	-8.07171
▁rekke	-8.07249
▁pi	-8.07565
ikk	-8.07603
va	-8.07858
ang	-8.07934
gang	-8.0832
▁landet	-8.0913
▁like	-8.09402
berg	-8.09425
▁gi	-8.09518
ok	-8.09688
▁juni	-8.09783
▁ar	-8.09931
rett	-8.09933
ster	-8.10264
▁bi	-8.10376
do	-8.10573
▁2010	-8.10633
men	-8.10776
ik	-8.1118
▁laget	-8.11252
ion	-8.11338
▁9	-8.11557
▁j	-8.11672
ko	-8.12013
▁skole	-8.12745
ant	-8.12861
▁bu	-8.13238
pe	-8.13257
▁deres	-8.13379
au	-8.13459
▁vann	-8.13505
▁samt	-8.1397
▁utgitt	-8.14013
ö	-8.14089
▁tv	-8.14277
▁april	-8.14342
▁mar	-8.14396
▁ei	-8.14695
▁begynte	-8.14709
▁deltok	-8.1482
▁fly	-8.14827
ti	-8.14833
ans	-8.14939
go	-8.15094
▁vanlig	-8.15121
▁igjen	-8.15202
▁rett	-8.15228
tter	-8.15602
▁alt	-8.15984
▁sk	-8.16201
▁kun	-8.16379
▁bar	-8.16407
▁2007	-8.16474
bi	-8.16641
ier	-8.16758
ba	-8.1684
▁området	-8.1693
▁plass	-8.17241
gg	-8.17453
▁oktober	-8.17547
ns	-8.18026
▁tillegg	-8.18105
▁årene	-8.18217
ag	-8.18531
▁ka	-8.1855
▁november	-8.18639
▁desember	-8.18859
od	-8.19031
▁no	-8.19195
▁først	-8.19419
▁spilte	-8.19546
▁mor	-8.19884
▁or	-8.19965
▁ri	-8.20019
▁fem	-8.20178
▁all	-8.20217
gi	-8.20381
▁september	-8.20411
▁film	-8.20775
▁nær	-8.2089
▁as	-8.21135
ll	-8.21204
ard	-8.2153
▁mindre	-8.21774
▁ru	-8.22179
▁su	-8.22331
▁lu	-8.22373
▁leder	-8.22826
▁0	-8.23081
ingen	-8.23828
▁tro	-8.24033
im	-8.24117
▁sønn	-8.24236
ft	-8.24382
sh	-8.24697
midlertid	-8.24749
▁olympisk	-8.24751
▁go	-8.24893
▁par	-8.249
▁døde	-8.24925
▁brukt	-8.25057
▁uten	-8.25191
▁ma	-8.25224
▁bruk	-8.25685
vik	-8.25866
▁and	-8.26005
▁so	-8.26355
ling	-8.26394
▁john	-8.2664
dag	-8.2668
▁do	-8.26744
æ	-8.26779
dd	-8.26836
▁gjorde	-8.2684
tur	-8.27002
ie	-8.27171
▁februar	-8.2735
▁barn	-8.27535
sta	-8.27702
▁hver	-8.27805
▁spiller	-8.27923
▁me	-8.2823
lu	-8.28309
sel	-8.28461
tal	-8.28585
▁2009	-8.28807
▁fa	-8.28872
▁opprinnelig	-8.29041
▁san	-8.29349
▁sol	-8.29748
ir	-8.29812
▁mye	-8.29812
▁beste	-8.30385
ed	-8.30398
▁mi	-8.30666
▁må	-8.3069
▁te	-8.30757
over	-8.30762
po	-8.30797
▁folke	-8.30849
▁hennes	-8.31187
gu	-8.31284
▁sommer	-8.31364
▁medlem	-8.31393
▁hu	-8.31446
▁kinesisk	-8.31507
ni	-8.317
ks	-8.31835
▁året	-8.31943
am	-8.32068
tak	-8.32163
▁ulike	-8.32983
▁kultur	-8.33041
▁små	-8.33338
no	-8.33532
▁gift	-8.3355
▁ju	-8.33558
▁musikk	-8.33583
min	-8.33768
▁helt	-8.33851
und	-8.33857
▁større	-8.34161
▁ville	-8.34406
▁gu	-8.34441
▁gamle	-8.34549
▁2006	-8.34556
les	-8.34739
stand	-8.34815
▁egen	-8.34853
ru	-8.34911
▁politisk	-8.34997
▁form	-8.35186
▁språk	-8.35372
▁y	-8.35537
▁ingen	-8.35696
▁består	-8.35858
▁new	-8.35966
ær	-8.36174
lin	-8.36243
▁brukes	-8.36421
inn	-8.36527
▁lov	-8.36849
▁kommer	-8.36899
á	-8.37141
▁jo	-8.37282
met	-8.37639
▁kort	-8.37797
ow	-8.37931
▁tiden	-8.38054
per	-8.38124
satt	-8.38136
år	-8.38575
ningen	-8.3862
▁europa	-8.38814
▁sam	-8.38842
▁innen	-8.39
▁filmen	-8.39027
▁am	-8.39034
▁30	-8.39035
mb	-8.39234
4	-8.39473
▁derfor	-8.39795
ov	-8.39826
▁mat	-8.39987
ca	-8.40212
▁begge	-8.40383
iv	-8.40488
▁ch	-8.40535
▁svært	-8.40653
▁em	-8.40913
▁sch	-8.40928
pa	-8.40938
▁forhold	-8.40954
▁eks	-8.40986
▁satt	-8.41333
▁r	-8.4147
▁tra	-8.41679
▁eksempel	-8.41698
ige	-8.41962
▁amerikanske	-8.42446
▁ganger	-8.42516
▁måtte	-8.42884
lag	-8.42909
▁lå	-8.43155
▁pe	-8.43372
dan	-8.43609
▁nasjonal	-8.44026
▁tyske	-8.44049
io	-8.44109
▁ko	-8.44127
▁lys	-8.44257
▁2005	-8.44283
▁2011	-8.44563
ings	-8.44654
inger	-8.44678
vo	-8.44805
verk	-8.44862
▁kunst	-8.4497
▁særlig	-8.45724
ken	-8.45815
▁bl	-8.45838
ä	-8.4599
stre	-8.46088
yl	-8.46628
len	-8.46695
▁x	-8.46788
vin	-8.46795
▁nest	-8.46833
▁hvert	-8.46899
elsen	-8.46933
ium	-8.46995
siden	-8.47034
▁gitt	-8.47099
sp	-8.47138
ty	-8.47168
▁engelsk	-8.47232
sti	-8.47421
▁25	-8.47485
▁parti	-8.47807
▁fi	-8.47881
ting	-8.47945
▁deretter	-8.48053
▁ty	-8.48099
▁norges	-8.48169
hi	-8.48185
ina	-8.48254
▁hus	-8.48638
rmed	-8.4865
▁grad	-8.48882
▁bygget	-8.49005
hold	-8.49084
▁president	-8.49149
▁startet	-8.49182
▁plan	-8.49413
▁skrevet	-8.4956
▁sverige	-8.49814
sted	-8.49951
▁gjen	-8.50076
▁sjø	-8.50159
stil	-8.50429
ord	-8.50573
ede	-8.50641
vel	-8.50645
▁etablert	-8.50718
▁london	-8.50718
▁sted	-8.50726
▁2004	-8.50729
▁bandet	-8.50903
▁høy	-8.50916
▁langs	-8.5097
▁ki	-8.51202
▁deler	-8.51239
▁innbyggere	-8.51325
hus	-8.51541
▁klubben	-8.51658
▁po	-8.51768
▁tor	-8.51784
▁skrev	-8.51827
▁bas	-8.51906
▁samtidig	-8.51936
ran	-8.52129
▁konge	-8.52166
elle	-8.52176
▁hi	-8.52176
ius	-8.52287
▁perioden	-8.52497
▁sett	-8.52629
3	-8.52662
and	-8.5285
ring	-8.52958
lse	-8.52989
▁annen	-8.53119
▁tatt	-8.53254
▁fast	-8.53309
▁tri	-8.53464
ian	-8.53747
▁arbeidet	-8.5375
følge	-8.53948
▁pu	-8.54138
▁kong	-8.54222
▁fotball	-8.54293
tre	-8.54449
▁tyskland	-8.54539
tu	-8.54547
▁halv	-8.54601
▁kommunen	-8.54853
▁vei	-8.55002
▁seks	-8.55238
▁tysk	-8.55288
stein	-8.55299
▁amerikansk	-8.55353
▁øya	-8.55527
ud	-8.56448
▁ord	-8.5654
▁sv	-8.56902
▁forskjellige	-8.56985
tra	-8.57051
ber	-8.57173
▁2000	-8.5728
▁russisk	-8.57293
▁bok	-8.57295
2	-8.57475
isme	-8.57882
▁gresk	-8.58077
itt	-8.58421
▁ad	-8.58452
▁fleste	-8.58502
▁england	-8.58592
▁lever	-8.58704
slag	-8.58934
▁ski	-8.59051
▁ak	-8.59525
jø	-8.59659
▁verdens	-8.59694
pi	-8.59731
▁ne	-8.5979
ku	-8.59814
▁bergen	-8.59843
▁stat	-8.60117
bruk	-8.60189
▁albumet	-8.60324
▁provinsen	-8.60349
▁flytte	-8.60435
▁min	-8.60467
▁nytt	-8.60668
ering	-8.60977
itet	-8.61096
ny	-8.61119
▁tredje	-8.61173
▁fo	-8.61268
▁kina	-8.61272
▁gir	-8.61782
tok	-8.61883
dre	-8.61905
▁wa	-8.62111
ak	-8.62234
▁kl	-8.62254
▁con	-8.62421
ld	-8.62593
▁2002	-8.62602
▁bra	-8.62633
▁liv	-8.6274
▁hen	-8.62857
▁ab	-8.6309
▁løpet	-8.63129
▁bil	-8.63316
ksjon	-8.63472
ci	-8.63717
he	-8.6385
ine	-8.64176
art	-8.64489
▁gull	-8.64891
dalen	-8.64944
▁nor	-8.6505
▁frankrike	-8.65357
▁2003	-8.65374
tiske	-8.65522
▁gruppen	-8.65542
▁antall	-8.6612
ret	-8.6614
▁støtte	-8.6626
▁gud	-8.66421
▁serien	-8.66485
▁fjell	-8.6655
▁rom	-8.6681
kel	-8.66871
tisk	-8.66951
▁side	-8.6698
▁mann	-8.67072
sten	-8.67196
tall	-8.67366
▁spilt	-8.6744
▁bro	-8.67587
tiden	-8.67604
▁familien	-8.67781
▁dr	-8.68068
mon	-8.68078
▁god	-8.68201
▁kjente	-8.68325
▁syn	-8.687
▁gammel	-8.6892
tan	-8.69001
▁bety	-8.69083
▁ge	-8.692
mar	-8.69614
▁slutten	-8.69623
ighet	-8.69716
▁viktig	-8.69827
▁je	-8.69882
▁lokal	-8.69966
▁slutt	-8.701
▁stedet	-8.70425
▁stort	-8.706
tten	-8.707
▁sto	-8.7074
fjorden	-8.70789
▁100	-8.71015
lot	-8.71056
í	-8.71121
▁person	-8.71132
ek	-8.71168
▁ja	-8.71171
▁moderne	-8.71209
▁art	-8.7127
▁general	-8.71497
ly	-8.71752
▁produksjon	-8.71875
▁kar	-8.71887
▁holdt	-8.71909
▁utenfor	-8.71959
red	-8.72073
▁kongen	-8.72241
ator	-8.72354
▁omkring	-8.72617
ot	-8.72884
▁innenfor	-8.73074
▁delstaten	-8.73109
▁fordi	-8.73342
▁car	-8.73478
bl	-8.73479
▁millioner	-8.73606
▁22	-8.73681
▁2001	-8.73763
▁sand	-8.7385
▁tar	-8.73989
▁au	-8.74432
ug	-8.74511
sse	-8.74671
▁ver	-8.74778
▁21	-8.74924
ham	-8.74943
ble	-8.74975
▁forfatter	-8.75191
▁eneste	-8.75445
▁krigen	-8.75456
▁liten	-8.75546
kan	-8.75946
▁ført	-8.76032
▁verdenskrig	-8.76102
nder	-8.7639
▁ste	-8.76495
laget	-8.76513
▁tidlig	-8.76553
▁va	-8.76566
ninger	-8.76569
▁natur	-8.76743
▁sesongen	-8.76821
▁stein	-8.76898
▁delen	-8.77133
løp	-8.77147
▁basert	-8.77166
▁motor	-8.77178
ill	-8.7726
▁roman	-8.77268
▁vise	-8.77536
▁spor	-8.77543
▁com	-8.77553
▁spesielt	-8.77637
▁britiske	-8.77717
▁familie	-8.77732
1	-8.77888
ys	-8.7797
isert	-8.77983
▁24	-8.78048
så	-8.78103
ou	-8.7813
▁godt	-8.78208
fe	-8.78216
fi	-8.78578
lå	-8.78581
▁sentral	-8.78696
▁regn	-8.78778
▁hatt	-8.78822
▁danmark	-8.78839
net	-8.78849
ley	-8.79041
tor	-8.79063
▁bort	-8.79257
▁bre	-8.79278
▁historie	-8.79335
▁pre	-8.79428
isering	-8.79458
▁selskapet	-8.79543
▁fred	-8.7955
▁1990	-8.79643
ide	-8.79716
▁verden	-8.79958
mål	-8.79979
▁os	-8.80094
▁står	-8.80415
▁foran	-8.80455
her	-8.80499
leg	-8.80704
kon	-8.80765
est	-8.8078
▁bru	-8.80804
▁militær	-8.80885
ron	-8.81099
▁fortsatt	-8.812
pol	-8.8127
▁mulig	-8.81293
▁mal	-8.81505
6	-8.81508
▁kirken	-8.81522
▁øy	-8.81603
dig	-8.81665
▁storbritannia	-8.81678
▁my	-8.81719
▁viser	-8.81753
▁vel	-8.82212
▁opprettet	-8.82292
▁radio	-8.82346
▁egne	-8.82419
ong	-8.82426
▁sendt	-8.8254
▁kalles	-8.82594
▁vm	-8.82595
▁elven	-8.8276
▁sangen	-8.8283
▁langt	-8.82858
par	-8.82881
jen	-8.83145
▁fylke	-8.83327
▁keiser	-8.83351
▁india	-8.83444
▁50	-8.83704
▁personer	-8.83715
▁vinter	-8.83854
far	-8.83898
uk	-8.84113
▁ros	-8.84155
form	-8.84188
heten	-8.8424
bb	-8.84247
bar	-8.84323
▁gjør	-8.84394
▁barne	-8.84498
▁spille	-8.84533
▁enkelte	-8.84581
▁inkludert	-8.84607
▁allerede	-8.84612
▁kur	-8.84811
ph	-8.85152
▁gjort	-8.85177
▁mag	-8.85403
▁grav	-8.8547
vet	-8.85657
stilling	-8.85904
▁fe	-8.85991
▁fått	-8.86059
▁fransk	-8.86087
▁arbeider	-8.86109
▁utviklet	-8.86157
▁kor	-8.86199
▁kn	-8.86244
mmer	-8.86285
▁luft	-8.86374
lik	-8.86716
mm	-8.86877
▁valg	-8.86958
▁gul	-8.87024
fly	-8.87061
▁direkte	-8.87188
▁fant	-8.87268
▁lite	-8.87298
hu	-8.87533
▁mennesker	-8.87807
iker	-8.87895
▁tur	-8.8797
▁datter	-8.87981
pro	-8.88066
▁fag	-8.8807
▁åtte	-8.88102
▁bor	-8.88214
▁midt	-8.88216
my	-8.88237
▁tap	-8.88265
▁rolle	-8.8839
▁berg	-8.88398
▁lange	-8.88527
ju	-8.88564
værende	-8.88565
▁får	-8.88592
▁menneske	-8.88647
▁nok	-8.8871
lser	-8.88786
mor	-8.8894
sj	-8.89021
▁19	-8.89027
tro	-8.89089
spiller	-8.8916
kning	-8.89267
▁høyre	-8.89336
▁regjeringen	-8.89463
▁best	-8.89492
▁gre	-8.89513
vær	-8.89544
▁jord	-8.89658
sch	-8.89694
▁kje	-8.89917
lei	-8.89963
▁forbindelse	-8.90058
stan	-8.90063
▁danne	-8.90097
syn	-8.90262
▁vo	-8.90288
som	-8.90469
▁mari	-8.90529
anske	-8.90538
▁partiet	-8.90638
▁svensk	-8.90714
▁skolen	-8.90729
▁betydning	-8.90737
▁universitetet	-8.90884
▁franske	-8.90923
▁makt	-8.9095
del	-8.91108
▁gjøre	-8.91196
og	-8.91379
▁ledet	-8.91427
jo	-8.9149
dom	-8.91599
▁serie	-8.91627
stående	-8.91643
▁utnevnt	-8.91643
▁gjerne	-8.91646
▁27	-8.91667
▁gruppe	-8.91671
▁ur	-8.9217
▁hva	-8.9231
tar	-8.92491
sson	-8.92609
lands	-8.92891
▁28	-8.92925
▁hel	-8.93322
ris	-8.93347
▁23	-8.93705
gl	-8.93775
▁italiensk	-8.93947
ó	-8.9395
▁th	-8.94372
▁band	-8.9458
▁slag	-8.94587
▁wi	-8.94596
▁mil	-8.94643
▁tettsted	-8.94675
▁hol	-8.94777
▁cha	-8.94869
▁1998	-8.94889
imot	-8.94946
▁aktiv	-8.94957
plass	-8.95067
▁paris	-8.95338
▁1996	-8.9536
▁1999	-8.95362
▁1960	-8.95363
tz	-8.95444
▁26	-8.95501
▁sang	-8.95555
dy	-8.95646
▁op	-8.95839
let	-8.95988
▁kvinne	-8.96073
ac	-8.96097
▁rød	-8.9612
▁sal	-8.96223
elig	-8.9623
▁sta	-8.96296
fall	-8.96302
bel	-8.96339
du	-8.9653
bok	-8.96555
ska	-8.96588
za	-8.96602
gel	-8.96602
▁ras	-8.96604
▁dikt	-8.96632
mel	-8.9665
tiv	-8.96705
▁folk	-8.96713
▁full	-8.96745
▁krigs	-8.96848
▁stil	-8.96857
ab	-8.97022
▁nett	-8.97044
▁kv	-8.97141
lsen	-8.97151
▁kamp	-8.97233
kul	-8.97305
▁viktigste	-8.97329
▁kal	-8.97387
▁veien	-8.9744
ation	-8.97451
▁peter	-8.97519
em	-8.97538
▁lands	-8.97558
▁2012	-8.97759
løs	-8.97952
mat	-8.98118
sett	-8.98152
▁valgt	-8.98187
▁pr	-8.98233
▁betydelig	-8.98235
▁bygge	-8.98317
▁40	-8.98353
▁periode	-8.98577
▁omtrent	-8.98722
▁1970	-8.98729
▁arbeids	-8.98882
▁hjelp	-8.99063
▁sen	-8.99148
▁skuespiller	-8.99169
▁stats	-8.99241
▁forsøk	-8.99334
▁fall	-8.99511
øya	-8.99532
▁pan	-8.99574
▁ben	-8.99595
fa	-8.99611
▁orden	-8.99641
▁staten	-8.99697
▁afrika	-8.99893
▁pave	-8.99937
føring	-8.99948
▁post	-8.99976
▁menn	-9.00033
▁1994	-9.00206
▁1980	-9.00212
▁svenske	-9.00236
▁politiker	-9.00238
▁mont	-9.00239
if	-9.00292
▁historisk	-9.00542
cu	-9.00804
▁ett	-9.00819
heim	-9.00935
mal	-9.01097
▁br	-9.01142
▁internasjonale	-9.01201
▁ber	-9.01279
▁dannet	-9.0131
bygd	-9.01326
▁skade	-9.01472
▁rev	-9.01488
ving	-9.01578
▁sj	-9.01615
tte	-9.01619
▁para	-9.01633
▁dagens	-9.01654
▁italia	-9.0171
▁nummer	-9.01794
▁we	-9.01896
▁dis	-9.02058
00	-9.02076
gren	-9.02152
dyr	-9.02158
til	-9.02242
▁én	-9.0226
▁31	-9.02285
port	-9.02297
▁medlemmer	-9.02302
▁fortsatte	-9.02311
▁økonomisk	-9.02423
ip	-9.02475
▁val	-9.0258
ung	-9.026
▁reise	-9.02628
▁bror	-9.0263
▁venstre	-9.02725
▁hjem	-9.02784
▁jan	-9.02802
ica	-9.0292
▁funnet	-9.03014
▁arter	-9.03153
▁gav	-9.03166
▁ku	-9.03189
▁sc	-9.03279
▁sak	-9.03325
▁rø	-9.03344
▁riks	-9.03396
ding	-9.03439
▁minne	-9.03568
val	-9.03661
▁paul	-9.03902
sund	-9.03918
ki	-9.03945
▁vin	-9.03986
tri	-9.04032
▁lav	-9.04066
su	-9.04074
▁york	-9.04251
ep	-9.04264
▁solgt	-9.04266
ach	-9.04387
bro	-9.04443
▁berlin	-9.04462
forening	-9.04542
selskap	-9.04591
▁eg	-9.04647
▁prest	-9.04956
dt	-9.05032
gitt	-9.05104
▁russland	-9.05291
▁ed	-9.0533
▁29	-9.05531
▁våpen	-9.05718
bane	-9.05762
▁ev	-9.05814
▁karl	-9.05884
▁lett	-9.05937
bil	-9.05944
landet	-9.05958
ps	-9.0631
føre	-9.06412
kar	-9.06412
veien	-9.06491
▁hy	-9.06585
▁krig	-9.06785
а	-9.06862
▁university	-9.0687
▁via	-9.06975
▁bred	-9.07071
▁åpnet	-9.07092
lene	-9.07205
leder	-9.07237
zi	-9.0737
rø	-9.07415
bin	-9.07452
▁styre	-9.07468
▁inneholder	-9.07505
▁cor	-9.0752
▁skog	-9.07573
▁anti	-9.07609
▁tegn	-9.07684
▁klar	-9.0774
▁neste	-9.0777
▁trekk	-9.07827
▁hav	-9.07902
▁mus	-9.08047
spill	-9.08208
▁tom	-9.08339
▁kontroll	-9.08364
▁1997	-9.08478
▁tjeneste	-9.08598
ino	-9.08679
van	-9.08759
ale	-9.08829
▁pl	-9.08907
▁arm	-9.09011
▁meste	-9.09087
ika	-9.09259
asje	-9.09264
olog	-9.09474
▁don	-9.09553
▁sentrum	-9.09561
▁hovedsakelig	-9.09562
▁1995	-9.09564
▁energi	-9.09605
▁farge	-9.09648
▁mark	-9.09689
▁system	-9.09743
▁henne	-9.09766
råd	-9.09766
▁handels	-9.09997
▁led	-9.10044
▁regi	-9.10061
▁delt	-9.1017
▁følgende	-9.10278
øl	-9.1038
▁kvinner	-9.10461
▁pla	-9.10493
anger	-9.10578
▁grunnlagt	-9.10603
ah	-9.1061
80	-9.10707
▁bri	-9.10752
▁ser	-9.10882
▁felles	-9.10891
▁ferdig	-9.11053
▁bruker	-9.11101
▁dom	-9.11175
▁1988	-9.1121
▁verk	-9.11216
svis	-9.11242
▁benyttet	-9.11249
▁rock	-9.1126
▁kron	-9.11325
gående	-9.11505
50	-9.11626
▁angrep	-9.11686
brudd	-9.11695
▁universitet	-9.11749
и	-9.11761
▁knytte	-9.11769
▁bygd	-9.11815
▁vekt	-9.11833
rak	-9.11843
▁elva	-9.11886
▁z	-9.1191
▁tross	-9.1193
nz	-9.11967
▁teater	-9.12222
▁befolkningen	-9.12237
▁organ	-9.12341
området	-9.12402
▁steder	-9.12424
▁bank	-9.12486
▁hjemme	-9.12533
▁gå	-9.12562
ya	-9.12615
▁minst	-9.12645
▁meget	-9.12768
▁drept	-9.12882
▁1993	-9.12889
▁jeg	-9.13058
▁tittelen	-9.13064
▁biskop	-9.13084
kj	-9.13206
▁ettersom	-9.1321
ket	-9.13227
ære	-9.13365
▁fange	-9.13369
▁bur	-9.13384
▁venn	-9.13482
▁høyde	-9.13645
sky	-9.13675
lla	-9.13692
mark	-9.13855
grad	-9.13926
bygning	-9.13926
che	-9.13959
skole	-9.14085
▁mester	-9.1422
gått	-9.14271
yn	-9.14376
borg	-9.14473
▁regionen	-9.1451
▁århundre	-9.14586
gh	-9.14685
båt	-9.14706
▁tu	-9.14863
▁motstand	-9.14935
ana	-9.15062
ritt	-9.15082
▁dager	-9.15141
plan	-9.15175
▁slaget	-9.15186
▁henhold	-9.15198
ds	-9.15258
banen	-9.15333
▁versjon	-9.15355
▁dra	-9.15382
▁ordet	-9.15401
old	-9.15412
▁slekt	-9.15434
dring	-9.15458
▁lei	-9.15499
▁eu	-9.15555
▁samarbeid	-9.15647
▁1991	-9.15747
enes	-9.15748
wa	-9.15756
▁sm	-9.15806
ister	-9.15855
▁løp	-9.15868
▁fin	-9.15965
▁inter	-9.15978
▁200	-9.16079
log	-9.16186
▁robert	-9.16369
rus	-9.16377
▁opprør	-9.16415
loven	-9.1654
det	-9.16633
▁arbeid	-9.16639
▁liste	-9.16744
istisk	-9.16815
▁christian	-9.16831
▁tildelt	-9.16851
▁aldri	-9.16907
gård	-9.16989
▁col	-9.17048
▁album	-9.17057
ider	-9.17064
▁ve	-9.17156
▁industri	-9.1721
▁brun	-9.17271
ald	-9.17435
kal	-9.17436
res	-9.17465
▁ren	-9.1747
▁2013	-9.17508
sto	-9.17594
▁modell	-9.17613
suten	-9.17698
▁von	-9.17894
▁on	-9.17942
▁stjerne	-9.17961
▁ag	-9.18022
▁sølv	-9.18071
▁hverandre	-9.18085
▁kilometer	-9.18085
året	-9.18101
lev	-9.18121
ød	-9.18169
▁ap	-9.1821
▁bedre	-9.18298
▁hø	-9.18381
rom	-9.18551
ismen	-9.1856
▁qu	-9.18652
nings	-9.18674
▁lær	-9.18702
▁skip	-9.18741
▁fiske	-9.18749
▁ska	-9.18751
menn	-9.18758
fri	-9.18916
▁tilhører	-9.18971
kant	-9.18986
▁lik	-9.19017
▁utgjør	-9.19047
kraft	-9.19072
▁seil	-9.19152
▁begynnelsen	-9.19282
▁1992	-9.19287
▁erstatte	-9.19311
system	-9.19322
stat	-9.19396
▁christ	-9.1943
▁tru	-9.19465
elt	-9.19472
▁uttrykk	-9.19501
sjonen	-9.19519
▁gate	-9.19585
▁ring	-9.19622
mester	-9.19669
ola	-9.19736
▁chi	-9.1986
▁flo	-9.19907
sjøen	-9.19997
▁følge	-9.20023
▁ter	-9.20047
▁lagt	-9.20085
▁regnes	-9.20125
▁hvis	-9.20145
hr	-9.20149
drag	-9.20181
▁eid	-9.20433
▁thomas	-9.20487
▁lille	-9.20576
▁opera	-9.2059
pu	-9.20601
▁politi	-9.20676
▁johan	-9.20777
▁tak	-9.20879
fin	-9.20921
▁william	-9.21097
▁slått	-9.21101
▁ten	-9.21285
▁seier	-9.21314
lis	-9.2135
▁herre	-9.21372
▁kraft	-9.21448
▁island	-9.21508
skip	-9.21541
styre	-9.21607
▁west	-9.21638
▁britisk	-9.21713
▁poeng	-9.21719
▁henrik	-9.21731
▁retning	-9.21765
▁lyd	-9.21777
ich	-9.21796
▁press	-9.21809
▁skr	-9.21851
▁q	-9.21909
punkt	-9.21946
▁finne	-9.2197
▁topp	-9.2222
▁karriere	-9.22237
ller	-9.22263
▁erik	-9.22265
legg	-9.22305
▁pris	-9.22313
▁van	-9.22316
nntil	-9.22331
▁1972	-9.22337
▁1920	-9.22338
▁drev	-9.22448
bygg	-9.2247
▁resten	-9.2249
▁professor	-9.22508
▁sky	-9.22519
ai	-9.22544
▁sogn	-9.22593
rik	-9.2261
▁mon	-9.22657
ater	-9.22721
▁litt	-9.2274
▁brukte	-9.2276
fra	-9.23169
stasjon	-9.2323
▁ly	-9.23231
asjonen	-9.23261
▁heller	-9.23295
hy	-9.23331
▁europeisk	-9.23359
vann	-9.23468
fl	-9.23536
▁viss	-9.23558
▁brasil	-9.23575
▁1945	-9.23581
we	-9.23607
30	-9.23626
kter	-9.23704
▁gro	-9.23788
parten	-9.23796
▁plate	-9.23839
▁slo	-9.2385
chi	-9.23855
med	-9.23923
arbeid	-9.24051
▁studerte	-9.24076
▁hal	-9.24083
kor	-9.24176
▁2014	-9.24203
fjord	-9.2422
▁grand	-9.2428
▁jon	-9.24284
liggende	-9.24374
▁litteratur	-9.24513
ey	-9.24522
▁bør	-9.24592
▁mis	-9.24682
kast	-9.24739
selskapet	-9.24752
film	-9.24777
vil	-9.24955
stol	-9.24988
ive	-9.25105
▁jernbane	-9.25116
up	-9.25199
skog	-9.25406
▁møtte	-9.25473
▁selskap	-9.25475
navn	-9.25526
▁områder	-9.2556
ille	-9.25612
▁pat	-9.25633
bud	-9.2564
▁dy	-9.25654
▁blå	-9.25656
▁les	-9.25675
nske	-9.257
▁linje	-9.25791
▁danske	-9.25809
▁utvikling	-9.25816
systemet	-9.25893
▁bal	-9.26025
tes	-9.26048
▁eldste	-9.26114
▁latin	-9.26115
▁såkalte	-9.26115
▁skrift	-9.2618
oc	-9.26334
▁gran	-9.26485
▁engelske	-9.26582
q	-9.26712
▁kroppen	-9.26763
▁lokale	-9.26788
ologi	-9.26922
▁bestemt	-9.26965
▁sig	-9.27084
▁finner	-9.27126
▁høyeste	-9.27411
▁1989	-9.27415
▁1968	-9.27419
▁verdi	-9.27423
▁fu	-9.27433
haug	-9.27457
▁tal	-9.27526
▁olje	-9.27553
ført	-9.27624
▁kat	-9.27691
gress	-9.2777
navnet	-9.27826
vern	-9.27833
▁funksjon	-9.27848
han	-9.27931
▁sanger	-9.28031
▁1950	-9.28078
▁hånd	-9.28139
▁trykk	-9.28175
▁fulgte	-9.28204
▁unge	-9.28241
▁ke	-9.28255
graf	-9.28311
▁pal	-9.28357
▁mm	-9.28387
▁posisjon	-9.28483
ap	-9.28517
istiske	-9.28576
▁møte	-9.28658
▁1981	-9.28725
▁holde	-9.28731
pen	-9.28814
▁sha	-9.28831
▁carl	-9.28842
▁avdeling	-9.28855
pris	-9.28875
▁miljø	-9.28882
▁trans	-9.291
▁gal	-9.29255
departementet	-9.29298
▁amerika	-9.29301
▁1985	-9.29391
▁sørøst	-9.29462
▁dyr	-9.29554
▁regjering	-9.29558
▁mun	-9.29558
lagt	-9.29562
ari	-9.29568
lle	-9.2968
ark	-9.29688
▁gra	-9.29807
▁natt	-9.29839
▁asia	-9.2986
gj	-9.29876
▁sentrale	-9.29959
▁gen	-9.29988
▁trondheim	-9.30048
▁offentlig	-9.30134
mun	-9.30157
▁60	-9.30241
hl	-9.30244
▁skille	-9.30389
hør	-9.30487
tør	-9.30509
jer	-9.30525
▁japan	-9.30653
▁fjerde	-9.3072
vei	-9.30731
▁arten	-9.30768
gan	-9.30808
▁1800	-9.30846
▁resultat	-9.30857
▁båt	-9.30896
▁interesse	-9.30977
▁ry	-9.31048
▁sterkt	-9.31062
gruppen	-9.31253
▁vol	-9.31329
▁militære	-9.31349
kamp	-9.31353
▁national	-9.31396
▁1976	-9.31405
▁kamper	-9.31436
▁los	-9.31541
40	-9.31542
▁produsert	-9.31553
don	-9.31612
▁park	-9.31618
▁stiftet	-9.31717
▁jobb	-9.31742
▁konsert	-9.31743
▁mur	-9.31748
bru	-9.31824
▁port	-9.31968
way	-9.32002
▁dokument	-9.32076
▁1983	-9.32084
▁1987	-9.32085
▁fjern	-9.32096
▁james	-9.32141
sø	-9.32169
75	-9.32174
▁enkelt	-9.32179
▁lege	-9.32258
▁omfatter	-9.32259
▁bilde	-9.32321
ida	-9.32619
lekt	-9.32639
byen	-9.32691
▁1986	-9.32768
▁løs	-9.32788
▁sesong	-9.32816
▁kle	-9.32825
▁eldre	-9.32829
▁samle	-9.3286
▁finland	-9.32961
▁mu	-9.32982
skje	-9.32989
▁lenger	-9.33017
▁finalen	-9.3302
▁livet	-9.3307
▁can	-9.33094
tion	-9.33191
▁lærer	-9.33193
xi	-9.33205
all	-9.33281
mannen	-9.33287
▁nordøst	-9.33354
messig	-9.33453
▁500	-9.33668
▁sørlige	-9.33695
▁fer	-9.33815
ial	-9.33823
▁dro	-9.33906
hvert	-9.33912
bakk	-9.33949
rud	-9.33995
▁bj	-9.34018
ien	-9.34042
alder	-9.34108
iti	-9.34117
▁prosent	-9.34152
▁klo	-9.34278
setning	-9.34426
▁høyere	-9.34515
heter	-9.34641
▁lar	-9.34719
▁bill	-9.348
▁kjøpt	-9.34812
▁david	-9.34847
▁1974	-9.34853
▁1979	-9.34853
the	-9.34888
▁za	-9.34938
▁koloni	-9.34984
▁hall	-9.34997
▁indre	-9.34997
▁syv	-9.35013
▁mac	-9.35038
▁skrive	-9.35129
▁bjørn	-9.35203
▁grensen	-9.35203
gne	-9.35231
▁ac	-9.35233
produksjon	-9.35314
▁hvilke	-9.35549
▁1984	-9.35556
ssen	-9.35561
ledes	-9.35566
▁mod	-9.35588
lær	-9.35609
▁roma	-9.35638
bra	-9.35649
familien	-9.35654
▁fre	-9.35853
▁tekst	-9.35874
▁overtok	-9.35921
▁moh	-9.35927
▁høsten	-9.36006
▁rike	-9.36265
▁1973	-9.36267
▁vår	-9.36308
▁lin	-9.36325
▁sh	-9.36336
burg	-9.36387
▁kra	-9.36507
▁mel	-9.36614
▁område	-9.36627
folk	-9.36681
▁bruke	-9.36681
ini	-9.36722
▁virke	-9.36778
▁tilsvarende	-9.36972
▁blod	-9.37067
▁endte	-9.37085
▁dansk	-9.37106
▁sosial	-9.37146
ros	-9.37218
▁divisjon	-9.373
▁war	-9.37326
▁egg	-9.37598
dømme	-9.37712
område	-9.37798
48	-9.37806
▁olav	-9.37924
merke	-9.37939
▁populær	-9.38095
▁stemme	-9.3811
▁måte	-9.38116
stra	-9.3814
▁helse	-9.3815
mu	-9.3825
▁hvit	-9.38298
▁besto	-9.38333
▁boken	-9.38349
▁suksess	-9.38416
▁canada	-9.38421
▁eier	-9.385
▁mos	-9.38556
▁ø	-9.38673
▁gren	-9.38823
▁kyst	-9.38888
▁likeve	-9.39069
▁klasse	-9.39073
▁ul	-9.39127
▁1982	-9.39153
▁fylkesvei	-9.39153
▁sommeren	-9.39165
▁bevis	-9.39189
▁fest	-9.39236
▁red	-9.39305
▁hæren	-9.39412
wi	-9.39432
▁gje	-9.39584
stu	-9.39608
ål	-9.39661
▁leker	-9.39734
▁syd	-9.39786
▁1940	-9.39896
▁samlet	-9.39929
▁høre	-9.3996
ford	-9.40034
▁finsk	-9.40139
▁havet	-9.40241
▁nordlige	-9.40255
handling	-9.40256
cy	-9.40296
handler	-9.40337
abel	-9.40385
mper	-9.40472
▁reform	-9.40472
▁kraftig	-9.40492
sette	-9.40494
gar	-9.40511
▁viste	-9.40545
▁relativ	-9.40622
▁2015	-9.40641
▁katolske	-9.40914
ild	-9.40936
▁samling	-9.40955
▁forsvar	-9.40996
parti	-9.41026
ram	-9.41035
senter	-9.4108
▁sy	-9.41081
▁sku	-9.41234
ight	-9.41313
ā	-9.41368
▁dronning	-9.41372
▁informasjon	-9.4139
▁dyp	-9.41428
skapet	-9.41539
rum	-9.41639
ban	-9.41656
▁80	-9.41713
▁tele	-9.41718
▁george	-9.41719
our	-9.41778
▁kh	-9.41823
minister	-9.41835
fest	-9.41902
▁gru	-9.41935
▁retts	-9.4197
▁enten	-9.42078
▁felt	-9.4211
р	-9.4212
▁sag	-9.42169
heng	-9.42177
▁blad	-9.42239
▁komme	-9.42241
sjef	-9.42271
▁maskin	-9.42273
▁midten	-9.42347
▁viktige	-9.42415
king	-9.42525
▁punkt	-9.42608
▁musiker	-9.4269
▁lenge	-9.42696
▁sil	-9.42715
▁anders	-9.42836
▁thor	-9.42858
deling	-9.42877
▁stockholm	-9.42877
▁vokst	-9.42891
▁sikre	-9.42892
▁sommerfugl	-9.42894
▁mulighet	-9.42937
▁stadig	-9.42946
▁iii	-9.42958
▁grev	-9.43009
▁valgte	-9.43025
▁drift	-9.43075
idae	-9.43157
▁øvrig	-9.4323
▁transport	-9.43342
▁merke	-9.43351
ferd	-9.43416
ologisk	-9.43469
9	-9.43485
65	-9.4359
▁mc	-9.43619
fer	-9.43657
▁2016	-9.43658
virkning	-9.43665
▁flagg	-9.4367
evne	-9.4367
uc	-9.43802
▁års	-9.44024
løse	-9.44279
▁gar	-9.44385
cc	-9.44397
▁dia	-9.44451
▁artene	-9.44539
nett	-9.44653
▁årlig	-9.44692
▁sø	-9.44746
▁nu	-9.44756
▁ledelse	-9.44937
▁ønsket	-9.45062
skrift	-9.45099
kjempe	-9.45147
▁styrke	-9.45157
▁oppkalt	-9.45189
▁1978	-9.45195
▁areal	-9.45199
▁regel	-9.45293
▁beskrev	-9.45362
▁skjer	-9.45412
▁arkitekt	-9.45425
▁klarte	-9.45447
▁sju	-9.45468
▁not	-9.45647
▁lære	-9.4577
▁slekten	-9.45781
▁uavhengig	-9.45807
▁kul	-9.4581
samling	-9.45844
ji	-9.45918
▁hei	-9.45962
▁pinyin	-9.45967
▁vanskelig	-9.45969
▁1964	-9.45979
▁bodde	-9.45979
▁1900	-9.45987
▁skje	-9.46007
▁japansk	-9.46047
ita	-9.46137
▁gla	-9.46359
tale	-9.46392
trykk	-9.46515
55	-9.46602
▁dagen	-9.46729
▁kardinal	-9.46754
▁stavanger	-9.46763
▁studie	-9.46767
stykke	-9.46792
qui	-9.46968
▁historien	-9.46981
▁satte	-9.47061
▁skipet	-9.47149
▁vold	-9.47174
▁grense	-9.4733
sam	-9.47354
▁stasjon	-9.47382
▁tall	-9.47383
▁plassert	-9.47395
▁you	-9.47436
▁fil	-9.47513
▁air	-9.47522
▁cla	-9.47523
▁profesjonell	-9.47547
▁trøndelag	-9.47547
▁voksne	-9.47548
▁lengre	-9.47548
▁kunstner	-9.47554
▁1948	-9.47563
▁nordvest	-9.47591
▁city	-9.47615
full	-9.47802
▁ram	-9.47821
▁lars	-9.4786
▁faren	-9.47892
▁flat	-9.48085
komm	-9.48235
felt	-9.48244
figur	-9.48244
itz	-9.48248
▁krav	-9.48279
språk	-9.48298
▁råd	-9.48318
▁arrangert	-9.48348
▁dårlig	-9.48348
festival	-9.48349
▁snakk	-9.4835
▁1930	-9.48365
▁grunnlegge	-9.48556
▁handling	-9.48574
▁marine	-9.48656
▁ex	-9.48686
▁jakt	-9.4873
▁miste	-9.48748
▁lengde	-9.48783
lett	-9.48837
kin	-9.48921
▁stu	-9.48966
37	-9.49086
angel	-9.491
lling	-9.49139
▁ob	-9.4915
historiker	-9.49154
▁grupper	-9.49169
organ	-9.4917
▁egentlig	-9.49175
▁fotballspiller	-9.4919
standen	-9.49257
▁fla	-9.49349
▁dan	-9.49443
▁len	-9.49541
lie	-9.49543
▁fro	-9.49595
▁kors	-9.49643
▁skapt	-9.49651
▁stod	-9.49843
▁gutt	-9.49921
rsom	-9.49933
▁rot	-9.49981
ano	-9.50004
gangen	-9.50047
marked	-9.50085
▁trafikk	-9.50149
▁virksomhet	-9.50149
ori	-9.50199
mesterskapet	-9.50282
▁ledd	-9.50305
▁dal	-9.50319
▁tradisjon	-9.50321
▁raskt	-9.50369
66	-9.50373
▁sir	-9.50373
20	-9.50416
nivå	-9.50417
våg	-9.5046
▁super	-9.50515
tel	-9.50543
▁museum	-9.50548
▁ii	-9.50615
bær	-9.50783
▁sovjetunionen	-9.50787
▁xi	-9.50877
▁martin	-9.50996
▁problem	-9.51008
ringen	-9.51093
inne	-9.51115
▁styrker	-9.51147
▁begrepet	-9.51159
▁gård	-9.51169
▁enhet	-9.51226
▁ansvar	-9.51229
▁distrikt	-9.51308
▁effekt	-9.51327
last	-9.51433
68	-9.51435
▁ball	-9.51451
pekt	-9.51459
▁delta	-9.51462
▁hår	-9.51469
▁cm	-9.51488
▁følger	-9.51509
grav	-9.51524
eks	-9.51554
▁bolig	-9.51596
è	-9.51613
▁statsminister	-9.51627
▁1975	-9.5163
▁sammenheng	-9.51703
▁jern	-9.51772
▁real	-9.51808
▁oppført	-9.51822
▁rik	-9.51835
▁johannes	-9.51924
▁maria	-9.51926
36	-9.51955
▁data	-9.5198
mus	-9.52026
▁oppgave	-9.52161
▁totalt	-9.52169
▁svarte	-9.5221
▁alder	-9.52343
▁hertug	-9.5245
▁1965	-9.52461
▁femte	-9.52539
39	-9.5258
▁plante	-9.52595
skolen	-9.52606
▁mw	-9.52633
▁nådd	-9.52661
gruppe	-9.52701
gift	-9.5272
dals	-9.52771
erende	-9.52877
gra	-9.52997
▁leve	-9.53003
▁ban	-9.53047
▁total	-9.53177
side	-9.53194
lia	-9.53197
▁københavn	-9.53287
▁oppdaget	-9.53291
▁standard	-9.53314
▁nasjonale	-9.53334
▁knut	-9.53396
gy	-9.53429
nær	-9.53465
▁vinner	-9.53474
▁israel	-9.53488
▁måneder	-9.53502
▁journalist	-9.53529
▁bad	-9.53544
eres	-9.53607
▁strøm	-9.53634
▁af	-9.5378
▁rus	-9.53839
alis	-9.54121
sekretær	-9.54134
▁skjedde	-9.54135
▁bronsemedalje	-9.54154
huset	-9.54195
▁gården	-9.54201
▁variant	-9.54208
▁organisasjon	-9.54241
▁start	-9.54292
ms	-9.54415
ama	-9.54429
rike	-9.54443
▁munn	-9.54467
ze	-9.54516
musikk	-9.5469
▁svart	-9.54859
▁bern	-9.54934
fag	-9.54948
▁endret	-9.54997
▁spania	-9.55027
61	-9.55081
▁passer	-9.55123
▁sjef	-9.55133
▁høyt	-9.55166
67	-9.55169
shire	-9.55202
linjen	-9.55221
▁pop	-9.55262
bilde	-9.55272
kle	-9.55329
▁naturlig	-9.55343
▁operasjon	-9.55347
gna	-9.55428
▁tett	-9.55568
▁drive	-9.55704
▁hopp	-9.55729
▁ji	-9.5582
с	-9.55851
▁klassisk	-9.55851
▁kontakt	-9.55855
lov	-9.55864
ign	-9.55878
styrke	-9.5595
▁utvikle	-9.55993
▁hard	-9.56011
los	-9.56013
▁ep	-9.56019
ekte	-9.5604
▁gass	-9.56055
▁nrk	-9.56154
▁kampen	-9.56164
▁utviklingen	-9.56229
▁beskrive	-9.56353
fon	-9.56408
sol	-9.56488
▁ci	-9.56622
led	-9.56657
prosess	-9.56676
▁soldater	-9.56702
▁australia	-9.56721
▁komponist	-9.56721
▁nødvendig	-9.56721
▁typisk	-9.56724
▁øverst	-9.56728
▁1967	-9.56735
58	-9.56738
renn	-9.56765
▁privat	-9.56786
forbund	-9.56848
stor	-9.56899
mul	-9.56927
gjorde	-9.56943
▁slå	-9.56991
70	-9.57016
ara	-9.57076
kh	-9.57107
sal	-9.57111
64	-9.57118
▁programmet	-9.57189
lys	-9.57223
▁daglig	-9.57338
▁befolkning	-9.57455
alt	-9.575
▁sel	-9.57519
▁1977	-9.5761
liv	-9.57676
ky	-9.57817
ther	-9.57818
plasser	-9.57831
▁arabisk	-9.58025
bygging	-9.58142
60	-9.58239
▁klart	-9.58243
▁bind	-9.58322
▁spesial	-9.58369
▁romerske	-9.58442
е	-9.58483
ð	-9.58483
▁hjerte	-9.58484
▁folkerepublikk	-9.58487
▁wo	-9.58542
▁union	-9.58598
▁besøk	-9.58704
▁lø	-9.58789
hall	-9.58812
▁student	-9.58836
▁ky	-9.58873
lighet	-9.58879
fører	-9.58961
▁pass	-9.58974
▁cup	-9.59029
havet	-9.59116
▁hundre	-9.59165
72	-9.59261
▁vitenskap	-9.59275
▁bøker	-9.59287
kro	-9.59291
▁nivå	-9.59368
på	-9.59378
▁avhengig	-9.59437
gle	-9.59471
▁fører	-9.59512
våpen	-9.59538
▁region	-9.5957
▁tanke	-9.59599
▁pra	-9.59601
▁gode	-9.59603
▁vik	-9.59615
▁frank	-9.59633
ix	-9.59652
dra	-9.59665
▁fremst	-9.59784
akt	-9.59798
park	-9.59801
gikk	-9.59843
▁liga	-9.5988
▁hvite	-9.60141
▁1963	-9.60276
▁vunnet	-9.60276
▁østerrike	-9.60278
▁35	-9.60311
▁forsøkt	-9.60344
trådte	-9.60373
▁finans	-9.60434
▁program	-9.60438
bert	-9.60449
▁type	-9.60457
anlegg	-9.60514
▁son	-9.60534
▁sul	-9.60639
▁anne	-9.60657
▁personlig	-9.60673
bri	-9.60686
aks	-9.60711
fisk	-9.60734
▁kongelig	-9.6093
▁smal	-9.6093
▁offisielle	-9.60978
▁korea	-9.61073
ora	-9.61095
▁åpen	-9.61097
▁ang	-9.6111
▁bronse	-9.61185
▁kunnskap	-9.61187
▁avisen	-9.61198
of	-9.612
▁1936	-9.61201
▁fremdeles	-9.61223
▁fal	-9.61318
▁øyene	-9.61352
▁feil	-9.61359
ish	-9.61388
fartøy	-9.6139
▁400	-9.61431
▁økonomi	-9.61505
56	-9.61561
▁nederland	-9.61633
▁størrelse	-9.61654
områder	-9.61656
▁tapte	-9.61693
▁holder	-9.61756
▁un	-9.61865
▁beskytte	-9.61896
field	-9.61931
10	-9.61955
▁middelalderen	-9.62021
▁united	-9.62104
▁design	-9.62122
▁bakgrunn	-9.62126
▁jordbruk	-9.62141
mand	-9.62197
▁innført	-9.6231
▁oppdrag	-9.62353
▁nabo	-9.62365
rådet	-9.62384
krigen	-9.62384
▁forsker	-9.6239
kreft	-9.62403
▁hoff	-9.62438
ski	-9.62461
stå	-9.62488
▁polsk	-9.62559
▁krysse	-9.62588
fang	-9.62598
▁fyr	-9.6271
▁heter	-9.62783
vesen	-9.62822
▁mas	-9.62834
▁rang	-9.62879
▁benyttes	-9.62956
▁sterk	-9.63016
о	-9.6302
▁kristne	-9.63031
▁lengst	-9.63034
▁1924	-9.63038
▁1969	-9.6304
▁1952	-9.63041
91	-9.63069
▁våren	-9.63109
under	-9.63113
▁hodet	-9.63151
▁brann	-9.63165
▁danse	-9.63297
øyene	-9.63301
▁ordenen	-9.63311
▁runde	-9.63339
▁sla	-9.6336
▁ass	-9.63408
▁stand	-9.63413
fjell	-9.63475
que	-9.63545
▁grønn	-9.63549
▁nærings	-9.63777
lund	-9.63833
▁skape	-9.63872
try	-9.63904
76	-9.63953
ins	-9.63972
▁bevart	-9.63984
▁musikkalbum	-9.63985
bas	-9.63991
▁sørvest	-9.63999
nst	-9.64048
▁gjennomført	-9.6406
eget	-9.6412
▁lund	-9.64141
▁forfatteren	-9.6419
▁hund	-9.64216
▁vestlige	-9.64225
▁spill	-9.6427
▁70	-9.64335
tek	-9.64341
get	-9.6454
▁kost	-9.64658
▁politikk	-9.64684
zz	-9.64761
▁hær	-9.64775
▁kas	-9.64791
▁ytterligere	-9.64907
▁1971	-9.64915
oli	-9.65063
▁motsetning	-9.65092
ved	-9.65127
▁grenser	-9.6514
brakt	-9.65141
tatt	-9.65168
▁varme	-9.65199
ull	-9.65205
▁prosjekt	-9.65209
▁symbol	-9.65261
▁hit	-9.65285
dels	-9.65289
▁lind	-9.65306
trekk	-9.65331
92	-9.65353
nu	-9.65403
▁nederlandsk	-9.65408
verket	-9.65449
▁forsknings	-9.65607
▁behandling	-9.65669
▁fortelling	-9.65865
▁1958	-9.65874
pel	-9.65881
▁90	-9.65885
▁sund	-9.65989
ira	-9.66054
▁festning	-9.66069
oni	-9.66151
kultur	-9.66217
rick	-9.66271
▁irland	-9.66315
▁time	-9.66372
▁kroner	-9.66416
▁forsvars	-9.66474
arbeider	-9.66503
ville	-9.66551
kort	-9.66589
▁hor	-9.66618
▁offentlige	-9.66697
▁sn	-9.66801
н	-9.66809
▁college	-9.66823
▁hente	-9.66832
▁1966	-9.66837
▁skyld	-9.66864
▁korte	-9.66886
▁renner	-9.66961
tjeneste	-9.66979
manns	-9.67001
vogn	-9.67101
klubb	-9.67105
strøm	-9.67115
▁utført	-9.67127
ben	-9.67146
isten	-9.6715
holm	-9.67172
77	-9.67211
▁stilling	-9.67212
ind	-9.67312
▁stre	-9.67349
▁jobbet	-9.67353
▁skips	-9.67439
▁reiste	-9.67495
85	-9.67544
▁ask	-9.67671
▁grå	-9.67703
▁tung	-9.67713
▁installert	-9.67792
▁original	-9.67792
▁melodi	-9.67794
▁1962	-9.67805
iz	-9.67807
▁1937	-9.67808
klas	-9.6782
dagen	-9.67947
riket	-9.68074
87	-9.68083
▁bane	-9.68085
▁kvinnelig	-9.68106
▁kreve	-9.6818
▁slike	-9.68193
gå	-9.68207
▁instrument	-9.68256
trolig	-9.68274
▁hovedstaden	-9.68284
▁falt	-9.68363
▁king	-9.6841
▁gri	-9.6846
▁300	-9.68475
▁lau	-9.68477
94	-9.68518
▁åpne	-9.68526
▁konkurransen	-9.68536
voll	-9.68537
▁materiale	-9.6855
▁vist	-9.68573
▁het	-9.68584
▁elektrisk	-9.68772
▁publisert	-9.68772
▁1957	-9.68784
52	-9.68793
▁2017	-9.68797
▁jarl	-9.68799
▁win	-9.68874
rang	-9.68881
ømme	-9.68908
stoff	-9.68936
▁forskning	-9.69031
41	-9.69071
73	-9.69091
▁ung	-9.69123
47	-9.69252
kysten	-9.69314
elva	-9.69419
▁kart	-9.69495
▁problemer	-9.69497
▁representerte	-9.69533
ib	-9.6964
org	-9.69647
▁skifte	-9.69673
▁alternativ	-9.69762
▁friidrett	-9.69762
▁passasjer	-9.69762
▁stortinget	-9.69766
▁1961	-9.69778
▁havne	-9.69786
▁debutert	-9.69816
▁markeds	-9.69823
▁harry	-9.69834
▁kommet	-9.69985
▁res	-9.69996
ringer	-9.7016
kommune	-9.70173
▁lek	-9.70249
▁krets	-9.703
▁stav	-9.70365
▁støttet	-9.70383
▁ze	-9.70388
▁klubb	-9.70458
▁aktivitet	-9.7049
▁salt	-9.70516
▁stra	-9.70579
omme	-9.70585
▁rask	-9.70612
▁distriktet	-9.70669
62	-9.70685
▁stammer	-9.7074
akademi	-9.70743
▁situasjon	-9.70763
▁1946	-9.70775
▁hest	-9.70804
▁dog	-9.70816
▁gjenopp	-9.70878
▁fordelt	-9.71237
▁masse	-9.71253
▁brev	-9.7126
▁metal	-9.71269
▁byer	-9.71291
▁strand	-9.71348
▁stilt	-9.71362
▁forslag	-9.71522
tog	-9.71556
▁nils	-9.71617
▁inspirert	-9.71772
institusjon	-9.71772
▁michael	-9.71772
▁utdannet	-9.71772
▁produkt	-9.71782
▁1959	-9.71784
▁produsent	-9.71848
▁øvre	-9.71876
omfattende	-9.71877
▁drama	-9.71942
hal	-9.71951
▁mid	-9.72046
▁ekspedisjon	-9.72103
18	-9.72198
hund	-9.72233
hel	-9.72299
▁bø	-9.72317
▁huset	-9.72332
▁prøve	-9.72342
lang	-9.72352
▁internasjonal	-9.72406
▁påvirke	-9.72437
25	-9.72463
▁lot	-9.7248
▁østlig	-9.72587
▁sub	-9.72776
▁opprinnelse	-9.72793
▁rapport	-9.72793
▁world	-9.72793
magasin	-9.72801
▁1944	-9.72804
▁1955	-9.7281
komst	-9.72816
▁sølvmedalje	-9.72819
▁trak	-9.72841
blokk	-9.72931
▁bygningen	-9.72978
▁unntak	-9.72998
▁sette	-9.73013
▁bosatt	-9.73017
con	-9.73026
stedet	-9.73046
▁tonn	-9.73055
5	-9.73128
▁us	-9.73191
▁tegnet	-9.73201
organisasjon	-9.73214
▁legge	-9.73219
kunst	-9.73263
▁undersøkelse	-9.73284
▁verne	-9.73361
bladet	-9.73367
90	-9.73414
▁offiser	-9.73437
▁shi	-9.7348
▁samfunns	-9.73493
▁revolusjon	-9.73564
▁die	-9.73629
▁direktør	-9.73659
skjær	-9.73662
▁wal	-9.73762
▁bygde	-9.7378
▁nasjon	-9.7381
teknikk	-9.73824
▁klima	-9.73825
▁1933	-9.73834
▁lansert	-9.73841
▁ordfører	-9.73847
▁hovedstad	-9.73894
▁fjellet	-9.73983
tic	-9.74
▁sur	-9.74031
▁overført	-9.74097
▁endelig	-9.74164
▁vid	-9.74172
▁hed	-9.74182
▁fordel	-9.74214
▁organisasjonen	-9.74307
▁arne	-9.74313
▁redaktør	-9.74334
▁øke	-9.74418
ordenen	-9.74429
▁provins	-9.74432
cha	-9.74508
93	-9.7452
▁stamme	-9.74564
▁est	-9.74579
▁epi	-9.74646
▁høye	-9.74669
▁prisen	-9.74706
▁hjelpe	-9.74736
ani	-9.74744
▁rygg	-9.74754
▁tale	-9.74788
är	-9.74789
▁arv	-9.74842
▁zh	-9.74856
▁utgangspunkt	-9.74865
▁konflikt	-9.74865
▁spesiell	-9.74865
▁flertall	-9.74875
▁1912	-9.74875
▁fylkes	-9.74886
▁vind	-9.74896
bø	-9.74955
fil	-9.74961
▁ytre	-9.74974
ografi	-9.74992
46	-9.7508
elige	-9.75097
▁kol	-9.75119
▁områdene	-9.7514
▁havn	-9.75345
▁utdanning	-9.75384
tsj	-9.75399
▁rollen	-9.75427
▁elve	-9.75439
makt	-9.75475
arbeidet	-9.75479
sak	-9.75497
▁ven	-9.75498
ric	-9.75576
▁normal	-9.75623
ias	-9.75631
bor	-9.75659
▁omtale	-9.75676
senteret	-9.75698
▁ya	-9.7572
valg	-9.75836
▁ph	-9.75867
▁tids	-9.75877
ú	-9.75918
▁1928	-9.75931
▁sluttet	-9.75935
▁organisert	-9.75949
▁status	-9.75975
▁tha	-9.76084
▁bon	-9.76191
zhou	-9.76199
▁stasjonen	-9.76258
▁hell	-9.76326
▁pen	-9.76361
▁studier	-9.76369
▁sau	-9.76384
album	-9.76399
distrikt	-9.76407
historie	-9.7641
kler	-9.76461
▁landslag	-9.7647
gården	-9.76511
▁spa	-9.76529
▁saken	-9.76564
▁sovjetisk	-9.76575
▁vær	-9.76655
▁pri	-9.7666
ansk	-9.76663
elli	-9.76677
▁kap	-9.76748
kirke	-9.76978
▁betrakte	-9.76982
▁louis	-9.76982
▁oversikt	-9.76983
▁nærmest	-9.76984
▁kysten	-9.76989
▁1956	-9.76998
▁jazz	-9.77002
▁bosetning	-9.77072
08	-9.77097
▁fugle	-9.77103
▁eiendom	-9.7711
ance	-9.77117
▁fabrikk	-9.77152
ektor	-9.77189
▁kaptein	-9.77223
▁athen	-9.77233
▁jevn	-9.77236
▁vanlige	-9.77258
▁polen	-9.77259
spor	-9.77259
▁toppen	-9.7728
▁betegnelsen	-9.7744
delen	-9.77526
fart	-9.77534
▁mengde	-9.7757
har	-9.77612
dekk	-9.77614
▁delvis	-9.77635
war	-9.77738
▁harald	-9.77744
tag	-9.77748
▁strid	-9.77792
▁utføre	-9.77833
stø	-9.77882
▁fc	-9.77896
▁ansatt	-9.77905
korps	-9.77905
▁sveits	-9.77998
▁front	-9.78053
л	-9.78057
▁skottland	-9.78057
skjold	-9.78059
▁tydelig	-9.7806
▁1918	-9.78072
▁uttalt	-9.78123
sburg	-9.78136
▁turn	-9.78187
▁slott	-9.78221
gard	-9.78247
95	-9.7837
kra	-9.78376
rop	-9.78402
▁borg	-9.78428
kov	-9.78453
▁hud	-9.78514
▁off	-9.78554
▁mini	-9.78564
▁sende	-9.78612
▁landskapet	-9.78624
▁anlegget	-9.78628
▁svak	-9.78659
▁lan	-9.78667
▁idretts	-9.78716
stripe	-9.78731
▁åpning	-9.78788
▁sterke	-9.78808
▁øye	-9.78824
▁røde	-9.78829
▁fn	-9.78883
▁cap	-9.78898
tegn	-9.78987
▁tour	-9.78989
▁sider	-9.79093
▁innflytelse	-9.79138
▁1949	-9.79144
▁edderkopp	-9.79144
▁beijing	-9.79144
▁tolv	-9.79152
▁hevdet	-9.79189
▁she	-9.79269
atet	-9.79302
dorf	-9.79311
▁middel	-9.79326
▁solo	-9.79357
▁foruten	-9.79442
99	-9.79464
▁timer	-9.79477
▁forteller	-9.79502
vatnet	-9.79536
ata	-9.79676
▁tittel	-9.79743
bjørn	-9.79752
▁rad	-9.79754
▁opphav	-9.79779
rør	-9.7978
band	-9.79833
▁adel	-9.79978
▁gjelder	-9.79981
79	-9.80003
▁karakter	-9.80037
ire	-9.80066
slutning	-9.80132
▁bonde	-9.80211
▁oscar	-9.80244
▁snart	-9.80268
▁rein	-9.80292
hode	-9.80304
sler	-9.80349
▁løper	-9.80371
aktig	-9.80472
▁politiet	-9.80551
▁meg	-9.80592
78	-9.80632
▁plassering	-9.80667
kka	-9.80676
▁kinas	-9.80683
▁cro	-9.80742
▁spillet	-9.80744
sats	-9.80755
▁fisk	-9.80776
tus	-9.80883
▁flu	-9.80883
▁gram	-9.80908
▁fat	-9.80938
▁riket	-9.80941
▁uni	-9.81005
▁vitenskapelig	-9.81028
▁vinge	-9.81077
▁gil	-9.81102
▁bydel	-9.81142
serien	-9.81181
fo	-9.81236
dam	-9.81263
ati	-9.81276
ã	-9.81354
▁moskva	-9.81354
lon	-9.81355
▁1932	-9.81363
▁riksvei	-9.81414
án	-9.81419
▁kjerne	-9.81426
▁jens	-9.81476
nev	-9.81515
strand	-9.8153
▁rute	-9.81616
▁uker	-9.81622
øvelse	-9.81655
▁nyere	-9.81668
kop	-9.81706
▁larvene	-9.81751
formet	-9.81765
lem	-9.81857
gaard	-9.81872
▁poly	-9.81884
▁overleve	-9.81919
▁egypt	-9.81968
▁kanon	-9.81984
▁sko	-9.82007
plassen	-9.82049
dar	-9.82054
53	-9.82107
▁elv	-9.82129
▁landsbyen	-9.82154
dor	-9.82185
▁salg	-9.82219
▁fot	-9.82221
▁kam	-9.82348
74	-9.8236
▁fjorden	-9.82477
▁mexico	-9.82477
▁berømt	-9.82478
▁california	-9.82478
▁wilhelm	-9.82478
▁angeles	-9.82483
▁1908	-9.82492
▁1947	-9.82493
▁spanske	-9.82498
▁myr	-9.82511
▁flekk	-9.82551
givelse	-9.82552
▁bibel	-9.82556
jern	-9.8257
▁sports	-9.82596
▁kalle	-9.82722
▁ger	-9.82727
▁selve	-9.82768
▁tema	-9.82854
▁strekke	-9.82874
visning	-9.82887
▁kraftverk	-9.82908
delt	-9.82961
▁just	-9.82964
▁vet	-9.83011
▁mørke	-9.83092
fot	-9.83118
møte	-9.83135
industri	-9.83136
69	-9.83147
▁jorden	-9.83224
▁måned	-9.83334
28	-9.83379
▁teori	-9.83407
grep	-9.83424
▁pol	-9.83464
▁driver	-9.83509
▁bord	-9.83603
▁nevnt	-9.83614
▁folketelling	-9.83615
▁ting	-9.83645
▁omtalt	-9.83654
▁valget	-9.83669
▁kontrakt	-9.8367
▁nærheten	-9.83693
hn	-9.83703
▁koll	-9.83717
▁1700	-9.83757
▁eksempelvis	-9.83839
57	-9.83859
▁bidrag	-9.83887
stått	-9.83938
▁normalt	-9.83979
▁artikkel	-9.8402
slet	-9.8403
▁kg	-9.84111
▁mørk	-9.84144
bank	-9.84145
▁45	-9.84281
▁cal	-9.84283
avdeling	-9.84359
▁oversatt	-9.84359
▁sykehus	-9.84374
▁prof	-9.8438
fugl	-9.84415
▁dam	-9.84472
▁kilde	-9.84529
ledning	-9.8462
oll	-9.84667
▁gitar	-9.84724
▁studio	-9.84758
▁pakistan	-9.84763
▁tilknytning	-9.84763
▁utbredt	-9.84763
▁jacob	-9.84765
▁1943	-9.84777
▁ole	-9.84945
59	-9.8498
▁skilt	-9.85009
▁leir	-9.85096
▁ansatte	-9.85197
▁indisk	-9.85221
▁gall	-9.8524
▁minutter	-9.85243
▁populære	-9.85275
▁georg	-9.85331
▁teknologi	-9.85334
ammen	-9.85408
▁opphold	-9.85408
▁atom	-9.85425
kol	-9.85489
▁slave	-9.85499
kirken	-9.85538
▁larven	-9.85578
▁odd	-9.85583
▁filosofi	-9.85588
kritiker	-9.85679
▁formann	-9.85741
▁tradisjonelle	-9.85821
▁por	-9.85827
▁kull	-9.85859
▁borger	-9.85871
83	-9.85892
▁1942	-9.85926
▁fullstendig	-9.85926
▁tilgjengelig	-9.85926
▁län	-9.85928
▁fokus	-9.85929
▁nærmere	-9.85933
▁skotsk	-9.85948
▁stig	-9.86002
▁ekstra	-9.86014
▁oftest	-9.86195
▁livs	-9.86243
09	-9.86298
legging	-9.86447
▁listen	-9.86487
ob	-9.8651
▁skatte	-9.8652
▁rekord	-9.86682
▁lyn	-9.86686
▁stol	-9.86801
▁horn	-9.8684
▁sent	-9.86923
▁wil	-9.86935
▁bel	-9.86961
▁bakken	-9.86994
▁selvstendig	-9.87103
▁teknisk	-9.87103
▁norrøn	-9.87105
▁tidsskrift	-9.87113
▁1938	-9.87114
▁linjen	-9.87116
▁1939	-9.87122
jønn	-9.87128
▁søster	-9.87156
formen	-9.87168
▁test	-9.87185
eringen	-9.87324
▁gold	-9.87348
▁vis	-9.87371
▁nes	-9.8741
▁mill	-9.87658
▁styrkene	-9.8768
regionen	-9.8769
▁dømt	-9.8771
kjede	-9.87748
ula	-9.87773
▁bit	-9.878
▁virkelig	-9.87823
▁snø	-9.87827
▁institutt	-9.87865
▁dyre	-9.87956
fla	-9.88018
▁mad	-9.88165
▁private	-9.88204
▁bevegelse	-9.88232
▁league	-9.88293
▁faktisk	-9.88296
▁black	-9.8834
▁antatt	-9.88373
▁forekommer	-9.88504
▁holm	-9.8856
▁fremste	-9.8863
vekt	-9.88635
▁nordland	-9.88637
ctor	-9.88705
rommet	-9.88738
rykk	-9.88786
▁butikk	-9.88869
▁forskjell	-9.8888
▁gruve	-9.88909
▁spørsmål	-9.88984
43	-9.89058
▁bygg	-9.89146
▁vannet	-9.89236
rykket	-9.89248
к	-9.8933
▁live	-9.89335
▁hunnen	-9.89433
▁syne	-9.89448
▁dj	-9.89464
▁fredrik	-9.89491
▁ishockey	-9.89498
▁publikum	-9.89498
▁richard	-9.89498
▁frykt	-9.89499
▁fysisk	-9.89503
▁1953	-9.89513
foss	-9.89515
▁1941	-9.89515
▁arkitektur	-9.89599
▁tilby	-9.89663
ub	-9.89767
▁bidra	-9.89829
▁fle	-9.8983
valget	-9.89848
ania	-9.89872
nor	-9.89912
▁kandidat	-9.89974
gate	-9.89981
▁enda	-9.9001
kommisjon	-9.9005
▁ris	-9.90088
▁preget	-9.90093
54	-9.90142
gjort	-9.90158
tøy	-9.90254
86	-9.90278
gning	-9.90284
arter	-9.90364
▁temperatur	-9.90549
sket	-9.9057
▁800	-9.90574
▁glo	-9.90684
▁sønnen	-9.90703
gul	-9.90711
konstruksjon	-9.90717
▁offisielt	-9.90717
▁anerkjent	-9.90718
▁ridder	-9.90723
▁tidspunkt	-9.90731
▁kjøp	-9.90778
cia	-9.90824
▁sier	-9.90842
verdig	-9.90883
▁typer	-9.90885
▁representerer	-9.91054
▁praksis	-9.91056
▁zo	-9.91086
▁nr	-9.91174
▁samfunnet	-9.91374
▁streng	-9.91427
mba	-9.91453
15	-9.91477
ball	-9.91522
forbindelse	-9.91555
▁scene	-9.9163
▁ron	-9.91667
▁600	-9.91682
▁utstilling	-9.91682
sport	-9.91854
mit	-9.91862
deles	-9.91935
▁eksempler	-9.91952
▁sistnevnte	-9.91952
▁kategori	-9.91952
▁award	-9.91953
▁stadion	-9.91957
forvaltning	-9.9196
prinsipp	-9.91961
▁ekteskap	-9.91962
▁antenne	-9.91962
tering	-9.91966
sberg	-9.91985
▁turneringen	-9.92013
gin	-9.92019
veg	-9.92027
▁ube	-9.92254
▁dør	-9.92282
▁samarbeidet	-9.92329
▁pot	-9.92344
▁od	-9.92348
▁ungdom	-9.92463
istene	-9.92484
iteten	-9.92529
▁begynner	-9.92532
89	-9.92568
tta	-9.92596
▁jean	-9.9264
▁lage	-9.9269
well	-9.92691
▁turner	-9.9272
▁camp	-9.92738
▁tidlige	-9.9276
▁penger	-9.92774
▁parlament	-9.92821
35	-9.92862
motor	-9.9299
▁banen	-9.93092
▁forbundet	-9.9315
13	-9.93156
▁stø	-9.93172
▁univers	-9.9318
▁folket	-9.93185
51	-9.93188
▁fengsel	-9.93202
▁verdenscup	-9.93202
▁erklært	-9.93203
▁1929	-9.93211
▁luther	-9.93247
▁lev	-9.93249
▁vendt	-9.93253
▁kjønn	-9.93266
▁funn	-9.93281
▁diplomat	-9.93329
▁henry	-9.93389
▁inkluderer	-9.93426
ledd	-9.93508
▁forut	-9.93632
▁sli	-9.93787
▁papir	-9.93805
▁32	-9.93864
bare	-9.94067
program	-9.94077
▁dekket	-9.9415
deler	-9.94154
▁log	-9.9421
▁metall	-9.94258
▁handel	-9.94263
▁språket	-9.94308
gal	-9.94345
▁systemet	-9.94381
▁international	-9.94468
▁erkebiskop	-9.94468
▁kritikk	-9.94468
▁religion	-9.94468
▁såkalt	-9.94468
hopp	-9.94472
▁charles	-9.94494
▁anna	-9.94513
ifisert	-9.94516
rettigheter	-9.9452
07	-9.94529
▁økt	-9.94534
▁buss	-9.94538
jev	-9.94636
▁sørge	-9.94727
45	-9.94844
17	-9.94894
▁luc	-9.94894
▁boy	-9.94898
mod	-9.94963
▁sær	-9.95057
▁ark	-9.95097
low	-9.9514
grunn	-9.95178
▁andreas	-9.95207
▁rå	-9.95214
84	-9.95246
tis	-9.95303
▁single	-9.95317
▁spiss	-9.95497
▁vinne	-9.9559
▁redd	-9.95615
wood	-9.95629
▁landsby	-9.95653
▁song	-9.95694
▁1914	-9.9575
▁hendelser	-9.95751
▁royal	-9.95753
▁brøt	-9.95754
▁tegneserie	-9.95756
▁behov	-9.95758
▁1931	-9.9576
▁økte	-9.95761
▁1935	-9.95764
▁mytologi	-9.95766
▁johann	-9.95771
▁forretnings	-9.95777
▁rund	-9.95786
gjøre	-9.95802
▁bygninger	-9.95803
▁hjerne	-9.95805
▁gjennomsnitt	-9.95811
▁portrett	-9.95814
▁representant	-9.95832
▁benytte	-9.95833
▁kristen	-9.95839
▁trener	-9.95896
tha	-9.95913
▁veg	-9.95915
05	-9.95924
kampen	-9.95962
▁produsere	-9.95979
▁formål	-9.96083
dommen	-9.96099
▁junior	-9.9613
▁likhet	-9.96134
▁tog	-9.96218
grupper	-9.96243
▁filmer	-9.96322
løpet	-9.96357
former	-9.96389
▁kaste	-9.96443
▁æres	-9.96447
partiet	-9.96449
▁viking	-9.96462
drift	-9.96473
▁kjell	-9.96517
▁sist	-9.967
▁kjøre	-9.96741
▁senter	-9.9675
▁versjonen	-9.96773
ij	-9.96828
pla	-9.96846
uf	-9.9685
illa	-9.96894
▁vokal	-9.96918
vd	-9.96926
ott	-9.96932
000	-9.96962
ordning	-9.97045
▁alvorlig	-9.97049
▁generelt	-9.97049
▁nevnes	-9.97052
▁lufthavn	-9.9706
▁1954	-9.97064
grø	-9.9711
▁romersk	-9.97117
▁hydro	-9.97157
▁yu	-9.97178
▁innsjøen	-9.97206
▁verket	-9.97234
gjør	-9.97334
steder	-9.97546
win	-9.97555
bach	-9.97573
▁andreplass	-9.97616
▁konkurranse	-9.97637
▁north	-9.97638
▁ungdoms	-9.97697
44	-9.97749
▁hind	-9.9775
dia	-9.97816
byrå	-9.97817
▁båten	-9.97839
▁bibliotek	-9.97869
▁storm	-9.9805
vekst	-9.98078
▁amt	-9.98117
gata	-9.98124
plate	-9.98145
post	-9.98242
tun	-9.98267
skipet	-9.98305
dahl	-9.98316
▁antagelig	-9.98364
▁sjelden	-9.98364
▁nominert	-9.98365
▁arrangere	-9.98365
▁hurtig	-9.98365
▁spredt	-9.98374
▁malt	-9.98389
▁oppnådd	-9.98397
▁mikro	-9.98404
▁anledning	-9.98436
▁hersker	-9.98444
▁show	-9.98479
▁deltaker	-9.98486
▁vokalist	-9.98531
▁helge	-9.98602
virke	-9.9861
▁vekst	-9.98691
svik	-9.98703
▁borgerkrig	-9.98706
feld	-9.9876
▁ferd	-9.98801
▁prim	-9.98827
prisen	-9.98919
▁gy	-9.98965
▁lignende	-9.99011
▁max	-9.99046
▁arbeide	-9.99127
ios	-9.99146
stikk	-9.99146
▁blomster	-9.99333
▁øyne	-9.9936
virksomhet	-9.99399
trafikk	-9.994
enberg	-9.99541
▁syk	-9.99584
▁kilder	-9.99622
aktiv	-9.99657
myndighet	-9.99668
ón	-9.99691
▁administrativ	-9.99698
bon	-9.99698
▁1951	-9.99713
▁hevde	-9.9972
bevegelsen	-9.9974
▁veldig	-9.99749
▁kjøl	-9.9975
▁will	-9.99754
klassen	-9.99761
▁stå	-9.99812
▁tårn	-9.99821
▁bydelen	-9.99834
98	-9.99899
▁sivil	-9.99911
pass	-9.99994
▁char	-10.001
▁may	-10.0012
▁maler	-10.0024
▁celle	-10.0026
▁troll	-10.0027
▁regjerings	-10.0028
▁teksten	-10.0029
kanten	-10.0037
▁nedre	-10.0041
▁utvalg	-10.0046
▁up	-10.0074
▁prosjektet	-10.0076
konkurranse	-10.0076
bånd	-10.0077
miljø	-10.0077
krets	-10.0088
skift	-10.0089
▁frihet	-10.0089
mund	-10.0094
▁artist	-10.0103
▁joseph	-10.0105
▁etterfulgt	-10.0105
▁tilknyttet	-10.0105
▁yngre	-10.0105
▁oversettelse	-10.0106
▁arbeiderpartiet	-10.0106
▁overflate	-10.0106
▁protest	-10.0107
følgende	-10.0107
▁skaffe	-10.0108
trukket	-10.011
høgskole	-10.011
97	-10.0112
rich	-10.0119
▁team	-10.0123
▁roll	-10.0125
▁maur	-10.0125
▁bispedømme	-10.014
svarer	-10.0143
▁ulik	-10.0152
▁fantes	-10.0171
▁innhold	-10.0172
33	-10.0174
▁irsk	-10.0175
fond	-10.0177
giver	-10.0185
serie	-10.0192
▁sykdom	-10.0202
saker	-10.0215
▁uttale	-10.0221
mennene	-10.0225
verdi	-10.0227
▁betegne	-10.0232
▁republikken	-10.0241
▁advokat	-10.0242
▁deriblant	-10.0242
trinn	-10.0244
ingeniør	-10.0244
▁alpin	-10.0247
▁pensjon	-10.0247
▁38	-10.0253
metode	-10.0253
vannet	-10.0254
▁bol	-10.0257
time	-10.0259
▁løsning	-10.026
▁hill	-10.026
19	-10.0263
▁spansk	-10.0263
skilt	-10.0269
▁foss	-10.0271
▁tunnel	-10.0288
▁fortsette	-10.0289
▁maleri	-10.0298
▁sti	-10.031
person	-10.0315
▁mobil	-10.0318
▁mangle	-10.0318
blad	-10.0319
▁erobret	-10.0323
nis	-10.0325
▁stille	-10.0336
▁medisinsk	-10.0337
ulf	-10.0349
lingen	-10.0351
▁romanen	-10.0352
passet	-10.0358
emme	-10.036
kall	-10.037
nummer	-10.0371
▁lake	-10.0376
▁records	-10.0381
▁regissert	-10.0381
▁kombinert	-10.0381
▁blanding	-10.0381
▁riktig	-10.0382
▁referere	-10.0382
▁1913	-10.0382
▁produserte	-10.0385
▁sannsynligvis	-10.0386
ér	-10.0386
▁blue	-10.0386
▁prins	-10.039
▁søkt	-10.0391
▁bombe	-10.0403
høyskole	-10.0406
▁peder	-10.0408
▁eva	-10.0413
▁tusen	-10.0413
▁oppleve	-10.0422
roll	-10.0422
▁orkester	-10.0429
▁tradisjonell	-10.0431
▁internasjonalt	-10.0433
liste	-10.0437
▁old	-10.0443
▁stillingen	-10.0448
▁dato	-10.0459
wan	-10.0461
▁demokratisk	-10.0463
▁enkle	-10.0465
▁studenter	-10.0466
enburg	-10.047
▁fritt	-10.0471
▁laste	-10.0477
▁1000	-10.0483
▁jule	-10.0491
▁samfunn	-10.0501
▁rand	-10.0502
bredde	-10.0504
▁straffe	-10.0508
▁south	-10.0511
angrep	-10.0513
setting	-10.0519
▁himmel	-10.0522
▁bryst	-10.0522
▁brensel	-10.0522
▁hustru	-10.0522
▁hemmelig	-10.0522
▁gustav	-10.0523
▁dialekt	-10.0523
▁planlagt	-10.0526
▁1500	-10.053
fabrikk	-10.053
▁1600	-10.0531
▁prix	-10.0532
▁innsats	-10.0541
▁bånd	-10.0551
▁che	-10.0565
▁angrepet	-10.057
qua	-10.0571
hild	-10.0573
ction	-10.0577
▁medlemmene	-10.0578
aya	-10.0579
snitt	-10.0584
▁kommuner	-10.0587
▁ref	-10.0596
▁hindre	-10.0596
▁struktur	-10.0604
▁avsluttet	-10.0606
tina	-10.0609
mond	-10.0619
▁former	-10.0625
▁årsak	-10.063
▁tradisjonel	-10.0635
▁dor	-10.0645
hånd	-10.0645
▁arve	-10.0646
hage	-10.0655
▁individ	-10.0664
à	-10.0664
▁positiv	-10.0664
▁county	-10.0664
▁forsvaret	-10.0665
▁ungarn	-10.0665
▁redusert	-10.0665
▁frederik	-10.0665
▁edvard	-10.0666
▁video	-10.0666
▁multi	-10.0666
▁signert	-10.0668
verv	-10.0669
▁varierer	-10.0671
▁stab	-10.0674
▁hellas	-10.0674
▁tilhenger	-10.0675
▁enorm	-10.0684
▁levde	-10.0684
kilde	-10.0685
▁undervisning	-10.0691
▁syke	-10.0696
▁nordisk	-10.0696
▁representert	-10.0698
▁unngå	-10.0703
24	-10.0706
▁hon	-10.071
▁anlegg	-10.072
▁idrettslag	-10.0723
16	-10.0733
▁dynastiet	-10.0738
▁ansett	-10.0743
12	-10.0744
▁behandle	-10.0745
▁hage	-10.0746
▁sosiale	-10.0751
21	-10.0758
▁snu	-10.0763
▁sammenligne	-10.0765
▁søke	-10.0766
▁star	-10.077
▁bay	-10.0772
▁akt	-10.0773
▁utgave	-10.0777
▁ö	-10.0779
▁bla	-10.078
mur	-10.0784
▁utover	-10.0785
mma	-10.0788
skudd	-10.0792
▁nam	-10.0792
96	-10.0793
▁bevegelsen	-10.08
▁troms	-10.0805
▁arrestert	-10.0809
▁kjærlighet	-10.0809
▁rogaland	-10.0809
konferanse	-10.081
▁skjul	-10.081
▁smith	-10.081
▁litterær	-10.0811
▁1922	-10.0811
▁1915	-10.0811
03	-10.0813
▁soldat	-10.0813
▁music	-10.0814
▁utga	-10.0815
▁oppnå	-10.0815
eksamen	-10.082
▁tverr	-10.0822
88	-10.0833
▁registrert	-10.0835
linjer	-10.0836
kammer	-10.0842
▁34	-10.0846
▁jag	-10.0847
82	-10.0847
▁kanal	-10.0848
▁150	-10.0862
▁unna	-10.0864
▁klosteret	-10.0873
kilden	-10.0874
▁overfor	-10.0876
▁forstå	-10.0879
▁aust	-10.0882
▁utvidet	-10.0884
▁endre	-10.0885
▁flyet	-10.0889
eller	-10.089
▁foreldre	-10.0913
▁farger	-10.092
▁hellige	-10.0923
▁typen	-10.0923
prosjekt	-10.0941
middel	-10.0941
farge	-10.0942
start	-10.0952
feltet	-10.0955
kompleks	-10.0956
▁sportsutøver	-10.0956
▁akershus	-10.0957
▁følelse	-10.0957
▁ødelagt	-10.0957
▁magnus	-10.0957
▁tilhørte	-10.0957
▁fungert	-10.0957
▁scoret	-10.0958
▁1926	-10.0958
▁besøkt	-10.0964
▁kapp	-10.0965
▁albert	-10.0968
bygget	-10.0968
masse	-10.097
▁musikken	-10.099
▁arn	-10.0992
▁flest	-10.1005
▁opptil	-10.1008
▁spise	-10.102
klubben	-10.1025
▁dekker	-10.1046
▁jente	-10.1065
▁uke	-10.1068
▁sim	-10.1078
vinger	-10.1078
38	-10.108
ual	-10.108
lønn	-10.1083
▁byttet	-10.1084
▁avtale	-10.1087
▁kampene	-10.1088
▁unn	-10.1094
maskin	-10.1098
▁kontor	-10.11
▁måten	-10.1105
▁science	-10.1106
▁østerriksk	-10.1106
▁bidro	-10.1106
▁frivillig	-10.1106
▁1917	-10.1107
▁1910	-10.1108
faktor	-10.1109
▁etappe	-10.1109
▁saint	-10.111
▁endringer	-10.111
▁føre	-10.1113
▁avholdt	-10.1116
▁gjeste	-10.1116
▁primær	-10.1116
▁nedlagt	-10.1117
▁aksje	-10.1118
forhold	-10.1119
ity	-10.1121
▁innsjø	-10.1126
▁religiøse	-10.1131
▁tang	-10.1132
▁tredjeplass	-10.1135
▁klassen	-10.1138
▁mak	-10.1139
åsen	-10.1145
▁gard	-10.1159
▁halvdel	-10.1163
ische	-10.1169
tårn	-10.117
▁stri	-10.1184
▁nettverk	-10.1186
▁sete	-10.119
▁bilder	-10.1209
▁vers	-10.1211
▁moren	-10.1212
▁utøve	-10.1214
▁drap	-10.1215
▁frø	-10.1218
▁nav	-10.1219
▁dit	-10.1221
vitenskap	-10.1226
▁reist	-10.1227
▁blande	-10.1232
▁boka	-10.1234
produsent	-10.1246
medlem	-10.1249
ical	-10.1257
▁introdusert	-10.1257
▁vietnam	-10.1257
▁guvernør	-10.1257
▁1934	-10.1257
▁edward	-10.1257
▁konsept	-10.1257
▁krevde	-10.1257
kjent	-10.1257
▁1911	-10.1259
▁1919	-10.1259
▁brygge	-10.1259
▁monark	-10.126
▁tråd	-10.1262
bein	-10.1264
▁feire	-10.1265
slav	-10.1267
kostnad	-10.1268
▁tromsø	-10.1271
▁tørr	-10.1275
▁sammenlagt	-10.1277
dyktig	-10.128
▁human	-10.1281
▁administrasjon	-10.1286
ois	-10.1306
▁oppstå	-10.1306
▁aker	-10.1317
▁mary	-10.1325
▁hotell	-10.133
▁kvart	-10.1332
▁omfattet	-10.1333
▁verdensmester	-10.1334
▁tilfelle	-10.1336
▁tilbud	-10.134
▁ok	-10.1345
▁evne	-10.1346
▁kjøpe	-10.1351
lyst	-10.1354
▁bølge	-10.1357
71	-10.1373
▁stoff	-10.1378
hua	-10.1379
▁verker	-10.138
vald	-10.1381
bal	-10.1395
lid	-10.1397
▁kristian	-10.1403
samfunn	-10.1404
jal	-10.1404
▁hode	-10.1408
▁administrer	-10.1411
▁ødelegge	-10.1411
▁jakob	-10.1411
▁liberal	-10.1411
▁allierte	-10.1411
▁bøkene	-10.1411
▁administrasjons	-10.1417
våk	-10.142
▁resultatet	-10.1427
▁utdannelse	-10.1428
ada	-10.1429
klar	-10.1434
inntekt	-10.1438
turnering	-10.1443
kjemi	-10.1443
▁kil	-10.1445
▁sort	-10.145
spillet	-10.1459
▁esp	-10.1459
chester	-10.1464
istikk	-10.1467
▁markert	-10.1472
veis	-10.1474
▁kari	-10.1477
▁cel	-10.1477
▁involvert	-10.1481
▁pin	-10.1487
▁grunnla	-10.1491
▁møter	-10.1494
▁hannen	-10.1495
▁stift	-10.1495
▁nm	-10.1496
▁hjul	-10.1509
▁penge	-10.1516
▁mono	-10.1518
▁ull	-10.1521
fjellet	-10.1526
▁33	-10.1527
▁flåte	-10.1529
▁utsatt	-10.1533
▁bob	-10.1535
▁rent	-10.1541
▁sivile	-10.1553
▁turist	-10.1554
reise	-10.1562
▁beseiret	-10.1567
▁eksemplar	-10.1567
▁eventyr	-10.1567
▁manuskript	-10.1567
▁doktorgrad	-10.1567
▁skulptur	-10.1567
▁belgia	-10.1567
▁reaksjon	-10.1568
▁myndighetene	-10.1568
▁1923	-10.1569
▁skriver	-10.157
▁ukjent	-10.1574
в	-10.1588
økende	-10.1589
▁simon	-10.1597
foreningen	-10.1598
▁american	-10.1606
▁minister	-10.1606
▁styrte	-10.1611
dommer	-10.1614
▁tam	-10.1614
press	-10.1627
esisk	-10.1632
▁brenn	-10.1665
vind	-10.1666
årene	-10.1685
▁thi	-10.169
stasjonen	-10.1691
▁fotograf	-10.1692
▁bære	-10.1699
▁green	-10.1701
▁ære	-10.1702
eppe	-10.1706
▁gun	-10.1714
▁sannsynlig	-10.1721
kvalifisering	-10.1726
▁avdøde	-10.1726
▁eksistert	-10.1727
▁terror	-10.1727
▁otto	-10.1729
▁kvalitet	-10.1731
▁sikkerhets	-10.1732
strøk	-10.1734
▁utstyr	-10.1734
gro	-10.1734
▁byggingen	-10.1734
▁olsen	-10.1735
▁bekrefte	-10.1736
▁fjernet	-10.174
modell	-10.1741
▁effektiv	-10.1743
▁gitarist	-10.1744
▁spenn	-10.1751
▁vedtatt	-10.1771
▁damp	-10.1781
▁kanalen	-10.1783
fyll	-10.1785
▁utstyrt	-10.1787
▁dø	-10.1791
én	-10.1795
▁anton	-10.1798
roman	-10.18
▁bull	-10.1815
▁hastighet	-10.1832
tunnelen	-10.1833
▁innlede	-10.1835
▁hals	-10.184
▁disk	-10.1843
▁bredt	-10.1861
▁wei	-10.1867
▁medisin	-10.1867
skjell	-10.1884
produkt	-10.1886
▁arrangement	-10.1887
▁eventuel	-10.1887
▁tyrkisk	-10.1887
▁kristiansand	-10.1887
▁kombinasjon	-10.1887
▁ekstrem	-10.1887
▁dollar	-10.1887
▁nektet	-10.1888
▁hovedrollen	-10.1888
▁utmerkelse	-10.1888
▁innspilling	-10.1888
▁debut	-10.1889
▁manager	-10.1889
▁svømme	-10.1891
▁tekster	-10.1891
▁midlertidig	-10.1891
▁premier	-10.1891
hjem	-10.1891
▁forlenge	-10.1891
duk	-10.1905
wald	-10.1907
bebyggelse	-10.1907
handel	-10.192
▁lavere	-10.1923
▁muligens	-10.1923
▁utbygging	-10.1926
fat	-10.1929
▁villa	-10.1929
▁fotballklubb	-10.1946
▁forlate	-10.1964
styrt	-10.1972
▁cre	-10.1974
barn	-10.1981
norsk	-10.1982
linje	-10.1987
▁brand	-10.1994
▁begrep	-10.1994
▁py	-10.2001
livet	-10.2002
▁starten	-10.2008
▁cd	-10.2009
grensen	-10.2015
▁starter	-10.203
▁landskap	-10.2031
basert	-10.2039
forsker	-10.2039
▁grønland	-10.2051
▁inneholdt	-10.2051
▁school	-10.2051
▁konstant	-10.2052
▁hendelsen	-10.2052
▁rør	-10.2052
▁1921	-10.2053
kompani	-10.2053
forfatter	-10.2053
▁debatt	-10.2054
▁myndigheter	-10.2054
▁fullført	-10.2055
▁fjord	-10.2056
▁gyld	-10.2058
▁fru	-10.2058
▁daniel	-10.2059
▁stemmer	-10.2061
▁jødiske	-10.2062
havn	-10.2063
▁agder	-10.2066
saken	-10.2066
▁sankt	-10.2081
▁ønske	-10.2082
▁river	-10.2087
▁omkom	-10.2092
▁filosof	-10.2099
▁preg	-10.2115
▁vitne	-10.2119
▁cu	-10.2146
▁menighet	-10.2151
▁verb	-10.2158
▁styret	-10.2161
▁alf	-10.2175
▁motiv	-10.2183
gav	-10.2186
▁tun	-10.2186
bryter	-10.2196
▁bygger	-10.2213
vard	-10.2217
▁pap	-10.2218
▁grunnlag	-10.2218
▁service	-10.2218
▁kommando	-10.2218
▁vesentlig	-10.2218
▁redusere	-10.2218
▁etablere	-10.2218
▁etterfølger	-10.2221
utvikling	-10.2223
▁dvs	-10.2223
▁reserve	-10.2223
23	-10.2223
▁europe	-10.2227
▁lån	-10.2227
▁fan	-10.2235
▁glass	-10.2235
gende	-10.2246
skij	-10.2248
▁kommunikasjon	-10.225
vandring	-10.2253
kjøretøy	-10.2258
▁hem	-10.2261
▁fyrst	-10.2265
▁gruppa	-10.2288
▁santa	-10.2302
äl	-10.2305
▁east	-10.2308
▁44	-10.2312
listen	-10.2317
komiteen	-10.232
▁kloster	-10.2321
▁euro	-10.2339
22	-10.2341
▁korn	-10.2353
▁skyte	-10.2354
▁bevege	-10.2358
▁elev	-10.236
sikkerhet	-10.2362
▁sunn	-10.2365
midler	-10.2366
▁semifinale	-10.2387
▁reklame	-10.2387
▁sprint	-10.2387
▁kommunal	-10.2388
▁golf	-10.2388
11	-10.2388
▁beholdt	-10.2389
▁oppløst	-10.2389
▁1905	-10.2389
▁scott	-10.2389
▁godkjent	-10.2389
▁internett	-10.239
plattform	-10.239
▁kjemisk	-10.2391
▁formen	-10.2393
▁fløy	-10.2394
▁fv	-10.2395
▁hitler	-10.2395
plante	-10.2396
mming	-10.2397
front	-10.2397
kampanje	-10.2403
▁kim	-10.2423
tjenesten	-10.2433
vika	-10.2435
▁sikker	-10.2439
▁kraftige	-10.244
▁selge	-10.2441
galleri	-10.2445
trop	-10.2445
32	-10.2461
rup	-10.2465
▁regional	-10.2469
▁eksistere	-10.2472
strid	-10.2477
▁steg	-10.2482
▁mangler	-10.2514
staten	-10.2517
krig	-10.2525
▁hull	-10.2525
forbundet	-10.2541
▁ønsker	-10.2557
ön	-10.2559
friidrettsutøver	-10.256
▁1906	-10.256
▁afghanistan	-10.256
▁helsingfors	-10.256
territorie	-10.256
▁tempel	-10.256
▁negativ	-10.256
▁cirka	-10.256
▁nedbør	-10.256
▁mongol	-10.256
▁generasjon	-10.2561
▁signal	-10.2561
▁1916	-10.2562
▁telemark	-10.2562
▁poet	-10.2562
▁romsdal	-10.2564
▁erfaring	-10.2564
▁france	-10.2564
▁meldt	-10.2568
▁parken	-10.2572
▁representanter	-10.258
▁uavhengighet	-10.2595
▁master	-10.2606
jord	-10.2607
▁latinsk	-10.261
▁fungerer	-10.2616
▁nordover	-10.2617
▁slett	-10.2618
▁finn	-10.2631
▁kåret	-10.2632
▁buk	-10.2635
▁hagen	-10.2635
aria	-10.2641
▁manus	-10.2649
▁individuell	-10.2651
▁parlamentet	-10.2664
finn	-10.2665
▁planter	-10.267
▁kommunistisk	-10.267
▁tell	-10.2673
▁120	-10.2676
▁mannlig	-10.2677
▁dobbelt	-10.2682
31	-10.2694
▁gli	-10.2712
▁grov	-10.2716
▁bakkroppen	-10.2717
▁legger	-10.273
▁elever	-10.2734
▁midler	-10.2735
ulykke	-10.2735
▁antwerpen	-10.2735
▁konkurrere	-10.2735
▁washington	-10.2735
▁objekt	-10.2735
▁club	-10.2735
▁inngår	-10.2736
▁1927	-10.2737
▁1925	-10.2738
▁wolf	-10.2738
forsyning	-10.2739
▁rektor	-10.2742
▁hardt	-10.2742
▁eksport	-10.2743
▁føde	-10.2745
▁mynt	-10.2746
▁prosessen	-10.2746
▁kode	-10.2748
forskning	-10.275
▁hovedsak	-10.2751
▁fremmed	-10.2753
▁vakt	-10.2755
▁befinne	-10.2756
▁mottatt	-10.2761
▁phil	-10.2768
▁gradvis	-10.2768
▁dommer	-10.277
ån	-10.2776
▁fjellene	-10.2778
▁rulle	-10.2779
▁nø	-10.2792
verden	-10.2811
▁egyptisk	-10.2816
▁ulv	-10.2824
▁blomst	-10.2826
▁skuespill	-10.2833
▁vg	-10.2833
▁steve	-10.2844
▁ankom	-10.2844
misjon	-10.285
vinner	-10.2852
▁levert	-10.2858
▁auto	-10.2859
▁arkeologisk	-10.2877
▁produserer	-10.2882
kjæ	-10.2885
▁dyrke	-10.289
▁eik	-10.2897
▁teologi	-10.2898
▁beslutte	-10.2914
▁katedral	-10.2914
▁shanghai	-10.2914
▁byprefektur	-10.2914
▁hensikt	-10.2914
▁strategi	-10.2914
▁white	-10.2914
▁vokser	-10.2914
▁belgisk	-10.2914
▁verdensrekord	-10.2915
▁håndball	-10.2915
▁voksen	-10.2917
▁lykke	-10.2917
▁kjempet	-10.2921
▁kontra	-10.2927
▁velge	-10.293
hard	-10.293
▁wu	-10.293
troppen	-10.2945
▁skudd	-10.2948
lyn	-10.2948
forsvar	-10.2952
▁adam	-10.2952
▁bakke	-10.2953
▁sørover	-10.2955
▁salme	-10.2958
▁foreningen	-10.2961
▁roger	-10.2965
▁hov	-10.2975
▁medaljer	-10.2986
▁musikalsk	-10.2987
▁insekter	-10.2994
▁pil	-10.2994
▁ansvarlig	-10.3
▁bærer	-10.3002
▁tilfeller	-10.3028
▁bunn	-10.3029
▁stål	-10.3032
halvøya	-10.3046
▁bio	-10.3047
zy	-10.3057
▁street	-10.306
▁shan	-10.3063
▁trening	-10.3078
▁tau	-10.3083
▁1902	-10.3096
▁1904	-10.3096
▁ludvig	-10.3096
▁vingespenn	-10.3096
▁alkohol	-10.3096
▁digital	-10.3096
▁oppmerksomhet	-10.3096
traktaten	-10.3096
▁forbedre	-10.3096
▁egenskaper	-10.3096
able	-10.3096
▁definert	-10.3096
▁francisco	-10.3098
▁ligner	-10.3098
▁house	-10.3099
▁utenlandske	-10.3101
▁betegnelse	-10.3103
drakt	-10.3106
▁anse	-10.3112
▁artister	-10.3114
81	-10.3117
▁knap	-10.3118
slått	-10.3118
▁jack	-10.3121
▁tsj	-10.3122
▁magnet	-10.3122
▁medaljen	-10.3125
▁kalk	-10.3127
▁bygda	-10.3129
vest	-10.315
▁menneskelig	-10.3154
syre	-10.3155
strømmen	-10.3159
falt	-10.316
▁sun	-10.3163
▁statue	-10.3166
▁artikler	-10.3174
▁barna	-10.3175
dikt	-10.3177
▁pala	-10.3179
▁metro	-10.3186
▁long	-10.3188
ative	-10.319
▁katolsk	-10.3208
▁zu	-10.3215
▁kraftverket	-10.3219
▁kalde	-10.3221
▁museet	-10.3224
strå	-10.3261
▁angi	-10.327
buss	-10.3272
▁münchen	-10.3281
▁begrenset	-10.3281
mønster	-10.3281
▁referanse	-10.3281
▁singelen	-10.3282
▁naturgass	-10.3282
▁novell	-10.3283
▁rammet	-10.3287
▁utnytte	-10.3295
▁brødrene	-10.3299
▁utgi	-10.33
▁hå	-10.3306
▁isteden	-10.331
demokrat	-10.331
▁deltatt	-10.3311
klasse	-10.3312
▁gjeld	-10.333
▁jøder	-10.3346
26	-10.3352
tittel	-10.3355
dannelse	-10.3358
▁flyktet	-10.3364
▁melk	-10.3369
▁avtalen	-10.337
▁mah	-10.3386
▁kvi	-10.339
▁flyplassen	-10.34
▁løve	-10.3401
formede	-10.3404
▁vingene	-10.3411
▁statlig	-10.3415
▁ec	-10.3423
▁måter	-10.3424
▁tjene	-10.3444
▁undergrunns	-10.3453
▁friedrich	-10.347
▁jerusalem	-10.347
▁juridisk	-10.347
▁portugal	-10.347
▁portugisisk	-10.347
▁prøvd	-10.347
▁vilhelm	-10.347
vassdraget	-10.347
▁invasjon	-10.3471
▁nedenfor	-10.3471
▁finnmark	-10.3471
▁håkon	-10.3471
væske	-10.3472
▁1300	-10.3474
▁studere	-10.3475
▁programmer	-10.348
▁ibsen	-10.3481
▁kapell	-10.3487
▁forvingen	-10.3491
ytelse	-10.3497
kontor	-10.3501
▁håp	-10.3505
bøker	-10.3505
▁karakteristisk	-10.3505
høyde	-10.3506
▁bytte	-10.3511
typen	-10.3511
måte	-10.3512
▁vanligste	-10.3514
▁umiddelbart	-10.3514
firma	-10.3517
løv	-10.3518
▁praktisk	-10.3521
▁mesterskap	-10.3525
▁statsråd	-10.3528
karriere	-10.3547
▁aas	-10.3548
▁neu	-10.3552
▁wall	-10.3553
redskap	-10.3554
ough	-10.3559
sosialist	-10.3559
▁kyr	-10.3564
▁eksisterer	-10.3576
7	-10.3592
▁town	-10.3594
▁fortsetter	-10.3602
▁strak	-10.3607
melding	-10.3615
▁opplag	-10.363
▁hamar	-10.364
▁700	-10.3651
▁opptre	-10.3657
bak	-10.3661
▁planen	-10.3662
▁kjennetegn	-10.3662
▁okkupert	-10.3662
▁argument	-10.3662
eksperiment	-10.3662
skapasitet	-10.3662
▁geografisk	-10.3662
▁klokken	-10.3662
▁bakvingen	-10.3663
▁overraske	-10.3663
▁beordre	-10.3663
▁oblast	-10.3664
kjørt	-10.3664
▁definere	-10.3664
▁anklage	-10.3665
▁philip	-10.3665
▁helst	-10.3677
▁tronen	-10.3682
bedrift	-10.3686
østregionen	-10.3687
direktør	-10.3693
▁johansen	-10.3695
▁persisk	-10.3698
▁beskyttelse	-10.3706
▁seire	-10.3712
▁nak	-10.372
27	-10.372
▁ost	-10.3721
vold	-10.3724
qi	-10.3732
▁frukt	-10.3736
▁elektron	-10.3743
▁sho	-10.3745
▁oppfatte	-10.3748
yang	-10.3753
litt	-10.3753
fyr	-10.3757
▁vestre	-10.3759
▁alv	-10.3761
områdene	-10.3774
▁kulturell	-10.3784
▁utenriks	-10.3798
▁900	-10.3821
▁myk	-10.3831
hul	-10.384
▁årsaken	-10.3854
▁alexander	-10.3858
▁amsterdam	-10.3858
▁australsk	-10.3858
▁milliarder	-10.3858
▁innbyggerne	-10.3858
▁terreng	-10.3858
▁klipp	-10.3858
▁beregne	-10.3858
▁foreslått	-10.386
▁britene	-10.386
▁brown	-10.3861
▁kritisk	-10.3861
▁nasjonalpark	-10.3863
▁hensyn	-10.3867
elv	-10.3868
iko	-10.3872
▁formelt	-10.3872
▁1882	-10.3874
▁christiania	-10.389
▁morgen	-10.3892
politisk	-10.3895
▁vegg	-10.3897
forsamlingen	-10.3897
▁oppsto	-10.3898
▁42	-10.3909
▁betale	-10.3917
▁republikk	-10.3924
fant	-10.394
▁eli	-10.3944
▁platen	-10.3954
▁kai	-10.3959
▁grunnlaget	-10.3973
▁fler	-10.3987
▁ordre	-10.3988
træ	-10.3993
29	-10.4
▁frakte	-10.4002
▁ferge	-10.4022
▁rob	-10.4032
▁alexandr	-10.4058
▁astronom	-10.4058
▁konkurrert	-10.4058
▁initiativ	-10.4058
▁oppretthold	-10.4058
▁gymnas	-10.4058
▁kongedømmet	-10.4058
▁ansikt	-10.4058
▁nikola	-10.4058
▁fjær	-10.4058
▁kvalifisert	-10.4058
▁josef	-10.4058
▁døgn	-10.4059
▁respekt	-10.406
▁filip	-10.4063
▁operere	-10.4069
▁driv	-10.407
awa	-10.4073
▁1896	-10.4074
▁1899	-10.408
▁1890	-10.4081
▁spesialiser	-10.4084
▁velger	-10.4085
▁besetning	-10.4093
▁opptatt	-10.4094
▁tyskerne	-10.4096
▁brent	-10.4096
▁fusjon	-10.41
▁tykk	-10.4112
▁utøvere	-10.4129
kommende	-10.4135
▁bestemme	-10.4137
▁khan	-10.4149
▁urban	-10.4153
vakt	-10.4154
ique	-10.4159
▁inge	-10.4162
▁begynne	-10.4165
▁from	-10.4166
▁brutt	-10.4175
▁cur	-10.4181
▁dekke	-10.4209
▁play	-10.4215
▁geo	-10.423
klæ	-10.4235
▁aleksander	-10.4262
▁elizabeth	-10.4262
▁skjønt	-10.4262
▁utelukke	-10.4262
▁kapasitet	-10.4262
▁lyktes	-10.4262
▁stafett	-10.4262
▁texas	-10.4262
▁sekunder	-10.4262
▁uvanlig	-10.4262
▁major	-10.4262
▁sjette	-10.4263
▁arendal	-10.4263
▁alfred	-10.4264
▁fredrikstad	-10.4269
komité	-10.4271
▁grim	-10.4272
bød	-10.4273
▁petr	-10.4273
▁high	-10.4278
▁1897	-10.428
pin	-10.4281
▁sæ	-10.4281
▁walter	-10.4284
bukta	-10.4285
▁1885	-10.4287
▁petter	-10.4289
▁levende	-10.4296
▁overtatt	-10.43
▁gullmedalje	-10.431
▁wales	-10.4314
▁sosialistisk	-10.4326
▁cast	-10.4341
▁handle	-10.4349
▁bell	-10.4353
▁vall	-10.4361
▁nød	-10.4365
▁mei	-10.4367
▁verd	-10.4404
spenning	-10.4416
brød	-10.4418
familie	-10.4421
▁fulgt	-10.4425
▁vende	-10.4428
samband	-10.4436
▁vente	-10.4439
▁underlag	-10.4439
bring	-10.4446
▁cle	-10.4447
▁utgaven	-10.4448
perioden	-10.4453
▁kok	-10.4457
bataljon	-10.447
▁1901	-10.447
▁akseptert	-10.447
▁svalbard	-10.447
kompetanse	-10.447
▁kapital	-10.447
▁overlevde	-10.447
▁mektig	-10.4471
▁debutalbum	-10.4471
▁tropper	-10.4471
▁allianse	-10.4472
▁väst	-10.4472
▁hedmark	-10.4473
▁drammen	-10.4474
▁svein	-10.4474
▁nedtegne	-10.4475
▁angripe	-10.4477
▁betalt	-10.4477
▁variasjon	-10.448
▁middelalder	-10.4491
▁stam	-10.4492
▁oppstod	-10.4494
snegl	-10.45
▁demningen	-10.45
▁tvang	-10.4502
▁queen	-10.4506
teori	-10.4513
formasjon	-10.4518
materiale	-10.4518
president	-10.4518
utvikle	-10.452
▁scenen	-10.452
▁cuba	-10.4521
sønn	-10.4522
flåten	-10.4522
▁samisk	-10.4531
▁ennå	-10.4535
▁tilhøre	-10.4543
▁elite	-10.4556
teater	-10.4566
▁inneha	-10.4574
wick	-10.4575
▁episode	-10.4579
▁skall	-10.4588
økonomi	-10.4589
øst	-10.4638
▁prakt	-10.4641
▁gjennomføre	-10.4651
▁vindu	-10.4654
ов	-10.4655
▁jim	-10.4662
effekt	-10.4676
▁innbyggertall	-10.4683
▁hovedkvarter	-10.4683
▁restaurant	-10.4683
▁innebærer	-10.4683
▁jørgen	-10.4683
▁monument	-10.4683
▁foregår	-10.4683
▁nemlig	-10.4683
▁separat	-10.4683
▁opplysning	-10.4683
▁trengte	-10.4684
▁forårsake	-10.4684
▁naturreservat	-10.4684
ruten	-10.4684
forretning	-10.4685
▁group	-10.4687
▁dominerende	-10.4688
▁smak	-10.4691
▁detalj	-10.4692
▁1200	-10.4692
▁skytter	-10.4694
▁sveitsisk	-10.4695
▁øv	-10.4697
▁allmenn	-10.4697
▁fremført	-10.4701
▁1898	-10.4702
▁vekk	-10.4715
▁great	-10.4718
styring	-10.4722
▁beholde	-10.4724
stjerne	-10.4744
spiss	-10.4747
▁cand	-10.4753
▁mord	-10.4772
▁utløp	-10.4788
▁synlig	-10.4796
periode	-10.4802
▁250	-10.4811
▁kamera	-10.4816
støtte	-10.4832
gripe	-10.4836
▁forsterke	-10.4852
▁slu	-10.4857
▁religiøs	-10.4863
▁delstat	-10.487
▁andel	-10.4871
▁modern	-10.4873
▁markere	-10.4878
▁vig	-10.4886
analyse	-10.4899
▁argentina	-10.4901
▁elisabeth	-10.4901
▁nøyaktig	-10.4901
▁vestfold	-10.4901
komponent	-10.4901
frekvens	-10.4901
▁nicola	-10.4901
▁hebraisk	-10.4901
▁kommersiell	-10.4901
▁fiolin	-10.4901
▁gunnar	-10.4901
▁hvem	-10.4901
▁utseende	-10.4901
▁yngst	-10.4901
▁adresse	-10.4902
▁telefon	-10.4903
▁trær	-10.4903
▁1907	-10.4903
▁1909	-10.4903
▁operatør	-10.4904
▁molde	-10.4905
▁trenger	-10.4905
▁skarp	-10.4906
språklige	-10.4907
skrevet	-10.4908
▁komposisjon	-10.4908
▁tolke	-10.4913
▁spring	-10.4915
▁beskrivelse	-10.4919
psykologi	-10.4921
▁ombord	-10.4924
▁polar	-10.4928
▁bryte	-10.4933
▁thu	-10.4944
▁lord	-10.495
▁elevene	-10.4964
▁foreldrene	-10.4966
maleri	-10.4967
stav	-10.4977
▁vennskap	-10.4978
▁wel	-10.4989
verg	-10.501
▁krim	-10.5019
▁stund	-10.5022
▁fase	-10.504
økonom	-10.5046
▁ytter	-10.5051
vatn	-10.5055
bakterie	-10.5061
▁jam	-10.5079
▁gjeng	-10.5105
kongen	-10.5106
▁fødsel	-10.5122
▁kollektiv	-10.5123
▁windows	-10.5123
▁permanent	-10.5123
▁forsvant	-10.5123
▁selvmord	-10.5123
▁arthur	-10.5123
▁atmosfære	-10.5123
▁dominert	-10.5123
▁studioalbum	-10.5124
▁antyde	-10.5125
▁slank	-10.5125
▁stiftelsen	-10.5126
▁avledet	-10.5126
tvunget	-10.5128
▁antas	-10.5129
▁interessert	-10.5135
▁1886	-10.5145
▁sideelv	-10.5166
▁islam	-10.5175
▁furu	-10.5185
musiker	-10.5189
▁hekk	-10.5223
▁frei	-10.5259
korset	-10.526
▁arab	-10.5264
▁avvist	-10.5268
næs	-10.5299
▁klin	-10.5328
rock	-10.5338
▁jomfru	-10.535
budsjett	-10.535
ressurser	-10.535
▁engasjert	-10.535
▁innlemmet	-10.535
▁molekyl	-10.535
▁symptom	-10.535
▁regissør	-10.535
▁østfold	-10.535
▁vannkraftverk	-10.535
▁ovenfor	-10.535
▁preussen	-10.535
▁strekningen	-10.535
▁zealand	-10.535
▁autonom	-10.535
▁bodø	-10.535
▁presentert	-10.535
▁ungarsk	-10.535
▁avgjørende	-10.535
▁palestin	-10.535
▁fjordane	-10.5351
kjøring	-10.5351
▁føderal	-10.5351
▁bayern	-10.5352
givende	-10.5354
▁jackson	-10.5355
▁bratt	-10.5355
handlet	-10.5356
▁splitt	-10.5357
▁sverd	-10.5359
▁fastlandet	-10.5359
▁forbudt	-10.536
▁piano	-10.536
▁høyesterett	-10.5361
▁hamburg	-10.5364
▁unnta	-10.5364
▁young	-10.5365
▁nederlag	-10.5366
▁beslutning	-10.5375
▁1870	-10.5381
nytt	-10.5389
▁tann	-10.5391
▁arkeolog	-10.5405
▁foto	-10.5407
pakke	-10.5415
bord	-10.5417
regjering	-10.5418
museum	-10.5418
▁vass	-10.5423
fell	-10.5431
▁sikte	-10.544
blikk	-10.5444
▁million	-10.5445
▁episoden	-10.5462
status	-10.547
▁hellig	-10.5475
fellesskap	-10.5485
▁elektronisk	-10.5486
▁finale	-10.5515
lyd	-10.5517
rygg	-10.553
rute	-10.5544
maker	-10.5569
▁aksjon	-10.5581
▁babylon	-10.5583
▁ferdinand	-10.5583
▁oksygen	-10.5583
▁pasienter	-10.5583
▁færøyene	-10.5583
▁pyramid	-10.5583
▁seremoni	-10.5583
▁skøyter	-10.5583
▁amatør	-10.5583
▁verdensarv	-10.5583
ström	-10.5583
▁utgivelsen	-10.5583
▁forklaring	-10.5583
alfabet	-10.5583
▁risiko	-10.5584
▁metoder	-10.5585
▁fylt	-10.5586
▁tjue	-10.5587
konvensjon	-10.5587
▁takket	-10.559
▁2018	-10.559
▁materie	-10.5593
▁fossil	-10.5594
▁arena	-10.5595
▁kristiania	-10.5595
▁saga	-10.5596
▁humor	-10.5596
▁wild	-10.5599
▁1888	-10.5601
▁armé	-10.5611
0	-10.5613
▁straff	-10.5616
▁samtlige	-10.5626
▁110	-10.5636
▁web	-10.5648
▁rh	-10.5654
befolkning	-10.5656
europeisk	-10.5656
historisk	-10.5656
▁næringsliv	-10.5656
▁dramatisk	-10.5656
▁chang	-10.5664
▁raf	-10.5671
sesjon	-10.5673
▁avslutte	-10.568
▁antikken	-10.5681
▁ligge	-10.5693
▁israelsk	-10.5764
▁legende	-10.5772
feng	-10.5781
▁synge	-10.5795
▁kent	-10.5802
▁jødisk	-10.5805
▁kår	-10.5806
▁160	-10.5812
▁forskjellig	-10.5818
▁asteroide	-10.5821
▁millimeter	-10.5821
▁mislykke	-10.5821
▁uansett	-10.5821
▁victoria	-10.5821
▁adolf	-10.5821
▁fenomen	-10.5821
▁radikal	-10.5821
▁sachsen	-10.5821
pedagog	-10.5821
▁igjennom	-10.5821
▁seinere	-10.5821
▁noensinne	-10.5821
relatert	-10.5821
▁kobber	-10.5821
▁beskjed	-10.5821
▁regler	-10.5821
▁titler	-10.5822
▁utfordre	-10.5822
▁massiv	-10.5822
▁brøn	-10.5822
▁1903	-10.5823
▁programleder	-10.5824
work	-10.5824
aceae	-10.5825
▁mannskapet	-10.5827
▁michel	-10.5827
▁slippe	-10.5828
▁løfte	-10.583
▁meta	-10.5831
▁medalje	-10.5841
▁utenlands	-10.5841
▁1889	-10.5843
▁party	-10.5845
gudinne	-10.5852
▁1860	-10.5853
▁inndelt	-10.5854
▁hylle	-10.5865
▁utformet	-10.5867
▁kommunist	-10.587
▁lettere	-10.5871
▁høst	-10.5871
▁1850	-10.5872
▁marx	-10.5891
funksjon	-10.59
▁øre	-10.5901
hvit	-10.5913
▁sovjet	-10.5913
yuan	-10.5916
bestemmelse	-10.5923
▁stabil	-10.5923
drive	-10.5924
skade	-10.5925
▁ytterst	-10.5931
▁kub	-10.5934
▁vegne	-10.5956
mengden	-10.5976
laten	-10.5997
cheng	-10.6027
▁psyko	-10.6042
råk	-10.6045
konge	-10.6056
▁okkupasjon	-10.6063
belteasteroide	-10.6065
▁forhindre	-10.6065
▁tyrkia	-10.6065
▁tønsberg	-10.6065
▁utbredelse	-10.6065
▁vedlikehold	-10.6065
▁offensiv	-10.6065
▁stridsvogn	-10.6065
forstyrre	-10.6065
▁søndag	-10.6065
▁begravet	-10.6065
▁kjenner	-10.6065
▁bærum	-10.6065
▁beslekte	-10.6065
▁senior	-10.6065
▁klatre	-10.6065
apparat	-10.6065
▁kopier	-10.6066
▁forberede	-10.6066
▁datamaskin	-10.6066
▁opposisjon	-10.6066
▁spesifik	-10.6067
tillatelse	-10.6068
▁røyk	-10.6069
▁bønn	-10.6072
▁onkel	-10.6074
▁1100	-10.6074
▁britis	-10.6077
▁avansert	-10.6083
▁panser	-10.6086
▁bakkropp	-10.609
▁talent	-10.6092
▁server	-10.6095
jørn	-10.6096
▁billed	-10.6098
prest	-10.6102
▁kommunistparti	-10.6106
▁utvidelse	-10.6107
holt	-10.6132
▁dreie	-10.6142
flue	-10.6147
hastighet	-10.6149
atlant	-10.6154
sjö	-10.6154
museet	-10.6155
hed	-10.6183
gass	-10.6195
utvalget	-10.6208
▁etnisk	-10.6226
▁schw	-10.6235
fattet	-10.6235
årig	-10.6258
▁kirk	-10.6301
▁størst	-10.6313
▁unik	-10.6315
▁fakultet	-10.6315
▁jesuitt	-10.6315
▁matematikk	-10.6315
▁kommandør	-10.6315
▁komponert	-10.6315
▁oxford	-10.6315
▁utslipp	-10.6315
▁middelsstor	-10.6315
▁prefektur	-10.6315
▁canadisk	-10.6315
▁stråling	-10.6315
regulering	-10.6315
▁organisere	-10.6315
▁stoppet	-10.6315
▁nymfe	-10.6315
▁global	-10.6316
biller	-10.6317
▁karbon	-10.6318
▁drikke	-10.6322
stadiet	-10.6324
▁eiendommen	-10.6325
▁mandat	-10.6325
▁datert	-10.6334
▁1883	-10.634
▁1895	-10.6342
▁morten	-10.6345
▁voldsom	-10.6347
▁figuren	-10.635
▁derfra	-10.6357
▁østover	-10.6357
▁trodd	-10.6358
▁brem	-10.6362
politikk	-10.6386
▁kval	-10.6392
▁forklare	-10.6395
posisjon	-10.6396
institutt	-10.6406
rekord	-10.6407
bølge	-10.6408
▁erobre	-10.6423
behandling	-10.6426
▁rykte	-10.6445
▁intens	-10.6448
▁mølle	-10.6454
stamme	-10.6461
▁poli	-10.6472
▁mau	-10.6499
▁tjenestegjor	-10.6547
light	-10.655
▁blind	-10.6553
▁ferskvann	-10.6571
▁inspirasjon	-10.6571
▁nøytral	-10.6571
▁restaurering	-10.6571
▁resultert	-10.6571
▁tilstrekkelig	-10.6571
▁virginia	-10.6571
▁terminal	-10.6571
▁yrkes	-10.6571
▁kjøtt	-10.6571
førsel	-10.6571
orientert	-10.6571
▁fiktiv	-10.6571
▁theodor	-10.6571
▁regulere	-10.6571
▁nevø	-10.6571
▁sydney	-10.6571
veksling	-10.6571
▁etablering	-10.6571
mouth	-10.6571
▁oppløsning	-10.6572
▁mineral	-10.6572
▁power	-10.6573
▁konsentrert	-10.6573
worth	-10.6573
▁generell	-10.6574
▁alpene	-10.6574
▁hjørne	-10.6574
▁legeme	-10.6575
▁styreleder	-10.6577
stipend	-10.6577
▁gravlagt	-10.6577
▁formula	-10.6578
▁biografi	-10.6579
▁hjal	-10.6579
▁arkiv	-10.6579
▁dverg	-10.658
medaljen	-10.6593
▁1884	-10.6595
▁anlagt	-10.6597
▁departement	-10.6604
▁little	-10.6611
town	-10.6615
▁estland	-10.6625
▁smerte	-10.6632
oksid	-10.6636
løk	-10.6662
funn	-10.6668
bibliotek	-10.6669
offiser	-10.6669
hjul	-10.667
▁kino	-10.6671
▁tidligst	-10.6709
▁rhin	-10.6733
preg	-10.6745
▁stortings	-10.6784
tavle	-10.6794
▁regjer	-10.6798
▁industriell	-10.6807
▁cambridge	-10.6834
▁fiendtlig	-10.6834
▁forgjenger	-10.6834
▁frankfurt	-10.6834
▁returnert	-10.6834
▁vulkan	-10.6834
▁frigjøring	-10.6834
▁diameter	-10.6834
▁beleiring	-10.6834
▁mekanisk	-10.6834
▁utgivelser	-10.6835
▁protein	-10.6835
▁fengsle	-10.6835
▁senterpartiet	-10.6835
▁jurist	-10.6836
▁tallrike	-10.6837
▁sykdommen	-10.6842
▁opptreden	-10.6842
▁håndverk	-10.6843
▁nerve	-10.6844
▁figurer	-10.6845
▁1881	-10.6851
▁lidelse	-10.6855
▁avskjed	-10.6856
▁åpenbar	-10.6856
▁tiår	-10.6857
▁tekstil	-10.6858
▁georgia	-10.6859
▁sykle	-10.6864
▁with	-10.6865
▁geir	-10.6889
kjøp	-10.6939
▁domkirke	-10.6954
tagelse	-10.6978
▁opprettelse	-10.6984
▁trø	-10.702
▁eurovis	-10.7046
ifikasjon	-10.7101
konstruert	-10.7104
▁corporation	-10.7104
▁country	-10.7104
▁göteborg	-10.7104
▁konsekvens	-10.7104
▁prestegjeld	-10.7104
▁skandinavisk	-10.7104
▁styrmann	-10.7104
▁trommeslager	-10.7104
▁ukraina	-10.7104
▁hordaland	-10.7104
▁antarktis	-10.7104
▁diskusjon	-10.7104
▁angivelig	-10.7104
▁sluppet	-10.7104
▁opplevde	-10.7105
▁oberst	-10.7105
▁skjøt	-10.7105
▁batteri	-10.7105
▁rolf	-10.7105
▁nkp	-10.7105
▁erobring	-10.7106
▁stengt	-10.7106
▁rådgiver	-10.7106
▁fremstilt	-10.7106
▁divers	-10.7106
▁distanse	-10.7107
▁konservative	-10.7108
▁bedrifter	-10.7108
▁smelte	-10.7108
▁kaffe	-10.7109
▁tropisk	-10.711
▁sjanger	-10.7111
▁overgangs	-10.7114
▁uklar	-10.7117
dratt	-10.7118
▁turné	-10.712
▁rytter	-10.712
▁puppe	-10.7129
ingsrepresentant	-10.7141
▁lukke	-10.7146
embete	-10.7148
▁birk	-10.7156
utenriksminister	-10.7167
strup	-10.7178
▁rådhus	-10.7185
▁sjakk	-10.7189
water	-10.7195
▁utvide	-10.72
fast	-10.7212
transport	-10.7218
▁nazi	-10.7247
▁musikal	-10.7269
▁afrikansk	-10.7275
▁jøde	-10.7306
▁kontrollert	-10.732
skikk	-10.7345
▁kontinent	-10.7362
▁dominere	-10.7377
▁observato	-10.7382
▁ambassadør	-10.7382
▁innendørs	-10.7382
▁åpningsseremoni	-10.7382
kommanderende	-10.7382
▁intervju	-10.7382
▁1814	-10.7382
▁heinrich	-10.7382
▁låtskriver	-10.7382
▁hjort	-10.7382
▁infanteri	-10.7382
▁kriminal	-10.7382
▁embets	-10.7382
▁utspring	-10.7382
▁serbia	-10.7382
▁opplæring	-10.7382
▁prosessor	-10.7382
▁tømmer	-10.7382
▁ekspert	-10.7383
▁firmaet	-10.7384
▁prinsesse	-10.7385
▁enhver	-10.7385
▁gratis	-10.7386
▁samuel	-10.7386
▁fangst	-10.7387
▁viii	-10.7387
▁hovedkontor	-10.7388
▁tilfeldig	-10.7388
▁misjons	-10.739
▁söd	-10.7393
▁metoden	-10.7394
▁trommer	-10.74
▁flyplass	-10.7402
▁rival	-10.7403
▁1871	-10.7404
▁lisens	-10.7405
▁plast	-10.7411
▁ungdomsskole	-10.7412
▁forvente	-10.7416
spreng	-10.7416
▁castle	-10.7423
▁lunge	-10.7426
▁barbar	-10.7431
▁hytte	-10.7454
▁helhet	-10.7456
▁kunstnerisk	-10.7461
breen	-10.7465
kontroll	-10.7502
struktur	-10.7502
spørsmål	-10.7503
hjelp	-10.7503
bunn	-10.7521
▁hä	-10.7536
▁pels	-10.7618
▁forbinde	-10.7651
psykiatri	-10.7668
▁kronprins	-10.7668
▁ortodoks	-10.7668
▁væpne	-10.7668
▁kvadrat	-10.7668
▁popularitet	-10.7668
▁vurdert	-10.7668
▁invitert	-10.7668
▁kvelden	-10.7668
▁identitet	-10.7668
▁henrettet	-10.7668
▁kommentar	-10.7668
▁eksistens	-10.7668
▁fuktig	-10.7669
▁sosialdemokrat	-10.7669
▁sukker	-10.7669
▁bbc	-10.7669
▁gregor	-10.767
▁møre	-10.7672
▁sverre	-10.7672
▁fiction	-10.7672
▁forlatt	-10.7672
▁inntekter	-10.7673
▁tibet	-10.7673
▁døtre	-10.7673
▁stråle	-10.7673
▁trygg	-10.7677
▁skygge	-10.768
▁bryn	-10.7683
▁maksimal	-10.7692
▁tenkt	-10.7693
▁koble	-10.7693
ко	-10.7708
▁opprette	-10.7708
revolusjonen	-10.7741
▁demokrati	-10.7742
premi	-10.7749
head	-10.778
horn	-10.7792
åpning	-10.7803
grønn	-10.7806
aktivitet	-10.7813
register	-10.7816
▁hotel	-10.7839
▁ferie	-10.7843
kryss	-10.7871
▁fungere	-10.7871
utstillingen	-10.7874
▁dynasti	-10.7888
▁islamsk	-10.7895
kjennelse	-10.7926
▁francis	-10.7959
▁napoleon	-10.7962
▁hjelm	-10.7962
▁barcelona	-10.7962
▁dekkvingene	-10.7962
▁dirigent	-10.7962
▁etiopia	-10.7962
▁football	-10.7962
▁forfremme	-10.7962
▁investering	-10.7962
▁jordskjelv	-10.7962
▁liverpool	-10.7962
▁orientering	-10.7962
▁påbegynt	-10.7962
▁rekrutt	-10.7962
▁kjæreste	-10.7962
▁patriark	-10.7962
▁konkurs	-10.7962
▁litauen	-10.7962
▁sigurd	-10.7962
▁testament	-10.7962
▁geometri	-10.7962
▁utsikt	-10.7962
▁begravelse	-10.7962
▁contest	-10.7962
▁skildre	-10.7962
▁innvalgt	-10.7963
▁monroe	-10.7963
▁hyppig	-10.7963
▁utforming	-10.7963
▁utmerket	-10.7963
▁einar	-10.7965
▁leilighet	-10.7966
▁oldtiden	-10.7966
▁hittil	-10.7966
▁1400	-10.7967
▁programvare	-10.7968
▁stykket	-10.7971
▁moderat	-10.7974
▁kontinental	-10.7983
tøv	-10.7987
▁pont	-10.8009
▁lavest	-10.8015
▁drepe	-10.8015
magn	-10.8023
ship	-10.8052
▁innerst	-10.8057
▁låten	-10.8083
loyd	-10.8083
medisin	-10.8099
brev	-10.8127
▁fylle	-10.8133
trenge	-10.8149
▁flyge	-10.8173
▁skive	-10.8182
▁fortelle	-10.819
lengde	-10.8226
▁inneba	-10.825
▁arrangør	-10.8265
▁buskerud	-10.8265
▁colombia	-10.8265
▁columbia	-10.8265
▁koalisjon	-10.8265
▁makedonia	-10.8265
▁chicago	-10.8265
▁florida	-10.8265
▁parallell	-10.8265
▁redaksjon	-10.8265
▁misjonær	-10.8265
▁thailand	-10.8265
▁frimurer	-10.8265
leverandør	-10.8265
▁ordinær	-10.8265
▁automatisk	-10.8265
▁ålesund	-10.8265
▁forandret	-10.8266
▁valuta	-10.8266
▁andré	-10.8266
▁brigade	-10.8266
▁gabriel	-10.8266
▁stillehavet	-10.8267
betjent	-10.8267
▁annonsert	-10.8268
kobling	-10.8268
▁clark	-10.8269
▁kongsberg	-10.8271
▁rednings	-10.8271
sikring	-10.8277
▁sending	-10.8279
▁holdning	-10.828
▁idé	-10.8282
▁forbunds	-10.8284
▁hypo	-10.8289
▁ddr	-10.8292
basseng	-10.8293
torget	-10.8293
kirch	-10.8307
▁agent	-10.8324
▁verksted	-10.8344
▁nevro	-10.8344
▁bøye	-10.8349
stemme	-10.8414
sentral	-10.8415
oppgave	-10.8421
▁bringe	-10.8453
vitenskapelig	-10.8454
ault	-10.8458
galakse	-10.8471
vennlig	-10.8538
direktoratet	-10.8578
▁academy	-10.8578
▁admiral	-10.8578
▁association	-10.8578
▁company	-10.8578
▁electric	-10.8578
▁hollywood	-10.8578
▁illustrasjon	-10.8578
▁intellektuell	-10.8578
▁kontinuerlig	-10.8578
▁pseudo	-10.8578
▁society	-10.8578
▁svømming	-10.8578
▁hospital	-10.8578
▁nøkkel	-10.8578
▁vurdere	-10.8578
▁anmelder	-10.8578
▁taylor	-10.8578
▁xiàn	-10.8578
▁beatles	-10.8578
▁bøndene	-10.8578
▁seoul	-10.8578
▁vakre	-10.8578
▁lewis	-10.8578
▁rumensk	-10.8578
▁theatre	-10.8579
▁rakett	-10.858
▁franskmennene	-10.8581
▁sykkel	-10.8582
▁flykte	-10.8584
▁sirkel	-10.8585
▁spurt	-10.8586
▁hvile	-10.8588
▁bjerk	-10.8589
gjald	-10.8594
▁idrett	-10.8606
▁europavei	-10.8616
▁studert	-10.8642
wiki	-10.8667
harmoni	-10.8681
▁pumpe	-10.8728
dømt	-10.8735
programmet	-10.8741
▁insekt	-10.8758
▁pinse	-10.8787
møll	-10.8788
▁barneskole	-10.8828
▁anerkjenne	-10.8845
▁flø	-10.8879
hefte	-10.89
▁grün	-10.89
sadvokat	-10.89
▁aftenposten	-10.89
▁assosiert	-10.89
▁bryllup	-10.89
▁plutselig	-10.89
▁shakespeare	-10.89
▁tsjekkoslovakia	-10.89
▁alminnelig	-10.89
▁basketball	-10.89
▁besittelse	-10.89
▁foreløpig	-10.89
▁landskamper	-10.89
▁bokstaven	-10.89
▁oppfatning	-10.89
▁trussel	-10.8901
▁vegetasjon	-10.8901
▁drivstoff	-10.8901
▁ektemann	-10.8901
▁osmansk	-10.8902
▁temple	-10.8902
▁regent	-10.8904
▁tennis	-10.8904
▁point	-10.8904
▁bridge	-10.8906
▁analyser	-10.8906
▁foregikk	-10.8908
hausen	-10.8909
▁pirat	-10.8911
▁bedriften	-10.8916
▁kreert	-10.8916
liknende	-10.8918
▁kenya	-10.8922
▁utforske	-10.8933
relasjon	-10.8935
nathan	-10.8951
skrekk	-10.8955
8	-10.8956
kurat	-10.8957
▁offisiell	-10.8975
▁isbre	-10.9008
redaktør	-10.9068
utdanning	-10.9069
litteratur	-10.9069
tradisjon	-10.9069
konsert	-10.9069
teknologi	-10.9071
▁treffe	-10.9078
lignende	-10.9187
konservativ	-10.9229
▁absolutt	-10.9233
▁avskaffet	-10.9233
▁cæsar	-10.9233
▁filippinene	-10.9233
▁guddommelig	-10.9233
▁heidelberg	-10.9233
▁hongkong	-10.9233
▁innspilt	-10.9233
▁kullkraftverk	-10.9233
▁observasjon	-10.9233
▁pasienten	-10.9233
▁symfoni	-10.9233
▁westfalen	-10.9233
eksplosjon	-10.9233
▁sparebank	-10.9233
▁stjørdal	-10.9233
▁rederiet	-10.9233
▁kritisert	-10.9233
▁reaktor	-10.9233
▁taiwan	-10.9233
▁avstemning	-10.9234
▁lagkonkurransen	-10.9234
▁unesco	-10.9234
▁turbiner	-10.9234
▁korrekt	-10.9234
▁seksuell	-10.9234
▁kommunestyret	-10.9234
▁skjebne	-10.9234
▁walisisk	-10.9234
▁nevner	-10.9234
ovitsj	-10.9234
▁ørken	-10.9234
▁konsernet	-10.9235
▁indikere	-10.9235
teatret	-10.9235
▁gerhard	-10.9235
▁ulykken	-10.9236
▁för	-10.9237
ан	-10.9238
▁pierre	-10.9239
▁bønder	-10.9239
▁høydepunkt	-10.924
▁antonio	-10.924
▁akademisk	-10.924
syklus	-10.924
▁tilsammen	-10.9241
▁blank	-10.9241
▁fruktbar	-10.9246
▁forrige	-10.9246
ridge	-10.9252
▁særeg	-10.9256
cture	-10.9258
▁nederst	-10.9267
svarte	-10.9269
messe	-10.929
krisen	-10.9292
▁begynt	-10.9321
grå	-10.9343
automat	-10.9362
▁hjemmebane	-10.9398
instrument	-10.9413
butikk	-10.9414
▁minutt	-10.9435
▁antikke	-10.9436
▁representere	-10.9483
▁styremedlem	-10.9528
▁klage	-10.9533
▁angelsaksisk	-10.9578
▁disiplin	-10.9578
▁muslimsk	-10.9578
▁perspektiv	-10.9578
▁sarpsborg	-10.9578
▁uppsala	-10.9578
▁avslørt	-10.9578
▁invadert	-10.9578
▁meteorologi	-10.9578
▁1849	-10.9578
▁innvandre	-10.9578
▁taliban	-10.9578
▁uttrykt	-10.9578
▁interiør	-10.9578
▁madrid	-10.9578
▁oppbevar	-10.9578
▁spiral	-10.9578
▁protestantisk	-10.9579
▁aktuell	-10.9579
▁germansk	-10.9579
▁syria	-10.9579
▁skåne	-10.9579
▁bemerket	-10.9579
▁søsken	-10.9579
▁særskilt	-10.958
▁svekke	-10.958
▁underviste	-10.958
▁rettferdig	-10.958
▁spinner	-10.958
▁fylkeskommune	-10.9581
▁borgermester	-10.9581
▁tillatt	-10.9585
▁frp	-10.9587
▁avgjørelse	-10.9588
▁belønne	-10.9593
syssel	-10.9603
▁søyle	-10.9603
klub	-10.9606
flyvning	-10.9628
▁koreansk	-10.9657
▁omfatte	-10.966
inndeling	-10.9697
sykehus	-10.977
øvrig	-10.977
divisjon	-10.9771
født	-10.9775
▁konsul	-10.9791
sykling	-10.9799
▁utkom	-10.9814
amerikanske	-10.9857
▁ødela	-10.9935
administrator	-10.9935
▁bulgaria	-10.9935
▁engasjement	-10.9935
▁giovanni	-10.9935
▁integrert	-10.9935
▁lillehammer	-10.9935
▁tsjekkia	-10.9935
▁vampyr	-10.9935
▁identifisert	-10.9935
▁katolikk	-10.9935
▁selvbiografi	-10.9935
▁essay	-10.9935
▁mandsju	-10.9935
▁venezia	-10.9935
▁potensiel	-10.9935
▁assistent	-10.9935
▁midtøsten	-10.9935
▁vitamin	-10.9935
▁faktum	-10.9935
▁tabellen	-10.9935
▁dramatiker	-10.9936
▁forenklet	-10.9936
▁tilskuere	-10.9936
▁baseball	-10.9936
▁heavy	-10.9936
▁prince	-10.9936
▁elefant	-10.9936
▁landkreis	-10.9936
▁ritual	-10.9936
▁flyktning	-10.9936
▁undertegnet	-10.9936
▁søvn	-10.9936
ensemble	-10.9936
▁underholdning	-10.9936
▁systematisk	-10.9936
▁døpt	-10.9937
▁uefa	-10.9937
▁flytende	-10.9938
▁fiender	-10.9938
▁birolle	-10.9938
▁betong	-10.9939
▁våt	-10.9939
▁poesi	-10.9939
▁edmund	-10.9939
▁søndr	-10.9939
▁referert	-10.9939
▁boston	-10.9939
▁isolert	-10.9944
▁benevn	-10.9968
lokalisert	-10.9992
▁sokn	-11.0008
▁omdanne	-11.001
▁stokke	-11.0016
brann	-11.0147
nøtt	-11.0265
inskripsjon	-11.0306
▁ambassade	-11.0306
▁bachelor	-11.0306
▁fundament	-11.0306
▁identifisere	-11.0306
▁matematiker	-11.0306
▁microsoft	-11.0306
▁prøyssisk	-11.0306
▁skandinavia	-11.0306
▁territorium	-11.0306
▁begivenhet	-11.0306
▁beliggenhet	-11.0306
▁billboard	-11.0306
▁fogderi	-11.0306
▁kambodsja	-11.0306
▁musikkvideo	-11.0306
▁republikaner	-11.0306
▁research	-11.0306
▁tsjekkisk	-11.0306
▁hiphop	-11.0306
▁central	-11.0306
▁forplikte	-11.0306
▁support	-11.0306
▁kjønnsmod	-11.0306
▁veksel	-11.0306
▁autoritet	-11.0306
▁betydningsfull	-11.0306
▁arsenal	-11.0306
▁forkropp	-11.0306
▁etterkommere	-11.0306
▁sandefjord	-11.0306
▁nepal	-11.0306
▁bmw	-11.0306
▁haakon	-11.0306
▁marcus	-11.0307
▁atlanta	-11.0307
▁uenighet	-11.0307
▁detroit	-11.0307
▁dekorert	-11.0307
▁kristendommen	-11.0307
▁betjene	-11.0307
▁tokyo	-11.0307
▁innviet	-11.0309
▁presentere	-11.0311
reglene	-11.0322
bjørg	-11.0331
▁forvalte	-11.0334
▁begrunne	-11.034
skjerm	-11.0343
▁manuel	-11.0346
grunnsstasjon	-11.036
▁sparta	-11.0383
papir	-11.0525
interesse	-11.0526
▁forhandle	-11.0555
▁ideologi	-11.0565
vidde	-11.0567
rhein	-11.0568
strakte	-11.066
▁apostolisk	-11.069
▁demonstrasjon	-11.069
▁forvandling	-11.069
▁færøysk	-11.069
▁gasskraftverk	-11.069
▁jugoslavia	-11.069
▁konkurrent	-11.069
▁lincoln	-11.069
▁meksikansk	-11.069
▁parallelt	-11.069
▁reservoar	-11.069
▁varaordfører	-11.069
▁venezuela	-11.069
▁buddhist	-11.069
▁ektefelle	-11.069
▁aggressiv	-11.069
▁matematisk	-11.069
▁muslimer	-11.069
▁embeds	-11.069
▁teoretisk	-11.069
▁etterretnings	-11.069
▁omvendt	-11.0691
▁seminar	-11.0691
potensial	-11.0691
▁abbey	-11.0691
▁rosenborg	-11.0691
▁ulovlig	-11.0691
▁følte	-11.0691
▁kjennes	-11.0691
▁lørdag	-11.0691
ifisere	-11.0691
▁stefan	-11.0692
▁grieg	-11.0692
▁skikkelse	-11.0693
schaft	-11.0693
▁omstridt	-11.0693
▁oppfølger	-11.0694
▁year	-11.0694
▁befal	-11.0695
mekanisme	-11.0698
forestillinger	-11.0702
konsern	-11.0711
▁befolke	-11.0714
hampton	-11.0729
kvinne	-11.081
▁hevn	-11.0842
konsulent	-11.0853
gruppa	-11.0853
artikler	-11.0867
▁nordsid	-11.0872
studier	-11.0926
radio	-11.0928
sykdom	-11.0929
▁america	-11.0992
▁usikker	-11.1031
skriver	-11.1065
▁fjorten	-11.109
▁generalmajor	-11.109
▁instruksjon	-11.109
▁kennedy	-11.109
▁luxembourg	-11.109
▁massachusetts	-11.109
▁melbourne	-11.109
▁mountain	-11.109
▁observert	-11.109
▁olympia	-11.109
▁protokoll	-11.109
▁republikansk	-11.109
▁resolusjon	-11.109
▁vålerenga	-11.109
flokkurin	-11.109
▁anbefalt	-11.109
▁benjamin	-11.109
▁helikopter	-11.109
▁keyboard	-11.109
▁kroatia	-11.109
▁satellitt	-11.109
▁utdødd	-11.109
▁gjøvik	-11.109
▁abraham	-11.109
▁apotek	-11.109
▁operativsystem	-11.109
▁erkebispedømme	-11.109
▁katalog	-11.109
▁registrere	-11.109
▁kristelig	-11.1091
▁deutsche	-11.1091
▁statsborger	-11.1091
▁sjokk	-11.1091
▁stanley	-11.1091
▁fantasi	-11.1091
▁fjelltopp	-11.1091
▁føderasjon	-11.1091
▁sibir	-11.1091
▁finansiert	-11.1092
▁forfatning	-11.1092
▁social	-11.1092
▁oppfordre	-11.1092
▁forkortelse	-11.1094
terapi	-11.1094
kriterie	-11.1095
▁kanadisk	-11.1098
▁planlegge	-11.1101
▁stedsnavn	-11.1101
▁kunngjor	-11.1137
ngrid	-11.1138
bevegelse	-11.1235
kandidat	-11.1342
arkitekt	-11.1342
bøyd	-11.1375
bragt	-11.1376
medlemmene	-11.1406
fabrik	-11.1418
▁brødre	-11.1466
innehaver	-11.1492
sfæren	-11.1507
landeveissyklist	-11.1507
▁akseptere	-11.1507
▁anatolia	-11.1507
▁atlanterhavet	-11.1507
▁guangdong	-11.1507
▁haugesund	-11.1507
▁infrastruktur	-11.1507
▁innstiftet	-11.1507
▁narkotika	-11.1507
▁uoffisiel	-11.1507
▁vellykket	-11.1507
symmetri	-11.1507
▁anonym	-11.1507
▁dokumentarfilm	-11.1507
▁lokomotiv	-11.1507
▁observere	-11.1507
▁søknad	-11.1507
▁jersey	-11.1507
▁marokko	-11.1507
▁horisont	-11.1507
▁annerledes	-11.1507
▁bokstaver	-11.1507
▁gråbrun	-11.1507
▁margaret	-11.1507
▁championship	-11.1507
▁dekorasjon	-11.1507
▁guinea	-11.1507
▁oppmuntr	-11.1507
▁ferdigstilt	-11.1507
▁færre	-11.1508
▁innfødte	-11.1508
forurensning	-11.1508
▁ntnu	-11.1508
▁finansiere	-11.1508
syndrom	-11.1508
▁uendelig	-11.1508
▁marianne	-11.1509
▁tendens	-11.1509
järvi	-11.1509
▁snorre	-11.1509
▁hvete	-11.1509
▁bevaring	-11.1509
▁kalender	-11.1509
▁fredsavtale	-11.1509
kirurg	-11.151
▁akutt	-11.151
▁advent	-11.1513
▁smitte	-11.152
▁rifle	-11.153
▁skulde	-11.1531
▁amerikanere	-11.1552
▁glede	-11.1624
▁messi	-11.1677
spalte	-11.1714
▁undersøke	-11.1717
avtalen	-11.1726
symbol	-11.1777
prøve	-11.1781
utstyr	-11.1822
▁diagnose	-11.1942
▁douglas	-11.1942
▁mangfold	-11.1942
▁sebastian	-11.1942
▁spitsbergen	-11.1942
▁trondhjem	-11.1942
▁konstitusjon	-11.1942
▁oppvarming	-11.1942
▁tilnærming	-11.1942
▁wergeland	-11.1942
▁øyeblikket	-11.1942
sentralbanksjef	-11.1942
▁gerilja	-11.1942
▁utgravninger	-11.1942
▁kroatisk	-11.1942
▁libanon	-11.1942
▁quisling	-11.1942
▁progressiv	-11.1942
betennelse	-11.1942
▁1842	-11.1942
▁jylland	-11.1942
▁komplett	-11.1942
▁halvorsen	-11.1942
▁massakre	-11.1942
▁kongsvinger	-11.1942
▁margret	-11.1942
▁axel	-11.1942
▁kortvarig	-11.1942
▁langvarig	-11.1942
▁stephen	-11.1942
▁utfordring	-11.1942
▁cecil	-11.1942
▁anthon	-11.1942
▁fascist	-11.1942
▁nigeria	-11.1942
▁mikael	-11.1943
▁serbisk	-11.1943
▁stemning	-11.1943
▁flanke	-11.1949
metabol	-11.1961
▁genetisk	-11.1962
tilsynet	-11.1962
temperaturen	-11.202
clair	-11.2024
▁utstrakt	-11.2124
▁facto	-11.2153
frukt	-11.2231
biskop	-11.2232
stabilitet	-11.2235
flokk	-11.224
utgave	-11.2256
artikkel	-11.2349
▁diplom	-11.235
▁fordøyelses	-11.2396
▁mobiltelefon	-11.2396
köping	-11.2396
▁bulgarsk	-11.2396
▁bysantinsk	-11.2396
▁canterbury	-11.2396
▁frilufts	-11.2396
▁inklusiv	-11.2396
▁kjøkken	-11.2396
▁kringkastings	-11.2396
▁leipzig	-11.2396
▁ludwig	-11.2396
▁magazine	-11.2396
▁mccartney	-11.2396
▁singapore	-11.2396
▁sjeldne	-11.2396
▁sjokolade	-11.2396
▁skvadron	-11.2396
▁sunnmøre	-11.2396
▁technology	-11.2396
▁tórshavn	-11.2396
▁vertikal	-11.2396
▁korrupsjon	-11.2396
▁tippeliga	-11.2396
▁knudsen	-11.2396
▁felttoget	-11.2396
▁katarina	-11.2396
▁nordsamisk	-11.2396
▁pattedyr	-11.2396
▁schwarz	-11.2396
▁nidaros	-11.2396
▁anvendt	-11.2396
▁høvding	-11.2396
▁oppdatert	-11.2396
tekniker	-11.2396
▁hamilton	-11.2396
▁spirit	-11.2397
▁umulig	-11.2397
▁dresden	-11.2397
▁triumf	-11.2397
▁gwh	-11.2397
▁selevk	-11.2397
ü	-12.6017
