<unk>	0
<s>	0
</s>	0
.	-3.29277
▁i	-3.44445
e	-3.67904
s	-3.78868
▁og	-3.82527
t	-4.23072
▁av	-4.2773
er	-4.3191
en	-4.35006
▁	-4.36264
▁en	-4.42536
▁som	-4.45521
r	-4.49715
▁er	-4.56511
▁til	-4.58219
▁for	-4.68154
▁på	-4.70947
▁den	-4.88534
▁ble	-4.89485
▁med	-4.91409
n	-4.92513
▁det	-4.93483
et	-5.00311
▁var	-5.0166
▁de	-5.0819
▁han	-5.14111
▁å	-5.23897
▁fra	-5.31211
▁et	-5.48175
▁har	-5.49145
▁at	-5.6046
ene	-5.62083
a	-5.72772
ne	-5.91094
▁ved	-5.9248
▁om	-5.98335
▁også	-6.01521
▁etter	-6.01927
i	-6.02668
k	-6.03625
▁men	-6.05018
de	-6.09071
d	-6.11128
▁ut	-6.14315
g	-6.17258
▁seg	-6.19275
▁under	-6.20633
▁ikke	-6.24346
te	-6.2574
▁hadde	-6.26393
o	-6.29071
▁da	-6.29785
y	-6.30923
▁over	-6.32282
▁to	-6.38812
▁eller	-6.42441
l	-6.46513
▁opp	-6.46584
▁inn	-6.48008
▁kan	-6.50378
▁andre	-6.54611
p	-6.5484
▁sin	-6.56075
re	-6.59351
▁første	-6.61035
▁dette	-6.64525
▁hun	-6.65021
f	-6.65244
▁s	-6.66928
c	-6.71112
▁be	-6.71151
m	-6.7251
▁mot	-6.72807
▁år	-6.75442
es	-6.78882
▁ha	-6.79289
▁mellom	-6.79384
▁hans	-6.81762
v	-6.83128
▁født	-6.83596
ing	-6.83813
al	-6.84046
h	-6.84113
▁18	-6.84664
▁1	-6.84683
▁a	-6.85618
▁bli	-6.88676
▁fikk	-6.89622
▁kom	-6.90126
b	-6.90796
u	-6.9287
in	-6.92912
▁tre	-6.934
us	-6.93489
ende	-6.9396
▁denne	-6.94575
▁flere	-6.9647
▁der	-6.9903
na	-7.00095
an	-7.00351
is	-7.00991
sk	-7.01731
▁f	-7.02806
▁del	-7.05222
▁man	-7.05989
▁blant	-7.06293
▁alle	-7.08364
kk	-7.09151
ter	-7.10047
▁hvor	-7.1101
▁sammen	-7.11186
▁så	-7.11897
ia	-7.11927
▁før	-7.12292
on	-7.12985
▁u	-7.13368
▁la	-7.14194
st	-7.14305
▁nord	-7.15074
▁2	-7.15511
la	-7.16748
▁the	-7.18737
▁tallet	-7.19511
le	-7.20307
▁nå	-7.2348
▁mange	-7.23741
▁senere	-7.24259
sen	-7.24909
nde	-7.26692
▁død	-7.27849
▁norge	-7.28349
▁p	-7.28424
▁stor	-7.28741
ri	-7.29511
▁siden	-7.30862
▁ligger	-7.31092
▁m	-7.32126
▁re	-7.32585
▁noen	-7.32805
▁mer	-7.33196
ar	-7.3335
um	-7.34418
▁selv	-7.34623
land	-7.34635
▁ca	-7.34967
ta	-7.35902
li	-7.3624
▁annet	-7.36324
▁3	-7.36625
▁byen	-7.36632
vis	-7.37109
▁blitt	-7.37151
▁norsk	-7.37189
▁tidligere	-7.37279
▁kr	-7.38068
▁se	-7.38684
▁5	-7.38774
▁være	-7.39258
▁kjent	-7.40868
▁her	-7.41036
▁ol	-7.41413
be	-7.41474
ng	-7.42194
▁17	-7.42694
▁tid	-7.42822
lig	-7.42907
▁sør	-7.43519
▁disse	-7.4379
ens	-7.43996
▁gjennom	-7.44147
ra	-7.44173
ke	-7.44638
▁sitt	-7.44668
▁store	-7.45202
▁vært	-7.45725
▁4	-7.46121
▁ny	-7.46283
iske	-7.46463
▁kommune	-7.4653
ut	-7.46551
ske	-7.47277
ur	-7.47708
▁d	-7.48233
ere	-7.48531
▁bo	-7.48642
▁c	-7.48974
z	-7.4923
x	-7.49436
▁samme	-7.49439
or	-7.49474
for	-7.49497
▁16	-7.49699
ma	-7.49872
▁frem	-7.50374
▁noe	-7.50708
id	-7.50855
j	-7.50866
il	-7.51014
▁bå	-7.51799
w	-7.52178
▁b	-7.52251
▁le	-7.52252
▁ga	-7.52609
ler	-7.53194
▁15	-7.5331
▁gikk	-7.53678
øy	-7.53728
lo	-7.54612
ø	-7.55624
el	-7.55739
▁vest	-7.56295
▁land	-7.56624
å	-7.56649
der	-7.56836
ning	-7.57273
▁dag	-7.5889
▁sine	-7.58944
▁rundt	-7.59176
isk	-7.59414
▁vi	-7.5968
ck	-7.60154
▁kunne	-7.60369
▁ta	-7.60418
at	-7.60658
▁t	-7.60665
▁grunn	-7.60975
ch	-7.61048
▁al	-7.61079
▁10	-7.61378
mo	-7.61868
▁mens	-7.62108
▁ro	-7.62148
▁ned	-7.62478
▁k	-7.62728
nes	-7.62914
▁an	-7.62929
▁vil	-7.6354
▁mest	-7.64017
▁of	-7.64548
▁ham	-7.65086
▁vant	-7.65379
as	-7.65581
▁slik	-7.66558
▁ra	-7.67061
▁usa	-7.67405
▁by	-7.68064
▁km	-7.68562
▁enn	-7.69075
▁o	-7.69117
it	-7.69458
▁6	-7.69557
ge	-7.69574
▁bare	-7.69985
ver	-7.70885
é	-7.71917
▁skulle	-7.72184
ry	-7.72974
ol	-7.73413
ker	-7.7358
▁tok	-7.75588
▁h	-7.75644
bo	-7.75967
di	-7.76041
▁skal	-7.76061
▁norske	-7.76224
ve	-7.76268
ff	-7.769
ner	-7.77121
▁sp	-7.77296
▁øst	-7.77337
▁st	-7.77743
▁navn	-7.78041
▁gang	-7.78141
da	-7.78239
▁siste	-7.7825
▁oslo	-7.78637
▁amerikansk	-7.78825
▁tilbake	-7.79077
▁n	-7.79122
th	-7.79507
erne	-7.79607
▁ofte	-7.80019
▁mai	-7.80027
▁mars	-7.80057
▁få	-7.80273
sjon	-7.80342
▁7	-7.80512
▁di	-7.8105
to	-7.81139
▁sa	-7.81425
ig	-7.81735
▁finnes	-7.81769
▁meter	-7.82106
▁navnet	-7.82178
▁fram	-7.82191
▁8	-7.82281
▁e	-7.82549
stad	-7.82705
tt	-7.82918
▁nye	-7.8333
▁fire	-7.83694
me	-7.8377
▁lag	-7.8413
ga	-7.84132
os	-7.84164
ic	-7.84338
ul	-7.84813
▁hele	-7.84987
mann	-7.84995
▁august	-7.85344
▁januar	-7.85344
by	-7.85355
ton	-7.85476
den	-7.8557
lige	-7.86071
▁dem	-7.86709
▁si	-7.87231
ad	-7.87808
▁hoved	-7.88413
gen	-7.88728
ist	-7.88858
ro	-7.89096
mi	-7.89496
▁kon	-7.89927
▁he	-7.90633
▁deltok	-7.91028
▁li	-7.9133
▁største	-7.91698
▁12	-7.91734
▁mål	-7.92678
ce	-7.92928
▁rekke	-7.93229
▁na	-7.93396
ger	-7.93709
▁juli	-7.93926
else	-7.93981
▁000	-7.94142
nd	-7.94315
je	-7.94342
▁l	-7.94662
▁kirke	-7.9511
▁ti	-7.95137
▁laget	-7.95254
▁tro	-7.95919
▁fri	-7.96059
ste	-7.96085
▁g	-7.96133
▁igjen	-7.9627
het	-7.9654
gi	-7.9654
si	-7.96587
▁mor	-7.96608
mp	-7.97006
▁lang	-7.97427
ven	-7.97482
▁2008	-7.97723
▁ni	-7.98016
▁v	-7.98338
men	-7.98492
mer	-7.98497
▁9	-7.98567
▁ba	-7.98574
▁per	-7.98854
om	-7.99091
▁fly	-7.9923
erte	-7.99498
un	-7.99748
son	-8.00276
▁bi	-8.00795
dal	-8.00803
skap	-8.01316
▁20	-8.01332
ti	-8.0167
▁pi	-8.02059
ja	-8.02068
▁går	-8.02564
▁kun	-8.02754
▁14	-8.02795
var	-8.03089
vi	-8.03484
▁satt	-8.03545
▁tillegg	-8.03582
ør	-8.04117
▁ho	-8.04133
man	-8.04153
▁far	-8.04395
▁landet	-8.04433
▁kalt	-8.04575
sh	-8.04756
ka	-8.04985
sa	-8.05014
ik	-8.05134
▁13	-8.0521
ll	-8.05332
ell	-8.05589
este	-8.05648
▁ar	-8.05706
ær	-8.05769
▁ri	-8.05924
▁bak	-8.06064
▁juni	-8.06475
▁du	-8.0652
ster	-8.06546
▁lo	-8.06921
▁området	-8.06953
▁j	-8.07352
av	-8.08275
▁11	-8.08348
▁desember	-8.08531
asjon	-8.08627
▁årene	-8.08787
▁co	-8.09205
▁utgitt	-8.09435
▁tiden	-8.09639
ag	-8.0971
▁bruk	-8.09729
▁0	-8.10405
▁gi	-8.10409
▁spilte	-8.10423
▁deres	-8.10523
ment	-8.10552
▁rett	-8.10564
▁po	-8.10931
▁vanlig	-8.11268
ba	-8.11463
▁2010	-8.11854
▁hos	-8.1193
▁mindre	-8.12069
▁no	-8.12174
▁alt	-8.12663
▁samt	-8.12907
dd	-8.13019
▁bu	-8.13048
▁april	-8.1312
bu	-8.13272
▁november	-8.13333
▁tv	-8.13532
op	-8.13872
iv	-8.13931
co	-8.14211
▁like	-8.14606
▁plass	-8.14824
▁først	-8.14968
3	-8.15046
ling	-8.15136
go	-8.15186
rett	-8.15672
▁sk	-8.15992
▁helt	-8.16354
▁me	-8.16573
▁september	-8.16594
bi	-8.1674
▁europa	-8.16823
▁or	-8.17091
▁ei	-8.17094
▁brukt	-8.17168
od	-8.17204
▁2007	-8.17269
▁året	-8.17278
▁oktober	-8.17482
ans	-8.17808
va	-8.17832
▁mo	-8.18495
pp	-8.18606
ok	-8.18801
▁beste	-8.18881
▁større	-8.18914
▁nær	-8.1916
ion	-8.19272
tal	-8.19518
▁leder	-8.1969
▁mye	-8.1984
gang	-8.1984
ha	-8.20002
▁begynte	-8.20099
ns	-8.20879
▁30	-8.20933
ed	-8.20938
len	-8.20975
▁w	-8.21308
▁2006	-8.21351
▁2009	-8.21357
▁fem	-8.21372
ikk	-8.21698
▁uten	-8.21764
▁nasjonal	-8.21789
bar	-8.21822
ca	-8.2208
pe	-8.22101
▁februar	-8.22512
æ	-8.22522
kt	-8.2291
▁mar	-8.22975
▁gjorde	-8.22983
▁døde	-8.23249
▁pro	-8.23284
▁ville	-8.23445
▁skole	-8.24138
▁ma	-8.24374
▁y	-8.24788
midlertid	-8.24886
▁tyskland	-8.25225
ering	-8.25276
▁gift	-8.25437
▁so	-8.25511
ingen	-8.25599
ks	-8.26017
over	-8.26179
▁as	-8.26596
rede	-8.27069
▁go	-8.27265
▁pa	-8.2727
ho	-8.27275
▁bar	-8.27303
po	-8.27442
ud	-8.27814
tur	-8.27945
▁derfor	-8.28029
▁2011	-8.28061
▁deretter	-8.28071
berg	-8.28248
▁ru	-8.28514
im	-8.28593
▁hennes	-8.28617
▁new	-8.28647
▁2005	-8.28808
▁sønn	-8.28825
hold	-8.2931
▁form	-8.29315
1	-8.29539
▁videre	-8.29574
▁fa	-8.29646
▁mi	-8.29752
▁su	-8.3002
7	-8.30046
▁hver	-8.30055
▁in	-8.30119
▁olympisk	-8.30565
▁tyske	-8.30575
▁filmen	-8.3071
▁perioden	-8.30839
▁sett	-8.30885
▁spiller	-8.31006
ko	-8.31232
▁innen	-8.31312
ni	-8.31346
kom	-8.31643
ö	-8.32078
▁musikk	-8.32175
ru	-8.32347
ie	-8.32432
lse	-8.32436
▁par	-8.32963
gg	-8.33212
siden	-8.33318
▁svært	-8.33664
▁2004	-8.33931
▁politisk	-8.34056
▁kong	-8.34094
▁vann	-8.34112
inn	-8.34138
au	-8.34171
▁lov	-8.3467
▁gamle	-8.34717
▁startet	-8.34725
ier	-8.34768
opp	-8.35042
▁film	-8.35122
tak	-8.35138
ir	-8.35184
let	-8.35251
▁bestå	-8.35536
▁flytte	-8.3568
▁sommer	-8.35691
▁medlem	-8.35772
ft	-8.3593
art	-8.35938
mme	-8.36028
▁begge	-8.36092
▁liv	-8.36256
▁jo	-8.3627
▁kultur	-8.36417
▁kina	-8.36457
▁tatt	-8.36839
▁ganger	-8.36907
am	-8.36918
▁mat	-8.36973
▁eksempel	-8.37065
▁særlig	-8.3715
▁språk	-8.37257
▁25	-8.37347
nske	-8.37388
▁sverige	-8.37401
▁innbyggere	-8.37673
▁and	-8.38245
styr	-8.38426
▁opprinnelig	-8.38495
▁am	-8.38758
▁fleste	-8.38946
▁ka	-8.39165
ring	-8.39254
▁do	-8.39402
sel	-8.39622
▁arbeidet	-8.40018
▁kommer	-8.40141
io	-8.40147
tter	-8.40251
▁ju	-8.40387
2	-8.40598
mb	-8.4069
▁bygget	-8.40815
▁lå	-8.40827
▁ulike	-8.40874
▁måtte	-8.4102
ant	-8.41485
elle	-8.4157
do	-8.41657
und	-8.42012
ium	-8.42015
▁kort	-8.42049
▁lu	-8.42194
▁bandet	-8.42296
▁langs	-8.42371
▁tor	-8.42769
▁annen	-8.42813
▁em	-8.43056
▁må	-8.43287
vin	-8.43482
▁england	-8.43877
ty	-8.43993
▁lever	-8.44037
rmed	-8.44119
▁ingen	-8.44222
▁høy	-8.44328
▁hen	-8.44443
▁president	-8.44624
▁tysk	-8.44657
▁samtidig	-8.44756
▁ki	-8.44951
▁skrevet	-8.44982
▁hus	-8.45056
lin	-8.45162
▁sol	-8.45263
▁te	-8.4568
▁gitt	-8.45829
vik	-8.45996
▁egen	-8.46025
del	-8.46161
▁frankrike	-8.46217
ard	-8.46668
▁vei	-8.46915
▁el	-8.47245
ius	-8.47245
▁brukes	-8.47254
á	-8.47508
▁fast	-8.47532
▁ski	-8.47548
▁kinesisk	-8.47711
tu	-8.47809
▁kunst	-8.47822
tor	-8.48169
▁tidlig	-8.48305
▁engelsk	-8.48522
▁tra	-8.48537
▁gjen	-8.48565
▁løpet	-8.48614
▁barn	-8.4873
▁klubben	-8.48835
▁skrev	-8.48835
slag	-8.48843
lag	-8.49117
ber	-8.49364
▁john	-8.49502
he	-8.4976
▁hvert	-8.49782
år	-8.49867
▁sch	-8.49942
▁all	-8.50353
▁bra	-8.50913
sp	-8.50957
ran	-8.50977
▁seks	-8.51007
▁mulig	-8.51363
▁ko	-8.51463
▁folke	-8.51662
▁forhold	-8.51841
▁fi	-8.52094
val	-8.52146
▁eks	-8.52191
▁vel	-8.52398
hi	-8.52462
▁bas	-8.52588
ings	-8.52649
▁konge	-8.52755
mmer	-8.52866
▁pe	-8.53041
▁deler	-8.53099
ningen	-8.53296
▁slutten	-8.53591
00	-8.536
▁albumet	-8.53703
verk	-8.53704
ow	-8.54053
stand	-8.5414
itet	-8.54151
▁fr	-8.54352
▁parti	-8.54366
up	-8.54546
▁grad	-8.54708
tid	-8.54733
▁x	-8.5478
▁øya	-8.54806
▁fotball	-8.54818
ighet	-8.54908
▁nytt	-8.55014
ly	-8.55138
▁små	-8.55182
mål	-8.5536
burg	-8.55418
per	-8.55726
▁lys	-8.56175
ot	-8.56212
▁verdens	-8.56245
if	-8.56274
▁ab	-8.56349
▁vm	-8.56439
▁2000	-8.56569
uten	-8.56811
ek	-8.57053
▁plan	-8.57081
▁stein	-8.57151
▁san	-8.57194
▁bergen	-8.57456
ak	-8.57789
▁2002	-8.57874
▁forskjellige	-8.57962
ü	-8.58195
▁stort	-8.58226
▁slutt	-8.58263
▁gruppen	-8.58654
▁sto	-8.58876
▁stedet	-8.58916
▁21	-8.59145
dre	-8.59199
inger	-8.59282
▁kommunen	-8.59352
▁sesongen	-8.59396
dag	-8.59568
gu	-8.59643
▁krigen	-8.59789
følge	-8.59897
▁verdenskrig	-8.59919
plass	-8.59976
fe	-8.60025
sted	-8.60188
▁2001	-8.60241
▁sam	-8.60321
▁sv	-8.60322
hus	-8.60734
▁r	-8.60749
▁god	-8.60749
▁sted	-8.60845
▁millioner	-8.60846
▁gull	-8.61177
▁2003	-8.61275
▁antall	-8.6131
▁verden	-8.61379
▁london	-8.61604
les	-8.61626
▁side	-8.61708
no	-8.61978
ord	-8.6236
▁sjø	-8.62635
▁spilt	-8.62934
ong	-8.6296
▁tredje	-8.62963
ken	-8.63033
mon	-8.63293
kon	-8.63298
▁støtte	-8.63593
▁viktig	-8.63698
pa	-8.63836
▁stat	-8.63902
▁tri	-8.64045
▁fordi	-8.64082
▁100	-8.64178
ny	-8.64181
ting	-8.64216
▁serien	-8.6429
▁betydning	-8.64416
▁z	-8.64542
fa	-8.64573
sten	-8.64765
landet	-8.64853
▁fl	-8.65148
▁ge	-8.65211
▁kjente	-8.65283
▁19	-8.65402
▁provinsen	-8.65483
min	-8.65535
▁gu	-8.65558
ang	-8.65565
▁gir	-8.65582
so	-8.65609
▁1990	-8.65857
sta	-8.65923
ian	-8.65949
ina	-8.65985
▁gud	-8.65985
sett	-8.67117
ys	-8.67305
ige	-8.67398
qu	-8.67484
tiden	-8.67495
▁familien	-8.67522
ov	-8.67662
tro	-8.67786
stein	-8.68107
▁gammel	-8.68418
▁én	-8.68442
mel	-8.68937
▁bok	-8.6896
ci	-8.69054
▁ad	-8.69136
▁24	-8.69161
▁storbritannia	-8.69161
▁delstaten	-8.69184
vo	-8.69231
satt	-8.69326
▁bl	-8.69407
▁holde	-8.6947
▁midt	-8.69547
▁pu	-8.69707
▁min	-8.69755
▁langt	-8.69834
▁23	-8.69888
▁1999	-8.69917
▁bro	-8.69984
▁norges	-8.69998
met	-8.70073
itt	-8.70239
▁pla	-8.70717
par	-8.70864
▁kirken	-8.71033
▁wa	-8.71178
ald	-8.71202
▁50	-8.7125
▁fred	-8.71476
▁godt	-8.71612
▁mann	-8.71615
▁kongen	-8.71638
tre	-8.71737
▁bort	-8.7175
▁danmark	-8.71814
▁1980	-8.71819
▁selskapet	-8.71824
▁personer	-8.71838
▁fransk	-8.72011
tra	-8.72078
form	-8.72171
▁hi	-8.7221
tten	-8.72616
▁halv	-8.7276
▁vist	-8.72764
ld	-8.72908
▁gjort	-8.72913
▁omkring	-8.72972
▁ser	-8.73151
tisk	-8.73202
▁kar	-8.73311
tiske	-8.73394
▁gjerne	-8.73398
bruk	-8.73528
mm	-8.73563
▁førte	-8.73743
▁ord	-8.73768
vei	-8.74002
▁ne	-8.74122
▁kl	-8.74248
ä	-8.74451
ket	-8.7446
▁lokal	-8.74786
▁vise	-8.74961
▁fortsatt	-8.75194
▁holdt	-8.75375
wa	-8.75473
mar	-8.75497
▁sal	-8.75508
▁nett	-8.75703
▁car	-8.75848
▁gruppe	-8.76099
res	-8.7638
▁spille	-8.76408
▁ja	-8.76426
▁innehold	-8.76535
yl	-8.76569
dalen	-8.76587
▁hol	-8.76625
▁hatt	-8.76969
kor	-8.77095
elt	-8.77191
▁hu	-8.77353
ine	-8.77354
▁sendt	-8.77363
▁th	-8.77441
dig	-8.77485
▁styre	-8.77509
elsen	-8.77801
▁ett	-8.77827
▁tar	-8.77833
rø	-8.77881
isert	-8.77925
▁historie	-8.7794
ede	-8.77989
isme	-8.78252
▁tur	-8.7836
stre	-8.78439
▁spesielt	-8.78561
▁italia	-8.78569
▁fo	-8.78656
▁lite	-8.78743
lsen	-8.78866
▁ferdig	-8.78894
che	-8.78906
▁forfatter	-8.78914
▁utviklet	-8.78969
and	-8.7905
▁fått	-8.79136
▁india	-8.79167
▁britiske	-8.79304
▁grav	-8.79423
ære	-8.79474
▁utenfor	-8.79497
tall	-8.79521
▁kj	-8.79563
em	-8.79784
▁arbeid	-8.79823
▁ledet	-8.79995
▁forbindelse	-8.80136
▁fjell	-8.80386
pi	-8.8045
▁familie	-8.80502
▁pan	-8.80524
▁sand	-8.80548
▁stra	-8.80576
▁keiser	-8.80659
▁moderne	-8.80734
▁hjem	-8.80768
▁foran	-8.80884
▁valgt	-8.81062
▁con	-8.81203
▁my	-8.81314
sse	-8.81477
▁kalles	-8.81552
▁basert	-8.81555
▁folk	-8.81703
bre	-8.81837
rak	-8.82035
▁val	-8.82106
▁natur	-8.82147
▁sentral	-8.82315
▁romersk	-8.8235
▁arbeider	-8.82367
▁innenfor	-8.82428
▁franske	-8.82512
▁opprettet	-8.8259
▁22	-8.82634
ley	-8.82644
▁ch	-8.82871
▁valg	-8.82947
9	-8.82996
lei	-8.83105
▁26	-8.83298
▁enkelte	-8.83366
▁funnet	-8.83367
▁paris	-8.83374
▁får	-8.83542
sj	-8.83574
heten	-8.83814
▁fu	-8.83892
▁hel	-8.83993
kan	-8.84047
▁1994	-8.84052
▁pre	-8.84057
ham	-8.84099
▁datter	-8.84177
ekt	-8.8418
løp	-8.84432
bb	-8.84436
spill	-8.84687
▁delen	-8.84716
▁står	-8.84852
▁kur	-8.84976
isering	-8.85189
▁sangen	-8.85362
▁1996	-8.85363
▁lange	-8.85397
menn	-8.85499
▁ty	-8.85639
▁slag	-8.85814
▁roman	-8.85972
▁nor	-8.8617
▁nesten	-8.86203
5	-8.8622
í	-8.86241
rik	-8.86438
▁forsøk	-8.86441
▁svensk	-8.86509
▁rom	-8.86531
za	-8.86608
▁1970	-8.86692
▁internasjonale	-8.86718
▁cha	-8.86728
elig	-8.86735
▁universitetet	-8.86757
▁person	-8.86817
▁elven	-8.86836
sch	-8.86848
▁afrika	-8.8691
▁aktiv	-8.87056
▁rolle	-8.87089
▁henne	-8.87113
▁1998	-8.87138
lands	-8.8719
dom	-8.87301
▁øy	-8.87537
ding	-8.87912
▁mil	-8.87952
▁utnevnt	-8.88033
▁partiet	-8.88147
▁arter	-8.88256
▁kal	-8.88306
lev	-8.88369
▁liten	-8.8843
4	-8.88487
▁40	-8.88528
▁jord	-8.88735
▁russland	-8.88983
ller	-8.89089
▁reise	-8.89349
▁åtte	-8.89417
▁ver	-8.89487
▁bor	-8.8949
kj	-8.89496
▁nok	-8.89605
▁gå	-8.89617
sti	-8.89638
▁dr	-8.89648
▁bil	-8.8984
▁best	-8.89888
▁fin	-8.89999
▁motor	-8.90065
▁ben	-8.90231
heim	-8.90233
far	-8.9024
▁gjøre	-8.90282
▁1988	-8.90318
▁1992	-8.90319
▁1960	-8.90325
▁2012	-8.90325
▁tap	-8.90481
ale	-8.90502
▁etablert	-8.90554
▁dagens	-8.90693
▁viser	-8.90841
▁band	-8.90948
▁lagt	-8.91013
▁fag	-8.91024
▁orden	-8.91028
tte	-8.9103
▁serie	-8.91124
▁berg	-8.91229
vet	-8.91315
▁vinter	-8.91361
hu	-8.91649
▁italiensk	-8.9171
▁general	-8.92175
ya	-8.92206
▁egne	-8.92212
▁mennesker	-8.9222
▁gj	-8.92368
▁28	-8.92406
▁kamp	-8.92433
som	-8.92446
▁farge	-8.92631
▁jeg	-8.92632
▁råd	-8.92866
ju	-8.92992
▁skog	-8.93245
▁regne	-8.93249
▁periode	-8.93275
▁medlemmer	-8.93374
▁bygd	-8.93421
▁økonomisk	-8.93481
▁ku	-8.93557
▁york	-8.93601
▁åpnet	-8.93641
▁bre	-8.93678
▁dannet	-8.93749
ator	-8.93756
▁menn	-8.93766
▁park	-8.93905
sson	-8.94134
▁art	-8.94178
ninger	-8.94241
▁skolen	-8.94258
▁angrep	-8.94282
så	-8.94298
▁følge	-8.94451
▁fant	-8.9447
▁ur	-8.94491
▁gav	-8.94668
▁stil	-8.9467
vel	-8.94734
▁gul	-8.95247
til	-8.95523
leg	-8.95538
▁komme	-8.95554
lu	-8.95611
▁fiske	-8.95615
▁je	-8.95619
fjorden	-8.95684
▁kvinne	-8.95704
▁gen	-8.95822
▁dikt	-8.95836
▁29	-8.95944
kel	-8.9596
▁1997	-8.96023
stilling	-8.96152
▁kvinner	-8.96171
▁paul	-8.96192
▁27	-8.96207
▁produksjon	-8.96236
▁gjør	-8.96305
▁såkalt	-8.96511
▁viktigste	-8.96565
▁sanger	-8.96577
laget	-8.96642
ki	-8.967
log	-8.96828
▁rød	-8.96869
▁ed	-8.96901
▁politiker	-8.97033
▁ke	-8.97258
▁litt	-8.97302
▁veien	-8.97698
▁svenske	-8.97705
kul	-8.98232
▁regjeringen	-8.98271
▁star	-8.98334
▁via	-8.98387
ah	-8.98425
▁felles	-8.98513
su	-8.98531
mark	-8.98659
▁berlin	-8.98712
▁sak	-8.98807
▁hjelp	-8.98949
50	-8.99036
dt	-8.99052
ou	-8.9917
ving	-8.99343
6	-8.99414
▁christian	-8.99426
▁tjeneste	-8.99482
▁bru	-8.99494
▁1993	-8.99499
▁minst	-8.99753
yn	-8.99851
▁bygge	-9.00024
▁skade	-9.00121
▁radio	-9.00154
▁kor	-9.00405
▁1991	-9.00522
ac	-9.00727
øya	-9.00912
▁slaget	-9.01007
▁kontroll	-9.01019
▁århundre	-9.0103
▁luft	-9.0108
ister	-9.01342
▁handels	-9.01391
▁1920	-9.01559
▁ros	-9.01681
ski	-9.01687
ug	-9.017
▁seier	-9.01779
plan	-9.01835
▁hjemme	-9.01841
▁biskop	-9.02064
merke	-9.02154
ble	-9.02308
mun	-9.02331
▁tegn	-9.02341
pen	-9.02367
▁makt	-9.02372
▁grunnlagt	-9.02517
▁tu	-9.0252
▁omtrent	-9.02584
▁meste	-9.02588
▁31	-9.02597
▁led	-9.02663
▁mag	-9.02674
dan	-9.028
ds	-9.02941
▁venstre	-9.02981
ph	-9.03038
▁riks	-9.03048
▁høyre	-9.03076
▁hav	-9.03097
▁ø	-9.03112
▁organ	-9.0322
▁divisjon	-9.03314
▁syn	-9.03332
▁krig	-9.03418
tan	-9.03468
▁nummer	-9.0349
▁tildelt	-9.03497
▁produsert	-9.03739
sto	-9.03902
▁inkludert	-9.03911
▁militær	-9.03941
▁staten	-9.03943
ien	-9.04024
fall	-9.04241
▁skuespiller	-9.04244
▁lett	-9.04317
▁kraftig	-9.04358
▁sy	-9.04368
▁likevel	-9.04383
▁aldri	-9.04443
▁krigs	-9.04467
ris	-9.04661
fl	-9.04827
tz	-9.04883
▁vo	-9.05134
vær	-9.05212
▁eldste	-9.0523
▁begynnelsen	-9.05234
▁meg	-9.05319
▁fremst	-9.05405
▁we	-9.05732
stående	-9.05812
▁bror	-9.05836
▁spor	-9.05846
▁mari	-9.05905
▁skip	-9.05958
▁full	-9.06023
▁col	-9.06135
▁fe	-9.06352
dy	-9.06384
kle	-9.06411
▁kron	-9.06591
isere	-9.06614
▁sosial	-9.0665
stilt	-9.06696
▁tak	-9.06724
jo	-9.071
ation	-9.07198
▁bruker	-9.07265
▁menneske	-9.07387
▁russisk	-9.07633
▁fylke	-9.07722
▁rø	-9.07759
▁minne	-9.07837
est	-9.07841
▁dess	-9.07847
skole	-9.07875
ple	-9.07987
▁topp	-9.07989
▁betydelig	-9.085
▁drept	-9.085
tar	-9.0855
▁industri	-9.0857
▁tross	-9.08695
før	-9.08767
ó	-9.08787
▁slo	-9.08844
▁album	-9.08861
▁tittelen	-9.09057
bok	-9.09108
ater	-9.09134
▁ak	-9.09141
liggende	-9.09279
led	-9.09283
▁post	-9.09302
▁dro	-9.09316
borg	-9.09437
yk	-9.09527
▁renn	-9.09603
▁ev	-9.09606
а	-9.09614
▁teater	-9.09643
▁fall	-9.09646
▁sterkt	-9.09653
mester	-9.09671
rom	-9.09953
▁spe	-9.09962
▁anti	-9.1001
▁høyeste	-9.10241
▁dager	-9.10272
my	-9.10296
▁lands	-9.103
▁stats	-9.1041
▁ettersom	-9.10492
▁ren	-9.10528
▁neste	-9.10586
▁nordøst	-9.10743
▁com	-9.10804
▁barne	-9.10917
▁fortsatte	-9.10954
▁bedre	-9.1096
pol	-9.11028
▁karl	-9.11061
kar	-9.11246
▁slått	-9.11384
ab	-9.11397
▁våpen	-9.11467
og	-9.11471
▁engelske	-9.11493
▁ber	-9.11547
▁mu	-9.11641
▁hal	-9.11643
yd	-9.11647
▁elva	-9.1179
▁kilometer	-9.11881
iet	-9.11892
kri	-9.11912
▁følgende	-9.11995
▁q	-9.12015
▁herre	-9.12061
svis	-9.12077
bin	-9.12173
▁60	-9.12252
▁mel	-9.12253
▁danske	-9.12333
▁rock	-9.1241
uk	-9.12442
▁1989	-9.12462
▁1995	-9.12464
▁blad	-9.12474
▁1900	-9.12487
▁bestemt	-9.12529
▁befolkningen	-9.12566
ight	-9.12705
spiller	-9.12771
▁enkelt	-9.12829
▁ap	-9.12899
▁liste	-9.12917
skje	-9.13138
gitt	-9.13186
gått	-9.13228
råd	-9.13297
zi	-9.13332
▁eget	-9.13371
▁møte	-9.13376
fly	-9.13515
ung	-9.13549
▁sentrum	-9.13615
▁1987	-9.13626
gård	-9.13635
▁bri	-9.13692
▁ste	-9.13708
vitenskap	-9.13716
▁jernbane	-9.1374
▁on	-9.1382
▁peter	-9.13891
▁stre	-9.13991
ica	-9.14037
▁trondheim	-9.142
▁vin	-9.14283
▁lav	-9.14471
▁karriere	-9.14491
▁sm	-9.14504
fi	-9.14728
▁200	-9.14765
▁william	-9.14788
▁1940	-9.14802
asjonen	-9.14885
▁hva	-9.14933
brudd	-9.15001
▁finalen	-9.15356
▁klar	-9.15361
▁hovedsakelig	-9.15386
▁poeng	-9.15392
▁energi	-9.15441
ku	-9.15558
▁sig	-9.15559
▁carl	-9.15566
▁regionen	-9.15687
ill	-9.15706
▁stilling	-9.15779
føring	-9.15823
▁arbeids	-9.15881
sak	-9.15917
▁lærer	-9.1604
▁måte	-9.16226
dyr	-9.16257
istiske	-9.16257
bel	-9.16299
▁va	-9.1637
språk	-9.16508
▁samarbeid	-9.16535
▁sølv	-9.16568
▁delt	-9.16588
▁1950	-9.16595
▁suksess	-9.16678
▁jan	-9.16694
ologi	-9.16803
øl	-9.16992
det	-9.17032
▁natt	-9.17044
▁kamper	-9.17094
▁tru	-9.1711
▁hverandre	-9.17176
▁privat	-9.17177
▁brasil	-9.17178
▁betyr	-9.17179
▁dansk	-9.17183
▁1984	-9.17186
▁2014	-9.17188
▁resten	-9.17313
▁gro	-9.17313
søk	-9.17627
mat	-9.17688
▁endt	-9.17877
▁professor	-9.17887
bygd	-9.18043
▁ly	-9.18095
▁finne	-9.18224
året	-9.18238
▁viss	-9.18273
▁direkte	-9.18392
stat	-9.18403
▁universitet	-9.18432
vann	-9.1857
▁litteratur	-9.18584
▁kn	-9.19031
▁rev	-9.19127
▁ring	-9.19217
▁von	-9.19232
nings	-9.19247
▁ul	-9.19264
▁bruke	-9.19334
film	-9.19341
▁gr	-9.19397
▁sen	-9.19498
ført	-9.19582
▁1981	-9.19628
▁eldre	-9.19663
▁henhold	-9.19678
tjeneste	-9.19728
▁legge	-9.19744
▁jobb	-9.19791
30	-9.19853
lla	-9.19854
kal	-9.20081
▁2013	-9.20254
drag	-9.20387
▁tilhører	-9.20645
▁brun	-9.20683
▁lille	-9.20938
▁amerika	-9.20952
▁ska	-9.20986
▁bal	-9.21099
heter	-9.21208
▁roma	-9.21287
bil	-9.2134
▁ønsket	-9.21372
▁steder	-9.21446
▁høyde	-9.21607
leder	-9.21663
skip	-9.21739
8	-9.21764
▁bur	-9.21887
▁miljø	-9.22032
▁resultat	-9.22051
▁lyd	-9.2208
▁pr	-9.22109
age	-9.22236
▁sta	-9.22308
▁indre	-9.2232
▁lokale	-9.22343
du	-9.22353
▁red	-9.22363
▁cla	-9.22457
sky	-9.22537
▁sc	-9.22669
▁samling	-9.22687
pper	-9.2274
▁arrangert	-9.22767
▁københavn	-9.22767
▁sogn	-9.22792
▁os	-9.22865
▁mm	-9.22962
▁mis	-9.23084
▁midten	-9.23125
▁linje	-9.23146
ål	-9.23161
▁johan	-9.23249
▁voksne	-9.2341
▁1985	-9.2342
▁2015	-9.23427
▁erik	-9.23525
▁unge	-9.23572
▁1800	-9.23623
fer	-9.2379
gar	-9.23853
▁mark	-9.23917
▁versjon	-9.23983
▁sørøst	-9.24056
▁1972	-9.24063
▁kv	-9.24473
ps	-9.24478
lle	-9.24581
veien	-9.24584
20	-9.24615
▁gra	-9.24617
▁stod	-9.24621
▁seil	-9.24636
▁arten	-9.2465
▁1986	-9.24714
▁grensen	-9.24783
old	-9.24814
fra	-9.24825
▁områder	-9.2494
▁nrk	-9.24956
▁utvikling	-9.25018
▁nordlige	-9.25029
▁utgjør	-9.25064
▁tom	-9.25093
▁kampen	-9.25339
pro	-9.25357
▁port	-9.2543
▁dra	-9.25473
▁skje	-9.25515
▁sø	-9.25669
sund	-9.25682
▁ag	-9.25891
▁kroppen	-9.25892
▁oppdaget	-9.25981
▁gran	-9.26009
skapet	-9.26011
▁sang	-9.26037
▁vokst	-9.2606
▁tekst	-9.26067
felt	-9.26073
▁benyttet	-9.26089
selskap	-9.26131
jer	-9.26203
▁olav	-9.26226
▁møtte	-9.26237
sjoner	-9.26283
▁eu	-9.2637
lan	-9.26389
▁br	-9.26392
forening	-9.26435
▁wi	-9.26441
▁miste	-9.26567
bane	-9.26567
▁blå	-9.26588
stan	-9.26693
ino	-9.26893
▁sørlige	-9.26931
▁mur	-9.26953
bø	-9.26963
▁hvis	-9.26976
▁verk	-9.26983
▁tapte	-9.27006
▁hånd	-9.27073
▁dom	-9.27077
ismen	-9.27134
▁henrik	-9.27379
▁university	-9.27384
▁opera	-9.27562
deling	-9.27605
▁verdi	-9.27625
tsj	-9.27683
kamp	-9.27759
gh	-9.27919
han	-9.28135
▁britisk	-9.28267
gruppen	-9.28274
▁års	-9.2839
▁stjerne	-9.28549
▁sovjetunionen	-9.2869
▁dårlig	-9.28691
▁oppkalt	-9.28693
▁klarte	-9.28704
▁løp	-9.28705
▁1930	-9.28709
▁op	-9.28752
bro	-9.28763
båt	-9.28818
lser	-9.2885
▁slekt	-9.28926
ai	-9.28955
tin	-9.28962
▁japan	-9.29047
▁gård	-9.29229
lø	-9.29345
▁stockholm	-9.2937
▁besøk	-9.29372
▁bodde	-9.29381
▁gate	-9.29412
▁interesse	-9.2955
▁kraft	-9.2961
▁område	-9.2979
lene	-9.29831
bra	-9.2986
handling	-9.29974
ana	-9.30035
▁dyr	-9.30073
anger	-9.30161
kter	-9.30182
ari	-9.3023
▁uttrykk	-9.30293
▁skrive	-9.30306
▁lenge	-9.30378
all	-9.30398
van	-9.30609
▁personlig	-9.3062
▁omfatter	-9.30668
▁robert	-9.30786
område	-9.30788
▁stadig	-9.30789
fon	-9.308
stra	-9.30836
bud	-9.30873
▁bill	-9.30887
sjef	-9.30984
▁finland	-9.31023
▁flo	-9.3106
▁brukte	-9.31096
▁drift	-9.31135
▁sesong	-9.31238
▁gal	-9.31323
▁tradisjon	-9.31336
▁ordet	-9.31379
▁1982	-9.31447
▁mester	-9.3153
▁samlet	-9.31533
▁endret	-9.31571
▁super	-9.31709
▁bør	-9.31765
området	-9.3179
ori	-9.31797
gra	-9.32016
side	-9.32044
▁hæren	-9.32135
▁1979	-9.32139
▁statsminister	-9.32148
▁fylkesvei	-9.32156
gel	-9.32183
▁pave	-9.32285
of	-9.32324
▁studerte	-9.32587
▁retning	-9.32588
▁van	-9.32643
▁cor	-9.32738
▁samle	-9.32771
▁selskap	-9.32804
▁høsten	-9.32848
▁sky	-9.32855
▁vekt	-9.32884
▁boken	-9.32936
olog	-9.32981
▁europeiske	-9.32996
▁dersom	-9.33006
tok	-9.33051
▁konsert	-9.33123
▁greske	-9.3314
▁sterk	-9.33242
rike	-9.33256
▁au	-9.33288
samling	-9.33374
▁politi	-9.3347
и	-9.33552
▁canada	-9.33558
▁80	-9.33597
ita	-9.33635
▁havet	-9.33672
skrift	-9.33708
▁arkitekt	-9.33801
fjord	-9.33848
▁ter	-9.33929
▁mont	-9.34108
▁hvite	-9.3412
▁handling	-9.34162
▁opprør	-9.34194
▁sannsynlig	-9.34266
▁vanskelig	-9.34267
▁1948	-9.34272
▁mc	-9.34275
▁1975	-9.34278
▁1964	-9.34281
▁war	-9.34285
▁kjøpt	-9.34324
▁syk	-9.34329
▁island	-9.34367
▁felt	-9.3438
fabrikk	-9.34574
istisk	-9.34652
▁mon	-9.3471
▁bred	-9.34714
40	-9.34869
▁viktige	-9.34928
iner	-9.34947
▁tilsvarende	-9.34986
▁relativ	-9.34986
▁leker	-9.35085
▁hvordan	-9.35105
▁areal	-9.35292
▁livet	-9.35348
▁bel	-9.35426
vern	-9.35452
▁svarte	-9.35457
mu	-9.35469
▁finner	-9.35633
▁maria	-9.35641
▁thomas	-9.35711
▁pri	-9.35834
▁bilde	-9.35915
▁virke	-9.35956
fri	-9.36011
▁venn	-9.36083
idae	-9.36288
tegn	-9.36316
▁70	-9.36486
▁besto	-9.36567
▁nu	-9.36572
▁overtok	-9.3664
▁helse	-9.36658
▁leve	-9.36677
▁hall	-9.36738
itz	-9.3681
gan	-9.36816
▁vol	-9.36828
sjonen	-9.36856
▁system	-9.36858
▁ex	-9.36915
familien	-9.3693
▁lenger	-9.36947
elser	-9.37082
▁bank	-9.37116
▁vokse	-9.37128
banen	-9.3716
lighet	-9.37208
▁fange	-9.37224
▁sommeren	-9.37227
▁kul	-9.37277
hø	-9.37582
▁knyttet	-9.37626
▁klart	-9.3781
områder	-9.37836
▁can	-9.37854
nntil	-9.37884
▁lege	-9.37908
▁plassert	-9.37911
▁arm	-9.38039
▁totalt	-9.38117
▁syv	-9.38202
▁gode	-9.38242
grad	-9.38277
ach	-9.3833
▁dagen	-9.38367
▁len	-9.38515
ath	-9.38539
iserte	-9.38547
kro	-9.38547
▁pal	-9.38648
▁1945	-9.38674
▁1974	-9.38676
▁befolkning	-9.38745
af	-9.38872
ull	-9.38876
▁vår	-9.3894
▁offentlig	-9.38958
▁militære	-9.38977
ich	-9.39157
rin	-9.39165
▁gresk	-9.39184
▁reiste	-9.39395
▁informasjon	-9.39415
▁lengre	-9.39416
▁standard	-9.39435
▁kongelig	-9.39482
▁avdeling	-9.39533
▁mus	-9.39542
port	-9.39621
▁syd	-9.39679
▁alder	-9.39752
ska	-9.3983
we	-9.40038
▁kap	-9.40111
▁gl	-9.40112
ara	-9.40181
▁1983	-9.40184
▁tradisjonell	-9.40228
▁sj	-9.40281
rus	-9.4035
asje	-9.40405
ansk	-9.40504
navn	-9.40683
ini	-9.40768
60	-9.40823
▁fla	-9.41022
kraft	-9.41098
regionen	-9.41204
kast	-9.41393
▁kardinal	-9.41705
▁sørvest	-9.41708
▁sha	-9.41781
lys	-9.41826
ød	-9.41933
syn	-9.41999
ze	-9.42056
folk	-9.42075
▁ek	-9.42124
setning	-9.42171
▁koloni	-9.4224
senter	-9.42301
pu	-9.42489
▁1976	-9.42495
nor	-9.42499
▁prosent	-9.425
▁city	-9.42534
▁regjering	-9.42593
▁500	-9.42632
▁grev	-9.42732
▁punkt	-9.42736
stasjon	-9.42754
huset	-9.42868
▁høyere	-9.42891
enes	-9.42957
▁vis	-9.42999
mal	-9.43008
▁ry	-9.43021
▁fjorden	-9.43137
▁moh	-9.43162
▁1969	-9.43261
▁1973	-9.43261
▁1977	-9.43261
▁martin	-9.43313
▁måneder	-9.43381
skog	-9.434
lling	-9.43462
▁katolske	-9.43466
▁hvit	-9.43467
▁strøm	-9.43506
chi	-9.43576
punkt	-9.43635
▁tett	-9.43676
▁stasjon	-9.43703
aks	-9.43724
▁trykk	-9.43755
▁hø	-9.43881
▁offisielle	-9.43967
▁lars	-9.43994
▁soldater	-9.44058
▁1971	-9.44061
▁fredrik	-9.44081
▁raskt	-9.44313
ford	-9.44351
▁hundre	-9.44366
▁oppgave	-9.44389
bygging	-9.44416
ym	-9.44422
▁los	-9.44423
værende	-9.44456
▁mulighet	-9.44485
▁dis	-9.44621
▁eid	-9.44647
wi	-9.44808
▁størrelse	-9.44808
▁sikre	-9.44852
▁1966	-9.44856
▁kla	-9.44938
q	-9.44944
▁union	-9.44946
▁fulgte	-9.44947
byen	-9.4497
▁beskrive	-9.44973
ativ	-9.45076
navnet	-9.45078
▁latin	-9.4515
▁kyst	-9.45207
ika	-9.45275
▁west	-9.4534
ros	-9.45362
dor	-9.45414
inne	-9.45444
fin	-9.45454
▁følger	-9.45472
lis	-9.45577
▁dronning	-9.45647
dra	-9.45711
▁svart	-9.4583
gul	-9.45904
▁krav	-9.45922
stå	-9.46005
hav	-9.46091
▁klasse	-9.46194
▁plate	-9.46229
king	-9.46265
▁kunstner	-9.46274
▁fal	-9.46285
▁lek	-9.46292
▁olje	-9.46381
▁1952	-9.46449
▁sende	-9.46454
▁1968	-9.46461
▁brann	-9.46471
legge	-9.46503
▁hit	-9.46512
▁nåværende	-9.46523
▁stu	-9.46677
tårn	-9.46682
▁george	-9.46713
▁ky	-9.46718
standen	-9.46769
drift	-9.46813
▁para	-9.46851
ria	-9.46874
▁nådd	-9.46882
▁asia	-9.469
▁erstattet	-9.46911
ama	-9.46989
bilde	-9.47029
retning	-9.4704
lot	-9.47075
▁sir	-9.47083
▁solgt	-9.47178
▁grand	-9.47212
▁klassisk	-9.47263
▁fortsette	-9.47284
▁spania	-9.47287
▁forsvar	-9.47294
org	-9.47305
ls	-9.47327
▁modell	-9.47342
▁høye	-9.47368
▁johannes	-9.47461
▁transport	-9.47474
bygg	-9.47561
▁fest	-9.4761
▁lengde	-9.47647
▁funksjon	-9.47709
▁løs	-9.47739
system	-9.47752
▁hy	-9.4792
▁runde	-9.47938
▁fer	-9.47946
▁fjerde	-9.48011
▁stortinget	-9.48085
▁kast	-9.48122
▁skape	-9.48158
▁styrker	-9.48214
ay	-9.48217
▁don	-9.48277
▁heller	-9.48304
asjoner	-9.48378
▁you	-9.48408
▁sel	-9.48482
▁kroner	-9.48513
▁xi	-9.4854
havet	-9.48556
▁tanke	-9.48557
ip	-9.48613
don	-9.48638
▁munn	-9.48639
bas	-9.48649
▁vold	-9.48685
løse	-9.48703
▁karakter	-9.48728
▁air	-9.48798
▁regnet	-9.48827
stil	-9.4884
▁figur	-9.48853
▁produsere	-9.48908
▁spesial	-9.48908
▁sil	-9.48918
▁egypt	-9.48928
ano	-9.48962
jø	-9.49041
▁mal	-9.49042
▁bygningen	-9.49154
▁ball	-9.49204
▁mas	-9.49234
▁hei	-9.49273
valget	-9.49292
▁gru	-9.49304
arbeid	-9.49332
▁valgte	-9.49383
øve	-9.49385
▁femte	-9.49392
linje	-9.49597
▁vestlig	-9.49616
lund	-9.49652
fo	-9.49672
iz	-9.49716
▁australia	-9.49741
▁innflytelse	-9.49741
▁david	-9.49746
▁1978	-9.49756
▁hopp	-9.498
▁skipet	-9.49926
systemet	-9.50027
▁journalist	-9.50034
gge	-9.50048
park	-9.50139
▁dia	-9.50163
blad	-9.50171
▁russiske	-9.50299
ille	-9.50372
abel	-9.50435
▁bøker	-9.5049
▁polen	-9.50544
one	-9.50548
ringen	-9.50549
▁nest	-9.50583
▁stavanger	-9.50589
▁kryss	-9.50591
▁gar	-9.50592
▁bronse	-9.50595
▁strid	-9.50603
▁fremdeles	-9.50616
jør	-9.50647
pris	-9.50718
▁grå	-9.50732
cc	-9.50743
▁redaktør	-9.50761
▁borg	-9.50904
▁holm	-9.50914
dals	-9.50954
ante	-9.51096
ji	-9.51119
ledes	-9.51167
▁ære	-9.51171
▁tale	-9.51201
ance	-9.51222
▁cm	-9.51253
▁virksomhet	-9.51273
fag	-9.51299
▁sovjetisk	-9.51314
nett	-9.51344
▁pris	-9.51365
▁flat	-9.5137
▁nordvest	-9.51435
▁bakgrunn	-9.51449
▁slott	-9.51562
mannen	-9.51667
▁slekten	-9.51722
64	-9.51772
▁frank	-9.5179
hall	-9.51803
▁180	-9.51843
▁skjer	-9.51843
▁jobbet	-9.52102
ild	-9.52208
way	-9.5224
▁representant	-9.52284
▁eier	-9.52341
▁prisen	-9.52353
▁utviklingen	-9.52438
▁rike	-9.5249
anlegg	-9.52562
din	-9.52667
▁iii	-9.5267
▁effekt	-9.52723
ologisk	-9.52746
ikken	-9.52864
departementet	-9.5305
sjøen	-9.53053
59	-9.53064
▁grunnlag	-9.53116
▁maskin	-9.53131
▁artene	-9.53137
▁israel	-9.53149
▁bronsemedalje	-9.53152
▁mac	-9.53236
ferd	-9.53239
▁400	-9.53303
▁sub	-9.53305
med	-9.53343
▁ledelse	-9.5338
▁za	-9.53427
▁sentrale	-9.53473
nz	-9.5353
▁stiftet	-9.53538
▁faren	-9.5358
▁prosess	-9.53845
▁wo	-9.53854
н	-9.54015
▁ordfører	-9.54028
▁etterhver	-9.5403
▁bevart	-9.54035
▁stand	-9.54049
▁tall	-9.54061
▁jon	-9.54076
▁ytre	-9.54091
skolen	-9.54138
firma	-9.54211
▁regn	-9.54285
hy	-9.54317
fisk	-9.54396
▁uni	-9.54419
▁musiker	-9.54441
▁fører	-9.54513
▁vind	-9.54607
▁student	-9.54613
▁posisjon	-9.54619
▁ci	-9.54621
▁dy	-9.54681
verket	-9.5469
▁fyr	-9.54718
▁lund	-9.54739
cy	-9.54847
▁enten	-9.54856
trykk	-9.5488
▁1944	-9.54906
▁omfattende	-9.54945
loven	-9.54956
gående	-9.54987
▁sju	-9.54997
▁valget	-9.55061
ali	-9.55318
▁borger	-9.55378
▁årlig	-9.55429
▁plante	-9.55516
▁distriktet	-9.55541
▁grønn	-9.55544
organ	-9.55583
▁bolig	-9.55645
messig	-9.55772
▁trøndelag	-9.55778
sco	-9.55783
▁bjørn	-9.55843
▁james	-9.55844
▁ansatt	-9.55915
▁mottok	-9.55939
▁gården	-9.56036
handler	-9.56052
▁cup	-9.5617
▁oppsto	-9.56186
▁ordenen	-9.56253
lagt	-9.56406
▁forskning	-9.56554
tatt	-9.56556
▁fylkes	-9.56646
▁variant	-9.56751
▁blod	-9.56777
▁plassering	-9.56828
▁kjøre	-9.56864
krigen	-9.5687
▁kristne	-9.56941
gruppe	-9.57165
stri	-9.57188
▁ger	-9.57247
lia	-9.57296
bert	-9.57332
▁kat	-9.57345
gjøre	-9.57382
▁skrift	-9.57429
ins	-9.57429
87	-9.57451
løs	-9.57499
▁hvilke	-9.57572
▁1936	-9.5758
▁1946	-9.57586
▁sivil	-9.57615
▁alltid	-9.57632
▁gjennomført	-9.57661
▁feil	-9.57703
▁hoff	-9.57774
▁revolusjon	-9.57907
▁grenser	-9.57908
▁museum	-9.57917
▁kontrakt	-9.58032
▁operasjon	-9.58051
▁offiser	-9.58059
▁lin	-9.58116
produksjon	-9.58122
periode	-9.58126
iti	-9.58197
▁verne	-9.5826
▁nev	-9.58311
▁vinner	-9.58435
▁1951	-9.5848
▁1928	-9.58491
▁egentlig	-9.58501
gle	-9.58505
▁rang	-9.58571
eres	-9.58706
▁ven	-9.58816
az	-9.58828
akt	-9.58934
korps	-9.59063
ritt	-9.5914
liv	-9.59237
▁sjef	-9.59247
▁chi	-9.59252
▁mengde	-9.59303
▁publisert	-9.59398
▁vunnet	-9.59398
▁temperatur	-9.59415
▁1959	-9.59417
▁inter	-9.59433
▁bygde	-9.59467
67	-9.59546
▁velge	-9.5956
hund	-9.59564
ial	-9.59589
▁jern	-9.59616
formet	-9.59647
▁real	-9.59657
▁trakk	-9.59658
▁sund	-9.5979
▁son	-9.59794
bor	-9.59832
▁dyp	-9.59875
▁lære	-9.59878
▁grense	-9.59934
▁irland	-9.59946
▁vik	-9.5996
▁not	-9.59968
middel	-9.59984
▁lø	-9.60073
nivå	-9.60107
76	-9.60122
minister	-9.60224
ð	-9.60324
▁elektrisk	-9.60324
▁snakke	-9.60325
▁regi	-9.60362
▁sider	-9.6042
▁hovedstaden	-9.60651
▁nivå	-9.60667
▁design	-9.60679
sberg	-9.60688
▁programmet	-9.60716
elva	-9.6075
▁het	-9.60889
▁kors	-9.60896
▁she	-9.6102
her	-9.61115
▁ting	-9.6112
ms	-9.6116
▁daglig	-9.61242
▁original	-9.61258
▁1955	-9.61271
▁1956	-9.61273
▁økonomi	-9.6128
spor	-9.6131
▁båt	-9.6139
lik	-9.61433
▁1700	-9.61435
▁oppdrag	-9.61494
▁falt	-9.61506
▁status	-9.61535
▁prøve	-9.61546
lek	-9.61552
▁dal	-9.61567
▁klubb	-9.6158
▁studie	-9.61627
▁sterke	-9.6169
grav	-9.61694
▁mw	-9.61882
hr	-9.61925
holm	-9.61963
▁stasjonen	-9.62012
▁politikk	-9.62168
▁mexico	-9.62202
р	-9.62202
▁flertall	-9.62202
▁kontakt	-9.62206
▁1958	-9.62216
▁problem	-9.62287
▁åpen	-9.62387
▁hevdet	-9.62525
▁hår	-9.62555
▁ang	-9.62608
▁reform	-9.62824
▁region	-9.62899
▁populær	-9.62971
▁religion	-9.63154
▁østerrike	-9.63156
▁1947	-9.63171
▁sier	-9.63192
▁rot	-9.63193
▁skyld	-9.63197
▁bad	-9.63253
fart	-9.63291
▁ve	-9.63319
under	-9.6332
nos	-9.63322
▁wh	-9.63423
▁tung	-9.6343
▁veg	-9.63469
▁fjellet	-9.63471
▁utført	-9.63505
ringer	-9.63522
▁nederlandsk	-9.63531
▁representerte	-9.63555
vit	-9.63587
▁athen	-9.63731
▁lik	-9.63737
▁georg	-9.63739
eier	-9.63746
▁shi	-9.63816
▁gren	-9.63844
ani	-9.63899
▁stø	-9.63967
▁bind	-9.64015
vesen	-9.64041
vil	-9.64047
▁styrke	-9.64092
▁nødvendig	-9.64116
▁1924	-9.64127
elige	-9.64142
▁fotballspiller	-9.64149
▁kol	-9.64154
▁organisasjonen	-9.64189
tig	-9.64196
62	-9.64251
▁ban	-9.64258
▁300	-9.64309
▁oppført	-9.64367
tus	-9.6441
▁aust	-9.64428
▁konkurransen	-9.64433
▁motstand	-9.64509
▁thor	-9.64559
▁leg	-9.64592
▁gutt	-9.646
10	-9.64631
▁produkt	-9.6475
strøm	-9.64811
▁stoppe	-9.64856
rek	-9.64863
▁utstyr	-9.64878
cia	-9.64999
▁rollen	-9.6501
▁bø	-9.65044
34	-9.65072
▁1932	-9.65096
▁sammenheng	-9.65102
▁2017	-9.65107
▁2016	-9.65109
situasjon	-9.65134
▁scene	-9.6522
▁cu	-9.65316
▁distrikt	-9.65319
ind	-9.65343
aktig	-9.6544
gren	-9.6546
▁øke	-9.65644
▁havne	-9.65724
stid	-9.65857
▁lær	-9.65862
midler	-9.65896
▁øyene	-9.65961
virkning	-9.65986
▁turn	-9.66007
61	-9.66013
▁vet	-9.66022
▁debutert	-9.66052
▁publikum	-9.66067
▁symbol	-9.66067
▁vitenskapelig	-9.66071
trekk	-9.66078
▁andreplass	-9.66236
vig	-9.66239
ire	-9.66277
rat	-9.66305
▁prosjekt	-9.66307
▁anton	-9.66405
dagen	-9.66412
▁pol	-9.66462
▁nabo	-9.66536
▁japansk	-9.66537
▁rekord	-9.66546
samisk	-9.66569
gangen	-9.66595
stått	-9.6662
▁naturlig	-9.66636
▁aktivitet	-9.66663
▁materiale	-9.6671
66	-9.66737
våpen	-9.66783
▁nr	-9.66857
▁regel	-9.6715
▁hor	-9.67152
▁salt	-9.67158
▁hed	-9.67177
▁data	-9.67299
▁delta	-9.67322
fest	-9.67326
▁type	-9.67377
▁trans	-9.67426
▁preget	-9.67445
cha	-9.67642
▁strand	-9.67652
▁pat	-9.67733
▁tettstedet	-9.67739
▁fugle	-9.67842
▁bidra	-9.67844
▁uavhengig	-9.67846
oth	-9.67921
ban	-9.67956
▁front	-9.67973
▁sykdom	-9.68041
▁betrakte	-9.68057
▁nærmest	-9.68063
▁1962	-9.68075
▁østlig	-9.68076
▁anne	-9.68116
▁bygg	-9.6816
▁knut	-9.6817
85	-9.68194
▁formann	-9.68209
▁likhet	-9.68284
78	-9.68285
nu	-9.68289
▁prest	-9.683
▁hodet	-9.68372
▁jakt	-9.68446
▁behold	-9.68555
74	-9.68567
▁sja	-9.68595
▁tour	-9.6868
84	-9.68778
▁ac	-9.68811
▁nærings	-9.6898
86	-9.69025
▁ung	-9.69061
▁komponist	-9.69067
▁opprinnelse	-9.69067
musikk	-9.69069
▁typisk	-9.69069
atet	-9.69214
jon	-9.69215
▁konflikt	-9.69231
▁filmer	-9.6926
▁høyt	-9.69273
▁hær	-9.69355
▁kommet	-9.69356
▁spanske	-9.69361
▁korea	-9.69382
medalje	-9.69461
▁forteller	-9.69498
▁vid	-9.69552
▁hertug	-9.69665
trolig	-9.69692
▁sport	-9.6971
▁historien	-9.69774
▁trekke	-9.69919
kla	-9.69951
è	-9.7002
▁grupper	-9.70026
▁bevis	-9.70083
▁utbredt	-9.70088
▁derimo	-9.70101
▁musikkalbum	-9.70106
▁1967	-9.70106
▁skilt	-9.7012
47	-9.70171
▁prins	-9.70179
▁solo	-9.70187
▁bosatt	-9.70245
zz	-9.7026
▁tusen	-9.70356
▁teknisk	-9.70359
▁fordelt	-9.70421
▁struktur	-9.70438
trådte	-9.70584
▁anlegget	-9.70607
hen	-9.7062
lly	-9.7065
▁røde	-9.70808
▁time	-9.70842
▁skips	-9.70847
▁cl	-9.70858
▁mod	-9.70925
▁utover	-9.71021
39	-9.7104
▁turneringen	-9.7104
tel	-9.71065
▁bry	-9.71077
▁california	-9.71118
▁skottland	-9.71118
▁1943	-9.71132
▁1957	-9.71134
▁provins	-9.71146
▁områdene	-9.71211
▁byer	-9.71288
▁stille	-9.71466
▁foss	-9.71478
▁lot	-9.71479
▁organisasjon	-9.71633
▁90	-9.71656
ves	-9.71667
▁trafikk	-9.7185
last	-9.72004
kant	-9.72015
shire	-9.72025
▁avisen	-9.72067
е	-9.72157
▁beijing	-9.7216
▁spesiell	-9.72161
▁hjerte	-9.72161
▁innsats	-9.72161
▁ekteskap	-9.72162
▁college	-9.72163
är	-9.72165
ios	-9.72249
ction	-9.72278
▁huset	-9.72285
▁hovedstad	-9.72375
zo	-9.72475
▁heter	-9.72516
forbund	-9.72556
▁polsk	-9.72592
▁tettsted	-9.72594
▁angrepet	-9.72671
rådet	-9.72689
▁35	-9.72726
▁omtale	-9.72768
mand	-9.72867
▁leir	-9.72953
▁hellige	-9.73006
gje	-9.73052
▁spill	-9.73052
ua	-9.73095
▁arne	-9.73152
ark	-9.73153
▁slå	-9.73197
▁teksten	-9.73208
75	-9.73211
▁sølvmedalje	-9.73224
▁mege	-9.73256
▁erklært	-9.73263
▁ep	-9.73272
nevn	-9.73285
▁bosetning	-9.73292
▁sort	-9.73526
▁adel	-9.73532
arbeider	-9.73574
▁normal	-9.73593
sko	-9.73677
▁problemer	-9.73686
gården	-9.73869
ås	-9.73889
▁fil	-9.73932
▁jens	-9.73971
▁påvirke	-9.73985
▁rik	-9.73997
▁hest	-9.74061
sser	-9.74265
▁etterfulgt	-9.74277
▁friidrett	-9.74277
▁utdannet	-9.74277
▁national	-9.74277
▁frederik	-9.74282
▁presse	-9.74286
▁stykke	-9.7429
▁lansert	-9.74291
▁1963	-9.74292
▁1949	-9.74293
▁1954	-9.74293
▁jarl	-9.74318
▁ekstra	-9.74361
▁forsøkt	-9.7437
rykket	-9.7439
▁hard	-9.74422
▁støttet	-9.74475
▁spørsmål	-9.74642
senteret	-9.74676
visning	-9.74809
▁sur	-9.74968
levende	-9.75095
eide	-9.7519
klubb	-9.75343
о	-9.75348
▁alternativ	-9.75352
▁united	-9.75353
▁kontor	-9.75362
▁1918	-9.75367
▁sommerfugl	-9.75375
46	-9.75375
▁betegne	-9.75378
▁sti	-9.75406
▁brev	-9.75478
▁nærmer	-9.75547
tive	-9.75678
blom	-9.75715
hal	-9.75764
still	-9.75827
25	-9.75838
▁liga	-9.75877
▁dømt	-9.75935
▁hevde	-9.76095
▁elev	-9.76189
▁pass	-9.76246
slutning	-9.76318
▁historisk	-9.76326
▁1953	-9.76439
▁fengsel	-9.76439
▁tilgjengelig	-9.76439
▁ytterligere	-9.76439
▁bokstav	-9.7644
▁oversikt	-9.7644
▁nektet	-9.76441
▁1965	-9.76448
▁1942	-9.76449
▁1912	-9.76452
▁jordbruk	-9.76478
▁nærheten	-9.76512
▁ob	-9.76512
gift	-9.7654
▁lan	-9.7654
▁kanon	-9.76552
mus	-9.76567
▁motsetning	-9.7661
fulle	-9.76651
▁innført	-9.76725
▁smal	-9.76808
▁beskrevet	-9.76961
ledning	-9.76978
▁gangen	-9.77033
▁utvidet	-9.77195
▁fordel	-9.77263
▁løv	-9.77295
71	-9.77342
historie	-9.77374
orm	-9.77404
haug	-9.77454
▁beskytte	-9.77457
▁kam	-9.77481
▁ridder	-9.77543
▁nevnt	-9.77599
▁helge	-9.77602
▁rask	-9.77651
▁harald	-9.77665
▁christ	-9.77691
▁spre	-9.77699
▁camp	-9.77766
▁forlot	-9.77839
▁kg	-9.77887
▁riket	-9.77903
56	-9.77934
▁forsvars	-9.7796
▁direktør	-9.78044
▁studenter	-9.78155
▁varme	-9.78164
▁mørke	-9.78173
▁nederland	-9.78221
95	-9.78224
▁historiske	-9.7833
▁saken	-9.78358
▁produsent	-9.78359
▁drive	-9.78414
▁ran	-9.78424
▁masse	-9.78445
▁rå	-9.78478
industri	-9.78508
rev	-9.78538
kommune	-9.78548
parti	-9.78558
ain	-9.78604
▁danne	-9.78605
▁tele	-9.78626
▁sjelden	-9.78649
▁richard	-9.78649
▁allierte	-9.7865
▁episode	-9.7865
▁hurtig	-9.7865
▁avsluttet	-9.78658
▁charles	-9.78667
makt	-9.78689
▁finans	-9.78825
▁sh	-9.78873
▁kysten	-9.78888
kin	-9.7902
▁begrepet	-9.79022
lip	-9.79061
▁offentlige	-9.79072
▁strekke	-9.79085
har	-9.79169
metode	-9.79188
▁forskjell	-9.79246
▁kart	-9.79261
▁150	-9.79285
▁mad	-9.79309
pet	-9.79322
ras	-9.79346
▁internasjonal	-9.7935
▁våren	-9.79495
byrå	-9.79506
▁kropp	-9.79511
krets	-9.79663
▁gitar	-9.79688
▁off	-9.79703
▁vær	-9.79745
▁profesjonell	-9.79772
▁enda	-9.79801
▁program	-9.7983
▁søster	-9.79834
▁bibel	-9.79841
▁krist	-9.79886
▁ce	-9.7991
▁lage	-9.79976
▁folket	-9.80053
▁sku	-9.80144
▁lignende	-9.80204
▁tegnet	-9.80254
▁nan	-9.80287
rio	-9.80292
▁systemet	-9.80331
▁sette	-9.80373
▁kreft	-9.80416
▁trener	-9.80431
▁bern	-9.80445
▁stav	-9.80491
▁ya	-9.80532
rop	-9.80561
ix	-9.80634
15	-9.80728
▁preste	-9.80733
▁flyplass	-9.80862
institusjon	-9.80909
▁institutt	-9.80909
▁1933	-9.8092
▁unntak	-9.80924
▁black	-9.80955
54	-9.80981
▁rute	-9.81
▁rad	-9.81149
▁uke	-9.81227
58	-9.81237
fugl	-9.81381
▁tema	-9.81439
band	-9.81464
och	-9.81487
▁filosofi	-9.81566
▁metal	-9.8167
linjen	-9.81684
▁us	-9.81696
▁metall	-9.81815
jev	-9.81915
▁gjelder	-9.81934
program	-9.81935
grense	-9.81939
▁sar	-9.82025
▁ishockey	-9.82047
▁tilknytning	-9.82058
▁starten	-9.82122
▁kilder	-9.8213
▁albert	-9.82136
49	-9.82137
▁henry	-9.82256
▁total	-9.82292
▁nils	-9.82347
▁nordland	-9.82351
ob	-9.82362
fjell	-9.82409
slå	-9.82497
▁etablerte	-9.82617
ola	-9.82661
▁betegnelsen	-9.82686
▁jorden	-9.82721
delen	-9.82974
▁landsbyen	-9.8299
ville	-9.8303
møte	-9.83147
fører	-9.83203
▁1941	-9.83221
▁ødelagt	-9.83222
▁kunnskap	-9.83222
▁hustru	-9.83223
▁faktisk	-9.83224
skjold	-9.83225
▁drama	-9.83235
ram	-9.83241
▁score	-9.83297
vert	-9.83336
▁kvart	-9.83366
▁egg	-9.83436
folkerepublikken	-9.83485
▁selve	-9.83571
▁retts	-9.83595
verdig	-9.83629
▁gre	-9.83658
klær	-9.83692
83	-9.83702
▁begynner	-9.83827
reise	-9.8393
▁hører	-9.83932
▁fot	-9.83966
▁russ	-9.84027
▁spansk	-9.84145
▁toppen	-9.84171
▁forfatteren	-9.8418
▁landsby	-9.84195
▁svak	-9.8423
▁stammer	-9.84239
▁fremme	-9.84283
44	-9.84311
▁win	-9.84318
▁fan	-9.84321
sekretær	-9.84384
▁offisielt	-9.84398
▁records	-9.84398
▁michael	-9.84398
▁world	-9.84398
▁yngre	-9.84398
▁kombinert	-9.84398
field	-9.84435
▁hode	-9.84459
▁ledd	-9.84474
evne	-9.84542
▁riksvei	-9.84556
▁arve	-9.84596
øm	-9.84613
▁bane	-9.84826
▁ram	-9.84833
▁human	-9.84835
▁45	-9.84848
▁haug	-9.84886
▁styrkene	-9.84973
▁ungdoms	-9.85002
▁rh	-9.85061
▁opphold	-9.85141
▁slave	-9.85211
70	-9.8528
80	-9.85281
▁middelalderen	-9.8529
person	-9.85332
▁die	-9.8535
kirke	-9.85466
bjørn	-9.85519
rolle	-9.8553
▁spa	-9.85571
▁nominert	-9.85588
▁passasjer	-9.85588
▁kritikk	-9.85589
sal	-9.85627
gard	-9.85632
▁flåte	-9.85658
strand	-9.85704
▁solgte	-9.85725
▁finsk	-9.85778
ada	-9.85807
▁passer	-9.8581
▁larven	-9.85878
▁che	-9.85887
68	-9.85957
▁medlemmene	-9.8599
▁un	-9.86188
ula	-9.86214
▁kvinnelig	-9.86385
97	-9.86525
pass	-9.86553
▁sveits	-9.86558
▁regjerings	-9.86588
45	-9.8666
slutt	-9.86687
partiet	-9.8669
▁nordisk	-9.86698
▁fyrst	-9.8679
▁erkebiskop	-9.86793
▁moskva	-9.86793
▁dollar	-9.86793
▁avhengig	-9.86793
▁skjedde	-9.86795
▁øvre	-9.86803
▁omtalt	-9.86834
kysten	-9.86893
▁rygg	-9.86896
sang	-9.86909
▁sluttet	-9.86952
57	-9.86953
▁utdannelse	-9.86956
følgende	-9.87001
▁dynastiet	-9.87128
▁sist	-9.87271
▁måned	-9.87283
lus	-9.87352
▁samfunnet	-9.87361
▁ask	-9.87434
eppe	-9.87441
▁utgave	-9.87456
▁vannet	-9.87457
▁rein	-9.87534
fang	-9.87575
▁studier	-9.87582
▁landene	-9.8759
63	-9.87672
brun	-9.87715
▁listen	-9.87752
isten	-9.87999
▁1908	-9.88012
▁oscar	-9.88013
▁undersøkelse	-9.88015
▁magnus	-9.88015
▁stadion	-9.88015
▁fungere	-9.88018
▁innspilling	-9.88019
▁edvard	-9.88023
▁klima	-9.88024
▁straffe	-9.88054
▁åpning	-9.88139
▁egenskap	-9.88152
19	-9.88264
▁sent	-9.88378
▁elv	-9.88412
▁viking	-9.88482
kkel	-9.88491
kka	-9.88531
▁mik	-9.88545
▁utdanning	-9.88561
▁krets	-9.88585
▁endelig	-9.88611
▁evne	-9.88748
▁poly	-9.88767
▁tog	-9.88768
▁zh	-9.88803
▁normalt	-9.88829
▁behandling	-9.88924
▁vekst	-9.88987
bru	-9.89035
▁test	-9.89139
▁1961	-9.89269
▁signert	-9.89271
▁inntekt	-9.89272
▁fullført	-9.89272
avdeling	-9.89281
▁mid	-9.89289
stedet	-9.89302
full	-9.89363
kanten	-9.89381
▁teori	-9.8941
▁undervisning	-9.89495
▁malt	-9.89512
gram	-9.89563
gikk	-9.89583
▁økte	-9.89584
▁glo	-9.89599
virke	-9.89648
▁uker	-9.89657
▁gy	-9.89657
▁king	-9.89672
▁middel	-9.89731
▁representerer	-9.89777
henger	-9.89819
▁gass	-9.89826
nyin	-9.89835
skifte	-9.89849
war	-9.89888
bri	-9.89914
▁banen	-9.89922
▁spiss	-9.89936
▁vers	-9.90024
kirken	-9.90084
▁tj	-9.90191
▁sau	-9.90256
▁tilfeller	-9.90274
▁danse	-9.90278
▁johann	-9.90337
slav	-9.90351
stemt	-9.90371
▁akt	-9.90409
▁klassen	-9.90455
▁ansatte	-9.90473
knyttet	-9.90486
▁sistnevnte	-9.90497
▁jødisk	-9.90498
▁ungarn	-9.90498
▁skotsk	-9.90518
stykke	-9.90526
▁damp	-9.90539
sam	-9.90574
▁gjenopp	-9.90586
▁overgang	-9.90593
ordenen	-9.90642
▁mø	-9.9066
▁1000	-9.90693
▁lind	-9.90701
krat	-9.90719
zhou	-9.9073
former	-9.90744
▁samarbeidet	-9.90746
▁jevn	-9.90756
▁omfatte	-9.90767
▁dukke	-9.90859
mil	-9.91052
wood	-9.91115
▁euro	-9.91121
▁erobret	-9.91124
72	-9.91149
▁dor	-9.91187
▁just	-9.91194
▁fc	-9.91208
lov	-9.91223
mund	-9.91248
▁sørge	-9.91292
selskapet	-9.91334
win	-9.91342
▁lyn	-9.91422
▁kampene	-9.91463
▁driver	-9.91471
▁dommer	-9.91673
instrument	-9.91697
town	-9.91711
▁opphav	-9.91756
▁installert	-9.91763
▁anklage	-9.91774
▁1914	-9.91776
▁cap	-9.91785
▁bidro	-9.91793
▁harry	-9.91808
▁varierer	-9.91813
▁anledning	-9.91823
voll	-9.91832
▁lønn	-9.91846
eksamen	-9.91852
kultur	-9.91857
▁behov	-9.9187
▁havn	-9.91898
▁republikken	-9.91902
slaget	-9.91912
▁trekk	-9.91922
▁kjerne	-9.91928
▁eg	-9.9193
serien	-9.91943
▁morgen	-9.92059
▁eksempelvis	-9.92065
▁bla	-9.92067
▁motta	-9.92071
▁junior	-9.92134
ming	-9.92161
▁flagg	-9.92218
▁innsjøen	-9.92271
▁tonn	-9.92331
▁maler	-9.92367
▁drevet	-9.9241
▁pop	-9.92426
▁prosjektet	-9.92695
▁bord	-9.92758
▁endre	-9.9287
▁ten	-9.92878
▁wal	-9.92879
▁cd	-9.92981
våg	-9.92986
▁diplomat	-9.93045
▁louis	-9.93046
▁tidspunkt	-9.93047
▁royal	-9.93048
vatnet	-9.93049
▁øvelse	-9.93073
▁stoff	-9.93091
▁politiet	-9.93113
▁hud	-9.93114
snitt	-9.93136
isa	-9.93161
plikt	-9.93167
▁bevegelse	-9.93342
▁organisert	-9.93359
18	-9.93368
▁konkurranse	-9.93463
▁vanlige	-9.93553
▁stål	-9.93568
▁sær	-9.93568
▁kandidat	-9.9357
▁landskapet	-9.93608
▁arabisk	-9.93647
ved	-9.9377
▁innhold	-9.93847
▁skaffe	-9.93926
ata	-9.93978
▁pra	-9.93979
mur	-9.9399
▁gui	-9.94154
parten	-9.94161
▁forsvaret	-9.9418
▁marine	-9.94216
▁sønnen	-9.94254
▁anders	-9.94283
▁hunnen	-9.94287
▁søke	-9.94292
55	-9.94326
▁ube	-9.94332
▁sun	-9.9434
▁alvorlig	-9.94343
▁fullstendig	-9.94343
▁blomster	-9.94344
▁hemmelig	-9.94356
▁1917	-9.94358
▁1921	-9.94359
▁sports	-9.94368
▁snø	-9.94369
ova	-9.9437
▁mytologi	-9.94374
prosjekt	-9.94381
distrikt	-9.94381
strekning	-9.94387
▁makten	-9.9443
▁avholdt	-9.9445
▁hum	-9.94473
▁team	-9.94476
▁tredjeplass	-9.94482
▁atom	-9.94502
▁benytte	-9.9455
▁brø	-9.94563
▁larvene	-9.94642
▁vas	-9.94709
▁løper	-9.94725
▁overført	-9.94736
▁kas	-9.94755
kap	-9.94842
▁kjønn	-9.94859
▁utstilling	-9.94931
▁dobbelt	-9.95042
▁elve	-9.95088
▁skapte	-9.9529
▁skiller	-9.95357
kår	-9.95421
skyting	-9.95438
▁stab	-9.95502
▁kommuner	-9.9561
▁hell	-9.95625
▁korte	-9.95673
▁1934	-9.95683
▁danner	-9.95687
▁hellas	-9.95722
▁veldig	-9.95727
samfunn	-9.9574
høgskole	-9.95744
▁32	-9.95756
▁hill	-9.95786
▁kall	-9.95802
▁eiendom	-9.9586
▁inkluderer	-9.96009
▁bispedømme	-9.96085
▁fantes	-9.96136
99	-9.96215
jiang	-9.96229
bevegelsen	-9.96269
▁wil	-9.96274
▁bj	-9.96289
▁mary	-9.96403
bakken	-9.96415
plassen	-9.9652
kov	-9.96559
▁tittel	-9.96675
▁høst	-9.96708
▁forble	-9.96741
▁ji	-9.9677
▁spillet	-9.9684
▁innsjø	-9.96843
▁char	-9.96859
ub	-9.96894
mesterskapet	-9.96908
kampen	-9.96971
elli	-9.96976
▁kristen	-9.96982
▁studio	-9.96989
▁norrøn	-9.96995
▁antenne	-9.96999
▁oppnådd	-9.97026
grunn	-9.97033
skudd	-9.97066
forskning	-9.97071
▁nevnes	-9.9708
blant	-9.97085
▁bredt	-9.97097
▁åpne	-9.97126
▁gjeste	-9.97163
▁livs	-9.97164
▁600	-9.97186
▁grunnlegge	-9.97192
▁akse	-9.97215
▁markert	-9.9723
▁jean	-9.97324
▁bay	-9.97361
kjent	-9.97373
svarer	-9.97406
▁levd	-9.97418
▁nes	-9.97419
▁halvdel	-9.97437
▁villa	-9.97442
iteten	-9.97453
bær	-9.97501
98	-9.97574
▁idrettslag	-9.97574
▁cru	-9.97584
▁ark	-9.97628
▁klo	-9.9765
▁opptre	-9.97742
lang	-9.97787
stripe	-9.97789
dia	-9.97864
øyene	-9.97918
▁benyttes	-9.97986
grupper	-9.98107
▁synes	-9.98134
▁måten	-9.98197
▁selvstendig	-9.98201
konstruksjon	-9.98344
▁kategori	-9.98344
▁sportsutøver	-9.98344
▁objekt	-9.98344
▁fattig	-9.98345
▁melodi	-9.9835
▁1919	-9.98363
▁planlagt	-9.98376
▁effektiv	-9.98393
album	-9.98412
▁ukjent	-9.98426
figur	-9.98438
kamper	-9.98446
▁agder	-9.9847
▁forsknings	-9.98493
finner	-9.98548
▁hind	-9.98596
▁tilfelle	-9.98598
utgivelse	-9.98625
▁handle	-9.98637
gata	-9.9864
▁pin	-9.98702
farge	-9.98726
▁dog	-9.98739
organisasjon	-9.98753
tog	-9.98789
43	-9.98821
▁borgerkrig	-9.98831
▁registrert	-9.98835
▁butikk	-9.98873
▁odd	-9.98907
▁mill	-9.98992
▁oversatt	-9.99009
▁amt	-9.99074
▁fv	-9.99117
▁hjelpe	-9.99125
▁turist	-9.99143
dam	-9.99493
ører	-9.99545
gri	-9.99591
▁ungdom	-9.99629
▁eksempler	-9.99714
▁international	-9.99714
▁league	-9.99714
▁wilhelm	-9.99714
▁artikkel	-9.99714
▁kaptein	-9.99714
▁tegneserie	-9.99719
▁lengst	-9.99724
trykt	-9.99728
▁1929	-9.99729
▁arbeiderpartiet	-9.99731
▁protest	-9.99732
▁jazz	-9.99736
faktor	-9.99739
▁uttalt	-9.99803
▁deltaker	-9.99825
kraftverk	-9.99876
kunst	-9.99884
▁merke	-9.99936
▁frukt	-10.001
▁former	-10.0019
▁øverste	-10.0019
▁gla	-10.0027
▁mynt	-10.0029
▁stamme	-10.0037
▁lån	-10.004
▁bob	-10.004
▁vinge	-10.0041
ith	-10.0052
▁will	-10.0052
▁utsatt	-10.0053
deles	-10.0054
▁mala	-10.0056
▁populære	-10.0063
▁fylket	-10.0063
lid	-10.0073
▁bryte	-10.0091
▁mannskap	-10.0095
givelse	-10.0099
▁forskere	-10.0106
kjempe	-10.0109
▁administrativ	-10.011
▁antagelig	-10.011
▁kjærlighet	-10.011
▁utgangspunkt	-10.011
▁primær	-10.011
▁dialekt	-10.011
90	-10.0111
▁myndighetene	-10.0111
▁pen	-10.0111
▁tydelig	-10.0111
▁1938	-10.0112
▁premier	-10.0112
▁1939	-10.0113
ence	-10.0114
▁avtalen	-10.0116
▁dyre	-10.0116
▁bygning	-10.0117
▁bombe	-10.0122
front	-10.0123
maskin	-10.0126
▁ana	-10.0128
▁fn	-10.013
▁tyskerne	-10.0136
▁handel	-10.0137
stoff	-10.0138
▁besøkt	-10.0139
▁avtale	-10.0139
løpet	-10.0141
▁north	-10.0145
ij	-10.0148
▁timer	-10.0162
▁aker	-10.0164
▁markeds	-10.0166
fylt	-10.0168
▁kilde	-10.0168
prisen	-10.017
▁utga	-10.0179
dri	-10.018
▁historikere	-10.0181
vision	-10.0182
styrken	-10.0182
▁gruve	-10.0193
rich	-10.0193
▁fjord	-10.0195
▁drev	-10.0197
unget	-10.021
vekt	-10.0213
▁telemark	-10.0218
▁penger	-10.0218
▁bredde	-10.0219
angel	-10.0234
▁brand	-10.0235
▁dalen	-10.0237
▁dokumenter	-10.0238
▁epi	-10.0242
▁inspirert	-10.0251
▁kvalitet	-10.0251
▁belgia	-10.0251
▁begrenset	-10.0251
▁tidsskrift	-10.0251
▁tolv	-10.0252
▁saint	-10.0254
pel	-10.0256
▁kva	-10.026
valg	-10.0265
▁800	-10.0269
▁myr	-10.0274
▁33	-10.0286
▁stilt	-10.0286
lyst	-10.0288
ira	-10.0293
rukket	-10.0293
▁bydel	-10.0294
▁kjøpe	-10.0295
our	-10.0296
▁single	-10.0299
12	-10.03
▁linjen	-10.0301
ania	-10.0322
svik	-10.0327
▁bølge	-10.0328
▁42	-10.0328
31	-10.0329
▁motstander	-10.0329
▁skatte	-10.033
▁bestemme	-10.0336
▁språket	-10.0342
▁behandle	-10.0343
▁hotell	-10.0347
ografi	-10.0352
▁økt	-10.0365
▁ö	-10.0379
▁south	-10.0381
▁foreningen	-10.0393
▁introdusert	-10.0394
▁jakob	-10.0394
▁cirka	-10.0394
▁redusert	-10.0394
▁invasjon	-10.0395
▁1913	-10.0395
▁otto	-10.0397
▁france	-10.0401
▁angeles	-10.0407
▁kjøp	-10.0408
soldat	-10.0409
festival	-10.0411
▁anlegg	-10.0416
▁motiv	-10.0419
▁lavere	-10.042
▁ansvar	-10.0421
▁versjonen	-10.0423
▁verd	-10.0424
plate	-10.0427
arm	-10.0427
angrep	-10.0431
▁maur	-10.0431
bakk	-10.0434
▁bidrag	-10.0439
▁ind	-10.0443
▁af	-10.0446
▁hindre	-10.0451
▁paus	-10.0455
▁anta	-10.0458
▁idretts	-10.0461
▁minutter	-10.0461
16	-10.0463
klubben	-10.0468
▁uttale	-10.0479
well	-10.0484
án	-10.0491
▁nm	-10.0501
press	-10.0505
▁vinne	-10.0508
ben	-10.0509
▁anse	-10.0513
▁overfor	-10.0519
▁celle	-10.0521
dro	-10.0526
▁portugal	-10.0539
▁lufthavn	-10.0539
▁arrangere	-10.0539
▁snart	-10.054
▁esp	-10.054
▁1926	-10.054
▁utøver	-10.054
▁brødre	-10.0541
▁blue	-10.0542
▁hersker	-10.0547
ulf	-10.0548
▁stemme	-10.0549
▁tekster	-10.0549
alderen	-10.0557
▁1500	-10.0564
kontor	-10.0564
dyktig	-10.0569
skipet	-10.0578
▁ansvarlig	-10.0587
▁svar	-10.0587
analyse	-10.0592
▁statlig	-10.0595
pal	-10.0595
▁sul	-10.0602
ón	-10.061
▁populært	-10.0617
ity	-10.0622
▁120	-10.0622
▁snu	-10.063
▁indisk	-10.0637
ér	-10.0638
▁may	-10.0639
▁ansett	-10.065
▁bonde	-10.065
flue	-10.0653
▁korn	-10.0658
▁stemmer	-10.0661
▁160	-10.0662
▁vakt	-10.0669
▁tilhørte	-10.0686
▁muslim	-10.0686
▁islam	-10.0687
con	-10.0688
▁1910	-10.0689
▁mak	-10.0689
▁län	-10.069
▁sagt	-10.0691
▁nasjonalpark	-10.0691
▁vendt	-10.0692
▁arrestert	-10.0693
▁hovedsak	-10.0694
▁arkitektur	-10.0698
▁debut	-10.0699
▁sammenlagt	-10.07
▁high	-10.0701
▁streng	-10.0703
▁utvalg	-10.0712
▁ankom	-10.0717
▁kanalen	-10.0724
kamera	-10.0727
▁dato	-10.0728
▁tunnel	-10.0731
▁finske	-10.0735
▁medisin	-10.0743
start	-10.0743
▁orkester	-10.0744
▁sko	-10.0745
▁skapt	-10.0745
gjort	-10.0751
21	-10.0755
low	-10.0761
hm	-10.0778
▁musikken	-10.0782
▁hage	-10.0792
▁samfunns	-10.0795
sjø	-10.0803
kur	-10.0818
▁sim	-10.082
▁grunnlegger	-10.0822
▁dø	-10.0825
listen	-10.0829
politikk	-10.0831
legging	-10.0832
▁finnmark	-10.0835
magasin	-10.0836
▁prinsesse	-10.0836
▁utenlandsk	-10.0836
▁1927	-10.0836
▁1923	-10.0837
bygget	-10.0838
▁spredt	-10.0839
▁videregående	-10.084
▁show	-10.0842
▁armé	-10.0844
▁klokke	-10.0848
▁overflate	-10.085
▁song	-10.085
lem	-10.0852
bøker	-10.087
vand	-10.0871
▁sykehus	-10.0873
▁håp	-10.0879
renn	-10.0879
gaard	-10.088
staten	-10.0882
▁brøt	-10.0882
24	-10.0885
▁ph	-10.0891
▁verdenscupen	-10.09
▁fløy	-10.0916
▁brenn	-10.0919
▁ordre	-10.0962
11	-10.0962
delt	-10.0975
▁county	-10.0987
▁vulkan	-10.0987
▁positiv	-10.0987
▁jacob	-10.0987
▁aksje	-10.0991
▁hydro	-10.0992
låt	-10.0992
▁fortellingen	-10.0993
▁nyere	-10.0995
▁kapell	-10.0997
frihet	-10.0999
▁gjeld	-10.1004
▁press	-10.1004
▁mobil	-10.1004
▁dame	-10.1008
▁gold	-10.1009
▁utvikle	-10.1011
miljø	-10.1014
▁etappe	-10.1018
▁øyer	-10.1018
aktiv	-10.1021
28	-10.1028
09	-10.1034
92	-10.1044
▁bånd	-10.1045
▁imot	-10.1045
▁involvert	-10.1047
▁utføre	-10.1048
▁buk	-10.1049
▁minister	-10.1049
sport	-10.1049
▁insekter	-10.1049
▁ligne	-10.1058
▁teknikk	-10.1061
formen	-10.1067
▁penge	-10.1074
▁festning	-10.1075
▁salg	-10.1076
▁hull	-10.1078
hov	-10.1078
▁oppdage	-10.1086
▁kh	-10.1088
kh	-10.1089
▁oss	-10.11
▁rør	-10.1107
▁grei	-10.112
riket	-10.1126
gli	-10.1129
▁samfunn	-10.1131
▁produksjonen	-10.1132
▁moder	-10.1135
rapport	-10.114
▁1906	-10.1141
▁initiativ	-10.1141
▁østerriksk	-10.1141
▁tempel	-10.1141
▁krevde	-10.1141
▁hendelser	-10.1141
▁radikal	-10.1141
▁kombinasjon	-10.1141
▁nedbør	-10.1141
▁rektor	-10.1141
▁sekund	-10.1142
▁1935	-10.1142
mønster	-10.1142
▁1916	-10.1142
▁godkjent	-10.1143
cho	-10.1144
egnet	-10.1149
▁phil	-10.1157
▁bevegelsen	-10.1163
▁pensjon	-10.1165
virksomhet	-10.1169
▁bryst	-10.1172
bryte	-10.1173
▁170	-10.1191
▁motsatt	-10.1191
▁senter	-10.1194
▁cre	-10.1195
▁bibliotek	-10.1196
vannet	-10.1196
17	-10.1197
ordning	-10.1201
gate	-10.1201
▁romanen	-10.1206
▁mørk	-10.1209
jord	-10.1214
▁tilbud	-10.1224
▁museet	-10.123
vard	-10.1233
▁foregå	-10.1249
▁bilder	-10.1249
▁sten	-10.1253
▁fartøy	-10.1253
enberg	-10.1277
▁stift	-10.1296
▁1905	-10.1297
▁1937	-10.1297
▁afghanistan	-10.1297
▁kvalifisering	-10.1297
▁referanse	-10.1297
▁hensikt	-10.1297
gjøring	-10.1298
▁kongedømmet	-10.1298
▁video	-10.1298
kompani	-10.1299
▁venner	-10.13
▁landbruks	-10.1301
▁oppmerksomhet	-10.1301
fatte	-10.1312
▁kommunikasjon	-10.1326
prosess	-10.1328
▁ekspedisjon	-10.133
▁kåre	-10.1331
distanse	-10.1333
▁kim	-10.1337
▁fortalt	-10.1337
▁artist	-10.1339
▁internasjonalt	-10.1344
▁wien	-10.1346
23	-10.1353
▁skille	-10.1354
foreningen	-10.1356
▁elever	-10.1366
▁tang	-10.1387
▁etasje	-10.1389
livet	-10.1422
grep	-10.1429
▁plassen	-10.1433
▁sete	-10.144
hild	-10.144
▁vinteren	-10.1441
▁årsak	-10.1448
▁møter	-10.145
▁bygninger	-10.1454
à	-10.1456
▁engasjert	-10.1456
▁joseph	-10.1456
▁milliarder	-10.1456
▁utelukke	-10.1456
▁utgjorde	-10.1456
traktaten	-10.1456
▁kristiansand	-10.1456
▁smith	-10.1457
▁litterær	-10.1458
▁øvrige	-10.1461
▁bekrefte	-10.1461
▁riktig	-10.1461
løst	-10.1462
▁luc	-10.1467
▁kjøl	-10.147
96	-10.1471
steder	-10.148
▁typer	-10.1484
stjerne	-10.149
▁mesterskapet	-10.1491
dommer	-10.1492
rekke	-10.1516
feld	-10.1518
oni	-10.152
skjell	-10.152
▁dør	-10.1522
dannelse	-10.1523
▁ansvaret	-10.1535
qui	-10.1538
▁ønsker	-10.1555
▁reist	-10.1557
▁skriver	-10.1558
▁foreldre	-10.1562
▁kommunistisk	-10.1566
▁dekket	-10.1571
støt	-10.1571
▁menighet	-10.1575
▁anna	-10.1595
▁likt	-10.1596
▁vokal	-10.1612
▁territor	-10.1615
89	-10.1615
▁guvernør	-10.1617
▁ludvig	-10.1617
▁service	-10.1617
▁generelt	-10.1617
▁award	-10.1617
▁himmel	-10.1617
▁doktorgrad	-10.1617
▁hovedrollen	-10.1617
▁fjernsyn	-10.1617
▁fysisk	-10.1617
▁bakken	-10.1618
▁etterfølger	-10.1619
▁1915	-10.1619
▁alfred	-10.1621
▁forretnings	-10.1621
▁eksport	-10.1622
arbeidet	-10.1624
▁38	-10.1626
▁detalj	-10.1629
▁75	-10.1635
▁deltatt	-10.1643
▁kino	-10.1644
▁administrasjons	-10.1647
▁religiøse	-10.1647
▁synlig	-10.1667
29	-10.1668
▁nasjon	-10.167
▁buss	-10.167
▁advokat	-10.1671
▁tiår	-10.1672
▁kommando	-10.1673
▁auto	-10.1675
▁musik	-10.1676
▁årsaken	-10.1678
▁nedre	-10.168
▁tromsø	-10.168
▁typen	-10.1681
motor	-10.1682
▁båten	-10.1689
slekt	-10.169
▁stol	-10.1695
forsamlingen	-10.1697
▁jag	-10.1699
14	-10.1699
▁flest	-10.17
38	-10.1707
more	-10.1713
▁ok	-10.1715
▁ulik	-10.1716
▁utgaven	-10.172
syre	-10.1734
▁tvil	-10.1736
▁planter	-10.1743
iel	-10.1748
▁jule	-10.1755
▁sikker	-10.1769
▁00	-10.1777
▁løsning	-10.1777
▁fødsel	-10.1781
arrangement	-10.1781
▁praksis	-10.1781
▁pasient	-10.1781
▁lagkonkurransen	-10.1781
▁regissert	-10.1781
istene	-10.1781
▁hendelsen	-10.1781
▁redusere	-10.1781
▁frykt	-10.1781
▁fungert	-10.1781
▁kjørt	-10.1782
▁bakke	-10.1783
▁michel	-10.1784
komiteen	-10.1787
▁alpin	-10.1787
än	-10.1791
▁stå	-10.1795
kommisjon	-10.1795
klassen	-10.1801
▁kjell	-10.1802
nemlig	-10.1804
▁forekommer	-10.181
▁36	-10.1812
▁vg	-10.1813
▁peder	-10.1814
tjent	-10.1818
▁forholdet	-10.183
▁vedtatt	-10.1831
▁rand	-10.1834
▁storm	-10.1834
▁vente	-10.1841
▁parlamentet	-10.1843
tittel	-10.1858
▁modellen	-10.1866
▁eli	-10.1867
▁gruppa	-10.187
handel	-10.1871
▁byttet	-10.1872
▁beskrev	-10.1876
klasse	-10.1877
passet	-10.1889
stasjonen	-10.1907
vind	-10.1914
▁berømte	-10.1918
82	-10.1919
▁beskrivelse	-10.192
lassi	-10.1921
▁boka	-10.1926
35	-10.1931
▁kanal	-10.1943
▁europe	-10.1945
▁horn	-10.1947
▁færøyene	-10.1947
▁school	-10.1947
▁individuell	-10.1948
▁inngår	-10.1948
▁wei	-10.1949
▁generasjon	-10.1949
▁1925	-10.195
▁skøyte	-10.195
▁daniel	-10.1951
▁gil	-10.1954
ische	-10.1962
▁petter	-10.1963
▁fjerne	-10.1965
▁forvingen	-10.1966
▁christiania	-10.1975
▁funn	-10.198
▁million	-10.1984
vekst	-10.1993
▁rester	-10.2014
▁samtid	-10.2016
▁kai	-10.2019
▁mangler	-10.2039
rød	-10.2055
▁bull	-10.2058
gin	-10.2062
▁landslag	-10.2082
▁måne	-10.2093
▁bydelen	-10.2103
▁avdøde	-10.2117
▁rogaland	-10.2117
▁musikalsk	-10.2117
▁følelse	-10.2117
▁referere	-10.2117
konferanse	-10.2117
▁formen	-10.2117
▁1911	-10.2119
▁skiftet	-10.2119
▁føde	-10.2125
▁hentet	-10.2125
▁lykke	-10.2125
rommet	-10.2126
▁stabil	-10.2127
ordnet	-10.2127
vinner	-10.2133
▁fjernet	-10.2135
▁tvang	-10.2137
▁resultatet	-10.2138
▁leie	-10.2144
▁verdensmester	-10.2144
▁gard	-10.2148
▁mottatt	-10.2149
▁betale	-10.2155
32	-10.216
produsent	-10.2161
▁teknologi	-10.2198
▁regional	-10.2202
▁verket	-10.2215
▁dekker	-10.2225
▁graf	-10.2259
mond	-10.2264
▁aur	-10.2266
▁kjempe	-10.227
▁bære	-10.2272
▁turner	-10.2276
▁demokratisk	-10.2277
▁65	-10.2278
forbundet	-10.2281
▁rep	-10.2285
▁egyptisk	-10.2285
ado	-10.2286
▁skudd	-10.2286
myndighet	-10.2287
▁individ	-10.2289
▁münchen	-10.2289
▁washington	-10.2289
▁fenomen	-10.2289
▁bodø	-10.229
▁utnytte	-10.229
▁utmerkelse	-10.229
▁konstant	-10.229
▁kongress	-10.229
▁forkorte	-10.2295
33	-10.2296
▁meldt	-10.23
▁oppnå	-10.2303
castle	-10.2305
▁skyte	-10.2306
▁olsen	-10.2307
▁sankt	-10.2308
koll	-10.2309
▁kull	-10.2316
▁kalde	-10.2318
▁statue	-10.2329
▁gun	-10.2332
▁ekspedisjonen	-10.2335
▁andreas	-10.2336
forbindelse	-10.2337
▁utbygging	-10.2338
vogn	-10.2339
hjem	-10.2345
dikt	-10.2346
▁bilen	-10.2346
▁sammenligne	-10.2352
typen	-10.2353
pin	-10.2354
▁bunn	-10.2354
valgt	-10.2361
▁hastighet	-10.2365
▁ulykke	-10.2365
foss	-10.2366
▁alene	-10.2371
▁tråd	-10.2401
▁niels	-10.2404
▁troms	-10.2406
▁markedet	-10.2408
▁priser	-10.2408
fik	-10.2409
forestilling	-10.2413
36	-10.2435
▁utvikler	-10.2439
▁gau	-10.2462
в	-10.2464
▁1904	-10.2465
▁beseiret	-10.2465
▁zealand	-10.2465
▁akershus	-10.2465
▁jøder	-10.2465
▁bøkene	-10.2465
▁luther	-10.2465
▁definert	-10.2465
▁myndigheter	-10.2467
▁studere	-10.2468
▁filip	-10.247
halvøya	-10.247
▁overleve	-10.2471
▁portrett	-10.2473
▁hval	-10.2475
▁hitler	-10.2478
▁oppfatte	-10.2483
▁oppløst	-10.2483
▁geografisk	-10.2494
▁wales	-10.2498
▁uavhengighet	-10.2502
▁oversettelse	-10.2507
▁shan	-10.2508
chu	-10.251
lærer	-10.2512
▁kjemi	-10.2513
hånd	-10.2516
▁sats	-10.2518
bringe	-10.2519
vika	-10.2522
▁kapp	-10.2525
tagelse	-10.2526
▁klosteret	-10.2529
▁jente	-10.2531
▁roll	-10.2532
▁filosof	-10.2541
fyr	-10.2543
▁ennå	-10.2544
▁representert	-10.2568
▁hardt	-10.2583
uka	-10.2601
▁underlag	-10.2606
▁bol	-10.261
▁lagene	-10.2614
▁bevege	-10.2618
▁festningen	-10.2619
vakt	-10.2628
▁hul	-10.2632
▁eksperiment	-10.2643
friidrettsutøver	-10.2643
▁jerusalem	-10.2643
▁nøkkel	-10.2643
▁argument	-10.2643
▁stafett	-10.2643
▁frivillig	-10.2643
▁sachsen	-10.2643
▁major	-10.2643
▁sjette	-10.2644
▁håndball	-10.2644
komité	-10.2646
▁debatt	-10.2647
ahl	-10.2649
▁sverd	-10.2649
døgn	-10.2656
▁tjenestegjor	-10.2658
▁kammer	-10.2663
▁700	-10.2667
trafikk	-10.2678
skij	-10.268
folket	-10.2682
▁søkt	-10.2687
▁sørover	-10.2688
▁opptil	-10.2706
ander	-10.2718
telefon	-10.272
nummer	-10.2722
13	-10.2726
▁maleri	-10.2731
▁landslaget	-10.2732
▁edderkopp	-10.2744
▁intens	-10.275
klar	-10.2755
▁ønske	-10.2758
▁nam	-10.2766
▁festival	-10.2775
▁stam	-10.2778
blo	-10.2788
▁latinsk	-10.2788
liste	-10.2789
▁pala	-10.2791
91	-10.2791
time	-10.2796
▁55	-10.2801
▁artister	-10.2806
alisme	-10.2809
voks	-10.2814
▁mono	-10.2816
▁menneskelig	-10.2817
▁nasjoner	-10.2819
▁utgi	-10.2824
▁aleksander	-10.2825
▁skjønt	-10.2825
▁nøyaktig	-10.2825
▁preussen	-10.2825
▁risiko	-10.2825
▁belgisk	-10.2826
▁parallel	-10.2826
▁1922	-10.2827
▁1909	-10.2827
▁dvs	-10.2829
▁biografi	-10.2829
▁angripe	-10.283
▁zo	-10.2831
▁feire	-10.2833
▁dokument	-10.2833
▁nedlagt	-10.2836
▁økende	-10.2839
▁jack	-10.2846
serie	-10.2851
▁250	-10.2854
▁antatt	-10.2857
▁nordmenn	-10.2859
▁verker	-10.286
▁andersen	-10.2861
▁akademi	-10.287
posisjon	-10.2874
▁spise	-10.2876
▁oppleve	-10.2886
onom	-10.289
▁green	-10.2892
▁merket	-10.2896
▁tilhøre	-10.2896
fartøy	-10.2901
korset	-10.2907
▁plateselskap	-10.2907
▁fotballklubb	-10.2908
▁grunnla	-10.2914
▁katedral	-10.2916
rute	-10.2917
▁fritt	-10.2919
▁kraftverk	-10.2929
bour	-10.2958
▁endring	-10.2959
▁endringer	-10.2963
▁kok	-10.2971
duk	-10.2974
▁skuespill	-10.2975
ml	-10.2979
▁øyne	-10.2981
▁liberal	-10.2986
▁elektron	-10.2986
▁meta	-10.2987
▁1901	-10.301
▁regissør	-10.301
▁ødelegge	-10.301
▁uvanlig	-10.301
▁vesentlig	-10.301
▁hjerne	-10.301
▁debutalbum	-10.3011
▁halvparten	-10.3013
▁mongol	-10.3013
▁utgivelsen	-10.3015
▁slett	-10.3017
blokk	-10.3021
▁ramme	-10.3022
▁preg	-10.3024
▁cro	-10.3024
▁1895	-10.3028
▁lista	-10.3032
▁nordre	-10.3032
▁unngå	-10.3039
▁adam	-10.3042
▁simon	-10.3046
▁unn	-10.3047
▁stemmene	-10.3048
▁demokrati	-10.3056
▁psyko	-10.3057
▁river	-10.3059
▁tau	-10.3064
▁foto	-10.308
▁tyr	-10.3088
▁tradisjonel	-10.3088
▁dyrke	-10.3089
▁cri	-10.3101
▁term	-10.3113
▁parlament	-10.3126
bank	-10.3134
▁øverst	-10.3134
verden	-10.3135
flate	-10.314
▁elementer	-10.314
▁medaljer	-10.3144
▁frakte	-10.3147
▁virkelig	-10.3161
▁sikkerhets	-10.3164
▁gall	-10.3178
▁edward	-10.3199
▁eventyr	-10.3199
▁hordaland	-10.3199
▁kommunal	-10.3199
▁forbedre	-10.3199
▁kveld	-10.32
▁spring	-10.3201
▁house	-10.3202
▁37	-10.3207
▁forbundet	-10.3208
▁beslutte	-10.3209
▁nød	-10.3213
▁papir	-10.3214
bygning	-10.3219
mula	-10.3219
elv	-10.322
▁tverr	-10.322
▁johnson	-10.3221
▁festivalen	-10.323
▁cam	-10.3234
bukta	-10.324
▁innlede	-10.3246
opptreden	-10.3253
yang	-10.3254
▁leon	-10.3257
utvikling	-10.3264
forfatter	-10.3264
skaffe	-10.3275
▁qui	-10.3277
masse	-10.3283
▁departementet	-10.3291
▁vingene	-10.3295
▁saga	-10.33
▁utenriks	-10.3304
bygningen	-10.3309
departement	-10.332
42	-10.3329
▁chile	-10.3333
▁mah	-10.3341
81	-10.3344
områdene	-10.3345
▁rase	-10.3355
▁cra	-10.3356
ridge	-10.3363
26	-10.339
▁antwerpen	-10.3391
▁manchester	-10.3391
▁prøvd	-10.3391
▁lyktes	-10.3391
▁texas	-10.3391
▁anerkjent	-10.3391
▁fjær	-10.3392
▁sprint	-10.3392
▁fjordane	-10.3392
▁dverg	-10.3392
▁yngst	-10.3392
▁forståelse	-10.3393
▁wolf	-10.3393
▁erfaring	-10.3396
▁komposisjon	-10.3402
haus	-10.3409
▁metro	-10.3413
▁lord	-10.3417
▁isteden	-10.3417
▁sovjet	-10.3418
▁drikke	-10.3421
▁48	-10.3435
▁roger	-10.3451
▁nordover	-10.3455
▁hjul	-10.3456
zy	-10.3459
konkurranse	-10.3459
materiale	-10.346
produkt	-10.346
▁thi	-10.3462
▁bygda	-10.3469
▁dj	-10.3471
▁music	-10.3474
▁semifinalen	-10.3474
▁selge	-10.3474
polis	-10.3476
▁ferd	-10.3486
▁flyktet	-10.3491
▁forlate	-10.3492
▁sideelv	-10.3496
▁elver	-10.3497
▁sosialistisk	-10.3497
▁folketellingen	-10.3499
▁troll	-10.351
▁paven	-10.3514
▁eik	-10.3516
vre	-10.3517
▁kjenner	-10.3527
▁osv	-10.3528
▁forskjellig	-10.3539
ough	-10.3547
▁registr	-10.3563
▁drap	-10.3569
▁kloster	-10.3573
▁barna	-10.3579
▁etablere	-10.3587
▁middelsstor	-10.3587
▁oppretthold	-10.3587
▁kjennetegn	-10.3588
▁utseende	-10.3588
▁beordre	-10.3588
▁philip	-10.359
▁stig	-10.3592
▁kjenn	-10.3592
plattform	-10.3592
▁kjempet	-10.3593
▁medaljen	-10.3593
▁hensyn	-10.3593
▁kommunestyre	-10.3601
fortelling	-10.3603
▁grønland	-10.3605
▁hellig	-10.3606
▁hannen	-10.3607
▁begrave	-10.361
organisasjonen	-10.3613
herre	-10.3621
▁santa	-10.3624
▁eksemplarer	-10.3625
basert	-10.3626
▁gaten	-10.3628
▁angel	-10.363
▁cho	-10.3636
▁unna	-10.3641
▁strøk	-10.3645
▁element	-10.365
▁kop	-10.3654
bånd	-10.3659
▁bakkroppen	-10.3671
▁flu	-10.3685
▁kortere	-10.3692
▁kreve	-10.3693
▁grov	-10.3694
hard	-10.3702
stiftelsen	-10.3704
▁vanligst	-10.3716
▁mose	-10.3726
▁katolsk	-10.3735
▁marinen	-10.3735
▁vogn	-10.3737
▁plu	-10.3746
▁pap	-10.3767
▁boy	-10.377
▁landskap	-10.3774
▁israelsk	-10.3787
▁våg	-10.3787
▁symfoni	-10.3787
▁amsterdam	-10.3787
▁helsingfors	-10.3787
▁innlemmet	-10.3787
▁eksisterer	-10.3788
▁ytterst	-10.3788
▁henrettet	-10.3788
▁gunnar	-10.3788
▁praktisk	-10.3788
▁signal	-10.3788
▁club	-10.3789
▁1931	-10.379
▁manager	-10.379
▁onkel	-10.3793
▁rammet	-10.3795
▁byggingen	-10.3798
▁allmenn	-10.3798
▁drøm	-10.3802
stemning	-10.3802
▁1897	-10.3805
▁with	-10.3807
▁lukke	-10.3807
▁turnering	-10.3807
▁1300	-10.3808
▁yu	-10.3815
▁amerikaner	-10.3818
hai	-10.3823
▁max	-10.3835
▁sikkerhet	-10.3842
▁glass	-10.385
▁statsråd	-10.3854
amerikansk	-10.3864
▁cal	-10.388
▁arkiv	-10.3884
prest	-10.3885
▁planen	-10.3895
▁singel	-10.3899
▁betegnelse	-10.3901
orp	-10.3902
wald	-10.3906
▁mol	-10.3909
▁bærer	-10.3914
▁synge	-10.3914
▁fru	-10.3919
▁singelen	-10.3925
▁liber	-10.3934
lapp	-10.3936
illa	-10.3941
drakt	-10.3953
▁høre	-10.3961
▁arab	-10.3976
vold	-10.398
▁fjellene	-10.3986
hem	-10.399
fjellet	-10.399
▁manuskript	-10.3991
▁ressurs	-10.3991
▁restaurant	-10.3991
▁skandinav	-10.3991
▁1907	-10.3992
▁angelsaksisk	-10.3992
▁chicago	-10.3992
▁etablering	-10.3992
▁vilhelm	-10.3992
▁tømmer	-10.3992
bataljon	-10.3992
▁oppstår	-10.3992
▁antikken	-10.3993
▁programleder	-10.3993
▁komedie	-10.3995
▁gullmedalje	-10.3995
▁langrenn	-10.3996
▁programmer	-10.3999
ball	-10.4
▁avgjørende	-10.4001
▁tolke	-10.4004
▁1896	-10.4005
pul	-10.4006
▁platen	-10.4006
▁1890	-10.4007
trener	-10.4009
▁mikro	-10.401
▁lokalisert	-10.401
▁1100	-10.4012
▁romerne	-10.4016
▁gjenstand	-10.4025
▁gradvis	-10.4033
▁intern	-10.4035
▁schw	-10.405
▁cuba	-10.4053
ligste	-10.4061
▁opplag	-10.4064
▁neu	-10.4066
▁audi	-10.4069
president	-10.4072
▁kraftverket	-10.4075
▁rasen	-10.4078
måte	-10.4079
▁hyp	-10.4084
▁kode	-10.4089
▁game	-10.4108
fil	-10.4108
▁krever	-10.4111
▁lært	-10.4112
▁helst	-10.4113
setting	-10.4115
94	-10.412
gripe	-10.4132
▁etnisk	-10.4139
▁opprettelse	-10.416
▁univers	-10.4162
▁internett	-10.4172
▁administrasjon	-10.419
▁kristian	-10.4194
▁byprefektur	-10.42
▁fakultet	-10.42
▁forhindre	-10.42
▁intervju	-10.42
▁liverpool	-10.42
skapasitet	-10.42
▁forårsake	-10.42
opplæring	-10.42
▁global	-10.42
▁reklame	-10.42
▁reaksjon	-10.42
▁ekstrem	-10.42
seremoni	-10.42
▁tyrkisk	-10.42
▁oblast	-10.4201
▁tørr	-10.4202
▁britene	-10.4203
▁jackson	-10.4204
▁spenning	-10.4209
äl	-10.4225
▁variasjon	-10.4226
▁myk	-10.4229
▁johansen	-10.4235
▁opptatt	-10.4237
▁tykk	-10.4245
finalen	-10.4251
kasse	-10.4253
kalender	-10.4255
▁master	-10.4258
▁emil	-10.4261
onia	-10.4268
skatt	-10.4273
▁fotograf	-10.4284
verdi	-10.4284
økonomi	-10.4286
politisk	-10.4286
født	-10.4288
mengde	-10.4298
▁long	-10.4299
▁skjær	-10.43
▁trær	-10.4305
høyde	-10.4308
▁mangle	-10.4323
▁forsker	-10.4324
88	-10.4326
▁ulv	-10.4329
▁fremmed	-10.4335
▁kirk	-10.4343
▁vite	-10.4353
▁begrep	-10.4358
▁wall	-10.4364
▁religiøs	-10.4372
spons	-10.4375
tank	-10.4377
▁europeisk	-10.438
▁andel	-10.4381
▁verken	-10.4383
▁khan	-10.4391
▁arv	-10.4406
▁bach	-10.4409
▁svalbard	-10.4413
▁juridisk	-10.4413
▁negativ	-10.4413
▁ansikt	-10.4413
▁jørgen	-10.4413
▁hjal	-10.4413
▁senior	-10.4413
▁golf	-10.4413
▁dominert	-10.4413
▁studioalbum	-10.4413
▁arendal	-10.4413
▁nedenfor	-10.4414
▁fett	-10.4414
▁trodde	-10.4414
▁strekningen	-10.4416
▁hvile	-10.4416
▁generell	-10.4416
nntatt	-10.4418
▁opplevd	-10.4418
▁nerve	-10.4425
▁arena	-10.4425
▁anlagt	-10.4426
▁sparta	-10.443
▁slu	-10.4436
65	-10.4436
▁demningen	-10.4441
▁victoria	-10.4442
ppel	-10.4448
▁fase	-10.4451
cupen	-10.4467
▁vitne	-10.4475
▁ingeniør	-10.4476
▁avgjør	-10.4485
▁smak	-10.4491
▁lake	-10.4492
medlem	-10.4498
▁rulle	-10.4499
▁kunstnerisk	-10.451
▁begynne	-10.4515
grensen	-10.4534
▁elite	-10.4536
bad	-10.4539
▁kab	-10.4544
flukt	-10.456
tunnelen	-10.4564
▁wel	-10.4576
▁hå	-10.4579
▁avvist	-10.46
▁frø	-10.4605
løytnant	-10.463
▁konkurrere	-10.463
▁akseptert	-10.463
▁innebærer	-10.463
▁usikker	-10.463
▁slank	-10.4631
▁opposisjon	-10.4631
vang	-10.4633
▁løfte	-10.4633
▁dominerende	-10.4634
▁tibet	-10.4634
▁styrte	-10.4636
▁split	-10.4637
førsel	-10.464
▁barndom	-10.464
▁vokalist	-10.4642
▁east	-10.4643
▁qua	-10.4643
▁republikk	-10.4645
fred	-10.4647
▁vekk	-10.4655
▁hem	-10.4663
▁brent	-10.4664
▁gress	-10.4666
▁vegg	-10.4675
wick	-10.4689
▁bevisst	-10.4691
▁urban	-10.471
▁artikler	-10.4712
▁kent	-10.472
▁verb	-10.4721
turneringen	-10.4724
▁grøn	-10.4733
▁arkeologisk	-10.4746
horn	-10.475
▁verv	-10.4762
▁angi	-10.4777
▁sho	-10.4787
datter	-10.4792
troppen	-10.4817
▁fulgt	-10.4823
kritiker	-10.4828
27	-10.484
▁dekke	-10.4846
observasjon	-10.4852
▁friedrich	-10.4852
▁shanghai	-10.4852
▁australsk	-10.4852
▁science	-10.4852
▁vietnam	-10.4852
▁innbyggerne	-10.4852
▁eventuel	-10.4852
▁monument	-10.4852
▁respekt	-10.4852
veksling	-10.4852
▁hebraisk	-10.4852
ов	-10.4853
▁multi	-10.4853
▁føderal	-10.4853
▁undergrunns	-10.4853
▁terror	-10.4853
▁estland	-10.4854
▁skarp	-10.4855
▁sverre	-10.4856
▁skytter	-10.486
▁blokker	-10.4861
▁tropper	-10.4865
▁gudinne	-10.4875
22	-10.4878
▁mannlig	-10.4881
▁gö	-10.4886
▁fokus	-10.4886
▁seire	-10.4893
ique	-10.4893
enhver	-10.4895
formede	-10.4902
▁tenke	-10.4914
historiker	-10.4931
hed	-10.494
▁norman	-10.4943
funn	-10.4946
kreft	-10.4948
modell	-10.4954
▁afrikansk	-10.4965
behandling	-10.4972
akademiet	-10.4976
bredde	-10.4979
ctor	-10.4994
▁skinn	-10.5009
sida	-10.5017
▁kvit	-10.5018
ernst	-10.5027
▁vende	-10.5036
forsyning	-10.505
▁knap	-10.5057
▁okkupasjon	-10.5079
▁1902	-10.5079
▁administrere	-10.5079
▁astronom	-10.5079
▁company	-10.5079
▁forgjenger	-10.5079
▁konkurrert	-10.5079
▁kronprins	-10.5079
▁kjøtt	-10.508
▁kampanje	-10.508
▁kommersiell	-10.508
▁allianse	-10.5081
▁håkon	-10.5081
▁midlertidig	-10.5083
▁sjanger	-10.5083
▁einar	-10.5084
▁lidelse	-10.5086
▁klatre	-10.5087
▁fastlandet	-10.5093
støtte	-10.5094
▁forsterke	-10.5098
verv	-10.51
▁håndverk	-10.5102
▁gjennombrudd	-10.5103
▁900	-10.5104
▁inndelt	-10.5106
▁karakteristisk	-10.513
▁ovenf	-10.5143
historisk	-10.5184
funksjon	-10.5184
museet	-10.5188
effekt	-10.5189
hopp	-10.5189
talende	-10.5195
▁oliv	-10.5214
roman	-10.522
vidde	-10.5222
▁hammer	-10.5228
▁gjennomføre	-10.5239
▁kjemisk	-10.5249
▁tidligst	-10.5263
ansett	-10.527
▁gjennomsnitt	-10.5277
▁størst	-10.5294
botn	-10.53
▁malm	-10.5303
▁utvide	-10.5305
kontinent	-10.5312
▁hovedkvarter	-10.5312
▁konservative	-10.5312
▁kristendommen	-10.5312
▁maksimal	-10.5312
▁pakistan	-10.5312
▁vingespenn	-10.5312
▁antarktis	-10.5312
▁selvmord	-10.5312
▁gustav	-10.5312
▁mekanisk	-10.5312
▁ombord	-10.5312
▁trengte	-10.5313
▁scott	-10.5313
▁etterpå	-10.5313
▁soldatene	-10.5313
apparat	-10.5313
▁svekke	-10.5313
▁bayern	-10.5314
▁definere	-10.5314
▁bispe	-10.5314
▁ambassadør	-10.5315
▁monark	-10.5315
væske	-10.5315
▁kristiania	-10.5321
forstyrre	-10.5321
▁dokumentar	-10.5323
▁skutt	-10.5326
familie	-10.533
▁walter	-10.5331
▁prix	-10.5333
▁oversette	-10.5336
▁1885	-10.5337
▁østover	-10.5354
▁kommunistparti	-10.5355
▁sveitsisk	-10.5358
▁kari	-10.536
▁ligge	-10.5364
▁stund	-10.5386
▁from	-10.5388
▁moderat	-10.5414
gruppa	-10.5422
offiser	-10.5422
problem	-10.5422
bølge	-10.5424
dømt	-10.5425
årig	-10.5437
▁wu	-10.5445
pira	-10.5459
▁opprette	-10.5469
▁mitt	-10.5505
▁elisabeth	-10.555
▁innendørs	-10.555
▁konsept	-10.555
▁vurdert	-10.555
▁forsvant	-10.555
▁autonom	-10.555
▁alexander	-10.555
▁presentert	-10.555
▁drammen	-10.555
▁skildre	-10.555
teatret	-10.555
▁forklaring	-10.5552
▁generalsekretær	-10.5553
▁røyk	-10.556
▁forbunds	-10.5561
▁prost	-10.5565
▁nederlag	-10.557
▁1880	-10.5572
▁fremført	-10.5573
▁assistent	-10.5574
▁vindu	-10.5576
versjon	-10.5577
▁kommunist	-10.5583
▁middelalder	-10.5611
▁retur	-10.5621
▁foreldrene	-10.5632
▁formell	-10.5633
▁beina	-10.5636
▁alfa	-10.5639
▁knytte	-10.5648
▁rykte	-10.5649
skade	-10.5657
redning	-10.5664
spiss	-10.5674
rock	-10.5675
lyd	-10.568
avtale	-10.5683
▁invest	-10.5706
▁aksjon	-10.5711
▁kulturell	-10.5711
næring	-10.5745
▁victor	-10.5766
wich	-10.5781
appe	-10.5786
▁øvrig	-10.5786
▁driv	-10.5793
▁napoleon	-10.5794
▁tilsynelaten	-10.5794
▁anerkjenne	-10.5794
▁columbia	-10.5794
▁frankfurt	-10.5794
▁identifisert	-10.5794
▁lillehammer	-10.5794
▁portugisisk	-10.5794
▁prøyssisk	-10.5794
▁tønsberg	-10.5794
▁oxford	-10.5794
▁tabellen	-10.5794
ström	-10.5794
▁digital	-10.5794
▁oppfatning	-10.5794
▁landkreis	-10.5794
▁christoph	-10.5794
▁ungarsk	-10.5794
▁operatør	-10.5794
▁pistol	-10.5794
▁elleve	-10.5795
▁datamaskin	-10.5795
▁bedriften	-10.5796
seminar	-10.5796
▁jim	-10.5798
▁trenger	-10.5798
▁foretatt	-10.5801
▁rytter	-10.5803
▁stalin	-10.5804
▁rednings	-10.5808
▁farlig	-10.5812
▁1899	-10.5814
48	-10.5814
▁drepe	-10.5817
▁jam	-10.5818
▁inngikk	-10.5826
pakke	-10.5829
▁brakt	-10.5833
▁lettere	-10.584
srud	-10.5844
▁trygg	-10.5852
regime	-10.5875
▁steg	-10.5884
▁studiene	-10.5885
▁bah	-10.5896
▁marked	-10.5897
skrevet	-10.5904
kontrakt	-10.5916
▁grunnlov	-10.5919
næs	-10.5939
▁laste	-10.5963
▁styremedlem	-10.5981
biller	-10.5981
▁utløp	-10.6009
▁kilden	-10.6029
▁cou	-10.6039
▁barcelona	-10.6044
▁corporation	-10.6044
▁elizabeth	-10.6044
▁kriminal	-10.6044
▁vedlikehold	-10.6044
▁1903	-10.6044
▁artilleri	-10.6044
▁midtøsten	-10.6044
▁foreslått	-10.6044
▁thailand	-10.6044
komponent	-10.6044
▁beatles	-10.6044
▁hjørne	-10.6044
▁kritisert	-10.6044
▁vakre	-10.6044
▁fiktiv	-10.6045
▁regler	-10.6045
▁skikkelse	-10.6045
mouth	-10.6045
▁import	-10.6046
▁stengt	-10.6046
▁forlatt	-10.6046
▁kritisk	-10.6047
▁profil	-10.6048
▁tilhengere	-10.605
▁operere	-10.605
▁hovedkontor	-10.6051
▁wilson	-10.6051
▁1889	-10.6061
▁grim	-10.6069
▁sammenhengende	-10.607
▁morten	-10.6078
▁persisk	-10.608
▁næringsliv	-10.6109
▁sving	-10.611
utenriksminister	-10.6114
kledd	-10.6116
bach	-10.6124
▁pels	-10.6139
▁web	-10.617
▁erstatte	-10.6171
karriere	-10.6174
ition	-10.6178
▁moss	-10.6186
vassdraget	-10.6191
▁dynasti	-10.6229
brand	-10.6235
trær	-10.625
vilje	-10.6252
▁medisinsk	-10.6268
▁larve	-10.6278
▁gyld	-10.6285
▁francis	-10.6298
▁kompetanse	-10.63
▁sjeldne	-10.63
▁eksisterende	-10.63
▁kapasitet	-10.63
▁spesifik	-10.63
▁separat	-10.63
▁testamente	-10.6301
▁protestantisk	-10.6301
▁canadisk	-10.6301
▁oberst	-10.6301
▁brown	-10.6304
▁vannkraftverk	-10.6305
▁spurt	-10.6306
▁piano	-10.6312
▁interessert	-10.6313
▁1891	-10.6316
aceae	-10.6317
batteri	-10.6318
▁stortings	-10.632
▁pirat	-10.6321
▁1898	-10.6321
▁great	-10.6324
▁1400	-10.6327
▁alban	-10.633
▁molde	-10.6332
▁gitarist	-10.6337
forsker	-10.6339
▁besetning	-10.6343
ittisk	-10.6347
▁mjø	-10.6366
kolon	-10.6372
▁glad	-10.6375
agon	-10.6377
▁dramatisk	-10.6377
wiki	-10.639
▁hotel	-10.6397
montert	-10.6405
▁låten	-10.6418
▁koste	-10.6425
teknikk	-10.6436
kjøp	-10.6436
hjelp	-10.6436
rekord	-10.6442
▁representere	-10.6451
▁steve	-10.6473
▁glem	-10.65
▁kha	-10.6506
▁kollektiv	-10.6535
▁britis	-10.654
lock	-10.6559
▁fjellkjede	-10.6564
▁fundament	-10.6564
▁argentina	-10.6564
▁geometri	-10.6564
▁innbyggertall	-10.6564
▁virginia	-10.6564
▁æthel	-10.6564
▁definisjon	-10.6564
▁invadert	-10.6564
▁permanent	-10.6564
▁østfold	-10.6564
▁alkohol	-10.6564
▁hvem	-10.6564
▁leilighet	-10.6564
▁avviklet	-10.6564
▁systematisk	-10.6564
▁karbon	-10.6564
▁white	-10.6564
▁ekspert	-10.6564
▁carolin	-10.6565
▁kristiansund	-10.6565
▁titler	-10.6565
▁beregnet	-10.6566
▁borgermester	-10.6567
buss	-10.6568
▁tillatt	-10.6568
▁tjue	-10.6568
▁brygge	-10.6569
▁bønn	-10.657
▁betalt	-10.6571
▁sykkel	-10.6571
▁group	-10.6572
▁skjønn	-10.6577
▁1894	-10.6577
▁1882	-10.6581
▁slapp	-10.6585
▁helhet	-10.6586
▁georgia	-10.6587
▁thu	-10.6587
▁potter	-10.6596
▁undervist	-10.6603
aux	-10.6604
▁inneha	-10.6605
▁derfra	-10.6606
▁eksil	-10.6611
snegl	-10.6617
▁bytte	-10.663
harmoni	-10.6633
▁stang	-10.6668
▁sikte	-10.6678
▁110	-10.6689
ekspedisjon	-10.6706
teknologi	-10.6707
▁markere	-10.6708
kanalen	-10.6709
skjær	-10.6709
regning	-10.671
aktivitet	-10.6722
drive	-10.6747
▁finale	-10.6771
▁forfremme	-10.6834
▁okkupert	-10.6834
▁renessanse	-10.6834
▁diskusjon	-10.6834
▁jesuitt	-10.6834
▁komponert	-10.6834
▁litauen	-10.6834
▁tillatelse	-10.6834
▁1893	-10.6834
▁stridsvogn	-10.6834
dirigent	-10.6834
▁josef	-10.6834
▁oppløsning	-10.6834
▁ørken	-10.6834
▁kulturminne	-10.6834
▁romsdal	-10.6836
▁skrå	-10.6836
holt	-10.6838
▁talent	-10.684
▁reserve	-10.6841
▁2018	-10.6841
▁røtter	-10.6847
▁1888	-10.6848
▁1892	-10.6853
▁beskyttelse	-10.6854
▁akku	-10.6862
publi	-10.6873
vennlig	-10.6877
lengde	-10.6889
▁variert	-10.6899
bury	-10.6932
▁domkirke	-10.6942
direktør	-10.6984
preg	-10.699
maleri	-10.6994
dress	-10.7044
▁mesterskap	-10.7055
▁dreie	-10.7064
bukten	-10.71
sdorf	-10.711
▁trekant	-10.711
bebyggelse	-10.7111
belteasteroide	-10.7112
▁bulgaria	-10.7112
▁gymnas	-10.7112
▁göteborg	-10.7112
▁jugoslavia	-10.7112
▁trommeslager	-10.7112
▁øyeblikk	-10.7112
▁diameter	-10.7112
▁dagbladet	-10.7112
▁folketallet	-10.7112
▁arthur	-10.7112
▁alexandr	-10.7112
▁kobber	-10.7112
▁brensel	-10.7112
▁tilbrakt	-10.7112
▁sydney	-10.7112
▁skåne	-10.7112
▁ålesund	-10.7112
▁tennis	-10.7112
▁bønder	-10.7112
▁hørte	-10.7113
▁naturreservat	-10.7113
▁anvende	-10.7113
▁bbc	-10.7113
▁slippe	-10.7113
▁magasinet	-10.7113
▁rapportert	-10.7114
▁divers	-10.7114
▁landskamper	-10.7114
▁programvare	-10.7115
▁tsar	-10.7118
konvensjon	-10.7121
▁mandat	-10.7122
▁forrige	-10.7122
▁sending	-10.7122
▁1848	-10.7124
▁orgel	-10.7125
▁forbudt	-10.7125
▁afro	-10.7125
▁1865	-10.7126
▁1814	-10.713
ière	-10.713
▁personell	-10.7134
▁1870	-10.7137
▁offisiell	-10.7141
▁beslutning	-10.7144
▁birk	-10.7157
▁fond	-10.7205
tribun	-10.7208
▁utvidelse	-10.7212
▁gjennomgå	-10.7215
▁forklare	-10.7216
register	-10.7217
▁folketelling	-10.7238
▁talt	-10.7241
▁pavelig	-10.7266
utdanning	-10.727
▁teologi	-10.727
regjering	-10.727
arkiv	-10.7283
▁konsul	-10.7287
▁islandsk	-10.7299
bunnen	-10.7301
▁prinsipp	-10.7307
▁møtt	-10.7318
▁trent	-10.7349
yuan	-10.7357
▁flykte	-10.7363
▁regjer	-10.7372
stamme	-10.7377
▁assist	-10.7381
▁forbinde	-10.7392
▁industriell	-10.7397
▁asteroide	-10.7397
▁basketball	-10.7397
▁football	-10.7397
▁frekvens	-10.7397
▁jordskjelv	-10.7397
▁matematikk	-10.7397
▁opphørte	-10.7397
▁ukraina	-10.7397
▁admiral	-10.7397
▁skulptur	-10.7397
▁taiwan	-10.7397
▁xiàn	-10.7397
▁vestfold	-10.7397
▁flyktning	-10.7398
▁utpekt	-10.7398
▁igjennom	-10.7398
▁barokk	-10.7398
▁monroe	-10.7398
▁gregor	-10.7398
▁senterpartiet	-10.7398
▁erobring	-10.7399
▁fortellinger	-10.74
▁viii	-10.7401
▁forvaltnings	-10.7401
▁elsker	-10.7402
▁gravlagt	-10.7403
▁metoden	-10.7403
▁kopier	-10.7404
▁organisere	-10.7404
▁senator	-10.7406
▁biologisk	-10.7409
▁tilfeldig	-10.7409
▁knud	-10.741
▁koble	-10.7411
▁avansert	-10.7412
▁1881	-10.7414
▁histori	-10.7414
▁fjerdeplass	-10.7422
▁ddr	-10.7424
▁kath	-10.7443
▁praha	-10.7445
▁polar	-10.747
redskap	-10.7486
▁fokusere	-10.7509
▁arving	-10.7515
▁kontrollert	-10.7518
▁erobre	-10.7551
▁prestasjon	-10.7553
▁minutt	-10.7555
hastighet	-10.7563
arkitekt	-10.7564
ulykke	-10.7564
revolusjonen	-10.7582
▁fortelle	-10.7587
samband	-10.7592
▁bjø	-10.7668
▁vev	-10.7673
▁skriftlig	-10.7673
▁ferskvann	-10.7691
▁individuelt	-10.7691
▁innspilt	-10.7691
▁jomfru	-10.7691
▁påbegynt	-10.7691
▁resultert	-10.7691
▁sarpsborg	-10.7691
▁selvbiografi	-10.7691
▁tilstrekkelig	-10.7691
▁offensiv	-10.7692
▁teoretisk	-10.7692
▁redaksjon	-10.7692
▁taylor	-10.7692
▁foreløpig	-10.7692
▁returnerte	-10.7692
▁turbiner	-10.7692
▁bøndene	-10.7692
▁mektig	-10.7692
▁bedrifter	-10.7692
▁vegetasjon	-10.7692
▁nymfe	-10.7693
▁partner	-10.7693
▁forberede	-10.7693
kjøring	-10.7693
▁mineral	-10.7693
sentrert	-10.7694
▁center	-10.7695
▁senatet	-10.7696
▁smelte	-10.7697
rettighetene	-10.7698
▁selvstyre	-10.7699
▁kreert	-10.77
▁karibi	-10.7702
▁mølle	-10.7705
▁kenya	-10.7713
▁young	-10.7714
▁geir	-10.7718
sprang	-10.7733
▁lunge	-10.7742
▁home	-10.7748
▁ferie	-10.7808
konsulent	-10.781
▁folkeparti	-10.7838
▁teologisk	-10.7847
▁brutt	-10.7852
falt	-10.7856
blå	-10.7882
bakterie	-10.789
▁fjern	-10.7935
huang	-10.7962
▁kupp	-10.7974
▁konstitusjon	-10.7995
kommanderende	-10.7995
▁belønne	-10.7995
▁dekkvingene	-10.7995
▁embeds	-10.7995
▁favoritt	-10.7995
▁innstiftet	-10.7995
▁kommandør	-10.7995
▁luxembourg	-10.7995
▁society	-10.7995
▁strategisk	-10.7995
▁stråling	-10.7995
▁tolkning	-10.7995
▁embets	-10.7995
▁romerriket	-10.7995
▁fiolin	-10.7995
▁statsborger	-10.7995
▁beslektet	-10.7995
▁kommentar	-10.7995
▁bærum	-10.7995
▁firenze	-10.7995
▁middelhavs	-10.7995
▁sukker	-10.7996
▁konsekvens	-10.7997
▁våt	-10.7997
▁power	-10.7997
▁rakett	-10.7997
▁tropisk	-10.7999
▁kongeriket	-10.7999
▁antyder	-10.8
▁keltisk	-10.8
▁foregikk	-10.8001
▁svein	-10.8001
▁styreleder	-10.8002
▁down	-10.8004
▁melding	-10.8004
▁eiendommen	-10.8004
▁cross	-10.8006
▁uklar	-10.8009
▁instrumenter	-10.801
▁munke	-10.801
▁høyesterett	-10.8011
▁ibsen	-10.8013
▁billed	-10.8018
▁hylle	-10.8021
▁dahl	-10.8023
▁slektning	-10.8023
▁befal	-10.8026
oksid	-10.8042
bundet	-10.8044
▁stanse	-10.8045
▁berømt	-10.8049
▁frei	-10.8075
▁kristin	-10.8076
dømmet	-10.8111
▁glede	-10.8116
▁treffe	-10.8146
▁pont	-10.815
▁verdenscup	-10.8174
kandidat	-10.8179
oppgave	-10.8181
programmet	-10.8184
areal	-10.8195
fasade	-10.8196
▁akademisk	-10.8213
▁tryg	-10.8234
▁ferge	-10.8283
forvaltning	-10.8307
▁billboard	-10.8307
▁bysantinsk	-10.8307
▁country	-10.8307
▁infanteri	-10.8307
▁inskripsjon	-10.8307
▁konstruert	-10.8307
▁observert	-10.8307
▁overraskende	-10.8307
▁progressiv	-10.8307
▁restaurert	-10.8307
▁slalåm	-10.8307
▁nynorsk	-10.8307
▁statistikk	-10.8307
▁utspring	-10.8307
▁terreng	-10.8307
▁tilsammen	-10.8307
▁massakre	-10.8307
▁oppbevar	-10.8307
▁betjene	-10.8307
▁ektemann	-10.8307
▁trussel	-10.8307
▁germansk	-10.8307
▁väst	-10.8309
▁bjørk	-10.8309
materiell	-10.8309
▁felttog	-10.8309
▁stillehavet	-10.8309
▁francisco	-10.8311
▁vinterleke	-10.8315
▁gjentatt	-10.8315
gjerd	-10.8316
▁sykdommer	-10.832
▁kunstløp	-10.8323
▁arrest	-10.834
hampton	-10.8342
▁agent	-10.8353
▁idrett	-10.8371
endring	-10.8389
automat	-10.8405
▁punk	-10.8405
▁gjenvalg	-10.8451
tyder	-10.8473
kjønn	-10.8486
studier	-10.8502
kontroll	-10.8502
musiker	-10.8502
divisjon	-10.8502
orkester	-10.8509
kilden	-10.8516
gjerning	-10.852
motiv	-10.8554
byrd	-10.8579
markedet	-10.8583
medlemmer	-10.8593
pedagog	-10.8628
reservat	-10.8629
▁rådhus	-10.8629
▁prefektur	-10.863
▁symptom	-10.863
▁engasjement	-10.863
▁fiendtlig	-10.863
▁institute	-10.863
▁könig	-10.863
▁låtskriver	-10.863
▁nøytral	-10.863
▁tsjekkoslovakia	-10.863
▁vatikan	-10.863
svømming	-10.863
▁florida	-10.863
▁minoritet	-10.863
▁1873	-10.863
▁nicola	-10.863
▁invitert	-10.863
▁margaret	-10.863
▁komplett	-10.863
▁valuta	-10.863
▁utsikt	-10.863
▁ordinær	-10.863
▁skjøt	-10.863
▁fremtidig	-10.863
forsikring	-10.863
▁rolf	-10.863
▁underholdning	-10.863
▁protein	-10.8631
▁kaffe	-10.8631
▁høyskole	-10.8631
▁embete	-10.8632
▁verdensrekord	-10.8632
▁gjenopprette	-10.8632
▁virkeligheten	-10.8632
▁myrdet	-10.8633
▁rettssak	-10.8633
▁pierre	-10.8634
▁sultan	-10.8634
▁jurist	-10.8634
▁hessen	-10.8635
▁bjerk	-10.8635
▁syria	-10.8635
▁blank	-10.8636
▁galleri	-10.8637
▁nazist	-10.8637
▁vinkel	-10.8638
▁regimet	-10.8638
▁holdning	-10.8639
▁donau	-10.864
▁åpenbar	-10.864
sammenslåing	-10.8643
▁trinn	-10.8644
▁deltager	-10.8647
▁idé	-10.8648
▁heinric	-10.865
▁selvstendighet	-10.8664
▁kritikere	-10.8666
opprøret	-10.867
▁ørn	-10.868
▁verksted	-10.8687
▁gjennomsnittlig	-10.8693
investering	-10.8752
▁fokusert	-10.8785
▁elektronisk	-10.8795
ladning	-10.8804
▁insekt	-10.8827
design	-10.8836
museum	-10.8836
konsert	-10.8837
butikk	-10.8838
utgave	-10.884
stigning	-10.8897
▁universit	-10.8928
▁absolutt	-10.8963
▁forøvrig	-10.8963
▁kontinuerlig	-10.8963
▁shakespeare	-10.8963
▁vålerenga	-10.8963
▁alminnelig	-10.8963
▁observato	-10.8963
▁plutselig	-10.8963
▁satellitt	-10.8963
▁utslipp	-10.8963
skribent	-10.8963
▁1879	-10.8963
▁latvia	-10.8963
▁opphevet	-10.8963
▁sluppet	-10.8963
▁nikola	-10.8963
▁marcus	-10.8963
▁søndag	-10.8963
▁disney	-10.8963
▁contest	-10.8963
▁haakon	-10.8963
▁meteor	-10.8964
▁innvandre	-10.8964
▁klippe	-10.8964
▁dvd	-10.8964
▁tendens	-10.8964
leverandør	-10.8964
▁erstatning	-10.8964
▁seinere	-10.8964
▁bakvingen	-10.8964
▁gerhard	-10.8964
▁stryk	-10.8965
▁innviet	-10.8965
▁finansminister	-10.8965
▁ishockeyspiller	-10.8966
▁nestleder	-10.8967
▁høydepunkt	-10.8967
▁forfølgelse	-10.8968
▁territorium	-10.8968
▁nepal	-10.8968
▁fangst	-10.8969
▁øygruppen	-10.897
▁østersjø	-10.8974
▁tenkt	-10.8975
▁lisens	-10.8975
▁ungdomsskole	-10.8995
▁domini	-10.9007
▁barneskole	-10.9056
artikler	-10.908
▁ideologi	-10.911
tetthet	-10.913
fabrik	-10.9176
▁guddommelig	-10.9194
▁hytte	-10.9249
▁hjemmebane	-10.9251
▁ambassad	-10.9304
flokkurin	-10.9308
▁atmosfære	-10.9308
▁fremtredende	-10.9308
▁hongkong	-10.9308
▁palestinsk	-10.9308
▁republikansk	-10.9308
▁tsjekkia	-10.9308
▁tsjekkisk	-10.9308
▁væpne	-10.9308
▁gjøvik	-10.9308
▁hjelm	-10.9308
▁katolikk	-10.9308
▁utbredelse	-10.9308
▁hjort	-10.9308
▁church	-10.9308
▁annonsert	-10.9308
▁tyrkia	-10.9308
▁adolf	-10.9308
▁rosenborg	-10.9308
▁normandie	-10.9308
▁andré	-10.9308
▁oppfordre	-10.9308
▁osmansk	-10.9309
▁sibir	-10.9309
▁noensinne	-10.9309
▁nkp	-10.9309
▁stefan	-10.9309
▁för	-10.9309
▁sophi	-10.9309
▁sviger	-10.931
▁korstog	-10.931
▁oppfølger	-10.931
▁rettferdig	-10.931
▁poesi	-10.931
▁kvalifiserte	-10.9311
▁sentralbank	-10.9311
▁fuktig	-10.9311
▁alpene	-10.9311
▁nyhets	-10.9311
▁relasjon	-10.9311
▁søndr	-10.9312
▁adresse	-10.9314
▁døtre	-10.9314
▁spillefilm	-10.9317
▁tjener	-10.9319
▁sosialdemokrat	-10.9319
▁svikt	-10.9321
▁skuespillerinne	-10.9321
▁søyle	-10.9328
▁slange	-10.9349
▁maritim	-10.9352
syklus	-10.9497
bibliotek	-10.9537
likevel	-10.9538
sentral	-10.9539
mynt	-10.9607
distribusjon	-10.9665
ingsrepresentant	-10.9665
▁buskerud	-10.9665
▁cæsar	-10.9665
▁frilufts	-10.9665
▁kennedy	-10.9665
▁millimeter	-10.9665
▁omdøpt	-10.9665
▁popularitet	-10.9665
▁reservoar	-10.9665
▁trondhjem	-10.9665
▁uppsala	-10.9665
▁skjult	-10.9665
▁omstridt	-10.9665
▁psykisk	-10.9665
▁koalisjon	-10.9665
▁1877	-10.9665
▁fredsavtale	-10.9665
vurdering	-10.9665
▁haugesund	-10.9665
▁sigurd	-10.9665
▁jødene	-10.9665
▁kavaleri	-10.9665
▁barnebarn	-10.9665
▁langvarig	-10.9665
▁bmw	-10.9665
▁lørdag	-10.9665
▁eksistens	-10.9665
▁seksuell	-10.9665
▁walisisk	-10.9665
▁kontinental	-10.9665
▁drivstoff	-10.9666
▁tokyo	-10.9666
▁patron	-10.9666
▁søsken	-10.9666
kobling	-10.9666
worth	-10.9666
▁mastergrad	-10.9666
▁serbisk	-10.9667
▁middelhavet	-10.9667
▁knust	-10.9668
▁charlie	-10.9668
▁tynne	-10.9669
knutepunkt	-10.9669
▁tallrike	-10.9669
▁syntes	-10.967
▁betong	-10.9671
▁forenkle	-10.9676
hvelv	-10.97
forsvar	-10.9701
▁manuel	-10.9702
▁avskjed	-10.9715
▁hevn	-10.9715
herredømme	-10.9834
akademi	-10.9852
premie	-10.9899
kroppen	-10.9905
kommando	-10.9907
spørsmål	-10.9907
struktur	-10.9907
aften	-10.9908
tradisjon	-10.9908
orientert	-10.9937
regat	-10.9955
emperatur	-11.0028
▁dominere	-11.0034
domstol	-11.0034
▁innsbruck	-11.0035
▁lincoln	-11.0035
▁narkotika	-11.0035
▁orchestra	-11.0035
▁særskilt	-11.0035
▁vancouver	-11.0035
▁american	-11.0035
▁babylon	-11.0035
▁etterkommere	-11.0035
▁ferdinand	-11.0035
▁hospital	-11.0035
▁patriark	-11.0035
▁wergeland	-11.0035
▁abraham	-11.0035
▁besittelse	-11.0035
▁naturgass	-11.0035
▁nobelpris	-11.0035
▁regulert	-11.0035
▁svovel	-11.0035
▁amatør	-11.0035
▁baseball	-11.0035
▁charlotte	-11.0035
▁bolivia	-11.0035
▁atlanta	-11.0035
▁autoritet	-11.0035
▁arsenal	-11.0036
▁indikere	-11.0036
▁oldtiden	-11.0036
▁aktuell	-11.0036
▁færre	-11.0036
▁dimensjon	-11.0036
▁henrettelse	-11.0036
▁forekomst	-11.0036
▁korrekt	-11.0036
▁hyppig	-11.0036
▁muhamm	-11.0037
▁hertugdømmet	-11.0037
▁year	-11.0038
▁regent	-11.0039
▁lavest	-11.004
mekanisme	-11.0041
▁smitte	-11.0042
▁ytelse	-11.0049
bragt	-11.0051
▁rifle	-11.0052
liknende	-11.0053
▁pyr	-11.0086
borough	-11.0102
lignende	-11.0161
work	-11.0184
veggen	-11.0192
▁vassdrag	-11.0196
▁arkeologi	-11.0216
▁utarbeide	-11.0218
▁bakkropp	-11.0261
advokat	-11.0292
størrelse	-11.0292
medlemmene	-11.0292
hjul	-11.0294
møll	-11.0312
fellesskap	-11.0407
kringkasting	-11.042
▁assosier	-11.042
▁fjorten	-11.042
▁folkeavstemning	-11.042
▁heidelberg	-11.042
▁hollywood	-11.042
▁konstantinopel	-11.042
▁kriminell	-11.042
▁pilegrim	-11.042
▁rudolf	-11.042
▁sparebank	-11.042
▁ukrainsk	-11.042
▁westfalen	-11.042
katastrofe	-11.042
▁mangfold	-11.042
▁sanskrit	-11.042
▁bachelor	-11.042
▁flaggbærer	-11.042
▁grammati	-11.042
▁prince	-11.042
▁forventet	-11.042
▁seoul	-11.042
▁beleiring	-11.042
▁umulig	-11.0421
▁vakker	-11.0421
▁nigeria	-11.0421
▁beskjed	-11.0421
▁utforming	-11.0421
▁uefa	-11.0422
▁regelmessig	-11.0423
skildring	-11.0424
▁alex	-11.0425
▁point	-11.0426
▁halvkule	-11.043
▁pumpe	-11.0434
basseng	-11.0449
▁fullføre	-11.0518
nnom	-11.0554
▁studert	-11.0564
rhein	-11.0569
hovedstad	-11.0692
litteratur	-11.0692
flagg	-11.0693
radio	-11.0706
▁sektor	-11.0764
kvalifisert	-11.0817
▁konsentrasjon	-11.0817
▁atlanterhavet	-11.082
▁frederick	-11.082
▁helikopter	-11.082
▁infrastruktur	-11.082
▁kjønnsmodn	-11.082
▁krønike	-11.082
▁mccartney	-11.082
▁sicilia	-11.082
▁skvadron	-11.082
▁tilnærming	-11.082
▁köln	-11.082
▁molekyl	-11.082
▁oksygen	-11.082
▁operativsystem	-11.082
▁utendørs	-11.082
▁venezia	-11.082
▁forveksle	-11.082
▁kroppsbygning	-11.082
▁gravitasjon	-11.082
▁amundsen	-11.082
▁forvandling	-11.082
▁forfatning	-11.082
protokoll	-11.082
▁wright	-11.082
▁sandefjord	-11.082
▁forutsetning	-11.082
▁unesco	-11.082
▁madrid	-11.082
▁barnehage	-11.082
▁ntnu	-11.082
▁konkurs	-11.082
▁massiv	-11.082
opplysninger	-11.0821
▁tverrbånd	-11.0821
▁appell	-11.0821
▁utfordre	-11.0821
▁utnevnelse	-11.0821
▁lojal	-11.0821
▁kullkraftverk	-11.0821
▁feiring	-11.0821
ensemble	-11.0821
▁dybde	-11.0821
▁für	-11.0821
ев	-11.0821
▁delstats	-11.0822
▁suveren	-11.0824
ovitsj	-11.0824
▁legenden	-11.0824
▁domstolen	-11.0825
▁befan	-11.084
nnføringen	-11.0849
prinsippet	-11.0949
▁utforske	-11.0988
▁omdanne	-11.1011
▁elektro	-11.108
bispedømme	-11.1108
befolkningen	-11.1109
▁aleksandr	-11.1237
▁apostolisk	-11.1237
▁association	-11.1237
▁central	-11.1237
▁fengslet	-11.1237
▁pennsylvania	-11.1237
▁rekrutter	-11.1237
▁samferdsel	-11.1237
▁nidaros	-11.1237
▁apotek	-11.1237
▁åpningsseremoni	-11.1237
▁bekymr	-11.1237
▁angivelig	-11.1237
▁anmelder	-11.1237
▁kollega	-11.1237
▁ptolem	-11.1237
▁1853	-11.1237
▁identitet	-11.1237
bransjen	-11.1237
kjøkken	-11.1237
▁legitim	-11.1237
▁fysikk	-11.1237
▁dresden	-11.1237
▁jamaica	-11.1237
▁heavy	-11.1237
publikasjon	-11.1237
▁ulovlig	-11.1237
▁regulere	-11.1237
▁begrunnelse	-11.1237
▁verdensarv	-11.1237
▁theodor	-11.1237
▁visuell	-11.1237
▁narvik	-11.1237
▁brigade	-11.1237
▁middle	-11.1237
▁forsinke	-11.1238
▁automatisk	-11.1238
▁kunngjor	-11.1238
▁isolert	-11.1238
▁temple	-11.1239
▁dekorert	-11.1239
relatert	-11.1239
▁farao	-11.124
▁understreke	-11.124
▁forandring	-11.124
▁fienden	-11.124
▁fylle	-11.1241
▁gratis	-11.1241
▁sannhet	-11.1242
▁söd	-11.1254
▁armensk	-11.1261
▁offentliggjor	-11.1334
▁begynt	-11.1415
ingeniør	-11.1543
grønn	-11.1544
interesse	-11.1544
prøve	-11.1551
strøk	-11.1558
skred	-11.164
▁aristo	-11.1665
▁budsjett	-11.1671
▁cambridge	-11.1671
▁championship	-11.1671
▁innvilget	-11.1671
▁intelligen	-11.1671
▁konkludert	-11.1671
▁konkurrent	-11.1671
▁legendarisk	-11.1671
▁massachusetts	-11.1671
▁meksikansk	-11.1671
▁prestegjeld	-11.1671
▁puppestadi	-11.1671
▁rasmussen	-11.1671
▁restaurering	-11.1671
▁storslalåm	-11.1671
▁dramatiker	-11.1671
▁komplisert	-11.1671
▁matematisk	-11.1671
▁slesvig	-11.1671
▁1869	-11.1671
▁søknad	-11.1671
▁forberedt	-11.1671
▁dublin	-11.1671
disiplin	-11.1671
▁faktum	-11.1671
▁margret	-11.1671
▁konkret	-11.1671
▁palasset	-11.1671
▁quisling	-11.1672
▁ringerike	-11.1672
▁skjebne	-11.1672
▁fødselsår	-11.1672
▁kommunisme	-11.1672
▁redigert	-11.1672
▁christensen	-11.1672
▁rumensk	-11.1672
▁tåke	-11.1672
▁dream	-11.1673
▁døpt	-11.1673
▁snorre	-11.1674
▁bebyggelsen	-11.1674
▁axel	-11.1675
▁operert	-11.1681
▁kallenavn	-11.1681
tenkning	-11.1682
▁knuse	-11.171
terapi	-11.1797
kvinne	-11.1797
▁formidle	-11.2006
▁inspirasjon	-11.2122
▁resolusjon	-11.2126
klassifisert	-11.2126
▁adskilt	-11.2126
▁alfabetet	-11.2126
▁argentinsk	-11.2126
▁begrensning	-11.2126
▁douglas	-11.2126
▁ektefelle	-11.2126
▁elektrisitet	-11.2126
▁etiopia	-11.2126
▁evakuer	-11.2126
▁gjengjeld	-11.2126
▁leipzig	-11.2126
▁ludwig	-11.2126
▁prosentpoeng	-11.2126
▁representasjon	-11.2126
▁republikaner	-11.2126
▁roosevelt	-11.2126
▁sebastian	-11.2126
▁våpenhvile	-11.2126
▁anbefalt	-11.2126
▁frogner	-11.2126
▁gerilja	-11.2126
▁kommandant	-11.2126
▁antakelig	-11.2126
▁avslørt	-11.2126
▁libanon	-11.2126
▁minimum	-11.2126
▁overbevist	-11.2126
▁pattedyr	-11.2126
pyramide	-11.2126
▁konsernet	-11.2126
▁psykologisk	-11.2126
▁larvestadie	-11.2126
▁flandern	-11.2126
▁skihopper	-11.2126
▁empire	-11.2126
▁følte	-11.2126
▁reglene	-11.2126
▁cappelen	-11.2126
▁ivrig	-11.2126
▁utfordring	-11.2126
▁anthon	-11.2126
▁brasiliansk	-11.2126
▁sjokk	-11.2126
▁doping	-11.2126
▁griff	-11.2127
▁magnetisk	-11.2127
▁detroit	-11.2127
mønstre	-11.2128
▁first	-11.2128
▁slakte	-11.2129
▁kineser	-11.2134
▁plukke	-11.2135
▁marmor	-11.2143
løype	-11.2153
bevegelse	-11.2274
▁facto	-11.2281
▁dobbel	-11.2346
forsvarsminister	-11.2354
forkjemper	-11.2386
▁koreansk	-11.2466
kloster	-11.2475
sesongen	-11.2475
teknisk	-11.2479
▁økonom	-11.2518
inspektør	-11.2602
▁afghansk	-11.2602
▁aftenposten	-11.2602
▁arrangør	-11.2602
▁begivenhet	-11.2602
▁beliggenhet	-11.2602
▁britannia	-11.2602
▁broadway	-11.2602
▁business	-11.2602
▁canterbury	-11.2602
▁colombia	-11.2602
▁færøysk	-11.2602
▁generalmajor	-11.2602
▁hviterussland	-11.2602
▁indonesia	-11.2602
▁jacque	-11.2602
▁matematiker	-11.2602
▁nürnberg	-11.2602
▁palestina	-11.2602
▁paraguay	-11.2602
▁perspektiv	-11.2602
▁plyndret	-11.2602
▁reflektere	-11.2602
giovanni	-11.2602
▁imperiet	-11.2602
▁kidnapp	-11.2602
▁salmebok	-11.2602
▁konsonant	-11.2602
▁anslått	-11.2602
▁prestisje	-11.2602
▁anonym	-11.2602
▁linux	-11.2602
▁gustaf	-11.2602
▁rovdyr	-11.2602
▁dedikert	-11.2602
▁piercing	-11.2602
▁skøyteløper	-11.2602
▁perfekt	-11.2602
▁apollo	-11.2602
▁kontroversiell	-11.2602
▁africa	-11.2602
▁sivilisasjon	-11.2602
▁ytterkant	-11.2602
▁krypt	-11.2602
▁fantastisk	-11.2602
▁betydd	-11.2602
▁serbia	-11.2602
▁forventning	-11.2602
▁befestning	-11.2603
▁alaska	-11.2603
▁lennon	-11.2603
▁gabriel	-11.2603
▁hovedpersonen	-11.2603
▁serierunde	-11.2603
▁firkant	-11.2603
▁rimelig	-11.2603
▁andorra	-11.2603
▁utvandre	-11.2603
▁public	-11.2604
▁etterlatt	-11.2604
▁kanadisk	-11.2607
▁stedsnavn	-11.2613
forhandle	-11.2792
edderkopper	-11.2819
▁lovgiv	-11.2867
▁semifinale	-11.2886
frukt	-11.2975
transport	-11.2975
fylke	-11.2976
▁elefant	-11.3102
▁guangdong	-11.3102
▁illustrert	-11.3102
▁korrupsjon	-11.3102
▁langrennsløper	-11.3102
▁magazine	-11.3102
0	-12.7746
