<unk>	0
<s>	0
</s>	0
.	-3.29733
▁i	-3.45793
e	-3.64425
s	-3.74305
▁og	-3.8261
t	-4.06191
▁av	-4.2698
en	-4.29346
▁	-4.30338
er	-4.32497
▁som	-4.45207
▁en	-4.45441
▁er	-4.57655
▁til	-4.59348
r	-4.66909
▁for	-4.68338
▁på	-4.6926
▁den	-4.88373
▁ble	-4.89523
▁med	-4.92316
▁det	-4.92417
▁var	-5.02341
n	-5.02836
et	-5.0576
▁de	-5.07447
▁han	-5.12831
▁å	-5.24138
▁fra	-5.32108
▁et	-5.44842
▁har	-5.48821
ene	-5.56976
▁at	-5.59862
a	-5.69621
ne	-5.88636
▁ved	-5.93942
▁etter	-5.9755
▁om	-5.98456
d	-6.03094
▁også	-6.03095
k	-6.06328
i	-6.07177
▁men	-6.09757
▁seg	-6.19589
▁ut	-6.19618
▁under	-6.2023
o	-6.23091
▁hadde	-6.26229
▁ikke	-6.27411
▁da	-6.27681
y	-6.322
▁over	-6.32625
▁to	-6.38439
te	-6.39537
m	-6.40284
▁eller	-6.44822
de	-6.45973
▁inn	-6.46639
f	-6.48523
▁opp	-6.49392
▁kan	-6.4997
p	-6.5009
l	-6.51052
▁andre	-6.52288
re	-6.53784
g	-6.56822
▁sin	-6.57639
▁mot	-6.61421
in	-6.61708
▁første	-6.62519
▁hun	-6.66727
▁1	-6.67567
▁dette	-6.68818
▁f	-6.76191
v	-6.76464
▁år	-6.7701
▁a	-6.77042
▁ha	-6.77687
▁mellom	-6.77778
▁be	-6.77962
c	-6.81273
▁s	-6.81622
h	-6.81868
ing	-6.8277
▁kom	-6.83971
▁18	-6.862
b	-6.86273
▁født	-6.86432
us	-6.88193
▁der	-6.8825
▁fikk	-6.89173
▁hans	-6.90004
an	-6.95216
▁denne	-6.95686
sk	-6.95723
ri	-6.96514
es	-6.9674
▁tre	-6.97713
is	-7.01434
▁flere	-7.01738
al	-7.02078
z	-7.02433
le	-7.02632
▁man	-7.03884
▁hvor	-7.05719
ia	-7.07183
u	-7.08625
▁sammen	-7.09146
▁nord	-7.09703
▁blant	-7.10168
ende	-7.11161
▁m	-7.12871
▁2	-7.13508
▁la	-7.14565
▁alle	-7.15416
na	-7.15765
sen	-7.17334
▁så	-7.17389
▁c	-7.17461
▁g	-7.19195
▁del	-7.1987
▁før	-7.20065
▁the	-7.20389
on	-7.21802
ar	-7.23251
▁tallet	-7.25154
▁u	-7.25246
▁3	-7.26615
ter	-7.27979
▁død	-7.28084
▁norge	-7.28146
▁ligger	-7.28532
w	-7.29086
▁se	-7.30711
▁mange	-7.31455
▁re	-7.31617
▁selv	-7.32114
lig	-7.32263
▁siden	-7.32473
▁senere	-7.32526
land	-7.35375
▁være	-7.35396
▁byen	-7.36584
▁stor	-7.37087
▁17	-7.37162
▁ca	-7.37245
▁mer	-7.37436
ur	-7.37607
▁disse	-7.37637
▁b	-7.3824
▁noen	-7.38626
▁an	-7.38696
▁blir	-7.39194
isk	-7.39252
vis	-7.39431
ske	-7.39787
▁blitt	-7.39824
ta	-7.40545
iske	-7.40811
▁norsk	-7.41169
▁st	-7.41211
▁tidligere	-7.41391
▁kjent	-7.41413
▁annet	-7.41424
ch	-7.41557
▁ol	-7.41634
nde	-7.41718
▁sitt	-7.42129
▁her	-7.42647
▁4	-7.42749
ens	-7.42759
for	-7.43082
ra	-7.43282
li	-7.43449
▁p	-7.43909
la	-7.44924
▁store	-7.45198
▁kommune	-7.45199
um	-7.45307
▁gjennom	-7.45432
ng	-7.45597
▁sør	-7.45835
▁vært	-7.45855
ere	-7.45953
as	-7.46323
ke	-7.46678
▁5	-7.4694
▁kr	-7.46998
el	-7.48116
▁ny	-7.48256
▁samme	-7.48823
or	-7.49043
▁d	-7.49589
▁15	-7.50263
▁vi	-7.50316
▁land	-7.50619
▁grunn	-7.5215
ler	-7.52661
be	-7.54942
kk	-7.55344
▁noe	-7.55699
▁tid	-7.56344
▁ro	-7.56466
ver	-7.56871
▁16	-7.56883
▁rundt	-7.5723
ry	-7.57374
▁dag	-7.57466
▁frem	-7.57652
ma	-7.57836
j	-7.58887
il	-7.59399
å	-7.5964
▁kunne	-7.60063
▁båd	-7.6129
▁pa	-7.61606
▁vil	-7.61958
▁ned	-7.62707
ig	-7.63214
▁k	-7.63238
▁gikk	-7.64886
▁vant	-7.65094
▁al	-7.652
▁h	-7.65491
▁mens	-7.658
▁bo	-7.66033
▁enn	-7.66145
x	-7.66345
ka	-7.66715
▁sine	-7.66882
▁vest	-7.67365
▁ham	-7.67602
ør	-7.6773
▁hver	-7.68267
der	-7.68819
▁of	-7.68836
▁mest	-7.69049
lo	-7.69105
nes	-7.6911
ul	-7.69301
ck	-7.69397
to	-7.69893
▁skull	-7.69923
▁10	-7.70258
▁sa	-7.7051
mp	-7.70515
ge	-7.70746
▁norske	-7.70775
▁o	-7.70795
den	-7.71032
ning	-7.71104
▁ra	-7.71233
▁li	-7.71736
▁6	-7.72117
▁bare	-7.73367
▁by	-7.7371
▁usa	-7.7399
▁navnet	-7.73998
øy	-7.74012
da	-7.74106
▁ta	-7.74297
ste	-7.74973
▁tilbake	-7.75141
é	-7.75479
di	-7.75874
▁gang	-7.75875
▁skal	-7.76025
▁kon	-7.76051
th	-7.76185
▁oslo	-7.76188
it	-7.76373
os	-7.76682
at	-7.76888
gen	-7.77084
▁fire	-7.78043
▁nye	-7.78274
sa	-7.78342
▁e	-7.78491
ner	-7.79018
bo	-7.79105
▁januar	-7.79303
▁di	-7.79624
▁mai	-7.79956
▁l	-7.80259
ve	-7.80314
▁tok	-7.80316
▁7	-7.80328
ad	-7.80496
▁fram	-7.8059
▁ga	-7.80712
id	-7.82035
▁meter	-7.82169
▁navn	-7.82927
▁le	-7.8296
▁dem	-7.82974
▁bli	-7.83199
▁8	-7.8331
▁slik	-7.83627
kt	-7.83887
erte	-7.84094
son	-7.84754
▁km	-7.84821
ist	-7.84968
erne	-7.85248
▁ti	-7.85511
ro	-7.85954
stad	-7.86953
▁ba	-7.87175
▁øst	-7.87187
ut	-7.87325
gi	-7.87478
▁august	-7.87859
▁000	-7.87887
▁finnes	-7.88026
ic	-7.88272
▁he	-7.88897
ger	-7.89322
ton	-7.89351
▁hele	-7.8948
▁n	-7.89481
ti	-7.8976
▁få	-7.89768
ang	-7.89808
▁hoved	-7.89817
ær	-7.89837
ga	-7.90001
pp	-7.90041
▁ofte	-7.90157
ff	-7.90562
▁deltok	-7.90584
si	-7.90689
by	-7.911
▁t	-7.91266
▁fly	-7.91424
skap	-7.91617
▁juli	-7.92148
▁siste	-7.924
▁når	-7.92664
▁laget	-7.93031
▁fri	-7.93335
ja	-7.9361
▁mars	-7.9361
▁per	-7.93902
▁lag	-7.94143
▁største	-7.94172
un	-7.94208
▁12	-7.94623
opp	-7.94627
var	-7.94701
ol	-7.94949
ø	-7.95277
▁bak	-7.95829
▁landet	-7.96167
▁9	-7.97265
▁nå	-7.97814
▁j	-7.97979
lige	-7.9804
▁ar	-7.9811
▁kalt	-7.98298
▁lang	-7.98353
▁v	-7.98732
iv	-7.99139
mann	-7.99226
mo	-7.99486
▁kirke	-7.99559
man	-7.99572
▁13	-7.99639
je	-7.99644
▁mål	-7.99864
▁juni	-7.99934
▁ni	-8.00067
▁co	-8.00596
ker	-8.00676
▁ka	-8.01275
ll	-8.01292
▁mo	-8.0136
ell	-8.01432
▁området	-8.0174
mi	-8.01783
▁september	-8.02245
▁far	-8.02374
ir	-8.02393
▁plass	-8.02558
ha	-8.02701
▁si	-8.02945
▁sp	-8.02956
▁først	-8.03565
▁pro	-8.03626
▁går	-8.04279
▁årene	-8.04351
▁igjen	-8.04372
▁14	-8.04484
tter	-8.04496
▁gi	-8.04537
ikk	-8.04569
▁2007	-8.0457
▁tillegg	-8.04955
het	-8.04964
▁in	-8.05422
som	-8.05438
vi	-8.05516
▁2008	-8.05553
me	-8.05603
▁rekke	-8.05744
men	-8.05804
▁11	-8.06114
ert	-8.06548
im	-8.06657
bu	-8.06745
▁2010	-8.07148
▁w	-8.07213
▁spilte	-8.07482
od	-8.07729
▁bi	-8.08083
pe	-8.08456
▁pi	-8.08605
sjon	-8.09045
ven	-8.09137
▁begynte	-8.09139
▁rett	-8.10055
▁lo	-8.10113
ba	-8.10126
▁du	-8.10154
▁sk	-8.10224
▁20	-8.11146
dal	-8.1132
▁mi	-8.11346
tre	-8.11403
▁na	-8.11954
ru	-8.12002
▁oktober	-8.12284
mer	-8.12358
▁deres	-8.1252
▁utgitt	-8.12776
▁ho	-8.13329
co	-8.1356
ce	-8.144
▁mar	-8.14809
▁desember	-8.14851
▁april	-8.14851
▁brukt	-8.14898
rett	-8.1532
▁europa	-8.15505
lu	-8.15617
▁døde	-8.15755
berg	-8.15763
▁fortsatt	-8.1617
▁februar	-8.1682
ring	-8.1686
op	-8.17197
▁ru	-8.17278
elig	-8.17498
▁y	-8.17574
▁bruk	-8.17809
▁do	-8.17874
else	-8.18229
▁medlem	-8.18322
▁større	-8.18398
bi	-8.18474
▁su	-8.18836
▁beste	-8.18921
▁samt	-8.1893
▁vanlig	-8.19065
om	-8.19173
▁fem	-8.19223
år	-8.19475
ling	-8.19518
gang	-8.20284
▁te	-8.20528
▁me	-8.20685
▁gjorde	-8.20761
▁2009	-8.20886
▁bu	-8.20945
▁kun	-8.2101
▁tiden	-8.21206
▁året	-8.21756
▁mindre	-8.21819
av	-8.21958
▁sønn	-8.21978
do	-8.22244
▁as	-8.22291
▁uten	-8.22459
▁nær	-8.22762
▁hos	-8.22784
▁like	-8.22872
sel	-8.22954
▁mye	-8.23323
▁helt	-8.23499
til	-8.23736
gg	-8.24008
ho	-8.24124
▁november	-8.24871
itet	-8.25385
ans	-8.2541
▁new	-8.25906
▁musikk	-8.25908
▁ville	-8.26374
▁po	-8.26438
▁2006	-8.26566
▁filmen	-8.26588
bar	-8.26608
▁vann	-8.26724
▁derfor	-8.26816
ster	-8.26825
▁kong	-8.27169
▁ri	-8.27282
▁olympisk	-8.27295
sta	-8.27295
▁mor	-8.2734
ard	-8.27497
▁kina	-8.27514
tid	-8.27798
ion	-8.27922
▁leder	-8.28319
ko	-8.28557
lse	-8.2896
▁ko	-8.29234
▁videre	-8.29297
▁må	-8.29395
▁tyskland	-8.29413
▁fa	-8.29513
▁ulike	-8.29612
go	-8.29678
▁hennes	-8.29757
▁eksempel	-8.2978
▁spiller	-8.30033
▁pe	-8.30094
æ	-8.3018
asjon	-8.30332
▁gamle	-8.30538
ingen	-8.30638
▁alt	-8.30663
au	-8.31101
▁barn	-8.31116
ö	-8.3118
▁deretter	-8.31319
ok	-8.31423
va	-8.31617
und	-8.32125
▁kommer	-8.32139
sted	-8.32349
▁ma	-8.32485
▁2011	-8.32592
midlertid	-8.32849
▁sch	-8.33132
ca	-8.33146
▁par	-8.33398
sh	-8.33453
ik	-8.33573
▁innbyggere	-8.33626
▁sommer	-8.33795
ot	-8.3395
per	-8.33993
ber	-8.34101
▁mat	-8.34275
elle	-8.3438
del	-8.34418
▁særlig	-8.34433
▁0	-8.34501
ie	-8.34511
▁film	-8.34918
▁forhold	-8.34958
tal	-8.35091
▁r	-8.35195
▁go	-8.35232
▁løpet	-8.35233
▁ganger	-8.35316
▁tyske	-8.35456
▁bar	-8.35842
nd	-8.36126
▁30	-8.36152
gu	-8.36317
ering	-8.36397
po	-8.36403
ment	-8.36483
▁egen	-8.36524
▁form	-8.36551
▁england	-8.36552
▁2005	-8.36553
▁sverige	-8.36814
ina	-8.36905
▁eks	-8.37038
▁sam	-8.37087
▁em	-8.37094
▁bygget	-8.37357
rede	-8.37649
▁so	-8.3773
len	-8.38319
▁nasjonal	-8.38494
▁klubben	-8.38548
▁tatt	-8.38754
▁frankrike	-8.38999
▁begge	-8.39001
▁samtidig	-8.39273
▁satt	-8.39517
▁ki	-8.3955
▁ne	-8.39561
▁perioden	-8.39696
▁john	-8.39786
les	-8.39792
ty	-8.39863
sp	-8.39929
▁brukes	-8.3993
▁består	-8.40124
▁no	-8.40307
inn	-8.40349
ns	-8.40358
ings	-8.40467
▁skole	-8.40548
▁svær	-8.4105
▁tro	-8.41144
▁kort	-8.41228
▁gu	-8.41501
▁bandet	-8.41556
dag	-8.41617
tu	-8.41828
▁språk	-8.41885
▁sjø	-8.42099
▁seks	-8.4219
▁startet	-8.42283
▁ver	-8.42524
dan	-8.42584
▁innen	-8.42695
ft	-8.42795
▁øy	-8.42956
▁jo	-8.43134
▁ge	-8.43363
▁lå	-8.43464
slag	-8.4369
▁ei	-8.43739
▁små	-8.43858
dd	-8.43888
pa	-8.44043
▁amerikanske	-8.44199
over	-8.44222
lag	-8.44224
▁sol	-8.44401
▁russisk	-8.44673
▁folke	-8.44693
▁grad	-8.44767
inger	-8.45893
no	-8.45964
▁tysk	-8.46076
▁nytt	-8.46248
lin	-8.46478
▁fast	-8.46566
▁ingen	-8.46655
rmed	-8.46899
▁kinesisk	-8.47336
sti	-8.47379
▁gull	-8.47549
▁lov	-8.47661
▁spilt	-8.47725
▁ju	-8.47788
ong	-8.48098
vik	-8.48462
▁va	-8.4854
▁måtte	-8.48567
pi	-8.48579
▁or	-8.48616
▁lu	-8.48723
før	-8.48723
▁kultur	-8.48742
á	-8.48805
jø	-8.4886
▁skrevet	-8.49058
▁tv	-8.49136
▁2004	-8.4916
▁president	-8.49253
▁kunst	-8.49389
am	-8.49451
hold	-8.49614
▁sesongen	-8.4963
▁norges	-8.4975
▁2003	-8.49776
▁albumet	-8.50155
▁gjen	-8.50257
▁el	-8.50263
▁fleste	-8.50328
ord	-8.50451
▁25	-8.50456
stand	-8.50619
▁gitt	-8.50661
wa	-8.50709
▁høy	-8.50769
hus	-8.50774
▁langs	-8.50923
▁hu	-8.5097
ü	-8.50999
▁2000	-8.51008
▁slutt	-8.51117
▁flytte	-8.51205
▁deler	-8.51594
▁vm	-8.51609
▁parti	-8.51635
▁kommunen	-8.51681
▁god	-8.51764
▁x	-8.51935
ly	-8.52005
▁engelsk	-8.52218
itt	-8.5236
uten	-8.52682
▁fjell	-8.52712
ed	-8.52811
▁verden	-8.52817
følge	-8.53695
▁dagen	-8.53695
▁bergen	-8.53773
▁skrev	-8.53805
ä	-8.53889
dre	-8.54049
▁lys	-8.54156
tiden	-8.54432
▁mulig	-8.54465
tak	-8.54519
▁and	-8.54559
▁min	-8.5456
▁krigen	-8.54603
▁forskjellige	-8.54629
ni	-8.54655
▁liv	-8.54682
▁verdens	-8.54783
isert	-8.54902
▁tor	-8.54915
▁vei	-8.54965
ningen	-8.54984
▁hus	-8.55009
kon	-8.55232
▁bra	-8.55261
tur	-8.55471
▁2001	-8.55795
▁gruppen	-8.56007
▁ski	-8.56587
▁gammel	-8.56761
▁plan	-8.56775
▁sett	-8.56843
▁arbeidet	-8.56912
▁selskapet	-8.5721
satt	-8.57413
▁london	-8.57422
▁stedet	-8.57713
▁støtte	-8.57775
▁slutten	-8.57899
▁am	-8.57932
▁my	-8.57984
▁side	-8.58055
ier	-8.58068
bel	-8.58208
▁amerikansk	-8.58458
▁annen	-8.58666
ran	-8.5891
▁z	-8.59029
ag	-8.59385
▁tredje	-8.59719
▁fotball	-8.59988
▁dr	-8.60066
▁sendt	-8.60123
▁tra	-8.60128
▁pla	-8.60218
▁24	-8.60263
▁øya	-8.60286
ige	-8.60319
ius	-8.60433
▁kar	-8.60462
▁tidlig	-8.60513
io	-8.60577
▁nor	-8.60894
▁all	-8.60923
vo	-8.60978
▁2002	-8.61148
▁person	-8.61799
form	-8.61837
ian	-8.61902
▁bok	-8.61995
▁100	-8.6214
mb	-8.62224
▁britiske	-8.62275
ken	-8.62373
▁san	-8.62465
tra	-8.62521
▁kjente	-8.62615
▁tri	-8.62733
▁viktig	-8.62864
▁verdenskrig	-8.62921
par	-8.62967
▁provinsen	-8.62983
ron	-8.63052
▁lokal	-8.63079
let	-8.63132
lot	-8.63137
ks	-8.63485
▁syn	-8.63606
▁konge	-8.63769
verk	-8.63959
mme	-8.64064
▁ad	-8.64253
ud	-8.64336
▁gresk	-8.64336
▁franske	-8.64382
tte	-8.64396
▁hi	-8.64408
▁ord	-8.64426
stein	-8.6444
▁ab	-8.64516
ting	-8.64636
ium	-8.64771
▁antall	-8.65029
yl	-8.65187
bruk	-8.65353
ak	-8.65574
dig	-8.65576
▁23	-8.65706
▁lever	-8.65934
siden	-8.66077
ant	-8.66106
ham	-8.66141
▁gir	-8.66216
▁gud	-8.66227
▁19	-8.66319
uk	-8.66709
▁universitetet	-8.66992
▁serien	-8.67335
▁spille	-8.67358
▁os	-8.67441
▁historie	-8.67479
hu	-8.67523
mar	-8.68001
▁bil	-8.68087
▁sted	-8.68164
ek	-8.6819
▁1980	-8.6828
▁red	-8.68708
▁kamp	-8.68746
▁vel	-8.6889
lands	-8.6904
▁fi	-8.69174
▁førte	-8.6925
ny	-8.69274
dalen	-8.69286
▁eneste	-8.69299
▁pre	-8.69428
▁meg	-8.69451
▁halv	-8.69493
1	-8.69597
▁danmark	-8.69763
▁21	-8.69803
▁gjern	-8.69804
▁bl	-8.69924
fe	-8.70194
▁wa	-8.70283
ov	-8.70485
▁fordi	-8.70642
ku	-8.70849
▁hen	-8.70905
▁basert	-8.70994
▁pu	-8.71011
▁langt	-8.71042
vin	-8.7105
▁general	-8.71275
art	-8.71905
▁1999	-8.72044
▁cha	-8.72165
▁millioner	-8.72257
▁foran	-8.72347
tor	-8.72395
▁1990	-8.7243
ble	-8.72472
▁hel	-8.72507
▁gruppe	-8.72806
▁utnevnt	-8.72899
▁sentral	-8.72938
▁forfatter	-8.73053
▁ak	-8.73068
ine	-8.73109
í	-8.73175
▁1970	-8.73204
▁mal	-8.73332
if	-8.73342
spill	-8.73552
▁delen	-8.73872
▁vinter	-8.73919
▁storbritannia	-8.73977
jo	-8.73978
▁gjøre	-8.74019
za	-8.7405
▁ser	-8.74347
▁innehold	-8.74375
▁hatt	-8.7461
ld	-8.74701
he	-8.74757
tok	-8.74881
▁gift	-8.75078
em	-8.75126
▁delstaten	-8.75159
▁holdt	-8.75193
ller	-8.7532
▁lite	-8.75432
2	-8.75488
løp	-8.75597
▁ty	-8.75617
▁tar	-8.75668
mu	-8.75946
▁fag	-8.76039
▁ben	-8.76449
ighet	-8.76504
▁opprinnelig	-8.76534
fly	-8.76567
▁mann	-8.77338
ninger	-8.77583
min	-8.7775
▁italia	-8.77977
mor	-8.7802
▁etablert	-8.78195
▁fo	-8.78233
▁kontroll	-8.78576
▁car	-8.78624
▁stat	-8.78624
▁28	-8.78635
▁spesiel	-8.78682
▁ch	-8.78695
▁sangen	-8.78708
▁omkring	-8.78788
▁henne	-8.7882
plass	-8.79191
▁22	-8.79417
mon	-8.79444
lø	-8.79489
▁bas	-8.79579
fa	-8.79635
▁finne	-8.79755
▁sy	-8.79783
▁kalles	-8.79925
▁hjem	-8.79972
▁kal	-8.8
▁stein	-8.80044
▁vise	-8.80055
hi	-8.80105
▁styre	-8.80266
▁ja	-8.80341
▁innenfor	-8.80539
▁jord	-8.80545
sten	-8.80729
▁hav	-8.80812
▁viser	-8.80841
ator	-8.80902
▁sto	-8.81075
▁stort	-8.81187
▁fransk	-8.81207
▁nummer	-8.81212
▁natur	-8.81229
▁får	-8.81232
▁personer	-8.81244
ret	-8.81534
ci	-8.81554
▁sv	-8.81655
▁svensk	-8.82029
▁con	-8.82515
▁midt	-8.82581
▁ur	-8.82627
føring	-8.8269
▁bety	-8.82758
▁liten	-8.82909
▁hovedsak	-8.83006
landet	-8.83053
mmer	-8.83203
▁funnet	-8.83266
▁mennesker	-8.83318
▁dikt	-8.83364
▁utenfor	-8.83533
▁plate	-8.83608
▁familien	-8.83666
kel	-8.84056
▁menn	-8.84318
▁gjort	-8.84388
▁art	-8.84453
▁york	-8.84709
▁2012	-8.84719
▁nok	-8.84817
▁paris	-8.84982
▁godt	-8.85034
bb	-8.85107
▁bort	-8.85161
▁karl	-8.85286
▁produksjon	-8.85374
met	-8.85402
▁utviklet	-8.85727
▁kirken	-8.85922
▁ed	-8.86174
▁fremst	-8.86338
heten	-8.86448
kan	-8.86456
▁forbindelse	-8.86468
▁én	-8.86494
▁grav	-8.86521
▁lange	-8.87092
▁divisjon	-8.87097
laget	-8.87135
lat	-8.87161
▁com	-8.87185
mm	-8.87395
▁fått	-8.87437
▁bygge	-8.87475
tan	-8.87681
▁står	-8.87729
▁1960	-8.87818
▁moderne	-8.87834
rik	-8.87839
kle	-8.87937
▁universitet	-8.88035
▁rom	-8.88063
handling	-8.88124
▁farge	-8.88185
▁opprettet	-8.8819
▁rolle	-8.88208
▁ledet	-8.88219
ou	-8.88343
▁vo	-8.88433
▁familie	-8.8848
ley	-8.88524
menn	-8.88589
lsen	-8.88591
van	-8.88743
▁krig	-8.88826
▁nesten	-8.8884
ow	-8.8891
▁aktiv	-8.89227
▁best	-8.89246
▁fu	-8.89386
▁periode	-8.89596
ac	-8.89619
bok	-8.89626
rø	-8.89638
and	-8.89933
▁stats	-8.89937
ksjon	-8.90121
ys	-8.90154
vann	-8.90193
▁keiser	-8.90257
ya	-8.90267
▁internasjonale	-8.90294
ede	-8.9036
▁roman	-8.9043
▁stil	-8.90434
▁bruker	-8.90466
▁fred	-8.90665
▁bred	-8.90701
▁kor	-8.909
▁opera	-8.90976
▁russland	-8.91003
▁mu	-8.91003
burg	-8.91243
▁gr	-8.9135
▁militær	-8.91473
▁luft	-8.9151
▁sosial	-8.91513
ica	-8.91535
leder	-8.91576
▁berg	-8.91613
▁spor	-8.91636
▁forsøk	-8.91727
▁krigs	-8.91915
▁1994	-8.9194
▁full	-8.91958
▁staten	-8.92014
ald	-8.92107
▁elven	-8.92111
kker	-8.92142
så	-8.92175
▁fl	-8.92178
dom	-8.92179
▁skolen	-8.92223
▁regjeringen	-8.92291
▁radio	-8.92299
▁1996	-8.9241
mål	-8.92476
▁svenske	-8.92519
sch	-8.92596
ister	-8.92642
▁valg	-8.92648
iker	-8.92779
▁gå	-8.92917
▁dannet	-8.93114
▁medlemmer	-8.93134
vel	-8.93208
stasjon	-8.93227
▁dess	-8.93237
▁datter	-8.93351
▁kvinner	-8.93361
▁kvinne	-8.93389
▁sand	-8.93452
gl	-8.9375
▁sal	-8.93799
ps	-8.93829
▁1984	-8.93831
▁serie	-8.93862
▁kl	-8.93976
▁økonomisk	-8.94105
▁barne	-8.94113
▁arter	-8.94213
yn	-8.94423
tiske	-8.94466
▁bro	-8.94551
▁on	-8.94564
▁ku	-8.94765
▁såkalt	-8.9479
3	-8.94855
▁hva	-8.94977
ds	-8.95001
▁egne	-8.95042
▁tu	-8.95056
▁bal	-8.95349
bane	-8.95517
▁rød	-8.95663
tar	-8.95747
heim	-8.95824
▁litt	-8.96032
▁minne	-8.96044
▁motor	-8.96165
▁sentrum	-8.96246
▁følge	-8.96249
▁mari	-8.96272
borg	-8.96312
▁bru	-8.96439
▁india	-8.96514
led	-8.96773
▁enkelte	-8.96869
▁27	-8.9688
▁gav	-8.96942
▁29	-8.96946
▁skade	-8.97303
este	-8.97354
ale	-8.97434
▁26	-8.97545
▁hy	-8.97649
▁afrika	-8.97708
а	-8.97715
lan	-8.97768
▁lav	-8.97779
her	-8.97826
ug	-8.97833
▁arbeider	-8.9791
▁kilometer	-8.98218
vei	-8.98262
▁arbeids	-8.983
▁hol	-8.98302
▁50	-8.98511
▁folk	-8.98532
▁bor	-8.98608
su	-8.98612
▁tap	-8.98642
▁jeg	-8.98658
▁delt	-8.98738
ki	-8.98938
▁historisk	-8.98981
▁gul	-8.98997
▁liste	-8.99081
ó	-8.99097
▁mag	-8.99113
▁skog	-8.99124
sson	-8.9915
gre	-8.99198
tion	-8.99217
▁direkte	-8.9922
▁omtrent	-8.9922
tz	-8.99475
▁tur	-8.99535
▁tjeneste	-8.99588
råd	-8.99717
ive	-8.99718
▁industri	-8.99912
samling	-8.99919
▁verk	-9.00065
isme	-9.00145
▁1998	-9.0024
port	-9.0024
ab	-9.00325
▁skuespiller	-9.00341
legg	-9.0035
du	-9.00437
▁fant	-9.00454
ologi	-9.00467
▁pan	-9.00496
gh	-9.00583
▁paul	-9.00628
▁betydning	-9.00744
▁hevde	-9.00751
▁begynnelsen	-9.00754
▁bestemt	-9.00763
stilt	-9.00764
▁viktigste	-9.00813
skje	-9.00816
▁danske	-9.00895
▁nett	-9.00991
▁sølv	-9.01254
▁1997	-9.01261
▁professor	-9.01336
▁produsert	-9.01379
▁felles	-9.01394
▁ferdig	-9.01417
▁valgt	-9.01505
isere	-9.01539
▁val	-9.01668
▁slått	-9.01733
▁amerika	-9.0177
▁århundre	-9.01772
▁minst	-9.01896
▁slo	-9.01971
kor	-9.02066
stående	-9.02177
▁enkelt	-9.02193
▁japan	-9.02353
▁sang	-9.02418
ph	-9.02444
▁riks	-9.02559
▁aldri	-9.02674
▁ag	-9.02733
▁drept	-9.02811
▁biskop	-9.0295
▁angrep	-9.03049
lys	-9.03098
▁åpnet	-9.03181
my	-9.03476
che	-9.03637
skip	-9.03681
mat	-9.03703
vær	-9.03712
bil	-9.03744
▁gjør	-9.03854
▁inkludert	-9.0386
▁university	-9.03862
ket	-9.03988
bre	-9.0409
▁hjemme	-9.0428
ding	-9.04346
iet	-9.04371
▁engelske	-9.04448
kast	-9.04456
▁følgende	-9.04494
elsen	-9.04609
▁havn	-9.04692
▁kongen	-9.04736
og	-9.04759
▁resultat	-9.04806
▁christian	-9.04845
▁ke	-9.04873
▁regnes	-9.04879
▁gal	-9.05025
▁partiet	-9.05073
▁politiske	-9.05147
▁kur	-9.05244
▁åtte	-9.05305
rat	-9.05341
elt	-9.0537
han	-9.05435
▁klar	-9.05437
skole	-9.05458
leg	-9.05474
ater	-9.05496
far	-9.05513
▁park	-9.05769
▁høyre	-9.05846
▁steder	-9.05859
▁gra	-9.05874
▁album	-9.05914
▁1991	-9.05994
▁mil	-9.06252
sett	-9.06255
▁reist	-9.06274
▁fylke	-9.063
▁drive	-9.06305
▁betydelig	-9.06535
▁hjelp	-9.06656
▁interesse	-9.0668
kom	-9.07302
▁hal	-9.07398
isering	-9.07466
▁31	-9.07551
▁1992	-9.07632
lene	-9.07699
▁skip	-9.07873
▁kamper	-9.07934
ving	-9.08144
▁henhold	-9.08204
▁lyd	-9.08274
val	-9.08344
▁bur	-9.08347
▁berlin	-9.08396
▁katolske	-9.08483
▁van	-9.08606
▁1995	-9.08736
▁finalen	-9.088
▁fiske	-9.08816
▁lands	-9.08955
▁tross	-9.08993
▁peter	-9.09009
▁sl	-9.09119
▁je	-9.09199
▁brasil	-9.09287
ris	-9.09301
tro	-9.09356
▁organ	-9.09388
nder	-9.09401
dyr	-9.09442
▁våpen	-9.09474
ju	-9.09513
bro	-9.09582
▁høyeste	-9.09748
sund	-9.09773
▁jernbane	-9.10049
▁arbeid	-9.10427
▁befolkningen	-9.10464
dring	-9.10525
▁knyttet	-9.10733
sky	-9.10748
ien	-9.1075
vet	-9.10754
▁lik	-9.10763
▁ett	-9.10843
▁tr	-9.10879
dy	-9.10882
▁komme	-9.11012
▁sanger	-9.11154
▁bedre	-9.1118
gel	-9.11183
ill	-9.11301
▁eget	-9.11344
banen	-9.11432
▁anti	-9.11548
fl	-9.11568
▁teater	-9.11571
▁40	-9.11624
folk	-9.1166
▁op	-9.11729
▁sm	-9.11755
▁bygd	-9.11798
▁trykk	-9.11942
▁topp	-9.11984
▁sen	-9.12048
▁via	-9.12076
▁william	-9.12107
▁måte	-9.12134
ai	-9.12146
▁we	-9.12195
▁benyttet	-9.12342
øya	-9.12377
▁nordlige	-9.12378
▁hvis	-9.12392
▁slaget	-9.12411
forening	-9.12487
unn	-9.12517
▁th	-9.12545
▁veien	-9.12643
▁2014	-9.12689
▁poeng	-9.12708
spiller	-9.12721
▁orden	-9.13073
bl	-9.13103
▁hverandre	-9.1326
▁mester	-9.13271
▁politiker	-9.13292
▁tildelt	-9.13306
▁europeisk	-9.13374
anger	-9.13549
▁grunnlagt	-9.13668
▁holde	-9.13707
▁mac	-9.13769
▁1989	-9.13847
▁1920	-9.13855
▁johan	-9.13864
▁herre	-9.13872
▁200	-9.14167
ich	-9.14289
sj	-9.1442
▁kampen	-9.14447
▁likevel	-9.1446
▁kn	-9.14479
▁endt	-9.14558
▁ø	-9.14567
▁pri	-9.14567
▁tak	-9.14599
ung	-9.14777
▁vin	-9.14806
▁lagt	-9.14873
▁2013	-9.15027
▁post	-9.15214
▁sesong	-9.15276
setning	-9.15289
▁stemme	-9.15473
▁bror	-9.15658
ation	-9.1571
departementet	-9.15839
året	-9.15892
▁sc	-9.16195
▁arrangert	-9.16201
6	-9.16377
▁press	-9.164
▁roma	-9.16446
▁makt	-9.16502
ight	-9.16528
▁eldste	-9.168
▁henrik	-9.16823
▁resten	-9.16916
gje	-9.16956
kant	-9.17129
svis	-9.1736
fall	-9.17472
▁indre	-9.17504
fjorden	-9.1752
▁band	-9.17535
liggende	-9.17598
plan	-9.17653
▁seier	-9.1767
stat	-9.17892
▁prosent	-9.18014
▁1900	-9.18024
▁1950	-9.18025
rom	-9.1812
▁finland	-9.18184
▁tom	-9.18185
▁politisk	-9.18193
▁mel	-9.18229
fi	-9.18304
har	-9.18634
▁robert	-9.1865
mark	-9.18824
▁legge	-9.1886
▁hånd	-9.18955
▁brun	-9.18999
▁eu	-9.19073
▁col	-9.19106
▁miljø	-9.19164
▁suksess	-9.19231
▁vanskelig	-9.19232
▁ordet	-9.19232
▁1988	-9.1924
q	-9.19256
▁menneske	-9.19318
▁fin	-9.19428
nings	-9.19456
▁blå	-9.1948
lå	-9.1959
▁ac	-9.19625
▁ber	-9.19634
▁handels	-9.19697
▁britisk	-9.19761
lle	-9.19782
lom	-9.1983
▁københavn	-9.19848
festival	-9.1985
▁dis	-9.19851
▁gansk	-9.19863
ide	-9.19911
▁samarbeid	-9.1993
ip	-9.20049
bygd	-9.2007
▁samle	-9.20113
▁gate	-9.20151
▁500	-9.20157
▁elva	-9.20163
▁meste	-9.20198
hr	-9.20302
tjeneste	-9.20377
▁trondheim	-9.2047
▁1800	-9.20558
▁tittelen	-9.20594
syn	-9.20595
sjøen	-9.20622
▁nrk	-9.20664
▁seil	-9.20738
▁styrke	-9.20754
jer	-9.20789
▁sak	-9.20854
▁drev	-9.20862
ford	-9.20868
50	-9.20887
pol	-9.20926
▁lokale	-9.21014
det	-9.21073
messig	-9.21097
▁1945	-9.21102
▁sterkt	-9.21215
▁kron	-9.21217
▁dager	-9.21296
ice	-9.2131
▁litteratur	-9.21347
▁tegn	-9.21574
system	-9.21597
▁nordøst	-9.21622
virke	-9.21659
▁sovjetunionen	-9.21724
▁venstre	-9.21724
▁1982	-9.21732
▁ring	-9.21778
asjonen	-9.21974
▁bank	-9.21983
▁konsert	-9.22012
▁kraft	-9.22096
▁wi	-9.22224
▁rock	-9.22348
selskap	-9.22349
▁lege	-9.2235
ach	-9.22365
lik	-9.22417
▁lett	-9.22419
nntil	-9.22531
▁regionen	-9.22569
søk	-9.22601
▁nest	-9.22621
ski	-9.22683
ana	-9.22688
▁ob	-9.22724
mel	-9.22728
▁høsten	-9.22746
▁neste	-9.22759
tes	-9.22781
▁mon	-9.22859
▁offentlig	-9.22874
▁kul	-9.22902
▁fall	-9.22902
punkt	-9.22939
▁fre	-9.22992
▁1993	-9.23001
▁1972	-9.23006
bygg	-9.23051
▁pris	-9.2309
▁dro	-9.23149
båt	-9.23171
▁borger	-9.23361
▁sørøst	-9.2342
gitt	-9.23452
▁tekst	-9.23475
gjør	-9.23556
▁1940	-9.23651
▁mark	-9.23655
▁inter	-9.23667
grad	-9.23817
est	-9.2382
▁sta	-9.2385
ære	-9.23903
vern	-9.23925
▁løp	-9.24024
▁slag	-9.24037
▁von	-9.24043
▁cor	-9.24116
▁bruke	-9.24122
▁råd	-9.24125
fjord	-9.24137
▁anders	-9.24168
▁hvilke	-9.2428
▁lærer	-9.24287
stan	-9.24341
▁stasjon	-9.24356
▁kraftig	-9.2456
ji	-9.24583
▁helse	-9.24596
løs	-9.24644
we	-9.24877
▁chi	-9.24897
▁dom	-9.24901
▁eldre	-9.24974
00	-9.25058
▁områder	-9.25085
▁utgjør	-9.25138
familien	-9.25183
▁ev	-9.25209
▁gar	-9.25229
▁samling	-9.25426
▁møte	-9.25474
lev	-9.25501
pl	-9.25524
▁militære	-9.25575
mester	-9.25666
30	-9.25908
krigen	-9.25926
▁asia	-9.25977
▁reise	-9.25991
▁viss	-9.26084
▁unge	-9.26188
▁begynne	-9.26226
▁spania	-9.26241
dde	-9.26299
lei	-9.2634
▁personlig	-9.26381
▁livet	-9.2639
▁para	-9.26455
▁cla	-9.2656
øl	-9.26593
senter	-9.26648
zi	-9.26702
▁ry	-9.26723
▁høyde	-9.26844
asje	-9.269
▁hvite	-9.26928
▁måneder	-9.26971
tel	-9.26978
▁nu	-9.27067
▁leker	-9.27075
kter	-9.27115
stilling	-9.27178
▁linje	-9.2719
▁tilhører	-9.273
▁renn	-9.27477
▁befolkning	-9.27488
▁xi	-9.27526
▁dårlig	-9.2757
▁1979	-9.27579
▁1964	-9.27582
▁lille	-9.27659
▁bre	-9.27683
▁romerske	-9.27758
▁strøm	-9.2796
▁1987	-9.28251
▁energi	-9.28318
▁regel	-9.28325
▁område	-9.28403
istisk	-9.28442
veien	-9.28443
▁oppdaget	-9.285
▁lenger	-9.28539
▁grensen	-9.28547
res	-9.28548
▁fange	-9.28625
▁60	-9.28678
sak	-9.28723
▁stjerne	-9.28807
▁opprør	-9.28916
▁kardinal	-9.28916
▁etterhvert	-9.28918
▁stavanger	-9.28923
▁1971	-9.28924
▁lin	-9.28965
▁dansk	-9.28981
forbund	-9.29018
skog	-9.29145
cu	-9.29172
kamp	-9.29291
▁lær	-9.29292
▁lenge	-9.29386
▁bør	-9.29439
▁ønsket	-9.29489
▁1968	-9.2961
▁stadig	-9.29661
▁system	-9.29676
blad	-9.29683
jen	-9.29802
20	-9.2982
handler	-9.2989
▁mm	-9.2994
med	-9.2995
60	-9.30013
▁styrker	-9.30159
▁klarte	-9.30286
▁1985	-9.3029
▁jobb	-9.30322
kal	-9.30441
▁verdi	-9.30501
gruppen	-9.3052
▁eid	-9.3067
▁alder	-9.30691
▁løs	-9.30782
40	-9.30817
▁kje	-9.30842
rus	-9.30914
▁natt	-9.30921
▁stockholm	-9.30971
▁thomas	-9.30971
▁mont	-9.31005
▁kjøpt	-9.31008
▁svart	-9.31029
▁epi	-9.31059
▁ly	-9.31064
▁svarte	-9.31065
▁omfatter	-9.31082
▁miste	-9.3109
▁kla	-9.31121
▁versjon	-9.31156
▁viste	-9.3117
▁dyr	-9.3131
▁høyere	-9.31342
▁boken	-9.31375
fra	-9.31409
65	-9.31427
▁erik	-9.31472
▁politi	-9.31532
▁utgave	-9.31541
▁mente	-9.31546
▁syv	-9.31587
10	-9.31602
▁don	-9.31606
▁vestlig	-9.3166
▁voksne	-9.31666
▁dronning	-9.31669
▁1977	-9.31677
▁pr	-9.31686
regionen	-9.31715
bra	-9.31728
▁vekt	-9.31745
xi	-9.31869
▁brukte	-9.31966
▁valgte	-9.3209
don	-9.32121
▁krav	-9.32143
▁virke	-9.32175
▁skje	-9.32205
akt	-9.32223
gar	-9.32308
▁slekt	-9.32325
brudd	-9.32458
▁kunstner	-9.32516
merke	-9.33005
▁kle	-9.33041
и	-9.33069
▁2015	-9.33091
▁åpen	-9.33215
▁forsvar	-9.33265
▁dy	-9.33354
▁spe	-9.33399
ida	-9.33442
sjef	-9.33602
ay	-9.33654
film	-9.3366
▁rø	-9.33673
▁nordvest	-9.33821
dømme	-9.33831
drag	-9.33884
lokk	-9.33952
▁stiftet	-9.33974
▁enten	-9.34272
▁tanke	-9.34307
▁sannsynlig	-9.34492
▁punkt	-9.34573
kraft	-9.34644
▁she	-9.3465
▁bjørn	-9.34681
▁hopp	-9.34714
▁mulighet	-9.34737
red	-9.34825
75	-9.34853
log	-9.34885
▁ex	-9.34952
▁utvikling	-9.3496
▁skrive	-9.3503
▁politikk	-9.35072
▁canada	-9.35215
▁1981	-9.35219
▁olav	-9.35411
▁heller	-9.35464
huset	-9.35586
kar	-9.35795
bygning	-9.35925
▁møtte	-9.35934
▁østerrike	-9.35938
▁1976	-9.35944
▁1974	-9.35945
▁1986	-9.35949
▁1930	-9.35956
navn	-9.36003
▁david	-9.36096
▁prest	-9.36143
▁hær	-9.36203
istiske	-9.36352
▁qu	-9.36372
▁arten	-9.36385
▁pol	-9.36547
stri	-9.36582
▁bill	-9.36852
▁høre	-9.36981
▁sig	-9.37108
▁israel	-9.37176
valg	-9.37257
▁mod	-9.37315
▁japansk	-9.37321
▁samlet	-9.37396
▁dra	-9.37406
▁drift	-9.37416
▁kv	-9.37535
▁midten	-9.37598
områder	-9.3769
▁jan	-9.37735
pro	-9.37808
▁båt	-9.37911
▁stra	-9.37944
stra	-9.37969
▁tal	-9.38038
▁oppkalt	-9.38146
▁1973	-9.3815
pris	-9.38196
▁moh	-9.38198
styrke	-9.38297
▁størrelse	-9.38309
full	-9.38309
gård	-9.38356
▁års	-9.38429
aksjon	-9.38454
▁leve	-9.3852
▁ul	-9.38545
▁tradisjon	-9.38683
grense	-9.38711
▁gen	-9.38781
▁merke	-9.38876
▁bronse	-9.3889
▁kroppen	-9.38893
▁1967	-9.38902
of	-9.38973
▁gran	-9.391
▁sørlige	-9.3914
▁raskt	-9.39382
▁pave	-9.39418
ark	-9.39437
▁ren	-9.39445
lement	-9.39445
gan	-9.39481
fon	-9.39517
▁nådd	-9.39572
▁1948	-9.39652
▁egentlig	-9.39663
▁carl	-9.39677
▁island	-9.39699
navnet	-9.39739
▁war	-9.39758
▁kors	-9.39865
▁gård	-9.39875
▁vol	-9.39912
▁hit	-9.39938
standen	-9.39948
nis	-9.39999
▁funksjon	-9.40059
▁sju	-9.40272
hy	-9.40326
prosess	-9.40396
▁1983	-9.40398
▁ska	-9.40578
▁iii	-9.40635
ismen	-9.40691
▁ledelse	-9.40753
▁motstand	-9.40915
felt	-9.41002
▁mc	-9.4107
▁ball	-9.41129
▁regjering	-9.41146
▁australia	-9.41162
heter	-9.41178
▁1975	-9.4118
▁sentrale	-9.41197
byen	-9.41227
itz	-9.41235
lagt	-9.41294
språk	-9.41354
▁sommeren	-9.41446
▁avdeling	-9.41603
▁solgt	-9.41611
styre	-9.41673
▁bøker	-9.41728
kning	-9.41771
ons	-9.41772
▁ii	-9.41792
middel	-9.41803
▁fil	-9.41877
anske	-9.41911
virkning	-9.41943
▁statsminister	-9.41943
▁gode	-9.41945
▁grand	-9.42008
hl	-9.4201
▁sammenheng	-9.42012
asjoner	-9.4202
▁sø	-9.42043
▁sogn	-9.4217
eier	-9.42235
▁offisiell	-9.4227
bilde	-9.42276
▁mur	-9.42281
▁satte	-9.4239
▁delta	-9.42503
▁totalt	-9.42554
vende	-9.42572
▁olje	-9.42585
▁utviklingen	-9.42652
iti	-9.42707
▁stortinget	-9.42708
oc	-9.42783
king	-9.429
verket	-9.42963
▁tapte	-9.43038
evne	-9.43138
fri	-9.43161
vil	-9.43312
▁port	-9.43409
▁nederlandsk	-9.4345
▁hvit	-9.43465
▁areal	-9.43502
▁standard	-9.43512
eks	-9.43519
▁bri	-9.4352
kla	-9.43555
▁skipet	-9.43597
ini	-9.43598
▁regn	-9.43611
trykk	-9.43657
▁finn	-9.43684
produksjon	-9.43715
tsj	-9.43754
▁studie	-9.43839
▁overtok	-9.43859
▁slike	-9.43975
lla	-9.43996
▁uavhengig	-9.44018
gne	-9.44113
rud	-9.44181
▁fjerde	-9.44184
▁rike	-9.44207
ider	-9.44267
sekretær	-9.44275
▁you	-9.44366
ah	-9.44388
▁sterk	-9.44388
▁havet	-9.44426
▁naturlig	-9.44471
▁selskap	-9.44496
▁turn	-9.4455
ath	-9.44672
▁brø	-9.44738
olog	-9.44839
▁air	-9.44873
▁data	-9.44959
▁1952	-9.45083
▁shi	-9.45151
lon	-9.45197
heng	-9.45249
▁kroner	-9.45259
▁fot	-9.45353
fest	-9.45443
▁70	-9.45447
66	-9.45548
▁fyr	-9.4564
▁jon	-9.45679
stø	-9.45802
ika	-9.45839
▁1936	-9.45881
▁bodde	-9.45933
chi	-9.45975
▁journalist	-9.46112
▁feil	-9.46118
▁kjempe	-9.46124
▁80	-9.46215
område	-9.46415
trop	-9.46438
▁lind	-9.46519
mannen	-9.46584
▁stod	-9.46693
▁city	-9.46748
tall	-9.46779
▁posisjon	-9.47079
▁studerte	-9.47102
▁eier	-9.47173
▁karriere	-9.47185
▁klasse	-9.47372
medalje	-9.4743
▁fylkesvei	-9.47499
▁endret	-9.47551
▁alltid	-9.47551
▁forskning	-9.4756
▁ven	-9.47666
ola	-9.47747
retning	-9.47768
▁fulgte	-9.47829
hav	-9.47865
▁sha	-9.48065
▁eli	-9.48084
▁son	-9.48105
inne	-9.48115
▁spesial	-9.48267
▁lengre	-9.48322
bygging	-9.48341
▁nederland	-9.48358
ino	-9.48365
▁george	-9.48422
▁tradisjonell	-9.48438
▁grenser	-9.4847
▁slekten	-9.48515
▁fer	-9.48571
▁ter	-9.48578
▁faren	-9.4862
▁vår	-9.48691
▁skjer	-9.48695
sette	-9.48777
▁korea	-9.48811
▁bolig	-9.48819
▁skape	-9.48857
arbeid	-9.48866
▁retning	-9.48934
pu	-9.49098
▁gren	-9.49116
▁individ	-9.49134
▁kontakt	-9.49138
▁1963	-9.49147
▁vokste	-9.49157
plassen	-9.4921
bin	-9.49213
▁jern	-9.4926
idae	-9.4931
▁trolig	-9.49363
▁høyt	-9.49379
alt	-9.49563
nor	-9.49581
▁grense	-9.4959
fjell	-9.49628
ros	-9.49699
styrt	-9.49804
▁andreplass	-9.49829
▁trans	-9.49913
▁hertug	-9.49971
▁lei	-9.49971
▁1978	-9.4998
▁2016	-9.49985
sal	-9.50018
▁blod	-9.5006
▁historien	-9.50164
▁ve	-9.50202
ap	-9.50217
▁us	-9.50221
▁ledd	-9.50248
▁plante	-9.50273
▁plassering	-9.5035
▁transport	-9.50386
▁opprinnelige	-9.50427
▁fla	-9.50513
▁forsøkt	-9.50727
▁finsk	-9.50733
▁produsere	-9.50808
▁skottland	-9.50808
е	-9.50808
▁syd	-9.50816
▁sikre	-9.50817
▁oppført	-9.50818
80	-9.50837
▁blad	-9.5092
▁ap	-9.50922
▁kysten	-9.50934
▁region	-9.51107
▁gården	-9.51143
stor	-9.51152
cy	-9.51158
▁rev	-9.51237
▁irland	-9.51259
▁gro	-9.51335
mal	-9.51349
44	-9.51377
loven	-9.51397
▁egypt	-9.5156
▁soldater	-9.5158
▁middelalderen	-9.51629
▁variant	-9.51717
▁james	-9.51722
▁fordelt	-9.51735
▁formel	-9.51826
▁johannes	-9.51835
▁nabo	-9.51838
▁ky	-9.51867
▁au	-9.51944
strøm	-9.52026
55	-9.52037
▁sende	-9.52085
rum	-9.52145
▁400	-9.52155
tog	-9.52208
fag	-9.52221
▁tru	-9.5227
▁artene	-9.52304
bor	-9.52357
pet	-9.52417
▁hæren	-9.52468
о	-9.52506
▁strid	-9.52548
▁martin	-9.52583
lov	-9.52617
▁skips	-9.52634
fer	-9.52684
eres	-9.52832
gul	-9.52841
▁hall	-9.52945
▁prisen	-9.52983
▁representerte	-9.53032
▁regi	-9.531
▁ting	-9.53111
▁erstattet	-9.53121
▁museum	-9.5314
▁tall	-9.53181
nu	-9.53301
▁skille	-9.53348
▁kristne	-9.53373
▁maria	-9.53375
▁følger	-9.53426
▁cm	-9.53479
▁artist	-9.53491
47	-9.53526
▁tung	-9.53584
▁kost	-9.5365
▁ære	-9.53685
▁redaktør	-9.53733
ib	-9.53799
▁sub	-9.53909
68	-9.53993
▁kol	-9.54039
▁regne	-9.54048
▁kyst	-9.5408
old	-9.54116
▁za	-9.54125
ör	-9.54209
▁latin	-9.54235
▁symbol	-9.54241
▁øverst	-9.54242
▁økonomi	-9.54245
liv	-9.54269
▁femte	-9.54286
▁huset	-9.54293
lser	-9.54357
▁polen	-9.54385
▁distrikt	-9.54429
▁hodet	-9.5446
▁skrift	-9.54533
▁super	-9.54626
vitenskap	-9.54642
▁dal	-9.54749
▁stand	-9.54762
▁flo	-9.54789
ritt	-9.54864
▁årlig	-9.54975
værende	-9.54995
▁holder	-9.54997
▁lars	-9.5502
området	-9.55044
▁forsknings	-9.55078
myndighet	-9.55113
▁nødvendig	-9.55118
▁tilsvarende	-9.55119
▁arm	-9.55219
▁pra	-9.55243
▁arkitekt	-9.55265
▁maskin	-9.55296
▁enhet	-9.55318
vid	-9.55545
▁musiker	-9.55549
▁tett	-9.55606
▁les	-9.55754
▁trak	-9.55825
▁vist	-9.55847
▁fjorden	-9.55876
▁ytterligere	-9.56003
▁1941	-9.56017
▁brann	-9.56029
▁sørvest	-9.56041
▁los	-9.56077
spekt	-9.56257
sikt	-9.5626
▁br	-9.56376
▁nivå	-9.56418
ferd	-9.56446
▁rang	-9.56457
band	-9.56561
▁ek	-9.56622
formet	-9.56653
rike	-9.5675
▁georg	-9.56791
ish	-9.56866
▁vold	-9.56879
▁friidrett	-9.56896
▁skjedde	-9.5691
▁sommerfugl	-9.56913
▁informasjon	-9.56917
▁1965	-9.56919
▁fe	-9.57049
▁strekke	-9.57091
▁skilt	-9.57171
▁marine	-9.57274
pass	-9.57343
▁west	-9.57438
▁daglig	-9.5752
▁smal	-9.57536
minister	-9.57555
▁felt	-9.57823
gjorde	-9.57916
▁stu	-9.57938
▁falt	-9.57962
▁real	-9.58042
▁reform	-9.58057
senteret	-9.58065
▁vunnet	-9.58138
▁hø	-9.58165
▁saken	-9.58286
på	-9.58306
ille	-9.58334
selskapet	-9.58358
gler	-9.58393
ukket	-9.58526
▁pl	-9.586
▁time	-9.58666
▁hår	-9.58683
▁utbredt	-9.58706
▁1928	-9.58717
▁1924	-9.58717
72	-9.58725
▁debuterte	-9.58735
▁union	-9.58805
▁snar	-9.58839
▁nevnt	-9.58846
iner	-9.5896
▁ekspedisjon	-9.59042
▁begrepet	-9.59075
▁len	-9.59078
last	-9.59326
▁dyp	-9.59328
▁spill	-9.59361
lia	-9.59365
nivå	-9.59375
▁fest	-9.59381
▁delvis	-9.59403
eng	-9.5942
▁organisasjon	-9.59435
tegn	-9.59452
jel	-9.59513
que	-9.59518
▁program	-9.5957
▁300	-9.59574
▁religion	-9.59624
▁omfattende	-9.59634
▁1939	-9.59634
▁1956	-9.59637
▁mus	-9.59721
▁ytre	-9.59773
dagen	-9.59791
uc	-9.59845
▁bevis	-9.59894
trekning	-9.59901
oner	-9.59954
els	-9.59987
ix	-9.60024
organisasjon	-9.60128
systemet	-9.60194
▁dia	-9.6026
▁teksten	-9.60287
▁spre	-9.60326
64	-9.60344
▁pinyin	-9.6055
▁united	-9.6055
▁fremdeles	-9.6055
▁2017	-9.60565
▁1969	-9.60565
▁virksomhet	-9.60566
▁sivil	-9.60593
zhou	-9.60596
▁can	-9.60607
▁ci	-9.60617
▁bygningen	-9.60641
▁vitenskapelig	-9.60645
▁leg	-9.60713
zo	-9.60741
▁kre	-9.60769
dra	-9.60801
ås	-9.60818
▁bane	-9.60831
▁forfatteren	-9.60847
▁klart	-9.60852
cc	-9.60866
▁un	-9.6103
ub	-9.61095
flate	-9.61098
▁modell	-9.61117
jern	-9.61128
▁af	-9.61203
52	-9.61248
spi	-9.61363
▁type	-9.61393
▁frank	-9.61439
▁egg	-9.61441
ign	-9.61442
▁mw	-9.61473
▁fjellet	-9.61474
▁fotballspiller	-9.61515
eringen	-9.6155
▁plassert	-9.61649
ita	-9.61681
sto	-9.61701
gående	-9.61755
▁forteller	-9.6178
all	-9.61839
ringen	-9.61858
age	-9.61894
sam	-9.61996
▁organisasjonen	-9.62106
▁hoff	-9.62161
▁wo	-9.62186
▁karakter	-9.62248
▁stammer	-9.62321
15	-9.62329
▁viktige	-9.62335
▁bern	-9.62355
▁klassisk	-9.62429
▁ordfører	-9.62445
▁innført	-9.62446
▁flagg	-9.6246
▁nåværende	-9.62465
▁holm	-9.62489
▁løv	-9.62499
ari	-9.62623
▁hovedstaden	-9.62636
▁hjelpe	-9.62751
▁operasjon	-9.62763
spor	-9.62834
gangen	-9.6286
▁che	-9.62936
▁uttrykk	-9.6294
metode	-9.62975
riket	-9.63006
▁materiale	-9.63084
▁rollen	-9.63095
våg	-9.63096
▁korte	-9.63098
▁festning	-9.63276
▁svak	-9.63281
the	-9.63308
▁borg	-9.63352
▁skatt	-9.63485
lett	-9.63546
▁rute	-9.6355
ledes	-9.63565
ost	-9.63597
▁q	-9.63633
arbeider	-9.63723
▁kra	-9.63767
▁sluttet	-9.63817
▁bj	-9.63988
grav	-9.64016
▁vik	-9.64054
ins	-9.64068
▁total	-9.64113
samisk	-9.64172
▁ep	-9.64264
▁østlig	-9.64287
folkerepublikken	-9.64342
▁christ	-9.64346
▁omtalt	-9.6438
▁bilde	-9.6438
95	-9.64462
▁fylkes	-9.64556
▁årsak	-9.64585
wi	-9.64643
är	-9.64775
▁char	-9.6478
gift	-9.6483
▁oppgave	-9.64833
▁sette	-9.64881
▁høye	-9.64899
▁sja	-9.6494
▁konkurransen	-9.65012
nett	-9.65018
▁listen	-9.65048
hall	-9.65078
▁grupper	-9.65099
▁bon	-9.65138
skolen	-9.65144
▁sky	-9.65145
lis	-9.65224
▁elv	-9.65234
▁rik	-9.65244
▁akademi	-9.65312
▁jødisk	-9.65313
▁design	-9.65331
▁bakgrunn	-9.65347
▁start	-9.65388
▁pass	-9.65626
qui	-9.6571
▁effekt	-9.65729
løse	-9.65914
industri	-9.65927
▁90	-9.65956
gress	-9.6602
gruppe	-9.66108
▁heter	-9.66111
▁sovjetisk	-9.66171
▁ansatte	-9.66281
▁utdannet	-9.66293
▁passasjer	-9.66293
▁lansert	-9.66296
▁gjennomført	-9.66301
▁sølvmedalje	-9.66308
▁1962	-9.66309
rene	-9.66328
▁sports	-9.66391
øn	-9.66457
▁stoppe	-9.66504
▁athen	-9.66512
▁endelig	-9.66556
▁status	-9.66561
▁tusen	-9.66629
67	-9.66639
grunn	-9.66916
▁not	-9.66982
▁gjelder	-9.67059
▁distriktet	-9.67074
▁tids	-9.6722
rimot	-9.67258
▁jorden	-9.67265
▁representere	-9.67283
▁beijing	-9.67283
▁nærmest	-9.67286
▁bevart	-9.67306
fart	-9.67338
fisk	-9.67358
▁rykke	-9.67363
▁tele	-9.67365
▁maler	-9.67405
▁bosatt	-9.67428
▁filmer	-9.67453
linje	-9.67508
▁overgang	-9.67531
hund	-9.67623
▁fører	-9.67766
▁sveits	-9.67846
våpen	-9.67939
▁gifte	-9.68003
▁behandling	-9.6805
▁bytte	-9.68055
jev	-9.68071
▁vannet	-9.68126
▁kontor	-9.6821
▁røde	-9.68243
▁jobbet	-9.68279
▁original	-9.68283
▁yngre	-9.68284
▁fungere	-9.68288
▁1947	-9.68303
▁musikkalbum	-9.68304
▁charles	-9.6831
elser	-9.68377
ial	-9.68432
▁fordel	-9.68484
▁bygg	-9.68505
77	-9.68662
anlegg	-9.68699
ville	-9.68737
▁åpne	-9.68753
manns	-9.68829
iz	-9.68927
70	-9.68961
kommune	-9.68962
▁direktør	-9.68965
▁rase	-9.68971
musikk	-9.69054
▁bind	-9.69129
▁rad	-9.69137
▁gutt	-9.6918
▁sir	-9.69247
▁student	-9.69251
tus	-9.69278
ð	-9.69293
▁fengsel	-9.69293
▁opprinnelse	-9.69293
▁bronsemedalje	-9.69304
▁dø	-9.69306
▁1961	-9.69308
▁forut	-9.69314
▁1966	-9.69315
▁hul	-9.69514
▁studenter	-9.69636
gal	-9.69654
▁tettsted	-9.69655
midler	-9.6966
elige	-9.69674
▁lære	-9.69694
▁temperatur	-9.69731
lv	-9.69748
▁uker	-9.6978
▁byer	-9.69841
38	-9.69855
▁spa	-9.69971
▁tettstedet	-9.69983
havet	-9.7007
▁sterke	-9.70075
▁øvrig	-9.70313
kapasitet	-9.70316
▁publisert	-9.7032
▁rh	-9.70334
57	-9.70379
aktig	-9.70399
69	-9.70458
ansk	-9.70494
▁mangle	-9.70528
▁hundre	-9.70751
shire	-9.70755
▁populære	-9.70845
parti	-9.70911
▁ramme	-9.7113
hel	-9.71132
▁bygde	-9.71147
ledende	-9.71227
▁variere	-9.71263
è	-9.7132
▁trøndelag	-9.71344
▁hurtig	-9.71345
▁1946	-9.71362
▁1949	-9.71362
53	-9.71393
▁ungdoms	-9.71396
▁aktivitet	-9.71405
ulykke	-9.71431
49	-9.71457
vig	-9.71483
▁tredjeplass	-9.71506
▁stilling	-9.7154
aks	-9.71627
skapet	-9.71654
▁områdene	-9.71763
46	-9.71795
▁etablerte	-9.71809
▁viking	-9.7184
▁grå	-9.71869
▁lengde	-9.71931
emi	-9.71963
▁mengde	-9.72142
▁populær	-9.72203
trekk	-9.72236
▁svar	-9.7232
▁national	-9.72386
▁problem	-9.72414
holm	-9.72416
▁klima	-9.72451
▁thor	-9.72509
▁cu	-9.7254
▁motsetning	-9.72627
▁spesiell	-9.72656
▁mak	-9.72697
86	-9.72703
▁instrument	-9.72723
▁kommet	-9.72729
▁samfunns	-9.7275
▁liga	-9.72751
▁dømt	-9.72757
▁grønn	-9.728
▁anlegget	-9.7286
▁valget	-9.72877
▁rekord	-9.7297
fører	-9.72985
▁ung	-9.73144
rådet	-9.73151
▁veg	-9.73175
▁passer	-9.73225
▁kart	-9.73265
▁jens	-9.73289
▁tog	-9.73314
▁besøk	-9.73331
▁sjef	-9.73336
▁opphav	-9.73434
▁studio	-9.73439
▁1912	-9.73452
▁1958	-9.73454
▁grunnlag	-9.73466
ance	-9.73545
sser	-9.73548
▁pop	-9.73548
▁stasjonen	-9.73549
sol	-9.73582
▁landsbyen	-9.73614
▁livs	-9.73696
▁rask	-9.73707
▁angrepet	-9.73771
▁historiker	-9.73837
▁anne	-9.73873
▁relativt	-9.73914
lte	-9.73932
▁eg	-9.73947
▁privat	-9.73963
gjort	-9.74099
ban	-9.74158
▁ken	-9.74163
bjørn	-9.74223
▁spanske	-9.74246
▁tårn	-9.74259
▁produkt	-9.74303
▁vind	-9.74317
▁gy	-9.74348
▁forsvars	-9.74383
▁selvstendig	-9.74386
alderen	-9.74399
figur	-9.74432
▁moskva	-9.74503
▁betrakte	-9.74503
▁bokstav	-9.74504
▁unntak	-9.74517
▁1957	-9.74521
▁stille	-9.74531
▁utført	-9.74531
▁prins	-9.74597
▁brev	-9.7462
▁revolusjon	-9.74641
▁king	-9.74767
▁bø	-9.74808
dro	-9.74887
klubb	-9.74932
ky	-9.7504
▁utvidet	-9.75066
▁flat	-9.75226
▁trekke	-9.75281
▁het	-9.75552
▁undersøkelse	-9.7558
▁norrøn	-9.75581
▁veldig	-9.7563
▁rot	-9.75648
ram	-9.75667
field	-9.75672
▁tråd	-9.75709
36	-9.75752
▁tolv	-9.75775
90	-9.75811
▁spørsmål	-9.75881
▁jakt	-9.76069
▁star	-9.76093
makt	-9.76147
▁trener	-9.76252
▁single	-9.76333
ura	-9.76347
fartøy	-9.76447
bru	-9.76527
▁internasjonal	-9.76609
ologisk	-9.76664
▁michael	-9.76665
▁tunnel	-9.76665
▁folketelling	-9.76675
▁sj	-9.76684
▁1944	-9.76687
gren	-9.76705
▁ukjent	-9.76717
▁kvart	-9.7681
▁rygg	-9.76847
62	-9.76851
▁fugle	-9.76883
vesen	-9.76889
59	-9.76981
ild	-9.77017
linjen	-9.77017
unk	-9.77028
▁venn	-9.77035
▁banen	-9.77077
kjenne	-9.77204
qu	-9.77226
▁hed	-9.77265
lling	-9.77275
▁nils	-9.77313
serien	-9.7734
ani	-9.77384
ante	-9.77436
bus	-9.77438
ano	-9.77446
kin	-9.77493
▁problemer	-9.77502
skrift	-9.77511
up	-9.77515
▁idretts	-9.77603
▁stamme	-9.77624
▁belgia	-9.77764
▁1955	-9.77786
▁nærheten	-9.77833
lang	-9.77834
▁konkurranse	-9.77913
▁representant	-9.77924
▁offentlige	-9.7797
78	-9.77973
▁slå	-9.78112
▁koloni	-9.78126
▁øyene	-9.78219
gikk	-9.78253
dor	-9.78277
▁offisiel	-9.78386
▁programmet	-9.78397
▁samfunnet	-9.78427
▁vå	-9.7847
ografi	-9.78591
07	-9.7881
dekk	-9.78831
▁skifte	-9.78836
▁formål	-9.78852
с	-9.7887
▁sportsutøver	-9.78875
▁ungarn	-9.78875
▁innsats	-9.78876
▁1959	-9.78893
ão	-9.789
▁kongedømme	-9.78904
48	-9.78992
▁lage	-9.78993
kirke	-9.79286
▁45	-9.79331
▁kontrakt	-9.79434
▁offiser	-9.7947
bas	-9.79488
▁avisen	-9.79515
▁log	-9.79555
organ	-9.7975
▁fabrikk	-9.79882
▁elev	-9.79913
deling	-9.79937
analyse	-9.79966
▁konflikt	-9.79998
▁richard	-9.79998
▁melodi	-9.80004
▁1932	-9.80009
87	-9.80069
▁mørke	-9.80103
▁tidlige	-9.80107
án	-9.80149
▁oversikt	-9.80229
ms	-9.80233
aktiv	-9.80241
▁bevegelse	-9.8027
nik	-9.80402
ios	-9.80403
▁preget	-9.80431
▁adel	-9.80531
63	-9.80667
▁preste	-9.80694
▁kjenn	-9.80714
▁stav	-9.80734
▁gass	-9.80742
▁pen	-9.80749
▁spillet	-9.80756
▁mik	-9.80781
▁sau	-9.8086
▁kommuner	-9.80861
▁sel	-9.80896
▁regjerings	-9.80971
▁utvalg	-9.80992
▁stykke	-9.81102
hal	-9.81131
▁fullført	-9.81137
▁1943	-9.81146
▁gitar	-9.8115
▁1951	-9.81152
▁saint	-9.81158
▁kanon	-9.81194
gy	-9.81242
▁leir	-9.8126
▁fyrst	-9.81302
▁kilder	-9.81327
01	-9.81493
▁trekk	-9.81584
▁tonn	-9.81584
ink	-9.8173
▁danne	-9.81754
off	-9.81756
ij	-9.8176
▁oversatt	-9.81761
cha	-9.81841
ara	-9.819
veg	-9.81915
▁vid	-9.81929
▁romersk	-9.81965
▁old	-9.81969
▁nar	-9.8202
▁økt	-9.82041
ér	-9.82088
ala	-9.82098
kunst	-9.82116
▁klubb	-9.82158
▁trafikk	-9.82245
▁institusjon	-9.82284
▁international	-9.82284
▁profesjonell	-9.82284
▁publikum	-9.82284
▁world	-9.82284
▁fokus	-9.82287
▁typisk	-9.82287
▁spredt	-9.823
▁1918	-9.82301
▁1938	-9.82304
▁sider	-9.82307
▁kristen	-9.82315
▁runde	-9.8237
▁lot	-9.82412
▁nan	-9.82447
▁jean	-9.82558
verdig	-9.82593
▁mas	-9.82637
▁krysse	-9.82652
▁likhet	-9.82696
▁strand	-9.82747
▁sykehus	-9.82749
▁riket	-9.82765
▁systemet	-9.82832
▁skaffe	-9.82867
▁cap	-9.82872
▁ger	-9.82899
51	-9.82986
▁folket	-9.82993
▁tittel	-9.82998
58	-9.83024
▁sent	-9.83055
grupper	-9.83117
tta	-9.83123
ston	-9.83137
▁italiensk	-9.83145
▁ran	-9.83216
09	-9.83267
fas	-9.83271
4	-9.83279
▁harald	-9.83353
▁win	-9.83361
▁univers	-9.83417
▁kvinnelig	-9.83434
н	-9.83434
▁innflytelse	-9.83442
▁kategori	-9.83447
▁ban	-9.83448
▁nærmere	-9.83452
▁avhengig	-9.83517
▁bryst	-9.8352
fang	-9.83521
▁32	-9.83525
▁samfunn	-9.83527
92	-9.83562
▁alvorlig	-9.83597
▁verket	-9.83631
side	-9.83752
▁fir	-9.83934
▁sund	-9.83942
▁prøve	-9.83956
▁båten	-9.83956
▁formann	-9.83988
▁dynastiet	-9.84072
stall	-9.84088
▁synes	-9.84125
ød	-9.84171
61	-9.84244
▁avsluttet	-9.84291
▁utover	-9.84294
▁tour	-9.84364
gard	-9.84472
▁hest	-9.84587
▁teknisk	-9.84624
▁edvard	-9.84624
▁fattig	-9.84624
▁invasjon	-9.84628
▁1937	-9.84632
▁video	-9.84634
▁1953	-9.84643
▁straffe	-9.8465
▁organisert	-9.84667
▁snø	-9.84699
41	-9.84723
farge	-9.84923
▁sil	-9.84954
▁app	-9.84958
▁tema	-9.84964
kjøp	-9.8499
▁jevn	-9.84992
hode	-9.85009
▁kongelige	-9.85014
▁ub	-9.85019
▁struktur	-9.85118
▁hei	-9.85132
▁ordenen	-9.85159
org	-9.85193
▁utdanning	-9.85235
56	-9.85378
rick	-9.85386
cia	-9.85426
▁produsent	-9.85444
▁nr	-9.855
▁metall	-9.85573
▁vekst	-9.85659
maskin	-9.85662
▁dekker	-9.85668
▁nærings	-9.85672
05	-9.85712
▁bla	-9.85729
▁senter	-9.85738
▁lengst	-9.85821
▁fisk	-9.85821
79	-9.85857
▁hud	-9.85912
▁knut	-9.86002
ved	-9.86051
well	-9.86068
▁masse	-9.86105
▁italienske	-9.86124
▁medlemmene	-9.86141
▁beskrevet	-9.86158
klasse	-9.86215
▁hovedstad	-9.86229
▁anna	-9.86297
▁krets	-9.86364
99	-9.86421
dals	-9.8653
▁sønnen	-9.86677
slaget	-9.86685
08	-9.86793
▁mid	-9.86808
▁arve	-9.86829
▁kull	-9.86884
ograf	-9.86914
▁vanlige	-9.86935
▁kilde	-9.86947
▁erklært	-9.87019
▁tilknyttet	-9.87019
▁louis	-9.87019
▁tilgjengelig	-9.87019
▁kritikk	-9.87021
under	-9.87027
▁1942	-9.87031
snitt	-9.87095
komst	-9.87114
▁1700	-9.87119
▁tverr	-9.87174
▁tegnet	-9.8718
▁skapte	-9.87348
stol	-9.87358
stoff	-9.87363
▁elve	-9.87452
▁støttet	-9.87453
▁kam	-9.87577
▁minutter	-9.87611
▁gruve	-9.87626
▁35	-9.87636
▁virkelig	-9.87642
dahl	-9.87683
25	-9.87705
▁tilfeller	-9.87758
▁allierte	-9.87793
▁will	-9.87856
▁benytte	-9.87861
▁sko	-9.87919
alis	-9.87981
gården	-9.88013
▁bad	-9.88096
roll	-9.88123
▁mad	-9.88127
▁måned	-9.88131
▁studier	-9.8816
к	-9.88233
▁generelt	-9.88239
▁frederik	-9.88241
komité	-9.8825
▁1908	-9.88256
▁gjeste	-9.88259
▁ungdom	-9.88278
▁munn	-9.88279
gata	-9.88317
▁slave	-9.88345
▁flykte	-9.88435
▁dyre	-9.88549
strand	-9.8857
partiet	-9.88642
18	-9.88675
▁off	-9.8869
▁amt	-9.88753
88	-9.88838
▁harry	-9.88845
▁bonde	-9.88868
▁salt	-9.88872
▁varme	-9.8892
▁arne	-9.88921
levende	-9.8894
▁danner	-9.8927
fin	-9.89329
album	-9.89338
▁beskytte	-9.89359
historie	-9.8937
▁forskjell	-9.89424
à	-9.89473
▁etterfulgt	-9.89473
▁fullstendig	-9.89473
▁erkebiskop	-9.89473
▁kunnskap	-9.89474
forvaltning	-9.89481
▁1933	-9.89485
▁drama	-9.895
▁skotsk	-9.89502
krets	-9.89521
arbeidet	-9.89559
plasser	-9.8956
▁bosetning	-9.89574
▁vinner	-9.89608
▁aller	-9.89714
delen	-9.89749
▁filosofi	-9.89799
▁maur	-9.8981
▁heng	-9.89828
lly	-9.89848
▁salme	-9.89905
▁toppen	-9.89923
marked	-9.89968
▁tromsø	-9.89977
▁solgte	-9.9
somme	-9.90034
▁tha	-9.90075
▁lignende	-9.90082
▁uttale	-9.90239
▁vær	-9.90286
▁våren	-9.9034
▁solo	-9.90367
▁utøver	-9.90394
▁snakke	-9.904
▁selve	-9.90402
▁ara	-9.90456
▁ført	-9.90502
▁dør	-9.90503
▁test	-9.90514
kanten	-9.90519
▁dekket	-9.90536
▁bakken	-9.9059
trafikk	-9.90632
▁tilknytning	-9.90723
▁vietnam	-9.90723
▁objekt	-9.90723
▁college	-9.90725
▁tydelig	-9.90726
prinsipp	-9.90736
▁jazz	-9.90743
▁black	-9.90772
plate	-9.90871
følgende	-9.90881
▁levde	-9.90883
▁henry	-9.90904
▁komponist	-9.90921
▁sul	-9.90944
wood	-9.90949
mul	-9.91088
▁resultatet	-9.9109
press	-9.91314
▁styrkene	-9.91377
ux	-9.91457
▁utsatt	-9.91512
▁larvene	-9.91527
▁polsk	-9.91594
gram	-9.91798
▁dokumenter	-9.91949
▁administrativ	-9.91989
▁nominert	-9.91989
ressurs	-9.9199
▁oscar	-9.9199
▁nevnes	-9.91991
svik	-9.91992
bø	-9.91996
▁finans	-9.92039
▁hell	-9.92178
rev	-9.92228
▁oppnådd	-9.92228
shi	-9.92233
arter	-9.9225
▁singel	-9.92334
▁bestemme	-9.92409
▁frø	-9.92419
hov	-9.92505
▁lund	-9.92541
04	-9.92564
▁gru	-9.92579
▁omtale	-9.92703
mund	-9.92737
▁ask	-9.92742
▁stol	-9.92813
▁kjøpe	-9.92815
▁dog	-9.92893
stro	-9.92987
▁nm	-9.93003
elva	-9.93047
person	-9.93078
▁myr	-9.93179
▁benyttes	-9.93201
▁installert	-9.93271
▁positiv	-9.93271
▁ekteskap	-9.93272
▁stadion	-9.93274
▁faktisk	-9.93275
▁betegne	-9.9328
vokst	-9.93284
▁skøyte	-9.93285
▁signert	-9.93289
▁län	-9.93314
▁front	-9.93318
▁jordbruk	-9.93325
▁1500	-9.93382
▁latinsk	-9.93403
▁sort	-9.9353
98	-9.9354
▁stoff	-9.93602
▁sti	-9.93652
post	-9.93679
▁føde	-9.93801
▁øke	-9.93871
▁vinge	-9.93913
▁rund	-9.9392
krig	-9.93935
bakk	-9.93941
▁kat	-9.93959
▁stilte	-9.93966
▁ind	-9.9398
▁kreft	-9.94001
▁sier	-9.94104
▁utvikle	-9.94113
▁kap	-9.94252
▁kjønn	-9.94452
▁helge	-9.94487
▁ram	-9.94522
▁ph	-9.94526
▁søke	-9.9456
▁primær	-9.9457
▁hjerte	-9.9457
▁fredrik	-9.94574
▁elektrisk	-9.94574
ity	-9.94588
▁markeds	-9.94607
▁bidro	-9.94609
haug	-9.94638
▁landskapet	-9.94643
▁1600	-9.9465
sammen	-9.94652
▁albert	-9.94703
▁kg	-9.9473
forhold	-9.94783
▁tyskerne	-9.94799
bol	-9.948
▁bispedømme	-9.94816
mus	-9.9489
13	-9.94899
former	-9.94899
kysten	-9.94909
▁teknologi	-9.94937
▁institutt	-9.94992
bevegelsen	-9.95019
ob	-9.95025
yang	-9.95041
vekt	-9.95171
▁kraftverk	-9.95233
ön	-9.95237
krit	-9.95239
lund	-9.95316
19	-9.95404
nom	-9.95429
løpet	-9.956
dia	-9.95611
drift	-9.95621
stått	-9.95625
▁song	-9.95737
82	-9.95769
▁bånd	-9.95803
▁hor	-9.95848
prosjekt	-9.95859
virksomhet	-9.95862
▁regissert	-9.95886
▁smith	-9.95886
▁lufthavn	-9.95895
▁sjelden	-9.9591
▁jarl	-9.95913
▁søster	-9.95936
▁modellen	-9.95969
ordenen	-9.95974
▁avholdt	-9.9599
▁riksvei	-9.96011
▁hellige	-9.96031
▁bol	-9.96212
▁rør	-9.96271
▁grev	-9.96369
ben	-9.96412
▁betegnelsen	-9.96515
▁fro	-9.96618
▁internasjonalt	-9.96662
▁odd	-9.96756
▁kh	-9.96799
▁sag	-9.96832
12	-9.96897
▁kha	-9.969
▁avtale	-9.96902
▁lev	-9.96903
samfunn	-9.9698
▁nordisk	-9.97006
▁mørk	-9.97101
▁gått	-9.972
program	-9.97207
distrikt	-9.97214
▁østerriksk	-9.97219
skjold	-9.9722
▁nektet	-9.9722
▁innspilling	-9.97226
▁1929	-9.9723
møte	-9.97238
▁angeles	-9.97306
▁deltaker	-9.97328
▁aust	-9.97352
▁ansvarlig	-9.97369
5	-9.97542
▁selge	-9.97608
▁ansett	-9.97748
kov	-9.97749
ische	-9.97753
▁anton	-9.97769
▁butikk	-9.97814
▁handel	-9.97815
▁opphold	-9.9789
▁wal	-9.97948
▁jus	-9.97971
▁linjen	-9.97978
▁johann	-9.98018
øst	-9.98033
▁ankom	-9.98051
▁sær	-9.98062
fugl	-9.98132
▁fremme	-9.98166
bakken	-9.98321
▁ya	-9.98335
ula	-9.98357
▁kjøre	-9.9849
mesterskapet	-9.98528
▁eksempler	-9.9857
▁records	-9.9857
▁award	-9.9857
▁øvre	-9.9857
▁jacob	-9.98571
bygningen	-9.98573
▁fysisk	-9.98574
▁telemark	-9.98584
▁premier	-9.98589
klubben	-9.98597
▁debut	-9.98639
▁tilhenger	-9.98647
▁handle	-9.98706
motor	-9.98726
▁inkluderer	-9.98733
▁1000	-9.98733
▁utdannelse	-9.98734
▁oppdrag	-9.98862
vinner	-9.98872
▁kai	-9.98972
stedet	-9.98977
▁tang	-9.99032
▁ris	-9.99056
▁dukke	-9.99065
▁bidra	-9.99117
mma	-9.99215
slekt	-9.99226
än	-9.99284
way	-9.99303
fot	-9.99365
▁penger	-9.9942
ova	-9.99492
reise	-9.99589
akke	-9.99705
cent	-9.99761
arm	-9.99878
rup	-9.99885
sberg	-9.99891
▁arrestert	-9.9994
▁kjærlighet	-9.9994
▁anerkjent	-9.9994
▁frukt	-9.99941
▁arabisk	-9.99943
▁south	-9.99946
▁1954	-9.99956
forskning	-9.99979
delingen	-9.99986
▁antatt	-10
▁hjerne	-10.0002
bank	-10.0009
town	-10.0016
▁levert	-10.0018
▁ansatt	-10.0023
▁statue	-10.0026
kka	-10.0029
▁rein	-10.0039
▁yu	-10.0044
ball	-10.0049
▁parlamentet	-10.005
▁bay	-10.0053
skiftet	-10.0054
11	-10.0056
▁camp	-10.006
dels	-10.0063
▁turner	-10.0068
▁verne	-10.0073
▁vet	-10.0076
▁dobbelt	-10.0079
▁sist	-10.008
▁normal	-10.0096
▁turneringen	-10.0098
▁may	-10.0127
▁teori	-10.0131
▁kommunal	-10.0133
▁wilhelm	-10.0133
parken	-10.0133
▁ødelagt	-10.0133
▁alpin	-10.0134
▁1935	-10.0134
▁blue	-10.0137
▁spiss	-10.0137
▁pensjon	-10.0137
▁hentet	-10.0138
stykke	-10.0147
▁møter	-10.0157
▁live	-10.0161
vest	-10.0162
▁kaptein	-10.0164
▁bel	-10.0165
▁oftest	-10.0167
▁elever	-10.0171
▁mill	-10.0181
▁unngå	-10.0182
▁kandidat	-10.0184
▁nes	-10.0184
▁demokratisk	-10.0185
▁fritt	-10.0185
områdene	-10.019
▁språket	-10.0193
▁ønsker	-10.0198
▁slags	-10.0199
▁prosjekt	-10.0206
▁tradisjonel	-10.021
lapp	-10.0224
▁hum	-10.0227
▁scene	-10.0231
▁gangen	-10.025
▁vä	-10.0251
▁horn	-10.0262
voll	-10.0263
▁republikken	-10.0266
▁alternativ	-10.0274
▁flertall	-10.0274
▁himmel	-10.0274
▁tempel	-10.0274
▁tilhørt	-10.0274
▁politiet	-10.0277
eppe	-10.0277
▁flekk	-10.0279
▁protest	-10.028
▁turist	-10.028
forfatter	-10.0281
▁deltatt	-10.0287
▁behov	-10.0287
▁alb	-10.0289
▁hotell	-10.029
▁samarbeidet	-10.0292
▁rå	-10.0292
▁foss	-10.0297
▁mary	-10.03
▁produksjonen	-10.03
▁flest	-10.0301
▁fylket	-10.0302
plikt	-10.0304
▁kalle	-10.0304
▁inntekt	-10.0312
▁økte	-10.0315
▁idrettslag	-10.0321
jan	-10.0335
▁auto	-10.0337
gav	-10.0345
▁innhold	-10.0347
▁fc	-10.0358
stripe	-10.0362
45	-10.0385
▁atom	-10.0385
fyll	-10.0399
▁provins	-10.0403
▁kanal	-10.0404
styret	-10.0407
kjær	-10.0407
▁starten	-10.0407
▁sur	-10.0414
▁fødsel	-10.0416
kommunikasjon	-10.0417
▁league	-10.0417
▁milliarder	-10.0417
▁redusert	-10.0417
▁mytologi	-10.0418
▁1905	-10.0419
▁studere	-10.0419
▁videregående	-10.042
▁sverd	-10.0421
▁armé	-10.0424
▁score	-10.0424
lend	-10.0426
bånd	-10.0426
▁undervisning	-10.0435
bedrift	-10.0437
▁bunn	-10.0442
win	-10.0449
▁lese	-10.045
▁markert	-10.0457
▁normalt	-10.0458
ella	-10.0458
▁nordover	-10.0459
elli	-10.0465
▁sats	-10.0469
85	-10.0475
▁tilbud	-10.0477
▁bombe	-10.0477
wald	-10.0488
▁metal	-10.0493
16	-10.0502
▁bord	-10.0511
▁besto	-10.0519
▁løper	-10.0519
74	-10.0526
▁vendt	-10.0536
▁forskere	-10.0544
▁oppnå	-10.0544
▁dommer	-10.0547
▁kongens	-10.0559
▁california	-10.0561
▁kvalifisering	-10.0561
▁blomster	-10.0561
▁pakistan	-10.0561
▁generasjon	-10.0563
▁1917	-10.0563
▁medaljer	-10.0564
▁endringer	-10.0566
▁gjenopp	-10.0577
▁sete	-10.0581
mond	-10.0585
▁vedtatt	-10.0587
▁plu	-10.059
gått	-10.059
ago	-10.0593
illa	-10.0594
pan	-10.0595
▁north	-10.0596
▁hve	-10.06
▁danse	-10.061
firma	-10.0618
▁hindre	-10.0618
▁tale	-10.0626
▁indisk	-10.0633
▁pin	-10.0663
ativ	-10.0668
kule	-10.0674
54	-10.0677
drakt	-10.0684
▁150	-10.0686
▁bevege	-10.0687
▁verker	-10.0688
▁vii	-10.0691
▁formen	-10.07
feld	-10.0705
▁forsvaret	-10.0705
▁akershus	-10.0709
▁beseiret	-10.0709
▁inspirert	-10.0709
▁1934	-10.071
▁1921	-10.071
▁planlagt	-10.0713
▁arbeide	-10.0714
▁hitler	-10.072
▁mynt	-10.0721
▁motiv	-10.0721
halvøya	-10.0721
▁soldat	-10.0722
skudd	-10.0722
forbindelse	-10.0722
kjønn	-10.0723
▁effektiv	-10.0723
▁styret	-10.0726
▁skyld	-10.0734
ative	-10.0734
▁kanalen	-10.0737
▁bilder	-10.0741
▁kaste	-10.0743
▁ishockey	-10.0745
▁brenn	-10.0755
kirken	-10.0758
▁enda	-10.0761
▁spise	-10.0763
▁jag	-10.0778
▁lønn	-10.0779
▁poly	-10.0781
03	-10.0782
▁villa	-10.0791
▁shan	-10.0793
▁streng	-10.0799
formula	-10.0801
▁jule	-10.0811
▁rep	-10.0821
▁verd	-10.0823
▁kloster	-10.0833
24	-10.084
▁afghanistan	-10.0858
▁antagelig	-10.0858
▁mexico	-10.0858
▁stafett	-10.0858
▁anledning	-10.0858
▁sistnevnte	-10.0858
▁begrenset	-10.0858
▁ridder	-10.0858
▁mesterskapet	-10.0859
▁tidspunkt	-10.086
▁etterfølger	-10.086
▁1919	-10.086
▁1913	-10.086
lid	-10.0862
▁oppmerksomhet	-10.0862
▁est	-10.087
▁dor	-10.0874
▁ferd	-10.0884
▁bidrag	-10.0884
▁bydelen	-10.0885
▁morgen	-10.0887
▁lavere	-10.089
▁bestod	-10.0893
▁utga	-10.0903
▁bydel	-10.0903
▁haug	-10.0905
fabrikk	-10.091
▁bit	-10.0913
96	-10.0914
▁romanen	-10.0916
▁ansvar	-10.0925
▁zo	-10.0926
handel	-10.0929
▁måten	-10.093
▁erobret	-10.0936
foreningen	-10.0939
øm	-10.0944
▁vinne	-10.0947
▁medisin	-10.095
kjent	-10.0971
▁vg	-10.0981
low	-10.0982
vind	-10.0984
▁skriver	-10.0984
hm	-10.0984
▁sykdom	-10.0984
▁stemmer	-10.0985
▁landene	-10.0993
▁600	-10.0994
▁avtalen	-10.0999
gro	-10.1003
▁rob	-10.1008
konstruksjon	-10.1009
▁eventyr	-10.1009
▁washington	-10.1009
▁school	-10.1009
▁hemmelig	-10.1009
▁vokser	-10.1009
situasjon	-10.1009
▁freds	-10.101
▁overraske	-10.101
▁romsdal	-10.101
▁1931	-10.1011
▁anklage	-10.1011
▁overført	-10.1011
▁filip	-10.1014
kamper	-10.1022
▁1898	-10.1022
▁hill	-10.1023
tatt	-10.1031
▁master	-10.104
▁underlag	-10.1044
▁slett	-10.1052
▁stiftelse	-10.1075
39	-10.1077
▁bølge	-10.1078
▁klassen	-10.1082
▁salg	-10.1086
▁trær	-10.1088
øyene	-10.1092
▁menighet	-10.1098
▁rulle	-10.1103
istene	-10.1119
▁grunnlegger	-10.1123
▁utstilling	-10.1146
▁laste	-10.115
28	-10.116
▁lån	-10.1163
arrangement	-10.1163
▁glass	-10.1163
▁belgisk	-10.1164
▁1914	-10.1164
▁arbeiderpartiet	-10.1165
▁1904	-10.1165
▁anlegg	-10.1166
▁1915	-10.1166
▁sim	-10.1169
▁stabil	-10.117
periode	-10.1171
▁hellas	-10.1172
▁stre	-10.1173
medlem	-10.118
vekst	-10.1185
▁evne	-10.1188
▁skiller	-10.1188
▁green	-10.1198
▁timer	-10.1201
▁uni	-10.1211
▁spansk	-10.1213
▁sagt	-10.1213
hver	-10.1218
▁tilfelle	-10.1226
▁makten	-10.1231
▁graf	-10.1239
▁landslaget	-10.1239
▁cup	-10.1239
▁private	-10.1242
gaard	-10.1248
feltet	-10.1248
▁buss	-10.1252
▁hode	-10.1255
▁troms	-10.1262
▁kampene	-10.1269
▁santa	-10.1275
kur	-10.1275
con	-10.1276
kilden	-10.1278
skyting	-10.1283
inert	-10.1294
▁berømte	-10.1296
▁utføre	-10.1306
▁edderkopp	-10.1313
▁registrert	-10.1319
▁angripe	-10.1319
▁magnus	-10.132
▁kvalitet	-10.1321
▁1911	-10.1321
▁erfaring	-10.1322
▁riktig	-10.1323
▁gun	-10.1326
▁alf	-10.1327
▁arkitektur	-10.1331
▁ok	-10.1337
slått	-10.1341
93	-10.1341
høgskole	-10.1342
miljø	-10.1343
▁nav	-10.1344
▁fantes	-10.1345
▁gold	-10.1347
▁bryte	-10.1347
▁sun	-10.1353
bach	-10.1358
▁stål	-10.1358
▁tj	-10.1359
▁up	-10.136
▁nordland	-10.1364
71	-10.1368
▁blanding	-10.1369
▁nedre	-10.1379
▁grunnlegge	-10.1379
▁skyte	-10.1381
▁insekter	-10.1381
mand	-10.1384
▁boka	-10.1385
▁motsatt	-10.1385
▁wien	-10.1388
skipet	-10.1391
▁jøde	-10.1392
▁street	-10.1392
▁sammenligne	-10.1398
▁rapport	-10.1401
row	-10.1401
▁fjord	-10.1403
▁ana	-10.1416
▁troll	-10.1419
▁behandle	-10.1435
dorf	-10.1451
▁kapp	-10.1455
▁kode	-10.1456
▁fjerne	-10.147
▁involvert	-10.1478
▁joseph	-10.1478
▁guvernør	-10.1478
▁praksis	-10.1478
fil	-10.1479
▁håndball	-10.1479
▁1925	-10.148
▁eksport	-10.1486
ington	-10.1488
▁nedlagt	-10.1489
▁fjernet	-10.1492
arten	-10.1494
ledet	-10.1504
▁betale	-10.1506
eksam	-10.1506
▁wales	-10.1508
▁tenn	-10.1509
▁eva	-10.1512
23	-10.1517
▁gau	-10.1517
▁ross	-10.1533
▁stig	-10.1537
▁bære	-10.1537
▁bud	-10.1542
▁lede	-10.1545
runde	-10.1549
▁motstander	-10.1552
øvelse	-10.1563
gra	-10.1563
▁bibliotek	-10.1567
▁fn	-10.1573
35	-10.1574
foss	-10.1575
000	-10.1586
▁korps	-10.1589
tag	-10.1593
sfjorden	-10.1606
dø	-10.161
▁dans	-10.1622
▁unn	-10.1623
▁hunnen	-10.1624
▁kåre	-10.1626
▁sørge	-10.1638
▁dollar	-10.164
▁cirka	-10.164
▁rent	-10.164
▁major	-10.164
▁royal	-10.164
▁hustru	-10.164
▁tegneserie	-10.164
▁islam	-10.1641
▁1923	-10.1641
▁godkjent	-10.1642
komiteen	-10.1644
▁kjøl	-10.1647
▁spenning	-10.1647
▁hersker	-10.1648
▁detalj	-10.1648
▁foreningen	-10.1653
▁tvang	-10.166
konkurranse	-10.1668
▁forekommer	-10.167
sikkerhet	-10.1675
ón	-10.1679
▁mobil	-10.17
▁representert	-10.1704
▁administrasjons	-10.1713
serie	-10.1718
▁vingene	-10.172
▁prosjektet	-10.1721
▁sunn	-10.1722
▁minister	-10.1728
▁leon	-10.1729
aya	-10.173
▁versjonen	-10.1731
▁tronen	-10.1748
▁forbundet	-10.175
▁penge	-10.176
▁administrasjon	-10.1777
brun	-10.1783
▁gard	-10.1784
▁grunnla	-10.1797
▁bou	-10.1798
▁arkeolog	-10.1799
fjellet	-10.1803
▁advokat	-10.1803
▁ludvig	-10.1803
▁arrangere	-10.1803
▁jakob	-10.1803
▁sprint	-10.1803
▁uttalte	-10.1804
▁finnmark	-10.1806
▁bygninger	-10.1808
▁bodø	-10.1808
▁meldt	-10.1809
▁france	-10.1815
▁verdensmester	-10.1816
81	-10.1817
▁1890	-10.182
▁munk	-10.1822
▁team	-10.1822
89	-10.1826
▁eksemplarer	-10.1827
produkt	-10.1834
▁cal	-10.1836
tittel	-10.1838
nummer	-10.1847
blant	-10.1848
▁semifinalen	-10.185
park	-10.1853
▁forkorte	-10.1857
▁bry	-10.1868
▁loven	-10.1868
▁landsby	-10.1875
94	-10.1878
▁regional	-10.1879
▁fortsette	-10.188
▁klokken	-10.188
▁vitne	-10.1885
▁wei	-10.1897
ander	-10.1897
▁foreldre	-10.1908
▁fan	-10.1914
▁landslag	-10.1941
▁bærer	-10.1947
rommet	-10.1949
rakk	-10.1952
kontor	-10.1953
liste	-10.1955
▁innsjøen	-10.1958
▁dokument	-10.1967
▁parlament	-10.1968
▁antwerpen	-10.197
▁håkon	-10.197
▁geografisk	-10.197
▁ekstrem	-10.197
▁håp	-10.1971
▁tvunge	-10.1973
▁800	-10.1974
kad	-10.1986
▁agder	-10.1987
zy	-10.1987
▁py	-10.2001
vatnet	-10.2005
▁moren	-10.2007
▁fløy	-10.201
vendt	-10.2012
▁junior	-10.2023
▁innsjø	-10.2027
koll	-10.2029
73	-10.2037
▁tvil	-10.2053
listen	-10.206
kort	-10.2065
▁begrep	-10.2071
▁betegnelse	-10.2078
▁keiseren	-10.2078
▁populært	-10.2081
▁kommunistisk	-10.2085
▁sikkerhets	-10.2096
hai	-10.2114
visning	-10.2114
ledd	-10.212
▁overleve	-10.2121
gna	-10.2123
▁vokal	-10.2131
▁eiendom	-10.2132
▁skudd	-10.2133
в	-10.2139
▁eksperiment	-10.214
▁juridisk	-10.214
ström	-10.214
▁krevde	-10.214
▁multi	-10.214
▁akse	-10.2142
faktor	-10.2143
▁34	-10.2145
esteparten	-10.2151
bebyggelse	-10.2151
prisen	-10.2151
▁vokalist	-10.2152
▁sammenlagt	-10.2159
▁dyrke	-10.216
kampen	-10.2172
ada	-10.2173
▁poet	-10.2174
kultur	-10.2177
▁irsk	-10.2178
▁representanter	-10.2179
stjerne	-10.2191
▁beskrivelse	-10.2196
dannelse	-10.2197
▁venner	-10.2198
▁katolsk	-10.2215
▁verdenscupen	-10.2216
▁dame	-10.2224
▁andreas	-10.2241
departement	-10.2244
▁cre	-10.2244
▁mala	-10.2246
studi	-10.225
vinne	-10.2254
▁stå	-10.2263
▁uttrykket	-10.2264
▁luk	-10.227
nntatt	-10.2275
▁skylde	-10.2288
hopp	-10.2289
▁skoler	-10.2293
33	-10.2298
yu	-10.23
avdeling	-10.2301
▁grei	-10.2303
▁1906	-10.2312
▁etablere	-10.2312
▁eventuel	-10.2312
▁dialekt	-10.2312
▁fungert	-10.2313
▁beholdt	-10.2313
magasin	-10.2313
▁litterær	-10.2313
▁hensikt	-10.2315
▁1910	-10.2316
42	-10.2317
livet	-10.2318
stemning	-10.2318
▁orient	-10.2321
▁kristian	-10.2327
▁1899	-10.2327
▁buk	-10.2328
finalen	-10.2332
▁sikker	-10.2334
▁tynn	-10.2335
▁christiania	-10.234
dommer	-10.2341
▁besøkte	-10.2347
▁sørover	-10.2347
▁gjeld	-10.2351
▁nasjonalpark	-10.2355
angrep	-10.2356
kutt	-10.2357
▁vegg	-10.2381
jord	-10.2384
dikt	-10.2386
▁vitenskap	-10.2389
▁klosteret	-10.2392
tårn	-10.2395
▁krever	-10.2405
bød	-10.2405
▁jøder	-10.2417
▁ordre	-10.2418
trener	-10.2421
▁paven	-10.2425
▁statlig	-10.2426
▁nasjoner	-10.2443
21	-10.2447
fant	-10.247
▁elisabeth	-10.2487
▁engasjert	-10.2487
▁intervju	-10.2487
▁introdusert	-10.2487
▁edward	-10.2487
▁okkupasjon	-10.2487
▁liberal	-10.2488
▁america	-10.2488
▁arthur	-10.2488
▁brensel	-10.2488
▁avdøde	-10.2488
dik	-10.2488
▁utgivelsen	-10.249
▁imperi	-10.2491
▁kapell	-10.2495
åpning	-10.2496
følelse	-10.2497
▁kjerne	-10.25
▁brent	-10.2504
▁hovedrollen	-10.2509
▁inngikk	-10.2513
▁ekstra	-10.2518
▁religiøse	-10.2519
▁sporter	-10.2524
▁olsen	-10.2525
▁ånd	-10.2542
▁antikken	-10.2543
▁cho	-10.2549
▁gress	-10.2557
▁museet	-10.2573
43	-10.2574
▁opptak	-10.2578
▁hastighet	-10.2581
▁koll	-10.2588
▁utenriks	-10.2592
setting	-10.2592
▁rio	-10.2596
▁andel	-10.2599
▁teknikk	-10.2601
▁oppdag	-10.2605
verden	-10.2609
17	-10.261
▁bob	-10.261
▁trening	-10.2613
▁ulv	-10.2616
76	-10.2624
▁frihet	-10.2635
▁typen	-10.2649
▁planter	-10.2653
bukta	-10.2654
▁vakt	-10.2666
▁manchester	-10.2666
▁kritiker	-10.2666
▁uvanlig	-10.2666
▁kombinert	-10.2666
▁doktorgrad	-10.2666
▁myndighetene	-10.2667
▁etappe	-10.2667
▁skarp	-10.2667
▁philip	-10.2668
▁1909	-10.2669
▁1907	-10.2669
▁otto	-10.2669
▁jackson	-10.2669
vning	-10.2674
▁1200	-10.2676
▁utnytte	-10.2676
▁high	-10.2677
kompani	-10.2682
▁hørt	-10.2683
26	-10.2684
▁løsning	-10.2686
▁tekster	-10.2688
▁mottatt	-10.2688
egnet	-10.2689
97	-10.2694
basert	-10.2711
▁orkester	-10.2714
▁beregne	-10.2715
renn	-10.2716
ulf	-10.2724
▁mol	-10.2728
▁omfattet	-10.2731
finn	-10.2737
▁synge	-10.2738
kop	-10.274
▁sveitsisk	-10.2745
▁tropp	-10.2749
▁beskriver	-10.2754
▁fel	-10.2755
kommende	-10.2756
▁starter	-10.2764
start	-10.2773
▁utstyrt	-10.2774
havn	-10.2779
32	-10.2794
▁larven	-10.2796
▁700	-10.2798
▁sku	-10.2809
▁takke	-10.2817
▁kalk	-10.2822
rekke	-10.2825
▁kristi	-10.2829
kommisjon	-10.2834
▁brem	-10.2836
▁iso	-10.2843
▁friedrich	-10.2848
▁helsingfors	-10.2848
▁digital	-10.2848
▁club	-10.2848
▁referere	-10.2848
▁definert	-10.2848
▁arendal	-10.2849
▁nedenfor	-10.2849
▁manager	-10.2849
▁1916	-10.285
▁reiser	-10.2855
▁portrett	-10.2855
▁whi	-10.2861
▁typer	-10.2862
▁motta	-10.2864
▁mikro	-10.2865
▁arv	-10.2866
▁molde	-10.2866
▁opptatt	-10.2866
▁metro	-10.2867
▁preg	-10.2868
▁human	-10.2889
▁39	-10.2889
▁forstå	-10.289
museum	-10.2898
27	-10.2915
▁fotograf	-10.292
▁sho	-10.2923
møll	-10.2927
▁hind	-10.2931
▁utstyr	-10.2936
maleri	-10.2945
31	-10.2949
later	-10.2952
▁fulgt	-10.2955
▁bell	-10.2961
▁250	-10.2963
masse	-10.2964
fyr	-10.2972
▁storm	-10.2974
22	-10.2974
▁lagene	-10.2984
▁slott	-10.2991
wich	-10.3007
syre	-10.3007
▁kolonien	-10.3008
▁jerusalem	-10.3033
▁tyrkia	-10.3033
▁regissør	-10.3033
▁service	-10.3033
▁kombinasjon	-10.3033
▁løfte	-10.3033
▁frykt	-10.3033
▁kveld	-10.3034
▁eksistert	-10.3034
▁markedet	-10.3035
▁reserve	-10.3035
▁antyde	-10.3035
▁opplevd	-10.3035
▁wolf	-10.3035
▁1903	-10.3035
▁opprøret	-10.3036
▁hendelsen	-10.3039
▁programmer	-10.3041
▁42	-10.3051
▁lyn	-10.3055
▁sovjet	-10.3056
▁gjenstand	-10.3056
▁vekk	-10.3058
politikk	-10.3059
▁nordmenn	-10.3068
forsyning	-10.3069
▁foregå	-10.3071
strek	-10.3071
▁saga	-10.3078
▁utbygging	-10.3081
▁halvdel	-10.3083
▁music	-10.3088
gate	-10.309
typen	-10.3091
▁bakke	-10.3091
versjon	-10.3102
▁tilhøre	-10.3111
▁ansvaret	-10.3118
▁omkom	-10.3123
▁fett	-10.3125
▁bevegelsen	-10.313
▁kraftverket	-10.3134
▁utgangspunkt	-10.3153
▁stam	-10.3173
▁tropper	-10.3174
▁00	-10.3176
▁mose	-10.3183
▁bladet	-10.3191
▁sikte	-10.3199
▁bygda	-10.3203
uv	-10.3215
▁revet	-10.3218
▁alexander	-10.3222
▁skulptur	-10.3222
▁ødelegge	-10.3222
▁tyrkisk	-10.3222
▁nedbør	-10.3222
▁avgjørende	-10.3222
▁mektig	-10.3222
▁1922	-10.3223
▁ligner	-10.3223
▁parallel	-10.3224
▁institut	-10.3224
▁tørr	-10.3224
▁debatt	-10.3225
▁glad	-10.3225
▁aksje	-10.3229
▁neu	-10.3233
▁victoria	-10.3237
▁knap	-10.324
▁oppstod	-10.3241
▁skjær	-10.3241
▁43	-10.3244
▁østover	-10.3247
turneringen	-10.325
▁niels	-10.3261
▁imot	-10.3283
bøker	-10.3284
bygget	-10.3291
▁jente	-10.3313
formede	-10.3313
dyktig	-10.3317
høy	-10.3323
polis	-10.3335
▁forskjellig	-10.3335
▁urban	-10.3337
gudinne	-10.3354
misjon	-10.336
▁wall	-10.337
teori	-10.3371
▁sli	-10.3377
fred	-10.3386
8	-10.3387
▁1902	-10.3414
▁amsterdam	-10.3414
▁astronom	-10.3414
▁kvalifisert	-10.3414
▁portugal	-10.3414
▁ukraina	-10.3414
▁initiativ	-10.3414
▁innebære	-10.3414
▁alkohol	-10.3414
▁innbyggerne	-10.3414
▁monument	-10.3414
▁sekunder	-10.3414
▁thailand	-10.3414
▁ingeniør	-10.3414
▁utpekt	-10.3414
mønster	-10.3414
▁tilsvarer	-10.3414
▁oppløst	-10.3415
▁nicol	-10.3416
▁1926	-10.3416
▁monark	-10.3417
▁situasjonen	-10.3417
▁bekrefte	-10.3418
▁dvs	-10.3419
▁hvile	-10.3419
▁utvikler	-10.3419
▁figurer	-10.3421
▁stortings	-10.3427
▁lykte	-10.3427
▁gitarist	-10.3428
atur	-10.343
▁show	-10.3434
▁max	-10.3439
▁simon	-10.3448
rød	-10.3448
▁seire	-10.3451
skij	-10.3452
▁beslutte	-10.3457
▁beskrive	-10.3459
▁artikkel	-10.346
put	-10.3461
▁kommando	-10.3463
produsent	-10.3474
materiale	-10.3474
▁uavhengighet	-10.3477
▁bakkroppen	-10.3483
▁grevskap	-10.3487
▁manus	-10.3508
trenger	-10.3517
▁hjul	-10.352
29	-10.3533
▁33	-10.3538
▁etnisk	-10.3541
▁velger	-10.3547
▁vogn	-10.355
▁teorien	-10.3554
gjeng	-10.3565
sey	-10.3572
▁hom	-10.3573
▁ulik	-10.3576
▁korn	-10.3577
▁kim	-10.3584
familie	-10.3585
kjemp	-10.3585
▁stillingen	-10.3591
▁kil	-10.3591
▁fase	-10.3598
▁mannlig	-10.36
▁münchen	-10.361
▁county	-10.361
▁fengsle	-10.361
▁rektor	-10.361
▁radikal	-10.361
▁terror	-10.361
▁dvd	-10.3611
▁oversettelse	-10.3611
▁brown	-10.3612
▁mono	-10.3613
▁møre	-10.3613
▁middelalder	-10.3616
▁lykke	-10.3618
▁prosessen	-10.3619
▁opptre	-10.3622
▁respekt	-10.3626
▁menneskelig	-10.3629
▁1870	-10.3631
▁cand	-10.3633
▁nasjon	-10.3635
▁sankt	-10.3636
årig	-10.3637
▁kulturell	-10.3641
▁hunder	-10.3641
84	-10.3646
▁polar	-10.366
▁inngår	-10.3663
aria	-10.3667
direktør	-10.3674
politisk	-10.3675
dam	-10.3677
født	-10.3677
▁utløp	-10.368
uch	-10.3683
▁elektron	-10.3685
▁cupen	-10.3698
▁fortsetter	-10.3724
▁ull	-10.3731
▁bibelen	-10.3746
lé	-10.3753
kilde	-10.3755
tagelse	-10.3758
▁kin	-10.3765
▁aur	-10.3774
▁nettverk	-10.3782
▁900	-10.3801
løytnant	-10.381
▁konkurrere	-10.381
▁oxford	-10.381
▁vannkraftverk	-10.381
▁forårsake	-10.381
▁lagkonkurransen	-10.381
budsjett	-10.381
▁preussen	-10.381
▁gustav	-10.381
▁avviklet	-10.381
traktaten	-10.381
▁scott	-10.381
▁brødrene	-10.381
▁luther	-10.3811
▁seinere	-10.3811
ов	-10.3811
▁daniel	-10.3811
▁brygge	-10.3812
▁1927	-10.3812
tank	-10.3812
▁voksen	-10.3812
▁britene	-10.3812
▁programleder	-10.3813
▁dominerende	-10.3814
▁betalt	-10.3816
▁trodde	-10.3818
▁kristiania	-10.382
▁grønland	-10.3832
brødre	-10.384
▁hendelser	-10.3848
▁mannskap	-10.3856
▁nam	-10.3871
▁israelsk	-10.3872
▁opprette	-10.3873
▁phil	-10.3877
mod	-10.3878
forbundet	-10.3878
▁gjennomføre	-10.3879
hjem	-10.3881
høyde	-10.3883
▁utgangspunktet	-10.3884
sso	-10.3893
▁sideelv	-10.3893
strup	-10.3903
▁uken	-10.3926
▁ønske	-10.3952
▁tau	-10.3972
bevisst	-10.3987
▁dj	-10.3991
book	-10.4006
▁flor	-10.4007
▁dru	-10.4014
bataljon	-10.4014
▁ambassadør	-10.4014
▁konsekven	-10.4014
▁portugisisk	-10.4014
▁shanghai	-10.4014
▁etterkommer	-10.4014
▁kommersiell	-10.4014
▁rettigheter	-10.4014
▁karrieren	-10.4015
▁signal	-10.4015
▁mord	-10.4017
▁gullmedalje	-10.4019
▁håndverk	-10.402
▁hylle	-10.4038
▁grim	-10.4039
▁lukke	-10.4044
korps	-10.4045
▁tron	-10.4054
▁zh	-10.4057
▁play	-10.4058
▁forent	-10.4065
▁steg	-10.4069
▁inge	-10.407
▁irak	-10.4072
▁unna	-10.408
▁fotballklubb	-10.4084
hånd	-10.4087
▁frakte	-10.4093
domstol	-10.4094
▁fremmed	-10.4104
▁forsker	-10.4113
▁oppdagelse	-10.4128
▁37	-10.4129
▁eies	-10.413
▁stikk	-10.4155
▁kreve	-10.4169
▁boy	-10.4172
34	-10.4181
▁truet	-10.4182
▁grøn	-10.4196
▁skapt	-10.4198
▁skuespill	-10.4211
utgivelse	-10.4218
▁definisjon	-10.4222
▁forhindre	-10.4222
▁halvparten	-10.4222
▁konkurrert	-10.4222
▁okkupert	-10.4222
▁returnerte	-10.4222
▁øyeblikk	-10.4222
koalisjon	-10.4222
▁hordaland	-10.4222
▁vesentlig	-10.4222
▁opptrådt	-10.4223
▁fenomen	-10.4223
pedagog	-10.4223
▁bøkene	-10.4223
▁ombord	-10.4223
▁forbedre	-10.4223
konvensjon	-10.4223
▁opposisjon	-10.4223
▁syria	-10.4223
▁definere	-10.4224
▁poesi	-10.4224
▁dominert	-10.4224
▁vestfold	-10.4226
apparat	-10.4227
▁afrikansk	-10.4228
rence	-10.423
▁1889	-10.4236
▁bruce	-10.4237
▁figuren	-10.4237
▁1896	-10.4237
▁skutt	-10.4244
▁lunge	-10.4244
▁europe	-10.4249
▁petter	-10.4255
mag	-10.426
▁grov	-10.4263
▁tenke	-10.4273
dratt	-10.4282
forestilling	-10.4283
▁lake	-10.4295
teknikk	-10.4299
▁øre	-10.4314
verdi	-10.4322
▁hammer	-10.4332
▁skinn	-10.4343
▁opplag	-10.4343
karriere	-10.4357
▁anse	-10.4358
lærer	-10.4365
▁tam	-10.4365
▁dynasti	-10.4366
▁scenen	-10.4376
▁bull	-10.4389
▁spin	-10.4415
▁funn	-10.4416
▁fjernsyn	-10.4435
▁umiddelbar	-10.4435
▁zealand	-10.4435
▁kjørt	-10.4435
▁vulkan	-10.4435
▁frivillig	-10.4435
▁ungarsk	-10.4435
▁golf	-10.4436
▁utseende	-10.4436
▁osmansk	-10.4436
▁betjene	-10.4436
alfabet	-10.4436
▁elleve	-10.4438
▁1901	-10.4438
▁eksamen	-10.4438
▁tibet	-10.4439
▁hensyn	-10.4441
▁arkeologisk	-10.4443
▁økende	-10.4446
▁byggingen	-10.4446
▁dekke	-10.4446
▁german	-10.4446
▁vennskap	-10.4446
▁østre	-10.4448
▁hannen	-10.4448
▁beskyttelse	-10.4455
▁reaksjon	-10.4455
▁forvingen	-10.4456
▁1880	-10.4462
▁thi	-10.4475
▁allmenn	-10.4481
kron	-10.449
korset	-10.4492
▁klo	-10.4496
▁statsråd	-10.4502
▁rester	-10.4504
▁utenlandsk	-10.4509
▁moss	-10.4526
com	-10.4573
▁bredde	-10.458
▁snu	-10.4589
▁vente	-10.4595
▁steve	-10.4598
takelse	-10.4604
▁utmerke	-10.461
▁mah	-10.4612
▁sies	-10.4645
▁asteroide	-10.4653
▁elizabeth	-10.4653
▁prøvd	-10.4653
▁rådgiver	-10.4653
▁integr	-10.4653
▁kristiansand	-10.4653
▁terreng	-10.4653
▁kritisert	-10.4653
▁rogaland	-10.4653
▁frigjøring	-10.4653
▁strøk	-10.4653
▁sjette	-10.4653
▁erobring	-10.4653
▁papir	-10.4653
▁jesus	-10.4654
▁kryp	-10.4655
stipend	-10.4655
▁fylt	-10.4656
▁antas	-10.4659
▁1100	-10.4659
▁skytter	-10.466
▁forsterke	-10.4661
▁1400	-10.4664
▁republikk	-10.4664
▁prix	-10.4673
▁kommunist	-10.4674
vald	-10.4675
▁kongelig	-10.4677
▁kjell	-10.4686
▁valle	-10.4687
▁teologi	-10.4711
▁tidsskriftet	-10.4711
utenriksminister	-10.4713
▁diplomat	-10.4714
▁svi	-10.4717
▁roger	-10.4727
▁utkom	-10.4739
▁sving	-10.4742
▁mangel	-10.4743
hild	-10.4748
▁musikalsk	-10.4758
perioden	-10.4759
vika	-10.4766
vold	-10.4769
botn	-10.477
▁velge	-10.4779
▁meta	-10.4787
▁bøy	-10.48
▁celle	-10.48
▁avvist	-10.4814
kamerat	-10.4831
▁religiøs	-10.4834
▁nylig	-10.4835
stemme	-10.4849
▁antenne	-10.4865
byrå	-10.4869
▁aleksander	-10.4875
▁argentina	-10.4875
▁australsk	-10.4875
▁sammenslåing	-10.4875
▁vilhelm	-10.4875
▁gruppa	-10.4875
▁canadisk	-10.4875
▁drammen	-10.4875
▁kulturminne	-10.4875
▁firmaet	-10.4876
▁datamaskin	-10.4876
▁landbruks	-10.4877
▁telefon	-10.4877
▁midlertidig	-10.4877
▁internett	-10.4877
▁oblast	-10.4877
▁overlevd	-10.4878
▁metoder	-10.4878
▁alfred	-10.4882
▁antennen	-10.4887
▁term	-10.4899
ittisk	-10.4915
▁oberst	-10.4922
rock	-10.4933
▁kapital	-10.4935
▁emil	-10.4939
▁intens	-10.4947
▁slottet	-10.4959
regjering	-10.4967
▁laks	-10.4972
modell	-10.4973
utvalg	-10.498
mengde	-10.498
måte	-10.4981
▁låten	-10.4985
▁cuba	-10.4997
▁feire	-10.4998
▁medisinsk	-10.5032
flåten	-10.5051
▁company	-10.5102
▁skjønt	-10.5102
▁argument	-10.5102
▁avslørt	-10.5102
▁hjørne	-10.5102
▁infanteri	-10.5102
▁seremoni	-10.5102
▁svalbard	-10.5102
stråling	-10.5102
▁kjøtt	-10.5102
▁uansett	-10.5102
▁gregor	-10.5102
▁nikola	-10.5102
▁prinsesse	-10.5103
▁studioalbum	-10.5103
▁søkte	-10.5104
▁francisco	-10.5104
▁generell	-10.5105
▁bispe	-10.5105
▁fortellingen	-10.5108
▁komposisjon	-10.5111
▁nød	-10.5112
▁høyesterett	-10.5114
▁1894	-10.5117
▁east	-10.5117
▁120	-10.5122
▁1848	-10.5124
▁enorm	-10.5124
▁romerne	-10.5125
▁smak	-10.5129
▁with	-10.5134
▁adam	-10.5134
▁derfra	-10.514
14	-10.514
▁johansen	-10.5147
▁galle	-10.5153
▁flåte	-10.5154
friidrettsutøver	-10.5157
▁kino	-10.517
▁ligge	-10.5177
▁alger	-10.5177
gass	-10.5179
preg	-10.5195
utvikling	-10.5199
skrive	-10.5204
utstilling	-10.5213
▁kno	-10.5224
▁cel	-10.5232
▁høst	-10.5235
▁høyskole	-10.5243
▁hil	-10.5247
økonomi	-10.5259
økonom	-10.5272
cup	-10.5283
▁rand	-10.5289
▁skriftlig	-10.5308
▁gjennomsnitt	-10.532
▁synlig	-10.5325
▁forretnings	-10.533
▁annonsert	-10.5335
▁artilleri	-10.5335
▁chicago	-10.5335
▁innendørs	-10.5335
▁ortodoks	-10.5335
▁resultert	-10.5335
▁tømmer	-10.5335
▁vingespenn	-10.5335
▁eksisterende	-10.5335
▁episoden	-10.5335
▁færøyene	-10.5335
▁antarktis	-10.5335
▁lørdag	-10.5335
▁diameter	-10.5335
▁redusere	-10.5335
▁innlemme	-10.5335
▁jiang	-10.5335
▁svekke	-10.5336
▁stengt	-10.5336
statistikk	-10.5336
▁bayern	-10.5336
▁konservative	-10.5336
gjald	-10.5337
▁fredrikstad	-10.5342
alisme	-10.5344
▁fastlandet	-10.5347
▁1897	-10.5348
▁1876	-10.5349
▁wil	-10.5353
▁tretten	-10.536
▁tvers	-10.5362
▁overtatt	-10.5363
▁karakteristisk	-10.5379
▁vanligste	-10.5385
tekst	-10.5386
roman	-10.5419
▁pont	-10.5419
skrevet	-10.5426
næring	-10.5428
vakt	-10.543
hjelp	-10.5437
▁million	-10.5441
▁rykte	-10.5454
▁kjemisk	-10.546
▁skall	-10.5476
forbud	-10.5512
▁regime	-10.5535
bak	-10.5548
work	-10.5563
▁wu	-10.5568
▁babylon	-10.5573
▁middelsstor	-10.5573
▁katedral	-10.5573
▁byprefekturet	-10.5573
▁middelhavet	-10.5573
▁testamente	-10.5573
▁bærum	-10.5573
frekvens	-10.5573
▁sachsen	-10.5573
▁palass	-10.5573
▁fjær	-10.5573
▁utgivelser	-10.5574
▁landskamper	-10.5575
▁house	-10.5577
▁misjons	-10.5578
▁opptreden	-10.5579
▁bedriften	-10.558
▁folketall	-10.5582
nemlig	-10.5583
▁publi	-10.5583
skade	-10.5586
▁tjent	-10.5588
▁cra	-10.559
▁bystat	-10.5594
▁oppsto	-10.5595
▁befinne	-10.5595
▁akku	-10.5596
▁jack	-10.5597
▁angel	-10.5598
▁delstat	-10.5606
▁kommunistparti	-10.5627
▁river	-10.5631
formasjon	-10.5638
▁euro	-10.5645
▁skikk	-10.5655
▁erstatte	-10.5667
bibliotek	-10.5681
▁ennå	-10.5681
funksjon	-10.5681
telling	-10.5681
rekord	-10.5682
programmet	-10.5684
lengde	-10.5694
▁utmerkelse	-10.5694
turnering	-10.573
▁finale	-10.5757
▁slektning	-10.5768
akh	-10.577
register	-10.5782
kall	-10.5787
▁sara	-10.5796
▁kval	-10.5816
svømming	-10.5817
▁akseptert	-10.5817
▁barcelona	-10.5817
▁beslutning	-10.5817
▁bulgaria	-10.5817
▁fakultet	-10.5817
▁rekrutt	-10.5817
▁nøyaktig	-10.5817
▁jørgen	-10.5817
▁stridsvogn	-10.5817
▁fiolin	-10.5817
37	-10.5817
▁debutalbum	-10.5818
▁bbc	-10.5818
▁sjanger	-10.582
▁2018	-10.5823
▁beslekte	-10.5823
▁tjue	-10.5826
▁forlate	-10.5835
▁anlagt	-10.5839
▁1878	-10.584
▁qing	-10.5851
▁johnson	-10.5854
▁drap	-10.5855
▁estland	-10.5855
▁1850	-10.5859
▁peder	-10.5862
▁besetning	-10.5866
▁forståelse	-10.5869
▁dramatisk	-10.5873
▁from	-10.5876
▁snakk	-10.5882
▁fond	-10.5893
▁stift	-10.5898
▁foreldrene	-10.5909
▁elektronisk	-10.5923
hjul	-10.5931
forsker	-10.5939
vogn	-10.5954
▁frei	-10.5986
▁lyng	-10.5989
wick	-10.5993
tikken	-10.5999
▁idrett	-10.6043
stigning	-10.6048
▁ferge	-10.6051
▁eik	-10.6059
▁tiår	-10.606
svømme	-10.6064
sosialistisk	-10.6065
▁fei	-10.6066
prefektur	-10.6067
▁administrere	-10.6067
▁ludwig	-10.6067
▁utslipp	-10.6067
▁utbredelse	-10.6067
▁vedlikehold	-10.6067
▁litauen	-10.6067
▁offensiv	-10.6067
▁fysikk	-10.6067
molekyl	-10.6067
▁henrettet	-10.6067
▁arkiv	-10.6068
kjøring	-10.6068
▁opprettelsen	-10.6068
terminal	-10.6068
▁tenkt	-10.6069
▁stab	-10.6069
▁østfold	-10.607
▁1871	-10.6084
▁klatre	-10.6084
▁hamburg	-10.6092
▁kammer	-10.6095
▁queen	-10.6105
▁lord	-10.6106
▁eksil	-10.6116
▁game	-10.612
▁oppfatte	-10.612
reformen	-10.6122
▁spring	-10.6125
▁jim	-10.6127
▁låter	-10.6151
▁bibel	-10.6173
kreft	-10.6185
hastighet	-10.6187
effekt	-10.6188
historisk	-10.6188
offiser	-10.6188
forsvar	-10.619
▁psykolog	-10.619
▁arving	-10.6219
▁markere	-10.6222
▁jam	-10.6223
▁trent	-10.6236
tind	-10.6247
prest	-10.6247
▁tidsskrift	-10.6256
▁rådhus	-10.6277
melding	-10.6295
▁wild	-10.6295
▁filosof	-10.6299
▁country	-10.6323
▁tønsberg	-10.6323
▁istedenfor	-10.6323
▁tabellen	-10.6323
▁yngste	-10.6323
▁haugesund	-10.6323
▁praktisk	-10.6323
▁splitte	-10.6323
▁tillatelse	-10.6324
▁beskjed	-10.6324
▁føderal	-10.6324
▁beordre	-10.6324
▁slank	-10.6325
▁syke	-10.6325
▁sykdommen	-10.6329
▁igjennom	-10.633
▁britis	-10.6334
▁ordnet	-10.6337
▁1881	-10.634
▁fusjon	-10.6341
▁ibsen	-10.6342
▁oppfordr	-10.6342
▁1885	-10.6342
▁ansikt	-10.6342
▁anvende	-10.6345
▁østlandet	-10.6347
▁nederlag	-10.6353
▁drepe	-10.6354
▁demningen	-10.6359
▁ideologi	-10.6362
▁1860	-10.6363
fallende	-10.6369
▁strategisk	-10.6443
kjell	-10.645
utdanning	-10.6451
▁kjemi	-10.6464
▁kvit	-10.6472
▁cover	-10.6477
behandling	-10.6483
▁170	-10.6493
▁familiegruppe	-10.6493
▁kva	-10.6535
kompleks	-10.6572
konsept	-10.6586
belteasteroide	-10.6586
nøytral	-10.6586
▁hjalp	-10.6586
▁konstruert	-10.6586
▁kristendommen	-10.6586
▁tilstrekkelig	-10.6586
▁trommeslager	-10.6586
▁etablering	-10.6586
▁adolf	-10.6586
▁church	-10.6586
▁negativ	-10.6586
▁madrid	-10.6586
▁sydney	-10.6586
▁sektor	-10.6586
▁forsvant	-10.6586
▁oppløsning	-10.6587
▁seksuell	-10.6587
▁trengte	-10.6587
mission	-10.6587
▁sentralbank	-10.6589
▁great	-10.659
▁øynene	-10.659
▁blind	-10.659
▁gjentatt	-10.659
▁høydepunkt	-10.659
▁borgermester	-10.659
▁størst	-10.6591
▁biologisk	-10.6594
▁onkel	-10.6595
▁overføre	-10.6596
▁1814	-10.6598
▁rival	-10.66
▁audi	-10.6603
▁global	-10.6604
▁huske	-10.6604
▁1887	-10.6611
▁tann	-10.6611
▁1886	-10.6613
▁egyptisk	-10.6616
▁sandnes	-10.6616
bevegelse	-10.6619
▁web	-10.6623
▁silke	-10.6625
▁white	-10.6626
▁trygg	-10.6638
▁kamera	-10.6643
▁tykk	-10.6644
▁utvidelse	-10.6649
▁sjel	-10.6662
posisjon	-10.6709
bredden	-10.6713
kontrakt	-10.6721
illo	-10.6722
▁klippe	-10.6723
kanalen	-10.6723
avisen	-10.6724
ritual	-10.6726
▁kirkelig	-10.6748
ordningen	-10.6789
foretak	-10.6791
▁wel	-10.6803
▁brand	-10.681
▁dreie	-10.6823
▁hval	-10.6828
▁luci	-10.6838
nytt	-10.6856
lokomotiv	-10.6856
▁cambridge	-10.6856
▁diskusjon	-10.6856
▁forøvrig	-10.6856
▁katolikk	-10.6856
▁muslimsk	-10.6856
▁territorie	-10.6856
observasjon	-10.6856
▁taylor	-10.6856
▁embets	-10.6857
komponent	-10.6857
▁reklame	-10.6857
▁hebraisk	-10.6857
▁skildre	-10.6857
▁presentert	-10.6857
▁konstant	-10.6857
▁manuskript	-10.6857
▁nepal	-10.6857
▁autonom	-10.6858
ск	-10.6858
▁søndag	-10.6858
▁døgn	-10.6858
▁batteri	-10.6859
▁flytende	-10.6859
▁fortalte	-10.6859
▁import	-10.686
▁inndelt	-10.686
▁bedrifter	-10.686
▁gravlagt	-10.6862
▁åpningen	-10.6863
▁eiendommen	-10.6863
▁falsk	-10.6864
▁center	-10.6865
▁bønn	-10.6865
▁orgel	-10.6868
▁dokumentar	-10.6869
▁vandre	-10.687
▁barndom	-10.6871
▁gjennombrudd	-10.6879
▁orkan	-10.6882
▁selvstendighet	-10.6886
▁trapp	-10.6888
▁åttende	-10.689
▁lettere	-10.6901
▁samtlige	-10.6901
▁vestover	-10.6902
▁medført	-10.6903
▁innerst	-10.691
lignende	-10.6936
7	-10.6946
▁tjenestegjor	-10.6976
head	-10.6994
klipp	-10.6998
▁minutt	-10.6999
transport	-10.6999
kontroll	-10.6999
▁jud	-10.7
▁unik	-10.7008
amerikanske	-10.7017
▁kunde	-10.7028
▁musk	-10.7036
avtale	-10.7038
vervet	-10.7064
▁kilo	-10.7075
▁ambassade	-10.7134
▁elektrisitet	-10.7134
▁innbyggertall	-10.7134
▁luxembourg	-10.7134
▁millimeter	-10.7134
▁særskilt	-10.7134
▁1891	-10.7134
▁libanon	-10.7134
▁yrkes	-10.7134
▁separat	-10.7134
veksling	-10.7134
▁baseball	-10.7134
▁ytterst	-10.7135
▁utgravning	-10.7135
▁forklaring	-10.7135
▁fjordane	-10.7135
▁skrå	-10.7135
▁cross	-10.7135
▁qi	-10.7135
▁florida	-10.7136
▁patron	-10.7136
▁forberede	-10.7136
▁verdensrekord	-10.7137
▁svømmer	-10.7138
▁medvirket	-10.714
▁forbudt	-10.714
▁dylan	-10.714
matisk	-10.7143
▁tjener	-10.7144
▁oppfatning	-10.7146
▁pedersen	-10.7147
▁sukker	-10.7152
▁planeten	-10.7156
▁klær	-10.7157
▁besøkende	-10.7157
▁pilot	-10.7161
sykdommer	-10.7174
betaling	-10.7177
▁persisk	-10.7184
▁munning	-10.7187
▁variert	-10.7201
▁thu	-10.7247
søyle	-10.7255
lønn	-10.7257
aften	-10.7277
▁bratt	-10.7282
problemer	-10.7284
musiker	-10.7288
▁brian	-10.7289
kjede	-10.7298
▁beskrev	-10.7351
▁klokke	-10.736
▁gott	-10.741
▁basketball	-10.742
▁favoritt	-10.742
▁hovedkvarter	-10.742
▁kollektiv	-10.742
▁lillehammer	-10.742
▁matematikk	-10.742
▁melbourne	-10.742
▁prøyssisk	-10.742
▁utelukkende	-10.742
▁virginia	-10.742
▁sparebank	-10.742
▁vurdert	-10.742
▁jupiter	-10.742
▁sluppe	-10.742
▁eksistens	-10.742
▁protestantisk	-10.742
▁umulig	-10.742
bransjen	-10.742
premi	-10.742
▁josef	-10.742
▁gunnar	-10.742
▁rettssak	-10.742
▁flyktning	-10.742
▁adresse	-10.7421
▁power	-10.7422
▁group	-10.7422
▁distanse	-10.7422
▁kronologisk	-10.7423
▁forgjenger	-10.7423
▁slippe	-10.7423
▁francis	-10.7426
▁michel	-10.7427
▁biografi	-10.7429
▁operere	-10.743
seminar	-10.743
▁1837	-10.7432
▁røtter	-10.7434
▁forretningsmann	-10.7439
▁trinn	-10.7439
▁1874	-10.7441
▁hotel	-10.7441
vitsj	-10.7443
▁1882	-10.7443
▁3000	-10.7444
▁tilsyne	-10.7445
▁1879	-10.7446
▁1892	-10.7446
▁ernst	-10.7452
▁streik	-10.7458
▁who	-10.7464
▁billed	-10.7465
▁helhet	-10.7467
9	-10.748
▁helst	-10.7491
▁vindu	-10.7506
▁hytte	-10.7507
▁brei	-10.7513
▁knytte	-10.7547
▁musikal	-10.7572
▁henvis	-10.7573
museet	-10.7584
▁strak	-10.759
turbin	-10.7601
skift	-10.7609
bille	-10.7611
sønn	-10.7635
▁teologisk	-10.7662
ætt	-10.767
osfære	-10.7691
stokk	-10.7709
▁kambodsja	-10.7714
▁maksimal	-10.7714
▁science	-10.7714
▁venezia	-10.7714
▁minoritet	-10.7714
disiplin	-10.7714
▁kavaleri	-10.7714
▁betydningsfull	-10.7714
▁kommentar	-10.7714
▁alaska	-10.7714
▁brigade	-10.7714
▁egenskaper	-10.7715
▁rolf	-10.7715
▁naturreservat	-10.7715
▁fuktig	-10.7716
▁fortellinger	-10.7716
▁utforming	-10.7716
▁fjellkjede	-10.7716
▁jurist	-10.7716
▁einar	-10.7717
▁økning	-10.7719
▁skygge	-10.7719
▁bridge	-10.772
▁velstående	-10.7724
▁stalin	-10.7726
▁donau	-10.7726
▁nøt	-10.7728
kjøretøy	-10.7732
▁drikke	-10.7733
▁1873	-10.7733
▁talent	-10.7734
▁1893	-10.7734
▁walter	-10.7736
▁gjennomsnittlig	-10.7747
▁morten	-10.775
▁begynt	-10.7752
▁ungdomsskole	-10.7752
▁skjell	-10.7753
▁ferie	-10.7773
▁hydro	-10.7776
grid	-10.7786
skaffet	-10.7866
▁nettsted	-10.7867
▁strategi	-10.7876
bølge	-10.7884
konsert	-10.7884
bryter	-10.7899
▁innlede	-10.79
drive	-10.7943
▁tryg	-10.7958
trær	-10.7959
▁hevn	-10.7972
▁russe	-10.7985
▁victor	-10.7993
▁bystyre	-10.8
▁forbinde	-10.8009
▁pavelig	-10.8016
▁nøkkel	-10.8017
▁symfoni	-10.8017
▁assosiert	-10.8017
▁canterbury	-10.8017
▁identifisert	-10.8017
▁jugoslavia	-10.8017
▁nowiki	-10.8017
▁popularitet	-10.8017
▁påbegynt	-10.8017
▁utnevnelse	-10.8017
▁buskerud	-10.8017
▁embeds	-10.8017
▁kommandør	-10.8017
▁komponert	-10.8017
▁mangfold	-10.8017
▁nynorsk	-10.8017
▁midtøsten	-10.8017
▁væske	-10.8017
▁regulert	-10.8017
▁ulovlig	-10.8017
▁sjeldne	-10.8017
▁massiv	-10.8019
▁kalender	-10.8019
▁stillehavet	-10.8019
▁samuel	-10.8019
▁forklare	-10.802
▁divers	-10.802
▁felttog	-10.802
▁smelte	-10.802
▁foreslått	-10.8022
▁langrenn	-10.8023
▁kongsberg	-10.8024
▁senator	-10.8028
▁tegninger	-10.8029
▁1884	-10.8034
▁rytter	-10.8035
liknende	-10.8035
▁lidelse	-10.8036
▁smør	-10.8043
▁koble	-10.8047
syssel	-10.8054
▁berømt	-10.8062
▁beholde	-10.8066
lekene	-10.8069
▁vinterleke	-10.8116
▁sønd	-10.813
▁rapportert	-10.8168
vall	-10.8174
meyer	-10.8182
▁verdenscup	-10.8192
tradisjon	-10.8194
temperatur	-10.8194
fold	-10.8223
bukten	-10.8283
revolusjonen	-10.8289
▁mislykke	-10.833
erklæring	-10.833
▁göteborg	-10.833
▁heinrich	-10.833
▁hongkong	-10.833
▁jomfru	-10.833
▁jordskjelv	-10.833
▁leipzig	-10.833
▁restaurant	-10.833
▁tsjekkoslovakia	-10.833
▁innspilt	-10.833
▁usikkert	-10.833
▁hjort	-10.833
▁permanent	-10.833
▁beatles	-10.833
▁utspring	-10.833
▁statsborger	-10.833
▁risiko	-10.833
▁senior	-10.833
▁trussel	-10.833
▁konkurs	-10.833
▁systematisk	-10.833
▁automatisk	-10.833
▁bassist	-10.8331
▁langvarig	-10.8331
▁visepresident	-10.8331
▁ekspert	-10.8331
▁partner	-10.8331
▁titler	-10.8332
▁fremført	-10.8332
▁røyk	-10.8333
▁svein	-10.8333
▁programvare	-10.8334
▁wilson	-10.8335
▁profil	-10.8337
▁piano	-10.834
▁larve	-10.8346
▁trommer	-10.8347
▁tillatt	-10.8352
▁avansert	-10.8354
ector	-10.8365
▁datert	-10.838
▁spark	-10.8407
▁næringsliv	-10.8407
▁ørn	-10.8418
tavle	-10.8443
▁innvie	-10.8459
▁krise	-10.8461
konsulent	-10.8474
psykologi	-10.8495
▁utarbeide	-10.8504
struktur	-10.8516
redaktør	-10.8517
divisjon	-10.8517
▁romantisk	-10.852
støtte	-10.8571
▁diplomatisk	-10.8572
▁franc	-10.8577
▁fortelle	-10.8581
næs	-10.8596
bragt	-10.8635
▁dominere	-10.865
vassdraget	-10.8652
▁alexandr	-10.8652
▁allikevel	-10.8652
▁columbia	-10.8652
▁ferskvann	-10.8652
▁forfremme	-10.8652
▁gymnas	-10.8652
▁liverpool	-10.8652
▁massachusetts	-10.8652
▁sarpsborg	-10.8652
▁1883	-10.8652
▁annerledes	-10.8652
syklus	-10.8652
▁gjennomgår	-10.8652
▁sykkel	-10.8652
▁utfordring	-10.8652
▁kobber	-10.8653
▁flukt	-10.8653
▁fremtidig	-10.8653
▁opphør	-10.8653
▁ålesund	-10.8653
sykepleie	-10.8653
▁stadium	-10.8653
▁vegetasjon	-10.8653
▁skjøt	-10.8653
▁tilskuer	-10.8653
syklist	-10.8654
▁naturgass	-10.8654
▁embete	-10.8655
▁clark	-10.8655
▁sverre	-10.8655
▁konsern	-10.8655
на	-10.8656
▁bakterie	-10.8656
▁bønder	-10.8656
▁tildeles	-10.8656
▁norway	-10.8657
▁hydrogen	-10.8657
▁sirkel	-10.8657
▁øvelsen	-10.8658
▁eiendommer	-10.8658
▁hovedkontor	-10.866
▁armensk	-10.866
▁torino	-10.8661
▁mandat	-10.8663
▁regiment	-10.8664
▁tolke	-10.8667
▁tilfeldig	-10.8674
▁karbon	-10.8675
▁variasjon	-10.8684
▁skikkelse	-10.8741
▁høyest	-10.8747
▁erobre	-10.882
litteratur	-10.885
prøve	-10.8854
skrekk	-10.8854
lokale	-10.8871
fabrik	-10.8904
snegl	-10.8919
medlemmer	-10.8953
▁inspirasjon	-10.8979
▁aftenposten	-10.8986
▁bryllup	-10.8986
▁eurovision	-10.8986
▁forvandling	-10.8986
▁kronprins	-10.8986
▁mongolia	-10.8986
▁republikansk	-10.8986
▁satellitt	-10.8986
▁trondhjem	-10.8986
▁vancouver	-10.8986
▁depresjon	-10.8986
▁innvandrer	-10.8986
▁investering	-10.8986
▁konstitusjon	-10.8986
▁omdøpt	-10.8986
▁referanse	-10.8986
▁gabriel	-10.8986
▁invitert	-10.8986
▁jesuitt	-10.8986
▁skjult	-10.8986
▁utstrakt	-10.8986
▁korrekt	-10.8986
▁ektemann	-10.8986
▁referert	-10.8986
▁bøndene	-10.8986
▁utrydde	-10.8986
▁følte	-10.8986
▁castle	-10.8986
▁stefan	-10.8986
▁beleiring	-10.8986
▁forventet	-10.8986
▁patrick	-10.8986
▁valuta	-10.8986
kommandant	-10.8986
▁mekanisk	-10.8986
▁andré	-10.8986
▁barokk	-10.8986
▁uklar	-10.8986
teatret	-10.8987
▁tempo	-10.8987
▁konseptet	-10.8987
▁magasinet	-10.8987
▁hedmark	-10.8989
▁kritisk	-10.8989
▁myrdet	-10.8989
▁spesifik	-10.899
▁smitte	-10.8991
▁spurt	-10.8991
▁zhang	-10.8992
ière	-10.8994
▁gjenvalg	-10.8995
▁holdning	-10.8996
▁amfi	-10.8999
▁identisk	-10.9
▁nedtegne	-10.9003
▁rederi	-10.9005
▁stanse	-10.9032
▁opplevelse	-10.9043
▁domkirke	-10.9064
▁utvide	-10.9101
vatn	-10.9122
tveit	-10.9149
vennlig	-10.9192
▁insekt	-10.9194
tilbud	-10.9195
sentral	-10.9197
ridge	-10.9241
▁bringe	-10.9252
▁alvor	-10.9286
kryss	-10.9291
inskripsjon	-10.933
▁assistent	-10.933
▁atmosfæren	-10.933
▁etiopia	-10.933
▁klassiker	-10.933
▁konsentrert	-10.933
▁lincoln	-10.933
▁narkotika	-10.933
▁pennsylvania	-10.933
▁potensiel	-10.933
▁shakespeare	-10.933
▁slalåm	-10.933
▁angivelig	-10.933
▁teoretisk	-10.933
▁afghansk	-10.933
▁opphevet	-10.933
▁erkebispedømme	-10.933
▁sicilia	-10.933
▁vurdere	-10.933
▁romerriket	-10.933
▁jersey	-10.933
▁misjonær	-10.933
▁atlanta	-10.9331
▁ordinær	-10.9331
▁contest	-10.9331
▁dekorert	-10.9331
mouth	-10.9331
▁larvik	-10.9331
▁bemerket	-10.9331
▁sophi	-10.9332
▁turbiner	-10.9333
▁spyd	-10.9333
▁tallrike	-10.9333
worth	-10.9335
▁indikere	-10.9335
▁sosialdemokrat	-10.9336
▁stedsnavn	-10.9338
slavisk	-10.9339
vilkår	-10.934
▁støv	-10.9344
muligheter	-10.9356
▁oppleve	-10.9358
▁fjerdeplass	-10.9371
▁månen	-10.9374
▁tidligst	-10.9377
oksid	-10.9382
nettverk	-10.9382
▁forbli	-10.9387
▁allianse	-10.9401
torget	-10.9428
▁inngå	-10.9447
▁treffe	-10.9462
▁motorvei	-10.9533
representant	-10.9534
▁frost	-10.9543
tetthet	-10.9545
historiker	-10.9552
bekken	-10.9559
vunnet	-10.9565
demokrati	-10.9567
pierre	-10.9627
▁høgskolen	-10.9636
orientert	-10.967
▁demokrat	-10.9671
fatning	-10.968
▁dverg	-10.9683
▁napoleon	-10.9687
▁fiendtlig	-10.9688
▁færøysk	-10.9688
▁homofil	-10.9688
▁kullkraftverk	-10.9688
▁landkreis	-10.9688
▁låtskriver	-10.9688
▁skandinavisk	-10.9688
▁ukrainsk	-10.9688
▁vladimir	-10.9688
▁windows	-10.9688
▁stjørdal	-10.9688
▁abraham	-10.9688
▁avslutning	-10.9688
▁xiàn	-10.9688
▁colombia	-10.9688
▁identitet	-10.9688
▁forkropp	-10.9688
▁sigurd	-10.9688
diskutert	-10.9688
▁fiktiv	-10.9688
▁ohio	-10.9688
▁kristus	-10.9688
døgnflue	-10.9688
▁selvmord	-10.9688
▁haakon	-10.9688
ensemble	-10.9688
▁møtt	-10.9689
▁novell	-10.9689
▁innvalgt	-10.9689
▁finansminister	-10.969
skildring	-10.969
aceae	-10.9691
▁oppfølger	-10.9691
▁tsar	-10.9698
schaft	-10.9699
▁skuespillerinne	-10.9706
basseng	-10.9707
▁uniform	-10.9716
tribune	-10.9722
▁harmoni	-10.9723
▁elektro	-10.976
krem	-10.976
utstyr	-10.9766
▁sparta	-10.9815
▁nevro	-10.985
▁inneba	-10.9861
▁konsul	-10.9897
ekspedisjon	-10.992
kandidat	-10.9922
grønn	-10.9922
oppgave	-10.9935
drevne	-10.9943
føde	-11
ifikasjon	-11.0053
▁konsentrasjon	-11.0056
▁anerkjennelse	-11.0058
▁angelsaksisk	-11.0058
▁association	-11.0058
▁individuelt	-11.0058
▁köln	-11.0058
▁mccartney	-11.0058
▁palestinsk	-11.0058
▁skandinavia	-11.0058
▁venezuela	-11.0058
▁benjamin	-11.0058
▁engasjement	-11.0058
▁frimurer	-11.0058
▁hollywood	-11.0058
▁interessant	-11.0058
▁oksygen	-11.0058
▁forsikring	-11.0058
▁omstridt	-11.0058
▁ptolem	-11.0058
▁katalog	-11.0058
▁firenze	-11.0058
▁evangeli	-11.0058
▁margaret	-11.0058
▁prince	-11.0058
▁kontrast	-11.0058
▁fødselsår	-11.0058
▁begravet	-11.0058
▁regulere	-11.0058
▁rasmus	-11.0058
▁skåne	-11.0058
▁andorra	-11.0058
▁armenia	-11.0058
▁rumensk	-11.0059
▁spekul	-11.0059
▁symptomer	-11.0059
▁claudi	-11.0061
planlegging	-11.0063
▁dannelsen	-11.0066
▁komplekse	-11.0079
elektr	-11.0083
▁sjanse	-11.0089
▁kredit	-11.0175
▁avslutte	-11.0269
▁relativ	-11.0269
dømt	-11.0311
scenen	-11.0327
fellesskap	-11.035
bombe	-11.0355
funnet	-11.0373
▁cæsar	-11.0442
▁geoffrey	-11.0442
▁illustrert	-11.0442
▁musikkvideo	-11.0442
▁nobelprisen	-11.0442
▁oppslutning	-11.0442
▁psykisk	-11.0442
▁uttrykt	-11.0442
▁ferdinand	-11.0442
▁skribent	-11.0442
▁våpenhvile	-11.0442
▁telegraf	-11.0443
▁ovenfor	-11.0443
▁skihopper	-11.0443
▁amatør	-11.0443
▁essay	-11.0443
▁aktuell	-11.0443
▁deutsche	-11.0443
▁publikasjon	-11.0443
▁forklart	-11.0443
▁tendens	-11.0443
leverandør	-11.0443
▁brasiliansk	-11.0443
▁fredsavtale	-11.0443
▁noensinne	-11.0443
▁ørken	-11.0444
▁søstre	-11.0444
▁erstatning	-11.0444
▁døpt	-11.0444
▁justis	-11.0444
▁hyppig	-11.0444
▁senterpartiet	-11.0444
▁harvard	-11.0446
▁brønn	-11.0446
▁forhandlingene	-11.0446
▁profet	-11.0447
▁forestillingen	-11.0451
skatt	-11.0451
▁etterlatt	-11.0453
▁befeste	-11.0458
▁kaffe	-11.0458
▁håndtere	-11.0466
▁nerve	-11.0469
▁nederst	-11.0482
flytting	-11.0507
hovedstad	-11.0672
president	-11.0706
institutt	-11.0707
hockeyspiller	-11.0707
fattet	-11.0764
▁doktor	-11.0842
▁ambisjoner	-11.0842
▁britannia	-11.0842
▁drivstoff	-11.0842
▁identifisere	-11.0842
▁makedonia	-11.0842
▁patriark	-11.0842
▁resolusjon	-11.0842
▁storslalåm	-11.0842
▁vålerenga	-11.0842
▁fasettøyne	-11.0842
▁muslimer	-11.0842
▁oppvarming	-11.0842
▁psykiatri	-11.0842
▁reservoar	-11.0842
▁akseptere	-11.0843
▁besittelse	-11.0843
▁kennedy	-11.0843
▁kjønnsmod	-11.0843
▁utendørs	-11.0843
admiral	-11.0843
▁attentat	-11.0843
▁texas	-11.0843
▁autoritet	-11.0843
▁faktum	-11.0843
▁leilighet	-11.0843
protokoll	-11.0843
▁begravelse	-11.0843
▁opprykk	-11.0843
▁tilbrakt	-11.0843
▁barnehage	-11.0843
▁sibir	-11.0843
▁fangst	-11.0844
▁abbed	-11.0844
▁undertegnet	-11.0844
▁bakvingen	-11.0844
▁filmatiser	-11.0844
▁enklere	-11.0845
▁mineral	-11.0845
▁nyhets	-11.0845
mekanisme	-11.0847
▁belønne	-11.0849
▁foretrekke	-11.0854
▁blank	-11.0854
kommandere	-11.0858
▁kunngjor	-11.0872
regnskap	-11.0921
montert	-11.1035
forsvarsminister	-11.1054
▁kriminal	-11.1097
instrument	-11.1123
▁antikke	-11.1139
▁utøve	-11.1186
butikk	-11.1213
▁absolutt	-11.1259
▁cappelen	-11.1259
▁central	-11.1259
▁dekkvingene	-11.1259
▁folkeavstemning	-11.1259
▁infrastruktur	-11.1259
▁restaurering	-11.1259
▁society	-11.1259
▁wergeland	-11.1259
▁fjorten	-11.1259
▁katarina	-11.1259
▁progressiv	-11.1259
▁brandenburg	-11.1259
▁grekerne	-11.1259
▁sogneprest	-11.1259
▁kollaps	-11.1259
diagnose	-11.1259
▁jamaica	-11.1259
▁forenklet	-11.1259
▁snorre	-11.1259
▁forfedre	-11.1259
▁kollega	-11.1259
▁seoul	-11.126
▁regjere	-11.126
galleriet	-11.126
forurensning	-11.126
▁fremtreden	-11.126
▁tokyo	-11.126
▁dødsfall	-11.126
▁søsken	-11.126
vektklassen	-11.1261
▁innflytelsesrik	-11.1261
▁styring	-11.1261
thorax	-11.1261
▁nomad	-11.1262
▁rettferdig	-11.1262
krystall	-11.1262
▁sannhet	-11.1264
▁støp	-11.1265
▁avgjørelse	-11.1267
▁isolert	-11.1269
▁ragnar	-11.1271
▁manuel	-11.1281
▁ivareta	-11.1437
▁messi	-11.1482
▁bakkropp	-11.1539
▁birg	-11.1557
størrelse	-11.1558
europeisk	-11.1559
blanding	-11.1559
▁observato	-11.1593
alliansen	-11.1606
▁hovedrolle	-11.1643
▁academy	-11.1694
▁atlanterhavet	-11.1694
▁ektefelle	-11.1694
▁glasgow	-11.1694
▁heidelberg	-11.1694
▁keyboard	-11.1694
▁kontroversiell	-11.1694
▁korrupsjon	-11.1694
▁kroatia	-11.1694
▁michigan	-11.1694
▁pilegrim	-11.1694
▁alminnelig	-11.1694
▁horisontal	-11.1694
▁hønefoss	-11.1694
▁kapittel	-11.1694
▁opprettholde	-11.1694
▁taiwan	-11.1694
▁varmekraftverk	-11.1694
▁hospital	-11.1694
▁forberedt	-11.1694
▁signatur	-11.1694
▁larvestadie	-11.1694
▁rovdyr	-11.1694
▁kvadrat	-11.1694
football	-11.1694
▁zevs	-11.1694
▁cecil	-11.1694
▁sanskrit	-11.1694
▁tolkning	-11.1694
▁løslatt	-11.1694
▁konklave	-11.1694
▁oppfinnelse	-11.1694
▁anatoli	-11.1694
▁reglene	-11.1694
▁forbedring	-11.1694
▁bebodd	-11.1694
▁fangenskap	-11.1694
▁skjebne	-11.1695
formidling	-11.1695
▁monroe	-11.1695
▁konrad	-11.1696
▁tørke	-11.1696
betjent	-11.1696
▁stryk	-11.1697
▁gjenopprette	-11.1697
▁advent	-11.1698
▁flanke	-11.1701
rettighetene	-11.1701
plikasjon	-11.1753
▁konferanse	-11.1765
knutepunkt	-11.1786
hvelv	-11.1805
▁alliert	-11.1858
nevnte	-11.1953
kreditert	-11.2009
administrasjon	-11.2012
student	-11.2013
provinsen	-11.2013
gruve	-11.2021
▁omdanne	-11.2136
sadvokat	-11.2148
▁aristokrat	-11.2148
spellemannprisen	-11.2148
▁arrangør	-11.2148
▁begivenhet	-11.2148
▁buddhistisk	-11.2148
▁bysantinsk	-11.2148
▁illinois	-11.2148
▁innvilget	-11.2148
▁intellektuelle	-11.2148
▁isabella	-11.2148
▁konkurrent	-11.2148
▁metamorfose	-11.2148
▁normandie	-11.2148
▁plutselig	-11.2148
▁reflektere	-11.2148
▁styrmann	-11.2148
▁supporter	-11.2148
▁sørkoreansk	-11.2148
▁tilstedeværelse	-11.2148
▁varaordfører	-11.2148
▁westfalen	-11.2148
▁artsbestemme	-11.2148
▁invadert	-11.2148
▁kjernekraftverk	-11.2148
▁mercedes	-11.2148
▁uavgjort	-11.2148
▁anmelder	-11.2149
▁bombard	-11.2149
▁innstifte	-11.2149
▁mandsju	-11.2149
▁taliban	-11.2149
▁grieg	-11.2149
▁hamilton	-11.2149
▁veksel	-11.2149
▁dublin	-11.2149
▁matematisk	-11.2149
▁heavy	-11.2149
▁guinea	-11.2149
▁napoli	-11.2149
▁kjennetegn	-11.2149
▁kjæreste	-11.2149
stemmig	-11.2149
▁stanley	-11.2149
▁nevner	-11.2149
▁serbia	-11.2149
▁fantasi	-11.2149
▁arkitektonisk	-11.2149
▁ekeberg	-11.2149
▁walisisk	-11.2149
▁kombinere	-11.2149
▁stortingsvalge	-11.2149
▁margin	-11.215
▁kjøpmann	-11.215
▁magnetisk	-11.215
▁detroit	-11.215
▁dream	-11.215
▁harrison	-11.215
▁marsjert	-11.2153
kobling	-11.2157
▁bekjempe	-11.216
▁forfølgelse	-11.2161
▁moderat	-11.2161
▁genetisk	-11.2169
ampton	-11.2174
gyldig	-11.2196
utenrikspolitikk	-11.2215
østsiden	-11.2242
spørsmål	-11.2489
medisin	-11.2489
teknologi	-11.2489
kloster	-11.2489
operasjon	-11.2503
resultate	-11.2588
konservativ	-11.2621
symptom	-11.2623
▁psyko	-11.2624
direktoratet	-11.2625
nationaltheatret	-11.2625
pningsseremonien	-11.2625
representasjon	-11.2625
▁bulgarsk	-11.2625
▁christopher	-11.2625
▁council	-11.2625
▁demonstrasjon	-11.2625
▁emigrerte	-11.2625
▁guangdong	-11.2625
▁gælisk	-11.2625
▁helikopter	-11.2625
▁kasakhstan	-11.2625
▁klassifisert	-11.2625
▁meksikansk	-11.2625
▁microsoft	-11.2625
▁prestegjeld	-11.2625
▁puppestadi	-11.2625
▁registrere	-11.2625
▁restaurert	-11.2625
▁sebastian	-11.2625
▁tsjekkia	-11.2625
▁tsjekkisk	-11.2625
▁nidaros	-11.2625
▁høvding	-11.2625
▁opplysninger	-11.2625
▁quisling	-11.2625
▁ustabil	-11.2625
▁gjøvik	-11.2625
▁frogner	-11.2625
▁forlengelse	-11.2625
▁hertugdømmet	-11.2625
▁interiør	-11.2625
▁dramatiker	-11.2625
▁muntlig	-11.2625
▁unesco	-11.2625
▁söder	-11.2625
grunnsstasjon	-11.2625
▁dresden	-11.2625
▁trykt	-11.2625
▁kortvarig	-11.2625
▁husholdning	-11.2625
▁fascist	-11.2625
▁arsenal	-11.2625
▁sandefjord	-11.2625
▁utkjempet	-11.2625
▁hovedpersonen	-11.2625
▁senatet	-11.2625
▁anthon	-11.2625
▁klostre	-11.2625
▁panama	-11.2625
▁landbruket	-11.2625
▁reidar	-11.2625
▁geistlig	-11.2625
▁russerne	-11.2626
▁vakre	-11.2626
▁relatert	-11.2626
▁militar	-11.2626
▁verktøy	-11.2626
krisen	-11.2628
▁kråk	-11.2629
▁formulert	-11.2629
▁kanadisk	-11.2631
▁keltisk	-11.2631
▁fossile	-11.2638
rustning	-11.2647
▁formidle	-11.2659
oppdrett	-11.2699
▁studert	-11.2859
annalene	-11.2894
orkester	-11.2989
biskop	-11.299
kapital	-11.2992
▁hendelse	-11.3014
høv	-11.3029
medlemmene	-11.3051
▁forekomme	-11.3052
▁diplom	-11.3109
▁corporation	-11.3125
▁douglas	-11.3125
▁etterspørsel	-11.3125
▁filippinene	-11.3125
▁fremragende	-11.3125
▁fundamental	-11.3125
▁generalmajor	-11.3125
▁indoeuropeisk	-11.3125
▁konkludert	-11.3125
▁kontinuerlig	-11.3125
▁kosovo	-11.3125
▁legendarisk	-11.3125
▁lovgivning	-11.3125
▁nürnberg	-11.3125
▁omgivelsene	-11.3125
▁propaganda	-11.3125
▁sørafrikansk	-11.3125
▁tilflukt	-11.3125
▁vellykket	-11.3125
▁væpne	-11.3125
▁billboard	-11.3125
0	-11.6101
ã	-11.8383
