<unk>	0
<s>	0
</s>	0
.	-3.2344
s	-3.49901
e	-3.57664
▁i	-3.73193
▁og	-3.97046
▁	-3.99682
t	-4.04878
er	-4.12291
en	-4.17734
▁av	-4.50391
r	-4.53024
▁er	-4.57503
▁en	-4.72323
▁som	-4.78175
▁for	-4.84376
▁til	-4.88075
n	-4.88856
et	-4.95483
▁på	-4.95864
▁med	-5.06671
▁den	-5.20761
a	-5.26749
▁ble	-5.29493
▁var	-5.34243
▁de	-5.40672
▁det	-5.41771
▁fra	-5.48024
ene	-5.59443
▁et	-5.64676
▁har	-5.64818
▁å	-5.69595
▁han	-5.70025
i	-5.75352
d	-5.8099
ne	-5.84476
k	-5.85592
o	-5.86747
g	-5.9205
y	-5.99069
▁ved	-6.00377
▁at	-6.12951
te	-6.15746
l	-6.16896
▁også	-6.22926
m	-6.24849
de	-6.26351
▁om	-6.28544
▁ut	-6.29322
f	-6.33977
▁etter	-6.34007
▁under	-6.39126
▁eller	-6.43964
p	-6.45681
c	-6.46062
re	-6.49022
h	-6.49414
v	-6.50804
es	-6.51439
▁over	-6.51621
us	-6.52016
▁kan	-6.53116
▁opp	-6.54288
▁be	-6.55414
▁to	-6.57027
▁inn	-6.58289
b	-6.59243
▁s	-6.62871
an	-6.63151
ing	-6.644
u	-6.66364
▁men	-6.6661
▁da	-6.66673
in	-6.67183
al	-6.6734
▁seg	-6.70773
▁hadde	-6.72324
le	-6.74069
▁a	-6.77391
sk	-6.80122
z	-6.80228
▁mot	-6.80877
▁ikke	-6.80909
ende	-6.81347
is	-6.82939
▁18	-6.83585
▁andre	-6.83976
na	-6.85325
on	-6.8779
▁the	-6.88356
▁sin	-6.89029
ter	-6.89657
▁mellom	-6.91704
▁født	-6.97027
ia	-6.98081
▁ha	-6.99063
w	-7.03162
▁f	-7.03315
▁første	-7.04179
▁m	-7.04827
▁tre	-7.05458
▁hun	-7.05572
ar	-7.05683
▁u	-7.07494
▁ligger	-7.08308
▁dette	-7.08778
▁1	-7.08808
▁hans	-7.08829
j	-7.11362
sen	-7.11605
▁der	-7.15058
ke	-7.15831
▁k	-7.16241
lig	-7.16388
▁man	-7.1743
▁blant	-7.17594
vis	-7.17857
▁re	-7.18303
um	-7.19236
land	-7.19246
▁la	-7.19869
▁fikk	-7.19914
ma	-7.20087
il	-7.20217
ning	-7.21049
ens	-7.22178
ch	-7.22503
▁ca	-7.23151
▁sammen	-7.233
▁p	-7.23906
▁nord	-7.244
▁c	-7.24438
▁d	-7.24558
ta	-7.24574
la	-7.24844
or	-7.25292
▁kom	-7.25722
li	-7.26029
▁b	-7.28058
ra	-7.28645
▁2	-7.28696
ur	-7.29244
▁flere	-7.2941
▁gjennom	-7.30114
▁denne	-7.30709
▁of	-7.31332
▁an	-7.31569
ck	-7.32156
ske	-7.32838
el	-7.33074
iske	-7.33361
ver	-7.34082
x	-7.34686
▁del	-7.35447
isk	-7.35645
øy	-7.35687
▁se	-7.35932
▁her	-7.36653
be	-7.36742
kk	-7.37529
é	-7.38237
ler	-7.39695
▁nå	-7.39778
da	-7.40078
ri	-7.40249
å	-7.41758
▁al	-7.42465
ng	-7.42693
▁h	-7.43703
ve	-7.43956
▁kommune	-7.44072
▁g	-7.44153
ry	-7.44302
▁17	-7.44307
tt	-7.44463
der	-7.45303
▁stor	-7.45629
▁før	-7.45795
▁år	-7.45804
▁ro	-7.45975
ig	-7.46563
▁3	-7.46623
as	-7.47331
for	-7.47386
▁hvor	-7.47735
os	-7.47934
▁tidligere	-7.48464
▁vi	-7.48601
ø	-7.49033
▁blir	-7.49226
ner	-7.49338
▁v	-7.49622
ga	-7.4974
ge	-7.49999
▁bo	-7.50985
▁kr	-7.51404
nde	-7.52315
▁alle	-7.52398
den	-7.52687
▁16	-7.52995
ut	-7.53546
▁så	-7.53903
▁pi	-7.54011
▁norsk	-7.54564
nes	-7.54566
son	-7.54863
lo	-7.55069
▁annet	-7.56679
ul	-7.56711
▁n	-7.56798
ad	-7.56849
dal	-7.56936
▁4	-7.56973
at	-7.57521
▁mange	-7.57636
▁le	-7.57806
▁kon	-7.57856
ff	-7.58009
▁død	-7.5874
▁5	-7.5943
▁hoved	-7.60815
it	-7.61261
▁by	-7.61292
to	-7.6165
ka	-7.62031
ist	-7.62115
ger	-7.62406
▁byen	-7.62483
▁mer	-7.62525
▁l	-7.6256
▁w	-7.62776
▁sitt	-7.63043
het	-7.6307
▁he	-7.63769
bo	-7.64028
stad	-7.64252
▁disse	-7.64285
▁t	-7.64306
id	-7.64474
▁ny	-7.64537
di	-7.64537
▁li	-7.65287
ja	-7.6605
mi	-7.66103
▁15	-7.66765
skap	-7.66941
▁o	-7.67031
ste	-7.67145
▁sør	-7.67349
▁ra	-7.67562
ton	-7.6759
▁mens	-7.68424
kt	-7.68563
▁noen	-7.69659
lige	-7.70243
gen	-7.70312
man	-7.70371
▁senere	-7.70437
ro	-7.70779
▁ofte	-7.71449
▁st	-7.71612
erte	-7.72178
ell	-7.7253
▁di	-7.72834
1	-7.73346
▁ta	-7.73432
▁j	-7.73689
▁ka	-7.73755
mp	-7.73899
▁in	-7.74377
▁være	-7.74854
mo	-7.75486
ll	-7.75783
▁ga	-7.75845
▁ni	-7.76047
▁navnet	-7.76122
▁mo	-7.76237
▁siden	-7.76898
▁co	-7.77025
▁sp	-7.77421
▁ned	-7.78226
▁selv	-7.78392
▁store	-7.78575
▁sa	-7.78643
▁land	-7.78939
▁kjent	-7.79295
ker	-7.7966
▁samt	-7.80591
▁na	-7.80624
▁frem	-7.81068
▁ar	-7.81341
th	-7.81861
▁as	-7.82005
mann	-7.82117
▁per	-7.82197
ster	-7.82644
else	-7.82748
by	-7.82867
pe	-7.8315
▁dag	-7.83295
ti	-7.84062
▁vil	-7.8412
bi	-7.84362
▁rundt	-7.84499
▁ti	-7.84763
▁10	-7.85002
▁mest	-7.8534
ha	-7.85788
3	-7.86207
ko	-7.86337
erne	-7.86636
▁6	-7.86735
me	-7.87255
▁vest	-7.87487
▁skal	-7.87631
var	-7.88053
▁norge	-7.88361
▁ri	-7.8859
bu	-7.88763
▁finnes	-7.8893
iv	-7.89617
gi	-7.8998
▁ma	-7.90029
ic	-7.90106
▁tallet	-7.90138
ed	-7.90554
op	-7.90897
▁si	-7.91194
om	-7.91233
▁samme	-7.915
▁vært	-7.91635
▁7	-7.91715
▁lo	-7.91936
▁går	-7.92106
va	-7.92184
▁navn	-7.92786
▁både	-7.93321
▁12	-7.93385
▁sine	-7.93654
asjon	-7.93775
ion	-7.93818
tter	-7.93925
▁fa	-7.93926
▁øst	-7.93969
ven	-7.94538
▁far	-7.94548
ol	-7.94727
ling	-7.95544
▁bu	-7.95684
go	-7.95845
ce	-7.959
vi	-7.96459
▁kalt	-7.9668
ør	-7.97015
▁14	-7.97189
▁fire	-7.97566
▁hver	-7.97615
berg	-7.97838
æ	-7.97948
ant	-7.9799
▁and	-7.98097
▁lu	-7.98112
▁ho	-7.98508
je	-7.98713
mer	-7.99011
▁pa	-7.99073
am	-7.99094
▁mor	-7.99493
▁mai	-7.99749
men	-8.00211
▁bak	-8.00264
▁or	-8.00848
▁gi	-8.01285
▁du	-8.01311
▁tid	-8.01364
▁no	-8.01715
▁hos	-8.02024
▁do	-8.02138
ba	-8.02139
ina	-8.02209
▁kirke	-8.02361
ä	-8.02463
ir	-8.02611
▁enn	-8.02649
lin	-8.0368
sh	-8.03927
▁po	-8.04051
si	-8.04097
ingen	-8.04371
▁bestå	-8.04477
▁norske	-8.04625
▁kunne	-8.05043
od	-8.05656
opp	-8.05714
▁8	-8.05775
▁største	-8.05924
pp	-8.06359
rett	-8.06536
▁9	-8.06614
▁sch	-8.07026
gang	-8.0714
do	-8.07332
ings	-8.07361
sel	-8.07385
▁el	-8.07778
▁bar	-8.07853
▁ham	-8.07903
▁13	-8.08021
▁hu	-8.08332
▁fri	-8.08661
no	-8.08875
▁blitt	-8.08992
▁su	-8.09376
▁bi	-8.09407
ment	-8.09782
▁lang	-8.09931
▁am	-8.101
▁slik	-8.10288
au	-8.10294
▁skulle	-8.1039
år	-8.10419
lu	-8.10773
á	-8.1082
▁ol	-8.1093
ns	-8.11137
▁so	-8.11161
ca	-8.11611
▁fly	-8.1199
▁gu	-8.1209
2	-8.12192
ard	-8.12257
▁lag	-8.12275
▁km	-8.12634
ær	-8.12724
▁fl	-8.13081
▁sam	-8.13098
▁mars	-8.13118
lag	-8.13243
ud	-8.13315
▁me	-8.13493
ering	-8.13529
▁bare	-8.13859
▁go	-8.13922
itt	-8.14035
▁noe	-8.14273
vik	-8.14387
ot	-8.14404
gu	-8.14619
▁11	-8.14667
im	-8.14948
▁gikk	-8.15075
▁ba	-8.15152
sjon	-8.1553
▁fi	-8.15556
ho	-8.15566
▁fram	-8.15728
ni	-8.15857
▁r	-8.15871
▁vant	-8.15978
over	-8.16019
tra	-8.16242
▁juli	-8.16405
del	-8.16541
▁tok	-8.16646
▁mar	-8.16674
▁nye	-8.16982
▁film	-8.17309
▁sk	-8.17472
▁ei	-8.17623
ken	-8.1771
▁0	-8.18146
gg	-8.18195
▁vann	-8.18251
ik	-8.18389
▁pe	-8.18653
▁20	-8.18667
▁jo	-8.18758
co	-8.1907
hold	-8.19094
▁grunn	-8.19132
ü	-8.19611
▁nær	-8.19645
▁skole	-8.19751
▁januar	-8.20016
▁oslo	-8.20049
sted	-8.20167
tal	-8.20431
▁ko	-8.2045
▁august	-8.2124
▁alt	-8.22016
ium	-8.22559
▁ak	-8.22652
▁tra	-8.22657
ans	-8.2269
ö	-8.23365
▁mat	-8.23603
pa	-8.23869
▁ru	-8.23908
▁området	-8.24494
▁hele	-8.24664
▁mål	-8.24818
▁y	-8.24887
▁usa	-8.2503
elle	-8.2514
io	-8.25181
per	-8.25354
▁sol	-8.25397
▁ne	-8.26162
▁pro	-8.26243
ologi	-8.26244
▁tro	-8.26366
ov	-8.26678
ok	-8.268
ft	-8.26848
nd	-8.26929
ie	-8.27338
▁john	-8.27382
▁innen	-8.2749
lse	-8.27513
▁000	-8.28315
▁wa	-8.28846
▁små	-8.2891
▁sønn	-8.29198
un	-8.2922
min	-8.29304
ly	-8.29382
siden	-8.29479
▁tri	-8.29623
ang	-8.29788
▁tor	-8.29855
▁musikk	-8.29875
ring	-8.29945
▁juni	-8.30199
▁rekke	-8.30371
▁gang	-8.30381
ningen	-8.30512
▁vanlig	-8.30568
ag	-8.30611
▁utgitt	-8.31012
▁gift	-8.31101
▁siste	-8.31391
▁like	-8.31441
tak	-8.31449
▁tillegg	-8.31597
▁min	-8.32166
▁bli	-8.32505
▁tilbake	-8.32525
▁dem	-8.32667
▁folke	-8.32895
par	-8.3313
▁langs	-8.33305
ci	-8.33312
6	-8.33432
▁kinesisk	-8.3344
ian	-8.33461
▁leder	-8.33748
▁meter	-8.33927
▁mi	-8.34112
len	-8.34162
bar	-8.34443
▁kultur	-8.34507
▁russisk	-8.34987
▁kunst	-8.35012
he	-8.35227
▁laget	-8.35259
tre	-8.35517
hi	-8.35554
▁2008	-8.35562
í	-8.35586
▁kl	-8.35761
▁ge	-8.35822
vin	-8.35893
▁tv	-8.35943
ow	-8.36126
▁bra	-8.36188
ede	-8.36284
▁rett	-8.36447
hu	-8.36814
▁oktober	-8.3698
▁con	-8.3713
hus	-8.3748
kon	-8.37615
▁egen	-8.38346
tu	-8.38493
les	-8.38608
yl	-8.38647
▁april	-8.3892
▁va	-8.38923
po	-8.39175
▁videre	-8.39182
ord	-8.39197
▁eksempel	-8.3941
▁2007	-8.39694
▁landet	-8.40123
▁øy	-8.40225
▁spilte	-8.40456
▁san	-8.40696
ong	-8.40872
met	-8.4089
▁språk	-8.41195
dag	-8.4138
ius	-8.41583
▁brukes	-8.41606
▁gjen	-8.41743
ak	-8.41862
▁eks	-8.41897
▁uten	-8.41923
ber	-8.41927
▁fo	-8.42042
▁new	-8.42081
▁car	-8.42142
▁begge	-8.4217
▁lys	-8.42178
▁få	-8.42298
▁2010	-8.42418
▁deres	-8.42692
▁først	-8.42772
kel	-8.42963
▁kar	-8.43008
▁ste	-8.43081
▁desember	-8.4317
▁kun	-8.43369
itet	-8.43544
▁kalles	-8.43628
▁ulike	-8.43889
▁må	-8.44051
dy	-8.44068
▁lå	-8.441
4	-8.44102
verk	-8.44234
følge	-8.44374
▁hel	-8.44803
▁all	-8.44808
ru	-8.44889
▁ja	-8.44901
ny	-8.44973
ator	-8.44997
▁sand	-8.45332
▁ch	-8.45449
▁pu	-8.45572
ron	-8.45634
ier	-8.45655
stein	-8.45742
▁september	-8.45758
▁kommer	-8.45778
▁hus	-8.45892
▁ki	-8.4591
av	-8.46267
▁mindre	-8.46309
▁te	-8.46311
bre	-8.46346
▁spiller	-8.46538
▁gruppen	-8.46562
ley	-8.46701
dre	-8.47046
stil	-8.47184
▁par	-8.47737
mar	-8.47744
ty	-8.47787
vo	-8.47923
▁x	-8.48004
▁november	-8.48145
ku	-8.48166
5	-8.48246
▁ju	-8.48267
kte	-8.48283
▁fem	-8.48426
nder	-8.48527
▁skrev	-8.48761
ph	-8.48919
▁februar	-8.48954
▁ad	-8.49387
pi	-8.49453
▁val	-8.49476
tur	-8.4972
▁ski	-8.49753
ble	-8.49799
00	-8.49883
stre	-8.50164
▁kong	-8.50176
kan	-8.50219
sta	-8.50497
▁gir	-8.50929
▁sjø	-8.50999
▁ab	-8.51048
▁høy	-8.51179
▁verdens	-8.51309
▁større	-8.51398
em	-8.51919
▁25	-8.52038
ju	-8.52436
▁lever	-8.52492
▁ur	-8.5261
▁bruk	-8.52623
▁halv	-8.52782
▁hennes	-8.5279
tiske	-8.52865
fi	-8.53037
▁opprinnelig	-8.53098
▁pre	-8.5334
tok	-8.53467
dan	-8.5359
ine	-8.53687
▁dr	-8.53915
▁roman	-8.53927
midlertid	-8.53951
▁30	-8.5405
▁god	-8.54201
ikk	-8.54205
▁kina	-8.54256
sten	-8.54352
▁hi	-8.54377
▁parti	-8.54387
▁startet	-8.54415
▁tysk	-8.54691
▁bil	-8.54788
mme	-8.5481
▁kort	-8.54814
tid	-8.55005
▁2009	-8.55385
ige	-8.55419
elsen	-8.55423
▁sen	-8.55446
tisk	-8.55528
▁art	-8.55528
▁provinsen	-8.55536
kker	-8.55604
til	-8.56114
▁em	-8.56173
▁form	-8.56229
▁begynte	-8.5625
▁stort	-8.56251
ld	-8.56327
ks	-8.56332
▁ver	-8.56508
▁2005	-8.56549
satt	-8.56555
▁filmen	-8.56843
gel	-8.56925
ninger	-8.56957
▁fu	-8.5698
sp	-8.57494
▁mel	-8.57573
▁president	-8.57815
ran	-8.57908
tro	-8.57994
▁døde	-8.58069
und	-8.58069
mål	-8.581
dig	-8.58204
▁brukt	-8.58232
▁igjen	-8.58325
▁særlig	-8.58335
▁nasjonal	-8.58383
su	-8.58838
▁skrevet	-8.58855
mb	-8.58901
▁bok	-8.59095
▁engelsk	-8.59137
ó	-8.59264
▁kjente	-8.59537
art	-8.59794
kom	-8.59828
▁bro	-8.59933
borg	-8.60069
▁helt	-8.6009
▁stein	-8.60164
▁mu	-8.60308
let	-8.60359
▁sommer	-8.60531
▁internasjonal	-8.60715
dalen	-8.6081
▁ord	-8.60884
inn	-8.60893
▁2006	-8.61029
▁beste	-8.6108
burg	-8.61096
dd	-8.61122
▁bru	-8.61203
▁kn	-8.61464
▁nest	-8.61857
▁årene	-8.61909
▁gamle	-8.61941
stilling	-8.61963
mor	-8.62029
▁plan	-8.62227
▁vei	-8.62356
▁fast	-8.62585
and	-8.62607
slag	-8.62738
▁amerikansk	-8.62862
▁fr	-8.62991
▁vel	-8.63107
est	-8.63189
mon	-8.6335
▁grad	-8.63636
ham	-8.63657
▁året	-8.64076
▁rom	-8.64398
jø	-8.64468
▁tidlig	-8.64554
tor	-8.64593
▁fred	-8.64716
ip	-8.64878
sch	-8.64884
derfor	-8.64995
ill	-8.65004
▁fjell	-8.65039
fly	-8.65254
▁deretter	-8.65414
ica	-8.65576
bruk	-8.65611
ting	-8.65807
▁norges	-8.6602
vel	-8.66049
▁bl	-8.6612
▁sett	-8.66144
▁dom	-8.66216
▁lokal	-8.66246
ac	-8.66274
▁2011	-8.66356
ation	-8.66359
▁op	-8.66398
▁familien	-8.66453
bil	-8.66465
kor	-8.66657
▁hen	-8.66683
▁forskjellige	-8.66779
▁grav	-8.66804
fjorden	-8.66943
vet	-8.67281
▁z	-8.6736
▁syn	-8.67414
▁selskapet	-8.67415
ung	-8.67537
lands	-8.67638
▁gjorde	-8.6765
▁gresk	-8.67775
bb	-8.67823
▁luft	-8.6803
vann	-8.6806
▁svær	-8.68139
▁politisk	-8.6815
▁bre	-8.68171
rik	-8.68185
▁kv	-8.68298
▁innbyggere	-8.68302
▁innenfor	-8.68724
▁dermed	-8.69017
▁nor	-8.69043
8	-8.69248
▁seks	-8.69268
▁mus	-8.69482
▁mye	-8.69713
løp	-8.69744
▁kor	-8.69797
▁ty	-8.69874
▁fag	-8.69922
tan	-8.69935
▁vin	-8.70216
▁medlem	-8.70353
▁basert	-8.70644
▁slutt	-8.70827
▁plass	-8.70885
▁bred	-8.71001
и	-8.71087
▁betyr	-8.71101
▁we	-8.71174
▁midt	-8.7126
▁samtidig	-8.71302
▁2004	-8.71368
ding	-8.71407
ski	-8.71507
isme	-8.71524
▁lov	-8.7155
▁fransk	-8.71584
gre	-8.71588
▁dagen	-8.71722
ki	-8.71859
jo	-8.72019
▁ser	-8.72067
red	-8.72133
▁my	-8.72287
ou	-8.72471
▁liv	-8.72504
▁bergen	-8.72516
▁sentral	-8.72595
7	-8.72609
elig	-8.7266
▁ingen	-8.72718
▁barn	-8.72791
tar	-8.72805
skole	-8.72808
stand	-8.73052
▁vise	-8.73144
my	-8.73296
inger	-8.73391
uk	-8.73432
▁farge	-8.73448
▁kal	-8.73626
▁bandet	-8.74011
▁motor	-8.7421
▁etablert	-8.74395
▁gr	-8.75084
▁tar	-8.75144
▁hav	-8.75201
▁tyske	-8.75237
idae	-8.75285
▁svensk	-8.75321
▁anti	-8.75416
mm	-8.75802
▁ag	-8.75941
bok	-8.76229
▁natur	-8.76457
▁von	-8.7653
far	-8.76609
▁brun	-8.76833
fa	-8.769
▁forfatter	-8.77038
▁barne	-8.77123
iser	-8.77197
kant	-8.77292
sson	-8.77329
▁ed	-8.77353
val	-8.77518
▁je	-8.77577
▁ville	-8.77754
▁br	-8.77778
jer	-8.77823
▁sal	-8.77829
а	-8.77842
▁rød	-8.77945
▁albumet	-8.78056
▁ry	-8.78194
▁bor	-8.7832
mmer	-8.78367
▁21	-8.78394
tyr	-8.78487
▁side	-8.78487
ds	-8.78507
▁gull	-8.78599
▁ku	-8.78719
▁cha	-8.78789
▁amerikanske	-8.7895
dyr	-8.78968
elser	-8.79064
stri	-8.7952
zi	-8.79557
ight	-8.79592
▁berg	-8.79653
▁sverige	-8.79774
▁stat	-8.79776
▁mil	-8.79993
lat	-8.80052
mark	-8.80149
ach	-8.80178
▁gjerne	-8.80229
▁konge	-8.80314
▁col	-8.80438
ska	-8.80453
▁ke	-8.80461
▁jan	-8.80461
van	-8.80558
▁pan	-8.80563
▁øya	-8.8082
ev	-8.8084
▁datter	-8.80848
▁liten	-8.8086
lå	-8.80877
о	-8.80877
▁bruker	-8.80991
form	-8.8112
▁fotball	-8.81157
tz	-8.81228
▁bygget	-8.81257
ah	-8.81357
▁person	-8.81392
q	-8.81753
ab	-8.8181
▁tiden	-8.81846
▁tyskland	-8.81852
kar	-8.82086
▁bill	-8.82104
▁utenfor	-8.82105
▁sta	-8.82369
▁verk	-8.82404
▁christian	-8.8241
▁lav	-8.82417
yn	-8.82671
▁styre	-8.82776
▁gul	-8.82785
jen	-8.82832
▁slekt	-8.82844
rak	-8.82897
▁får	-8.82998
▁mann	-8.83008
▁omkring	-8.83145
nk	-8.8355
fra	-8.83561
så	-8.83615
▁22	-8.83682
ris	-8.83714
▁van	-8.83717
▁ten	-8.83769
▁står	-8.8392
▁2002	-8.83922
dom	-8.841
▁ganger	-8.84149
sund	-8.8426
▁jord	-8.84449
ich	-8.84769
▁spilt	-8.84982
▁hal	-8.85043
lan	-8.85095
lsen	-8.8517
legg	-8.85246
nyin	-8.85317
tiden	-8.8536
▁24	-8.85401
▁general	-8.85454
za	-8.8551
▁spille	-8.85516
og	-8.85604
▁sangen	-8.85614
▁kommunen	-8.85675
▁danne	-8.85737
heim	-8.85767
▁gitt	-8.85788
ps	-8.858
▁annen	-8.85839
▁gammel	-8.85859
▁stedet	-8.85874
▁antall	-8.85905
▁fleste	-8.86265
▁lange	-8.86412
▁via	-8.86434
▁stil	-8.86528
▁måtte	-8.86665
▁2000	-8.86674
▁spe	-8.86732
▁tur	-8.86744
▁ob	-8.86869
▁ren	-8.86915
veien	-8.87033
▁skog	-8.87041
rø	-8.87389
tte	-8.87505
▁wi	-8.87554
kning	-8.87669
▁klubben	-8.87768
ep	-8.87774
▁kur	-8.87851
▁arbeider	-8.87891
▁litt	-8.87954
▁inneholder	-8.87965
▁tilhører	-8.88229
▁gud	-8.88314
du	-8.88352
▁os	-8.88367
▁fer	-8.88797
øya	-8.8885
▁gate	-8.88922
▁nytt	-8.88993
▁viser	-8.89022
▁omfatter	-8.89028
▁såkalt	-8.8903
▁band	-8.89267
mester	-8.89504
lei	-8.89724
▁ben	-8.89761
hr	-8.89894
▁følgende	-8.89993
▁prest	-8.90024
bin	-8.90138
▁sang	-8.9018
▁støtte	-8.90184
pro	-8.90469
▁radio	-8.90481
▁gl	-8.90483
▁arbeids	-8.90585
▁19	-8.9066
▁stats	-8.9081
han	-8.90912
▁fant	-8.90919
▁lands	-8.91259
tin	-8.91285
▁fylke	-8.91291
sett	-8.91348
tatt	-8.91436
log	-8.91439
▁th	-8.91564
▁industri	-8.91594
▁sted	-8.91812
bygg	-8.91888
heten	-8.91891
▁ledet	-8.91914
film	-8.91928
▁historie	-8.92052
▁spor	-8.92149
lev	-8.92372
ya	-8.92625
eres	-8.92738
▁sto	-8.92754
bel	-8.92815
▁arm	-8.92967
▁mon	-8.93055
50	-8.93083
ze	-8.93111
▁tredje	-8.93133
▁23	-8.93246
▁utviklet	-8.93291
▁on	-8.93305
rom	-8.93369
▁london	-8.93574
iker	-8.93583
ida	-8.93678
▁deltok	-8.93693
▁bri	-8.94247
▁lett	-8.94323
▁arbeidet	-8.94366
▁christ	-8.94551
che	-8.94598
ino	-8.94623
▁bank	-8.94632
▁forhold	-8.94712
▁100	-8.94716
gar	-8.95062
ære	-8.95134
mal	-8.95169
▁europa	-8.95259
9	-8.9538
vei	-8.95595
▁moh	-8.95623
▁mont	-8.95708
bra	-8.95812
▁you	-8.95851
tsj	-8.95941
lik	-8.96039
▁ly	-8.9604
klass	-8.9617
sjoner	-8.96268
▁skuespiller	-8.96271
selskap	-8.96313
▁produsert	-8.96578
▁william	-8.96579
▁satt	-8.96619
▁familie	-8.96644
dde	-8.96803
▁bas	-8.96839
▁vo	-8.96884
▁ve	-8.96901
▁viktig	-8.96903
minister	-8.96941
uten	-8.96978
▁fylkesvei	-8.97031
▁kvinne	-8.97036
bro	-8.97285
▁dis	-8.97326
▁2003	-8.97474
▁mark	-8.97496
if	-8.97505
fall	-8.97555
▁hatt	-8.97706
▁sosial	-8.97727
▁post	-8.97777
elt	-8.97779
syn	-8.97784
▁jeg	-8.97814
▁40	-8.97827
▁peter	-8.97868
▁mulig	-8.97904
▁hø	-8.97951
▁serien	-8.97988
▁tal	-8.98011
leg	-8.98063
▁vis	-8.98188
vær	-8.98232
▁handels	-8.98408
▁hjem	-8.98478
▁pri	-8.98537
banen	-8.98543
▁elven	-8.98755
▁spesielt	-8.98781
▁fe	-8.98795
▁fordi	-8.9913
▁50	-8.99229
ana	-8.99444
▁paul	-8.9948
▁lite	-8.99533
▁system	-8.99647
▁regi	-8.99679
▁2001	-8.99699
▁deler	-8.99731
▁foran	-8.99757
bane	-8.99809
▁bygge	-8.99815
▁mm	-8.99819
landet	-8.99842
▁gav	-8.99857
▁lyd	-8.99874
▁moderne	-8.99875
cu	-8.99897
forening	-8.99987
ek	-9.00074
ym	-9.00166
▁perioden	-9.00262
▁au	-9.00562
ktor	-9.00577
▁sø	-9.00741
sto	-9.00747
▁tak	-9.00771
lys	-9.00869
▁riks	-9.00945
▁bur	-9.00952
pen	-9.0097
▁slag	-9.0108
▁eneste	-9.01092
gård	-9.01245
senter	-9.01247
som	-9.01329
ola	-9.01369
▁stra	-9.0155
res	-9.01571
kul	-9.018
istisk	-9.02016
pre	-9.02056
isering	-9.02104
imot	-9.02105
zo	-9.02238
råd	-9.02244
fjord	-9.02258
▁fortsatt	-9.02392
▁hol	-9.02486
▁kat	-9.02605
mat	-9.02686
▁mac	-9.02694
▁forbindelse	-9.02741
▁pl	-9.02767
▁cor	-9.02802
leder	-9.02973
▁nett	-9.03185
▁tu	-9.03205
▁mc	-9.03269
▁rø	-9.03281
▁millioner	-9.03338
▁tru	-9.03383
▁russland	-9.03394
lle	-9.03472
▁start	-9.03515
▁skolen	-9.03604
▁28	-9.03697
bygning	-9.03708
dring	-9.03874
kamp	-9.0395
▁arter	-9.03958
sky	-9.03959
▁orden	-9.03964
▁hvit	-9.04007
styre	-9.0404
wa	-9.04095
▁kilometer	-9.04274
▁liste	-9.04314
▁kongen	-9.04488
▁gjør	-9.045
list	-9.04574
▁valg	-9.04619
▁ex	-9.04639
▁bilde	-9.04648
▁betydning	-9.04742
pper	-9.04752
▁versjon	-9.0488
laget	-9.0513
▁hjemme	-9.05162
søk	-9.05183
skog	-9.05184
ms	-9.05212
▁godt	-9.05238
▁venn	-9.05364
▁organ	-9.05461
stra	-9.0559
▁gra	-9.05685
stan	-9.05697
▁1980	-9.05705
▁viktigste	-9.05756
▁dikt	-9.05792
fin	-9.05946
▁blå	-9.05988
lene	-9.05994
▁dess	-9.06121
▁bror	-9.06125
▁gen	-9.06159
▁inkludert	-9.06175
▁italiensk	-9.06175
▁delstaten	-9.06196
fl	-9.0635
pris	-9.06352
▁af	-9.06574
▁britiske	-9.06657
▁opprettet	-9.06658
isert	-9.0666
▁2012	-9.06669
iet	-9.06689
▁tom	-9.06709
▁militær	-9.07063
▁bal	-9.07072
▁ky	-9.07217
ford	-9.07307
plan	-9.07315
▁26	-9.07379
▁én	-9.07537
skip	-9.07538
ale	-9.0756
▁skr	-9.07563
▁31	-9.07587
ider	-9.07632
plass	-9.07767
stasjon	-9.07829
ice	-9.07926
gitt	-9.07938
▁full	-9.07998
føre	-9.08012
▁tekst	-9.08113
chi	-9.08245
▁gri	-9.08277
mel	-9.0832
▁anders	-9.08321
spiller	-9.08384
▁mag	-9.08495
▁krigs	-9.0852
▁sig	-9.08534
bygd	-9.0861
▁sub	-9.08718
tall	-9.0879
▁carl	-9.08814
▁hy	-9.08843
▁samarbeid	-9.0893
р	-9.09083
stående	-9.09169
▁lille	-9.09194
enes	-9.09205
▁sm	-9.09283
▁syd	-9.09299
sak	-9.09404
medalje	-9.09418
▁gruppe	-9.09466
▁ring	-9.09674
▁ber	-9.09801
▁hall	-9.09803
punkt	-9.09839
inne	-9.09853
▁29	-9.09957
bud	-9.1036
system	-9.1052
▁eu	-9.10557
▁aktiv	-9.10755
▁sak	-9.10848
▁fla	-9.10917
▁gro	-9.11089
▁representert	-9.1109
▁tildelt	-9.11139
▁robert	-9.11174
▁pr	-9.11191
▁ac	-9.11282
pet	-9.11508
▁elva	-9.1156
е	-9.11577
▁frankrike	-9.116
▁nu	-9.11661
▁menneske	-9.11676
vil	-9.11871
▁båt	-9.11884
spill	-9.12072
▁direkte	-9.12103
▁enkelte	-9.12175
▁tatt	-9.1221
▁universitet	-9.12377
bert	-9.12412
▁stemme	-9.12532
kjempe	-9.12588
folkerepublikken	-9.12619
▁sv	-9.12788
▁tittelen	-9.12939
fe	-9.12994
▁teater	-9.13085
▁jernbane	-9.13218
▁fin	-9.1322
med	-9.13297
fisk	-9.13302
▁nok	-9.13342
▁serie	-9.13353
▁kra	-9.13386
▁åpnet	-9.13621
▁best	-9.13638
båt	-9.13676
▁hånd	-9.1378
▁air	-9.1392
▁egne	-9.13924
▁vol	-9.14019
kast	-9.14033
forbund	-9.14112
▁kirken	-9.14136
▁arbeid	-9.1424
▁smal	-9.14284
▁lin	-9.14287
▁løs	-9.14338
valg	-9.14357
▁ør	-9.1444
▁rev	-9.14575
▁cla	-9.14608
pu	-9.14615
liggende	-9.14741
▁rolle	-9.14835
hy	-9.14893
▁sc	-9.14927
fri	-9.14963
nevn	-9.14976
▁hvis	-9.15138
▁bør	-9.15151
løs	-9.15157
jel	-9.15171
ji	-9.15182
▁åtte	-9.15278
ai	-9.15293
ført	-9.15306
▁olje	-9.15475
▁utgjør	-9.15505
▁staten	-9.15578
stol	-9.15611
▁1999	-9.15737
istiske	-9.15786
▁india	-9.15935
▁personer	-9.15972
ay	-9.15992
▁karl	-9.16013
▁kunstner	-9.16092
ari	-9.16109
▁minst	-9.16142
dri	-9.16212
rid	-9.16267
▁bygd	-9.16309
▁park	-9.16394
navn	-9.16469
▁herre	-9.16538
▁data	-9.16612
▁medlemmer	-9.16751
ú	-9.16791
▁allerede	-9.16797
▁1990	-9.16799
▁veien	-9.16841
▁langt	-9.1688
▁mur	-9.16917
▁krigen	-9.16945
▁renn	-9.16969
isten	-9.17138
▁reise	-9.17138
don	-9.172
▁spansk	-9.17263
▁bort	-9.1733
▁eget	-9.17387
▁gran	-9.17408
gruppen	-9.17471
liv	-9.17503
▁les	-9.17578
tes	-9.17598
▁ordet	-9.17633
asjonen	-9.17665
ika	-9.17691
gikk	-9.17724
vern	-9.17762
▁ska	-9.17783
ister	-9.17806
grad	-9.17828
▁enkelt	-9.17837
▁gar	-9.1787
▁fall	-9.17889
ire	-9.17924
▁folk	-9.17985
stat	-9.18113
mun	-9.1827
▁plante	-9.18287
tri	-9.18324
▁chi	-9.1835
kal	-9.18594
▁sil	-9.18788
▁svenske	-9.18874
lot	-9.18903
▁sj	-9.1894
▁betydelig	-9.18947
65	-9.19098
▁mis	-9.1933
menn	-9.19397
▁tjeneste	-9.19425
▁maria	-9.1946
▁danmark	-9.1951
▁ferdig	-9.19525
▁can	-9.19568
▁lars	-9.19628
▁professor	-9.19683
▁ci	-9.19903
▁red	-9.19905
▁finner	-9.19987
▁hovedsakelig	-9.20049
▁våpen	-9.20096
▁holdt	-9.20151
ros	-9.20167
▁sanger	-9.20197
▁kamp	-9.20226
▁tele	-9.20378
▁lege	-9.20389
året	-9.2046
huset	-9.2065
este	-9.20655
▁kol	-9.20726
▁keiser	-9.20763
▁skrift	-9.2087
ini	-9.20897
▁ø	-9.20899
bas	-9.20956
sjøen	-9.21043
▁knytte	-9.21154
▁standard	-9.21165
▁kjøpt	-9.21213
▁helse	-9.21216
holm	-9.21226
▁pol	-9.21241
▁brø	-9.21248
▁verdi	-9.21274
▁skade	-9.21308
▁mø	-9.21357
▁energi	-9.21415
▁skje	-9.21438
rud	-9.21468
▁vinter	-9.21494
middel	-9.21562
xi	-9.21568
▁kraft	-9.2158
▁fiske	-9.21617
lett	-9.21642
føring	-9.21687
▁felles	-9.217
▁grunnlagt	-9.21764
▁len	-9.21786
▁sy	-9.21791
▁politi	-9.21818
▁port	-9.21867
▁olympisk	-9.21874
▁lik	-9.21879
20	-9.21907
fal	-9.21939
▁minne	-9.21944
▁fått	-9.2197
fer	-9.22
▁grå	-9.22032
▁60	-9.22187
▁mennesker	-9.22239
▁oppkalt	-9.22275
▁dansk	-9.22295
▁høyeste	-9.22298
▁england	-9.22306
▁hjelp	-9.22341
▁eier	-9.22509
all	-9.22514
ath	-9.22538
▁para	-9.22703
är	-9.22881
iner	-9.22889
▁super	-9.22938
familien	-9.22954
lie	-9.22987
▁franske	-9.23033
▁økonomisk	-9.23079
under	-9.23105
▁blad	-9.23131
▁sha	-9.23253
▁stasjon	-9.23327
▁thomas	-9.23431
området	-9.23462
▁gal	-9.23492
▁pla	-9.23588
▁gjøre	-9.23643
▁student	-9.23657
▁ul	-9.2366
mannen	-9.23722
språk	-9.23867
▁resultat	-9.23868
▁samling	-9.23891
prosess	-9.23924
à	-9.23976
▁paris	-9.23997
▁thor	-9.24168
▁bø	-9.2423
område	-9.24237
▁sentrum	-9.24335
▁omtrent	-9.24551
nu	-9.24622
lagt	-9.24636
▁sogn	-9.24677
aks	-9.24878
▁neste	-9.2491
▁interesse	-9.24916
▁politiker	-9.24917
▁følger	-9.24957
her	-9.24992
▁partiet	-9.25154
▁venstre	-9.25156
ney	-9.25182
▁ind	-9.25222
▁sesongen	-9.25339
ferd	-9.25401
▁gansk	-9.25451
▁zh	-9.25484
▁za	-9.25531
kin	-9.25533
▁dia	-9.25567
tegn	-9.25644
▁university	-9.25714
ket	-9.25732
▁wo	-9.25766
navnet	-9.25824
port	-9.25924
itz	-9.25937
▁linje	-9.25943
▁lei	-9.25949
ving	-9.26007
▁makt	-9.26072
▁album	-9.26162
rus	-9.26183
▁xi	-9.26209
▁trykk	-9.26229
▁york	-9.26297
▁1997	-9.26303
▁studert	-9.26305
▁hor	-9.26318
▁bjørn	-9.26352
▁david	-9.26412
▁27	-9.26463
øl	-9.26641
▁kontroll	-9.26663
ama	-9.26812
grense	-9.26822
messig	-9.2689
▁tegn	-9.26958
ap	-9.2697
tion	-9.27005
ano	-9.27212
▁west	-9.27221
▁studie	-9.27273
bry	-9.27407
▁rock	-9.27464
▁1989	-9.27484
way	-9.27492
▁latin	-9.27567
kket	-9.27579
▁mas	-9.27623
bor	-9.27669
age	-9.27702
▁sommerfugl	-9.27714
oc	-9.27719
▁mad	-9.2774
har	-9.27777
▁arkitekt	-9.27852
els	-9.27881
▁erik	-9.27975
▁1996	-9.28077
▁konsert	-9.28089
▁dan	-9.28166
▁gjort	-9.28403
è	-9.28595
▁italia	-9.28688
▁legge	-9.28691
up	-9.28714
retning	-9.28888
▁dal	-9.28954
▁kul	-9.28964
▁verden	-9.29024
▁gård	-9.29094
drag	-9.29117
▁1970	-9.29285
elva	-9.2931
ativ	-9.2935
▁pris	-9.29387
▁die	-9.29599
▁regionen	-9.2964
que	-9.297
▁dra	-9.29732
▁ven	-9.29773
▁johan	-9.298
fo	-9.29872
▁kroppen	-9.29882
▁ter	-9.29884
64	-9.29935
▁martin	-9.29952
ien	-9.29978
▁olav	-9.29989
▁dannet	-9.30179
▁ført	-9.30252
▁benyttet	-9.30291
70	-9.30303
▁mester	-9.30353
▁års	-9.30421
byen	-9.30435
organisasjon	-9.30491
▁1994	-9.30494
▁måte	-9.30568
▁regjeringen	-9.30641
▁kyst	-9.30696
▁don	-9.30715
asje	-9.30737
▁heter	-9.3088
skapet	-9.30908
▁vår	-9.30916
misjon	-9.30959
▁lærer	-9.30988
▁angrep	-9.31018
områder	-9.31024
▁trekk	-9.31098
▁1998	-9.31109
▁fortsatte	-9.31153
ara	-9.31212
▁strøm	-9.31372
▁fv	-9.31397
án	-9.31425
▁war	-9.31446
ita	-9.31497
▁ok	-9.3155
▁delt	-9.3166
▁flat	-9.31665
ð	-9.31718
produksjon	-9.31745
▁historisk	-9.31746
▁svart	-9.31795
л	-9.31918
▁sh	-9.31949
lek	-9.31978
▁meget	-9.32214
ria	-9.3231
▁type	-9.32323
▁lokale	-9.32348
▁2013	-9.32351
▁solgt	-9.32381
lighet	-9.32397
▁180	-9.32501
▁dyr	-9.32514
▁not	-9.3255
▁tradisjonell	-9.32598
▁miljø	-9.326
▁klasse	-9.32782
lia	-9.32803
▁com	-9.32824
lus	-9.32832
▁varme	-9.32899
▁inter	-9.3296
▁sir	-9.32967
▁høyre	-9.32975
30	-9.33031
▁daglig	-9.3311
▁trans	-9.33235
▁slutten	-9.33368
▁wal	-9.33379
▁universitetet	-9.33496
▁jern	-9.33541
folk	-9.33568
▁nordøst	-9.33679
lling	-9.33831
cy	-9.33847
▁museum	-9.33925
▁flyttet	-9.34084
▁mod	-9.34112
trykk	-9.34182
▁dre	-9.34235
▁klar	-9.3425
▁blod	-9.34298
▁japan	-9.3431
▁besto	-9.34386
60	-9.34439
gruppe	-9.34517
37	-9.347
▁klart	-9.34742
▁sølv	-9.34855
▁world	-9.34863
▁romersk	-9.34919
▁hår	-9.3495
▁qu	-9.34996
▁felt	-9.35031
lis	-9.35044
▁egg	-9.35162
▁stiftet	-9.35193
▁rot	-9.35199
lla	-9.35367
▁trondheim	-9.3551
▁funksjon	-9.35586
abel	-9.35648
brudd	-9.35664
▁henne	-9.35705
mand	-9.35738
linje	-9.35767
havet	-9.35822
▁overtok	-9.35854
eller	-9.35863
▁utgav	-9.35991
▁ek	-9.36083
ansk	-9.36211
▁regel	-9.3633
rat	-9.36342
▁biskop	-9.36459
ismen	-9.36556
▁80	-9.36568
skje	-9.3667
▁finsk	-9.36759
departementet	-9.36798
gan	-9.36831
▁selskap	-9.36855
ib	-9.36892
▁ger	-9.36915
▁møte	-9.36971
ula	-9.36981
39	-9.37005
▁mari	-9.37024
▁lind	-9.37167
▁syk	-9.37204
▁tap	-9.37286
▁japansk	-9.37387
▁1992	-9.37461
▁1960	-9.37466
ther	-9.3749
anlegg	-9.37496
▁bad	-9.37533
▁boken	-9.37584
▁mos	-9.37587
tel	-9.37725
▁bir	-9.37883
▁kir	-9.38021
old	-9.38073
bri	-9.3811
▁national	-9.3811
magasin	-9.3812
▁1984	-9.38122
▁larven	-9.38142
▁bern	-9.38159
▁høsten	-9.3821
king	-9.38221
▁henrik	-9.38293
▁fil	-9.38294
▁uttrykk	-9.38306
▁regnes	-9.38349
▁gren	-9.38667
▁george	-9.38818
▁vekt	-9.38826
79	-9.38829
felt	-9.38887
86	-9.39038
vig	-9.39048
▁ap	-9.39123
fag	-9.39163
▁stu	-9.39301
vid	-9.39334
ild	-9.39359
▁pra	-9.39399
▁borger	-9.39421
▁skjer	-9.39425
organ	-9.39448
ringer	-9.39497
▁ett	-9.39501
▁retning	-9.39549
igh	-9.39551
▁råd	-9.3964
▁stø	-9.3964
▁seil	-9.39695
▁slike	-9.39696
▁idretts	-9.39734
▁litteratur	-9.39833
34	-9.39885
sik	-9.39992
hal	-9.40009
▁mal	-9.40034
▁ball	-9.40193
▁tett	-9.40231
▁grunnlegge	-9.40256
gangen	-9.40269
▁ark	-9.40271
grav	-9.40356
▁årlig	-9.40369
40	-9.40374
▁opera	-9.40597
fat	-9.40616
▁stjerne	-9.40627
ij	-9.40638
dø	-9.40665
vir	-9.40705
▁lengde	-9.40772
▁1995	-9.40799
ance	-9.408
fører	-9.40825
▁svarte	-9.4086
vit	-9.4089
aktig	-9.40925
hall	-9.40951
10	-9.4097
▁pave	-9.41086
▁kors	-9.41284
▁1991	-9.41466
▁1988	-9.41474
▁distrikt	-9.41536
▁eldre	-9.41552
▁wil	-9.41609
▁munn	-9.41652
get	-9.41762
▁indre	-9.41865
▁brukte	-9.41866
▁dyp	-9.41934
▁kvinner	-9.41963
sjef	-9.4204
▁holm	-9.42103
▁kje	-9.42125
ō	-9.42151
▁eldste	-9.42152
▁relativ	-9.42152
▁cu	-9.42226
graf	-9.42311
▁steder	-9.42447
▁følge	-9.42667
samling	-9.42677
▁ang	-9.42744
mund	-9.42822
▁ras	-9.42828
▁gass	-9.42829
parti	-9.42905
▁james	-9.42947
skolen	-9.4296
tør	-9.43008
bilde	-9.43018
▁kinas	-9.43041
▁samle	-9.43069
▁beskrive	-9.43087
of	-9.43145
▁topp	-9.43227
sal	-9.43263
▁hei	-9.43306
cha	-9.43309
▁punkt	-9.43315
ction	-9.4333
▁sur	-9.43385
▁pop	-9.43401
▁berlin	-9.43439
ater	-9.43461
▁funnet	-9.43492
▁1993	-9.43535
▁storbritannia	-9.43535
▁suksess	-9.43535
▁1986	-9.43549
▁verdenskrig	-9.43619
▁løpet	-9.43635
▁ban	-9.43642
▁sun	-9.43644
▁shi	-9.43808
arbeid	-9.43822
95	-9.43872
▁dyre	-9.4396
▁enhet	-9.44033
▁cap	-9.44036
▁erstattet	-9.44038
aksjon	-9.44081
▁kron	-9.44234
▁effekt	-9.44247
▁1979	-9.44249
▁havn	-9.44269
▁blo	-9.44285
ledes	-9.44331
▁opprør	-9.44385
stikk	-9.44559
▁syv	-9.44604
▁forsøk	-9.44613
▁lagt	-9.44646
gift	-9.44689
tikk	-9.44721
▁tall	-9.44771
dt	-9.44789
mu	-9.44807
mus	-9.44832
▁representere	-9.44939
▁tilsvarende	-9.44939
las	-9.44955
gra	-9.45086
▁son	-9.45205
midler	-9.45289
▁elev	-9.45344
▁bestemt	-9.45352
tjeneste	-9.45457
▁komme	-9.45458
66	-9.4547
▁flo	-9.45537
anske	-9.45539
rit	-9.45649
dra	-9.45658
slutning	-9.45663
▁2014	-9.45664
▁statsminister	-9.45671
▁char	-9.45781
kh	-9.45801
ias	-9.45922
▁delen	-9.45965
farge	-9.46026
▁flagg	-9.46096
▁befolkningen	-9.46171
lang	-9.4622
▁pen	-9.46283
▁transport	-9.46318
▁ph	-9.46379
▁avdeling	-9.46405
▁drift	-9.46407
▁britisk	-9.46558
▁oppført	-9.4656
▁anne	-9.46686
ort	-9.46695
verket	-9.46701
▁europeisk	-9.4673
▁inntil	-9.46732
▁holde	-9.46763
▁lek	-9.468
ub	-9.46871
rum	-9.46933
▁fyr	-9.46952
ming	-9.46982
▁aldri	-9.47045
▁jacob	-9.47082
rør	-9.47154
▁populær	-9.47154
ull	-9.47191
ani	-9.47221
musikk	-9.47272
▁un	-9.47274
dar	-9.47338
▁los	-9.47363
▁she	-9.47364
▁lær	-9.47394
▁seier	-9.47495
▁karriere	-9.47495
nivå	-9.475
▁bj	-9.47511
jev	-9.47626
▁drama	-9.47713
▁cal	-9.47723
38	-9.47727
▁regn	-9.4777
▁profesjonell	-9.47806
▁grand	-9.47829
▁sky	-9.47835
unt	-9.47838
▁nordvest	-9.47841
▁nåværende	-9.47862
▁likevel	-9.47863
nett	-9.47889
▁viktige	-9.47902
fon	-9.48042
▁ledd	-9.48049
▁region	-9.48065
cia	-9.48074
▁jon	-9.48099
▁bedre	-9.48228
ografi	-9.48279
elli	-9.48313
gna	-9.4837
▁slekten	-9.48393
▁slo	-9.48462
heng	-9.4847
vinger	-9.48489
▁brann	-9.48562
▁borg	-9.48644
skrift	-9.48659
poli	-9.48733
▁komponist	-9.48776
qu	-9.48805
ille	-9.48854
80	-9.4886
gården	-9.48868
pl	-9.48897
▁danske	-9.48947
kle	-9.48972
▁nummer	-9.48987
side	-9.49
▁divisjon	-9.49009
▁sterkt	-9.4901
systemet	-9.49041
▁kampen	-9.49279
klubb	-9.49279
▁mill	-9.49301
▁egentlig	-9.49308
▁bind	-9.49344
▁kilde	-9.49599
samisk	-9.49601
sjonen	-9.49601
▁real	-9.49665
haug	-9.49696
▁løv	-9.49769
ā	-9.49808
▁korte	-9.4997
▁maskin	-9.49979
▁produksjon	-9.49985
▁folketelling	-9.50012
▁drept	-9.50023
▁fange	-9.50098
ringen	-9.50101
rev	-9.5012
▁produkt	-9.50136
▁nrk	-9.50363
▁drive	-9.50373
▁eg	-9.50383
▁frank	-9.50384
bank	-9.50442
▁delta	-9.50488
bø	-9.50522
85	-9.50638
▁kraftverk	-9.50673
▁valgt	-9.50694
▁arten	-9.50713
tale	-9.50806
vogn	-9.50922
▁middel	-9.50987
▁utført	-9.51027
iserte	-9.51031
▁forsker	-9.51043
▁nordlige	-9.51219
▁grense	-9.51472
▁richard	-9.5151
▁dårlig	-9.51512
▁typisk	-9.51513
▁1950	-9.51535
▁hovedstad	-9.51585
▁behandling	-9.51692
▁høyt	-9.5171
▁sommeren	-9.51763
▁lan	-9.51789
ör	-9.51835
kraft	-9.5191
deling	-9.52009
▁slaget	-9.52036
low	-9.52078
55	-9.52203
▁plate	-9.52204
▁skip	-9.52213
merke	-9.52248
▁dronning	-9.52273
н	-9.52296
▁bakgrunn	-9.52299
field	-9.52344
skudd	-9.52426
zhou	-9.52429
▁natt	-9.52468
78	-9.52567
▁phil	-9.52596
strøm	-9.5271
▁virksomhet	-9.52764
74	-9.52786
vare	-9.52903
▁tradisjon	-9.52914
▁1987	-9.53042
▁johannes	-9.5314
ial	-9.53168
park	-9.53223
▁offentlig	-9.53287
▁figur	-9.5329
▁ettersom	-9.53358
▁sel	-9.53372
ura	-9.53384
rang	-9.53385
alt	-9.53522
ved	-9.53584
84	-9.53604
▁500	-9.53616
▁veg	-9.5362
løse	-9.53712
▁krig	-9.53758
▁københavn	-9.538
ér	-9.53957
spor	-9.54022
▁stre	-9.54098
arter	-9.54119
▁operasjon	-9.54146
partiet	-9.54199
▁hest	-9.54263
▁anna	-9.54399
▁foss	-9.5442
qui	-9.545
47	-9.54538
▁international	-9.54576
▁stavanger	-9.54582
▁utnevnt	-9.54585
ette	-9.54587
gata	-9.54615
▁wei	-9.54627
▁bygningen	-9.54727
ctor	-9.54735
▁sports	-9.54805
▁rike	-9.54805
▁fest	-9.54843
på	-9.54868
pon	-9.54869
▁høyere	-9.54875
ite	-9.54877
last	-9.5491
▁vold	-9.5502
spi	-9.55036
▁kraftig	-9.55061
kra	-9.55116
▁yu	-9.55173
▁offisiell	-9.55221
▁regjering	-9.55227
styrke	-9.55253
▁viste	-9.5528
▁grønn	-9.55289
▁fot	-9.55293
loven	-9.55296
▁representant	-9.55357
▁hvilke	-9.55358
▁iii	-9.55367
▁1968	-9.5537
▁gode	-9.55462
▁por	-9.55506
press	-9.55591
rike	-9.55693
▁tank	-9.55723
▁personlig	-9.55799
gle	-9.55885
▁koloni	-9.55891
▁roma	-9.55899
rad	-9.55909
▁skyld	-9.55954
våg	-9.55964
klar	-9.56001
▁symbol	-9.56144
fest	-9.56145
▁louis	-9.56145
▁beskytte	-9.56146
▁city	-9.56252
gy	-9.56401
nor	-9.56403
▁mente	-9.56412
▁pal	-9.56458
pol	-9.56534
ix	-9.56629
▁dro	-9.56631
formet	-9.5667
▁che	-9.56684
▁finne	-9.56696
▁privat	-9.56703
▁georg	-9.56727
▁instrument	-9.56729
▁app	-9.56857
ekspedisjon	-9.56938
▁publisert	-9.56953
▁søster	-9.5702
▁riksvei	-9.57026
snitt	-9.57101
eier	-9.57124
▁områder	-9.57203
▁menn	-9.57225
▁maur	-9.57376
▁aust	-9.57376
▁pass	-9.57393
▁fjorden	-9.57431
hn	-9.57448
▁metall	-9.57565
с	-9.57584
▁sørøst	-9.5772
▁1983	-9.57738
▁1975	-9.57749
▁1981	-9.57751
▁informasjon	-9.57768
▁1900	-9.57778
▁albert	-9.57848
▁uni	-9.57853
▁island	-9.58008
ick	-9.58034
værende	-9.58071
ins	-9.58082
▁kull	-9.58084
▁styrke	-9.58086
stru	-9.58101
▁arabisk	-9.58115
dia	-9.58125
wi	-9.5818
63	-9.58286
▁journalist	-9.583
▁gitar	-9.58324
lære	-9.58372
▁design	-9.58378
fu	-9.58398
68	-9.58418
67	-9.58465
hel	-9.58472
kop	-9.58519
▁ep	-9.58532
α	-9.58544
м	-9.58544
teknikk	-9.58545
▁dager	-9.58694
▁strand	-9.58712
▁glass	-9.58745
▁resten	-9.58827
76	-9.58858
▁retts	-9.58878
▁verne	-9.58904
▁nils	-9.5892
gjør	-9.58938
▁direktør	-9.58967
44	-9.58969
71	-9.58971
plasser	-9.5898
stid	-9.59049
ritt	-9.59137
alder	-9.59217
77	-9.59277
▁hit	-9.59349
▁just	-9.59356
▁1972	-9.59357
▁1982	-9.59357
▁fjerde	-9.59358
▁nærmest	-9.59362
▁2015	-9.59378
▁harald	-9.59385
▁øvre	-9.59498
ban	-9.59567
▁organisasjon	-9.59599
▁elve	-9.59731
jan	-9.59772
▁klima	-9.59773
grunn	-9.59828
▁dø	-9.59863
lly	-9.59878
ive	-9.59889
lund	-9.59928
▁ya	-9.59934
pan	-9.60135
▁stockholm	-9.60177
løpet	-9.60184
▁brasil	-9.60187
tive	-9.60194
▁forteller	-9.60198
▁hører	-9.60247
▁sju	-9.60339
▁område	-9.60376
eks	-9.60418
vatnet	-9.60474
▁nabo	-9.60563
handler	-9.60572
▁passer	-9.60589
▁love	-9.60591
ua	-9.60619
▁jens	-9.60655
fart	-9.60688
▁virke	-9.60763
ått	-9.60791
▁led	-9.60819
▁størrelse	-9.60868
▁asia	-9.60905
▁danse	-9.60905
▁rik	-9.60975
д	-9.61003
š	-9.61003
anger	-9.61028
▁king	-9.61188
▁engelske	-9.61194
▁sider	-9.61245
81	-9.61391
▁epi	-9.61437
▁ansvar	-9.61452
49	-9.61474
▁70	-9.6149
vesen	-9.61558
▁pat	-9.61597
fil	-9.61629
trekk	-9.61635
▁lau	-9.61728
ikken	-9.61821
▁kinesiske	-9.61845
▁vær	-9.6185
▁1965	-9.61858
▁hodet	-9.6187
korps	-9.619
52	-9.61913
tic	-9.61934
▁hell	-9.6194
43	-9.61957
▁het	-9.6198
▁fylkes	-9.61984
▁hage	-9.61996
▁sentrale	-9.62008
▁unge	-9.62035
▁scene	-9.62236
▁vit	-9.62269
к	-9.62281
gard	-9.6229
▁marc	-9.623
▁skrive	-9.62317
▁periode	-9.62329
▁aktivitet	-9.62345
▁katolske	-9.62345
▁200	-9.62418
▁kro	-9.6246
oni	-9.62468
▁ce	-9.6247
▁totalt	-9.62485
enberg	-9.62529
kraftverk	-9.62604
▁ledelse	-9.62656
▁cm	-9.62704
kirke	-9.62766
istene	-9.62768
arm	-9.62852
▁mid	-9.62906
▁old	-9.62944
▁tung	-9.62952
▁stav	-9.63029
▁finland	-9.63065
▁sko	-9.63118
▁prisen	-9.63207
▁sort	-9.63209
▁hvite	-9.63253
stedet	-9.6336
▁uavhengig	-9.634
▁lund	-9.63409
ische	-9.63438
gren	-9.63457
▁ordenen	-9.63468
iller	-9.63505
▁afrika	-9.63511
▁eid	-9.63518
▁michael	-9.63525
▁sørvest	-9.6355
▁hevde	-9.63556
▁charles	-9.63558
▁variant	-9.63609
▁oppdaget	-9.63639
▁militære	-9.63657
▁gjelder	-9.6367
mul	-9.63686
▁union	-9.6369
trolig	-9.6369
vekt	-9.6372
59	-9.63793
▁odd	-9.63888
▁lære	-9.63891
08	-9.63935
kunst	-9.63938
▁begrepet	-9.63951
▁sau	-9.64045
▁vm	-9.64091
▁win	-9.6411
▁nar	-9.64138
hjul	-9.64167
▁bla	-9.642
bladet	-9.64276
89	-9.64318
▁hverandre	-9.6438
▁nærmere	-9.64384
jon	-9.64448
løsning	-9.64455
▁ran	-9.64484
▁krav	-9.64561
▁forfatteren	-9.64562
▁gården	-9.646
19	-9.64628
▁bygde	-9.64768
wood	-9.64788
tun	-9.64813
ala	-9.64814
plat	-9.64824
▁utvikling	-9.64842
▁sund	-9.64867
rød	-9.64887
ben	-9.64944
gående	-9.64979
shire	-9.64992
iti	-9.6504
org	-9.65124
▁bon	-9.65151
samfunn	-9.65214
kur	-9.65246
▁nevnes	-9.65249
▁1973	-9.65255
▁1985	-9.65257
▁hard	-9.65269
▁klassisk	-9.65284
▁lar	-9.65321
din	-9.65321
▁hær	-9.65332
band	-9.65379
▁leg	-9.6539
▁senter	-9.65417
▁oppgave	-9.65419
▁nærings	-9.65443
ås	-9.65474
saker	-9.65496
hol	-9.65634
▁grenser	-9.65721
feltet	-9.65759
lem	-9.65792
senteret	-9.658
▁90	-9.65845
▁forsvars	-9.65881
bjørn	-9.66027
våpen	-9.66029
▁vind	-9.66049
▁satte	-9.66135
▁møtte	-9.66146
trop	-9.66197
▁jobb	-9.66309
▁salt	-9.66346
kjenne	-9.6635
▁test	-9.66391
▁artene	-9.66447
selskapet	-9.66518
ith	-9.66665
tha	-9.66666
▁prof	-9.6667
▁elv	-9.66676
later	-9.66738
rådet	-9.66793
90	-9.66873
▁gje	-9.66888
▁alternativ	-9.66988
▁1969	-9.67001
▁musikkalbum	-9.67001
▁1977	-9.67003
▁1974	-9.67004
▁1978	-9.67004
▁fjord	-9.67045
▁fro	-9.67077
▁spesial	-9.67095
▁apo	-9.67115
▁knut	-9.67167
▁produsent	-9.67316
▁hva	-9.67347
ative	-9.67406
▁dam	-9.67478
øst	-9.67527
▁north	-9.67537
▁fugle	-9.67609
▁est	-9.67631
hild	-9.67647
museet	-9.67704
jiang	-9.6778
▁modell	-9.67805
bær	-9.67823
drift	-9.67871
▁religiøs	-9.67873
▁norrøn	-9.67875
▁stod	-9.67888
▁1976	-9.67888
▁1964	-9.67893
▁35	-9.67925
gal	-9.67928
▁gå	-9.6793
▁rygg	-9.6802
▁nederlandsk	-9.68026
krigen	-9.6803
▁åpne	-9.68059
▁hovedstaden	-9.68099
▁besøk	-9.68121
lon	-9.68147
▁hoff	-9.68166
▁grensen	-9.68207
▁løp	-9.68265
bygging	-9.68269
▁bel	-9.68293
▁forsknings	-9.68298
levende	-9.6831
▁skips	-9.68341
▁klo	-9.684
▁prosjekt	-9.68409
▁nasjonale	-9.68429
73	-9.68454
▁sjef	-9.68479
stall	-9.68492
▁base	-9.68494
▁thi	-9.68494
▁organisasjonen	-9.68495
▁faren	-9.68569
▁gy	-9.68604
▁åpen	-9.68604
▁provins	-9.6868
program	-9.68711
sol	-9.68729
historie	-9.68731
▁omfattende	-9.68766
▁arrangert	-9.68766
62	-9.6878
linjen	-9.68857
▁skift	-9.68883
▁bio	-9.68934
▁marine	-9.68938
▁dersom	-9.68951
▁leve	-9.68954
▁rute	-9.68975
▁bit	-9.69004
ity	-9.69016
▁vestlig	-9.6902
▁teori	-9.69025
▁rå	-9.69026
▁adel	-9.69028
▁mak	-9.69036
▁us	-9.69079
▁mulighet	-9.69106
hør	-9.69165
tog	-9.69253
▁forskning	-9.69339
arbeider	-9.69403
▁sw	-9.6944
hav	-9.69518
▁kysten	-9.6961
▁prosent	-9.69677
▁1967	-9.69682
▁will	-9.69689
▁hjerte	-9.69695
▁1920	-9.69698
▁poeng	-9.69711
▁sivil	-9.69727
▁distriktet	-9.69775
▁begynner	-9.69925
▁kongelig	-9.69954
the	-9.69958
▁fremme	-9.70007
▁sag	-9.70023
▁heller	-9.7004
▁grupper	-9.70042
▁høye	-9.70142
▁nivå	-9.70146
ori	-9.70174
strand	-9.70181
blad	-9.7019
gjorde	-9.70229
▁stammer	-9.70253
▁slått	-9.70257
fang	-9.70265
▁150	-9.70303
▁vid	-9.70307
sser	-9.70338
▁stykke	-9.70374
▁røde	-9.70397
▁kristian	-9.7048
slekt	-9.70549
т	-9.70569
åpning	-9.7057
ī	-9.70576
▁jazz	-9.70576
▁plassert	-9.70581
▁hill	-9.70599
▁betegnelsen	-9.70607
▁lengre	-9.70609
ata	-9.70633
▁ji	-9.70634
▁black	-9.7065
▁slott	-9.70727
▁innført	-9.70819
▁hæren	-9.70829
▁føl	-9.70864
▁produksjons	-9.70977
▁gard	-9.71092
▁stig	-9.71234
ram	-9.71252
▁sl	-9.7127
▁raskt	-9.7128
▁kh	-9.71297
▁ungdoms	-9.7131
▁johann	-9.71349
▁bibliotek	-9.71406
▁utføre	-9.71444
▁haug	-9.71484
▁berømt	-9.71493
▁sannsynlig	-9.71493
▁south	-9.71502
▁cy	-9.71513
▁video	-9.71516
▁sikre	-9.71517
kommune	-9.71539
▁livs	-9.7162
▁fulgte	-9.71626
▁fjern	-9.71679
jønn	-9.71696
▁lot	-9.71747
foss	-9.71839
delen	-9.7184
▁ole	-9.71909
▁vinner	-9.71974
virke	-9.72208
▁temperatur	-9.72279
▁vokal	-9.72318
manns	-9.72334
в	-9.72393
kapasitet	-9.7242
▁lufthavn	-9.72432
57	-9.72512
17	-9.72579
bare	-9.72605
ind	-9.72649
fugl	-9.72649
gger	-9.72652
tti	-9.72702
▁trafikk	-9.72703
▁nr	-9.72745
person	-9.72747
▁naturlig	-9.72761
▁øke	-9.72801
▁mini	-9.72804
kla	-9.7289
▁stan	-9.7294
gav	-9.72977
ish	-9.73061
▁skipet	-9.73087
▁tettstedet	-9.73087
▁formel	-9.73106
▁hopp	-9.73116
▁merke	-9.73134
▁arne	-9.7315
▁gutt	-9.73158
kov	-9.73243
▁py	-9.73271
▁israel	-9.73308
▁fal	-9.73334
▁eksempler	-9.73354
▁australia	-9.73354
▁1930	-9.73374
▁ordfører	-9.73381
▁lansert	-9.73393
▁forsvar	-9.73401
▁musiker	-9.73441
ade	-9.7351
▁hud	-9.73634
▁ram	-9.73643
▁lø	-9.73716
▁gau	-9.73788
ios	-9.73796
▁tema	-9.7382
▁sla	-9.73821
▁kontor	-9.73859
▁hed	-9.73899
▁bidra	-9.73913
▁økonomi	-9.73918
▁redaktør	-9.73929
▁time	-9.7403
▁rh	-9.74082
▁kj	-9.74095
øyene	-9.74121
gaard	-9.74166
58	-9.74195
▁poly	-9.74263
▁etterhvert	-9.74297
▁religion	-9.74298
▁undersøkelse	-9.743
▁foreldre	-9.743
▁enten	-9.74319
grupper	-9.74324
▁snø	-9.74341
▁forsøkt	-9.74425
▁rad	-9.74431
▁q	-9.74436
ordenen	-9.74552
▁miste	-9.7457
stamme	-9.74628
▁betegne	-9.74708
▁fører	-9.74736
brun	-9.74747
bol	-9.74764
handel	-9.7482
▁nådd	-9.74865
▁historien	-9.74941
▁mørk	-9.75028
▁samlet	-9.75047
▁hode	-9.75117
fjell	-9.75225
▁avisen	-9.75237
▁opprinnelse	-9.7525
▁århundre	-9.7525
▁betrakte	-9.7525
▁united	-9.75251
▁sendt	-9.75252
▁2017	-9.75278
▁spania	-9.75293
▁penge	-9.75295
▁myr	-9.7533
møte	-9.75396
innen	-9.75415
prisen	-9.75421
▁cra	-9.75472
▁strid	-9.75505
▁befolkning	-9.75505
▁stille	-9.7554
▁tittel	-9.75598
▁und	-9.75754
tag	-9.75757
▁finans	-9.75783
mma	-9.75788
▁anlegget	-9.75803
sberg	-9.75814
analyse	-9.75963
▁påvirke	-9.75995
ón	-9.76019
deles	-9.76053
▁høyde	-9.76116
ł	-9.76211
▁tilgjengelig	-9.76211
▁vietnam	-9.76211
▁spesiell	-9.76212
▁handling	-9.76219
▁utdannet	-9.76223
▁1945	-9.76223
▁typer	-9.76276
▁bevegelse	-9.76291
▁ytre	-9.76358
12	-9.76442
▁styrker	-9.7657
▁rep	-9.76601
▁fordelt	-9.76682
▁endt	-9.76687
dro	-9.76705
klær	-9.76749
▁driver	-9.76783
▁historiker	-9.76854
gul	-9.76893
▁bolig	-9.77102
gro	-9.77124
kirken	-9.77177
▁1948	-9.77182
vunnet	-9.77195
▁selve	-9.77237
▁alltid	-9.7726
kamera	-9.77264
▁jevn	-9.77282
▁sammenlign	-9.77323
vind	-9.77342
dorf	-9.77389
▁feil	-9.77425
▁hå	-9.77464
▁tegnet	-9.77549
plassen	-9.77586
▁leir	-9.77672
fabrikk	-9.77697
olo	-9.77752
▁turn	-9.77777
▁tang	-9.77787
69	-9.77825
▁bøker	-9.77864
▁long	-9.7791
æl	-9.77974
▁alp	-9.78
▁spre	-9.78027
▁joseph	-9.78162
stoff	-9.78175
▁1958	-9.78177
▁snakke	-9.78199
▁fortsette	-9.78207
▁glo	-9.78217
▁stadig	-9.7824
▁problem	-9.78243
▁flyplass	-9.78253
▁song	-9.78362
hand	-9.78436
▁vik	-9.78451
ville	-9.78471
war	-9.78508
▁stasjonen	-9.78612
▁begynnelse	-9.78613
▁bane	-9.78657
46	-9.78686
bru	-9.78711
▁dynastiet	-9.78755
▁gjeste	-9.78756
fulle	-9.78769
yang	-9.78822
▁kam	-9.78829
▁holder	-9.78958
▁bay	-9.78963
▁larvene	-9.78968
dagen	-9.78978
alis	-9.78992
▁lam	-9.79036
ania	-9.79099
dokument	-9.79103
▁studio	-9.7915
ç	-9.79152
▁trøndelag	-9.79152
▁yngre	-9.79155
▁hovedrollen	-9.79156
▁vanskelig	-9.7916
▁1947	-9.7917
ão	-9.79188
▁blue	-9.79197
▁dor	-9.79225
artist	-9.79276
▁total	-9.79308
maskin	-9.79322
▁ting	-9.79377
▁euro	-9.79383
mba	-9.79396
▁endret	-9.79408
▁tross	-9.79483
▁lev	-9.79524
▁eva	-9.79543
▁innsjøen	-9.79582
▁brev	-9.79622
akk	-9.79722
▁helge	-9.79748
▁spill	-9.79919
87	-9.80053
▁benyttes	-9.8007
ova	-9.80122
▁fredrik	-9.80161
25	-9.80166
▁1944	-9.80169
▁1966	-9.80172
▁2016	-9.80177
▁administrasjons	-9.80192
▁fremdeles	-9.80196
well	-9.80357
▁lignende	-9.80363
▁inkluderer	-9.80368
riket	-9.80377
▁akademi	-9.80415
▁politikk	-9.80458
▁nes	-9.80478
mes	-9.80488
fond	-9.80515
con	-9.80553
skriv	-9.80673
▁lyn	-9.80705
trinn	-9.80711
standen	-9.80727
stø	-9.80765
98	-9.80783
▁masse	-9.80914
stillinger	-9.80986
▁hente	-9.81028
ora	-9.81044
▁materiale	-9.81083
▁bruke	-9.81107
▁program	-9.81119
▁term	-9.81122
▁canada	-9.81165
▁markeds	-9.81168
▁1946	-9.81177
▁bass	-9.8118
▁nasjonalpark	-9.81188
▁forkorte	-9.81242
▁ung	-9.81278
▁vokste	-9.81419
tis	-9.81435
▁rapport	-9.81552
▁ansatte	-9.8172
▁løper	-9.81721
▁camp	-9.81752
▁sten	-9.81772
▁omtale	-9.81848
▁160	-9.81948
▁32	-9.81961
▁may	-9.81977
sport	-9.82023
hem	-9.82028
54	-9.82178
▁wilhelm	-9.82183
▁tydelig	-9.82187
75	-9.822
18	-9.82253
▁presse	-9.82271
▁kamper	-9.82294
kilde	-9.82303
jær	-9.8246
trær	-9.82465
▁peder	-9.82564
▁meg	-9.82583
▁jakt	-9.82584
syre	-9.82604
▁ønsket	-9.82666
▁frukt	-9.82796
ella	-9.82954
▁teksten	-9.82963
nik	-9.83042
serien	-9.83098
▁kryss	-9.8313
▁elektrisk	-9.83214
▁fokus	-9.83219
▁stortinget	-9.83219
▁sykehus	-9.83236
▁cel	-9.8324
▁omtalt	-9.83249
▁utdanning	-9.83253
▁magne	-9.83309
▁eiendom	-9.83353
▁mik	-9.83373
▁luc	-9.83374
butikk	-9.8353
99	-9.83562
▁myndighet	-9.83569
▁hundre	-9.83573
eide	-9.83617
▁soldater	-9.83623
92	-9.83648
▁benytte	-9.83664
stykke	-9.8374
▁din	-9.83783
▁gru	-9.83798
▁prøve	-9.83815
▁stål	-9.83821
▁max	-9.83909
zy	-9.84025
▁spiss	-9.84028
▁flor	-9.84067
▁voks	-9.8408
▁troll	-9.84127
▁vannet	-9.84129
▁amerika	-9.84154
▁lage	-9.84221
▁sykdom	-9.84227
▁1961	-9.84256
▁ytterligere	-9.84256
▁passasjer	-9.84261
ов	-9.84272
▁auto	-9.84363
▁gjennomført	-9.84391
▁rei	-9.84418
lov	-9.84447
▁hvorav	-9.8449
▁maler	-9.84504
97	-9.84547
vold	-9.84592
▁rein	-9.84627
▁music	-9.84732
atet	-9.84745
▁mw	-9.84806
skij	-9.8481
▁rask	-9.84814
▁våren	-9.84913
▁vanlige	-9.84961
ark	-9.84966
▁spar	-9.84974
osa	-9.84986
▁horn	-9.84989
▁hunnen	-9.85044
▁polen	-9.85049
områdene	-9.85093
▁grev	-9.85165
ple	-9.8517
▁star	-9.85224
▁struktur	-9.85248
▁front	-9.85258
́	-9.85308
▁jakob	-9.85308
▁dialekt	-9.85309
klo	-9.85312
▁1962	-9.85324
▁skjedde	-9.85335
▁bølge	-9.85342
▁sier	-9.8535
▁hustru	-9.85351
▁gall	-9.85471
▁undervisning	-9.85472
▁high	-9.85508
▁arve	-9.85538
musik	-9.85571
▁nan	-9.85579
▁østlig	-9.85624
klubben	-9.85661
▁tone	-9.8572
sanger	-9.85759
▁kjøre	-9.858
▁egypt	-9.85845
▁buss	-9.85851
nie	-9.85863
stig	-9.85912
▁log	-9.85968
▁bytte	-9.85998
▁33	-9.86243
▁foruten	-9.86322
▁kardinal	-9.86372
▁1953	-9.86372
▁innsats	-9.86374
▁østerrike	-9.86375
kammer	-9.8639
▁1963	-9.8639
ico	-9.86435
▁øvrig	-9.86446
▁kart	-9.8647
▁qui	-9.86474
▁korea	-9.86505
▁sterke	-9.86603
▁likhet	-9.86619
▁mengde	-9.86642
▁polsk	-9.86673
full	-9.86687
kritiker	-9.86701
sek	-9.86702
▁skul	-9.86715
merket	-9.86725
▁tettsted	-9.86732
krets	-9.8674
ball	-9.86741
ky	-9.86751
▁voksne	-9.86774
▁sterk	-9.86847
motor	-9.8686
▁kroner	-9.86904
▁ungdom	-9.86918
▁jean	-9.86923
▁klokke	-9.86966
▁ordens	-9.87006
▁ana	-9.87012
▁overfor	-9.87015
▁sli	-9.87112
holdsvis	-9.87112
▁reform	-9.87222
rup	-9.87249
▁kald	-9.87266
▁øyene	-9.87267
rekke	-9.87303
▁byprefekturet	-9.87447
▁college	-9.87453
▁royal	-9.87454
▁kontakt	-9.87457
▁overflate	-9.87545
▁lenge	-9.87546
▁geo	-9.87718
forfatter	-9.87785
▁valgte	-9.87799
tidsskrift	-9.87814
sam	-9.87831
▁atom	-9.88039
▁indisk	-9.88044
▁sku	-9.88051
▁beskrevet	-9.88063
slav	-9.8807
▁normalt	-9.88113
atisk	-9.88123
olje	-9.88182
▁ze	-9.88213
byrå	-9.88217
ence	-9.88252
▁programmet	-9.88275
45	-9.88311
▁tonn	-9.88334
nst	-9.88433
▁lengst	-9.88548
▁1957	-9.8855
▁kvalitet	-9.88562
▁hannen	-9.88566
▁turist	-9.88602
▁eksistere	-9.8862
▁fjær	-9.88634
bul	-9.88651
shi	-9.88664
▁bou	-9.88667
▁bob	-9.8869
▁sende	-9.88755
win	-9.88785
▁folket	-9.88795
▁vitenskap	-9.88819
▁havet	-9.88899
▁fyrst	-9.88906
21	-9.88912
▁objekt	-9.88933
▁tapte	-9.88974
▁teknisk	-9.89036
ric	-9.89119
▁svar	-9.89141
▁inndel	-9.89188
▁areal	-9.89347
▁sønnen	-9.89374
▁nordland	-9.89581
▁univers	-9.89609
▁original	-9.8963
▁beijing	-9.89634
▁zu	-9.89652
▁tolv	-9.89657
▁behandle	-9.89743
▁grunnla	-9.89754
fjellet	-9.89766
lar	-9.89785
▁lavere	-9.89812
▁bord	-9.89816
▁bodd	-9.89857
▁pin	-9.89889
▁45	-9.89915
▁studier	-9.89961
▁valget	-9.89985
virksomhet	-9.9002
trafikk	-9.90022
én	-9.90056
▁scor	-9.90066
▁huset	-9.90074
▁franc	-9.90113
gjøre	-9.90293
▁festival	-9.90296
▁irland	-9.90354
▁verket	-9.90363
voll	-9.90409
▁kjøpe	-9.9042
▁fol	-9.90476
▁dj	-9.90542
ledning	-9.90546
▁alf	-9.90563
▁velge	-9.90596
valget	-9.90647
skipet	-9.90677
▁revolusjon	-9.90722
▁alder	-9.90731
▁episode	-9.90746
▁melodi	-9.90753
▁1928	-9.90756
▁1952	-9.90763
▁1971	-9.90763
▁1940	-9.90767
ado	-9.90778
▁kjønn	-9.90847
▁300	-9.90854
▁cup	-9.90867
▁krets	-9.90928
kjøp	-9.90964
svik	-9.91015
gin	-9.91031
▁jarl	-9.91039
avtale	-9.91047
ain	-9.91147
forbindelse	-9.91159
▁1800	-9.91192
gått	-9.91245
bon	-9.9139
▁ask	-9.91416
stor	-9.91425
▁karakter	-9.91474
lapp	-9.91504
▁femte	-9.9152
ping	-9.91555
▁ö	-9.9162
▁harry	-9.91767
▁festning	-9.91797
▁etterfulgt	-9.91868
▁regissert	-9.91869
▁oblast	-9.91889
▁up	-9.91919
15	-9.91934
▁gruve	-9.91951
▁lenger	-9.9207
▁slå	-9.92091
▁marie	-9.92242
bøker	-9.92376
drakt	-9.92387
▁bidrag	-9.92441
▁tog	-9.92542
cher	-9.92594
illa	-9.92638
somme	-9.9264
▁stoppe	-9.9267
▁sti	-9.92685
▁tids	-9.92709
utgivelse	-9.92775
▁strekk	-9.92782
▁stol	-9.9279
▁vers	-9.92844
▁orkester	-9.92855
▁hertug	-9.92917
økonom	-9.92974
▁sovjetunionen	-9.93004
▁tilknytte	-9.93004
▁pasient	-9.93004
▁xiàn	-9.93005
▁arrangere	-9.93005
▁frederik	-9.9301
▁sho	-9.93019
▁debutert	-9.93025
▁produsere	-9.93062
▁fjellet	-9.93072
▁samfunns	-9.9325
▁adam	-9.93289
▁sven	-9.93307
▁nordisk	-9.93331
▁intel	-9.93337
88	-9.93341
ød	-9.93352
▁cho	-9.93392
42	-9.93413
festival	-9.93465
▁politiet	-9.93466
▁malt	-9.93489
▁nam	-9.93516
hed	-9.93571
ough	-9.93572
mesterskapet	-9.93594
▁motiv	-9.93607
pin	-9.93634
▁fremst	-9.93761
▁offentlige	-9.9377
▁finalen	-9.93787
visning	-9.93831
stoffer	-9.93859
▁kjerne	-9.93899
fotograf	-9.93922
stasjonen	-9.93972
▁nederland	-9.93973
mennene	-9.94004
▁posisjon	-9.94004
▁gor	-9.94028
ink	-9.94036
▁skape	-9.94064
▁parlament	-9.94153
▁1956	-9.94154
▁friedrich	-9.94154
▁kategori	-9.94154
▁1941	-9.94154
▁utbredt	-9.94154
▁tilhørte	-9.94156
barn	-9.94164
▁1954	-9.94169
▁1919	-9.94172
▁rund	-9.94172
situasjon	-9.94186
▁cur	-9.94218
høgskole	-9.94223
sang	-9.94246
▁sammenheng	-9.9428
▁mol	-9.94293
nummer	-9.94299
▁mikro	-9.94368
gå	-9.9437
▁bydel	-9.94396
▁dør	-9.94432
▁klubb	-9.94551
plante	-9.94597
▁andreas	-9.94608
▁sørlige	-9.94619
hunder	-9.94683
▁ube	-9.94758
▁slett	-9.94801
▁400	-9.94815
▁søke	-9.94884
tek	-9.94922
tunnelen	-9.94962
▁spørsmål	-9.94989
▁støttet	-9.94995
sco	-9.95061
16	-9.95075
▁innsjø	-9.95122
▁och	-9.95123
▁fremste	-9.95144
▁livet	-9.95149
▁regjerings	-9.95172
slaget	-9.95177
▁planter	-9.95191
gri	-9.95209
lement	-9.95262
▁syr	-9.95263
▁kok	-9.95289
sekretær	-9.95302
▁arrangement	-9.95317
▁records	-9.95317
▁sistnevnte	-9.95317
▁kunnskap	-9.95318
▁insekt	-9.95323
▁bronse	-9.95326
▁tilbyr	-9.95386
▁rose	-9.95443
▁motstand	-9.95446
▁vä	-9.95458
▁sesong	-9.95471
▁skille	-9.95475
▁organisert	-9.95509
▁æres	-9.95559
▁cre	-9.95578
strek	-9.9563
line	-9.95687
▁tusen	-9.95699
23	-9.95729
mod	-9.95744
chu	-9.95788
gjort	-9.9579
ii	-9.9587
▁filosof	-9.95875
kka	-9.9592
▁gram	-9.95934
▁single	-9.96014
ön	-9.96017
▁forlot	-9.9602
35	-9.96023
▁vokser	-9.96026
▁russ	-9.96193
▁uke	-9.96263
ax	-9.96265
▁utviklingen	-9.9629
▁skatte	-9.9629
kler	-9.96317
▁salg	-9.96331
deler	-9.96356
▁landslag	-9.96492
ρ	-9.96493
▁innflytelse	-9.96493
▁selvstendig	-9.96493
▁school	-9.96494
▁henholdsvis	-9.96515
▁1939	-9.96518
alitet	-9.96522
▁kommun	-9.96528
▁daniel	-9.96537
▁institut	-9.96585
▁metode	-9.96592
▁omfattet	-9.96596
atur	-9.96756
▁gold	-9.96766
logen	-9.96862
▁kode	-9.96998
one	-9.97025
▁dekker	-9.97026
▁runde	-9.97033
rolle	-9.97048
iro	-9.9706
▁former	-9.97072
▁preget	-9.97091
kultur	-9.97107
▁ønske	-9.97128
96	-9.97142
▁master	-9.97159
36	-9.97193
▁rosen	-9.97227
▁kalte	-9.97278
▁problemer	-9.9732
ulf	-9.97336
avdeling	-9.97435
bekk	-9.97596
г	-9.97683
▁positiv	-9.97684
▁digital	-9.97684
▁primær	-9.97684
▁cirka	-9.97685
▁mytologi	-9.97685
▁formann	-9.97701
▁stam	-9.97715
▁drev	-9.97734
▁slave	-9.97738
egnet	-9.97757
▁regnet	-9.97785
firma	-9.97818
fortelling	-9.97826
▁offisiel	-9.97891
▁systemet	-9.97931
hov	-9.97953
snes	-9.97964
▁oppdrag	-9.97974
plikt	-9.98002
awa	-9.98019
▁fø	-9.98042
medlem	-9.98247
direktør	-9.98259
museum	-9.98265
▁nedre	-9.98294
▁oversatt	-9.98301
▁bat	-9.98312
▁grøn	-9.98347
94	-9.9845
hund	-9.98565
24	-9.98575
▁prins	-9.98606
▁damp	-9.98622
▁ankom	-9.98648
▁opphav	-9.98655
▁dato	-9.98687
▁fabrikk	-9.98743
▁populære	-9.98767
▁rek	-9.98884
п	-9.98888
▁service	-9.98888
▁middelsstor	-9.98888
▁motsetning	-9.9889
▁kropps	-9.98903
▁republikken	-9.98916
▁videregående	-9.9892
ical	-9.98948
ledd	-9.98969
▁div	-9.98974
oksid	-9.99046
▁vokalist	-9.99054
▁nevnt	-9.99066
▁live	-9.99102
▁aur	-9.99105
dam	-9.99139
pat	-9.99194
▁jorden	-9.9923
▁kontrakt	-9.994
14	-9.99481
▁forvingen	-9.99663
▁dobbelt	-9.99674
▁anton	-9.99692
▁teknologi	-9.99787
lad	-9.99797
formede	-9.99802
▁mangler	-9.99808
ín	-9.9992
▁markert	-9.99988
▁kreft	-10.001
▁blomster	-10.0011
belteasteroide	-10.0011
▁hurtig	-10.0011
▁generelt	-10.0011
▁kjærlighet	-10.0011
▁himmel	-10.0013
ønne	-10.0013
▁eli	-10.0014
▁tryg	-10.0015
▁varierer	-10.0016
▁sea	-10.0016
▁jordbruk	-10.0016
▁sendte	-10.0019
▁kap	-10.002
▁reiste	-10.0021
eksamen	-10.0022
▁mobil	-10.0028
▁kost	-10.0034
zar	-10.0038
botn	-10.0041
ifisert	-10.0045
▁dahl	-10.0046
feld	-10.0054
▁gitarist	-10.0059
▁kommunene	-10.0062
dikt	-10.0082
ique	-10.0083
▁skriver	-10.0086
▁jur	-10.0087
typen	-10.0088
▁skall	-10.0088
▁rollen	-10.0091
▁gun	-10.0111
▁run	-10.0113
▁ramme	-10.0114
▁øv	-10.0114
▁svak	-10.0116
▁finn	-10.0121
▁uttale	-10.0126
basert	-10.013
▁tw	-10.0132
▁utover	-10.0133
▁installert	-10.0134
▁bosetning	-10.0134
▁1932	-10.0135
▁1934	-10.0137
▁fotballspiller	-10.0138
▁bevart	-10.0139
▁east	-10.0143
▁irsk	-10.0143
▁award	-10.0144
col	-10.0147
slått	-10.015
▁tj	-10.0151
▁bell	-10.0152
foreningen	-10.0159
▁myk	-10.016
kysten	-10.0161
▁forekommer	-10.0164
car	-10.017
mond	-10.0177
▁operatør	-10.0184
▁viking	-10.0189
▁athen	-10.0189
▁bære	-10.019
bakk	-10.0192
▁stoff	-10.0194
town	-10.0195
prosjekt	-10.0201
▁wien	-10.0205
wan	-10.0207
▁metal	-10.0217
▁bærer	-10.022
havn	-10.0229
▁boy	-10.0229
lokk	-10.023
▁selge	-10.0235
▁villa	-10.0238
bedrift	-10.0246
bakken	-10.0247
▁kjemisk	-10.0247
stitusjon	-10.0253
▁california	-10.0259
▁utgangspunkt	-10.0259
▁alvorlig	-10.0259
▁flertall	-10.0259
▁club	-10.0259
▁inngår	-10.026
▁menighet	-10.026
▁referere	-10.0261
pass	-10.0261
▁1949	-10.0261
▁papir	-10.0263
▁mørke	-10.0267
▁laste	-10.0271
▁tilfelle	-10.0274
▁ekstra	-10.0277
▁bonde	-10.0282
▁økt	-10.0289
▁sankt	-10.029
31	-10.029
▁with	-10.0293
vente	-10.0295
▁institutt	-10.0296
▁fc	-10.0304
bukta	-10.0305
▁ligne	-10.0316
▁kloster	-10.0316
▁fel	-10.0319
▁linjen	-10.0322
▁timer	-10.0323
▁parken	-10.0341
▁jule	-10.0356
▁rør	-10.0364
forhold	-10.0366
▁produserer	-10.0379
▁deriblant	-10.0386
▁introdusert	-10.0386
▁fødsel	-10.0386
▁hjelpe	-10.0386
▁tegneserie	-10.0387
▁1936	-10.0387
▁solo	-10.0388
▁internett	-10.039
▁alfred	-10.0392
▁120	-10.0393
▁straffe	-10.0393
hørende	-10.0402
passet	-10.0405
hin	-10.0406
▁team	-10.041
▁jøde	-10.0412
▁møter	-10.0413
▁toppen	-10.0416
cho	-10.0426
▁retur	-10.0427
com	-10.0431
zh	-10.0432
▁rob	-10.0434
▁zi	-10.044
▁normal	-10.0441
▁comp	-10.0443
▁bydelen	-10.0446
▁tam	-10.0446
▁landskapet	-10.0468
22	-10.0481
trådte	-10.0491
▁sete	-10.0494
▁mary	-10.0509
▁innbyggertall	-10.0514
▁vingespenn	-10.0514
▁skottland	-10.0514
▁fløy	-10.0515
▁bryst	-10.0515
▁naturgass	-10.0515
▁1937	-10.0517
veksle	-10.0522
▁aksje	-10.0524
▁streng	-10.0527
▁landsbyen	-10.0527
▁cam	-10.0531
▁områdene	-10.0534
▁42	-10.0536
▁tårn	-10.054
▁pap	-10.0545
▁vakt	-10.0556
ect	-10.0559
▁dommer	-10.0567
verdig	-10.0571
▁ansvarlig	-10.0576
▁kalk	-10.0577
▁flu	-10.0588
▁comm	-10.0591
▁skinn	-10.0593
▁artikkel	-10.0597
▁esp	-10.0602
▁storm	-10.0606
vang	-10.0613
▁press	-10.0618
aya	-10.0619
▁kg	-10.0625
▁amt	-10.0639
fjellene	-10.0643
▁administrativ	-10.0644
▁tømmer	-10.0644
▁magnus	-10.0644
▁håndball	-10.0645
▁bokstav	-10.0645
▁gustav	-10.0646
▁group	-10.0646
▁saint	-10.0647
▁skotsk	-10.0648
▁otto	-10.0653
▁spillet	-10.0654
▁saken	-10.0654
▁bånd	-10.0661
▁underlagt	-10.0685
▁sar	-10.0686
arbeidet	-10.0692
▁polar	-10.0695
▁bispedømme	-10.0696
▁ytter	-10.0714
▁regional	-10.0715
bein	-10.0715
▁bakkroppen	-10.0723
iansk	-10.0725
▁utviklings	-10.0734
▁dog	-10.0735
▁kjøl	-10.0738
bak	-10.0756
▁hotell	-10.0757
▁utga	-10.076
▁kandidat	-10.0766
møll	-10.0766
▁nowiki	-10.0775
▁fysisk	-10.0776
▁kristne	-10.0776
▁redusert	-10.0776
▁scott	-10.0776
▁oversikt	-10.0776
▁län	-10.0779
▁celle	-10.0779
▁utstilling	-10.0783
▁invest	-10.0783
spillet	-10.0786
halvøya	-10.0789
dekke	-10.0789
▁forretnings	-10.0789
▁ledende	-10.0795
▁agder	-10.0801
▁kjell	-10.082
dannelse	-10.0829
vald	-10.0835
28	-10.0835
hai	-10.0839
▁orient	-10.0846
▁green	-10.0856
produsent	-10.0859
miljø	-10.0859
▁korn	-10.0872
▁brand	-10.0878
▁filosofi	-10.0879
▁landskap	-10.0883
▁medisin	-10.0883
▁torg	-10.0884
▁bunn	-10.0895
▁spise	-10.09
▁virkelig	-10.0906
▁nødvendig	-10.0909
▁kombinert	-10.0909
▁forårsake	-10.0909
▁snart	-10.091
hastighet	-10.091
komité	-10.091
▁firmaet	-10.091
▁reserve	-10.0911
gler	-10.0911
▁signert	-10.0912
▁36	-10.0915
kostnad	-10.0918
▁final	-10.0922
stjerne	-10.0923
tain	-10.093
▁munk	-10.0931
former	-10.094
▁fylket	-10.0941
▁utvikle	-10.0961
▁nordre	-10.0964
▁histo	-10.0976
▁klassen	-10.0981
▁idrettslag	-10.0984
▁sovjetisk	-10.0993
▁demo	-10.0993
konkurranse	-10.0996
▁føde	-10.0999
kontor	-10.1003
▁angel	-10.1008
▁fritt	-10.101
blom	-10.1015
▁sveitsisk	-10.1023
▁santa	-10.1023
▁liga	-10.1025
▁prosjektet	-10.1025
▁publi	-10.1036
▁bull	-10.1037
▁sve	-10.104
27	-10.1042
konstruksjon	-10.1044
▁1933	-10.1044
konferanse	-10.1044
▁utnytte	-10.1045
▁1942	-10.1046
▁fungere	-10.1046
▁smith	-10.1046
innspilling	-10.1047
▁krever	-10.1047
▁listen	-10.1052
▁veldig	-10.1053
▁henhold	-10.1056
▁vist	-10.1067
rand	-10.1068
▁liberal	-10.1079
▁cro	-10.108
åsen	-10.108
▁private	-10.1085
▁forskjell	-10.1086
▁tropp	-10.1088
▁anlegg	-10.1099
▁avhengig	-10.1107
rim	-10.1129
speil	-10.1134
figur	-10.1135
president	-10.1136
▁wu	-10.1136
▁utvidet	-10.1141
makt	-10.1149
▁od	-10.1159
▁intern	-10.116
32	-10.1161
folket	-10.1162
elv	-10.1162
▁cd	-10.1164
▁gjer	-10.1165
▁out	-10.1168
▁bach	-10.1173
▁nasjon	-10.1173
▁1905	-10.1181
▁inspirert	-10.1181
trakk	-10.1181
▁stadion	-10.1182
▁sverd	-10.1184
▁sul	-10.1187
▁eksport	-10.1188
▁lyst	-10.1188
▁utstyr	-10.119
industri	-10.1195
▁kristen	-10.1195
▁banen	-10.1197
▁reaksjon	-10.1197
▁kin	-10.1204
▁henry	-10.1209
▁inneha	-10.1209
▁jack	-10.1213
hard	-10.1217
▁gress	-10.1228
▁mess	-10.1234
▁human	-10.1242
galleri	-10.1245
eppe	-10.1245
▁produksjonen	-10.1257
▁kai	-10.1259
▁gyl	-10.127
▁koll	-10.1271
▁gö	-10.1278
▁foreningen	-10.1285
▁pala	-10.1287
▁part	-10.1289
betegnelse	-10.1289
▁fordel	-10.1289
▁grunnet	-10.1292
▁one	-10.1293
▁buk	-10.1296
flat	-10.1296
▁cru	-10.1307
▁skjær	-10.1308
▁drap	-10.1315
▁anerkjent	-10.132
▁medlemmene	-10.1321
▁ridder	-10.1321
▁1914	-10.1321
▁power	-10.1322
▁1955	-10.1322
▁skiller	-10.1324
▁planlagt	-10.1325
▁brenn	-10.1325
wald	-10.1329
▁uttalt	-10.133
▁för	-10.1338
ary	-10.1339
assi	-10.1347
krig	-10.1364
▁tradisjonel	-10.1366
▁pensjon	-10.1373
▁stand	-10.1374
▁status	-10.138
▁sim	-10.1389
▁sær	-10.1392
▁frihet	-10.1395
fre	-10.1401
▁enkle	-10.1405
industrien	-10.1408
▁handle	-10.1408
vitenskap	-10.1418
▁supp	-10.1419
hånd	-10.1419
født	-10.1421
▁rand	-10.1421
▁måne	-10.1423
▁offiser	-10.1424
▁fru	-10.1424
▁free	-10.1429
sammen	-10.1431
▁gjeld	-10.144
▁bevis	-10.1445
følgende	-10.145
▁stå	-10.1452
mmel	-10.1452
kasse	-10.1456
▁1904	-10.1461
▁1926	-10.1461
▁county	-10.1461
▁moskva	-10.1461
▁minutter	-10.1461
rådgiver	-10.1461
▁arendal	-10.1462
▁konstant	-10.1462
▁protest	-10.1463
▁hydro	-10.1463
▁konkurranse	-10.1464
apparat	-10.1467
▁lim	-10.1477
▁plassering	-10.1481
politisk	-10.1483
gress	-10.1485
▁synd	-10.1487
▁hellige	-10.1491
▁petter	-10.1495
▁fartøy	-10.1499
▁fan	-10.1501
▁simon	-10.1501
▁fotballklubb	-10.1501
▁øverste	-10.1507
▁bol	-10.1507
▁kommunal	-10.1508
▁konkurransen	-10.1508
▁lån	-10.1517
▁tun	-10.1526
▁høst	-10.1526
▁oliv	-10.1528
▁grov	-10.1535
melding	-10.1538
▁az	-10.1538
rock	-10.1543
hode	-10.1543
▁signal	-10.1545
ordning	-10.1546
▁musikalsk	-10.1552
▁blokk	-10.1556
▁kanon	-10.1557
▁dekke	-10.1559
▁shan	-10.1567
vekst	-10.1568
forsker	-10.1572
▁dalen	-10.1572
▁vinteren	-10.1575
▁skapte	-10.1579
▁økte	-10.159
administrasjon	-10.1598
▁gjenopp	-10.16
familie	-10.1603
▁konflikt	-10.1604
ström	-10.1604
▁eventyr	-10.1604
▁erkebiskop	-10.1604
▁company	-10.1604
▁nedbør	-10.1604
▁terror	-10.1604
▁brygge	-10.1604
▁1959	-10.1606
▁bakvingen	-10.1607
▁hemmelig	-10.1608
▁skilt	-10.1612
▁nærheten	-10.1614
▁erklært	-10.1614
▁tverr	-10.1616
▁tørr	-10.1621
▁kanalen	-10.1622
mont	-10.1623
▁sveits	-10.1626
▁yo	-10.1627
▁bosatt	-10.1631
▁bygda	-10.1632
▁lønn	-10.1634
næs	-10.1642
▁kari	-10.1642
roman	-10.1647
▁meta	-10.1649
asjer	-10.1659
▁ross	-10.1661
▁dukke	-10.1676
cent	-10.1678
▁ec	-10.1681
rommet	-10.1684
▁utvalg	-10.1687
▁bombe	-10.1696
regionen	-10.1698
▁midten	-10.1699
▁drevet	-10.17
▁verker	-10.1704
▁vinge	-10.1707
▁sender	-10.1709
akademi	-10.1711
vinner	-10.1725
▁web	-10.173
vingen	-10.1739
▁foregå	-10.1743
▁vet	-10.1745
▁jim	-10.1746
▁eksperiment	-10.1748
▁godkjent	-10.1748
▁ishockey	-10.1748
▁american	-10.1748
▁registrert	-10.1748
▁ukjent	-10.1748
▁alkohol	-10.1748
▁inneholdt	-10.1749
▁belgia	-10.1749
▁drammen	-10.1749
▁ekteskap	-10.1749
▁landbruks	-10.1749
▁170	-10.175
▁1912	-10.1751
▁oscar	-10.1751
▁karbon	-10.1752
▁sikkerhets	-10.1759
▁hardt	-10.1762
▁trond	-10.1771
▁metro	-10.1773
▁angeles	-10.1774
▁forbundet	-10.1779
▁skatt	-10.1783
▁beina	-10.1784
▁visse	-10.1787
▁vekst	-10.1791
▁oppstår	-10.1798
▁nettverk	-10.1803
oid	-10.1814
▁ein	-10.1822
▁kraftige	-10.1825
▁endre	-10.1827
▁eide	-10.1837
▁hon	-10.1845
formen	-10.185
▁tau	-10.1852
syke	-10.1854
▁raf	-10.1858
behandling	-10.186
▁kva	-10.1871
▁jobbet	-10.1876
fartøy	-10.1888
teori	-10.1889
▁cou	-10.189
fylt	-10.1894
▁snu	-10.1895
▁fullstendig	-10.1896
▁publikum	-10.1896
▁major	-10.1896
typer	-10.1896
▁edward	-10.1897
høyden	-10.1897
▁1908	-10.1898
▁multi	-10.1898
▁slank	-10.1902
▁artister	-10.1906
▁bibel	-10.1907
bøl	-10.1911
▁effektiv	-10.1912
▁utdannelse	-10.1917
masse	-10.1918
una	-10.1922
▁eies	-10.1924
▁stift	-10.1926
▁unngå	-10.1926
▁levert	-10.1928
▁kim	-10.1939
▁ranger	-10.1951
tunnel	-10.1964
▁foto	-10.1968
▁samarbeidet	-10.1979
▁vert	-10.1983
▁qua	-10.1991
mur	-10.1992
▁stilte	-10.1997
distrikt	-10.2006
▁keiseren	-10.2011
kron	-10.202
dahl	-10.2034
bund	-10.2034
▁administrere	-10.2045
▁millimeter	-10.2045
▁regissør	-10.2045
▁fengsel	-10.2045
▁krevde	-10.2045
pedagog	-10.2045
▁døgn	-10.2045
▁finnmark	-10.2047
plattform	-10.2047
▁1918	-10.2047
▁1925	-10.2047
▁etterfølger	-10.2047
▁tour	-10.2047
▁fullført	-10.2048
kapital	-10.2048
▁luther	-10.2054
▁nedlagt	-10.2057
tjenesten	-10.2058
bad	-10.2062
ppel	-10.2072
▁rektor	-10.2074
▁dun	-10.2077
▁trener	-10.2079
▁that	-10.2082
▁bryte	-10.2089
▁trø	-10.2097
versjon	-10.2098
▁opptre	-10.2101
▁ost	-10.2113
▁begrep	-10.2121
▁patri	-10.2121
▁formen	-10.2126
rey	-10.2126
▁vingene	-10.2128
▁gruppa	-10.2128
rige	-10.2129
▁tykk	-10.2148
bestemmelse	-10.2158
▁fett	-10.2167
▁1000	-10.2175
▁dikter	-10.2175
▁våg	-10.2195
▁bevege	-10.2196
▁1909	-10.2196
▁akershus	-10.2196
frekvens	-10.2196
▁ressurs	-10.2196
▁science	-10.2196
▁edvard	-10.2196
dyktig	-10.2196
bærer	-10.2197
▁generasjon	-10.2197
▁bekrefte	-10.2203
▁street	-10.2206
jord	-10.2213
▁ferge	-10.222
tårn	-10.2222
▁alv	-10.2223
ск	-10.2224
norsk	-10.2241
▁virker	-10.2248
▁mala	-10.2259
▁hil	-10.2261
▁krim	-10.2276
ruten	-10.2281
▁motstander	-10.2288
▁avsluttet	-10.2288
▁inntekt	-10.2294
verdi	-10.2295
politikk	-10.2303
▁teologi	-10.2304
opptreden	-10.2306
unn	-10.2309
▁kjemi	-10.2312
▁uker	-10.2318
materiale	-10.2321
▁forsvaret	-10.2322
▁måned	-10.2327
hjem	-10.2327
▁mah	-10.2341
▁prefektur	-10.235
▁league	-10.235
▁østerriksk	-10.235
▁jørgen	-10.235
▁yrkes	-10.235
▁monument	-10.235
▁sigurd	-10.235
▁ekstrem	-10.235
▁nicola	-10.235
▁ombord	-10.235
▁kriminal	-10.2351
▁premier	-10.2351
▁1924	-10.2352
▁islam	-10.2353
▁1938	-10.2353
▁håkon	-10.2354
▁formula	-10.2357
▁nød	-10.236
komiteen	-10.236
▁kapell	-10.236
▁bud	-10.2366
▁drikke	-10.2371
▁vannkraftverk	-10.2373
dommer	-10.2381
▁johansen	-10.2384
▁statlig	-10.2386
serie	-10.2386
▁angrepet	-10.2388
forbundet	-10.239
lid	-10.2396
▁kaptein	-10.2401
▁tilstand	-10.2402
▁junior	-10.2404
cal	-10.2407
reise	-10.2408
▁nyere	-10.2419
▁ulik	-10.2424
▁falt	-10.2425
▁beskrev	-10.243
ordnet	-10.2431
faktor	-10.2434
brua	-10.2438
▁tell	-10.2438
▁utstyrt	-10.2444
sjanger	-10.2444
▁modellen	-10.245
▁bevegelsen	-10.2457
▁75	-10.2468
▁play	-10.2469
▁600	-10.2472
▁ingeniør	-10.2477
produkt	-10.248
rekord	-10.2493
▁aas	-10.2495
kommunikasjon	-10.2497
▁kåre	-10.2499
13	-10.2501
▁pil	-10.2502
▁bakken	-10.2505
▁prop	-10.2505
ū	-10.2506
modell	-10.2506
▁sjelden	-10.2506
▁kritikk	-10.2507
▁faktisk	-10.2507
▁1929	-10.2508
▁turner	-10.2508
▁beholdt	-10.2508
▁flåte	-10.2509
▁litterær	-10.2509
mønster	-10.2511
▁hjerne	-10.2511
lignende	-10.2512
▁bidro	-10.2512
▁humor	-10.253
▁troms	-10.2532
▁steve	-10.2541
▁oversettelse	-10.2542
▁saga	-10.2543
▁gli	-10.2545
▁jag	-10.2564
▁utenriks	-10.2578
▁blanding	-10.2586
▁kommando	-10.2591
▁vekk	-10.2593
▁forstå	-10.2595
gram	-10.2596
staten	-10.2604
▁bakke	-10.2606
▁vegg	-10.2629
vika	-10.2641
▁olsen	-10.2645
▁mei	-10.2649
▁skjold	-10.2659
▁brenselkilde	-10.2665
▁1951	-10.2665
▁vulkan	-10.2665
▁nominert	-10.2665
▁nikola	-10.2665
friidrettsutøver	-10.2665
kompleks	-10.2665
▁mekanisk	-10.2665
▁utmerkelse	-10.2665
▁redusere	-10.2665
▁1911	-10.2666
stipend	-10.2667
▁great	-10.2667
▁disk	-10.2668
▁1910	-10.2668
▁boka	-10.2671
▁vill	-10.2674
▁palm	-10.2674
▁skytter	-10.2674
▁einar	-10.2677
▁platen	-10.268
▁utvikler	-10.268
▁måneder	-10.2685
▁oppdage	-10.2685
work	-10.2691
▁rulle	-10.2694
can	-10.2704
▁årsak	-10.2706
▁back	-10.2718
▁thom	-10.272
▁nordover	-10.2726
fot	-10.2727
▁skapt	-10.2742
vakt	-10.2755
bevegelsen	-10.2757
hof	-10.2758
odden	-10.2759
forsamling	-10.2766
bygget	-10.2772
▁elementer	-10.2773
tysk	-10.2776
▁unn	-10.2784
▁toll	-10.2789
▁verdensmester	-10.2803
bånd	-10.2805
forskning	-10.2806
funksjon	-10.2806
hjelp	-10.2806
effekt	-10.2806
▁falk	-10.2808
løk	-10.2813
▁mexico	-10.2826
▁oppmerksomhet	-10.2826
▁kristiansand	-10.2826
▁autonom	-10.2827
▁arthur	-10.2827
▁negativ	-10.2827
▁fattig	-10.2827
vá	-10.2828
▁1921	-10.2828
▁1943	-10.2829
▁utenlandsk	-10.283
▁befinne	-10.283
▁fisker	-10.2832
▁dokumenter	-10.2836
▁portrett	-10.2837
▁hitler	-10.284
▁kvinnelige	-10.2844
ulykke	-10.2845
▁blande	-10.2846
▁show	-10.2846
▁oppnådd	-10.2852
bebyggelse	-10.2854
▁1500	-10.2855
▁furu	-10.2857
▁morten	-10.2859
ward	-10.2862
▁home	-10.2863
fekt	-10.2866
▁overført	-10.2873
▁morgen	-10.2879
▁tråd	-10.2885
▁ull	-10.2894
▁maleri	-10.2898
▁kjøtt	-10.2899
▁endelig	-10.2903
▁kilder	-10.2907
▁preg	-10.2914
▁roger	-10.292
▁aar	-10.2926
▁komedie	-10.2932
▁bau	-10.2939
▁prakt	-10.294
ollen	-10.2961
▁angi	-10.2964
▁magi	-10.2965
▁elektron	-10.2967
▁sav	-10.2969
zon	-10.2971
angrep	-10.2974
▁drag	-10.2981
▁krysser	-10.2982
ß	-10.2983
republikk	-10.2984
▁medisinsk	-10.2985
▁1907	-10.299
▁guvernør	-10.299
▁initiativ	-10.299
▁manuskript	-10.299
▁portugisisk	-10.299
▁1901	-10.299
opplæring	-10.299
▁frivillig	-10.299
▁gunnar	-10.2991
▁golf	-10.2991
▁frø	-10.2992
▁1927	-10.2992
▁1935	-10.2992
▁anvende	-10.2993
▁besøkt	-10.2995
▁programmer	-10.2998
stokk	-10.3001
▁vor	-10.3001
▁spenning	-10.3003
▁andreplass	-10.3003
horn	-10.3008
strup	-10.3009
▁sammenlagt	-10.3013
▁hovedsak	-10.3015
▁diplomat	-10.3021
demokrat	-10.3024
▁middelalderen	-10.3027
▁flykte	-10.3032
▁bein	-10.3032
▁fortalt	-10.3033
post	-10.3035
11	-10.3036
▁vestre	-10.3042
на	-10.3044
▁tann	-10.3046
▁synes	-10.3057
▁beregne	-10.3058
sentre	-10.3058
▁frei	-10.3071
▁tha	-10.3072
▁salme	-10.3075
▁styrkene	-10.308
▁ray	-10.3083
▁elektro	-10.3085
snegl	-10.3089
▁artikler	-10.3116
▁antenne	-10.3117
▁grei	-10.3118
opptak	-10.312
▁fjernet	-10.3127
▁guden	-10.3127
▁marin	-10.3133
grensen	-10.3134
▁grunnlag	-10.3138
forsvar	-10.3144
▁ulv	-10.3153
▁1906	-10.3157
stråling	-10.3157
▁studioalbum	-10.3158
▁singelen	-10.3158
▁fjellkjede	-10.3159
▁1931	-10.3159
forhandling	-10.3159
▁samfunnet	-10.3161
▁kru	-10.3162
kompani	-10.3163
▁dvs	-10.3168
▁debut	-10.317
hopp	-10.3174
▁latinske	-10.3177
logi	-10.3186
▁niels	-10.3198
wick	-10.3205
▁nm	-10.3205
▁landsby	-10.322
gudinne	-10.3225
▁kjøretøy	-10.3241
▁advokat	-10.325
renn	-10.3266
▁kino	-10.3274
▁utøver	-10.3278
koll	-10.328
ān	-10.328
▁middelalder	-10.3291
herre	-10.3294
turneringen	-10.3295
seth	-10.3299
sikkerhet	-10.3306
ship	-10.3308
album	-10.3314
▁elisabeth	-10.3326
▁konkurrere	-10.3326
▁washington	-10.3326
▁kombinasjon	-10.3327
▁debutalbum	-10.3327
▁røyk	-10.333
▁familiegruppen	-10.3331
▁bortsett	-10.3332
▁institusjon	-10.3335
▁arch	-10.3346
▁uavhengighet	-10.3355
▁rekord	-10.336
▁lord	-10.3372
ington	-10.3374
▁forsterke	-10.3386
▁praktisk	-10.3395
▁mono	-10.3396
novelle	-10.3397
trukket	-10.3397
▁sikte	-10.3402
distanse	-10.3406
▁hammer	-10.3408
slutt	-10.3437
▁funn	-10.3441
▁demokrati	-10.3456
▁arkiv	-10.3468
▁rettigheter	-10.347
utvikling	-10.3489
▁designet	-10.349
▁800	-10.3495
strømmen	-10.3499
▁antagelig	-10.3499
▁pakistan	-10.3499
▁ludvig	-10.3499
▁alexander	-10.3499
▁tilsvarer	-10.3499
fenomen	-10.3501
▁1917	-10.3501
▁unntak	-10.3502
▁brown	-10.3503
▁khan	-10.3505
▁center	-10.3508
▁neu	-10.3509
løpere	-10.351
▁deltaker	-10.3517
▁piano	-10.3518
▁wall	-10.3525
29	-10.3533
formasjon	-10.3537
▁grund	-10.354
▁persisk	-10.3541
▁sørover	-10.3542
fyr	-10.3542
▁larve	-10.3549
▁dyrke	-10.3549
▁katolsk	-10.3568
▁intens	-10.3574
lä	-10.3579
▁sats	-10.3589
▁proto	-10.3602
▁klosteret	-10.3604
▁kapp	-10.3604
▁pul	-10.3606
▁malm	-10.361
▁sab	-10.3611
gass	-10.362
▁sikker	-10.3623
▁betale	-10.3624
gjeng	-10.3634
▁smak	-10.3649
▁hum	-10.3653
skrevet	-10.3654
▁tromsø	-10.3661
▁dverg	-10.3662
▁synlig	-10.3668
utdanning	-10.3668
historisk	-10.3668
ô	-10.367
trener	-10.3671
▁symfoni	-10.3674
▁tilknytning	-10.3674
▁skulptur	-10.3674
▁geografisk	-10.3674
▁jødisk	-10.3674
▁angripe	-10.3675
▁nektet	-10.3675
▁programleder	-10.3676
▁pierre	-10.368
▁tilhenger	-10.3681
▁jackson	-10.3682
▁hensyn	-10.3682
▁soldat	-10.3687
▁bodø	-10.3689
▁lykke	-10.3689
▁hamburg	-10.3693
time	-10.3695
▁norman	-10.3695
▁prosessen	-10.3697
▁behov	-10.3698
▁svein	-10.37
bach	-10.3708
▁ansett	-10.3709
▁gh	-10.371
tind	-10.3711
▁1700	-10.3713
høyskole	-10.3724
kall	-10.3734
▁motsatt	-10.3743
▁edderkoppen	-10.3743
▁svi	-10.3744
givelse	-10.376
▁henri	-10.3768
▁class	-10.3772
lich	-10.3777
recht	-10.3778
cup	-10.3779
▁petr	-10.3796
vest	-10.3807
▁thu	-10.3816
løft	-10.3823
setting	-10.3832
▁hov	-10.384
cio	-10.3846
▁typen	-10.3849
feng	-10.3852
▁hordaland	-10.3853
▁referanse	-10.3853
▁ødelegge	-10.3853
▁juridisk	-10.3853
▁geometri	-10.3853
▁ungarsk	-10.3853
▁utseende	-10.3854
▁naturreservat	-10.3854
▁social	-10.3854
▁1922	-10.3855
▁tidspunkt	-10.3855
▁hovedkvarter	-10.3855
▁fjernsyn	-10.3855
▁kritisk	-10.3856
▁kommunikasjons	-10.3864
mengde	-10.3866
▁hersker	-10.3866
▁1890	-10.3875
▁1600	-10.3876
▁geir	-10.3886
▁østover	-10.3887
▁vitenskapelig	-10.3895
▁karakteristisk	-10.3897
▁mottatt	-10.3902
zu	-10.3905
konsert	-10.3906
▁glad	-10.3916
opol	-10.3932
▁tempel	-10.3933
komst	-10.3941
▁ref	-10.3944
icus	-10.3947
fred	-10.3958
▁synge	-10.3958
perioden	-10.3963
▁emi	-10.3964
▁ytterst	-10.3976
▁dru	-10.398
▁skuespill	-10.3982
▁emil	-10.3985
forsyning	-10.3989
▁mongol	-10.3995
▁mitt	-10.4004
ifisering	-10.4031
▁doktorgrad	-10.4035
▁vilhelm	-10.4035
presentasjon	-10.4035
▁kjennetegn	-10.4035
▁kommersiell	-10.4035
▁dollar	-10.4035
▁avledet	-10.4035
▁forbedre	-10.4035
▁valuta	-10.4035
▁riktig	-10.4036
▁für	-10.4036
▁rolf	-10.4036
▁oberst	-10.4036
▁hørte	-10.4037
tittel	-10.4038
aceae	-10.4038
▁bispe	-10.4039
▁skaffe	-10.404
konvensjon	-10.4041
▁bydistrikt	-10.4041
▁sno	-10.4041
▁utgivelsen	-10.4042
▁michel	-10.4043
▁stabil	-10.405
▁ibsen	-10.4053
▁arkitektur	-10.4056
▁utenom	-10.4066
▁nau	-10.4076
▁østre	-10.4077
▁server	-10.4088
▁rosa	-10.4089
▁spp	-10.4089
maker	-10.411
▁from	-10.4111
▁løfte	-10.4111
▁jin	-10.4113
▁mangle	-10.4116
▁grunnlaget	-10.4131
▁rau	-10.4131
▁hamar	-10.4133
▁plateselskap	-10.4142
sdatter	-10.4142
korset	-10.4145
kjede	-10.416
▁ansatt	-10.4163
▁bratt	-10.4165
▁edderkopp	-10.4184
▁hop	-10.4199
▁menneskelig	-10.4204
▁jud	-10.4207
▁paus	-10.4213
▁bag	-10.4213
kreft	-10.4216
vikler	-10.4217
▁individ	-10.422
vassdraget	-10.422
▁chicago	-10.422
▁vesentlig	-10.422
▁artilleri	-10.422
▁svømme	-10.422
▁white	-10.422
▁fiolin	-10.422
▁definert	-10.4221
▁nedenfor	-10.4221
▁1913	-10.4222
▁bakterie	-10.4222
▁homo	-10.4224
▁spredt	-10.4226
▁jam	-10.4227
▁europavei	-10.4234
▁etappe	-10.4236
seminar	-10.4236
▁sukker	-10.4241
▁verd	-10.4242
▁lunge	-10.4246
▁audi	-10.4249
▁evne	-10.4249
▁avtalen	-10.4252
▁hypo	-10.4264
▁chang	-10.4275
▁mjø	-10.4278
▁psykologi	-10.4289
næring	-10.429
▁vindu	-10.4306
▁statue	-10.4313
cheng	-10.4317
▁beat	-10.4339
▁omkom	-10.4343
▁beskrivelse	-10.4364
▁kha	-10.4371
▁ww	-10.4372
▁paven	-10.4375
stone	-10.4376
▁kommunistisk	-10.4378
▁astronom	-10.4386
ο	-10.4408
ς	-10.4408
▁katedral	-10.4409
løytnant	-10.4409
▁münchen	-10.4409
▁restaurant	-10.4409
▁evangeli	-10.4409
▁permanent	-10.4409
▁markedet	-10.4409
▁biologisk	-10.4409
▁vakre	-10.4409
stråle	-10.441
▁hjort	-10.441
▁unntatt	-10.441
▁telefon	-10.4411
▁monark	-10.4412
▁programvare	-10.4413
▁telemark	-10.4414
▁tegninger	-10.4415
skjold	-10.4415
▁studere	-10.442
▁bygninger	-10.4421
▁1896	-10.4426
lengde	-10.444
▁qing	-10.4443
▁tyskerne	-10.4443
▁kjær	-10.446
▁underfamilien	-10.4466
duk	-10.447
utenriksminister	-10.4489
▁skrå	-10.4496
back	-10.45
▁låten	-10.4508
opplevelse	-10.4509
▁myndighetene	-10.4513
▁osv	-10.452
▁vig	-10.453
brev	-10.4533
▁110	-10.4547
▁grunnlov	-10.46
▁1903	-10.4601
▁molekyl	-10.4601
▁antarktis	-10.4601
▁praksis	-10.4601
førsel	-10.4601
▁opplysning	-10.4601
ан	-10.4601
▁presentert	-10.4601
▁barnehage	-10.4602
▁brigade	-10.4602
▁prinsesse	-10.4602
▁betjene	-10.4603
▁romsdal	-10.4603
▁tibet	-10.4606
▁hydrogen	-10.4608
▁fyll	-10.461
▁qi	-10.4611
struktur	-10.4612
▁franz	-10.4618
▁demningen	-10.4624
▁hellas	-10.4627
▁sca	-10.4629
veggen	-10.4646
▁molde	-10.4651
voks	-10.4657
▁hull	-10.4671
▁eik	-10.4673
▁knap	-10.4688
kontroll	-10.469
▁grønland	-10.4695
▁unna	-10.4699
søn	-10.4706
fast	-10.4711
sjö	-10.474
▁qa	-10.4754
ugh	-10.4758
årig	-10.4758
▁regjer	-10.4767
▁søkt	-10.4768
▁andel	-10.4789
▁milliarder	-10.4797
▁trommeslager	-10.4797
▁tabellen	-10.4797
▁tyrkisk	-10.4797
▁deutsche	-10.4797
▁individuell	-10.4797
▁embets	-10.4797
▁nemlig	-10.4797
▁skildre	-10.4797
regulering	-10.4797
▁separat	-10.4798
▁adresse	-10.4798
▁dømt	-10.4799
▁82	-10.48
▁hj	-10.4802
▁generell	-10.4802
▁filip	-10.4804
▁sykkel	-10.4804
▁høyesterett	-10.4809
▁økende	-10.4809
▁tolke	-10.481
kandidat	-10.4812
▁skygge	-10.4812
hovedstad	-10.4812
transport	-10.4813
utstyr	-10.4816
table	-10.4816
lønn	-10.4817
studie	-10.4819
▁panser	-10.4827
maleri	-10.4828
▁antatt	-10.4831
▁hekk	-10.4832
▁jul	-10.4834
▁hval	-10.4836
▁levde	-10.4839
▁walter	-10.484
▁hotel	-10.4842
bød	-10.4843
▁cri	-10.4851
▁legend	-10.4857
▁72	-10.4858
▁henge	-10.4864
▁klippe	-10.4868
vandring	-10.488
▁egyptisk	-10.4895
▁alm	-10.4907
skyting	-10.4915
buss	-10.4924
▁sideelv	-10.4926
▁opphold	-10.4942
pningsseremonien	-10.4997
▁brødrene	-10.4997
▁søndag	-10.4997
▁alexandr	-10.4997
▁anerkjenne	-10.4997
▁fiktiv	-10.4997
▁virkning	-10.4997
▁belgisk	-10.4998
▁seinere	-10.4998
▁rednings	-10.4998
▁invasjon	-10.4998
▁tallrike	-10.4999
▁1923	-10.4999
ев	-10.4999
▁konsern	-10.5001
▁kongsberg	-10.5002
▁smelte	-10.5003
▁forvaltnings	-10.5003
▁komposisjon	-10.5004
▁beslutte	-10.5006
▁kali	-10.5011
▁trommer	-10.5012
bibliotek	-10.5016
▁nova	-10.5016
▁skjøt	-10.5032
▁hindre	-10.5045
▁sving	-10.5053
▁trenings	-10.5067
▁francis	-10.5079
▁dramatisk	-10.5112
▁marg	-10.5123
▁spinn	-10.5125
▁modern	-10.5131
flukt	-10.5142
aux	-10.5145
▁forent	-10.5152
▁slu	-10.5165
▁spesialiser	-10.5177
▁chile	-10.5177
▁oppnå	-10.5187
▁innlede	-10.519
▁friidrett	-10.5201
▁heinrich	-10.5201
▁portugal	-10.5201
▁færøyene	-10.5201
▁nøyaktig	-10.5201
▁hjørne	-10.5201
▁komponert	-10.5201
▁hebraisk	-10.5201
▁ungarn	-10.5201
▁allierte	-10.5201
▁risiko	-10.5201
▁ødelagt	-10.5201
▁fungert	-10.5203
▁debatt	-10.5203
▁baron	-10.5205
▁arbeiderpartiet	-10.5205
▁forenkle	-10.5206
▁liber	-10.5208
▁byggingen	-10.5208
▁håndverk	-10.521
▁britis	-10.5211
▁anledning	-10.5214
▁rub	-10.5216
▁feire	-10.5217
▁lisens	-10.5218
▁forbinde	-10.5218
▁mineral	-10.522
▁1897	-10.5223
▁maritim	-10.5224
myndighet	-10.5224
▁bryn	-10.5228
tekst	-10.5237
▁bevisst	-10.5239
▁83	-10.5241
▁hess	-10.5244
▁utbygging	-10.5246
▁oversette	-10.5247
▁material	-10.5257
skjær	-10.5257
▁nerve	-10.5258
bredden	-10.5265
▁statsråd	-10.5277
▁kval	-10.5282
▁river	-10.5302
periode	-10.5307
teater	-10.5345
▁bestemme	-10.5367
▁oppleve	-10.5402
observasjon	-10.5409
▁fakultet	-10.5409
▁svalbard	-10.5409
▁halvparten	-10.5409
▁kollektiv	-10.5409
▁engasjert	-10.5409
▁konsept	-10.5409
▁radikal	-10.541
▁reklame	-10.541
▁amatør	-10.541
▁mektig	-10.541
▁strøk	-10.541
▁frykt	-10.541
▁originaltittel	-10.541
▁bronsemedalje	-10.5411
▁datamaskin	-10.5412
▁tjue	-10.5416
▁fredrikstad	-10.542
▁fremført	-10.5426
▁nobel	-10.5427
kampanje	-10.5429
posisjon	-10.5432
orkester	-10.5437
▁kopi	-10.5442
front	-10.5443
▁tekstil	-10.5444
▁mørkere	-10.5451
landsk	-10.5455
▁700	-10.546
▁europe	-10.5462
▁antennene	-10.5463
▁140	-10.5475
▁sjakk	-10.5478
otball	-10.549
▁kilo	-10.5498
wei	-10.5505
vatn	-10.5506
▁spring	-10.5506
støtte	-10.551
▁elektronisk	-10.5531
▁edu	-10.5542
▁stjernen	-10.5546
▁øverst	-10.5553
▁størst	-10.5555
▁forskjellig	-10.5564
▁chris	-10.5569
0	-10.5575
stue	-10.5598
forvaltning	-10.5617
▁frankfurt	-10.5622
▁victoria	-10.5622
▁hendelser	-10.5622
▁avhandling	-10.5622
▁bjørk	-10.5622
▁søndre	-10.5622
▁rogaland	-10.5622
▁theodor	-10.5622
▁sachsen	-10.5622
▁gabriel	-10.5623
▁føderal	-10.5623
▁kristin	-10.5624
▁elleve	-10.5624
▁stiftelsen	-10.5625
▁anklage	-10.5625
▁rasmus	-10.5625
▁xu	-10.5625
▁midlertidig	-10.5626
▁gratis	-10.5626
▁wolf	-10.5628
▁blank	-10.5638
▁hylle	-10.564
▁kristiania	-10.5645
▁respekt	-10.5646
temperatur	-10.5655
▁alban	-10.566
▁oval	-10.5666
▁puppe	-10.5667
▁estland	-10.5679
▁party	-10.5683
▁strategisk	-10.5709
fattet	-10.571
▁skyte	-10.5718
▁130	-10.5723
▁kub	-10.5723
āng	-10.574
stav	-10.5754
ал	-10.5769
bjørg	-10.5789
▁900	-10.58
veps	-10.5811
ario	-10.5815
▁stang	-10.5817
regiment	-10.5819
▁afghanistan	-10.584
▁aleksander	-10.584
▁lillehammer	-10.584
▁australsk	-10.584
▁forkropp	-10.584
▁hyppig	-10.584
▁utspring	-10.584
▁øyeblikk	-10.584
▁overlevde	-10.584
▁uvanlig	-10.584
▁kvadrat	-10.584
▁selvmord	-10.584
▁avdøde	-10.584
▁qū	-10.584
▁klatre	-10.5841
ovitsj	-10.5841
▁besetning	-10.5841
▁overraske	-10.5841
▁import	-10.5842
▁kongedømmet	-10.5843
▁afrikansk	-10.5843
▁sølvmedalje	-10.5843
▁sjette	-10.5844
▁2018	-10.5846
tolkning	-10.5846
▁gravlagt	-10.5847
▁demokratiske	-10.5849
psykolog	-10.5852
▁lidelse	-10.5852
▁1898	-10.5863
hvelv	-10.5873
runde	-10.5873
rettigheter	-10.5876
▁hind	-10.589
▁vanligste	-10.5894
▁brei	-10.5898
▁mannlig	-10.5904
terje	-10.5911
▁plast	-10.5925
▁seire	-10.5939
aften	-10.5962
▁prinsipp	-10.5968
kål	-10.5978
start	-10.5984
▁kass	-10.6
nettverk	-10.6022
inskripsjon	-10.6062
▁barcelona	-10.6062
▁dekkvingene	-10.6062
▁forøvrig	-10.6062
▁ortodoks	-10.6062
▁sjeldne	-10.6062
▁argument	-10.6062
▁forhindre	-10.6062
▁ovenfor	-10.6062
veksling	-10.6062
▁strekningen	-10.6062
▁bøkene	-10.6063
▁dekorert	-10.6063
▁atmosfære	-10.6063
▁eksistert	-10.6063
▁elite	-10.6064
kledd	-10.6064
▁manager	-10.6064
▁batteri	-10.6066
▁hedmark	-10.6066
▁skarp	-10.6066
▁opplevd	-10.6066
▁rykket	-10.6068
▁eiendommen	-10.6071
▁biografi	-10.6072
▁israelsk	-10.6073
▁hvile	-10.6074
▁donau	-10.6076
▁partner	-10.6076
▁involvert	-10.6083
▁1888	-10.6083
ière	-10.609
▁1880	-10.6095
▁jeff	-10.61
▁tvang	-10.6101
ingeniør	-10.6104
regjering	-10.6104
resultat	-10.6104
sagn	-10.6106
sykdommer	-10.6109
grønn	-10.6111
medlemmer	-10.6112
▁mynt	-10.6115
alisme	-10.6128
▁jente	-10.613
bunn	-10.6141
skjerm	-10.6142
▁sovjet	-10.6147
▁marx	-10.6149
▁flytte	-10.6163
▁islandsk	-10.617
▁game	-10.6186
utvalget	-10.6208
▁etnisk	-10.624
issa	-10.6258
samband	-10.6262
balanse	-10.628
▁vedlikehold	-10.6289
▁innlemmet	-10.6289
▁oksygen	-10.6289
▁admiral	-10.6289
▁stridsvogn	-10.6289
▁gregor	-10.6289
▁tvilling	-10.6289
▁global	-10.6289
▁regulere	-10.6289
▁kvalifisering	-10.6289
▁josef	-10.629
▁andré	-10.629
▁josé	-10.6291
▁1916	-10.6292
▁olaf	-10.6292
▁nyhets	-10.6292
▁sverre	-10.6293
▁opprettelse	-10.6293
ер	-10.6294
▁nattfly	-10.6294
▁forlenge	-10.6296
▁tredjeplass	-10.63
▁forbudt	-10.63
▁lokalisert	-10.6306
▁avholdt	-10.6311
▁1899	-10.6313
▁søyle	-10.6329
▁ungdomsskole	-10.633
▁bassist	-10.6336
▁georgia	-10.6344
▁1850	-10.6349
ifikasjon	-10.6353
▁krok	-10.6367
▁innerst	-10.6374
stemme	-10.6378
skade	-10.6385
måte	-10.6393
▁arena	-10.6394
▁stab	-10.6425
automat	-10.643
▁arab	-10.6474
vitenskapelige	-10.6477
▁amsterdam	-10.6522
▁færøysk	-10.6522
▁renessanse	-10.6522
▁utelukkende	-10.6522
▁frigjøring	-10.6522
▁colombia	-10.6522
▁senior	-10.6522
▁temple	-10.6523
▁prosti	-10.6523
▁verktøy	-10.6523
▁oppløst	-10.6524
▁flytende	-10.6524
▁barokk	-10.6524
▁kjenner	-10.6532
liknende	-10.6537
▁avansert	-10.6537
▁idé	-10.6543
▁pumpe	-10.6545
▁jonas	-10.655
aktuel	-10.6566
▁smerte	-10.6568
problem	-10.6575
▁variert	-10.6588
▁blind	-10.6647
▁helst	-10.6659
▁turisme	-10.6667
forståelse	-10.6669
burn	-10.6701
▁nettsted	-10.6711
▁sørge	-10.6718
tjente	-10.6733
▁akseptert	-10.676
▁dirigent	-10.676
▁maksimal	-10.676
▁symptom	-10.676
▁tønsberg	-10.676
▁ukrainsk	-10.676
▁wergeland	-10.676
potensial	-10.676
kjøkken	-10.676
▁adolf	-10.676
▁prince	-10.676
▁hendelsen	-10.676
▁thailand	-10.676
▁igjennom	-10.676
▁bærum	-10.676
▁dominert	-10.6761
▁stefan	-10.6762
▁opposisjon	-10.6762
▁forgjenger	-10.6762
▁næringsliv	-10.6763
▁francisco	-10.6763
terapi	-10.6765
▁antonio	-10.6765
▁erfaring	-10.6766
▁hovedkontor	-10.6769
▁barndom	-10.677
▁holstein	-10.6771
▁patent	-10.6774
▁variasjon	-10.6776
▁fortellingen	-10.6777
▁cross	-10.6777
▁amerikaner	-10.6783
▁sound	-10.6785
▁down	-10.6791
▁life	-10.6794
▁fritz	-10.6796
▁tynn	-10.6799
størrelse	-10.6819
arkitekt	-10.6819
▁erstatte	-10.6854
artikler	-10.6861
forekomst	-10.6865
▁sara	-10.6874
orientert	-10.6878
▁beholde	-10.6909
▁markere	-10.6933
▁identifi	-10.695
▁rådhus	-10.6967
▁fulgt	-10.6968
▁vannkraft	-10.6985
▁plata	-10.6995
▁definisjon	-10.7004
▁fasettøyne	-10.7004
▁liverpool	-10.7004
▁låtskriver	-10.7004
▁sarpsborg	-10.7004
▁intervju	-10.7004
▁1893	-10.7004
traktaten	-10.7004
▁sprint	-10.7004
▁kallenavn	-10.7005
▁automatisk	-10.7005
▁gerhard	-10.7006
▁koreansk	-10.7009
▁fastlandet	-10.7014
▁seksjon	-10.7014
tveit	-10.7017
▁kaffe	-10.7018
mission	-10.7018
▁onkel	-10.7019
▁ultra	-10.7019
▁hyper	-10.7021
▁1894	-10.7026
▁hindu	-10.7027
▁organisk	-10.7031
tjern	-10.7063
offiser	-10.7068
medisin	-10.7068
teknologi	-10.7068
instrument	-10.7069
amerikanske	-10.7069
design	-10.7075
programmet	-10.7076
løv	-10.7082
arkiv	-10.7089
▁musikal	-10.7094
sosialistisk	-10.7096
▁element	-10.7098
kommende	-10.7139
føde	-10.7139
spiss	-10.7145
▁utarbeide	-10.723
▁sparta	-10.7246
▁angelsaksisk	-10.7254
▁corporation	-10.7254
▁elizabeth	-10.7254
▁omdøpt	-10.7254
▁shanghai	-10.7254
▁society	-10.7254
▁tsjekkia	-10.7254
▁country	-10.7254
▁elektrisitet	-10.7254
▁satellitt	-10.7254
▁seremoni	-10.7254
▁asteroide	-10.7254
▁etterkommer	-10.7254
▁walisisk	-10.7254
▁giovan	-10.7255
▁nymfe	-10.7255
▁titler	-10.7256
▁kristendom	-10.7256
▁kjørte	-10.7257
▁nkp	-10.7257
hausen	-10.726
▁arrestert	-10.7261
▁alex	-10.7263
▁allmenn	-10.7266
▁vandre	-10.7271
▁vendt	-10.7272
▁aero	-10.7278
▁1892	-10.728
▁ddr	-10.7282
▁honning	-10.7283
▁talent	-10.7285
▁omdanne	-10.7296
▁terreng	-10.7299
spørsmål	-10.7325
europeisk	-10.7325
styring	-10.7329
ific	-10.7332
embete	-10.735
skyld	-10.735
▁pont	-10.7387
▁grevskap	-10.7425
▁kunstnerisk	-10.7426
utvikle	-10.7471
▁inspirasjon	-10.751
▁jerusalem	-10.751
▁keyboard	-10.751
▁orchestra	-10.751
▁1902	-10.751
▁arkeologisk	-10.751
▁opprettholde	-10.751
▁anmelder	-10.751
▁innbyggerne	-10.751
▁østfold	-10.751
▁uansett	-10.751
▁gjennomsnittlig	-10.751
▁misjonær	-10.751
▁patriark	-10.7511
▁fangst	-10.7512
▁1915	-10.7513
palasset	-10.7515
▁bedrifter	-10.7517
areal	-10.7518
▁pastor	-10.7519
▁smitte	-10.752
▁flyge	-10.7521
▁kongress	-10.7524
▁bedriften	-10.753
▁fremstille	-10.7539
▁operativsystem	-10.7546
ка	-10.7585
stift	-10.7593
▁bringe	-10.7618
tagelse	-10.7644
▁utøve	-10.7693
kjerne	-10.77
vennlig	-10.7715
xian	-10.7725
endinger	-10.7732
utdanne	-10.7738
▁kommunist	-10.7751
▁association	-10.7773
▁generalmajor	-10.7773
▁innspilt	-10.7773
▁matematikk	-10.7773
▁mesteparten	-10.7773
▁research	-10.7773
▁virginia	-10.7773
▁warszawa	-10.7773
▁kulturminner	-10.7773
▁istedenfor	-10.7773
▁krystall	-10.7773
▁regulert	-10.7773
▁hensikt	-10.7773
▁ektemann	-10.7773
ος	-10.7774
▁innebærer	-10.7774
kobling	-10.7775
▁høydepunkt	-10.7776
▁generalsekretær	-10.7776
▁definere	-10.7777
▁bensin	-10.7777
▁sultan	-10.7777
▁antyde	-10.7777
▁øynene	-10.7778
▁styreleder	-10.7782
▁regler	-10.779
▁ytelse	-10.7805
▁brent	-10.7863
▁urban	-10.8004
grunnsstasjon	-10.8018
dømmet	-10.8035
▁aluminium	-10.8043
▁aftenposten	-10.8043
▁bryllup	-10.8043
▁diagnose	-10.8043
▁illustrert	-10.8043
▁infanteri	-10.8043
▁ukraina	-10.8043
▁central	-10.8043
▁utslipp	-10.8043
▁etablering	-10.8043
▁vestfold	-10.8043
▁alpinist	-10.8044
▁konstruert	-10.8044
▁etablere	-10.8044
▁nevø	-10.8044
▁protestantisk	-10.8044
▁hovedpersonen	-10.8044
▁vegetasjon	-10.8044
▁first	-10.8045
▁utforming	-10.8045
▁protein	-10.8045
kjøring	-10.8045
ст	-10.8046
▁centre	-10.8046
mekanisme	-10.8046
▁bbc	-10.8047
▁havneby	-10.8047
▁axel	-10.8048
overføring	-10.8051
▁tjener	-10.8054
▁stemt	-10.8066
▁avskjed	-10.8076
brook	-10.8087
▁hytte	-10.8091
flyvning	-10.8103
betaling	-10.8107
▁utvide	-10.8134
historiker	-10.8136
lokale	-10.8168
▁slippe	-10.8174
▁regime	-10.8235
direktoratet	-10.8321
landeveissyklist	-10.8321
▁allikevel	-10.8321
▁ferdinand	-10.8321
▁integrert	-10.8321
▁konkurrert	-10.8321
▁kronprins	-10.8321
▁ludwig	-10.8321
▁napoleon	-10.8321
▁prøyssisk	-10.8321
▁tsjekkisk	-10.8321
▁windows	-10.8321
▁dominerende	-10.8321
▁høvding	-10.8321
▁fysikk	-10.8321
▁kjønnsmod	-10.8321
▁skihopper	-10.8321
▁hybrid	-10.8321
▁airlines	-10.8321
▁henrettet	-10.8321
▁flyktning	-10.8322
teatret	-10.8322
▁haakon	-10.8322
▁erstatning	-10.8323
▁ekspert	-10.8323
gjald	-10.8323
▁utsikt	-10.8323
▁redaksjon	-10.8326
▁trenger	-10.8327
▁tørke	-10.8329
▁undergrunnsbane	-10.8329
▁viklere	-10.833
▁hugh	-10.8331
▁innspillingen	-10.8334
▁åpenbar	-10.8349
divisjon	-10.8422
forandring	-10.8472
▁strategi	-10.8491
▁frost	-10.8497
▁journal	-10.85
ни	-10.8502
artikkel	-10.8528
fabrik	-10.8531
bukten	-10.8602
▁helsingfors	-10.8607
▁reservoar	-10.8607
▁territorie	-10.8607
psykiatri	-10.8607
▁kommandant	-10.8607
▁mangfold	-10.8607
▁jesuitt	-10.8607
▁pattedyr	-10.8607
infeksjon	-10.8607
▁ektepar	-10.8607
▁foreløpig	-10.8607
▁animasjon	-10.8607
▁testament	-10.8607
▁lørdag	-10.8607
▁ronald	-10.8607
▁fuktig	-10.8607
▁beslektet	-10.8607
▁prosessor	-10.8608
▁tverrbånd	-10.8608
▁kobber	-10.8608
▁efter	-10.8609
▁modifisert	-10.8609
▁fylkeskommune	-10.8609
▁fremstilt	-10.861
planlegging	-10.8613
▁tropisk	-10.8616
▁mandat	-10.8621
▁karakterisert	-10.8635
▁manuel	-10.8638
kirurg	-10.8658
▁lasse	-10.8677
▁kontrollert	-10.8697
inntekt	-10.8716
komedie	-10.8716
sentrum	-10.8717
▁söd	-10.872
▁anslå	-10.8728
▁teolog	-10.8731
syklus	-10.8737
▁vasa	-10.8777
▁slange	-10.8786
▁gjenstand	-10.8806
kjøl	-10.881
▁avslutte	-10.8817
aktør	-10.8881
▁ambassadør	-10.8901
▁eventuelt	-10.8901
▁konsekvens	-10.8901
▁embeds	-10.8901
▁ferskvann	-10.8901
▁gjøvik	-10.8901
▁1853	-10.8901
▁division	-10.8901
▁innstiftet	-10.8901
▁canadisk	-10.8901
▁forsvant	-10.8901
▁ålesund	-10.8901
▁oppfatning	-10.8902
▁venezia	-10.8902
▁avgjørende	-10.8902
▁depresjon	-10.8902
komponent	-10.8902
▁samlealbum	-10.8902
▁nepal	-10.8903
▁rakett	-10.8904
▁oppfølger	-10.8904
▁samuel	-10.8904
▁massiv	-10.8904
▁what	-10.8905
▁oldtiden	-10.8907
▁ltd	-10.8916
▁rederi	-10.8919
protokoll	-10.8925
▁moderat	-10.8926
▁nederst	-10.8933
▁undervist	-10.8963
▁undergrunns	-10.8969
svarte	-10.8988
▁borgerkrig	-10.9006
redaktør	-10.9021
måne	-10.9037
▁psyko	-10.9075
sterkere	-10.9089
▁inneholde	-10.9096
▁energiselskape	-10.9098
mulighet	-10.9103
▁forklare	-10.9103
bevegelse	-10.9108
▁fundament	-10.9204
▁babylon	-10.9204
▁kontinental	-10.9204
▁meksikansk	-10.9204
▁mountain	-10.9204
▁prestegjeld	-10.9204
▁shakespeare	-10.9204
▁sykepleie	-10.9204
▁tortricidae	-10.9204
▁arrangør	-10.9204
▁jersey	-10.9204
▁jacque	-10.9204
dynamisk	-10.9204
▁1848	-10.9204
▁identitet	-10.9204
▁1891	-10.9204
▁bystatus	-10.9204
▁statistikk	-10.9204
▁verdenscupen	-10.9204
▁church	-10.9204
▁heavy	-10.9204
▁komplett	-10.9204
▁langvarig	-10.9204
bransjen	-10.9204
▁margaret	-10.9204
▁petersburg	-10.9204
▁ansikt	-10.9205
▁finansiert	-10.9205
▁skikkelse	-10.9205
▁hammerfest	-10.9205
▁utfordre	-10.9206
▁døpt	-10.9206
alfabet	-10.9207
▁poesi	-10.9207
▁bundes	-10.9209
▁nevro	-10.921
▁britene	-10.9212
▁stengt	-10.9212
reglene	-10.9214
▁gullmedalje	-10.9214
▁operativ	-10.922
▁tvunge	-10.9222
▁klein	-10.9228
▁enorm	-10.9232
enhver	-10.9237
▁sieg	-10.9242
litteratur	-10.9332
tradisjon	-10.9333
▁oppfatte	-10.9395
fasade	-10.9422
signal	-10.9427
motiv	-10.9452
spekter	-10.9468
▁bachelor	-10.9517
▁konsentrert	-10.9517
▁offensiv	-10.9517
▁sekundær	-10.9517
▁sjokolade	-10.9517
▁varaordfører	-10.9517
▁göteborg	-10.9517
▁muslimsk	-10.9517
▁buskerud	-10.9517
▁1883	-10.9517
▁linux	-10.9517
▁dublin	-10.9517
▁haugesund	-10.9517
▁parallell	-10.9517
▁invitert	-10.9517
▁contest	-10.9517
▁africa	-10.9518
worth	-10.9518
▁kledt	-10.9518
▁referert	-10.9518
▁sosiolog	-10.9519
▁sosialdemokrat	-10.9519
▁pianist	-10.9521
▁western	-10.9524
oidea	-10.9527
høyde	-10.9531
fellesskap	-10.9534
▁utvidelse	-10.9536
spredning	-10.9544
▁oppstå	-10.9581
▁kenya	-10.9632
karriere	-10.9657
prøve	-10.9659
aktivitet	-10.981
▁okkupasjon	-10.9838
▁luxembourg	-10.9839
ingsrepresentant	-10.9839
▁electric	-10.9839
▁hollywood	-10.9839
▁instruksjon	-10.9839
▁jomfru	-10.9839
▁michigan	-10.9839
▁narkotika	-10.9839
▁popularitet	-10.9839
▁påbegynt	-10.9839
▁semifinale	-10.9839
▁skjult	-10.9839
▁vladimir	-10.9839
▁buddhist	-10.9839
▁kavaleri	-10.9839
▁prøvd	-10.9839
▁selvbiografi	-10.9839
▁reference	-10.9839
▁manchester	-10.9839
▁alminnelig	-10.9839
▁charlotte	-10.9839
▁eidsvoll	-10.9839
▁yngste	-10.9839
▁styrmann	-10.9839
▁zealand	-10.9839
▁ordinær	-10.984
▁hvem	-10.984
▁sammensetning	-10.984
▁bmw	-10.984
▁http	-10.984
▁kjøpmann	-10.984
▁rumensk	-10.984
▁varierende	-10.984
▁skrivemåte	-10.984
▁hjelm	-10.984
▁serbisk	-10.9841
▁space	-10.9841
▁identifisert	-10.9842
▁akutt	-10.9842
▁clark	-10.9846
▁spyd	-10.985
▁margret	-10.9851
▁rifle	-10.9861
▁skei	-10.9873
▁utskil	-10.9894
schaft	-10.9894
▁lakse	-10.9897
blikk	-10.9918
uniform	-10.9933
gruppa	-10.9984
advokat	-10.9987
frukt	-10.9988
politiker	-10.9988
bestemt	-10.9988
interesse	-10.9989
kjemi	-11.0017
tempelet	-11.0025
▁ligge	-11.0066
klipp	-11.0076
edderkopper	-11.0079
metoden	-11.0154
▁aleksandr	-11.0172
▁anbefalt	-11.0172
▁distribusjon	-11.0172
▁hongkong	-11.0172
▁leipzig	-11.0172
▁norwegian	-11.0172
▁pedipalpene	-11.0172
▁særskilt	-11.0172
spesifikk	-11.0172
▁etiopia	-11.0172
▁kambodsja	-11.0172
▁koalisjon	-11.0172
▁teoretisk	-11.0172
▁tyrkia	-11.0173
▁matematisk	-11.0173
▁taiwan	-11.0173
▁oppdatert	-11.0173
▁erobring	-11.0173
▁gælisk	-11.0173
▁diskusjon	-11.0173
▁ulovlig	-11.0173
▁donald	-11.0173
▁anthon	-11.0173
▁sportsutøver	-11.0173
▁kvalifisert	-11.0173
▁navy	-11.0174
▁dresden	-11.0174
▁utpekt	-11.0174
▁dvd	-11.0175
▁nyheter	-11.0175
▁forklaring	-11.0176
finansiering	-11.0178
bourg	-11.018
▁klanen	-11.0181
▁holdning	-11.0191
▁hevn	-11.0196
▁nederlag	-11.0203
▁kommunistparti	-11.0235
basseng	-11.0251
opptil	-11.0288
kommando	-11.0332
alliansen	-11.0333
flagg	-11.0338
▁usikker	-11.0342
tillit	-11.0348
gjenstander	-11.0354
bombe	-11.0405
▁hospital	-11.0406
hydr	-11.0418
emmelig	-11.0421
gjest	-11.0475
hefte	-11.0481
tetthet	-11.0513
kongedømme	-11.0516
▁douglas	-11.0517
▁eventuell	-11.0517
▁evolusjon	-11.0517
▁filippinene	-11.0517
▁köln	-11.0517
▁musikkvideo	-11.0517
▁skjønt	-11.0517
▁sørafrikansk	-11.0517
laboratorie	-11.0517
▁fiendtlig	-11.0517
▁hockey	-11.0517
▁løpebille	-11.0517
▁resulter	-11.0517
▁1882	-11.0517
▁arbeidsgiver	-11.0517
köping	-11.0517
▁uttrykt	-11.0517
▁stafett	-11.0517
▁taliban	-11.0517
▁taylor	-11.0517
▁grimstad	-11.0517
▁rockeband	-11.0517
tekniker	-11.0517
▁høyhastighets	-11.0517
▁tilfeldig	-11.0518
▁bibli	-11.0518
▁noctu	-11.0518
▁germansk	-11.0518
▁tilskuer	-11.0518
▁trengte	-11.0518
▁slovensk	-11.0518
▁sibir	-11.0519
▁snorre	-11.0519
reduksjon	-11.0519
▁beordre	-11.0519
mouth	-11.0519
▁søvn	-11.052
▁techn	-11.0524
▁fenri	-11.0524
▁glatt	-11.0525
▁planlegge	-11.0534
▁forvalte	-11.0562
▁utforme	-11.06
brenning	-11.071
derav	-11.0718
inguis	-11.0808
kvinne	-11.0813
▁bulgaria	-11.0874
▁byfylke	-11.0874
▁cambridge	-11.0874
▁eksemplarer	-11.0874
▁indonesia	-11.0874
▁lokomotiv	-11.0874
▁okkupert	-11.0874
▁psykisk	-11.0874
▁sebastian	-11.0874
▁systematikken	-11.0874
▁uoffisiel	-11.0874
▁katolikk	-11.0874
▁krønike	-11.0874
▁sanskrit	-11.0874
▁pseudonyme	-11.0874
▁hamilton	-11.0875
▁vertikal	-11.0875
▁amundsen	-11.0875
▁ringerike	-11.0875
▁krypt	-11.0875
▁castle	-11.0875
▁forandret	-11.0875
▁innvilge	-11.0875
▁begravet	-11.0875
▁konkurs	-11.0875
▁dovre	-11.0875
▁dylan	-11.0875
▁corneli	-11.0876
▁oppfordre	-11.0876
▁lewis	-11.0876
materiell	-11.0876
▁tokyo	-11.0876
▁myrdet	-11.0877
▁tåke	-11.0878
▁advent	-11.0882
▁bolivia	-11.0883
▁earl	-11.0886
▁stedsnavn	-11.0888
▁mannsnavn	-11.0891
▁kreert	-11.0904
▁ivareta	-11.0905
funnet	-11.0983
▁dobbel	-11.1004
▁bakkropp	-11.1019
kjøretøy	-11.1059
blanding	-11.1067
klima	-11.1085
kapsel	-11.1127
▁omhandle	-11.1146
drevne	-11.1173
bragt	-11.1179
▁forstyrre	-11.1244
▁academy	-11.1245
▁bulgarsk	-11.1245
▁guddommelig	-11.1245
▁horisontal	-11.1245
▁microsoft	-11.1245
▁rudolf	-11.1245
▁skandinavisk	-11.1245
▁territorium	-11.1245
▁tsjekkoslovakia	-11.1245
▁venezuela	-11.1245
kommanderende	-11.1245
▁favoritt	-11.1245
▁genitalie	-11.1245
▁hiphop	-11.1245
▁illustrasjon	-11.1245
▁mobiltelefon	-11.1245
▁propaganda	-11.1245
▁vancouver	-11.1245
kontinentet	-11.1245
▁parallelt	-11.1245
eksplosjon	-11.1245
▁anbefale	-11.1245
▁sichuan	-11.1245
▁oxford	-11.1245
▁1872	-11.1245
▁erkebispedømme	-11.1245
▁sparebank	-11.1245
▁gustaf	-11.1245
▁1861	-11.1245
▁baptist	-11.1245
▁landkreis	-11.1245
▁indikerer	-11.1245
▁legendarisk	-11.1245
▁sicilia	-11.1245
leverandør	-11.1245
▁forbedring	-11.1245
▁nelson	-11.1245
▁skåne	-11.1245
▁1851	-11.1245
▁stephen	-11.1245
▁skjebne	-11.1246
▁trykt	-11.1246
spennende	-11.1247
▁cecil	-11.1247
▁ingrid	-11.1248
▁paradis	-11.1249
▁sannhet	-11.125
▁reagere	-11.125
▁begynne	-11.1343
▁bearbeide	-11.1375
▁svekke	-11.1389
sesongen	-11.1445
biskop	-11.1446
▁allianse	-11.1449
herredømme	-11.1601
▁ammunisjon	-11.1629
▁billedkunstner	-11.1629
▁business	-11.1629
▁engasjement	-11.1629
▁frilufts	-11.1629
▁helikopter	-11.1629
▁konsentrasjon	-11.1629
▁napoléon	-11.1629
▁nintendo	-11.1629
▁pennsylvania	-11.1629
▁pronotum	-11.1629
▁restaurert	-11.1629
▁skandinavia	-11.1629
flokkurin	-11.1629
▁avslørt	-11.1629
▁basketball	-11.1629
▁forutsetning	-11.1629
▁karosseri	-11.1629
▁nøytral	-11.1629
▁progressiv	-11.1629
▁vurdert	-11.1629
▁management	-11.1629
▁tolkien	-11.1629
lovgivning	-11.1629
▁kronologisk	-11.1629
▁omstridt	-11.1629
▁sekvens	-11.1629
▁latvia	-11.163
▁respons	-11.163
diagnosti	-11.163
▁svovel	-11.163
▁autoritet	-11.163
▁skroget	-11.163
▁blomsten	-11.163
▁unesco	-11.163
▁cappelen	-11.163
▁bøndene	-11.163
▁harrison	-11.1631
▁klaver	-11.1631
▁diamant	-11.1632
▁karakterisere	-11.1632
▁stryke	-11.1632
sprøyt	-11.1634
▁forberede	-11.1634
▁verdslig	-11.1637
▁organisere	-11.164
fôr	-11.164
▁ekstern	-11.166
▁hertugdømme	-11.1661
bjerg	-11.1707
▁tjenestegjor	-11.1809
turneringer	-11.1813
ucci	-11.1814
▁skanse	-11.1831
avhengig	-11.1835
soldater	-11.1845
teknisk	-11.1849
kvarter	-11.1883
▁forhandle	-11.1896
ã	-11.8728
