<unk>	0
<s>	0
</s>	0
.	-3.29714
▁i	-3.46479
e	-3.6792
s	-3.74174
▁og	-3.83193
t	-4.15758
▁	-4.19669
▁av	-4.25946
er	-4.2789
en	-4.27923
▁en	-4.44834
▁som	-4.45882
r	-4.5536
▁til	-4.57714
▁er	-4.57811
▁for	-4.67442
▁på	-4.69841
▁den	-4.87254
▁ble	-4.89332
▁med	-4.92322
▁det	-4.93502
▁var	-5.02024
et	-5.04744
n	-5.04769
▁de	-5.06821
▁han	-5.1251
▁å	-5.24567
▁fra	-5.29819
▁et	-5.46452
▁har	-5.50099
ene	-5.58252
▁at	-5.59487
a	-5.65673
ne	-5.89644
▁ved	-5.92104
▁etter	-5.94556
▁om	-6.00906
▁også	-6.0332
d	-6.05503
▁men	-6.06703
k	-6.1177
i	-6.11874
▁under	-6.19722
▁seg	-6.20646
▁ut	-6.21095
y	-6.21405
▁hadde	-6.24011
o	-6.24488
▁ikke	-6.26194
▁da	-6.29732
▁over	-6.31922
te	-6.34421
g	-6.37547
▁opp	-6.39259
de	-6.40097
▁to	-6.40643
l	-6.41079
p	-6.44832
m	-6.46812
▁kan	-6.46819
▁eller	-6.47976
re	-6.52389
▁sin	-6.54747
▁inn	-6.55747
▁andre	-6.58614
▁første	-6.60301
f	-6.63205
▁hun	-6.66009
▁dette	-6.66138
ing	-6.66896
▁1	-6.70784
v	-6.71006
▁be	-6.73389
▁år	-6.7359
u	-6.74346
▁18	-6.74813
▁mot	-6.75441
▁s	-6.77489
b	-6.80895
in	-6.82685
▁mellom	-6.83396
▁bli	-6.84188
▁ha	-6.843
▁hans	-6.85499
es	-6.85749
▁født	-6.86653
▁a	-6.86899
▁tre	-6.88041
h	-6.88532
▁fikk	-6.89554
▁der	-6.901
c	-6.90939
us	-6.92182
al	-6.92558
▁kom	-6.92809
▁flere	-6.93004
▁denne	-6.94081
▁f	-6.95027
an	-6.98468
ende	-7.03825
▁man	-7.03861
sk	-7.0411
▁2	-7.04965
▁del	-7.05151
▁alle	-7.05298
le	-7.07142
ri	-7.08844
la	-7.10406
is	-7.10805
ar	-7.11218
ter	-7.11691
▁før	-7.11767
▁nord	-7.13132
▁blant	-7.1342
▁the	-7.13718
▁sammen	-7.1372
on	-7.15339
▁hvor	-7.1619
▁så	-7.16547
na	-7.1657
▁tallet	-7.17163
ia	-7.17658
kk	-7.19803
▁u	-7.2156
ra	-7.22498
w	-7.22553
▁ligger	-7.22834
▁k	-7.22857
▁se	-7.23265
vis	-7.23904
▁mange	-7.25255
▁la	-7.26034
▁ca	-7.26122
▁byen	-7.2694
▁mer	-7.27939
▁selv	-7.28251
ere	-7.28575
▁siden	-7.28654
▁død	-7.28705
▁senere	-7.28784
▁m	-7.28819
▁norge	-7.29252
▁noen	-7.30782
▁3	-7.31352
▁stor	-7.3175
lig	-7.32368
iske	-7.32836
▁17	-7.33053
be	-7.36544
sen	-7.36992
▁4	-7.37163
li	-7.37597
▁tidligere	-7.38023
nde	-7.38658
▁ol	-7.38859
▁ny	-7.38884
der	-7.38955
▁kommune	-7.38957
▁være	-7.38967
▁vært	-7.39113
land	-7.4006
z	-7.40223
▁disse	-7.40867
▁gjennom	-7.41183
ke	-7.41677
▁sør	-7.42071
▁norsk	-7.4216
▁al	-7.42467
▁annet	-7.43279
▁store	-7.43605
▁her	-7.45557
▁5	-7.46525
▁kjent	-7.46559
um	-7.46867
at	-7.47411
▁sitt	-7.47775
▁samme	-7.47797
▁land	-7.47837
ske	-7.49128
▁blit	-7.49321
øy	-7.50188
▁tid	-7.50292
▁ga	-7.50653
kt	-7.51265
▁noe	-7.51752
å	-7.52935
▁ro	-7.53066
▁c	-7.53286
▁an	-7.5335
ma	-7.53503
for	-7.53866
▁rundt	-7.54178
me	-7.54422
lo	-7.55682
ler	-7.55755
▁dag	-7.55896
ng	-7.56779
ver	-7.57213
ch	-7.57216
▁vant	-7.57309
▁gikk	-7.57374
▁b	-7.57497
tt	-7.5804
▁mest	-7.58189
ta	-7.59028
ning	-7.59202
ul	-7.59475
▁grunn	-7.59549
▁kunne	-7.60219
▁of	-7.60286
ur	-7.60373
▁st	-7.60585
▁d	-7.60868
ens	-7.61145
▁15	-7.61363
▁16	-7.61426
▁enn	-7.61727
▁vest	-7.62757
▁mens	-7.62909
▁re	-7.63219
▁sine	-7.63406
ut	-7.635
▁by	-7.63503
▁nye	-7.63812
▁både	-7.64017
é	-7.64124
isk	-7.64368
▁norske	-7.64524
ø	-7.64595
il	-7.64833
▁p	-7.65247
j	-7.65325
or	-7.65423
▁skulle	-7.66004
ck	-7.66061
den	-7.66633
▁ra	-7.67304
▁bo	-7.67685
▁km	-7.6772
▁10	-7.67747
▁ned	-7.67778
ro	-7.68363
x	-7.68473
▁sa	-7.68635
▁slik	-7.68731
▁kr	-7.6899
▁øst	-7.69152
os	-7.6979
ve	-7.69911
▁frem	-7.7036
▁tilbake	-7.70623
nes	-7.70959
el	-7.71321
as	-7.71612
▁tok	-7.71646
lige	-7.71741
▁ham	-7.71753
da	-7.725
▁6	-7.72938
▁skal	-7.73025
▁g	-7.73798
▁navnet	-7.73878
▁vil	-7.73964
▁nå	-7.74035
▁fire	-7.74155
th	-7.74836
ner	-7.74974
bo	-7.75179
▁7	-7.75193
ka	-7.7621
ge	-7.76876
ig	-7.77048
▁bare	-7.77111
man	-7.77234
it	-7.77869
▁ta	-7.77931
ff	-7.78235
ry	-7.78397
▁vi	-7.78521
▁usa	-7.78651
▁gang	-7.79858
▁meter	-7.79898
▁lag	-7.80342
▁8	-7.81345
▁ar	-7.8169
▁januar	-7.81975
di	-7.82603
▁dem	-7.82632
si	-7.82734
▁siste	-7.83096
▁juli	-7.83295
▁slutt	-7.83474
▁mars	-7.8361
ton	-7.83744
mo	-7.83764
▁n	-7.83827
▁fram	-7.83979
▁oslo	-7.84042
▁mai	-7.84163
▁deltok	-7.84216
▁000	-7.84513
id	-7.84521
erte	-7.84639
ger	-7.85019
erne	-7.85045
ker	-7.8533
▁finnes	-7.85578
▁h	-7.85851
▁hoved	-7.85919
het	-7.86722
▁hele	-7.87483
▁august	-7.87595
je	-7.88652
▁største	-7.88747
▁li	-7.88763
vi	-7.88968
co	-7.89257
gi	-7.8927
▁ofte	-7.89397
▁amerikansk	-7.89462
▁navn	-7.90127
▁pi	-7.9018
▁ti	-7.90468
▁ho	-7.90731
ol	-7.90732
▁rekke	-7.91005
var	-7.91325
▁di	-7.91816
mer	-7.91825
▁få	-7.92105
▁fri	-7.92288
▁12	-7.92361
ll	-7.92515
sa	-7.92699
▁pa	-7.92907
▁o	-7.92949
▁si	-7.93251
else	-7.93364
▁2008	-7.93554
stad	-7.93605
gang	-7.93608
▁landet	-7.9416
gen	-7.9432
ga	-7.94835
▁kirke	-7.94945
▁kalt	-7.95291
▁fly	-7.9535
son	-7.95666
ste	-7.95844
▁l	-7.96892
by	-7.96949
ba	-7.97418
ven	-7.97965
▁mål	-7.98071
▁po	-7.98529
▁w	-7.98808
▁far	-7.99041
▁ni	-7.99204
▁9	-7.99226
▁gi	-7.9926
▁13	-7.99412
▁lang	-7.99553
ak	-7.99769
▁rett	-8.00706
opp	-8.00728
▁først	-8.01007
▁v	-8.01038
ell	-8.01078
ja	-8.01236
▁le	-8.01263
▁området	-8.0138
dal	-8.0158
▁når	-8.01681
ær	-8.02042
mann	-8.02586
▁tillegg	-8.02646
▁11	-8.02755
to	-8.02776
ad	-8.03268
▁per	-8.03289
ist	-8.03344
▁sk	-8.03526
▁årene	-8.03581
▁juni	-8.03851
▁he	-8.03912
▁bak	-8.04021
▁april	-8.04075
▁igjen	-8.04284
▁ri	-8.04837
▁sp	-8.04995
▁t	-8.0524
▁20	-8.05533
▁laget	-8.05639
▁co	-8.05699
av	-8.06439
▁2007	-8.06658
▁du	-8.06673
nd	-8.0674
va	-8.07036
skap	-8.07838
▁mor	-8.07849
ti	-8.07885
▁utgitt	-8.07924
▁samt	-8.0827
▁bu	-8.08316
▁går	-8.08441
ster	-8.08726
▁bruk	-8.09094
am	-8.09203
▁oktober	-8.09682
ang	-8.09752
ha	-8.09937
▁deres	-8.09959
▁lo	-8.10124
▁desember	-8.10302
mm	-8.11048
▁begynte	-8.11251
▁14	-8.11956
▁spilte	-8.11988
pp	-8.12169
▁2010	-8.12405
▁døde	-8.12417
▁alt	-8.13016
▁gjorde	-8.13147
▁tiden	-8.13204
år	-8.13267
▁hos	-8.13503
▁as	-8.13882
▁europa	-8.14106
▁ba	-8.14212
▁tra	-8.1424
este	-8.14286
▁september	-8.14535
gg	-8.14822
un	-8.14996
▁fem	-8.15038
ling	-8.15172
rett	-8.15408
bi	-8.15999
pe	-8.16278
om	-8.16429
▁pe	-8.16582
▁vanlig	-8.16777
▁kun	-8.17051
ik	-8.17537
iv	-8.17562
mi	-8.17753
▁mye	-8.18016
▁olympisk	-8.18056
▁skole	-8.18347
▁større	-8.18424
▁november	-8.18505
▁bi	-8.18691
ce	-8.18786
▁no	-8.18878
▁februar	-8.18956
▁ka	-8.19059
ca	-8.19212
ningen	-8.19446
go	-8.19664
▁eksempel	-8.19864
▁fa	-8.19931
▁ei	-8.20213
po	-8.20317
▁ville	-8.20536
vik	-8.20561
ek	-8.20851
ingen	-8.20877
▁new	-8.21026
tal	-8.21033
▁0	-8.21444
▁året	-8.21953
▁fransk	-8.2196
▁medlem	-8.21971
▁brukt	-8.22084
▁uten	-8.22334
ring	-8.22492
▁spiller	-8.22832
▁pro	-8.2323
▁plass	-8.23233
ard	-8.2344
æ	-8.23575
▁mindre	-8.23827
▁helt	-8.23882
sjon	-8.24182
▁2009	-8.24297
▁par	-8.2472
▁tyske	-8.24787
▁nær	-8.2521
▁sommer	-8.25349
▁britisk	-8.25454
▁imidlertid	-8.25493
▁in	-8.25499
▁sønn	-8.25546
▁ju	-8.25879
bu	-8.25931
▁2006	-8.25984
im	-8.26317
itt	-8.26434
ko	-8.26457
▁gamle	-8.26463
io	-8.26712
▁ru	-8.2672
▁film	-8.2673
▁go	-8.26924
od	-8.26949
tor	-8.27049
pi	-8.2714
▁kina	-8.27178
▁deretter	-8.27213
▁y	-8.27355
asjon	-8.27571
del	-8.27827
▁beste	-8.2784
▁tv	-8.282
▁bestå	-8.28344
▁te	-8.28438
mp	-8.28832
▁ko	-8.28945
▁su	-8.28989
▁like	-8.29087
ic	-8.29108
▁30	-8.29129
▁kong	-8.29515
ant	-8.29604
▁tatt	-8.29769
tter	-8.29817
▁am	-8.29957
do	-8.30132
sta	-8.30142
▁england	-8.30193
▁bar	-8.30231
ina	-8.30368
rede	-8.3044
▁2011	-8.30444
▁barn	-8.30481
▁tyskland	-8.3053
tak	-8.30536
▁mar	-8.30655
▁ak	-8.30808
ment	-8.30822
ks	-8.31138
▁vann	-8.31177
▁gjen	-8.31205
▁do	-8.31212
▁satt	-8.31252
ings	-8.316
▁mo	-8.31969
▁form	-8.3224
▁j	-8.32392
▁sam	-8.33038
▁2005	-8.33537
tid	-8.33629
▁innen	-8.34097
op	-8.34214
let	-8.34278
▁kunst	-8.34288
ok	-8.34365
ighet	-8.34496
▁videre	-8.34865
▁na	-8.35492
▁leder	-8.35558
ni	-8.36025
ering	-8.36225
▁særlig	-8.36467
▁filmen	-8.36622
▁hennes	-8.36634
▁sverige	-8.36715
ans	-8.36788
▁ulike	-8.36792
ho	-8.37075
▁høy	-8.37113
men	-8.37236
▁innbyggere	-8.378
▁mat	-8.38218
▁forhold	-8.38349
▁skrevet	-8.38354
ed	-8.38431
ion	-8.38436
over	-8.38687
▁startet	-8.38922
▁albumet	-8.39254
inn	-8.39288
▁seks	-8.39826
ns	-8.39998
sel	-8.40121
▁ganger	-8.40414
ie	-8.40569
per	-8.41455
▁25	-8.41477
▁so	-8.41679
▁må	-8.41853
▁lov	-8.41949
fa	-8.42036
pa	-8.42101
berg	-8.42197
▁lys	-8.42274
▁måtte	-8.42282
▁arbeidet	-8.42437
▁egen	-8.42466
▁and	-8.43022
▁musikk	-8.43033
▁kultur	-8.4313
▁løpet	-8.43137
▁me	-8.43208
følge	-8.43279
▁london	-8.43412
▁2004	-8.43418
ir	-8.43519
tur	-8.43548
dd	-8.43624
▁brukes	-8.4365
▁deler	-8.43725
svært	-8.43815
itet	-8.43876
▁hver	-8.43896
ty	-8.44269
▁hus	-8.44333
▁san	-8.44437
▁bygget	-8.4449
▁hel	-8.44777
▁engelsk	-8.44967
▁ingen	-8.45157
▁john	-8.45189
ö	-8.45232
ør	-8.45247
▁ma	-8.4528
▁sol	-8.45335
▁sted	-8.45409
▁em	-8.4542
▁små	-8.45514
▁kort	-8.45633
▁nasjonal	-8.4564
▁mi	-8.45653
▁skrev	-8.45656
▁begge	-8.45752
▁sett	-8.46002
▁tro	-8.46341
▁perioden	-8.46511
▁folke	-8.4656
▁russisk	-8.46639
▁langs	-8.46717
len	-8.46987
▁gitt	-8.4701
rmed	-8.47106
sted	-8.47175
▁lå	-8.47466
▁ge	-8.47491
▁kalle	-8.47643
▁bandet	-8.47649
derfor	-8.47942
▁el	-8.481
stil	-8.4814
▁x	-8.48161
dag	-8.48415
▁hu	-8.48615
▁eks	-8.48622
▁etablert	-8.48746
▁samtidig	-8.48761
▁hvert	-8.48936
▁kommer	-8.49016
▁tysk	-8.49135
▁fleste	-8.4921
▁dagen	-8.49311
▁gull	-8.49458
▁mann	-8.49555
▁krigen	-8.49797
▁bergen	-8.49899
▁sjø	-8.50179
▁verdens	-8.50224
▁millioner	-8.50828
au	-8.50866
rik	-8.50936
no	-8.51178
▁kinesisk	-8.51213
▁kon	-8.51302
▁klubben	-8.51372
ige	-8.51466
▁nest	-8.51548
siden	-8.51575
▁forskjellige	-8.51647
2	-8.51685
ä	-8.51774
▁spilt	-8.51819
▁frankrike	-8.5184
▁2000	-8.51858
▁jo	-8.51962
▁dr	-8.51976
bar	-8.52009
▁president	-8.52076
▁lu	-8.52175
ru	-8.52207
▁stort	-8.52262
som	-8.52527
slag	-8.5272
▁gruppen	-8.52947
▁fotball	-8.52986
▁ski	-8.53029
▁sto	-8.53155
▁sch	-8.53159
▁parti	-8.53189
▁språk	-8.53449
▁or	-8.53813
▁ja	-8.53905
▁bl	-8.54041
mb	-8.54586
▁verdenskrig	-8.54722
▁gu	-8.5486
hus	-8.54978
▁fast	-8.54983
▁ver	-8.55039
vin	-8.55051
▁tidlig	-8.55259
▁fjell	-8.55472
art	-8.55509
ld	-8.55619
▁grad	-8.55665
▁ad	-8.55671
▁gud	-8.55886
elle	-8.5592
▁kommunen	-8.55952
▁vm	-8.55987
á	-8.56175
▁1990	-8.56337
▁mulig	-8.56456
satt	-8.56618
jø	-8.56648
▁fi	-8.5676
▁hen	-8.5712
▁2003	-8.5733
▁verden	-8.57357
▁stein	-8.57451
ud	-8.57483
lin	-8.57612
▁bok	-8.57811
hu	-8.58286
hold	-8.58339
▁komme	-8.58347
ord	-8.58419
verk	-8.58669
▁støtte	-8.58852
▁annen	-8.58856
▁100	-8.58937
nk	-8.59009
tre	-8.59234
▁kongen	-8.59249
lse	-8.59268
▁plan	-8.59484
stre	-8.59742
▁viktig	-8.598
ov	-8.59837
▁tor	-8.59855
stand	-8.60082
▁stedet	-8.60193
sp	-8.60231
▁vei	-8.60718
▁pu	-8.60758
sten	-8.60794
ikk	-8.61039
ü	-8.61039
elsen	-8.61136
▁norges	-8.61386
▁kjente	-8.61437
ius	-8.61455
tan	-8.61685
ska	-8.61774
▁fred	-8.62039
▁ki	-8.62158
▁bra	-8.62222
ium	-8.62292
▁nytt	-8.62401
isert	-8.62599
▁r	-8.6292
▁side	-8.63049
▁sesongen	-8.63094
▁gir	-8.63162
dig	-8.63301
▁50	-8.63576
▁ord	-8.6358
▁øya	-8.6364
▁provinsen	-8.63686
sh	-8.63986
til	-8.64048
▁sentral	-8.64085
▁lever	-8.64126
▁hatt	-8.64228
▁sv	-8.64308
ag	-8.64623
▁syn	-8.64681
bruk	-8.64755
▁fortsatt	-8.65251
und	-8.65267
▁gammel	-8.65269
ft	-8.65339
▁wa	-8.65395
så	-8.65413
ken	-8.65499
▁storbritannia	-8.65618
ku	-8.6566
▁tredje	-8.65937
ly	-8.66095
▁konge	-8.66103
▁førte	-8.66288
nske	-8.66316
▁all	-8.66414
▁1980	-8.66712
ot	-8.6686
▁liten	-8.6693
form	-8.67067
▁person	-8.67071
▁22	-8.67107
▁flyttet	-8.67425
▁omkring	-8.67805
▁vel	-8.68115
▁24	-8.6817
▁vise	-8.68284
ow	-8.68507
▁bas	-8.68725
▁serien	-8.6875
▁gift	-8.68842
▁23	-8.68959
▁godt	-8.68978
ci	-8.69005
lag	-8.69207
ian	-8.69375
mmer	-8.69462
ologi	-8.69652
▁gjern	-8.69777
kon	-8.6982
ble	-8.70026
▁innehold	-8.70049
▁liv	-8.70357
▁2001	-8.70432
▁sendt	-8.70438
ninger	-8.70452
▁antall	-8.70464
elig	-8.70482
mon	-8.70505
▁spor	-8.70622
▁selskapet	-8.70719
▁danmark	-8.70799
tra	-8.71296
ier	-8.71305
tiske	-8.71444
les	-8.71521
▁funnet	-8.71721
stein	-8.71811
▁god	-8.71844
tisk	-8.71877
▁fre	-8.71892
and	-8.7198
▁langt	-8.72155
ac	-8.72606
▁19	-8.72684
▁holdt	-8.72751
▁bro	-8.7311
▁tri	-8.73126
▁bygd	-8.73323
▁historie	-8.73407
▁viser	-8.73465
fi	-8.73627
▁gjort	-8.73637
▁gjøre	-8.73936
▁øy	-8.73994
▁va	-8.74185
▁stat	-8.74252
▁opprinnelig	-8.74486
▁21	-8.7463
▁1999	-8.74668
▁con	-8.74852
▁hi	-8.75109
og	-8.75274
▁utviklet	-8.75335
▁kirken	-8.75342
▁basert	-8.7543
▁ledet	-8.75639
min	-8.75767
▁fordi	-8.75806
lu	-8.75866
▁utnevnt	-8.76002
isme	-8.76017
▁arbeid	-8.76059
▁28	-8.76168
▁forbindelse	-8.76193
▁styre	-8.76229
▁bygge	-8.76258
▁familien	-8.76414
plass	-8.76426
bb	-8.765
▁2002	-8.7667
▁ren	-8.76671
▁periode	-8.7673
tar	-8.76769
mar	-8.77052
her	-8.77079
spill	-8.77483
▁gresk	-8.77539
lands	-8.77663
tiden	-8.77685
▁bri	-8.77837
▁rolle	-8.77882
▁nok	-8.7792
ki	-8.7827
▁universitetet	-8.78414
▁gruppe	-8.78702
ham	-8.79074
vo	-8.79316
sti	-8.79333
▁delstaten	-8.79345
▁åpnet	-8.79688
skole	-8.79824
▁medlemmer	-8.8
▁vis	-8.80069
▁aktiv	-8.80138
▁forsøk	-8.80173
▁neste	-8.80336
▁moderne	-8.80373
▁min	-8.80395
ran	-8.80501
▁ab	-8.80669
ley	-8.80716
▁utenfor	-8.8087
mål	-8.81253
vei	-8.81333
hi	-8.81424
vel	-8.81549
▁valg	-8.81556
▁spille	-8.8157
løp	-8.81639
▁får	-8.81681
▁grav	-8.81829
▁mennesker	-8.81849
▁prest	-8.81963
▁sosial	-8.8207
▁delen	-8.82114
▁innenfor	-8.82123
if	-8.82161
▁rom	-8.82501
dalen	-8.82545
▁forfatter	-8.82707
ds	-8.82824
▁italia	-8.8289
▁fo	-8.82892
▁luft	-8.82906
▁dikt	-8.82986
lot	-8.83143
▁1960	-8.83321
▁kvinne	-8.83383
▁serie	-8.83427
▁slag	-8.83551
▁skolen	-8.83605
▁ser	-8.83778
tz	-8.84051
▁lite	-8.84451
ting	-8.84719
sett	-8.84793
▁ur	-8.84809
ph	-8.84825
▁pre	-8.8491
ede	-8.84956
em	-8.85007
▁står	-8.85017
▁1970	-8.85056
forening	-8.8506
inger	-8.85332
du	-8.85354
▁bil	-8.85487
▁kontroll	-8.85623
fe	-8.85649
est	-8.85655
▁paris	-8.8576
tro	-8.85919
▁th	-8.86028
▁fu	-8.86035
far	-8.86101
wa	-8.86118
sch	-8.86231
▁russland	-8.86368
▁familie	-8.86734
ab	-8.86749
arbeid	-8.86779
▁svenske	-8.86813
met	-8.8684
▁regjeringen	-8.86857
▁politiske	-8.86962
▁lokal	-8.86973
▁opprettet	-8.87029
jo	-8.87042
tikk	-8.87117
▁bred	-8.87198
▁skuespiller	-8.87415
fjord	-8.87442
▁kamp	-8.8754
dre	-8.87777
komm	-8.87904
▁hav	-8.87961
he	-8.8799
▁afrika	-8.88109
▁personer	-8.88109
▁val	-8.88122
▁1994	-8.88162
▁1998	-8.88164
▁vinter	-8.88172
▁nor	-8.88335
▁skip	-8.88366
ber	-8.88426
▁lav	-8.88476
▁tap	-8.88497
▁folk	-8.88536
▁fag	-8.88657
uk	-8.88718
▁pla	-8.88814
▁tar	-8.8895
fjorden	-8.89003
▁fe	-8.89009
▁lands	-8.89057
▁midt	-8.89185
▁farge	-8.89219
▁industri	-8.89237
▁hjem	-8.89573
skje	-8.89751
▁india	-8.89811
ron	-8.89817
▁elven	-8.89865
▁sangen	-8.89881
bre	-8.89974
▁menn	-8.8998
▁1992	-8.89986
▁sand	-8.89992
▁barne	-8.90047
▁hva	-8.90057
▁park	-8.90103
▁general	-8.90436
▁valgt	-8.90445
▁svensk	-8.90452
ju	-8.90657
▁natur	-8.90806
▁arbeider	-8.90817
▁krig	-8.90892
▁kons	-8.90996
▁motor	-8.91014
stilling	-8.91133
værende	-8.91194
▁spesielt	-8.91369
▁knytte	-8.91375
▁én	-8.91406
í	-8.91431
▁ch	-8.91645
landet	-8.91743
tu	-8.91773
ater	-8.91971
▁slaget	-8.91993
nt	-8.92051
fly	-8.92144
iker	-8.92197
▁keiser	-8.92242
kle	-8.92279
▁skog	-8.92425
ine	-8.92426
▁militær	-8.92613
▁nummer	-8.9268
▁york	-8.92778
▁26	-8.92804
▁følgende	-8.92852
▁fant	-8.92866
▁mag	-8.92888
▁minst	-8.92903
▁27	-8.9291
▁arter	-8.92937
▁tur	-8.93199
▁romersk	-8.9328
▁jord	-8.93353
▁arbeids	-8.93395
▁fått	-8.93458
sj	-8.93563
▁car	-8.93744
▁sm	-8.93747
▁henhold	-8.93755
kan	-8.93944
▁1996	-8.94212
råd	-8.94268
▁partiet	-8.94375
▁gre	-8.94408
▁litt	-8.94425
▁bre	-8.94489
▁egne	-8.945
uten	-8.94711
▁my	-8.94739
▁post	-8.94771
▁berlin	-8.94779
spiller	-8.94809
gne	-8.95081
▁fl	-8.95228
bok	-8.95299
▁berg	-8.95485
▁bru	-8.95542
▁betyr	-8.95658
▁hol	-8.95685
▁led	-8.95697
▁grunnlagt	-8.95797
▁offentlig	-8.95812
▁com	-8.95824
ksjon	-8.9592
▁kvinner	-8.96054
inne	-8.96173
▁råd	-8.96173
▁befolkningen	-8.96178
▁radio	-8.96216
yn	-8.96358
▁divisjon	-8.96371
▁staten	-8.96375
▁hjemme	-8.96449
▁ferdig	-8.96461
▁on	-8.96492
▁31	-8.97
▁bestemt	-8.9718
▁internasjonale	-8.97321
▁sal	-8.97389
▁tu	-8.97609
▁gav	-8.97696
▁lange	-8.97871
ong	-8.97964
isering	-8.98006
▁ed	-8.98089
▁sølv	-8.98113
▁hovedsakelig	-8.98125
▁eu	-8.98136
gj	-8.98193
▁we	-8.98323
leder	-8.98507
vet	-8.98516
▁likevel	-8.98649
▁krigs	-8.98947
føring	-8.98979
▁følge	-8.99028
ug	-8.99038
tte	-8.99093
▁karl	-8.99133
▁gl	-8.99541
sson	-8.99628
▁klar	-8.99703
▁bruker	-8.99759
▁regnes	-8.9977
styre	-8.9983
lis	-8.99906
bane	-8.99979
▁kl	-9.00064
▁minne	-9.00114
▁betydelig	-9.00134
▁orden	-9.00166
▁band	-9.00246
▁gjør	-9.00272
▁enkelte	-9.00288
▁halv	-9.00366
fri	-9.00409
lsen	-9.00575
▁ben	-9.00627
▁kal	-9.00746
▁ett	-9.00809
▁bor	-9.0085
▁gå	-9.00943
▁europeisk	-9.00948
▁universitet	-9.00986
▁eget	-9.01013
▁datter	-9.01059
ris	-9.01067
▁1989	-9.01163
bil	-9.01223
▁hjelp	-9.01323
mal	-9.01409
▁kn	-9.01464
▁foran	-9.01476
▁skade	-9.01482
▁mari	-9.01517
▁felles	-9.01534
▁riks	-9.01782
▁cla	-9.01818
heim	-9.02014
za	-9.02015
▁hy	-9.02022
lene	-9.02249
▁mil	-9.02299
minister	-9.02432
▁au	-9.02442
anske	-9.02556
▁veien	-9.02569
ou	-9.02695
▁århundre	-9.02711
laget	-9.02766
dyr	-9.02875
▁henne	-9.02893
heten	-9.02903
▁kar	-9.0292
bin	-9.02983
▁menneske	-9.03028
3	-9.03046
▁verk	-9.03103
▁aldri	-9.03236
▁2012	-9.03248
▁biskop	-9.03392
▁40	-9.03394
▁liste	-9.03454
▁historisk	-9.03482
▁29	-9.03487
ket	-9.0351
dom	-9.03554
▁tjeneste	-9.03591
dt	-9.03646
▁bort	-9.03665
▁kur	-9.03738
▁omtrent	-9.03761
▁begynnelsen	-9.03765
▁fortsatte	-9.03795
▁lagt	-9.03909
nings	-9.03935
▁paul	-9.04023
▁plate	-9.041
▁pal	-9.04266
▁brasil	-9.04292
sto	-9.0445
▁je	-9.04675
vær	-9.04687
▁bror	-9.04708
▁elva	-9.04775
kast	-9.04805
▁album	-9.04927
4	-9.04942
rom	-9.05005
▁vin	-9.05028
▁leker	-9.05123
borg	-9.05186
▁inkludert	-9.05357
▁dager	-9.05397
par	-9.05702
▁gul	-9.05708
▁hal	-9.05729
▁danne	-9.05964
▁roman	-9.0598
stående	-9.06001
rk	-9.06173
gel	-9.06352
▁dannet	-9.06395
▁1995	-9.06442
▁2015	-9.06448
▁meste	-9.06529
▁tross	-9.0654
▁suksess	-9.06563
bygd	-9.06583
▁sesong	-9.06633
sky	-9.06768
kant	-9.06773
so	-9.06869
burg	-9.06977
▁1900	-9.06993
▁resten	-9.071
▁professor	-9.07107
▁cha	-9.07448
▁1920	-9.07539
▁rock	-9.07751
ller	-9.07824
▁samarbeid	-9.07967
▁pan	-9.07982
▁jeg	-9.07987
dy	-9.08016
lser	-9.08085
▁rev	-9.08201
▁fall	-9.08255
▁sentrum	-9.08284
▁reist	-9.08317
▁best	-9.08331
▁sak	-9.08401
mester	-9.08433
▁hånd	-9.08466
▁angrep	-9.08514
▁pr	-9.08625
▁betydning	-9.08627
▁william	-9.08627
▁såkalt	-9.08631
▁1997	-9.08632
▁holde	-9.08721
olog	-9.08798
▁red	-9.09159
▁direkte	-9.09183
▁1988	-9.09193
▁benyttet	-9.09211
▁sang	-9.09217
▁tildelt	-9.0923
▁tak	-9.09331
▁produsert	-9.0934
bygg	-9.09369
▁lett	-9.09529
mark	-9.09651
▁nett	-9.09722
▁fremst	-9.09777
▁energi	-9.09811
valg	-9.09881
▁høyre	-9.09918
skapet	-9.10127
▁200	-9.10282
▁venstre	-9.10319
▁pave	-9.10327
▁teater	-9.10341
▁rød	-9.10433
▁ul	-9.10446
lekt	-9.10545
▁stats	-9.10691
▁pris	-9.10852
gre	-9.11094
vann	-9.1126
ill	-9.11261
▁styr	-9.11346
▁roma	-9.11379
▁trondheim	-9.11438
mun	-9.11742
▁danske	-9.11757
▁ber	-9.11829
▁åtte	-9.1199
▁utvikling	-9.12051
▁viktigste	-9.12075
▁japan	-9.12309
cu	-9.12328
▁fiske	-9.12345
▁endt	-9.12433
▁års	-9.12482
▁ettersom	-9.12504
nor	-9.12564
▁kilometer	-9.12582
▁ku	-9.12587
folk	-9.12805
kamp	-9.12816
▁måte	-9.1303
▁blå	-9.13068
▁drept	-9.13161
▁system	-9.13206
mor	-9.1324
▁regionen	-9.1359
▁stil	-9.13619
▁1993	-9.1375
tok	-9.13763
▁gra	-9.13765
van	-9.13766
▁500	-9.13811
ale	-9.14042
▁meget	-9.14053
▁topp	-9.14074
▁høyde	-9.14124
▁lyd	-9.14209
øya	-9.14219
skip	-9.14249
ys	-9.14597
▁hvis	-9.14605
▁slekt	-9.1461
bel	-9.14692
zi	-9.14701
ød	-9.14719
▁bank	-9.14815
plan	-9.14902
▁1984	-9.1492
▁1950	-9.1493
▁kv	-9.15121
gått	-9.1518
selskap	-9.15305
▁fylke	-9.15336
▁60	-9.15355
▁op	-9.15496
▁2013	-9.15518
▁gr	-9.15544
▁robert	-9.15554
▁dis	-9.15575
▁reise	-9.15582
lar	-9.15644
▁handels	-9.15673
lle	-9.15864
gitt	-9.15896
▁rø	-9.15972
▁slått	-9.16025
▁university	-9.16102
▁eldste	-9.16102
1	-9.1618
elt	-9.16253
▁kamper	-9.16254
▁område	-9.1626
▁politisk	-9.16319
▁lokale	-9.16379
ført	-9.16414
▁vo	-9.16507
▁enkelt	-9.16549
▁dess	-9.16639
res	-9.1665
▁organ	-9.16696
▁1800	-9.16817
før	-9.1687
ach	-9.16935
q	-9.16942
▁ke	-9.17155
sund	-9.17206
▁havn	-9.1726
skog	-9.17299
▁slo	-9.17302
▁hverandre	-9.17303
▁høyeste	-9.17377
▁skille	-9.17412
▁mel	-9.17431
svis	-9.17456
▁kor	-9.17526
ó	-9.17565
kor	-9.17645
tel	-9.17646
▁os	-9.17699
▁lik	-9.17715
▁dyr	-9.17723
▁resultat	-9.17829
▁ag	-9.17857
▁vanskelig	-9.1791
▁2014	-9.17917
ica	-9.18019
liggende	-9.18087
▁herre	-9.18149
▁full	-9.18235
kel	-9.18263
▁engelske	-9.18309
▁fin	-9.18425
rid	-9.18446
▁vokst	-9.18525
▁art	-9.18541
▁z	-9.18567
▁los	-9.18644
fra	-9.18652
ator	-9.18718
ight	-9.18915
▁versjon	-9.18954
gård	-9.19084
▁1945	-9.19139
▁mark	-9.19186
▁midten	-9.19191
bru	-9.19206
yk	-9.1934
▁militære	-9.19347
tall	-9.19368
▁arm	-9.19446
▁les	-9.19495
ey	-9.19524
▁rike	-9.19557
▁kron	-9.1958
40	-9.1962
▁mal	-9.19679
▁christian	-9.1968
▁natt	-9.19698
▁flo	-9.19722
banen	-9.1987
▁miste	-9.19904
▁wi	-9.19959
00	-9.19984
20	-9.20021
▁heller	-9.20026
syn	-9.20044
fl	-9.20097
▁finner	-9.20106
▁pri	-9.20297
det	-9.20312
▁press	-9.20343
▁viste	-9.2045
kom	-9.20534
▁dansk	-9.20554
handling	-9.20619
ation	-9.20626
▁sta	-9.20689
film	-9.20706
▁sanger	-9.20765
▁områder	-9.20953
▁1986	-9.21002
▁finalen	-9.21045
gren	-9.21163
departementet	-9.21171
▁poeng	-9.21247
▁mon	-9.21305
▁alder	-9.21388
tiv	-9.21401
istiske	-9.21463
leg	-9.21512
▁københavn	-9.21624
▁sterkt	-9.21646
▁sl	-9.21722
▁makt	-9.21735
50	-9.21884
ps	-9.22095
▁via	-9.22136
tsj	-9.22226
▁delta	-9.22343
fall	-9.22388
vern	-9.22468
ya	-9.22687
punkt	-9.22751
figur	-9.22802
▁ly	-9.22857
tes	-9.22906
▁nordøst	-9.22929
▁steder	-9.22935
▁start	-9.23015
▁tittelen	-9.23024
▁kje	-9.23047
▁sogn	-9.23138
▁kraft	-9.23167
ister	-9.23264
▁sig	-9.23345
legg	-9.2343
forbund	-9.23511
а	-9.23529
▁1991	-9.23541
30	-9.23568
asjonen	-9.23688
▁samlet	-9.23707
▁olav	-9.23748
jen	-9.23788
▁svarte	-9.23976
▁ten	-9.2398
lik	-9.24148
▁eldre	-9.24213
▁møte	-9.24226
▁legge	-9.24243
▁hvit	-9.2436
▁stasjon	-9.24435
▁jan	-9.24538
▁mu	-9.24713
▁seil	-9.24771
▁johan	-9.24799
▁mod	-9.24898
menn	-9.24917
▁våpen	-9.25018
▁skrift	-9.25137
▁ind	-9.25188
året	-9.25311
gh	-9.25356
▁anti	-9.25397
full	-9.25439
bro	-9.25468
▁voksne	-9.25484
▁prosent	-9.25499
▁indre	-9.25751
▁sc	-9.25824
system	-9.25952
▁ring	-9.26142
▁mester	-9.26269
▁peter	-9.26521
▁boken	-9.26549
▁verdi	-9.26551
▁helse	-9.26624
språk	-9.26631
merke	-9.26714
ric	-9.26886
▁kunstner	-9.2698
lei	-9.27023
veien	-9.27084
▁eid	-9.27141
▁høyere	-9.27176
▁delt	-9.27179
che	-9.27196
▁finne	-9.27345
ving	-9.27379
iet	-9.27414
▁1987	-9.2748
▁henrik	-9.27514
▁skje	-9.27518
▁van	-9.27625
kar	-9.27704
▁lær	-9.27745
nntil	-9.2778
▁sentrale	-9.27899
han	-9.28056
▁grand	-9.28063
▁sy	-9.28132
nz	-9.28195
▁kjøpt	-9.28208
ferd	-9.28241
▁møtte	-9.28311
ung	-9.28347
lagt	-9.28358
stod	-9.28466
gruppen	-9.28479
▁von	-9.28537
▁areal	-9.28581
hl	-9.28636
▁havet	-9.28649
▁mente	-9.28673
▁ste	-9.28725
▁ev	-9.28778
▁kol	-9.28808
▁arrangert	-9.28817
▁omfatter	-9.28817
festival	-9.28819
▁david	-9.2882
dan	-9.28837
▁politiker	-9.2886
▁opprør	-9.28933
▁styrke	-9.28942
▁unge	-9.29023
▁west	-9.29046
▁vekt	-9.29147
istisk	-9.29168
hvert	-9.29193
▁bedre	-9.29199
▁litteratur	-9.29237
▁oppdaget	-9.29377
▁ve	-9.2945
▁bal	-9.29471
▁motstand	-9.295
▁1985	-9.29506
▁1940	-9.29515
side	-9.29549
stasjon	-9.2957
▁skrive	-9.29597
▁spe	-9.29639
▁sen	-9.29707
▁punkt	-9.29742
red	-9.29831
▁lenge	-9.29854
60	-9.29882
idae	-9.29908
område	-9.29928
mu	-9.29994
▁stockholm	-9.30182
dømm	-9.30461
▁tilhører	-9.30872
▁1981	-9.30878
▁dekk	-9.30914
▁valgte	-9.30984
▁400	-9.31123
ip	-9.31153
▁lærer	-9.31278
▁xi	-9.3131
bert	-9.31324
▁styrker	-9.31326
▁drive	-9.31357
▁kat	-9.31372
70	-9.31428
▁hæren	-9.31462
▁tom	-9.31504
▁kardinal	-9.31566
▁stavanger	-9.31572
▁1948	-9.31582
ich	-9.31585
▁standard	-9.3159
▁bakgrunn	-9.31598
▁miljø	-9.31623
▁dro	-9.31705
▁amerika	-9.31782
kra	-9.31793
▁bygning	-9.31832
▁felt	-9.31837
▁olje	-9.31878
▁arkitekt	-9.31882
▁gal	-9.32111
▁tekst	-9.32186
▁befolkning	-9.32216
▁leve	-9.32237
▁bodde	-9.32271
▁bronse	-9.32274
▁retning	-9.32377
▁samling	-9.32431
▁finland	-9.3246
ms	-9.3253
områder	-9.32542
▁sørlige	-9.32578
▁nordlige	-9.32682
▁kas	-9.32774
▁livet	-9.32947
▁1976	-9.3298
▁1968	-9.32981
▁sørøst	-9.33
lys	-9.33007
▁gen	-9.33009
ringen	-9.33026
▁port	-9.3323
ros	-9.33304
samling	-9.33332
ins	-9.33346
▁erstattet	-9.33359
▁mc	-9.33437
ika	-9.33438
▁tru	-9.33475
▁dra	-9.33487
ford	-9.33523
▁stjerne	-9.33532
▁fange	-9.33534
▁brun	-9.33563
ana	-9.33565
mat	-9.33586
▁ønsket	-9.33611
▁nu	-9.33665
▁1982	-9.33689
▁fylkesvei	-9.33695
▁ter	-9.33739
▁jernbane	-9.33747
gjøre	-9.33949
▁nrk	-9.33953
▁kroppen	-9.33965
ida	-9.34071
▁asia	-9.34116
▁ball	-9.34172
net	-9.3423
▁linje	-9.34262
grunn	-9.34291
tog	-9.343
▁arten	-9.34324
▁christ	-9.3439
▁sannsynlig	-9.34393
▁1974	-9.34404
▁1972	-9.34405
▁grensen	-9.34468
▁kla	-9.34604
▁jern	-9.34678
hy	-9.34924
▁virke	-9.34938
▁gård	-9.34972
▁skjer	-9.34972
retning	-9.34986
▁kyst	-9.35029
▁dronning	-9.35118
▁brukte	-9.35162
▁grev	-9.35177
▁politi	-9.35196
navn	-9.35217
▁mm	-9.35247
▁gate	-9.35316
▁hær	-9.35378
▁samle	-9.35398
▁gode	-9.35429
ære	-9.35517
▁hø	-9.35626
val	-9.35629
48	-9.35737
▁sh	-9.35737
▁utgjør	-9.35749
▁avdeling	-9.35766
▁klasse	-9.35769
▁mol	-9.35825
▁sil	-9.35827
▁fjerde	-9.35837
▁canada	-9.35841
▁tett	-9.35915
▁hvordan	-9.35926
▁pat	-9.35935
▁vestlig	-9.35966
king	-9.36061
don	-9.36079
området	-9.36157
▁drift	-9.36167
ringer	-9.36264
▁carl	-9.36418
▁sha	-9.36418
▁za	-9.36454
▁bill	-9.36559
▁sovjetunionen	-9.36567
▁dårlig	-9.36569
▁slå	-9.36597
▁gje	-9.36621
▁lille	-9.36653
▁kampen	-9.37047
oppgave	-9.37056
▁stiftet	-9.37117
gan	-9.37204
▁1979	-9.37308
byen	-9.37338
▁båt	-9.37397
fer	-9.37683
ah	-9.37782
▁inter	-9.37924
sjøen	-9.37969
up	-9.38042
▁1978	-9.38053
▁1964	-9.38055
▁1973	-9.38055
▁design	-9.38056
▁regi	-9.3817
nis	-9.38268
▁sju	-9.38309
▁raskt	-9.38316
tegn	-9.38365
asjoner	-9.38474
rike	-9.38491
▁studie	-9.3852
▁region	-9.38627
kning	-9.38728
øl	-9.38759
▁ledelse	-9.38792
▁mulighet	-9.38796
▁mur	-9.38858
anger	-9.38928
▁kra	-9.38968
▁interesse	-9.39011
lan	-9.39084
▁lengde	-9.39225
▁lenger	-9.39243
▁effekt	-9.39301
▁tegn	-9.39398
▁relativ	-9.39542
tjeneste	-9.39562
sjef	-9.39569
▁ven	-9.39687
▁cor	-9.39715
asje	-9.39781
havet	-9.39932
mper	-9.39964
▁hvite	-9.40119
▁finsk	-9.40138
sal	-9.40161
▁hall	-9.4019
els	-9.40223
▁mont	-9.40266
▁1969	-9.4031
▁thomas	-9.40313
▁ordet	-9.40313
kal	-9.40391
alder	-9.40481
bud	-9.40642
▁80	-9.40722
▁syv	-9.40788
▁air	-9.40897
ay	-9.41009
regionen	-9.41095
▁union	-9.41151
66	-9.41187
▁nådd	-9.41248
▁borger	-9.41311
▁vår	-9.41321
tis	-9.4133
▁endret	-9.41374
▁løp	-9.41447
▁posisjon	-9.41452
▁viktige	-9.41463
tol	-9.41588
▁personlig	-9.41609
▁uavhengig	-9.41736
▁bilde	-9.41778
▁ry	-9.41788
▁klarte	-9.41805
ā	-9.41832
▁beijing	-9.41832
▁lengre	-9.41844
▁2016	-9.41855
▁sø	-9.419
kraft	-9.4193
▁jobb	-9.41961
▁dy	-9.42001
all	-9.42063
▁totalt	-9.42168
▁skipet	-9.42232
klubb	-9.42315
▁selskap	-9.42347
▁historien	-9.42374
▁høsten	-9.42405
▁sterk	-9.42445
▁representerte	-9.42541
▁lei	-9.42573
▁nødvendig	-9.42607
и	-9.42607
▁bur	-9.42781
isten	-9.42857
▁syk	-9.4291
port	-9.42949
▁studerte	-9.43085
▁grå	-9.43105
▁hit	-9.43184
▁museum	-9.43245
▁krav	-9.43262
ria	-9.43324
nett	-9.4336
▁chi	-9.43377
▁fest	-9.43381
▁australia	-9.43388
▁øverst	-9.43392
▁1930	-9.43408
▁fremdeles	-9.43412
pel	-9.43485
nivå	-9.43561
▁bruke	-9.43656
9	-9.43662
▁hopp	-9.43708
▁ære	-9.4373
▁transport	-9.43737
▁ap	-9.43833
▁island	-9.439
stat	-9.43935
band	-9.4394
anlegg	-9.44091
navnet	-9.44159
▁produsere	-9.44176
▁spesial	-9.44176
slutning	-9.44189
▁måneder	-9.44255
▁super	-9.44257
itz	-9.44367
selskapet	-9.44404
65	-9.44419
▁japansk	-9.44565
▁bør	-9.44582
▁para	-9.44627
▁hår	-9.44922
▁qu	-9.4506
5	-9.45105
▁type	-9.45115
ind	-9.45117
▁ji	-9.45139
kret	-9.45152
krigen	-9.45256
gar	-9.45378
løs	-9.45454
heter	-9.45467
eres	-9.45507
▁karriere	-9.45547
pen	-9.45628
trykk	-9.45732
the	-9.45759
▁1952	-9.45769
▁satte	-9.4581
▁martin	-9.45816
▁nordvest	-9.45821
▁strøm	-9.45876
styrke	-9.45879
▁spi	-9.45953
▁bjørn	-9.45976
▁spørsmål	-9.46008
▁katolske	-9.4608
▁grupper	-9.4609
▁munn	-9.46297
▁bøker	-9.46382
ismen	-9.46401
▁regn	-9.46474
▁ør	-9.46491
▁tall	-9.46491
▁pol	-9.46538
senter	-9.46544
▁snakke	-9.46576
pris	-9.46587
▁produksjon	-9.46638
▁ii	-9.46719
▁kors	-9.46725
▁cup	-9.46948
cc	-9.4702
▁ska	-9.4709
chi	-9.47101
▁besto	-9.47102
ice	-9.47176
fest	-9.47204
▁kul	-9.47223
▁åpen	-9.47293
▁hard	-9.47375
▁spania	-9.47389
▁oppkalt	-9.47392
rapport	-9.47394
▁bronsemedalje	-9.47396
▁1975	-9.47396
▁1977	-9.47399
▁mos	-9.47412
▁vol	-9.47469
▁mis	-9.47484
10	-9.4752
ban	-9.47521
▁hundre	-9.47665
abel	-9.47681
pass	-9.4771
▁preget	-9.47723
▁sende	-9.4773
fisk	-9.47731
▁tradisjonell	-9.47746
ult	-9.47872
▁formel	-9.47889
brudd	-9.47961
agn	-9.48022
▁regnet	-9.48084
▁syd	-9.48086
▁sivil	-9.48213
▁1983	-9.48217
▁bevart	-9.4823
▁fotballspiller	-9.48243
▁svart	-9.48312
▁tusen	-9.48404
▁fulgte	-9.48447
▁overtok	-9.48476
▁symbol	-9.4849
gikk	-9.48609
alt	-9.48617
▁tal	-9.48764
▁seier	-9.48801
▁bolig	-9.48817
ari	-9.48855
▁trykk	-9.48928
▁tilsvarende	-9.49035
folkerepublikken	-9.49039
▁informasjon	-9.49053
▁flat	-9.49056
givelse	-9.49096
▁jorden	-9.49136
▁stadig	-9.49215
▁prøve	-9.49227
▁300	-9.49238
▁gro	-9.49242
atet	-9.49291
huset	-9.49313
▁stilling	-9.49337
▁fot	-9.49625
▁george	-9.49629
▁erik	-9.49646
▁utdanne	-9.4967
ien	-9.4969
▁oppdag	-9.49692
rus	-9.49696
▁lære	-9.49731
dra	-9.49798
▁trøndelag	-9.49868
▁hertug	-9.49872
las	-9.49907
utdanning	-9.49927
▁debut	-9.4997
▁merke	-9.49975
▁lege	-9.50046
hall	-9.50193
▁artene	-9.50204
▁af	-9.50229
▁opprinnelige	-9.50245
▁lin	-9.50266
▁tapte	-9.50266
eier	-9.50299
▁plassert	-9.50489
▁kart	-9.506
way	-9.50615
messig	-9.50704
▁skyld	-9.50731
▁egentlig	-9.50738
▁70	-9.50758
▁forsvar	-9.50774
▁økonomisk	-9.50775
▁marine	-9.50804
ekte	-9.50812
▁col	-9.50814
▁program	-9.50927
park	-9.5094
ski	-9.50961
ire	-9.50978
stra	-9.51012
▁fjorden	-9.51032
▁begrepet	-9.51091
▁irland	-9.51177
rygg	-9.51295
▁sommeren	-9.51497
▁reform	-9.5152
▁maskin	-9.51523
о	-9.51552
▁1936	-9.51565
▁årlig	-9.51608
▁stand	-9.5162
▁real	-9.51679
drag	-9.51719
ild	-9.51732
reis	-9.51747
periode	-9.51766
ym	-9.51901
39	-9.51908
ze	-9.51914
iner	-9.51926
▁bad	-9.52219
kjønn	-9.52259
▁egypt	-9.52302
▁middel	-9.52354
▁city	-9.52465
ledes	-9.52479
▁sikre	-9.52516
▁kysten	-9.52535
▁tung	-9.52607
▁kost	-9.52663
dagen	-9.52672
▁mac	-9.52689
klasse	-9.52722
grad	-9.52764
▁gri	-9.52808
skolen	-9.53047
▁slekten	-9.53093
▁soldater	-9.53123
mesterskapet	-9.5314
søk	-9.53234
▁1956	-9.53286
▁privat	-9.53313
37	-9.53398
▁cm	-9.53417
▁feil	-9.53431
xi	-9.53439
▁athen	-9.53494
▁virksomhet	-9.5351
▁jon	-9.53581
båt	-9.53602
▁vind	-9.53714
▁nederlandsk	-9.53737
▁kraftverk	-9.53768
▁gar	-9.5403
mengde	-9.54067
har	-9.54129
▁nærmest	-9.54147
ås	-9.54149
bunn	-9.54207
▁ansatt	-9.54285
▁win	-9.5434
▁toppen	-9.54512
▁hovedstaden	-9.54543
▁son	-9.54562
▁organisasjon	-9.54668
løse	-9.5469
47	-9.54706
ama	-9.54744
▁lars	-9.54911
▁foreldre	-9.55021
▁sørvest	-9.55062
evne	-9.55069
bilde	-9.55095
▁bla	-9.55181
trolig	-9.55191
▁løs	-9.55216
▁gran	-9.55272
▁pass	-9.5528
▁andreplass	-9.55291
▁kroner	-9.55301
▁hor	-9.55338
▁gifte	-9.55477
cia	-9.55538
hund	-9.55595
▁utvidet	-9.5565
▁kle	-9.55671
saker	-9.5582
linje	-9.5583
smann	-9.55891
▁stra	-9.55948
▁stille	-9.55968
▁knut	-9.56
▁innført	-9.56125
▁eli	-9.56125
systemet	-9.56205
medlem	-9.5621
▁adel	-9.5624
▁brann	-9.56256
▁funksjon	-9.56346
▁len	-9.56374
0	-9.56473
▁naturlig	-9.56537
▁data	-9.56561
▁produksjons	-9.56605
bygging	-9.56629
▁uni	-9.56644
tive	-9.56694
ille	-9.56753
ial	-9.56778
88	-9.56843
ji	-9.57021
▁uttrykk	-9.57025
▁stilt	-9.57061
▁ac	-9.57208
rin	-9.57237
▁høre	-9.57276
▁programmet	-9.57329
▁you	-9.57346
▁offisielle	-9.57372
▁størrelse	-9.57391
standen	-9.57423
nyin	-9.57536
▁polen	-9.57552
jel	-9.57609
▁kraftig	-9.57613
▁modell	-9.57616
ino	-9.57619
▁klassisk	-9.57699
▁kontakt	-9.577
▁2017	-9.57721
▁hodet	-9.57723
▁tanke	-9.57739
mannen	-9.57778
kirken	-9.57887
▁følger	-9.5793
midler	-9.58008
▁eier	-9.58014
▁vik	-9.58092
mel	-9.58137
▁plassering	-9.58211
▁fylkes	-9.58245
▁teori	-9.58288
▁sammenheng	-9.58355
▁mad	-9.58367
▁hei	-9.58446
▁spill	-9.58526
▁grense	-9.58585
tun	-9.58595
▁innflytelse	-9.58602
▁college	-9.58612
▁1961	-9.58623
▁statsminister	-9.58628
virkning	-9.58633
iz	-9.58663
liv	-9.58774
▁stift	-9.58843
▁ex	-9.58877
▁tele	-9.58885
▁iii	-9.58966
▁gass	-9.59071
▁turn	-9.59077
rådet	-9.59223
▁skatt	-9.59296
▁hente	-9.59328
▁dyp	-9.59356
▁vist	-9.59409
80	-9.5951
▁konflikt	-9.59525
▁omfattende	-9.59525
▁tilgjengelig	-9.59525
▁ana	-9.59528
▁1924	-9.59534
old	-9.59549
▁tromsø	-9.59587
▁egg	-9.59608
▁dia	-9.59654
▁fil	-9.59751
▁solgt	-9.5976
▁faren	-9.59776
produksjon	-9.59871
▁ky	-9.59886
▁musiker	-9.5997
gående	-9.6004
▁smal	-9.60042
tus	-9.60155
qui	-9.60172
▁blad	-9.60221
▁maria	-9.60301
familien	-9.60317
▁1912	-9.60462
▁1963	-9.60466
▁sommerfugl	-9.60473
▁jarl	-9.60482
felt	-9.60536
▁can	-9.60585
▁røde	-9.60596
▁strand	-9.6063
▁oppdrag	-9.60637
▁stykke	-9.60708
que	-9.60829
ola	-9.60896
▁q	-9.60898
plasser	-9.60908
lev	-9.60987
▁områdene	-9.60994
heng	-9.6101
▁regjering	-9.6102
▁støttet	-9.61065
▁mus	-9.61177
▁skjedde	-9.61194
▁organisasjonen	-9.61209
▁sub	-9.61384
▁selvstendig	-9.61385
▁østerrike	-9.61386
▁aktivitet	-9.61435
▁byer	-9.61442
▁teksten	-9.61443
▁trans	-9.61685
verket	-9.61726
▁handling	-9.61775
▁rekord	-9.61823
▁korea	-9.61858
▁fordelt	-9.61871
▁direktør	-9.61967
▁høyt	-9.61972
▁valget	-9.61992
ini	-9.62003
ias	-9.62025
▁bane	-9.62034
vesen	-9.6207
ani	-9.62146
▁skape	-9.62239
stu	-9.623
н	-9.62319
▁original	-9.62329
▁komponist	-9.62329
▁national	-9.62329
▁hed	-9.62355
▁ytre	-9.62422
gna	-9.62562
▁oppført	-9.62602
trekk	-9.6278
▁begynner	-9.62883
pol	-9.62938
▁time	-9.6294
our	-9.62978
shi	-9.63081
handler	-9.631
▁revolusjon	-9.63104
ix	-9.63192
▁motsetning	-9.63282
▁1967	-9.63297
▁1965	-9.63301
▁1966	-9.63301
loven	-9.63452
serien	-9.63484
fart	-9.63569
▁behold	-9.63631
▁forsvars	-9.63649
ansk	-9.6368
▁war	-9.63684
▁moh	-9.63718
▁nasjonale	-9.63765
▁verne	-9.63835
▁offiser	-9.63861
61	-9.63882
▁ting	-9.63932
pin	-9.64101
age	-9.64118
▁opera	-9.64127
▁eg	-9.64171
▁konkurransen	-9.64224
▁1928	-9.6425
▁musikkalbum	-9.64264
▁operasjon	-9.64276
▁økonomiske	-9.64308
▁israel	-9.64416
▁ø	-9.64442
▁rad	-9.64471
▁avisen	-9.64502
▁utvikle	-9.64551
▁klart	-9.64695
▁ger	-9.64781
▁anders	-9.64801
▁spre	-9.64853
fag	-9.64923
gler	-9.64958
▁wo	-9.64965
rich	-9.65064
høy	-9.65069
mid	-9.65182
med	-9.65215
▁friidrett	-9.65233
▁strid	-9.65269
▁regel	-9.65304
▁ung	-9.65328
bas	-9.65349
▁kristne	-9.65428
▁velge	-9.65461
▁tema	-9.65516
▁redaktør	-9.65684
▁plante	-9.65692
▁polsk	-9.65713
▁tettstedet	-9.65764
på	-9.6584
▁utviklingen	-9.65864
▁riket	-9.65882
▁sjef	-9.66187
▁james	-9.66202
zhou	-9.66257
▁alltid	-9.66262
▁pop	-9.66285
ita	-9.66296
▁lage	-9.66306
▁linjen	-9.66381
▁østlige	-9.66529
▁hevdet	-9.66553
lø	-9.66647
▁nederland	-9.66664
kunst	-9.66709
▁distriktet	-9.66736
▁sent	-9.66841
▁vold	-9.66952
bare	-9.66965
▁lind	-9.67051
▁filmer	-9.67068
▁bevis	-9.67118
▁politikk	-9.67122
voll	-9.67183
▁1971	-9.67195
▁bygningen	-9.67261
▁georg	-9.67356
▁grenser	-9.67363
▁huset	-9.67435
lighet	-9.67446
▁status	-9.67452
ras	-9.67537
▁enten	-9.67574
▁forteller	-9.6758
▁nevnt	-9.67605
▁italiensk	-9.67639
59	-9.67748
▁student	-9.67763
▁leir	-9.67786
67	-9.67829
dals	-9.67836
▁nærings	-9.67865
72	-9.67985
of	-9.68028
▁drama	-9.68108
è	-9.68129
ål	-9.68145
▁stasjonen	-9.68151
▁profesjonell	-9.68184
▁1943	-9.68196
▁1944	-9.68197
▁lansert	-9.68198
spor	-9.68199
▁stemme	-9.68261
63	-9.68293
bus	-9.68307
▁nabo	-9.68366
▁behandling	-9.6838
▁hovedstad	-9.68399
historie	-9.68417
▁sluttet	-9.68518
▁historiker	-9.68568
▁trafikk	-9.68577
▁latin	-9.68631
album	-9.68675
▁shi	-9.68859
▁ep	-9.68877
virke	-9.68909
▁ci	-9.68923
▁mw	-9.69019
lia	-9.69073
▁jobbet	-9.69079
ð	-9.69194
▁fengsel	-9.69194
▁utbredt	-9.69194
▁episode	-9.69195
▁yngre	-9.69195
▁1947	-9.69213
▁anledning	-9.69234
▁not	-9.69266
formet	-9.69284
ano	-9.69343
▁prisen	-9.69358
løsning	-9.69428
rør	-9.69621
▁anlegget	-9.69643
▁produkt	-9.69684
▁forsøkte	-9.6972
skrift	-9.69731
▁sur	-9.69862
▁temperatur	-9.69902
ville	-9.69908
▁wil	-9.69949
åpning	-9.69961
stoff	-9.70042
lov	-9.70102
fon	-9.70125
▁gitar	-9.70125
▁falt	-9.70157
vor	-9.70194
▁skottland	-9.70214
▁moskva	-9.70215
▁ordfører	-9.7023
▁tropp	-9.70328
pu	-9.70328
▁ty	-9.70362
▁pra	-9.70395
▁bern	-9.7041
rud	-9.70412
62	-9.70418
▁mottok	-9.70431
▁trekk	-9.70535
▁bispedømme	-9.70601
▁koloni	-9.70606
▁fredrik	-9.70632
▁ledd	-9.70641
▁tour	-9.70653
▁styrkene	-9.70666
tale	-9.7071
▁italienske	-9.70773
▁sund	-9.70816
▁het	-9.70818
▁35	-9.70866
tør	-9.70957
46	-9.71044
drift	-9.71142
▁dom	-9.71194
▁sportsutøver	-9.71245
▁ytterligere	-9.71245
▁ekteskap	-9.71257
▁1918	-9.71259
dis	-9.71263
▁ramme	-9.71316
mus	-9.71421
56	-9.71462
▁kjempe	-9.71465
▁150	-9.71476
▁veg	-9.71483
▁bomb	-9.71499
gruppe	-9.71519
ette	-9.71519
▁melodi	-9.7154
mond	-9.71542
▁vet	-9.71543
▁liga	-9.71655
57	-9.71698
▁økonomi	-9.71749
▁elv	-9.71775
▁motiv	-9.71925
pro	-9.71957
manns	-9.72012
ction	-9.72068
org	-9.72092
▁folket	-9.72128
▁grønn	-9.72152
ografi	-9.72217
▁elektrisk	-9.72287
▁publikum	-9.72287
▁klima	-9.72288
▁ansatte	-9.72295
▁1959	-9.72304
makt	-9.72337
lly	-9.72347
▁renner	-9.72439
støt	-9.72477
▁venn	-9.7248
▁brev	-9.72501
▁holder	-9.7251
▁fører	-9.7261
▁don	-9.72788
▁gutt	-9.72789
▁bind	-9.72826
▁rute	-9.7286
slaget	-9.72867
elva	-9.72951
▁un	-9.73071
ance	-9.7311
kos	-9.73262
73	-9.73284
▁johannes	-9.73307
sekretær	-9.73327
▁1955	-9.73352
▁fla	-9.7337
▁nærheten	-9.73395
▁fremme	-9.73396
68	-9.73399
▁angeles	-9.73415
▁runde	-9.73462
▁internasjonal	-9.73467
grav	-9.73471
veg	-9.73483
▁dal	-9.73485
tic	-9.735
▁undersøkelse	-9.73526
øk	-9.7354
▁mas	-9.73554
▁institutt	-9.73559
▁blod	-9.73577
▁betegnelsen	-9.73791
▁star	-9.73815
grense	-9.73849
tta	-9.73955
organisasjon	-9.73964
▁listen	-9.73981
oc	-9.74035
▁problem	-9.74051
▁enhet	-9.74063
kysten	-9.74071
▁mes	-9.74115
▁sau	-9.7414
person	-9.7414
▁problemer	-9.74155
▁handel	-9.74195
lling	-9.74226
▁systemet	-9.74281
▁nivå	-9.74313
07	-9.74361
54	-9.74372
▁kaptein	-9.74404
▁jødisk	-9.74404
▁1932	-9.74414
▁fortsette	-9.74437
▁dyre	-9.74445
▁heste	-9.74473
▁kongelige	-9.74547
▁char	-9.74594
bø	-9.74617
16	-9.74625
▁90	-9.74637
fu	-9.74676
▁skul	-9.74682
vogn	-9.74725
▁endelig	-9.74741
▁fugle	-9.74776
▁konsert	-9.7478
hn	-9.7486
▁prosjekt	-9.74864
▁spillet	-9.74894
▁høye	-9.74928
64	-9.74955
▁salt	-9.75001
ara	-9.7524
▁provins	-9.75286
ston	-9.75327
▁middelalderen	-9.75391
▁bon	-9.75455
tion	-9.75475
▁richard	-9.75479
vente	-9.75492
▁lek	-9.75522
trafikk	-9.75526
▁rykke	-9.7553
▁bibel	-9.75538
medalje	-9.75551
58	-9.75569
▁behov	-9.75578
gjort	-9.75614
▁bosatt	-9.75636
upp	-9.75665
▁test	-9.75715
ple	-9.75744
vende	-9.75786
gard	-9.75846
▁avhengig	-9.75857
▁klubb	-9.7587
▁hvilke	-9.75919
mil	-9.7599
▁nev	-9.76066
▁oversatt	-9.76081
industri	-9.76153
▁cl	-9.76283
▁lø	-9.76368
oni	-9.76534
▁publisert	-9.76566
▁riktig	-9.76566
▁kunnskap	-9.76567
▁1933	-9.76578
▁hud	-9.76586
ign	-9.76591
▁utgave	-9.76594
▁fro	-9.76601
høgskole	-9.76614
▁kjerne	-9.76615
dor	-9.76643
▁ban	-9.76794
76	-9.76909
▁drev	-9.7694
▁journalist	-9.76941
▁gla	-9.76949
▁fjern	-9.77028
holm	-9.77035
▁rollen	-9.77088
▁enda	-9.77122
hel	-9.77178
▁sveits	-9.77203
▁kam	-9.77242
▁rot	-9.77267
▁lot	-9.7728
82	-9.77293
▁forskning	-9.77387
▁åpne	-9.77411
▁tyn	-9.77424
▁bytte	-9.7746
93	-9.77472
▁zh	-9.77487
musikk	-9.77496
fugl	-9.77497
▁scene	-9.7753
▁total	-9.77644
▁passer	-9.7765
▁mexico	-9.77665
▁representere	-9.77665
▁erkebiskop	-9.77665
▁united	-9.77666
▁1953	-9.7768
▁1951	-9.77681
▁1949	-9.77681
zz	-9.77753
▁1500	-9.77762
▁snar	-9.77862
aktig	-9.77941
▁lavere	-9.77946
74	-9.7799
▁livs	-9.78256
ben	-9.78326
▁lund	-9.78393
▁elve	-9.78394
▁larvene	-9.78407
byr	-9.7846
▁økt	-9.78556
49	-9.78561
haug	-9.78569
▁gru	-9.78626
▁ungdoms	-9.78652
gul	-9.78671
▁beskytte	-9.78677
▁sette	-9.78728
▁bel	-9.78737
▁ishockey	-9.78776
▁norrøn	-9.78776
▁records	-9.78776
▁opprinnelse	-9.78776
▁world	-9.78776
▁stadion	-9.78778
▁1938	-9.78785
▁1962	-9.78794
▁skotsk	-9.78796
▁flagg	-9.78808
▁jordbruk	-9.78818
98	-9.78857
▁albert	-9.78883
▁hunnen	-9.7894
kanten	-9.78954
▁hjelpe	-9.78986
shire	-9.79042
▁krets	-9.79058
▁thor	-9.79108
51	-9.79168
▁utført	-9.79169
▁viking	-9.79172
fang	-9.79212
vekt	-9.79227
trådte	-9.79237
▁instrument	-9.79246
gal	-9.79287
▁fordel	-9.79443
▁uke	-9.79516
sport	-9.79544
møte	-9.79548
zo	-9.79606
▁omtale	-9.79648
▁normal	-9.79652
▁sovjetisk	-9.79654
▁dan	-9.79689
▁samfunns	-9.79787
▁alternativ	-9.79899
▁offisielt	-9.79899
▁religion	-9.79899
▁nærmere	-9.79905
▁øvrig	-9.79907
▁1958	-9.79916
▁videregående	-9.79928
▁omtalt	-9.79942
mennene	-9.80073
▁fjellet	-9.80186
▁forretnings	-9.80204
wi	-9.80249
ball	-9.80355
program	-9.80357
▁kloster	-9.80376
▁erobret	-9.80396
▁wh	-9.80501
▁allierte	-9.80511
mas	-9.80577
▁haug	-9.80594
gra	-9.80624
▁trener	-9.8063
spiss	-9.80746
▁besøk	-9.80756
gjør	-9.80796
▁banen	-9.80797
▁atom	-9.8089
53	-9.80993
▁fullstendig	-9.81036
▁school	-9.81036
▁flertall	-9.81036
ib	-9.81039
▁lengst	-9.8104
▁tradisjon	-9.8104
▁detalj	-9.81048
▁nordisk	-9.81078
▁finans	-9.8111
▁dog	-9.81145
▁gjennomført	-9.81157
ort	-9.81198
▁cap	-9.81379
nst	-9.81412
under	-9.81495
▁daglig	-9.81535
▁old	-9.81566
▁mak	-9.81571
▁stammer	-9.81577
án	-9.81586
▁sterke	-9.81587
nik	-9.81636
▁eva	-9.81659
▁kreve	-9.81675
▁femte	-9.81718
69	-9.81753
▁hevde	-9.81797
hø	-9.81821
▁jens	-9.81845
87	-9.81925
▁endre	-9.81928
▁kull	-9.81972
jev	-9.81982
▁bidra	-9.82029
▁varme	-9.82052
35	-9.82091
▁frank	-9.82131
fat	-9.82148
▁verket	-9.82168
▁wilhelm	-9.82185
▁edvard	-9.82186
▁hurtig	-9.82186
▁louis	-9.82186
▁alvorlig	-9.82186
▁betrakte	-9.82186
▁fokus	-9.82188
▁stortinget	-9.8219
gl	-9.82203
▁1946	-9.82203
rimot	-9.82216
▁heter	-9.82289
delen	-9.8236
▁res	-9.82406
▁arne	-9.82496
▁minutter	-9.82561
▁utga	-9.82578
▁600	-9.8258
▁stav	-9.82615
rop	-9.82691
▁sønnen	-9.82693
▁inne	-9.82786
▁she	-9.82813
25	-9.82847
ob	-9.82969
våpen	-9.83012
▁rask	-9.8306
▁sun	-9.83131
▁produsent	-9.83135
kirke	-9.83194
▁ordenen	-9.83208
mit	-9.83258
oll	-9.83267
▁debutert	-9.83278
▁skips	-9.83297
▁administrativ	-9.83348
▁utgangspunkt	-9.83348
▁bosetning	-9.83349
▁typisk	-9.83349
▁element	-9.83351
▁premier	-9.83367
▁1939	-9.8337
lang	-9.83391
▁søster	-9.83401
▁løv	-9.83422
▁øyene	-9.83471
univers	-9.83529
▁slott	-9.83532
▁pen	-9.83554
ved	-9.83556
parti	-9.83562
▁vokse	-9.83587
well	-9.83598
▁king	-9.83601
▁saken	-9.83631
grupper	-9.83694
▁hill	-9.83765
win	-9.83781
▁stø	-9.83837
▁trekke	-9.83862
▁mørke	-9.83895
▁materiale	-9.83949
▁krysse	-9.83973
▁sky	-9.84047
▁tittel	-9.8406
är	-9.84095
virksomhet	-9.842
▁vid	-9.84206
stykke	-9.84222
▁cd	-9.84255
stått	-9.84293
lem	-9.84293
▁brøt	-9.84368
▁ob	-9.84391
▁oversikt	-9.84526
▁1942	-9.84537
▁1941	-9.8454
▁unntak	-9.84543
▁bygg	-9.84668
▁konkurranse	-9.84711
▁stoppe	-9.84773
▁gården	-9.84854
▁hoff	-9.84857
▁ram	-9.84874
▁solo	-9.84956
cha	-9.85019
aksjon	-9.8509
▁1000	-9.85144
▁kontrakt	-9.85169
▁landskapet	-9.85184
våg	-9.85254
▁kilde	-9.8526
▁app	-9.85338
strøm	-9.8539
vitenskap	-9.85399
bjørn	-9.85406
▁utover	-9.8542
▁solgte	-9.85422
eppe	-9.8553
▁kropp	-9.85536
plate	-9.85571
wood	-9.85578
hal	-9.8558
▁lyn	-9.85629
▁ya	-9.85695
▁arabisk	-9.85717
▁fabrikk	-9.85717
▁1954	-9.85733
fører	-9.85746
▁lau	-9.8577
▁kanon	-9.85787
plikt	-9.85812
▁egenskap	-9.85847
▁vers	-9.85964
▁idrettslag	-9.86019
90	-9.86053
▁fløy	-9.86118
ryd	-9.86128
▁utdannelse	-9.86153
▁arve	-9.86182
jan	-9.86244
21	-9.86271
ör	-9.86313
▁opphold	-9.86322
▁skifte	-9.86398
▁32	-9.86455
gy	-9.86496
akademi	-9.86615
▁mø	-9.8662
▁synes	-9.86743
▁elev	-9.86798
▁påvirke	-9.86806
▁studier	-9.86843
svømme	-9.86976
▁øvre	-9.86991
ammen	-9.87164
▁rose	-9.87169
ado	-9.87277
▁timer	-9.87354
▁cent	-9.87364
mur	-9.87401
▁øke	-9.87463
gården	-9.87477
▁hell	-9.87484
▁tonn	-9.87484
85	-9.87529
▁sul	-9.87547
▁formann	-9.87585
▁bit	-9.87606
▁masse	-9.87638
▁dømt	-9.8766
▁stoff	-9.87705
06	-9.87712
▁800	-9.87739
▁vanlige	-9.87813
41	-9.87829
78	-9.87841
95	-9.87855
distrikt	-9.87856
▁idretts	-9.87859
▁gjelder	-9.87876
ap	-9.8789
gende	-9.87906
▁prins	-9.87938
92	-9.88004
aktiv	-9.88057
18	-9.88101
arter	-9.88136
▁bakkropp	-9.88139
▁international	-9.88139
▁primær	-9.88139
▁ridder	-9.88146
▁sekund	-9.88147
▁bokstav	-9.88151
eksamen	-9.8823
▁slave	-9.88268
▁domin	-9.88277
▁jesu	-9.88286
▁stu	-9.88345
▁hellige	-9.88355
▁rep	-9.88395
trær	-9.88448
▁bol	-9.88487
▁singel	-9.88491
89	-9.885
▁likhet	-9.88502
▁tydelig	-9.88508
organ	-9.88538
▁myr	-9.88644
▁cro	-9.88705
▁tettsted	-9.88723
▁aust	-9.88774
stall	-9.88779
27	-9.88986
▁ansett	-9.89191
▁single	-9.89259
forhold	-9.89313
ij	-9.89359
▁bø	-9.89373
institusjon	-9.89374
▁california	-9.89374
▁hjerte	-9.89374
▁situasjon	-9.89374
▁1919	-9.89389
▁sykehus	-9.8939
▁1957	-9.89393
▁saint	-9.89394
▁sider	-9.89395
▁sær	-9.894
▁nevnes	-9.89435
gift	-9.89456
▁hitler	-9.89466
▁riksvei	-9.89493
▁flykte	-9.89534
▁opphav	-9.89577
▁kap	-9.89612
44	-9.8966
▁angrepet	-9.89682
▁formål	-9.89697
▁senter	-9.89777
▁klo	-9.89808
▁salg	-9.89873
▁sel	-9.89897
▁wien	-9.89935
▁us	-9.90104
▁vannet	-9.90229
▁populær	-9.90261
▁sier	-9.90318
rum	-9.90379
ugh	-9.90405
kin	-9.90486
▁vii	-9.90563
cy	-9.90574
linjen	-9.90603
▁passasjer	-9.90624
▁michael	-9.90624
▁teknisk	-9.90624
▁anerkjent	-9.90624
▁invasjon	-9.90628
▁protest	-9.90635
▁sølvmedalje	-9.90638
▁song	-9.90704
partiet	-9.90706
▁nedlagt	-9.90715
▁stemmer	-9.90718
gata	-9.90776
▁karakter	-9.90795
qua	-9.90846
▁jakt	-9.9088
▁markert	-9.91063
▁tan	-9.91064
▁verdenscup	-9.91139
▁dynastiet	-9.91176
▁cu	-9.9124
▁bord	-9.91283
vind	-9.913
▁uker	-9.91339
▁nils	-9.91345
▁gyl	-9.91451
▁turist	-9.91455
▁mid	-9.91463
▁distrikt	-9.91485
▁dokument	-9.91502
halvøya	-9.91597
▁tale	-9.9174
01	-9.91806
senteret	-9.91826
▁tj	-9.91846
ub	-9.91877
motor	-9.9188
▁ungarn	-9.9189
fylt	-9.91898
▁spanske	-9.91916
▁populære	-9.91928
▁helge	-9.91936
ick	-9.92016
▁oftest	-9.92038
▁gjenopp	-9.92038
▁forsknings	-9.92159
08	-9.92172
vatnet	-9.92183
▁jevn	-9.92192
▁økte	-9.92257
able	-9.92328
▁typer	-9.92344
sam	-9.9238
▁beskrevet	-9.924
▁borg	-9.92431
▁tidlige	-9.92487
▁ankom	-9.92508
▁internasjonalt	-9.92508
▁mini	-9.92515
▁lignende	-9.9264
blad	-9.92667
▁rå	-9.92669
fil	-9.92797
krit	-9.92878
fot	-9.92916
▁landsbyen	-9.9294
dam	-9.92984
rolle	-9.92998
▁måned	-9.93058
nom	-9.93069
▁vinne	-9.93086
▁kjenne	-9.93088
enberg	-9.93157
▁prosess	-9.93167
▁ødelagt	-9.93172
▁league	-9.93172
▁arrangere	-9.93172
▁generelt	-9.93172
▁tolv	-9.93182
▁1937	-9.93196
▁vendt	-9.93231
▁dekket	-9.93254
▁tredjeplass	-9.93335
17	-9.93338
▁lev	-9.9335
▁danse	-9.93414
▁jean	-9.93428
▁eiendom	-9.93494
▁grunnlag	-9.93539
▁ansvarlig	-9.93547
▁korte	-9.93609
blo	-9.93627
avdeling	-9.93675
▁foss	-9.937
ische	-9.9372
korps	-9.93797
12	-9.93843
▁vær	-9.93878
ón	-9.93906
▁benyttes	-9.93949
pur	-9.94143
sberg	-9.94253
plassen	-9.94254
nding	-9.94304
▁lan	-9.9432
▁nes	-9.94321
▁meg	-9.94408
▁etterfulgt	-9.9447
▁installert	-9.9447
▁redusert	-9.94471
▁medlemmene	-9.94478
▁betegne	-9.9448
▁charles	-9.94494
▁blue	-9.94515
▁overgang	-9.94518
▁avholdt	-9.94572
▁zo	-9.94581
▁anne	-9.94605
▁1700	-9.94613
▁antatt	-9.94624
▁holm	-9.94648
▁undervisning	-9.9467
stedet	-9.94703
▁bydel	-9.94715
▁vitenskapelig	-9.94769
▁tog	-9.94827
▁glo	-9.94874
▁odd	-9.94911
▁kandidat	-9.94981
▁vunnet	-9.95162
▁kir	-9.9522
▁kjøre	-9.95287
▁bølge	-9.95429
▁kg	-9.95434
▁damp	-9.95472
▁verdensmester	-9.95491
skift	-9.95549
løpet	-9.95557
verdig	-9.95563
konkurranse	-9.95602
19	-9.95621
ordnet	-9.95691
▁ek	-9.95735
▁joseph	-9.95786
▁definert	-9.95786
▁faktisk	-9.95789
▁finnmark	-9.95795
▁skaffe	-9.95802
▁ukjent	-9.95847
▁veldig	-9.95853
▁foruten	-9.9587
▁spansk	-9.95886
▁representert	-9.95899
▁overflate	-9.95918
▁svak	-9.95951
blokk	-9.95968
▁vinteren	-9.9602
▁bidrag	-9.96056
fjellet	-9.96136
lad	-9.96188
mod	-9.96216
▁gangen	-9.9647
komite	-9.96501
ago	-9.96529
▁live	-9.96578
▁rein	-9.96628
▁tilfeller	-9.96665
off	-9.96756
▁metall	-9.96819
55	-9.96907
feltet	-9.97028
▁skilt	-9.97028
ula	-9.97051
▁johann	-9.97059
foss	-9.97109
▁radikal	-9.9712
▁nektet	-9.97121
▁doktorgrad	-9.97122
▁islam	-9.97127
▁ferd	-9.9713
▁1908	-9.97137
▁sko	-9.97142
▁harald	-9.97147
▁formen	-9.97176
ledd	-9.97183
▁bryte	-9.97226
▁1600	-9.9723
▁ran	-9.97234
▁liberal	-9.9726
mund	-9.9734
town	-9.97406
▁sir	-9.97422
▁nr	-9.97448
▁underlag	-9.97479
96	-9.97541
▁fal	-9.97652
▁kanal	-9.97668
▁studenter	-9.97685
vest	-9.97805
▁løper	-9.97847
▁bilder	-9.97859
farge	-9.97877
tti	-9.97918
dro	-9.97926
▁fisk	-9.97938
▁utsatt	-9.97958
▁max	-9.97984
77	-9.97997
chu	-9.98109
▁ref	-9.98112
▁forsvaret	-9.98224
eide	-9.98371
▁begrenset	-9.98473
▁hustru	-9.98473
▁royal	-9.98474
▁studio	-9.98477
▁1929	-9.98483
▁håndball	-9.98485
▁sist	-9.98579
▁vinner	-9.98737
43	-9.98747
▁malt	-9.98822
▁fn	-9.98897
▁gods	-9.98901
▁flåte	-9.98927
▁musikken	-9.98941
▁pil	-9.98959
▁kommuner	-9.99026
▁former	-9.9905
vit	-9.99087
▁cal	-9.9915
kamera	-9.99175
▁mørk	-9.99225
ligste	-9.993
▁spise	-9.99352
▁øyer	-9.99445
▁front	-9.99556
▁kjøp	-9.9957
▁fartøy	-9.9961
kop	-9.99652
▁wei	-9.99697
forfatter	-9.99718
blant	-9.99761
bær	-9.99795
tårn	-9.99802
15	-9.99829
▁inkludere	-9.99841
▁inspirert	-9.99841
▁belgia	-9.99841
▁oscar	-9.99842
▁snø	-9.99862
strøk	-9.99876
▁ub	-9.9992
▁fyr	-9.99925
strekker	-9.99926
▁svar	-10.0001
▁resultatet	-10.0002
▁kai	-10.0014
▁sørover	-10.0015
hov	-10.0018
▁anta	-10.0018
▁landsby	-10.0024
ish	-10.0025
▁innlede	-10.0026
▁overført	-10.0027
▁straffe	-10.0029
områdene	-10.0031
▁pl	-10.0032
▁medisin	-10.0049
fo	-10.0059
▁75	-10.0073
hol	-10.0077
▁nordland	-10.0082
▁filosofi	-10.0083
▁maur	-10.0087
bladet	-10.0097
▁fyrst	-10.0102
▁kilder	-10.0109
kapasitet	-10.0112
skudd	-10.0112
prosjekt	-10.0112
▁kristen	-10.0115
▁hovedsak	-10.0122
▁jacob	-10.0123
▁planlagt	-10.0127
▁søke	-10.0127
trukket	-10.0127
field	-10.0128
▁hull	-10.0131
▁hellas	-10.0134
▁prix	-10.0135
▁cell	-10.014
gram	-10.0142
▁arts	-10.0152
▁kone	-10.0153
stripe	-10.0156
▁normalt	-10.0158
▁rh	-10.0158
bank	-10.0162
▁skapte	-10.0163
▁versjonen	-10.0168
▁bevegelse	-10.0172
runde	-10.0173
▁sørge	-10.0174
low	-10.0185
▁samfunnet	-10.0188
kjer	-10.0191
studi	-10.0198
▁varierer	-10.0198
▁makten	-10.0203
ansen	-10.0203
▁ph	-10.0211
▁avsluttet	-10.0212
pan	-10.0216
▁gy	-10.022
▁45	-10.0221
▁forlag	-10.0244
▁turner	-10.0249
▁nav	-10.0252
bånd	-10.0255
▁markeds	-10.0259
▁tilknytning	-10.0264
▁magnus	-10.0264
▁streng	-10.0264
▁club	-10.0265
▁generasjon	-10.0265
▁1926	-10.0265
faktor	-10.0267
▁bidro	-10.0267
▁spredt	-10.0268
▁buk	-10.0268
▁organisert	-10.0268
▁effektiv	-10.027
▁poly	-10.0271
▁bånd	-10.0273
kilden	-10.0275
▁myndighetene	-10.028
▁levde	-10.0283
vinner	-10.0285
33	-10.0294
▁slett	-10.0299
ledning	-10.0316
▁båten	-10.0318
▁forfatteren	-10.0335
▁regional	-10.0341
hai	-10.0345
▁drevet	-10.0354
45	-10.0355
▁stol	-10.0368
▁romanen	-10.0375
kontor	-10.0378
hav	-10.0388
▁harry	-10.0389
angrep	-10.0401
miljø	-10.0403
▁innsjøen	-10.0406
▁edderkopp	-10.0407
▁initiativ	-10.0407
▁objekt	-10.0407
▁positiv	-10.0407
▁frykt	-10.0407
▁sjette	-10.0407
ressurs	-10.0407
▁1931	-10.0408
▁håkon	-10.0408
▁hotell	-10.0408
▁rund	-10.0409
▁reserve	-10.0409
▁politiet	-10.041
▁score	-10.0412
▁kapell	-10.0414
▁bonde	-10.0415
▁jule	-10.0426
▁mesterskap	-10.0427
▁henry	-10.0427
▁gall	-10.0435
▁utenlandsk	-10.0436
▁cy	-10.045
staten	-10.0457
▁sort	-10.0459
▁registrert	-10.0462
▁frukt	-10.0465
jiang	-10.0469
▁teknologi	-10.047
▁dobbelt	-10.0475
▁indisk	-10.0478
▁nm	-10.0478
▁kampene	-10.0481
▁sammenligne	-10.049
▁che	-10.0508
lund	-10.052
▁video	-10.0524
▁kreft	-10.0524
▁leg	-10.0532
▁sikker	-10.0536
rekk	-10.0543
▁buss	-10.0543
▁landene	-10.0545
▁private	-10.0545
▁kontinent	-10.0552
▁kvalifisering	-10.0552
▁fysisk	-10.0552
▁south	-10.0552
▁1934	-10.0553
▁britene	-10.0554
▁nan	-10.0556
▁tekster	-10.0557
snitt	-10.0562
kraftverk	-10.0566
▁kjøpe	-10.0566
▁omfattet	-10.0567
▁kontor	-10.0572
▁kapp	-10.0576
▁vakt	-10.0578
▁hage	-10.0578
følgende	-10.0581
▁starten	-10.0586
05	-10.059
rommet	-10.0591
▁foreningen	-10.0591
markedet	-10.0595
▁irak	-10.0596
▁roll	-10.061
▁nasjon	-10.0631
bedrift	-10.0635
▁utstilling	-10.0639
▁våren	-10.0674
▁will	-10.0676
▁gui	-10.0691
ordning	-10.0693
▁pakistan	-10.0699
▁tegneserie	-10.0699
▁innspilling	-10.0699
▁frederik	-10.07
▁1913	-10.07
▁oppnådd	-10.0701
▁sjelden	-10.0702
▁erfaring	-10.0703
▁jazz	-10.0704
kompani	-10.0704
▁black	-10.0707
▁tverr	-10.0709
▁700	-10.0714
▁utstyr	-10.0722
▁religiøse	-10.0723
▁rek	-10.0725
▁north	-10.0725
kha	-10.0728
▁innsjø	-10.073
dommen	-10.0732
▁horn	-10.0736
▁camp	-10.0746
▁imot	-10.0747
▁benytte	-10.0756
▁bilen	-10.0756
▁regjerings	-10.0757
11	-10.0775
▁ungdom	-10.0779
▁music	-10.0781
▁hannen	-10.0782
▁samfunn	-10.0793
▁bibliotek	-10.0795
och	-10.0797
former	-10.0801
▁rang	-10.0805
▁gjeste	-10.0827
▁treng	-10.0832
83	-10.0832
36	-10.0835
jord	-10.0835
dekke	-10.0837
samfunn	-10.0847
▁angripe	-10.0848
▁county	-10.0848
▁hensikt	-10.0848
▁kommunal	-10.0848
▁1914	-10.0849
▁1935	-10.085
▁byggingen	-10.0854
71	-10.0856
▁innsats	-10.0857
▁ekstra	-10.0858
▁arkitektur	-10.0859
ordenen	-10.0862
▁phil	-10.0864
▁kari	-10.0867
bebyggelse	-10.0868
▁lån	-10.0868
øyene	-10.087
▁deltatt	-10.0873
▁språket	-10.0873
fabrikk	-10.0879
gle	-10.0883
deles	-10.0889
▁paven	-10.0897
visning	-10.0899
kov	-10.0901
42	-10.0908
▁dato	-10.0911
hem	-10.0918
▁penger	-10.0926
▁begrep	-10.0931
▁museet	-10.0938
23	-10.0938
▁hon	-10.095
▁boy	-10.0959
rød	-10.097
ova	-10.0971
kampen	-10.0973
▁landskap	-10.0974
▁sports	-10.0979
▁klassen	-10.0979
▁tegnet	-10.0988
▁dommer	-10.0991
▁ze	-10.0993
▁praksis	-10.0999
▁stafett	-10.0999
▁østerriksk	-10.0999
▁kristiansand	-10.0999
magasin	-10.0999
▁brensel	-10.0999
▁kombinert	-10.1
▁mytologi	-10.1
▁utseende	-10.1
▁utgivelsen	-10.1
▁1922	-10.1001
prosess	-10.1001
▁filip	-10.1002
▁1916	-10.1002
▁studere	-10.1002
▁sagt	-10.1007
▁befinne	-10.1012
▁bryst	-10.1016
skipet	-10.1026
▁glass	-10.1053
ity	-10.1056
6	-10.1064
▁sof	-10.1064
last	-10.1073
▁metal	-10.1075
34	-10.1083
▁stå	-10.1116
▁produksjonen	-10.1117
▁pin	-10.1122
86	-10.1123
▁vinge	-10.1126
▁handle	-10.1126
▁turneringen	-10.1127
ada	-10.1129
▁hamar	-10.1136
▁up	-10.1144
stro	-10.1147
▁kritikk	-10.1153
bryte	-10.1153
▁sistnevnte	-10.1154
▁hemmelig	-10.1154
▁levert	-10.1154
▁bekrefte	-10.1158
▁diplomat	-10.1159
▁vedtatt	-10.1175
▁andreas	-10.1178
strand	-10.1183
prisen	-10.1185
▁hind	-10.1185
▁utøver	-10.1193
nny	-10.1193
▁ansvar	-10.1196
▁tilbud	-10.1215
illa	-10.1216
firma	-10.1224
▁last	-10.123
kort	-10.1234
▁fc	-10.1239
konge	-10.1242
▁graf	-10.1243
ira	-10.1249
▁krist	-10.1251
▁prosjektet	-10.1254
▁sim	-10.126
▁sikkerhets	-10.1261
99	-10.1265
strid	-10.128
▁33	-10.1284
▁virkelig	-10.1287
▁frø	-10.1292
▁demokratisk	-10.1295
▁vekst	-10.1301
▁kristian	-10.1304
henger	-10.1305
▁antwerpen	-10.1309
▁erklært	-10.1309
▁katedral	-10.1309
▁okkupert	-10.1309
▁nominert	-10.131
▁terreng	-10.131
▁konstant	-10.131
▁autonom	-10.131
▁papir	-10.131
▁landbruks	-10.1311
▁lufthavn	-10.1311
▁1923	-10.1311
▁forbundet	-10.1312
ingeniør	-10.1312
▁pensjon	-10.1314
▁high	-10.1314
▁utgjorde	-10.1321
▁butikk	-10.1321
▁oss	-10.1327
▁sammenlagt	-10.1329
▁synlig	-10.133
▁utføre	-10.1336
▁tyskerne	-10.1339
▁halvdel	-10.1344
vannet	-10.1353
▁alene	-10.1357
▁dokumenter	-10.1358
▁roger	-10.1367
▁myndigheter	-10.1368
▁borgerkrig	-10.1377
▁innhold	-10.1377
▁frihet	-10.1396
▁fritt	-10.14
versjon	-10.1405
▁kalk	-10.1416
▁funn	-10.1418
▁avtalen	-10.142
fjellene	-10.1421
▁mill	-10.1426
▁34	-10.1426
▁snu	-10.1429
97	-10.1436
havn	-10.1438
▁grei	-10.1439
▁epi	-10.1441
32	-10.1447
▁kulturell	-10.1449
▁frakte	-10.1465
▁elektro	-10.1467
serie	-10.1468
▁milliarder	-10.1468
▁alkohol	-10.1468
▁vulkan	-10.1468
▁tempel	-10.1468
▁geografisk	-10.1468
▁forekommer	-10.1468
▁scott	-10.1469
▁vitenskap	-10.1469
▁dialekt	-10.147
▁1917	-10.147
▁bortsett	-10.1475
eparten	-10.1478
▁anlegg	-10.148
▁steve	-10.148
▁armé	-10.1481
vekst	-10.1481
▁spesielle	-10.1482
▁rase	-10.1483
▁motta	-10.1484
øst	-10.1486
▁grunnla	-10.149
kommune	-10.1493
▁cirk	-10.1493
▁utvalg	-10.1496
klubben	-10.1496
▁utstyrt	-10.1501
▁sja	-10.1507
avtale	-10.1507
gaard	-10.1518
▁kode	-10.1522
▁konserter	-10.1523
▁tilfelle	-10.1524
dorf	-10.1529
▁dør	-10.1532
▁bry	-10.1561
▁ønsker	-10.1564
▁unngå	-10.1567
vig	-10.1571
stemt	-10.16
▁plasser	-10.1602
94	-10.1606
▁anna	-10.1615
▁spar	-10.1623
svarer	-10.1627
в	-10.1629
▁flytte	-10.1629
▁kategori	-10.163
▁mongol	-10.163
hjul	-10.1635
▁utnytte	-10.1637
▁stig	-10.1646
middel	-10.1647
▁håp	-10.1651
▁bay	-10.1651
▁følelse	-10.1659
dannelse	-10.1673
▁gard	-10.1673
▁larven	-10.1684
▁kvalitet	-10.169
atur	-10.1697
▁måten	-10.1701
bakken	-10.1712
▁est	-10.1719
▁forskere	-10.1743
strekning	-10.1743
hode	-10.1743
▁hul	-10.1748
isse	-10.1763
ín	-10.1771
▁verker	-10.1781
setting	-10.1784
▁36	-10.1792
▁fødsel	-10.1793
▁arrestert	-10.1793
▁konkurrere	-10.1793
▁golf	-10.1794
▁himmel	-10.1795
▁1915	-10.1795
▁1906	-10.1796
▁1910	-10.1797
▁dvs	-10.1798
▁alfred	-10.1798
▁nasjonalpark	-10.1798
▁arena	-10.1803
kjent	-10.1803
drakt	-10.1806
▁opptatt	-10.1808
▁mary	-10.1809
▁agder	-10.1812
▁unn	-10.1821
▁elever	-10.1824
▁bygda	-10.1829
▁gjenstand	-10.183
konstruksjon	-10.1834
ary	-10.1834
▁inge	-10.1834
▁hindre	-10.1835
▁samarbeidet	-10.1837
wald	-10.184
▁off	-10.1842
▁00	-10.1846
▁long	-10.1854
▁malm	-10.1855
▁may	-10.186
▁jøde	-10.186
aya	-10.1865
▁maleri	-10.1868
▁venner	-10.187
▁maler	-10.1882
▁rør	-10.1899
24	-10.1903
delingen	-10.1931
▁registr	-10.1937
▁fv	-10.1946
▁republikken	-10.1951
løytnant	-10.196
▁introdusert	-10.196
▁tilknyttet	-10.196
▁akershus	-10.196
▁dollar	-10.196
▁kombinasjon	-10.196
▁tyrkisk	-10.196
▁eksistert	-10.1961
▁tradisjonelt	-10.1962
▁1911	-10.1962
▁foreslått	-10.1962
▁1901	-10.1962
▁1921	-10.1962
▁oppmerksomhet	-10.1963
▁fullført	-10.1963
▁nasjoner	-10.1967
kron	-10.1968
▁drikke	-10.1969
▁olsen	-10.197
liste	-10.1972
▁tørr	-10.1973
▁føde	-10.1979
maskin	-10.1979
▁dø	-10.198
▁storm	-10.1984
skilt	-10.1985
▁green	-10.1994
▁administrasjons	-10.1995
▁platen	-10.2002
▁bull	-10.2004
▁nedre	-10.2011
▁unna	-10.2011
▁involvert	-10.2015
▁fantes	-10.2019
▁yu	-10.2019
▁kommando	-10.2021
▁ekspedisjon	-10.2022
▁auto	-10.2023
skyting	-10.2023
▁hode	-10.2027
▁kåre	-10.2045
▁troll	-10.2055
13	-10.2073
▁ytter	-10.2075
▁bredt	-10.2077
▁neu	-10.2079
▁leon	-10.2082
▁selge	-10.2084
elli	-10.2087
▁utgi	-10.2088
livet	-10.2093
▁uttale	-10.2096
dikt	-10.21
▁modellen	-10.2109
▁europe	-10.211
▁marc	-10.2112
▁aleksander	-10.213
▁alexander	-10.213
▁eksempler	-10.213
▁engasjert	-10.213
▁liverpool	-10.213
▁washington	-10.213
▁foregår	-10.213
▁digital	-10.213
▁fenomen	-10.213
▁uvanlig	-10.213
▁län	-10.213
bygningen	-10.213
▁romsdal	-10.2131
▁godkjent	-10.2131
▁france	-10.2133
arbeidet	-10.2133
stasjonen	-10.2134
▁fortellingen	-10.2136
▁aksje	-10.2138
▁ull	-10.214
gue	-10.2141
▁billed	-10.2141
▁bob	-10.2142
▁preg	-10.2147
▁kvinnelige	-10.2148
forskning	-10.2151
kultur	-10.2152
▁jack	-10.2152
▁human	-10.2154
▁keiseren	-10.2156
▁deles	-10.2159
mula	-10.2159
▁soldat	-10.216
▁flu	-10.216
▁inntekt	-10.2179
▁dahl	-10.2182
▁statlig	-10.2186
▁orkester	-10.2197
▁kjemisk	-10.22
▁klokken	-10.221
▁finn	-10.2219
tekst	-10.2223
▁overfor	-10.2224
▁bj	-10.2225
fjell	-10.2229
▁flest	-10.2231
▁latinsk	-10.2234
▁jøder	-10.224
▁fylket	-10.2243
▁fremtid	-10.2243
▁artister	-10.2249
▁ligne	-10.2266
▁nordre	-10.2275
amerikanske	-10.2278
yang	-10.2279
▁løse	-10.2281
▁bevegelsen	-10.2283
vang	-10.23
▁antagelig	-10.2302
▁litterære	-10.2302
▁francis	-10.2302
▁juridisk	-10.2302
▁kjærlighet	-10.2303
▁oversettelse	-10.2303
▁referere	-10.2304
domstol	-10.2305
▁vannkraftverk	-10.2305
▁sverd	-10.2307
tain	-10.231
▁landslaget	-10.2317
▁begrave	-10.2319
▁1890	-10.2319
▁vill	-10.2322
▁lagene	-10.2322
hånd	-10.2326
kjæ	-10.2345
▁intern	-10.2348
aksjonen	-10.2348
▁betale	-10.2352
▁besøkt	-10.2356
▁ulykke	-10.2362
▁nettverk	-10.2376
▁hve	-10.2401
▁55	-10.2403
awa	-10.2404
▁hvilken	-10.2406
▁endringer	-10.2423
rup	-10.2425
▁seieren	-10.2426
▁kok	-10.2428
▁tell	-10.2434
▁representanter	-10.2442
▁utgaven	-10.2444
▁bevege	-10.2458
▁stillingen	-10.2464
▁blomster	-10.2468
▁utløp	-10.2475
▁individ	-10.2477
▁australsk	-10.2477
▁byprefekture	-10.2477
▁münchen	-10.2477
▁eventyr	-10.2477
▁utbredelse	-10.2477
▁service	-10.2477
▁belgisk	-10.2478
▁anklage	-10.2479
▁fjernsyn	-10.2479
▁medaljer	-10.248
▁daniel	-10.2484
lokk	-10.2492
▁kjøl	-10.2496
skrive	-10.2499
▁gitarist	-10.251
▁inngå	-10.2511
▁representant	-10.2513
▁gradvis	-10.2518
tunnelen	-10.2524
▁typen	-10.2535
▁tau	-10.2541
▁kino	-10.2545
mmel	-10.2549
▁beskriver	-10.2555
▁sideelv	-10.2565
81	-10.2568
▁ønske	-10.257
▁kjell	-10.257
▁hammer	-10.2581
▁1200	-10.2596
▁skjold	-10.2596
nok	-10.2596
▁gruve	-10.2605
▁42	-10.261
▁avtale	-10.261
formede	-10.262
▁vokser	-10.2635
▁troms	-10.2652
▁karrieren	-10.2655
▁1904	-10.2656
▁american	-10.2656
▁frivillig	-10.2656
▁guvernør	-10.2656
▁innbyggerne	-10.2656
▁individuell	-10.2656
▁terror	-10.2657
▁blanding	-10.2657
ograf	-10.2661
▁hersker	-10.2665
▁meldt	-10.2665
▁metro	-10.2669
masse	-10.267
blomst	-10.267
▁skudd	-10.2671
anda	-10.2674
▁mottatt	-10.2677
stemning	-10.2678
▁lord	-10.2681
▁østover	-10.2687
▁wall	-10.2689
politikk	-10.2689
▁brø	-10.2694
▁søkt	-10.2697
lærer	-10.27
▁gjeld	-10.27
▁prinsipp	-10.2703
26	-10.2715
▁fotballklubb	-10.2715
dommer	-10.2717
▁intel	-10.272
fyr	-10.2722
▁motsatt	-10.2722
▁tiår	-10.2722
▁insekter	-10.2725
▁barna	-10.2729
▁begynne	-10.273
komst	-10.2735
▁myk	-10.2757
▁bakke	-10.2757
▁delstat	-10.2764
▁klosteret	-10.2766
▁forskjellig	-10.2767
idrett	-10.2769
▁struktur	-10.2777
▁hastighet	-10.278
▁skriver	-10.2783
▁cre	-10.2783
▁øyne	-10.28
▁sara	-10.2837
▁regissør	-10.2838
▁eventuel	-10.2838
▁kritiker	-10.2838
▁smith	-10.2838
stipend	-10.2838
▁internett	-10.2841
▁tvunge	-10.2842
▁mengder	-10.2842
▁reiser	-10.2848
▁bydelen	-10.285
▁kapasitet	-10.2853
▁mynt	-10.2853
84	-10.2865
gelse	-10.287
produsent	-10.2871
museum	-10.2872
▁kraftige	-10.2874
jern	-10.2875
ical	-10.2877
▁arrangement	-10.2879
▁simon	-10.288
▁million	-10.2883
▁populært	-10.2885
▁løfte	-10.2887
▁vitne	-10.2891
▁eksemplarer	-10.2892
pho	-10.2899
▁reaksjon	-10.2902
fartøy	-10.2905
ington	-10.2916
feld	-10.292
75	-10.2928
tårnet	-10.293
▁musikalsk	-10.2943
▁etasje	-10.2946
▁katolsk	-10.2951
▁berømte	-10.2961
▁planter	-10.2967
grensen	-10.297
▁tunnel	-10.2986
▁møter	-10.2987
▁fremmed	-10.2991
▁etappe	-10.3001
▁flyplassen	-10.3015
friidrettsutøver	-10.3023
▁jakob	-10.3023
▁valuta	-10.3023
▁etablere	-10.3023
▁innlemme	-10.3023
▁hovedrollen	-10.3023
ов	-10.3024
▁slank	-10.3024
plattform	-10.3024
vandring	-10.3025
▁1905	-10.3025
▁gullmedalje	-10.3027
▁lønn	-10.3036
▁prosessen	-10.3036
▁middelalder	-10.304
▁oppnå	-10.3041
kreft	-10.3056
▁forsker	-10.3059
91	-10.3063
tittel	-10.3064
▁fortalt	-10.307
samisk	-10.307
▁våg	-10.3075
▁bakken	-10.3077
▁artikkel	-10.3079
▁nordover	-10.3079
▁villa	-10.3084
▁gruppa	-10.3088
jö	-10.3093
gate	-10.3095
▁andel	-10.3095
▁kin	-10.3099
▁nam	-10.3101
wiki	-10.3103
▁ferge	-10.3105
▁ok	-10.3114
▁teknikk	-10.3146
▁behandle	-10.3148
29	-10.3149
▁kongedømmet	-10.3151
▁py	-10.3151
▁orient	-10.3157
krig	-10.3159
▁kommunistisk	-10.3177
turneringen	-10.3193
▁øyeblikk	-10.3212
▁færøyene	-10.3212
▁halvparten	-10.3212
▁hordaland	-10.3212
▁manuskript	-10.3212
▁svalbard	-10.3212
▁edward	-10.3212
▁grunnleggende	-10.3212
stråling	-10.3212
▁kommersiell	-10.3212
▁definere	-10.3212
▁skjær	-10.3212
▁grunnlegger	-10.3212
▁import	-10.3213
▁tilhørte	-10.3214
▁show	-10.3217
▁strekningen	-10.3217
galleri	-10.3221
▁programmer	-10.3221
▁1100	-10.3222
▁dyrke	-10.3224
▁nød	-10.3229
▁kvalifisert	-10.324
▁skyte	-10.3242
▁gun	-10.3242
▁figuren	-10.3244
drev	-10.3249
typen	-10.3261
elv	-10.3262
▁stål	-10.3266
▁sykdom	-10.327
▁kommunikasjon	-10.3272
22	-10.3273
▁advokat	-10.3287
▁ansvaret	-10.3296
▁jente	-10.3296
▁helst	-10.3303
▁salme	-10.3304
▁stabil	-10.3317
press	-10.3329
▁play	-10.3332
▁evne	-10.3338
korset	-10.3352
▁bærer	-10.3364
▁tradisjonen	-10.338
slutt	-10.3381
bringe	-10.3383
▁vietnam	-10.3389
▁1902	-10.3404
▁angelsaksisk	-10.3404
▁ortodoks	-10.3404
▁elisabeth	-10.3404
▁kapital	-10.3404
▁kjørt	-10.3404
▁testamente	-10.3404
▁oppstår	-10.3404
▁award	-10.3404
▁hendelsen	-10.3404
▁sachsen	-10.3404
▁arthur	-10.3404
▁dominerende	-10.3404
▁1925	-10.3407
▁jackson	-10.3408
▁allmenn	-10.3414
▁blokker	-10.3415
hua	-10.3418
▁anlagt	-10.3421
▁1896	-10.3421
▁vokalist	-10.3422
▁rulle	-10.3423
▁gold	-10.3433
▁team	-10.3434
misjon	-10.3447
▁shan	-10.3452
stjerne	-10.3453
tatt	-10.3455
nummer	-10.3457
▁river	-10.3461
▁variant	-10.3464
▁tjenestegjor	-10.3465
▁parlamentet	-10.3468
▁bach	-10.3482
forsker	-10.3486
▁folketellingen	-10.3506
▁vig	-10.3512
båten	-10.3519
▁38	-10.3537
gua	-10.354
▁høst	-10.354
bukta	-10.3542
▁fulgt	-10.3543
▁tråd	-10.3543
▁kara	-10.3545
▁varianter	-10.3547
listen	-10.3549
mølle	-10.3552
▁saga	-10.3562
finn	-10.3571
▁ekspedisjonen	-10.3575
▁ulik	-10.3581
handel	-10.359
▁zu	-10.3591
▁gress	-10.3591
▁redde	-10.3592
▁bell	-10.3593
gli	-10.3596
otten	-10.3597
▁beseiret	-10.36
▁helsingfors	-10.36
▁middelsstor	-10.36
▁fjordane	-10.36
▁ekstrem	-10.36
▁presentert	-10.36
▁sprint	-10.36
konvensjon	-10.36
▁hvile	-10.3601
▁otto	-10.3602
▁skytter	-10.3605
låt	-10.3611
▁administrasjon	-10.3612
▁festning	-10.3612
▁grønland	-10.3614
▁cra	-10.3616
▁vekk	-10.3626
▁isteden	-10.3632
kjede	-10.3637
▁morgen	-10.3639
▁utbygging	-10.3646
president	-10.3649
▁gaten	-10.365
▁road	-10.3661
▁adam	-10.3663
øvelse	-10.3677
▁festningen	-10.3686
▁republikk	-10.3689
▁utlandet	-10.369
▁ost	-10.369
fond	-10.3696
plante	-10.3699
lære	-10.3706
▁finale	-10.3708
▁cru	-10.3711
▁120	-10.3728
▁beskrev	-10.3731
bevegelsen	-10.3733
kryp	-10.3734
▁verv	-10.3742
▁kanalen	-10.3747
▁nei	-10.3749
▁trinn	-10.3751
▁svi	-10.3766
28	-10.3774
▁korn	-10.3775
▁levende	-10.3783
▁vokal	-10.3785
▁1903	-10.38
▁ambassadør	-10.38
▁konsekvens	-10.38
▁astronom	-10.38
▁krevde	-10.38
▁hendelser	-10.38
▁besluttet	-10.38
▁forsvant	-10.38
▁redusere	-10.38
▁forbedre	-10.38
▁forklare	-10.3801
▁årsaken	-10.3801
▁gustav	-10.3802
▁tropisk	-10.3802
▁1927	-10.3803
▁1907	-10.3803
▁portrett	-10.3809
▁1899	-10.3815
▁afrikansk	-10.3822
▁vennskap	-10.3825
▁1880	-10.3827
▁institut	-10.3828
▁kirk	-10.3849
utvikling	-10.3853
▁junior	-10.3853
forbindelse	-10.3853
front	-10.3854
hjem	-10.3866
38	-10.3882
▁syl	-10.3891
▁mord	-10.3892
▁bære	-10.3899
▁stab	-10.3903
▁hunder	-10.3914
▁urban	-10.3921
▁fjernet	-10.3928
▁grov	-10.3963
▁anse	-10.3968
hop	-10.3987
▁kalde	-10.3992
▁knap	-10.3992
▁esp	-10.3995
forskjell	-10.3998
tysk	-10.3998
▁definisjon	-10.4004
▁eksperiment	-10.4004
▁portugisisk	-10.4004
▁skjønt	-10.4004
▁umiddelbar	-10.4004
▁vilhelm	-10.4004
▁lyktes	-10.4004
▁preussen	-10.4004
syre	-10.4005
▁tilskuer	-10.4005
▁luther	-10.4005
▁oppleve	-10.4005
▁opposisjon	-10.4005
▁arkiv	-10.4005
▁generell	-10.4007
▁kjær	-10.4008
▁feire	-10.4013
▁sving	-10.4013
▁kristiania	-10.4014
▁gjennombrudd	-10.402
▁forvingen	-10.402
▁stam	-10.4021
kilde	-10.4021
▁munk	-10.4023
▁1895	-10.4024
▁amerikaner	-10.4034
skij	-10.4035
▁bio	-10.4045
døgn	-10.4045
▁great	-10.4049
▁fase	-10.4051
▁utvidelse	-10.4062
bølge	-10.4062
▁fungerer	-10.4068
effekt	-10.4069
bøker	-10.407
hørt	-10.4085
hver	-10.4087
▁endring	-10.4088
▁scenen	-10.409
gress	-10.4105
▁cur	-10.4109
▁kortere	-10.411
start	-10.4114
▁dj	-10.4127
▁vite	-10.4141
▁parlament	-10.4143
▁rasen	-10.4165
▁back	-10.4175
▁israelsk	-10.4175
flat	-10.418
▁skapt	-10.4181
karriere	-10.4182
løft	-10.419
▁variere	-10.4201
▁nak	-10.4204
▁vg	-10.4206
▁250	-10.4209
▁1909	-10.4213
▁barcelona	-10.4213
▁jerusalem	-10.4213
▁observer	-10.4213
▁portugal	-10.4213
▁administrere	-10.4213
▁kompleks	-10.4213
▁ukraina	-10.4213
▁fungerte	-10.4213
▁artist	-10.4213
▁zealand	-10.4213
▁henrettet	-10.4213
▁bøkene	-10.4213
▁studioalbum	-10.4214
▁nedenfor	-10.4214
▁allianse	-10.4214
levende	-10.4214
▁debatt	-10.4214
▁overlevd	-10.4214
▁arbeiderpartiet	-10.4215
▁kritisk	-10.4217
▁eksport	-10.4219
▁east	-10.422
▁økende	-10.4224
▁brand	-10.4228
vika	-10.4231
▁talent	-10.4232
▁møre	-10.4244
▁johansen	-10.4245
▁boka	-10.4247
▁undervist	-10.4249
skrevet	-10.4262
▁kolonien	-10.4275
modell	-10.4283
▁life	-10.4289
▁rester	-10.4292
▁900	-10.43
ison	-10.4305
▁drap	-10.4315
rakte	-10.4343
▁utenriks	-10.4348
▁flyplass	-10.4349
▁skuespill	-10.4401
▁trening	-10.4411
▁tømmer	-10.4425
▁assistent	-10.4425
▁regissert	-10.4425
▁respekt	-10.4425
hjørne	-10.4425
▁bodø	-10.4425
▁selvmord	-10.4425
▁konservative	-10.4427
▁antyde	-10.4427
mønster	-10.4428
▁etterfølger	-10.4429
▁smelte	-10.443
▁gravlagt	-10.443
▁hensyn	-10.4432
▁bispe	-10.4433
▁tronen	-10.4434
▁høyesterett	-10.4436
▁wales	-10.4438
▁bjør	-10.4441
▁tykk	-10.4443
▁takke	-10.4444
▁beskyttelse	-10.4445
mba	-10.4452
▁sikte	-10.4456
▁qing	-10.4466
▁polar	-10.4472
▁tidspunktet	-10.4472
▁hil	-10.4475
temperatur	-10.4491
▁kval	-10.4493
▁thi	-10.4506
▁eksisterer	-10.4515
▁tang	-10.4516
slått	-10.452
▁dominert	-10.4521
kall	-10.4567
▁cand	-10.4574
▁niels	-10.4595
▁religiøs	-10.4607
▁gjennomsnitt	-10.4609
hild	-10.4615
▁fru	-10.4634
▁akseptert	-10.4643
▁chicago	-10.4643
▁prefektur	-10.4643
▁påbegynt	-10.4643
▁tønsberg	-10.4643
▁ludvig	-10.4643
▁oxford	-10.4643
▁avdøde	-10.4643
▁referanse	-10.4643
▁separat	-10.4643
▁walter	-10.4643
▁ektemann	-10.4644
▁signal	-10.4644
▁arendal	-10.4644
▁referert	-10.4644
▁kongress	-10.4646
▁sykkel	-10.4646
▁michel	-10.4647
▁kreert	-10.4647
▁rytter	-10.4652
▁rykte	-10.4658
▁ungdomsskole	-10.4658
▁ross	-10.4659
▁1885	-10.4664
▁magnet	-10.4665
▁enorm	-10.4665
polis	-10.4666
▁sound	-10.467
analyse	-10.4675
vold	-10.4689
▁lake	-10.469
▁master	-10.4694
▁krim	-10.4697
hard	-10.47
▁mah	-10.4708
▁nazi	-10.4708
hastighet	-10.4713
▁statue	-10.4713
▁musk	-10.473
▁hekk	-10.4735
cupen	-10.4744
kasse	-10.4756
▁kim	-10.4764
▁vegg	-10.4778
sundet	-10.4797
▁nau	-10.4802
▁oppfatte	-10.4823
formasjon	-10.4846
▁forhindre	-10.4865
▁returnert	-10.4865
▁resultert	-10.4865
▁negativ	-10.4865
▁adolf	-10.4865
▁mektig	-10.4865
hørende	-10.4865
▁sjanger	-10.4865
▁white	-10.4865
▁antennene	-10.4865
▁erobring	-10.4866
▁strategisk	-10.4866
▁manager	-10.4867
▁atmosfære	-10.4867
▁misjons	-10.4872
▁kommunist	-10.4872
▁street	-10.4875
▁histo	-10.4876
▁bruce	-10.4879
▁cho	-10.4882
▁opplag	-10.4882
▁tjent	-10.4884
▁brent	-10.4885
▁datert	-10.4886
▁1878	-10.4887
▁mangler	-10.4887
nemlig	-10.489
▁petter	-10.4896
▁derfra	-10.4906
▁vanligste	-10.4908
▁filosof	-10.491
flue	-10.4917
14	-10.4925
▁stemmene	-10.4931
▁steg	-10.4935
laten	-10.4935
struktur	-10.494
skjold	-10.494
▁penge	-10.495
▁sveitsisk	-10.4959
verdi	-10.4961
forsvar	-10.4966
forvaltning	-10.4973
▁ennå	-10.4976
▁stang	-10.4982
▁verb	-10.4986
politisk	-10.4998
▁hval	-10.5001
spenn	-10.5023
flåten	-10.5024
rikke	-10.5025
stav	-10.5043
botn	-10.5084
▁mannlig	-10.509
▁fakultet	-10.5092
▁patriark	-10.5092
▁prøyssisk	-10.5092
▁observato	-10.5092
▁tyrkia	-10.5092
▁utslipp	-10.5092
▁fengsl	-10.5092
▁vesentlig	-10.5092
▁josef	-10.5092
▁usikker	-10.5092
▁canadisk	-10.5092
▁sydney	-10.5092
▁trussel	-10.5092
▁ombord	-10.5092
▁vingespenn	-10.5093
▁unntatt	-10.5093
kjøring	-10.5093
▁novelle	-10.5093
▁osmansk	-10.5093
▁bbc	-10.5093
▁skutt	-10.5093
▁beskjed	-10.5093
▁kjennetegn	-10.5094
▁euro	-10.5094
▁drammen	-10.5096
▁signert	-10.5096
▁tibet	-10.5097
▁tegninger	-10.5097
▁medaljen	-10.5099
▁piano	-10.5101
▁1300	-10.5105
▁trodd	-10.512
▁sparta	-10.5125
▁tvang	-10.5128
▁rand	-10.5132
▁forstå	-10.5136
▁cuba	-10.514
▁angel	-10.5142
▁utbrudd	-10.515
▁tidsskriftet	-10.5152
▁semifinalen	-10.5158
▁beskrivelse	-10.5158
▁kongedømme	-10.5169
teknikk	-10.5173
bibliotek	-10.5173
regning	-10.5173
sønn	-10.5174
bestemmelse	-10.5175
▁brutt	-10.5175
utenriksminister	-10.5176
trener	-10.5176
▁qi	-10.5184
ansett	-10.519
▁sikkerhet	-10.5192
teori	-10.5194
stigning	-10.5214
turnering	-10.5237
▁from	-10.5238
▁betegnelse	-10.5248
▁coll	-10.5253
basert	-10.526
celle	-10.5273
leggelse	-10.5275
trinn	-10.5298
▁nag	-10.5299
▁regjer	-10.5303
gass	-10.5303
▁spesiell	-10.5305
▁luc	-10.5307
▁mig	-10.5308
▁marked	-10.5321
▁observasjon	-10.5325
▁afghanistan	-10.5325
▁argument	-10.5325
▁etableringen	-10.5325
▁yngste	-10.5325
▁rekrutt	-10.5325
▁kritisert	-10.5325
▁rogaland	-10.5325
▁mekanisk	-10.5325
▁andré	-10.5325
▁dukket	-10.5325
anmelder	-10.5325
▁opprettelsen	-10.5326
▁antikken	-10.5326
▁multi	-10.5326
▁divers	-10.5327
▁skarp	-10.5327
▁hjerne	-10.533
▁hørte	-10.5331
▁hovedkontor	-10.5331
▁victoria	-10.5332
▁brygge	-10.5333
veksle	-10.5333
▁drepe	-10.534
▁arving	-10.5341
▁1898	-10.535
vass	-10.535
metode	-10.535
opplysning	-10.5352
▁romerne	-10.5352
▁egyptisk	-10.5355
▁queen	-10.5358
lekene	-10.5359
▁tyr	-10.5361
▁håndverk	-10.5361
▁sjel	-10.5367
▁1850	-10.5369
▁statsråd	-10.538
▁stund	-10.5382
▁oppsto	-10.5383
▁santa	-10.539
vald	-10.5405
▁låter	-10.5411
forsamlingen	-10.5419
▁dramatisk	-10.542
▁meta	-10.5423
▁falk	-10.543
▁domkirke	-10.543
▁fett	-10.5435
areal	-10.5453
fold	-10.546
▁mono	-10.5476
▁etnisk	-10.5483
økonomi	-10.5491
▁arkeologisk	-10.5505
▁samtid	-10.5534
▁gö	-10.5534
▁plu	-10.5543
79	-10.5546
▁strak	-10.5556
▁bou	-10.5557
ifikasjon	-10.5561
territorie	-10.5563
▁argentina	-10.5563
▁konkurrert	-10.5563
▁kriminal	-10.5563
▁texas	-10.5563
▁monument	-10.5563
▁koalisjon	-10.5563
▁beleiring	-10.5563
teatret	-10.5563
▁bratt	-10.5563
▁bakvingen	-10.5564
▁seinere	-10.5564
▁datamaskin	-10.5564
▁utforming	-10.5564
▁slippe	-10.5564
▁oppløst	-10.5564
▁opplevd	-10.5565
▁jurist	-10.5566
▁dyktig	-10.5566
▁spurt	-10.5568
▁vestfold	-10.5568
▁forbunds	-10.5578
▁tvil	-10.5588
fattet	-10.5599
revolusjonen	-10.5607
▁bestemme	-10.5612
legging	-10.5623
▁monark	-10.5626
▁beskrive	-10.5646
▁oppstod	-10.5648
direktør	-10.5655
litteratur	-10.5655
konsert	-10.5656
31	-10.5663
måte	-10.567
▁vingene	-10.5671
▁omkom	-10.5674
▁brem	-10.5681
drive	-10.5684
falt	-10.569
hest	-10.5692
▁vä	-10.57
kurs	-10.5704
sats	-10.5706
departement	-10.5738
▁telemark	-10.578
fred	-10.5783
familie	-10.5787
sosialistisk	-10.5792
agon	-10.5806
▁eurovision	-10.5807
▁innbyggertall	-10.5807
▁konstruert	-10.5807
▁utelukke	-10.5807
ström	-10.5807
▁jørgen	-10.5807
▁permanent	-10.5807
▁landkreis	-10.5807
▁lagkonkurransen	-10.5807
▁reklame	-10.5807
▁hjal	-10.5807
▁hyppig	-10.5807
▁skjebne	-10.5807
▁ungarsk	-10.5807
▁avviklet	-10.5807
▁fysikk	-10.5807
▁beordre	-10.5807
▁naturreservat	-10.5807
▁elleve	-10.5807
▁adresse	-10.5808
▁besetning	-10.5808
▁ekspert	-10.5808
▁forårsake	-10.5808
▁oblast	-10.5808
worth	-10.5808
▁brå	-10.5808
▁naturgass	-10.5808
▁firmaet	-10.5808
komité	-10.5809
▁generalsekretær	-10.581
▁philip	-10.581
▁manchester	-10.5816
▁mandat	-10.5816
▁lykke	-10.5817
▁bedriften	-10.5824
▁1894	-10.5825
▁1897	-10.5825
▁fremført	-10.5826
▁besøkende	-10.5827
▁hamburg	-10.5827
▁with	-10.5828
▁estland	-10.584
▁furu	-10.5846
▁inngikk	-10.585
▁psykolog	-10.5854
▁lettere	-10.5856
▁trengte	-10.5859
flekk	-10.586
chester	-10.5877
▁smak	-10.5884
prest	-10.5884
▁fotograf	-10.5905
offiser	-10.5905
horn	-10.5914
kil	-10.5918
▁britis	-10.5933
▁web	-10.5934
▁stamme	-10.5943
▁grunnlov	-10.5945
▁klokke	-10.595
kryss	-10.5953
▁synge	-10.5985
grim	-10.599
▁avslutte	-10.5991
▁legend	-10.5995
▁term	-10.5998
▁tromme	-10.6005
▁vindu	-10.6011
▁bestand	-10.6024
▁brakt	-10.6039
▁markere	-10.604
▁okkupasjon	-10.6056
▁amsterdam	-10.6057
▁bulgaria	-10.6057
▁friedrich	-10.6057
▁katolikk	-10.6057
▁prøvd	-10.6057
▁hjort	-10.6057
▁sparebank	-10.6057
▁aktuell	-10.6057
▁praktisk	-10.6057
▁karbon	-10.6057
aceae	-10.6058
▁sukker	-10.6058
▁brown	-10.6059
▁spesifik	-10.6059
terminal	-10.6059
▁distanse	-10.606
▁utvide	-10.6061
▁rektor	-10.6062
▁østfold	-10.6062
▁wolf	-10.6062
bød	-10.6063
▁2018	-10.6063
▁røyk	-10.6064
▁forrige	-10.6067
▁lokalisert	-10.6067
▁røtter	-10.6069
▁tilsyne	-10.607
▁1891	-10.6073
▁nederlag	-10.6074
▁spenning	-10.6079
▁brødrene	-10.608
▁isbre	-10.6099
▁lunge	-10.6099
▁karakteristisk	-10.6101
stø	-10.6103
▁sovjet	-10.6112
▁arkeolog	-10.6123
▁seire	-10.6127
▁hå	-10.616
dømt	-10.6184
▁trø	-10.6197
aux	-10.6201
reformen	-10.6206
▁eksistere	-10.6216
▁intens	-10.6255
back	-10.6256
▁bau	-10.6258
jong	-10.6285
budsjett	-10.6313
▁admiral	-10.6313
▁aftenposten	-10.6313
▁alexandr	-10.6313
▁country	-10.6313
▁hebraisk	-10.6313
▁midlertidig	-10.6313
▁nøyaktig	-10.6313
▁forkropp	-10.6313
▁heinrich	-10.6313
▁vurdere	-10.6313
▁evangeli	-10.6313
▁konferanse	-10.6313
▁risiko	-10.6313
presentasjon	-10.6313
▁aspekt	-10.6313
dirigent	-10.6313
▁unesco	-10.6313
▁fiolin	-10.6313
▁betydningsfull	-10.6313
▁bønder	-10.6313
▁fiktiv	-10.6314
▁utmerkelse	-10.6314
▁avledet	-10.6314
▁innebære	-10.6315
▁onkel	-10.632
rettighetene	-10.632
brenn	-10.632
▁betalt	-10.6321
▁komposisjon	-10.6322
kampanje	-10.6324
▁fastlandet	-10.6324
▁syria	-10.6327
▁nevner	-10.6327
▁antoni	-10.6327
▁rival	-10.6327
▁størst	-10.633
▁trygg	-10.6331
▁lukke	-10.6334
▁overtatt	-10.6338
▁hydro	-10.6344
▁ideal	-10.6347
▁planeten	-10.6348
▁uavhengighet	-10.6349
▁marx	-10.6365
▁romania	-10.6365
orientert	-10.639
▁stammen	-10.6391
▁ligge	-10.642
programmet	-10.6429
museet	-10.6429
bury	-10.6429
lengde	-10.6434
recht	-10.6457
bygning	-10.6458
forsyning	-10.6483
redskap	-10.6498
▁tidsskrift	-10.6507
▁utarbeide	-10.6508
▁avisa	-10.6526
▁kjøtt	-10.656
▁landslags	-10.6567
▁victor	-10.6568
▁major	-10.6574
▁cambridge	-10.6576
▁columbia	-10.6576
▁forøvrig	-10.6576
▁innspilt	-10.6576
▁jordskjelv	-10.6576
▁kommandant	-10.6576
▁luxembourg	-10.6576
▁restaurant	-10.6576
▁shanghai	-10.6576
▁company	-10.6576
▁florida	-10.6576
▁ansikt	-10.6576
▁embets	-10.6576
▁søndag	-10.6576
▁lørdag	-10.6576
▁langrenn	-10.6576
▁bærum	-10.6577
▁slapp	-10.6577
▁contest	-10.6577
▁avgjørende	-10.6577
▁betjene	-10.6577
▁mikro	-10.6578
▁einar	-10.6578
▁poesi	-10.6578
▁betong	-10.6579
apparat	-10.658
▁svein	-10.658
▁bedrifter	-10.6581
▁regimet	-10.6582
▁operere	-10.6586
▁1884	-10.6594
▁koble	-10.6596
▁1883	-10.6597
▁1889	-10.6602
▁kontrollerte	-10.6602
▁kent	-10.6603
▁åttende	-10.6609
▁persisk	-10.6619
▁georgia	-10.6619
▁skjønn	-10.6624
▁server	-10.6624
▁nerve	-10.6626
tank	-10.6628
▁huske	-10.6636
▁forlenge	-10.6641
apper	-10.6667
▁slu	-10.6682
finalen	-10.6695
▁folketelling	-10.6704
▁senke	-10.6741
▁chile	-10.6755
▁kub	-10.6757
▁fortelle	-10.6758
snegl	-10.6789
▁menneskelig	-10.6803
▁medisinsk	-10.6803
utstillingen	-10.6804
▁kirkelig	-10.6836
▁allikevel	-10.6847
▁diskusjon	-10.6847
▁göteborg	-10.6847
▁infanteri	-10.6847
▁kronprins	-10.6847
▁symfoni	-10.6847
▁vurdert	-10.6847
skribent	-10.6847
▁komponert	-10.6847
▁nikola	-10.6847
▁castle	-10.6847
▁global	-10.6847
▁antarktis	-10.6847
▁automatisk	-10.6847
palasset	-10.6847
▁utsikt	-10.6847
pedagog	-10.6847
▁føderal	-10.6848
▁lojal	-10.6848
relatert	-10.6848
▁bayern	-10.6848
▁power	-10.6849
▁konkurs	-10.6849
▁hovedkvarter	-10.6849
▁sentralbank	-10.685
▁nyhets	-10.685
▁døtre	-10.6851
▁spyd	-10.6851
▁walk	-10.6851
▁sykdommen	-10.6852
▁death	-10.6853
lignende	-10.6853
▁tjue	-10.6855
stråle	-10.6855
▁forbudt	-10.6856
▁tjener	-10.6858
▁sjakk	-10.686
▁tilfeldig	-10.6861
▁mobil	-10.6861
fortelling	-10.6861
▁1400	-10.6862
▁1881	-10.6865
▁panser	-10.6865
▁bjar	-10.6867
▁sandnes	-10.6878
strømmen	-10.6885
▁christiania	-10.6885
opera	-10.6887
skikk	-10.6891
kommisjon	-10.6895
▁chang	-10.6897
bakke	-10.6903
▁innerst	-10.6904
▁emil	-10.6908
▁klippe	-10.6916
scene	-10.6945
kanalen	-10.6958
▁rangert	-10.6959
▁låten	-10.6965
▁musikal	-10.6965
kontrakt	-10.6973
preg	-10.6999
▁overleve	-10.7002
▁ventet	-10.7005
økonom	-10.7031
speil	-10.7032
alism	-10.7047
▁straff	-10.7048
▁møtt	-10.7075
skjerm	-10.7083
gjorde	-10.7091
skille	-10.7105
8	-10.7114
▁forfremme	-10.7124
▁innendørs	-10.7124
▁kommandør	-10.7124
▁offensiv	-10.7124
▁venezia	-10.7124
▁thailand	-10.7124
▁mangfold	-10.7124
▁church	-10.7124
komponent	-10.7124
▁rosenborg	-10.7124
▁frigjøring	-10.7124
▁sjeldne	-10.7125
▁umulig	-10.7125
▁batteri	-10.7125
krønike	-10.7125
▁dverg	-10.7125
▁rolf	-10.7125
▁melding	-10.7125
▁mineral	-10.7126
▁operatør	-10.7126
▁flekker	-10.7127
▁annonsert	-10.7127
▁opptrer	-10.7128
vilkår	-10.7129
▁donau	-10.7131
▁biografi	-10.7133
▁interessert	-10.7135
▁knud	-10.7136
▁1879	-10.7138
▁søyle	-10.7139
reisende	-10.714
▁1875	-10.7142
▁ibsen	-10.7142
▁1871	-10.7147
▁halden	-10.7153
▁tenkt	-10.7156
▁blandet	-10.7159
wick	-10.7161
▁fornye	-10.7162
▁utenom	-10.7165
▁verksted	-10.7179
▁trond	-10.7184
▁organism	-10.719
▁solid	-10.7199
head	-10.7206
▁filosofisk	-10.7212
▁nordmenn	-10.7229
▁pont	-10.7233
▁demokrati	-10.7236
▁liber	-10.7247
▁parallell	-10.7258
vunnet	-10.7259
arkitekt	-10.7259
▁erstatte	-10.7273
▁kjemi	-10.7312
slip	-10.7315
▁monarki	-10.7335
▁skinn	-10.735
▁brenne	-10.7351
▁utøve	-10.7376
grunnlaget	-10.7385
fattig	-10.7401
sirk	-10.7402
▁forbinde	-10.7405
kommanderende	-10.741
▁bachelor	-10.741
▁elizabeth	-10.741
▁forgjenger	-10.741
▁matematikk	-10.741
▁science	-10.741
▁society	-10.741
▁virginia	-10.741
▁windows	-10.741
▁kollektiv	-10.741
▁minoritet	-10.741
▁taylor	-10.741
▁komplett	-10.741
▁diameter	-10.741
▁kongeriket	-10.741
▁oppfatning	-10.741
▁senior	-10.741
▁erstatning	-10.7411
▁stengt	-10.7411
▁skrå	-10.7411
▁partner	-10.7411
▁elektronisk	-10.7412
▁verdensrekord	-10.7412
▁metoder	-10.7412
▁samuel	-10.7413
sikring	-10.7413
▁inndelt	-10.7413
mtredende	-10.7414
▁tilhengere	-10.7415
▁vandre	-10.7418
▁stalin	-10.7421
ømt	-10.7421
▁fattige	-10.7422
▁forandre	-10.7425
▁oval	-10.7431
▁nederst	-10.7432
▁1886	-10.7432
sprang	-10.7434
▁1877	-10.7435
nevnte	-10.7437
▁jernbanestasjon	-10.7448
▁morten	-10.7449
▁tvers	-10.7453
▁oberst	-10.7464
utvalget	-10.7466
▁næringsliv	-10.7473
strup	-10.7532
▁tyde	-10.7538
▁muslimsk	-10.755
materiale	-10.7553
hjelp	-10.7553
▁satse	-10.7554
▁burd	-10.7555
vennlig	-10.7556
▁turisme	-10.7591
▁dynasti	-10.7635
▁bekke	-10.7638
▁nedbør	-10.7694
posisjon	-10.77
▁sosialdemokrat	-10.7704
▁artilleri	-10.7704
▁ferskvann	-10.7704
▁kontinuerlig	-10.7704
▁lillehammer	-10.7704
▁maksimal	-10.7704
▁sammenslåing	-10.7704
▁seremoni	-10.7704
▁symptom	-10.7704
▁gjøvik	-10.7704
▁litauen	-10.7704
▁renessanse	-10.7704
▁sicilia	-10.7704
▁russerne	-10.7705
▁verdensarv	-10.7705
▁justis	-10.7705
▁kredit	-10.7705
▁larvik	-10.7705
▁grieg	-10.7706
kostnaden	-10.7706
▁regelmessig	-10.7706
▁telefon	-10.7707
▁samlealbum	-10.7707
▁group	-10.7707
▁sluppe	-10.7707
▁hedmark	-10.7708
▁tvilling	-10.7708
▁hydrogen	-10.7709
▁programleder	-10.7709
▁komedie	-10.7709
▁tillatt	-10.771
▁torino	-10.7712
▁igjennom	-10.7712
▁moderat	-10.7714
▁regiment	-10.7715
▁humor	-10.7716
▁øv	-10.7718
▁1814	-10.772
▁tolke	-10.7721
▁brant	-10.7728
oksid	-10.7729
▁befal	-10.773
stadiet	-10.7731
vassdraget	-10.7748
opplevelse	-10.7754
▁gjennomsnittlig	-10.7762
▁grøn	-10.7807
▁neg	-10.7814
▁forståelse	-10.7819
▁thom	-10.7834
▁kristin	-10.7843
bevisst	-10.7853
funksjon	-10.7856
▁hytte	-10.7888
▁edel	-10.7908
styrt	-10.7922
avisen	-10.7929
myr	-10.793
vatn	-10.7961
▁mau	-10.7987
▁nobel	-10.8002
▁favoritt	-10.8007
▁bataljon	-10.8007
▁leipzig	-10.8007
▁pasienten	-10.8007
▁popularitet	-10.8007
høvding	-10.8007
▁stridsvogn	-10.8007
▁invitert	-10.8007
▁misjonær	-10.8007
▁landskamper	-10.8007
▁massiv	-10.8008
▁biologisk	-10.8008
mouth	-10.8008
▁utmerket	-10.8009
▁relasjon	-10.8009
▁bensin	-10.801
на	-10.801
▁kristelig	-10.8011
▁lidelse	-10.8013
▁profil	-10.8014
▁sykdommer	-10.8015
▁aktør	-10.8015
▁ideologi	-10.8016
▁innebar	-10.8017
▁orgel	-10.802
▁anvende	-10.8025
▁hylle	-10.8025
▁ddr	-10.8031
▁variasjon	-10.8038
konsern	-10.8071
▁ødeleggelse	-10.8072
røve	-10.8103
antenne	-10.8155
produkt	-10.8168
redaktør	-10.8168
▁proto	-10.821
bukten	-10.8241
▁tidspunkt	-10.8251
▁kvit	-10.827
▁dreie	-10.8283
time	-10.8283
▁brødre	-10.8293
▁omdanne	-10.831
strategi	-10.8319
▁napoleon	-10.832
▁asteroide	-10.832
▁cæsar	-10.832
▁heidelberg	-10.832
▁identifisert	-10.832
▁illustrasjon	-10.832
▁inskripsjon	-10.832
▁progressiv	-10.832
▁buskerud	-10.832
▁diagnose	-10.832
▁intervju	-10.832
▁invadert	-10.832
▁utnevnelse	-10.832
▁kronologisk	-10.832
▁tabellen	-10.832
▁ovenfor	-10.832
▁skøyter	-10.832
▁folketallet	-10.832
▁imponer	-10.832
▁gunnar	-10.832
▁kjøretøy	-10.832
dimensjon	-10.832
▁oppfordre	-10.832
▁sammensetning	-10.832
▁dvd	-10.832
▁skjøt	-10.832
▁vakre	-10.8321
nytt	-10.8321
▁prinsesse	-10.8321
▁diesel	-10.8321
▁titler	-10.8321
▁magasinet	-10.8322
▁bakterie	-10.8322
▁kaffe	-10.8323
▁tallrike	-10.8324
▁gjentatt	-10.8324
▁elsker	-10.8325
▁høydepunkt	-10.8325
▁akademisk	-10.8325
▁kvelden	-10.8326
▁lisens	-10.833
▁dagbladet	-10.8332
▁kenya	-10.8335
ière	-10.8337
brigade	-10.8338
▁månen	-10.8338
▁manglen	-10.834
▁nobelpris	-10.8341
7	-10.8346
finansiert	-10.835
▁skjedd	-10.8396
▁strek	-10.8413
▁gjennomføre	-10.8452
aften	-10.8486
europeisk	-10.8491
divisjon	-10.8491
musiker	-10.8496
balanse	-10.8516
historisk	-10.8521
sdatter	-10.8543
▁tidligst	-10.8562
▁ødelegge	-10.8573
vitenskapelige	-10.8576
▁plei	-10.8595
▁opprette	-10.8599
▁inspirasjon	-10.8641
skvadron	-10.8642
▁basketball	-10.8642
▁bryllup	-10.8642
▁gjaldt	-10.8642
▁kvadrat	-10.8642
▁låtskriver	-10.8642
▁millimeter	-10.8642
▁pasienter	-10.8642
▁restaurert	-10.8642
▁stjørdal	-10.8642
▁vedlikehold	-10.8642
▁trommeslager	-10.8642
▁margaret	-10.8642
▁anthon	-10.8642
▁nicola	-10.8642
▁tolkning	-10.8643
statistikk	-10.8643
▁forestillingen	-10.8643
▁gerhard	-10.8644
▁forkortet	-10.8644
thorax	-10.8644
▁innviet	-10.8644
▁fortellinger	-10.8645
▁virkeligheten	-10.8645
▁forlatt	-10.8645
▁bassist	-10.8646
▁senatet	-10.8648
▁analyser	-10.8648
▁tilsammen	-10.8649
▁kommisjonen	-10.865
▁ørken	-10.8652
▁anerkjennelse	-10.8652
▁eiendommer	-10.8653
▁øvelsen	-10.8653
▁folkeparti	-10.8698
▁variert	-10.8735
automat	-10.8774
▁parallel	-10.8818
hovedstad	-10.8824
rekord	-10.8827
næringen	-10.8839
▁undersøke	-10.8951
▁engasjement	-10.8976
▁færøysk	-10.8976
▁innsbruck	-10.8976
▁konsentrert	-10.8976
▁konstitusjon	-10.8976
▁nøytral	-10.8976
▁uttrykt	-10.8976
▁væpne	-10.8976
▁avslørt	-10.8976
▁fundament	-10.8976
▁jersey	-10.8976
▁psykisk	-10.8976
▁bystatus	-10.8976
▁dekkvingene	-10.8976
disiplin	-10.8976
▁amatør	-10.8976
▁bøndene	-10.8976
▁lofoten	-10.8976
▁reglene	-10.8976
▁ferdigstilt	-10.8976
▁skildre	-10.8976
▁kobber	-10.8976
▁seoul	-10.8976
▁ålesund	-10.8976
▁noensinne	-10.8977
▁utpekt	-10.8977
▁svekke	-10.8977
▁fiender	-10.8978
▁filmatiser	-10.8978
▁sannhet	-10.8978
▁majoritet	-10.8978
▁forskjeller	-10.8979
▁forekomst	-10.898
▁tilbrakt	-10.8982
▁spillefilm	-10.8984
▁sirkel	-10.8984
▁nedbørfelt	-10.8987
▁forskjellen	-10.8989
▁befolke	-10.8996
▁klage	-10.9012
▁grend	-10.9024
▁tyve	-10.9118
▁forvaltnings	-10.9157
wei	-10.9165
teknologi	-10.9169
problemer	-10.9169
transport	-10.9169
▁slange	-10.9178
lokale	-10.9195
▁fungere	-10.9215
▁krise	-10.9224
psykologi	-10.9254
kansler	-10.9272
▁absolutt	-10.932
▁atlanterhavet	-10.932
▁beliggenhet	-10.932
▁fiendtlig	-10.932
▁frankfurt	-10.932
▁individuelt	-10.932
▁komplisert	-10.932
▁makedonia	-10.932
▁oksygen	-10.932
▁romerriket	-10.932
▁uppsala	-10.932
▁åpningsseremoni	-10.932
▁alfabet	-10.932
▁opprettholde	-10.932
▁embeds	-10.932
▁oppvoks	-10.932
▁nepal	-10.9321
▁sigurd	-10.9321
leverandør	-10.9321
▁ulovlig	-10.9321
▁fjær	-10.9321
▁apollo	-10.9321
▁eksistens	-10.9321
▁disney	-10.9321
▁stadium	-10.9321
▁sibir	-10.9321
▁pistol	-10.9321
▁fylkeskommune	-10.9322
▁forkortelse	-10.9322
▁regent	-10.9323
▁tørke	-10.9323
▁snorre	-10.9323
▁alpene	-10.9324
▁milano	-10.9325
▁oppfølger	-10.9325
▁overlevert	-10.9326
▁økning	-10.9326
▁senator	-10.9328
▁fremstille	-10.9329
▁montert	-10.9332
siktig	-10.9332
fysik	-10.9345
kveld	-10.9358
work	-10.9421
▁hevn	-10.9448
instrument	-10.9526
▁erobre	-10.9533
ledelse	-10.9559
▁demokrat	-10.9568
klipp	-10.9591
yuan	-10.961
▁apostolisk	-10.9678
▁elektrisitet	-10.9678
▁hollywood	-10.9678
▁lokomotiv	-10.9678
▁microsoft	-10.9678
▁palestinsk	-10.9678
▁plutselig	-10.9678
▁propaganda	-10.9678
▁sarpsborg	-10.9678
▁slalåm	-10.9678
▁tsjekkia	-10.9678
▁ukrainsk	-10.9678
▁uoffisiel	-10.9678
publikasjon	-10.9678
▁hønefoss	-10.9678
▁vinterleker	-10.9678
▁væske	-10.9678
▁kroppsbygning	-10.9678
▁tillatelse	-10.9678
▁fødselsår	-10.9678
▁dekorert	-10.9678
▁protein	-10.9679
▁kristendommen	-10.9679
▁isolert	-10.9679
▁tendens	-10.9679
▁fangst	-10.9679
▁innvalgt	-10.9679
▁betaling	-10.968
▁innflytelsesrik	-10.968
▁stillehavet	-10.9681
▁streik	-10.9681
▁forandring	-10.9681
▁gjenopprette	-10.9682
▁foretatt	-10.9683
sjokk	-10.9685
▁flanke	-10.969
syklus	-10.9693
▁holdning	-10.9693
gui	-10.9694
▁visuel	-10.9696
▁befan	-10.9697
tribune	-10.9702
▁sjanse	-10.9703
kontroll	-10.9734
▁anslå	-10.9756
rennet	-10.9771
fellesskap	-10.978
▁harmoni	-10.9839
▁ytterst	-10.9841
fordeling	-10.9883
premie	-10.9893
provins	-10.9897
▁insekt	-10.9905
lån	-10.9983
▁utforske	-10.9991
spellemannprisen	-11.0048
▁association	-11.0048
▁britannia	-11.0048
▁etiopia	-11.0048
▁kvalifisere	-11.0048
▁skandinavia	-11.0048
▁spitsbergen	-11.0048
▁vellykket	-11.0048
▁ambassade	-11.0048
▁frilufts	-11.0048
▁jomfru	-11.0048
▁kulturminner	-11.0048
▁oppvarming	-11.0048
▁sjælland	-11.0048
▁ferdinand	-11.0048
▁taiwan	-11.0048
▁bolivia	-11.0048
▁utspring	-11.0048
▁theodor	-11.0048
▁protestantisk	-11.0048
▁ordinær	-11.0048
byrået	-11.0048
▁sektor	-11.0048
▁deltakere	-11.0049
▁korrekt	-11.0049
▁underholdning	-11.0049
▁døpt	-11.0049
▁für	-11.0049
▁framstilt	-11.0049
▁abbed	-11.0049
▁varmekraftverk	-11.0049
▁forberede	-11.005
▁langvarig	-11.005
fylling	-11.005
▁embete	-11.005
▁planlegging	-11.0051
▁leilighet	-11.0051
▁blomstre	-11.0052
▁rettssak	-11.0053
▁meyer	-11.0053
▁hardanger	-11.0053
▁forbli	-11.0053
▁pierre	-11.0054
▁metoden	-11.0055
forestillinger	-11.0057
▁bønn	-11.0058
▁tsar	-11.006
▁nøt	-11.0067
▁drøm	-11.0067
kurat	-11.0078
▁avskjed	-11.0143
isjonen	-11.0143
kjenning	-11.0154
▁berømt	-11.0176
▁russe	-11.0188
stemme	-11.0233
▁myndighet	-11.0245
▁schwe	-11.0275
republikk	-11.0278
advokat	-11.028
orkester	-11.0281
kandidat	-11.0281
koloni	-11.0283
utgave	-11.0285
brand	-11.0293
hefte	-11.0338
▁forsvinne	-11.0428
▁football	-11.0433
▁kontrovers	-11.0433
▁meksikansk	-11.0433
▁nøkkel	-11.0433
▁overraskende	-11.0433
▁shackleton	-11.0433
▁shakespeare	-11.0433
▁regulering	-11.0433
▁skjult	-11.0433
▁foreløpig	-11.0433
vurdering	-11.0433
▁midtøsten	-11.0433
▁innehaver	-11.0433
▁kypros	-11.0433
konservator	-11.0433
bransjen	-11.0433
▁dresden	-11.0433
▁arsenal	-11.0433
▁guinea	-11.0433
protokoll	-11.0433
▁lewis	-11.0433
▁særskilt	-11.0434
▁mastergrad	-11.0434
betjent	-11.0434
▁senterpartiet	-11.0434
basseng	-11.0435
kollega	-11.0435
▁moore	-11.0436
▁forsyninger	-11.0436
hausen	-11.0436
▁araber	-11.0436
▁hessen	-11.0438
▁stedsnavn	-11.0442
▁skygge	-11.0442
sendinger	-11.0442
▁pirat	-11.045
udolf	-11.045
▁identisk	-11.0456
▁atlanti	-11.0459
rhein	-11.0478
historiker	-11.051
▁forhandle	-11.0535
▁offisiell	-11.0575
▁muslim	-11.0639
frukt	-11.0681
bispedømme	-11.0681
sentrum	-11.0682
brann	-11.0684
▁offentliggjor	-11.0702
utstyr	-11.072
struksjon	-11.0734
poeng	-11.0754
▁føle	-11.0801
▁doktor	-11.0832
▁psyko	-11.0832
belteasteroide	-11.0833
▁angivelig	-11.0833
▁bekjempe	-11.0833
▁fasettøyne	-11.0833
▁generalmajor	-11.0833
▁identifisere	-11.0833
▁illustrert	-11.0833
▁interessant	-11.0833
▁jugoslavia	-11.0833
▁kroatia	-11.0833
▁mobiltelefon	-11.0833
▁orchestra	-11.0833
▁sykepleie	-11.0833
▁tsjekkisk	-11.0833
▁uteksaminert	-11.0833
▁vancouver	-11.0833
▁wergeland	-11.0833
katastrofe	-11.0833
▁beleiret	-11.0833
▁investor	-11.0833
▁konstantinopel	-11.0833
▁ludwig	-11.0833
▁sympati	-11.0833
▁tilstrekkelig	-11.0833
▁1852	-11.0833
▁flyktninger	-11.0833
▁flaggbærer	-11.0833
▁division	-11.0833
▁identitet	-11.0833
jylland	-11.0833
▁alpinist	-11.0833
▁luksus	-11.0833
▁support	-11.0833
▁autoritet	-11.0833
▁utstrakt	-11.0833
▁regulere	-11.0833
▁statsborger	-11.0833
▁oppfinnelse	-11.0833
▁sandefjord	-11.0833
▁central	-11.0833
▁barnehage	-11.0833
▁haakon	-11.0833
▁tokyo	-11.0834
▁systematisk	-11.0834
▁kullkraftverk	-11.0834
rituale	-11.0835
▁dukker	-11.0835
▁fienden	-11.0836
▁søndr	-11.0836
▁bjerk	-11.0837
▁følt	-11.0837
▁utløst	-11.084
▁down	-11.084
nathan	-11.0865
vietnamesisk	-11.0865
▁cornel	-11.0879
▁antropo	-11.0937
sykling	-11.096
▁vestsid	-11.0966
▁studert	-11.0992
▁koreansk	-11.1058
betinge	-11.1097
kommando	-11.1097
kvalitet	-11.1097
sentral	-11.1098
▁karakteriser	-11.1119
hawk	-11.112
▁vassdrag	-11.1187
erklæring	-11.1249
▁douglas	-11.1249
▁drivstoff	-11.1249
▁evolusjon	-11.1249
▁fjorten	-11.1249
▁glasgow	-11.1249
▁indonesia	-11.1249
▁innvilget	-11.1249
▁keyboard	-11.1249
▁lincoln	-11.1249
▁melbourne	-11.1249
▁normandie	-11.1249
▁skandinavisk	-11.1249
▁varaordfører	-11.1249
▁vladimir	-11.1249
▁hospital	-11.1249
▁kavaleri	-11.1249
▁matematisk	-11.1249
▁utgravninger	-11.1249
▁stabæk	-11.1249
▁vatikan	-11.1249
▁årsjubile	-11.1249
▁kvartfinale	-11.1249
▁holmenkol	-11.1249
▁amundsen	-11.1249
▁hamilton	-11.1249
▁ukentlig	-11.1249
▁fjellkjeden	-11.1249
▁finansiering	-11.1249
▁atlanta	-11.1249
▁charlotte	-11.1249
▁kontrast	-11.1249
▁seminar	-11.1249
▁baseball	-11.1249
▁walisisk	-11.1249
▁imperiet	-11.1249
▁overgrep	-11.125
borough	-11.125
▁henrettelse	-11.125
selskab	-11.125
▁http	-11.125
▁konsesjon	-11.125
▁færre	-11.125
▁utfordre	-11.125
▁søsken	-11.125
▁bemerket	-11.1251
▁omstridt	-11.1251
▁dialog	-11.1251
▁saturn	-11.1251
▁skikkelse	-11.1251
▁harrison	-11.1251
▁innføre	-11.1253
▁fuktig	-11.1255
▁ivareta	-11.1257
▁kunngjor	-11.1261
▁mannsnavn	-11.1268
kommunistpartiet	-11.1314
▁godkjenne	-11.1329
▁jernbanelinj	-11.1384
kvarter	-11.1393
kjører	-11.1411
krem	-11.1507
gruppa	-11.1532
institutt	-11.1532
symbol	-11.1533
ulykke	-11.1534
▁minutt	-11.1542
demonstrasjon	-11.1684
▁academy	-11.1684
▁amazonas	-11.1684
▁belønne	-11.1684
▁buddhisme	-11.1684
▁guddommelig	-11.1684
▁hawaii	-11.1684
▁langrennsløper	-11.1684
▁massachusetts	-11.1684
▁metamorfose	-11.1684
▁prestegjeld	-11.1684
▁pronotum	-11.1684
▁puppestadi	-11.1684
▁respons	-11.1684
▁warszawa	-11.1684
kompetanse	-11.1684
▁anbefalt	-11.1684
▁antiokia	-11.1684
▁colombia	-11.1684
▁diskutert	-11.1684
▁innfødt	-11.1684
▁klassiker	-11.1684
▁kongsvinger	-11.1684
▁landhockey	-11.1684
▁nidaros	-11.1684
▁sjokolade	-11.1684
▁sørkoreansk	-11.1684
▁alminnelig	-11.1684
▁besittelse	-11.1684
▁democra	-11.1684
▁königs	-11.1684
▁libanon	-11.1684
▁clinton	-11.1684
▁ntnu	-11.1684
▁regulert	-11.1684
▁grekerne	-11.1684
▁forsterket	-11.1684
▁liknende	-11.1685
▁normannisk	-11.1685
▁undertegnet	-11.1685
▁monroe	-11.1685
▁betingelse	-11.1685
▁josé	-11.1686
nfeksjon	-11.1687
føtter	-11.1687
▁etterlatt	-11.1687
▁olaf	-11.1687
▁profet	-11.1689
▁havneby	-11.1693
▁advent	-11.1694
▁planlegge	-11.1697
schaft	-11.1699
▁manuel	-11.1706
feiring	-11.1734
▁rikdom	-11.1763
flytting	-11.1778
▁begynt	-11.1882
stabilitet	-11.191
forstyrrelse	-11.1946
▁barokk	-11.1954
tradisjon	-11.1987
blå	-11.1991
▁journal	-11.2047
▁republika	-11.2084
konservativ	-11.2134
▁konsentrasjon	-11.2137
▁narkotika	-11.2139
▁palestina	-11.2139
▁spanjol	-11.2139
▁aluminium	-11.2139
▁bysantinsk	-11.2139
▁championship	-11.2139
▁depresjon	-11.2139
▁ektefelle	-11.2139
▁gjengjeld	-11.2139
▁kennedy	-11.2139
▁malaysia	-11.2139
▁obligatorisk	-11.2139
▁omdøpt	-11.2139
▁pyramide	-11.2139
▁skøyteløper	-11.2139
▁territorium	-11.2139
▁tsjekkoslovakia	-11.2139
▁vampyr	-11.2139
▁volleyball	-11.2139
▁innrømme	-11.2139
▁selvbiografi	-11.2139
▁gabriel	-11.2139
▁anvendt	-11.2139
▁forberedt	-11.2139
▁jupiter	-11.2139
▁double	-11.2139
▁bebodd	-11.2139
▁frogner	-11.2139
▁samvelde	-11.2139
▁tilnærme	-11.2139
▁triumf	-11.2139
▁deltakerne	-11.2139
▁rhodes	-11.2139
▁frimurer	-11.2139
▁halvkule	-11.2139
▁østersjøen	-11.2139
▁vegetasjon	-11.2139
▁fangenskap	-11.2139
▁kombinere	-11.2139
▁asyl	-11.214
▁armenia	-11.214
▁stefan	-11.214
▁nigeria	-11.214
▁gjenoppbygge	-11.214
▁rakett	-11.2141
mønstre	-11.2141
▁plukke	-11.2143
populasjon	-11.2144
sykdom	-11.2156
indianerne	-11.2168
▁republikansk	-11.2193
▁pumpe	-11.2335
kommunikasjon	-11.2463
interesse	-11.2464
▁eksemplar	-11.2471
fabrik	-11.2535
▁bekymring	-11.2615
▁ekspansjon	-11.2615
▁etterspørsel	-11.2615
▁innkjøp	-11.2615
▁kjønnsmodne	-11.2615
▁köln	-11.2615
▁michigan	-11.2615
▁modifisert	-11.2615
▁newcastle	-11.2615
▁rasmussen	-11.2615
▁skihopper	-11.2615
▁skroget	-11.2615
▁stortingsvalge	-11.2615
▁universität	-11.2615
▁vellykkede	-11.2615
▁westfalen	-11.2615
▁billboard	-11.2615
▁champion	-11.2615
▁geometri	-11.2615
▁minnesota	-11.2615
▁teoretisk	-11.2615
potensial	-11.2615
▁forræder	-11.2615
▁gerilja	-11.2615
▁operativsystem	-11.2615
▁innstifte	-11.2615
▁primitiv	-11.2615
▁katarina	-11.2615
skjelettet	-11.2615
▁sogneprest	-11.2615
▁essay	-11.2615
▁etiopisk	-11.2615
▁veksel	-11.2615
▁giovann	-11.2615
▁herrelandslag	-11.2615
▁annektert	-11.2615
▁presidentvalget	-11.2615
▁trykt	-11.2615
platået	-11.2615
▁prince	-11.2615
▁sivilisasjon	-11.2615
▁kortvarig	-11.2615
▁animasjon	-11.2615
▁benedikt	-11.2615
▁skuffe	-11.2615
▁fantasi	-11.2615
▁valdres	-11.2615
▁tempo	-11.2615
følsom	-11.2615
▁geologisk	-11.2615
▁finansiere	-11.2616
▁rumensk	-11.2616
▁manglet	-11.2616
▁temple	-11.2617
reservat	-11.2619
▁lovgive	-11.262
▁presentere	-11.262
▁fullføre	-11.2634
bevegelse	-11.2749
pengene	-11.2821
politi	-11.2835
▁alliert	-11.2843
▁dobbel	-11.2873
▁database	-11.2933
spørsmål	-11.2963
størrelse	-11.2963
biskop	-11.2964
artikkel	-11.3056
▁diplom	-11.3097
perspektiv	-11.3115
▁assosiert	-11.3115
▁buddhist	-11.3115
▁forvandling	-11.3115
▁generalguvernør	-11.3115
