<unk>	0
<s>	0
</s>	0
.	-3.12469
s	-3.31987
e	-3.54779
▁	-3.75624
t	-3.96131
er	-4.05555
en	-4.09272
▁i	-4.11332
▁og	-4.15785
▁er	-4.59897
r	-4.61296
n	-4.82809
▁av	-4.85415
a	-4.98923
et	-5.00169
▁en	-5.11469
▁for	-5.11978
▁som	-5.27447
▁til	-5.29013
▁på	-5.36667
▁med	-5.36676
d	-5.38777
i	-5.41899
▁var	-5.53413
o	-5.57929
k	-5.60241
▁de	-5.60244
▁den	-5.67548
y	-5.70955
ene	-5.71025
ne	-5.75334
▁fra	-5.78492
▁har	-5.7992
▁ble	-5.83622
g	-5.88543
m	-5.97806
▁et	-5.98295
▁det	-5.99373
te	-6.04046
l	-6.18032
f	-6.2
▁han	-6.23293
p	-6.23573
de	-6.2483
v	-6.26057
▁s	-6.27087
in	-6.28238
us	-6.3117
▁ved	-6.31601
▁å	-6.32492
h	-6.33966
c	-6.3667
re	-6.36862
ing	-6.38421
▁også	-6.39438
an	-6.39878
u	-6.39909
b	-6.44108
es	-6.44511
▁eller	-6.50282
al	-6.51393
na	-6.51625
▁ut	-6.52565
▁under	-6.54151
le	-6.55281
▁be	-6.5884
is	-6.59337
▁kan	-6.59772
▁a	-6.59973
▁to	-6.60254
▁p	-6.60866
▁om	-6.65091
z	-6.67638
ar	-6.70933
on	-6.70956
▁etter	-6.72386
▁over	-6.73241
▁the	-6.77367
▁m	-6.78288
▁opp	-6.78539
ia	-6.79615
▁inn	-6.8349
ri	-6.85673
▁at	-6.85858
▁f	-6.86461
ende	-6.8832
▁g	-6.88365
j	-6.88528
ter	-6.88895
▁18	-6.90286
ta	-6.91209
sk	-6.92961
ma	-6.93009
ch	-6.93072
w	-6.9357
▁da	-6.93971
um	-6.94481
▁b	-6.95269
▁d	-6.96945
▁andre	-6.9938
▁u	-6.99893
▁c	-7.01232
▁an	-7.01855
la	-7.03271
land	-7.04173
ck	-7.0493
ur	-7.05408
▁ligger	-7.06666
▁h	-7.06676
▁al	-7.07768
▁la	-7.07824
ra	-7.08392
or	-7.08569
ke	-7.08759
x	-7.09747
isk	-7.10356
ens	-7.10486
▁men	-7.10641
li	-7.11848
el	-7.12783
▁mot	-7.14159
ng	-7.14779
▁re	-7.15459
lig	-7.16074
ver	-7.17003
▁k	-7.17099
▁tre	-7.19174
ga	-7.20271
▁sin	-7.20308
▁se	-7.20826
▁in	-7.20909
▁l	-7.21972
▁mellom	-7.235
da	-7.24363
▁hans	-7.24768
▁hadde	-7.24984
▁ha	-7.25124
é	-7.25843
▁blant	-7.2596
ka	-7.26349
at	-7.26483
▁seg	-7.27025
di	-7.27278
2	-7.28182
ge	-7.28316
ig	-7.28971
os	-7.3005
▁ro	-7.31126
ve	-7.31656
be	-7.3251
as	-7.32544
il	-7.3275
▁of	-7.33476
iske	-7.33497
▁man	-7.34166
ff	-7.34714
der	-7.35138
▁her	-7.35418
nes	-7.35424
ler	-7.35553
▁li	-7.35857
for	-7.3632
kk	-7.3738
stad	-7.38284
ut	-7.38357
▁hoved	-7.38573
▁gjennom	-7.38945
ning	-7.39121
mi	-7.39427
▁bo	-7.39806
▁ca	-7.40212
▁ra	-7.41282
ja	-7.41796
ger	-7.4204
bo	-7.42205
▁nord	-7.42304
▁le	-7.42946
ske	-7.42981
1	-7.43064
ro	-7.43162
▁ikke	-7.43984
ba	-7.44076
ce	-7.44205
dal	-7.44275
▁n	-7.44326
nde	-7.44813
▁dette	-7.44856
▁født	-7.45158
lo	-7.45331
den	-7.45644
øy	-7.45664
▁j	-7.46125
▁di	-7.46437
9	-7.46439
▁1	-7.46712
ad	-7.46982
ry	-7.47059
kt	-7.47341
lige	-7.48865
▁st	-7.48933
▁co	-7.49071
▁v	-7.4929
▁5	-7.4935
▁17	-7.50454
ul	-7.50801
7	-7.51153
man	-7.51239
▁hun	-7.51692
to	-7.51802
▁der	-7.52076
son	-7.52734
4	-7.52777
▁and	-7.53758
▁ni	-7.54286
▁flere	-7.55177
ton	-7.55313
▁o	-7.55909
id	-7.56088
▁t	-7.56509
▁sammen	-7.5715
▁no	-7.57861
á	-7.58032
ner	-7.58324
ker	-7.58504
▁2	-7.59704
▁by	-7.59748
▁første	-7.59754
▁vi	-7.60035
co	-7.6132
ster	-7.61874
▁sa	-7.62137
▁kon	-7.62354
▁3	-7.62553
▁fikk	-7.62912
▁na	-7.63201
ør	-7.63459
▁kom	-7.63672
▁w	-7.6372
▁denne	-7.63753
berg	-7.63809
ic	-7.64217
▁he	-7.64499
▁as	-7.64501
th	-7.64562
ko	-7.64705
mo	-7.6474
erte	-7.64783
▁stor	-7.64792
▁po	-7.65104
▁do	-7.65336
▁kinesisk	-7.65842
ha	-7.65921
ed	-7.6611
gen	-7.6667
▁du	-7.66672
me	-7.66797
å	-7.66994
▁ny	-7.67768
ol	-7.6809
▁bar	-7.68467
▁ga	-7.68535
it	-7.69052
▁16	-7.69299
æ	-7.69468
▁pa	-7.70266
▁per	-7.70294
▁sp	-7.70369
▁ri	-7.70467
▁lo	-7.70512
▁ti	-7.7065
▁alle	-7.70863
ling	-7.7156
vi	-7.72093
by	-7.72686
bu	-7.73061
▁r	-7.73103
▁mar	-7.73784
3	-7.74812
▁mo	-7.74902
▁pi	-7.75639
ist	-7.76121
▁blir	-7.76417
▁sch	-7.7669
▁ma	-7.77066
▁disse	-7.77905
vis	-7.77911
pe	-7.78698
ll	-7.79337
var	-7.79441
▁4	-7.79625
▁si	-7.79771
▁15	-7.80004
bi	-7.80313
mer	-7.80529
mann	-7.80826
▁ho	-7.80926
ell	-7.81393
▁annet	-7.81832
un	-7.81836
asjon	-7.81984
▁tidligere	-7.82113
▁sør	-7.82361
▁ba	-7.82701
▁fa	-7.82805
ir	-7.82956
▁gu	-7.83056
vik	-7.8318
▁kommune	-7.83259
ov	-7.84183
ang	-7.84246
ø	-7.84256
▁ko	-7.84747
▁ta	-7.84839
tal	-7.85173
▁fri	-7.85215
▁or	-7.85224
▁su	-7.85298
8	-7.85318
▁bi	-7.85999
▁ka	-7.86474
▁samt	-7.86733
6	-7.8692
▁del	-7.87174
▁bu	-7.87901
gi	-7.88962
ment	-7.89061
▁10	-7.89246
▁jo	-7.89588
ær	-7.89742
5	-7.89834
no	-7.90176
▁navnet	-7.902
io	-7.90322
erne	-7.90566
do	-7.90683
je	-7.90904
▁øst	-7.91022
ns	-7.91641
mp	-7.91705
▁8	-7.91842
ion	-7.91914
va	-7.91957
ly	-7.91964
▁7	-7.92068
▁mens	-7.92256
ti	-7.92327
im	-7.92355
nd	-7.92817
het	-7.92875
ant	-7.93139
ho	-7.93241
▁kalles	-7.93261
po	-7.93362
år	-7.93942
ina	-7.94686
▁te	-7.94803
▁mor	-7.95262
ie	-7.95306
▁am	-7.9554
▁byen	-7.95657
▁me	-7.95886
▁pro	-7.95889
au	-7.95941
ok	-7.96022
go	-7.96556
▁ru	-7.96762
si	-7.96841
ci	-7.97051
▁vest	-7.97125
▁kalt	-7.97128
▁mer	-7.9722
ca	-7.97688
men	-7.97709
hu	-7.98199
am	-7.98222
▁norsk	-7.98364
tor	-7.98528
itt	-7.9869
▁finnes	-7.98967
sta	-7.99151
▁lag	-7.99531
pa	-7.99659
tra	-7.99789
tter	-7.99941
vin	-8.00014
▁tor	-8.00081
▁va	-8.00091
om	-8.00131
ö	-8.00572
▁år	-8.0066
else	-8.00821
▁ned	-8.00955
lin	-8.00989
ian	-8.01236
ven	-8.01354
ier	-8.01404
▁sitt	-8.01549
▁mange	-8.01653
▁ja	-8.01655
ard	-8.02101
▁el	-8.0234
▁så	-8.02911
ste	-8.03022
op	-8.03022
ä	-8.03113
▁con	-8.03188
ik	-8.03217
ken	-8.03481
▁14	-8.03904
tu	-8.03986
lag	-8.04088
▁far	-8.0481
▁ofte	-8.05547
skap	-8.05576
▁6	-8.05923
▁dag	-8.06012
yl	-8.06146
ot	-8.06154
▁går	-8.06367
▁lu	-8.06476
▁hvor	-8.0679
▁bestå	-8.0693
elle	-8.0695
gu	-8.07316
▁car	-8.07325
▁navn	-8.07328
ud	-8.07904
▁so	-8.08281
ong	-8.08332
▁før	-8.08524
ni	-8.09046
▁fly	-8.09171
▁12	-8.09179
▁go	-8.09227
▁nå	-8.09228
▁død	-8.09508
▁13	-8.0956
▁9	-8.09774
sh	-8.0993
len	-8.10426
▁sol	-8.10459
rett	-8.10474
▁ar	-8.11292
▁bak	-8.11313
▁vil	-8.11622
sjon	-8.1208
ber	-8.1215
▁tilhører	-8.12312
od	-8.12401
del	-8.12416
ag	-8.1243
per	-8.12481
▁skal	-8.12667
▁store	-8.12702
▁tid	-8.13148
bar	-8.13157
ium	-8.13186
▁være	-8.13191
▁senere	-8.13411
▁ne	-8.13512
mb	-8.13579
ring	-8.13624
gg	-8.14263
▁ab	-8.1441
▁land	-8.14446
▁sam	-8.14828
▁frem	-8.14845
▁min	-8.15124
▁hu	-8.15286
▁mest	-8.15338
und	-8.15377
▁gi	-8.15809
idae	-8.16009
pp	-8.16187
▁hos	-8.16408
▁all	-8.16603
ung	-8.16688
▁fire	-8.16738
▁russisk	-8.16825
sel	-8.17525
ering	-8.17921
▁x	-8.18346
lu	-8.18518
▁tri	-8.18669
▁y	-8.18732
fa	-8.19323
ü	-8.19605
over	-8.19638
▁vann	-8.19913
▁0	-8.19985
sted	-8.20441
av	-8.20898
▁ad	-8.21287
ny	-8.21383
pi	-8.21448
▁slik	-8.21636
▁bra	-8.2166
▁noen	-8.21845
dre	-8.21944
▁ski	-8.22248
ede	-8.22703
inyin	-8.22734
ó	-8.22894
▁wi	-8.23222
0	-8.2323
▁ch	-8.23246
▁ei	-8.23445
▁spilt	-8.23562
▁innehold	-8.2374
▁sk	-8.23756
hold	-8.24031
ld	-8.24493
▁pe	-8.24657
ak	-8.24981
ou	-8.25178
▁san	-8.25564
▁sønn	-8.25605
verk	-8.25729
▁fi	-8.25762
í	-8.26153
ation	-8.26183
▁mål	-8.26702
▁mi	-8.26919
▁ju	-8.26937
▁største	-8.2701
▁skole	-8.27104
▁hav	-8.27695
▁11	-8.27763
▁john	-8.28161
gang	-8.28325
les	-8.28531
▁tra	-8.29108
min	-8.29316
ingen	-8.29465
▁kjent	-8.29657
▁rundt	-8.29968
fe	-8.30216
▁lever	-8.30337
▁folke	-8.30361
▁kirke	-8.30634
▁hel	-8.30642
bb	-8.308
ku	-8.31182
▁sal	-8.31397
▁syn	-8.31399
ac	-8.31517
kke	-8.31776
hus	-8.32078
▁hen	-8.32245
▁sine	-8.32278
▁lang	-8.32407
tur	-8.32458
stein	-8.3249
bel	-8.32694
ica	-8.32877
gikk	-8.33027
▁musikk	-8.33059
du	-8.33326
ley	-8.33721
følge	-8.34157
mar	-8.34257
ine	-8.34314
familien	-8.34413
▁selv	-8.34526
▁nor	-8.34669
ft	-8.34679
he	-8.34777
ya	-8.34875
ow	-8.35164
opp	-8.35274
ting	-8.35454
hi	-8.35583
ren	-8.3564
▁innen	-8.35661
▁både	-8.35739
▁val	-8.35778
▁ku	-8.35853
▁tro	-8.35987
ord	-8.36149
▁ki	-8.36498
▁col	-8.36541
za	-8.36677
▁kar	-8.37347
▁kina	-8.37429
▁sand	-8.37779
▁grunn	-8.37836
sson	-8.38164
▁ur	-8.38563
▁ham	-8.38602
tak	-8.38607
▁nær	-8.38835
sten	-8.39121
▁leder	-8.39248
tid	-8.39804
ikk	-8.39987
ius	-8.40004
▁langs	-8.40703
ki	-8.40849
▁engelsk	-8.40991
▁omfatter	-8.41199
sti	-8.41216
▁ol	-8.41484
▁mai	-8.41567
▁siden	-8.41905
▁vant	-8.4191
tre	-8.41987
iv	-8.42062
▁op	-8.4216
▁ge	-8.42314
▁fram	-8.42365
tar	-8.42436
ans	-8.42481
а	-8.42524
▁laget	-8.43003
mor	-8.43138
и	-8.43207
▁kunst	-8.43354
ningen	-8.43851
ksjon	-8.44123
▁20	-8.44327
▁film	-8.44422
▁ben	-8.4454
gel	-8.45019
▁familien	-8.45055
▁alt	-8.45112
dag	-8.45428
mon	-8.45886
jo	-8.46104
▁provinsen	-8.46252
▁hus	-8.46428
ron	-8.46442
▁art	-8.46511
▁små	-8.46539
nings	-8.46757
▁mars	-8.47094
▁pre	-8.47339
ā	-8.47751
▁z	-8.48105
▁ag	-8.48172
▁berg	-8.48315
▁fjell	-8.4846
▁sta	-8.48478
▁fo	-8.48546
let	-8.48687
▁gir	-8.48903
itet	-8.48941
▁eks	-8.48985
wa	-8.4899
▁bro	-8.49138
▁kommer	-8.49224
par	-8.4934
siden	-8.49536
▁tu	-8.49599
▁må	-8.49643
inn	-8.49659
▁tv	-8.49676
tan	-8.4969
▁my	-8.49817
▁ke	-8.49866
▁mat	-8.50318
▁vært	-8.50439
▁gift	-8.50497
▁par	-8.50611
ighet	-8.50627
▁verdens	-8.50672
▁bru	-8.50846
fly	-8.51043
tten	-8.5134
▁wa	-8.51429
▁cha	-8.51515
ator	-8.51579
▁norske	-8.51759
▁ste	-8.51821
ill	-8.5191
▁pan	-8.51932
▁chi	-8.52053
▁new	-8.52069
▁juli	-8.52131
▁norge	-8.52181
▁når	-8.52275
sp	-8.52434
▁fem	-8.52521
tisk	-8.52581
kker	-8.52597
▁dr	-8.52836
▁mel	-8.52879
▁spiller	-8.53064
▁sv	-8.53139
dalen	-8.53319
em	-8.53367
▁følgende	-8.53371
▁on	-8.53392
folkerepublikken	-8.5361
▁km	-8.53623
▁området	-8.53816
▁betyr	-8.53844
kel	-8.53937
ug	-8.54029
burg	-8.54053
▁gjen	-8.5436
art	-8.54401
sch	-8.54428
▁kultur	-8.54449
lse	-8.54574
▁gul	-8.54701
▁gruppen	-8.54719
lands	-8.54786
▁mal	-8.54846
▁august	-8.54889
▁th	-8.5492
▁fast	-8.54931
▁hele	-8.55023
ige	-8.55036
▁stein	-8.55086
dd	-8.55115
▁kal	-8.55524
▁kjente	-8.55526
ran	-8.55557
▁mu	-8.5558
▁2002	-8.55678
ham	-8.55894
▁videre	-8.55956
▁parti	-8.56421
▁kor	-8.56713
▁sjø	-8.56844
▁rett	-8.56964
▁roman	-8.56972
▁kv	-8.57102
bre	-8.57129
▁brun	-8.57335
ty	-8.57441
tte	-8.57506
ji	-8.57741
▁skrev	-8.57869
▁ed	-8.57973
ana	-8.58053
▁kong	-8.58188
▁kr	-8.58326
▁samme	-8.58428
chi	-8.58728
ino	-8.58793
che	-8.59033
▁folketelling	-8.59095
dy	-8.59176
som	-8.59319
▁språk	-8.59522
ab	-8.59762
til	-8.60056
▁midt	-8.60262
borg	-8.60676
heim	-8.6093
▁høy	-8.61019
▁von	-8.61072
ps	-8.61138
▁fe	-8.61158
▁jan	-8.61181
▁enn	-8.61318
▁sh	-8.61408
är	-8.61542
uk	-8.61554
▁vel	-8.6175
ding	-8.61815
▁blit	-8.61816
▁fu	-8.61843
tiv	-8.61906
red	-8.61978
▁kommunen	-8.62138
mme	-8.62279
inger	-8.62391
▁like	-8.62423
rø	-8.62614
▁brukes	-8.62622
е	-8.63324
▁jord	-8.63357
▁com	-8.63442
ninger	-8.63607
ek	-8.64312
▁hol	-8.64343
ph	-8.64405
ska	-8.64444
ju	-8.64453
▁vin	-8.64665
far	-8.64679
▁bil	-8.64695
kon	-8.64702
form	-8.64867
tikk	-8.64869
ich	-8.65058
▁pla	-8.65085
▁fag	-8.65096
▁pu	-8.65397
tion	-8.65482
ris	-8.65501
▁oslo	-8.65838
ip	-8.65902
▁vei	-8.6602
▁ty	-8.66061
▁moh	-8.66108
løp	-8.66133
ru	-8.66156
mål	-8.66854
▁van	-8.6696
og	-8.67082
zi	-8.67227
▁øy	-8.67521
▁innenfor	-8.67588
▁rekke	-8.67987
▁2010	-8.68114
yn	-8.68302
▁ord	-8.68405
vo	-8.68416
▁bre	-8.68501
▁gresk	-8.68522
tiske	-8.68599
dom	-8.68738
▁tok	-8.68768
met	-8.68772
fi	-8.68785
▁kn	-8.68931
stand	-8.68933
▁rom	-8.69054
▁grav	-8.69203
kor	-8.69281
▁deres	-8.6965
res	-8.69851
▁amerikansk	-8.69937
kar	-8.69976
tin	-8.7002
▁tur	-8.70185
øl	-8.70209
kan	-8.70221
▁lys	-8.70245
▁gra	-8.70277
ski	-8.7049
▁bok	-8.70693
▁af	-8.70735
т	-8.70755
val	-8.71004
stre	-8.71028
▁paul	-8.71306
▁ver	-8.71362
▁kunne	-8.71369
est	-8.71713
▁rød	-8.7182
ket	-8.71887
▁skog	-8.71922
▁pri	-8.71927
▁pr	-8.72033
hr	-8.72131
о	-8.7226
vet	-8.72507
▁bruk	-8.72568
▁sommerfugl	-8.72603
fra	-8.7262
▁vo	-8.72747
▁os	-8.72929
dyr	-8.7298
▁selskapet	-8.73019
ah	-8.73191
slag	-8.73305
br	-8.73349
net	-8.73436
▁cor	-8.73487
ú	-8.73508
▁ø	-8.73785
bro	-8.73831
▁norges	-8.73833
▁au	-8.73981
vei	-8.74016
▁can	-8.7414
▁fin	-8.74253
▁ve	-8.74266
▁heter	-8.74309
▁ulike	-8.74316
ologi	-8.74319
▁bl	-8.74435
▁kur	-8.74492
cu	-8.74797
isme	-8.74806
ide	-8.74812
ap	-8.74989
ppe	-8.75015
▁2008	-8.75429
▁dem	-8.75487
▁nasjonal	-8.75597
iker	-8.75673
▁bor	-8.75759
▁ry	-8.75985
▁landet	-8.76021
▁farge	-8.76047
vel	-8.76116
tes	-8.7629
▁skulle	-8.7634
▁uten	-8.76404
▁kort	-8.76474
up	-8.76522
▁barn	-8.76632
▁tallet	-8.76642
▁sen	-8.76732
▁står	-8.77132
▁ci	-8.77145
è	-8.77204
xi	-8.77275
and	-8.77291
▁red	-8.77303
laget	-8.77382
senter	-8.77385
▁begge	-8.7743
▁kl	-8.77496
▁dy	-8.77653
▁dra	-8.77678
▁nye	-8.77716
▁sø	-8.7774
▁radio	-8.77925
bil	-8.7795
▁tillegg	-8.78078
▁hver	-8.78244
øya	-8.78264
ari	-8.78425
▁gar	-8.78448
▁tysk	-8.78489
▁juni	-8.78549
▁form	-8.78591
▁natur	-8.78666
▁tar	-8.78831
▁em	-8.78947
ika	-8.78953
▁tal	-8.79015
▁bal	-8.791
▁hennes	-8.79192
▁vise	-8.79234
tz	-8.79389
▁gud	-8.79518
satt	-8.79543
q	-8.79722
bok	-8.7977
pper	-8.79779
▁motor	-8.79791
pen	-8.79813
tro	-8.80016
mu	-8.80046
▁we	-8.80075
50	-8.80139
bin	-8.80197
▁bare	-8.8043
veien	-8.80491
▁anti	-8.80582
▁bruker	-8.80634
▁general	-8.80908
▁2006	-8.80949
▁bjørn	-8.81148
▁mag	-8.81149
▁br	-8.81335
▁utgitt	-8.81343
▁ex	-8.81343
rin	-8.81433
lan	-8.8146
▁ren	-8.8151
ving	-8.81687
mmer	-8.81717
▁30	-8.81934
stil	-8.81985
bruk	-8.82079
▁peter	-8.82137
ze	-8.82252
sto	-8.82373
▁gull	-8.8245
▁president	-8.82511
kom	-8.82536
▁rø	-8.82547
rik	-8.82553
mel	-8.82573
ct	-8.82595
mark	-8.82649
▁liv	-8.82778
gh	-8.82828
▁støtte	-8.82934
▁2007	-8.82945
kle	-8.83141
▁skrevet	-8.83193
▁januar	-8.83272
ach	-8.83307
så	-8.83323
▁verk	-8.83367
han	-8.8337
▁pol	-8.83501
▁orden	-8.83544
tel	-8.83684
▁sel	-8.83694
▁seks	-8.83734
ola	-8.83923
▁tom	-8.83929
▁liste	-8.83951
pro	-8.83951
▁kun	-8.83958
▁tilbake	-8.83966
sj	-8.84064
▁ban	-8.84092
eres	-8.84103
▁halv	-8.84145
▁jeg	-8.84277
▁hal	-8.84322
▁gjerne	-8.84434
ønn	-8.84455
mal	-8.84494
▁sosial	-8.84651
▁besto	-8.84744
▁via	-8.84749
▁nu	-8.84756
▁mont	-8.84867
▁inter	-8.8491
spill	-8.84921
system	-8.85046
▁gen	-8.85259
ida	-8.85413
van	-8.85433
▁gamle	-8.85445
▁je	-8.85496
▁sc	-8.8565
anlegg	-8.85933
▁kinas	-8.86015
fjord	-8.86024
▁2005	-8.86102
▁døde	-8.86139
sky	-8.8618
▁mark	-8.86264
pre	-8.86415
▁sha	-8.8647
rud	-8.86584
▁lå	-8.86628
leder	-8.86838
ice	-8.87167
ini	-8.87226
▁fred	-8.87332
ara	-8.87505
rom	-8.87521
▁tekst	-8.87574
gar	-8.87589
▁bli	-8.87602
▁ji	-8.87701
▁eksempel	-8.87775
р	-8.87795
▁band	-8.88073
mat	-8.882
▁christian	-8.88277
anger	-8.88448
▁fil	-8.88496
▁sig	-8.88629
▁god	-8.88681
▁mon	-8.88772
legg	-8.88822
▁dikt	-8.88872
▁imidlertid	-8.88897
stat	-8.8907
▁noe	-8.89097
▁konge	-8.89138
▁arm	-8.89215
mester	-8.89296
▁hø	-8.89318
ð	-8.89623
▁forskjellige	-8.89631
ale	-8.89642
▁mindre	-8.89684
skog	-8.89735
▁slutt	-8.90011
án	-8.90064
ita	-8.90071
▁blå	-8.90092
▁lokal	-8.90109
▁arbeids	-8.9012
▁stat	-8.90138
▁24	-8.90302
ål	-8.9048
ller	-8.90502
lia	-8.90681
elig	-8.90821
iet	-8.90868
▁startet	-8.9087
▁egen	-8.90982
we	-8.91041
if	-8.91314
enes	-8.9146
▁25	-8.91469
▁2009	-8.91478
ble	-8.91492
▁robert	-8.91546
▁lav	-8.91782
▁bur	-8.91848
▁deretter	-8.91903
ay	-8.92049
elsen	-8.92076
▁ber	-8.92196
▁post	-8.92249
mm	-8.92353
▁datter	-8.92473
▁gro	-8.92498
gre	-8.92537
▁siste	-8.92592
▁sl	-8.92877
à	-8.93055
▁sak	-8.93064
▁bas	-8.9316
ep	-8.93252
▁meter	-8.93254
▁mil	-8.93321
▁stats	-8.9333
▁særlig	-8.93379
▁za	-8.93395
rak	-8.9356
▁lyd	-8.93617
stra	-8.93708
ros	-8.93769
▁ly	-8.93884
gge	-8.93992
▁innbyggere	-8.94093
▁vis	-8.94143
20	-8.94182
▁mc	-8.94223
▁kron	-8.94281
kul	-8.94467
lø	-8.94467
▁representert	-8.94475
▁gri	-8.94498
vern	-8.94649
▁tak	-8.94682
▁mari	-8.94705
▁svær	-8.94784
▁innbyggertall	-8.94858
▁operatør	-8.94859
▁ser	-8.94889
ão	-8.94926
▁kra	-8.95178
▁erik	-8.95183
▁desember	-8.95243
▁ya	-8.95434
▁bør	-8.95467
▁filmen	-8.95487
ani	-8.9555
▁sentral	-8.95585
ix	-8.95673
▁park	-8.95768
▁basert	-8.9602
▁industri	-8.9602
syn	-8.96026
asjonen	-8.96048
▁riks	-8.96165
ære	-8.96295
fjorden	-8.96389
▁mod	-8.96482
fri	-8.96853
samling	-8.96946
▁000	-8.96972
▁februar	-8.97188
▁dan	-8.97213
▁fiske	-8.97265
▁barne	-8.97269
kal	-8.97325
80	-8.97568
α	-8.97582
▁vanligvis	-8.97609
▁ac	-8.97655
jer	-8.97684
lot	-8.97769
▁hår	-8.97829
mus	-8.97853
bl	-8.97898
fall	-8.97901
▁mus	-8.9796
▁wo	-8.98023
▁inkluderer	-8.98072
port	-8.98307
▁gre	-8.9833
▁distrikt	-8.98368
▁mac	-8.98417
▁21	-8.9847
▁ingen	-8.98628
hl	-8.98747
tic	-8.98754
lsen	-8.98835
▁kat	-8.98889
▁kvinne	-8.98899
▁ky	-8.98916
▁lind	-8.99031
▁fotball	-8.99056
pu	-8.99069
▁carl	-8.99129
▁samtidig	-8.99173
▁gammel	-8.99224
▁kla	-8.99574
▁dis	-8.99671
▁data	-8.99691
bygg	-8.99773
▁side	-8.99836
▁grå	-8.99881
asje	-9.00009
sund	-9.00024
▁fylke	-9.00139
navn	-9.00146
ub	-9.0016
▁usa	-9.0019
▁kamp	-9.00219
▁lø	-9.00299
▁september	-9.00382
▁q	-9.0052
▁sto	-9.00523
rum	-9.00632
leg	-9.00643
erende	-9.00693
pningsseremonien	-9.00789
▁flaggbærer	-9.00789
▁shi	-9.0079
cy	-9.0079
vann	-9.00793
▁2011	-9.00802
råd	-9.00869
isert	-9.00903
nu	-9.00911
ight	-9.00956
log	-9.00959
▁viser	-9.01096
dig	-9.01108
que	-9.01218
▁dermed	-9.01253
▁dagen	-9.01279
▁sj	-9.01339
ttet	-9.01362
▁gang	-9.01368
▁lands	-9.01373
▁kje	-9.01541
▁følger	-9.01593
▁rev	-9.01667
lie	-9.0195
derfor	-9.02163
▁spor	-9.02338
▁viktigst	-9.02359
bygd	-9.02387
▁not	-9.02411
▁sil	-9.02431
▁militær	-9.02431
▁tradisjonell	-9.02487
isering	-9.02501
▁sm	-9.02501
▁maria	-9.02592
tsj	-9.02639
▁regi	-9.02761
led	-9.02787
▁liten	-9.02791
▁fant	-9.02822
ban	-9.0294
banen	-9.02982
iz	-9.02991
▁krist	-9.03024
før	-9.03057
▁eu	-9.03063
▁jernbane	-9.03229
selskap	-9.03316
▁och	-9.0346
landet	-9.03664
figur	-9.03737
▁medlem	-9.03829
▁blad	-9.0389
▁kle	-9.03936
ano	-9.03971
▁beste	-9.04001
с	-9.04021
▁oktober	-9.04102
▁dessut	-9.04105
▁keiser	-9.04112
bane	-9.04253
▁luft	-9.0434
way	-9.04389
oli	-9.04394
▁ska	-9.04455
jen	-9.04541
▁opprinnelig	-9.04589
▁mis	-9.04591
▁tidlig	-9.04648
▁trans	-9.04681
har	-9.04762
plan	-9.04802
ella	-9.04851
▁latin	-9.04886
▁system	-9.04904
▁inkludert	-9.04947
lev	-9.04973
▁utenfor	-9.05048
▁hi	-9.05158
ød	-9.05209
▁lett	-9.05217
stan	-9.05283
▁bred	-9.05308
▁cu	-9.05623
▁sommer	-9.05652
▁regn	-9.05656
elser	-9.05671
våg	-9.05672
▁un	-9.057
▁ph	-9.05708
skrift	-9.05722
▁ob	-9.05728
pan	-9.0576
м	-9.058
▁styre	-9.05844
bert	-9.05847
▁kyst	-9.0585
▁martin	-9.05909
▁19	-9.05911
▁fl	-9.05983
asjoner	-9.06147
lå	-9.06178
▁blod	-9.06185
get	-9.06208
▁est	-9.06212
▁øya	-9.06212
▁april	-9.0623
▁port	-9.06334
▁stil	-9.0635
tiden	-9.06398
byen	-9.06579
alis	-9.06764
bø	-9.068
▁får	-9.06942
▁helt	-9.06973
dri	-9.06997
komm	-9.06998
▁lov	-9.07067
▁november	-9.07093
kh	-9.07159
lene	-9.0716
kje	-9.07173
vær	-9.0718
▁les	-9.07305
cc	-9.07392
▁thor	-9.07395
▁svensk	-9.07418
▁først	-9.0745
itz	-9.07481
▁begynte	-9.07528
▁kol	-9.07564
▁plan	-9.07586
▁organ	-9.0761
ater	-9.07619
▁david	-9.0762
▁lille	-9.0773
kre	-9.07806
all	-9.07986
pris	-9.08047
ister	-9.08053
▁23	-9.0806
▁gran	-9.08169
▁hvit	-9.08271
▁forfatter	-9.08379
▁pal	-9.08523
forening	-9.08594
▁georg	-9.0863
▁fransk	-9.08634
▁cas	-9.08648
ider	-9.08649
istisk	-9.08655
▁mann	-9.08852
▁igjen	-9.08857
▁sangen	-9.08904
my	-9.0898
søk	-9.0911
sjef	-9.09186
▁veg	-9.09212
gje	-9.09238
fl	-9.09457
isten	-9.09504
fisk	-9.09663
our	-9.0969
д	-9.09731
nivå	-9.09784
båt	-9.09897
rede	-9.09902
gan	-9.09977
▁få	-9.10024
▁ring	-9.10093
stilling	-9.10121
▁william	-9.10177
prosess	-9.10238
ssen	-9.1032
▁lange	-9.10422
ive	-9.10454
navnet	-9.10496
▁mol	-9.10511
▁ak	-9.10547
▁sub	-9.10614
▁fla	-9.10641
▁domin	-9.10652
▁bern	-9.10661
ula	-9.10675
ming	-9.10714
▁albumet	-9.10751
▁sett	-9.10896
▁spe	-9.10992
▁svart	-9.11003
▁plante	-9.11065
▁sang	-9.11254
▁nø	-9.11304
▁vol	-9.11349
værende	-9.11351
ringer	-9.11366
ath	-9.11438
lus	-9.1144
▁para	-9.11515
▁26	-9.11585
kamp	-9.1159
▁foran	-9.11615
hn	-9.11639
rat	-9.11642
▁stra	-9.11645
fo	-9.11672
▁ap	-9.11702
▁dia	-9.11877
sett	-9.11881
▁sverige	-9.11984
▁skolen	-9.11995
▁karl	-9.12202
age	-9.12204
▁tru	-9.12323
skole	-9.12477
▁don	-9.12511
vil	-9.12638
▁bø	-9.12812
60	-9.12824
▁jon	-9.12857
ij	-9.12863
▁hei	-9.12961
med	-9.13079
▁mos	-9.13132
▁ul	-9.13149
▁stu	-9.13224
gl	-9.13258
▁wal	-9.13296
▁større	-9.13392
▁bandet	-9.1341
▁ek	-9.1343
▁gal	-9.13512
▁cla	-9.13515
gård	-9.13525
skje	-9.13526
▁helse	-9.13551
▁full	-9.13563
istiske	-9.13606
▁zh	-9.13622
▁kir	-9.13622
området	-9.13652
fer	-9.13681
don	-9.13694
30	-9.1375
ör	-9.13792
film	-9.1381
bus	-9.13836
▁tittelen	-9.13861
▁22	-9.13892
▁roll	-9.13916
▁eier	-9.13922
▁thomas	-9.13974
▁ball	-9.14004
hy	-9.14111
▁tredje	-9.14289
klubb	-9.1432
dan	-9.14335
▁stre	-9.14423
ull	-9.14444
▁grad	-9.14466
▁ang	-9.14512
▁hovedstad	-9.14517
▁bergen	-9.14554
▁topp	-9.14571
lighet	-9.147
kjø	-9.14716
bra	-9.1482
▁overtok	-9.14866
kin	-9.14907
▁kre	-9.14939
▁tele	-9.152
än	-9.15204
rike	-9.15259
elli	-9.15314
stasjon	-9.15317
▁region	-9.1541
mannen	-9.15434
▁vinter	-9.15476
ille	-9.15572
▁mm	-9.15584
▁uni	-9.15664
▁gate	-9.15684
š	-9.15696
bjørn	-9.15834
rus	-9.1591
ves	-9.15973
▁west	-9.15987
▁johannes	-9.16003
▁slekt	-9.16073
▁die	-9.16107
▁gav	-9.16142
heten	-9.16165
▁1989	-9.1617
▁vir	-9.16179
lat	-9.1618
ford	-9.16183
▁prest	-9.16189
▁air	-9.16195
▁samarbeid	-9.16298
gren	-9.16327
▁arbeider	-9.16338
ib	-9.16339
sak	-9.16373
▁hånd	-9.16413
▁ter	-9.16446
▁etablert	-9.16646
tek	-9.16711
▁person	-9.16719
ai	-9.16729
ømme	-9.16734
85	-9.16739
aks	-9.16797
▁samle	-9.16806
▁und	-9.16829
л	-9.1685
▁johan	-9.16884
sal	-9.16889
▁28	-9.16904
▁son	-9.16906
н	-9.16983
▁mur	-9.1708
jev	-9.1712
su	-9.17126
vid	-9.17171
▁dyr	-9.17375
este	-9.17377
kant	-9.17468
▁arkitekt	-9.17496
sjøen	-9.17575
▁historie	-9.1764
▁japansk	-9.17658
▁bank	-9.17747
lis	-9.17762
▁sn	-9.17822
her	-9.17909
▁cap	-9.17986
mand	-9.1804
ial	-9.18119
▁fal	-9.18148
pol	-9.18268
▁lege	-9.18437
▁super	-9.18491
10	-9.18504
у	-9.18574
▁produsert	-9.18574
▁såkalt	-9.18577
▁fr	-9.1863
qui	-9.18669
elt	-9.18672
▁frank	-9.18747
føring	-9.18812
spiller	-9.18857
systemet	-9.1906
▁opera	-9.19125
▁war	-9.19419
▁serien	-9.19436
▁året	-9.19544
▁hor	-9.19554
▁29	-9.19628
▁mas	-9.19705
40	-9.19711
zhou	-9.19896
shi	-9.19961
▁produsere	-9.20044
▁pra	-9.20126
▁elven	-9.20141
▁forhold	-9.20159
stru	-9.20258
▁hjelp	-9.20274
▁hell	-9.2037
plass	-9.20374
65	-9.20422
▁dal	-9.20445
к	-9.20475
ata	-9.20495
minister	-9.20504
▁ole	-9.20542
▁fylkesvei	-9.20568
▁bri	-9.20792
▁valg	-9.20804
ologisk	-9.20816
bær	-9.20859
rop	-9.20868
▁minne	-9.20983
stykke	-9.20991
olog	-9.21067
▁pat	-9.21312
bor	-9.21322
▁syd	-9.21343
▁finner	-9.2138
▁rock	-9.21392
senteret	-9.21403
▁ledet	-9.21462
cha	-9.21479
▁olje	-9.21511
ì	-9.21537
menn	-9.21561
dt	-9.21591
løse	-9.21646
oc	-9.21688
▁brukt	-9.2179
▁klubben	-9.21879
▁nest	-9.21917
▁tr	-9.21997
retning	-9.22
▁you	-9.22027
▁familie	-9.2205
▁bror	-9.2209
▁litt	-9.22303
▁george	-9.22315
▁politisk	-9.22422
▁fro	-9.2244
jon	-9.22456
▁omkring	-9.22546
▁arbeidet	-9.22552
▁antall	-9.22564
aceae	-9.22573
▁2000	-9.22583
▁mad	-9.22583
▁studie	-9.22586
▁win	-9.22643
of	-9.22693
ire	-9.2276
drag	-9.2279
elva	-9.22896
huset	-9.22978
cht	-9.22988
▁skuespiller	-9.23022
▁student	-9.23055
▁finn	-9.2311
▁energi	-9.23135
▁imp	-9.23163
ram	-9.23173
▁internasjonale	-9.23184
iserte	-9.23205
rad	-9.23308
▁100	-9.23553
stri	-9.23591
▁beskrive	-9.23607
the	-9.2379
▁hy	-9.2391
▁administrasjons	-9.23918
▁het	-9.23963
▁gruppe	-9.23994
▁ze	-9.24025
iner	-9.24074
▁russland	-9.24082
▁lik	-9.24089
messig	-9.24095
▁nærings	-9.24361
lik	-9.24589
ney	-9.24642
trykk	-9.24681
lys	-9.24693
▁bille	-9.24903
▁ev	-9.2493
ī	-9.2494
▁kunstner	-9.24944
inne	-9.25058
▁start	-9.2509
▁serie	-9.25156
▁vår	-9.25192
gående	-9.25236
▁spesial	-9.2533
lagt	-9.25332
ført	-9.25361
▁berlin	-9.25419
områder	-9.25506
fal	-9.25644
▁dom	-9.25691
▁2004	-9.25722
▁gla	-9.2585
▁kh	-9.25859
▁plass	-9.25905
unt	-9.26105
▁europa	-9.26169
ova	-9.26186
gaard	-9.26269
stående	-9.26321
zz	-9.26323
▁versjon	-9.2639
rød	-9.2641
heter	-9.26616
▁hovedsakelig	-9.26679
havet	-9.2678
dor	-9.26928
▁mye	-9.26931
ografi	-9.26972
lekt	-9.27
wi	-9.27037
▁finsk	-9.2705
▁arne	-9.27113
▁qu	-9.27138
▁hovedstaden	-9.27175
kov	-9.27269
▁utviklet	-9.27314
skip	-9.27329
arm	-9.27517
▁provins	-9.27525
▁politi	-9.27582
ische	-9.27591
▁odd	-9.27689
gon	-9.2774
bånd	-9.27747
vig	-9.27814
lon	-9.27915
cia	-9.27919
low	-9.27973
ther	-9.28057
▁grenser	-9.28063
▁felles	-9.28153
▁distriktet	-9.28193
▁rus	-9.28195
ferd	-9.28227
ν	-9.28275
▁nytt	-9.28285
▁bilde	-9.28296
dde	-9.28301
▁sogn	-9.28351
▁nett	-9.285
▁cy	-9.28518
ance	-9.28518
▁modell	-9.28521
ish	-9.28533
▁annen	-9.28588
etter	-9.28642
▁egg	-9.28684
arbeid	-9.28712
▁italiensk	-9.28813
▁representere	-9.28813
▁høyeste	-9.2883
sette	-9.28882
ob	-9.28938
fin	-9.28965
▁camp	-9.28975
▁bygget	-9.29125
▁kraft	-9.29205
▁xi	-9.29236
▁slag	-9.29286
kilden	-9.29331
▁michael	-9.29353
selskapet	-9.2937
▁2001	-9.29378
▁mun	-9.29427
▁bon	-9.29509
▁ram	-9.2964
din	-9.29743
ky	-9.29747
lett	-9.29801
fag	-9.29862
▁sted	-9.29939
95	-9.29957
kla	-9.30095
▁27	-9.30104
▁blo	-9.3017
▁ordet	-9.30247
lund	-9.30277
gata	-9.30282
▁tyskland	-9.30343
▁gjorde	-9.3038
▁bel	-9.30383
▁viktige	-9.30413
▁krigs	-9.30436
▁oppkalt	-9.30447
▁britisk	-9.30487
gle	-9.30541
fon	-9.30609
ien	-9.30778
ов	-9.30781
▁zu	-9.30853
68	-9.30863
are	-9.30922
tis	-9.30927
old	-9.31056
▁skrift	-9.31091
fører	-9.31283
rio	-9.31511
▁gam	-9.31541
liv	-9.31564
▁bygd	-9.31626
▁utgjør	-9.31692
▁universitet	-9.3172
▁utvikling	-9.31744
▁stemme	-9.31799
▁slekten	-9.31845
område	-9.31858
▁herre	-9.31893
▁menneske	-9.32025
▁arter	-9.32068
▁hjerte	-9.32134
▁måtte	-9.32164
side	-9.32275
▁flo	-9.32284
▁es	-9.32312
zo	-9.3236
▁partiet	-9.32362
▁lin	-9.32424
▁tyske	-9.32478
produksjon	-9.32569
▁bort	-9.32571
ati	-9.32592
▁tegn	-9.32608
▁bygge	-9.32611
▁trykk	-9.32623
▁kilde	-9.32627
ansk	-9.32644
nor	-9.3269
tale	-9.32728
55	-9.32745
▁punkt	-9.3275
styre	-9.3285
ild	-9.32887
tok	-9.33024
ico	-9.33049
▁stjerne	-9.33201
▁ce	-9.3327
▁rot	-9.33297
formet	-9.33303
▁anna	-9.33352
▁james	-9.33408
▁teater	-9.33457
▁løv	-9.33477
lov	-9.337
eks	-9.33735
▁lite	-9.33763
▁tildelt	-9.3383
▁skjer	-9.33893
▁hjem	-9.33901
▁che	-9.33961
gjør	-9.34109
full	-9.34185
▁hatt	-9.34193
▁bla	-9.34276
▁standard	-9.34356
▁fredrik	-9.34381
▁enkelte	-9.34584
vatnet	-9.34668
ora	-9.34681
▁lund	-9.34732
▁fall	-9.34829
ple	-9.34846
▁egne	-9.34854
belteasteroide	-9.34926
iti	-9.35111
oni	-9.35116
▁tettsted	-9.3526
▁ten	-9.35293
kong	-9.35295
▁spilles	-9.35335
▁gård	-9.35384
▁cal	-9.35416
ō	-9.35417
gal	-9.35429
▁hon	-9.35519
gul	-9.35547
nia	-9.35569
▁rik	-9.3559
▁lær	-9.35632
stoff	-9.35647
▁pass	-9.35689
▁sy	-9.35722
▁eli	-9.3587
39	-9.35875
svis	-9.35908
klar	-9.36017
▁høyre	-9.36032
▁album	-9.3604
78	-9.3605
▁anders	-9.36052
▁stedet	-9.36095
▁2012	-9.36098
▁len	-9.36124
ick	-9.36188
▁pen	-9.36366
kast	-9.36422
▁pris	-9.365
tti	-9.365
70	-9.36553
ssa	-9.36561
voll	-9.3658
ο	-9.36656
▁riksvei	-9.36709
42	-9.36816
fugl	-9.36826
▁yu	-9.37042
▁våpen	-9.37045
90	-9.37073
sberg	-9.37079
▁jens	-9.37101
▁grønn	-9.37216
▁sw	-9.37294
▁ett	-9.37333
org	-9.37348
dik	-9.37441
▁flat	-9.37502
grav	-9.37618
▁india	-9.37641
▁ordenen	-9.37709
illa	-9.37745
ktet	-9.3778
▁31	-9.37814
▁spesielt	-9.37833
▁driver	-9.37866
▁sten	-9.37872
band	-9.37901
▁ville	-9.37919
▁fer	-9.37995
king	-9.3801
▁regnes	-9.38103
evne	-9.38165
38	-9.38188
▁reise	-9.38208
▁miljø	-9.38243
37	-9.38319
▁ep	-9.38334
sik	-9.38346
grad	-9.38368
nom	-9.3838
▁virke	-9.38427
▁privat	-9.38431
sø	-9.38473
▁ein	-9.38477
▁kull	-9.38538
øs	-9.38543
▁res	-9.38562
arter	-9.38589
punkt	-9.386
▁bry	-9.38676
ón	-9.38713
▁will	-9.38724
▁gitar	-9.3873
ade	-9.38764
hav	-9.38805
▁venn	-9.38954
▁richard	-9.3902
▁world	-9.3902
▁oppført	-9.39157
▁hjemme	-9.39199
well	-9.39226
48	-9.39228
merke	-9.39279
▁she	-9.39334
vent	-9.39418
ite	-9.39442
tus	-9.39484
lem	-9.39606
▁national	-9.39619
▁gy	-9.3963
fla	-9.39633
gor	-9.39658
▁selskap	-9.39736
▁lars	-9.39745
ras	-9.3975
äl	-9.39788
gitt	-9.39816
ral	-9.39893
▁smal	-9.40052
tall	-9.40084
holm	-9.4011
ias	-9.40117
▁hit	-9.40158
98	-9.40196
ι	-9.40221
▁drama	-9.40221
▁kristian	-9.40269
▁holm	-9.40322
kraft	-9.40365
▁handels	-9.40475
▁stort	-9.40682
▁sanger	-9.40749
▁ind	-9.40767
▁sølv	-9.40835
▁eget	-9.41007
strand	-9.41086
ette	-9.41146
one	-9.41163
▁elev	-9.41203
forbund	-9.41214
▁nam	-9.41215
▁jag	-9.41295
▁bad	-9.41313
▁ganger	-9.41379
▁ger	-9.41607
▁strøm	-9.41619
▁gil	-9.41652
▁tj	-9.41738
▁thi	-9.41781
felt	-9.41941
▁hed	-9.41987
hol	-9.41993
▁2003	-9.42071
jan	-9.42085
utdanning	-9.42085
▁knut	-9.42089
▁mik	-9.42118
▁historisk	-9.42225
stro	-9.42275
▁mørk	-9.42499
sam	-9.42523
tha	-9.42527
▁40	-9.42534
øtt	-9.42563
▁elva	-9.42635
▁løper	-9.42649
kropp	-9.42666
▁eksempler	-9.42668
ρ	-9.42668
▁por	-9.42672
liggende	-9.42675
▁venstre	-9.42687
partiet	-9.42718
▁pop	-9.42726
mund	-9.42743
▁spi	-9.42758
▁ras	-9.4278
▁jobb	-9.42791
sser	-9.42799
musikk	-9.42804
press	-9.42855
▁kam	-9.42893
86	-9.4296
dia	-9.42977
fest	-9.43174
loven	-9.4318
▁50	-9.43236
▁vanlig	-9.43243
▁funksjon	-9.4333
▁nevnes	-9.43349
▁sau	-9.4342
▁arabisk	-9.43463
▁anne	-9.43473
▁div	-9.4352
▁fortsatt	-9.43539
▁tang	-9.43604
graf	-9.4364
alt	-9.43687
▁stasjon	-9.43723
▁nils	-9.43741
▁borg	-9.4383
hel	-9.43838
▁bol	-9.43869
▁klasse	-9.4388
▁hvert	-9.43905
▁åtte	-9.4395
▁folk	-9.44137
last	-9.44158
dar	-9.44221
verket	-9.44223
▁mill	-9.44225
▁bygg	-9.44287
▁mulig	-9.44288
ua	-9.444
▁tall	-9.44409
▁én	-9.44491
▁grand	-9.44514
▁arbeid	-9.44571
lang	-9.44579
▁press	-9.44583
▁strand	-9.44637
▁kontroll	-9.44755
▁eng	-9.44773
gruppen	-9.44855
▁tam	-9.44897
▁sur	-9.44933
▁godt	-9.44966
▁ok	-9.44974
▁eneste	-9.45008
▁glo	-9.45027
stå	-9.4505
96	-9.45061
▁hall	-9.45163
▁lei	-9.45242
anske	-9.45251
▁utgav	-9.45288
fil	-9.45322
18	-9.45384
▁star	-9.45399
mot	-9.45449
▁för	-9.45461
▁fle	-9.45534
qu	-9.45546
tta	-9.45551
▁sky	-9.45573
▁tan	-9.45603
stedet	-9.45672
▁sund	-9.45674
stall	-9.45691
▁dar	-9.45691
▁produksjon	-9.45739
▁eid	-9.4577
▁rep	-9.45802
ben	-9.45804
▁samling	-9.45813
▁just	-9.45846
▁skyld	-9.45852
pla	-9.45868
▁renner	-9.45968
▁zo	-9.4606
▁are	-9.46222
▁jean	-9.4623
ria	-9.46263
▁deler	-9.46287
ved	-9.46362
▁vokal	-9.46434
▁brensel	-9.46439
▁redaktør	-9.46461
hal	-9.46463
magasin	-9.46468
eller	-9.46533
manns	-9.46553
ismen	-9.46559
▁transport	-9.46563
▁albert	-9.46603
▁varme	-9.46665
medalje	-9.46677
ity	-9.46697
▁santa	-9.46765
▁part	-9.46789
▁grev	-9.4701
▁maur	-9.47017
lei	-9.47039
▁sentrum	-9.47099
▁bakvingen	-9.47101
zy	-9.47156
oth	-9.47158
▁mottok	-9.47202
▁regionen	-9.47208
47	-9.4723
▁nes	-9.47323
▁gjør	-9.47363
▁poly	-9.47373
blomst	-9.47397
46	-9.47529
▁henrik	-9.47529
ef	-9.47641
▁nok	-9.47726
88	-9.47738
organ	-9.4778
▁idretts	-9.47806
▁stø	-9.47813
én	-9.47828
▁sim	-9.47866
▁danner	-9.47888
ura	-9.47909
vogn	-9.48026
▁elve	-9.48067
▁char	-9.48125
▁song	-9.48145
▁best	-9.48223
krets	-9.48252
▁wei	-9.48323
midler	-9.48327
▁staten	-9.48339
bri	-9.48341
ativ	-9.4839
▁larvene	-9.48394
gy	-9.48431
▁kul	-9.48489
▁pin	-9.4856
under	-9.48595
▁årene	-9.48677
uch	-9.48701
yang	-9.48716
▁aktiv	-9.48753
tegn	-9.48911
bein	-9.48986
▁byprefekturet	-9.4906
▁rund	-9.49075
cus	-9.49128
▁fv	-9.49135
havn	-9.49156
plassen	-9.49157
ort	-9.49175
▁kri	-9.49254
ledning	-9.49307
feld	-9.49316
▁kil	-9.49362
ringen	-9.49458
▁tiden	-9.49489
▁bill	-9.49541
bru	-9.49585
valg	-9.49614
▁cho	-9.4963
uc	-9.49678
▁1998	-9.49735
lom	-9.49759
▁power	-9.49782
lly	-9.49784
▁myr	-9.49819
atur	-9.49847
▁gansk	-9.49883
ekte	-9.49925
folk	-9.49934
▁vid	-9.49947
cl	-9.49951
▁design	-9.49972
▁wil	-9.49985
▁artist	-9.49996
▁us	-9.50012
▁kap	-9.50169
▁brit	-9.5019
parti	-9.50283
▁tung	-9.50313
pur	-9.50353
č	-9.50389
▁fleste	-9.50457
76	-9.50533
▁type	-9.506
▁sag	-9.50612
hund	-9.50646
ér	-9.50686
▁kirken	-9.50738
hall	-9.50819
▁enkelt	-9.50852
▁bj	-9.50918
ala	-9.5095
▁lev	-9.50977
11	-9.51007
▁sul	-9.51039
▁finland	-9.51058
▁louis	-9.51062
▁lufthavn	-9.51072
▁time	-9.51074
63	-9.51082
▁arten	-9.51102
▁finans	-9.51109
▁kroppen	-9.51117
▁dannet	-9.5114
▁70	-9.51146
▁mørke	-9.51288
в	-9.51316
departementet	-9.51341
▁kas	-9.51342
▁årlig	-9.51401
▁hard	-9.51466
▁meg	-9.51509
▁max	-9.51524
▁moderne	-9.51531
vert	-9.51634
▁lan	-9.51683
konkurranse	-9.51688
й	-9.51735
▁offentlig	-9.51772
▁harald	-9.51782
▁kin	-9.51816
ama	-9.51918
▁eg	-9.51929
▁salt	-9.51965
tag	-9.52069
▁auto	-9.52094
▁skrive	-9.52129
▁skje	-9.52178
г	-9.522
▁brukte	-9.52329
▁betydelig	-9.52417
medaljen	-9.52466
blad	-9.52473
isjon	-9.52569
hin	-9.52643
dis	-9.5273
▁kors	-9.52814
▁hå	-9.52827
▁ec	-9.5301
▁dam	-9.53049
▁direkte	-9.53101
pel	-9.53193
litt	-9.53255
▁vit	-9.53258
66	-9.53266
brudd	-9.53308
▁gass	-9.53376
▁nesten	-9.53387
▁dansk	-9.53425
▁frukt	-9.53439
▁christ	-9.53466
▁old	-9.53501
▁informasjon	-9.53517
▁hører	-9.53534
▁middel	-9.53539
▁edderkopp	-9.53569
▁olav	-9.53602
▁fjern	-9.53612
ies	-9.53615
▁il	-9.53714
lling	-9.53752
osa	-9.53755
▁middelsstor	-9.5379
▁2014	-9.53809
fu	-9.53837
skij	-9.53876
▁uttrykk	-9.5399
vekst	-9.53995
▁cell	-9.54045
▁tim	-9.54073
▁åpnet	-9.54159
bygning	-9.5421
sang	-9.54221
▁veien	-9.54286
▁internasjonal	-9.54304
▁hin	-9.54348
▁linje	-9.54387
▁heste	-9.54408
heng	-9.5442
▁opprettet	-9.54473
▁typisk	-9.5449
▁2013	-9.54502
▁egentlig	-9.54515
44	-9.54552
▁angrep	-9.5456
▁rad	-9.54656
43	-9.54847
▁kommunene	-9.54871
az	-9.54902
▁sju	-9.54979
stem	-9.55001
▁kj	-9.55087
skifte	-9.55104
▁forbindelse	-9.55114
п	-9.55184
able	-9.55186
bladet	-9.55218
ric	-9.55556
▁with	-9.55657
cal	-9.55663
mod	-9.55737
▁nr	-9.55781
▁international	-9.55888
▁resultat	-9.55888
▁kongen	-9.55893
▁1996	-9.55901
gram	-9.56087
▁båt	-9.56098
▁inntil	-9.562
▁sir	-9.56239
jel	-9.56256
ball	-9.56273
16	-9.56314
▁mid	-9.56353
▁vinner	-9.56423
▁tsj	-9.5645
trekk	-9.56457
▁fre	-9.56495
mas	-9.56496
▁gren	-9.56498
ū	-9.56585
▁1994	-9.56598
▁studert	-9.56622
syre	-9.56633
▁svenske	-9.56651
lar	-9.5667
▁sko	-9.56673
▁politiker	-9.56675
▁black	-9.56709
▁ferdig	-9.56721
▁eldre	-9.56736
æl	-9.56787
▁up	-9.56846
▁ven	-9.57057
▁tha	-9.57094
▁boken	-9.57163
ith	-9.57189
rør	-9.57214
▁sku	-9.5722
▁museum	-9.57263
▁andreas	-9.57285
▁tilsvarende	-9.57312
▁1980	-9.57333
▁charles	-9.57346
gler	-9.57349
jør	-9.57364
▁medlemmer	-9.57394
rådet	-9.57517
▁forsøk	-9.5757
▁ungdoms	-9.57613
kol	-9.57744
▁metall	-9.57763
fabrikk	-9.5783
▁stav	-9.57845
▁ask	-9.57911
bakken	-9.57959
12	-9.57987
▁japan	-9.58022
▁ana	-9.58024
́	-9.58031
bilde	-9.58069
▁grunnlagt	-9.5807
▁indisk	-9.58107
field	-9.58113
com	-9.5816
▁elv	-9.5818
▁bygde	-9.58234
▁tun	-9.5827
▁hom	-9.58277
tyr	-9.58316
▁natt	-9.58357
vol	-9.58471
slått	-9.58484
▁johann	-9.58635
▁fylkes	-9.58666
▁års	-9.58735
▁biskop	-9.58759
kommune	-9.58779
▁trekk	-9.58809
brun	-9.58869
▁forsknings	-9.58875
handler	-9.59117
▁gru	-9.59136
▁bay	-9.59214
▁instrument	-9.59278
▁makt	-9.59299
▁foss	-9.59333
▁munn	-9.59375
lære	-9.59424
93	-9.59425
▁skade	-9.59443
grunn	-9.59447
▁mak	-9.59472
▁1999	-9.59497
▁kro	-9.59525
▁north	-9.59593
▁delta	-9.59596
▁cam	-9.59659
▁gor	-9.59865
15	-9.59928
▁tett	-9.59969
enberg	-9.59982
▁32	-9.60004
ås	-9.60015
▁led	-9.60028
korps	-9.6005
▁wu	-9.60133
industri	-9.60213
teknikk	-9.60222
▁frankrike	-9.60238
▁drift	-9.60289
▁fest	-9.60291
▁laur	-9.60328
nummer	-9.60329
▁turn	-9.60417
▁rh	-9.60557
▁perioden	-9.60614
▁hud	-9.60645
drift	-9.60664
▁temp	-9.60705
øyene	-9.60729
▁zi	-9.60736
▁marine	-9.60784
aktig	-9.60789
▁produsent	-9.60837
▁vill	-9.6087
▁orkester	-9.60892
▁syv	-9.60941
▁israel	-9.60963
▁prosent	-9.60968
▁nar	-9.61005
▁rein	-9.61024
nie	-9.61068
stol	-9.61114
▁hum	-9.61133
nis	-9.61169
▁kost	-9.6119
▁din	-9.61238
bygging	-9.61373
vinger	-9.614
språk	-9.61433
gruppe	-9.6149
sol	-9.61503
67	-9.61512
▁hær	-9.61584
strøm	-9.61694
▁university	-9.61715
▁blei	-9.61722
linjen	-9.61781
▁dyre	-9.61857
på	-9.61865
▁long	-9.61951
▁gun	-9.62022
▁mø	-9.62144
▁neu	-9.62156
vesen	-9.62168
▁produkt	-9.62168
▁pave	-9.62223
▁marc	-9.62232
▁cm	-9.62242
haug	-9.62312
▁vekt	-9.62384
▁autonom	-9.6247
▁legge	-9.62534
▁demokrat	-9.62641
▁ran	-9.62664
▁gitt	-9.62686
▁dynastiet	-9.62718
▁rå	-9.62723
▁sports	-9.62728
ulf	-9.62801
ān	-9.62858
▁søster	-9.62934
▁35	-9.62969
▁80	-9.63065
dam	-9.63075
▁spansk	-9.63123
▁grense	-9.63233
▁dato	-9.63271
▁daniel	-9.63305
▁nasjonale	-9.63338
▁lengde	-9.63356
▁bio	-9.63363
▁mes	-9.63379
▁epi	-9.63405
▁møte	-9.63435
▁besøk	-9.63461
stille	-9.63544
ary	-9.63553
▁klo	-9.63557
▁oftest	-9.63558
▁180	-9.63708
formede	-9.63725
▁betydning	-9.63742
▁flor	-9.63777
fjell	-9.63815
ernes	-9.63858
ifi	-9.63906
slav	-9.63916
▁verdi	-9.6394
▁borger	-9.63969
▁1987	-9.63981
ander	-9.63984
chen	-9.63991
▁spiss	-9.64029
oph	-9.64065
▁kjøpt	-9.64097
23	-9.64123
dels	-9.6413
hjul	-9.64149
▁that	-9.64238
af	-9.64239
19	-9.64289
grense	-9.64304
▁nan	-9.64341
▁tilhørt	-9.6436
car	-9.644
на	-9.64419
▁has	-9.64467
ante	-9.64476
gress	-9.6449
fang	-9.64523
skapet	-9.64542
hø	-9.64593
hard	-9.64674
▁minst	-9.64701
▁maskin	-9.64731
▁polsk	-9.64746
▁seil	-9.64789
zh	-9.64843
▁cra	-9.64845
roll	-9.64905
tun	-9.64908
bal	-9.64923
bank	-9.65002
▁sentrale	-9.65048
▁bind	-9.65129
gården	-9.65135
▁leir	-9.65185
▁flytte	-9.65189
rim	-9.65229
▁web	-9.65236
mun	-9.65313
▁rosen	-9.65361
▁merke	-9.65393
cent	-9.65402
▁py	-9.65431
▁hovedrollene	-9.65471
ato	-9.65503
▁1990	-9.65541
▁italia	-9.65623
99	-9.65643
▁helge	-9.65659
flue	-9.65694
medlem	-9.65694
nik	-9.65708
▁dj	-9.65755
▁lyse	-9.65862
▁lokale	-9.66089
politikk	-9.66176
▁preg	-9.66226
▁grunnla	-9.66253
ù	-9.66306
▁offisiell	-9.66306
▁nordøst	-9.66311
▁forenkle	-9.66337
▁danmark	-9.66339
▁drev	-9.66391
▁sun	-9.66401
qua	-9.66422
▁samfunns	-9.66477
prisen	-9.6649
▁с	-9.66652
▁lek	-9.66671
25	-9.66709
ada	-9.66758
▁larven	-9.6687
▁cre	-9.66911
▁hvis	-9.66954
stin	-9.6701
▁log	-9.67014
▁omtale	-9.67072
▁filosof	-9.67094
▁nowiki	-9.67094
▁service	-9.67094
▁delstaten	-9.67097
▁2017	-9.67116
åpning	-9.67154
fjellet	-9.67163
▁vinge	-9.67168
året	-9.6721
win	-9.67224
hode	-9.67253
sjø	-9.67287
▁sterkt	-9.67287
▁angel	-9.67317
▁vind	-9.67337
nett	-9.6735
▁hem	-9.67384
ön	-9.67398
▁jern	-9.67486
▁reg	-9.67505
▁met	-9.67521
kirke	-9.67542
trær	-9.67618
gard	-9.67658
▁delt	-9.67659
▁app	-9.67716
▁glass	-9.67793
▁sort	-9.67825
▁omtrent	-9.67888
▁nordvest	-9.67897
▁antenne	-9.67908
dorf	-9.67927
▁vä	-9.67984
metode	-9.68029
▁høsten	-9.68071
bedrift	-9.68097
▁viktig	-9.68102
▁hydro	-9.68114
fart	-9.6819
yuan	-9.68288
▁skips	-9.68417
14	-9.68461
▁real	-9.68472
▁kjell	-9.68503
▁økonomisk	-9.68599
kil	-9.68632
▁ö	-9.68657
▁1991	-9.68688
▁york	-9.68695
ridge	-9.68701
▁1988	-9.68703
▁klima	-9.68709
løpet	-9.68729
områdene	-9.68732
arbeider	-9.6878
▁ub	-9.68783
dige	-9.68801
▁may	-9.68829
maskin	-9.68859
▁kok	-9.68871
▁esp	-9.68933
con	-9.68978
▁stan	-9.68989
delen	-9.69081
▁korte	-9.69175
samisk	-9.69195
▁bolig	-9.69287
▁nabo	-9.69355
bare	-9.69384
▁apo	-9.69461
▁temperatur	-9.69476
▁1997	-9.69494
▁trondheim	-9.69504
ич	-9.69506
virkning	-9.69541
▁kloster	-9.69554
medisin	-9.69627
▁kari	-9.69722
▁anton	-9.69783
▁170	-9.69788
▁150	-9.69813
▁comp	-9.6996
▁dun	-9.69966
▁hill	-9.69987
svik	-9.70003
fond	-9.70016
▁oliv	-9.70031
sha	-9.70055
ledd	-9.70064
plasser	-9.7011
17	-9.70166
▁tap	-9.70181
byrå	-9.7019
løsning	-9.703
mur	-9.70301
τ	-9.70303
▁solo	-9.70343
▁60	-9.70355
▁skatt	-9.70383
gin	-9.7046
▁lærer	-9.7046
gir	-9.70567
▁stiftet	-9.70699
▁gard	-9.70728
▁henne	-9.70747
▁fortsatte	-9.70836
▁direktør	-9.70989
rem	-9.71087
ò	-9.71127
▁komponist	-9.71127
▁kulturminner	-9.71127
κ	-9.71127
▁gunnar	-9.71129
vas	-9.71182
▁gjeste	-9.71184
yo	-9.71253
ammen	-9.71375
▁kraftverk	-9.71395
▁avdeling	-9.71539
kka	-9.71575
▁dro	-9.71619
organisasjon	-9.71645
▁stod	-9.71709
▁steder	-9.71848
▁jacob	-9.71881
wer	-9.71888
▁rute	-9.71892
▁horn	-9.71912
▁kategori	-9.71953
▁club	-9.71955
can	-9.71957
▁nærmest	-9.71959
▁vær	-9.72019
▁kode	-9.72041
▁nev	-9.72074
45	-9.7208
▁konsert	-9.72094
analyse	-9.72115
▁geo	-9.72193
▁tittel	-9.72292
▁niels	-9.72344
▁lam	-9.72356
▁matt	-9.72396
rup	-9.72405
mond	-9.72427
▁benytte	-9.72432
teri	-9.72451
▁symbol	-9.72458
▁problem	-9.7253
▁langt	-9.72562
▁indre	-9.72636
▁sla	-9.72738
â	-9.72786
▁london	-9.72788
▁bob	-9.72801
▁anlegget	-9.72827
▁test	-9.72832
riket	-9.72847
back	-9.72859
24	-9.72884
▁daglig	-9.72902
sport	-9.72987
farge	-9.73038
▁class	-9.73043
▁landsbyen	-9.73059
▁dor	-9.73111
▁tann	-9.7312
▁troll	-9.73216
mil	-9.73247
▁prof	-9.73287
satte	-9.7339
▁utstyr	-9.73448
motor	-9.73501
alder	-9.73526
λ	-9.73627
▁primær	-9.73628
mes	-9.73703
aya	-9.73708
▁mennesker	-9.73753
fortelling	-9.73763
▁meget	-9.73774
vannet	-9.73823
▁økt	-9.73841
lapp	-9.73843
▁hil	-9.73844
▁artikkel	-9.73857
våpen	-9.73915
produkt	-9.73954
▁typer	-9.7398
▁ting	-9.7404
▁bass	-9.74057
linje	-9.74101
▁los	-9.74106
former	-9.7411
▁cur	-9.74204
▁shan	-9.74254
row	-9.74286
fot	-9.74327
feltet	-9.74352
▁2016	-9.74503
▁kai	-9.74522
▁fått	-9.74543
rekord	-9.746
▁tverr	-9.74627
▁aldri	-9.74725
▁behandling	-9.74733
▁henry	-9.74737
gro	-9.74765
klubben	-9.7478
▁stasjonen	-9.74833
formen	-9.7487
ordenen	-9.75052
▁slott	-9.7514
▁felt	-9.75142
▁cri	-9.7524
▁stammer	-9.75273
parken	-9.75302
▁omfattet	-9.75329
cheng	-9.75348
▁brann	-9.75375
▁stoff	-9.7539
▁rør	-9.75393
▁romersk	-9.75417
▁solgt	-9.75426
▁sivil	-9.75426
▁deltok	-9.75436
cher	-9.75478
▁fugle	-9.7549
▁føde	-9.75511
▁buk	-9.75517
▁city	-9.75537
▁high	-9.75576
hai	-9.75688
▁att	-9.75689
ax	-9.75721
▁effekt	-9.75747
vor	-9.7578
▁luk	-9.75791
rey	-9.75894
kop	-9.75905
▁svarte	-9.75923
▁musik	-9.75983
▁løp	-9.76122
lé	-9.76124
▁original	-9.76188
▁ønske	-9.76198
▁skapt	-9.76201
▁smith	-9.76208
▁musiker	-9.76215
▁bronse	-9.76219
▁inge	-9.76237
▁høyt	-9.76241
handel	-9.76285
▁kjerne	-9.76328
foss	-9.76377
▁alf	-9.76455
bit	-9.76461
▁multi	-9.7648
▁retts	-9.76567
ical	-9.7657
▁betegne	-9.76573
▁regel	-9.76607
shan	-9.76616
spor	-9.76669
ado	-9.76728
▁gress	-9.76737
▁pun	-9.76815
▁dø	-9.76842
▁dyp	-9.76858
▁island	-9.76912
ira	-9.76955
kes	-9.76966
я	-9.77061
▁cru	-9.77195
▁moren	-9.7724
▁syk	-9.77286
pha	-9.77346
hed	-9.77385
ox	-9.77435
▁olsen	-9.77475
36	-9.77505
▁professor	-9.77535
▁sve	-9.77547
liste	-9.77574
vold	-9.77578
skudd	-9.77585
▁king	-9.77598
▁franske	-9.77603
▁jevn	-9.77643
sis	-9.77644
avdeling	-9.77669
▁fulgte	-9.77683
▁innsjøen	-9.77689
▁gjøre	-9.77696
▁forsvars	-9.77715
bach	-9.77799
levende	-9.77861
▁bevegelse	-9.77896
▁univers	-9.77917
▁oblast	-9.77956
▁2015	-9.77966
ville	-9.77969
▁que	-9.7801
▁kara	-9.78013
person	-9.78022
▁råd	-9.78054
møll	-9.78088
▁whi	-9.78202
▁marie	-9.78218
olo	-9.78226
▁ris	-9.78264
▁tjeneste	-9.7828
▁kalte	-9.78304
▁vanlige	-9.78311
▁bomb	-9.78336
vekt	-9.78386
deling	-9.78388
løst	-9.78441
▁live	-9.78476
stripe	-9.78521
▁åpen	-9.78565
▁populær	-9.78585
▁jur	-9.78622
▁litteratur	-9.78724
tunnelen	-9.78826
▁norrøn	-9.78826
ping	-9.78935
løs	-9.78935
▁klar	-9.78942
▁henhold	-9.78943
virke	-9.7899
▁fry	-9.7901
stø	-9.79042
▁organisasjon	-9.79124
▁danske	-9.79166
▁driv	-9.79178
middel	-9.79273
▁mah	-9.79354
fyll	-9.79357
▁qi	-9.79361
▁flu	-9.79451
▁personer	-9.79492
grep	-9.79494
▁1993	-9.7973
▁mannskapet	-9.79731
▁publisert	-9.79737
▁gjer	-9.79751
▁møtte	-9.79754
▁blue	-9.79764
▁foruten	-9.79838
▁aa	-9.79872
▁lar	-9.7989
klo	-9.80028
▁prisen	-9.8005
27	-9.80054
verdig	-9.80101
▁jesu	-9.80104
vit	-9.80171
▁skille	-9.80226
tempelet	-9.80244
▁ref	-9.80293
▁turist	-9.80324
dekke	-9.80378
▁haug	-9.80383
▁hul	-9.80392
spinner	-9.80435
▁fjord	-9.80521
oid	-9.80539
▁villa	-9.8056
▁middelalder	-9.80625
▁ordfører	-9.80647
▁sja	-9.80652
ique	-9.80655
rute	-9.80669
vinner	-9.80749
▁magnus	-9.80777
▁flyplass	-9.80883
▁benyttes	-9.80926
▁linjen	-9.80962
▁arve	-9.8101
rek	-9.81071
▁tema	-9.81076
▁livs	-9.81123
bud	-9.81169
▁ari	-9.81171
snitt	-9.81433
▁styrke	-9.8148
▁energiselskape	-9.81491
▁slo	-9.815
▁elektro	-9.81518
▁ye	-9.81526
▁øverst	-9.81528
▁try	-9.81534
▁fel	-9.8156
▁lot	-9.81592
ili	-9.8163
hei	-9.81667
▁stål	-9.81727
skolen	-9.81739
▁retning	-9.81896
▁dahl	-9.81937
▁klokke	-9.82017
▁tone	-9.8203
▁cat	-9.82072
▁sider	-9.82114
▁disk	-9.82278
▁fordi	-9.823
13	-9.82322
▁forfatteren	-9.82381
▁afrika	-9.82442
▁1992	-9.82443
▁elektrisk	-9.82443
▁tilbyr	-9.82485
▁likevel	-9.82499
▁derimo	-9.82523
21	-9.82545
▁mester	-9.82572
▁trafikk	-9.82584
▁franc	-9.82625
ona	-9.8263
▁rand	-9.82673
▁kapit	-9.82697
▁lære	-9.82698
▁universitetet	-9.82738
▁delvis	-9.82759
▁arn	-9.82789
▁selve	-9.82795
▁gården	-9.82812
kirken	-9.82814
pin	-9.82869
32	-9.82912
vre	-9.82915
▁verden	-9.82932
▁scene	-9.82988
28	-9.83003
▁oversatt	-9.83013
▁fordel	-9.83027
▁yo	-9.83031
lam	-9.83052
▁ånd	-9.83102
næs	-9.83105
▁holde	-9.83122
▁45	-9.83177
holmen	-9.83191
▁sho	-9.83193
wan	-9.83208
▁pala	-9.83234
▁blomster	-9.8325
oksid	-9.83322
▁hvite	-9.83359
▁alternativ	-9.83369
▁digital	-9.83369
▁øvre	-9.83388
▁1995	-9.83389
▁varierer	-9.83422
▁jazz	-9.83435
000	-9.83475
▁sommeren	-9.83504
ative	-9.83515
▁bud	-9.83558
▁sven	-9.8362
▁was	-9.83658
▁storm	-9.83759
▁phil	-9.83799
istene	-9.8383
ritt	-9.83868
▁skipet	-9.83878
▁enten	-9.83909
▁spill	-9.8398
▁plate	-9.83999
▁cer	-9.84047
innen	-9.8409
▁paa	-9.84097
▁sar	-9.84119
▁ken	-9.84247
chu	-9.84263
▁hoff	-9.84267
▁aur	-9.84281
35	-9.84293
▁joseph	-9.84304
▁rolf	-9.8431
▁qū	-9.8432
▁larsen	-9.84345
▁hvordan	-9.84377
▁00	-9.84416
▁johansen	-9.84433
kurs	-9.84495
▁out	-9.84585
▁holdt	-9.84588
▁mikro	-9.84594
▁mobil	-9.84634
▁hov	-9.84659
▁bryst	-9.84661
▁kart	-9.84714
▁bærer	-9.84731
▁utgi	-9.84732
▁qui	-9.8474
▁emil	-9.84805
▁hansen	-9.8487
▁forkorte	-9.85036
▁but	-9.85071
▁vitenskapelig	-9.85098
▁spa	-9.85125
gift	-9.8516
war	-9.85179
22	-9.85192
▁størrelse	-9.85209
vikler	-9.85229
ß	-9.8524
▁administrativ	-9.85247
▁kry	-9.85249
▁element	-9.85255
▁1985	-9.85271
▁sjef	-9.8535
▁virksomhet	-9.8546
▁kraftig	-9.85536
måte	-9.85582
finn	-9.8563
▁kaller	-9.85656
▁kim	-9.85657
▁rygg	-9.85777
▁love	-9.85796
historie	-9.85854
kraftverk	-9.85881
64	-9.85933
▁uttale	-9.85939
ito	-9.85945
ç	-9.85989
aria	-9.86016
▁from	-9.86118
▁sesongen	-9.8612
slekten	-9.86148
▁wilhelm	-9.86199
tog	-9.862
▁tydelig	-9.86204
▁south	-9.86211
ingeniør	-9.86213
▁nattfly	-9.86227
valget	-9.8624
▁regjeringen	-9.86315
▁totalt	-9.86315
line	-9.86363
lid	-9.86382
āng	-9.86408
▁prosjekt	-9.86428
rot	-9.86464
▁satt	-9.86548
▁brand	-9.86548
▁hellig	-9.86562
▁bou	-9.86584
▁vig	-9.8663
▁hopp	-9.86636
▁damp	-9.86653
▁påvirke	-9.86699
spir	-9.86717
▁adel	-9.86827
▁ey	-9.86848
wald	-9.86856
▁karakter	-9.86907
▁gall	-9.86922
▁krets	-9.86933
▁formel	-9.86997
▁ledd	-9.87073
kall	-9.87114
sdatter	-9.87121
▁1974	-9.87161
▁record	-9.87162
▁millioner	-9.87162
▁royal	-9.87169
▁hode	-9.87197
▁nav	-9.87218
▁otto	-9.87238
▁chu	-9.8738
▁vold	-9.87428
▁rose	-9.8745
▁rob	-9.8752
▁union	-9.87539
▁forskning	-9.87581
gruppa	-9.87647
▁bibliotek	-9.8766
▁stopp	-9.87664
▁lån	-9.87717
▁fot	-9.87775
utvikling	-9.87784
ár	-9.87809
▁fj	-9.87856
▁hannen	-9.87885
økonom	-9.87944
▁yi	-9.87945
lich	-9.88001
▁buss	-9.88023
ín	-9.88024
ough	-9.88111
▁1979	-9.88132
▁http	-9.88134
▁1986	-9.88151
basert	-9.88179
vurder	-9.88207
▁base	-9.88263
døgn	-9.88291
▁tilhør	-9.88292
▁nasjonalpark	-9.88313
▁64	-9.88351
medlemmene	-9.88352
▁sæ	-9.88361
tjeneste	-9.88378
▁ud	-9.88385
▁utført	-9.88433
▁rang	-9.8844
tom	-9.88444
park	-9.88456
▁stol	-9.88496
▁gold	-9.88539
rygg	-9.88568
signal	-9.88652
▁dekker	-9.88766
▁music	-9.88828
cci	-9.88937
vitenskap	-9.89001
▁plu	-9.89038
▁aas	-9.8907
▁akt	-9.89073
▁forskjell	-9.89093
ô	-9.89112
▁tilknyttet	-9.89112
ε	-9.89112
▁fyr	-9.89116
▁førte	-9.89117
▁representant	-9.89139
▁statsminister	-9.8914
▁gå	-9.89161
▁omtalt	-9.89162
sfjorden	-9.89258
▁snø	-9.89268
▁sendt	-9.89302
grupper	-9.89398
▁program	-9.89467
▁fjorden	-9.89491
▁bydelen	-9.8955
▁bat	-9.89574
oppgave	-9.89609
kro	-9.8961
folket	-9.89614
later	-9.89621
▁vor	-9.89711
arten	-9.89751
shire	-9.89769
mør	-9.89774
▁ledelse	-9.89836
amerikansk	-9.89838
demokrat	-9.89863
▁ung	-9.89907
▁bygningen	-9.89944
▁90	-9.89993
fartøy	-9.90049
klasse	-9.90063
▁bit	-9.90082
ž	-9.90102
▁inngår	-9.90106
▁klassisk	-9.90106
▁fjerde	-9.90106
▁xiàn	-9.90112
▁1968	-9.90124
▁erstattet	-9.90134
▁bord	-9.90233
danne	-9.90291
▁mei	-9.90415
▁krigen	-9.90505
▁aktivitet	-9.90599
▁kontor	-9.90608
prinsipp	-9.90623
anda	-9.90639
▁fisk	-9.90646
▁øke	-9.90739
kunst	-9.90822
bat	-9.90893
kultur	-9.9094
▁gui	-9.90952
bøker	-9.90991
▁fc	-9.91009
▁1984	-9.91102
▁eldste	-9.91106
▁stavanger	-9.91124
▁canada	-9.91148
ima	-9.91156
onia	-9.91168
▁dog	-9.91181
mont	-9.91277
▁gis	-9.9143
gra	-9.91431
▁bøker	-9.91475
▁tegnet	-9.91489
▁fører	-9.91502
▁paris	-9.91545
▁nrk	-9.91692
▁holder	-9.91742
idrett	-9.91856
virksomhet	-9.91885
tsu	-9.91886
album	-9.91907
▁gjelder	-9.9191
▁total	-9.91962
jal	-9.92082
▁1972	-9.92112
▁1981	-9.92112
▁deutsch	-9.92115
▁naturgass	-9.92122
▁bekrefte	-9.92146
trinn	-9.92211
▁kryss	-9.92246
▁sab	-9.92263
▁streng	-9.92322
▁asia	-9.92324
▁small	-9.92349
ava	-9.92407
skrev	-9.92456
▁korea	-9.92574
lut	-9.92762
▁gli	-9.929
pet	-9.93034
vision	-9.93038
75	-9.93047
▁human	-9.93085
merket	-9.93101
tjenester	-9.93112
▁herman	-9.93117
eringen	-9.93132
ă	-9.93133
ström	-9.93133
▁1973	-9.93133
▁fremdeles	-9.93134
▁gustav	-9.93135
▁rektor	-9.93137
▁fokus	-9.93141
elv	-9.9316
▁hustru	-9.93195
▁øvrige	-9.93195
▁saint	-9.93198
▁single	-9.93206
▁fan	-9.93236
▁sea	-9.93289
▁gö	-9.93308
▁byer	-9.93339
krigen	-9.93391
▁leon	-9.93421
ward	-9.93428
▁krysser	-9.93498
▁forsvar	-9.93535
▁fett	-9.93554
▁furu	-9.93614
▁danse	-9.9368
▁osv	-9.93722
26	-9.93873
▁fjær	-9.93917
▁måne	-9.93951
▁eie	-9.93987
▁koll	-9.93989
botn	-9.94059
▁profesjonell	-9.94164
▁relativ	-9.94165
▁group	-9.94208
▁nas	-9.9423
▁tørr	-9.94235
jun	-9.94253
▁nummer	-9.943
▁tau	-9.94352
ark	-9.94411
▁spille	-9.94412
▁benyttet	-9.94445
▁produksjons	-9.94451
▁æres	-9.9447
▁wall	-9.94516
▁spar	-9.94546
gni	-9.9474
▁wen	-9.94779
post	-9.94805
▁skip	-9.94828
sjö	-9.94859
▁tradisjon	-9.94911
▁utføre	-9.94939
б	-9.9505
saker	-9.9506
kontor	-9.95129
krit	-9.95164
▁sunn	-9.95184
ы	-9.95205
▁1983	-9.95205
▁utdannet	-9.95208
kandidat	-9.95215
▁sykehus	-9.95226
ila	-9.95248
▁slank	-9.95253
▁atom	-9.95253
undersøkelse	-9.95285
▁mangler	-9.95317
▁ost	-9.95348
▁75	-9.95364
livet	-9.954
▁cle	-9.95511
▁stri	-9.95553
program	-9.95567
kysten	-9.95638
▁metal	-9.95649
▁lyn	-9.95673
▁jø	-9.95677
▁unge	-9.95689
dannelse	-9.95695
▁malt	-9.95703
▁korn	-9.95773
▁eva	-9.95821
kamera	-9.95852
▁ansvar	-9.95859
regn	-9.95976
yu	-9.95978
▁skinn	-9.96095
trafikk	-9.96119
▁kåre	-9.9617
hem	-9.96215
▁bokstav	-9.96245
▁friedrich	-9.96258
ě	-9.96258
▁www	-9.96259
festival	-9.96259
▁jørgen	-9.9626
▁unn	-9.96265
▁melodi	-9.96276
▁qua	-9.96282
▁1960	-9.96286
ев	-9.96286
▁video	-9.96292
▁forvingen	-9.96389
▁naturlig	-9.96443
▁bølge	-9.96469
ко	-9.96519
▁prakt	-9.96527
▁organisasjonen	-9.96572
▁england	-9.96575
▁teksten	-9.96752
▁kommunist	-9.96776
▁gjort	-9.96827
iva	-9.96894
▁avisen	-9.96896
▁pap	-9.9692
▁forlag	-9.96978
▁normal	-9.97
bak	-9.97027
àn	-9.97033
▁kha	-9.97098
▁deles	-9.9715
▁jam	-9.97305
▁kvinner	-9.97308
ekspedisjon	-9.97322
μ	-9.97322
▁drept	-9.97329
▁dårlig	-9.97331
▁1967	-9.97339
▁1976	-9.9734
▁europeisk	-9.97341
▁journalist	-9.97353
▁bydistrikt	-9.97367
▁antonio	-9.9738
▁forretnings	-9.97392
▁betegnelsen	-9.97394
▁lansert	-9.974
▁landbruk	-9.97422
▁teknologi	-9.97426
lege	-9.97506
▁andersen	-9.97516
▁roma	-9.97551
strekning	-9.97563
▁einar	-9.97582
▁voks	-9.97634
▁spp	-9.97663
īn	-9.9767
▁fol	-9.97682
hovedstaden	-9.97687
▁sit	-9.97793
▁bedre	-9.9786
▁plassert	-9.97866
dahl	-9.98012
roman	-9.98014
▁sof	-9.98023
bill	-9.98027
▁skape	-9.98042
▁fylket	-9.98044
åsen	-9.9821
esse	-9.98226
▁måned	-9.98241
zu	-9.98265
vegg	-9.98267
ł	-9.98319
øvrig	-9.98332
møte	-9.98366
ñ	-9.98397
з	-9.98397
▁opprinnelse	-9.98397
▁dronning	-9.98405
▁andré	-9.98405
▁social	-9.98426
▁wel	-9.98478
mul	-9.98514
▁east	-9.98531
▁nederlandsk	-9.98535
dagen	-9.98548
▁fabrikk	-9.98563
artikler	-9.98608
▁ala	-9.98627
▁artene	-9.98656
▁bydel	-9.98669
hand	-9.98671
▁fremste	-9.98674
▁leve	-9.9875
ün	-9.98798
31	-9.98903
▁hand	-9.98994
kort	-9.9904
▁grupper	-9.99166
▁ivar	-9.99171
▁pul	-9.9918
▁oc	-9.99209
▁american	-9.99241
fjellene	-9.99324
funksjon	-9.99413
▁lignende	-9.99423
▁tilgjengelig	-9.99484
▁vingespenn	-9.99484
▁parlament	-9.99484
▁suksess	-9.99488
▁kvar	-9.99491
▁1970	-9.99507
▁befolkningen	-9.99526
▁trener	-9.99689
ан	-9.99692
▁steve	-9.99756
awa	-9.99786
forhold	-9.99797
maker	-9.99831
▁team	-9.99874
bevegelsen	-9.99902
▁jule	-9.99937
▁begrepet	-9.9998
33	-10.001
▁bonde	-10.001
▁xu	-10.0012
verdi	-10.0012
▁gitarist	-10.0019
▁36	-10.002
head	-10.0021
▁menn	-10.0022
▁adam	-10.0024
▁graf	-10.0025
ition	-10.0025
betegnelse	-10.0029
▁eik	-10.0033
▁cro	-10.0037
▁ple	-10.0037
▁tatt	-10.0037
▁kau	-10.0042
▁wolf	-10.0048
▁pel	-10.0048
ello	-10.0049
▁høye	-10.0053
gå	-10.0055
▁deriblant	-10.0058
▁københavn	-10.0058
▁orchestra	-10.0058
▁spesiell	-10.0058
▁hurtig	-10.0058
▁sørøst	-10.0059
▁hvilke	-10.0059
festivalen	-10.0059
▁polar	-10.0059
▁dialekt	-10.0061
▁é	-10.0062
▁saa	-10.0063
ić	-10.0064
vald	-10.0065
▁operasjon	-10.0068
▁alltid	-10.0074
▁iii	-10.0074
ōng	-10.0074
sand	-10.0081
gue	-10.0085
▁dol	-10.0089
haugen	-10.0108
▁vik	-10.0116
▁jack	-10.012
hyll	-10.0127
▁front	-10.0133
▁kanon	-10.0133
▁gjenopp	-10.0134
cio	-10.0139
teori	-10.0143
serien	-10.0143
▁ola	-10.015
▁gode	-10.0152
myr	-10.0153
vard	-10.0154
må	-10.0164
▁brenn	-10.0167
befolkning	-10.0167
prosjekt	-10.0167
▁administrere	-10.0169
▁kilometer	-10.0169
▁kjemisk	-10.017
uru	-10.017
▁dverg	-10.0171
▁boy	-10.0172
▁atlant	-10.0175
høgskole	-10.0175
▁festning	-10.018
▁od	-10.0181
▁verne	-10.0188
▁bach	-10.0188
▁faren	-10.0194
▁stig	-10.0195
▁gruve	-10.0197
mengde	-10.0198
▁motstand	-10.0201
▁meta	-10.0208
▁regjerings	-10.0209
▁struktur	-10.0212
▁frø	-10.0217
▁lyst	-10.0219
▁hag	-10.0224
▁dommer	-10.0229
▁hunnen	-10.023
▁jiang	-10.0231
▁mir	-10.0244
▁raskt	-10.0245
▁listen	-10.0245
▁ark	-10.0246
▁seier	-10.0246
foreningen	-10.0252
▁lim	-10.0253
▁kjempe	-10.0257
asso	-10.026
▁skriver	-10.026
▁republikken	-10.0261
▁kampen	-10.0271
ς	-10.0281
▁amerika	-10.0281
σ	-10.0281
▁aks	-10.0281
▁passasjer	-10.0282
▁united	-10.0282
jord	-10.0284
reaksjon	-10.0288
▁handling	-10.0288
▁ledes	-10.0288
▁arc	-10.0289
museet	-10.0289
▁175	-10.029
▁vers	-10.0294
herre	-10.0303
▁områder	-10.031
▁33	-10.031
modell	-10.0311
▁130	-10.0315
▁kalk	-10.0317
▁akademi	-10.0321
▁sankt	-10.0323
▁normalt	-10.0325
▁skå	-10.0328
▁område	-10.0343
▁planter	-10.0346
▁cup	-10.0346
▁interesse	-10.0355
▁former	-10.0366
▁teknisk	-10.037
▁røde	-10.0372
ordning	-10.039
bell	-10.0392
aktige	-10.0392
sekretær	-10.0394
▁personlig	-10.0395
▁religion	-10.0395
▁sigurd	-10.0396
▁flertall	-10.0396
▁vanskelig	-10.0396
▁referere	-10.0399
▁pierre	-10.0399
▁teori	-10.0399
olje	-10.0406
▁carlo	-10.0406
▁saga	-10.0407
▁karriere	-10.0407
▁hals	-10.041
▁opprør	-10.0416
▁styrker	-10.0422
bakk	-10.0426
▁140	-10.0429
vakt	-10.0433
▁kjær	-10.0433
bol	-10.0433
▁feil	-10.0441
▁svak	-10.0441
▁wang	-10.0445
▁sterke	-10.046
olu	-10.0464
▁chang	-10.0464
▁patri	-10.047
▁hva	-10.0472
mennene	-10.0477
typen	-10.048
▁torg	-10.0482
▁myndighet	-10.0485
▁høyde	-10.0488
eira	-10.0492
▁satte	-10.0494
▁tanke	-10.0497
▁masse	-10.0501
▁verb	-10.0506
▁mitt	-10.0506
▁vend	-10.0509
▁astronom	-10.051
▁dekkvingene	-10.051
spørsmål	-10.051
▁1982	-10.051
▁nikola	-10.0511
▁østerrike	-10.0511
▁1975	-10.0512
▁familiegruppen	-10.0512
▁vent	-10.0516
▁01	-10.0518
bul	-10.0519
▁play	-10.0522
▁kru	-10.0524
▁ull	-10.0528
▁award	-10.0528
▁magn	-10.053
ensis	-10.0537
næring	-10.0537
▁120	-10.0547
▁laste	-10.0552
bord	-10.0556
▁hage	-10.0558
▁tai	-10.0562
▁trolig	-10.0566
▁hunde	-10.0567
ifisert	-10.058
▁hotell	-10.0596
▁master	-10.0599
▁opprinnelige	-10.0608
▁markeds	-10.0613
▁prefektur	-10.0627
▁stockholm	-10.0627
advokat	-10.0627
▁1945	-10.0628
kommando	-10.063
▁nevnt	-10.0632
▁grøn	-10.0632
▁nilsen	-10.0633
museum	-10.0636
orkester	-10.0638
utgivelse	-10.064
▁pur	-10.0643
lif	-10.0648
farget	-10.0652
▁svein	-10.0657
▁populære	-10.0658
▁våren	-10.0658
▁jakt	-10.0666
hør	-10.0672
▁bin	-10.0674
lokk	-10.0674
▁syr	-10.0676
▁sem	-10.0679
▁green	-10.0683
▁øyene	-10.0683
▁gaten	-10.0684
tsch	-10.0697
komst	-10.0699
▁top	-10.0708
organisasjonen	-10.0713
▁mary	-10.0714
▁huset	-10.0719
▁papir	-10.0721
▁az	-10.0725
assi	-10.0726
▁berømte	-10.073
▁prøve	-10.073
▁bull	-10.0732
▁velge	-10.0732
stasjonen	-10.0733
▁nederland	-10.0733
meter	-10.0738
▁arch	-10.0742
våk	-10.0743
▁reference	-10.0744
▁symptom	-10.0744
▁kardinal	-10.0744
kompleks	-10.0744
▁pasient	-10.0744
▁kontakt	-10.0746
▁1966	-10.0746
▁college	-10.0747
▁eiendom	-10.0749
▁mytologi	-10.075
▁islam	-10.0754
aq	-10.0755
forbindelse	-10.0756
skjær	-10.0756
▁alpin	-10.076
▁hodet	-10.076
kelsen	-10.0761
▁free	-10.0763
▁ulv	-10.0764
▁kjønn	-10.0764
▁ansvarlig	-10.0766
▁slaget	-10.0777
▁sca	-10.0779
▁myk	-10.0779
▁betydninger	-10.0781
▁sor	-10.0784
øvelse	-10.0791
▁ever	-10.0792
lignende	-10.0796
▁sideelv	-10.081
▁regjering	-10.081
▁forsker	-10.0816
norsk	-10.082
▁wood	-10.0832
▁klubb	-10.0838
▁blokk	-10.0842
▁periode	-10.0843
▁roger	-10.0845
▁aker	-10.0846
▁hevde	-10.0847
▁hør	-10.085
▁motiv	-10.0854
▁internett	-10.0855
▁frei	-10.0856
▁storbritannia	-10.0863
▁inspirert	-10.0863
▁regissert	-10.0864
▁alexander	-10.0864
▁sørvest	-10.0864
▁håkon	-10.0867
▁mineral	-10.0869
forfatter	-10.0878
hjem	-10.0882
sikring	-10.0882
▁sukker	-10.0884
▁mono	-10.089
▁olavs	-10.0893
hou	-10.0908
▁følge	-10.092
▁strid	-10.0927
▁server	-10.0933
opter	-10.0938
▁tenn	-10.0941
▁state	-10.0943
▁adresse	-10.0944
▁his	-10.0945
▁behandle	-10.0949
ison	-10.0957
kran	-10.0964
henger	-10.0965
▁tradisjonel	-10.0971
▁skjær	-10.0972
▁programmet	-10.0973
▁underlag	-10.0976
▁had	-10.0982
▁valgte	-10.0983
▁himmel	-10.0984
▁bakkroppen	-10.0984
▁jakob	-10.0984
avhandling	-10.0985
▁malm	-10.0987
▁håndball	-10.0987
▁500	-10.0987
▁konstant	-10.0989
▁formann	-10.0989
▁protest	-10.0989
▁hjerne	-10.0991
▁straffe	-10.0992
▁trommer	-10.0993
▁sikte	-10.1003
▁exp	-10.1009
ovo	-10.1014
▁slett	-10.1015
▁tog	-10.1021
▁utga	-10.1027
domstol	-10.1036
kron	-10.1039
▁sær	-10.1044
▁simon	-10.1053
fyr	-10.1061
▁reform	-10.1074
▁ramme	-10.1075
▁euro	-10.1077
zhi	-10.1084
somme	-10.1091
▁trak	-10.1098
▁ah	-10.11
▁begynner	-10.1106
▁ukrainsk	-10.1106
▁1969	-10.1106
▁1977	-10.1106
▁millimeter	-10.1106
▁styrmann	-10.1106
▁hverandre	-10.1106
▁etterhvert	-10.1106
▁vingene	-10.1106
▁katolsk	-10.1106
▁tegneserie	-10.1106
▁fyrst	-10.1111
▁stamme	-10.1112
▁museet	-10.1112
▁brasil	-10.1114
▁spise	-10.1114
▁divisjon	-10.1119
distrikt	-10.1121
direktør	-10.1126
produsent	-10.1126
▁tråd	-10.1134
alitet	-10.1134
▁heller	-10.1142
▁morten	-10.1142
arbeidet	-10.1143
▁160	-10.1149
▁intel	-10.1152
vand	-10.1157
cula	-10.116
fotograf	-10.1161
kilde	-10.1163
kasse	-10.1171
▁kjøl	-10.1177
▁kristin	-10.118
linjer	-10.1183
hallen	-10.1185
▁åpne	-10.1191
▁dobbelt	-10.1192
▁nordlige	-10.1192
▁harry	-10.1193
▁akk	-10.1203
▁verket	-10.121
▁bell	-10.1211
kost	-10.1219
▁line	-10.1224
▁planet	-10.1229
▁aar	-10.1229
▁sannsynlig	-10.1229
▁egypt	-10.1229
▁yngre	-10.123
▁nådd	-10.123
stjerne	-10.1232
▁lengre	-10.1234
parten	-10.1234
▁endret	-10.1238
kjøp	-10.124
tilbud	-10.1246
blå	-10.1253
▁bakke	-10.1255
tempel	-10.1258
▁brev	-10.1258
materiale	-10.1259
▁mala	-10.1259
▁geir	-10.1259
spenning	-10.1263
▁hug	-10.1277
▁høyere	-10.1277
kjede	-10.1282
▁kaptein	-10.1285
▁vakt	-10.1292
▁kjøre	-10.1292
▁irsk	-10.1303
▁liber	-10.1305
▁vokser	-10.131
▁eide	-10.1312
▁emb	-10.1323
ен	-10.1327
klær	-10.1327
programmer	-10.133
tank	-10.1334
sikkerhet	-10.1338
▁pont	-10.134
▁henri	-10.1341
▁idrettslag	-10.1341
▁material	-10.1341
▁sign	-10.1346
▁historiker	-10.1348
iano	-10.135
journal	-10.1351
ndra	-10.1352
▁arrangert	-10.1354
▁alkohol	-10.1354
▁mekanisk	-10.1354
▁arthur	-10.1355
▁forårsake	-10.1355
▁forteller	-10.1357
▁jordbruk	-10.1361
ар	-10.1361
▁sverd	-10.1364
▁eksempelvis	-10.1369
▁sikkerhets	-10.1371
▁arkitektur	-10.1377
▁grunnlegger	-10.138
pul	-10.1381
president	-10.1384
seth	-10.1386
▁foreningen	-10.1388
▁miste	-10.1398
▁в	-10.1398
▁bidrag	-10.1402
forbundet	-10.1403
▁krav	-10.1411
▁funn	-10.1415
▁stilling	-10.142
▁wade	-10.1424
▁foreldre	-10.1431
▁skjold	-10.1434
▁mini	-10.1435
▁opphav	-10.1437
zel	-10.1438
typer	-10.1443
▁off	-10.1443
▁valgt	-10.1446
▁netto	-10.1449
▁ron	-10.1451
▁fur	-10.1466
▁møter	-10.1472
▁sovjetunionen	-10.1481
▁1971	-10.1481
▁objekt	-10.1481
▁australia	-10.1481
▁school	-10.1481
ovitsj	-10.1482
▁tømmer	-10.1483
▁alfred	-10.1484
▁tolv	-10.1484
▁anvende	-10.1484
▁mente	-10.1493
aki	-10.1498
▁øker	-10.1505
▁ytre	-10.1507
grå	-10.1514
hor	-10.1518
▁regional	-10.1519
plikt	-10.1519
▁fange	-10.1529
▁hammer	-10.1537
▁vokste	-10.1539
▁kammer	-10.1548
▁stille	-10.1549
▁lenge	-10.1549
styrt	-10.155
▁funnet	-10.1555
▁silke	-10.1556
skipet	-10.1561
tropp	-10.1562
halvøya	-10.1573
▁klart	-10.1581
▁tonn	-10.1589
▁kraftige	-10.1592
▁fjellet	-10.1595
▁300	-10.1595
▁rei	-10.16
▁pet	-10.1606
friidrettsutøver	-10.1609
▁1961	-10.1609
▁komponert	-10.1609
kapasitet	-10.1609
▁tyrkisk	-10.1609
▁tilsvarer	-10.1609
▁kommun	-10.1609
▁noctu	-10.161
▁nedenfor	-10.161
ος	-10.161
▁posisjon	-10.161
öl	-10.1611
▁skotsk	-10.1612
kommisjon	-10.1612
▁hj	-10.1613
▁inc	-10.1613
▁knyttet	-10.1613
▁bakgrunn	-10.1614
▁num	-10.1617
▁poeng	-10.162
▁bestemme	-10.162
▁tapt	-10.1629
▁platen	-10.1631
▁shu	-10.1634
▁bibel	-10.1636
▁sav	-10.1638
▁200	-10.1644
kjør	-10.165
▁155	-10.1651
ор	-10.1652
avtale	-10.1659
▁audi	-10.1659
▁peder	-10.1666
▁bai	-10.1668
snegl	-10.1671
kjempe	-10.1671
leir	-10.1677
punktet	-10.1679
▁prop	-10.1681
▁rask	-10.1687
ь	-10.1688
galleri	-10.1697
venn	-10.171
gutt	-10.1717
sentre	-10.1719
▁finale	-10.1725
▁undervisning	-10.1725
hagen	-10.1727
dokument	-10.1731
▁spin	-10.1734
ugh	-10.1734
landskap	-10.1739
х	-10.1739
▁etterfulgt	-10.1739
▁beijing	-10.1739
▁oversettelse	-10.1739
▁episode	-10.1739
▁oppdaget	-10.1739
▁insekt	-10.174
jia	-10.1741
▁ishockey	-10.1741
▁edward	-10.1741
lä	-10.1745
▁kald	-10.1748
ful	-10.1748
▁soldat	-10.175
▁flagg	-10.1751
▁gjennomført	-10.1756
▁sikre	-10.1759
▁slå	-10.1766
terje	-10.1776
▁cel	-10.1777
▁luc	-10.1778
▁lyng	-10.1778
▁aust	-10.1778
▁bau	-10.1778
▁ligne	-10.1782
▁butikk	-10.1798
▁dør	-10.1805
▁foto	-10.1809
▁maleri	-10.181
upp	-10.1813
flekk	-10.1816
▁kreft	-10.1818
tilstand	-10.1821
horn	-10.1828
løk	-10.1832
▁prins	-10.1835
bygningen	-10.1835
▁110	-10.1835
▁nordisk	-10.1839
▁fru	-10.1839
▁båten	-10.184
▁bispedømme	-10.1842
▁hir	-10.185
hild	-10.185
polit	-10.1857
▁sara	-10.186
▁christi	-10.1868
▁1956	-10.187
▁vulkan	-10.187
frekvens	-10.1871
▁sekund	-10.1872
lect	-10.1874
▁invest	-10.1875
▁1950	-10.1875
▁michel	-10.188
▁avslutte	-10.1903
alisme	-10.1905
instrument	-10.1908
▁drives	-10.191
miljø	-10.1911
▁forekommer	-10.1912
▁mw	-10.1913
▁morgen	-10.1922
▁rig	-10.1935
▁stadig	-10.1941
▁ettersom	-10.1943
▁då	-10.1948
▁kjøpe	-10.1949
lysning	-10.195
▁kg	-10.1964
▁rud	-10.1971
▁river	-10.1971
▁rosa	-10.1977
ledende	-10.1977
hydr	-10.1979
▁svar	-10.1986
fylt	-10.1988
▁rollen	-10.1999
ла	-10.2001
▁markert	-10.2001
▁bygda	-10.2001
▁introdusert	-10.2004
▁offisielt	-10.2004
▁omfattende	-10.2004
▁kunnskap	-10.2004
▁company	-10.2004
▁fiktiv	-10.2004
▁stortings	-10.2006
▁josé	-10.2006
▁svømme	-10.201
zon	-10.201
▁khan	-10.202
▁krever	-10.2029
seter	-10.203
▁krig	-10.2031
ía	-10.2032
strup	-10.2036
▁hypo	-10.204
▁betjener	-10.204
▁your	-10.2047
kanalen	-10.2052
fugler	-10.206
forsker	-10.2062
▁sammenheng	-10.2063
tallet	-10.2065
sidig	-10.2069
▁koloni	-10.2071
▁latinsk	-10.2082
▁bunn	-10.2082
▁offiser	-10.2084
▁skarp	-10.2088
hamn	-10.2093
ington	-10.2096
hest	-10.21
▁sete	-10.2101
styrke	-10.2119
▁utvikler	-10.2126
▁vass	-10.2127
avisen	-10.213
▁nordland	-10.2135
▁studio	-10.2139
pil	-10.2139
arrangement	-10.2139
konstruksjon	-10.2139
▁kjærlighet	-10.214
▁stadion	-10.2141
▁1964	-10.2141
▁oscar	-10.2143
bekk	-10.2144
krig	-10.2144
▁vanligste	-10.2148
lö	-10.2153
bukta	-10.2166
▁innført	-10.217
kryp	-10.2174
▁mig	-10.2178
▁areal	-10.218
▁pil	-10.2181
▁hundre	-10.2186
wood	-10.2187
gått	-10.2187
skjold	-10.2189
problem	-10.219
wei	-10.219
▁fli	-10.22
vendt	-10.2215
▁endelig	-10.2218
▁petter	-10.2224
aktør	-10.2229
▁innspilling	-10.2229
speil	-10.223
▁pad	-10.2241
▁kapp	-10.2245
bury	-10.2255
▁flå	-10.2256
▁bod	-10.2269
▁religiøs	-10.2276
▁moskva	-10.2276
pedagog	-10.2277
▁für	-10.2277
▁anmeld	-10.2277
▁etterfølger	-10.2277
▁energy	-10.2279
▁blank	-10.2284
▁wan	-10.2289
variant	-10.229
▁hval	-10.2296
▁б	-10.2296
ulo	-10.23
▁lau	-10.2301
▁orient	-10.2311
stell	-10.2315
ль	-10.2329
▁grov	-10.2331
gio	-10.2341
▁verd	-10.2343
pass	-10.2345
▁aksje	-10.2351
▁vu	-10.2352
▁resten	-10.2361
vatn	-10.2363
▁dru	-10.237
▁chris	-10.2374
mä	-10.2378
planter	-10.2379
▁tyr	-10.2385
▁marg	-10.2391
▁big	-10.2394
▁clo	-10.2396
▁typen	-10.2401
▁alder	-10.2414
▁ytterligere	-10.2415
▁1952	-10.2415
▁fødsel	-10.2415
▁vunnet	-10.2415
▁yrkes	-10.2415
▁bjørk	-10.2415
▁nærmere	-10.2416
▁1930	-10.2418
▁bestemt	-10.2421
▁dokumenter	-10.2423
▁bety	-10.2423
▁major	-10.2423
▁fremført	-10.2423
▁mathi	-10.2424
▁viklere	-10.2425
▁kval	-10.2426
▁snakke	-10.2429
▁arkeolog	-10.2429
▁eksistere	-10.2429
▁mynt	-10.2435
▁vall	-10.2444
▁arkiv	-10.2447
▁persisk	-10.2449
syke	-10.2472
▁lill	-10.2472
effekt	-10.2473
finalen	-10.2486
graph	-10.2488
▁skar	-10.2498
▁smak	-10.25
▁fritt	-10.2503
▁innsjø	-10.2506
▁egil	-10.2506
rekke	-10.2507
▁landsby	-10.2511
▁forbundet	-10.2529
stone	-10.2533
▁ferr	-10.2539
▁tø	-10.2542
▁bow	-10.2543
▁penge	-10.2545
▁34	-10.2547
▁beskytte	-10.2555
▁individ	-10.2556
▁utnevnt	-10.2556
▁varaordfører	-10.2556
▁geometri	-10.2556
▁valuta	-10.2556
▁efter	-10.2558
hastighet	-10.2558
▁1978	-10.2558
▁kjøtt	-10.2559
apparat	-10.256
▁detalj	-10.2562
▁pedersen	-10.2563
▁della	-10.2563
▁deltaker	-10.2573
▁boka	-10.2589
▁trø	-10.2589
▁politiet	-10.259
▁reserve	-10.2592
▁vokalist	-10.2595
▁metro	-10.2596
▁ernst	-10.2596
▁kast	-10.2598
▁økonomi	-10.2599
▁verksted	-10.2599
▁kommunal	-10.2603
▁bodd	-10.2603
forskning	-10.2616
front	-10.262
▁tour	-10.2629
▁vm	-10.2633
▁qing	-10.2637
▁femte	-10.2644
▁sykdom	-10.2664
strømmen	-10.2664
▁nettverk	-10.2667
▁rau	-10.2673
▁kanalen	-10.2675
▁tron	-10.2677
▁jim	-10.2677
ч	-10.2696
▁symfoni	-10.2698
▁trøndelag	-10.2698
▁1900	-10.2698
▁fengsel	-10.2698
▁hebraisk	-10.2699
▁inndelt	-10.2701
▁institutt	-10.2703
toppen	-10.2705
▁fremme	-10.2708
▁elsk	-10.271
▁proto	-10.2714
▁grønland	-10.2729
▁hente	-10.273
fabrik	-10.2733
forsvar	-10.2767
▁lord	-10.2769
▁ekstra	-10.2787
data	-10.2805
▁tell	-10.282
▁167	-10.2827
hvit	-10.2828
▁mongol	-10.2833
akten	-10.2837
▁bære	-10.2837
▁elisabeth	-10.2843
▁sistnevnte	-10.2843
▁tortricidae	-10.2843
▁stortinget	-10.2844
▁redusere	-10.2845
▁ridder	-10.2845
▁1918	-10.2846
▁drammen	-10.2847
flo	-10.2848
▁passerer	-10.2852
prest	-10.2854
gran	-10.2855
▁bakterie	-10.2858
▁krim	-10.2861
▁salme	-10.2862
▁samisk	-10.2868
▁statlig	-10.2869
▁nedre	-10.2869
ça	-10.2876
▁thu	-10.2877
▁trond	-10.2893
kode	-10.2893
▁birk	-10.2894
gjort	-10.2896
serie	-10.2901
bibliotek	-10.2914
▁who	-10.2921
▁dukke	-10.2926
▁utvalg	-10.2929
▁sex	-10.2929
spiss	-10.293
▁kvalitet	-10.2938
brand	-10.2945
▁høst	-10.2952
perioden	-10.2971
kreft	-10.2975
vall	-10.2978
rock	-10.2983
▁indo	-10.2986
▁shanghai	-10.299
▁golf	-10.2991
plattform	-10.2991
▁kristiansand	-10.2992
▁frederik	-10.2992
▁hjort	-10.2992
▁programleder	-10.2993
▁skjedde	-10.2993
▁mul	-10.2993
▁telefon	-10.2994
▁eksport	-10.3001
▁ungdom	-10.3011
psykolog	-10.3021
cz	-10.3021
plate	-10.3032
orum	-10.3036
para	-10.3037
ship	-10.3038
▁krok	-10.3049
hånd	-10.3064
▁jarl	-10.3067
født	-10.3069
▁victor	-10.3086
▁74	-10.3088
type	-10.309
wick	-10.3096
▁400	-10.3097
▁ferge	-10.3104
språklig	-10.3105
▁grensen	-10.3125
▁ash	-10.3128
▁uavhengig	-10.3135
▁debutalbum	-10.314
▁skulptur	-10.314
▁1953	-10.314
▁foregår	-10.314
▁scott	-10.314
kontrakt	-10.3142
▁novell	-10.3144
▁spillet	-10.3146
▁røyk	-10.3148
▁stabil	-10.3151
▁hersker	-10.3153
▁157	-10.3154
hopp	-10.3161
▁rub	-10.3166
▁lagt	-10.3175
▁fotballklubb	-10.3183
egnet	-10.3194
markedet	-10.3212
regionen	-10.3218
tittel	-10.3226
▁laks	-10.3229
utstyr	-10.3235
▁årsak	-10.3244
▁avhengig	-10.3246
ер	-10.3256
▁kw	-10.3284
▁stift	-10.3285
tysk	-10.3288
løytnant	-10.3291
▁skottland	-10.3291
▁tabellen	-10.3292
▁ytterkant	-10.3292
tårnet	-10.3293
▁protein	-10.3293
▁josef	-10.3293
▁lengst	-10.3293
▁sykkel	-10.3295
▁2018	-10.3297
▁plantefamilie	-10.3307
▁bang	-10.3322
vandring	-10.3329
▁piano	-10.3329
▁dannes	-10.3342
▁sørlige	-10.3363
vang	-10.3365
▁histori	-10.3366
▁stam	-10.3371
aktivitet	-10.3373
bryter	-10.3384
▁komme	-10.3384
▁glad	-10.3389
▁beskrev	-10.3393
▁liberal	-10.3401
▁prosjektet	-10.3411
lidelse	-10.3421
konservativ	-10.3445
▁betrakte	-10.3445
▁fiolin	-10.3446
▁skildre	-10.3446
▁studioalbum	-10.3446
▁lenger	-10.3448
▁1955	-10.3448
studier	-10.3448
▁house	-10.3453
▁magnet	-10.3454
mmy	-10.3455
▁pensjon	-10.3456
▁maritim	-10.346
hunder	-10.346
forestilling	-10.3463
▁ansatte	-10.3464
▁forbunds	-10.3476
▁pic	-10.3478
▁good	-10.3478
schaft	-10.3479
▁forvaltnings	-10.3479
▁tromsø	-10.349
samfunn	-10.3494
▁voksne	-10.3494
rommet	-10.3502
▁left	-10.3503
▁organisert	-10.3505
illo	-10.351
samfunnet	-10.3518
▁beskrevet	-10.3519
▁bert	-10.3521
hjelp	-10.3529
frukt	-10.3532
▁raf	-10.3533
▁leif	-10.3534
▁sterk	-10.3539
▁overgang	-10.3541
stemme	-10.3543
▁oh	-10.3549
drevet	-10.3567
jiang	-10.3571
▁skjell	-10.3573
pati	-10.3575
rapport	-10.3589
link	-10.3596
▁reid	-10.3599
▁87	-10.3601
▁association	-10.3601
▁1957	-10.3601
▁nedbør	-10.3602
▁godkjent	-10.3602
▁programvare	-10.3604
▁utvikle	-10.3611
▁beat	-10.3611
▁drikke	-10.3612
▁portrett	-10.3614
samband	-10.3614
▁skjønn	-10.3623
▁begrense	-10.3631
hop	-10.3645
▁likhet	-10.3652
▁utkom	-10.3665
▁tykk	-10.3675
qi	-10.3679
elius	-10.3679
▁amb	-10.3688
▁gjeng	-10.3693
▁jud	-10.3703
▁utøve	-10.3706
▁viste	-10.3706
bunn	-10.3709
▁forsvaret	-10.3716
▁vestre	-10.3725
▁kab	-10.373
sundet	-10.3731
▁historien	-10.3743
▁grunnlegge	-10.3744
▁gjø	-10.3758
▁restaurant	-10.376
▁1941	-10.376
▁1958	-10.376
giovanni	-10.376
▁1962	-10.376
▁regissør	-10.376
grunnsstasjon	-10.376
▁fysisk	-10.3761
▁1912	-10.3763
▁1963	-10.3763
▁edvard	-10.3763
▁1965	-10.3764
▁generasjon	-10.3764
▁medisinsk	-10.3765
▁jackson	-10.3769
▁landskapet	-10.3769
▁uttalt	-10.3774
▁utdannelse	-10.3783
▁utløp	-10.3799
▁nyere	-10.3806
▁viking	-10.381
ittisk	-10.3823
cast	-10.3833
▁neger	-10.3842
mesterskapet	-10.3843
▁innhold	-10.3854
matisk	-10.3854
historisk	-10.3858
struktur	-10.386
▁begrep	-10.3874
▁800	-10.3877
▁168	-10.3878
▁sesong	-10.388
▁publi	-10.3896
odden	-10.3898
▁sats	-10.3915
sending	-10.3921
▁sarpsborg	-10.3921
▁1949	-10.3921
▁pseudo	-10.3921
▁alvorlig	-10.3922
▁sentralbank	-10.3924
▁stiftelsen	-10.3925
▁komposisjon	-10.3925
▁1940	-10.3925
▁telemark	-10.3927
▁styreleder	-10.3927
nytt	-10.393
▁luther	-10.3932
▁beina	-10.3934
▁markerer	-10.3938
worth	-10.3939
▁feire	-10.3951
▁olympisk	-10.3956
▁endte	-10.3957
▁län	-10.3957
▁jeff	-10.3959
støtte	-10.3967
▁bratt	-10.3978
masse	-10.3991
▁bøy	-10.3995
▁thom	-10.4
▁sønd	-10.401
design	-10.4026
skrive	-10.4028
politisk	-10.404
setting	-10.4041
atus	-10.4043
▁frihet	-10.405
aksjonen	-10.4052
▁verneområde	-10.4057
bolig	-10.4064
▁strekk	-10.4076
▁bly	-10.4083
▁tidsskriftet	-10.4085
▁selvstendig	-10.4085
▁christopher	-10.4085
▁ødelegge	-10.4085
betennelse	-10.4085
▁thailand	-10.4085
▁negativ	-10.4086
▁musikalsk	-10.4086
▁beslekte	-10.4086
▁oberst	-10.4087
mønster	-10.4088
▁1944	-10.4088
▁1946	-10.4088
▁sverre	-10.409
komiteen	-10.409
▁1800	-10.4091
visning	-10.4093
registre	-10.4096
▁skall	-10.41
▁center	-10.4101
mission	-10.4101
▁slang	-10.4105
▁tilpasse	-10.4109
▁dvs	-10.4109
katt	-10.4111
▁600	-10.4113
▁lavere	-10.4118
bæk	-10.4126
▁105	-10.4127
▁johnson	-10.4135
▁forkortelse	-10.4157
▁frp	-10.4169
▁reist	-10.4174
tekst	-10.4175
▁krf	-10.4178
▁grim	-10.4192
▁grei	-10.4192
akademi	-10.4194
▁49	-10.4199
▁utenriks	-10.4211
▁brei	-10.4216
thal	-10.4218
ddy	-10.4226
▁emp	-10.4233
▁doktorgrad	-10.4252
▁eksperiment	-10.4252
▁således	-10.4252
▁generelt	-10.4252
▁kombinert	-10.4252
konferanse	-10.4252
▁cirka	-10.4252
▁hovedkvarter	-10.4255
▁revolusjon	-10.4257
▁sjelden	-10.4258
▁brown	-10.4259
▁landsforening	-10.4261
▁konkurransen	-10.4264
▁petr	-10.4266
▁sammenligne	-10.427
▁franz	-10.4275
▁young	-10.4284
▁oppdrag	-10.4291
▁olaf	-10.4292
zzo	-10.4299
gass	-10.4301
▁walter	-10.4301
▁karbon	-10.4315
bukk	-10.4318
▁oppsto	-10.4325
▁austr	-10.4334
▁kno	-10.4337
▁fløy	-10.4343
bevis	-10.4351
▁baby	-10.4356
▁maj	-10.4358
kontroll	-10.4365
▁bidra	-10.4373
kunstner	-10.4378
regiment	-10.4383
forvaltning	-10.4385
▁tolk	-10.4405
arafa	-10.4405
kammer	-10.4411
blom	-10.4412
▁corporation	-10.4421
▁electric	-10.4421
▁dirigent	-10.4421
▁1959	-10.4421
▁utbredt	-10.4421
▁central	-10.4422
▁bosetning	-10.4422
▁elektronisk	-10.4423
▁global	-10.4424
▁1948	-10.4425
▁musikkalbum	-10.4426
järvi	-10.4426
versjon	-10.4427
▁nordsamisk	-10.4434
burn	-10.4434
situasjon	-10.4436
bjørg	-10.4438
eksamen	-10.4439
pakke	-10.4444
▁innerst	-10.4452
ал	-10.4457
forsyning	-10.4472
▁little	-10.4478
skab	-10.4483
▁term	-10.4486
tjenesten	-10.4492
grunnlaget	-10.4497
owski	-10.4531
behandling	-10.4541
redskap	-10.4551
kompetanse	-10.4594
sekvens	-10.4594
▁naturreservat	-10.4595
komité	-10.4595
▁premier	-10.4595
▁seinere	-10.4595
▁1936	-10.4596
▁prinsesse	-10.4596
▁gråbrun	-10.4597
▁søndag	-10.4598
faktor	-10.4601
▁angripe	-10.4601
▁ungdomsskole	-10.4603
▁skytter	-10.4604
▁hamburg	-10.461
▁effektiv	-10.4613
stått	-10.4615
teater	-10.4636
▁karakteristisk	-10.464
▁grund	-10.464
▁tab	-10.4644
▁hev	-10.4645
edderkopper	-10.465
▁white	-10.4656
thing	-10.4657
▁spring	-10.4663
▁sovjetisk	-10.4671
▁bassist	-10.4673
▁alban	-10.4673
▁fish	-10.4677
▁philipp	-10.4684
basseng	-10.4688
xiang	-10.4732
institut	-10.4744
butikk	-10.4747
kommunikasjon	-10.4759
▁arrangerer	-10.4769
▁beseiret	-10.4769
▁systematikken	-10.4769
▁fullstendig	-10.4769
▁positiv	-10.4769
▁væske	-10.4769
▁egenskaper	-10.477
dommer	-10.477
▁kobber	-10.4771
▁what	-10.4772
▁tropisk	-10.4772
▁isbn	-10.4772
▁1942	-10.4773
▁ukjent	-10.4776
▁bodø	-10.4778
▁hovedkontor	-10.478
følelse	-10.4781
artikkel	-10.4792
▁isteden	-10.4798
▁jones	-10.48
▁plast	-10.48
▁show	-10.4806
▁tynn	-10.4806
▁heart	-10.4807
▁blind	-10.4809
▁jente	-10.4814
▁hørte	-10.4819
▁mam	-10.4822
▁inneha	-10.4825
▁puppe	-10.4826
▁agder	-10.4827
▁victoria	-10.4833
katalog	-10.4845
▁reich	-10.4851
kjøring	-10.4852
▁acc	-10.4865
lista	-10.4868
▁tusen	-10.4873
▁falk	-10.4874
marked	-10.4891
▁water	-10.4897
▁stang	-10.4899
melding	-10.4907
aux	-10.4907
▁tross	-10.4915
sentral	-10.4921
▁fib	-10.4939
▁begynnelsen	-10.4948
▁innflytelse	-10.4948
opplæring	-10.4948
▁airlines	-10.4948
▁rådgiv	-10.4948
▁church	-10.4948
▁petersburg	-10.4948
▁utvidet	-10.4948
ensemble	-10.4948
▁gabriel	-10.4949
▁stefan	-10.495
▁opptrer	-10.495
▁igjennom	-10.4952
▁vannkraftverk	-10.4953
▁1920	-10.4954
▁micro	-10.4954
terminal	-10.4956
▁foretrekke	-10.4956
▁hovedrollen	-10.4961
▁zhang	-10.4964
▁jacobsen	-10.4964
▁verdenskrig	-10.4967
▁german	-10.4976
▁aksel	-10.4977
▁eugen	-10.4981
▁landslag	-10.4991
▁arg	-10.4992
▁skyte	-10.4996
▁befinne	-10.4998
administrasjon	-10.5003
pleie	-10.5004
▁mario	-10.501
▁francis	-10.5011
▁junior	-10.5012
turnering	-10.5012
▁oval	-10.5015
▁69	-10.5019
▁foreta	-10.5021
ible	-10.5028
▁brent	-10.5034
▁skjel	-10.5035
▁nova	-10.5055
▁omhandle	-10.5061
▁rou	-10.5068
abad	-10.5071
▁ulik	-10.5078
▁petro	-10.5082
brev	-10.5097
hår	-10.5098
ated	-10.5099
▁integr	-10.51
sykdommer	-10.5112
direktoratet	-10.513
▁heinrich	-10.513
▁konkurrere	-10.513
▁installert	-10.513
▁eventyr	-10.513
▁ludvig	-10.513
▁sanskrit	-10.513
▁european	-10.513
▁margaret	-10.513
▁frivillig	-10.513
▁hertug	-10.5131
▁jødisk	-10.5131
▁kveld	-10.5132
▁drei	-10.5133
▁1947	-10.5133
▁1910	-10.5134
▁knytte	-10.514
▁snart	-10.514
bebyggelse	-10.5143
strøk	-10.5151
▁inndeling	-10.5154
▁fritz	-10.5163
▁still	-10.5165
▁erstatte	-10.5168
▁lunge	-10.5168
▁public	-10.5173
utøver	-10.5181
gudinne	-10.5182
familie	-10.5182
▁kvit	-10.5184
▁hauk	-10.5192
høyskole	-10.5197
utgave	-10.5211
▁modern	-10.5223
▁life	-10.5241
▁norman	-10.5243
høyden	-10.5263
grønn	-10.528
▁ytter	-10.531
▁aleksandr	-10.5315
▁brødrene	-10.5315
▁ukraina	-10.5315
▁firmaet	-10.5315
▁initiativ	-10.5315
▁science	-10.5315
▁1954	-10.5315
▁eventuel	-10.5315
▁publikum	-10.5315
▁registrert	-10.5315
overflaten	-10.5316
▁definert	-10.5316
▁hytte	-10.5316
▁innebære	-10.5317
▁spania	-10.5318
▁samuel	-10.532
rettigheter	-10.532
▁kvalifiser	-10.5323
▁barnehage	-10.5325
▁formula	-10.5325
løyp	-10.5326
▁flekker	-10.5328
▁veldig	-10.533
▁rednings	-10.533
▁eirik	-10.5331
ин	-10.5338
ка	-10.5339
▁trekant	-10.5346
▁right	-10.5348
ulykke	-10.5349
▁barneskole	-10.5362
▁nevro	-10.5363
▁ytterst	-10.5367
▁muskel	-10.5372
▁nordover	-10.5379
▁foreldrene	-10.5389
▁slektning	-10.5417
▁irland	-10.5418
▁bredd	-10.5429
▁visse	-10.5445
biologi	-10.5449
▁munk	-10.5451
bølge	-10.5473
arkiv	-10.5484
▁tildele	-10.5491
▁sjel	-10.5501
støl	-10.5503
▁vietnam	-10.5503
▁arrangeres	-10.5504
▁juridisk	-10.5504
▁krevde	-10.5504
▁australsk	-10.5504
veksling	-10.5504
▁reklame	-10.5504
▁kriminal	-10.5504
▁datterselskap	-10.5504
▁axel	-10.5505
▁utmerkelse	-10.5505
▁1928	-10.5506
▁1916	-10.5507
▁erklært	-10.5516
▁corp	-10.5517
▁lisens	-10.552
▁bjerk	-10.5521
▁utnytte	-10.5523
ngrid	-10.5524
kvartett	-10.5524
▁115	-10.5525
▁forvalte	-10.5528
▁vennskap	-10.5536
nemlig	-10.5536
▁night	-10.5541
svermer	-10.5544
gjæ	-10.5561
▁beregne	-10.5578
relatert	-10.558
▁vindu	-10.558
bregne	-10.5582
tjern	-10.5583
brett	-10.5618
▁plateselskap	-10.5627
styrken	-10.5629
▁mulighet	-10.5632
modul	-10.5662
▁mach	-10.5688
▁frøy	-10.569
íng	-10.5694
▁færøyene	-10.5696
▁gymnas	-10.5696
▁katedral	-10.5696
▁opplagstall	-10.5696
▁valgdelta	-10.5696
▁texas	-10.5696
▁anerkjent	-10.5696
▁dokumentar	-10.5696
▁rykket	-10.5697
▁hemmelig	-10.5699
▁1937	-10.57
▁francisco	-10.5701
▁finnmark	-10.5702
stipend	-10.5704
▁meyer	-10.5705
▁skrå	-10.5706
▁bevart	-10.5707
▁kommunikasjons	-10.5708
lengde	-10.5711
▁smelt	-10.5719
▁orgel	-10.5733
▁sørover	-10.574
▁geit	-10.5762
▁hyper	-10.5766
▁konst	-10.577
nettverk	-10.5771
knapp	-10.5783
▁philip	-10.5795
▁skuespill	-10.5804
▁edel	-10.5807
kjønn	-10.5846
▁troms	-10.5846
transport	-10.5864
konsert	-10.5867
cture	-10.5872
▁windows	-10.5892
▁manuskript	-10.5892
▁mexico	-10.5892
▁rudolf	-10.5892
▁linux	-10.5892
▁ovenfor	-10.5892
▁prosessor	-10.5892
maleri	-10.5893
▁finskspråklig	-10.5893
▁terror	-10.5894
betjent	-10.5894
▁1924	-10.5895
▁datamaskin	-10.5895
▁1939	-10.5896
▁vev	-10.5902
▁utgjorde	-10.5904
▁utgivelsen	-10.5904
▁donau	-10.5916
▁enorm	-10.5916
kjennetegn	-10.5928
terrier	-10.5935
wich	-10.5958
▁feder	-10.597
▁sender	-10.5975
▁opprette	-10.5976
▁kunde	-10.5977
▁santo	-10.6013
▁font	-10.6014
öll	-10.6048
skyting	-10.6066
dynastiet	-10.6068
eiro	-10.6071
ро	-10.6075
▁byfylke	-10.6092
▁mediebedriften	-10.6092
▁trommeslager	-10.6092
forstyrrelse	-10.6092
▁1951	-10.6092
▁kongedømme	-10.6092
▁konsept	-10.6092
▁monument	-10.6092
▁minutter	-10.6092
▁fenomen	-10.6092
fysikk	-10.6092
▁ungarsk	-10.6092
▁fattig	-10.6092
fasade	-10.6092
▁hjørne	-10.6092
▁regulere	-10.6093
▁dream	-10.6094
▁1927	-10.6095
▁monark	-10.6097
▁bjarn	-10.6097
▁varianter	-10.6099
▁eiendommen	-10.61
▁debatt	-10.6102
▁spesifik	-10.6103
▁pistol	-10.6104
▁arab	-10.6105
▁susan	-10.6105
▁nedlagt	-10.6107
▁øystein	-10.6109
▁diesel	-10.6113
▁vandre	-10.6118
▁ltd	-10.6119
tvedt	-10.6126
▁automatisk	-10.6126
▁legend	-10.6137
▁fasci	-10.6138
vík	-10.6141
▁potet	-10.6149
▁sveits	-10.616
motiv	-10.6162
kirch	-10.6167
stigning	-10.6178
▁hotel	-10.6181
▁rulle	-10.6235
europe	-10.6239
▁grunnlov	-10.6257
divisjon	-10.6276
teknologi	-10.6278
▁bosatt	-10.6279
karriere	-10.628
nskripsjon	-10.6296
▁rekrutt	-10.6296
▁1906	-10.6296
▁admiral	-10.6296
▁asteroide	-10.6296
▁parallell	-10.6296
▁forbinder	-10.6296
▁ekstrem	-10.6296
▁innsats	-10.6297
▁1933	-10.6298
▁nyhets	-10.63
▁1938	-10.63
givelse	-10.6306
▁nærheten	-10.6307
▁biografi	-10.6312
▁oppnådd	-10.6313
▁rapporter	-10.6314
styring	-10.6317
▁diplomat	-10.6317
▁sammenlagt	-10.6318
▁kaffe	-10.6324
▁studere	-10.6325
▁lykke	-10.633
▁palme	-10.6337
sykler	-10.6342
▁islandsk	-10.6348
▁variert	-10.6355
ière	-10.6358
го	-10.6362
stiftelse	-10.6391
▁bekke	-10.6398
▁stokk	-10.6412
▁aero	-10.6412
▁departement	-10.6417
skjerm	-10.6425
▁larve	-10.6429
statue	-10.644
▁klippe	-10.6448
ifikasjon	-10.6493
▁jä	-10.6498
korset	-10.6502
▁wol	-10.6504
▁undergrunnsbane	-10.6504
▁elizabeth	-10.6504
▁nødvendig	-10.6504
▁utelukkende	-10.6504
▁unntatt	-10.6504
▁1929	-10.6504
▁umiddelbar	-10.6504
▁referanse	-10.6504
▁vesentlig	-10.6504
▁fungerte	-10.6504
vassdraget	-10.6505
▁sjeldne	-10.6505
▁kjøretøy	-10.6505
▁ansikt	-10.6507
▁gerhard	-10.6508
▁definere	-10.6509
▁fullført	-10.6509
▁unntak	-10.6509
▁demningen	-10.6522
▁varianten	-10.6522
evitsj	-10.6528
▁score	-10.6528
▁1000	-10.6529
▁cross	-10.6533
▁utenom	-10.6533
▁tennis	-10.6535
▁amfi	-10.6538
▁manuel	-10.654
▁bakover	-10.6541
blomsterflue	-10.6545
fatning	-10.6547
stråle	-10.6549
▁sparta	-10.6579
▁athen	-10.6588
▁kath	-10.6589
▁styrte	-10.66
▁sørge	-10.6639
▁verdensmester	-10.6643
sypress	-10.6646
▁sveitsisk	-10.6646
ск	-10.6664
▁arb	-10.6694
▁regjer	-10.6696
soldater	-10.6705
ttoregistertonn	-10.6717
▁svalbard	-10.6717
▁buddhist	-10.6717
▁guvernør	-10.6717
▁1907	-10.6717
▁unicode	-10.6717
▁kombinasjon	-10.6717
▁geografisk	-10.6717
▁strategi	-10.6717
▁adolf	-10.6717
kommandant	-10.6717
▁nominert	-10.6717
konvensjon	-10.6718
▁nepal	-10.6719
▁utenlandsk	-10.6719
▁1911	-10.6721
▁text	-10.6722
palasset	-10.6723
▁import	-10.6725
▁brønn	-10.6727
▁style	-10.6728
▁spyd	-10.6728
▁høyesterett	-10.6729
▁canadi	-10.6745
kjerne	-10.6752
finansiert	-10.6757
konsern	-10.6758
▁know	-10.6772
plikasjon	-10.6781
stamme	-10.6783
toft	-10.6802
▁kjenne	-10.6815
▁great	-10.6827
▁luci	-10.6857
hawk	-10.6881
orientert	-10.6883
▁psyko	-10.6886
▁slave	-10.6899
størrelse	-10.6928
representant	-10.6929
▁california	-10.6935
▁microsoft	-10.6935
▁konflikt	-10.6935
▁tsjekkisk	-10.6935
▁pakistan	-10.6935
▁utgangspunkt	-10.6935
komponent	-10.6935
▁antarktis	-10.6935
▁vestfold	-10.6935
▁fungerer	-10.6935
▁evangeli	-10.6935
▁county	-10.6935
▁århundre	-10.6935
teatret	-10.6935
▁oppstår	-10.6935
▁redusert	-10.6935
▁besetning	-10.6936
straße	-10.6936
▁belgisk	-10.6936
▁arendal	-10.6936
▁afrikansk	-10.6937
▁1931	-10.6937
▁1935	-10.6937
▁1925	-10.6938
▁beholdt	-10.6938
▁1923	-10.6938
▁embets	-10.6939
▁skygge	-10.6945
▁turneringen	-10.6945
▁nevner	-10.6953
▁tjener	-10.6953
slutt	-10.6954
▁ultra	-10.6956
▁onkel	-10.6956
▁institute	-10.6956
näs	-10.6965
▁delgruppe	-10.6971
▁gjeld	-10.6979
▁plassering	-10.6997
messe	-10.7019
forekomst	-10.7032
etappe	-10.7114
ã	-10.7117
posisjon	-10.715
▁nettsted	-10.7153
▁aleksander	-10.7157
▁frankfurt	-10.7157
▁benjamin	-10.7157
▁sykepleie	-10.7157
▁fjernsyns	-10.7157
▁muslim	-10.7157
▁bidro	-10.7157
▁utdype	-10.7158
▁kallenavn	-10.7158
▁communi	-10.7158
▁diverse	-10.7159
▁fuktig	-10.7159
▁1913	-10.716
▁bokstavelig	-10.716
▁1914	-10.716
▁1919	-10.716
ector	-10.7161
▁clark	-10.7163
▁bundes	-10.7163
terapi	-10.7165
▁leonard	-10.7165
▁bensin	-10.7166
trukket	-10.7166
▁viktor	-10.7167
▁pettersen	-10.7167
▁larvik	-10.7169
▁uavhengighet	-10.717
▁klatre	-10.7175
▁kjel	-10.718
joki	-10.7182
▁1899	-10.7186
nathan	-10.7195
avgift	-10.7211
tavle	-10.7228
klipp	-10.7231
vokst	-10.7239
▁intens	-10.724
opptak	-10.7289
▁avvist	-10.729
▁hjemmeside	-10.735
evolusjon	-10.7377
▁bevege	-10.7378
▁afghanistan	-10.7384
▁arrangør	-10.7384
▁portugisisk	-10.7384
▁tusenårssted	-10.7384
▁fakultet	-10.7384
▁favoritt	-10.7384
▁ferskvann	-10.7384
▁country	-10.7384
▁oppdatert	-10.7384
▁observer	-10.7384
▁league	-10.7384
leksikon	-10.7384
▁tyrkia	-10.7384
▁people	-10.7384
▁haakon	-10.7385
▁forbedre	-10.7385
▁sprint	-10.7385
▁separat	-10.7385
mekanisme	-10.7386
▁apollo	-10.7386
▁stryke	-10.7387
▁1921	-10.7387
▁generalsekretær	-10.7387
▁1917	-10.7388
▁avledet	-10.7388
▁fjellkjede	-10.7388
▁fotballspiller	-10.739
▁kritikk	-10.7391
▁overlever	-10.7391
▁tibetansk	-10.7392
▁hindre	-10.7395
▁skilt	-10.741
align	-10.7414
gjenger	-10.7416
▁alex	-10.7421
hvelv	-10.7437
pumpe	-10.7453
ould	-10.7481
▁kirkegård	-10.7489
aften	-10.7503
▁hjemmebane	-10.7511
▁mjø	-10.7522
▁moll	-10.7547
▁lasse	-10.7606
byrd	-10.761
▁bulgarsk	-10.7617
▁utbredelse	-10.7617
▁1908	-10.7617
▁1934	-10.7617
▁natrium	-10.7617
▁jacque	-10.7617
leverandør	-10.7617
▁risiko	-10.7617
στ	-10.7618
▁spreng	-10.7618
▁nkp	-10.762
▁behov	-10.762
▁arbeiderpartiet	-10.7621
temperatur	-10.7622
▁planlagt	-10.7623
▁sykdommen	-10.7624
▁trenger	-10.7624
▁lokalisert	-10.7625
▁hindu	-10.7626
arkitekt	-10.7626
▁down	-10.7631
▁bygninger	-10.7632
▁landskaps	-10.7634
▁vitenskaps	-10.7636
▁idrettsforening	-10.7641
▁bedriften	-10.7645
kvinne	-10.7645
face	-10.7687
▁sørsid	-10.7688
▁låten	-10.7709
middag	-10.7754
fløyte	-10.7813
missil	-10.7815
▁institusjon	-10.7851
▁signert	-10.7852
▁erkebiskop	-10.7855
▁jurisdiksjon	-10.7855
▁keyboard	-10.7855
▁oksygen	-10.7855
▁psykisk	-10.7855
▁joachim	-10.7855
▁1905	-10.7855
▁sichuan	-10.7855
▁1902	-10.7855
▁øyeblikk	-10.7855
▁gustaf	-10.7855
▁selvmord	-10.7855
▁eivind	-10.7855
▁tilsluttet	-10.7855
▁theodor	-10.7855
▁alexandr	-10.7855
▁innskriften	-10.7856
▁ntnu	-10.7856
▁bøkene	-10.7856
▁eksistert	-10.7856
▁nymfe	-10.7856
syndrom	-10.7857
▁1926	-10.7858
▁1922	-10.7858
▁werner	-10.786
▁adrian	-10.7861
▁betong	-10.7864
▁øks	-10.7866
time	-10.7888
▁personlighet	-10.7912
▁søyle	-10.7913
oidea	-10.7919
▁diagnos	-10.7959
▁kreert	-10.7986
▁bett	-10.7995
ørret	-10.8
▁harmoni	-10.8054
▁automat	-10.8065
distribusjon	-10.8099
▁aluminium	-10.8099
▁guangdong	-10.8099
▁münchen	-10.8099
▁oppmerksomhet	-10.8099
▁research	-10.8099
ópolis	-10.8099
▁kristoffer	-10.8099
▁colombia	-10.8099
▁support	-10.8099
▁gælisk	-10.8099
svarte	-10.8099
▁kjøpmann	-10.8099
▁utseende	-10.8099
▁senior	-10.8099
▁symbolisere	-10.81
▁oversikt	-10.81
▁taiwan	-10.81
▁lewis	-10.81
▁organisere	-10.8101
materiell	-10.8101
▁fangst	-10.8101
▁ekteskap	-10.8102
▁batteri	-10.8103
▁jimmy	-10.8103
historiker	-10.812
utvalget	-10.8134
▁hvile	-10.8146
▁etnisk	-10.8231
▁rådhus	-10.8253
blikk	-10.8266
foretak	-10.8337
▁færøysk	-10.8349
▁maksimal	-10.8349
▁society	-10.8349
▁symphon	-10.8349
▁vedlikehold	-10.8349
▁observasjon	-10.8349
▁tønsberg	-10.8349
▁regulering	-10.8349
presentasjon	-10.8349
▁oppretthold	-10.8349
sylindre	-10.8349
▁veksel	-10.8349
▁nøyaktig	-10.8349
▁heavy	-10.8349
▁ungarn	-10.8349
▁trondhjem	-10.8349
▁bærum	-10.835
▁serbisk	-10.835
▁brigade	-10.835
▁sibir	-10.8351
forhandling	-10.8351
▁monroe	-10.8351
▁stadium	-10.8351
▁flytende	-10.8352
▁1943	-10.8353
▁first	-10.8355
▁oppgaver	-10.8355
▁bremse	-10.8356
▁western	-10.8359
▁volks	-10.836
▁indikere	-10.8362
▁riktig	-10.8363
▁stedsnavn	-10.8364
regjering	-10.8377
litteratur	-10.8377
programmet	-10.8381
utstillinger	-10.8384
gjorde	-10.8387
▁earl	-10.8392
lokale	-10.8424
▁bringe	-10.846
klub	-10.8489
▁nerve	-10.8533
sirkel	-10.8569
▁ludwig	-10.8605
▁sebastian	-10.8605
▁washington	-10.8605
▁alminnelig	-10.8605
▁göteborg	-10.8605
▁innbyggerne	-10.8605
▁halvorsen	-10.8605
▁pradesh	-10.8605
▁inspirasjon	-10.8605
▁sparebank	-10.8605
▁taylor	-10.8605
▁sophie	-10.8605
▁permanent	-10.8605
▁overlevde	-10.8605
▁forsvant	-10.8605
gjødsel	-10.8605
traktaten	-10.8606
▁hovedpersonen	-10.8606
▁faktisk	-10.8607
▁1932	-10.8608
▁litterær	-10.8609
▁1915	-10.8609
sammensetning	-10.8616
▁ibsen	-10.8619
▁moore	-10.8622
kjent	-10.8667
▁900	-10.8696
hytta	-10.8706
sponsor	-10.8723
bestand	-10.8724
▁anerkjenne	-10.8754
bevegelse	-10.88
▁størst	-10.8847
skvadron	-10.8868
ская	-10.8868
ский	-10.8868
▁kollektiv	-10.8868
▁observato	-10.8868
▁omdøpt	-10.8868
▁vladimir	-10.8868
▁antagelig	-10.8868
▁democra	-10.8868
▁abraham	-10.8868
▁frigjøring	-10.8868
patrulje	-10.8868
▁stimul	-10.8868
▁stephen	-10.8869
▁belgia	-10.8869
▁kroatisk	-10.8869
▁sektor	-10.8869
protokoll	-10.8869
▁bmw	-10.8869
teoretisk	-10.887
▁patriark	-10.887
▁velkjent	-10.887
▁spredt	-10.8871
▁opposisjon	-10.8871
▁arnold	-10.8871
▁koreansk	-10.8872
▁tørke	-10.8872
▁forkroppen	-10.8872
institusjoner	-10.8873
▁romsdal	-10.8873
▁1600	-10.8874
kobling	-10.8875
▁brenselstype	-10.8875
▁office	-10.8877
▁1700	-10.8877
iformes	-10.8877
▁nettside	-10.8878
▁straks	-10.8878
▁nederst	-10.888
▁bispe	-10.8888
▁mandat	-10.8895
syssel	-10.8898
aktive	-10.8898
▁kjørt	-10.8915
vitenskapelig	-10.8922
kjennelse	-10.8936
forandring	-10.8978
нов	-10.9037
krav	-10.9037
▁geologi	-10.9041
fordeling	-10.9058
periode	-10.908
økologi	-10.9101
▁aftenposten	-10.9138
▁bryllup	-10.9138
▁jomfru	-10.9138
▁kronprins	-10.9138
▁tilknytning	-10.9138
▁kontinental	-10.9138
▁synonym	-10.9138
▁bryggeri	-10.9138
▁skihopper	-10.9138
▁hybrid	-10.9139
▁cappelen	-10.9139
▁matematisk	-10.9139
▁tvilling	-10.9139
budsjett	-10.9139
▁hyppig	-10.9139
▁rogaland	-10.9139
▁terreng	-10.9139
▁astrid	-10.9139
▁prince	-10.9139
▁fernand	-10.9139
▁originaltittel	-10.9139
▁tibet	-10.9141
▁immun	-10.9141
▁ektemann	-10.9141
▁claudi	-10.9142
▁overraske	-10.9142
▁tolkien	-10.9143
▁kapittel	-10.9144
▁mengder	-10.9145
▁when	-10.915
▁skaffe	-10.9158
fremstilling	-10.9163
100	-10.9244
▁unngå	-10.9256
▁konsul	-10.9319
▁leipzig	-10.9416
▁nintendo	-10.9416
▁ortsteil	-10.9416
▁toppnivådomene	-10.9416
▁łód	-10.9416
▁identifisert	-10.9416
terapeut	-10.9416
▁management	-10.9416
▁1904	-10.9416
▁intervju	-10.9416
▁francesco	-10.9416
▁argument	-10.9416
▁litauen	-10.9416
▁alfabet	-10.9416
▁amatør	-10.9416
▁svovel	-10.9416
▁interiør	-10.9416
▁komplett	-10.9416
▁konstruert	-10.9416
▁lørdag	-10.9416
▁kritiker	-10.9416
▁vietnamesisk	-10.9417
▁sachsen	-10.9417
▁karakterisere	-10.9417
▁computer	-10.9417
▁oppdagelse	-10.9417
planlegging	-10.9418
reaktor	-10.9418
▁akutt	-10.9418
▁konsernet	-10.9418
beskyttelse	-10.9419
▁trasé	-10.942
▁iversen	-10.9422
▁generell	-10.9423
▁beslutte	-10.9426
▁llc	-10.9426
▁høydepunkt	-10.9436
ław	-10.9437
▁ekstern	-10.9441
undervisning	-10.9475
bispedømme	-10.9477
▁america	-10.948
bjerg	-10.949
▁varemerke	-10.9493
fellesskap	-10.9499
▁ligning	-10.9508
konsulent	-10.9525
▁sokn	-10.9542
▁sovjet	-10.9575
sparc	-10.9605
view	-10.9637
høyde	-10.9639
▁ideologi	-10.967
▁bulgaria	-10.9702
▁ferdinand	-10.9702
▁helikopter	-10.9702
▁hviterussisk	-10.9702
▁elektrisitet	-10.9702
▁foundation	-10.9702
▁elefant	-10.9702
▁pattedyr	-10.9702
▁grammatik	-10.9702
▁østfold	-10.9702
▁praksis	-10.9702
▁oxford	-10.9702
▁haugesund	-10.9702
▁charlotte	-10.9702
▁akershus	-10.9702
▁trebukker	-10.9702
▁krydder	-10.9702
▁trompet	-10.9702
▁overtatt	-10.9702
▁utvidelse	-10.9703
▁donald	-10.9703
▁zealand	-10.9703
▁fremstilt	-10.9703
▁hendelsen	-10.9703
▁presentert	-10.9704
▁lorenz	-10.9704
▁claude	-10.9704
▁tilbød	-10.9704
▁cooper	-10.9704
klinikk	-10.9705
▁opplevd	-10.9706
▁avrunde	-10.9706
▁centre	-10.9706
▁skøyte	-10.9707
spredning	-10.971
▁sergej	-10.9712
▁presentere	-10.9718
▁parodi	-10.9719
grip	-10.9726
▁brøt	-10.9726
▁ytelse	-10.9727
▁gryt	-10.9768
ansvarlig	-10.9769
teknisk	-10.9773
▁blanc	-10.9867
loyd	-10.9933
▁barokk	-10.9996
▁argentina	-10.9996
▁pronotum	-10.9996
▁douglas	-10.9996
▁definisjon	-10.9996
▁kvadrat	-10.9996
▁chicago	-10.9996
▁utspring	-10.9996
▁trygve	-10.9996
▁nanjing	-10.9996
▁ressurs	-10.9996
▁bystatus	-10.9996
▁betydningsfull	-10.9996
▁grün	-10.9996
▁gyllen	-10.9996
▁ringerike	-10.9997
▁hvem	-10.9997
▁christensen	-10.9997
▁two	-10.9998
▁massiv	-11.0001
▁våt	-11.0002
▁suppl	-11.0005
▁informati	-11.0008
▁armensk	-11.0008
gjenstander	-11.0008
▁oppnå	-11.0009
bragt	-11.0013
kollega	-11.0017
seksuell	-11.002
vokter	-11.0044
syklus	-11.0069
tradisjon	-11.0071
papir	-11.0072
tolkning	-11.0081
prøve	-11.0085
craft	-11.0089
glass	-11.0178
▁opptrådt	-11.0273
▁cerambyc	-11.0299
▁chrysomel	-11.0299
inspektør	-11.0299
▁barcelona	-11.0299
▁françois	-11.0299
▁lokomotiv	-11.0299
▁matematiker	-11.0299
▁slovakia	-11.0299
▁østerriksk	-11.0299
▁beslutning	-11.0299
▁leopold	-11.0299
▁renessanse	-11.0299
▁selvbiografi	-11.0299
▁1903	-11.0299
▁lulesamisk	-11.0299
▁landkreis	-11.0299
territorie	-11.0299
▁gjennomsnittlig	-11.0299
▁amundsen	-11.0299
▁1873	-11.0299
▁høyhastighets	-11.0299
köping	-11.0299
▁wright	-11.0299
▁detroit	-11.03
▁rumensk	-11.03
script	-11.03
▁russell	-11.03
▁wessel	-11.03
▁birger	-11.0301
reservat	-11.0303
▁skjøt	-11.0304
▁hymn	-11.0308
▁erfaring	-11.031
▁pryd	-11.0317
▁føn	-11.033
lilje	-11.0488
hockey	-11.0606
▁philharmoni	-11.0612
▁lawrence	-11.0612
▁matematikk	-11.0612
▁meksikansk	-11.0612
▁norwegian	-11.0612
▁saksofon	-11.0612
▁sekretariat	-11.0612
▁zìzhìxiàn	-11.0612
▁forveksle	-11.0612
▁kavaleri	-11.0612
▁pyramide	-11.0612
▁uttrykt	-11.0612
▁arrestert	-11.0612
▁vertikal	-11.0612
▁kennedy	-11.0612
▁infeksjon	-11.0612
▁operativsystem	-11.0612
▁opphørte	-11.0612
▁baptist	-11.0612
▁1881	-11.0612
▁etterkommere	-11.0612
▁project	-11.0612
▁bomull	-11.0612
▁1892	-11.0612
▁legendarisk	-11.0612
hordland	-11.0612
▁kommersiell	-11.0612
zhuang	-11.0612
▁ordinær	-11.0612
mønstre	-11.0613
▁fjeld	-11.0613
▁hjelm	-11.0613
▁syklist	-11.0613
▁serbia	-11.0613
tillatelse	-11.0615
tredende	-11.0616
▁manager	-11.0617
kript	-11.062
▁anklage	-11.062
▁xiao	-11.0621
liknende	-11.063
mongolsk	-11.0642
trådte	-11.0645
seminar	-11.0653
▁parasit	-11.0654
▁republikk	-11.0671
▁dimensjon	-11.0707
▁dobbel	-11.0708
▁øygrupp	-11.0757
flått	-11.0776
▁utarbeide	-11.084
kvarter	-11.0842
▁forekomme	-11.0844
▁dynasti	-11.0861
▁overføre	-11.0921
kringkasting	-11.0934
▁infanteri	-11.0934
▁liverpool	-11.0934
▁prestegjeld	-11.0934
▁parallelt	-11.0934
▁champion	-11.0934
▁mercedes	-11.0934
▁utdødd	-11.0934
▁jersey	-11.0934
▁stjørdal	-11.0934
▁mikhail	-11.0934
▁1883	-11.0934
▁trippel	-11.0934
▁wagner	-11.0934
▁ålesund	-11.0934
▁gjald	-11.0935
▁embeds	-11.0935
▁kombinere	-11.0935
▁delstats	-11.0935
skjelettet	-11.0936
▁about	-11.0936
▁zhao	-11.0938
▁harrison	-11.0938
opptreden	-11.0939
▁anatol	-11.0941
▁antyde	-11.0942
drakter	-11.0957
▁berømt	-11.0973
monopol	-11.0988
▁tønne	-11.0993
fjær	-11.1039
provinsen	-11.104
fylki	-11.1048
reglene	-11.1125
▁rehabiliter	-11.1267
▁frilufts	-11.1267
▁giuseppe	-11.1267
▁helsingfors	-11.1267
▁kambodsja	-11.1267
▁mountain	-11.1267
▁technology	-11.1267
▁tsjekkia	-11.1267
▁tsjekkoslovakia	-11.1267
lândia	-11.1267
ć	-11.8336
ǎ	-13.0051
