<unk>	0
<s>	0
</s>	0
.	-3.28686
▁i	-3.46877
e	-3.68909
s	-3.74895
▁og	-3.83038
t	-4.21782
▁av	-4.26495
er	-4.31726
en	-4.33726
▁	-4.36498
▁en	-4.44016
▁som	-4.44565
▁er	-4.56964
▁til	-4.58
▁for	-4.65257
▁på	-4.70688
r	-4.74011
▁den	-4.86365
▁ble	-4.87694
▁det	-4.91094
▁med	-4.9193
▁var	-5.01321
n	-5.0633
et	-5.07428
▁de	-5.08199
▁han	-5.13187
▁å	-5.22796
▁fra	-5.32925
▁et	-5.44173
▁har	-5.52667
▁at	-5.58669
ene	-5.61145
a	-5.67249
ne	-5.89922
▁ved	-5.92482
▁om	-5.98226
▁også	-6.00638
▁etter	-6.00685
▁men	-6.03191
i	-6.08337
d	-6.09401
k	-6.14701
▁seg	-6.17348
▁ut	-6.18851
o	-6.19506
▁under	-6.20309
▁ikke	-6.2628
te	-6.26636
▁hadde	-6.27444
l	-6.27981
g	-6.31732
▁da	-6.32715
y	-6.3326
▁over	-6.3501
▁to	-6.38533
▁opp	-6.38926
re	-6.40172
m	-6.44395
▁inn	-6.44819
▁kan	-6.47601
▁eller	-6.48258
de	-6.49491
f	-6.54179
▁sin	-6.54296
▁andre	-6.54429
▁første	-6.58446
▁s	-6.59103
p	-6.59586
▁mot	-6.63044
▁hun	-6.63094
v	-6.64525
▁dette	-6.64715
▁1	-6.65806
h	-6.70147
▁år	-6.71822
▁mellom	-6.77892
▁18	-6.78131
▁be	-6.78893
▁hans	-6.82891
▁f	-6.84363
▁ha	-6.85841
c	-6.86503
le	-6.87061
us	-6.87103
▁a	-6.87212
▁født	-6.87347
▁fikk	-6.88435
▁denne	-6.89636
ing	-6.90637
in	-6.92251
an	-6.9284
es	-6.93615
▁flere	-6.94215
▁tre	-6.95151
▁der	-6.96134
b	-6.97223
▁kom	-6.98125
sk	-6.99248
▁del	-7.01089
▁hvor	-7.02455
na	-7.02492
▁man	-7.02724
▁alle	-7.03396
▁nord	-7.04262
ter	-7.04552
al	-7.05865
▁2	-7.06551
▁sammen	-7.09446
on	-7.09495
ende	-7.09771
▁så	-7.11583
u	-7.1348
ri	-7.14472
▁blant	-7.14974
sen	-7.16291
▁the	-7.17169
ia	-7.17232
z	-7.19672
▁c	-7.20125
▁ligger	-7.20607
▁før	-7.21399
▁mange	-7.22203
▁m	-7.23022
▁tallet	-7.23433
▁g	-7.23561
nde	-7.23568
▁senere	-7.24588
▁norge	-7.24716
ar	-7.26308
di	-7.26497
▁død	-7.27588
▁u	-7.27713
is	-7.27749
la	-7.28011
lig	-7.28877
▁3	-7.29142
▁stor	-7.30268
▁mer	-7.31203
▁siden	-7.31674
land	-7.32843
▁17	-7.33765
▁norsk	-7.33936
▁se	-7.34272
▁sør	-7.34394
j	-7.34461
▁byen	-7.34778
▁noen	-7.35175
▁være	-7.35218
▁5	-7.3628
▁disse	-7.36356
▁selv	-7.36477
▁re	-7.37094
▁blir	-7.37172
▁la	-7.37251
▁blitt	-7.37596
w	-7.37704
▁gjennom	-7.37792
▁tidligere	-7.37812
▁vært	-7.37971
▁sitt	-7.39157
ske	-7.39226
▁kommune	-7.39456
kk	-7.39621
ra	-7.40125
▁ca	-7.40184
▁4	-7.40768
ta	-7.41345
kt	-7.41804
ve	-7.41827
▁her	-7.42617
▁ny	-7.42644
ere	-7.42747
iske	-7.43183
ke	-7.43323
▁land	-7.4377
▁samme	-7.43797
ning	-7.44118
▁annet	-7.44981
vis	-7.45076
▁store	-7.45097
ma	-7.46703
▁b	-7.48566
▁kjent	-7.49031
ens	-7.51091
▁rundt	-7.51958
▁k	-7.52188
▁p	-7.52964
▁noe	-7.53065
▁st	-7.54859
▁ra	-7.5499
ry	-7.55182
ur	-7.55265
▁ol	-7.55503
ig	-7.55657
um	-7.558
▁tid	-7.56234
▁d	-7.56403
▁15	-7.56725
ck	-7.5765
ver	-7.57704
▁gikk	-7.57713
▁kunne	-7.57739
el	-7.58181
▁vant	-7.58511
▁an	-7.58716
▁dag	-7.59144
it	-7.598
be	-7.59807
or	-7.60361
li	-7.60555
isk	-7.6058
der	-7.60621
il	-7.60683
▁bo	-7.61076
ul	-7.61127
▁slik	-7.61239
▁både	-7.61574
ner	-7.61845
é	-7.61955
▁grunn	-7.62385
▁skulle	-7.62604
ø	-7.62618
▁16	-7.62638
da	-7.62876
▁mest	-7.63122
▁h	-7.6331
▁mens	-7.63818
▁spilt	-7.64041
▁enn	-7.64287
ba	-7.64546
▁vest	-7.64766
den	-7.64769
▁kon	-7.65097
ch	-7.65125
▁ro	-7.65229
for	-7.65309
▁sp	-7.65357
▁bare	-7.6544
▁frem	-7.65866
ut	-7.66644
▁sine	-7.66722
▁10	-7.66985
▁of	-7.66988
▁by	-7.67333
x	-7.67333
▁sa	-7.67607
▁ned	-7.68325
▁vil	-7.6849
ler	-7.68646
lo	-7.69883
▁al	-7.70018
at	-7.7027
▁vi	-7.70635
▁tilbake	-7.70819
lige	-7.70834
▁kr	-7.71024
▁gang	-7.71122
▁norske	-7.71158
os	-7.71231
▁km	-7.71749
▁øst	-7.71996
▁ta	-7.72527
▁skal	-7.73283
as	-7.73767
nes	-7.73794
▁nye	-7.73802
▁tok	-7.74014
ert	-7.74117
▁dem	-7.75535
▁bli	-7.75576
ng	-7.75777
øy	-7.76184
▁meter	-7.7623
▁7	-7.76622
▁ham	-7.76779
nd	-7.77408
▁navn	-7.77577
▁usa	-7.77827
▁fire	-7.7809
▁lag	-7.78352
▁ba	-7.78479
ro	-7.79147
om	-7.79729
▁6	-7.80004
▁få	-7.80867
ton	-7.80934
▁fram	-7.8107
å	-7.81463
▁8	-7.81524
▁fly	-7.81719
▁navnet	-7.81786
▁finnes	-7.82155
ist	-7.82327
erte	-7.82327
▁ni	-7.82418
bo	-7.8264
▁mai	-7.8269
▁ofte	-7.8299
▁siste	-7.83043
skap	-7.83154
▁000	-7.8453
th	-7.84969
mann	-7.85636
▁o	-7.85751
▁hele	-7.85781
ste	-7.85804
▁ga	-7.8582
▁oslo	-7.8596
ff	-7.86242
ær	-7.86521
▁t	-7.86545
het	-7.86713
bi	-7.86988
sa	-7.87006
si	-7.87075
ö	-7.87129
ge	-7.88375
▁v	-7.8871
▁e	-7.88787
▁hoved	-7.89214
▁li	-7.89393
▁største	-7.8981
▁pi	-7.90047
erne	-7.90086
ol	-7.90184
▁mars	-7.90755
▁august	-7.91307
mp	-7.91471
ll	-7.91779
id	-7.92278
mer	-7.92305
ga	-7.92322
▁nå	-7.92347
son	-7.92355
ger	-7.92497
stad	-7.9257
▁si	-7.92835
▁9	-7.93043
ell	-7.93052
▁fri	-7.93058
▁ho	-7.93378
ja	-7.93474
ven	-7.9365
▁fa	-7.93673
▁januar	-7.93748
am	-7.93796
▁deltok	-7.93803
▁laget	-7.93955
▁mål	-7.93963
je	-7.94283
▁når	-7.94482
▁no	-7.95016
to	-7.95105
▁juli	-7.95214
▁2008	-7.95439
▁12	-7.96492
mi	-7.96534
▁far	-7.96894
▁di	-7.96975
kke	-7.96982
me	-7.97094
▁ti	-7.97258
pe	-7.97584
▁området	-7.97969
▁årene	-7.98227
▁20	-7.98503
▁rekke	-7.98539
mo	-7.98934
ør	-7.99121
▁lang	-7.99393
▁co	-7.99437
ad	-7.99526
by	-7.99834
va	-7.99847
▁landet	-7.99928
ka	-8.00442
▁par	-8.00498
▁14	-8.00622
▁september	-8.00692
else	-8.00913
ker	-8.00972
▁ri	-8.01
man	-8.01029
▁kalt	-8.01072
▁juni	-8.01225
▁in	-8.01356
▁y	-8.01821
▁igjen	-8.01835
▁11	-8.01841
▁he	-8.01992
▁samt	-8.02385
▁mindre	-8.02415
dal	-8.02507
▁bak	-8.02744
gen	-8.03209
op	-8.03796
berg	-8.03848
ingen	-8.04206
bu	-8.04773
este	-8.04795
▁tillegg	-8.04931
▁du	-8.05103
▁satt	-8.05499
sjon	-8.05654
▁oktober	-8.05736
▁13	-8.0585
ling	-8.06139
ha	-8.06394
▁først	-8.06649
▁desember	-8.06938
▁vanlig	-8.06965
▁per	-8.07158
▁kirke	-8.07602
▁2007	-8.07756
▁deres	-8.07793
▁begynte	-8.07833
▁bi	-8.08863
▁europa	-8.08976
▁n	-8.0898
▁ko	-8.09286
▁brukt	-8.09582
▁kun	-8.09657
▁mar	-8.09933
▁tro	-8.10387
▁rett	-8.10539
asjon	-8.11029
tter	-8.11218
av	-8.11475
▁2010	-8.11691
▁le	-8.11928
ho	-8.121
▁april	-8.12104
go	-8.1293
▁tiden	-8.13012
▁plass	-8.13098
ok	-8.13121
▁går	-8.13457
gang	-8.13711
▁uten	-8.13787
▁november	-8.13815
vi	-8.13916
pp	-8.13953
co	-8.14008
▁mye	-8.14243
ring	-8.14414
▁j	-8.15225
▁helt	-8.15487
rett	-8.15687
▁l	-8.1569
ster	-8.15994
▁spiller	-8.16107
vik	-8.16127
▁februar	-8.1666
▁døde	-8.1697
▁as	-8.17273
rede	-8.17384
▁fem	-8.17575
▁videre	-8.17794
▁tv	-8.17823
▁w	-8.18274
men	-8.18519
▁te	-8.18999
ering	-8.19259
▁imidlertid	-8.20047
▁2006	-8.20056
▁skole	-8.20139
ang	-8.20227
ce	-8.203
▁utgitt	-8.20359
▁ville	-8.20869
▁hos	-8.20936
lse	-8.21307
▁alt	-8.21734
▁nasjonal	-8.22026
▁året	-8.22136
▁2009	-8.22142
▁større	-8.22179
▁bruk	-8.22266
ed	-8.22471
gi	-8.22576
▁gjen	-8.22758
▁ski	-8.22832
▁medlem	-8.2287
▁mo	-8.22996
ns	-8.23189
▁gi	-8.23275
▁po	-8.23325
ti	-8.23883
▁30	-8.2403
gg	-8.24117
ic	-8.24223
▁leder	-8.24331
▁bar	-8.24367
▁må	-8.2437
dd	-8.24854
ier	-8.25124
▁form	-8.25315
▁beste	-8.25407
▁lo	-8.25458
▁bu	-8.2554
ment	-8.25573
ni	-8.25759
3	-8.26091
▁pro	-8.26169
▁ka	-8.26366
▁like	-8.26581
▁egen	-8.2665
▁folke	-8.26712
stand	-8.26781
▁gjorde	-8.26789
▁tyske	-8.26896
len	-8.26902
▁tatt	-8.27463
▁hver	-8.2778
▁lu	-8.2795
▁ei	-8.2814
▁new	-8.28334
lin	-8.28508
▁ki	-8.28563
▁hennes	-8.28586
▁2011	-8.28682
▁tyskland	-8.28785
▁film	-8.29214
▁støtte	-8.29349
▁0	-8.29459
ko	-8.29606
tak	-8.29725
▁ingen	-8.2973
sh	-8.29767
▁gamle	-8.30207
▁kina	-8.3034
▁kommer	-8.30462
▁musikk	-8.30679
▁deretter	-8.30715
▁olympisk	-8.30784
▁mor	-8.30838
▁derfor	-8.3115
▁måtte	-8.31236
▁and	-8.31259
▁svær	-8.31284
▁sønn	-8.31295
▁na	-8.31301
▁2005	-8.31478
▁nær	-8.31489
▁ru	-8.3152
ina	-8.31554
tor	-8.31674
▁startet	-8.31745
dan	-8.31748
▁el	-8.31905
var	-8.31909
▁opprinnelig	-8.32242
▁gift	-8.32591
▁filmen	-8.32662
ku	-8.32975
tur	-8.33066
▁ar	-8.33109
▁innen	-8.33337
▁tidlig	-8.33931
▁em	-8.3398
ä	-8.34141
ion	-8.34214
over	-8.34844
▁tra	-8.34927
▁samtidig	-8.35158
▁kunst	-8.35301
ir	-8.35303
▁ulike	-8.35553
ant	-8.35607
▁består	-8.35683
ings	-8.35769
▁mi	-8.35798
ard	-8.36092
▁bygget	-8.36122
▁kong	-8.36178
▁perioden	-8.36189
▁nor	-8.36318
▁brukes	-8.3639
▁sett	-8.36591
ans	-8.36885
au	-8.36911
▁sverige	-8.37024
ks	-8.37048
▁hu	-8.37176
sp	-8.37527
ud	-8.37705
po	-8.37713
▁do	-8.37736
▁vann	-8.37829
sta	-8.37922
ie	-8.37956
▁skrev	-8.38012
▁liv	-8.38137
ly	-8.38214
bar	-8.38391
▁barn	-8.38507
▁eksempel	-8.38887
á	-8.3914
tid	-8.39455
▁engelsk	-8.39513
ningen	-8.39533
sted	-8.39546
æ	-8.40196
▁høy	-8.40325
un	-8.40522
▁seks	-8.40542
▁sommer	-8.40733
▁fi	-8.40748
▁hvert	-8.40798
▁særlig	-8.40908
▁2004	-8.40916
▁mat	-8.40974
vo	-8.4101
▁bra	-8.41157
▁tysk	-8.41402
opp	-8.41461
▁flytte	-8.41764
▁bandet	-8.42126
▁lys	-8.42446
▁kort	-8.4282
▁gu	-8.43224
▁lå	-8.4358
▁ganger	-8.44039
sel	-8.44062
▁fleste	-8.44073
▁små	-8.4411
▁valgt	-8.44319
▁frankrike	-8.44364
ron	-8.44642
▁sam	-8.44698
▁klubben	-8.45182
▁r	-8.45259
od	-8.45313
▁su	-8.45331
▁ak	-8.45769
▁løpet	-8.45812
stre	-8.45856
▁sch	-8.45972
▁parti	-8.46198
år	-8.46221
▁kultur	-8.46296
tte	-8.46384
slag	-8.46573
▁john	-8.46694
ty	-8.46718
▁dermed	-8.46768
▁san	-8.46888
▁am	-8.46904
hold	-8.46916
▁amerikansk	-8.46932
▁stedet	-8.474
elle	-8.47488
▁pe	-8.47811
▁millioner	-8.47821
▁nytt	-8.47839
do	-8.47939
▁eks	-8.48021
▁skrevet	-8.48246
▁politisk	-8.48321
▁innbyggere	-8.48547
▁mann	-8.48674
▁lov	-8.48707
itet	-8.48948
▁jo	-8.48978
let	-8.49016
mb	-8.49268
▁me	-8.49327
tal	-8.49516
no	-8.49567
▁slutten	-8.49681
▁mulig	-8.50028
▁england	-8.50096
▁arbeidet	-8.50317
▁ab	-8.50323
ninger	-8.50561
▁go	-8.50907
▁språk	-8.51071
▁grad	-8.51112
ca	-8.51136
▁vel	-8.51146
▁amerikanske	-8.5123
rø	-8.51345
▁sjø	-8.51468
▁bergen	-8.51474
▁x	-8.51641
▁albumet	-8.51747
▁deler	-8.51773
lu	-8.51775
iv	-8.5197
gu	-8.52072
▁ju	-8.52107
ret	-8.52121
ken	-8.52251
▁london	-8.52598
▁all	-8.52612
▁hus	-8.52769
hus	-8.52893
▁vm	-8.52913
▁2000	-8.5295
ige	-8.53168
▁etablert	-8.53235
▁begge	-8.5324
▁nest	-8.5335
ag	-8.53459
tu	-8.53479
dag	-8.53481
▁bl	-8.53561
▁sted	-8.53666
ik	-8.53696
▁ne	-8.5389
wa	-8.54267
▁vei	-8.54746
▁fotball	-8.54755
he	-8.54759
▁th	-8.54763
▁25	-8.54858
im	-8.55036
per	-8.55145
inn	-8.55175
lag	-8.55517
▁pa	-8.55651
ikk	-8.55714
anske	-8.55811
inger	-8.55831
▁fast	-8.55881
▁or	-8.55998
ov	-8.56093
▁verdenskrig	-8.56206
ran	-8.56211
▁gruppen	-8.56249
ft	-8.56321
▁sesongen	-8.56329
ber	-8.56455
▁kjente	-8.56592
ius	-8.57087
▁verdens	-8.57112
ian	-8.57188
▁ord	-8.57204
del	-8.57273
▁langs	-8.57395
▁gud	-8.57778
▁forskjellige	-8.57805
hi	-8.57902
▁viktig	-8.58004
▁fjell	-8.58167
▁president	-8.58252
▁verden	-8.58295
art	-8.5837
▁gull	-8.58401
▁tri	-8.58437
▁storbritannia	-8.58491
▁gitt	-8.58979
▁annen	-8.59003
▁serien	-8.59012
tiske	-8.59016
▁hi	-8.59182
▁stort	-8.593
▁tredje	-8.59452
uten	-8.59717
▁100	-8.59851
▁gammel	-8.59853
ium	-8.59991
▁norges	-8.60009
▁tor	-8.60098
▁spille	-8.60453
if	-8.60611
fa	-8.60664
▁fortsatt	-8.60804
satt	-8.60816
▁2002	-8.6089
siden	-8.60967
▁øya	-8.61112
00	-8.6125
▁god	-8.61304
▁bok	-8.61365
▁delen	-8.61407
▁britiske	-8.615
ham	-8.61569
kon	-8.61626
▁pu	-8.61694
▁gir	-8.61776
tiden	-8.62037
▁so	-8.622
▁19	-8.6245
▁ad	-8.6254
▁ge	-8.62733
▁ma	-8.62768
▁ja	-8.62794
▁fo	-8.62907
ci	-8.62945
▁person	-8.62968
gel	-8.62998
▁kinesisk	-8.63329
▁lever	-8.63432
til	-8.63453
▁sol	-8.63542
▁kommunen	-8.636
▁familien	-8.63629
▁21	-8.63892
▁stein	-8.63934
nn	-8.64235
ller	-8.64349
▁2001	-8.64405
tra	-8.64406
▁familie	-8.64532
▁basert	-8.64606
ld	-8.64649
▁slutt	-8.64736
▁gjort	-8.64742
▁dr	-8.64747
▁førte	-8.65022
▁1990	-8.6512
▁selskapet	-8.65465
▁my	-8.65644
▁svensk	-8.65781
▁provinsen	-8.6579
itt	-8.65803
▁1980	-8.65848
▁fred	-8.65958
verk	-8.66026
▁24	-8.66034
▁2003	-8.66217
stein	-8.66848
gh	-8.66896
bruk	-8.66982
▁ver	-8.67042
▁sk	-8.67048
tten	-8.67161
4	-8.67264
pa	-8.6731
følge	-8.67421
▁konge	-8.67535
▁liten	-8.67597
▁delstaten	-8.67694
▁sto	-8.6787
elsen	-8.67912
ble	-8.67947
ak	-8.68024
▁russisk	-8.6805
▁sendt	-8.68053
▁gresk	-8.68072
▁langt	-8.68132
sch	-8.68287
▁utviklet	-8.69062
▁side	-8.69449
tok	-8.69709
▁klart	-8.69739
▁50	-8.69746
dalen	-8.69761
▁con	-8.69762
▁lokal	-8.69771
▁sl	-8.69797
dig	-8.69815
▁øy	-8.69833
▁lite	-8.69836
▁forbindelse	-8.70137
▁får	-8.70219
▁hen	-8.70992
▁bro	-8.71114
▁utenfor	-8.71146
and	-8.7117
lat	-8.71262
▁23	-8.7137
▁kalles	-8.71393
ot	-8.71459
▁holdt	-8.71464
fe	-8.71502
▁dyr	-8.71522
▁forfatter	-8.71618
tan	-8.72072
▁krigen	-8.72316
▁fag	-8.7234
2	-8.72481
▁dikt	-8.72593
▁tar	-8.72596
▁danmark	-8.72601
▁bort	-8.72719
ord	-8.73033
▁antall	-8.73189
▁spesielt	-8.73374
▁innehold	-8.73379
▁vise	-8.73652
▁godt	-8.73776
▁wi	-8.7399
pi	-8.74268
hu	-8.74284
ting	-8.7429
▁natur	-8.74345
og	-8.74579
les	-8.74646
isere	-8.74704
sti	-8.74861
▁historie	-8.74926
▁syn	-8.75068
▁arbeid	-8.75178
ow	-8.75267
í	-8.75663
▁pan	-8.75775
▁22	-8.75813
bb	-8.75835
▁kar	-8.75868
▁nok	-8.76033
form	-8.76126
▁1999	-8.76157
vin	-8.76532
ley	-8.76665
▁gjøre	-8.7674
▁ser	-8.76801
▁omkring	-8.76961
▁fransk	-8.77456
ou	-8.77481
▁va	-8.77676
1	-8.77757
ü	-8.77773
mmer	-8.77947
lå	-8.77948
▁gruppe	-8.78111
▁hatt	-8.78115
min	-8.78118
io	-8.78134
▁28	-8.78282
▁paris	-8.78398
▁lange	-8.78586
▁z	-8.78663
▁valg	-8.78742
ek	-8.78769
▁1970	-8.79018
▁bil	-8.79104
▁kongen	-8.79279
est	-8.79289
▁funnet	-8.79595
ong	-8.79883
▁innenfor	-8.79923
kan	-8.79975
kor	-8.80031
tisk	-8.80272
za	-8.80405
▁personer	-8.80625
mon	-8.80672
ede	-8.80896
ki	-8.81246
▁mag	-8.815
▁utnevnt	-8.81525
▁svenske	-8.81597
▁kirken	-8.81665
lands	-8.81893
▁betydning	-8.8195
▁gjør	-8.82
▁ch	-8.82037
tiv	-8.82193
ppe	-8.82202
▁grav	-8.8231
▁opprettet	-8.82312
▁halv	-8.82331
sten	-8.82471
met	-8.82475
løp	-8.82495
▁bety	-8.82564
▁italia	-8.82813
mar	-8.82848
sett	-8.82895
▁moderne	-8.82923
tar	-8.83123
ya	-8.8332
▁au	-8.83324
isert	-8.83338
ren	-8.83471
▁egne	-8.83527
▁kre	-8.83612
isering	-8.83661
▁hjem	-8.83668
▁bruker	-8.83684
▁én	-8.83698
▁kontroll	-8.83866
▁midt	-8.83882
▁tap	-8.83905
iet	-8.83943
elig	-8.83996
▁mennesker	-8.84079
mål	-8.84088
▁car	-8.84193
▁ledet	-8.8453
▁1960	-8.8455
▁universitetet	-8.84627
mme	-8.84637
▁slag	-8.84658
ill	-8.84805
▁min	-8.84856
▁står	-8.8486
▁reise	-8.85193
så	-8.85264
▁pre	-8.85342
rat	-8.85371
▁åtte	-8.85461
ris	-8.85693
dom	-8.85748
▁franske	-8.85806
lsen	-8.85818
▁mil	-8.86137
▁kur	-8.86263
bre	-8.86284
ighet	-8.86322
▁26	-8.86335
▁krig	-8.86372
▁bygge	-8.86716
▁skuespiller	-8.86865
syn	-8.86922
▁motor	-8.86944
tre	-8.86955
▁hel	-8.87034
▁skolen	-8.87131
▁2012	-8.87214
▁lands	-8.87252
▁stat	-8.87387
▁1994	-8.87659
▁fant	-8.87662
tro	-8.87715
ny	-8.87716
ich	-8.878
par	-8.88019
▁general	-8.88102
▁folk	-8.88291
▁31	-8.8831
▁tjeneste	-8.88331
em	-8.88594
▁litt	-8.88616
▁rolle	-8.88758
▁teater	-8.88799
isme	-8.88922
▁je	-8.89139
▁sangen	-8.89299
▁jord	-8.89315
▁wa	-8.89322
ys	-8.89353
▁tu	-8.89428
▁aktiv	-8.89483
anger	-8.89567
▁vinter	-8.89621
▁viser	-8.89695
elt	-8.89863
tz	-8.89871
▁fin	-8.89894
▁italiensk	-8.904
▁bru	-8.90532
su	-8.9065
fly	-8.90782
▁divisjon	-8.91017
▁york	-8.91333
råd	-8.91343
▁kamp	-8.91407
▁forhold	-8.91446
up	-8.91492
▁keiser	-8.91504
ald	-8.91626
so	-8.91688
▁gjerne	-8.91803
▁27	-8.9181
▁arbeider	-8.91819
▁fortsatte	-8.91925
heten	-8.92033
▁full	-8.92153
▁internasjonale	-8.92178
mor	-8.92198
burg	-8.92234
▁afrika	-8.92261
▁regjering	-8.92291
▁paul	-8.92367
▁minst	-8.92371
▁produksjon	-8.92495
▁ferdig	-8.9258
landet	-8.92601
▁sand	-8.92647
mm	-8.9269
▁ur	-8.92743
▁1992	-8.92754
▁partiet	-8.92899
▁hol	-8.92999
vel	-8.93174
▁veien	-8.93193
▁kvinne	-8.93307
spill	-8.93439
tikk	-8.93529
▁holde	-8.93627
▁sølv	-8.93699
fjorden	-8.93774
▁medlemmer	-8.93781
▁bygd	-8.93873
▁elven	-8.93909
▁tekst	-8.93909
▁karl	-8.94
ó	-8.94008
▁roman	-8.94016
▁serie	-8.94092
▁kvinner	-8.941
▁lav	-8.94156
▁solgt	-8.94195
ph	-8.942
▁menneske	-8.94219
▁luft	-8.94224
▁radio	-8.94275
▁foran	-8.94308
kel	-8.94323
ru	-8.94472
▁dagens	-8.94478
▁hav	-8.9456
fin	-8.94608
ica	-8.94632
▁århundre	-8.94666
7	-8.94778
▁staten	-8.94905
▁hjelp	-8.94945
▁ettersom	-8.94946
stående	-8.95121
▁aldri	-8.95154
ps	-8.95158
▁åpnet	-8.95236
ju	-8.9526
ding	-8.95315
▁ett	-8.95431
▁skog	-8.95661
bil	-8.95697
▁ø	-8.95732
▁gav	-8.95767
▁menn	-8.9599
▁bor	-8.95996
▁krigs	-8.9611
spiller	-8.96221
▁dis	-8.96251
rik	-8.96336
▁rom	-8.96441
▁slaget	-8.96455
▁cha	-8.96481
▁klar	-8.96527
▁regnes	-8.96561
▁arter	-8.96597
▁hal	-8.96675
▁fått	-8.96691
▁neste	-8.96978
▁farge	-8.96979
kl	-8.97048
plass	-8.97071
▁mis	-8.97135
▁sv	-8.97394
skapet	-8.97544
han	-8.97769
▁reist	-8.9787
und	-8.97876
▁bre	-8.97882
ac	-8.98016
lei	-8.98024
bok	-8.98083
▁organ	-8.98172
▁industri	-8.98246
▁befolkningen	-8.983
▁ren	-8.98426
dre	-8.98472
▁militær	-8.98707
▁sentral	-8.98735
ister	-8.98745
▁hvis	-8.9885
▁fiske	-8.98868
skole	-8.98885
▁skade	-8.99245
som	-8.99249
res	-8.99268
▁delt	-8.99323
▁nummer	-8.99389
ika	-8.99395
lan	-8.9944
▁album	-8.99526
▁plan	-8.99566
▁ben	-8.99569
▁1993	-8.99636
50	-8.99673
øl	-9.0008
føring	-9.00107
▁japan	-9.0013
▁barne	-9.00337
ug	-9.00529
▁1998	-9.00659
▁1995	-9.00661
▁hånd	-9.00967
▁historisk	-9.01126
▁tur	-9.01151
jo	-9.01195
stå	-9.0123
▁følgende	-9.01255
▁steder	-9.01331
mark	-9.01373
mel	-9.0158
fra	-9.01636
▁val	-9.01685
▁skip	-9.01698
lys	-9.01966
▁op	-9.01967
føre	-9.01992
▁stil	-9.02126
▁os	-9.02139
▁datter	-9.0216
ket	-9.02172
▁utgjør	-9.02194
▁såkalt	-9.02212
▁styre	-9.02254
det	-9.02316
▁jeg	-9.02317
▁henne	-9.02353
▁angrep	-9.02386
▁poeng	-9.02396
borg	-9.02466
▁danne	-9.0247
bro	-9.02716
▁inkludert	-9.02731
▁on	-9.02827
fjord	-9.02844
▁spor	-9.03046
løs	-9.03134
sto	-9.03226
▁drept	-9.03258
▁russland	-9.03258
bel	-9.03263
▁1950	-9.03276
▁romersk	-9.03287
▁arbeids	-9.03483
▁berg	-9.03526
▁samarbeid	-9.03722
▁direkte	-9.03786
▁katolsk	-9.03787
ære	-9.03919
pper	-9.04004
▁pris	-9.0407
▁band	-9.0426
ide	-9.04332
▁rock	-9.04353
▁tildelt	-9.04368
figur	-9.04371
▁pr	-9.0452
▁29	-9.04788
▁begynnelsen	-9.04858
▁brasil	-9.04864
▁slått	-9.04902
laget	-9.04941
▁års	-9.0496
▁riks	-9.05049
sson	-9.0511
sak	-9.05146
▁resultat	-9.0526
▁lett	-9.05279
▁topp	-9.0534
▁produsert	-9.0539
▁periode	-9.05395
▁1996	-9.05398
▁via	-9.0547
▁enkelte	-9.05503
tion	-9.05619
▁forsøk	-9.05645
▁meget	-9.05693
▁danske	-9.05726
▁fall	-9.05832
▁christian	-9.05864
iker	-9.05865
vet	-9.05928
▁1991	-9.05936
ine	-9.0628
▁erstatte	-9.06514
stan	-9.06548
stilt	-9.06552
▁anti	-9.06572
folk	-9.0665
▁makt	-9.06729
▁sc	-9.06892
▁gul	-9.06905
▁com	-9.07025
▁pal	-9.07106
leder	-9.07141
▁we	-9.07177
▁følge	-9.07228
▁sentrum	-9.07232
▁felles	-9.07251
▁regionen	-9.07256
▁slekt	-9.0736
▁gå	-9.0739
bane	-9.07513
▁dager	-9.07599
▁gate	-9.07719
sund	-9.07808
vei	-9.07816
ach	-9.07877
▁herre	-9.07915
fi	-9.07919
▁1997	-9.08129
ving	-9.08145
ip	-9.08302
lik	-9.08356
▁endt	-9.08454
heim	-9.08475
lev	-9.08491
▁eget	-9.0861
dy	-9.08659
▁mal	-9.08675
▁universitet	-9.08676
▁likevel	-9.08709
▁ten	-9.08712
ator	-9.0876
▁vekt	-9.08831
▁tegn	-9.09034
ologi	-9.09077
banen	-9.09157
▁verk	-9.09163
▁vin	-9.09182
ale	-9.09298
▁von	-9.09301
▁professor	-9.0937
ung	-9.09385
gre	-9.09453
▁art	-9.09517
asjoner	-9.09522
▁hjemme	-9.09611
kant	-9.09644
▁regjeringen	-9.09686
▁arrangert	-9.09799
▁kor	-9.09812
▁sj	-9.09827
▁park	-9.09844
▁brun	-9.09857
▁chi	-9.09966
▁inntil	-9.10065
stat	-9.10066
skje	-9.10117
▁40	-9.10358
▁1984	-9.10364
far	-9.10382
mat	-9.10416
▁viktigste	-9.10438
uk	-9.10487
▁best	-9.10553
▁ke	-9.10634
▁ag	-9.10663
▁lagt	-9.10761
▁opprør	-9.1104
▁india	-9.11173
sj	-9.11175
bra	-9.11322
▁omtrent	-9.11504
skip	-9.11626
ringen	-9.11783
▁bill	-9.11784
▁1920	-9.12091
▁sang	-9.12095
▁suksess	-9.12119
▁interesse	-9.12221
▁bri	-9.12344
▁hy	-9.1236
akt	-9.12429
mø	-9.12456
▁høyre	-9.12566
▁ve	-9.12571
get	-9.12647
▁william	-9.12656
▁1988	-9.12665
▁br	-9.12707
yl	-9.12731
▁finner	-9.12858
▁roma	-9.12926
▁200	-9.13015
øya	-9.13033
▁sal	-9.13052
▁lokale	-9.13083
▁dess	-9.13141
▁ev	-9.13215
▁sovjetunionen	-9.13237
▁1989	-9.13242
▁berlin	-9.13269
▁våpen	-9.13316
▁orden	-9.1335
▁tross	-9.13395
ild	-9.13411
▁sosial	-9.13417
gående	-9.13457
▁mont	-9.13537
▁lyd	-9.13871
mester	-9.13903
leg	-9.13955
zi	-9.14301
▁lik	-9.14302
▁opera	-9.14615
tin	-9.14638
▁q	-9.14681
fri	-9.14819
▁mark	-9.14843
ey	-9.14875
▁eldre	-9.15033
▁grunnlagt	-9.15036
▁rø	-9.15077
▁resten	-9.15109
▁fylke	-9.15295
▁måte	-9.15337
my	-9.15408
▁vol	-9.15413
▁enkelt	-9.15519
▁pass	-9.15538
▁ber	-9.15569
▁1983	-9.15597
▁kilometer	-9.15597
▁sanger	-9.15721
▁hva	-9.15759
▁kraftig	-9.1583
▁kraft	-9.1588
rom	-9.15925
▁militære	-9.16089
rike	-9.16165
yn	-9.16185
ull	-9.16345
ym	-9.16364
▁finalen	-9.16395
▁prest	-9.16482
lene	-9.16595
▁syk	-9.166
mmen	-9.16647
cu	-9.16665
vern	-9.16752
▁betydelig	-9.168
▁kamper	-9.16834
▁robert	-9.16838
▁gra	-9.16879
knyttet	-9.1693
▁politiker	-9.16971
30	-9.17031
▁møtte	-9.17155
▁handels	-9.17198
bygd	-9.17343
▁borger	-9.17423
felt	-9.1752
▁jan	-9.17527
▁benyttet	-9.17721
kul	-9.17721
kom	-9.17804
dyr	-9.17965
che	-9.18
▁university	-9.18017
▁1945	-9.18023
▁2013	-9.18026
merke	-9.18149
▁komme	-9.18179
ah	-9.18244
▁nordlig	-9.18315
gitt	-9.1833
▁klasse	-9.18344
ino	-9.18349
ai	-9.18361
enes	-9.18389
▁områder	-9.18513
kning	-9.18586
▁1973	-9.18638
ros	-9.18643
▁vo	-9.18652
▁arm	-9.1866
▁økt	-9.1872
▁slo	-9.18802
fall	-9.18882
▁sm	-9.18952
▁bur	-9.18984
▁1986	-9.19254
▁ordet	-9.1929
kken	-9.19293
▁energi	-9.19302
▁bror	-9.19335
▁pave	-9.19363
▁mu	-9.19409
▁mari	-9.19414
▁peter	-9.1946
▁stats	-9.1959
▁eu	-9.19695
▁start	-9.198
▁vanskelig	-9.1987
▁tittelen	-9.19967
▁ed	-9.19985
vid	-9.20111
▁pl	-9.20269
▁skr	-9.20292
▁tall	-9.20293
▁miljø	-9.20383
▁konsert	-9.20503
▁miste	-9.20533
▁meste	-9.20544
liggende	-9.20682
▁kv	-9.20841
ation	-9.20887
asjonen	-9.20936
▁nett	-9.20969
▁kat	-9.21017
▁mm	-9.21025
kast	-9.21048
asje	-9.21115
▁hverandre	-9.2112
▁trondheim	-9.21123
▁sterkt	-9.21187
forening	-9.21229
▁kal	-9.21263
▁liste	-9.21292
▁lin	-9.21294
ski	-9.2137
▁biskop	-9.21376
80	-9.21416
▁leker	-9.21445
▁kl	-9.21554
▁engelske	-9.21749
ismen	-9.21824
▁viss	-9.21937
▁1800	-9.21963
▁sig	-9.22218
▁seil	-9.22243
▁grensen	-9.22253
film	-9.22338
▁sannsynlig	-9.2239
brudd	-9.22555
▁ku	-9.22558
inne	-9.22765
ab	-9.2298
▁dårlig	-9.23032
▁lille	-9.23039
▁1985	-9.23042
▁ly	-9.23067
las	-9.23108
▁mon	-9.23205
▁brukte	-9.23238
▁alder	-9.23316
▁sy	-9.23348
tatt	-9.23386
▁linje	-9.23445
▁elva	-9.23593
we	-9.2361
▁rev	-9.23623
ana	-9.23716
▁offentlig	-9.23753
val	-9.23772
▁utvikling	-9.23906
ds	-9.23922
▁tom	-9.24231
▁ry	-9.24256
▁gro	-9.24325
▁hovedsakelig	-9.24333
▁1976	-9.24338
▁2015	-9.24342
▁van	-9.24354
jen	-9.24362
▁samle	-9.24407
▁kje	-9.24415
▁sta	-9.24576
▁vokst	-9.24654
kal	-9.24689
▁island	-9.24727
▁sak	-9.24783
▁500	-9.24807
system	-9.25025
▁koloni	-9.25078
▁dra	-9.25096
lser	-9.2522
▁løp	-9.25237
▁dro	-9.25251
veien	-9.25267
▁omfatter	-9.25376
▁område	-9.25414
▁sø	-9.25435
▁amerika	-9.25534
▁tak	-9.25548
▁sen	-9.25568
ska	-9.25581
krigen	-9.25587
▁eldste	-9.25638
▁1987	-9.25649
▁sogn	-9.25657
▁blod	-9.25704
stilling	-9.25706
▁natt	-9.25774
▁sh	-9.25803
net	-9.25804
grad	-9.25824
navn	-9.25889
▁ring	-9.2608
▁helse	-9.26108
▁besøk	-9.26168
▁red	-9.26246
▁lærer	-9.26267
▁canada	-9.263
▁1975	-9.26312
▁post	-9.26481
▁seier	-9.26601
▁høyde	-9.26612
▁sesong	-9.26624
ien	-9.26632
▁kroppen	-9.26781
▁versjon	-9.26805
▁kjøpt	-9.26812
▁dom	-9.26824
ritt	-9.26922
▁informasjon	-9.26966
messig	-9.26967
▁1900	-9.27001
båt	-9.27063
▁britisk	-9.27212
▁eid	-9.27242
▁virke	-9.2725
all	-9.273
ford	-9.27383
▁gård	-9.27414
▁bedre	-9.27415
sjef	-9.27426
minister	-9.27517
▁dannet	-9.27539
kar	-9.27659
▁flo	-9.27744
▁møte	-9.27752
▁plassert	-9.27771
området	-9.27831
istiske	-9.27876
▁heller	-9.27926
gård	-9.27974
ari	-9.28152
▁system	-9.28268
а	-9.28313
▁1978	-9.28328
du	-9.28591
▁cor	-9.28661
▁lær	-9.28677
▁johan	-9.28729
▁sha	-9.28819
van	-9.28819
▁1981	-9.29002
▁venstre	-9.29012
▁stemme	-9.29046
10	-9.29053
▁mac	-9.29053
▁åpen	-9.29161
▁litteratur	-9.29182
▁transport	-9.29363
▁kn	-9.29403
▁ul	-9.29447
▁havne	-9.2946
▁60	-9.29539
▁ty	-9.29596
▁bilde	-9.29632
▁australia	-9.29678
▁standard	-9.29698
▁cup	-9.29725
dra	-9.29834
▁livet	-9.29861
punkt	-9.29973
▁tru	-9.29978
året	-9.30017
▁kul	-9.30067
▁jobbe	-9.30146
▁los	-9.30254
▁minne	-9.30286
kje	-9.30326
▁1964	-9.30383
▁indre	-9.30475
▁fer	-9.3068
▁areal	-9.30681
▁gode	-9.30731
▁80	-9.30883
ep	-9.30893
under	-9.3095
▁program	-9.30974
old	-9.30991
vil	-9.31035
trykk	-9.31051
▁prosent	-9.31069
▁1972	-9.31073
▁henrik	-9.31088
▁city	-9.31111
bygg	-9.31242
▁skrive	-9.31367
▁stjerne	-9.31472
agn	-9.31517
▁gal	-9.3164
▁hø	-9.3165
▁viste	-9.31693
▁olje	-9.31697
▁ter	-9.31773
▁svart	-9.32157
▁stiftet	-9.32287
▁havet	-9.32322
▁led	-9.32324
▁københavn	-9.32466
▁1940	-9.32483
▁studie	-9.32492
▁sterk	-9.3268
▁skipet	-9.32694
▁stasjon	-9.32722
wi	-9.32814
▁ledelse	-9.32852
ferd	-9.32884
▁kron	-9.33263
▁nrk	-9.3331
iz	-9.33376
tjeneste	-9.33378
▁tradisjon	-9.33387
66	-9.33399
▁finland	-9.33415
sal	-9.33448
menn	-9.33669
▁regi	-9.33678
vann	-9.33837
▁midten	-9.33937
kraft	-9.34075
prosess	-9.34104
▁merke	-9.34228
▁fange	-9.34254
▁høsten	-9.34382
qui	-9.34471
▁ønsket	-9.34471
▁dansk	-9.34504
lighet	-9.34513
▁fu	-9.3459
▁hvilke	-9.3461
▁dyp	-9.34675
▁befolkning	-9.34735
▁jernbane	-9.34783
pol	-9.34844
▁skrift	-9.34846
▁ball	-9.34852
▁råd	-9.34895
▁sørlige	-9.34959
▁finne	-9.35048
ider	-9.35093
▁nu	-9.3522
▁1948	-9.35345
▁1969	-9.35345
▁krav	-9.35376
▁bevis	-9.35393
▁sentrale	-9.35442
▁lei	-9.3547
sjøen	-9.35507
▁vår	-9.35537
mal	-9.35746
▁unge	-9.35919
▁båt	-9.35951
▁grense	-9.35988
▁syv	-9.35994
stra	-9.36027
è	-9.36063
▁stockholm	-9.36063
▁1968	-9.36078
▁lengde	-9.36083
▁hæren	-9.36112
samling	-9.36137
▁retning	-9.36141
ført	-9.36158
▁boken	-9.36373
bygging	-9.36391
▁blå	-9.36436
40	-9.36499
▁lenge	-9.36727
▁dronning	-9.36802
▁2014	-9.36808
▁raskt	-9.36817
mus	-9.36933
▁region	-9.36973
ativ	-9.37001
▁george	-9.37129
▁tilhører	-9.37144
▁ii	-9.37238
▁svarte	-9.37279
▁studerte	-9.37323
lot	-9.37415
▁sommeren	-9.3743
▁spesial	-9.37539
▁erik	-9.37685
olog	-9.37858
▁kle	-9.37876
▁mel	-9.37962
▁hvit	-9.37986
bru	-9.38007
ice	-9.3802
plassen	-9.38132
▁motstand	-9.38158
område	-9.3816
и	-9.38285
▁data	-9.38288
▁stilling	-9.38293
▁anders	-9.38296
oc	-9.38325
ive	-9.38327
tel	-9.38369
stasjon	-9.38406
▁strøm	-9.38413
sjonen	-9.38454
ct	-9.38512
▁måneder	-9.38524
▁utviklingen	-9.38544
ib	-9.38642
▁enhet	-9.38769
selskap	-9.38774
▁tal	-9.38781
▁gri	-9.38796
log	-9.38838
▁samling	-9.38922
dø	-9.38936
lar	-9.38965
kjenne	-9.39042
▁stavanger	-9.39046
▁mulighet	-9.39066
▁besto	-9.3921
▁wo	-9.39217
▁lenger	-9.39229
▁hundre	-9.39245
ath	-9.39256
middel	-9.39284
produksjon	-9.39297
▁historien	-9.39343
▁prøve	-9.39413
▁ac	-9.39416
▁høyere	-9.39417
▁asia	-9.3962
▁verdi	-9.39673
▁spania	-9.39796
▁nordvest	-9.39803
▁offisiell	-9.39804
▁1930	-9.39818
hvert	-9.39835
▁sammenheng	-9.39862
▁hest	-9.40001
▁mos	-9.40022
plan	-9.40059
▁ære	-9.40068
valg	-9.40077
▁regn	-9.40118
▁mus	-9.40136
▁totalt	-9.40198
que	-9.4022
kla	-9.40328
don	-9.40373
▁tilsvarende	-9.40558
▁statsminister	-9.4057
▁regel	-9.40703
gruppen	-9.40734
▁styrke	-9.40776
▁styrker	-9.40829
▁dan	-9.41167
▁stod	-9.41182
▁kors	-9.41231
▁fjerde	-9.41274
huset	-9.41332
▁bodde	-9.41334
▁lengre	-9.41341
▁kra	-9.41478
▁rød	-9.41564
▁maria	-9.41567
▁samlet	-9.41593
▁løs	-9.41731
liv	-9.41766
▁ex	-9.41872
▁ska	-9.41958
▁bøker	-9.41963
▁faren	-9.42022
q	-9.42024
▁fylkes	-9.42112
▁1974	-9.42113
▁drift	-9.42151
bud	-9.42204
stol	-9.42245
▁leve	-9.4234
▁viktige	-9.42359
▁gen	-9.42393
▁trans	-9.42501
▁nev	-9.42791
fer	-9.42793
▁bjørn	-9.42829
tunnel	-9.42892
▁mc	-9.42907
gar	-9.42953
▁arkitekt	-9.42965
▁jon	-9.42983
65	-9.43053
▁olav	-9.43088
▁arten	-9.43124
søk	-9.43159
cc	-9.43167
istisk	-9.43207
▁pat	-9.43218
▁sju	-9.43262
▁bruke	-9.43283
▁dy	-9.43309
▁legge	-9.43343
ama	-9.43512
▁avdeling	-9.43567
band	-9.43582
▁1952	-9.43671
▁thomas	-9.43671
▁voksne	-9.43672
▁beskytte	-9.43672
▁egentlig	-9.43696
▁japansk	-9.43702
▁sivil	-9.4372
byen	-9.43758
rus	-9.4379
drive	-9.4386
bert	-9.44112
▁effekt	-9.44115
▁super	-9.44171
▁mw	-9.44351
▁bank	-9.44382
▁mester	-9.44385
▁gren	-9.44396
familien	-9.44405
▁kryss	-9.44468
▁1977	-9.4448
musikk	-9.44485
▁gla	-9.44683
▁journalist	-9.44715
▁krist	-9.44771
▁oppdaget	-9.4482
▁sub	-9.44851
ola	-9.44858
▁gården	-9.45054
tøy	-9.45231
fisk	-9.45231
▁motsetning	-9.45266
▁1979	-9.45277
▁fylkesvei	-9.45284
▁iii	-9.45322
▁stadig	-9.45332
▁fest	-9.45336
gjøre	-9.45369
▁oppført	-9.4545
▁gran	-9.45458
20	-9.45465
▁skape	-9.45493
▁lære	-9.45494
▁david	-9.45502
▁uttrykk	-9.45505
70	-9.45541
▁moh	-9.45583
navnet	-9.45585
▁egypt	-9.45616
▁fla	-9.45654
jer	-9.45702
rin	-9.45705
lis	-9.45712
fag	-9.45728
▁karakter	-9.4588
▁kongelig	-9.4592
▁privat	-9.45981
▁james	-9.46076
▁1982	-9.46086
▁politi	-9.46205
senter	-9.46206
dømme	-9.46217
ano	-9.46222
▁tung	-9.46251
tør	-9.46273
virkning	-9.46285
kamp	-9.46312
oli	-9.46366
▁eier	-9.46386
▁munn	-9.46419
chi	-9.46516
ay	-9.46543
pro	-9.46601
▁kampen	-9.46666
▁ky	-9.46706
iner	-9.46755
▁maskin	-9.46816
▁trøndelag	-9.46885
▁klassisk	-9.46885
▁øverst	-9.46885
høgskole	-9.46919
▁brann	-9.46952
▁høyeste	-9.46983
▁hit	-9.46999
handling	-9.47079
▁vold	-9.4714
▁35	-9.47149
▁hei	-9.47166
▁daglig	-9.4723
▁mur	-9.47265
▁oppgave	-9.47266
▁tapte	-9.47314
▁karriere	-9.47388
▁fot	-9.47411
▁sil	-9.4751
blad	-9.47512
▁300	-9.47531
▁ger	-9.4755
▁carl	-9.47567
vær	-9.47604
deling	-9.47615
▁uavhengig	-9.47631
▁gar	-9.4765
▁elektrisk	-9.47704
▁nevnt	-9.47727
ast	-9.47784
▁nordøst	-9.47851
64	-9.47886
vinne	-9.47906
▁fil	-9.47915
ød	-9.48077
▁personlig	-9.48094
▁dagen	-9.48269
fører	-9.48293
nis	-9.48299
▁ap	-9.48337
ram	-9.48347
▁1967	-9.48547
▁fremdeles	-9.48566
▁gjenopp	-9.48609
▁nådd	-9.48711
▁athen	-9.48718
▁vind	-9.48762
▁representerte	-9.48823
78	-9.48825
▁ør	-9.48849
▁tan	-9.48862
▁sikre	-9.48889
▁sørøst	-9.48898
systemet	-9.48929
still	-9.48943
mesterskapet	-9.49081
dene	-9.49154
▁høre	-9.49199
▁latin	-9.49242
pris	-9.49286
▁bronse	-9.49372
▁2016	-9.49385
▁spi	-9.49399
▁sende	-9.49408
▁ang	-9.49472
ara	-9.49478
▁soldater	-9.49695
▁feil	-9.49736
▁funksjon	-9.49747
eres	-9.49823
▁son	-9.49883
▁museum	-9.49899
▁hvite	-9.49992
▁kyst	-9.50156
▁dia	-9.50196
▁europeiske	-9.50249
▁hopp	-9.50368
▁utvikle	-9.50439
▁endret	-9.5059
▁overtok	-9.50611
▁sek	-9.50713
▁bal	-9.50723
mu	-9.50818
sky	-9.5083
▁regnet	-9.50832
shire	-9.51002
▁eli	-9.51038
▁pla	-9.51076
▁sette	-9.51086
▁gy	-9.51102
fart	-9.51137
▁politikk	-9.51169
▁høyt	-9.51195
arbeid	-9.51279
▁pol	-9.51384
▁fle	-9.51432
▁70	-9.51538
linje	-9.51583
▁fremst	-9.51726
gan	-9.5176
▁andreplass	-9.51783
ā	-9.51906
▁sørvest	-9.51914
gul	-9.51938
▁alltid	-9.5197
▁thor	-9.5199
▁syd	-9.51993
med	-9.52142
saker	-9.52167
▁formann	-9.52194
▁sul	-9.52268
fo	-9.52291
▁irland	-9.52292
▁rike	-9.52419
tog	-9.52495
områder	-9.52502
▁falt	-9.52544
▁skjer	-9.52624
▁kardinal	-9.52769
▁omfattende	-9.52813
▁fyr	-9.52879
▁fal	-9.52882
▁ekspedisjon	-9.52932
▁grev	-9.52965
rak	-9.53007
mannen	-9.53011
▁stand	-9.53024
▁israel	-9.53032
ix	-9.53079
ap	-9.53215
▁fjorden	-9.53364
▁grupper	-9.53472
▁bakgrunn	-9.53638
▁produsere	-9.53638
▁varme	-9.53641
▁oppkalt	-9.53642
▁delta	-9.53661
▁byer	-9.53779
ringer	-9.5382
itz	-9.53823
▁af	-9.53824
fest	-9.53831
idae	-9.53862
xi	-9.53915
cia	-9.53987
▁preget	-9.54011
ark	-9.54022
▁posisjon	-9.54038
▁veg	-9.54056
språk	-9.54062
tru	-9.54098
ire	-9.54176
▁tanke	-9.54177
▁grand	-9.54208
formet	-9.54243
är	-9.5428
▁forsker	-9.54392
▁strid	-9.54418
ð	-9.54515
▁vunnet	-9.54515
▁utdannet	-9.54515
▁kontakt	-9.54521
▁organisasjonen	-9.54546
▁henhold	-9.54565
▁hall	-9.54584
▁union	-9.54591
▁tradisjonell	-9.5468
▁stille	-9.54695
▁tett	-9.54807
▁reform	-9.54852
▁populær	-9.54992
▁bygningen	-9.55047
▁west	-9.55132
nett	-9.55133
▁punkt	-9.55261
▁distrikt	-9.55305
▁gått	-9.55341
▁selskap	-9.55366
▁symbol	-9.554
▁len	-9.554
▁skjedde	-9.55401
5	-9.55408
▁1971	-9.55416
▁organisasjon	-9.55525
▁ordenen	-9.55534
▁brev	-9.55537
▁prosjekt	-9.55543
▁za	-9.55564
▁stift	-9.55631
▁vestlige	-9.55716
▁polen	-9.55779
▁skapt	-9.5581
▁områdene	-9.55836
ial	-9.55898
stil	-9.55905
parti	-9.55907
▁jorden	-9.55938
▁bygde	-9.55972
ini	-9.55974
skyld	-9.56169
▁adel	-9.56273
▁flat	-9.56277
▁1962	-9.56303
▁bevart	-9.56305
▁vis	-9.56305
▁scene	-9.56309
skog	-9.56487
▁fører	-9.56524
løse	-9.56558
▁jobb	-9.56631
▁kristne	-9.56638
▁hår	-9.56669
way	-9.56674
▁utdanning	-9.56682
▁klo	-9.56725
har	-9.56734
▁eg	-9.56929
▁lars	-9.56931
▁jern	-9.56952
▁bolig	-9.56969
▁bred	-9.5708
▁følger	-9.57118
о	-9.57194
▁østerrike	-9.57195
▁1939	-9.57204
▁størrelse	-9.57239
▁årlig	-9.57331
iserte	-9.57369
▁hodet	-9.57374
▁real	-9.57384
rådet	-9.57387
▁innført	-9.57392
▁slekten	-9.57427
▁klubb	-9.5743
▁kjøre	-9.57449
▁utført	-9.57451
gjorde	-9.57483
▁økonomisk	-9.57504
king	-9.57575
▁bern	-9.5762
▁modell	-9.57625
ade	-9.5771
▁direktør	-9.57724
▁dal	-9.57775
vende	-9.57804
▁ob	-9.57828
rsom	-9.57902
tus	-9.58073
▁religiøs	-9.58103
▁utbredt	-9.58103
▁tilgjengelig	-9.58103
▁2017	-9.58124
▁fotballspiller	-9.5814
▁blad	-9.58168
▁fugl	-9.58231
▁johannes	-9.58269
lagt	-9.58313
▁hær	-9.58322
▁nivå	-9.58345
ria	-9.58413
▁drev	-9.58495
▁port	-9.58691
▁utvidet	-9.58749
68	-9.58768
gle	-9.58818
▁knytte	-9.58831
▁øvre	-9.59021
▁produkt	-9.59024
▁1961	-9.59034
▁nåværende	-9.59049
▁kunstner	-9.59117
▁forsvar	-9.59119
▁can	-9.59136
bilde	-9.59354
▁kla	-9.59431
port	-9.59476
ani	-9.59715
▁leg	-9.5974
▁elv	-9.59749
▁ven	-9.5977
▁rik	-9.59799
▁georg	-9.59821
▁sjef	-9.59849
ins	-9.59855
▁egg	-9.59898
aks	-9.59928
▁nødvendig	-9.59946
▁hertug	-9.59949
▁fre	-9.60004
▁martin	-9.60018
side	-9.60042
▁gass	-9.6008
▁rute	-9.60224
▁bestemt	-9.60285
her	-9.60297
46	-9.603
▁bad	-9.60422
▁grå	-9.60458
bø	-9.60666
ain	-9.60681
▁stoppe	-9.60738
▁vist	-9.6074
trekk	-9.60763
▁ledd	-9.60779
▁air	-9.60795
▁enda	-9.60832
▁sommerfugl	-9.60896
▁1965	-9.60903
▁1966	-9.60905
▁avhengig	-9.60921
▁gjennomført	-9.60961
▁400	-9.6099
▁artene	-9.60998
mun	-9.61008
nik	-9.61041
▁kh	-9.61121
▁tj	-9.61229
▁liga	-9.61305
vare	-9.61484
75	-9.6149
stoff	-9.6157
59	-9.61586
▁stykke	-9.61647
▁enten	-9.61761
77	-9.61786
▁konflikt	-9.61825
▁musiker	-9.61841
▁beskrive	-9.61871
tale	-9.61918
▁het	-9.62031
▁øyene	-9.62192
fon	-9.62217
▁begrepet	-9.62223
▁fordelt	-9.62235
plasser	-9.62239
▁hard	-9.62312
67	-9.62319
▁trener	-9.62338
▁problem	-9.62368
▁sveits	-9.62372
▁hoff	-9.62411
▁naturlig	-9.6242
skrift	-9.62458
▁sur	-9.62531
▁xi	-9.62569
foreningen	-9.62665
▁unntak	-9.6279
▁1963	-9.62793
▁score	-9.62841
elva	-9.6285
▁variant	-9.62861
▁total	-9.62878
verket	-9.6289
56	-9.62924
fyl	-9.62954
▁you	-9.62955
▁økonomi	-9.6304
midler	-9.63043
vogn	-9.63083
▁ekteskap	-9.63085
▁frank	-9.63118
▁nabo	-9.63121
▁nederlandsk	-9.63135
heng	-9.63143
▁spørsmål	-9.63152
▁gru	-9.63165
ansk	-9.63223
▁maler	-9.63277
gangen	-9.63307
▁plante	-9.63477
▁inter	-9.6355
holm	-9.6355
▁lind	-9.63651
▁ytterligere	-9.63738
magasin	-9.63753
▁kilde	-9.6377
lek	-9.6378
▁nærheten	-9.63791
▁leir	-9.63793
▁christ	-9.63809
▁profesjonell	-9.63812
▁finans	-9.63851
▁fulgte	-9.6388
▁hovedstaden	-9.63881
▁vik	-9.63894
▁virksomhet	-9.63895
▁heter	-9.64013
▁prisen	-9.64036
abel	-9.64204
▁materiale	-9.64218
▁kol	-9.64469
ben	-9.64594
▁vid	-9.6465
ple	-9.6469
ita	-9.64698
▁komponist	-9.64709
▁nærmest	-9.64715
▁skje	-9.64715
▁1936	-9.6472
ledes	-9.64741
elser	-9.64768
dals	-9.64788
loven	-9.64918
▁venn	-9.64925
tegn	-9.64929
▁holder	-9.64937
ater	-9.65081
ras	-9.65088
▁stu	-9.65103
76	-9.65157
rør	-9.65176
▁nederland	-9.65333
▁gjelder	-9.65352
gruppe	-9.65405
stro	-9.65431
anlegg	-9.6556
ida	-9.65561
rum	-9.65632
kos	-9.65687
▁skottland	-9.6569
▁richard	-9.6569
▁national	-9.6569
kapasitet	-9.65691
▁snart	-9.65693
▁korea	-9.6573
▁renn	-9.65734
fjell	-9.65738
▁endring	-9.65759
legge	-9.65804
organ	-9.65827
▁kysten	-9.65837
▁ji	-9.65965
stått	-9.66111
▁lege	-9.66111
trolig	-9.66111
hav	-9.66133
dor	-9.66261
gress	-9.66262
tall	-9.66276
▁vet	-9.66371
fla	-9.66374
▁forsøkt	-9.6643
▁kontor	-9.66489
▁huset	-9.66506
▁benyttes	-9.66512
▁nils	-9.66639
▁utstyr	-9.66649
▁klima	-9.66681
▁1947	-9.6669
▁bør	-9.66874
▁selve	-9.66918
delt	-9.66919
▁jakt	-9.66926
▁les	-9.66949
▁skips	-9.6697
person	-9.67011
▁presse	-9.67047
▁aktivitet	-9.67116
åk	-9.67174
serien	-9.67221
▁alb	-9.67263
▁valget	-9.67328
▁ung	-9.674
industri	-9.67416
nivå	-9.67463
▁delvis	-9.6754
nor	-9.67677
▁vitenskapelig	-9.67711
▁ytre	-9.67775
▁sir	-9.67779
▁un	-9.67783
▁fortsette	-9.67795
▁rot	-9.67854
▁saken	-9.67887
▁velge	-9.67963
58	-9.67983
våg	-9.68097
▁grenser	-9.68099
60	-9.6812
▁anlegget	-9.68122
▁banen	-9.68132
▁relativt	-9.68141
lia	-9.68147
▁betegnelsen	-9.68175
▁folket	-9.68233
▁kart	-9.68304
▁tonn	-9.68323
hr	-9.68371
pu	-9.68381
medlem	-9.6845
▁col	-9.68454
▁student	-9.68576
▁lot	-9.68597
fu	-9.68665
▁selvstendig	-9.6869
▁spesiell	-9.6869
▁louis	-9.6869
departementet	-9.68692
▁type	-9.68717
arbeider	-9.68742
▁trykk	-9.68843
▁debutert	-9.6899
gift	-9.69142
qu	-9.69186
▁femte	-9.69224
▁teori	-9.69294
▁elev	-9.69329
▁økonomiske	-9.69557
▁smal	-9.69558
slutning	-9.69597
▁salg	-9.69614
▁løper	-9.69643
87	-9.69652
▁stra	-9.69699
▁innflytelse	-9.69704
▁praksis	-9.6971
▁situasjon	-9.69711
05	-9.69812
▁wal	-9.69837
▁organisert	-9.69911
▁app	-9.69998
71	-9.7004
unk	-9.70061
▁forlot	-9.70126
▁sport	-9.70281
ms	-9.70296
rød	-9.70297
▁sky	-9.7035
▁slå	-9.70395
▁war	-9.70399
▁kommet	-9.70406
▁måned	-9.70436
▁rad	-9.70446
dagen	-9.70451
▁kroner	-9.70664
82	-9.70675
▁mod	-9.70691
▁hjelpe	-9.70695
rimot	-9.70706
▁opprinnelse	-9.70741
▁fengsel	-9.70741
▁typisk	-9.70742
▁arabisk	-9.70743
▁bronsemedalje	-9.70745
▁1928	-9.70754
▁snakke	-9.70767
▁black	-9.70781
▁hente	-9.70809
▁vinner	-9.70854
▁flertall	-9.7089
▁lek	-9.71001
▁redaktør	-9.71015
▁don	-9.71026
▁ansatte	-9.71127
skifte	-9.71154
▁styrkene	-9.7118
▁forskning	-9.71263
strøm	-9.71303
▁livs	-9.71411
kin	-9.71441
rid	-9.715
▁riket	-9.7151
▁cal	-9.71521
▁verne	-9.71526
▁distriktet	-9.71527
▁utover	-9.71566
▁gr	-9.71602
▁plate	-9.7166
folkerepublikken	-9.71783
▁spredt	-9.71783
▁anerkjent	-9.71783
▁1924	-9.71795
▁friidrett	-9.71799
▁bel	-9.71835
klubb	-9.71853
▁rus	-9.71869
▁myr	-9.71912
▁gje	-9.71986
▁uker	-9.71986
▁viking	-9.72183
selskapet	-9.72323
▁løv	-9.72373
85	-9.72375
49	-9.72415
age	-9.72431
▁behandling	-9.72504
leng	-9.72596
▁røde	-9.72799
▁allierte	-9.72836
▁antenne	-9.72843
▁1918	-9.7285
▁1958	-9.72854
▁front	-9.7287
▁gutt	-9.72933
▁plassering	-9.73048
▁vannet	-9.73067
ence	-9.73116
▁borg	-9.73213
▁programmet	-9.73249
rene	-9.73264
sberg	-9.73295
▁forsknings	-9.733
▁avsluttet	-9.73321
▁rollen	-9.73348
95	-9.734
▁32	-9.734
ville	-9.73493
▁middel	-9.7357
▁bestemte	-9.73574
▁fjellet	-9.73621
▁90	-9.7366
▁problemer	-9.7375
havet	-9.73754
▁produsent	-9.73757
▁kilder	-9.73844
▁1953	-9.73899
▁ishockey	-9.73899
▁beijing	-9.73899
▁kritikk	-9.739
▁yngre	-9.73901
▁stortinget	-9.73903
▁glo	-9.73915
▁1949	-9.73918
▁1946	-9.7392
▁primær	-9.73946
tag	-9.74003
▁anta	-9.74016
6	-9.74053
▁bosatt	-9.74057
▁tele	-9.74139
▁status	-9.74171
▁test	-9.74233
aksjon	-9.74254
▁kontrakt	-9.74278
90	-9.74279
▁tusen	-9.74285
▁tog	-9.74337
ji	-9.74392
▁nan	-9.74405
▁kam	-9.74423
▁offiser	-9.7445
ås	-9.74485
riket	-9.74508
san	-9.74543
skolen	-9.74586
▁ansatt	-9.74739
organisasjon	-9.74786
▁opphav	-9.74805
rio	-9.74868
ort	-9.74889
▁strand	-9.74897
▁nærings	-9.74904
øyene	-9.74935
instrument	-9.74945
fang	-9.7496
09	-9.74972
▁hjerte	-9.74975
▁bind	-9.7499
▁1956	-9.74995
▁ordfører	-9.75
▁runde	-9.75015
▁søster	-9.75029
cy	-9.75074
06	-9.75116
▁tegnet	-9.75193
▁mad	-9.75245
bli	-9.7528
▁operasjon	-9.75328
▁trekk	-9.75338
shi	-9.75378
tis	-9.75581
▁fordel	-9.75675
zz	-9.75793
virksomhet	-9.75884
▁konkurransen	-9.75893
▁ep	-9.75965
▁publisert	-9.76062
▁betrakte	-9.76062
▁frederik	-9.76066
▁1941	-9.76078
▁dekker	-9.76202
63	-9.76239
ograf	-9.7628
▁tema	-9.76327
73	-9.76396
▁sider	-9.76407
▁systemet	-9.76631
69	-9.76652
▁helge	-9.76665
delen	-9.76725
▁korte	-9.76914
▁jens	-9.76919
▁harald	-9.77019
▁gangen	-9.77032
▁1944	-9.77177
▁charles	-9.77179
▁1959	-9.77182
▁kjønn	-9.77188
grense	-9.77192
▁anne	-9.7721
▁ungdom	-9.77265
▁rykke	-9.77305
▁foreldre	-9.77383
nyin	-9.77392
skjold	-9.77396
▁oftest	-9.77406
▁skille	-9.77417
▁undersøkelse	-9.77423
flu	-9.77512
▁fjern	-9.77548
▁tettsted	-9.77631
▁rekord	-9.77641
lov	-9.77672
▁begynner	-9.77861
kirke	-9.78012
48	-9.78102
▁våren	-9.78114
våpen	-9.78121
▁1500	-9.78229
akademi	-9.7825
▁fro	-9.78268
▁alternativ	-9.78272
▁berømt	-9.78272
▁dømt	-9.78272
▁planlagt	-9.78288
▁blue	-9.78294
▁larven	-9.78313
▁erklært	-9.78331
▁festival	-9.78339
bank	-9.78347
ze	-9.78436
▁landsbyen	-9.78565
▁turn	-9.78607
▁minutter	-9.78682
▁forteller	-9.78723
▁bakken	-9.78729
komme	-9.78766
deles	-9.7885
▁shi	-9.78865
▁former	-9.78949
▁sluttet	-9.79238
▁press	-9.79251
▁offentlige	-9.79261
▁lede	-9.79375
▁kampene	-9.7938
▁hell	-9.79382
▁religion	-9.79395
▁element	-9.79399
▁bispedømme	-9.79399
▁char	-9.794
▁jarl	-9.79421
kysten	-9.79423
klær	-9.79444
field	-9.79468
▁dog	-9.79523
stedet	-9.79547
▁wh	-9.79551
▁spill	-9.7961
bor	-9.79618
▁albert	-9.7962
▁teksten	-9.79779
▁salt	-9.79797
▁ansett	-9.79803
▁provins	-9.7983
88	-9.7983
▁arne	-9.79867
▁avisen	-9.79869
▁forskjell	-9.79897
lang	-9.79999
▁endre	-9.80004
▁øke	-9.80008
▁trekke	-9.80008
kamper	-9.80022
▁opphold	-9.80034
▁ph	-9.80043
vekt	-9.80106
▁forsvars	-9.80135
▁sterke	-9.80159
▁lage	-9.80159
▁handel	-9.80261
▁kap	-9.80279
▁populære	-9.80354
▁nasjon	-9.80464
krets	-9.80489
grav	-9.80514
sekretær	-9.80518
▁california	-9.80532
▁league	-9.80532
▁innsats	-9.80533
▁ridder	-9.80537
▁oppnådd	-9.80561
▁sund	-9.80622
▁nordland	-9.8073
▁nar	-9.80751
pan	-9.80804
▁angrepet	-9.80851
▁hevdet	-9.80856
▁toppen	-9.80858
▁institutt	-9.8093
▁solo	-9.80983
▁foss	-9.81038
▁gjest	-9.81062
▁påvirke	-9.81101
▁fremme	-9.81131
▁temperatur	-9.81158
▁bit	-9.81261
▁rang	-9.81288
▁søke	-9.81309
▁republikken	-9.81379
▁hevde	-9.81388
▁45	-9.81393
▁cm	-9.81395
▁vii	-9.81496
▁tittel	-9.81498
▁pra	-9.81532
produ	-9.8156
avdeling	-9.81614
▁tids	-9.81643
haug	-9.81647
▁offisiel	-9.81667
▁1957	-9.81681
▁erkebiskop	-9.81681
▁edvard	-9.81681
▁episode	-9.81682
▁sølvmedalje	-9.81689
kirken	-9.81724
▁ukjent	-9.81735
▁veldig	-9.81746
▁mørk	-9.81754
hall	-9.81917
▁euro	-9.81921
▁elve	-9.81945
▁sten	-9.81993
▁trafikk	-9.8203
▁sier	-9.82051
▁sau	-9.82086
stripe	-9.82144
▁off	-9.82194
sport	-9.82194
gli	-9.82293
▁elever	-9.82336
▁grønn	-9.8235
org	-9.82406
well	-9.82467
▁rund	-9.8247
▁senter	-9.82585
▁drama	-9.82658
▁heng	-9.82705
▁metall	-9.82716
▁markert	-9.82739
▁inspirert	-9.82844
▁passasjer	-9.82844
kammer	-9.82845
▁faktisk	-9.82849
▁1933	-9.82855
▁1912	-9.82859
▁sikker	-9.82868
▁skilt	-9.82895
▁forfatteren	-9.82898
▁kaptein	-9.83077
på	-9.83078
språklig	-9.83087
evne	-9.8313
▁sent	-9.832
▁østlige	-9.83232
formen	-9.83239
partiet	-9.83322
▁krets	-9.83383
▁sykdom	-9.83406
linjen	-9.83538
gren	-9.83592
▁time	-9.83625
▁33	-9.83866
▁kas	-9.83881
▁vanlige	-9.83889
arbeidet	-9.83922
▁records	-9.8402
▁sistnevnte	-9.8402
▁utgangspunkt	-9.8402
▁ungarn	-9.84021
▁tydelig	-9.84021
▁sel	-9.84087
▁angeles	-9.84105
▁åpning	-9.84127
▁eiendom	-9.84132
▁mas	-9.84146
51	-9.84152
▁oppdrag	-9.84165
▁bø	-9.84328
▁vokse	-9.84426
▁endelig	-9.84446
mennene	-9.84517
▁kropp	-9.84542
▁dynastiet	-9.84555
▁tour	-9.84602
▁ark	-9.84651
▁ek	-9.84686
▁base	-9.84695
sil	-9.84769
komst	-9.84793
hard	-9.84842
drift	-9.84903
43	-9.84984
▁holm	-9.85042
album	-9.85116
festival	-9.85139
▁kristian	-9.85162
mil	-9.85188
gata	-9.85207
▁eksempl	-9.8521
▁mexico	-9.85211
▁tilknytning	-9.85211
▁united	-9.85212
turnering	-9.85212
▁brøt	-9.85216
vatnet	-9.85217
værende	-9.85223
▁1942	-9.85224
▁fredrik	-9.85224
▁1932	-9.85225
zhou	-9.85226
bri	-9.85226
▁lansert	-9.85226
▁aust	-9.85228
▁1954	-9.85229
▁1951	-9.85229
▁sovjetiske	-9.85255
ick	-9.85332
54	-9.85366
▁vinge	-9.85379
▁kanon	-9.85427
▁win	-9.85429
gå	-9.85435
▁cr	-9.85451
▁600	-9.85482
metode	-9.85489
61	-9.85644
forbund	-9.85687
19	-9.8576
lund	-9.85763
▁hovedstad	-9.8581
41	-9.85835
86	-9.86034
erende	-9.86061
▁avstand	-9.86082
▁pop	-9.86106
11	-9.86108
▁felt	-9.86135
▁kj	-9.86144
▁stav	-9.86164
tun	-9.86313
plate	-9.86339
▁mørke	-9.86345
▁vir	-9.86348
▁michael	-9.86415
▁publikum	-9.86415
▁bokstav	-9.86417
▁1934	-9.86425
▁protest	-9.86427
snitt	-9.86492
▁føde	-9.86525
▁likhet	-9.86584
72	-9.86608
▁por	-9.86635
08	-9.86701
kov	-9.86763
dro	-9.86802
▁dør	-9.86822
områdene	-9.86832
ali	-9.86851
artikler	-9.86931
▁masse	-9.8719
▁bord	-9.87206
dekke	-9.87242
▁tårn	-9.87269
▁ram	-9.87379
slått	-9.87593
▁bane	-9.87599
▁hurtig	-9.87635
▁begrenset	-9.87637
▁sportsutøver	-9.87637
▁behov	-9.8764
ologisk	-9.87658
▁detalj	-9.87687
▁streng	-9.87689
▁hersker	-9.87698
▁knut	-9.87713
▁1000	-9.87752
▁høye	-9.87769
lm	-9.87774
44	-9.87822
følgende	-9.87845
▁formål	-9.87889
samisk	-9.87897
wood	-9.87919
▁retts	-9.87928
▁fremste	-9.87956
visning	-9.88005
▁historiker	-9.88053
press	-9.88079
▁beskrevet	-9.88086
▁cel	-9.88108
▁mid	-9.88121
▁ban	-9.88143
▁erobret	-9.88199
▁fylket	-9.88233
gal	-9.88236
79	-9.88254
mand	-9.88361
cho	-9.8838
▁plat	-9.88398
handler	-9.88469
▁stre	-9.88591
▁irak	-9.88645
gler	-9.88796
historie	-9.88847
▁generelt	-9.8887
▁college	-9.88873
▁nærmere	-9.88875
▁premier	-9.88886
▁fullført	-9.88892
▁ekstra	-9.88962
▁avholdt	-9.88972
ved	-9.89013
▁landskapet	-9.89023
▁hellige	-9.89025
skipet	-9.89036
▁svak	-9.89119
▁lavere	-9.89144
▁sønnen	-9.89149
legg	-9.89158
▁lau	-9.89215
▁nordisk	-9.89226
eier	-9.89267
bare	-9.89345
▁ungdoms	-9.89354
▁marine	-9.8937
pla	-9.89371
▁bon	-9.89418
▁harry	-9.89439
▁bydel	-9.89462
ming	-9.89474
▁filmer	-9.89487
45	-9.89529
▁pas	-9.89783
▁polsk	-9.89786
▁dokumenter	-9.89844
hel	-9.8992
▁skiller	-9.89963
▁hor	-9.89979
▁pen	-9.89993
▁univers	-9.90097
▁selge	-9.90101
▁alvorlig	-9.9012
▁fullstendig	-9.9012
▁lignende	-9.9012
▁pasient	-9.9012
▁oversikt	-9.90121
gården	-9.90125
▁bay	-9.90147
▁bygg	-9.90193
▁åpne	-9.90195
▁dekket	-9.90257
99	-9.90453
▁junior	-9.90474
tic	-9.90485
tallet	-9.90521
mod	-9.90578
▁will	-9.90725
arter	-9.90746
tsj	-9.90756
▁fc	-9.90907
▁king	-9.90914
25	-9.91072
gard	-9.91075
▁kjøpe	-9.91092
▁ara	-9.91093
▁kaste	-9.91123
tti	-9.91141
▁markeds	-9.91324
▁kategori	-9.91385
▁melodi	-9.91387
▁fysisk	-9.9139
▁levde	-9.91391
▁1938	-9.914
▁lengst	-9.91404
▁1943	-9.91405
▁saint	-9.91409
kommune	-9.91409
▁bryst	-9.91453
▁sammenlagt	-9.91508
▁teknisk	-9.91623
ulykke	-9.91634
▁green	-9.91676
▁moder	-9.91752
▁ansvarlig	-9.91786
runde	-9.9189
▁cent	-9.91905
▁listen	-9.92036
aktig	-9.92059
▁rh	-9.92219
vig	-9.92292
ledning	-9.92303
▁idretts	-9.92397
senteret	-9.92417
samfunn	-9.92545
con	-9.92553
▁stasjonen	-9.92598
▁original	-9.92667
▁1929	-9.92678
▁1908	-9.92687
▁jordbruk	-9.92717
21	-9.92729
▁nes	-9.92729
▁internasjonal	-9.92739
▁turneringen	-9.92742
pass	-9.92786
▁riksvei	-9.92809
▁lø	-9.92822
▁meg	-9.92865
bord	-9.92899
▁kristen	-9.92915
▁festning	-9.92945
▁tråd	-9.92971
▁studio	-9.93054
▁ferd	-9.9309
deler	-9.93142
▁auto	-9.93169
▁ok	-9.93238
regionen	-9.93254
krig	-9.93287
▁sports	-9.93287
▁bonde	-9.93296
▁jule	-9.93347
vind	-9.93359
92	-9.93561
▁ført	-9.93564
18	-9.93577
▁unngå	-9.93612
▁keiseren	-9.93614
▁che	-9.93624
▁motiv	-9.93626
dring	-9.93712
▁design	-9.93807
▁filosofi	-9.93822
▁straffe	-9.93832
ij	-9.93837
gjort	-9.93927
▁konkurranse	-9.93962
▁belgia	-9.93966
▁dialekt	-9.93967
▁invasjon	-9.93973
▁tolv	-9.93975
▁revolusjon	-9.93975
▁tidsskrift	-9.93975
▁assist	-9.93983
▁ze	-9.93985
▁signert	-9.9399
▁musikkalbum	-9.93993
▁show	-9.94
▁bidro	-9.94001
skudd	-9.94012
klassen	-9.94048
▁danse	-9.94088
ordenen	-9.94116
▁landene	-9.94118
▁utgave	-9.94159
kamera	-9.94182
sket	-9.94279
▁studier	-9.9455
▁domin	-9.94616
▁kloster	-9.94658
trinn	-9.94672
▁forbund	-9.94681
▁overgang	-9.94682
▁sist	-9.94727
▁tettstedet	-9.94764
▁800	-9.9482
▁hon	-9.94832
fant	-9.94896
▁middelalderen	-9.94925
gy	-9.94941
▁debut	-9.94991
ance	-9.95198
▁beseiret	-9.95282
▁sjelden	-9.95282
▁regissert	-9.95282
vitenskap	-9.95302
▁snø	-9.95321
firma	-9.95359
styre	-9.95395
ua	-9.954
▁malt	-9.95416
▁flykte	-9.95473
▁1600	-9.95474
▁jag	-9.95475
▁kongens	-9.95501
▁150	-9.95535
tha	-9.9559
▁preste	-9.9559
▁jean	-9.95642
▁nyere	-9.95726
81	-9.95754
ies	-9.95755
▁fritt	-9.95786
▁fløy	-9.95823
▁indisk	-9.95856
▁uke	-9.95894
96	-9.95912
▁poly	-9.95918
atet	-9.95926
▁teknologi	-9.9594
▁oversatt	-9.95966
▁opptre	-9.96047
forbundet	-9.96073
▁stammer	-9.96226
ova	-9.96249
grupper	-9.96342
▁turist	-9.96351
15	-9.96363
▁vinteren	-9.96468
▁landsby	-9.96469
▁ole	-9.9648
ugh	-9.9649
serie	-9.96535
▁maur	-9.96588
55	-9.96591
à	-9.96615
▁world	-9.96616
▁bosetning	-9.96617
▁kunnskap	-9.96617
program	-9.96676
sol	-9.96689
trafikk	-9.9669
▁single	-9.96692
▁bibel	-9.96698
▁mengde	-9.96726
foss	-9.96902
▁representant	-9.96928
▁zo	-9.96984
▁drevet	-9.96987
▁overfor	-9.9706
▁romanen	-9.97084
handel	-9.97085
▁bevegelse	-9.9711
▁halvdel	-9.97132
rommet	-9.97144
▁star	-9.97212
▁rå	-9.97215
fil	-9.97269
hund	-9.97302
ira	-9.97316
▁linjen	-9.97348
▁metal	-9.97367
▁verket	-9.97402
▁ci	-9.97508
▁py	-9.97509
elli	-9.97564
▁ube	-9.97582
▁bevege	-9.97667
▁hunnen	-9.97702
▁føre	-9.97759
▁fabrikk	-9.97771
▁overleve	-9.97892
▁installert	-9.97967
▁registrert	-9.97967
▁vietnam	-9.97967
▁hovedrollen	-9.97968
▁magnus	-9.97969
▁arbeiderpartiet	-9.97983
▁etterfølger	-9.97984
feng	-9.97985
98	-9.97989
▁nedlagt	-9.9804
bjørn	-9.98062
▁rygg	-9.9807
▁utdannelse	-9.98173
▁die	-9.98224
▁spansk	-9.98243
▁irsk	-9.98277
16	-9.98335
somme	-9.98342
strekker	-9.98375
▁bidrag	-9.98411
▁stamme	-9.98482
▁kall	-9.98485
ernes	-9.98512
ky	-9.98631
dannelse	-9.98658
▁omtale	-9.98798
stall	-9.98873
▁lund	-9.98979
▁normalt	-9.99008
▁last	-9.99123
▁sun	-9.99147
▁utvalg	-9.99161
▁just	-9.99254
▁gitar	-9.9926
▁international	-9.99337
▁positiv	-9.99337
▁cirka	-9.99337
▁nominert	-9.99337
▁redusert	-9.99338
▁islam	-9.99343
▁fokus	-9.99353
▁håndball	-9.99354
▁jazz	-9.9936
▁1905	-9.99361
trekning	-9.994
▁lee	-9.99401
prosjekt	-9.9945
▁she	-9.99464
▁hage	-9.99473
▁glass	-9.99473
▁private	-9.99491
kilden	-9.99653
▁utga	-9.99665
▁overført	-9.99669
án	-9.99755
▁begynne	-9.99831
jord	-9.99842
▁kandidat	-9.99862
▁synes	-10.0001
hopp	-10.0009
07	-10.0017
▁uttale	-10.0021
ori	-10.0027
▁typen	-10.0032
▁kost	-10.0035
▁od	-10.0042
▁stig	-10.0045
och	-10.0048
bol	-10.005
▁samfunn	-10.0051
komiteen	-10.0053
▁grunnlegge	-10.0055
0	-10.0057
bour	-10.006
drag	-10.0063
spek	-10.0066
▁finnmark	-10.0073
▁1926	-10.0074
▁monark	-10.0075
▁skaffe	-10.0075
▁flagg	-10.0078
▁hud	-10.0079
▁bla	-10.0082
bånd	-10.0086
kampen	-10.0086
▁internasjonalt	-10.0093
▁pin	-10.0094
▁tredjeplass	-10.0096
▁75	-10.0098
▁hardt	-10.01
▁verd	-10.011
▁avtale	-10.0113
▁trening	-10.0127
12	-10.0128
▁stoff	-10.0136
▁42	-10.0145
▁wien	-10.0146
mur	-10.0147
▁tilfeller	-10.0151
▁villa	-10.0153
▁utsatt	-10.0158
▁ana	-10.0168
▁sosiale	-10.0183
vandre	-10.0184
▁arve	-10.0185
▁spise	-10.0194
74	-10.0196
▁kreft	-10.0199
▁vitenskap	-10.0203
sens	-10.0211
▁tempel	-10.0213
▁moskva	-10.0213
▁fungert	-10.0214
▁tale	-10.0214
▁1955	-10.0215
gått	-10.0217
▁riktig	-10.0217
▁hustru	-10.0217
▁1910	-10.0217
▁oppnå	-10.0218
faktor	-10.0219
▁uttalt	-10.022
▁odd	-10.022
▁kjerne	-10.0221
▁bunn	-10.0227
vandring	-10.0228
enhet	-10.0228
▁magnet	-10.0232
▁kraftverk	-10.0233
▁log	-10.0234
▁starten	-10.0237
▁undervisning	-10.0238
europeisk	-10.0238
▁sykehus	-10.0245
▁kg	-10.0255
makten	-10.0256
able	-10.0262
▁stilte	-10.0285
▁penger	-10.0287
▁hill	-10.0292
phi	-10.0293
voll	-10.0304
fat	-10.0307
forestilling	-10.031
▁forsvaret	-10.0317
▁møter	-10.0317
▁sim	-10.0319
▁hode	-10.0323
▁buss	-10.0326
staten	-10.0332
ora	-10.0335
▁innsjøen	-10.0339
møte	-10.034
former	-10.0344
▁gil	-10.0347
klo	-10.0349
▁skatte	-10.0355
▁antagelig	-10.0356
▁etterfulgt	-10.0356
▁krevde	-10.0356
▁tiår	-10.0358
▁telemark	-10.0358
▁befinne	-10.0359
▁intern	-10.0359
halvøya	-10.036
▁debatt	-10.036
▁oppmerksomhet	-10.0361
▁uni	-10.0361
▁damp	-10.0364
▁hovedsak	-10.0365
blokk	-10.0372
▁bombe	-10.0373
maskin	-10.0374
▁representerer	-10.038
▁antatt	-10.0382
▁team	-10.0384
▁insekter	-10.0399
hørt	-10.0401
▁bob	-10.0406
løpet	-10.0415
▁innsjø	-10.0418
▁omfatte	-10.0421
28	-10.0435
▁menighet	-10.0436
arkiv	-10.0439
93	-10.046
▁verdensmester	-10.0462
▁evne	-10.0476
post	-10.0478
▁vakt	-10.0493
▁stemmer	-10.0501
▁hensikt	-10.0501
▁kvalifisering	-10.0501
▁nedbør	-10.0501
▁stadion	-10.0501
▁jødisk	-10.0502
▁1917	-10.0503
▁1911	-10.0503
▁stabil	-10.0509
▁agder	-10.0516
▁mary	-10.0521
jev	-10.0522
vekst	-10.0524
produsent	-10.0531
▁produksjonen	-10.0531
▁studenter	-10.0537
▁frukt	-10.0538
▁klassen	-10.054
fugl	-10.0544
▁frø	-10.055
▁kvalitet	-10.0551
slekt	-10.0551
periode	-10.0551
▁haug	-10.0552
mund	-10.0553
▁innlede	-10.0553
ios	-10.0566
▁fantes	-10.0567
▁rose	-10.0569
▁stol	-10.0573
▁stål	-10.0579
▁faste	-10.0589
▁bilder	-10.0608
▁matt	-10.0611
ér	-10.0614
▁parken	-10.0615
▁sko	-10.0615
▁bud	-10.0621
▁36	-10.0626
pat	-10.063
▁øvrige	-10.064
▁spillet	-10.0641
▁betegne	-10.0645
spor	-10.0647
▁østerriksk	-10.0648
▁royal	-10.0649
▁stø	-10.0649
▁medlemmene	-10.0649
▁hemmelig	-10.0649
▁tidspunkt	-10.065
lyktes	-10.065
▁tilhørte	-10.0651
▁prins	-10.0651
▁alpin	-10.0654
▁utnytte	-10.0654
▁grunnlag	-10.0654
havn	-10.0657
avtale	-10.0659
▁graf	-10.0666
kjøp	-10.067
forsamling	-10.0674
▁mill	-10.0675
▁parlamentet	-10.068
▁cd	-10.0681
bal	-10.07
▁tilbud	-10.0703
duk	-10.0703
▁fyrst	-10.0707
fabrikk	-10.0709
▁virkelig	-10.071
▁makten	-10.0711
▁levert	-10.0728
▁liberal	-10.074
94	-10.0742
▁øyer	-10.0746
jan	-10.0747
klubben	-10.0756
▁timer	-10.0757
17	-10.0763
ping	-10.0764
low	-10.0766
▁sof	-10.0778
▁hed	-10.0778
▁musikken	-10.0786
▁tyn	-10.0789
▁kapp	-10.0797
▁kjærlighet	-10.0797
▁akershus	-10.0797
▁deriblant	-10.0797
▁joseph	-10.0797
▁eksemplarer	-10.0798
▁myndighetene	-10.0798
forvaltning	-10.0798
▁south	-10.0798
▁1914	-10.0799
▁1923	-10.0799
▁1906	-10.08
▁drammen	-10.08
▁omtalt	-10.0801
mond	-10.0808
▁bygda	-10.0811
▁jevn	-10.0816
▁nav	-10.0818
▁kommunal	-10.0819
▁internett	-10.0821
konkurranse	-10.0821
kjent	-10.0821
forskning	-10.0822
▁tyskerne	-10.0832
▁søkt	-10.0832
▁lyn	-10.0836
▁cu	-10.0838
▁tang	-10.084
▁oppdag	-10.0846
verdig	-10.085
▁mak	-10.0853
ity	-10.0854
rim	-10.0855
ordning	-10.0859
▁grunnla	-10.086
▁landslaget	-10.0863
▁buk	-10.0866
▁handling	-10.0867
▁ønsker	-10.087
▁samfunnet	-10.0871
▁bølge	-10.0873
▁yu	-10.0877
skriv	-10.0887
▁samfunns	-10.0893
▁grei	-10.0895
▁styret	-10.0898
▁utøve	-10.0915
▁kull	-10.0927
jiang	-10.0934
▁bånd	-10.0935
▁slaver	-10.0936
▁turner	-10.0938
▁ellers	-10.0942
▁anna	-10.0947
▁administrativ	-10.0949
▁introdusert	-10.0949
▁wilhelm	-10.0949
▁pakistan	-10.0949
▁frykt	-10.0949
▁lufthavn	-10.095
▁generasjon	-10.095
▁demokratisk	-10.0951
▁1907	-10.0951
▁oversettelse	-10.0959
▁arkitektur	-10.096
▁us	-10.0961
▁kvinnelige	-10.0964
kreft	-10.0969
miljø	-10.0975
▁andreas	-10.0979
▁fn	-10.098
▁kapell	-10.0989
▁semifinalen	-10.0993
▁skj	-10.0995
▁sort	-10.0995
▁kjøp	-10.0997
forhold	-10.1
▁oss	-10.1002
▁ref	-10.1006
strid	-10.1016
▁forholdet	-10.1018
▁ting	-10.1028
▁elektron	-10.103
▁saga	-10.1033
▁slott	-10.1042
▁dor	-10.105
bær	-10.1059
masse	-10.1068
▁bygninger	-10.108
32	-10.1095
▁spanske	-10.1102
▁county	-10.1103
▁fattig	-10.1103
▁redusere	-10.1103
▁sprint	-10.1103
▁doktorgrad	-10.1103
▁anklage	-10.1104
▁1927	-10.1104
▁henholdsvis	-10.1105
▁anlegg	-10.1107
gaard	-10.1107
▁sagt	-10.1108
▁storm	-10.1109
▁kino	-10.1132
38	-10.1134
kunst	-10.1134
klasse	-10.1136
▁grunnlegger	-10.1137
ledd	-10.1138
ish	-10.1143
▁luc	-10.1152
motor	-10.1155
styret	-10.1155
▁ann	-10.1156
▁gam	-10.1163
▁struktur	-10.1164
strand	-10.1166
▁utføre	-10.1167
skyting	-10.1169
▁larvene	-10.117
▁tilfelle	-10.1172
▁lese	-10.1174
▁medaljer	-10.1175
▁pet	-10.1176
▁typer	-10.1182
stykke	-10.1186
▁venner	-10.1187
ado	-10.1188
▁utstilling	-10.1189
akker	-10.1193
▁up	-10.1193
▁37	-10.1195
▁ing	-10.1201
▁populært	-10.1201
▁teologi	-10.1202
▁frihet	-10.1203
▁motstander	-10.1214
▁kode	-10.1214
▁snu	-10.1216
▁vokser	-10.1218
▁lam	-10.1223
▁34	-10.1225
▁gall	-10.1227
▁politiet	-10.1236
rekke	-10.1236
▁song	-10.1242
▁old	-10.1243
▁lan	-10.1254
▁milliarder	-10.1259
▁ødelegge	-10.1259
▁negativ	-10.1259
▁definert	-10.126
35	-10.126
▁gullmedalje	-10.1261
▁1921	-10.1261
▁skiftet	-10.1262
egne	-10.1266
▁tilhenger	-10.1267
▁butikk	-10.1268
▁båten	-10.1268
følelse	-10.1272
slaget	-10.1279
▁gruve	-10.1281
▁hum	-10.1282
▁morgen	-10.1282
bygget	-10.1283
▁markedet	-10.1295
listen	-10.1296
hode	-10.1299
▁nr	-10.1306
▁latinsk	-10.1307
▁solen	-10.1308
▁nam	-10.1309
farge	-10.1311
▁gun	-10.1332
▁museet	-10.1335
▁behandle	-10.1341
▁styrt	-10.1344
▁dobbelt	-10.1356
▁vær	-10.1357
▁stab	-10.1359
▁vg	-10.1364
97	-10.1374
▁skuespill	-10.1378
vold	-10.1387
kilde	-10.1391
▁styrte	-10.1399
▁begrep	-10.1401
▁rep	-10.1404
▁bry	-10.1405
▁imot	-10.1406
ksjoner	-10.1407
▁hotell	-10.1414
handlet	-10.1417
▁skudd	-10.1417
mont	-10.1418
▁henrettet	-10.1418
▁ødelagt	-10.1418
▁sikkerhets	-10.1418
▁opplevd	-10.142
▁1919	-10.142
▁driver	-10.1421
▁alex	-10.1421
▁studere	-10.1422
▁tvunge	-10.1422
▁papir	-10.1422
▁bevegelsen	-10.1422
▁pensjon	-10.1423
▁beregne	-10.1423
▁sverd	-10.1424
▁handler	-10.1424
▁etappe	-10.1427
▁spenning	-10.1429
▁hellas	-10.1429
36	-10.1441
▁arv	-10.1445
født	-10.1454
▁troll	-10.1455
▁underlagt	-10.1455
bøker	-10.1458
høyde	-10.1469
▁kanal	-10.1476
▁bibliotek	-10.1481
▁motsatt	-10.1481
▁verdenscupen	-10.1481
ith	-10.1489
vision	-10.1493
illa	-10.1497
dommer	-10.1498
bevegelsen	-10.1506
øst	-10.1511
▁ulik	-10.1517
▁funn	-10.1521
liste	-10.1523
▁fartøy	-10.1524
▁nø	-10.1527
oth	-10.1535
▁700	-10.1539
▁formen	-10.1539
▁bygning	-10.1546
▁kjempet	-10.156
arrangement	-10.1579
▁1937	-10.1579
▁midlertidig	-10.1579
▁arrangere	-10.1579
▁kristiansand	-10.1579
▁etablere	-10.1579
▁kveld	-10.158
▁smith	-10.158
▁otto	-10.1581
▁forretnings	-10.1582
▁amt	-10.1583
▁kjørt	-10.1588
▁effektiv	-10.1591
▁johann	-10.1593
byrå	-10.1595
39	-10.16
▁mesterskap	-10.1601
42	-10.1608
▁salme	-10.161
gate	-10.1614
▁resultatet	-10.1618
▁modellen	-10.1621
▁betale	-10.1622
istene	-10.1637
▁nettverk	-10.1638
ón	-10.1638
park	-10.1643
▁moren	-10.1646
23	-10.1649
kall	-10.1656
▁mini	-10.167
24	-10.1672
østregionen	-10.1673
▁bilen	-10.1697
26	-10.1699
▁bredde	-10.1713
nch	-10.1721
▁vente	-10.1732
▁bakke	-10.1733
eksjon	-10.1736
▁sovjet	-10.1737
korps	-10.1739
▁stillingen	-10.174
▁roll	-10.1741
▁antwerpen	-10.1743
▁australsk	-10.1743
▁brensel	-10.1743
▁nektet	-10.1743
▁invest	-10.1744
▁oppløst	-10.1744
▁1931	-10.1744
▁1915	-10.1745
▁alfred	-10.1746
▁representanter	-10.1746
▁vendt	-10.1748
▁anledning	-10.175
▁byggingen	-10.1751
bakken	-10.1752
politikk	-10.1756
▁enorm	-10.1758
styrke	-10.176
▁tyr	-10.1764
▁språket	-10.1767
▁henry	-10.1768
▁loven	-10.1769
feld	-10.1771
▁wales	-10.1776
▁rein	-10.1776
▁prinsipp	-10.1778
▁mala	-10.1783
ligste	-10.1784
▁advokat	-10.1787
▁hull	-10.1792
▁camp	-10.1811
▁00	-10.1813
▁regional	-10.1815
▁brenn	-10.1829
▁atom	-10.183
▁rapport	-10.1836
▁finske	-10.1837
▁perioder	-10.1849
▁fler	-10.185
stasjonen	-10.1852
▁drei	-10.1887
livet	-10.1904
▁innbyggertall	-10.191
▁okkupasjon	-10.191
▁skjønt	-10.191
▁dollar	-10.191
▁lagkonkurransen	-10.191
▁geografisk	-10.191
▁hendelser	-10.191
▁län	-10.191
▁1909	-10.1913
norsk	-10.1914
▁drikke	-10.1915
▁bol	-10.1919
▁cap	-10.1919
▁preg	-10.1919
▁deltaker	-10.1923
▁uavhengighet	-10.1925
▁skatt	-10.1927
▁munk	-10.193
▁fjerne	-10.1939
▁objekt	-10.1941
▁north	-10.195
▁filip	-10.1957
▁blanding	-10.1959
holdsvis	-10.1962
▁versjonen	-10.197
▁sats	-10.1973
22	-10.1988
▁forbundet	-10.1989
▁platen	-10.199
47	-10.1993
▁paven	-10.1993
pin	-10.1996
▁mobil	-10.2002
▁stå	-10.2027
kritiker	-10.2029
▁nm	-10.2037
▁drag	-10.2058
▁akse	-10.2059
▁spar	-10.2063
▁bydelen	-10.207
▁samtid	-10.2076
▁1904	-10.2079
▁afghanistan	-10.2079
▁halvparten	-10.2079
▁initiativ	-10.2079
▁manuskript	-10.2079
▁ressurs	-10.2079
▁vesentlig	-10.2079
▁oscar	-10.2079
▁bærum	-10.2079
▁scott	-10.2079
▁utseende	-10.208
▁trær	-10.208
▁sjette	-10.208
▁konstant	-10.208
▁håkon	-10.2081
▁godkjent	-10.2081
▁administrasjons	-10.2082
▁erfaring	-10.2083
▁sykkel	-10.2083
▁jøder	-10.2085
▁olsen	-10.2087
▁high	-10.209
▁tverr	-10.209
gikk	-10.2091
▁nederlag	-10.2091
prisen	-10.2091
strøk	-10.2093
▁forvingen	-10.21
▁bære	-10.2118
vannet	-10.2119
▁opptatt	-10.2124
▁bull	-10.2126
▁phil	-10.2127
▁ansvar	-10.2131
▁vinne	-10.214
62	-10.2143
▁may	-10.2164
▁bygger	-10.2166
ico	-10.2175
▁strak	-10.2177
▁redde	-10.218
elv	-10.2182
ney	-10.2184
▁skriver	-10.2192
▁enkle	-10.222
giver	-10.2229
regn	-10.2233
▁horn	-10.2234
▁anse	-10.2237
▁kalk	-10.2244
▁flåte	-10.2246
▁vokal	-10.2247
▁arn	-10.2248
myndighet	-10.2249
▁inkluderer	-10.2252
▁school	-10.2252
▁ekstrem	-10.2252
▁radikal	-10.2252
▁edward	-10.2253
▁telefon	-10.2253
▁1922	-10.2253
▁portrett	-10.2258
▁hensyn	-10.2259
▁nevnes	-10.2263
▁lake	-10.2266
▁hannen	-10.2269
eksamen	-10.2271
▁kår	-10.2283
▁petter	-10.2285
▁peder	-10.2286
▁idrettslag	-10.2291
▁rase	-10.2292
▁departementet	-10.2296
▁cy	-10.23
▁max	-10.23
▁music	-10.2306
kultur	-10.2308
▁opprette	-10.2313
▁kjell	-10.2327
▁skylde	-10.2334
▁hastighet	-10.2343
▁gau	-10.2344
fond	-10.2356
▁verker	-10.2356
▁svar	-10.236
renn	-10.2371
▁lønn	-10.2379
rolle	-10.2379
spiss	-10.238
▁jø	-10.2382
ois	-10.2383
▁tim	-10.2383
▁tromsø	-10.2388
▁rammet	-10.2396
▁pel	-10.2404
▁planer	-10.2405
kjør	-10.2411
▁bredt	-10.2412
▁bærer	-10.2416
▁sentralt	-10.2417
fjellet	-10.2419
administrasjon	-10.2424
▁barcelona	-10.2427
▁innlemmet	-10.2427
▁arrestert	-10.2427
▁1884	-10.2427
▁færøyene	-10.2427
▁fenomen	-10.2427
▁kulturminne	-10.2427
▁inntekt	-10.2428
▁arkeolog	-10.2429
▁hydro	-10.2429
▁litterær	-10.2429
▁sammenligne	-10.243
▁brede	-10.243
▁institut	-10.243
▁varierer	-10.2435
▁tronen	-10.2436
▁rival	-10.2439
▁økende	-10.2439
syre	-10.2443
▁levende	-10.2451
kanten	-10.2452
skutt	-10.2454
▁legger	-10.246
▁kil	-10.2461
▁mottatt	-10.2464
▁oppsto	-10.2465
▁finsk	-10.2467
hm	-10.2467
hånd	-10.2478
▁krim	-10.2485
▁kanalen	-10.2498
▁skotske	-10.2499
▁trukket	-10.2504
▁utgi	-10.251
▁kåret	-10.251
▁edderkopp	-10.2512
▁klosteret	-10.2517
▁drap	-10.2525
▁nedre	-10.2536
▁måten	-10.2545
▁prosjektet	-10.2562
▁hå	-10.2574
▁bestemme	-10.2576
▁grov	-10.2582
▁kommunist	-10.259
▁dommer	-10.2591
▁gor	-10.2603
▁jerusalem	-10.2606
▁konkurrere	-10.2606
▁münchen	-10.2606
▁vulkan	-10.2606
▁kommersiell	-10.2606
▁luther	-10.2606
friidrettsutøver	-10.2606
▁reserve	-10.2607
▁myndigheter	-10.2607
▁øvelsen	-10.2608
flåten	-10.2612
kompani	-10.2619
perioden	-10.2623
▁1895	-10.2625
▁gitarist	-10.2629
▁kjempe	-10.2634
▁eksempelvis	-10.2644
utvikling	-10.266
forsker	-10.2667
▁musikalsk	-10.267
ual	-10.2671
▁esp	-10.2673
bury	-10.2679
▁39	-10.2685
▁bakkroppen	-10.2687
▁oppfatte	-10.2688
▁play	-10.2695
▁skjær	-10.2711
▁santa	-10.2713
▁byttet	-10.2716
▁qua	-10.2724
sjø	-10.2731
uv	-10.2732
▁ønske	-10.2735
reise	-10.2742
styrken	-10.2748
▁penge	-10.2751
wald	-10.2753
virke	-10.2757
▁landslag	-10.2766
demokrati	-10.2768
13	-10.2775
▁rødt	-10.2777
vakt	-10.2782
▁dun	-10.2786
▁kombinert	-10.2787
▁artikkel	-10.2787
▁forekommer	-10.2787
▁uvanlig	-10.2788
▁himmel	-10.2788
▁major	-10.2788
▁mektig	-10.2788
▁manager	-10.2789
▁jesus	-10.2789
▁programleder	-10.2791
herre	-10.2794
▁vokalist	-10.2796
gin	-10.2798
▁tå	-10.2801
tårn	-10.2804
bein	-10.2805
▁1890	-10.2807
▁ulv	-10.2808
▁festningen	-10.2816
▁løsning	-10.2817
▁gold	-10.2823
▁barna	-10.2826
▁simon	-10.2828
▁nasjonalpark	-10.2836
▁gruppa	-10.2836
▁unna	-10.284
medalje	-10.2841
politisk	-10.2846
▁ramme	-10.2856
▁ordre	-10.2859
▁tsj	-10.2861
row	-10.2867
▁leon	-10.2873
▁utgaven	-10.2874
▁vekk	-10.2883
▁rør	-10.2889
▁angi	-10.2899
▁representert	-10.2907
▁lån	-10.291
årene	-10.2923
regiment	-10.2925
ux	-10.2936
kop	-10.2942
▁karrieren	-10.2945
setting	-10.2946
▁38	-10.2947
▁pap	-10.2947
▁fødsel	-10.2973
▁argument	-10.2973
▁definisjon	-10.2973
▁helsingfors	-10.2973
▁kollektiv	-10.2973
▁washington	-10.2973
▁jakob	-10.2973
▁arthur	-10.2973
▁club	-10.2973
▁angripe	-10.2973
konferanse	-10.2973
▁kapital	-10.2973
▁alexander	-10.2973
▁rådgiver	-10.2974
▁1935	-10.2975
▁spissen	-10.2976
▁queen	-10.298
maleri	-10.2983
▁aksje	-10.2984
▁planter	-10.2995
▁france	-10.3003
▁ali	-10.3008
▁gradvis	-10.3008
▁sankt	-10.3015
litt	-10.3018
uff	-10.302
▁kommando	-10.3022
ander	-10.3024
▁medalje	-10.3025
▁samarbeidet	-10.3025
▁vennskap	-10.3027
yang	-10.3033
▁besøkte	-10.3037
▁kara	-10.3038
▁filosof	-10.304
modell	-10.3042
▁vitne	-10.3046
ische	-10.3053
ulf	-10.3054
▁fjernet	-10.3063
▁teknikk	-10.3078
uch	-10.3081
▁sving	-10.3083
cal	-10.3095
▁kjemisk	-10.3099
ball	-10.31
▁bass	-10.3105
▁dyrke	-10.3116
idrett	-10.3127
▁niels	-10.3129
▁coll	-10.3129
▁unn	-10.3129
▁vekst	-10.3137
▁tradisjonel	-10.3151
8	-10.3153
▁55	-10.3158
▁administrer	-10.3161
▁involvert	-10.3161
▁juridisk	-10.3161
▁referanse	-10.3161
▁hjerne	-10.3161
▁allianse	-10.3162
▁nedenfor	-10.3162
▁forårsake	-10.3162
▁kritisk	-10.3163
▁diplomat	-10.3166
▁meldt	-10.3167
▁reaksjon	-10.3173
33	-10.3183
▁fyll	-10.3187
rock	-10.3188
bedrift	-10.3189
▁smak	-10.3189
▁dj	-10.32
▁kommunistisk	-10.3201
▁knap	-10.3204
▁håp	-10.3207
hem	-10.3211
▁kommunestyre	-10.3213
▁stam	-10.3213
▁eik	-10.322
▁statlig	-10.3223
▁rulle	-10.3224
plante	-10.3224
▁rand	-10.3226
hjem	-10.3228
▁rester	-10.3228
▁dato	-10.3232
▁bekreftet	-10.3235
▁konstruksjon	-10.3238
▁korn	-10.3241
▁innhold	-10.3264
▁sideelv	-10.3267
grafi	-10.3274
▁bryte	-10.3282
▁trykket	-10.329
▁blomster	-10.3296
imot	-10.3299
▁bladet	-10.3307
▁uro	-10.3311
▁tvil	-10.3317
▁gard	-10.3347
▁engasjert	-10.3354
▁1903	-10.3354
▁konsept	-10.3354
▁eksisterte	-10.3354
▁innbyggerne	-10.3354
▁utenlandske	-10.3354
▁rektor	-10.3354
▁tilsvarer	-10.3354
kompleks	-10.3354
▁dominerende	-10.3355
▁skøyte	-10.3356
▁folketelling	-10.3358
▁skygge	-10.3359
▁arena	-10.336
bukta	-10.3374
▁normal	-10.3374
▁tvang	-10.3377
▁statsråd	-10.3384
▁isteden	-10.3385
91	-10.3388
▁slett	-10.3392
rakk	-10.3394
▁regissør	-10.3398
▁900	-10.3399
▁fotograf	-10.3407
distrikt	-10.3422
▁institusjon	-10.343
givelse	-10.3431
lønn	-10.3431
▁kongedømmet	-10.3443
▁kraftverket	-10.3449
▁ull	-10.3468
▁blomst	-10.3469
▁feire	-10.3474
▁dominert	-10.3475
flo	-10.3479
▁mangle	-10.3483
▁mengder	-10.3483
▁moral	-10.3489
▁47	-10.3492
27	-10.3513
▁grunnlov	-10.3514
▁tau	-10.3514
familie	-10.352
▁avtalen	-10.352
▁betegnelse	-10.3538
næs	-10.3547
▁individuell	-10.355
▁katedral	-10.355
▁konkurrert	-10.355
▁ludvig	-10.355
▁bøkene	-10.355
▁golf	-10.355
▁belgisk	-10.355
▁wolf	-10.3551
▁referere	-10.3552
▁eksport	-10.3555
▁bodø	-10.3563
▁kai	-10.3572
plattform	-10.3573
bygningen	-10.3591
▁fjellene	-10.3594
▁sunn	-10.36
▁tilpasse	-10.3608
spir	-10.3611
▁kjøl	-10.3616
gav	-10.3621
museum	-10.3623
effekt	-10.3623
▁sveitsisk	-10.3634
▁utenriks	-10.3647
▁høst	-10.3653
▁cur	-10.3654
▁62	-10.3655
▁mynt	-10.3656
▁oliv	-10.3657
▁jente	-10.3673
▁kvart	-10.3674
tekst	-10.3684
▁artister	-10.369
vald	-10.3692
▁cand	-10.3693
▁bidra	-10.3696
▁størst	-10.37
ward	-10.3706
▁europe	-10.3711
kjøtt	-10.3721
▁steve	-10.3726
▁folketellingen	-10.3745
▁argentina	-10.375
▁eksperiment	-10.375
▁mesteparten	-10.375
▁kjennetegn	-10.375
▁service	-10.375
▁risiko	-10.375
▁rogaland	-10.375
pedagog	-10.375
▁formula	-10.375
▁mikro	-10.375
▁landbruks	-10.3751
▁romsdal	-10.3751
▁klokken	-10.3752
▁kommun	-10.3754
▁menneskelig	-10.3754
▁blokker	-10.3757
▁vende	-10.3759
▁bell	-10.376
▁artist	-10.3761
▁metro	-10.3763
▁syr	-10.3765
▁armé	-10.3766
næring	-10.3766
▁handlingen	-10.377
▁grønland	-10.377
▁skjel	-10.3771
▁east	-10.3775
▁1870	-10.3779
pur	-10.3785
▁dokument	-10.3786
▁lykke	-10.3789
▁utbygging	-10.3808
▁vig	-10.3808
▁forlate	-10.3811
▁kva	-10.3811
angrep	-10.3827
▁ansvaret	-10.3829
▁vedtatt	-10.3835
parken	-10.3854
▁grunnlaget	-10.3862
dorf	-10.3874
▁verv	-10.3881
▁cra	-10.3885
▁flu	-10.3887
▁gjennomsnitt	-10.3896
▁regjer	-10.3896
▁epi	-10.3898
▁fed	-10.3904
▁ankom	-10.3907
▁medisin	-10.3918
▁boka	-10.3918
▁ekte	-10.3921
▁chu	-10.3926
▁marinen	-10.3928
▁1200	-10.3939
▁akseptert	-10.3954
▁brødrene	-10.3954
▁forhindre	-10.3954
▁friedrich	-10.3954
▁kombinasjon	-10.3954
▁middelsstor	-10.3954
▁utelukke	-10.3954
▁fjordane	-10.3954
førsel	-10.3954
▁sigurd	-10.3954
▁væske	-10.3954
▁avgjørende	-10.3954
▁ungarsk	-10.3954
▁hjal	-10.3954
komité	-10.3956
▁røyk	-10.3956
▁1916	-10.3957
▁møre	-10.3958
▁philip	-10.3959
▁2018	-10.3959
▁hørte	-10.396
▁hvile	-10.3961
▁1300	-10.3978
▁drepe	-10.3979
ordnet	-10.3989
dikt	-10.3991
nemlig	-10.4
▁bou	-10.4016
▁gjeld	-10.402
▁wel	-10.4021
kommende	-10.4021
▁anton	-10.4026
▁svi	-10.4031
▁synlig	-10.4035
▁slottet	-10.4044
kontor	-10.4048
typer	-10.4053
lipp	-10.4056
▁designet	-10.4061
fattet	-10.4062
ical	-10.4062
bygning	-10.4068
▁medisinsk	-10.4068
▁egyptisk	-10.4071
▁feltet	-10.4072
▁hjul	-10.4073
bill	-10.4083
kasse	-10.4103
hver	-10.4105
▁andel	-10.411
konge	-10.4113
skij	-10.4118
▁mei	-10.4124
▁jacob	-10.4149
▁multi	-10.4151
▁1901	-10.4162
▁eventuel	-10.4162
▁intervju	-10.4162
▁kronprins	-10.4162
▁zealand	-10.4162
▁opptrådt	-10.4162
▁gustav	-10.4162
artilleri	-10.4162
▁frivillig	-10.4162
▁praktisk	-10.4162
▁tyrkisk	-10.4163
melding	-10.4163
▁strekningen	-10.4163
▁avdøde	-10.4163
▁etterkommer	-10.4164
▁1925	-10.4165
▁kjenner	-10.4166
▁definere	-10.4166
▁imperi	-10.4167
▁dvs	-10.4168
▁takket	-10.4169
bød	-10.4171
▁talent	-10.4177
▁tørr	-10.4178
▁planeten	-10.418
▁brent	-10.4181
▁adam	-10.422
▁troms	-10.422
▁paus	-10.4233
skrevet	-10.4236
gods	-10.4241
forbindelse	-10.4248
▁human	-10.4252
▁rapportert	-10.4256
messe	-10.4261
utvalg	-10.4261
89	-10.4264
ledet	-10.427
29	-10.427
▁mangler	-10.4275
▁street	-10.4286
▁gjennomføre	-10.4287
støt	-10.4287
▁beskrev	-10.4308
ahl	-10.4309
▁planen	-10.4311
verdi	-10.4312
løft	-10.4322
▁mannlig	-10.4326
▁kontinent	-10.4353
kongen	-10.4362
▁video	-10.4373
bataljon	-10.4375
▁guvernør	-10.4375
▁jugoslavia	-10.4375
▁oblast	-10.4375
▁stafett	-10.4375
▁lim	-10.4375
▁forbedre	-10.4375
▁terror	-10.4375
▁besetning	-10.4376
▁atmosfær	-10.4376
▁vannkraftverk	-10.4377
▁utgivelsen	-10.4377
▁aas	-10.4379
▁daniel	-10.438
▁prosessen	-10.4387
▁anlagt	-10.4388
▁1897	-10.439
skade	-10.439
▁gjennombrudd	-10.4396
▁håndverk	-10.44
▁straff	-10.4405
▁lista	-10.4407
▁lord	-10.4407
▁opplag	-10.4412
▁statue	-10.4418
▁rasen	-10.4425
▁nordover	-10.4448
polis	-10.4451
start	-10.4452
▁mah	-10.4456
direktør	-10.4465
▁fei	-10.4472
alistisk	-10.4472
▁fase	-10.4474
▁helst	-10.4474
mengde	-10.4476
kraftverk	-10.4479
▁løfte	-10.4481
▁orient	-10.4481
▁tilhøre	-10.4492
fartøy	-10.4506
redaksjon	-10.4508
▁shan	-10.4514
▁oppleve	-10.4516
31	-10.4516
ittisk	-10.4529
legging	-10.4542
▁120	-10.4553
▁fulgt	-10.456
▁bach	-10.4564
trener	-10.4569
otball	-10.4586
▁utvide	-10.459
▁klage	-10.4591
▁byprefekture	-10.4592
▁chicago	-10.4592
▁invitert	-10.4592
veksling	-10.4592
▁alkohol	-10.4592
▁senior	-10.4592
▁svømme	-10.4592
▁adresse	-10.4593
stipend	-10.4593
▁gratis	-10.4595
▁eiendommen	-10.4599
▁forlatt	-10.4602
▁fremført	-10.4607
▁1899	-10.4612
▁sikte	-10.4618
▁oppstod	-10.4621
▁tynn	-10.4627
▁omkom	-10.4631
▁lettere	-10.4634
traktaten	-10.4635
▁persisk	-10.4637
▁dyktig	-10.4641
▁stund	-10.4642
▁sørover	-10.4647
▁overflaten	-10.4664
▁urban	-10.4669
▁orkester	-10.4674
komedie	-10.468
▁million	-10.4682
▁synge	-10.4683
▁hindre	-10.4687
hjul	-10.4687
▁angel	-10.4689
avisen	-10.4692
▁hammer	-10.471
forsvar	-10.4716
34	-10.472
▁fru	-10.4723
▁foregå	-10.4732
▁etnisk	-10.4737
ansett	-10.4758
▁ross	-10.4767
▁ork	-10.4779
nngår	-10.478
▁medaljen	-10.4804
▁buskerud	-10.4814
▁elizabeth	-10.4814
▁konservative	-10.4814
▁kvalifisert	-10.4814
▁nøyaktig	-10.4814
▁portugal	-10.4814
▁returnerte	-10.4814
▁stråle	-10.4815
budsjett	-10.4815
▁preussen	-10.4815
▁gunnar	-10.4815
▁walisisk	-10.4815
▁kampanje	-10.4815
▁mytologi	-10.4815
isse	-10.4816
▁søndag	-10.4816
▁elleve	-10.4817
▁britene	-10.4818
▁group	-10.4819
▁tjue	-10.4822
▁town	-10.4824
▁strømmen	-10.4827
▁1898	-10.4833
grensen	-10.484
øvelse	-10.484
▁trodd	-10.4856
▁kulturell	-10.4863
▁seire	-10.4869
▁signal	-10.4871
fulle	-10.4882
▁benytter	-10.4884
▁long	-10.4885
▁steg	-10.4887
▁dru	-10.4894
teknikk	-10.4914
regjering	-10.4914
pul	-10.4926
▁kalde	-10.493
▁vingene	-10.4937
redskap	-10.4942
ington	-10.496
utgivelse	-10.4965
botn	-10.497
▁vall	-10.4982
▁cru	-10.5018
▁kru	-10.5019
blikk	-10.5041
▁infanteri	-10.5042
▁lillehammer	-10.5042
▁særskilt	-10.5042
▁restaurant	-10.5042
▁vilhelm	-10.5042
▁døgn	-10.5042
▁monument	-10.5042
▁besluttet	-10.5042
▁amatør	-10.5042
ström	-10.5042
▁beskjed	-10.5043
▁great	-10.5043
▁beholdt	-10.5043
▁tegneserie	-10.5043
▁divers	-10.5043
▁1913	-10.5044
▁tibet	-10.5044
▁generell	-10.5045
▁michel	-10.5046
▁innspillingen	-10.5047
▁antikken	-10.5048
▁fortellingen	-10.5048
▁manchester	-10.5048
▁lokalisert	-10.5058
▁ungdomsskole	-10.5064
▁split	-10.5069
head	-10.507
▁soldatene	-10.5072
▁agent	-10.5083
▁1880	-10.5085
▁hjørne	-10.5088
teori	-10.509
▁melk	-10.5104
▁nød	-10.5107
stjerne	-10.5108
▁pad	-10.511
▁river	-10.5111
▁fungerer	-10.5115
▁anim	-10.5116
▁grøn	-10.5116
▁zu	-10.5136
▁kjemi	-10.5137
▁hval	-10.5142
temperatur	-10.5147
befolkning	-10.5147
drevet	-10.5151
kolle	-10.516
▁kortere	-10.5162
behandling	-10.5163
▁foreta	-10.5169
▁inneba	-10.5181
▁israelsk	-10.5203
▁hamar	-10.5218
▁term	-10.5222
sosialistiske	-10.5227
▁finale	-10.5229
▁torg	-10.524
vassdraget	-10.5242
årig	-10.5243
celler	-10.5253
▁250	-10.5253
jønn	-10.5267
▁admiral	-10.5274
▁aleksander	-10.5274
▁ambassadør	-10.5274
▁american	-10.5274
▁heidelberg	-10.5274
▁konsekvens	-10.5274
▁vedlikehold	-10.5274
▁windows	-10.5274
▁litauen	-10.5274
▁trygg	-10.5274
▁christoph	-10.5274
▁lørdag	-10.5274
▁hebraisk	-10.5274
▁presentert	-10.5275
▁debutalbum	-10.5275
▁unntatt	-10.5276
▁bispe	-10.5276
▁fuktig	-10.5276
▁oldtiden	-10.5277
▁prix	-10.5278
▁prøvd	-10.5279
▁programvare	-10.5281
▁komposisjon	-10.5282
▁knud	-10.5283
▁fylt	-10.5287
▁nederst	-10.5293
▁1896	-10.5295
▁romerne	-10.5295
▁with	-10.5307
▁antyde	-10.5327
▁næringsliv	-10.5328
høyskole	-10.5332
▁middelalder	-10.5338
▁ennå	-10.5358
runn	-10.5365
typen	-10.5379
▁utlandet	-10.5381
økonomi	-10.5385
hjelp	-10.5385
transport	-10.5385
▁raf	-10.5386
▁wu	-10.5404
▁skinn	-10.5419
base	-10.5428
vu	-10.5431
basert	-10.5435
▁tykk	-10.5438
roman	-10.544
▁georgia	-10.5442
▁52	-10.5486
▁web	-10.5501
revolusjonen	-10.5508
▁heinrich	-10.5512
▁liverpool	-10.5512
▁portugisisk	-10.5512
▁etableringen	-10.5512
▁science	-10.5512
▁tømmer	-10.5512
▁kritisert	-10.5512
▁usikker	-10.5513
▁terreng	-10.5513
▁adolf	-10.5513
▁forsvant	-10.5513
▁respekt	-10.5513
▁mongol	-10.5513
▁ekspert	-10.5513
▁føderal	-10.5514
▁estland	-10.5514
▁skjønn	-10.5514
▁ligner	-10.5515
▁trenger	-10.5515
▁jackson	-10.5516
▁gravlagt	-10.5517
▁victoria	-10.5518
▁kommunikasjons	-10.5518
▁biologisk	-10.5519
▁foreslo	-10.5521
▁hind	-10.5523
▁forsterke	-10.5525
▁kristiania	-10.5528
stemt	-10.5535
▁1400	-10.5536
▁beslutning	-10.554
▁jack	-10.5546
▁christiania	-10.5547
▁johansen	-10.5551
brigade	-10.5552
▁master	-10.5558
▁fortalt	-10.5562
▁vanligste	-10.5567
▁republikk	-10.5581
▁intens	-10.5609
føtt	-10.5611
veggen	-10.562
hastighet	-10.5628
forfatter	-10.5629
sønn	-10.5631
lærer	-10.5638
▁bytte	-10.5648
▁jud	-10.5662
▁utløp	-10.5666
▁avvist	-10.5677
hage	-10.5678
utstyr	-10.5685
▁gott	-10.5726
bryter	-10.5746
kommunikasjon	-10.5751
fortelling	-10.5753
svømming	-10.5756
▁amsterdam	-10.5756
▁fakultet	-10.5756
▁innspilt	-10.5756
▁inspirasjon	-10.5756
▁matematikk	-10.5756
▁1902	-10.5756
▁digital	-10.5756
▁døpt	-10.5756
▁tyrkia	-10.5756
▁jørgen	-10.5756
▁sachsen	-10.5757
▁valuta	-10.5757
▁white	-10.5757
▁utslipp	-10.5757
▁dvd	-10.5757
▁erstatning	-10.5757
▁osmansk	-10.5757
▁innebære	-10.5757
▁verdensrekord	-10.5758
▁einar	-10.5758
▁opprettelsen	-10.5758
▁sekunder	-10.5759
▁langrenn	-10.5762
▁neu	-10.5775
▁1892	-10.5778
▁1886	-10.578
▁inngikk	-10.578
▁morten	-10.5782
▁1860	-10.5785
innspilling	-10.5789
▁personlighet	-10.5791
▁undervist	-10.5793
▁romania	-10.5797
verge	-10.5799
▁polar	-10.5812
▁overtatt	-10.5825
▁kub	-10.5829
▁roger	-10.5831
▁fotballklubb	-10.5832
buss	-10.5869
offiser	-10.5879
▁from	-10.5886
alisme	-10.5887
nummer	-10.5889
▁skyte	-10.5889
▁baron	-10.5903
▁fremmed	-10.5918
skjær	-10.5924
bredden	-10.5936
▁vindu	-10.5948
▁larve	-10.5952
▁kno	-10.5965
løytnant	-10.6006
▁svalbard	-10.6006
▁trommeslager	-10.6006
▁kommandør	-10.6006
▁tabellen	-10.6006
frekvens	-10.6006
▁hendelsen	-10.6006
▁oberst	-10.6007
▁fjellkjede	-10.6007
▁avviklet	-10.6007
▁josef	-10.6007
▁mount	-10.6007
forsikring	-10.6007
▁global	-10.6008
▁tillatelse	-10.6008
▁datamaskin	-10.6008
▁firmaet	-10.6008
bebyggelse	-10.6008
seminar	-10.6009
▁beskrivelse	-10.601
▁foregikk	-10.601
▁forbudt	-10.6012
▁fastlandet	-10.6017
▁arkeologisk	-10.6018
▁piano	-10.6019
▁francis	-10.6023
lyd	-10.6025
▁1893	-10.6026
▁1885	-10.6034
▁prim	-10.6039
▁160	-10.604
▁fusjon	-10.6041
▁muslim	-10.6041
spreng	-10.6041
▁birk	-10.6043
▁amerikaner	-10.6046
betaling	-10.6055
▁verb	-10.6073
slutt	-10.6079
▁öst	-10.6084
▁plateselskap	-10.6088
horn	-10.6105
▁dramatisk	-10.6109
▁lyng	-10.6118
▁brutt	-10.6131
rute	-10.6131
▁mono	-10.6132
materiale	-10.6135
teknologi	-10.6136
korset	-10.6136
bølge	-10.6137
vokst	-10.6137
fred	-10.6139
gevær	-10.6163
▁senke	-10.6167
▁wall	-10.6167
tolk	-10.6181
departement	-10.6196
▁ferge	-10.622
▁oppdagelse	-10.6222
▁muslimsk	-10.6227
▁hekk	-10.6238
▁country	-10.6263
▁dirigent	-10.6263
▁eventyr	-10.6263
▁innendørs	-10.6263
▁konstitusjon	-10.6263
▁okkupert	-10.6263
▁prøyssisk	-10.6263
▁vurdert	-10.6263
▁utbredelse	-10.6263
▁østfold	-10.6263
▁margaret	-10.6263
▁overlevde	-10.6263
▁selvmord	-10.6263
▁ytterst	-10.6263
aceae	-10.6264
▁arendal	-10.6264
▁robin	-10.6264
▁skarp	-10.6265
▁brygge	-10.6265
▁import	-10.6265
▁annonsert	-10.6265
▁senatet	-10.6266
▁bidratt	-10.6266
▁forklare	-10.6266
▁svein	-10.6267
▁spyd	-10.6268
▁høyesterett	-10.6272
▁1889	-10.6277
▁award	-10.6277
▁flest	-10.6284
▁panser	-10.6285
▁tilsyne	-10.6286
analyse	-10.6287
▁kontinental	-10.629
▁1848	-10.629
▁basis	-10.6291
▁1100	-10.6295
▁datert	-10.6298
▁akku	-10.6299
teater	-10.6323
▁karakteristisk	-10.6325
▁pund	-10.6325
▁tolke	-10.6327
▁road	-10.6333
▁variert	-10.6336
historisk	-10.6399
kanalen	-10.6399
▁cuba	-10.6432
opplevelse	-10.6437
▁overflate	-10.644
▁blind	-10.6488
▁mau	-10.6499
14	-10.6505
kommisjon	-10.6524
▁psyko	-10.6524
▁napoleon	-10.6526
▁færøysk	-10.6526
▁påbegynt	-10.6526
▁restaurering	-10.6526
▁vingespenn	-10.6526
▁church	-10.6526
▁nikola	-10.6526
▁eksisterer	-10.6526
▁reklame	-10.6526
▁tilskuere	-10.6526
▁igjennom	-10.6526
▁kostnad	-10.6526
▁slapp	-10.6526
▁egenskaper	-10.6526
▁forklaring	-10.6527
▁novelle	-10.6527
▁naturgass	-10.6528
▁francisco	-10.6529
▁sverre	-10.6529
▁akademisk	-10.6531
▁forskjellig	-10.6532
▁lidelse	-10.6533
▁afrikansk	-10.6533
▁stalin	-10.6538
▁mandat	-10.6539
▁øvrig	-10.6541
pakt	-10.6541
▁1891	-10.6542
▁idé	-10.6542
▁lisens	-10.6542
▁hitler	-10.6543
▁avansert	-10.6544
▁hotel	-10.655
▁dahl	-10.6551
▁johnson	-10.6561
▁lunge	-10.6569
▁bratt	-10.6586
▁undergrunns	-10.659
▁grim	-10.6591
▁tjenestegjor	-10.6601
▁gjennomsnittlig	-10.6615
▁trond	-10.6628
gass	-10.6636
▁stikke	-10.6663
karriere	-10.6669
▁foto	-10.6701
▁fortelle	-10.6709
▁frei	-10.6725
settelse	-10.6768
wick	-10.6773
▁folkeavstemning	-10.6796
▁låtskriver	-10.6796
▁observert	-10.6796
▁popularitet	-10.6796
▁resultert	-10.6796
▁ukraina	-10.6796
stråling	-10.6796
▁company	-10.6796
▁hordaland	-10.6796
▁offensiv	-10.6796
▁evangeli	-10.6796
komponent	-10.6796
▁texas	-10.6796
▁erobring	-10.6796
▁antarktis	-10.6796
▁rettigheter	-10.6796
▁ålesund	-10.6797
▁biografi	-10.6797
▁innflytelsesrik	-10.6798
▁stillehavet	-10.6798
▁rolf	-10.6798
▁bedrifter	-10.6799
▁jurist	-10.68
▁brown	-10.68
utøver	-10.6804
▁nedgang	-10.6804
▁fredrikstad	-10.6805
▁regler	-10.6811
▁røtter	-10.6811
▁ddr	-10.6814
▁vev	-10.6816
▁stortings	-10.6819
▁tenke	-10.6822
▁blandet	-10.6831
▁krever	-10.6834
▁østover	-10.6843
▁allmenn	-10.6844
▁pik	-10.6847
kål	-10.6855
vík	-10.6856
▁meta	-10.6869
▁øygrupp	-10.6872
dong	-10.6908
▁utvidelse	-10.6909
kjøring	-10.6918
posisjon	-10.6936
funksjon	-10.6947
museet	-10.6953
▁koll	-10.6967
▁fungere	-10.6988
aften	-10.6993
▁dynasti	-10.7007
burn	-10.7012
▁sparta	-10.7023
▁dverg	-10.7067
støtte	-10.7071
▁elisabeth	-10.7074
▁fiendtlig	-10.7074
▁nøytral	-10.7074
▁ortodoks	-10.7074
▁symfoni	-10.7074
▁permanent	-10.7074
▁thailand	-10.7074
▁colombia	-10.7074
▁regulert	-10.7074
▁wilson	-10.7074
▁firenze	-10.7074
▁beslektet	-10.7074
▁kontrast	-10.7074
▁sandefjord	-10.7074
▁tilbrakt	-10.7074
▁nepal	-10.7075
▁oppstår	-10.7075
▁seinere	-10.7075
▁bakvingen	-10.7075
▁forberede	-10.7075
▁strategisk	-10.7075
▁studioalbum	-10.7075
▁felttog	-10.7076
▁jødene	-10.7076
▁overraske	-10.7076
kontroll	-10.7076
▁hovedkontor	-10.7079
▁molde	-10.708
gjeng	-10.708
apparat	-10.708
▁senator	-10.7081
▁sound	-10.7085
▁slippe	-10.7086
▁1894	-10.7096
▁geir	-10.7098
▁gudinne	-10.7099
▁hamburg	-10.71
▁1888	-10.7102
▁stanse	-10.711
▁indianer	-10.7122
kalender	-10.7133
kommunistpartiet	-10.7142
▁formell	-10.7157
▁barneskole	-10.7171
▁benytte	-10.7171
utenriksminister	-10.7175
▁trent	-10.7218
studie	-10.7235
▁rådhus	-10.7244
▁nau	-10.7252
formede	-10.7275
nettopp	-10.7285
forretning	-10.7298
▁unik	-10.7308
areal	-10.7314
▁fett	-10.734
▁angelsaksisk	-10.736
▁asteroide	-10.736
▁nowiki	-10.736
▁sjeldne	-10.736
▁skulptur	-10.736
▁spesifik	-10.736
▁buddhist	-10.736
▁eksisterende	-10.736
▁tilstrekkelig	-10.736
▁beordret	-10.736
▁fysikk	-10.736
▁identitet	-10.736
presentasjon	-10.736
palasset	-10.736
▁seoul	-10.736
▁varierende	-10.7361
▁visepresident	-10.7361
▁titler	-10.7361
▁middelhavet	-10.7361
▁betong	-10.7363
▁nyhets	-10.7363
▁konsern	-10.7364
▁operatør	-10.7364
▁videospill	-10.7365
▁foreslått	-10.7365
▁klippe	-10.7367
▁sykdommen	-10.7367
▁frakte	-10.7371
▁gjeldende	-10.7372
▁ytelse	-10.7377
▁anvende	-10.7378
▁krise	-10.7384
▁liber	-10.7385
ique	-10.7385
▁walter	-10.7391
▁slave	-10.7393
▁streik	-10.7403
pleier	-10.7441
▁selvstyre	-10.7461
▁ligge	-10.75
orientert	-10.751
▁låten	-10.7513
hovedstad	-10.7526
trukket	-10.7526
problemer	-10.7526
utdanning	-10.7526
tradisjon	-10.7527
rekord	-10.753
▁skotsk	-10.7533
▁marked	-10.7644
▁nordmenn	-10.7647
▁fokusere	-10.7651
▁ammunisjon	-10.7654
▁katolikk	-10.7654
▁shakespeare	-10.7654
▁society	-10.7654
▁depresjon	-10.7654
▁embeds	-10.7654
inspektør	-10.7654
▁begrunne	-10.7654
▁vestfold	-10.7654
▁angivelig	-10.7654
▁beatles	-10.7654
▁ansikt	-10.7654
▁oppfatning	-10.7654
▁utfordring	-10.7654
▁flekker	-10.7654
▁stadium	-10.7654
▁innvalgt	-10.7655
▁prinsesse	-10.7655
▁opposisjon	-10.7655
▁tolkning	-10.7655
▁utgivelser	-10.7656
▁medvirket	-10.7656
▁utmerket	-10.7656
▁poesi	-10.7656
▁forgjenger	-10.7656
▁slank	-10.7656
mekanisme	-10.7657
▁generalsekretær	-10.7657
▁samuel	-10.7659
▁geologisk	-10.7659
▁borgermester	-10.7659
▁styreleder	-10.766
▁gjenværende	-10.7661
▁regimet	-10.7661
▁metoden	-10.7662
▁passerer	-10.7664
▁hindu	-10.7667
stemning	-10.7668
▁opptreden	-10.7669
▁syria	-10.7669
▁ibsen	-10.7677
▁chang	-10.7702
▁proto	-10.7722
▁helhet	-10.7776
▁fornye	-10.778
▁elektro	-10.7796
styrt	-10.7806
forskjell	-10.7829
▁legeme	-10.7831
sikre	-10.7855
tyder	-10.7856
▁bryllup	-10.7957
▁bulgaria	-10.7957
▁geometri	-10.7957
▁patriark	-10.7957
▁rudolf	-10.7957
▁tønsberg	-10.7957
▁venezia	-10.7957
kommanderende	-10.7957
▁forplikte	-10.7957
▁separat	-10.7957
▁autoritet	-10.7957
▁landkreis	-10.7957
molekyl	-10.7957
▁guinea	-10.7957
▁diameter	-10.7957
▁frimurer	-10.7957
▁umulig	-10.7957
▁fjær	-10.7957
▁castle	-10.7957
▁utsikt	-10.7957
▁vakre	-10.7958
▁bbc	-10.7958
▁stengt	-10.7958
▁mjø	-10.7959
▁oppfølger	-10.796
▁tropisk	-10.796
▁høydepunkt	-10.7961
▁profil	-10.7963
▁donau	-10.7965
▁skytter	-10.7967
▁popul	-10.7969
▁1814	-10.797
▁drøm	-10.7973
▁tilfeldig	-10.7976
▁jacobsen	-10.7976
▁kunngjor	-10.7979
▁oval	-10.7983
▁jernbanestasjon	-10.7998
▁furu	-10.8003
round	-10.8003
▁sønd	-10.8013
▁verksted	-10.804
chester	-10.8067
▁rangert	-10.8071
nytt	-10.8088
bæk	-10.809
sjö	-10.8099
▁bringe	-10.8124
biskop	-10.8142
▁parallell	-10.8163
▁home	-10.8186
fyr	-10.8195
▁parlament	-10.8201
ladning	-10.8229
▁franc	-10.8255
pningsseremonien	-10.8269
▁demonstrasjon	-10.8269
▁douglas	-10.8269
▁göteborg	-10.8269
▁hovedkvarter	-10.8269
▁köln	-10.8269
▁lincoln	-10.8269
▁maksimal	-10.8269
▁renessanse	-10.8269
▁shanghai	-10.8269
▁samferdsel	-10.8269
▁søknad	-10.8269
▁embets	-10.8269
▁midtøsten	-10.8269
▁florida	-10.8269
▁komplett	-10.8269
▁gregor	-10.8269
▁fiktiv	-10.827
▁serbia	-10.827
▁utpekt	-10.827
▁utgravning	-10.827
▁noensinne	-10.827
▁færre	-10.827
▁tjente	-10.827
▁kopier	-10.8271
▁sydney	-10.8271
▁fiender	-10.8271
▁innviet	-10.8271
▁styring	-10.8272
▁social	-10.8272
▁embete	-10.8272
▁smelte	-10.8273
▁fangst	-10.8273
rettighetene	-10.8273
▁sirkel	-10.8274
▁kongsberg	-10.8277
▁presidentvalg	-10.8277
▁instrumenter	-10.8278
▁stedsnavn	-10.8278
▁onkel	-10.8279
▁dokumentar	-10.8281
▁turné	-10.8284
komite	-10.8284
▁tilbyr	-10.8285
▁rykte	-10.8298
▁kupp	-10.8306
srud	-10.8309
▁praha	-10.8317
▁skjøt	-10.8318
▁plast	-10.8328
▁kunstnerisk	-10.8331
strup	-10.8362
flyvning	-10.8378
▁tyve	-10.8401
▁relativ	-10.8443
▁erobre	-10.8445
▁kongedømme	-10.8449
institusjon	-10.8464
bibliotek	-10.8464
struktur	-10.8464
aktivitet	-10.8464
spørsmål	-10.8464
design	-10.8464
konstruksjon	-10.8465
▁kirkegård	-10.8469
lokale	-10.8495
▁avslutte	-10.8524
▁traktat	-10.8528
water	-10.8546
svarte	-10.8556
belteasteroide	-10.8592
▁billedhugger	-10.8592
▁grekerne	-10.8592
▁hollywood	-10.8592
▁ludwig	-10.8592
▁plutselig	-10.8592
▁skvadron	-10.8592
▁territorium	-10.8592
▁vellykket	-10.8592
▁vurdering	-10.8592
▁komponert	-10.8592
▁anmelder	-10.8592
▁dimensjon	-10.8592
▁sicilia	-10.8592
▁testament	-10.8592
▁autonom	-10.8592
▁avskaffe	-10.8592
▁gjenvalgt	-10.8592
▁sluppe	-10.8592
▁skjult	-10.8592
▁utnevne	-10.8592
▁trengte	-10.8592
▁vegetasjon	-10.8593
▁für	-10.8593
▁lojal	-10.8593
▁uklar	-10.8593
▁alpene	-10.8594
▁etasjer	-10.8594
▁fortellinger	-10.8594
▁bayern	-10.8595
gjald	-10.8597
▁tsar	-10.8601
▁ørken	-10.8602
▁flukt	-10.8603
▁klatre	-10.8603
▁videreført	-10.8605
▁viktor	-10.8605
▁moderat	-10.8608
▁deltager	-10.8613
▁fjerdeplass	-10.8615
▁foregående	-10.8618
rhein	-10.862
tjern	-10.862
▁avisa	-10.8622
▁sosialdemokrat	-10.8624
▁beholde	-10.8629
▁billed	-10.8657
hefte	-10.8707
▁hevn	-10.871
▁nazi	-10.8734
støv	-10.8765
kandidat	-10.8797
sentrum	-10.8799
▁vestsid	-10.8806
reisende	-10.8828
utstillingen	-10.8847
▁flø	-10.889
▁republi	-10.8918
▁ødela	-10.8925
psykologi	-10.8925
▁cambridge	-10.8925
▁etiopia	-10.8925
▁integrert	-10.8925
▁kristendommen	-10.8925
▁meksikansk	-10.8925
▁microsoft	-10.8925
▁palestina	-10.8925
▁westfalen	-10.8925
▁1857	-10.8925
▁minoritet	-10.8925
▁observasjon	-10.8925
▁taiwan	-10.8925
▁æthel	-10.8925
▁automatisk	-10.8925
▁teoretisk	-10.8925
▁prince	-10.8925
▁diskusjon	-10.8925
▁rovdyr	-10.8925
▁trykt	-10.8925
▁protestantisk	-10.8926
▁karbon	-10.8926
▁skildre	-10.8926
teatret	-10.8926
▁etterretning	-10.8926
▁mastergrad	-10.8927
▁kobber	-10.8927
▁uefa	-10.8927
▁utforming	-10.8927
▁barnehage	-10.8927
åpningen	-10.8928
▁frigjøring	-10.8928
▁hedmark	-10.8928
▁revolusjonære	-10.8929
▁analyser	-10.893
▁verktøy	-10.8931
▁følt	-10.8932
▁tower	-10.8935
▁utstedt	-10.8935
▁benevn	-10.8936
▁forrige	-10.8937
▁bassist	-10.8939
▁bakerst	-10.8953
vitsj	-10.8963
▁åndelig	-10.8979
▁kritikere	-10.8983
bevegelse	-10.9025
▁soldat	-10.9088
▁bakkropp	-10.9114
gjerd	-10.9118
▁verdenscup	-10.9132
orkester	-10.9142
institutt	-10.9142
▁kriminal	-10.9144
programmet	-10.9147
▁musikal	-10.9147
▁sjakk	-10.9164
stigning	-10.917
prøv	-10.9203
▁undersøke	-10.9227
kjæ	-10.9229
▁tidligst	-10.9231
▁victor	-10.9262
▁dekkvingene	-10.927
▁kompetanse	-10.927
▁lokomotiv	-10.927
▁tsjekkoslovakia	-10.927
▁ukrainsk	-10.927
▁vancouver	-10.927
▁flaggbærer	-10.927
▁observato	-10.927
▁ntnu	-10.927
▁kavaleri	-10.927
▁utspring	-10.927
▁forkortet	-10.927
▁dublin	-10.927
▁republikansk	-10.927
▁nicola	-10.927
▁statsborger	-10.927
▁theodor	-10.927
▁canadisk	-10.927
▁mekanisk	-10.927
▁tilsammen	-10.927
▁fremtidig	-10.927
▁forklart	-10.927
▁russerne	-10.927
▁bønder	-10.9271
▁kullkraftverk	-10.9271
▁serbisk	-10.9272
▁våt	-10.9272
▁linux	-10.9272
▁madrid	-10.9272
▁avstemningen	-10.9273
▁prior	-10.9273
▁väst	-10.9274
▁leilighet	-10.9275
▁foredrag	-10.9276
▁britis	-10.9277
▁spurt	-10.9278
▁nedtegne	-10.9281
▁franz	-10.9288
▁ektemann	-10.9302
▁variasjon	-10.9312
▁ideal	-10.932
▁histori	-10.9352
▁studert	-10.9373
▁formue	-10.9419
▁ideologi	-10.943
skatt	-10.9485
medisin	-10.9499
kontrakt	-10.95
oppgave	-10.9506
mynt	-10.9527
direktoratet	-10.9627
▁beliggenhet	-10.9627
▁columbia	-10.9627
▁forøvrig	-10.9627
▁frankfurt	-10.9627
▁intellektuell	-10.9627
▁jomfru	-10.9627
▁kvartfinalen	-10.9627
▁mangfold	-10.9627
▁massachusetts	-10.9627
▁mccartney	-10.9627
▁millimeter	-10.9627
▁oksygen	-10.9627
▁pronotum	-10.9627
▁psykisk	-10.9627
▁selvbiografi	-10.9627
▁keyboard	-10.9627
▁xiàn	-10.9627
▁1883	-10.9627
▁hospital	-10.9627
▁misjonær	-10.9627
▁turbiner	-10.9627
▁vurdere	-10.9627
strategi	-10.9627
▁eidsvoll	-10.9627
▁nøkkel	-10.9627
▁dagbladet	-10.9627
▁forventet	-10.9627
▁contest	-10.9628
▁fiolin	-10.9628
▁verdensarv	-10.9628
▁haakon	-10.9628
▁stortingsvalge	-10.9628
▁systematisk	-10.9628
statistikk	-10.9628
▁bolivia	-10.9628
▁detroit	-10.9628
materiell	-10.9629
▁squa	-10.9629
▁arbeidsgiver	-10.963
▁regent	-10.963
▁flytende	-10.9631
terapi	-10.9631
▁virkeligheten	-10.9631
▁finansminister	-10.9631
▁relasjon	-10.9632
terminal	-10.9632
▁pierre	-10.9633
▁tommy	-10.9634
▁grep	-10.9635
▁glede	-10.9638
▁galleri	-10.964
▁holdning	-10.9641
▁bønn	-10.9644
▁sjanse	-10.9649
▁femteplass	-10.9653
▁hylle	-10.968
tetthet	-10.9693
inndelingen	-10.971
oksid	-10.981
▁treffe	-10.9825
▁minutt	-10.9861
kvalitet	-10.987
poeng	-10.9877
hvit	-10.9883
utgave	-10.9887
rettslig	-10.9911
dwin	-10.9986
▁erkebispedømme	-10.9998
▁filippinene	-10.9998
▁identifisert	-10.9998
▁katastrofe	-10.9998
▁perspektiv	-10.9998
▁tippeligaen	-10.9998
▁væpne	-10.9998
▁inskripsjon	-10.9998
▁kommandant	-10.9998
▁nürnberg	-10.9998
▁ekspansjon	-10.9998
▁ferdinand	-10.9998
▁oxford	-10.9998
▁hyppig	-10.9998
▁stimul	-10.9998
▁hertugdømmet	-10.9998
▁ovenfor	-10.9998
▁kortvarig	-10.9998
▁arsenal	-10.9998
▁kommentar	-10.9998
▁fødselsår	-10.9998
▁alaska	-10.9998
▁uenighet	-10.9998
▁hovedpersonen	-10.9999
▁larvik	-10.9999
▁massiv	-10.9999
▁mineral	-10.9999
▁batteri	-10.9999
▁tribun	-10.9999
▁sukker	-10.9999
▁korpset	-11
▁planlegging	-11
▁undersøkt	-11.0001
▁disney	-11.0001
▁persia	-11.0001
▁year	-11.0001
▁antonio	-11.0002
▁stemte	-11.0003
▁cruise	-11.0003
▁beretning	-11.0004
syklus	-11.0024
tveit	-11.0026
amerikanske	-11.0061
▁bøye	-11.0103
▁bekrefte	-11.025
betegnelse	-11.0254
historiker	-11.0254
divisjon	-11.0255
sykdom	-11.0256
sentral	-11.0256
▁alexandria	-11.0382
▁ambassade	-11.0382
▁bachelor	-11.0382
▁budapest	-11.0382
▁forfremmet	-11.0382
▁kontinuerlig	-11.0382
▁omdøpt	-11.0382
▁pilegrim	-11.0382
▁skandinavisk	-11.0382
▁adskilt	-11.0382
▁akseptere	-11.0382
▁bekjempe	-11.0382
▁brønn	-11.0382
▁engasjement	-11.0382
▁fundament	-11.0382
▁konstruert	-11.0382
▁prestegjeld	-11.0382
▁ferskvann	-11.0382
▁forkropp	-11.0382
▁jesuitt	-11.0382
▁apollo	-11.0382
bjørg	-11.0382
▁nobelpris	-11.0382
▁eksistens	-11.0382
▁ytterkant	-11.0382
▁bronsealder	-11.0382
▁charlotte	-11.0382
▁heavy	-11.0382
▁aktuell	-11.0382
▁grün	-11.0382
▁kollega	-11.0382
▁domstolen	-11.0382
bransjen	-11.0382
▁trussel	-11.0382
▁dåp	-11.0383
▁lennon	-11.0383
▁regulere	-11.0383
borough	-11.0383
▁kjernekraftverk	-11.0383
▁germansk	-11.0383
▁samsvar	-11.0383
▁axel	-11.0383
▁harrison	-11.0383
▁baseball	-11.0383
▁margret	-11.0384
▁søsken	-11.0384
worth	-11.0384
katalog	-11.0384
▁oversetter	-11.0385
▁bensin	-11.0385
▁kronologisk	-11.0385
▁kommisjonen	-11.0386
▁legenden	-11.0386
▁isolert	-11.039
▁koreansk	-11.0396
▁bedriften	-11.0399
▁faktu	-11.0439
▁telegraf	-11.0443
▁avskjed	-11.0443
▁innerst	-11.0459
▁parallel	-11.0515
radio	-11.0523
fabrik	-11.0548
president	-11.0653
begrep	-11.0654
kjøl	-11.0722
▁fraksjon	-11.074
▁harmoni	-11.0753
▁alfabetet	-11.0782
▁anatolia	-11.0782
▁assosiert	-11.0782
▁atlanterhavet	-11.0782
▁etterspørsel	-11.0782
▁hongkong	-11.0782
▁illinois	-11.0782
▁jordskjelv	-11.0782
▁konsentrert	-11.0782
▁legendarisk	-11.0782
▁leipzig	-11.0782
▁libanon	-11.0782
▁matematiker	-11.0782
▁patrulje	-11.0782
▁singapore	-11.0782
▁skandinavia	-11.0782
▁tilnærming	-11.0782
▁virginia	-11.0782
▁begivenhet	-11.0782
▁jersey	-11.0782
▁kambodsja	-11.0782
▁kringkasting	-11.0782
▁musikkvideo	-11.0782
▁koalisjon	-11.0782
▁utkjempe	-11.0782
▁opprettholde	-11.0782
▁sympati	-11.0782
▁kjæreste	-11.0782
▁afghansk	-11.0782
▁patrick	-11.0782
▁rosenborg	-11.0782
▁distansen	-11.0782
▁minnesmerke	-11.0782
▁benedikt	-11.0782
▁kvadrat	-11.0782
▁stanley	-11.0782
▁trondhjem	-11.0783
▁liknende	-11.0783
▁finansiell	-11.0783
▁oppløsning	-11.0783
▁nigeria	-11.0783
▁naturreservat	-11.0783
▁indikere	-11.0784
▁oppfordre	-11.0784
▁utfordre	-11.0784
▁power	-11.0785
▁misjons	-11.0785
▁snorre	-11.0786
▁meyer	-11.0786
▁pioner	-11.0787
▁western	-11.0787
ordnede	-11.0787
▁point	-11.0788
▁nsb	-11.079
▁betalt	-11.0791
hausen	-11.0792
▁genetisk	-11.0799
snegl	-11.0853
▁storkors	-11.0899
premie	-11.0967
fellesskap	-11.1027
studio	-11.1071
samtale	-11.1141
vennlig	-11.1196
distribusjon	-11.1199
instruktør	-11.1199
▁allikevel	-11.1199
▁generalmajor	-11.1199
▁palestinsk	-11.1199
▁philadelphia	-11.1199
▁plyndret	-11.1199
▁potensial	-11.1199
▁reservoar	-11.1199
▁baptist	-11.1199
▁benjamin	-11.1199
▁jacque	-11.1199
▁kongsvinger	-11.1199
▁manusforfatter	-11.1199
▁foreløpig	-11.1199
▁isabella	-11.1199
▁nidaros	-11.1199
▁overbevist	-11.1199
▁sparebank	-11.1199
▁vannpolo	-11.1199
▁korrekt	-11.1199
▁ulovlig	-11.1199
▁bøndene	-11.1199
▁konklave	-11.1199
▁skjebne	-11.1199
▁sjokk	-11.1199
▁vincen	-11.12
diagnose	-11.12
nsentrasjonsleir	-11.1201
▁bebyggelsen	-11.1201
▁sannhet	-11.1203
▁kanadisk	-11.1204
plantasje	-11.1207
▁circ	-11.1213
▁befeste	-11.1216
schaft	-11.123
hytta	-11.1238
▁vassdrag	-11.1257
knutepunkt	-11.1282
▁dobbel	-11.1366
gjøring	-11.149
blomst	-11.1505
blanding	-11.1507
▁forstyrre	-11.1597
▁aftenposten	-11.1634
▁anbefalt	-11.1634
▁babylon	-11.1634
▁basketball	-11.1634
▁bysantinsk	-11.1634
▁entreprenør	-11.1634
▁fremtredende	-11.1634
▁kapittel	-11.1634
▁kennedy	-11.1634
▁metamorfose	-11.1634
▁psykiatri	-11.1634
▁sjælland	-11.1634
▁stewart	-11.1634
▁uteksamin	-11.1634
▁wright	-11.1634
▁fjorten	-11.1634
▁forutsetning	-11.1634
▁publikasjon	-11.1634
▁uttrykt	-11.1634
eksplosjon	-11.1634
▁cappelen	-11.1634
▁forveksle	-11.1634
▁luftforsvaret	-11.1634
▁matematisk	-11.1634
▁pattedyr	-11.1634
▁forberedt	-11.1634
▁hjort	-11.1634
▁stephen	-11.1634
▁utdødd	-11.1634
▁bystatus	-11.1634
▁skøyteløper	-11.1634
skribent	-11.1634
▁tilnærme	-11.1634
▁ritual	-11.1634
▁deutsche	-11.1634
▁begravet	-11.1634
▁relatert	-11.1634
▁kongressen	-11.1634
▁rekkevidde	-11.1634
▁lewis	-11.1634
▁deltagelse	-11.1634
blokade	-11.1635
▁nkp	-11.1635
▁forfatning	-11.1635
▁fragment	-11.1635
▁tokyo	-11.1635
▁referert	-11.1636
▁presentere	-11.1636
▁residens	-11.1636
mouth	-11.1636
▁keltisk	-11.1642
▁advent	-11.1642
▁smitte	-11.1643
▁kaffe	-11.1643
▁levning	-11.1646
asiatisk	-11.1656
▁ekstern	-11.1659
hvelv	-11.1666
▁ivareta	-11.1761
forandring	-11.1839
▁olympi	-11.1932
▁insekt	-11.1951
litteratur	-11.1961
fløy	-11.1962
▁kjøkken	-11.2088
▁prefekt	-11.2088
▁alminnelig	-11.2088
▁britannia	-11.2088
▁forvandling	-11.2088
▁individuelt	-11.2088
▁indonesia	-11.2088
▁interessant	-11.2088
▁originaltittel	-11.2088
▁potensiel	-11.2088
▁propaganda	-11.2088
▁puppestadi	-11.2088
▁sogneprest	-11.2088
▁varaordfører	-11.2088
▁westminster	-11.2088
▁leverandør	-11.2088
▁synonym	-11.2088
▁bombard	-11.2088
▁prefekturet	-11.2088
▁kollaps	-11.2088
▁larvestadie	-11.2088
koordinat	-11.2088
▁haugesund	-11.2088
▁vinterleker	-11.2088
▁napoli	-11.2088
▁rockeband	-11.2088
▁langvarig	-11.2088
▁atlanta	-11.2088
▁claus	-11.2089
▁fascist	-11.2089
▁normannisk	-11.2089
▁fantasi	-11.2089
▁sibir	-11.2089
▁talsmann	-11.209
▁oppsetning	-11.209
▁efter	-11.209
▁psykologisk	-11.2091
▁knust	-11.2091
trilogi	-11.2094
▁forfølgelse	-11.2096
▁skuld	-11.2096
▁hawk	-11.2097
▁blank	-11.2097
▁manuel	-11.2114
▁økonom	-11.2119
basseng	-11.2183
gruppa	-11.2356
kommando	-11.2436
advokat	-11.2436
redaktør	-11.2437
▁doktor	-11.2564
▁absolutt	-11.2564
▁distribuert	-11.2564
▁fortjenstorden	-11.2564
▁guddommelig	-11.2564
▁hypotese	-11.2564
▁infrastruktur	-11.2564
▁innsbruck	-11.2564
▁intelligen	-11.2564
▁landhockey	-11.2564
▁luxembourg	-11.2564
▁normandie	-11.2564
▁stridsvogner	-11.2564
▁tsjekkisk	-11.2564
▁vålerenga	-11.2564
▁wikipedia	-11.2564
▁meteorologi	-11.2564
▁minnesota	-11.2564
▁registrering	-11.2564
▁warszawa	-11.2564
▁fysiker	-11.2564
▁kaukas	-11.2564
▁jupiter	-11.2564
▁svekket	-11.2564
▁interiør	-11.2564
▁etiopisk	-11.2564
▁innehaver	-11.2564
▁jamaica	-11.2564
▁utstrakt	-11.2564
▁wallace	-11.2564
▁anatomi	-11.2564
▁unesco	-11.2564
▁rugby	-11.2564
▁nazistene	-11.2565
▁chelsea	-11.2565
▁husholdning	-11.2565
▁petersburg	-11.2565
▁stefan	-11.2565
▁gabriel	-11.2565
▁wagner	-11.2565
▁oppsikt	-11.2565
konvensjonen	-11.2565
▁central	-11.2565
forræder	-11.2565
▁lagtinget	-11.2565
kommentator	-11.2565
▁kelly	-11.2566
▁libya	-11.2566
▁protein	-11.2566
▁betydningsfull	-11.2566
▁betjene	-11.2566
▁temple	-11.2567
▁abbed	-11.2568
installasjon	-11.257
flytting	-11.2619
kirch	-11.2621
▁balanse	-11.2634
representant	-11.2917
filosofi	-11.2937
provins	-11.2937
grunnsstasjon	-11.2942
▁bearbeide	-11.2967
▁aleksandr	-11.3064
▁anthony	-11.3064
▁business	-11.3064
▁championship	-11.3064
▁corporation	-11.3064
▁evolusjon	-11.3064
▁guangdong	-11.3064
▁helikopter	-11.3064
▁konstantinopel	-11.3064
▁korrupsjon	-11.3064
▁makedonia	-11.3064
▁mussolini	-11.3064
▁tsjekkia	-11.3064
▁uppsala	-11.3064
▁vladimir	-11.3064
▁wergeland	-11.3064
9	-11.6467
