<unk>	0
<s>	0
</s>	0
.	-3.27703
▁i	-3.52154
s	-3.68357
e	-3.69285
▁og	-3.85299
t	-4.20276
▁	-4.23426
er	-4.24408
en	-4.26637
▁av	-4.31661
▁en	-4.50832
▁som	-4.52134
▁er	-4.58078
▁til	-4.64104
r	-4.69437
▁for	-4.71606
▁på	-4.76861
▁med	-4.94455
▁den	-4.95394
▁ble	-4.96178
n	-4.9962
et	-5.02205
▁det	-5.03627
▁var	-5.09225
▁de	-5.20104
▁han	-5.30702
▁å	-5.33401
▁fra	-5.34368
▁et	-5.48216
▁har	-5.55301
ene	-5.56561
a	-5.56824
▁at	-5.7231
ne	-5.83866
i	-5.88563
▁ved	-5.97288
▁om	-6.02098
▁etter	-6.02136
k	-6.03707
d	-6.03995
y	-6.04697
▁også	-6.06644
de	-6.07919
▁men	-6.15574
▁ut	-6.16534
o	-6.19269
▁under	-6.28971
▁seg	-6.29479
te	-6.30311
g	-6.34807
▁da	-6.35706
l	-6.35738
▁hadde	-6.37212
▁over	-6.38287
▁to	-6.40672
▁opp	-6.41379
▁ikke	-6.42911
▁eller	-6.43813
m	-6.46857
▁kan	-6.48049
▁inn	-6.54873
f	-6.55353
re	-6.60021
▁andre	-6.61376
▁mot	-6.66868
v	-6.67375
p	-6.68727
▁sin	-6.69277
▁hun	-6.71648
b	-6.72259
▁be	-6.72822
c	-6.72898
▁første	-6.73113
▁dette	-6.76544
u	-6.76801
▁18	-6.78597
es	-6.78712
ing	-6.80078
h	-6.81247
in	-6.82402
▁mellom	-6.84195
▁1	-6.84391
▁s	-6.84697
▁født	-6.8494
▁ha	-6.85403
us	-6.86157
▁år	-6.88223
▁hans	-6.88762
▁a	-6.89237
al	-6.90091
le	-6.91275
▁tre	-6.94493
▁fikk	-6.95627
▁f	-6.97403
an	-6.98987
na	-7.02758
▁man	-7.03376
sk	-7.05029
ende	-7.05755
▁blant	-7.06652
ter	-7.0671
▁flere	-7.07024
▁denne	-7.0795
▁the	-7.08229
▁nord	-7.08384
▁hvor	-7.08528
▁kom	-7.10369
ia	-7.11266
▁c	-7.13247
▁der	-7.1373
is	-7.14025
▁sammen	-7.15502
▁alle	-7.16307
▁b	-7.17606
▁re	-7.18822
▁ligger	-7.19243
▁2	-7.19365
la	-7.19778
ar	-7.1986
nde	-7.20416
w	-7.21755
ri	-7.22093
on	-7.23143
▁u	-7.23443
▁før	-7.23654
sen	-7.24496
▁ca	-7.26275
z	-7.27222
▁mer	-7.27284
▁la	-7.27944
j	-7.2818
▁så	-7.28871
▁død	-7.28898
▁del	-7.28995
▁17	-7.29486
▁mange	-7.2952
ry	-7.31306
▁se	-7.31322
ere	-7.31891
land	-7.3239
▁tallet	-7.33182
▁stor	-7.34757
▁k	-7.34962
be	-7.35302
▁3	-7.35527
▁gjennom	-7.35647
um	-7.35684
ch	-7.35954
der	-7.36056
▁m	-7.36216
or	-7.37453
▁senere	-7.37505
ver	-7.37854
lig	-7.38027
ens	-7.38467
▁her	-7.38923
▁disse	-7.39077
▁siden	-7.39399
▁norsk	-7.39587
▁blir	-7.39609
▁tidligere	-7.40186
▁al	-7.40343
el	-7.40615
▁kr	-7.41052
▁annet	-7.41295
x	-7.41625
▁norge	-7.41797
▁sør	-7.4241
▁ga	-7.4267
iske	-7.43016
▁vi	-7.43038
▁d	-7.43767
li	-7.43789
il	-7.43878
▁kommune	-7.44792
▁byen	-7.45116
ur	-7.45389
▁sitt	-7.4562
vis	-7.46387
▁ny	-7.46484
▁være	-7.46774
▁selv	-7.46902
as	-7.47823
ske	-7.47922
▁noen	-7.48246
ta	-7.48332
▁ro	-7.48343
kk	-7.48383
▁4	-7.49052
▁5	-7.50021
ma	-7.50431
ut	-7.508
ning	-7.51546
▁samme	-7.51841
ck	-7.52667
ke	-7.52679
ng	-7.5374
isk	-7.54421
▁16	-7.54647
▁kjent	-7.54957
▁an	-7.55531
øy	-7.55783
▁blitt	-7.55909
▁of	-7.56453
▁store	-7.56841
▁p	-7.5692
▁vært	-7.56957
da	-7.5736
▁bo	-7.5739
id	-7.57439
▁sa	-7.57518
ste	-7.57609
ga	-7.5766
ner	-7.57895
▁15	-7.58974
▁land	-7.58976
▁ned	-7.59084
▁rundt	-7.59278
▁bå	-7.59357
å	-7.59623
den	-7.60859
é	-7.6418
bo	-7.64461
for	-7.64463
▁dag	-7.64483
▁enn	-7.65197
▁ol	-7.65908
di	-7.66049
▁10	-7.6632
▁sine	-7.67081
▁frem	-7.67472
▁noe	-7.68434
ra	-7.68434
lo	-7.68466
▁grunn	-7.68575
▁kunne	-7.68658
kt	-7.68847
▁tid	-7.68856
▁g	-7.69113
nes	-7.69132
▁mens	-7.70125
▁vest	-7.71557
▁vil	-7.71679
▁le	-7.72068
ker	-7.72718
▁vant	-7.7318
▁7	-7.7328
ig	-7.73344
lige	-7.73887
▁mest	-7.74003
son	-7.74116
si	-7.74195
▁h	-7.74386
▁li	-7.7461
▁o	-7.74677
▁ba	-7.74737
ler	-7.74739
▁ofte	-7.75013
ff	-7.75292
stad	-7.75423
ro	-7.75995
me	-7.76497
▁by	-7.76529
▁gikk	-7.76691
gen	-7.76744
het	-7.76822
to	-7.769
ve	-7.76977
▁ra	-7.77346
at	-7.77491
▁st	-7.77692
▁6	-7.78205
▁km	-7.7864
skap	-7.79115
▁hoved	-7.79372
▁navn	-7.79375
▁ta	-7.79381
ge	-7.79524
▁norske	-7.80127
▁skal	-7.80255
▁øst	-7.80608
▁navnet	-7.80839
dal	-7.80857
▁e	-7.80867
tter	-7.80992
ad	-7.80993
▁sp	-7.81042
▁tok	-7.81461
ul	-7.82099
▁lag	-7.82126
it	-7.82291
sa	-7.82297
▁skulle	-7.82594
ør	-7.82766
ton	-7.83063
▁fram	-7.83272
▁gang	-7.83573
▁nye	-7.83616
▁finnes	-7.84267
ist	-7.8444
ba	-7.8464
▁8	-7.84701
ka	-7.85382
▁si	-7.85851
pp	-7.86001
os	-7.8607
▁tilbake	-7.86183
▁ham	-7.86202
vi	-7.86268
erte	-7.86445
▁bare	-7.86812
▁fire	-7.86817
▁hele	-7.86954
▁mai	-7.87136
ti	-7.87259
▁ni	-7.87314
▁he	-7.87445
▁ti	-7.87585
mo	-7.88393
▁dem	-7.88688
▁usa	-7.88968
▁mål	-7.89319
ha	-7.89419
▁na	-7.89458
▁mars	-7.89823
▁største	-7.89907
▁slik	-7.90087
▁bli	-7.90098
ven	-7.90109
▁januar	-7.90235
ns	-7.90672
▁kon	-7.90679
▁14	-7.90697
▁kalt	-7.91375
▁meter	-7.92039
mi	-7.92045
▁nå	-7.92064
▁oslo	-7.92256
▁12	-7.92675
man	-7.92684
bi	-7.92834
erne	-7.93092
tt	-7.93327
mer	-7.93708
th	-7.93858
▁rett	-7.93937
mp	-7.94281
berg	-7.94336
▁n	-7.94871
▁august	-7.94977
▁per	-7.95175
un	-7.95495
▁v	-7.95636
ce	-7.96086
mann	-7.96408
gi	-7.96594
▁t	-7.96744
▁co	-7.97083
▁9	-7.97319
▁l	-7.97388
▁11	-7.97399
ø	-7.97404
ær	-7.97889
▁går	-7.97946
▁juli	-7.98085
by	-7.98279
▁as	-7.98791
▁samt	-7.98907
▁få	-7.99037
ja	-7.99097
▁000	-7.99977
▁siste	-7.99983
rett	-8.00264
var	-8.00702
▁far	-8.00765
ger	-8.00852
▁20	-8.00937
opp	-8.01246
av	-8.01445
▁lo	-8.01656
ik	-8.0186
ingen	-8.01965
▁juni	-8.02497
▁j	-8.02542
per	-8.02902
▁ma	-8.03093
▁du	-8.03342
▁di	-8.03519
▁no	-8.03732
ell	-8.03815
ster	-8.0384
▁13	-8.04073
bu	-8.04225
▁kirke	-8.04345
▁når	-8.04356
▁po	-8.04423
▁lang	-8.05106
ol	-8.05556
om	-8.05584
else	-8.0574
ang	-8.05745
go	-8.05792
ring	-8.05923
va	-8.06258
po	-8.06542
nd	-8.06935
▁bak	-8.06936
▁ei	-8.07078
ho	-8.07193
pe	-8.07237
▁gi	-8.07303
▁bu	-8.07769
▁tillegg	-8.07938
▁rekke	-8.07971
▁bi	-8.08152
ic	-8.08168
▁fly	-8.08297
▁videre	-8.0834
▁fri	-8.08655
æ	-8.08724
▁engelsk	-8.08919
▁oktober	-8.09114
▁deres	-8.09277
▁pa	-8.0939
ed	-8.09616
▁området	-8.09843
do	-8.10517
nt	-8.10592
▁deltok	-8.10777
▁mar	-8.11206
je	-8.11533
▁ar	-8.1154
▁mindre	-8.11547
asjon	-8.11764
▁0	-8.12048
▁pi	-8.1215
▁hos	-8.12689
▁fa	-8.12782
co	-8.12831
▁ri	-8.12966
▁te	-8.1319
▁skole	-8.1324
▁utgitt	-8.13263
▁mo	-8.1336
▁2008	-8.13405
▁april	-8.1361
1	-8.1375
ment	-8.1412
▁laget	-8.14284
▁mor	-8.14665
sted	-8.14865
▁in	-8.15378
▁igjen	-8.15514
▁2010	-8.15946
ll	-8.16153
sh	-8.16385
▁pro	-8.16416
vik	-8.16437
▁først	-8.16522
tor	-8.16688
gang	-8.17026
od	-8.17081
▁landet	-8.17205
▁fem	-8.17212
▁2006	-8.17449
ard	-8.1752
▁spilte	-8.1762
▁september	-8.17661
midlertid	-8.17881
len	-8.17963
▁november	-8.18755
▁begynte	-8.19131
ling	-8.19311
▁kun	-8.19375
▁desember	-8.19861
▁kina	-8.20003
▁2007	-8.20093
▁w	-8.2011
▁alt	-8.20202
▁bar	-8.20502
▁egen	-8.21007
▁uten	-8.21135
▁årene	-8.21156
ak	-8.21282
▁bruk	-8.22471
▁y	-8.22614
▁new	-8.22765
▁hu	-8.23373
▁ko	-8.23415
▁plass	-8.23513
ä	-8.23649
ie	-8.23903
sta	-8.23993
▁film	-8.24078
ion	-8.24162
▁februar	-8.2418
tur	-8.24607
▁2009	-8.24652
ni	-8.24925
▁and	-8.24967
ko	-8.25236
▁leder	-8.2528
op	-8.25329
au	-8.25608
▁barn	-8.25673
▁gamle	-8.26056
▁vann	-8.26059
▁europa	-8.2664
▁består	-8.26781
▁sch	-8.26869
▁vanlig	-8.27379
▁pe	-8.27475
▁ville	-8.27726
▁like	-8.27734
ans	-8.27785
▁do	-8.28062
lag	-8.28227
▁spiller	-8.28672
ca	-8.28676
▁brukt	-8.28737
nske	-8.28804
dd	-8.28954
▁30	-8.29013
ok	-8.29022
ningen	-8.2963
▁tv	-8.29797
▁sønn	-8.2984
▁folke	-8.29966
▁året	-8.30305
over	-8.30372
▁nær	-8.30539
▁medlem	-8.30618
▁gift	-8.30819
▁ulike	-8.3103
▁lys	-8.31204
á	-8.31349
▁el	-8.31436
ö	-8.31438
▁lu	-8.31532
▁su	-8.31646
▁større	-8.31764
▁ka	-8.31767
▁tiden	-8.31817
tak	-8.31833
år	-8.31853
▁kinesisk	-8.31905
▁helt	-8.31931
men	-8.32071
▁mye	-8.32175
▁san	-8.32245
▁ju	-8.32366
gu	-8.32455
▁ver	-8.32467
sjon	-8.32494
▁or	-8.32587
▁må	-8.32671
▁døde	-8.32997
▁filmen	-8.33102
am	-8.33559
▁am	-8.33654
▁me	-8.3367
tal	-8.33806
▁musikk	-8.3409
▁derfor	-8.34107
sel	-8.34176
itet	-8.34416
▁langs	-8.34539
ering	-8.34651
ier	-8.3484
▁lå	-8.3488
▁so	-8.34989
ud	-8.3516
▁hennes	-8.35285
▁fi	-8.35578
▁ki	-8.35599
▁høy	-8.35822
00	-8.36016
dan	-8.36244
▁beste	-8.36248
▁ho	-8.36294
no	-8.36338
▁britisk	-8.36396
sp	-8.36419
▁mat	-8.36468
▁hver	-8.36485
7	-8.36529
▁brukes	-8.3656
pa	-8.36617
▁gjen	-8.3675
mm	-8.36798
▁2011	-8.37325
ble	-8.37419
▁innen	-8.37613
io	-8.37653
▁øy	-8.38458
elle	-8.38728
▁eks	-8.38825
ren	-8.39265
▁fast	-8.393
▁begge	-8.39526
▁2005	-8.39741
▁deretter	-8.39752
lin	-8.39819
▁olympisk	-8.40003
im	-8.40037
▁ingen	-8.4033
ings	-8.40333
rede	-8.40445
▁tyske	-8.40516
ant	-8.40685
tan	-8.40896
▁svær	-8.40924
tra	-8.41035
▁kunst	-8.41075
▁samtidig	-8.41114
▁særlig	-8.41114
▁kong	-8.4112
sten	-8.41246
▁hvert	-8.41317
▁lov	-8.41692
▁r	-8.41962
▁kultur	-8.41986
▁startet	-8.41988
▁gu	-8.42145
▁parti	-8.42151
ina	-8.42174
ru	-8.42287
▁bygget	-8.42421
hold	-8.42521
▁liv	-8.4278
art	-8.43184
▁bra	-8.43286
iv	-8.43337
▁skrev	-8.43497
▁ad	-8.43731
stand	-8.43748
▁all	-8.43752
▁små	-8.4379
▁2004	-8.43896
▁bandet	-8.43984
met	-8.44318
▁john	-8.44414
▁kort	-8.44454
dag	-8.44564
▁sommer	-8.44634
▁jo	-8.4466
▁tra	-8.44709
▁seks	-8.45102
▁ganger	-8.45189
▁gjorde	-8.45207
ken	-8.45484
tten	-8.46148
løp	-8.46186
pi	-8.46278
▁ak	-8.46362
ikk	-8.46459
ly	-8.4655
ber	-8.46904
▁em	-8.46929
▁form	-8.47017
▁skrevet	-8.47052
▁tro	-8.47148
▁nest	-8.47387
tre	-8.4743
min	-8.47546
▁grad	-8.4755
▁eksempel	-8.47574
ir	-8.47641
▁x	-8.47659
▁ja	-8.47722
▁tyskland	-8.48077
▁sett	-8.48108
hus	-8.48325
▁perioden	-8.48411
▁tidlig	-8.48485
▁president	-8.48519
▁ru	-8.48547
▁tor	-8.48571
▁tysk	-8.48686
▁verdens	-8.48701
▁innbyggere	-8.48815
▁sverige	-8.48815
ks	-8.48885
▁sol	-8.49027
lse	-8.49073
isme	-8.49473
▁ab	-8.49477
slag	-8.49535
del	-8.49691
▁satt	-8.49739
ow	-8.49857
▁stedet	-8.49906
▁mi	-8.50006
ium	-8.50704
▁amerikanske	-8.50781
▁lever	-8.50808
▁måtte	-8.50937
and	-8.51195
▁russisk	-8.51232
▁dermed	-8.51254
ov	-8.51496
und	-8.51609
ninger	-8.51725
▁gitt	-8.51747
▁z	-8.51781
▁fotball	-8.5184
hu	-8.5191
▁bil	-8.52195
▁etablert	-8.52446
følge	-8.52484
ft	-8.5251
lu	-8.52595
ek	-8.528
verk	-8.52837
▁kommer	-8.53298
vin	-8.53323
bar	-8.53336
▁sam	-8.53543
▁tatt	-8.53642
▁amerikansk	-8.53682
ot	-8.53731
ian	-8.53882
kel	-8.53893
▁språk	-8.54069
4	-8.54116
▁hus	-8.54291
▁wa	-8.5443
▁kjente	-8.54486
▁hi	-8.5452
▁sjø	-8.54967
▁ge	-8.55024
▁vei	-8.55068
▁forhold	-8.55325
▁hen	-8.55383
▁forskjellige	-8.55649
ag	-8.55669
▁go	-8.55708
▁nasjonal	-8.55713
▁ski	-8.55786
▁god	-8.5582
▁25	-8.55939
▁albumet	-8.56367
▁pu	-8.56397
stein	-8.56403
mb	-8.56434
3	-8.56678
2	-8.56756
▁arbeidet	-8.57098
▁serien	-8.57301
▁fjell	-8.57426
▁norges	-8.57445
▁london	-8.57503
▁sted	-8.57531
▁fleste	-8.57609
▁deler	-8.57678
tid	-8.57816
▁tri	-8.57883
siden	-8.58243
▁stat	-8.58307
▁innehold	-8.58485
▁annen	-8.5881
▁bergen	-8.58848
bb	-8.58902
▁stort	-8.59344
les	-8.59443
ü	-8.59466
▁england	-8.59811
ci	-8.60023
sse	-8.60223
ord	-8.60321
ighet	-8.60353
ny	-8.6042
▁nytt	-8.60662
▁bok	-8.60919
fa	-8.61078
▁provinsen	-8.61172
jo	-8.61185
▁gruppen	-8.61383
gg	-8.6174
sett	-8.61747
▁gir	-8.62011
▁løpet	-8.62147
▁slutten	-8.62158
yl	-8.62213
▁forfatter	-8.62259
ill	-8.62638
▁vel	-8.62657
tro	-8.6295
▁2000	-8.63215
ius	-8.63463
▁stein	-8.6363
▁2001	-8.63877
▁frankrike	-8.64208
▁millioner	-8.64419
ley	-8.64605
▁ne	-8.64612
stre	-8.64855
▁gammel	-8.64907
▁fag	-8.65066
▁2002	-8.65263
▁bru	-8.65295
hi	-8.65429
ou	-8.65551
▁slutt	-8.65578
▁con	-8.65578
kker	-8.6579
du	-8.65882
▁1980	-8.65959
▁støtte	-8.66084
landet	-8.66166
elsen	-8.6625
▁gud	-8.66269
ld	-8.66306
▁syn	-8.66315
wa	-8.66543
tok	-8.66545
▁sto	-8.66612
▁mulig	-8.66949
▁dagen	-8.66991
▁sv	-8.67089
▁hel	-8.67111
▁selskapet	-8.67224
mor	-8.67307
ong	-8.67368
▁par	-8.67995
mar	-8.68426
▁sesongen	-8.68633
til	-8.68736
kom	-8.68809
ron	-8.69126
▁klubben	-8.69399
▁antall	-8.69475
▁tredje	-8.69508
▁innenfor	-8.69618
tu	-8.69909
▁spilt	-8.69983
burg	-8.70449
▁øya	-8.70598
▁ord	-8.70605
▁produksjon	-8.7064
▁flyttet	-8.70657
▁side	-8.70737
▁val	-8.70866
▁gresk	-8.70898
ting	-8.71402
▁bort	-8.71448
▁sentral	-8.71584
▁mann	-8.71686
tiske	-8.71785
▁ur	-8.7183
▁sta	-8.7235
▁førte	-8.72393
form	-8.72403
▁langt	-8.72408
ller	-8.72841
▁22	-8.72921
▁forbindelse	-8.7293
vo	-8.72939
▁kalles	-8.73133
▁midt	-8.73215
▁car	-8.73244
vel	-8.73277
▁2003	-8.73282
▁mennesker	-8.733
lands	-8.7355
▁vise	-8.73552
▁bro	-8.73717
tiv	-8.7388
▁kommunen	-8.73926
▁omkring	-8.74033
▁ty	-8.74037
▁godt	-8.741
▁pla	-8.74139
▁lange	-8.74267
▁arbeid	-8.74304
leg	-8.74733
he	-8.74838
▁mari	-8.74874
forening	-8.74922
▁bre	-8.75023
▁gull	-8.75126
▁ser	-8.75312
▁familien	-8.75379
▁24	-8.75391
▁kirken	-8.75404
▁fransk	-8.75418
▁halv	-8.75575
ku	-8.7563
▁ch	-8.75659
styr	-8.75869
vei	-8.75895
▁my	-8.75964
▁lokal	-8.76078
▁fo	-8.7612
▁nor	-8.76167
▁sk	-8.76171
▁kar	-8.76208
▁fordi	-8.76241
▁100	-8.76512
tiden	-8.7652
▁viktig	-8.76696
▁art	-8.76698
▁fin	-8.77054
▁står	-8.77056
fe	-8.77056
kamp	-8.7726
sto	-8.77419
▁ledet	-8.77473
dalen	-8.775
em	-8.77526
▁krigen	-8.77644
▁familie	-8.77667
gjerne	-8.77748
▁tar	-8.77928
tisk	-8.78359
▁va	-8.78378
ksjon	-8.78443
▁fred	-8.78554
▁basert	-8.78723
▁gjort	-8.7884
▁23	-8.78849
▁grav	-8.78892
lot	-8.78924
▁roman	-8.7903
▁fortsatt	-8.79049
▁ben	-8.79147
▁sangen	-8.79173
elig	-8.79205
ator	-8.79344
så	-8.79423
par	-8.79438
ska	-8.79502
▁holdt	-8.79568
▁luft	-8.79569
ale	-8.79678
▁21	-8.79684
▁eneste	-8.79703
▁utviklet	-8.79825
▁19	-8.79939
▁gruppe	-8.80273
▁ke	-8.80358
che	-8.80413
▁egne	-8.80763
itt	-8.80803
kan	-8.80898
ya	-8.80975
borg	-8.81242
mon	-8.81252
▁utenfor	-8.81261
val	-8.8128
▁folk	-8.81308
▁liten	-8.81461
bre	-8.81502
inger	-8.81646
ede	-8.81755
9	-8.81788
▁verk	-8.81806
▁sand	-8.81819
▁danmark	-8.81989
ige	-8.82073
spill	-8.82198
▁fre	-8.82247
▁person	-8.82365
▁verdenskrig	-8.82447
sch	-8.82462
▁elven	-8.82613
ac	-8.82657
▁svensk	-8.82776
▁historie	-8.8296
▁mil	-8.83039
▁får	-8.83213
let	-8.83298
kul	-8.83477
▁rolle	-8.83488
dig	-8.83494
▁litt	-8.8358
menn	-8.83603
▁lav	-8.83653
▁konge	-8.83679
▁råd	-8.83822
▁slag	-8.83956
ine	-8.83976
heten	-8.83989
▁ste	-8.84041
bok	-8.84094
▁delstaten	-8.841
▁opprinnelig	-8.8411
dom	-8.84129
▁dikt	-8.84165
▁kvinne	-8.8421
lær	-8.84337
▁dr	-8.84727
▁natur	-8.84788
uk	-8.84901
▁spesielt	-8.84929
so	-8.85014
kken	-8.85062
▁fant	-8.85084
▁sosial	-8.85143
ham	-8.85178
▁je	-8.8523
▁valg	-8.85323
▁lett	-8.85352
▁1990	-8.85363
▁arbeider	-8.85617
fjord	-8.85942
▁rom	-8.86164
▁lite	-8.86186
▁vm	-8.86196
lev	-8.86237
▁delen	-8.86255
▁hav	-8.86345
▁bruker	-8.86561
▁viser	-8.86624
fø	-8.86691
▁50	-8.86708
▁datter	-8.86738
▁verden	-8.86772
▁åpnet	-8.86891
▁rø	-8.8695
▁storbritannia	-8.87085
▁moderne	-8.87114
heim	-8.8719
▁min	-8.87212
▁produsert	-8.87521
▁1999	-8.87528
▁én	-8.87554
vet	-8.87654
▁minne	-8.8791
gre	-8.88038
▁organ	-8.88052
fjorden	-8.88069
▁karl	-8.88095
▁personer	-8.88172
bruk	-8.88235
▁berg	-8.88359
а	-8.88393
plass	-8.8851
ris	-8.88529
▁funnet	-8.88598
▁paul	-8.88603
▁ren	-8.8893
est	-8.88956
råd	-8.89246
í	-8.89334
▁fl	-8.89339
nings	-8.89539
▁kal	-8.89763
▁franske	-8.89946
▁ku	-8.90005
skole	-8.90101
▁inkludert	-8.90182
ug	-8.9024
▁enkelte	-8.90338
▁stats	-8.90505
kon	-8.90601
▁gl	-8.90737
▁spille	-8.90755
▁26	-8.90761
▁ev	-8.90809
mål	-8.90817
tz	-8.91002
▁betydning	-8.91083
ica	-8.91121
▁lands	-8.91317
ding	-8.91405
▁sal	-8.91416
▁såkalt	-8.91544
▁sang	-8.9171
▁27	-8.9178
inn	-8.92055
▁prest	-8.92285
▁gav	-8.92333
▁kv	-8.92627
ran	-8.92631
▁danne	-8.92658
▁møte	-8.92778
sson	-8.92842
za	-8.92918
▁on	-8.93136
▁politiske	-8.93149
isert	-8.93151
▁gjør	-8.93441
isering	-8.93506
skje	-8.93669
yd	-8.93684
gel	-8.93697
satt	-8.93905
ip	-8.93921
lø	-8.93971
legg	-8.9404
▁internasjonale	-8.94209
ført	-8.94249
tikk	-8.9429
▁lege	-8.94419
▁full	-8.94463
▁nok	-8.94561
pro	-8.94784
6	-8.94872
log	-8.94882
mester	-8.94964
sak	-8.95033
▁pave	-8.95067
▁militær	-8.9512
▁omtrent	-8.95253
▁york	-8.95253
▁ferdig	-8.95279
hl	-8.95286
lsen	-8.95463
og	-8.95546
▁hjem	-8.95693
som	-8.95711
▁russland	-8.95728
▁italia	-8.95733
▁jeg	-8.95777
▁gul	-8.95797
øya	-8.95835
gående	-8.95861
▁bygge	-8.95956
▁plan	-8.96084
▁album	-8.96109
▁van	-8.96127
▁au	-8.96129
▁radio	-8.96204
▁tap	-8.96284
▁kvinner	-8.96311
▁fiske	-8.96385
ju	-8.96476
su	-8.96484
▁svenske	-8.96491
▁foran	-8.96551
▁jord	-8.96598
leder	-8.9668
▁menn	-8.96753
dra	-8.96791
▁paris	-8.96924
lan	-8.96958
▁opprettet	-8.96972
▁tu	-8.97051
ds	-8.97096
ologi	-8.97354
▁th	-8.97462
rak	-8.97476
▁hy	-8.97975
fra	-8.98058
▁skr	-8.98123
▁bl	-8.98126
▁cha	-8.98135
ty	-8.98138
▁1960	-8.98138
▁bygd	-8.98168
▁ras	-8.98217
▁finne	-8.98262
▁sentrum	-8.98319
▁motor	-8.98455
▁arter	-8.9847
▁versjon	-8.98478
▁italiensk	-8.98618
▁1998	-8.98624
▁aktiv	-8.98726
kor	-8.98781
▁historisk	-8.98925
laget	-8.99061
▁stil	-8.99097
ph	-8.99257
▁kor	-8.99495
▁general	-8.99597
▁betydelig	-8.99601
▁best	-8.99634
▁hol	-8.99653
spiller	-8.99666
han	-8.99667
ung	-8.99943
▁henne	-9.00057
▁turn	-9.00207
mat	-9.00311
tar	-9.00311
ret	-9.00322
▁partiet	-9.00374
▁borger	-9.00413
▁samarbeid	-9.00442
▁vist	-9.00549
▁2012	-9.00604
▁fu	-9.00624
▁farge	-9.00794
▁bri	-9.00963
if	-9.01055
▁minst	-9.01191
▁ø	-9.01206
▁universitetet	-9.01319
▁mark	-9.01375
▁via	-9.01426
▁hatt	-9.01433
▁bor	-9.01463
fall	-9.01472
asjonen	-9.01488
rø	-9.01524
film	-9.01567
dre	-9.0165
▁kamp	-9.01687
tion	-9.01825
▁jan	-9.01841
▁von	-9.0198
▁krig	-9.02089
▁pan	-9.02115
▁regnes	-9.02159
▁reise	-9.02248
▁dannet	-9.02267
▁kat	-9.02311
▁skip	-9.02357
▁delt	-9.0241
▁periode	-9.02533
▁1992	-9.02615
▁1995	-9.02615
▁rød	-9.02658
ister	-9.02659
▁slaget	-9.02668
▁viktigste	-9.02681
▁utnevnt	-9.02796
▁dis	-9.02832
▁høyre	-9.03084
и	-9.03119
▁kn	-9.03273
▁fylke	-9.03279
sund	-9.03357
elt	-9.03362
▁skolen	-9.03407
stående	-9.03508
▁serie	-9.03538
▁tur	-9.03633
▁handels	-9.03678
40	-9.03747
far	-9.03765
bil	-9.03825
▁wi	-9.03851
▁kl	-9.03922
veien	-9.03933
▁ettersom	-9.03936
▁riks	-9.03987
▁befolkningen	-9.04017
▁we	-9.04039
▁betyr	-9.04149
▁1970	-9.04154
▁ed	-9.04225
▁valgt	-9.04227
bro	-9.0433
▁kongen	-9.04401
▁hjelp	-9.04424
lis	-9.04511
▁skade	-9.0465
▁gjøre	-9.04755
▁keiser	-9.04799
kar	-9.04888
ford	-9.04907
▁sm	-9.04945
▁peter	-9.04957
dy	-9.05269
▁skog	-9.0531
rom	-9.05325
▁krigs	-9.05476
▁28	-9.05476
▁kla	-9.05585
▁kur	-9.05675
▁direkte	-9.0571
▁1997	-9.05715
tte	-9.05819
▁fått	-9.05877
▁makt	-9.06002
banen	-9.06046
▁spor	-9.06048
▁29	-9.06056
net	-9.06061
▁skuespiller	-9.06282
▁berlin	-9.06344
▁anti	-9.06388
stil	-9.06391
ringen	-9.06469
▁dom	-9.06472
føre	-9.06488
▁lagt	-9.06495
▁com	-9.06544
q	-9.06589
▁slekt	-9.06641
stu	-9.06655
▁meste	-9.06744
▁ett	-9.06793
▁vis	-9.06823
▁ry	-9.06852
iet	-9.06853
▁ag	-9.07013
▁neste	-9.07023
▁kje	-9.07077
▁sl	-9.07096
tin	-9.07183
ros	-9.07216
▁christian	-9.0723
▁afrika	-9.07269
▁col	-9.07448
▁topp	-9.07485
▁band	-9.07506
▁åtte	-9.07546
▁dager	-9.07568
▁medlemmer	-9.07611
▁liste	-9.07622
ki	-9.07747
tri	-9.07774
stilling	-9.07783
ket	-9.07783
pol	-9.07867
båt	-9.07966
▁våpen	-9.08
▁gra	-9.08022
▁følgende	-9.08062
▁vinter	-9.08074
fin	-9.08089
▁johan	-9.08125
svis	-9.08129
▁styre	-9.08131
▁divisjon	-9.08176
▁sak	-9.08197
kal	-9.08339
▁1994	-9.08377
▁venstre	-9.08381
▁veien	-9.08491
kje	-9.08573
▁31	-9.08613
▁sanger	-9.08628
▁bill	-9.08654
tel	-9.08722
dyr	-9.08777
▁gå	-9.08789
▁sc	-9.08878
▁lyd	-9.089
▁drept	-9.08911
port	-9.09074
ó	-9.09162
valg	-9.0917
▁vo	-9.09198
▁pris	-9.09234
felt	-9.09259
▁40	-9.09299
bane	-9.09374
yn	-9.0938
▁tom	-9.09442
▁mis	-9.09852
8	-9.09859
▁eget	-9.09954
get	-9.10044
lene	-9.10051
▁fortsatte	-9.10134
▁sen	-9.10169
▁mont	-9.10247
res	-9.10248
folk	-9.10255
▁bur	-9.10276
▁knytte	-9.10551
▁regjeringen	-9.10736
vær	-9.10872
▁stockholm	-9.11102
▁1996	-9.11108
▁1991	-9.11111
▁arbeids	-9.11157
▁park	-9.11163
van	-9.11205
my	-9.11242
▁besto	-9.11396
▁fall	-9.11642
▁william	-9.11657
▁grunnlagt	-9.11667
▁legge	-9.11687
▁benyttet	-9.1172
▁jernbane	-9.11787
▁pr	-9.11797
jer	-9.11823
pu	-9.11865
▁regionen	-9.11937
▁felles	-9.11961
▁kontroll	-9.12008
ich	-9.12103
▁rock	-9.12494
isere	-9.12505
▁eu	-9.12552
elser	-9.12584
▁fange	-9.12598
▁fe	-9.1263
▁universitet	-9.12653
▁tildelt	-9.12697
▁nummer	-9.12717
mot	-9.12749
30	-9.12756
forbund	-9.12766
▁tak	-9.1277
▁suksess	-9.12778
▁lille	-9.12829
▁sy	-9.12849
ismen	-9.12875
▁orden	-9.12877
heng	-9.12885
▁følge	-9.13136
▁sølv	-9.13343
▁1993	-9.13347
ab	-9.13369
▁start	-9.1341
▁politisk	-9.13424
▁post	-9.13424
▁lik	-9.13512
ino	-9.13618
▁motstand	-9.13864
▁begynnelsen	-9.13915
▁seil	-9.13937
fi	-9.1395
▁henhold	-9.13952
▁nett	-9.14217
▁dro	-9.14265
fo	-9.14316
▁linje	-9.14428
▁hal	-9.14438
huset	-9.14464
skip	-9.14475
▁2013	-9.14482
▁omfatter	-9.14484
tall	-9.14485
▁hovedsakelig	-9.14488
▁1988	-9.14492
▁industri	-9.14624
▁stasjon	-9.14951
▁representert	-9.15057
▁200	-9.15064
▁finn	-9.15082
▁tittelen	-9.15087
ze	-9.15107
▁blad	-9.15115
ach	-9.15134
▁vol	-9.15252
▁tilhører	-9.15317
▁forsøk	-9.15352
▁india	-9.15395
▁gate	-9.1554
fly	-9.15579
området	-9.15622
▁kilometer	-9.15635
▁studert	-9.15642
▁eldre	-9.15664
▁slo	-9.15696
lle	-9.15699
departementet	-9.15831
▁thomas	-9.16216
▁dårlig	-9.16217
50	-9.16233
▁hjemme	-9.1624
mmer	-9.1632
▁tjeneste	-9.16351
▁dansk	-9.16375
▁1800	-9.16469
▁sh	-9.16493
▁bror	-9.16536
▁konsert	-9.16556
▁høyde	-9.1659
▁angrep	-9.16609
▁brun	-9.16644
▁enkelt	-9.16664
▁bal	-9.167
▁60	-9.16759
▁1984	-9.16808
▁1989	-9.1681
▁staten	-9.16853
ari	-9.1691
▁likevel	-9.17058
vent	-9.17114
▁danske	-9.17141
krigen	-9.17153
▁ber	-9.1727
liggende	-9.17393
▁samle	-9.17601
▁spe	-9.1763
▁politiker	-9.17668
mel	-9.17707
ien	-9.17748
▁stjerne	-9.1793
▁ønsket	-9.17947
▁bestemt	-9.18001
bygg	-9.18011
▁indre	-9.18066
▁hva	-9.18082
▁vekt	-9.18141
▁op	-9.18186
teori	-9.18248
syn	-9.18252
▁tegn	-9.18286
ins	-9.18346
▁tr	-9.18406
▁japan	-9.18425
▁offentlig	-9.1845
vann	-9.18512
▁teater	-9.18556
▁can	-9.18682
ski	-9.18705
▁inntil	-9.18844
▁menneske	-9.18865
idae	-9.19071
▁sig	-9.19115
▁system	-9.19128
▁kraft	-9.19513
navn	-9.1964
▁regi	-9.19647
asjoner	-9.19683
▁mag	-9.19758
▁hverandre	-9.19778
▁mon	-9.19877
▁opprør	-9.19983
▁tru	-9.20083
▁sø	-9.2026
▁hånd	-9.20345
▁høre	-9.20467
ving	-9.20549
▁områder	-9.20552
ære	-9.20559
gge	-9.20609
▁island	-9.20873
kle	-9.20901
▁cor	-9.20909
▁sir	-9.20979
▁eldste	-9.20994
▁sørøst	-9.20995
▁university	-9.20996
▁robert	-9.21049
lys	-9.2108
▁ex	-9.21088
▁bank	-9.21094
▁resultat	-9.21119
10	-9.21138
▁stadig	-9.21142
▁mu	-9.21281
hr	-9.21549
ā	-9.21607
▁trondheim	-9.21607
▁høyeste	-9.21612
▁1950	-9.21623
ika	-9.21637
▁helse	-9.21725
▁professor	-9.21727
bygging	-9.21764
gjør	-9.21803
▁carl	-9.21834
▁rev	-9.21943
▁renn	-9.21981
pen	-9.2205
▁havn	-9.22056
olog	-9.22095
▁felt	-9.22126
▁les	-9.22193
▁pre	-9.22261
gruppen	-9.22266
▁kraftig	-9.22436
▁red	-9.22451
deling	-9.22493
▁mod	-9.22584
▁roma	-9.22607
bel	-9.22673
▁mel	-9.22742
▁stiftet	-9.22849
▁elva	-9.22915
▁don	-9.22976
plan	-9.22994
▁bedre	-9.22997
▁para	-9.23044
▁hvit	-9.23055
tes	-9.23057
▁arm	-9.23211
gh	-9.23309
▁århundre	-9.23471
▁gro	-9.23512
▁os	-9.23587
▁vin	-9.23629
▁års	-9.23747
▁båt	-9.23789
istiske	-9.23853
▁ly	-9.23859
▁regn	-9.23985
▁hard	-9.24067
▁energi	-9.24173
▁hvis	-9.24377
▁seier	-9.24679
▁dra	-9.24774
vern	-9.25005
▁opera	-9.25076
▁blå	-9.25216
skog	-9.2524
we	-9.25258
▁voksne	-9.25369
▁statsminister	-9.25382
▁måte	-9.25419
▁utvikling	-9.25419
evne	-9.25547
▁natt	-9.25555
▁mus	-9.25611
sjøen	-9.25629
område	-9.25739
pr	-9.2577
▁flo	-9.25839
zi	-9.25919
▁fjerde	-9.26011
▁gode	-9.26012
fri	-9.26019
▁gen	-9.26038
▁west	-9.26059
▁lokale	-9.26062
punkt	-9.26066
▁slått	-9.26105
ria	-9.26188
▁180	-9.26241
ial	-9.26479
р	-9.26655
▁kroppen	-9.26659
gan	-9.26707
▁barne	-9.26923
▁katolske	-9.27048
▁vår	-9.27068
▁steder	-9.27206
stilt	-9.27279
▁dessuten	-9.27305
kri	-9.27327
▁feil	-9.2739
▁dyr	-9.27407
▁ska	-9.2742
ana	-9.27453
▁endt	-9.27658
ap	-9.27743
▁meget	-9.27761
▁pra	-9.27775
▁biskop	-9.27961
▁europeisk	-9.27963
▁informasjon	-9.27972
ons	-9.28046
▁dy	-9.28067
▁sommeren	-9.28071
▁stra	-9.28111
▁tross	-9.28112
▁resten	-9.28165
▁litteratur	-9.28276
▁lars	-9.28437
året	-9.28448
▁mm	-9.28464
grad	-9.28554
▁styrke	-9.28591
▁spesial	-9.28617
▁standard	-9.28634
▁henrik	-9.28637
▁kjøpt	-9.28654
lik	-9.28672
abel	-9.28884
▁fot	-9.28946
aksjon	-9.29034
øl	-9.2922
ekte	-9.29261
▁syd	-9.2927
rat	-9.29293
senter	-9.29325
▁sendt	-9.29344
▁venn	-9.29358
▁svarte	-9.29465
▁mester	-9.29477
▁utgjør	-9.29508
▁funksjon	-9.29582
ald	-9.29651
▁hall	-9.29656
▁mac	-9.29676
up	-9.29684
▁strøm	-9.2983
▁miljø	-9.2989
red	-9.29983
▁pl	-9.30009
chi	-9.30015
gård	-9.30059
▁olje	-9.302
▁skrive	-9.30204
ater	-9.30364
▁slekten	-9.30482
bygd	-9.30489
stø	-9.30577
▁hø	-9.30584
▁vanskelig	-9.30618
blad	-9.30633
▁sogn	-9.3076
xi	-9.30841
lagt	-9.3086
rus	-9.30911
▁aldri	-9.31005
▁sterkt	-9.31043
fisk	-9.31069
system	-9.31213
hvert	-9.31238
▁københavn	-9.31292
▁prosent	-9.31297
▁1982	-9.31302
▁1978	-9.31304
▁1964	-9.31304
mannen	-9.31305
▁cup	-9.31517
▁skjer	-9.31543
don	-9.31615
loven	-9.31628
▁overtok	-9.31631
▁herre	-9.31726
▁verdi	-9.31864
sky	-9.31875
inne	-9.31904
det	-9.31955
▁sannsynlig	-9.31972
▁1945	-9.3198
▁1986	-9.31985
▁kron	-9.3202
▁martin	-9.32047
bert	-9.32094
▁sende	-9.32103
fer	-9.3215
▁klar	-9.32166
områder	-9.32199
stra	-9.32267
minister	-9.32408
ini	-9.3241
ømme	-9.32554
▁ordet	-9.32647
▁sovjetunionen	-9.32657
▁nordøst	-9.32659
▁brasil	-9.32664
▁1987	-9.32664
▁1985	-9.32666
▁1940	-9.32677
kant	-9.32714
gitt	-9.32749
▁lin	-9.32754
▁slike	-9.32787
▁skipet	-9.32818
▁mos	-9.32854
▁fjorden	-9.32857
tør	-9.32863
▁erik	-9.32873
▁skapt	-9.3303
nz	-9.33211
▁q	-9.3326
о	-9.33344
▁1920	-9.33362
▁fylkesvei	-9.33372
▁bjørn	-9.33509
20	-9.33534
mu	-9.33592
ild	-9.3361
ssen	-9.33708
▁holde	-9.33745
▁høyere	-9.33753
▁nordlige	-9.33777
ifiser	-9.33866
▁unge	-9.33965
▁asia	-9.34106
▁olav	-9.34241
▁brukte	-9.34246
▁ære	-9.34303
istisk	-9.3433
▁museum	-9.34593
▁skje	-9.34623
skrift	-9.34714
▁hvilke	-9.34741
▁1972	-9.34752
▁møtte	-9.34754
▁poeng	-9.3476
cc	-9.34766
▁heller	-9.35175
▁moh	-9.35234
▁samling	-9.35302
▁qu	-9.3531
▁retning	-9.35407
▁pinyin	-9.35445
▁studie	-9.35448
mark	-9.35449
gne	-9.35481
▁enten	-9.35527
familien	-9.35561
sjef	-9.35573
stat	-9.35596
▁finland	-9.35782
▁son	-9.3585
kler	-9.35901
mal	-9.35978
▁syv	-9.36004
rik	-9.361
▁sivil	-9.36165
▁2014	-9.36173
ledes	-9.36192
▁super	-9.36256
▁militære	-9.36354
▁israel	-9.36368
ation	-9.36389
▁sha	-9.36396
▁ten	-9.36397
▁interesse	-9.36414
heter	-9.3649
▁dal	-9.36517
▁vestlig	-9.36524
▁hæren	-9.36587
▁trykk	-9.36796
kast	-9.36815
stå	-9.36847
messig	-9.36871
▁skrift	-9.3689
▁eier	-9.37004
fon	-9.37004
▁sub	-9.37065
høy	-9.37124
ansk	-9.37127
▁styrker	-9.37162
▁sørlige	-9.37186
▁kra	-9.37226
musikk	-9.37227
▁ap	-9.37323
▁høsten	-9.37389
bø	-9.37463
▁1974	-9.37588
▁kardinal	-9.37588
▁david	-9.37592
▁1976	-9.37599
ice	-9.37599
produksjon	-9.37603
▁1900	-9.3763
▁mur	-9.37655
dde	-9.37807
▁trans	-9.37807
▁ul	-9.37894
kop	-9.3792
▁regjering	-9.37971
▁finalen	-9.38316
medalje	-9.38391
▁kul	-9.38459
▁arten	-9.38494
løse	-9.38595
har	-9.38606
sje	-9.3864
▁maria	-9.38684
▁jobb	-9.38963
▁gård	-9.39004
▁arrangert	-9.39042
▁1973	-9.39052
▁1968	-9.39055
▁2015	-9.39063
▁union	-9.39157
▁lenger	-9.39171
ai	-9.39178
king	-9.39233
▁eli	-9.39285
▁egg	-9.39383
▁los	-9.39426
brudd	-9.39483
▁artene	-9.39501
▁gar	-9.39633
ire	-9.39676
old	-9.39736
lem	-9.39736
▁sesong	-9.39743
▁oppkalt	-9.39782
rop	-9.39958
▁virksomhet	-9.40388
gar	-9.40424
▁gr	-9.40473
▁1979	-9.40518
▁james	-9.40523
▁1930	-9.40538
▁tekst	-9.40633
▁ring	-9.40634
▁symbol	-9.40696
▁pal	-9.40734
75	-9.40776
▁totalt	-9.40856
▁kyst	-9.40873
▁wil	-9.40937
▁livet	-9.40956
▁mc	-9.41121
55	-9.41216
▁kamper	-9.41259
▁dronning	-9.41269
▁1969	-9.41276
▁plassert	-9.41368
trykk	-9.41389
▁blod	-9.41408
▁port	-9.41415
▁400	-9.41426
▁bruke	-9.41428
bud	-9.41549
▁chi	-9.41773
▁grand	-9.41776
▁fil	-9.41856
▁finsk	-9.41898
bra	-9.41921
▁folkerepublikk	-9.42029
ara	-9.42142
band	-9.42217
selskap	-9.42282
▁hopp	-9.4244
▁plante	-9.425
▁amerika	-9.42514
stol	-9.42527
▁blo	-9.42535
▁boken	-9.42537
ama	-9.42543
▁gal	-9.42554
▁cm	-9.42734
løs	-9.42814
▁latin	-9.42911
skolen	-9.42982
▁avdeling	-9.42986
▁gran	-9.42987
tegn	-9.43116
▁drift	-9.43153
gikk	-9.43192
ight	-9.43218
▁nu	-9.43285
▁erstattet	-9.43417
▁maskin	-9.43514
▁komme	-9.43516
▁soldater	-9.43546
▁1983	-9.4355
▁bør	-9.43576
under	-9.43618
▁za	-9.43633
▁jens	-9.43718
▁fulgte	-9.4372
är	-9.43746
bor	-9.43776
▁grunnlag	-9.43907
▁rike	-9.43926
▁bolig	-9.4402
styrke	-9.44047
graf	-9.44048
søk	-9.44051
handling	-9.44096
▁dyp	-9.44181
▁80	-9.44295
▁bøker	-9.44301
▁data	-9.44303
▁you	-9.4431
▁spania	-9.44325
▁syk	-9.44335
ib	-9.44409
▁tradisjonell	-9.44588
▁georg	-9.44589
▁punkt	-9.44594
cu	-9.44653
▁hår	-9.44731
▁oppdaget	-9.44756
all	-9.44965
65	-9.44979
▁stod	-9.44997
ps	-9.45031
▁plate	-9.4507
▁canada	-9.45083
▁nordvest	-9.45089
▁ytre	-9.45178
ah	-9.45211
▁johannes	-9.45252
▁ger	-9.45252
▁lærer	-9.45254
dor	-9.45294
▁grenser	-9.45311
▁valgte	-9.4537
▁nrk	-9.45386
oc	-9.45409
værende	-9.45595
▁representant	-9.45613
▁område	-9.45621
▁christ	-9.45695
lie	-9.45744
pt	-9.4576
▁anders	-9.45827
▁klarte	-9.45875
kin	-9.45906
▁finans	-9.45911
▁city	-9.45923
42	-9.46004
▁veg	-9.46078
fag	-9.46185
▁beskrive	-9.46242
▁stre	-9.46262
▁tan	-9.46285
retning	-9.4633
grav	-9.46338
▁george	-9.46366
▁miste	-9.46449
▁bodd	-9.46547
▁opprinnelige	-9.46595
▁nådd	-9.4662
36	-9.4665
▁richard	-9.46651
▁selskap	-9.46672
▁forsvar	-9.46699
▁prosess	-9.46771
▁adel	-9.4679
rud	-9.46793
▁bilde	-9.46816
▁cla	-9.46819
itz	-9.46847
▁gre	-9.46857
▁bygg	-9.46956
▁transport	-9.46978
nett	-9.46987
▁tanke	-9.47043
ive	-9.47114
▁hvite	-9.47221
▁midten	-9.47244
▁bø	-9.4725
▁kle	-9.47281
▁besøk	-9.47424
▁gass	-9.47444
▁national	-9.47444
virkning	-9.47447
lv	-9.47448
▁1977	-9.47457
alt	-9.47468
▁kol	-9.47656
lighet	-9.47656
ath	-9.47874
▁region	-9.47911
▁ledd	-9.48214
▁relativ	-9.48244
▁areal	-9.48258
▁1975	-9.4826
▁2016	-9.48265
▁fotballspiller	-9.48277
▁sterke	-9.48283
iner	-9.48327
orm	-9.48379
grense	-9.48496
standen	-9.48525
vig	-9.48567
pin	-9.48621
▁politi	-9.48701
asj	-9.48779
64	-9.48914
▁mas	-9.48996
▁xi	-9.49005
ano	-9.49016
skapet	-9.49071
lov	-9.49098
▁koloni	-9.49211
▁arkitekt	-9.4923
▁regel	-9.49256
▁gården	-9.49262
▁ii	-9.49339
ani	-9.49641
med	-9.49724
navnet	-9.49766
▁kost	-9.49784
kjø	-9.49814
havet	-9.49857
е	-9.4986
kapasitet	-9.49865
▁1967	-9.49877
▁vokste	-9.49884
▁alltid	-9.49923
▁500	-9.50038
ringer	-9.50107
cia	-9.50127
86	-9.50149
lla	-9.50161
fabrikk	-9.50197
▁sky	-9.50238
▁tradisjon	-9.50354
▁jon	-9.50392
anlegg	-9.50443
byen	-9.50488
▁sentrale	-9.50518
▁wh	-9.50663
▁skyld	-9.50709
▁egypt	-9.50712
▁inter	-9.50723
▁nærings	-9.50768
ji	-9.50784
▁raskt	-9.50889
ance	-9.50976
▁posisjon	-9.51179
▁effekt	-9.51212
▁nabo	-9.51283
▁reg	-9.51346
▁grensen	-9.51363
oni	-9.51377
▁tele	-9.51402
▁krav	-9.51405
ved	-9.51458
lek	-9.51486
▁lenge	-9.51503
▁1948	-9.51519
▁rus	-9.51537
▁fortsette	-9.51542
▁viktige	-9.51549
▁wo	-9.51611
▁spill	-9.51688
▁70	-9.517
▁student	-9.51711
▁figur	-9.51743
ney	-9.51806
▁rot	-9.51975
▁mengde	-9.52053
▁hær	-9.52081
ther	-9.52156
samling	-9.52252
▁college	-9.52348
▁dia	-9.52354
magasin	-9.52359
▁nevnt	-9.52455
▁sammenheng	-9.52459
▁pol	-9.52459
▁kvinnelig	-9.52486
▁holm	-9.52487
▁bern	-9.52488
▁len	-9.52575
vesen	-9.52582
▁iii	-9.52595
systemet	-9.52608
▁høyt	-9.52643
hall	-9.52657
jen	-9.52695
▁trak	-9.52732
▁mulighet	-9.52806
▁part	-9.52937
▁festning	-9.5297
▁vold	-9.52978
cha	-9.52981
way	-9.53084
rike	-9.53094
▁privat	-9.53135
▁stavanger	-9.5319
▁1966	-9.53196
iti	-9.53197
▁egentlig	-9.5321
▁kjempe	-9.53214
▁endret	-9.53393
▁journalist	-9.53394
los	-9.53403
ås	-9.53498
arbeid	-9.53612
selskapet	-9.53712
▁fordelt	-9.53719
tsj	-9.53754
▁pass	-9.53909
ider	-9.53915
▁bronse	-9.54031
▁1971	-9.54031
л	-9.54031
▁lengre	-9.5405
78	-9.5406
ita	-9.5407
▁hundre	-9.54249
▁måneder	-9.54273
▁innført	-9.5429
▁begrepet	-9.54412
▁pop	-9.54486
▁brann	-9.54502
ata	-9.54511
▁havet	-9.54554
▁stu	-9.5457
bilde	-9.54588
pris	-9.54602
▁stemme	-9.5461
side	-9.54632
sis	-9.54643
▁air	-9.54655
▁rik	-9.5467
ind	-9.54831
▁vik	-9.54871
▁1981	-9.54885
▁kontakt	-9.54888
lser	-9.54892
▁bakgrunn	-9.54913
▁utvikle	-9.55159
▁røde	-9.5519
▁ac	-9.55201
▁hodet	-9.55222
holm	-9.55272
▁anlegget	-9.55289
▁jorden	-9.55291
▁flagg	-9.5532
lling	-9.5535
bri	-9.55445
nivå	-9.55473
▁shi	-9.55573
▁af	-9.55686
stid	-9.55801
gger	-9.55801
fart	-9.55802
▁leve	-9.55839
▁solgt	-9.55841
▁kanon	-9.5588
▁dersom	-9.55913
tjeneste	-9.55954
gje	-9.56061
▁reform	-9.56094
krets	-9.56122
▁irland	-9.56172
44	-9.56213
gjorde	-9.5627
lett	-9.56384
▁faren	-9.56555
lia	-9.56576
▁smal	-9.56617
▁publisert	-9.56617
▁øvrig	-9.56617
▁musikkalbum	-9.56636
▁nåværende	-9.56658
▁kampen	-9.56703
▁klasse	-9.56757
▁løp	-9.56763
▁tett	-9.56778
snitt	-9.56901
68	-9.5701
▁pres	-9.57044
▁heter	-9.57076
▁svart	-9.572
▁real	-9.57238
▁fro	-9.57349
▁produkt	-9.57422
liv	-9.57424
▁australia	-9.57494
▁produsere	-9.57494
▁lengde	-9.57512
midler	-9.57536
▁variant	-9.57579
▁offisielle	-9.57589
▁gjenopp	-9.57606
▁sun	-9.57633
▁est	-9.57744
merket	-9.57748
▁økonomiske	-9.5777
▁redaktør	-9.57781
72	-9.57818
shire	-9.57852
▁forteller	-9.57888
5	-9.57902
▁mal	-9.57931
▁materiale	-9.57949
ora	-9.57971
▁karakter	-9.58148
▁organisasjon	-9.58169
▁spre	-9.5817
▁uavhengig	-9.582
mus	-9.58212
▁bel	-9.58237
▁wal	-9.58256
▁ytterligere	-9.58379
▁sikre	-9.58392
▁sjef	-9.58399
▁programmet	-9.584
▁forsvars	-9.58468
▁løs	-9.58474
▁kysten	-9.58541
▁hest	-9.58678
▁modell	-9.5871
▁alder	-9.58838
▁strid	-9.58883
▁nø	-9.5891
▁kunstner	-9.5893
▁presse	-9.59024
age	-9.5908
▁huset	-9.59132
tog	-9.59199
▁åpen	-9.59247
н	-9.59258
▁tilsvarende	-9.59272
▁1952	-9.59285
▁ordfører	-9.59289
88	-9.5933
83	-9.59356
ose	-9.59417
▁romerske	-9.59431
elva	-9.59432
▁ordenen	-9.5945
▁sund	-9.59476
▁hed	-9.59494
▁tung	-9.59498
▁slå	-9.59509
▁grønn	-9.59553
46	-9.59591
stasjon	-9.5963
▁led	-9.59636
▁marine	-9.59649
▁gru	-9.59687
▁stykke	-9.59687
ym	-9.5969
▁sil	-9.59805
▁hei	-9.59817
▁tal	-9.59833
▁eg	-9.59903
▁skips	-9.59966
63	-9.60131
parti	-9.60153
▁krets	-9.60156
▁nødvendig	-9.60173
▁original	-9.60173
▁østerrike	-9.60174
▁ekteskap	-9.60182
▁prisen	-9.6022
last	-9.60228
▁satte	-9.60247
press	-9.60358
▁time	-9.6037
▁ball	-9.60397
▁nederlandsk	-9.60434
språk	-9.60476
▁hovedstaden	-9.60497
gle	-9.60527
▁distrikt	-9.60548
zz	-9.60658
▁ep	-9.60671
▁kraftverk	-9.60673
que	-9.60707
fører	-9.60801
▁mø	-9.60851
▁organisasjonen	-9.6087
well	-9.60923
▁polen	-9.60958
▁benyttes	-9.60969
ple	-9.6098
▁kunnskap	-9.61083
▁høye	-9.61114
▁operasjon	-9.61128
handler	-9.61174
▁albert	-9.61178
▁gjennomført	-9.61206
fang	-9.61355
▁enhet	-9.61468
regionen	-9.61494
▁design	-9.61512
33	-9.61526
qui	-9.61552
▁gren	-9.61631
verket	-9.61704
▁nasjonale	-9.61908
▁gitar	-9.61937
91	-9.61939
▁befolkning	-9.61971
43	-9.61997
ð	-9.62
▁trøndelag	-9.62
▁religion	-9.62
▁base	-9.62021
▁lau	-9.62064
▁euro	-9.623
▁sterk	-9.62387
▁problem	-9.62387
▁naturlig	-9.62442
▁delvis	-9.62619
mun	-9.62636
▁stav	-9.62689
fest	-9.62708
77	-9.62725
▁forfatteren	-9.62745
lang	-9.62751
▁utvidet	-9.62796
▁lære	-9.62847
kro	-9.62857
▁fal	-9.62873
øvelse	-9.62874
▁grense	-9.62909
▁ve	-9.62923
▁1962	-9.62926
▁1963	-9.62941
▁fremdeles	-9.62953
▁musiker	-9.62966
▁anne	-9.62982
▁kors	-9.63
▁eid	-9.63039
▁slott	-9.63091
60	-9.63131
gift	-9.63134
▁tusen	-9.63156
▁skape	-9.63195
▁oppført	-9.63249
▁avisen	-9.63283
▁flat	-9.63299
▁korea	-9.63358
▁klart	-9.63445
▁liga	-9.63493
ola	-9.63519
▁betegnelsen	-9.63519
▁personlig	-9.63531
▁populær	-9.63609
▁handling	-9.63724
▁90	-9.63818
▁lek	-9.63846
▁komponist	-9.6386
▁louis	-9.63861
▁sørvest	-9.63867
ban	-9.64023
gna	-9.64024
kla	-9.64066
arbeider	-9.64091
▁prosjekt	-9.64207
▁kloster	-9.64238
67	-9.64282
▁klubb	-9.64438
▁type	-9.64485
▁forskning	-9.64507
▁scene	-9.64533
▁nev	-9.64569
▁utviklingen	-9.64597
ura	-9.64643
▁følger	-9.64647
▁california	-9.64804
▁tilgjengelig	-9.64804
▁omfattende	-9.64804
▁kristne	-9.64805
▁1965	-9.64821
▁nils	-9.64846
satte	-9.64878
39	-9.64934
▁eiendom	-9.64956
▁stoppe	-9.64997
ferd	-9.65014
▁phil	-9.65015
▁ob	-9.6502
80	-9.65044
▁byer	-9.65066
park	-9.65099
▁femte	-9.65118
▁het	-9.65134
drift	-9.65161
the	-9.65182
▁endelig	-9.65211
▁instrument	-9.6525
▁arabisk	-9.65465
haug	-9.65485
▁metall	-9.65551
76	-9.65585
è	-9.65642
▁offisiel	-9.65653
▁lage	-9.65745
▁nærmest	-9.65758
▁skjedde	-9.65769
▁økonomi	-9.65772
field	-9.65798
merke	-9.65847
▁pri	-9.65968
▁ky	-9.66009
▁løv	-9.66124
anger	-9.66177
▁tapte	-9.66201
organisasjon	-9.66207
aktig	-9.6637
▁munn	-9.66382
▁fylkes	-9.6645
▁nederland	-9.66453
▁ting	-9.66664
▁fredrik	-9.66698
▁ek	-9.66706
▁ci	-9.66713
▁religiøs	-9.66717
▁åpne	-9.66753
▁omtalt	-9.66754
ula	-9.66926
▁årsak	-9.67007
iserte	-9.67043
▁hor	-9.67124
sler	-9.67183
▁holder	-9.67243
▁kreve	-9.67303
▁bad	-9.67365
makt	-9.67368
ordenen	-9.6745
gren	-9.67487
▁jern	-9.67559
▁konflikt	-9.67688
▁opprinnelse	-9.67688
▁records	-9.67688
▁inspirert	-9.67688
▁selvstendig	-9.67688
▁tall	-9.67846
bus	-9.67875
gram	-9.67887
linje	-9.67889
▁bane	-9.68037
▁fører	-9.68044
▁utført	-9.68127
▁war	-9.68156
▁tema	-9.68222
ød	-9.68233
61	-9.68255
▁prøve	-9.68258
itu	-9.68288
stykke	-9.68304
▁forsøkt	-9.68323
tatt	-9.68334
53	-9.68426
▁falt	-9.68446
of	-9.68481
▁bind	-9.6861
▁daglig	-9.68634
▁representere	-9.68669
▁episode	-9.6867
▁1928	-9.68677
90	-9.68678
▁årlig	-9.68689
▁2017	-9.68695
senteret	-9.68696
▁ven	-9.68743
▁trafikk	-9.68778
▁bedrift	-9.68795
▁behandling	-9.68825
▁fugle	-9.68834
▁sel	-9.68883
án	-9.68884
cy	-9.68927
▁grupper	-9.68972
▁thor	-9.68987
▁virkelig	-9.69011
▁politikk	-9.6902
klasse	-9.69171
▁vind	-9.6919
▁reiste	-9.69193
oppgave	-9.69197
▁uttrykk	-9.69235
▁bygningen	-9.69362
tti	-9.69468
89	-9.69518
stoff	-9.69528
▁sko	-9.69545
▁stilling	-9.69594
▁historien	-9.6963
akademi	-9.6964
▁sul	-9.69656
▁utdannet	-9.69659
▁folketelling	-9.69659
▁derimot	-9.6966
zhou	-9.69662
▁1936	-9.69677
▁debutert	-9.69742
▁jobbet	-9.69839
▁regne	-9.69854
▁lund	-9.6988
▁organisert	-9.69902
▁formann	-9.69906
▁char	-9.69997
82	-9.70073
ktig	-9.70131
grunn	-9.70199
oli	-9.70219
▁samlet	-9.7023
▁frank	-9.70246
56	-9.70254
▁gjelder	-9.70289
▁fordel	-9.70301
▁nivå	-9.7031
mesterskapet	-9.70347
▁direktør	-9.7049
▁vinner	-9.70554
▁hertug	-9.70562
▁kast	-9.70611
▁leker	-9.70621
69	-9.70652
▁world	-9.70659
▁foreldre	-9.7066
▁oppdrag	-9.70665
nor	-9.70871
▁kommet	-9.70932
stedet	-9.70943
arter	-9.71006
▁offiser	-9.71034
lon	-9.71041
▁verne	-9.71046
▁kontor	-9.71068
las	-9.71076
▁borg	-9.7108
øyene	-9.71082
▁historiker	-9.71089
misjon	-9.71104
▁hill	-9.71105
▁nr	-9.71132
▁ansvar	-9.71139
▁sider	-9.7125
vitenskap	-9.71262
▁valget	-9.7135
▁ramme	-9.71529
▁størrelse	-9.71582
▁mun	-9.71609
kra	-9.7161
hel	-9.71658
ografi	-9.71671
▁pen	-9.71684
▁1961	-9.71685
▁sommerfugl	-9.71689
▁1955	-9.71689
▁jøde	-9.7171
organ	-9.71787
▁600	-9.71834
▁sau	-9.71954
full	-9.72087
rådet	-9.7211
spor	-9.72258
58	-9.72418
▁sovjetisk	-9.72469
▁livs	-9.72512
▁skilt	-9.72575
▁bla	-9.72618
▁school	-9.7269
▁1912	-9.72699
▁kritikk	-9.72702
▁sykehus	-9.72706
ms	-9.72717
hen	-9.72726
▁not	-9.72737
▁jakt	-9.72878
▁program	-9.72907
her	-9.72948
▁fjern	-9.73036
▁stilt	-9.73038
▁mw	-9.73081
▁hit	-9.73093
▁ungdom	-9.73142
▁aust	-9.73157
▁lot	-9.73195
ark	-9.73221
▁gje	-9.73231
bare	-9.73278
▁strand	-9.73352
94	-9.73384
lund	-9.73388
ritt	-9.73456
▁ung	-9.73493
dagen	-9.73506
▁prins	-9.73519
▁skifte	-9.73523
▁rekord	-9.73563
▁salg	-9.7365
▁lan	-9.73671
▁friidrett	-9.7372
▁fengsel	-9.7372
▁øvre	-9.73721
▁kjønn	-9.73739
▁søster	-9.73782
▁grå	-9.73801
▁undersøkelse	-9.73859
▁offentlige	-9.7394
▁buk	-9.73941
ruk	-9.74092
52	-9.74094
▁vitenskap	-9.74097
▁total	-9.74123
fl	-9.74128
hund	-9.74141
▁lignende	-9.74176
▁tour	-9.74223
erende	-9.7423
▁spørsmål	-9.74299
▁teksten	-9.74321
gra	-9.74357
vinner	-9.74359
strøm	-9.74367
▁sten	-9.7437
▁lind	-9.74431
▁dyre	-9.74486
▁kh	-9.74499
rev	-9.74549
▁delta	-9.74561
66	-9.74605
tha	-9.74621
▁stammer	-9.74625
▁helge	-9.74629
kirke	-9.74648
▁liberal	-9.74762
▁klassisk	-9.74764
▁melodi	-9.74767
▁1938	-9.7477
▁1958	-9.74777
▁1944	-9.7478
▁saint	-9.74783
▁bevart	-9.74791
▁ankom	-9.74796
▁por	-9.74833
▁nasjon	-9.74877
▁styrt	-9.74936
▁mørk	-9.74943
▁fjellet	-9.74945
▁kilde	-9.74952
99	-9.74991
▁hoff	-9.75062
57	-9.75126
▁opphav	-9.75179
vit	-9.75183
dar	-9.75208
▁ji	-9.75418
▁drev	-9.7551
▁karriere	-9.75518
prisen	-9.75553
▁studenter	-9.7556
▁fyr	-9.75682
▁elev	-9.75686
win	-9.75813
▁typisk	-9.75817
▁1941	-9.75829
▁1939	-9.75831
▁1946	-9.75832
▁lansert	-9.75836
gul	-9.7586
▁kjøpe	-9.75898
▁konkurransen	-9.75901
▁kongelige	-9.75957
▁varme	-9.76008
▁sag	-9.76198
▁cap	-9.76199
▁preget	-9.76242
▁samfunns	-9.76248
▁us	-9.76252
▁anton	-9.76269
70	-9.76278
klubb	-9.7632
▁utdanning	-9.76348
▁ram	-9.76351
▁ran	-9.7647
▁front	-9.76478
▁haug	-9.76495
▁maler	-9.76568
våg	-9.76644
▁formel	-9.76651
51	-9.76712
▁bygde	-9.76779
▁rad	-9.76805
▁produsent	-9.76853
▁profesjonell	-9.76878
▁united	-9.76879
▁sølvmedalje	-9.76894
▁stortinget	-9.76931
▁che	-9.77005
▁utgav	-9.77064
▁våren	-9.77106
krig	-9.77124
fatte	-9.77157
▁kart	-9.77167
▁kull	-9.77178
ledende	-9.77197
vind	-9.77281
mand	-9.77306
▁polsk	-9.77484
▁ban	-9.77493
▁harald	-9.77558
våpen	-9.77608
industri	-9.77622
kol	-9.77684
verdig	-9.77691
▁hell	-9.77702
▁ledelse	-9.77731
▁solo	-9.77779
illa	-9.77828
gruppe	-9.77946
▁beijing	-9.77954
▁utbredt	-9.77956
▁tydelig	-9.77956
▁aktivitet	-9.78008
▁gått	-9.78016
▁meg	-9.78053
▁sikker	-9.78087
▁fla	-9.78102
▁trener	-9.78108
tunnelen	-9.78176
bær	-9.78207
▁king	-9.78228
▁jean	-9.78272
dekk	-9.78294
▁cent	-9.78412
▁pat	-9.78451
▁runde	-9.78515
▁toppen	-9.78566
▁tårn	-9.78633
▁regjerings	-9.7867
historie	-9.78706
▁synes	-9.78706
▁nes	-9.78782
▁forbi	-9.78804
▁internasjonal	-9.78869
▁brev	-9.78877
▁utover	-9.78891
▁150	-9.78894
trolig	-9.78932
▁vannet	-9.78949
▁win	-9.78962
kur	-9.78972
sket	-9.79018
▁star	-9.79025
▁motsetning	-9.79041
▁klima	-9.79053
▁masse	-9.79065
▁vitenskapelig	-9.79083
▁tha	-9.79121
▁hunnen	-9.79143
gaard	-9.79212
▁ansatte	-9.7924
ball	-9.79351
▁fremst	-9.79364
▁kommun	-9.79419
▁kas	-9.79425
▁institutt	-9.79461
▁tids	-9.79517
▁vas	-9.79621
▁sykdom	-9.79658
▁bred	-9.79686
▁rose	-9.79787
▁landsby	-9.79802
album	-9.79807
▁turist	-9.79828
▁sønnen	-9.79884
▁tron	-9.79934
nu	-9.79949
▁mørke	-9.79965
▁magn	-9.80016
▁sendte	-9.80047
▁stamme	-9.80058
▁østlig	-9.80079
følgende	-9.80097
▁innflytelse	-9.80135
▁elektrisk	-9.80139
▁lei	-9.80143
▁lufthavn	-9.80151
▁rute	-9.80153
▁1956	-9.80156
▁veldig	-9.80189
gata	-9.80198
▁øyene	-9.80214
▁fyrst	-9.80296
73	-9.80382
▁ole	-9.80401
ova	-9.80408
musik	-9.80412
vatnet	-9.805
▁uni	-9.80654
▁sj	-9.80656
▁lyn	-9.80745
ink	-9.80816
gard	-9.80847
gjort	-9.80852
figur	-9.80941
møte	-9.8096
▁metal	-9.80974
▁bonde	-9.80989
▁distriktet	-9.81004
▁middelalderen	-9.81017
▁riket	-9.8102
▁rollen	-9.81048
▁økonomisk	-9.81079
▁kjøre	-9.81133
stått	-9.81191
▁test	-9.8121
▁kombinert	-9.81251
▁mexico	-9.81251
▁vunnet	-9.81251
▁michael	-9.81251
▁jacob	-9.81252
▁tidsskrift	-9.81261
41	-9.81297
dommen	-9.81321
▁bestemme	-9.81467
▁1500	-9.81469
manns	-9.81522
95	-9.8154
tallet	-9.81568
ras	-9.81571
▁stasjonen	-9.81606
delen	-9.81647
program	-9.81729
▁korte	-9.81801
▁trekk	-9.81807
▁mill	-9.81912
▁idretts	-9.81934
gå	-9.82031
korps	-9.82107
klar	-9.82154
rum	-9.82155
fjell	-9.8221
formet	-9.82232
▁kam	-9.82248
nær	-9.82257
▁odd	-9.82258
kov	-9.82293
▁hovedstad	-9.823
▁py	-9.82338
▁formål	-9.82371
▁betrakte	-9.82374
▁ridder	-9.82379
▁1924	-9.82388
▁merke	-9.82389
▁snakke	-9.82393
▁jordbruk	-9.82407
▁black	-9.82436
grupper	-9.82437
▁hevdet	-9.82526
flu	-9.82548
▁plassering	-9.82571
▁rygg	-9.82571
▁listen	-9.82616
▁støttet	-9.82617
85	-9.8264
▁300	-9.82655
▁gutt	-9.82689
▁status	-9.82759
▁harry	-9.82809
▁viking	-9.82843
ky	-9.82851
fugl	-9.82868
▁vanlige	-9.82872
▁kjerne	-9.8291
▁begynner	-9.82915
▁grev	-9.83001
▁revolusjon	-9.83162
gangen	-9.83195
▁tonn	-9.83204
▁måned	-9.83205
ves	-9.83217
▁rein	-9.83288
gress	-9.83289
▁sju	-9.83363
▁selve	-9.83387
fu	-9.83397
linjen	-9.8342
▁international	-9.8351
▁league	-9.8351
▁skottland	-9.83511
▁award	-9.83511
▁oversikt	-9.83512
▁1949	-9.83525
▁1959	-9.83525
trekning	-9.83527
▁1943	-9.8353
▁video	-9.83539
▁jarl	-9.83552
▁slave	-9.83555
▁vær	-9.83569
▁bibel	-9.83575
▁kroner	-9.83696
zo	-9.83697
▁mid	-9.83739
rolle	-9.83774
▁passer	-9.83812
plate	-9.83835
▁spiss	-9.8399
▁damp	-9.84003
▁utvalg	-9.84008
ctor	-9.84025
▁rå	-9.84062
mynt	-9.84082
▁vet	-9.84202
▁populære	-9.84278
▁stand	-9.84355
bjørn	-9.84389
az	-9.8441
▁romersk	-9.84462
▁tilhør	-9.8459
stripe	-9.84595
с	-9.84655
▁sluttet	-9.84656
▁bakkropp	-9.8466
▁installert	-9.8466
▁utgangspunkt	-9.8466
▁stadion	-9.84663
hastighet	-9.84665
▁flertall	-9.84669
▁oscar	-9.84669
▁1932	-9.84674
▁1933	-9.84679
▁kristen	-9.84685
▁iran	-9.84697
hm	-9.84726
▁festival	-9.84734
▁knut	-9.84787
▁utdannelse	-9.84796
▁35	-9.84799
ith	-9.84809
▁fn	-9.84855
ira	-9.84961
▁likhet	-9.85017
lj	-9.85053
ull	-9.85079
forhold	-9.85097
ulykke	-9.85129
farge	-9.85212
▁tilfeller	-9.85279
▁fremme	-9.85293
▁athen	-9.85352
▁planet	-9.85389
▁poly	-9.85415
▁struktur	-9.85509
atet	-9.85522
kraft	-9.85526
kommune	-9.85592
arm	-9.85608
kontor	-9.85609
▁bevis	-9.85658
▁rh	-9.85663
▁beskytte	-9.85667
innen	-9.85718
▁studio	-9.85818
▁1908	-9.85823
▁spesiell	-9.85823
▁ishockey	-9.85858
kka	-9.85881
▁uttalt	-9.85884
hard	-9.85935
hn	-9.85951
▁1000	-9.86035
▁larven	-9.86045
▁tegnet	-9.86054
▁wei	-9.86138
▁områdene	-9.86157
▁beskrevet	-9.86228
▁teknologi	-9.86239
▁spise	-9.86271
▁tettsted	-9.86337
visning	-9.8641
▁tettstedet	-9.8653
▁drevet	-9.86604
▁normal	-9.86625
ammen	-9.86655
▁she	-9.86731
byr	-9.86758
15	-9.86812
aktiv	-9.86849
ben	-9.86874
▁politiet	-9.86874
▁sveits	-9.86927
▁old	-9.86989
▁berømt	-9.86999
▁allierte	-9.87
▁norrøn	-9.87002
▁individ	-9.87003
▁sport	-9.87007
▁bronsemedalje	-9.87011
▁sekund	-9.87011
▁1942	-9.87022
▁spillet	-9.87045
▁primær	-9.87052
høgskole	-9.87061
▁typer	-9.87087
▁mik	-9.87096
▁tog	-9.8714
trekk	-9.8716
▁sent	-9.87211
▁kongedømme	-9.87257
gler	-9.8739
kammer	-9.87521
hode	-9.87538
14	-9.87595
▁ya	-9.87607
hal	-9.87936
distrikt	-9.87959
▁atom	-9.88031
▁app	-9.88148
kysten	-9.88164
к	-9.88184
▁fullstendig	-9.8819
▁hurtig	-9.8819
▁bokstav	-9.88191
▁folket	-9.88197
▁1925	-9.88204
▁snart	-9.88217
▁studier	-9.88222
▁fullført	-9.88223
▁spar	-9.88236
▁avhengig	-9.88251
▁skille	-9.88268
▁score	-9.88279
▁overflate	-9.88292
▁sur	-9.884
▁angrepet	-9.88432
▁leir	-9.88467
▁gall	-9.88511
▁anna	-9.8855
▁verket	-9.88567
▁inntekt	-9.88568
▁lavere	-9.886
▁selge	-9.8865
uf	-9.88685
▁temperatur	-9.8872
▁anta	-9.88732
marked	-9.88735
gon	-9.88744
▁bob	-9.88766
▁insekter	-9.88806
ón	-9.88833
ati	-9.8904
59	-9.89112
▁driver	-9.89217
▁bredd	-9.89242
▁bosatt	-9.89356
vekt	-9.89358
sekretær	-9.89382
▁zo	-9.89389
▁alternativ	-9.89394
▁publikum	-9.89394
▁hemmelig	-9.89395
▁hovedrollen	-9.89397
▁1918	-9.89409
▁flyplass	-9.89465
▁oppdag	-9.89477
bygning	-9.89494
▁hjelpe	-9.89576
▁forsknings	-9.89609
▁amt	-9.89651
løpet	-9.89679
▁saken	-9.89769
virke	-9.89793
▁romanen	-9.89802
▁gun	-9.89834
strekker	-9.89843
kunst	-9.89848
▁epi	-9.89866
▁bibliotek	-9.89896
strand	-9.89942
▁camp	-9.89946
elli	-9.89967
dia	-9.90035
▁sports	-9.90108
54	-9.90179
▁gard	-9.90228
▁gangen	-9.903
sam	-9.90373
mitt	-9.90412
kultur	-9.90499
gli	-9.90507
▁ansatt	-9.90607
▁sportsutøver	-9.90614
▁passasjer	-9.90614
delt	-9.90616
skjær	-9.90621
▁bidro	-9.90638
▁dokumenter	-9.90643
▁cal	-9.90686
▁bygninger	-9.90742
▁rør	-9.90748
▁bevegelse	-9.90799
▁vinge	-9.90833
▁vå	-9.9085
serien	-9.90878
▁nan	-9.90905
▁kåre	-9.90909
▁auto	-9.90937
▁jevn	-9.90951
▁nordisk	-9.90991
▁normalt	-9.91035
▁overført	-9.91056
▁filmer	-9.91089
▁laste	-9.91179
32	-9.91184
▁grunnlegge	-9.91219
▁problemer	-9.91331
▁dynastiet	-9.91343
▁kri	-9.91426
▁bydel	-9.91539
prosess	-9.91663
▁kristian	-9.91766
ledning	-9.91783
18	-9.91802
ign	-9.91805
▁kategori	-9.91849
▁himmel	-9.91849
▁redusert	-9.9185
skjold	-9.9185
▁1954	-9.91864
▁1953	-9.91868
▁unntak	-9.91871
▁bispedømme	-9.91876
▁drama	-9.91886
▁markeds	-9.91925
▁innsats	-9.91937
▁tredjeplass	-9.91975
plikt	-9.92045
mond	-9.92095
▁drive	-9.92216
▁endre	-9.92222
35	-9.92223
▁maur	-9.92267
▁ann	-9.92269
49	-9.92306
▁kjenne	-9.92327
komst	-9.9235
▁økt	-9.92378
▁byene	-9.92461
zy	-9.9248
▁song	-9.92495
▁nar	-9.92508
▁dam	-9.92518
▁skatte	-9.92545
gate	-9.92615
98	-9.92675
▁fan	-9.92685
analyse	-9.92698
▁stål	-9.92734
mund	-9.9276
▁vid	-9.92773
kirken	-9.92782
▁motiv	-9.92789
▁sete	-9.92807
▁sn	-9.92857
▁bidra	-9.92863
17	-9.92901
11	-9.92969
jö	-9.9297
tta	-9.92987
▁inngå	-9.93014
slaget	-9.93015
▁1947	-9.93099
▁edvard	-9.93099
▁erklært	-9.93099
▁dollar	-9.93099
▁nærmere	-9.93104
▁antenne	-9.93108
▁verdenscup	-9.93115
▁hitler	-9.93159
hjul	-9.93173
▁streng	-9.93202
▁middel	-9.9323
voll	-9.93231
▁tørr	-9.93284
▁riksvei	-9.93293
▁enda	-9.93296
ical	-9.93357
fylt	-9.93638
▁indi	-9.93717
▁kommuner	-9.93723
▁erobret	-9.93723
later	-9.93724
▁sw	-9.93739
▁øke	-9.93766
▁grunnla	-9.938
▁got	-9.93804
▁terr	-9.93885
▁salt	-9.93898
ernes	-9.93908
▁gui	-9.93909
▁34	-9.93971
92	-9.94029
▁prosjektet	-9.94048
▁ris	-9.94078
▁utføre	-9.94103
prosjekt	-9.94211
trafikk	-9.94212
forfatter	-9.94218
▁overfor	-9.94279
▁fc	-9.94286
kraftverk	-9.94294
ologisk	-9.94364
▁etterfulgt	-9.94364
▁fattig	-9.94366
▁situasjon	-9.94367
kritiker	-9.94374
▁1934	-9.94378
▁1957	-9.94383
▁republikken	-9.94387
▁lengst	-9.9439
▁jazz	-9.94394
trukket	-9.94404
▁ube	-9.94437
▁nevnes	-9.94441
▁eksistere	-9.94444
▁magnus	-9.94499
▁landbruk	-9.94515
▁foruten	-9.94527
fik	-9.94624
▁teknisk	-9.9469
▁north	-9.94708
▁kontrakt	-9.94725
▁grø	-9.94738
con	-9.94774
16	-9.94863
▁un	-9.9488
▁larvene	-9.9493
▁rei	-9.94972
▁sette	-9.94983
▁landskapet	-9.9501
▁off	-9.95027
▁stig	-9.95067
▁kjell	-9.95096
▁bunn	-9.95167
▁hode	-9.95188
▁grei	-9.95198
▁tj	-9.95202
tag	-9.95214
ima	-9.9525
▁tvil	-9.95273
▁bol	-9.95359
▁innsjøen	-9.95397
▁od	-9.95452
▁hve	-9.95511
forbindelse	-9.95513
▁solgte	-9.95521
▁storm	-9.95541
sol	-9.95576
24	-9.95641
▁introdusert	-9.95646
▁wilhelm	-9.95646
▁angripe	-9.95647
▁anerkjent	-9.95647
jiang	-9.95651
▁1919	-9.9566
▁arbeiderpartiet	-9.9566
▁spredt	-9.95668
▁sjelden	-9.95676
flåte	-9.9568
▁glass	-9.95743
innspilling	-9.95758
▁myr	-9.95766
shi	-9.95877
arkiv	-9.95922
▁ungdoms	-9.95925
▁klo	-9.95998
▁virke	-9.96011
▁medlemmene	-9.96073
▁utstilling	-9.96163
sport	-9.96238
▁sja	-9.9624
▁minutter	-9.96253
▁innsjø	-9.96283
▁dobbelt	-9.96285
▁omtale	-9.96332
▁die	-9.96346
▁kap	-9.96387
▁glo	-9.96416
ish	-9.96604
▁ce	-9.96666
▁rand	-9.96667
▁ansett	-9.96763
nda	-9.96781
48	-9.96797
middel	-9.96825
▁gy	-9.9687
lip	-9.96882
▁ost	-9.96901
▁tilknytning	-9.96945
▁alvorlig	-9.96946
▁jødisk	-9.96946
▁ødelagt	-9.96947
▁1914	-9.96961
▁forretnings	-9.96984
▁nærheten	-9.97026
bakk	-9.9704
▁hon	-9.97049
istene	-9.97054
▁ekstra	-9.97073
▁spansk	-9.97115
45	-9.97141
▁oppnådd	-9.97156
▁cu	-9.97232
▁met	-9.97246
▁sof	-9.9727
▁singel	-9.97338
stiden	-9.97352
▁just	-9.97375
oll	-9.97492
▁unna	-9.97554
▁kreft	-9.97782
fant	-9.97792
bakken	-9.97832
▁museet	-9.97867
cul	-9.9793
dyktig	-9.97944
25	-9.98042
▁maleri	-9.98053
▁systemet	-9.98104
▁south	-9.98118
▁ok	-9.98139
▁hevde	-9.98143
▁spanske	-9.98165
festival	-9.98176
▁yu	-9.98178
trinn	-9.98189
▁univers	-9.98235
▁elektro	-9.98245
▁ana	-9.9826
▁generelt	-9.98261
▁skøyte	-9.98275
▁up	-9.98278
▁charles	-9.9829
▁ph	-9.98341
27	-9.98387
▁effektiv	-9.98398
forestilling	-9.9849
▁nekte	-9.98505
▁fest	-9.98513
▁bidrag	-9.98601
▁timer	-9.98617
96	-9.98641
84	-9.98671
▁bånd	-9.98688
▁internasjonalt	-9.9876
▁kongens	-9.98783
▁rask	-9.98805
▁sist	-9.98859
kort	-9.98865
parten	-9.98872
▁mak	-9.98962
ios	-9.9908
▁fremste	-9.99212
gelse	-9.9922
▁mono	-9.99225
økonom	-9.99358
▁irsk	-9.99377
rekke	-9.99382
plasser	-9.99421
▁løper	-9.99483
samisk	-9.99505
avdeling	-9.99589
▁erkebiskop	-9.99594
▁moskva	-9.99595
kanten	-9.99596
▁hustru	-9.99597
▁hannen	-9.99598
ов	-9.996
▁invest	-9.99607
▁levde	-9.99608
▁sverd	-9.99629
▁gor	-9.99634
▁benytte	-9.99648
▁øverste	-9.99652
▁anledning	-9.99655
▁jule	-9.99695
▁inkluderer	-9.99775
▁bygning	-9.99821
▁malt	-9.99834
▁single	-9.99868
▁landsbyen	-9.99876
▁00	-9.99901
ade	-9.99923
▁linjen	-10.0013
▁dog	-10.0024
▁filosofi	-10.0032
▁trekke	-10.0035
▁opphold	-10.004
▁ekspedisjon	-10.0047
▁konkurranse	-10.0055
▁kampene	-10.006
05	-10.0062
▁hud	-10.0064
▁avtale	-10.0065
▁gjeste	-10.007
▁kilder	-10.0079
town	-10.0088
▁nominert	-10.0095
▁royal	-10.0095
▁stiftelse	-10.0097
▁salme	-10.0097
▁skaffe	-10.0097
▁latinsk	-10.0097
gården	-10.0101
▁sier	-10.0103
▁tilhenger	-10.0105
▁fokus	-10.011
▁human	-10.0117
23	-10.0118
▁undervisning	-10.0118
▁kari	-10.012
▁gil	-10.0123
jev	-10.0127
▁grunnet	-10.013
plassen	-10.0137
▁tilhørt	-10.0137
▁kommando	-10.0137
▁bevegelsen	-10.0144
▁kir	-10.0147
hø	-10.0147
▁ask	-10.015
▁makten	-10.0152
tropp	-10.0168
▁stoff	-10.0171
▁mannskap	-10.0175
▁penger	-10.0192
▁hage	-10.0193
▁penge	-10.0203
▁tittel	-10.0222
▁tilknytte	-10.0232
▁cirka	-10.0232
▁major	-10.0232
▁turneringen	-10.0232
▁behov	-10.0232
▁ukjent	-10.0237
▁skiller	-10.0238
▁dekket	-10.0238
▁nedlagt	-10.0243
▁sær	-10.0243
▁bærer	-10.0254
kjøp	-10.026
snes	-10.0264
▁unn	-10.027
▁forskjell	-10.0277
▁straffe	-10.0291
▁nam	-10.0298
▁mad	-10.0305
▁medisin	-10.0312
▁andreas	-10.0313
▁avsluttet	-10.0328
partiet	-10.0332
▁bydelen	-10.0334
▁teologi	-10.0338
ridge	-10.0356
pass	-10.0365
skudd	-10.0368
▁positiv	-10.037
▁belgia	-10.037
▁1929	-10.0372
▁otto	-10.0372
ella	-10.0375
▁arve	-10.0377
dø	-10.038
▁angeles	-10.0383
▁oversatt	-10.0383
▁handel	-10.0387
▁agder	-10.0389
▁metro	-10.0396
stasjonen	-10.0399
firma	-10.0402
▁henry	-10.0402
▁banen	-10.0408
▁cy	-10.041
▁provins	-10.0415
31	-10.0415
▁kvalitet	-10.0416
▁master	-10.0416
▁stemmer	-10.0425
▁korn	-10.0427
ville	-10.0429
▁elv	-10.043
jan	-10.0436
▁forskere	-10.0439
▁hellige	-10.045
fjellene	-10.0451
▁andreplass	-10.046
▁gjer	-10.0463
▁kok	-10.0464
▁foss	-10.047
lever	-10.0482
▁keiseren	-10.0483
fulle	-10.0487
livet	-10.0504
▁former	-10.0506
slått	-10.0509
▁olsen	-10.0511
▁arrangere	-10.0511
▁hjerte	-10.0511
▁pasient	-10.0511
▁faktisk	-10.0512
▁allianse	-10.0512
▁1926	-10.0513
▁1931	-10.0513
slav	-10.0513
▁1927	-10.0513
▁mongol	-10.0513
▁økende	-10.052
▁stille	-10.0539
driv	-10.055
masse	-10.0556
tinget	-10.0566
▁sti	-10.0571
▁fritt	-10.0571
type	-10.0576
vika	-10.0579
▁bakke	-10.058
▁dømt	-10.0583
ity	-10.0586
blokk	-10.0588
gal	-10.0599
▁dekker	-10.0605
▁kjøl	-10.0606
på	-10.0606
▁hotell	-10.0607
▁fotograf	-10.0609
hør	-10.0619
▁cra	-10.0627
▁32	-10.064
somme	-10.065
▁brøt	-10.0653
▁science	-10.0654
▁vietnam	-10.0654
▁klipp	-10.0654
▁yngre	-10.0654
▁kanal	-10.0655
▁1905	-10.0656
▁bryte	-10.0659
havn	-10.066
▁verdensmester	-10.0663
spir	-10.0663
▁celle	-10.0664
eksamen	-10.0664
▁bio	-10.0672
hem	-10.0672
▁nordland	-10.0687
▁tolv	-10.0688
▁språket	-10.069
▁kaptein	-10.0695
▁elve	-10.0718
▁ferd	-10.0721
▁ze	-10.0721
87	-10.0722
▁elever	-10.0722
19	-10.0731
▁bakken	-10.074
fjellet	-10.0746
▁mary	-10.0747
kommisjon	-10.0749
▁brø	-10.0751
▁arne	-10.0756
oth	-10.0757
▁dor	-10.0766
▁bevege	-10.0772
▁120	-10.0773
▁roll	-10.0779
▁registrert	-10.0799
▁regissert	-10.0799
▁ungarn	-10.0799
▁dialekt	-10.0799
▁gustav	-10.0799
▁sistnevnte	-10.0799
▁bosetning	-10.0799
▁sikkerhets	-10.0799
▁frederik	-10.08
▁1937	-10.0801
▁1915	-10.0801
▁daniel	-10.0802
produsent	-10.0802
▁frukt	-10.0803
tittel	-10.0804
▁avholdt	-10.081
▁skikk	-10.0823
▁besøkt	-10.0826
sanger	-10.0846
▁mol	-10.0848
▁eksempler	-10.0852
▁samarbeidet	-10.0861
▁fantes	-10.0862
34	-10.0869
▁kandidat	-10.087
▁music	-10.087
▁japanske	-10.0877
former	-10.0893
▁az	-10.0893
▁ö	-10.09
▁may	-10.0902
litt	-10.0903
mming	-10.0903
løst	-10.0906
▁vegg	-10.0911
dorf	-10.0912
▁will	-10.0929
▁antikke	-10.093
deler	-10.0937
▁eventuel	-10.0946
▁involvert	-10.0946
▁doktorgrad	-10.0946
arbeidet	-10.0947
▁flytte	-10.0947
▁forbundet	-10.0949
▁riktig	-10.0951
▁hentet	-10.0953
▁samfunn	-10.0954
▁indiske	-10.0955
▁unngå	-10.0957
takelse	-10.0959
olin	-10.0963
▁lam	-10.0975
▁sort	-10.0979
▁intern	-10.0982
pel	-10.0985
▁kanalen	-10.0997
ough	-10.0999
▁gruppa	-10.0999
▁bord	-10.1002
fil	-10.1005
▁long	-10.1013
▁tø	-10.1031
rød	-10.1035
▁tale	-10.1047
▁vinteren	-10.1051
mont	-10.1059
kamera	-10.1064
▁tilbud	-10.1071
▁green	-10.1076
▁søke	-10.1082
mba	-10.1088
republikk	-10.109
▁tekster	-10.1092
myndighet	-10.1093
▁eventyr	-10.1095
▁middelsstor	-10.1095
▁praktisk	-10.1096
▁utenlandsk	-10.1097
▁tidspunkt	-10.1097
▁telemark	-10.1097
▁bekrefte	-10.11
▁luther	-10.11
ij	-10.1101
▁administrativ	-10.1101
▁spenning	-10.1104
▁arkitektur	-10.1106
født	-10.1111
syke	-10.1115
▁800	-10.1118
bukta	-10.1124
▁petter	-10.1125
▁eksempelvis	-10.1126
alderen	-10.1135
▁snø	-10.1136
▁wales	-10.1136
gått	-10.1153
handel	-10.1157
▁poet	-10.1159
▁norman	-10.1159
rim	-10.116
▁vinne	-10.1163
▁varierer	-10.1166
▁bredt	-10.1168
▁sven	-10.1185
▁markert	-10.1187
▁lønn	-10.1189
37	-10.1191
97	-10.1199
▁bay	-10.1202
▁utga	-10.1209
slutt	-10.1214
▁stillingen	-10.1215
▁behandle	-10.1232
feld	-10.1238
▁prinsipp	-10.1242
▁debut	-10.1243
à	-10.1247
▁deriblant	-10.1247
▁edderkopp	-10.1247
▁kvalifisering	-10.1247
▁global	-10.1247
▁reserve	-10.1248
▁litterær	-10.1249
▁1951	-10.1249
▁planlagt	-10.125
▁aksje	-10.1257
▁deltaker	-10.1259
vekst	-10.126
samfunn	-10.1262
car	-10.1263
▁wien	-10.1266
bøker	-10.1267
lad	-10.1268
rup	-10.1278
fyr	-10.1282
åpning	-10.1285
basert	-10.1287
▁arn	-10.1293
▁frie	-10.1301
time	-10.1303
▁dør	-10.1304
▁anlegg	-10.1307
▁tradisjonel	-10.1311
▁max	-10.1314
▁overgang	-10.1315
▁rapport	-10.1316
▁kommunene	-10.1322
mur	-10.1323
▁bombe	-10.1323
bank	-10.1326
▁kapp	-10.1344
foss	-10.1347
▁velge	-10.1357
▁formen	-10.1362
stift	-10.1377
▁och	-10.138
▁buss	-10.138
▁moren	-10.1386
▁oppnå	-10.1388
▁løsning	-10.1392
▁koll	-10.1394
29	-10.1395
▁initiativ	-10.1401
▁pakistan	-10.1401
▁kristiansand	-10.1401
▁ekstrem	-10.1401
▁rykket	-10.1401
▁tegneserie	-10.1402
▁1923	-10.1403
▁protest	-10.1403
▁skotsk	-10.1404
▁beregne	-10.1404
▁pensjon	-10.1405
▁kapell	-10.1407
pha	-10.1412
▁stå	-10.1413
produkt	-10.1413
miljø	-10.1414
▁dato	-10.1417
▁ranger	-10.1419
▁gold	-10.1422
ual	-10.1426
▁hendelser	-10.1435
ordnet	-10.1438
▁ark	-10.1439
▁kalle	-10.1441
tom	-10.1442
rac	-10.1449
forsvar	-10.1453
▁utbygging	-10.1455
▁klassen	-10.1456
riket	-10.1456
▁senter	-10.1471
bal	-10.1486
▁begrep	-10.1487
teater	-10.1489
▁ønsker	-10.1491
vision	-10.1498
▁sagt	-10.1506
▁solen	-10.1507
serie	-10.151
setting	-10.151
▁dj	-10.1514
dikt	-10.1517
▁myk	-10.1527
▁artist	-10.1532
yang	-10.154
▁fylket	-10.1546
▁geo	-10.1546
▁spin	-10.1549
politikk	-10.155
▁sving	-10.1554
▁antagelig	-10.1557
▁oppmerksomhet	-10.1557
▁vesentlig	-10.1557
▁bryst	-10.1557
▁bølge	-10.1558
kompani	-10.1559
▁blomster	-10.1559
▁1917	-10.1559
▁papir	-10.1559
▁private	-10.1566
rige	-10.1572
▁kg	-10.1575
▁platen	-10.1577
botn	-10.1583
staten	-10.1593
ische	-10.1593
▁oss	-10.1598
▁ordre	-10.1605
▁funn	-10.1608
vannet	-10.161
▁mening	-10.1622
▁eide	-10.1626
▁utstyr	-10.1626
▁dø	-10.1626
12	-10.1626
▁styrkene	-10.1639
kilde	-10.164
▁ønske	-10.1641
▁tromsø	-10.165
▁skriver	-10.1657
kilden	-10.1659
▁170	-10.1662
▁økte	-10.1665
▁byttet	-10.1675
▁horn	-10.1696
▁forsvaret	-10.1698
▁landskap	-10.1701
▁underlag	-10.1704
▁vakt	-10.1709
▁frø	-10.1709
festet	-10.1715
▁jerusalem	-10.1716
▁ludvig	-10.1716
▁ødelegge	-10.1716
▁län	-10.1716
▁omfattet	-10.1716
▁1922	-10.1717
▁godkjent	-10.1717
▁monark	-10.1718
▁etterfølger	-10.1718
▁befinne	-10.1718
▁france	-10.1719
▁yrke	-10.172
▁studere	-10.172
▁hydro	-10.1721
▁betegne	-10.1721
▁mini	-10.1722
▁sum	-10.1728
ulf	-10.1731
maskin	-10.1734
bringe	-10.1735
▁stabil	-10.1735
▁oppløst	-10.1736
▁kommunikasjon	-10.1745
▁uavhengighet	-10.1748
bury	-10.1751
slett	-10.1752
▁planter	-10.1759
ordning	-10.1774
rick	-10.1787
▁45	-10.1798
▁bilder	-10.1798
▁programmer	-10.1798
▁inge	-10.18
områdene	-10.1818
▁frihet	-10.1823
▁parken	-10.183
nummer	-10.1843
▁levert	-10.1849
forsker	-10.1859
▁snu	-10.1859
▁svak	-10.1861
▁fødsel	-10.1877
▁byprefekture	-10.1877
▁vingespenn	-10.1877
▁musikalsk	-10.1877
▁radikal	-10.1877
▁brensel	-10.1877
▁fysisk	-10.1877
▁eksistert	-10.1878
▁signal	-10.1878
▁smith	-10.1879
▁konstant	-10.188
▁administrasjons	-10.1881
klubben	-10.1881
▁1910	-10.1881
▁vendt	-10.1881
▁utgaven	-10.1887
bebyggelse	-10.1897
angrep	-10.1898
▁konst	-10.1898
▁bow	-10.1899
▁resultatet	-10.1901
▁jack	-10.1903
språklige	-10.1904
▁antatt	-10.1904
▁utøver	-10.1908
▁uke	-10.1924
hau	-10.1927
deles	-10.1928
rommet	-10.1948
ruten	-10.1961
perioden	-10.1974
leng	-10.1974
▁drap	-10.1978
▁vitne	-10.1986
▁mesterskap	-10.1988
skyting	-10.1994
▁landene	-10.1996
▁magi	-10.1998
▁ånd	-10.1998
▁verker	-10.2
tjenesten	-10.2011
26	-10.2022
ín	-10.2023
ping	-10.2025
▁leie	-10.2028
strid	-10.2035
objekt	-10.2039
▁1903	-10.2041
▁akseptert	-10.2041
▁beseiret	-10.2041
▁kjærlighet	-10.2041
▁østerriksk	-10.2041
▁service	-10.2041
▁tempel	-10.2041
▁rogaland	-10.2041
offensiv	-10.2041
▁premier	-10.2043
▁finnmark	-10.2044
▁kommunestyre	-10.2049
▁arrestert	-10.2049
▁vokalist	-10.2049
▁zu	-10.2054
tyder	-10.2057
▁arv	-10.2057
eppe	-10.206
utvikling	-10.2064
hjem	-10.2065
skilt	-10.207
▁nyere	-10.2075
▁tiår	-10.2078
▁forholdet	-10.2081
stjerne	-10.2084
▁seire	-10.2089
qua	-10.209
følelse	-10.2091
bygget	-10.2093
▁nordover	-10.2098
skipet	-10.21
flekk	-10.2136
▁bell	-10.2147
▁mess	-10.215
▁regional	-10.2152
▁ulik	-10.2154
21	-10.216
▁fartøy	-10.2165
▁rund	-10.2173
▁styret	-10.2177
▁svar	-10.2179
▁torg	-10.2181
22	-10.2186
▁vekst	-10.2197
▁fv	-10.2198
com	-10.2201
▁vokal	-10.2205
▁institusjon	-10.2208
▁hensikt	-10.2208
▁jørgen	-10.2208
▁praksis	-10.2208
▁krevde	-10.2208
▁negativ	-10.2208
▁arendal	-10.2208
▁invasjon	-10.2208
▁nedenfor	-10.2209
▁utnytte	-10.2209
▁mytologi	-10.221
▁generasjon	-10.221
▁signert	-10.2211
▁skudd	-10.2212
▁butikk	-10.2219
▁visse	-10.222
▁hellas	-10.2222
▁vannkraftverk	-10.2227
▁gitarist	-10.2232
teknikk	-10.2233
▁synge	-10.2234
rekord	-10.2238
▁forekommer	-10.2241
▁hellig	-10.2244
▁bou	-10.2245
▁din	-10.2245
▁kino	-10.2246
▁tyskerne	-10.2249
cup	-10.2251
▁johann	-10.2255
▁fotballklubb	-10.2256
▁steg	-10.2258
▁ingeniør	-10.226
▁cur	-10.2261
▁idrettslag	-10.2274
dam	-10.2285
▁starten	-10.2286
▁nm	-10.2305
▁populært	-10.2309
▁grunnlegger	-10.2313
▁troll	-10.2316
▁fjernet	-10.2323
gro	-10.2325
tunnel	-10.2343
▁vende	-10.2354
▁kim	-10.2365
▁dommer	-10.2366
administrasjon	-10.2373
▁1904	-10.2377
▁joseph	-10.2377
▁frykt	-10.2377
▁uvanlig	-10.2377
konferanse	-10.2377
▁anklage	-10.2379
▁boy	-10.2379
▁internett	-10.2381
▁mangle	-10.2382
▁esp	-10.2385
▁skytter	-10.2386
▁reist	-10.2388
▁armé	-10.2391
▁dalen	-10.2398
▁motta	-10.2403
psykologi	-10.2403
▁måten	-10.2403
▁nedre	-10.2404
▁web	-10.2404
▁hindre	-10.2406
direktør	-10.2406
brun	-10.2412
▁drei	-10.2423
svarer	-10.2425
virker	-10.2429
▁junior	-10.2437
▁modellen	-10.244
familie	-10.2454
▁tilfelle	-10.2459
▁37	-10.2459
▁samfunnet	-10.246
▁forvingen	-10.2469
▁elementer	-10.2481
▁rio	-10.2488
▁arkeologisk	-10.2501
▁160	-10.2516
▁sammenligne	-10.2517
▁virket	-10.2523
▁teknikk	-10.2523
28	-10.2524
▁uker	-10.2525
▁brenn	-10.2526
▁tråd	-10.2535
▁konsept	-10.255
▁vulkan	-10.255
▁golf	-10.255
▁begrenset	-10.255
▁beholdt	-10.2551
▁1921	-10.2551
væske	-10.2551
▁ligner	-10.2551
▁alfred	-10.2555
▁dvs	-10.2555
▁mobil	-10.256
▁east	-10.2562
▁hendelsen	-10.2562
▁hovedsak	-10.2563
▁føde	-10.2568
▁minister	-10.2574
low	-10.258
virksomhet	-10.258
forskning	-10.2582
▁mikro	-10.2583
dro	-10.2586
▁boka	-10.2594
▁kommunistisk	-10.2594
▁typen	-10.2599
▁cand	-10.2601
▁bære	-10.2608
▁klokken	-10.2618
reise	-10.2624
▁skuespill	-10.2629
▁villa	-10.2629
ico	-10.263
ois	-10.2636
▁ansvarlig	-10.2643
byrå	-10.2644
▁velger	-10.2646
▁kai	-10.2646
▁grov	-10.2654
▁japansk	-10.2676
▁sim	-10.2677
▁shan	-10.2679
▁tang	-10.2679
osa	-10.2684
dommer	-10.2685
▁leon	-10.2685
▁proto	-10.2696
oftest	-10.2697
▁gli	-10.2716
strategi	-10.2724
skulptur	-10.2725
▁eksperiment	-10.2725
▁semifinale	-10.2725
▁digital	-10.2725
▁edward	-10.2725
▁jakob	-10.2725
▁arthur	-10.2725
▁referere	-10.2725
▁myndighetene	-10.2726
▁dyrke	-10.2727
▁midlertidig	-10.2727
▁group	-10.2728
▁blue	-10.2729
▁statlig	-10.273
▁feire	-10.2733
▁diplomat	-10.2734
▁tam	-10.2748
▁bygda	-10.2751
▁persisk	-10.2761
▁morgen	-10.2765
▁erstatte	-10.2767
▁fortalt	-10.2767
wald	-10.2783
▁khan	-10.2786
▁blanding	-10.2789
▁kjemi	-10.2789
avtale	-10.2791
vold	-10.2792
▁gress	-10.2794
▁nazi	-10.2808
▁flyktet	-10.2813
▁redde	-10.2818
▁kortere	-10.2819
▁paus	-10.2824
▁aur	-10.2825
typen	-10.2834
▁ekspedisjonen	-10.284
▁plateselskap	-10.2841
vakt	-10.2847
▁stol	-10.2849
▁israelsk	-10.285
bevegelsen	-10.2853
▁deles	-10.2862
bad	-10.2863
registre	-10.2864
▁santa	-10.2867
▁medaljer	-10.2872
▁motsatt	-10.2873
profil	-10.2878
bygningen	-10.2895
base	-10.2901
▁institut	-10.2903
▁konkurrere	-10.2904
▁geografisk	-10.2904
▁zealand	-10.2904
▁kald	-10.2904
komité	-10.2905
▁1916	-10.2906
mønster	-10.2906
▁strekningen	-10.2907
▁fløy	-10.2907
▁europe	-10.2909
ici	-10.2911
▁prix	-10.2915
▁gruve	-10.2917
▁stortings	-10.2918
▁samtid	-10.2921
dannelse	-10.2925
▁bass	-10.2926
▁250	-10.2927
nemlig	-10.2931
▁handle	-10.2941
konkurranse	-10.2941
museum	-10.2942
▁sideelv	-10.2948
ania	-10.2948
▁forvaltning	-10.2949
▁elver	-10.2957
▁ray	-10.2961
▁rune	-10.2975
▁artikkel	-10.2978
tysk	-10.2978
kveld	-10.2997
▁innhold	-10.2998
▁utsatt	-10.3007
▁ledelsen	-10.3025
tekst	-10.3026
▁nød	-10.3045
▁preg	-10.3046
▁endringer	-10.3046
▁pil	-10.3054
▁vente	-10.306
▁artister	-10.3082
▁1909	-10.3085
▁australsk	-10.3085
▁milliarder	-10.3085
▁akershus	-10.3085
▁county	-10.3085
▁alexander	-10.3085
▁club	-10.3085
▁forårsake	-10.3085
▁autonom	-10.3085
▁elleve	-10.3086
▁firmaet	-10.3087
▁manager	-10.3087
▁1935	-10.3088
▁drammen	-10.3088
▁gullmedalje	-10.3089
▁meldt	-10.3092
▁hensyn	-10.3092
kortet	-10.3095
syre	-10.3095
halvøya	-10.3102
▁utstyrt	-10.3106
soldat	-10.3109
▁ull	-10.311
▁team	-10.311
bød	-10.3112
▁polar	-10.3112
speil	-10.3114
▁oppfatte	-10.3115
▁oversettelse	-10.3124
▁vanligste	-10.3129
▁betale	-10.313
▁henge	-10.3134
▁skyte	-10.3148
▁ferge	-10.3153
▁smak	-10.3156
forsamlingen	-10.3165
givelse	-10.3191
▁parlament	-10.32
▁kva	-10.3205
▁etnisk	-10.3207
38	-10.3213
listen	-10.3218
▁cru	-10.323
▁hamar	-10.3233
▁karrieren	-10.3243
▁avtalen	-10.325
kho	-10.3267
blomst	-10.3267
belteasteroide	-10.3271
▁aleksander	-10.3271
▁washington	-10.3271
▁vilhelm	-10.3271
▁kjørt	-10.3271
▁nedbør	-10.3271
▁hjerne	-10.3271
▁definert	-10.3271
▁studioalbum	-10.3271
▁wolf	-10.3273
▁etappe	-10.3273
vandring	-10.3276
▁bodø	-10.3278
▁filip	-10.3279
▁hersker	-10.328
▁fyll	-10.3281
▁tverr	-10.3285
▁fremført	-10.3289
▁tvang	-10.3298
▁østover	-10.3302
▁mottatt	-10.3303
▁molde	-10.331
wood	-10.3315
▁jag	-10.3316
skifte	-10.332
▁arrangement	-10.3321
▁orkester	-10.3321
regn	-10.3334
▁løfte	-10.3337
kjent	-10.3338
▁bull	-10.3338
▁arab	-10.3344
▁road	-10.3345
▁cuba	-10.3347
hopp	-10.3351
▁stam	-10.3353
▁troms	-10.3355
awa	-10.3356
lé	-10.3376
usjon	-10.3387
▁utvide	-10.3398
▁uttrykket	-10.3404
▁flest	-10.3406
▁betegnelse	-10.3415
▁38	-10.3422
lokk	-10.3427
▁endring	-10.3434
▁dukket	-10.3458
▁fungerte	-10.3459
▁artikler	-10.3459
▁ansikt	-10.3459
▁1913	-10.3459
▁sjette	-10.346
▁opplysning	-10.346
▁innlemme	-10.346
▁utgi	-10.3462
▁utgivelsen	-10.3462
▁skarp	-10.3463
▁tvunge	-10.3464
▁yo	-10.3472
▁vogn	-10.3474
▁vg	-10.3475
bred	-10.3476
▁1880	-10.3482
▁gjenstand	-10.3485
▁700	-10.3492
▁brede	-10.3499
▁tilpasse	-10.3501
▁alfa	-10.3503
▁sørover	-10.3506
effekt	-10.3508
▁skatt	-10.3516
▁verd	-10.352
▁landslaget	-10.3537
wiki	-10.3543
korset	-10.3548
▁begynne	-10.3558
▁nettverk	-10.3569
komiteen	-10.3587
▁medisinsk	-10.3592
▁rulle	-10.3593
drakt	-10.3617
▁mala	-10.3646
årig	-10.3651
løytnant	-10.3652
▁administrere	-10.3652
▁1907	-10.3652
▁american	-10.3652
▁svalbard	-10.3652
▁umiddelbar	-10.3652
▁regissør	-10.3652
▁fjordane	-10.3652
▁infanteri	-10.3652
▁avdøde	-10.3652
▁adresse	-10.3652
▁white	-10.3652
▁turbin	-10.3652
▁romsdal	-10.3653
komedie	-10.3654
▁programleder	-10.3654
▁1911	-10.3654
▁fru	-10.3659
▁fredrikstad	-10.366
▁1897	-10.3666
▁qui	-10.3674
▁walter	-10.3676
▁østsiden	-10.3676
▁grim	-10.3677
turné	-10.3678
▁multi	-10.3681
▁begrave	-10.3681
▁mcc	-10.3682
▁johnson	-10.3683
ington	-10.3683
▁vekk	-10.3684
▁opptatt	-10.3685
▁jim	-10.3687
▁palm	-10.3696
plante	-10.3697
▁angel	-10.37
▁thi	-10.3701
▁vedtatt	-10.3703
▁vokser	-10.3703
struktur	-10.3704
▁hå	-10.371
▁fungerer	-10.3714
bevisst	-10.3717
▁stri	-10.3732
▁kode	-10.3745
vegg	-10.3758
utgivelse	-10.3761
▁hull	-10.3763
zon	-10.378
▁helst	-10.3781
93	-10.379
▁kommunal	-10.379
▁halvpart	-10.3805
▁sosialistisk	-10.3807
▁wood	-10.3808
▁chile	-10.384
▁1906	-10.3848
▁hjørne	-10.3848
▁ressurs	-10.3848
▁tønsberg	-10.3848
▁færøyene	-10.3848
▁hordaland	-10.3848
▁victoria	-10.3848
▁fenomen	-10.3848
▁vestfold	-10.3848
▁redusere	-10.3848
traktaten	-10.3848
▁bøkene	-10.3848
▁brødrene	-10.3848
▁belgisk	-10.3848
▁jesus	-10.3849
▁markedet	-10.385
▁drikke	-10.3852
▁nerve	-10.3852
▁svømme	-10.3853
▁debatt	-10.3854
▁komposisjon	-10.3855
▁anlagt	-10.3865
▁levende	-10.3867
metode	-10.3875
▁indianer	-10.3886
▁simon	-10.3888
▁alv	-10.3889
▁sankt	-10.389
▁konstruksjon	-10.3901
funn	-10.3902
befolkning	-10.3904
sjø	-10.3918
▁katolsk	-10.3926
▁skinn	-10.3926
jord	-10.3933
▁fond	-10.3935
▁visst	-10.3953
fartøy	-10.3984
в	-10.4046
▁1902	-10.4048
▁alkohol	-10.4048
▁friedrich	-10.4048
▁innbyggertall	-10.4048
▁astronom	-10.4048
▁prefekt	-10.4048
▁foregår	-10.4048
▁nicola	-10.4048
▁forsvant	-10.4048
▁grønland	-10.4048
▁innebære	-10.4049
▁tømmer	-10.4049
▁import	-10.405
▁pap	-10.4055
▁inngang	-10.4063
▁drag	-10.4064
▁knap	-10.4067
▁1890	-10.4071
▁reaksjon	-10.4072
▁1200	-10.4076
▁tilsyne	-10.4079
▁bau	-10.4082
▁mangler	-10.4083
▁angl	-10.4084
▁gö	-10.4087
▁bytte	-10.4087
▁sovjet	-10.4091
fred	-10.4093
▁estland	-10.4094
▁kompleks	-10.4096
▁glad	-10.41
lokalisert	-10.4104
▁bach	-10.4107
kjøring	-10.4108
roman	-10.411
moto	-10.4112
bånd	-10.4119
▁parlamentet	-10.4124
▁strak	-10.4125
▁strøk	-10.4129
▁hul	-10.4129
▁hekk	-10.4131
▁unik	-10.4132
verdi	-10.4138
▁mei	-10.4142
▁etasje	-10.4154
strømmen	-10.4164
▁slette	-10.4191
▁skall	-10.4194
▁fulgt	-10.4203
▁høst	-10.4205
▁disk	-10.4206
▁ufor	-10.4208
▁forskjellig	-10.4213
▁synlig	-10.4232
vald	-10.4246
▁wu	-10.425
▁elisabeth	-10.4252
▁ambassad	-10.4252
▁xiàn	-10.4252
▁reklame	-10.4252
▁faktor	-10.4252
▁søndag	-10.4252
seremoni	-10.4252
▁presentert	-10.4252
▁scott	-10.4252
▁mjø	-10.4253
▁novell	-10.4255
▁tilsammen	-10.4256
▁forbudt	-10.4259
▁eksport	-10.4262
kjøretøy	-10.4276
▁great	-10.4277
▁deltatt	-10.4278
trådte	-10.428
▁christiania	-10.4283
celle	-10.4288
▁kritisk	-10.4295
▁kapital	-10.4304
tank	-10.4306
▁kampanje	-10.4308
▁kyr	-10.4313
hjelp	-10.4317
▁trø	-10.4343
▁stund	-10.4351
▁fremmed	-10.4358
▁utenriks	-10.4367
konsern	-10.4375
formede	-10.4384
▁kara	-10.4386
▁fase	-10.4388
▁demokratisk	-10.4391
▁mannlig	-10.4392
ique	-10.4413
▁angi	-10.4414
▁munk	-10.4416
▁lake	-10.442
sats	-10.4422
▁landslag	-10.4439
dokument	-10.4455
▁kval	-10.4456
vingen	-10.4459
▁amsterdam	-10.446
▁antwerpen	-10.446
▁definisjon	-10.446
▁frivillig	-10.446
▁portugal	-10.446
▁1901	-10.446
▁artilleri	-10.446
▁juridisk	-10.446
▁kombinasjon	-10.446
▁tyrkisk	-10.446
▁erobring	-10.446
▁sachsen	-10.446
▁fengsle	-10.446
▁rettigheter	-10.446
▁kritisert	-10.446
▁håndball	-10.4462
▁påvirket	-10.4462
▁house	-10.4462
stipend	-10.4463
▁flekker	-10.4463
▁operatør	-10.4463
▁erfaring	-10.4465
▁dominerende	-10.4465
▁piano	-10.4469
▁nederlag	-10.4472
▁young	-10.4477
rute	-10.4481
▁sammenlagt	-10.4486
▁beskyttelse	-10.4488
▁inneha	-10.4497
▁strek	-10.4501
▁silke	-10.4514
▁øre	-10.452
▁furu	-10.4526
representant	-10.4527
▁roger	-10.4533
museet	-10.4533
måte	-10.4542
hed	-10.4585
▁meta	-10.4596
▁gaten	-10.4605
herre	-10.4609
melding	-10.4611
▁orient	-10.4623
▁psyko	-10.464
kledd	-10.4644
norsk	-10.4649
phi	-10.4651
▁pic	-10.4661
▁ferr	-10.4669
▁dekkvingene	-10.4673
▁matematikk	-10.4673
▁münchen	-10.4673
▁komponert	-10.4673
stråling	-10.4673
▁sigurd	-10.4673
▁besluttet	-10.4673
pedagog	-10.4673
teatret	-10.4673
▁kulturminne	-10.4674
▁hørte	-10.4674
▁brown	-10.4675
на	-10.4676
▁trenger	-10.4677
▁overlevd	-10.4678
▁biologisk	-10.4678
▁puppe	-10.4678
▁rednings	-10.4678
▁show	-10.4681
▁kristiania	-10.4687
▁anse	-10.469
▁gjennombrudd	-10.4692
▁advokat	-10.4695
▁900	-10.4702
▁flyge	-10.4704
▁adam	-10.4707
▁malm	-10.471
▁gradvis	-10.4717
▁variere	-10.4717
▁takke	-10.4721
oksid	-10.4738
▁luk	-10.4748
kanalen	-10.4749
▁wall	-10.475
▁halvdel	-10.4754
▁cho	-10.4773
▁vingene	-10.4785
kongen	-10.4792
wich	-10.48
yuan	-10.4803
▁avslutte	-10.4809
løft	-10.4825
▁steve	-10.4836
tolk	-10.484
vatn	-10.4861
▁satse	-10.4887
▁guvernør	-10.489
▁konkurrert	-10.489
▁vedlikehold	-10.489
▁minoritet	-10.489
▁landkreis	-10.489
▁kvalifisert	-10.489
▁sprint	-10.489
▁canadisk	-10.489
▁palestin	-10.489
▁tennis	-10.4891
▁avgjørende	-10.4891
▁prøvd	-10.4891
▁debutalbum	-10.4891
▁rolf	-10.4892
plattform	-10.4892
▁sverre	-10.4893
▁myndigheter	-10.4893
▁fortellingen	-10.4895
▁konservative	-10.4896
▁hovedkontor	-10.4898
▁bassist	-10.4898
vang	-10.49
▁portrett	-10.4901
▁sveitsisk	-10.4904
▁sikte	-10.4918
▁inndelt	-10.4919
▁ernst	-10.492
friidrettsutøver	-10.4927
stigning	-10.493
vokst	-10.4931
▁oberst	-10.4938
▁innerst	-10.4941
▁beholde	-10.4941
▁søkt	-10.4943
▁karakteristisk	-10.4948
▁river	-10.4962
divisjon	-10.497
▁cour	-10.497
▁term	-10.4977
▁undergrunns	-10.498
kasse	-10.4983
▁hammer	-10.4988
▁beina	-10.4991
▁menneskelig	-10.4995
▁låten	-10.5013
ppel	-10.5015
▁forlenge	-10.5016
konge	-10.5023
▁jente	-10.5029
▁hov	-10.5042
flytt	-10.5045
flate	-10.5052
sentre	-10.5075
▁francis	-10.511
▁beslutning	-10.5112
▁intervju	-10.5112
▁katedral	-10.5112
▁liverpool	-10.5112
▁respekt	-10.5112
▁resultert	-10.5112
▁sammenslåing	-10.5112
▁tyrkia	-10.5112
▁forhindre	-10.5112
▁manuskript	-10.5112
▁nøyaktig	-10.5112
▁returnert	-10.5112
▁konstruert	-10.5112
▁ungarsk	-10.5113
▁kjøtt	-10.5113
▁utseende	-10.5113
regulering	-10.5113
▁kongsberg	-10.5113
▁distanse	-10.5113
▁gregor	-10.5114
lyktes	-10.5115
▁fjernsyn	-10.5115
▁flåten	-10.5115
▁telefon	-10.5115
▁døtre	-10.5116
▁bakvingen	-10.5116
▁mandat	-10.5123
budsjett	-10.5133
▁morten	-10.514
▁lord	-10.5146
▁qi	-10.516
▁middelalder	-10.516
kreft	-10.5191
brødre	-10.5194
historisk	-10.5196
▁hotel	-10.52
▁from	-10.5202
laten	-10.5204
▁lykke	-10.521
▁moral	-10.5229
▁fett	-10.5232
▁anerkjenne	-10.5251
feng	-10.5255
▁urban	-10.5263
▁krim	-10.5263
▁gjennomføre	-10.5275
▁larve	-10.5287
▁chu	-10.5289
ansett	-10.5296
periode	-10.5311
tårn	-10.5329
utvalget	-10.5331
▁shanghai	-10.534
▁skjønt	-10.534
▁company	-10.534
▁permanent	-10.534
▁tillatelse	-10.534
▁adolf	-10.534
▁antarktis	-10.534
▁rektor	-10.534
▁forbedre	-10.534
▁utmerkelse	-10.534
▁detaljer	-10.534
▁oppstår	-10.534
▁tilskuer	-10.534
▁beordre	-10.5341
▁beskjed	-10.5341
▁håkon	-10.5341
▁pierre	-10.5343
▁programvare	-10.5343
▁oppgaver	-10.5343
▁nasjonalpark	-10.5344
▁mektig	-10.5346
▁jackson	-10.5346
▁tjue	-10.5352
▁terror	-10.5352
syklus	-10.5354
▁forsterke	-10.5354
▁allmenn	-10.5355
▁forbunds	-10.5356
▁talent	-10.5362
▁1885	-10.5363
▁with	-10.5372
▁overtatt	-10.538
▁akku	-10.5383
skij	-10.5384
▁1850	-10.5385
▁statsråd	-10.5387
forsyning	-10.5393
▁brakt	-10.5395
tjern	-10.5404
▁blind	-10.541
▁arkeolog	-10.5412
▁trygg	-10.5413
▁utbygd	-10.5413
▁marx	-10.5414
modell	-10.5426
▁home	-10.5427
▁gjeld	-10.543
▁forente	-10.5446
brua	-10.545
light	-10.5454
talende	-10.5457
lønn	-10.5477
versjon	-10.5489
▁sparta	-10.5491
▁krise	-10.5494
▁beskrev	-10.5502
▁comp	-10.5518
▁voksen	-10.5523
▁verb	-10.553
▁kulturell	-10.5567
▁bispe	-10.5572
▁akse	-10.5572
▁beslekte	-10.5572
▁helsingfors	-10.5572
▁hovedkvarter	-10.5572
▁jesuitt	-10.5572
▁chicago	-10.5572
▁innbyggerne	-10.5572
▁sluppe	-10.5572
▁utspring	-10.5572
▁parallell	-10.5572
▁dokumentar	-10.5572
▁henrettet	-10.5572
▁alexandr	-10.5572
▁ytterst	-10.5573
▁skjønn	-10.5573
▁dverg	-10.5574
▁sjanger	-10.5574
▁åpningen	-10.5576
▁generell	-10.5576
▁formula	-10.5578
▁2018	-10.5579
▁operere	-10.5583
▁onkel	-10.5583
▁hval	-10.5591
ligning	-10.5592
▁1895	-10.5596
regning	-10.5608
▁hop	-10.5609
▁vev	-10.5618
▁chang	-10.5622
▁tykk	-10.5632
▁terreng	-10.5652
▁hylle	-10.5656
posisjon	-10.5657
▁ulv	-10.5665
▁million	-10.5669
▁låter	-10.5671
▁sjel	-10.5677
ferdig	-10.5681
▁pike	-10.5694
▁homo	-10.5711
møll	-10.5713
▁kunstnerisk	-10.5732
▁kjemisk	-10.5743
▁nettsted	-10.5746
▁62	-10.5756
▁aksel	-10.5757
▁bryllup	-10.581
▁fakultet	-10.581
▁millimeter	-10.581
▁påbegynt	-10.581
▁territorie	-10.581
▁ovenfor	-10.581
▁monument	-10.581
▁christoph	-10.581
▁kavaleri	-10.581
▁risiko	-10.581
▁fjær	-10.581
▁hjal	-10.5811
▁skutt	-10.5811
▁kristendommen	-10.5811
▁stillehavet	-10.5812
▁svekke	-10.5812
▁för	-10.5812
▁sentralbank	-10.5813
▁tynne	-10.5813
aceae	-10.5814
▁britene	-10.5814
▁akademisk	-10.5815
▁opplevd	-10.5817
språklig	-10.5817
▁patent	-10.5822
▁hamburg	-10.5836
▁filosof	-10.5837
▁ross	-10.5838
▁regler	-10.584
▁etterpå	-10.5853
▁lista	-10.586
endring	-10.5861
ånd	-10.5862
▁emil	-10.5879
▁tau	-10.5901
▁element	-10.5907
vitsj	-10.5913
▁islam	-10.5918
seier	-10.5943
formasjon	-10.5956
▁jordan	-10.5974
▁plast	-10.5991
▁tjenestegjor	-10.5998
▁barokk	-10.5998
▁kongelig	-10.5999
▁kontinent	-10.6026
▁petr	-10.6039
▁øverst	-10.6044
kost	-10.605
▁størst	-10.6051
▁afghanistan	-10.6054
▁portugisisk	-10.6054
▁hebraisk	-10.6054
førsel	-10.6054
▁hyppig	-10.6054
▁valuta	-10.6055
▁særskilt	-10.6055
▁besetning	-10.6055
stråle	-10.6055
▁dominert	-10.6055
▁datamaskin	-10.6055
▁prinsesse	-10.6056
▁metoden	-10.6058
apparat	-10.6059
▁michel	-10.606
▁gravlagt	-10.606
▁tegninger	-10.6061
▁high	-10.6062
▁1893	-10.6069
▁høyesterett	-10.6069
vilkår	-10.6069
▁ibsen	-10.6074
▁tekstil	-10.6075
▁1898	-10.6077
▁fusjon	-10.6079
▁1870	-10.6081
▁1899	-10.6081
▁andel	-10.6081
▁life	-10.6089
lån	-10.6096
▁ungdomsskole	-10.6097
▁birk	-10.6102
▁møre	-10.6108
▁neu	-10.6114
▁afrikansk	-10.6137
støtte	-10.6161
karriere	-10.6161
konsert	-10.6162
▁tromme	-10.617
▁intens	-10.6186
▁britis	-10.6187
▁forlate	-10.6232
▁stab	-10.6238
▁opprette	-10.624
opera	-10.6269
hockey	-10.6297
▁okkupasjon	-10.6303
▁angelsaksisk	-10.6304
▁barcelona	-10.6304
▁observato	-10.6304
▁okkupert	-10.6304
▁visepresident	-10.6304
▁1871	-10.6304
▁preussen	-10.6304
▁diameter	-10.6304
▁misjonær	-10.6304
▁kommersiell	-10.6304
▁josef	-10.6304
▁nikola	-10.6304
▁selvmord	-10.6304
▁gunnar	-10.6305
▁skjøt	-10.6305
▁tropisk	-10.6306
▁kobber	-10.6306
▁fortellinger	-10.6306
terminal	-10.6307
▁fiolin	-10.6309
▁tropper	-10.6309
▁innspillingen	-10.6313
▁orgel	-10.6319
▁down	-10.6319
▁idé	-10.632
▁forandre	-10.6321
▁opptrådte	-10.6325
▁1892	-10.6327
▁halden	-10.633
▁kontinental	-10.6334
bæk	-10.6337
▁1100	-10.6338
▁sara	-10.6345
▁brent	-10.6345
utgave	-10.6347
▁derfra	-10.635
▁vennskap	-10.6351
vidt	-10.6352
▁agent	-10.6362
▁tolke	-10.6378
▁håp	-10.6379
▁pund	-10.6405
spørsmål	-10.6417
politisk	-10.6419
front	-10.6419
▁beskrivelse	-10.6436
slekten	-10.646
▁melke	-10.646
▁straff	-10.6468
▁spring	-10.647
▁demokrati	-10.6483
▁treffe	-10.649
▁trekant	-10.6523
▁mul	-10.6526
▁hjemmebane	-10.6531
alistisk	-10.6558
▁bulgaria	-10.6561
▁forøvrig	-10.6561
▁göteborg	-10.6561
▁molekyl	-10.6561
▁patriark	-10.6561
▁oxford	-10.6561
▁manchester	-10.6561
kompetanse	-10.6561
▁etablere	-10.6561
▁kriminal	-10.6561
▁lørdag	-10.6561
▁testamente	-10.6561
▁gjennomsnittlig	-10.6561
▁innledet	-10.6561
bjørg	-10.6561
▁bøndene	-10.6561
▁usikker	-10.6561
▁mekanisk	-10.6561
▁bærum	-10.6561
▁skildre	-10.6561
▁ombord	-10.6561
▁für	-10.6561
▁seinere	-10.6562
▁kullkraftverk	-10.6562
mouth	-10.6562
▁opposisjon	-10.6562
▁kalender	-10.6562
▁kjennetegn	-10.6562
▁stengt	-10.6563
ittisk	-10.6564
▁kreert	-10.6568
▁pels	-10.6573
prøve	-10.6578
▁drepe	-10.6579
▁håndverk	-10.658
▁1860	-10.6593
▁1300	-10.6593
▁romerne	-10.6597
▁skjell	-10.6597
ative	-10.6598
▁basis	-10.6608
▁tyng	-10.6612
rediger	-10.6614
▁lært	-10.6626
start	-10.6665
prest	-10.6669
skrevet	-10.6669
▁tvers	-10.6678
blå	-10.6682
▁oliv	-10.6691
bunn	-10.6693
▁filosofisk	-10.6707
demokrat	-10.6724
wick	-10.6737
vall	-10.6746
▁kontrollert	-10.6763
▁prim	-10.6804
observasjon	-10.6824
▁argentina	-10.6824
▁association	-10.6824
▁konsentrert	-10.6824
▁maksimal	-10.6824
▁muslimsk	-10.6824
▁observert	-10.6824
▁omdøpt	-10.6824
▁utelukke	-10.6824
▁varaordfører	-10.6824
▁eidsvoll	-10.6824
▁stafett	-10.6824
▁thailand	-10.6824
▁deutsche	-10.6824
▁aktuell	-10.6824
▁kommentar	-10.6824
▁rudol	-10.6824
▁oppstod	-10.6824
▁diskusjon	-10.6824
▁stadium	-10.6824
▁inneba	-10.6825
▁leilighet	-10.6826
▁oblast	-10.6826
▁slank	-10.6826
▁strategisk	-10.6826
▁hedmark	-10.6827
▁einar	-10.6827
▁francisco	-10.6827
▁enhver	-10.6827
▁definere	-10.6828
▁bystyre	-10.683
▁biografi	-10.6832
▁indikere	-10.6835
▁interessert	-10.6836
▁fossil	-10.6837
▁nobel	-10.6838
▁ddr	-10.6844
▁1896	-10.6847
▁1884	-10.6847
▁1848	-10.6847
▁koble	-10.6853
▁sjanse	-10.6854
scene	-10.687
stikker	-10.6876
▁bratt	-10.6892
regjering	-10.695
brann	-10.6955
dømmet	-10.6957
maleri	-10.6967
▁rapportert	-10.6971
bakterie	-10.7015
▁vindu	-10.7026
økning	-10.7027
fløy	-10.7031
▁lærd	-10.7039
▁grend	-10.706
bevegelse	-10.7084
▁egyptisk	-10.7084
▁klokke	-10.7086
▁assosier	-10.7094
▁columbia	-10.7094
▁engasjert	-10.7094
▁innspilt	-10.7094
▁kollektiv	-10.7094
▁restaurant	-10.7094
▁venezia	-10.7094
▁referanse	-10.7094
▁østfold	-10.7094
▁1881	-10.7094
▁yngste	-10.7094
▁jamaica	-10.7094
▁barnebarn	-10.7094
▁frigjøring	-10.7094
▁stephen	-10.7094
ström	-10.7095
▁osmansk	-10.7095
▁detroit	-10.7095
▁føderal	-10.7095
▁sosialdemokrat	-10.7096
▁metoder	-10.7096
▁opptrer	-10.7097
▁senatet	-10.7098
▁oldtiden	-10.7098
▁naturgass	-10.7101
▁tsar	-10.7102
kall	-10.7103
▁holdning	-10.7104
▁nevø	-10.7104
▁lisens	-10.7108
▁avansert	-10.7112
▁justis	-10.7112
syssel	-10.7115
▁1887	-10.7116
▁lunge	-10.7131
▁class	-10.7136
▁hindu	-10.7142
▁hind	-10.7155
vassdraget	-10.7156
forhandlingene	-10.7167
veps	-10.7173
personell	-10.7178
▁evangeli	-10.7207
materiale	-10.7228
▁lukke	-10.7229
▁tidligst	-10.7249
▁departement	-10.7277
▁tryg	-10.7283
donald	-10.73
▁slit	-10.734
personlighet	-10.7353
▁colombia	-10.7372
▁dirigent	-10.7372
▁forvandling	-10.7372
▁gymnas	-10.7372
▁identifisert	-10.7372
▁virginia	-10.7372
▁billboard	-10.7372
▁etablering	-10.7372
▁kommandør	-10.7372
▁konvensjon	-10.7372
▁sicilia	-10.7372
▁identitet	-10.7372
veksling	-10.7372
▁lagkonkurransen	-10.7372
▁autoritet	-10.7372
▁embets	-10.7372
▁unesco	-10.7372
▁eksemplarer	-10.7372
▁church	-10.7372
▁etterkommer	-10.7372
▁nepal	-10.7372
▁flyktning	-10.7372
▁noensinne	-10.7373
▁protein	-10.7373
▁vegetasjon	-10.7373
▁josé	-10.7373
▁aristo	-10.7373
▁anvende	-10.7373
▁utfordre	-10.7373
▁generalsekretær	-10.7375
▁myrdet	-10.7375
▁sydney	-10.7375
▁øynene	-10.7376
▁gjentatt	-10.7379
▁jurist	-10.7379
▁betalt	-10.7381
▁trodde	-10.7382
▁eiendommen	-10.7382
▁deltager	-10.7385
▁panser	-10.7395
fortelling	-10.7401
▁palass	-10.7402
▁variasjon	-10.7406
▁sykle	-10.7407
▁falsk	-10.7416
▁bevare	-10.742
orientert	-10.744
▁variert	-10.7449
▁forklare	-10.7463
▁dramatisk	-10.7464
▁aero	-10.748
blikk	-10.7487
pakke	-10.7506
▁insekt	-10.7511
▁konsul	-10.7512
utdanning	-10.7514
amerikanske	-10.7514
dømt	-10.7515
▁tenke	-10.7517
▁arving	-10.7519
▁ørn	-10.7532
fabrik	-10.7565
horn	-10.7566
▁fungere	-10.7568
▁opprettelse	-10.7577
stamme	-10.7583
▁punk	-10.7622
▁kupp	-10.7628
▁hvile	-10.764
avisen	-10.7643
▁admiral	-10.7658
▁fiendtlig	-10.7658
▁hongkong	-10.7658
▁kronprins	-10.7658
▁nøytral	-10.7658
▁prestegjeld	-10.7658
▁propaganda	-10.7658
▁spesifik	-10.7658
▁essay	-10.7658
▁eksistens	-10.7658
vurdering	-10.7658
▁haugesund	-10.7658
▁forkropp	-10.7658
▁skåne	-10.7658
▁tilbrakt	-10.7658
▁andré	-10.7658
▁underholdning	-10.7658
▁naturreservat	-10.7658
▁brigade	-10.7658
▁sibir	-10.7658
▁unntatt	-10.7659
▁utpekt	-10.7659
▁grevskapet	-10.766
▁power	-10.766
▁foreslått	-10.7662
▁syria	-10.7663
▁vandre	-10.7667
▁industriell	-10.7675
▁kaffe	-10.7677
▁ødela	-10.7704
handlet	-10.7714
kredit	-10.7734
recht	-10.7739
▁geir	-10.774
revolusjonen	-10.7746
▁formell	-10.7783
▁utvidelse	-10.7796
kandidat	-10.7808
litteratur	-10.7808
reformen	-10.7868
▁formue	-10.7879
tilbud	-10.7883
▁thu	-10.7909
strup	-10.7911
▁omdanne	-10.7942
direktoratet	-10.7952
inskripsjon	-10.7952
▁forgjenger	-10.7952
▁lillehammer	-10.7952
▁tilstrekkelig	-10.7952
▁begivenhet	-10.7952
▁buskerud	-10.7952
▁florida	-10.7952
▁diverse	-10.7952
▁kjøkken	-10.7952
▁argumente	-10.7952
▁madrid	-10.7952
▁konkurs	-10.7952
▁oppløsning	-10.7952
▁slippe	-10.7952
▁contest	-10.7952
▁henrettelse	-10.7952
▁korrekt	-10.7952
▁langrenn	-10.7952
▁trengte	-10.7952
▁karbon	-10.7953
fast	-10.7953
▁tendens	-10.7953
▁elektronisk	-10.7953
▁middelhavet	-10.7953
▁serbisk	-10.7954
▁kronologisk	-10.7954
▁flytende	-10.7954
▁kongeriket	-10.7955
▁objekter	-10.7955
▁smelte	-10.7956
▁tilfeldig	-10.7961
▁forklart	-10.7962
▁eirik	-10.7966
▁rykte	-10.7983
▁undervist	-10.7994
utenriksminister	-10.8043
▁oversette	-10.8086
▁klage	-10.8093
▁erobre	-10.8106
instrument	-10.8111
▁utøve	-10.8119
programmer	-10.8122
▁islamsk	-10.8123
▁flykte	-10.8129
▁kirkegård	-10.8194
▁føle	-10.8226
▁hjelm	-10.8255
▁jomfru	-10.8255
▁krønike	-10.8255
▁ukrainsk	-10.8255
▁abraham	-10.8255
▁beleiring	-10.8255
▁anmelder	-10.8255
▁nøkkel	-10.8255
presentasjon	-10.8255
▁beatles	-10.8255
▁texas	-10.8255
▁stanley	-10.8255
▁kristus	-10.8255
▁utsikt	-10.8255
▁vakre	-10.8255
▁regulere	-10.8255
worth	-10.8255
▁nkp	-10.8255
▁heinri	-10.8256
▁innviet	-10.8257
▁forberede	-10.8257
▁bayern	-10.8257
▁clark	-10.8257
▁døpt	-10.8257
▁forståelse	-10.8257
▁alpene	-10.8258
▁samuel	-10.8258
planlegging	-10.8259
mekanisme	-10.8261
▁avgjørelse	-10.8264
▁bønn	-10.8265
▁datert	-10.8278
kvadrat	-10.8282
▁nederst	-10.8307
▁barneskole	-10.8319
▁tallrik	-10.8343
kål	-10.8385
▁minutt	-10.842
funksjon	-10.8424
flagg	-10.8425
aften	-10.8427
design	-10.8428
▁slange	-10.8428
▁fortelle	-10.8452
kjerne	-10.8452
▁hevn	-10.8498
▁døgn	-10.8534
▁vannkraft	-10.8545
kirk	-10.855
▁konsentrasjon	-10.8566
perspektiv	-10.8567
▁elizabeth	-10.8567
▁jugoslavia	-10.8567
▁konsekvens	-10.8567
▁konstantinopel	-10.8567
▁pennsylvania	-10.8567
▁pilegrim	-10.8567
▁hønefoss	-10.8567
▁midtøsten	-10.8567
▁taiwan	-10.8567
▁annonsert	-10.8567
▁hovedperson	-10.8567
▁pedersen	-10.8567
▁lewis	-10.8567
▁referert	-10.8567
▁statsborger	-10.8567
▁avviklet	-10.8568
▁central	-10.8568
dimensjon	-10.8568
▁trussel	-10.8568
▁undertegnet	-10.8568
▁brussel	-10.8568
▁innføring	-10.8568
▁russerne	-10.8568
statistikk	-10.8568
▁larvik	-10.8568
▁soldatene	-10.8568
▁avledet	-10.8568
▁separat	-10.8569
▁dvd	-10.8569
▁titler	-10.8569
▁mineral	-10.8569
▁poesi	-10.857
▁korpset	-10.857
▁svein	-10.8571
▁fremstille	-10.8571
▁action	-10.8572
▁keltisk	-10.8575
▁vinkel	-10.8578
▁sykdommen	-10.8579
▁moderat	-10.8581
kjennelse	-10.8583
▁fabrikken	-10.8584
nathan	-10.8597
▁tjent	-10.8599
ière	-10.8605
▁queen	-10.8614
krati	-10.8697
temperatur	-10.8746
sønn	-10.8747
sesongen	-10.875
▁koreansk	-10.8755
lignende	-10.8823
snegl	-10.8839
palasset	-10.8856
▁gyld	-10.8869
▁patric	-10.8871
▁dominere	-10.8887
▁basketball	-10.889
▁disiplin	-10.889
▁ferskvann	-10.889
▁mangfold	-10.889
▁trondhjem	-10.889
▁renessanse	-10.889
▁utslipp	-10.889
▁automatisk	-10.889
▁bystatus	-10.889
▁avslørt	-10.889
▁prince	-10.889
▁baptist	-10.889
▁fremtidig	-10.889
▁napoli	-10.889
▁opptreden	-10.889
▁grekerne	-10.889
▁lovgiv	-10.889
▁ulovlig	-10.889
▁senior	-10.889
▁charlott	-10.889
erklæring	-10.889
▁relatert	-10.8891
▁ørken	-10.8891
ев	-10.8891
▁gabriel	-10.8891
▁gratis	-10.8892
▁ektemann	-10.8892
▁tokyo	-10.8892
▁forlatt	-10.8892
thorax	-10.8892
▁massiv	-10.8892
▁dialog	-10.8896
▁styreleder	-10.8898
▁tørke	-10.8898
▁foregikk	-10.89
▁tjener	-10.8901
▁genetisk	-10.8904
kreditert	-10.8904
medlemmer	-10.8923
kledt	-10.897
▁styremedlem	-10.8997
▁asteroide	-10.9038
▁skuespillerinne	-10.9042
▁dukke	-10.9045
nevnte	-10.9073
▁domkirke	-10.9077
historiker	-10.9079
provins	-10.908
▁birg	-10.9144
▁drøm	-10.915
▁dynasti	-10.9153
▁ideologi	-10.9178
▁oppleve	-10.9189
opplevelse	-10.9192
tetthet	-10.9213
▁anthony	-10.9223
▁corporation	-10.9223
▁football	-10.9223
▁lincoln	-10.9223
▁ortodokse	-10.9223
▁prøyssisk	-10.9223
▁bachelor	-10.9223
▁cæsar	-10.9223
▁favoritt	-10.9223
▁ferdinand	-10.9223
▁illustrasjon	-10.9223
▁konstitusjon	-10.9223
▁angivelig	-10.9223
▁inspirasjon	-10.9223
▁nidaros	-10.9223
▁reaktor	-10.9223
▁hjort	-10.9223
▁høvding	-10.9223
▁forhånd	-10.9223
▁fødselsår	-10.9223
▁kontrast	-10.9223
▁igjennom	-10.9224
▁ålesund	-10.9224
▁haakon	-10.9224
ск	-10.9225
▁innvalgt	-10.9225
▁kristin	-10.9225
▁bbc	-10.9226
▁utgivelser	-10.9226
▁harvard	-10.9226
▁medvirket	-10.9226
▁persia	-10.9228
▁mistenk	-10.9229
▁frp	-10.9232
▁tillatt	-10.9233
▁alex	-10.9237
▁söd	-10.9248
misbruk	-10.9256
▁månen	-10.9256
▁trappe	-10.9264
▁jernbanestasjon	-10.9278
basseng	-10.9317
▁hytte	-10.9345
brenning	-10.9369
hytt	-10.9386
bibliotek	-10.9424
politiker	-10.9425
ledelse	-10.949
onrad	-10.9502
artikkel	-10.9531
▁undersøke	-10.9541
▁vokse	-10.9552
lokomotiv	-10.9568
▁arrangør	-10.9568
▁atmosfære	-10.9568
▁beliggenhet	-10.9568
▁frankfurt	-10.9568
▁jordskjelv	-10.9568
▁korrupsjon	-10.9568
▁musikkvideo	-10.9568
▁oksygen	-10.9568
▁popularitet	-10.9568
▁skandinavia	-10.9568
kommanderende	-10.9568
▁bjørk	-10.9568
▁country	-10.9568
▁fjellkjeden	-10.9568
▁invadert	-10.9568
▁progressiv	-10.9568
▁sympati	-10.9568
▁1879	-10.9568
▁latvia	-10.9568
▁operativsystem	-10.9568
▁stridsvogn	-10.9568
▁vertikal	-10.9568
▁vurdere	-10.9568
▁zhang	-10.9568
▁fantasy	-10.9568
▁margaret	-10.9568
▁moderniser	-10.9568
▁slapp	-10.9568
▁sandefjord	-10.9568
▁grün	-10.9568
▁kjøpmann	-10.9568
▁styrmann	-10.9569
▁nobelprisen	-10.9569
▁dream	-10.9569
▁uenighet	-10.9569
▁søsken	-10.9569
▁selvstyre	-10.9569
▁oppfordre	-10.9569
▁betydningsfull	-10.957
▁utforming	-10.957
▁embete	-10.9572
▁nyhets	-10.9574
▁bensin	-10.9575
▁fasade	-10.9575
▁skygge	-10.9579
▁smitte	-10.9583
sendinger	-10.9588
▁åndelig	-10.9599
▁federa	-10.9602
▁balanse	-10.9604
▁begynt	-10.9672
▁kallenavn	-10.9746
kontroll	-10.9782
interesse	-10.9782
transport	-10.9782
strøk	-10.9786
vogn	-10.979
station	-10.9796
mengde	-10.9802
svarte	-10.9832
▁fokusert	-10.9886
▁folkeavstemning	-10.9925
▁forfremme	-10.9925
▁fremtredende	-10.9925
▁gjøvik	-10.9925
▁integrert	-10.9925
▁kontroversiel	-10.9925
▁langrennsløper	-10.9925
▁magazine	-10.9925
▁psykisk	-10.9925
▁ptolemaios	-10.9925
▁skjult	-10.9925
▁society	-10.9925
▁windows	-10.9925
▁evakuer	-10.9925
▁bekjempe	-10.9925
▁hospital	-10.9925
▁øyeblikke	-10.9925
▁taylor	-10.9925
köping	-10.9925
▁dublin	-10.9925
▁forenklet	-10.9925
▁utbredelse	-10.9925
▁invitert	-10.9925
diagnose	-10.9925
▁systematisk	-10.9926
▁ronald	-10.9926
▁stadiet	-10.9926
oidea	-10.9926
▁betjene	-10.9926
▁delstats	-10.9926
apotek	-10.9927
▁fangst	-10.9928
▁blomstre	-10.9928
skildring	-10.993
rettighetene	-10.9932
▁prosti	-10.9932
▁gripe	-10.9933
komite	-10.9939
▁innstifte	-10.9945
kirch	-10.9954
schaft	-10.9963
chuan	-10.9983
nnom	-11.0061
jønn	-11.0093
åpne	-11.0098
dynastiet	-11.0152
institutt	-11.0152
tradisjon	-11.0152
sentrum	-11.0153
spiss	-11.018
▁stevn	-11.02
bragt	-11.0247
▁voldsom	-11.0278
konservativ	-11.0285
▁absolutt	-11.0295
▁ekspansjon	-11.0295
▁engasjement	-11.0295
▁habsburg	-11.0295
▁væpne	-11.0295
▁åpningsseremoni	-11.0295
▁identifisere	-11.0295
▁innendørs	-11.0295
▁låtskriver	-11.0295
▁metamorf	-11.0295
▁napoleon	-11.0295
▁symfoni	-11.0295
▁ukraina	-11.0295
▁vurdert	-11.0295
▁kommandant	-11.0295
▁libanon	-11.0295
▁matematisk	-11.0295
▁opprettholde	-11.0295
▁romerriket	-11.0296
▁franskmennene	-11.0296
▁giovann	-11.0296
▁søndre	-11.0296
▁grammy	-11.0296
▁wright	-11.0296
▁komplett	-11.0296
▁stimul	-11.0296
▁benedikt	-11.0296
▁barnehage	-11.0296
▁germansk	-11.0296
▁flukt	-11.0296
materiell	-11.0297
▁stortingsvalge	-11.0297
▁erstatning	-11.0298
mønstre	-11.0298
gjald	-11.0298
▁forklaring	-11.0301
▁pioner	-11.0301
▁støv	-11.0301
▁oppfølger	-11.0301
▁arrest	-11.0304
▁vinterleke	-11.0307
▁stedsnavn	-11.0308
skriving	-11.031
▁identisk	-11.0315
▁rederi	-11.0316
▁syklist	-11.0317
▁pleie	-11.0329
▁ferie	-11.0469
vennlig	-11.0534
kloster	-11.0536
forskjell	-11.0536
offiser	-11.0536
likevel	-11.0537
bombe	-11.0586
▁douglas	-11.068
▁etiopia	-11.068
▁instruksjon	-11.068
▁kapittel	-11.068
▁kvartfinale	-11.068
▁ludwig	-11.068
▁luxembourg	-11.068
▁napoléon	-11.068
▁republikansk	-11.068
▁reservoar	-11.068
▁tsjekkia	-11.068
▁avslutning	-11.068
▁diagnosti	-11.068
▁alpinist	-11.068
▁grieg	-11.068
▁trommeslager	-11.068
▁prestisje	-11.068
▁frimurer	-11.068
▁trykt	-11.068
▁ordinær	-11.068
▁fiktiv	-11.068
▁sjeldne	-11.068
▁umulig	-11.0681
▁tverrbånd	-11.0681
▁firenze	-11.0681
▁apollo	-11.0681
kobling	-11.0681
▁nymfe	-11.0681
▁galakse	-11.0681
▁senterpartiet	-11.0681
▁gråbrun	-11.0681
samfund	-11.0682
▁harrison	-11.0682
▁omsetning	-11.0682
▁rapper	-11.0683
▁spirit	-11.0683
▁profet	-11.0685
▁splitte	-11.0688
work	-11.0701
▁søyle	-11.071
▁hertugdømme	-11.072
▁sokn	-11.0727
▁utforme	-11.0739
flyvning	-11.0776
amerikanere	-11.0801
stryk	-11.0806
▁eksempl	-11.0932
gruppa	-11.0933
størrelse	-11.0937
resultat	-11.0937
teknologi	-11.0938
blanding	-11.0938
kvinne	-11.0949
leigh	-11.0954
provinshovedstad	-11.108
▁ammunisjon	-11.108
▁avskaffet	-11.108
▁frilufts	-11.108
▁hollywood	-11.108
▁holometabol	-11.108
▁innsbruck	-11.108
▁kjæreste	-11.108
▁konkludert	-11.108
▁leipzig	-11.108
▁makedonia	-11.108
▁sarpsborg	-11.108
▁stjørdal	-11.108
▁sykepleier	-11.108
▁vedkommende	-11.108
▁venezuela	-11.108
▁ektefelle	-11.108
▁filippinene	-11.108
▁forutsetning	-11.108
▁konkurrent	-11.108
▁meteorologi	-11.108
▁resolusjon	-11.108
▁tilnærming	-11.108
▁besittelse	-11.108
▁oppfinnelse	-11.108
▁antakelig	-11.108
▁primitiv	-11.108
▁sogneprest	-11.108
▁fiction	-11.108
▁belønning	-11.108
▁fredsavtale	-11.108
▁skroget	-11.108
▁følte	-11.108
leksikon	-11.108
▁secret	-11.108
▁kortvarig	-11.108
▁snorre	-11.108
platået	-11.108
▁protestantisk	-11.108
▁cappelen	-11.108
▁krypt	-11.108
▁triumf	-11.108
▁hebei	-11.1081
▁social	-11.1081
▁bønder	-11.1081
▁spøk	-11.1081
▁muhamm	-11.1081
betjent	-11.1083
sediment	-11.1084
▁väst	-11.1084
▁forandring	-11.1085
▁sørligst	-11.1086
▁knust	-11.1086
▁verdslig	-11.1086
▁isolert	-11.1087
▁spurt	-11.1088
▁operert	-11.1093
▁circ	-11.1095
▁havneby	-11.1126
▁bosette	-11.1291
fotball	-11.1354
▁hendelse	-11.1375
▁utarbeide	-11.1475
▁administrert	-11.1497
▁business	-11.1497
▁depresjon	-11.1497
▁fjorten	-11.1497
▁guddommelig	-11.1497
▁heidelberg	-11.1497
▁indonesia	-11.1497
▁legendarisk	-11.1497
▁matematiker	-11.1497
▁melbourne	-11.1497
▁oppvarming	-11.1497
▁restaurert	-11.1497
▁singapore	-11.1497
▁territorium	-11.1497
▁wergeland	-11.1497
▁evolusjon	-11.1497
▁garnison	-11.1497
▁kongsvinger	-11.1497
▁jacque	-11.1497
▁drivstoff	-11.1497
▁litauen	-11.1497
▁kristoffer	-11.1497
▁kommunistparti	-11.1497
▁våtmark	-11.1497
▁skihopper	-11.1497
patrulje	-11.1497
▁bolivia	-11.1497
▁amatør	-11.1497
▁pianist	-11.1497
▁langvarig	-11.1497
▁arsenal	-11.1497
▁sosiologi	-11.1497
ference	-11.1497
▁betaling	-11.1498
spennende	-11.1499
▁tolkning	-11.1499
▁kommentert	-11.1499
▁omstridt	-11.1499
▁befal	-11.1503
▁finansiere	-11.1503
▁snare	-11.1521
▁planlegge	-11.1526
grund	-11.154
hampton	-11.1549
prinsippet	-11.1629
konsulent	-11.1722
sykling	-11.1782
betegnelse	-11.1787
redaktør	-11.1788
opprør	-11.179
sentral	-11.179
▁vassdrag	-11.1833
medlemmene	-11.185
▁athletic	-11.1932
▁atlanterhavet	-11.1932
▁billedhugger	-11.1932
▁eksplosjon	-11.1932
▁ekteparet	-11.1932
▁fundament	-11.1932
▁helikopter	-11.1932
▁hiphop	-11.1932
▁intellektuell	-11.1932
▁mccartney	-11.1932
▁meksikansk	-11.1932
▁michigan	-11.1932
▁overraskende	-11.1932
▁petroleum	-11.1932
▁publikasjon	-11.1932
▁rekruttert	-11.1932
▁sebastian	-11.1932
▁skvadron	-11.1932
▁uteksaminer	-11.1932
▁innvilge	-11.1932
▁lofoten	-11.1932
▁vatikan	-11.1932
▁airlines	-11.1932
▁arbeidsgiver	-11.1932
▁oppfatning	-11.1932
▁sørafrikansk	-11.1932
▁veksel	-11.1932
jubileet	-11.1932
▁africa	-11.1932
▁forfatning	-11.1932
▁utdødd	-11.1932
▁atlanta	-11.1932
▁bebodd	-11.1932
▁lennon	-11.1932
▁serbia	-11.1932
▁sophie	-11.1932
▁rhinen	-11.1932
▁monroe	-11.1933
▁veksle	-11.1933
ensemble	-11.1933
▁talsmann	-11.1933
▁first	-11.1934
▁veteran	-11.1934
▁stefan	-11.1934
▁temple	-11.1935
▁kurdisk	-11.1935
▁presentere	-11.1937
▁magnetisk	-11.1943
▁rifle	-11.195
▁lomme	-11.1962
fjø	-11.2029
oppsetning	-11.2088
▁ivareta	-11.2138
grunnsstasjon	-11.2203
kommando	-11.2242
ingeniør	-11.2242
kvalitet	-11.2242
inntekt	-11.2243
▁forekomme	-11.2294
▁resid	-11.2369
▁storslalåm	-11.2386
demonstrasjon	-11.2386
distribusjon	-11.2386
▁bataljon	-11.2386
▁broadway	-11.2386
▁innvandrer	-11.2386
▁interessant	-11.2386
▁koalisjon	-11.2386
▁kontinuerlig	-11.2386
▁microsoft	-11.2386
▁middelhavs	-11.2386
▁parallelt	-11.2386
▁pyramid	-11.2386
▁terningkast	-11.2386
▁benjamin	-11.2386
▁rehabiliter	-11.2386
▁utendørs	-11.2386
▁mandsju	-11.2386
▁søknad	-11.2386
▁forbedring	-11.2386
▁jupiter	-11.2386
▁minimum	-11.2386
▁utstrakt	-11.2386
▁amundsen	-11.2386
▁square	-11.2386
▁annerledes	-11.2386
▁opphørte	-11.2386
▁avstemning	-11.2386
▁ringerike	-11.2386
▁forfedre	-11.2386
▁avsløre	-11.2386
▁seoul	-11.2387
▁beleire	-11.2387
0	-12.6006
