<unk>	0
<s>	0
</s>	0
.	-3.2652
e	-3.52007
s	-3.54104
▁i	-3.63406
▁og	-3.91252
t	-3.99148
▁	-4.10143
en	-4.12145
er	-4.16814
▁av	-4.41726
r	-4.53332
▁er	-4.58667
▁en	-4.6168
▁som	-4.6583
▁til	-4.77507
▁for	-4.78828
▁på	-4.86918
n	-4.94522
et	-4.9979
▁med	-5.00084
▁den	-5.07273
▁ble	-5.12808
▁var	-5.22624
▁det	-5.23715
▁de	-5.26943
▁fra	-5.39558
a	-5.44167
▁å	-5.50238
▁han	-5.51089
▁har	-5.57774
▁et	-5.58177
ene	-5.61617
ne	-5.87438
d	-5.89107
i	-5.89715
▁at	-5.93656
▁ved	-5.9551
k	-6.04502
o	-6.10268
▁om	-6.11057
y	-6.12742
▁også	-6.13797
▁etter	-6.14174
g	-6.1654
▁ut	-6.2726
m	-6.29147
▁under	-6.29602
l	-6.31936
de	-6.33141
▁s	-6.36092
▁men	-6.36287
te	-6.40088
h	-6.42372
▁eller	-6.43881
▁over	-6.44219
re	-6.46469
▁opp	-6.46786
u	-6.47444
▁kan	-6.48086
▁to	-6.49091
▁inn	-6.49719
▁seg	-6.50351
▁hadde	-6.51382
▁da	-6.56243
f	-6.57736
v	-6.61636
ing	-6.61996
p	-6.62699
▁be	-6.62917
▁ikke	-6.65656
in	-6.67959
▁mot	-6.71275
▁andre	-6.71475
▁18	-6.72462
an	-6.73783
us	-6.74197
▁a	-6.75898
▁sin	-6.75932
le	-6.77536
c	-6.81356
▁1	-6.83429
▁mellom	-6.84437
▁født	-6.85038
▁første	-6.85749
▁hun	-6.87858
▁dette	-6.88054
sk	-6.88872
al	-6.90772
ende	-6.92435
b	-6.93722
na	-6.93938
ia	-6.95746
▁hans	-6.96398
▁ha	-6.96677
▁tre	-6.98099
on	-6.99473
▁the	-7.00691
▁f	-7.01015
la	-7.02645
▁c	-7.02746
ar	-7.04941
ter	-7.06837
▁blan	-7.08622
▁fikk	-7.09446
▁der	-7.10538
▁m	-7.10689
▁sammen	-7.11433
is	-7.12696
▁u	-7.12983
z	-7.13536
▁man	-7.13768
▁år	-7.14289
ch	-7.15659
▁nord	-7.17212
▁2	-7.18458
w	-7.18776
▁hvor	-7.19042
▁denne	-7.19433
▁ligger	-7.19536
▁flere	-7.20381
j	-7.21488
▁alle	-7.2217
▁la	-7.22753
▁kom	-7.24853
ri	-7.25869
ta	-7.26075
▁se	-7.26797
land	-7.27374
um	-7.27694
nde	-7.28695
▁nå	-7.28793
▁ca	-7.29756
▁b	-7.29891
▁17	-7.30827
▁al	-7.31198
▁re	-7.32349
iske	-7.32408
lig	-7.33171
ma	-7.33583
▁k	-7.338
or	-7.34736
der	-7.34844
▁g	-7.34878
be	-7.35031
▁p	-7.35534
▁an	-7.3591
ø	-7.36654
▁før	-7.36815
▁3	-7.37156
▁her	-7.3727
ens	-7.38085
ra	-7.38123
▁gjennom	-7.38384
ver	-7.39309
ck	-7.39688
▁stor	-7.40095
▁så	-7.40284
øy	-7.40285
▁del	-7.41078
▁død	-7.41886
▁of	-7.42369
▁d	-7.4315
li	-7.43703
ke	-7.44378
x	-7.45092
▁norsk	-7.45645
ske	-7.46008
ur	-7.46071
▁ny	-7.46277
▁mer	-7.46438
nes	-7.47055
os	-7.47232
di	-7.47823
ler	-7.4783
ist	-7.47898
▁blir	-7.47929
▁tidligere	-7.48222
kt	-7.48233
▁mange	-7.49261
▁senere	-7.49264
▁5	-7.4938
▁noen	-7.4946
da	-7.51137
▁h	-7.51645
isk	-7.51651
for	-7.52263
id	-7.52326
▁byen	-7.53009
vis	-7.53237
il	-7.53549
▁kommune	-7.53691
ng	-7.54186
▁annet	-7.54224
ry	-7.54732
▁disse	-7.54746
th	-7.55173
ff	-7.5655
▁kr	-7.56571
▁selv	-7.57228
lo	-7.57586
▁4	-7.58451
▁være	-7.58661
▁16	-7.58882
▁bo	-7.59691
▁sitt	-7.59951
▁siden	-7.60483
as	-7.60558
▁15	-7.61324
ut	-7.61347
▁ro	-7.61785
▁vi	-7.62117
▁mens	-7.62196
▁sa	-7.62788
▁tallet	-7.63281
ning	-7.63472
lige	-7.64225
▁sør	-7.64613
▁ba	-7.65113
ol	-7.65465
▁st	-7.65497
ig	-7.6588
▁land	-7.65882
▁by	-7.66308
it	-7.66509
ve	-7.66751
▁ta	-7.66777
▁t	-7.66898
▁pi	-7.66941
ce	-7.67261
den	-7.67344
erte	-7.67427
▁ga	-7.67824
▁store	-7.68163
é	-7.6817
ner	-7.68177
ga	-7.68723
▁norge	-7.69015
▁10	-7.69354
▁kjent	-7.69646
▁frem	-7.70615
vi	-7.70823
dal	-7.71017
ad	-7.7103
bo	-7.71272
▁n	-7.71513
▁l	-7.71844
ste	-7.72646
▁vil	-7.72694
stad	-7.73164
mo	-7.73347
ul	-7.7351
▁øst	-7.73868
ton	-7.73906
▁samme	-7.74208
▁di	-7.74446
▁rundt	-7.74578
at	-7.75019
▁ned	-7.75707
el	-7.7573
▁vært	-7.76366
▁vest	-7.76506
▁hoved	-7.76771
▁dag	-7.77442
ker	-7.77494
▁blit	-7.7788
▁slik	-7.78064
son	-7.78387
ro	-7.79423
▁ra	-7.79601
▁6	-7.79784
kk	-7.79911
man	-7.80038
ja	-7.80135
▁sine	-7.80531
▁enn	-7.809
▁o	-7.80909
ge	-7.81291
▁v	-7.81331
▁ol	-7.81794
erne	-7.81913
▁le	-7.82194
▁sk	-7.82446
by	-7.82571
▁ofte	-7.82649
▁he	-7.8273
▁navnet	-7.82827
mi	-7.83005
▁ar	-7.83055
▁finnes	-7.83505
▁båd	-7.83796
ger	-7.83818
å	-7.84134
▁ni	-7.84154
het	-7.84226
ic	-7.84314
ha	-7.84839
ka	-7.85097
▁navn	-7.85278
berg	-7.85402
skap	-7.85493
▁mest	-7.8573
▁tid	-7.86037
▁kunne	-7.86065
▁per	-7.86183
▁j	-7.87124
▁norske	-7.87492
▁ka	-7.88047
▁si	-7.8832
▁skal	-7.88502
▁8	-7.88748
▁gikk	-7.88941
▁7	-7.89054
▁mai	-7.89093
co	-7.89469
▁as	-7.89613
▁fly	-7.89897
▁grunn	-7.89922
▁li	-7.90021
ling	-7.90112
▁bak	-7.90487
bu	-7.90564
▁du	-7.90706
am	-7.91144
▁co	-7.91246
▁km	-7.91583
om	-7.91785
▁mars	-7.91964
▁lo	-7.92161
ør	-7.92311
rett	-7.92343
asjon	-7.92438
▁fri	-7.92463
kke	-7.92469
▁noe	-7.92757
else	-7.9287
▁na	-7.93662
sa	-7.93688
va	-7.93723
ven	-7.93794
▁vant	-7.93851
▁ti	-7.94164
▁12	-7.94262
▁lag	-7.94296
me	-7.9487
▁bu	-7.94961
▁skulle	-7.9501
ud	-7.95022
▁fire	-7.95033
▁nye	-7.95362
un	-7.95573
ik	-7.95675
▁fram	-7.95695
tter	-7.95789
gi	-7.95797
mann	-7.95824
▁11	-7.95973
gen	-7.96117
▁januar	-7.96505
▁14	-7.9667
▁mo	-7.96739
▁kon	-7.97933
mer	-7.98139
▁lang	-7.98252
▁august	-7.98363
ba	-7.98421
▁sp	-7.98565
to	-7.98673
▁kalt	-7.99905
▁mar	-7.99935
▁far	-7.99945
▁w	-8.00233
ell	-8.00592
ment	-8.00671
▁9	-8.00735
▁samt	-8.00825
▁går	-8.0088
▁hos	-8.00924
▁ham	-8.00984
▁pa	-8.01182
▁meter	-8.0126
pp	-8.01503
▁tok	-8.01664
▁gi	-8.01694
▁kirke	-8.01871
ä	-8.02287
▁oslo	-8.02387
▁ri	-8.02577
pe	-8.02855
▁bare	-8.03105
▁bi	-8.03288
do	-8.03669
si	-8.03821
▁hele	-8.0386
vik	-8.03882
▁ho	-8.04883
op	-8.04887
år	-8.04898
▁største	-8.05111
▁13	-8.05854
ær	-8.06039
je	-8.06336
▁tilbake	-8.06349
▁bar	-8.06696
ster	-8.06723
ru	-8.07325
ed	-8.07364
av	-8.07907
ard	-8.08237
▁ru	-8.08249
▁dem	-8.08395
1	-8.08529
bar	-8.08649
▁or	-8.08891
ll	-8.09059
var	-8.0924
æ	-8.09374
nd	-8.0963
ingen	-8.09833
▁gang	-8.09933
▁in	-8.10452
▁pe	-8.10558
▁mål	-8.10577
▁su	-8.11062
▁juli	-8.12408
▁skole	-8.12714
bi	-8.12729
▁ei	-8.12913
ion	-8.13333
▁området	-8.1407
opp	-8.14621
▁rett	-8.14874
ns	-8.15086
ina	-8.15156
del	-8.15428
▁få	-8.15438
▁deres	-8.15451
au	-8.15482
▁000	-8.15678
▁20	-8.15948
▁mor	-8.15954
ring	-8.16357
ok	-8.16511
á	-8.1657
▁gjen	-8.16625
▁tro	-8.16744
ti	-8.17255
ov	-8.17317
sel	-8.174
▁alt	-8.17533
▁bli	-8.1759
▁usa	-8.17676
▁uten	-8.17738
▁pro	-8.17814
▁juni	-8.17832
io	-8.17967
▁po	-8.18173
tal	-8.18213
tre	-8.18405
▁fa	-8.18426
▁hu	-8.18446
im	-8.18858
lag	-8.18898
▁and	-8.18983
▁utgitt	-8.19001
go	-8.19174
▁siste	-8.19416
gang	-8.19586
ö	-8.19709
▁oktober	-8.19765
▁film	-8.19769
▁el	-8.19939
▁do	-8.1998
ho	-8.20302
▁april	-8.20401
▁videre	-8.20417
sta	-8.20595
tur	-8.20599
▁te	-8.20787
mp	-8.20879
▁r	-8.20885
▁vann	-8.20912
2	-8.21165
▁2008	-8.21263
▁igjen	-8.21477
ier	-8.21747
ca	-8.21996
▁am	-8.22485
▁no	-8.22529
▁eks	-8.22552
lu	-8.22952
▁bestå	-8.23305
▁jo	-8.24049
▁september	-8.24081
▁so	-8.24301
len	-8.24503
ering	-8.24857
ant	-8.24974
▁sol	-8.24989
▁laget	-8.25317
▁ma	-8.25643
▁leder	-8.25678
▁rekke	-8.2593
siden	-8.2597
▁musikk	-8.2607
▁desember	-8.2631
▁nær	-8.26342
men	-8.26733
▁me	-8.2676
▁kina	-8.27
▁mat	-8.2733
▁tillegg	-8.27383
pa	-8.27574
per	-8.27897
no	-8.28241
▁først	-8.28444
▁2007	-8.28601
ans	-8.2925
▁eksempel	-8.29286
midlertid	-8.29288
▁2010	-8.29529
▁gu	-8.29646
▁0	-8.29659
sjon	-8.30077
att	-8.30285
▁y	-8.30496
▁sønn	-8.30558
▁februar	-8.30689
sh	-8.30713
hold	-8.31125
00	-8.3122
▁lu	-8.31464
▁bruk	-8.31501
▁mindre	-8.31647
▁like	-8.31873
les	-8.32035
▁helt	-8.32057
▁folke	-8.32105
▁året	-8.32175
▁november	-8.32592
▁tor	-8.32689
▁spilte	-8.32843
tan	-8.32892
ni	-8.32979
▁brukes	-8.32984
▁kinesisk	-8.33074
▁kultur	-8.34063
▁tv	-8.34143
▁innen	-8.3451
▁landet	-8.34519
▁kunst	-8.34572
lse	-8.34667
▁hennes	-8.34789
▁små	-8.34934
▁30	-8.35339
ly	-8.35874
ings	-8.35887
▁new	-8.36146
iv	-8.36386
isert	-8.36453
▁internasjonal	-8.36759
lin	-8.36762
min	-8.36829
▁ju	-8.37116
ang	-8.37164
▁høy	-8.37235
▁spiller	-8.37304
▁årene	-8.37436
▁tra	-8.37442
▁satt	-8.37494
▁må	-8.37588
▁fem	-8.37694
ü	-8.37765
▁par	-8.37822
tiv	-8.37861
▁ko	-8.37982
itt	-8.38059
ium	-8.38065
▁ge	-8.38246
▁lov	-8.38256
▁sam	-8.38353
▁hver	-8.38568
fa	-8.38774
ag	-8.38783
▁ad	-8.38932
▁form	-8.38995
▁egen	-8.39116
▁tri	-8.39395
ko	-8.39745
form	-8.39921
ede	-8.40065
▁russisk	-8.40333
dan	-8.40373
▁langs	-8.4048
▁bra	-8.40481
▁mi	-8.40562
elle	-8.40594
art	-8.40662
▁gift	-8.40737
▁begynte	-8.40749
▁lys	-8.40781
und	-8.41079
▁kun	-8.4119
▁kommer	-8.41389
▁2009	-8.41636
▁brukt	-8.4203
▁kong	-8.42093
▁bl	-8.42153
▁skrev	-8.42239
▁startet	-8.42279
stand	-8.42328
po	-8.42709
▁ski	-8.42894
▁x	-8.42954
tak	-8.4301
od	-8.43738
▁2006	-8.43768
▁lå	-8.43821
▁ne	-8.439
hus	-8.43943
ikk	-8.43944
▁hus	-8.43993
hu	-8.44069
▁vei	-8.44252
▁liv	-8.44285
ci	-8.444
løp	-8.44418
ie	-8.44441
▁bok	-8.44742
▁derfor	-8.44795
3	-8.44852
▁ville	-8.44906
▁tiden	-8.44945
▁fast	-8.45039
rede	-8.45207
▁opprinnelig	-8.4538
over	-8.45482
ot	-8.45547
▁gruppen	-8.45611
▁særlig	-8.45672
gg	-8.46156
▁gamle	-8.46203
sted	-8.46478
▁europa	-8.46563
▁gud	-8.46776
ham	-8.46845
▁sch	-8.46934
▁ulike	-8.47232
▁begge	-8.47373
▁filmen	-8.47632
▁go	-8.4764
▁fo	-8.47652
tra	-8.47662
ty	-8.47766
ber	-8.4781
▁john	-8.48393
ius	-8.4841
▁z	-8.48694
ken	-8.48699
ord	-8.49007
▁ak	-8.49202
▁president	-8.49237
▁kalles	-8.49453
▁bandet	-8.49502
ir	-8.49883
▁ja	-8.49901
▁deltok	-8.50204
ku	-8.50282
▁døde	-8.50318
itet	-8.50758
▁plass	-8.50783
satt	-8.50926
▁innbyggere	-8.50993
▁forskjellig	-8.50995
inn	-8.51005
▁større	-8.51429
▁va	-8.51614
▁beste	-8.51615
▁con	-8.51695
▁mye	-8.51845
▁th	-8.52049
▁sommer	-8.52323
▁sand	-8.52468
dd	-8.52636
▁mag	-8.52723
▁barn	-8.52773
▁deretter	-8.52789
▁tyskland	-8.52898
▁medlem	-8.5296
▁svær	-8.5319
▁sjø	-8.53317
▁2011	-8.53335
verk	-8.53382
▁nest	-8.534
gel	-8.53768
ft	-8.53853
pi	-8.53864
▁ab	-8.53894
▁ty	-8.54073
▁parti	-8.54153
▁tyske	-8.54568
▁car	-8.54645
dag	-8.54966
▁bil	-8.55435
▁provinsen	-8.55612
▁syn	-8.55619
5	-8.55639
ny	-8.55822
følge	-8.55866
if	-8.55934
▁fi	-8.55988
▁2005	-8.56039
sp	-8.56141
ou	-8.56295
mb	-8.56367
▁min	-8.56409
▁amerikansk	-8.56411
▁pu	-8.56472
▁san	-8.56654
▁all	-8.56701
▁god	-8.56765
ningen	-8.56783
▁språk	-8.5695
slag	-8.5695
elsen	-8.57102
▁skrevet	-8.57119
▁albumet	-8.57337
bb	-8.5773
isme	-8.57861
▁gjorde	-8.58385
▁dagen	-8.58433
▁25	-8.58838
▁grav	-8.58906
▁hi	-8.59008
let	-8.5913
▁norges	-8.59483
ige	-8.59761
▁bro	-8.59809
▁etablert	-8.60048
▁fjell	-8.60083
ak	-8.60091
mor	-8.60246
lands	-8.60251
ley	-8.60252
ighet	-8.60422
▁fleste	-8.60454
▁amerikanske	-8.60768
▁verdens	-8.60872
tok	-8.60879
▁samtidig	-8.61001
ian	-8.61049
tte	-8.61112
▁konge	-8.61297
▁gir	-8.61524
vo	-8.61641
▁tidlig	-8.62063
▁seks	-8.62173
tten	-8.62194
▁hel	-8.62232
stein	-8.6235
▁tysk	-8.62408
sten	-8.62623
▁måtte	-8.62637
ong	-8.62649
ære	-8.62741
▁ingen	-8.62848
▁dermed	-8.62977
tid	-8.63158
ron	-8.63874
▁pre	-8.64003
▁øy	-8.64007
ator	-8.64041
mar	-8.64104
nk	-8.64202
za	-8.64321
ninger	-8.64469
▁nor	-8.64549
▁fu	-8.64596
▁engelsk	-8.64639
▁hen	-8.64773
ld	-8.6482
▁bergen	-8.64909
▁2004	-8.64912
▁lokal	-8.64957
▁sett	-8.6499
▁selskapet	-8.65023
▁kort	-8.65181
ister	-8.65198
▁kjente	-8.65286
ph	-8.65408
met	-8.65982
ek	-8.66008
▁em	-8.66188
tor	-8.66543
▁stein	-8.66614
▁verk	-8.66672
▁fred	-8.6717
▁sted	-8.67317
tro	-8.67458
burg	-8.67566
▁arbeidet	-8.67624
▁kor	-8.67721
▁kv	-8.67808
est	-8.68352
ki	-8.68444
til	-8.6854
ac	-8.68618
vin	-8.68626
▁bygget	-8.68674
ju	-8.68822
▁annen	-8.69029
uk	-8.69032
▁sto	-8.69081
tiden	-8.6909
▁plan	-8.69213
ya	-8.69266
kan	-8.69555
elt	-8.69699
▁hvert	-8.69757
bel	-8.69881
▁my	-8.69939
borg	-8.70093
▁24	-8.70112
ich	-8.70223
val	-8.70284
▁general	-8.70358
▁person	-8.70727
▁motor	-8.70793
kel	-8.70851
vei	-8.70908
so	-8.70988
yl	-8.71106
elig	-8.71228
▁jord	-8.71252
▁ren	-8.71263
▁fotball	-8.71303
ting	-8.71434
▁dr	-8.71557
▁deler	-8.7163
▁side	-8.71721
▁2002	-8.71783
▁ver	-8.71976
ys	-8.72029
▁stort	-8.72137
tes	-8.72205
▁lever	-8.72281
▁vis	-8.72346
fjorden	-8.72453
▁kommunen	-8.72469
▁støtte	-8.72486
tiske	-8.72559
▁mark	-8.72582
▁stedet	-8.72615
▁sv	-8.72631
mål	-8.7281
▁frankrike	-8.72842
ksjon	-8.72855
▁wa	-8.72856
isering	-8.73079
bil	-8.73133
ug	-8.73134
▁luft	-8.7323
▁grad	-8.73269
▁ki	-8.73314
øya	-8.73316
dy	-8.73339
ow	-8.7339
ill	-8.73681
▁nasjonal	-8.7372
▁wi	-8.73808
▁styre	-8.73821
▁2000	-8.73967
tisk	-8.73981
wa	-8.74027
▁fag	-8.74041
▁19	-8.74061
▁klubben	-8.7421
▁fylke	-8.74239
inger	-8.74279
fer	-8.74417
par	-8.74454
▁vise	-8.74548
▁sverige	-8.74653
▁stat	-8.74777
▁radio	-8.74927
lser	-8.75065
du	-8.7516
▁mulig	-8.75248
▁fordi	-8.75324
▁spilt	-8.75369
▁hol	-8.7551
▁berg	-8.75528
▁22	-8.75671
▁sal	-8.75711
▁ord	-8.75721
▁100	-8.75746
▁gammel	-8.75764
mme	-8.7586
hi	-8.75959
kon	-8.75983
jø	-8.76011
ine	-8.76023
▁bru	-8.76133
▁gul	-8.7649
▁fransk	-8.76535
▁midt	-8.76871
▁rom	-8.76951
▁ganger	-8.77041
▁tar	-8.77132
▁står	-8.77244
▁ur	-8.77508
▁kal	-8.77538
▁slutt	-8.77573
ble	-8.77595
lot	-8.77673
▁rød	-8.77787
▁pla	-8.77986
sj	-8.77998
▁val	-8.78331
▁dikt	-8.78376
▁olympisk	-8.78541
▁perioden	-8.78565
▁gre	-8.78813
mon	-8.78925
▁op	-8.78965
bl	-8.78966
▁vanligvis	-8.79177
▁roman	-8.79194
▁innenfor	-8.79232
▁art	-8.79298
▁sangen	-8.79332
▁inneholde	-8.7953
í	-8.79601
▁on	-8.79635
▁gitt	-8.79704
▁tatt	-8.79755
▁ben	-8.79791
sch	-8.798
middel	-8.79876
▁forfatter	-8.79999
▁millioner	-8.8013
▁nytt	-8.8028
▁spesielt	-8.80291
▁kar	-8.80349
kom	-8.80386
▁antall	-8.80458
4	-8.80501
▁basert	-8.80717
dig	-8.81038
bruk	-8.81083
▁sentral	-8.81205
spill	-8.81221
ation	-8.81283
▁svensk	-8.81376
▁tredje	-8.81406
▁nett	-8.8147
vet	-8.81573
kul	-8.81709
så	-8.81869
▁utenfor	-8.81965
anske	-8.82074
ó	-8.82196
▁bre	-8.82213
▁offentlig	-8.82244
leder	-8.82287
▁ten	-8.82417
rik	-8.8251
rå	-8.82761
▁2001	-8.83067
pre	-8.83103
rø	-8.83245
▁gull	-8.83297
▁mu	-8.83496
▁sesongen	-8.83563
landet	-8.83595
mark	-8.83712
▁london	-8.83835
▁pan	-8.8385
▁øya	-8.83854
▁gjerne	-8.83932
▁fant	-8.84215
fly	-8.84272
▁serien	-8.84386
▁halv	-8.84419
▁hav	-8.84419
▁cha	-8.8452
▁ch	-8.84659
▁britiske	-8.84927
▁valg	-8.85092
heim	-8.85185
fi	-8.85189
bok	-8.85265
▁viser	-8.85285
and	-8.85407
dom	-8.85833
net	-8.85836
▁betyr	-8.85861
▁2003	-8.85874
▁verden	-8.85989
▁natur	-8.86009
res	-8.86016
ach	-8.86017
▁familie	-8.86229
▁delstaten	-8.8629
▁pr	-8.86369
værende	-8.86426
▁vinter	-8.8678
bre	-8.86815
▁band	-8.86835
pper	-8.86973
ab	-8.8702
а	-8.8707
▁27	-8.87086
▁produsert	-8.87099
▁datter	-8.8745
▁farge	-8.87454
dalen	-8.8754
samling	-8.87571
▁kur	-8.87647
tar	-8.87671
leg	-8.87671
ks	-8.87755
yk	-8.87847
organisasjon	-8.87876
ung	-8.881
▁rø	-8.88105
▁tur	-8.88207
isere	-8.88338
▁omkring	-8.88345
▁1999	-8.8835
▁england	-8.88363
▁mel	-8.88416
▁ku	-8.88454
▁von	-8.88683
em	-8.88761
▁langt	-8.88829
føring	-8.88956
▁26	-8.89056
▁lett	-8.8912
▁21	-8.89235
dre	-8.89396
▁christian	-8.89619
kamp	-8.8964
▁handels	-8.89682
pl	-8.89724
log	-8.89731
▁krigen	-8.8982
▁pave	-8.899
▁vel	-8.89927
▁com	-8.89974
▁hal	-8.90003
fe	-8.90058
sti	-8.90272
og	-8.9051
▁løpet	-8.9051
▁van	-8.90552
sto	-8.90756
▁fortsatt	-8.9096
▁gjør	-8.90996
skip	-8.91079
▁bror	-8.91179
▁spille	-8.91259
zi	-8.91292
▁post	-8.91321
▁1990	-8.91332
ight	-8.91337
▁gruppe	-8.91594
▁fin	-8.91715
▁sendt	-8.91783
▁skog	-8.91953
▁arbeids	-8.91962
▁førte	-8.91962
▁anti	-8.91988
▁viktig	-8.92055
▁bor	-8.9215
ding	-8.92174
▁familien	-8.92216
▁rock	-8.92428
▁ed	-8.92513
▁fre	-8.92579
▁full	-8.92689
▁litt	-8.92848
dyr	-8.9288
fra	-8.92919
▁lange	-8.93046
▁kn	-8.93062
▁lik	-8.93071
▁chi	-8.93074
▁paul	-8.93287
nings	-8.93353
vann	-8.93484
▁såkalt	-8.93509
stilling	-8.93533
che	-8.9362
▁øk	-8.93641
▁ag	-8.93646
▁ras	-8.93673
▁aktiv	-8.93685
▁eneste	-8.9369
my	-8.93868
▁veien	-8.93958
▁tu	-8.93968
veien	-8.93982
▁organ	-8.94066
▁bruker	-8.94191
▁gl	-8.94233
▁lav	-8.94286
far	-8.94334
▁tilhører	-8.94367
и	-8.94385
▁hatt	-8.94397
▁skuespiller	-8.94477
heten	-8.94486
sson	-8.94495
lene	-8.94533
bane	-8.94694
▁krigs	-8.94725
▁godt	-8.94778
ris	-8.94824
▁pl	-8.94875
▁lite	-8.94925
▁je	-8.94941
▁utviklet	-8.94998
▁29	-8.95016
ds	-8.95219
▁bur	-8.95304
▁flyttet	-8.95323
▁får	-8.95345
▁au	-8.95361
ale	-8.95373
▁sanger	-8.95635
kor	-8.95668
▁hjem	-8.95725
▁fl	-8.95735
▁forbindelse	-8.95878
▁inkludert	-8.9619
▁kl	-8.962
▁omfatter	-8.96235
▁ste	-8.96368
▁mann	-8.96386
▁os	-8.96432
50	-8.96653
▁sen	-8.96791
▁karl	-8.96917
▁tal	-8.97015
mmer	-8.97047
▁stra	-8.9706
▁betydning	-8.97101
▁tekst	-8.97184
▁tjeneste	-8.97262
▁arbeider	-8.97463
▁holdt	-8.97626
gående	-8.9776
ving	-8.97836
▁minne	-8.97888
▁liten	-8.97918
▁moderne	-8.98009
ica	-8.98301
▁sm	-8.98302
▁stemme	-8.98307
▁ferdig	-8.98499
ologi	-8.98528
▁slag	-8.98584
▁forhold	-8.98639
▁50	-8.98747
▁skolen	-8.98888
ves	-8.98946
▁russland	-8.98952
▁lokale	-8.99166
▁mal	-8.99205
mm	-8.99212
▁mil	-8.99296
▁italiensk	-8.99416
jer	-8.9944
els	-8.99483
▁gro	-8.99629
▁ber	-8.99816
tale	-8.99842
▁hy	-8.99895
▁samarbeid	-9.00186
▁31	-9.00188
▁via	-9.00355
▁lands	-9.00393
▁vo	-9.005
pen	-9.00526
dømme	-9.00625
bygning	-9.00773
forening	-9.00912
▁fiske	-9.00937
råd	-9.01098
▁enkelte	-9.01147
▁kirken	-9.01229
▁elven	-9.0133
▁makt	-9.01347
▁barne	-9.0139
▁stil	-9.01446
▁egne	-9.0151
▁politiker	-9.01551
han	-9.01572
pro	-9.01605
▁23	-9.01662
▁opprettet	-9.01708
▁reise	-9.0173
▁franske	-9.01731
sky	-9.01734
▁høyre	-9.01811
▁serie	-9.01811
asjonen	-9.01893
kal	-9.01998
jo	-9.02012
føre	-9.02223
▁delen	-9.02231
ska	-9.02329
▁sak	-9.02438
kar	-9.02444
▁mis	-9.02544
▁sky	-9.02584
ket	-9.02666
asje	-9.02719
ps	-9.02812
mester	-9.02839
▁partiet	-9.02843
pon	-9.02863
▁kol	-9.02864
▁jan	-9.02935
enes	-9.02948
yn	-9.0298
lsen	-9.03109
iet	-9.03131
istisk	-9.03231
▁william	-9.03236
▁1970	-9.03248
▁keiser	-9.03253
▁gav	-9.03446
likevel	-9.03616
plass	-9.03631
▁åpnet	-9.03671
▁verdenskrig	-9.03751
anger	-9.03759
legg	-9.03922
▁start	-9.03975
laget	-9.04007
stil	-9.04067
▁mon	-9.04078
▁mm	-9.04089
▁eget	-9.04125
bro	-9.04169
▁historie	-9.04326
▁eu	-9.0437
▁personer	-9.0443
▁bort	-9.04438
▁brun	-9.04572
▁40	-9.04608
▁vin	-9.04615
▁1980	-9.04716
inne	-9.04814
▁ser	-9.05035
ien	-9.05097
▁ledet	-9.05173
mel	-9.05243
▁én	-9.05252
▁viktigste	-9.0526
skje	-9.0529
lagt	-9.05404
▁1988	-9.05709
bygd	-9.05715
▁blå	-9.06013
▁blad	-9.06059
▁hvit	-9.0609
vel	-9.06281
ssen	-9.06447
idae	-9.06526
mat	-9.06607
▁liste	-9.0664
ah	-9.06647
rat	-9.06649
▁hovedsakelig	-9.06706
▁slekt	-9.06756
▁hjelp	-9.06757
▁stjerne	-9.06778
▁bilde	-9.06779
fjord	-9.07017
▁ke	-9.07119
▁kvinne	-9.07159
q	-9.07167
▁rolle	-9.07197
lan	-9.07279
▁delt	-9.07298
▁bank	-9.0731
▁staten	-9.0732
▁sentrum	-9.07495
▁herre	-9.07564
▁kamp	-9.07588
banen	-9.07618
▁menneske	-9.0762
▁2012	-9.07732
▁drev	-9.07865
▁natt	-9.07888
▁mennesker	-9.0808
▁fe	-9.08091
▁bri	-9.08104
▁york	-9.08225
▁dannet	-9.08345
▁nok	-9.08352
rak	-9.08381
▁følgende	-9.08518
plan	-9.087
fon	-9.08705
▁ap	-9.08807
▁lyd	-9.08911
stilt	-9.08944
▁resultat	-9.09019
▁you	-9.09257
istiske	-9.09274
som	-9.09295
▁åtte	-9.09341
▁mont	-9.0944
▁carl	-9.09449
▁best	-9.09593
tin	-9.09594
▁militær	-9.09666
brudd	-9.09706
sal	-9.09799
▁svenske	-9.09906
departementet	-9.09932
bra	-9.10019
▁kongen	-9.10036
spiller	-9.10069
▁q	-9.10222
▁1998	-9.10299
film	-9.10309
chi	-9.10327
xi	-9.10504
vær	-9.10544
▁tittelen	-9.10548
▁minst	-9.10629
▁benyttet	-9.10676
▁peter	-9.10701
sjøen	-9.10805
▁venstre	-9.10817
▁danmark	-9.1083
▁robert	-9.10857
punkt	-9.10915
lla	-9.10939
sund	-9.10993
▁jeg	-9.11006
▁fall	-9.1105
▁arbeid	-9.1107
▁hjemme	-9.11139
van	-9.11188
▁finner	-9.11249
▁foran	-9.11308
▁betydelig	-9.11341
▁stu	-9.11353
▁vanlig	-9.11406
rom	-9.11459
stø	-9.1153
familien	-9.11591
▁spor	-9.11686
jør	-9.11738
▁bygge	-9.11814
gje	-9.11864
▁omtrent	-9.1187
▁1996	-9.11878
kast	-9.1207
▁gjort	-9.12111
stasjon	-9.12122
▁gal	-9.12276
▁we	-9.12351
ji	-9.12471
▁stats	-9.12665
▁gate	-9.12673
▁helse	-9.12759
▁moh	-9.12986
▁energi	-9.13
fl	-9.13047
▁ve	-9.13106
▁tom	-9.1311
øl	-9.13198
▁gen	-9.13221
▁hvis	-9.13228
▁felles	-9.13231
▁sang	-9.13304
eres	-9.13329
mal	-9.13428
▁arter	-9.13456
▁regjeringen	-9.13568
kken	-9.13637
▁våpen	-9.13869
minister	-9.13905
▁paris	-9.13915
▁1992	-9.14023
▁fylkesvei	-9.14043
▁industri	-9.14046
▁syd	-9.14047
9	-9.14336
ika	-9.14442
▁cor	-9.14443
sjef	-9.14629
▁topp	-9.14682
▁park	-9.14707
▁za	-9.14708
▁28	-9.14727
liggende	-9.1474
olog	-9.14821
ino	-9.14878
▁gjøre	-9.14896
nor	-9.14917
stra	-9.1493
▁tak	-9.14976
▁1997	-9.15105
▁spesial	-9.15106
▁riks	-9.15148
▁utnevnt	-9.1533
ført	-9.15339
gård	-9.15418
▁bjørn	-9.15453
ym	-9.15553
▁sc	-9.15603
▁eldste	-9.15655
▁ly	-9.15662
▁ordet	-9.15681
▁nummer	-9.15775
▁folk	-9.1579
▁berlin	-9.15808
▁ev	-9.15831
▁slutten	-9.15858
▁funnet	-9.15935
tz	-9.15957
▁slaget	-9.16019
ey	-9.16102
▁angrep	-9.16163
▁gri	-9.16216
gar	-9.16288
30	-9.16313
▁br	-9.16317
stående	-9.16403
▁indre	-9.16605
▁xi	-9.16651
bru	-9.16665
▁2013	-9.16773
▁høyeste	-9.16775
▁grunnlagt	-9.16803
▁kraft	-9.16805
▁rev	-9.16824
▁medlemmer	-9.16837
▁johan	-9.16888
nyin	-9.17015
▁para	-9.17023
ita	-9.17059
▁pal	-9.17076
▁album	-9.17217
▁flo	-9.1729
▁tildelt	-9.17291
selskap	-9.17293
40	-9.17466
▁kat	-9.175
▁kontroll	-9.17585
▁inntil	-9.17589
▁regionen	-9.17664
▁produksjon	-9.1771
deling	-9.17803
messig	-9.17884
▁erik	-9.17917
▁universitet	-9.17955
▁gar	-9.18032
område	-9.18179
▁mac	-9.18252
vil	-9.18268
grad	-9.18349
ive	-9.18412
▁egypt	-9.18448
▁storbritannia	-9.18448
▁1985	-9.18462
navn	-9.18603
▁mus	-9.18609
tjeneste	-9.1864
▁avdeling	-9.18827
▁forsøk	-9.18874
▁høyde	-9.1888
▁ger	-9.18898
▁kla	-9.18931
lev	-9.1898
▁gå	-9.18999
stat	-9.19003
▁direkte	-9.19019
▁italia	-9.19028
▁erstatte	-9.19044
▁hø	-9.19236
▁type	-9.19244
▁tap	-9.19294
▁stasjon	-9.19366
▁utgjør	-9.19413
gitt	-9.19505
▁kons	-9.19523
е	-9.19582
ida	-9.19628
▁områder	-9.19678
▁fått	-9.19685
▁olav	-9.19736
▁ring	-9.1974
▁legge	-9.19759
kant	-9.19821
▁båt	-9.19826
nske	-9.19846
▁bygd	-9.19901
up	-9.20036
bygging	-9.20037
itu	-9.2036
▁sig	-9.20407
▁danske	-9.20471
▁tru	-9.20477
▁afrika	-9.20496
mu	-9.2054
ini	-9.20625
▁1989	-9.20748
styre	-9.20764
ros	-9.20863
gre	-9.20875
▁qu	-9.20878
▁hard	-9.21186
get	-9.21209
▁teater	-9.21243
20	-9.2141
▁dia	-9.21437
6	-9.21523
syn	-9.21596
søk	-9.2169
lle	-9.2171
tall	-9.21805
skole	-9.21811
▁dessut	-9.21909
▁henrik	-9.21936
▁verdi	-9.21952
fri	-9.22148
▁interesse	-9.22195
▁ball	-9.2246
▁port	-9.22513
▁gran	-9.22583
områder	-9.22606
▁dansk	-9.22631
▁arkitekt	-9.2272
▁kra	-9.22742
▁bill	-9.22837
▁bal	-9.22839
7	-9.2292
▁kjøpt	-9.2296
▁kos	-9.23087
▁biskop	-9.23088
▁1984	-9.23097
▁gresk	-9.23281
▁utvikling	-9.23316
▁neste	-9.23382
▁europeisk	-9.23408
our	-9.23428
▁skip	-9.23493
▁gård	-9.23537
▁dan	-9.23547
▁skade	-9.23661
10	-9.23703
▁henne	-9.2374
▁sosial	-9.23765
▁sterkt	-9.23806
tu	-9.23807
▁professor	-9.23852
▁olje	-9.23855
▁lin	-9.23942
port	-9.24027
▁mester	-9.24136
hy	-9.24243
▁200	-9.24321
anlegg	-9.24349
▁opprør	-9.24383
▁politiske	-9.24412
▁svart	-9.24448
▁krig	-9.24499
pris	-9.24572
▁menn	-9.24632
▁skjer	-9.24635
▁knyttet	-9.24706
▁divisjon	-9.24725
▁data	-9.24872
▁thomas	-9.24883
▁1994	-9.24893
▁led	-9.24939
▁eldre	-9.24973
system	-9.24987
▁lei	-9.25168
lær	-9.25276
▁slo	-9.25374
▁orden	-9.25505
▁west	-9.25567
▁jernbane	-9.256
ola	-9.25661
ix	-9.25679
▁nu	-9.25747
▁overtok	-9.2581
kning	-9.25818
▁pris	-9.25847
▁cla	-9.25881
▁maria	-9.25933
ald	-9.26002
jel	-9.26096
▁nordøst	-9.26148
▁universitetet	-9.26277
gh	-9.26295
cc	-9.26412
ara	-9.26459
navnet	-9.2646
området	-9.26585
bin	-9.26633
▁eier	-9.26649
trykk	-9.26786
▁vår	-9.26826
▁trekk	-9.26855
ås	-9.26924
loven	-9.27213
gikk	-9.27255
▁dokument	-9.2733
▁red	-9.27421
▁wo	-9.27483
ringen	-9.27485
huset	-9.27524
året	-9.27537
ana	-9.27586
▁litteratur	-9.27628
blad	-9.27752
kje	-9.27759
▁1993	-9.27963
▁eid	-9.28044
▁års	-9.28106
▁seil	-9.28138
▁svarte	-9.28138
▁politi	-9.28198
▁dager	-9.28246
▁ettersom	-9.28286
▁spe	-9.28293
lik	-9.28343
▁ett	-9.28357
▁vm	-9.28531
ani	-9.28549
▁oppkalt	-9.2858
▁1991	-9.28584
▁1986	-9.28587
▁1960	-9.28587
▁studert	-9.28589
▁india	-9.28617
byen	-9.28852
▁valgt	-9.28942
ze	-9.29101
▁fortsatte	-9.29139
menn	-9.29141
▁kjøp	-9.29218
kro	-9.29234
▁sørøst	-9.29236
gl	-9.29239
▁island	-9.29264
sak	-9.29283
▁kvinner	-9.29291
retning	-9.29477
nivå	-9.29523
mannen	-9.29587
70	-9.29739
▁fer	-9.29809
▁brasil	-9.29842
▁romersk	-9.29876
▁uttrykk	-9.30036
▁følge	-9.30101
▁bør	-9.30128
zo	-9.30201
▁dis	-9.30259
nett	-9.30329
85	-9.30385
gått	-9.30452
▁hånd	-9.30458
▁kroppen	-9.30478
way	-9.3048
▁aldri	-9.30534
▁klar	-9.30651
▁mur	-9.30668
▁steder	-9.30672
▁holde	-9.30705
▁mørke	-9.30724
▁tegn	-9.30837
▁ul	-9.30905
▁versjon	-9.30937
▁bolig	-9.30952
stu	-9.31001
fall	-9.31078
▁ind	-9.31094
▁stockholm	-9.31116
sjoner	-9.31118
oli	-9.31121
▁finans	-9.31162
▁regnes	-9.3122
▁johannes	-9.31279
▁tall	-9.31466
vern	-9.31494
▁meget	-9.31581
las	-9.31653
dra	-9.31761
▁kilometer	-9.31761
▁standard	-9.31777
р	-9.31825
▁gra	-9.31827
▁miljø	-9.31857
▁mc	-9.31908
the	-9.31928
her	-9.32023
tikk	-9.32053
▁dyr	-9.3209
▁ex	-9.32107
ski	-9.3211
▁vokst	-9.32144
ider	-9.32285
ved	-9.32304
▁opera	-9.32318
▁col	-9.32329
full	-9.32337
vig	-9.32344
nik	-9.32375
▁sh	-9.32381
л	-9.3241
▁university	-9.32412
▁statsminister	-9.32424
▁lærer	-9.32456
▁don	-9.32501
ater	-9.32507
▁arm	-9.32546
løs	-9.32547
▁trans	-9.32567
vare	-9.32571
▁kunstner	-9.32604
▁nrk	-9.32605
vinne	-9.32718
med	-9.32734
dde	-9.32801
side	-9.32973
▁ledelse	-9.33008
ford	-9.33035
▁samling	-9.33072
▁finsk	-9.33081
▁kron	-9.33121
agn	-9.3324
▁studie	-9.33241
▁besto	-9.33252
▁historisk	-9.33343
har	-9.33368
ismen	-9.33392
oc	-9.33508
▁konsert	-9.33529
▁venn	-9.33593
▁kyst	-9.33648
ologisk	-9.33654
▁sha	-9.33703
▁befolkningen	-9.33762
▁lille	-9.33793
▁vekt	-9.33954
▁ter	-9.34009
▁can	-9.34207
▁drift	-9.34317
▁kle	-9.34326
▁1995	-9.34394
▁2014	-9.34398
▁kje	-9.34434
arbeid	-9.34475
▁pol	-9.34483
▁krav	-9.34529
▁linje	-9.34614
kra	-9.34678
▁enkelt	-9.34681
▁sta	-9.34733
▁system	-9.3474
▁dom	-9.34874
▁ør	-9.3489
▁wal	-9.34901
skog	-9.34948
▁karriere	-9.34948
heter	-9.34959
senter	-9.35566
▁slekten	-9.35605
▁air	-9.35631
king	-9.3567
akademi	-9.35705
▁offisiell	-9.35722
▁lege	-9.3575
▁lars	-9.35862
fin	-9.35895
folkerepublikken	-9.35908
lia	-9.35978
▁not	-9.35992
itz	-9.3608
▁råd	-9.36186
▁prosess	-9.36229
▁boken	-9.36252
▁grense	-9.36346
▁anders	-9.36361
▁elva	-9.36366
▁1987	-9.36407
▁hall	-9.36409
▁georg	-9.36427
merke	-9.36488
gan	-9.36534
▁spansk	-9.36747
▁ska	-9.36767
▁dy	-9.36776
ringer	-9.36803
▁fange	-9.36911
▁60	-9.36973
mun	-9.37001
▁hevde	-9.37109
▁bestemt	-9.37162
▁regi	-9.37314
kri	-9.37315
bert	-9.37319
ål	-9.3743
37	-9.37566
▁plante	-9.37658
▁løp	-9.37693
▁roma	-9.37745
pol	-9.37763
▁informasjon	-9.37763
▁drept	-9.37772
▁prosent	-9.37778
▁bred	-9.37807
▁kul	-9.37831
▁skrift	-9.37836
cy	-9.37899
ori	-9.37906
fest	-9.37946
▁reist	-9.38286
▁af	-9.38368
sser	-9.38396
▁pat	-9.38434
▁nordvest	-9.38456
▁trondheim	-9.38459
selskapet	-9.38473
▁ep	-9.38624
▁måte	-9.38654
▁periode	-9.38667
ins	-9.38787
▁len	-9.38889
▁tele	-9.38911
▁høsten	-9.38958
▁sj	-9.39058
▁ledd	-9.39073
▁selskap	-9.3908
▁1983	-9.39154
▁gren	-9.39158
old	-9.39193
▁trykk	-9.39207
▁knut	-9.39234
▁resten	-9.39325
▁lagt	-9.39349
▁kampen	-9.39353
▁regel	-9.39357
abel	-9.3937
gren	-9.39406
▁regjering	-9.39497
▁ry	-9.39625
▁80	-9.39701
▁prest	-9.39771
formet	-9.39798
ild	-9.39824
▁james	-9.3985
▁1979	-9.39857
▁1978	-9.3986
mus	-9.39871
▁åpen	-9.3988
ata	-9.39907
ark	-9.40089
▁kors	-9.40119
▁delta	-9.40146
è	-9.40169
spi	-9.40172
▁japan	-9.40221
organ	-9.4024
ay	-9.4033
▁ansvar	-9.40344
hund	-9.40352
▁møtte	-9.40395
▁komme	-9.40426
båt	-9.40488
▁hertug	-9.40553
▁fjern	-9.40565
▁martin	-9.40649
▁lind	-9.4065
▁sag	-9.40726
▁ac	-9.40762
▁plate	-9.40763
▁stod	-9.40811
▁hva	-9.40944
▁virke	-9.40949
▁stilling	-9.41104
▁hei	-9.41145
▁følger	-9.4115
▁david	-9.41264
age	-9.41288
▁henhold	-9.41315
▁fylkes	-9.41315
musikk	-9.41343
ib	-9.41474
▁500	-9.41476
▁modell	-9.4149
▁vold	-9.41514
▁møte	-9.41628
▁klo	-9.41638
ai	-9.41773
▁ji	-9.41782
▁george	-9.41818
▁hverandre	-9.41974
▁relativ	-9.41974
▁mas	-9.42
▁mad	-9.42002
▁syv	-9.42016
fag	-9.4205
▁blod	-9.42054
▁rot	-9.42076
iz	-9.42199
▁pra	-9.42306
▁metall	-9.42336
▁stiftet	-9.4236
▁forut	-9.42369
▁grand	-9.42383
▁jon	-9.42417
68	-9.42419
▁funksjon	-9.42507
elva	-9.42549
▁1945	-9.42702
▁1940	-9.42714
▁tank	-9.4272
▁super	-9.42831
▁hit	-9.42851
▁koloni	-9.42947
▁smal	-9.43016
▁mari	-9.43023
▁politisk	-9.43032
havet	-9.43093
42	-9.43159
ct	-9.43186
løse	-9.43271
▁punkt	-9.43368
ð	-9.43418
▁latin	-9.43423
▁viste	-9.43428
▁1950	-9.43443
▁nordlig	-9.43455
hel	-9.4353
▁slått	-9.43573
90	-9.43659
▁frank	-9.4395
▁grensen	-9.4397
voll	-9.44053
▁dronning	-9.44151
▁begynnelsen	-9.44152
▁gru	-9.44159
▁1972	-9.4416
▁bad	-9.44195
tegn	-9.44264
▁militære	-9.44294
▁fjorden	-9.44322
▁distrikt	-9.44449
▁hår	-9.44472
stedet	-9.44486
▁fil	-9.44563
hall	-9.44628
fabrikk	-9.44659
mengde	-9.44679
bor	-9.448
folk	-9.44837
▁tilsvarende	-9.44883
▁fjerde	-9.44883
▁skrive	-9.44947
don	-9.45017
66	-9.45053
▁regn	-9.4506
33	-9.45104
rus	-9.45197
▁tross	-9.452
▁transport	-9.45286
▁engelske	-9.45477
▁sølv	-9.45622
▁dårlig	-9.45624
▁gode	-9.45624
▁design	-9.45637
▁egentlig	-9.45657
▁hopp	-9.45693
▁ok	-9.4594
band	-9.46011
▁finland	-9.46038
▁ob	-9.46043
arm	-9.4605
▁flagg	-9.46068
▁kh	-9.46169
о	-9.46253
lie	-9.46284
kin	-9.46296
64	-9.46305
teri	-9.46321
▁københavn	-9.4637
▁trøndelag	-9.4637
▁1982	-9.46383
▁populær	-9.46399
systemet	-9.464
▁skyld	-9.46427
af	-9.46507
▁produsere	-9.46588
▁sve	-9.46667
▁heter	-9.4672
▁tradisjonell	-9.46746
▁valgte	-9.46755
hal	-9.4676
▁sel	-9.46812
▁skje	-9.46836
▁ang	-9.46836
38	-9.46863
cu	-9.46883
▁kardinal	-9.47122
▁louis	-9.47123
▁2016	-9.47141
▁ønsket	-9.47165
▁omfattende	-9.47177
▁90	-9.47292
▁kroner	-9.47445
▁vestlig	-9.47465
▁grå	-9.47474
tør	-9.47554
▁seier	-9.47618
hjul	-9.4773
nom	-9.47747
▁meste	-9.47748
que	-9.47763
▁sørlig	-9.47783
▁veg	-9.47786
▁vik	-9.47787
▁ban	-9.47831
▁national	-9.4788
▁samle	-9.47913
ip	-9.48042
stid	-9.48085
▁finne	-9.48132
parti	-9.48206
▁dra	-9.48219
▁løs	-9.4823
▁sub	-9.48238
▁retning	-9.48373
▁skipet	-9.48513
produksjon	-9.48539
skrift	-9.48556
▁arrangert	-9.48643
▁sannsynlig	-9.48643
▁voksne	-9.48643
48	-9.48645
▁kristen	-9.4865
▁1975	-9.48651
▁2015	-9.48662
gge	-9.4882
samisk	-9.48879
red	-9.48986
▁spar	-9.491
▁effekt	-9.49175
▁bedre	-9.49186
▁lengde	-9.49199
▁størrelse	-9.49253
▁tung	-9.4928
▁unge	-9.4932
på	-9.49323
▁sjef	-9.49368
▁1968	-9.49429
samfunn	-9.49533
▁bygningen	-9.49569
▁borger	-9.49611
▁suksess	-9.4967
▁dal	-9.49682
stikk	-9.4981
▁utvikle	-9.49931
▁munn	-9.49941
н	-9.50058
▁varme	-9.50114
▁sur	-9.50115
▁typisk	-9.5019
▁1969	-9.50201
▁1976	-9.50203
sette	-9.50269
с	-9.5028
▁mw	-9.50302
▁medalje	-9.50341
▁viktige	-9.50344
ua	-9.50381
▁grønn	-9.50479
▁styrker	-9.5048
vatnet	-9.50489
76	-9.50496
47	-9.50534
våg	-9.50567
▁egg	-9.50575
ind	-9.50604
▁gården	-9.50605
▁fest	-9.50653
▁område	-9.50653
▁tett	-9.50738
▁vol	-9.50857
ledes	-9.50868
tel	-9.50893
▁nærings	-9.50903
▁los	-9.50906
▁fla	-9.50932
▁israel	-9.50953
ekspedisjon	-9.50968
▁dyp	-9.50979
▁areal	-9.5099
▁flat	-9.51018
▁plassert	-9.51022
▁nasjonale	-9.51126
▁cm	-9.5113
▁brukte	-9.51135
78	-9.51136
▁program	-9.51229
▁nabo	-9.51234
▁utført	-9.51243
hvert	-9.51257
qui	-9.51274
▁raskt	-9.51304
ath	-9.5132
88	-9.51344
bilde	-9.51509
tsj	-9.51584
▁pass	-9.51612
▁dyre	-9.51718
industri	-9.51748
ú	-9.51756
▁hvilke	-9.51757
aktig	-9.51757
▁mulighet	-9.5179
57	-9.51795
bø	-9.51978
▁klasse	-9.52007
rum	-9.52019
▁fulgte	-9.52043
▁høyere	-9.52083
▁kart	-9.52191
▁inter	-9.52192
▁årlig	-9.52321
▁prisen	-9.52349
▁leg	-9.52431
rin	-9.52462
eri	-9.52463
instrument	-9.52549
▁sørvest	-9.52552
▁sommerfugl	-9.52566
▁endte	-9.52637
▁strøm	-9.52737
▁styrke	-9.52749
▁sogn	-9.52795
▁pri	-9.52894
▁dro	-9.52903
▁vind	-9.52995
akt	-9.53015
▁mos	-9.5307
end	-9.5311
▁retts	-9.53175
gruppen	-9.53176
▁oppdaget	-9.53195
stoff	-9.53301
▁sund	-9.53334
▁1981	-9.53349
kommune	-9.5338
fal	-9.53398
▁ram	-9.53422
wood	-9.53465
klubb	-9.5349
▁totalt	-9.53494
▁try	-9.53598
eks	-9.53669
▁lenger	-9.53687
▁felt	-9.5379
▁representerte	-9.53839
▁lenge	-9.54016
▁mente	-9.54052
▁arten	-9.54127
▁produkt	-9.54145
▁aust	-9.54145
▁beskrev	-9.54177
▁brann	-9.54181
▁kraftverk	-9.54198
▁iii	-9.54199
▁1900	-9.54211
▁jens	-9.5422
▁kir	-9.54254
▁stadig	-9.54259
▁renner	-9.54328
skapet	-9.5436
▁virksomhet	-9.54424
▁bind	-9.54466
▁figur	-9.54515
▁britisk	-9.54543
▁høre	-9.54557
▁musiker	-9.54678
▁hæren	-9.54696
bud	-9.54725
▁ordenen	-9.54726
kh	-9.54764
▁ek	-9.54801
gruppe	-9.54812
▁anne	-9.5485
▁stavanger	-9.5498
▁1977	-9.54984
▁1948	-9.54986
▁alltid	-9.55021
▁representant	-9.55144
all	-9.55205
under	-9.55233
trekk	-9.5525
sis	-9.55459
▁skape	-9.55586
▁heller	-9.55668
▁grupper	-9.55738
▁skips	-9.55818
pel	-9.55825
▁artist	-9.55865
▁ph	-9.55866
undersøkelse	-9.55879
verket	-9.5591
ire	-9.55937
▁bern	-9.56143
▁fjellet	-9.56227
án	-9.56278
evne	-9.56279
zhou	-9.56292
akk	-9.56332
low	-9.56346
▁kraftig	-9.56358
93	-9.56405
ari	-9.5641
ografi	-9.56434
standen	-9.56466
valg	-9.56481
▁drive	-9.56548
nitt	-9.56592
▁symbol	-9.56615
т	-9.56615
▁finalen	-9.56624
gå	-9.56662
▁son	-9.567
▁forskning	-9.56759
▁dersom	-9.56778
▁got	-9.56927
▁revolusjon	-9.56972
lis	-9.56978
▁merke	-9.57067
grense	-9.57097
▁hest	-9.57121
▁ø	-9.57134
field	-9.57177
bær	-9.57183
▁thor	-9.57253
cha	-9.57351
drag	-9.5737
▁museum	-9.57385
aks	-9.57389
manns	-9.57389
▁passer	-9.57401
gard	-9.57414
▁region	-9.57427
▁1973	-9.57462
▁poeng	-9.57475
▁fv	-9.57512
▁arne	-9.57617
▁vern	-9.57631
▁rik	-9.57691
▁melodi	-9.57732
fart	-9.57777
az	-9.57806
▁bygde	-9.57827
▁het	-9.57899
park	-9.5792
▁sun	-9.57941
▁sir	-9.57949
▁bø	-9.58066
▁amerika	-9.58172
▁ci	-9.58198
▁vanlige	-9.5824
▁bon	-9.58298
▁1964	-9.58306
off	-9.58322
▁mod	-9.58336
grunn	-9.58338
▁salt	-9.58379
▁vinner	-9.58462
▁jobb	-9.58485
▁forsvars	-9.5858
▁klubb	-9.58603
▁alder	-9.58644
▁hor	-9.58669
▁japansk	-9.58705
midler	-9.58739
▁dam	-9.58748
▁oppgave	-9.58788
tus	-9.58879
▁endret	-9.58926
▁bass	-9.59044
▁fro	-9.59056
gne	-9.59125
lov	-9.5913
▁århundre	-9.59137
▁sivil	-9.592
drift	-9.59223
ial	-9.59254
▁tegnet	-9.59302
▁hundre	-9.59377
ance	-9.59498
▁danne	-9.59537
▁kanon	-9.59556
gy	-9.59631
80	-9.59633
▁delvis	-9.59639
fisk	-9.59642
kjenn	-9.59657
gangen	-9.59671
▁wil	-9.59718
▁enten	-9.59772
▁cup	-9.59894
▁just	-9.59929
39	-9.59957
▁bøker	-9.59958
▁sterk	-9.5997
sekretær	-9.59991
▁original	-9.59991
▁arabisk	-9.59992
▁1974	-9.60005
▁1930	-9.60016
dor	-9.60021
tti	-9.60033
▁sø	-9.6005
▁sammenheng	-9.60067
▁organisasjonen	-9.60092
▁tradisjon	-9.60123
medlem	-9.60134
▁les	-9.60166
▁zh	-9.60265
▁time	-9.60273
▁nådd	-9.60329
språk	-9.60366
▁1800	-9.60426
▁velge	-9.60432
atet	-9.60514
▁motstand	-9.60532
▁rike	-9.60572
▁livet	-9.60581
▁lær	-9.60656
tog	-9.60659
▁teksten	-9.60673
ap	-9.60738
▁høyt	-9.60746
▁stammer	-9.60795
lys	-9.60843
senteret	-9.60849
š	-9.60853
▁world	-9.60853
▁komponist	-9.60853
▁ekteskap	-9.60859
▁total	-9.60908
▁gjelder	-9.60965
▁oppdrag	-9.61016
fører	-9.61051
▁kamper	-9.6108
▁lan	-9.6108
linjen	-9.6129
ektor	-9.6131
▁gass	-9.61364
▁hær	-9.61427
▁christ	-9.61428
▁høye	-9.61588
jiang	-9.6161
▁enhet	-9.61621
kirke	-9.61667
sett	-9.61722
▁tilgjengelig	-9.61722
▁folketelling	-9.61723
▁klassisk	-9.61724
▁nærmest	-9.61724
▁reg	-9.61753
ão	-9.61755
▁bakgrunn	-9.61761
▁bodde	-9.61798
blokk	-9.61861
▁war	-9.61882
▁sentrale	-9.61886
▁imp	-9.61913
bri	-9.6197
▁sil	-9.6199
▁oftest	-9.62051
▁prosjekt	-9.62063
▁fører	-9.62088
▁forsknings	-9.62097
▁buss	-9.62127
▁temperatur	-9.62221
44	-9.62245
▁journalist	-9.62269
▁sommeren	-9.62378
fang	-9.62396
▁festning	-9.62467
felt	-9.62549
▁gitar	-9.62561
▁tydelig	-9.62602
▁1967	-9.62614
60	-9.62645
▁spania	-9.6265
▁kjerne	-9.62662
plasser	-9.62697
▁gjennomført	-9.627
▁kast	-9.62714
kraft	-9.62727
▁hvite	-9.62803
▁innført	-9.62843
▁oppført	-9.6285
▁scene	-9.62901
▁hovedstad	-9.62973
▁shi	-9.63001
▁flyplass	-9.63013
▁besøk	-9.63025
jev	-9.63055
▁fot	-9.63093
▁samlet	-9.63123
ante	-9.63269
▁bruke	-9.6331
mos	-9.63321
82	-9.63339
rådet	-9.63357
renn	-9.63358
▁hovedstaden	-9.63396
▁ii	-9.63415
plassen	-9.63474
▁vanskelig	-9.63487
▁publisert	-9.63496
dommen	-9.63498
▁2017	-9.63502
▁marine	-9.63608
krigen	-9.63609
▁sla	-9.63685
nis	-9.63694
liv	-9.63721
62	-9.63726
▁jakt	-9.63743
ric	-9.6378
vekt	-9.6383
▁ung	-9.63846
▁befolkning	-9.63962
▁økonomi	-9.64007
▁sju	-9.64021
▁adel	-9.64094
▁polsk	-9.64122
46	-9.64148
pet	-9.64202
ott	-9.64244
▁uavhengig	-9.6427
lighet	-9.64331
ā	-9.64351
▁forteller	-9.6438
▁borg	-9.64391
▁fotballspiller	-9.64407
▁black	-9.64417
▁nevne	-9.64452
▁union	-9.64487
77	-9.64503
▁holder	-9.64564
▁front	-9.64596
ato	-9.64604
virkning	-9.64605
▁nederlandsk	-9.64617
jan	-9.64749
▁300	-9.64785
▁ven	-9.64836
▁faren	-9.64893
▁aktivitet	-9.64955
▁sterke	-9.64976
▁korte	-9.65008
▁oppdag	-9.65075
stri	-9.65101
▁naturlig	-9.65108
▁forsker	-9.65139
ira	-9.65201
dge	-9.65233
kos	-9.65251
▁jazz	-9.65279
▁lufthavn	-9.65292
▁trafikk	-9.6534
▁elv	-9.65347
▁slott	-9.65378
hn	-9.65393
86	-9.65429
krets	-9.65511
▁rus	-9.65706
▁nar	-9.65731
farge	-9.6574
▁kreve	-9.65872
▁harald	-9.65894
▁lø	-9.65913
▁strand	-9.65969
▁materiale	-9.66012
rike	-9.66013
▁jern	-9.66089
▁avisen	-9.66152
▁beskytte	-9.66154
▁direktør	-9.66175
ī	-9.66187
fo	-9.66191
▁stortinget	-9.66191
▁canada	-9.66194
▁1965	-9.66198
▁sikre	-9.66199
▁1962	-9.66204
▁city	-9.66267
▁debutert	-9.66268
mas	-9.66294
ob	-9.66296
▁por	-9.663
▁løv	-9.663
▁lære	-9.66318
kammer	-9.66324
▁mid	-9.6639
last	-9.66457
▁danner	-9.66538
haug	-9.66542
arbeider	-9.66607
eier	-9.6667
▁begynner	-9.66684
gor	-9.66706
▁nederland	-9.66873
vand	-9.66877
gjøre	-9.66908
▁røde	-9.66909
rick	-9.66934
▁ana	-9.66976
partiet	-9.67085
teknikk	-9.67105
▁fremdeles	-9.67105
▁skjedde	-9.67118
▁ordfører	-9.67123
▁wh	-9.67145
54	-9.67165
▁35	-9.6723
▁produsent	-9.67243
▁regjerings	-9.67247
▁bj	-9.67307
forbund	-9.67312
▁slå	-9.6734
regionen	-9.67353
▁personlig	-9.67379
▁rek	-9.67428
ör	-9.67469
▁spill	-9.67583
▁presse	-9.67662
▁fordel	-9.67666
dam	-9.6773
alis	-9.67754
▁karakter	-9.67815
▁lot	-9.67886
84	-9.6798
à	-9.68031
kapasitet	-9.68031
▁musikkalbum	-9.68047
gjorde	-9.68064
▁mistet	-9.68072
▁greske	-9.68139
plikt	-9.6815
▁sette	-9.68217
▁emb	-9.68282
heng	-9.68286
våpen	-9.68297
▁jevn	-9.683
vitenskap	-9.68304
69	-9.68311
ano	-9.68354
komst	-9.68375
▁maskin	-9.68389
person	-9.68448
к	-9.68467
▁idretts	-9.68543
gaard	-9.68556
▁sønnen	-9.6858
of	-9.68589
▁operasjon	-9.68677
▁påvirke	-9.68689
▁star	-9.6869
stor	-9.68697
▁avis	-9.68714
▁utøve	-9.68727
arter	-9.68731
ies	-9.68763
▁larven	-9.68841
08	-9.68859
cia	-9.68933
komme	-9.68941
▁australia	-9.68965
▁profesjonell	-9.68965
▁opprinnelse	-9.68965
▁hjerte	-9.69005
▁forsvar	-9.69012
▁fisk	-9.69098
feltet	-9.691
▁jesu	-9.69104
trop	-9.69166
fil	-9.69199
▁lib	-9.69205
arbeidet	-9.69293
▁tilfelle	-9.69335
в	-9.69433
ordenen	-9.69454
▁nivå	-9.69461
▁hell	-9.69562
▁forsøkt	-9.69607
ritt	-9.698
▁metal	-9.69862
▁gun	-9.69878
▁1963	-9.69909
▁ytterligere	-9.69909
▁berømt	-9.6991
▁lengre	-9.69926
pan	-9.69932
korps	-9.69934
lund	-9.69946
▁sw	-9.69986
ora	-9.70001
▁samfunns	-9.70009
hav	-9.70095
well	-9.70116
▁hed	-9.70184
▁stav	-9.70209
▁cap	-9.70235
▁she	-9.70271
▁produksjons	-9.70343
▁ole	-9.70404
ction	-9.705
▁øvrig	-9.70506
▁kjempe	-9.70524
▁che	-9.70542
▁sesong	-9.70564
▁grenser	-9.70572
gata	-9.70727
▁leve	-9.70733
▁krets	-9.70859
▁religiøs	-9.70861
▁hurtig	-9.70862
▁drama	-9.70871
▁derimo	-9.70873
▁1958	-9.70877
forskjell	-9.70882
▁asia	-9.70941
ón	-9.70977
▁holm	-9.70992
▁riksvei	-9.70999
▁benyttes	-9.71008
▁havet	-9.71122
bygg	-9.71264
▁fjord	-9.71284
▁ky	-9.71325
▁est	-9.71371
58	-9.71409
fugl	-9.71434
mund	-9.71448
▁sovjetisk	-9.71479
▁myr	-9.71491
▁bomb	-9.71492
cus	-9.7153
bol	-9.71534
tion	-9.71538
▁tettstedet	-9.71591
94	-9.71638
▁atom	-9.71639
99	-9.71703
▁forfatteren	-9.71707
qu	-9.71754
▁representere	-9.71823
▁tilknyttet	-9.71823
▁distriktet	-9.71826
▁1920	-9.7185
79	-9.71878
▁fyr	-9.72107
▁strid	-9.72169
▁tettsted	-9.72173
▁tema	-9.7221
skolen	-9.72215
▁anlegget	-9.72298
▁mill	-9.72301
▁turner	-9.72327
øst	-9.72439
kunst	-9.72463
ville	-9.72473
▁pen	-9.7257
▁fyrst	-9.72713
▁artene	-9.72721
ras	-9.72722
▁michael	-9.72794
▁richard	-9.72794
▁øvre	-9.72794
skjold	-9.72795
▁1956	-9.72806
▁1936	-9.72807
▁grev	-9.72839
▁utvidet	-9.72851
▁sports	-9.72901
▁stasjonen	-9.72954
▁filosof	-9.7298
ban	-9.73025
▁fremme	-9.73026
▁åpne	-9.73043
▁stan	-9.73111
▁jorden	-9.73136
▁lyn	-9.73149
bjørn	-9.73157
▁sul	-9.7323
▁vid	-9.73253
72	-9.73266
kjempe	-9.73266
▁leir	-9.73284
▁bytte	-9.73336
▁bygg	-9.73435
▁våren	-9.7346
▁omfatte	-9.73605
▁toppen	-9.73606
oni	-9.73657
67	-9.73662
▁elve	-9.73768
▁solgt	-9.73769
▁elektrisk	-9.73774
▁united	-9.73775
▁foreldre	-9.73775
▁charles	-9.73802
▁liberal	-9.73802
▁økonomiske	-9.73859
▁økonomisk	-9.73876
driv	-9.73878
▁bit	-9.73897
merket	-9.73978
▁rygg	-9.74006
▁opphav	-9.74088
▁char	-9.74098
ios	-9.74125
mil	-9.7413
▁danse	-9.74259
▁gutt	-9.74304
▁preget	-9.74366
▁ting	-9.74402
stall	-9.74449
▁betegnelsen	-9.74487
kur	-9.74586
▁eg	-9.74633
▁fal	-9.74679
▁fortsette	-9.74714
mand	-9.74743
▁international	-9.74764
▁offisielt	-9.74764
▁nærmere	-9.74769
▁1949	-9.74779
▁1939	-9.74782
shire	-9.74793
iller	-9.74824
74	-9.74849
▁privat	-9.75109
▁anna	-9.75123
▁rh	-9.75145
▁preste	-9.75149
ias	-9.75182
▁begrepet	-9.7525
later	-9.75302
▁ansatte	-9.75323
▁styrt	-9.75328
ekte	-9.75354
▁nils	-9.75356
▁kysten	-9.75381
kirken	-9.75409
73	-9.75426
▁problemer	-9.75437
rød	-9.75479
▁sko	-9.7553
▁forsvaret	-9.75548
▁katolske	-9.75587
▁poly	-9.75595
ova	-9.75607
▁70	-9.75653
▁alternativ	-9.75764
▁beijing	-9.75764
▁utdannet	-9.75772
▁soldater	-9.75781
▁senter	-9.75825
▁hoff	-9.7591
▁ask	-9.76079
▁solo	-9.76089
▁student	-9.76206
▁huset	-9.76221
95	-9.76247
▁vir	-9.76287
▁rute	-9.76328
▁bonde	-9.76335
▁offiser	-9.76447
sko	-9.7653
▁lund	-9.766
slaget	-9.76709
α	-9.76773
▁innflytelse	-9.76774
▁betrakte	-9.76774
▁skottland	-9.76774
▁1954	-9.76791
▁jordbruk	-9.76818
gra	-9.76823
▁daglig	-9.76847
ull	-9.76852
grav	-9.76896
▁endring	-9.76966
▁albert	-9.76967
▁festival	-9.77075
▁innsjø	-9.77099
ér	-9.77207
▁runde	-9.77208
møte	-9.77261
sberg	-9.77262
hjem	-9.77303
▁cal	-9.77406
▁ungdom	-9.77413
▁landskapet	-9.77458
▁kam	-9.7747
▁folket	-9.77535
ade	-9.77545
▁sau	-9.776
▁listen	-9.776
gården	-9.77687
ō	-9.77795
▁sovjetunionen	-9.77795
▁spesiell	-9.77795
▁markeds	-9.778
▁kontakt	-9.778
▁1966	-9.77816
▁primær	-9.77871
▁variant	-9.77878
▁uni	-9.77934
dro	-9.78026
▁wei	-9.78074
25	-9.78157
ben	-9.78224
historie	-9.78252
ub	-9.78278
▁stykke	-9.78287
▁cell	-9.78312
vor	-9.78372
delt	-9.78419
▁dog	-9.78438
▁utdanning	-9.78444
▁formann	-9.78496
fu	-9.78549
▁havne	-9.78738
sport	-9.78785
ball	-9.78852
▁jarl	-9.78864
▁straffe	-9.7888
åpning	-9.78884
▁malt	-9.78946
rør	-9.78951
skipet	-9.78961
▁irsk	-9.79004
▁heng	-9.79148
▁stille	-9.79196
▁kontor	-9.7925
kanten	-9.79319
con	-9.79346
app	-9.79404
hode	-9.79489
▁ungdoms	-9.79547
▁pop	-9.79551
ledning	-9.79578
▁utviklingen	-9.79585
▁posisjon	-9.79599
▁prøve	-9.79664
43	-9.7968
mesterskapet	-9.79698
kov	-9.7973
01	-9.79738
▁religion	-9.79867
▁1932	-9.79878
▁regnet	-9.79899
▁45	-9.79934
dikt	-9.80115
▁måneder	-9.80223
▁ya	-9.80238
▁kj	-9.80353
▁bay	-9.80354
▁north	-9.80472
▁utga	-9.80472
rute	-9.80479
▁un	-9.80678
tis	-9.808
▁teori	-9.80866
høgskole	-9.80917
bibliotek	-9.8092
▁vunnet	-9.8092
▁teknisk	-9.8092
▁1971	-9.80929
▁fredrik	-9.80931
▁1942	-9.80942
trolig	-9.80943
▁økt	-9.81011
▁yngre	-9.81061
▁feil	-9.81081
▁king	-9.81151
bakken	-9.81196
stol	-9.81272
▁fan	-9.8132
▁historien	-9.81412
▁midten	-9.8143
strøm	-9.81461
krig	-9.8147
▁tour	-9.81678
▁polen	-9.81741
▁klarte	-9.81817
▁landsbyen	-9.8191
metode	-9.81979
serien	-9.81982
▁etterfulgt	-9.81984
▁nødvendig	-9.81984
▁publikum	-9.81984
▁østerrike	-9.81986
▁snø	-9.8203
▁søster	-9.82033
▁opptre	-9.8215
▁middelalderen	-9.82178
lang	-9.82223
ign	-9.82224
▁sent	-9.82245
▁redaktør	-9.82307
ula	-9.82319
▁rad	-9.82376
▁sim	-9.82387
▁kalle	-9.82456
ernes	-9.82622
▁øyene	-9.82682
▁kull	-9.82709
49	-9.8273
▁vakt	-9.82736
▁tilby	-9.82741
▁vannet	-9.82784
▁lar	-9.82926
herre	-9.82946
virke	-9.82967
spor	-9.83017
▁hustru	-9.83061
▁college	-9.83069
▁hodet	-9.83072
▁saint	-9.83089
▁forekomme	-9.8309
▁omtalt	-9.83094
▁haug	-9.83138
gul	-9.83205
▁tone	-9.83228
graf	-9.83271
▁bol	-9.83332
▁sort	-9.83418
▁tids	-9.83438
▁fugle	-9.83511
53	-9.83518
butikk	-9.83582
strand	-9.83624
stykke	-9.8364
▁may	-9.83648
ré	-9.83668
hard	-9.83693
komite	-9.83736
feld	-9.83745
stripe	-9.83797
07	-9.83801
▁lev	-9.83845
tek	-9.8388
ppel	-9.83924
▁horn	-9.83939
bank	-9.83941
svik	-9.83958
▁laur	-9.83983
▁meg	-9.84005
▁sykdom	-9.84024
bedrift	-9.84089
▁endre	-9.84096
▁uke	-9.84101
elli	-9.84119
▁1961	-9.84146
▁utgangspunkt	-9.84146
▁jødisk	-9.84146
▁tolv	-9.84159
▁video	-9.84165
ram	-9.84208
▁lage	-9.84262
▁bane	-9.84286
▁unntak	-9.84366
▁nam	-9.84392
▁athen	-9.84463
gjort	-9.84566
▁gall	-9.84639
16	-9.8466
▁kg	-9.84714
▁hill	-9.84718
▁bud	-9.84875
▁livs	-9.84902
motor	-9.84902
▁manus	-9.84943
rev	-9.84946
følgende	-9.85004
41	-9.85238
▁situasjon	-9.85247
▁tidsskrift	-9.85254
prisen	-9.85262
▁landbruk	-9.85384
▁ytre	-9.8542
▁tråd	-9.85431
blomst	-9.85481
gna	-9.8554
▁akt	-9.85546
kjær	-9.85635
▁formål	-9.85651
▁masse	-9.85688
▁reform	-9.85703
havn	-9.85733
▁hente	-9.85738
▁alb	-9.85742
▁løper	-9.85783
▁orkester	-9.85797
figur	-9.85864
avdeling	-9.85932
▁overfor	-9.85999
ain	-9.86001
▁pin	-9.86005
skift	-9.86016
▁tittel	-9.86016
▁odd	-9.86191
▁stol	-9.86219
▁skilt	-9.86275
▁damp	-9.86295
▁parlament	-9.86355
▁records	-9.86356
▁motsetning	-9.86357
▁bosetning	-9.86357
▁episode	-9.86357
kritiker	-9.86358
ingeniør	-9.86369
▁frihet	-9.8638
▁organisert	-9.86417
jord	-9.86417
▁nærheten	-9.86426
06	-9.86433
grupper	-9.86446
kop	-9.86523
▁valget	-9.8655
▁fc	-9.86665
▁jean	-9.86741
▁minutter	-9.86923
▁song	-9.86957
▁selve	-9.87003
distrikt	-9.87013
▁nr	-9.87044
ney	-9.87053
▁nan	-9.87169
▁nevnt	-9.87236
forhold	-9.87265
▁univers	-9.87459
gift	-9.87463
▁studio	-9.87478
▁selvstendig	-9.87479
▁moskva	-9.8748
▁kategori	-9.8748
▁snart	-9.87488
▁klima	-9.87495
tic	-9.87578
gger	-9.87639
▁flekk	-9.87654
▁fordelt	-9.87703
▁æres	-9.87765
gal	-9.87772
▁mess	-9.87793
▁politikk	-9.8786
dri	-9.87914
▁vær	-9.8795
98	-9.88102
program	-9.88127
▁hode	-9.88133
▁elev	-9.88255
fjell	-9.88277
▁havn	-9.88278
riket	-9.88368
linjer	-9.88394
ij	-9.88454
▁rå	-9.88469
ping	-9.88553
18	-9.88613
▁1952	-9.88616
▁erklært	-9.88616
▁flertall	-9.88627
▁føde	-9.8863
▁1943	-9.88634
▁islam	-9.88636
▁1957	-9.88638
▁hud	-9.88669
▁ramme	-9.88675
▁jøde	-9.88774
sang	-9.8881
▁normalt	-9.88844
▁up	-9.88844
▁klart	-9.88923
▁maur	-9.88986
parten	-9.89032
lad	-9.89047
▁us	-9.89109
mennene	-9.89124
▁frukt	-9.89137
▁camp	-9.89159
12	-9.89229
gue	-9.89326
▁kalte	-9.89327
▁cra	-9.89344
▁test	-9.89356
▁private	-9.89367
ky	-9.89402
▁byer	-9.89415
▁støttet	-9.89441
lon	-9.89454
steder	-9.89475
▁fremst	-9.89482
iblan	-9.89494
dagen	-9.89514
▁ris	-9.89544
▁jobbet	-9.89605
▁demokrati	-9.89628
▁od	-9.8975
▁california	-9.89765
▁wilhelm	-9.89765
▁joseph	-9.89765
▁royal	-9.89768
▁nektet	-9.89769
▁magnus	-9.89769
▁fungere	-9.89774
etter	-9.8978
▁1918	-9.89782
▁blomster	-9.89792
▁bevart	-9.89792
▁utføre	-9.90028
oph	-9.90104
visning	-9.90178
▁utstilling	-9.90276
▁styrkene	-9.90352
▁viking	-9.90352
mid	-9.90365
▁sykehus	-9.90389
▁rang	-9.90416
▁teknologi	-9.90476
skudd	-9.90492
skriv	-9.90497
▁ansatt	-9.90558
▁skille	-9.90574
▁press	-9.9059
36	-9.90668
▁stoppe	-9.90697
▁mak	-9.90754
▁skatte	-9.9092
▁award	-9.90929
▁premier	-9.90931
▁ridder	-9.90935
▁1934	-9.9094
▁1912	-9.90945
▁1946	-9.90948
▁fn	-9.91001
▁fengsel	-9.91012
▁tårn	-9.91071
foss	-9.91099
▁eiendom	-9.91117
▁tusen	-9.9113
▁bevegelse	-9.91135
▁phil	-9.91153
områdene	-9.91162
slå	-9.91215
▁sveits	-9.91234
▁400	-9.9124
▁forkorte	-9.91403
▁republikken	-9.91497
▁32	-9.9156
▁prins	-9.916
▁brev	-9.91656
▁måned	-9.91726
15	-9.91754
kultur	-9.91775
tallet	-9.91794
92	-9.91808
26	-9.91858
▁gy	-9.91864
▁kåre	-9.91867
96	-9.91892
▁nordland	-9.91955
▁struktur	-9.91974
▁vokal	-9.91989
ima	-9.92052
myndighet	-9.92072
▁eksempler	-9.92105
▁pasient	-9.92105
▁smith	-9.92106
▁1928	-9.92119
▁1941	-9.92122
▁1925	-9.92123
▁formula	-9.92136
▁blue	-9.9214
slekt	-9.92154
▁angeles	-9.9217
24	-9.92244
▁foss	-9.92257
▁gjenopp	-9.92257
pass	-9.92305
▁henry	-9.92319
▁gla	-9.92355
▁dynastiet	-9.9237
▁hage	-9.92483
▁landslag	-9.92556
▁will	-9.92593
87	-9.92656
▁gil	-9.92685
▁johann	-9.92689
▁kanal	-9.92708
ish	-9.92783
▁dø	-9.92816
kilden	-9.92819
▁hjelpe	-9.92951
▁landskap	-9.92957
▁indisk	-9.92977
bach	-9.93146
▁korea	-9.93191
д	-9.93295
▁1955	-9.93295
▁inkluderer	-9.93295
▁generelt	-9.93296
▁kommunene	-9.93298
▁snakke	-9.933
▁win	-9.93319
▁1947	-9.9332
▁rein	-9.93374
▁ordens	-9.93396
▁zo	-9.93417
▁tradisjonel	-9.93421
▁gau	-9.93426
▁1000	-9.93441
▁ekstra	-9.93444
▁bevis	-9.93445
gress	-9.9347
▁femte	-9.93496
▁cu	-9.93519
▁falt	-9.93525
valget	-9.93631
▁driver	-9.93678
trinn	-9.93683
▁max	-9.93801
saker	-9.93856
▁timer	-9.93911
11	-9.93928
▁harry	-9.93967
▁edderkopp	-9.93979
▁programmet	-9.94021
somme	-9.9408
kraftverk	-9.94145
rolle	-9.94155
▁tj	-9.94207
car	-9.94301
▁bob	-9.9431
mod	-9.94351
▁bronse	-9.94421
verdig	-9.94453
▁installert	-9.945
▁regissert	-9.945
▁reaksjon	-9.94501
▁1924	-9.94516
▁1944	-9.94522
▁lansert	-9.94525
▁east	-9.94538
▁150	-9.94546
øm	-9.94589
▁administrasjons	-9.94598
▁kap	-9.9464
▁studier	-9.94706
▁gold	-9.9472
▁1600	-9.94763
formen	-9.94789
▁kilde	-9.94928
▁vist	-9.94981
▁penge	-9.95009
▁olsen	-9.95083
▁ran	-9.9514
hem	-9.95195
iger	-9.95242
strid	-9.95295
virksomhet	-9.95314
forbindelse	-9.9534
festival	-9.95357
▁stig	-9.95405
▁sende	-9.9548
▁sten	-9.9553
▁vinge	-9.95639
lid	-9.95702
▁betegne	-9.95705
▁arrangere	-9.9572
▁kunnskap	-9.95721
▁jacob	-9.95721
▁norrøn	-9.95722
▁1913	-9.95732
▁utnytte	-9.95772
firma	-9.95825
▁sikkerhets	-9.95829
▁bibel	-9.95844
▁spiss	-9.95847
shi	-9.95881
▁kongens	-9.95955
▁stamme	-9.95955
▁tunnel	-9.95981
▁latinsk	-9.95981
▁vers	-9.95988
▁planet	-9.96007
iti	-9.96086
▁salg	-9.96136
dorf	-9.962
konge	-9.96252
▁arve	-9.9632
▁mik	-9.96339
holm	-9.96361
jon	-9.96385
▁mørk	-9.9648
▁base	-9.96495
▁behandling	-9.96568
kontor	-9.96613
handel	-9.96667
▁slett	-9.96801
▁individ	-9.96953
▁administrativ	-9.96954
▁fullstendig	-9.96954
▁league	-9.96954
▁sjelden	-9.96954
▁edvard	-9.96954
▁hovedrollen	-9.96956
▁1953	-9.96972
▁cre	-9.97034
▁tilhøre	-9.9704
▁temp	-9.9707
cell	-9.97081
▁kvinnelig	-9.97105
flue	-9.97111
ough	-9.97143
▁glo	-9.97184
syre	-9.97198
▁team	-9.97221
gate	-9.9723
gler	-9.97239
▁tog	-9.97249
fylt	-9.97309
▁fløy	-9.9738
8	-9.97413
▁historiker	-9.97453
▁spørsmål	-9.97534
cho	-9.97547
▁studenter	-9.97657
▁samarbeidet	-9.9766
▁spillet	-9.97772
▁bidra	-9.979
▁lignende	-9.979
▁tau	-9.97916
▁sider	-9.97988
bevegelsen	-9.98001
▁moren	-9.98055
▁gard	-9.9806
▁motiv	-9.98155
avtale	-9.98203
konstruksjon	-9.98204
▁inspirert	-9.98204
▁ishockey	-9.98204
▁vietnam	-9.98204
▁passasjer	-9.98204
▁referere	-9.98207
▁1917	-9.98218
▁solgte	-9.98234
▁bakke	-9.98247
▁møter	-9.98279
▁rør	-9.98285
strøk	-9.98289
▁oppnådd	-9.98354
▁forvingen	-9.98361
▁finn	-9.98372
▁kok	-9.984
▁kongelige	-9.98408
▁larvene	-9.98426
▁stoff	-9.98465
▁gruve	-9.98527
▁dor	-9.986
kasse	-9.9861
91	-9.98675
▁180	-9.98676
▁uker	-9.98681
▁helge	-9.98682
▁kjenne	-9.98686
mur	-9.98688
▁artikkel	-9.98702
▁konkurransen	-9.98714
▁saken	-9.98719
vind	-9.98758
vannet	-9.98763
▁mangler	-9.9888
▁brenn	-9.98882
▁mobil	-9.98912
hof	-9.99048
▁storm	-9.99049
▁handel	-9.99069
▁troll	-9.99103
konkurranse	-9.99142
punktet	-9.99144
maskin	-9.9915
▁behandle	-9.99177
▁strekk	-9.9922
▁rollen	-9.99285
▁tonn	-9.99294
esisk	-9.99375
▁gjer	-9.99399
▁sistnevnte	-9.9947
▁nominert	-9.9947
▁gjennomsnitt	-9.99473
▁lengst	-9.99477
▁1938	-9.99497
▁1937	-9.99499
aktiv	-9.99539
▁stabil	-9.99548
▁luc	-9.99571
▁verd	-9.99586
vinger	-9.99637
▁rosen	-9.99817
▁bord	-9.99824
ulf	-9.9993
▁østlige	-9.99947
65	-10.0003
vakt	-10.0007
▁årsak	-10.0007
▁elever	-10.0014
turneringen	-10.0014
▁old	-10.0015
▁øverste	-10.002
▁irland	-10.0026
kamera	-10.0027
▁andreas	-10.0038
stått	-10.004
▁lek	-10.0047
56	-10.0065
▁kjøre	-10.0069
▁landsby	-10.0074
▁tilhørte	-10.0075
▁kaptein	-10.0075
▁kritikk	-10.0075
▁oversikt	-10.0075
▁kjønn	-10.0075
▁kristne	-10.0075
▁1919	-10.0077
▁signert	-10.0078
▁jule	-10.0081
45	-10.0087
win	-10.0087
▁utdannelse	-10.0091
▁bio	-10.0104
▁ark	-10.0112
▁avhengig	-10.0118
▁75	-10.0123
▁provins	-10.0125
redning	-10.0125
▁endelig	-10.0128
▁likhet	-10.0129
▁jag	-10.0131
▁skapte	-10.0133
59	-10.0141
▁fle	-10.0143
▁problem	-10.0146
ative	-10.0149
▁erobret	-10.0155
staten	-10.0161
▁single	-10.0166
klassen	-10.0168
▁grov	-10.0171
▁yu	-10.0172
prosjekt	-10.0175
▁områdene	-10.0175
tunnel	-10.0179
båter	-10.0181
▁real	-10.0184
trekning	-10.0189
øyene	-10.0193
▁sier	-10.0201
22	-10.0201
▁innbyggertall	-10.0205
▁forholdsvis	-10.0206
▁1910	-10.0209
▁vitenskapelig	-10.0209
hev	-10.0211
▁lønn	-10.0213
▁oversettelse	-10.0215
▁kjell	-10.022
▁hotell	-10.0222
wi	-10.0225
▁trener	-10.0231
mont	-10.0232
▁preg	-10.0236
▁sosiale	-10.0236
▁kommunikasjon	-10.024
masse	-10.0241
▁tidspunkt	-10.0252
fjellet	-10.026
▁sats	-10.0272
dar	-10.0276
89	-10.0282
slav	-10.0292
▁santa	-10.0293
▁skiftet	-10.0302
▁kha	-10.0305
linje	-10.0323
▁løsning	-10.0326
▁1951	-10.0337
▁friidrett	-10.0337
▁deles	-10.0338
▁1959	-10.0338
▁skriver	-10.034
▁hannen	-10.034
▁lese	-10.0341
▁diplomat	-10.0342
▁gjeste	-10.0342
▁bydel	-10.0342
▁dommer	-10.0348
sjø	-10.0351
tun	-10.0352
▁luk	-10.0353
▁kommuner	-10.0357
bukta	-10.0364
▁dato	-10.0365
kanal	-10.037
type	-10.037
▁cam	-10.0374
▁lån	-10.0379
▁hon	-10.0386
▁tapte	-10.0389
▁bispedømme	-10.0393
yan	-10.0394
rommet	-10.0403
▁forstå	-10.0413
28	-10.042
14	-10.0424
05	-10.0425
iansk	-10.043
kle	-10.0453
nummer	-10.0457
▁utgi	-10.0459
▁gyl	-10.046
▁bakken	-10.0465
angrep	-10.0465
grep	-10.0467
skyting	-10.047
▁introdusert	-10.047
▁school	-10.047
▁samfunnet	-10.0472
▁bidro	-10.0474
holmen	-10.0478
kka	-10.0478
▁armé	-10.048
hei	-10.0485
▁bånd	-10.0486
▁verket	-10.0492
▁morgen	-10.0497
ept	-10.051
▁overgang	-10.0517
▁laste	-10.0521
19	-10.0522
▁nes	-10.0531
▁kapp	-10.0536
▁søke	-10.0541
▁menighet	-10.0545
ledd	-10.0548
formede	-10.0553
▁innhold	-10.0557
ønne	-10.0562
front	-10.0582
tittel	-10.0582
ordning	-10.0582
lyst	-10.0582
▁bølge	-10.0584
▁fartøy	-10.0588
▁konflikt	-10.0605
▁objekt	-10.0605
▁jakob	-10.0605
▁allierte	-10.0605
▁faktisk	-10.0605
▁medlemmene	-10.0606
istene	-10.0607
▁minister	-10.0608
▁fullført	-10.0608
▁sverd	-10.061
▁rund	-10.0615
▁hellas	-10.0619
eksamen	-10.0621
språklig	-10.0624
▁gitarist	-10.0625
▁stift	-10.0628
typen	-10.064
▁mol	-10.0642
▁nordover	-10.0645
▁kil	-10.0645
▁utstyr	-10.0649
styrke	-10.0652
▁gram	-10.0653
klubben	-10.0658
▁filmer	-10.0673
▁eik	-10.0674
▁leker	-10.0688
▁graf	-10.0689
▁intern	-10.069
▁vå	-10.0692
27	-10.0696
▁dobbelt	-10.0696
▁bevege	-10.0704
▁gress	-10.0705
▁marie	-10.0711
elv	-10.0721
liste	-10.0721
▁leon	-10.0721
▁innlede	-10.0728
reise	-10.0734
▁kara	-10.0736
▁populære	-10.0739
▁elektro	-10.074
▁skiller	-10.0741
▁oppmerksomhet	-10.0742
▁utbredt	-10.0742
mønster	-10.0742
▁alexander	-10.0742
▁redusert	-10.0742
▁bronsemedalje	-10.0743
▁linjen	-10.0743
illa	-10.0744
▁gustav	-10.0744
▁nasjonalpark	-10.0745
▁veldig	-10.0748
trukket	-10.075
▁innsjøen	-10.0756
▁ari	-10.0769
▁unn	-10.0771
▁hellige	-10.0772
▁hind	-10.0777
▁institut	-10.0781
▁iran	-10.0785
aria	-10.0786
▁sport	-10.0787
▁status	-10.0788
▁inntekt	-10.0792
row	-10.0793
▁eva	-10.0793
▁kommando	-10.0795
▁villa	-10.0804
▁maler	-10.0805
▁dj	-10.0807
▁overflate	-10.082
▁coll	-10.0822
▁liga	-10.0828
▁overleve	-10.0833
▁rekord	-10.0849
▁cho	-10.0853
ahl	-10.0855
produsent	-10.086
▁frø	-10.086
handler	-10.0861
▁grunnlegger	-10.0863
▁gjeld	-10.0863
▁europe	-10.0866
vogn	-10.0871
▁eventyr	-10.0881
▁ungarn	-10.0881
▁dollar	-10.0881
▁behov	-10.0882
▁1921	-10.0883
▁1908	-10.0883
▁brown	-10.0884
▁keiseren	-10.0884
▁skotsk	-10.0885
ān	-10.0885
▁angripe	-10.0886
▁alfred	-10.0886
▁bygninger	-10.0888
▁uttalt	-10.0889
kort	-10.0891
▁drag	-10.0894
▁buk	-10.0901
▁lavere	-10.0901
▁cirk	-10.0904
▁bosatt	-10.0907
▁sli	-10.0909
oksid	-10.091
▁ansvarlig	-10.0924
29	-10.0926
▁økte	-10.093
▁gruppa	-10.0935
▁dukke	-10.0937
▁spise	-10.0938
▁auto	-10.0944
range	-10.0944
▁utgave	-10.0948
▁tromsø	-10.0952
▁kontrakt	-10.0962
fekt	-10.097
▁stand	-10.0971
▁svar	-10.0972
▁tang	-10.0973
▁opphold	-10.0974
▁music	-10.0977
sending	-10.0977
▁vill	-10.0993
kjemi	-10.0993
medalje	-10.0999
▁konkurranse	-10.1001
forfatter	-10.1004
▁fokus	-10.1009
fjellene	-10.1011
▁skulptur	-10.1022
▁innsats	-10.1022
▁alpin	-10.1024
▁oscar	-10.1024
prinsipp	-10.1026
▁forbundet	-10.1027
▁nordisk	-10.1048
▁simon	-10.1059
▁fotballklubb	-10.1063
▁roll	-10.1069
▁hj	-10.1079
▁inf	-10.108
▁grunnla	-10.1081
▁sti	-10.1087
styrken	-10.1097
ische	-10.1104
▁oversatt	-10.1105
▁55	-10.1108
21	-10.1108
▁kandidat	-10.1109
▁ytter	-10.1111
kysten	-10.1118
▁utover	-10.1125
▁800	-10.1131
legging	-10.1143
▁begrenset	-10.1143
hild	-10.1146
ammen	-10.1147
bånd	-10.1147
▁hunnen	-10.115
miljø	-10.115
cul	-10.1155
▁enkle	-10.116
▁initiativ	-10.1165
▁kombinert	-10.1165
konferanse	-10.1165
▁fattig	-10.1165
▁län	-10.1165
magasin	-10.1166
▁hemmelig	-10.1166
▁kropps	-10.1166
▁himmel	-10.1166
▁varierer	-10.1171
▁thi	-10.1181
▁bevegelsen	-10.1183
▁agder	-10.1189
▁former	-10.1192
▁kald	-10.12
▁systemet	-10.1201
▁qui	-10.1202
▁funn	-10.1203
koll	-10.1205
tårn	-10.1206
▁mannskap	-10.1209
83	-10.121
kene	-10.1215
▁språket	-10.1221
stemt	-10.1225
gende	-10.1226
▁synes	-10.1226
▁sideelv	-10.1239
▁virkelig	-10.1241
▁kalk	-10.1245
▁syr	-10.1248
▁marg	-10.125
▁kjøl	-10.1261
▁epi	-10.1269
rup	-10.1272
utvikling	-10.1293
modell	-10.1297
vekst	-10.1298
▁dør	-10.1303
leir	-10.1304
▁fel	-10.1304
serie	-10.1305
▁avsluttet	-10.1305
plante	-10.1306
▁fremste	-10.1309
▁byprefekturet	-10.131
▁edward	-10.131
▁kjærlighet	-10.131
▁rogaland	-10.131
▁club	-10.131
▁redusere	-10.131
▁stadion	-10.131
▁etterfølger	-10.1311
▁kjemisk	-10.1312
▁score	-10.1318
▁aksje	-10.1319
▁nedlagt	-10.1323
▁eli	-10.1328
▁sankt	-10.134
▁overført	-10.1352
▁angrepet	-10.1357
▁regional	-10.136
35	-10.1367
æl	-10.1374
▁sær	-10.1375
▁kraftige	-10.1378
oma	-10.1379
eide	-10.1381
▁institutt	-10.1389
▁hil	-10.1403
▁bell	-10.1404
stasjonen	-10.1407
▁vitenskap	-10.1409
▁hastighet	-10.1416
▁dun	-10.143
▁bakkroppen	-10.1432
▁inte	-10.1435
folket	-10.1443
hånd	-10.1444
▁nedre	-10.1446
▁sluttet	-10.1448
yang	-10.145
eppe	-10.1453
▁alkohol	-10.1457
▁konkurrere	-10.1457
▁portugisisk	-10.1457
▁regissør	-10.1457
▁ukjent	-10.1457
▁østerriksk	-10.1457
rådgiver	-10.1457
▁bla	-10.1457
▁terror	-10.1457
▁sølvmedalje	-10.1457
▁reserve	-10.1458
▁1914	-10.1458
komedie	-10.146
▁skaffe	-10.146
▁slank	-10.1463
innspilling	-10.1465
stjerne	-10.1468
▁daniel	-10.1468
▁banen	-10.1476
▁effektiv	-10.1476
▁rulle	-10.1476
▁yng	-10.148
▁trakk	-10.1483
pri	-10.1485
▁trond	-10.1485
▁vogn	-10.1487
▁rask	-10.1492
▁turist	-10.1493
▁anse	-10.1499
▁adam	-10.1503
alitet	-10.1511
▁river	-10.1512
▁skudd	-10.1514
ico	-10.1519
liga	-10.1521
trener	-10.1526
▁anton	-10.1538
▁bredt	-10.1538
▁spre	-10.1538
lip	-10.1539
▁kanalen	-10.1543
▁begrep	-10.1548
▁ønsker	-10.1549
▁sja	-10.1552
▁beskriver	-10.1562
17	-10.1562
▁600	-10.1583
▁kloster	-10.1593
▁stå	-10.1594
▁slu	-10.1595
trafikk	-10.1596
forsvar	-10.1598
▁kode	-10.1599
▁praksis	-10.1606
▁frivillig	-10.1606
▁brensel	-10.1606
▁konstant	-10.1607
▁autonom	-10.1607
▁scott	-10.1608
▁1901	-10.1608
kompani	-10.1612
▁fett	-10.1613
▁eksport	-10.1614
▁penger	-10.1617
▁dekker	-10.1621
▁vekst	-10.1622
bury	-10.1622
fyr	-10.1625
▁plassering	-10.1629
▁økende	-10.164
▁grunnlegge	-10.1642
slått	-10.1642
sikkerhet	-10.1645
▁green	-10.1651
▁din	-10.1657
▁norman	-10.1665
▁forbi	-10.1672
▁kari	-10.1675
mond	-10.1689
foreningen	-10.1694
cal	-10.1701
▁36	-10.1704
hai	-10.1709
75	-10.1709
▁slave	-10.1711
▁vet	-10.1714
▁sho	-10.172
bakk	-10.1727
34	-10.1734
▁kommet	-10.1743
▁und	-10.1743
▁uttale	-10.1746
album	-10.1747
øvelse	-10.1751
pot	-10.1757
▁doktorgrad	-10.1757
▁mexico	-10.1757
▁inneholdt	-10.1757
▁terreng	-10.1757
▁alvorlig	-10.1758
▁1931	-10.1759
▁1927	-10.1759
▁1922	-10.1759
høyde	-10.1761
▁1933	-10.1761
▁israelsk	-10.1761
▁beslutte	-10.1763
▁anledning	-10.1767
13	-10.1768
▁motstander	-10.1769
▁gradvis	-10.1781
▁kommunal	-10.1783
▁jack	-10.1787
mba	-10.1792
skij	-10.1793
▁mala	-10.1799
▁petter	-10.18
▁ankom	-10.1806
dyktig	-10.1807
hop	-10.1813
tekst	-10.1816
▁kvalitet	-10.1825
▁levert	-10.1828
▁markert	-10.1838
▁maleri	-10.1839
vika	-10.1846
▁idrettslag	-10.1848
▁poet	-10.1849
▁mynt	-10.1859
▁handler	-10.1863
bygget	-10.1868
▁hå	-10.1878
▁abb	-10.1879
fre	-10.1881
▁normal	-10.1886
▁utstyrt	-10.1888
politikk	-10.1888
aya	-10.189
▁mini	-10.1894
▁forretnings	-10.19
▁rep	-10.1903
▁anerkjent	-10.1911
▁county	-10.1911
▁company	-10.1911
▁nedenfor	-10.1912
▁konsept	-10.1913
▁finnmark	-10.1913
▁litterær	-10.1913
▁telemark	-10.1915
▁mytologi	-10.1916
basert	-10.193
▁with	-10.1939
▁sørover	-10.1939
▁pensjon	-10.1941
soldat	-10.1946
▁shan	-10.1946
▁bygda	-10.1948
▁arn	-10.196
▁foreningen	-10.1964
▁anlegg	-10.1966
▁fritt	-10.197
stav	-10.1978
▁debut	-10.1987
▁salme	-10.199
▁troms	-10.1993
▁long	-10.2
makten	-10.2007
gro	-10.2008
▁utsatt	-10.202
forbundet	-10.2029
wan	-10.2033
post	-10.2039
ique	-10.2048
▁mary	-10.2067
▁nowiki	-10.2068
▁prefektur	-10.2068
▁positiv	-10.2068
▁opplysning	-10.2068
▁generasjon	-10.2068
ander	-10.2069
kjøring	-10.2069
▁1929	-10.2069
▁protest	-10.207
▁dialekt	-10.2075
▁flåte	-10.2077
drev	-10.2079
▁dekket	-10.208
▁tverr	-10.2083
▁tørr	-10.2084
▁dir	-10.2085
allianse	-10.209
▁spir	-10.2102
▁karakteristisk	-10.2104
wald	-10.2108
32	-10.211
▁junior	-10.2124
▁imot	-10.213
▁bou	-10.2131
▁pap	-10.2138
▁insekter	-10.2143
▁romanen	-10.2159
▁fru	-10.2169
utvalg	-10.2177
▁mah	-10.2193
▁ost	-10.2196
▁parken	-10.2202
head	-10.2208
▁brand	-10.2211
31	-10.2219
mbo	-10.2219
▁andreplass	-10.2222
▁tsj	-10.2222
▁south	-10.2224
belteasteroide	-10.2226
▁middelsstor	-10.2226
▁håndball	-10.2228
▁1923	-10.2228
▁1906	-10.2229
▁angel	-10.2229
▁otto	-10.223
fot	-10.2232
▁michel	-10.2235
▁vegg	-10.2236
▁modern	-10.2245
▁myk	-10.2246
▁vokalist	-10.2246
botn	-10.2249
nemlig	-10.225
▁mikro	-10.2252
▁tynn	-10.2253
▁stilt	-10.2254
galleri	-10.2256
▁oppleve	-10.2266
▁bærer	-10.2268
bygger	-10.2272
▁kim	-10.2278
rige	-10.2282
iro	-10.2293
▁unna	-10.2299
▁formen	-10.2304
▁kval	-10.2305
▁lam	-10.231
▁riket	-10.2311
roman	-10.2319
ов	-10.2322
dannelse	-10.2325
▁planter	-10.2338
▁utløp	-10.2341
ito	-10.2367
й	-10.2368
▁nyere	-10.2369
administrasjon	-10.2374
▁avtalen	-10.2383
▁antagelig	-10.2388
▁beseiret	-10.2388
▁elementer	-10.2388
▁service	-10.2388
kompleks	-10.2388
▁fysisk	-10.2388
▁tegneserie	-10.2389
direktør	-10.239
produkt	-10.239
født	-10.239
▁34	-10.2391
▁monark	-10.2391
▁vendt	-10.2393
▁filip	-10.2395
dekket	-10.2395
▁portrett	-10.2399
▁betjene	-10.2399
▁show	-10.24
▁rykke	-10.2402
▁arkitektur	-10.2404
▁esp	-10.2405
kilde	-10.241
▁munk	-10.2411
▁tell	-10.2416
▁katolsk	-10.2416
manuel	-10.2417
▁wales	-10.2422
▁evne	-10.2425
faktor	-10.2426
▁kino	-10.245
▁versjonen	-10.2454
▁statlig	-10.2458
▁dømt	-10.2465
▁jente	-10.2474
perioden	-10.2487
setting	-10.2491
turbin	-10.2497
forestilling	-10.25
lønn	-10.2506
ín	-10.2507
sentre	-10.2511
rekke	-10.2517
▁beskrive	-10.2525
pul	-10.2527
▁modellen	-10.2528
▁hellig	-10.253
▁wu	-10.253
zy	-10.2533
▁sørge	-10.2534
▁700	-10.2538
▁aksjon	-10.2541
▁bunn	-10.2543
▁krysser	-10.2548
▁advokat	-10.2551
▁friedrich	-10.2551
▁guvernør	-10.2551
▁vingespenn	-10.2551
▁digital	-10.2552
▁brygge	-10.2552
▁drap	-10.2552
▁bære	-10.2553
▁1935	-10.2553
▁1911	-10.2554
▁philip	-10.2554
▁kilder	-10.2556
▁hersker	-10.2564
psykologi	-10.257
▁tredjeplass	-10.2574
klasse	-10.2578
▁hval	-10.2581
com	-10.2584
▁1500	-10.2587
tjen	-10.2589
▁beat	-10.2604
▁bidrag	-10.2608
▁ub	-10.2608
▁zu	-10.2618
▁kapell	-10.2622
▁vekk	-10.2624
▁dalen	-10.2624
▁gö	-10.2636
▁institusjon	-10.2637
familie	-10.2642
back	-10.2644
▁synlig	-10.2654
▁underlag	-10.269
rand	-10.2694
▁kristian	-10.2707
▁bull	-10.2711
▁belgia	-10.2718
▁konservativ	-10.2718
▁registrert	-10.2718
▁ødelegge	-10.2718
▁pakistan	-10.2718
▁vulkan	-10.2718
▁vestfold	-10.2718
▁vokser	-10.2718
▁bryst	-10.2718
▁definert	-10.2719
▁frederik	-10.2719
▁riktig	-10.272
▁spredt	-10.272
▁1926	-10.272
▁wolf	-10.2721
▁internett	-10.2722
▁handling	-10.2723
▁bekrefte	-10.2723
▁tilhenger	-10.2724
▁fortellingen	-10.2726
dommer	-10.2729
givelse	-10.273
spenning	-10.2745
▁undervisning	-10.2747
▁levde	-10.2747
▁bydelen	-10.2753
▁prof	-10.2759
▁ferd	-10.2759
strømmen	-10.2768
▁beregne	-10.277
▁hammer	-10.2794
▁avtale	-10.2816
▁handlingen	-10.2817
▁stål	-10.282
▁stortings	-10.2824
▁bygger	-10.2832
▁tilbud	-10.2833
hopp	-10.2843
▁besøkt	-10.2845
stell	-10.2847
▁stab	-10.2849
▁middelalder	-10.2857
▁medisin	-10.2867
▁føl	-10.2868
▁unngå	-10.2887
▁kristiansand	-10.2888
▁foregår	-10.2888
stråling	-10.2888
▁inngår	-10.2888
▁brøt	-10.2889
komité	-10.2889
▁drammen	-10.289
▁fjernsyn	-10.289
▁group	-10.2892
▁hovedkontor	-10.2894
▁dvs	-10.2895
▁high	-10.2895
▁mottatt	-10.2896
strek	-10.2898
▁lokalisert	-10.29
bebyggelse	-10.2905
▁demningen	-10.2907
▁grøn	-10.2933
kommisjon	-10.2938
▁tyskerne	-10.294
melding	-10.294
▁brede	-10.2942
▁undergrunns	-10.2957
▁bestemme	-10.2969
▁56	-10.2975
▁platen	-10.2982
▁ulik	-10.2983
plate	-10.2985
▁forholdet	-10.2992
slutt	-10.2992
▁snu	-10.3
▁skinn	-10.3003
▁lim	-10.3008
house	-10.3018
▁sann	-10.3021
▁kreft	-10.3024
▁prim	-10.3051
halvøya	-10.3051
▁negativ	-10.306
▁major	-10.306
▁arendal	-10.3061
▁innebære	-10.3061
▁befinne	-10.3062
▁stengt	-10.3062
ulykke	-10.3065
▁wel	-10.3069
museum	-10.3074
▁publi	-10.3078
▁vannkraftverk	-10.3083
▁statsråd	-10.3085
▁ull	-10.3087
▁isteden	-10.309
▁turn	-10.3097
▁sikker	-10.3105
▁ønske	-10.3119
domstol	-10.3121
▁fargen	-10.3132
bal	-10.3133
bak	-10.3141
▁kommun	-10.3151
▁sender	-10.3153
▁ytterst	-10.3156
▁met	-10.3161
▁elite	-10.3162
▁ross	-10.3163
bryter	-10.3177
litt	-10.3177
▁nm	-10.3188
▁levende	-10.3205
ligner	-10.3207
▁prosjektet	-10.3208
livet	-10.3213
forvaltning	-10.323
▁münchen	-10.3235
▁artikler	-10.3235
▁australsk	-10.3235
▁juridisk	-10.3235
▁skjønn	-10.3236
▁verdenscup	-10.3236
▁utenlandske	-10.3236
▁hebraisk	-10.3236
▁ungarsk	-10.3236
▁tilsvarer	-10.3236
▁praktisk	-10.3236
▁anvende	-10.3237
▁voksen	-10.3237
▁250	-10.324
▁jackson	-10.3241
pat	-10.3246
put	-10.325
▁dahl	-10.3251
▁euro	-10.3252
▁glass	-10.3255
▁white	-10.3257
▁histor	-10.3258
forskning	-10.3262
bøker	-10.3263
▁inndelt	-10.3266
▁flytte	-10.3269
▁az	-10.3271
▁human	-10.3273
ity	-10.3278
▁brem	-10.3288
▁eksemplarer	-10.3288
▁politiet	-10.329
23	-10.3294
skade	-10.3305
gods	-10.3317
▁mei	-10.3326
▁steve	-10.3332
▁strenge	-10.3332
▁65	-10.3334
teori	-10.3344
▁bratt	-10.3361
able	-10.3364
▁trening	-10.338
▁utgaven	-10.3387
▁museet	-10.3393
verdi	-10.3398
▁frakte	-10.3401
▁rod	-10.3404
▁oppnå	-10.3414
▁1909	-10.3414
▁definisjon	-10.3414
▁monument	-10.3414
frekvens	-10.3414
▁radikal	-10.3414
▁kommersiell	-10.3414
▁fjær	-10.3414
▁ødelagt	-10.3414
▁multi	-10.3415
▁bakvingen	-10.3415
▁oblast	-10.3416
▁halvparten	-10.3416
▁arbeiderpartiet	-10.3417
▁einar	-10.3417
▁street	-10.3418
▁myndigheter	-10.3418
▁planlagt	-10.3421
▁prix	-10.3432
struktur	-10.3434
kjøretøy	-10.3435
▁grønland	-10.344
friidrettsutøver	-10.345
▁chang	-10.3455
låt	-10.3456
▁intens	-10.346
mmel	-10.3462
▁inneha	-10.3469
▁måten	-10.3475
▁kvart	-10.348
▁signal	-10.349
▁mord	-10.3496
▁schw	-10.3507
▁town	-10.3509
▁vestre	-10.3521
drakt	-10.3522
misjon	-10.3525
▁medisinsk	-10.3529
▁kryss	-10.3539
▁etnisk	-10.3552
▁fry	-10.3573
▁fotograf	-10.3589
løytnant	-10.3596
▁erkebiskop	-10.3596
▁respekt	-10.3596
▁science	-10.3596
▁washington	-10.3596
▁1902	-10.3596
▁ludvig	-10.3596
▁krevde	-10.3596
▁geografisk	-10.3596
▁strategi	-10.3596
▁fenomen	-10.3596
▁hendelsen	-10.3596
admiral	-10.3596
▁anerkjenne	-10.3596
▁avledet	-10.3596
pedagog	-10.3596
▁golf	-10.3596
▁studioalbum	-10.3596
▁novell	-10.3597
▁dominerende	-10.3598
71	-10.3599
▁forbudt	-10.3601
▁feire	-10.3603
beskyttelse	-10.3603
▁cle	-10.3603
▁kveld	-10.3604
▁tolke	-10.3608
▁deltaker	-10.3615
▁1898	-10.3615
▁rapporter	-10.3616
president	-10.3621
skilt	-10.3627
▁klassen	-10.363
▁knap	-10.3633
▁cur	-10.3639
listen	-10.3653
veld	-10.366
▁master	-10.3661
▁vindu	-10.3661
▁representert	-10.3668
fred	-10.3683
▁håp	-10.3684
▁hamar	-10.369
▁kyr	-10.3704
▁urban	-10.371
▁vingene	-10.3714
polit	-10.3715
▁kai	-10.3742
▁skatt	-10.3757
▁wall	-10.3761
rapport	-10.3764
▁comp	-10.3767
▁grunnlag	-10.377
vurder	-10.3776
▁american	-10.3781
▁eksperiment	-10.3781
▁jerusalem	-10.3781
▁restaurant	-10.3781
▁sportsutøver	-10.3781
▁hensikt	-10.3781
▁sykkel	-10.3781
▁kontinent	-10.3781
▁sachsen	-10.3781
▁individuell	-10.3781
▁valuta	-10.3781
▁karbon	-10.3781
▁gunnar	-10.3781
▁trær	-10.3782
▁palass	-10.3782
▁saga	-10.3783
▁nød	-10.3783
▁operatør	-10.3783
▁1916	-10.3784
▁arkiv	-10.3787
egnet	-10.3787
▁fredrikstad	-10.3789
▁programmer	-10.3792
▁hitler	-10.3797
▁kopi	-10.3801
▁sikte	-10.3802
analyse	-10.3803
▁selge	-10.3804
skrevet	-10.3804
▁brødrene	-10.3811
▁morten	-10.3816
bunn	-10.3817
▁aas	-10.3826
ical	-10.3831
fartøy	-10.3831
▁utbygging	-10.3842
▁musikalsk	-10.3848
høyskole	-10.3851
bød	-10.3859
▁lykke	-10.3868
▁neu	-10.3882
▁tykk	-10.3891
▁nettverk	-10.3903
▁stam	-10.3913
wich	-10.3921
avgift	-10.3924
holt	-10.3925
alisme	-10.3928
▁torg	-10.3933
▁hov	-10.3935
søn	-10.3936
avisen	-10.3938
▁nazi	-10.3939
▁psyko	-10.395
▁meta	-10.3952
▁hotel	-10.3956
trengt	-10.3966
▁arrangement	-10.397
▁astronom	-10.397
▁tilknytning	-10.397
▁vesentlig	-10.397
▁akershus	-10.397
▁xiàn	-10.397
▁risiko	-10.397
▁invasjon	-10.397
▁romsdal	-10.3971
▁fungert	-10.3971
▁oppløst	-10.3971
▁1905	-10.3972
▁midlertidig	-10.3972
aceae	-10.3972
▁1907	-10.3973
▁sara	-10.3973
▁ibsen	-10.3976
bestemmelse	-10.3977
▁verb	-10.3978
▁knud	-10.3986
▁palm	-10.3991
▁konsul	-10.3992
▁talent	-10.3994
▁tvang	-10.3995
makt	-10.3997
karriere	-10.4
bølge	-10.4002
▁tempel	-10.4003
museet	-10.4006
▁skjær	-10.4008
▁akku	-10.4021
▁kulturell	-10.403
▁kapital	-10.4031
alderen	-10.4036
▁pil	-10.4037
vømm	-10.4041
▁roger	-10.4042
▁krysset	-10.4046
stigning	-10.4047
▁øverst	-10.4051
▁benytter	-10.4053
▁osv	-10.4055
▁avslutte	-10.4063
periode	-10.4082
▁split	-10.4091
gui	-10.4094
bad	-10.4097
▁tun	-10.4102
▁dol	-10.4135
▁lake	-10.4137
▁typen	-10.4145
▁160	-10.4149
▁rand	-10.4152
▁administrere	-10.4162
▁dekkvingene	-10.4162
▁hovedkvarter	-10.4162
▁referanse	-10.4162
▁vilhelm	-10.4162
▁opptrådt	-10.4162
▁mektig	-10.4162
▁selvmord	-10.4162
▁seinere	-10.4162
▁eksisterer	-10.4162
▁egenskaper	-10.4163
▁kredit	-10.4163
▁1904	-10.4163
▁definere	-10.4164
▁klokken	-10.4165
▁møre	-10.4165
▁telefon	-10.4166
▁erfaring	-10.4166
kampanje	-10.4168
▁papir	-10.4169
▁drikke	-10.4169
▁hovedsak	-10.4174
▁johansen	-10.4179
brigade	-10.4182
▁mono	-10.4187
▁1880	-10.419
kontroll	-10.4196
hjelp	-10.4197
effekt	-10.4199
▁forsterke	-10.4208
▁tilpasse	-10.4214
▁toll	-10.4216
lé	-10.4224
vä	-10.4225
▁fase	-10.4233
▁vitne	-10.4236
▁luther	-10.4237
gutt	-10.4253
▁grunnlaget	-10.4255
▁klosteret	-10.4258
▁ferge	-10.4259
stokk	-10.4268
▁finale	-10.4273
maker	-10.4296
▁kunde	-10.4301
løft	-10.431
▁prost	-10.4315
▁synge	-10.4324
forsyning	-10.4325
▁syke	-10.4331
vatn	-10.4348
▁alfabet	-10.4358
▁færøyene	-10.4358
▁napoleon	-10.4358
▁1897	-10.4358
▁tømmer	-10.4358
▁kombinasjon	-10.4358
▁kongedømmet	-10.4358
▁debutalbum	-10.4359
▁global	-10.4359
apparat	-10.4359
▁anklage	-10.436
▁firmaet	-10.436
▁britene	-10.4362
▁komposisjon	-10.4365
▁høyesterett	-10.4371
slett	-10.4373
teater	-10.4375
▁motta	-10.4377
▁vanligste	-10.4378
▁ordre	-10.4384
▁uavhengighet	-10.4385
▁molde	-10.4388
▁rosa	-10.439
▁østover	-10.4391
▁game	-10.4396
materiale	-10.4396
▁følelse	-10.4398
▁dyrke	-10.44
▁server	-10.4401
▁billed	-10.4404
tysk	-10.4428
mming	-10.4434
▁begynne	-10.4448
▁eies	-10.4457
▁utenriks	-10.4468
▁regime	-10.4476
▁handle	-10.4478
▁web	-10.4497
▁oh	-10.4497
hed	-10.4515
filosofi	-10.452
start	-10.4531
▁andel	-10.4534
▁utelukke	-10.4558
▁akseptert	-10.4558
▁manchester	-10.4558
▁antarktis	-10.4558
▁testament	-10.4558
▁nedbør	-10.4558
▁forsvant	-10.4558
▁bodø	-10.4558
▁utseende	-10.4559
▁elektronisk	-10.4559
▁adresse	-10.4559
▁beholdt	-10.4561
▁generell	-10.4562
▁bispe	-10.4562
▁forandre	-10.4567
▁kristiania	-10.457
▁forbunds	-10.4572
kriminal	-10.4586
▁metro	-10.4589
seil	-10.459
▁johnson	-10.4591
▁sammenlagt	-10.4594
▁derfra	-10.46
bisk	-10.4601
▁cuba	-10.4606
▁persisk	-10.4607
kled	-10.4621
▁mou	-10.4639
spinner	-10.4644
gram	-10.4645
isse	-10.465
▁grunnlov	-10.4669
▁utvide	-10.4688
▁khan	-10.4717
kreft	-10.4725
▁rac	-10.473
▁regjer	-10.4739
▁from	-10.4743
▁takke	-10.4747
ifikasjon	-10.4756
▁involvert	-10.4762
▁tønsberg	-10.4762
▁hordaland	-10.4762
▁kjøtt	-10.4762
▁lørdag	-10.4762
▁ansikt	-10.4762
▁etablering	-10.4762
▁jørgen	-10.4762
▁josef	-10.4763
▁hjørne	-10.4763
▁oberst	-10.4763
▁utmerkelse	-10.4763
▁overraske	-10.4763
▁prinsesse	-10.4764
▁power	-10.4764
▁håkon	-10.4764
redaksjon	-10.4765
▁vedtatt	-10.4767
▁frykt	-10.4769
▁forvaltnings	-10.4771
▁piano	-10.4774
regning	-10.4775
▁hvile	-10.4775
▁idé	-10.4775
▁1300	-10.479
▁lord	-10.4803
kjøp	-10.4803
▁fortalt	-10.4808
▁hull	-10.4814
grønn	-10.4815
stamme	-10.4829
▁hydro	-10.4836
▁water	-10.4844
▁beholde	-10.4849
▁polar	-10.4869
vold	-10.4871
ère	-10.4874
▁anker	-10.4878
forsker	-10.4884
polis	-10.4884
▁hekk	-10.4893
▁skapt	-10.4923
▁gjennomføre	-10.4942
gass	-10.4957
▁konsekven	-10.4971
▁amsterdam	-10.4971
▁arrestert	-10.4971
▁elisabeth	-10.4971
▁godkjent	-10.4971
▁heinrich	-10.4971
▁kollektiv	-10.4971
▁konstruert	-10.4971
▁låtskriver	-10.4971
▁millimeter	-10.4971
▁skjønt	-10.4971
▁portugal	-10.4971
▁ferskvann	-10.4971
▁tabellen	-10.4971
▁forklare	-10.4971
▁heavy	-10.4971
▁reklame	-10.4971
▁gabriel	-10.4971
▁ektemann	-10.4971
▁oppfatte	-10.4972
utgivelse	-10.4972
▁forårsake	-10.4972
▁angi	-10.4972
▁myndighetene	-10.4972
konvensjon	-10.4972
▁bayern	-10.4973
▁skarp	-10.4974
▁sjanger	-10.4974
▁tropisk	-10.4978
▁larvik	-10.4978
tanke	-10.4984
sikring	-10.4984
stemning	-10.4986
▁allmenn	-10.4992
▁indianer	-10.5002
▁svømme	-10.5006
▁bevisst	-10.5007
tradisjon	-10.5022
▁skall	-10.5022
måte	-10.5029
▁emil	-10.503
lignende	-10.5041
næring	-10.5045
▁vennskap	-10.5048
▁bryte	-10.5048
▁ansett	-10.5062
▁rose	-10.5075
▁statue	-10.5078
▁smak	-10.5079
kab	-10.5079
bring	-10.5118
utvalget	-10.5127
▁sveitsisk	-10.5128
▁wild	-10.5132
▁900	-10.5136
ctor	-10.5142
▁kommunistisk	-10.5172
▁asteroide	-10.5183
▁kvalifisering	-10.5183
▁yrkes	-10.5183
▁kritisert	-10.5183
▁adolf	-10.5183
▁fiktiv	-10.5183
▁mekanisk	-10.5184
▁oppstod	-10.5184
▁senior	-10.5184
▁kobber	-10.5184
▁naturreservat	-10.5184
ström	-10.5185
▁gullmedalje	-10.5186
▁stiftelsen	-10.5187
▁gregor	-10.5189
▁sverre	-10.5189
▁2018	-10.5189
▁cand	-10.519
▁plateselskap	-10.5195
▁trommer	-10.5198
▁dru	-10.5203
▁1889	-10.5204
▁ungdomsskole	-10.5209
▁anlagt	-10.5214
▁antennene	-10.5215
posisjon	-10.523
funksjon	-10.5239
rekord	-10.524
divisjon	-10.524
▁vente	-10.5251
brev	-10.527
▁menneskelig	-10.5289
▁fulgt	-10.5321
sdatter	-10.5327
▁kub	-10.535
▁republikk	-10.5362
▁cel	-10.5375
▁falk	-10.5377
▁misjons	-10.5379
stemme	-10.5383
▁spring	-10.5385
▁stang	-10.5398
▁disk	-10.5399
▁aleksander	-10.5401
▁liverpool	-10.5401
▁svalbard	-10.5401
▁1903	-10.5401
▁geometri	-10.5401
▁østfold	-10.5401
▁permanent	-10.5401
▁evangeli	-10.5401
▁plattform	-10.5401
▁belgisk	-10.5401
▁oppstår	-10.5401
▁amatør	-10.5401
▁hvem	-10.5401
▁forbedre	-10.5401
▁kulturminne	-10.5402
▁bøkene	-10.5402
▁datamaskin	-10.5402
▁manager	-10.5403
▁overtatt	-10.5404
▁kreert	-10.5405
▁programleder	-10.5405
▁utgivelsen	-10.5407
opplæring	-10.5408
▁fabrikken	-10.5413
▁nasjoner	-10.5416
▁hamburg	-10.5423
▁forvente	-10.5423
▁redde	-10.5428
økonom	-10.543
▁ressurs	-10.5433
▁1200	-10.5434
stråle	-10.5434
bevegelse	-10.5435
▁brent	-10.5436
▁estland	-10.5438
▁søkt	-10.5455
hastighet	-10.5461
prosessen	-10.5461
▁kommunist	-10.5471
▁innerst	-10.5473
fysikk	-10.5481
▁kortere	-10.5483
ledelse	-10.5509
▁opprette	-10.5537
time	-10.5547
▁drei	-10.5557
▁vende	-10.5564
samband	-10.5567
vá	-10.5574
▁unnta	-10.5583
støtte	-10.5591
▁frei	-10.5605
▁nyhets	-10.5615
fortelling	-10.5616
▁tiår	-10.5617
▁steg	-10.5619
▁muslimsk	-10.5623
▁okkupasjon	-10.5623
▁trommeslager	-10.5623
▁tyrkia	-10.5623
▁nøyaktig	-10.5623
▁stridsvogn	-10.5623
▁lyktes	-10.5623
▁texas	-10.5623
veksling	-10.5623
▁nicola	-10.5623
▁dominert	-10.5624
▁josé	-10.5624
▁mineral	-10.5625
▁opposisjon	-10.5625
▁antatt	-10.5625
▁etterkommer	-10.5625
▁antyde	-10.5625
▁francisco	-10.5625
terminal	-10.5626
▁foreslått	-10.5627
▁betong	-10.5627
▁bedrifter	-10.5629
▁tegninger	-10.563
▁antikken	-10.563
funn	-10.5631
mission	-10.5631
korset	-10.5633
▁meldt	-10.5634
▁hjerne	-10.5634
▁håndverk	-10.5638
▁span	-10.5643
økonomi	-10.5644
▁skuespill	-10.5644
▁avholdt	-10.5646
▁orgel	-10.5648
lengde	-10.5651
▁panser	-10.5651
▁1860	-10.5654
▁ernst	-10.5659
fallende	-10.5668
▁sving	-10.5669
▁avhandling	-10.5693
ally	-10.5703
flyvning	-10.5704
▁home	-10.5707
▁spin	-10.5715
▁betegnelse	-10.5722
▁term	-10.5748
▁glad	-10.5753
zel	-10.5759
trenger	-10.5763
▁mao	-10.5769
▁plast	-10.579
▁lukke	-10.582
settelse	-10.5825
▁elizabeth	-10.585
▁country	-10.585
▁eventuel	-10.585
▁ukraina	-10.585
▁sigurd	-10.585
▁innbyggerne	-10.585
▁sammenslåing	-10.585
▁nikola	-10.585
▁uvanlig	-10.585
regulering	-10.5851
▁120	-10.5853
▁debatt	-10.5855
▁kongsberg	-10.5857
▁spesifik	-10.5857
vesenet	-10.5862
▁tronen	-10.5866
▁nederlag	-10.5868
odden	-10.5871
▁kommunestyre	-10.5871
▁kin	-10.5875
▁tekstil	-10.5879
▁class	-10.5884
▁vestover	-10.5887
▁queen	-10.5891
▁seire	-10.5907
▁audi	-10.5907
ship	-10.591
▁samtlige	-10.5917
horn	-10.592
regjering	-10.5921
▁foto	-10.5924
ан	-10.5925
▁demokrat	-10.5932
▁mitt	-10.5936
stift	-10.5937
▁nato	-10.5937
▁laks	-10.5938
▁blind	-10.5942
▁tidligst	-10.5946
▁afrikansk	-10.5948
▁katedral	-10.5957
▁beskrivelse	-10.5961
▁krim	-10.5966
▁betale	-10.5967
▁hindre	-10.597
krem	-10.5974
olje	-10.5983
departement	-10.601
▁størst	-10.6019
▁formell	-10.6034
▁antenne	-10.6052
ск	-10.6055
▁afghanistan	-10.6083
▁barcelona	-10.6083
▁beslutning	-10.6083
▁infanteri	-10.6083
▁oksygen	-10.6083
▁uansett	-10.6083
▁ovenfor	-10.6083
▁oppløsning	-10.6083
▁presentert	-10.6083
▁bærum	-10.6083
▁sukker	-10.6084
▁divers	-10.6086
▁kritisk	-10.6086
fell	-10.6089
▁center	-10.609
▁tvunge	-10.6092
▁biologisk	-10.6097
▁rytter	-10.6097
▁profil	-10.6098
▁tjener	-10.6099
▁rektor	-10.6101
▁1891	-10.6105
▁øygrupp	-10.6108
▁1895	-10.611
▁høst	-10.6117
▁nedover	-10.6122
▁georgia	-10.6124
▁lunge	-10.6136
▁personlighet	-10.6145
slange	-10.6151
▁begrense	-10.6156
offiser	-10.616
▁riksdag	-10.6162
▁tipp	-10.6166
▁sovjet	-10.6166
▁verdensmester	-10.62
▁olymp	-10.6216
▁life	-10.6224
speil	-10.6234
tagelse	-10.6236
▁mangle	-10.6243
wick	-10.6246
▁parallell	-10.6266
næs	-10.6282
▁flest	-10.6286
▁pakke	-10.6293
▁hytte	-10.6296
▁buskerud	-10.6321
▁seremoni	-10.6321
▁symfoni	-10.6321
▁ukrainsk	-10.6321
▁øyeblikk	-10.6321
▁intervju	-10.6321
▁kostnad	-10.6321
▁oxford	-10.6321
▁returnert	-10.6321
▁tyrkisk	-10.6321
syklus	-10.6321
kompetanse	-10.6321
▁søndag	-10.6321
▁innlemme	-10.6321
▁henrettet	-10.6321
▁canadisk	-10.6321
▁monroe	-10.6322
▁elleve	-10.6322
▁kryp	-10.6323
ovitsj	-10.6323
▁utgivelser	-10.6323
▁serbisk	-10.6324
▁bensin	-10.6324
▁sentralbank	-10.6324
▁pierre	-10.6327
▁kongress	-10.6329
▁ultra	-10.633
▁arkeologiske	-10.6331
▁ørken	-10.6332
▁ulv	-10.6336
▁biografi	-10.6338
styring	-10.6342
▁1896	-10.6346
▁party	-10.6346
▁ond	-10.6352
kall	-10.6365
▁feng	-10.6368
▁dramatisk	-10.638
sosialistisk	-10.639
flokk	-10.6395
historisk	-10.6403
▁tildele	-10.6404
▁etappe	-10.6425
versjon	-10.6428
▁løfte	-10.643
▁geir	-10.6447
▁låten	-10.6467
▁enhver	-10.6479
▁rådhus	-10.651
politisk	-10.6517
на	-10.6525
pumpe	-10.6561
▁utslipp	-10.6565
▁frankfurt	-10.6565
▁konkurrert	-10.6565
▁maksimal	-10.6565
▁komponent	-10.6565
▁ekstrem	-10.6565
orientert	-10.6565
▁aktuell	-10.6565
▁flyktning	-10.6565
▁sjette	-10.6566
▁strekningen	-10.6566
▁tilskuer	-10.6566
▁partner	-10.6566
▁innvandre	-10.6566
▁poesi	-10.6566
▁fangst	-10.6566
▁magasinet	-10.6567
ор	-10.6568
▁annonsert	-10.6568
▁invest	-10.6568
▁innspillingen	-10.6576
▁1871	-10.6581
▁victoria	-10.6588
▁vikler	-10.6588
▁väst	-10.659
▁1887	-10.659
▁nederst	-10.6592
▁drepe	-10.6594
▁tillit	-10.6607
provin	-10.6608
▁birk	-10.6609
▁variert	-10.6629
▁chris	-10.666
maleri	-10.6671
agon	-10.6682
overflaten	-10.6684
▁fjellkjede	-10.6689
forhandling	-10.669
▁trodd	-10.6717
▁benytte	-10.6735
ови	-10.6788
▁forlate	-10.679
kledd	-10.6802
pningsseremonien	-10.6815
▁bryllup	-10.6815
▁football	-10.6815
▁observert	-10.6815
▁patriark	-10.6815
▁satellitt	-10.6815
jubileum	-10.6815
▁chicago	-10.6815
▁utbredelse	-10.6815
▁vedlikehold	-10.6815
▁avdøde	-10.6815
▁identitet	-10.6815
▁kjørte	-10.6815
▁artilleri	-10.6815
▁arthur	-10.6815
▁komponert	-10.6815
▁besetning	-10.6816
▁soldatene	-10.6816
▁skutt	-10.6817
stipend	-10.6817
▁frigjøring	-10.6817
▁kjennetegn	-10.6817
▁jurist	-10.6817
▁fortellinger	-10.6818
▁analyser	-10.6819
▁squa	-10.682
▁moderat	-10.682
▁britis	-10.6823
▁ove	-10.6823
▁hensyn	-10.6823
▁holdning	-10.6824
▁øystein	-10.6829
▁ordnet	-10.6832
konsernet	-10.6837
▁för	-10.6842
▁forretningsmann	-10.6848
▁lavest	-10.6849
▁silke	-10.6862
▁1870	-10.6863
▁næringsliv	-10.6873
▁blandet	-10.6883
øvrig	-10.6909
utdanning	-10.6909
fabrik	-10.6914
levende	-10.6941
▁mannlig	-10.6958
veggen	-10.6961
▁barokk	-10.6968
donald	-10.6977
▁skifte	-10.698
▁helst	-10.7
fast	-10.7006
balanse	-10.7035
regiment	-10.7047
▁fødsel	-10.7071
▁forgjenger	-10.7071
▁ludwig	-10.7071
▁shanghai	-10.7071
▁ektefelle	-10.7071
▁invadert	-10.7071
▁invitert	-10.7071
▁skihopper	-10.7071
protokoll	-10.7071
molekyl	-10.7071
▁fiolin	-10.7071
▁etablere	-10.7071
▁beleiring	-10.7071
nspirasjon	-10.7071
▁beordre	-10.7072
▁innvalgt	-10.7072
▁rolf	-10.7073
▁grevskapet	-10.7073
▁import	-10.7074
▁gratis	-10.7075
▁1915	-10.7075
▁spurt	-10.7075
▁whi	-10.7079
▁franz	-10.7083
▁mandat	-10.7084
▁donau	-10.7086
▁møll	-10.7087
▁røyk	-10.7088
▁halvdel	-10.7091
▁fremført	-10.7093
▁good	-10.7095
▁volum	-10.7095
▁popul	-10.7095
bjørg	-10.7096
▁1892	-10.7098
turné	-10.7105
▁montert	-10.7129
▁arena	-10.713
▁musik	-10.7148
kjeden	-10.7153
▁klage	-10.7153
▁knytte	-10.7154
▁utvidelse	-10.7154
▁omdanne	-10.7155
utenriksminister	-10.7157
strup	-10.7168
▁valle	-10.7171
kandidat	-10.7172
teknologi	-10.7173
▁legend	-10.7177
▁usikker	-10.7181
▁qi	-10.7194
lokale	-10.7197
▁pont	-10.7215
vang	-10.7216
revolusjonen	-10.722
middag	-10.7227
sidig	-10.729
▁industriell	-10.7321
direktoratet	-10.7334
illustrasjon	-10.7334
▁bulgaria	-10.7334
▁eurovision	-10.7334
▁gymnas	-10.7334
▁renessanse	-10.7334
▁sarpsborg	-10.7334
▁kommandant	-10.7334
▁1881	-10.7334
▁minoritet	-10.7334
▁komplett	-10.7334
▁zealand	-10.7334
▁sekunder	-10.7334
▁dagbladet	-10.7334
▁axel	-10.7334
▁beslektet	-10.7335
▁skjøt	-10.7335
▁verdensrekord	-10.7337
▁føderal	-10.7337
▁rettferdig	-10.7337
syndrom	-10.7338
▁oldtiden	-10.7338
▁borgermester	-10.7339
▁familiegruppen	-10.7339
mtredende	-10.734
▁argumenter	-10.734
▁innebar	-10.7341
bredden	-10.7347
▁bedriften	-10.7347
▁skjell	-10.7348
▁hylle	-10.7349
▁klatre	-10.7354
▁amfi	-10.7354
▁1875	-10.7356
▁1883	-10.7357
▁skygge	-10.7357
▁ddr	-10.7359
▁elect	-10.736
▁amerikaner	-10.7368
▁regler	-10.7369
▁null	-10.7375
▁basis	-10.7394
▁fair	-10.7395
takelse	-10.7405
▁slippe	-10.7419
ition	-10.7429
befolkning	-10.7443
aktivitet	-10.7447
▁nerve	-10.7448
utstyr	-10.745
▁million	-10.7455
▁ligge	-10.7479
0	-10.7492
▁luthersk	-10.7501
yuan	-10.7513
tilbud	-10.7516
bombe	-10.758
▁vannkraft	-10.7584
▁ambassadør	-10.7605
▁engasjert	-10.7605
▁konføder	-10.7605
▁lillehammer	-10.7605
▁luxembourg	-10.7605
▁konsentrasjon	-10.7605
▁essay	-10.7605
▁preussen	-10.7605
▁deutsche	-10.7605
leverandør	-10.7605
▁theodor	-10.7605
▁charlott	-10.7605
▁contest	-10.7605
▁gjentatt	-10.7606
tillatelse	-10.7606
▁oppfølger	-10.7606
▁naturgass	-10.7607
▁flytende	-10.7608
▁opplevd	-10.7608
▁øyvind	-10.7609
▁smelte	-10.7609
▁hedmark	-10.7609
▁skøyte	-10.7611
flat	-10.7612
▁lidelse	-10.7612
▁spreng	-10.7617
▁stalin	-10.7619
▁avansert	-10.7619
▁studere	-10.7619
cheng	-10.7621
▁terje	-10.7623
nytt	-10.7626
tjern	-10.7627
▁datert	-10.7639
▁barneskole	-10.7642
▁bakkropp	-10.765
▁öst	-10.767
▁egil	-10.7676
kontrakt	-10.772
behandling	-10.772
konsert	-10.7723
vokst	-10.7723
programmet	-10.7725
▁observato	-10.7732
handlinger	-10.7735
▁musikal	-10.7794
pleie	-10.7825
▁brødre	-10.7837
ар	-10.7851
▁angelsaksisk	-10.7882
▁columbia	-10.7882
▁ferdinand	-10.7882
▁mongolia	-10.7882
▁resultert	-10.7882
▁sjeldne	-10.7882
▁mislykke	-10.7882
▁prøvd	-10.7882
▁teoretisk	-10.7882
▁forkropp	-10.7883
▁betydningsfull	-10.7883
▁avgjørende	-10.7883
▁flukt	-10.7883
▁margaret	-10.7883
▁sprint	-10.7883
▁seksuell	-10.7883
▁bønder	-10.7883
▁utfordre	-10.7883
▁stadium	-10.7883
▁distanse	-10.7883
▁utpekt	-10.7883
▁kristin	-10.7884
▁massiv	-10.7884
▁ortodokse	-10.7885
▁clark	-10.7887
▁forlatt	-10.7888
▁frp	-10.789
▁vinkel	-10.7893
▁tsar	-10.7894
▁sjakk	-10.7899
skille	-10.7908
▁åndelig	-10.7912
duksjon	-10.7917
▁tallrik	-10.7984
styrt	-10.7987
streng	-10.7996
temperatur	-10.8004
▁tilsyne	-10.8004
musiker	-10.8007
sentrum	-10.8007
utgave	-10.8011
▁brutt	-10.8013
ferdig	-10.8026
måne	-10.8058
ко	-10.8068
grip	-10.809
givende	-10.8123
▁arkeologi	-10.8164
▁bachelor	-10.8168
▁forhindre	-10.8168
▁hongkong	-10.8168
▁leipzig	-10.8168
▁nøytral	-10.8168
▁anmelder	-10.8168
▁opphørt	-10.8168
▁traktat	-10.8168
▁fremtidig	-10.8168
▁begravet	-10.8168
▁barnehage	-10.8168
▁utsikt	-10.8169
▁ombord	-10.8169
▁vakre	-10.8169
▁undertegnet	-10.8169
▁enorme	-10.817
▁hørte	-10.817
▁opprettelsen	-10.817
▁kronologisk	-10.8172
▁hydrogen	-10.8174
▁antonio	-10.8174
▁eiendommen	-10.8176
▁zhang	-10.8176
▁andré	-10.8177
▁patron	-10.8177
▁tjue	-10.8187
▁variasjon	-10.8189
▁fokusere	-10.8196
▁undervist	-10.8207
▁tjent	-10.8214
▁klippe	-10.824
resultat	-10.83
oppgave	-10.8302
▁tjenestegjor	-10.8304
sentral	-10.831
▁first	-10.8314
kjøl	-10.8343
katalog	-10.835
▁victor	-10.8441
amerikanske	-10.8449
▁døgn	-10.8454
kommanderende	-10.8462
▁basketball	-10.8462
▁distribusjon	-10.8462
▁fakultet	-10.8462
▁forveksles	-10.8462
▁helsingfors	-10.8462
▁kvalifisert	-10.8462
▁observasjon	-10.8462
▁omdøpt	-10.8462
▁prøyssisk	-10.8462
▁tilstrekkelig	-10.8462
▁virginia	-10.8462
▁central	-10.8462
▁kommandør	-10.8462
▁uttrykt	-10.8462
▁1863	-10.8462
bransjen	-10.8462
▁midtøsten	-10.8462
▁sicilia	-10.8462
▁kontrast	-10.8462
▁alexandr	-10.8462
▁hyppig	-10.8463
▁sosialdemokrat	-10.8463
▁hjort	-10.8463
▁oppdater	-10.8463
▁osmansk	-10.8463
▁bbc	-10.8464
▁kristiansund	-10.8464
ев	-10.8465
byrået	-10.8466
▁investering	-10.8468
brønn	-10.8469
▁forenkle	-10.847
▁akademisk	-10.847
▁betalt	-10.8472
▁alex	-10.8472
▁mottaker	-10.8472
▁øvelsen	-10.8472
▁antas	-10.8475
▁vurdert	-10.8475
▁rytme	-10.8477
streik	-10.8478
aften	-10.8485
mouth	-10.8494
▁jernbanestasjon	-10.8504
▁månen	-10.8506
sykdommer	-10.8508
▁benevn	-10.8512
▁ideologi	-10.8539
▁kontrollert	-10.8569
▁erobre	-10.859
transport	-10.8604
flagg	-10.8606
laten	-10.8674
nevnte	-10.8706
▁aleksandr	-10.8765
▁association	-10.8765
▁hollywood	-10.8765
▁jomfru	-10.8765
▁konstitusjon	-10.8765
▁kronprins	-10.8765
▁meksikansk	-10.8765
▁society	-10.8765
▁vladimir	-10.8765
▁wergeland	-10.8765
▁arbeidsgiver	-10.8765
▁kroatisk	-10.8765
▁eksisterende	-10.8765
▁howard	-10.8765
▁pedersen	-10.8765
▁gråbrun	-10.8765
▁apollo	-10.8766
▁døpt	-10.8766
▁fjordane	-10.8767
▁fylle	-10.8767
▁utforming	-10.8767
▁leilighet	-10.8769
▁boston	-10.8769
infeksjon	-10.8771
▁fiction	-10.8772
▁fuktig	-10.8774
▁lojal	-10.8779
ortsett	-10.8782
▁samuel	-10.8785
summen	-10.8794
biologi	-10.88
asiatisk	-10.8803
▁avskjed	-10.8814
vassdraget	-10.8821
rustning	-10.8851
▁bønn	-10.8894
▁domkirke	-10.8906
foretak	-10.8908
institusjon	-10.8915
fellesskap	-10.8916
▁minutt	-10.892
hefte	-10.9004
tveit	-10.9014
uniform	-10.9065
▁argentina	-10.9078
▁elektrisitet	-10.9078
▁færøysk	-10.9078
▁illustratør	-10.9078
▁jordskjelv	-10.9078
▁mobiltelefon	-10.9078
▁skjult	-10.9078
▁tsjekkisk	-10.9078
▁forstyrre	-10.9078
▁göteborg	-10.9078
▁forklaring	-10.9078
▁bystatus	-10.9078
▁uklar	-10.9078
▁eksistens	-10.9078
▁nevø	-10.9078
▁serbia	-10.9078
▁castle	-10.9078
▁haakon	-10.9078
▁ulovlig	-10.9078
▁regulere	-10.9078
▁embeds	-10.9078
▁sibir	-10.9079
▁omsetning	-10.9079
▁kullkraftverk	-10.9079
▁gasskraftverk	-10.908
▁separat	-10.908
▁baseball	-10.908
▁søndr	-10.9081
▁grieg	-10.9081
kobling	-10.9082
▁tilsammen	-10.9083
▁sykle	-10.9083
▁tørke	-10.9084
▁bryn	-10.9098
ий	-10.9116
town	-10.9117
▁nevro	-10.9167
medisin	-10.9238
orkester	-10.9238
debut	-10.9246
mynt	-10.9298
▁dynasti	-10.9327
bukten	-10.9344
▁dverg	-10.9392
▁republi	-10.9395
▁aftenposten	-10.94
▁arrangør	-10.94
▁bysantinsk	-10.94
▁corporation	-10.94
▁fjorten	-10.94
▁fundament	-10.94
▁jugoslavia	-10.94
▁lincoln	-10.94
▁påbegynt	-10.94
▁rudolf	-10.94
▁væpne	-10.94
▁windows	-10.94
▁benjamin	-10.94
▁høvding	-10.94
▁taylor	-10.94
▁division	-10.94
▁patriot	-10.94
▁support	-10.94
▁gjald	-10.94
▁landkreis	-10.94
▁atlanta	-10.94
▁begravelse	-10.9401
▁bøndene	-10.9401
▁bokstaven	-10.9401
▁hjelm	-10.9401
▁snorre	-10.9401
▁ragnar	-10.9401
▁ålesund	-10.9401
▁nepal	-10.9401
▁innenriks	-10.9401
▁vegetasjon	-10.9401
▁christensen	-10.9401
fylling	-10.9401
▁borgerkrigen	-10.9403
▁disney	-10.9404
▁avgjørelse	-10.9404
▁korpset	-10.9405
▁alpene	-10.9405
▁presentere	-10.9405
▁metoder	-10.9406
▁utløst	-10.9407
▁elsker	-10.9407
▁lisens	-10.9411
▁down	-10.9415
▁kunngjor	-10.942
▁sokn	-10.9442
vennlig	-10.9483
spalt	-10.9498
byrd	-10.9556
lekter	-10.9566
arkitekt	-10.9572
litteratur	-10.9572
▁insekt	-10.9575
fotograf	-10.961
▁harmoni	-10.9643
sirkel	-10.9646
tempelet	-10.97
▁francis	-10.973
▁forberede	-10.9733
▁ammunisjon	-10.9734
▁fasettøyne	-10.9734
▁forfremmet	-10.9734
▁konstantinopel	-10.9734
▁vellykket	-10.9734
▁alminnelig	-10.9734
▁favoritt	-10.9734
▁styrmann	-10.9734
▁kjønnsmod	-10.9734
▁florida	-10.9734
▁marilyn	-10.9734
▁protestantisk	-10.9734
▁mikael	-10.9734
▁petersburg	-10.9734
▁lennon	-10.9734
teatret	-10.9734
▁seoul	-10.9734
▁oppfordre	-10.9734
▁bjørk	-10.9734
▁forbinder	-10.9734
järv	-10.9735
▁rakett	-10.9737
▁turbiner	-10.9739
givning	-10.9743
▁nedtegne	-10.9748
▁rykte	-10.9756
▁kaffe	-10.9764
▁forvalte	-10.9779
▁parallel	-10.9811
▁forbli	-10.9873
spørsmål	-10.9916
interesse	-10.9917
problemer	-10.9917
dømt	-10.9922
snegl	-11.0009
▁inskripsjon	-11.0078
▁absolutt	-11.0078
▁anbefalt	-11.0078
▁atlanterhavet	-11.0078
▁bataljon	-11.0078
▁filippinene	-11.0078
▁guangdong	-11.0078
▁identifisert	-11.0078
▁koalisjon	-11.0078
▁matematikk	-11.0078
▁potensiel	-11.0078
▁prestegjeld	-11.0078
▁representasjon	-11.0078
▁venezia	-11.0078
▁babylon	-11.0078
▁frilufts	-11.0078
▁petroleum	-11.0078
▁dirigent	-11.0078
▁jamaica	-11.0078
▁christopher	-11.0078
▁1861	-11.0079
▁humoristisk	-11.0079
▁sluppet	-11.0079
▁stafett	-11.0079
▁forvandling	-11.0079
▁tvilling	-11.0079
▁kristus	-11.0079
▁gordon	-11.0079
▁wright	-11.0079
▁ordinær	-11.0079
▁madrid	-11.0079
▁svekket	-11.0079
▁særskilt	-11.0079
▁dekorert	-11.008
▁høgskolen	-11.008
▁søsken	-11.008
▁batteri	-11.008
▁samlealbum	-11.008
▁innviet	-11.0082
▁keltisk	-11.0084
▁beskjed	-11.0092
▁genetisk	-11.0098
▁flanke	-11.0098
▁tilfeldig	-11.0103
▁bringe	-11.0231
finalen	-11.0256
▁vassdrag	-11.037
▁academy	-11.0436
▁generalmajor	-11.0436
▁intelligen	-11.0436
▁musikkvideo	-11.0436
▁pennsylvania	-11.0436
▁plutselig	-11.0436
▁research	-11.0436
▁varaordfører	-11.0436
mangfold	-11.0436
▁innendørs	-11.0436
▁integrert	-11.0436
▁sanskrit	-11.0436
▁systematikk	-11.0436
▁church	-11.0436
▁bosnia	-11.0436
▁libanon	-11.0436
▁utspring	-11.0436
▁legitim	-11.0436
▁konkurs	-11.0436
▁sandefjord	-11.0436
▁innvilge	-11.0436
▁automatisk	-11.0436
▁skildre	-11.0436
▁depresjon	-11.0436
▁veteran	-11.0436
▁dybde	-11.0437
▁tverrbånd	-11.0437
▁detroit	-11.0437
▁theatre	-11.0437
▁verktøy	-11.0438
▁ulykken	-11.0438
▁stryk	-11.0439
rettighetene	-11.044
▁gjenopprette	-11.044
▁year	-11.044
▁kanadisk	-11.0441
▁identisk	-11.0452
forsterk	-11.0456
▁arkeolog	-11.0456
vík	-11.0458
▁maritim	-11.0463
hvelv	-11.0464
▁bakerst	-11.0472
▁ligning	-11.049
▁kommunistparti	-11.052
▁koreansk	-11.052
jalp	-11.0546
ingsrepresentant	-11.0608
politiker	-11.0645
▁hevn	-11.0663
svarte	-11.0738
skvadron	-11.0806
▁douglas	-11.0806
▁engasjement	-11.0806
▁forbrytelse	-11.0806
▁indonesia	-11.0806
▁narkotika	-11.0806
▁resolusjon	-11.0806
▁sørafrikansk	-11.0806
fullmektig	-11.0806
▁avslutning	-11.0806
▁business	-11.0806
▁kjøkken	-11.0806
▁progressiv	-11.0806
▁carolina	-11.0806
▁hospital	-11.0806
▁diskusjon	-11.0806
▁hamilton	-11.0806
▁ntnu	-11.0806
▁angivelig	-11.0806
▁fengslet	-11.0806
▁arsenal	-11.0806
▁misjonær	-11.0806
▁fødselsår	-11.0806
▁statsborger	-11.0806
▁betingelse	-11.0806
▁rødbrun	-11.0806
▁parlamentarisk	-11.0806
▁stephen	-11.0806
▁referert	-11.0806
▁korrekt	-11.0807
▁søvn	-11.0807
▁dvd	-11.0807
▁vakker	-11.0808
▁ekspert	-11.0808
▁titler	-11.0809
terapi	-11.081
▁blomstre	-11.0812
▁bjerk	-11.0823
oppgjør	-11.0828
▁rifle	-11.083
plikasjon	-11.0834
▁circ	-11.0836
▁søyle	-11.0837
▁fremstille	-11.0855
▁møtt	-11.0889
▁dobbel	-11.0933
automat	-11.097
bispedømme	-11.1028
kvalitet	-11.1029
frukt	-11.1029
europeisk	-11.1029
prøve	-11.1035
operasjon	-11.1035
signal	-11.1069
presse	-11.1105
▁diplom	-11.1176
▁antwerpen	-11.1191
▁infrastruktur	-11.1191
▁keyboard	-11.1191
▁konkurrent	-11.1191
▁könig	-11.1191
▁michigan	-11.1191
▁substantiv	-11.1191
▁fiendtlig	-11.1191
▁hønefoss	-11.1191
▁muslimer	-11.1191
▁psykisk	-11.1191
▁campbell	-11.1191
▁litauen	-11.1191
▁oppfatning	-11.1191
▁statistikk	-11.1191
▁thailand	-11.1191
▁valdemar	-11.1191
▁grimstad	-11.1191
▁nobelpris	-11.1191
▁linux	-11.1191
▁svovel	-11.1191
▁romerriket	-11.1191
▁legendarisk	-11.1191
▁andorra	-11.1191
▁smykke	-11.1191
▁utgravning	-11.1191
▁puerto	-11.1192
▁dødsfall	-11.1192
▁redigert	-11.1192
▁isolert	-11.1192
▁noensinne	-11.1192
reaktor	-11.1193
marskalk	-11.1193
thorax	-11.1194
publikasjon	-11.1195
▁fienden	-11.1195
▁særeg	-11.1217
dekorasjon	-11.1236
▁puppe	-11.1259
relasjon	-11.1278
basseng	-11.1334
historiker	-11.1429
universitet	-11.1429
▁ivareta	-11.1434
hormon	-11.1466
utdanne	-11.1535
mølle	-11.1573
artikkel	-11.1584
sadvokat	-11.1591
▁anthony	-11.1591
▁beliggenhet	-11.1591
▁ekspansjon	-11.1591
▁instruksjon	-11.1591
▁sekundær	-11.1591
▁skandinavisk	-11.1591
▁slalåm	-11.1591
▁tsjekkoslovakia	-11.1591
▁vatikan	-11.1591
▁leopold	-11.1591
▁sykepleier	-11.1591
▁utdødd	-11.1591
▁innspilt	-11.1591
▁kavaleri	-11.1591
▁komplisert	-11.1591
▁matematisk	-11.1591
▁stabæk	-11.1591
▁katarina	-11.1591
▁nidaros	-11.1591
▁grün	-11.1591
▁annerledes	-11.1591
▁interiør	-11.1591
▁utstrakt	-11.1591
▁syklist	-11.1591
▁bokstaver	-11.1591
▁regulert	-11.1591
▁middelhavet	-11.1591
▁fantasy	-11.1591
▁unesco	-11.1591
▁lofoten	-11.1591
▁ringerike	-11.1591
▁ingrid	-11.1591
▁innstiftet	-11.1591
▁triumf	-11.1591
▁kongsvinger	-11.1591
▁verdensarv	-11.1591
▁prince	-11.1591
▁grekerne	-11.1591
ograph	-11.1591
▁færre	-11.1591
▁henrettelse	-11.1591
▁protein	-11.1591
▁skåne	-11.1591
▁hovedpersonen	-11.1591
▁lagtinget	-11.1592
▁umulig	-11.1592
kirurgi	-11.1592
▁harrison	-11.1592
▁erstatning	-11.1592
▁tokyo	-11.1595
løkka	-11.1598
▁stedsnavn	-11.1612
dåp	-11.1646
gruppa	-11.1766
bourg	-11.1784
katedralen	-11.1813
kommando	-11.1845
journalist	-11.1846
studier	-11.1847
tilsynet	-11.1853
kapell	-11.192
instituttet	-11.194
▁ødela	-11.2007
▁privilegi	-11.2007
inspektør	-11.2007
psykiatri	-11.2007
sjokolade	-11.2007
territoriet	-11.2007
▁championship	-11.2007
▁langrennsløper	-11.2007
▁novgorod	-11.2007
▁nürnberg	-11.2007
▁offensiv	-11.2007
▁orchestra	-11.2007
▁tsjekkia	-11.2007
▁billboard	-11.2007
▁heidelberg	-11.2007
▁sympati	-11.2007
▁sørkoreansk	-11.2007
▁besittelse	-11.2007
▁torpedo	-11.2007
▁vertikal	-11.2007
tilførsel	-11.2007
▁colombia	-11.2007
▁jersey	-11.2007
▁stjørdal	-11.2007
▁airlines	-11.2007
▁halvorsen	-11.2007
▁hockey	-11.2007
▁skøyteløper	-11.2007
▁autoritet	-11.2007
▁bomull	-11.2007
▁miguel	-11.2007
▁frogner	-11.2007
▁veksel	-11.2007
▁kommentar	-11.2008
▁http	-11.2008
▁barbara	-11.2008
▁skjelett	-11.2008
▁tilbrakt	-11.2008
▁trussel	-11.2008
▁underholdning	-11.2008
subjekt	-11.2008
▁impuls	-11.2008
samfund	-11.2009
▁stefan	-11.2009
▁tåke	-11.201
▁forandring	-11.2011
▁pianist	-11.2011
▁apple	-11.2015
håndtering	-11.2033
utvinning	-11.2036
tetthet	-11.2085
▁nigeria	-11.2163
▁dimensjon	-11.2183
grunnsstasjon	-11.2268
ã	-11.6144
