<unk>	0
<s>	0
</s>	0
.	-3.28973
▁i	-3.463
e	-3.63838
s	-3.74877
▁og	-3.82368
▁	-4.19718
t	-4.24262
en	-4.27393
▁av	-4.29154
er	-4.30052
▁en	-4.44938
▁som	-4.45609
▁til	-4.57235
▁er	-4.57564
r	-4.60336
▁på	-4.69459
▁for	-4.7018
▁den	-4.88324
▁ble	-4.88841
▁med	-4.91573
▁det	-4.92777
▁var	-5.0234
et	-5.05593
▁de	-5.08121
n	-5.11306
▁han	-5.12797
▁å	-5.24227
▁fra	-5.31566
▁et	-5.45903
▁har	-5.49633
ene	-5.59001
▁at	-5.61556
a	-5.63258
ne	-5.87914
▁ved	-5.95754
▁om	-6.00037
▁etter	-6.00653
▁også	-6.00874
▁men	-6.07495
k	-6.08878
i	-6.10611
▁ut	-6.15289
o	-6.19151
▁seg	-6.21409
d	-6.22055
▁under	-6.23301
▁hadde	-6.23567
▁ikke	-6.25842
▁da	-6.30903
▁over	-6.36487
te	-6.38396
y	-6.39086
g	-6.41124
▁to	-6.42682
▁opp	-6.45908
▁eller	-6.46047
l	-6.47518
▁andre	-6.51021
p	-6.51295
▁kan	-6.51385
m	-6.51488
▁inn	-6.52516
▁sin	-6.57014
de	-6.5857
▁første	-6.61716
▁hun	-6.63177
▁dette	-6.6355
▁mot	-6.70136
▁s	-6.72205
▁1	-6.72687
re	-6.73417
es	-6.74131
f	-6.74225
v	-6.75178
▁18	-6.76621
▁be	-6.78855
▁år	-6.78871
▁a	-6.8072
▁mellom	-6.8257
an	-6.83151
▁ha	-6.83241
u	-6.83687
ing	-6.83793
▁født	-6.84801
b	-6.85227
▁kom	-6.8615
▁hans	-6.87405
in	-6.89263
h	-6.91538
▁der	-6.91723
▁fikk	-6.93477
al	-6.9502
▁tre	-6.96464
ri	-6.97847
▁flere	-6.9815
us	-6.9841
▁denne	-6.98614
ende	-6.9925
le	-7.00296
▁hvor	-7.00878
▁f	-7.01944
c	-7.03487
▁blant	-7.05159
sk	-7.07331
▁man	-7.07603
▁alle	-7.08995
▁2	-7.09177
ter	-7.09725
▁så	-7.112
is	-7.11342
▁sammen	-7.11837
▁før	-7.1296
▁the	-7.1371
na	-7.13756
▁nord	-7.13783
▁la	-7.1455
▁del	-7.15552
sen	-7.16685
nde	-7.16868
▁nå	-7.18391
▁tallet	-7.21204
ia	-7.22741
▁mange	-7.2311
▁ligger	-7.23257
▁død	-7.23427
on	-7.23964
▁m	-7.24593
ar	-7.24687
▁senere	-7.25082
▁selv	-7.26821
w	-7.26829
▁norge	-7.28867
▁3	-7.29067
j	-7.29565
vis	-7.29635
▁17	-7.2977
▁stor	-7.30045
▁blir	-7.3107
▁norsk	-7.31624
▁siden	-7.32173
▁mer	-7.3268
▁b	-7.33146
▁re	-7.34807
▁p	-7.35113
▁annet	-7.35191
▁kr	-7.35887
▁noen	-7.35907
▁ca	-7.36189
z	-7.36953
▁byen	-7.37361
▁blitt	-7.37646
der	-7.38248
ere	-7.38397
▁5	-7.38625
▁være	-7.38929
lig	-7.39873
▁sitt	-7.39903
▁u	-7.40091
▁se	-7.40145
land	-7.40201
ur	-7.40798
▁tidligere	-7.41204
▁sør	-7.414
▁disse	-7.41505
il	-7.42802
ke	-7.42863
iske	-7.42885
▁gjennom	-7.42897
▁kjent	-7.4338
▁her	-7.44823
▁c	-7.45079
▁kommune	-7.45231
la	-7.45646
▁samme	-7.47784
lo	-7.47858
▁store	-7.48188
ens	-7.48245
▁ol	-7.48245
▁an	-7.48779
▁vært	-7.48982
▁tid	-7.4927
ma	-7.49575
um	-7.49575
▁le	-7.49924
▁vi	-7.49997
ta	-7.50778
▁4	-7.51049
x	-7.51294
▁ny	-7.51426
ig	-7.51511
▁gikk	-7.51729
▁noe	-7.52098
kk	-7.53182
▁d	-7.53225
ske	-7.53686
▁land	-7.53893
ck	-7.53986
▁15	-7.54178
tt	-7.54669
▁al	-7.55035
for	-7.55084
▁grunn	-7.55667
or	-7.55734
▁frem	-7.55782
øy	-7.55933
ry	-7.56832
ver	-7.57235
▁dag	-7.57283
os	-7.57845
li	-7.5808
▁kunne	-7.58174
ra	-7.59145
▁k	-7.593
ng	-7.59418
ning	-7.59491
▁g	-7.59822
▁rundt	-7.59951
▁mens	-7.60121
be	-7.60362
▁ham	-7.60511
nes	-7.60826
é	-7.61098
ist	-7.61159
ch	-7.61325
▁mest	-7.61852
▁ra	-7.62009
▁både	-7.62148
at	-7.62262
ler	-7.62404
▁ned	-7.62759
▁vest	-7.62935
ad	-7.62945
isk	-7.63053
▁of	-7.63363
ker	-7.64049
▁10	-7.64436
▁o	-7.64662
▁6	-7.64675
▁bo	-7.65263
▁sine	-7.65279
di	-7.65571
▁enn	-7.66005
▁16	-7.66325
▁t	-7.66542
▁norske	-7.66547
el	-7.6656
▁vil	-7.667
▁vant	-7.67026
ut	-7.67456
het	-7.67974
ro	-7.68112
▁oslo	-7.68248
lige	-7.68325
ul	-7.68493
▁di	-7.68538
▁ro	-7.68622
den	-7.68728
ge	-7.69987
▁øst	-7.70581
ø	-7.70641
ff	-7.7076
▁skulle	-7.71276
▁km	-7.7132
▁bare	-7.71719
▁usa	-7.72158
▁sa	-7.72288
as	-7.72376
▁ta	-7.7279
▁n	-7.72852
▁ga	-7.73215
ic	-7.7342
▁h	-7.73863
▁tilbake	-7.74128
▁tok	-7.75144
▁bli	-7.75425
▁by	-7.75456
▁skal	-7.75659
ær	-7.76358
kt	-7.76755
▁få	-7.77143
▁gang	-7.77461
erne	-7.7831
▁mai	-7.78957
▁slik	-7.7903
▁januar	-7.79169
ert	-7.79341
▁navn	-7.79393
da	-7.79796
▁navnet	-7.80442
mer	-7.80719
▁7	-7.80834
▁hele	-7.81001
it	-7.81557
▁kon	-7.81688
▁meter	-7.81916
ste	-7.82376
▁siste	-7.82773
▁000	-7.83379
▁fram	-7.83681
▁lag	-7.83905
▁st	-7.84261
▁mars	-7.84455
ka	-7.84605
▁dem	-7.8493
▁august	-7.84961
▁ti	-7.85066
▁si	-7.85074
ga	-7.85096
▁hoved	-7.85569
▁deltok	-7.85634
▁finnes	-7.85863
▁fire	-7.85888
ør	-7.86511
mann	-7.86572
▁juli	-7.8696
▁ri	-7.87445
ger	-7.87825
▁ofte	-7.88158
th	-7.88427
▁største	-7.88565
▁nye	-7.88622
ton	-7.88773
▁laget	-7.89216
si	-7.89527
▁li	-7.9028
son	-7.90435
else	-7.90485
man	-7.90595
me	-7.90707
▁sp	-7.91105
erte	-7.91552
ti	-7.91721
ba	-7.91916
▁ba	-7.91999
gen	-7.92342
sa	-7.92912
▁l	-7.93098
ol	-7.93257
▁rekke	-7.93301
men	-7.93816
ve	-7.9418
▁årene	-7.94235
▁lo	-7.94744
▁8	-7.94807
mi	-7.94853
vi	-7.95127
▁12	-7.95209
▁april	-7.95309
▁20	-7.95546
▁ar	-7.95574
▁9	-7.95584
▁bak	-7.95627
▁2008	-7.95671
▁kirke	-7.95806
▁fly	-7.95851
gi	-7.95939
bo	-7.96528
ell	-7.97106
iv	-7.97794
id	-7.982
im	-7.99088
▁ni	-7.99293
▁per	-7.99513
bu	-7.99822
▁landet	-8.00081
to	-8.00133
å	-8.00228
ha	-8.00385
am	-8.00575
▁2010	-8.00638
▁fa	-8.01253
▁spilte	-8.01652
tal	-8.02142
dal	-8.02487
stad	-8.02608
rett	-8.03153
▁fri	-8.03271
▁w	-8.03358
▁ho	-8.0369
▁igjen	-8.03694
▁he	-8.03849
▁juni	-8.04044
skap	-8.04785
ja	-8.04834
▁området	-8.04928
▁kalt	-8.05456
▁14	-8.05759
▁rett	-8.05947
▁11	-8.0619
▁tillegg	-8.0649
▁lang	-8.0666
var	-8.06739
ce	-8.0705
ment	-8.0712
este	-8.07163
▁co	-8.07349
▁du	-8.07662
▁pi	-8.07776
▁2007	-8.07881
▁begynte	-8.08018
▁mindre	-8.08074
▁desember	-8.08267
▁mål	-8.08321
▁far	-8.08436
av	-8.08473
je	-8.08545
▁gi	-8.09099
▁vanlig	-8.09114
ering	-8.09205
▁europa	-8.09499
ang	-8.09534
nd	-8.09593
▁ka	-8.09626
ner	-8.09777
om	-8.09865
▁pro	-8.0993
▁satt	-8.10201
▁plass	-8.10319
▁fransk	-8.10902
vik	-8.1134
▁v	-8.11538
▁13	-8.11839
▁samt	-8.12112
▁først	-8.1238
berg	-8.12751
▁as	-8.12972
asjon	-8.13226
▁hos	-8.1338
▁november	-8.13917
▁kun	-8.13993
▁y	-8.14039
▁ko	-8.14089
▁alt	-8.14164
▁j	-8.14849
▁tv	-8.1502
va	-8.15262
▁0	-8.15855
▁bruk	-8.16031
▁går	-8.16057
▁døde	-8.16171
▁deres	-8.16204
▁ville	-8.16339
ed	-8.16603
pe	-8.16997
by	-8.17076
▁kort	-8.17177
go	-8.17228
▁helt	-8.17595
ingen	-8.17672
▁utgitt	-8.17952
▁2006	-8.18327
ven	-8.18535
▁bi	-8.18671
mm	-8.18837
▁so	-8.19101
▁bar	-8.19129
▁mye	-8.19385
▁eksempel	-8.19678
▁like	-8.1972
▁beste	-8.19782
▁bu	-8.20085
▁tro	-8.20157
▁ma	-8.20312
ier	-8.20565
▁februar	-8.20594
▁2009	-8.20605
tter	-8.2084
▁videre	-8.20844
io	-8.20995
pp	-8.21099
ä	-8.21362
▁deretter	-8.21536
▁sk	-8.21546
ling	-8.21606
mp	-8.21625
▁oktober	-8.21751
▁mor	-8.21788
▁hennes	-8.21836
▁na	-8.2199
▁september	-8.22218
▁året	-8.2229
ster	-8.2238
gang	-8.22436
opp	-8.2255
sjon	-8.22558
▁30	-8.22628
▁tiden	-8.2266
dd	-8.23017
▁imidlertid	-8.23158
▁brukt	-8.23421
▁mo	-8.23498
▁ei	-8.23697
▁større	-8.23802
æ	-8.24241
▁lov	-8.24355
mo	-8.24604
▁gjorde	-8.24726
co	-8.24834
ll	-8.24894
▁no	-8.24918
▁skole	-8.25441
▁medlem	-8.25545
ie	-8.25859
▁sverige	-8.26033
▁vann	-8.261
▁nær	-8.26452
▁opprinnelig	-8.26764
▁leder	-8.26782
▁film	-8.26895
▁and	-8.27561
rede	-8.27669
▁tyskland	-8.27843
del	-8.2795
▁fem	-8.2796
▁musikk	-8.2797
ion	-8.27993
▁new	-8.28164
vo	-8.28954
▁ru	-8.29026
ö	-8.29081
▁form	-8.29283
ard	-8.29758
bi	-8.29761
▁olympisk	-8.30135
▁mar	-8.30253
år	-8.30581
▁tatt	-8.30636
▁pa	-8.3069
▁gamle	-8.31029
ho	-8.31195
▁in	-8.3145
sel	-8.31653
od	-8.31775
no	-8.3208
▁sønn	-8.32295
▁spiller	-8.32428
▁ulike	-8.32487
ks	-8.32596
▁lå	-8.32681
▁su	-8.32696
kke	-8.32731
au	-8.32808
á	-8.32852
sted	-8.33104
▁gift	-8.3311
▁2004	-8.33143
▁tyske	-8.33149
▁kunst	-8.33288
tak	-8.33345
▁john	-8.3387
bar	-8.33959
len	-8.34038
▁par	-8.34138
▁bestå	-8.34261
un	-8.34324
▁ju	-8.34502
▁perioden	-8.34647
▁tidlig	-8.34647
▁hver	-8.34735
▁startet	-8.34884
▁må	-8.35063
▁språk	-8.35076
gg	-8.35138
▁barn	-8.35213
les	-8.35291
▁uten	-8.35607
▁el	-8.35681
▁2005	-8.35729
▁kong	-8.35777
ak	-8.35882
▁liv	-8.35904
▁egen	-8.35926
ningen	-8.36078
ns	-8.36099
▁sommer	-8.36158
ca	-8.36265
▁dermed	-8.36292
do	-8.36357
▁folke	-8.36519
▁fleste	-8.37158
▁filmen	-8.37192
▁svær	-8.3744
▁ganger	-8.37465
▁skrevet	-8.37552
▁bandet	-8.37735
dan	-8.37984
nt	-8.38091
ina	-8.38115
▁særlig	-8.38177
sh	-8.38232
▁innbyggere	-8.38437
ko	-8.3864
sta	-8.38684
▁samtidig	-8.38724
▁kommer	-8.3889
ok	-8.39238
▁bygget	-8.39445
▁politisk	-8.39492
▁2011	-8.39548
00	-8.396
▁arbeidet	-8.39705
▁små	-8.39842
inger	-8.40356
▁brukes	-8.40514
▁lu	-8.40722
▁ingen	-8.40856
▁sol	-8.40882
gn	-8.41079
tur	-8.4121
▁innen	-8.41292
▁or	-8.41753
▁do	-8.41757
▁frankrike	-8.41794
form	-8.41997
slag	-8.42034
▁slutten	-8.42072
▁høy	-8.42152
følge	-8.42209
▁kina	-8.42217
ft	-8.42298
sp	-8.42491
▁langs	-8.42662
ag	-8.43043
ikk	-8.43176
▁fotball	-8.43407
▁måtte	-8.43809
▁r	-8.43888
▁lever	-8.44166
▁nasjonal	-8.44688
▁sett	-8.45092
▁amerikanske	-8.45231
▁pe	-8.45249
▁england	-8.45274
ud	-8.45332
▁kinesisk	-8.45857
op	-8.46025
▁sjø	-8.4614
▁london	-8.46154
▁go	-8.46452
ill	-8.46504
ik	-8.468
▁nest	-8.47093
ring	-8.47184
▁fast	-8.47264
▁begge	-8.47353
▁president	-8.47471
fa	-8.47573
▁etablert	-8.47651
▁ki	-8.47772
▁hus	-8.47832
over	-8.47904
lse	-8.48058
ny	-8.48166
▁mulig	-8.48335
▁albumet	-8.48362
▁sesongen	-8.48459
▁em	-8.48467
po	-8.48504
▁sted	-8.48697
▁eks	-8.48727
▁løpet	-8.48852
▁seks	-8.49015
▁annen	-8.49107
▁deler	-8.49123
▁x	-8.49242
ant	-8.49249
▁sch	-8.49299
▁am	-8.49395
▁viktig	-8.49496
▁tor	-8.49575
▁va	-8.49588
▁øya	-8.49607
▁grad	-8.49666
▁gruppen	-8.49884
▁hvert	-8.49934
ings	-8.50046
▁hel	-8.50169
▁klubben	-8.50405
▁fi	-8.5044
▁skrev	-8.5068
ty	-8.51274
▁2000	-8.51377
▁nytt	-8.51582
▁san	-8.51719
▁me	-8.51814
▁te	-8.5183
▁plan	-8.51917
stand	-8.51997
▁pu	-8.51999
▁25	-8.52095
ov	-8.52225
min	-8.52299
▁spilt	-8.52478
▁amerikansk	-8.52493
▁god	-8.52526
kel	-8.52762
▁verdenskrig	-8.52965
lin	-8.53307
▁støtte	-8.53316
▁tysk	-8.53398
itet	-8.53401
pa	-8.53404
▁lys	-8.53505
▁gull	-8.53518
▁kommunen	-8.53545
ede	-8.53685
satt	-8.53843
▁mat	-8.53868
pi	-8.53964
▁verdens	-8.54177
jø	-8.54371
▁krigen	-8.54397
▁stedet	-8.54413
▁gammel	-8.54526
ci	-8.54562
▁ne	-8.5473
ir	-8.54764
▁vei	-8.54857
ly	-8.54869
hold	-8.54958
▁parti	-8.55121
▁russisk	-8.55178
lu	-8.55348
▁gitt	-8.55439
kor	-8.55913
ni	-8.56074
nn	-8.56212
▁øy	-8.56609
dag	-8.56723
ken	-8.56778
▁tri	-8.5685
▁tra	-8.56951
let	-8.57043
derfor	-8.57151
lat	-8.57283
▁forskjellige	-8.57309
▁vm	-8.57726
▁kjente	-8.57749
▁ak	-8.5782
siden	-8.57836
▁po	-8.58126
ü	-8.58136
▁wa	-8.58411
▁provinsen	-8.58428
▁kultur	-8.58679
ron	-8.58798
▁2002	-8.5882
▁100	-8.58874
▁min	-8.59006
ius	-8.59143
par	-8.59155
▁ja	-8.594
▁ski	-8.59456
3	-8.59711
▁bra	-8.6002
▁jo	-8.60054
▁sv	-8.60112
ran	-8.60164
▁engelsk	-8.60332
vin	-8.60371
ble	-8.60472
▁side	-8.60967
1	-8.61036
til	-8.61079
tre	-8.61098
▁antall	-8.61244
▁gjen	-8.6132
▁bok	-8.61438
bruk	-8.61453
▁gl	-8.61544
tra	-8.61797
▁mann	-8.61973
▁21	-8.61977
▁hu	-8.61999
▁millioner	-8.6206
▁sto	-8.6215
▁gresk	-8.62273
ou	-8.62289
hus	-8.62937
▁grav	-8.62986
▁verden	-8.63083
tid	-8.63085
▁mi	-8.63327
▁cha	-8.63329
▁gu	-8.63373
inn	-8.63471
▁ge	-8.63733
▁slutt	-8.63921
▁tredje	-8.6396
▁norges	-8.63981
▁kor	-8.64009
burg	-8.64015
ord	-8.64172
▁ord	-8.64285
per	-8.64355
▁hi	-8.64626
▁ad	-8.64833
▁gir	-8.64863
ld	-8.64896
ige	-8.6542
▁kn	-8.65539
▁britiske	-8.65829
ki	-8.66055
mb	-8.6612
▁spesielt	-8.66155
▁stort	-8.66174
lag	-8.6661
▁ch	-8.6665
mmer	-8.67086
mon	-8.67194
▁2001	-8.67263
uten	-8.67317
▁lokal	-8.6753
▁22	-8.67531
▁19	-8.67534
▁sam	-8.67704
dre	-8.67802
2	-8.67932
▁vel	-8.68183
▁2003	-8.6837
▁gjort	-8.684
▁ab	-8.68452
▁fred	-8.68547
elle	-8.68662
▁paris	-8.68957
▁23	-8.6899
▁italia	-8.69109
tiden	-8.69145
▁historie	-8.6942
▁omkring	-8.69477
ninger	-8.69841
▁24	-8.69932
▁langt	-8.70181
▁person	-8.702
▁fordi	-8.70206
▁mennesker	-8.70223
ley	-8.70347
ian	-8.70357
stein	-8.70529
he	-8.70535
ek	-8.70542
sto	-8.70603
▁1990	-8.70613
▁danmark	-8.70614
▁sangen	-8.70921
▁gruppe	-8.70928
jo	-8.71145
met	-8.71209
ru	-8.7123
▁godt	-8.71384
▁familien	-8.71399
sch	-8.71487
isme	-8.7166
ow	-8.71847
▁ver	-8.71861
▁flytte	-8.72099
▁sendt	-8.72155
ting	-8.72203
▁fortsatt	-8.72211
tor	-8.723
sten	-8.72447
ong	-8.72449
▁forbindelse	-8.72543
▁bil	-8.72846
▁serie	-8.73033
▁1980	-8.73314
▁divisjon	-8.73499
▁50	-8.73558
est	-8.73623
▁serien	-8.73783
▁forhold	-8.73805
▁åtte	-8.73855
▁farge	-8.73904
▁holdt	-8.7412
hu	-8.74172
val	-8.74223
sett	-8.74256
skole	-8.74297
▁roman	-8.74368
kom	-8.74648
som	-8.74699
▁bergen	-8.74926
▁basert	-8.74992
tro	-8.75021
und	-8.75034
▁bas	-8.75121
▁ledet	-8.75147
▁sentral	-8.75189
▁stein	-8.75197
verk	-8.75295
▁dyr	-8.75325
▁tar	-8.75377
ium	-8.75385
plass	-8.75615
▁lite	-8.75769
▁personer	-8.75943
▁fag	-8.76038
▁art	-8.76083
▁vinter	-8.76304
▁gjør	-8.76336
fe	-8.76641
▁opprettet	-8.76875
▁1970	-8.76879
▁spille	-8.76998
▁fjell	-8.77015
▁periode	-8.77093
▁viser	-8.77258
▁storbritannia	-8.77277
pen	-8.77341
▁selskapet	-8.77341
lot	-8.77402
ologi	-8.77628
▁sand	-8.77659
▁all	-8.77664
ber	-8.777
mål	-8.77743
mar	-8.77771
▁dr	-8.78105
▁delstaten	-8.7811
▁styre	-8.78327
▁konge	-8.78351
▁bort	-8.78371
▁afrika	-8.78453
▁delen	-8.78584
gård	-8.78661
▁ført	-8.7913
▁mark	-8.79174
gu	-8.79514
▁bety	-8.79519
vel	-8.79519
fi	-8.79542
▁pre	-8.79553
ug	-8.79802
▁kontroll	-8.79928
▁folk	-8.80122
bel	-8.80135
▁lav	-8.80159
▁karl	-8.803
▁svensk	-8.80356
værende	-8.80514
▁får	-8.80607
my	-8.80625
▁gud	-8.80703
rik	-8.80838
▁bygge	-8.80882
▁mal	-8.80984
▁utnevnt	-8.80997
▁utenfor	-8.81092
▁hjem	-8.81096
▁jord	-8.8113
▁kirken	-8.81281
▁halv	-8.81338
▁universitetet	-8.81395
▁stat	-8.81444
▁én	-8.81451
▁krigs	-8.81502
▁hatt	-8.81528
bb	-8.81553
forening	-8.81714
if	-8.81728
so	-8.81744
bre	-8.81835
▁forfatter	-8.81909
▁valgt	-8.82256
▁1960	-8.82276
▁gjøre	-8.82286
▁skolen	-8.82488
▁nor	-8.82782
stilling	-8.82783
▁utviklet	-8.82804
elsen	-8.82825
▁au	-8.82855
ham	-8.8302
5	-8.83094
▁1999	-8.83131
▁midt	-8.83214
▁prest	-8.83629
▁rom	-8.83674
itt	-8.8404
▁mon	-8.84047
▁26	-8.84089
▁z	-8.84139
isere	-8.84278
▁ser	-8.84363
▁moderne	-8.84452
50	-8.84456
▁elven	-8.84458
▁rolle	-8.84567
▁1996	-8.84865
spill	-8.84868
du	-8.84917
▁car	-8.84925
setning	-8.84985
▁natur	-8.85075
ot	-8.85094
▁liten	-8.85137
nk	-8.85157
▁nok	-8.85459
▁hen	-8.85651
▁kalles	-8.85734
▁con	-8.85833
▁kongen	-8.85847
gjerne	-8.8587
▁reise	-8.8617
▁aktiv	-8.86263
kon	-8.86513
ator	-8.86605
▁valg	-8.86625
▁val	-8.8666
▁fant	-8.86779
heten	-8.86871
▁funnet	-8.86964
stre	-8.86979
▁ty	-8.86996
ket	-8.87045
▁betydning	-8.87073
▁general	-8.87095
ret	-8.87152
▁27	-8.87195
▁bro	-8.87238
yl	-8.87395
tiske	-8.87442
▁my	-8.87449
ksjon	-8.87471
í	-8.87512
tar	-8.87681
▁enkelte	-8.87686
▁henne	-8.87735
▁måte	-8.87856
▁luft	-8.88008
▁verk	-8.88013
før	-8.88158
▁com	-8.8828
elig	-8.88295
wa	-8.88297
så	-8.88371
ska	-8.88437
▁motor	-8.88496
▁familie	-8.88557
ac	-8.88821
lei	-8.88895
▁gav	-8.89254
▁forsøk	-8.89321
▁partiet	-8.89462
kj	-8.89575
▁ed	-8.89582
far	-8.89954
▁menn	-8.89992
dom	-8.90227
port	-8.90234
▁pr	-8.90234
landet	-8.90309
dalen	-8.90726
art	-8.90768
▁egne	-8.9104
▁veien	-8.91141
▁står	-8.91179
spiller	-8.91209
▁bl	-8.9154
▁1994	-8.91656
▁industri	-8.91702
▁paul	-8.91771
▁hav	-8.91971
▁1992	-8.92124
løs	-8.92194
▁berg	-8.92237
▁åpnet	-8.92244
▁hjelp	-8.92275
▁medlemmer	-8.92424
▁krig	-8.92522
▁råd	-8.92638
legg	-8.92646
fjord	-8.92667
▁organ	-8.92687
og	-8.92818
▁meget	-8.92921
▁band	-8.92981
lene	-8.93142
▁ben	-8.93323
▁regjering	-8.93323
▁jeg	-8.93323
▁syn	-8.9341
▁vise	-8.93441
▁datter	-8.93466
▁nummer	-8.93483
ds	-8.93529
▁offentlig	-8.93541
▁1998	-8.93547
borg	-8.93554
▁stil	-8.93715
skje	-8.93793
▁kamp	-8.93909
bok	-8.94059
▁neste	-8.94086
uk	-8.94107
fl	-8.94379
▁ku	-8.94403
▁fu	-8.94419
kan	-8.94634
gh	-8.9468
laget	-8.9492
▁1988	-8.94988
▁1995	-8.9499
løp	-8.95006
vei	-8.95009
za	-8.95014
em	-8.95246
▁mag	-8.95271
ku	-8.95284
▁2012	-8.95481
ller	-8.95516
▁park	-8.95659
▁foran	-8.95693
80	-8.95785
▁kur	-8.95802
dring	-8.95881
▁gå	-8.96178
▁venn	-8.96205
▁spor	-8.96216
▁hy	-8.96392
▁york	-8.96447
▁solgt	-8.96459
▁innenfor	-8.96548
▁bygd	-8.96569
rø	-8.96677
sson	-8.96758
råd	-8.96759
▁følge	-8.96829
▁kvinner	-8.96859
▁fall	-8.96859
▁omfatte	-8.96904
▁rø	-8.96994
▁skuespiller	-8.97059
▁svenske	-8.97215
▁høyre	-8.97294
▁on	-8.9731
▁mil	-8.97325
▁berlin	-8.97526
▁rock	-8.97633
leder	-8.98027
▁best	-8.98081
▁radio	-8.98099
▁1920	-8.98445
▁tildelt	-8.98469
tan	-8.98497
▁arbeider	-8.98498
▁sang	-8.98565
▁lands	-8.98672
▁ferdig	-8.98874
▁album	-8.98923
▁århundre	-8.98935
▁29	-8.99083
▁mu	-8.99092
▁gre	-8.99147
▁gul	-8.9916
▁bruker	-8.99204
▁skog	-8.99258
▁såkalt	-8.99444
▁ur	-8.99456
ica	-8.99498
yn	-8.99513
hi	-8.99633
▁vo	-8.99639
tz	-8.99787
▁slaget	-8.99875
▁knytte	-8.99948
▁sølv	-8.99949
▁fo	-8.99991
mark	-9.00107
tin	-9.0027
▁slag	-9.0032
▁arter	-9.00325
▁28	-9.00432
ine	-9.00511
▁post	-9.00546
fjorden	-9.0055
▁aldri	-9.00666
▁anti	-9.00679
▁sosial	-9.0072
▁litt	-9.00749
▁ettersom	-9.00788
▁militær	-9.00791
lla	-9.00834
tisk	-9.00835
▁eget	-9.00836
▁møte	-9.00918
▁felles	-9.00975
▁1997	-9.00976
▁internasjonale	-9.01039
▁hol	-9.01104
▁russland	-9.01487
▁bestemt	-9.01532
sti	-9.01601
▁minst	-9.01669
rat	-9.0169
▁van	-9.01715
bil	-9.01741
sund	-9.01746
▁bor	-9.01773
▁stats	-9.01829
▁tap	-9.01919
▁betydelig	-9.02005
▁begynnelsen	-9.02007
▁europeisk	-9.02028
▁fl	-9.02118
▁roma	-9.0232
ding	-9.02411
▁kamper	-9.02495
film	-9.02583
▁slått	-9.02606
dra	-9.02652
▁ett	-9.02719
▁tjeneste	-9.02728
and	-9.02948
▁200	-9.02949
▁tu	-9.02954
ving	-9.02967
▁ren	-9.02973
lands	-9.0304
▁fe	-9.03074
▁1900	-9.03081
▁politiker	-9.03087
▁pass	-9.03108
ps	-9.03269
ien	-9.03313
▁arbeids	-9.03401
▁regjeringen	-9.03464
▁fåt	-9.03704
▁full	-9.0374
øya	-9.03773
ach	-9.0387
ale	-9.03951
stat	-9.03952
fra	-9.03991
▁tittelen	-9.042
▁dager	-9.04418
lser	-9.04447
su	-9.04457
▁je	-9.04488
▁omtrent	-9.04636
rom	-9.04695
▁viktigste	-9.04717
▁jernbane	-9.04781
▁th	-9.04835
▁40	-9.04895
▁steder	-9.05044
▁fortsatte	-9.0509
▁topp	-9.05113
ation	-9.05154
▁lange	-9.05251
▁suksess	-9.05281
▁johan	-9.05403
▁produksjon	-9.05445
▁keiser	-9.05484
8	-9.05571
dømme	-9.05572
krigen	-9.05706
bl	-9.05737
▁kvinne	-9.05795
▁riks	-9.058
istiske	-9.05849
ó	-9.05896
▁menneske	-9.05939
▁angrep	-9.05998
mester	-9.06002
▁eu	-9.06031
▁sak	-9.06056
▁1950	-9.0627
▁komme	-9.06306
▁fiske	-9.06347
ey	-9.06384
▁port	-9.06429
▁slekt	-9.06524
▁handels	-9.06738
ung	-9.06745
ab	-9.0682
olog	-9.06877
▁befolkningen	-9.0689
▁dikt	-9.069
▁staten	-9.06908
▁reist	-9.07122
▁teater	-9.07134
veien	-9.07176
▁grunnlagt	-9.07258
heim	-9.0744
▁produsert	-9.07443
▁india	-9.07496
▁pan	-9.07535
▁regnes	-9.07625
▁mus	-9.07629
▁danne	-9.07675
kken	-9.07757
▁university	-9.07922
folk	-9.08062
ski	-9.08156
▁fylke	-9.08229
elt	-9.0836
▁venstre	-9.08449
up	-9.08667
▁borger	-9.08674
▁peter	-9.08708
▁arbeid	-9.08739
▁direkte	-9.08996
▁vanskelig	-9.08998
▁1991	-9.09
pu	-9.09068
▁resten	-9.09111
▁følgende	-9.09304
▁barne	-9.09309
▁brun	-9.09391
▁rød	-9.09418
▁hjemme	-9.09487
▁minne	-9.09525
▁dagens	-9.09562
▁slo	-9.09599
isert	-9.09615
▁kar	-9.09656
▁inneholder	-9.09688
▁hva	-9.09775
▁tross	-9.10089
anger	-9.10243
old	-9.10306
ister	-9.10386
▁os	-9.10433
▁orden	-9.10652
▁31	-9.10679
▁interesse	-9.10698
lsen	-9.10756
▁bror	-9.10869
▁kraft	-9.11083
▁japan	-9.11105
▁sanger	-9.1116
ya	-9.11226
▁inkludert	-9.11249
▁1993	-9.1126
▁via	-9.11324
▁resultat	-9.11343
▁delt	-9.11386
kal	-9.11497
asjoner	-9.11784
▁hovedsakelig	-9.11826
▁nett	-9.11832
▁romersk	-9.11847
▁kj	-9.11903
føring	-9.12041
▁konsert	-9.12045
ari	-9.12156
▁lett	-9.12219
▁ve	-9.1226
dyr	-9.12342
ap	-9.12403
▁poeng	-9.12404
leg	-9.12409
lev	-9.12418
▁henhold	-9.12423
stilt	-9.12423
▁ste	-9.12433
tall	-9.12521
plan	-9.12658
gel	-9.12669
menn	-9.1276
fri	-9.12761
▁sal	-9.12834
▁system	-9.12869
▁stra	-9.12874
▁amerika	-9.1289
▁christian	-9.12908
▁william	-9.12974
▁eldste	-9.12974
gre	-9.12994
▁henrik	-9.12996
▁endt	-9.13203
▁historisk	-9.13245
▁leker	-9.13432
▁pave	-9.13551
▁representert	-9.13555
gått	-9.13687
kret	-9.13846
pr	-9.13911
▁1945	-9.1414
▁sentrum	-9.14143
▁likevel	-9.1418
▁skip	-9.14252
mat	-9.14341
▁indre	-9.14407
▁hvis	-9.14431
▁våpen	-9.14488
▁makt	-9.14579
▁studert	-9.14732
▁1964	-9.14741
▁gen	-9.14905
▁sø	-9.14947
▁motstand	-9.14962
▁1800	-9.14973
selskap	-9.15004
▁dannet	-9.15111
▁ønsket	-9.15205
▁hverandre	-9.1532
▁drept	-9.1532
ris	-9.15361
ald	-9.15479
iet	-9.15534
▁seier	-9.1589
▁lagt	-9.15899
▁stockholm	-9.15915
▁professor	-9.1602
▁liste	-9.1625
full	-9.16315
bygd	-9.1633
▁herre	-9.16338
nntil	-9.16382
▁vin	-9.16459
lå	-9.16462
▁dårlig	-9.16514
produkt	-9.16519
▁1984	-9.1652
▁dra	-9.16565
▁holde	-9.16703
system	-9.16762
bro	-9.16892
fly	-9.16916
res	-9.1694
▁samarbeid	-9.17129
▁1940	-9.17131
▁kal	-9.17145
▁eldre	-9.17155
▁høyeste	-9.17174
▁meste	-9.17176
eres	-9.17188
▁gate	-9.17234
ritt	-9.17254
▁ø	-9.17255
dy	-9.17274
ct	-9.17362
▁sy	-9.17376
▁areal	-9.17378
▁litteratur	-9.17388
▁q	-9.17481
▁nordlige	-9.17483
▁lokale	-9.17489
▁fange	-9.1786
ika	-9.18036
▁regn	-9.18154
▁bru	-9.18195
søk	-9.18211
▁arm	-9.1826
а	-9.18332
ys	-9.18464
ai	-9.18681
mor	-9.18853
▁wi	-9.18937
▁thomas	-9.18946
▁trondheim	-9.18946
▁skrive	-9.19064
grad	-9.19118
▁olav	-9.19135
▁60	-9.19136
▁klar	-9.19249
▁dro	-9.19275
▁enkelt	-9.19384
mot	-9.1945
syn	-9.19458
lik	-9.19502
▁bri	-9.19517
▁dess	-9.19534
▁ros	-9.19556
▁2013	-9.19576
▁ber	-9.19597
stasjon	-9.19639
van	-9.19669
▁benyttet	-9.19743
▁bedre	-9.19753
▁krav	-9.19773
▁kv	-9.19883
▁lik	-9.20144
▁1989	-9.20194
▁1987	-9.20195
▁1986	-9.20196
▁finalen	-9.20214
▁brø	-9.20253
ismen	-9.20313
▁midten	-9.20368
▁biskop	-9.20398
▁blo	-9.20402
ford	-9.20477
▁mont	-9.2058
▁tom	-9.20639
▁regionen	-9.2076
▁energi	-9.2088
▁lenger	-9.21095
▁versjon	-9.21126
▁engelske	-9.21136
▁hal	-9.21255
▁benytte	-9.21259
skip	-9.21362
▁egypt	-9.21376
▁tak	-9.21402
fabrikk	-9.21611
▁tapte	-9.21689
▁kraftig	-9.21693
▁livet	-9.21731
▁bred	-9.2178
lis	-9.21917
▁viste	-9.21971
▁miljø	-9.22016
nings	-9.22019
kul	-9.22023
▁høyde	-9.22068
▁sovjetunionen	-9.22071
▁canada	-9.22071
han	-9.22101
▁elva	-9.22174
▁rev	-9.22197
banen	-9.22209
▁sen	-9.2224
▁linje	-9.22382
7	-9.22485
▁bal	-9.22487
tun	-9.22527
▁kla	-9.22571
▁kol	-9.22923
▁sky	-9.22988
▁mente	-9.23
båt	-9.23151
▁område	-9.23167
sjef	-9.23174
ah	-9.23287
▁samlet	-9.23349
▁kroppen	-9.23352
▁lille	-9.23356
▁1968	-9.23359
▁bruke	-9.23401
sje	-9.23403
▁mos	-9.23499
▁von	-9.23553
ros	-9.23558
▁israel	-9.23658
▁fin	-9.23712
kamp	-9.23739
▁hånd	-9.23868
festival	-9.23996
bru	-9.2412
▁bank	-9.24138
▁dansk	-9.24225
stående	-9.24266
all	-9.24355
bane	-9.2436
▁jan	-9.24445
ino	-9.24594
▁sannsynlig	-9.24643
▁voksne	-9.24643
▁2015	-9.24661
▁britisk	-9.24687
▁viss	-9.24752
▁stemme	-9.24762
▁danske	-9.24763
20	-9.24887
▁natt	-9.24984
eid	-9.25235
▁kampen	-9.25235
▁arrangert	-9.25297
▁hvilke	-9.25297
gitt	-9.25321
ju	-9.25377
▁cor	-9.25583
vær	-9.25778
▁utvikling	-9.25818
sy	-9.25834
▁befolkning	-9.25836
ons	-9.25871
vann	-9.25875
▁kilometer	-9.25955
▁sørøst	-9.25987
▁robert	-9.25995
▁nordøst	-9.25998
▁bre	-9.26007
▁pris	-9.26212
▁mis	-9.26235
▁totalt	-9.26271
▁alder	-9.26352
▁sha	-9.26421
▁seil	-9.26475
▁ball	-9.26528
ana	-9.26553
pper	-9.2664
▁gode	-9.26669
▁ev	-9.26728
lagt	-9.26786
▁tilhører	-9.27012
året	-9.27163
stil	-9.27191
▁dronning	-9.27288
▁møtte	-9.27466
liggende	-9.2747
▁helse	-9.27475
▁mester	-9.27493
▁renn	-9.27542
retning	-9.27565
▁koloni	-9.27572
▁gansk	-9.27714
▁hvit	-9.27779
▁grensen	-9.28039
merke	-9.28046
▁svarte	-9.28102
▁david	-9.28109
▁rike	-9.28152
istisk	-9.28205
▁eid	-9.28225
▁ul	-9.28336
▁ring	-9.28634
▁1973	-9.28642
▁1976	-9.28643
▁vår	-9.28648
▁løp	-9.28659
▁we	-9.28681
vern	-9.28701
▁500	-9.28783
fon	-9.28796
▁skade	-9.28851
▁sir	-9.28895
kant	-9.28925
▁avdeling	-9.28954
cu	-9.29124
▁80	-9.2913
red	-9.29216
▁kjempe	-9.29309
▁australia	-9.29311
▁spania	-9.29311
▁brasil	-9.29313
evne	-9.29354
▁brukte	-9.29546
iner	-9.29828
▁stjerne	-9.29872
▁regi	-9.29972
▁2014	-9.30008
▁militære	-9.30235
▁kle	-9.30365
▁tur	-9.30377
nner	-9.30465
▁jon	-9.3049
dor	-9.30531
▁relativ	-9.30686
▁super	-9.30705
▁sogn	-9.3078
▁sommeren	-9.30939
▁områder	-9.30956
▁finne	-9.30968
▁col	-9.30978
▁musiker	-9.31093
▁arten	-9.31096
▁bj	-9.31121
ay	-9.31146
ath	-9.31197
▁tekst	-9.312
▁jobb	-9.31225
språk	-9.31277
▁københavn	-9.3138
▁1952	-9.31391
▁city	-9.31396
tok	-9.31521
vet	-9.31532
▁slekten	-9.3172
▁gård	-9.31857
▁mc	-9.31877
▁utgjør	-9.31895
alt	-9.31908
▁sentrale	-9.31975
▁punkt	-9.32002
sjonen	-9.32109
▁fre	-9.32292
gruppen	-9.32315
▁samling	-9.32323
▁bjørn	-9.32337
▁erstattet	-9.32536
fest	-9.32544
▁ex	-9.32556
▁sterk	-9.32604
hl	-9.32767
huset	-9.32781
о	-9.32783
▁prosent	-9.3279
▁1982	-9.32795
øl	-9.32797
▁leve	-9.328
hopp	-9.32839
▁don	-9.32851
▁mur	-9.32885
rå	-9.32914
▁hvite	-9.32976
els	-9.33
▁havet	-9.33181
40	-9.33263
sky	-9.33408
▁skille	-9.33496
▁1981	-9.33499
▁1948	-9.33506
▁erik	-9.3358
che	-9.3364
▁finland	-9.33646
▁bø	-9.33839
styre	-9.3395
▁sig	-9.34212
▁pl	-9.34216
▁mod	-9.34326
▁ke	-9.34348
▁universitet	-9.3437
▁finner	-9.34457
asjonen	-9.3446
samling	-9.34466
gren	-9.34534
▁gran	-9.34547
▁boken	-9.34563
fin	-9.34585
ves	-9.34658
▁styrke	-9.34724
chi	-9.34742
▁70	-9.34821
▁gri	-9.34865
▁anders	-9.34886
▁fjorden	-9.34918
▁1974	-9.34938
bra	-9.34942
▁drift	-9.35017
▁tele	-9.35067
▁brann	-9.35106
▁qu	-9.35115
▁dom	-9.35203
▁vekt	-9.35336
▁sykdom	-9.35371
▁para	-9.35431
▁grupper	-9.35484
▁kors	-9.35518
ich	-9.35525
▁1975	-9.35657
▁lær	-9.35665
▁kjenne	-9.35699
▁asia	-9.3581
bud	-9.35841
tegn	-9.36031
▁fjerde	-9.36381
▁1985	-9.36386
▁1972	-9.36393
▁bøker	-9.36398
ins	-9.36402
skog	-9.36458
forbund	-9.36523
▁za	-9.36698
▁lege	-9.36733
lan	-9.36746
▁hæren	-9.36793
▁verdi	-9.36834
▁sta	-9.36922
▁lyd	-9.36982
ight	-9.36996
▁dagen	-9.36999
▁sørlig	-9.37023
gan	-9.37033
kar	-9.37107
▁informasjon	-9.37116
▁omfatter	-9.37141
▁politi	-9.37168
givelse	-9.37233
område	-9.37306
▁klarte	-9.37321
▁samle	-9.37395
▁lengde	-9.37407
▁studie	-9.37451
▁katolske	-9.37507
bø	-9.37625
▁heller	-9.37636
▁delta	-9.37772
▁1979	-9.37867
▁års	-9.37956
idae	-9.37984
q	-9.38339
dt	-9.38445
▁west	-9.38491
▁stasjon	-9.38507
historiker	-9.38618
kast	-9.38774
▁chi	-9.38803
rud	-9.38819
fal	-9.38916
▁lærer	-9.38926
▁høyere	-9.38962
▁uni	-9.39082
gift	-9.39095
▁lenge	-9.39098
styrt	-9.39169
rus	-9.39191
▁miste	-9.392
▁klasse	-9.39345
▁offisiell	-9.39355
messig	-9.39356
▁kl	-9.39358
▁2016	-9.39377
▁alltid	-9.3939
▁vol	-9.39411
fall	-9.39623
▁løs	-9.39715
▁kron	-9.39748
yd	-9.39748
hy	-9.39752
▁fulgte	-9.39759
pol	-9.39785
▁ag	-9.40046
systemet	-9.40055
▁smal	-9.40088
▁program	-9.40091
tatt	-9.40099
ji	-9.40102
▁øverst	-9.40113
▁sørvest	-9.40117
▁bodde	-9.40119
▁tett	-9.40127
ater	-9.40213
▁bill	-9.4029
gress	-9.40349
king	-9.40388
▁olje	-9.40449
▁mari	-9.40494
mu	-9.4056
▁sc	-9.40646
fer	-9.40663
las	-9.40705
▁lars	-9.40798
ze	-9.40835
▁ger	-9.40865
▁hertug	-9.40878
sal	-9.40902
▁enten	-9.40913
ip	-9.40938
que	-9.40961
oppgave	-9.41288
▁oppdaget	-9.41297
▁island	-9.41354
▁moh	-9.41363
har	-9.41462
▁ledelse	-9.41481
sjøen	-9.41481
▁fer	-9.41566
▁1971	-9.41645
▁1969	-9.41658
▁op	-9.41683
▁maria	-9.41683
hr	-9.41713
graf	-9.41751
▁gro	-9.41799
anlegg	-9.41807
▁ter	-9.41847
▁stiftet	-9.41885
havet	-9.41911
64	-9.41917
ini	-9.41983
way	-9.42067
▁høsten	-9.42182
rop	-9.42274
▁sj	-9.42282
▁oppført	-9.42333
▁blå	-9.4235
▁raskt	-9.42435
▁sterkt	-9.42465
▁artene	-9.42489
▁journalist	-9.42533
senter	-9.4275
▁xi	-9.42754
▁fot	-9.42782
▁skje	-9.42791
▁naturlig	-9.42898
jel	-9.42914
tel	-9.4299
int	-9.43068
▁mm	-9.43131
▁stavanger	-9.43209
▁standard	-9.43224
▁lin	-9.43258
▁hø	-9.43357
akt	-9.43367
▁sammenheng	-9.43434
▁skape	-9.43465
▁huset	-9.43549
navn	-9.43555
▁spi	-9.43672
▁svart	-9.43675
▁sikre	-9.43685
▁fil	-9.43934
▁pol	-9.43995
▁1983	-9.43998
▁lengre	-9.43999
▁statsminister	-9.44001
▁kjøre	-9.44021
▁sivil	-9.4403
▁feil	-9.441
▁gar	-9.44105
▁regne	-9.44139
▁thor	-9.44218
stid	-9.44219
▁kyst	-9.44363
▁italiensk	-9.44519
lighet	-9.44575
punkt	-9.4459
▁skrift	-9.44603
▁georg	-9.44638
navnet	-9.44747
▁utbredt	-9.44783
▁personlig	-9.44814
kraft	-9.44854
▁martin	-9.44856
▁stille	-9.45034
▁hall	-9.45079
▁ting	-9.45142
▁blad	-9.45245
▁båt	-9.45245
drag	-9.45248
▁selskap	-9.45351
▁flo	-9.45378
▁pri	-9.45383
ark	-9.45466
▁ordet	-9.45536
ā	-9.45583
▁1930	-9.45598
▁grenser	-9.45615
▁start	-9.45662
▁iii	-9.45685
▁400	-9.45742
▁prøve	-9.45805
▁rus	-9.45881
▁skapt	-9.45887
▁gården	-9.45896
▁nivå	-9.45911
▁nådd	-9.45931
bert	-9.45992
▁museum	-9.45996
gående	-9.46007
▁pat	-9.46031
▁sesong	-9.46169
▁you	-9.4642
ph	-9.46433
bytte	-9.46494
dik	-9.46498
▁følger	-9.46632
▁tegn	-9.46648
▁sjef	-9.46668
▁sh	-9.4669
▁bad	-9.46758
▁syv	-9.46838
▁polen	-9.46924
▁funksjon	-9.46927
▁latin	-9.46971
vid	-9.47044
virkning	-9.4713
ani	-9.47169
▁skyld	-9.47235
▁kjøpt	-9.47247
tsj	-9.47365
plassen	-9.47366
▁hovedstaden	-9.47373
af	-9.47377
▁høyt	-9.47385
▁faren	-9.47403
▁overtok	-9.47416
▁privat	-9.47419
▁endret	-9.47477
▁skipet	-9.47478
▁styrker	-9.47538
mannen	-9.4755
pris	-9.47551
makt	-9.47598
▁størrelse	-9.47645
▁hær	-9.47815
▁hevde	-9.47836
▁virke	-9.47873
▁besøk	-9.47951
▁original	-9.48022
▁symbol	-9.48022
▁fortsette	-9.48047
▁bakgrunn	-9.48051
spor	-9.48108
side	-9.48131
▁blod	-9.48201
lia	-9.48216
▁japansk	-9.48246
itz	-9.48278
▁utviklingen	-9.48278
mel	-9.48283
ekte	-9.48329
lling	-9.48344
37	-9.484
▁cup	-9.48451
az	-9.48544
▁trans	-9.48671
oc	-9.48769
▁sluttet	-9.48775
vunnet	-9.48849
▁1978	-9.48861
▁unge	-9.48924
▁skjedde	-9.48954
▁eiendom	-9.48955
▁stadig	-9.48995
regionen	-9.49013
▁femte	-9.49022
▁ky	-9.49026
▁syd	-9.49068
mun	-9.49152
▁turn	-9.49201
anske	-9.49216
området	-9.4924
områder	-9.49274
pass	-9.49317
stra	-9.49359
▁ry	-9.49396
nske	-9.49415
▁kul	-9.49518
9	-9.49736
▁george	-9.49785
▁johannes	-9.49887
▁programmet	-9.50066
▁slike	-9.50069
shire	-9.50087
55	-9.50179
▁strøm	-9.50235
▁trak	-9.50279
▁cla	-9.50318
▁gjennomført	-9.50375
fag	-9.50463
▁ii	-9.50504
▁red	-9.50511
▁komponist	-9.50522
▁fylkesvei	-9.50533
▁variant	-9.50593
▁merke	-9.50627
▁fro	-9.50692
skrift	-9.50707
▁los	-9.50733
▁posisjon	-9.50752
ras	-9.50808
▁måneder	-9.50813
▁problem	-9.50832
▁plante	-9.50963
▁skatt	-9.50965
▁bomb	-9.5097
byen	-9.50986
asj	-9.51049
ektor	-9.51095
▁bur	-9.51213
▁historien	-9.5125
minister	-9.51335
lv	-9.51351
▁tilsvarende	-9.51369
▁ten	-9.51447
organisasjon	-9.51574
▁retning	-9.51607
▁oppkal	-9.51646
don	-9.51681
▁af	-9.51702
bygging	-9.51757
▁cm	-9.51781
vil	-9.51873
▁stilling	-9.51882
▁kh	-9.51975
▁stod	-9.52006
▁vold	-9.52016
musikk	-9.52197
и	-9.52224
▁bevart	-9.52241
▁sju	-9.52283
▁vestlige	-9.52543
stan	-9.52587
▁avis	-9.52622
▁daglig	-9.5273
▁karakter	-9.52771
▁hit	-9.52878
▁not	-9.53032
▁felt	-9.53033
è	-9.53047
▁90	-9.53067
▁fengsel	-9.53086
▁østerrike	-9.53087
▁bronse	-9.5309
▁1977	-9.531
▁fremdeles	-9.53119
tive	-9.5315
▁vokse	-9.53172
førte	-9.5327
▁opprør	-9.53284
▁vinner	-9.53323
▁plassert	-9.53474
ansk	-9.5356
loven	-9.53561
bin	-9.53624
▁ære	-9.53662
familien	-9.53671
arbeid	-9.53714
▁uavhengig	-9.53722
▁sette	-9.5381
ben	-9.53831
bygg	-9.5389
▁hodet	-9.53922
▁karriere	-9.53924
▁eier	-9.53925
ð	-9.53956
▁kardinal	-9.53956
gar	-9.53956
▁selvstendig	-9.53961
▁1962	-9.5397
▁ordfører	-9.53972
ville	-9.5398
ama	-9.54008
trykk	-9.54051
ød	-9.54095
inyin	-9.5411
86	-9.54173
styrke	-9.54211
med	-9.54287
▁nu	-9.54316
mus	-9.54369
trekk	-9.54421
høy	-9.54506
bor	-9.54514
▁trykk	-9.5453
vinne	-9.54535
▁anne	-9.54582
▁tradisjonell	-9.54604
▁bør	-9.54697
skolen	-9.54729
▁time	-9.54742
▁mac	-9.54772
folkerepublikken	-9.54833
▁etterhvert	-9.54833
▁1924	-9.54843
▁1965	-9.54845
ledes	-9.54854
rakt	-9.54879
zi	-9.54935
ib	-9.55023
▁nan	-9.55028
ås	-9.55043
▁pal	-9.5517
▁anlegget	-9.55252
xi	-9.55314
▁røde	-9.55341
▁data	-9.55356
ction	-9.55358
▁drev	-9.55378
▁valgte	-9.55424
▁can	-9.55431
▁tall	-9.55499
▁delvis	-9.55605
▁trøndelag	-9.55718
▁bygningen	-9.55724
▁1967	-9.55733
▁rang	-9.55861
▁bolig	-9.55912
48	-9.55926
ör	-9.55969
▁nrk	-9.56
▁irland	-9.56093
deling	-9.56108
▁stø	-9.56197
▁ly	-9.56198
▁prisen	-9.56518
▁religion	-9.56611
▁figur	-9.56692
▁kysten	-9.56704
▁regel	-9.56719
▁valget	-9.5675
▁foss	-9.56866
produksjon	-9.56911
▁trolig	-9.56912
▁klart	-9.56973
▁politikk	-9.57006
▁årlig	-9.57156
iserte	-9.57275
kraftverk	-9.57285
fart	-9.57312
▁nederland	-9.57315
▁avisen	-9.57345
holm	-9.57367
▁modell	-9.57432
▁dyp	-9.57438
øve	-9.57487
▁1932	-9.5752
kin	-9.57524
of	-9.57606
▁distrikt	-9.57608
▁innført	-9.57624
▁kunstner	-9.57682
zhou	-9.57707
omme	-9.57719
30	-9.57903
38	-9.57905
▁spørsmål	-9.57905
▁legge	-9.57951
▁åpen	-9.57964
temp	-9.58151
▁air	-9.58235
▁forsvar	-9.58369
▁mel	-9.58382
▁betrakte	-9.58422
▁stortinget	-9.58424
▁friidrett	-9.58434
▁1966	-9.58438
▁vokste	-9.5844
▁fotballspiller	-9.58464
▁søster	-9.58469
56	-9.58475
60	-9.58497
på	-9.58509
▁heter	-9.58636
løse	-9.58649
▁tusen	-9.5865
▁region	-9.58732
departementet	-9.58746
▁arkitekt	-9.5877
▁real	-9.58844
▁rekord	-9.58863
▁transport	-9.58917
gler	-9.59084
▁varme	-9.59253
▁ordenen	-9.59305
▁kart	-9.59314
tør	-9.5933
▁1944	-9.59351
▁type	-9.59385
▁problemer	-9.59393
tikken	-9.59409
orm	-9.59439
▁nederlandsk	-9.59548
▁300	-9.59566
▁athen	-9.59604
▁sel	-9.59658
▁begrepet	-9.59681
ano	-9.59699
▁vik	-9.59776
valget	-9.59809
her	-9.59848
▁teori	-9.60063
cc	-9.60085
skiftet	-9.60113
▁formel	-9.60162
dals	-9.60177
▁beijing	-9.60264
▁eg	-9.60284
▁temperatur	-9.60286
66	-9.60301
▁gru	-9.60303
rum	-9.60309
▁skjer	-9.60478
▁havn	-9.6048
▁hår	-9.60481
▁jobbet	-9.60515
ast	-9.60548
ori	-9.60617
▁flat	-9.60722
person	-9.60821
▁trafikk	-9.60882
svis	-9.60896
▁soldater	-9.60921
42	-9.6094
ida	-9.60944
87	-9.60954
▁sm	-9.60967
▁forsvars	-9.61009
sak	-9.61027
kle	-9.61056
76	-9.61086
ria	-9.6113
▁holder	-9.6114
ferd	-9.61145
▁tilgjengelig	-9.61199
▁egentlig	-9.61226
▁handling	-9.61226
▁tradisjon	-9.61234
bilde	-9.61238
▁virksomhet	-9.61254
▁masse	-9.61305
▁munn	-9.61358
dighet	-9.61389
age	-9.61421
▁tung	-9.61445
▁enhet	-9.61544
▁organisasjon	-9.61632
▁utdanning	-9.61639
▁uttrykk	-9.61691
▁ung	-9.61737
▁økonomiske	-9.61835
▁fest	-9.6185
▁kat	-9.61891
itu	-9.61945
▁jorden	-9.61982
▁drive	-9.6206
▁1954	-9.62154
▁1946	-9.62159
arter	-9.62203
▁gra	-9.62225
▁inter	-9.62235
▁ac	-9.62349
▁rute	-9.6249
tjeneste	-9.62528
våpen	-9.62548
klubb	-9.62716
iz	-9.62722
ola	-9.62724
▁viktige	-9.62892
▁un	-9.6291
▁fremst	-9.62941
▁middelalderen	-9.62963
▁bind	-9.6309
е	-9.63095
▁lansert	-9.63104
▁1947	-9.6311
▁2017	-9.63116
nett	-9.63197
▁plassering	-9.63291
▁stand	-9.63327
▁områdene	-9.63352
▁union	-9.63353
pro	-9.63364
93	-9.63378
▁hundre	-9.63442
▁utført	-9.63603
▁son	-9.63794
▁tru	-9.63803
▁forut	-9.63939
kla	-9.63961
▁grand	-9.63977
▁hei	-9.64014
nik	-9.64023
▁1963	-9.64056
▁produsere	-9.64056
▁utdannet	-9.64062
jev	-9.64081
▁grå	-9.64133
▁ytre	-9.64155
▁vet	-9.64165
▁vind	-9.64249
▁bilde	-9.64285
▁ang	-9.64332
gruppe	-9.64355
lys	-9.64357
▁opera	-9.64367
▁fjern	-9.6441
stoff	-9.64423
ub	-9.64445
▁havne	-9.64462
▁odd	-9.64497
samfunn	-9.64505
vig	-9.64543
▁war	-9.64577
▁ska	-9.64605
san	-9.64618
ette	-9.64637
hall	-9.64656
ira	-9.64661
▁spill	-9.64767
▁gje	-9.64815
▁brev	-9.64898
н	-9.65027
▁michael	-9.65027
▁klassisk	-9.65028
▁snakke	-9.65028
▁james	-9.65032
▁1912	-9.65039
▁1936	-9.6504
▁kloster	-9.65055
▁falt	-9.65218
▁lære	-9.65237
▁meg	-9.6528
▁tettsted	-9.65359
▁carl	-9.65443
historie	-9.65489
▁dy	-9.65515
▁forsøkt	-9.65541
▁redaktør	-9.65601
▁lage	-9.65637
▁beskytte	-9.65665
▁ansvar	-9.65676
▁tettstedet	-9.65713
▁hell	-9.65733
vekt	-9.65838
▁kroner	-9.65867
kirken	-9.65985
ú	-9.66007
▁nordvest	-9.66014
▁vist	-9.6602
46	-9.66054
▁sti	-9.66105
▁mottok	-9.66192
▁drama	-9.66206
▁italienske	-9.66334
39	-9.66336
▁ekspedisjon	-9.66346
▁presse	-9.66369
▁pla	-9.66589
▁frank	-9.66589
wi	-9.66637
▁sund	-9.66652
10	-9.66857
▁student	-9.66983
aktig	-9.66995
▁representere	-9.66997
▁1939	-9.67015
▁black	-9.67042
▁øke	-9.67063
ull	-9.67082
▁finans	-9.67124
▁slå	-9.67177
▁rot	-9.67185
▁andreplass	-9.67223
net	-9.67227
▁teknisk	-9.67294
▁stan	-9.67296
▁preget	-9.67309
▁strekke	-9.67321
grunn	-9.67371
▁dan	-9.6738
▁ansatte	-9.67474
▁spar	-9.67507
under	-9.67553
gjøre	-9.67604
▁cl	-9.6765
67	-9.67732
▁konkurranse	-9.67747
verket	-9.67785
hund	-9.67804
▁kontor	-9.67916
flyttet	-9.67957
▁cent	-9.67959
▁opprinnelse	-9.67997
▁ytterligere	-9.67997
▁invasjon	-9.68001
▁1928	-9.68007
▁tredjeplass	-9.68113
jer	-9.68184
▁1500	-9.6819
ix	-9.68239
▁årsak	-9.68308
51	-9.68334
fang	-9.6835
▁økonomisk	-9.68464
▁hud	-9.68475
▁het	-9.68513
stått	-9.68548
▁shi	-9.6859
▁byer	-9.68617
▁fla	-9.68618
▁dokument	-9.68662
▁derimo	-9.68664
▁hest	-9.68694
82	-9.68835
▁direktør	-9.68836
gangen	-9.68856
▁korea	-9.68948
▁kontakt	-9.69013
▁1958	-9.69023
korps	-9.69027
▁grunnlegger	-9.69078
▁win	-9.69082
▁fører	-9.69192
73	-9.6926
felt	-9.69272
▁sterke	-9.69295
▁motsetning	-9.69296
valg	-9.69306
▁salg	-9.69341
parti	-9.69399
▁dal	-9.69434
band	-9.69498
spon	-9.69516
ata	-9.69521
▁sovjetisk	-9.69616
▁allierte	-9.69679
▁utover	-9.6975
▁vå	-9.69757
▁syk	-9.69787
▁spanske	-9.6989
▁nærmest	-9.70032
▁1918	-9.7004
▁omtalt	-9.70067
▁nabo	-9.70202
plasser	-9.7022
▁oppdrag	-9.70231
▁sort	-9.70298
▁mad	-9.70342
ita	-9.70345
misjon	-9.70391
▁ven	-9.70465
09	-9.70465
▁normalt	-9.70549
68	-9.70559
▁fordel	-9.70586
▁elev	-9.70667
▁vid	-9.70706
▁måned	-9.70716
▁revolusjon	-9.70837
▁sub	-9.70848
rykket	-9.70903
▁tegnet	-9.70903
mit	-9.70912
tus	-9.70928
▁stykke	-9.70979
▁ledd	-9.71034
▁publikum	-9.71057
▁1959	-9.71059
▁moskva	-9.71059
▁oversikt	-9.7106
▁fokus	-9.7106
▁klima	-9.71061
▁1949	-9.71076
▁konkurransen	-9.71079
▁skilt	-9.71085
ved	-9.71119
rsom	-9.7114
▁behov	-9.71176
▁borg	-9.71186
49	-9.71229
fører	-9.71286
▁king	-9.71307
▁listen	-9.71345
▁forskning	-9.71371
▁artist	-9.71373
stu	-9.71414
grav	-9.71419
▁wh	-9.71439
▁undersøkelse	-9.71464
▁nordisk	-9.71512
▁effekt	-9.71519
▁adel	-9.71528
▁heng	-9.71553
▁synes	-9.71557
▁fc	-9.71597
møte	-9.71667
62	-9.7169
47	-9.71708
linje	-9.71771
▁turner	-9.71782
▁fylkes	-9.71818
cha	-9.71867
veg	-9.71938
tek	-9.71962
rådet	-9.7199
hov	-9.72017
abel	-9.72019
ova	-9.72032
sekretær	-9.72088
▁spesiell	-9.721
▁national	-9.72101
kapasitet	-9.72101
▁ek	-9.72131
▁kreve	-9.72139
▁nasjonale	-9.72142
▁pop	-9.72143
▁nødvendig	-9.72236
▁jakt	-9.72304
▁hoff	-9.72351
▁bern	-9.72384
inne	-9.72422
vert	-9.72463
▁solo	-9.72528
▁behandling	-9.72605
▁harry	-9.72614
ire	-9.72625
▁idretts	-9.72631
elva	-9.72672
linjen	-9.72742
89	-9.72748
▁begynner	-9.72757
▁ap	-9.72783
ografi	-9.72912
▁led	-9.72966
pin	-9.72974
▁spesial	-9.73035
▁score	-9.73052
▁plate	-9.73119
▁jødisk	-9.73154
▁foreldre	-9.73155
▁sommerfugl	-9.73175
ante	-9.73179
hand	-9.73208
▁marine	-9.73226
69	-9.73285
liv	-9.73314
stedet	-9.73371
▁metal	-9.73431
▁forteller	-9.73477
▁økonomi	-9.73611
▁flagg	-9.73625
▁aktivitet	-9.73646
▁skips	-9.73672
▁lek	-9.73684
72	-9.73706
77	-9.73714
▁fordelt	-9.73773
▁dog	-9.73821
nivå	-9.73833
kirke	-9.73861
▁vis	-9.74112
klar	-9.74205
▁typisk	-9.74219
▁1941	-9.74233
▁1942	-9.74237
led	-9.74307
▁debutert	-9.7431
skapet	-9.7437
▁folket	-9.74373
▁zh	-9.74394
▁reform	-9.74466
▁forskjell	-9.74514
70	-9.74524
lære	-9.74544
▁fugle	-9.74572
74	-9.74589
▁hjelpe	-9.74637
▁cal	-9.74655
▁gutt	-9.74656
▁klubb	-9.74664
hm	-9.74798
▁fjellet	-9.74888
cia	-9.74892
kommune	-9.74895
▁forsvaret	-9.7502
▁ana	-9.75073
organ	-9.75094
▁just	-9.75159
følgende	-9.75171
serien	-9.75213
▁ube	-9.7524
▁etterfulgt	-9.75292
▁inspirert	-9.75292
▁ungarn	-9.75293
▁episode	-9.75293
▁1957	-9.75308
▁økt	-9.7535
▁ungdoms	-9.75408
▁antatt	-9.7544
▁uker	-9.75459
▁ci	-9.75461
▁operasjon	-9.75487
▁salt	-9.75566
▁singel	-9.75593
▁klo	-9.75593
▁vanlige	-9.75597
lov	-9.75622
▁østlige	-9.75666
▁maur	-9.75688
ringen	-9.75764
▁stoppe	-9.75964
▁gal	-9.76023
▁ansatt	-9.76058
▁nils	-9.76213
▁jern	-9.76234
▁lund	-9.76268
roll	-9.76326
▁35	-9.76374
▁utgangspunkt	-9.76379
▁anerkjent	-9.7638
▁folketelling	-9.7638
▁melodi	-9.7638
▁levde	-9.76385
▁1961	-9.76394
▁1956	-9.764
▁nærheten	-9.76446
▁1600	-9.76565
▁utgave	-9.76595
fu	-9.76604
kos	-9.76604
34	-9.76629
52	-9.76634
formet	-9.76644
▁grense	-9.76667
▁organisasjonen	-9.76708
gl	-9.76721
arbeidet	-9.76804
▁opphav	-9.76808
▁sikkerhet	-9.7683
▁gangen	-9.76849
▁star	-9.76923
midler	-9.76952
▁lind	-9.77063
ført	-9.77095
▁lan	-9.77104
▁stasjonen	-9.77188
▁ce	-9.77191
▁forfatteren	-9.77266
▁runde	-9.77319
78	-9.77322
senteret	-9.77324
▁met	-9.77324
▁plat	-9.77332
▁kommet	-9.7745
▁edvard	-9.77478
▁hjerte	-9.77479
▁praksis	-9.7748
▁nærmere	-9.77484
brudd	-9.77484
▁gren	-9.77491
▁1919	-9.77492
▁overgang	-9.77563
04	-9.77592
▁total	-9.77667
▁studier	-9.77715
▁mw	-9.77738
tog	-9.77783
▁populær	-9.77812
dekk	-9.7786
▁nar	-9.77987
▁akse	-9.78099
bjørn	-9.78244
▁she	-9.78279
jiang	-9.78448
▁nærings	-9.7849
▁us	-9.78543
▁grønn	-9.78546
▁mangle	-9.78561
▁fullstendig	-9.78589
▁innsats	-9.7859
▁premier	-9.78592
▁snart	-9.78592
▁bronsemedalje	-9.78596
skjær	-9.78603
win	-9.78608
▁jarl	-9.78629
sberg	-9.78643
▁selve	-9.78769
▁tolv	-9.78813
▁old	-9.78881
▁unntak	-9.78929
tion	-9.7893
▁kilde	-9.78934
aksjon	-9.7899
▁strand	-9.79002
lang	-9.79039
well	-9.79191
25	-9.79358
▁sil	-9.79369
▁vannet	-9.79372
▁ob	-9.79408
▁hed	-9.79422
▁dø	-9.79616
dagen	-9.797
▁maskin	-9.79712
▁skottland	-9.79713
▁øvre	-9.79713
teknikk	-9.79713
▁ridder	-9.79718
▁erklært	-9.79762
▁endre	-9.79772
nis	-9.79777
▁grunnlegge	-9.79779
▁tråd	-9.79873
▁bevis	-9.79904
uc	-9.79996
hal	-9.80037
▁prosjekt	-9.80072
fo	-9.8013
▁nr	-9.80135
▁ji	-9.80155
▁lad	-9.80162
stru	-9.80229
▁veg	-9.80231
qui	-9.80257
▁saken	-9.80308
▁offiser	-9.80315
▁vær	-9.8033
▁krets	-9.80339
zo	-9.80349
▁styrkene	-9.80372
58	-9.80397
▁jens	-9.80493
▁filmer	-9.80577
▁bonde	-9.80584
▁horn	-9.80622
▁åpne	-9.80697
unt	-9.80727
▁sur	-9.80814
▁1908	-9.80849
▁richard	-9.8085
▁louis	-9.8085
▁sekund	-9.80857
▁1951	-9.80868
ala	-9.80883
park	-9.80914
▁slott	-9.81012
oper	-9.81026
▁hor	-9.81045
distanse	-9.81059
tch	-9.81065
▁dia	-9.81115
▁single	-9.81255
bedrift	-9.81279
arm	-9.81293
cy	-9.81436
▁sau	-9.81466
▁ya	-9.81518
99	-9.81567
▁produsent	-9.81646
industri	-9.81653
▁forstå	-9.81697
kler	-9.81718
ordenen	-9.81734
▁zo	-9.81761
41	-9.81906
klasse	-9.81932
fugl	-9.81956
▁mulighet	-9.81966
▁innflytelse	-9.81993
▁alternativ	-9.81999
▁alvorlig	-9.81999
▁california	-9.81999
▁konflikt	-9.81999
▁norrøn	-9.82
▁sølvmedalje	-9.8201
▁1953	-9.82015
▁straffe	-9.82024
▁holm	-9.82027
▁bidrag	-9.8204
▁utvikle	-9.82051
▁stabil	-9.82054
høgskole	-9.82056
▁fremste	-9.82168
▁arne	-9.82217
▁mørke	-9.82318
selskapet	-9.82529
▁kost	-9.82582
▁strid	-9.82606
▁wal	-9.82654
▁stamme	-9.82702
▁kommuner	-9.82704
pan	-9.82718
ara	-9.82795
album	-9.82806
skudd	-9.8285
▁tårn	-9.82919
57	-9.83143
▁hurtig	-9.83161
▁league	-9.83161
▁primær	-9.83161
▁profesjonell	-9.83161
▁world	-9.83161
▁united	-9.83163
▁stadion	-9.83164
▁nevnt	-9.83181
▁1955	-9.83185
field	-9.83208
fisk	-9.83213
prisen	-9.83297
▁150	-9.83302
▁ansett	-9.8342
▁hard	-9.83582
▁liga	-9.83583
▁sier	-9.83585
arbeider	-9.83594
▁lignende	-9.83617
▁populære	-9.83618
▁landskapet	-9.83665
▁leir	-9.83694
▁sende	-9.83702
post	-9.83825
▁besto	-9.83844
▁ark	-9.83855
4	-9.83901
▁hentet	-9.83965
posisjon	-9.84009
▁distriktet	-9.84048
▁omtale	-9.84058
stå	-9.8419
krig	-9.84237
▁len	-9.84297
▁sjelden	-9.84338
▁tunnel	-9.84338
reise	-9.84342
▁frederik	-9.84342
▁ekteskap	-9.84344
▁republikken	-9.84357
forhold	-9.84398
▁verdensmester	-9.84495
frukt	-9.84515
▁bosatt	-9.84517
handler	-9.84517
▁aust	-9.84554
▁larvene	-9.84558
▁christ	-9.84704
▁por	-9.84795
▁avstand	-9.84825
gå	-9.84841
▁samfunnet	-9.84892
▁øyene	-9.84892
▁instrument	-9.84908
hn	-9.84981
▁rh	-9.85003
▁test	-9.85044
rike	-9.85066
53	-9.85186
95	-9.85211
16	-9.85312
▁dekket	-9.85392
▁turneringen	-9.85437
▁vitenskap	-9.85525
▁offisielt	-9.85528
▁publisert	-9.85528
vatnet	-9.85534
▁jordbruk	-9.85581
▁tonn	-9.85584
▁kull	-9.85775
6	-9.8579
▁tale	-9.85837
▁ant	-9.85851
trær	-9.85893
▁fortalt	-9.85909
aw	-9.85921
▁bob	-9.85939
▁beskrevet	-9.85965
▁bla	-9.8599
grupper	-9.86059
blad	-9.8608
▁latinsk	-9.86116
▁kandidat	-9.86161
▁dynastiet	-9.86194
▁tittel	-9.86238
▁bane	-9.86247
▁materiale	-9.86326
▁livs	-9.86342
pel	-9.86397
kamera	-9.86417
bånd	-9.86438
▁kalle	-9.86455
▁sveits	-9.86468
▁hellige	-9.8652
79	-9.86561
▁elektrisk	-9.86733
▁flertall	-9.8674
▁sist	-9.86774
▁ishockey	-9.86777
▁bosetning	-9.86868
▁dekker	-9.86887
▁verne	-9.86911
▁gold	-9.86942
44	-9.87128
▁sider	-9.87161
43	-9.87223
hel	-9.87229
▁design	-9.87247
▁kg	-9.87263
▁ungdom	-9.87293
▁fyr	-9.87307
▁unn	-9.87352
▁åpning	-9.87389
saker	-9.87467
▁toppen	-9.87606
61	-9.87672
▁kam	-9.87807
▁politiet	-9.87921
sku	-9.87933
▁international	-9.87953
▁tilknytning	-9.87953
▁ødelagt	-9.87953
▁yngre	-9.87954
▁kristne	-9.87955
▁kanon	-9.87965
▁musikkalbum	-9.8798
▁metall	-9.87988
▁institutt	-9.87992
▁malt	-9.88037
medalje	-9.88039
▁stå	-9.88048
ativ	-9.8815
▁formål	-9.88254
▁prosess	-9.88256
▁arve	-9.88279
bladet	-9.88408
gjør	-9.88434
shi	-9.88517
▁arabisk	-9.88529
36	-9.88606
▁dømt	-9.88623
ping	-9.88642
▁avsluttet	-9.88649
▁tilfeller	-9.88667
▁tanke	-9.8879
▁32	-9.88793
▁internasjonal	-9.88809
▁normal	-9.88951
blant	-9.88991
▁maler	-9.89133
▁oppdag	-9.89147
▁rapport	-9.89187
▁verdenscup	-9.89187
▁sport	-9.89198
▁skotsk	-9.89209
▁rollen	-9.89213
▁bryte	-9.89223
▁tour	-9.89256
▁bit	-9.89335
▁likhet	-9.8936
▁bakken	-9.89392
▁north	-9.8948
▁sku	-9.89677
▁ole	-9.89703
▁tema	-9.89736
ond	-9.89811
▁oversatt	-9.89863
ild	-9.89942
▁gass	-9.89971
▁stu	-9.90017
90	-9.90024
65	-9.90034
▁forsknings	-9.90044
middel	-9.9019
vekst	-9.90206
▁egg	-9.90211
strøm	-9.90228
dro	-9.90331
à	-9.90437
▁belgia	-9.90437
▁kategori	-9.90437
rettigheter	-9.90437
▁passasjer	-9.90437
▁mytologi	-9.90438
▁lengst	-9.90444
▁kristen	-9.90448
▁skaffe	-9.90452
klær	-9.90454
▁skøyte	-9.90454
▁spredt	-9.90457
▁betegnelsen	-9.90461
▁sul	-9.90461
▁gjenopp	-9.90516
▁front	-9.90571
stø	-9.90594
▁produksjonen	-9.9063
▁600	-9.90655
▁organisert	-9.90735
partiet	-9.90751
▁lavere	-9.90771
▁fullført	-9.90783
▁junior	-9.90793
▁samfunns	-9.90812
▁ind	-9.90868
▁tids	-9.90873
▁bygde	-9.90896
▁stav	-9.90983
▁medlemmene	-9.91025
▁fyrst	-9.9108
▁lot	-9.91167
mand	-9.91193
▁danse	-9.91205
dia	-9.91258
▁elv	-9.91331
▁app	-9.91362
▁båten	-9.91411
▁akademi	-9.91446
car	-9.91448
▁støttet	-9.91471
▁ankom	-9.91483
lund	-9.91572
▁rygg	-9.91594
lem	-9.91658
▁søke	-9.91667
▁gitar	-9.91669
▁wilhelm	-9.91703
▁kunnskap	-9.91704
▁bidro	-9.91733
▁ban	-9.91777
stille	-9.91801
▁hellas	-9.91815
▁dor	-9.91841
▁våren	-9.91841
▁snø	-9.91849
▁kjerne	-9.91867
▁håp	-9.91878
▁tydelig	-9.919
strand	-9.91908
▁spiss	-9.91924
▁tog	-9.91951
▁banen	-9.92092
06	-9.921
▁kjøpe	-9.92147
▁poly	-9.92189
▁vinge	-9.92195
▁studenter	-9.92219
▁fisk	-9.92245
slaget	-9.92278
mund	-9.92282
elli	-9.92289
▁ep	-9.92323
▁opphold	-9.92327
mber	-9.924
▁utvidet	-9.9245
▁nordland	-9.92503
15	-9.926
98	-9.92646
▁mid	-9.9269
jan	-9.9271
▁gjelder	-9.92742
▁ze	-9.92763
▁press	-9.92849
kysten	-9.92851
skipet	-9.9286
haug	-9.92911
rich	-9.92937
▁dialekt	-9.92985
▁regissert	-9.92985
▁redusert	-9.92986
▁tempel	-9.92987
▁enda	-9.92989
▁veldig	-9.93002
▁fredrik	-9.93007
▁1937	-9.93012
▁økte	-9.93021
plikt	-9.93069
▁bibel	-9.93077
▁angeles	-9.93085
▁utdannelse	-9.93118
▁800	-9.93151
▁henry	-9.93151
▁albert	-9.93192
ish	-9.93217
▁kongelige	-9.9327
▁halvdel	-9.93273
▁status	-9.93298
▁mill	-9.93308
▁kåre	-9.93326
▁løper	-9.93395
kov	-9.93415
ij	-9.93515
bær	-9.93523
hem	-9.93588
▁stilte	-9.93641
▁py	-9.93727
▁kontrakt	-9.93767
kjøp	-9.93775
ura	-9.93793
▁svak	-9.93798
▁indisk	-9.93812
▁penger	-9.93857
▁tromsø	-9.93883
▁harald	-9.93929
oth	-9.94007
▁hon	-9.94017
anda	-9.94023
prosess	-9.94085
▁former	-9.94093
▁markert	-9.94101
▁nm	-9.94103
án	-9.94119
▁anna	-9.94167
▁mas	-9.94176
▁scene	-9.94271
▁mexico	-9.94284
▁records	-9.94284
▁erkebiskop	-9.94284
▁tegneserie	-9.94289
▁tidsskrift	-9.94293
▁1935	-9.943
▁oppnådd	-9.94302
▁kongedømme	-9.94323
▁ukjent	-9.94332
ple	-9.94427
dam	-9.94475
▁innsjø	-9.94484
koll	-9.9458
feltet	-9.94586
▁larven	-9.94609
ance	-9.94669
kjede	-9.94676
flue	-9.94692
▁teksten	-9.94737
▁formann	-9.94739
54	-9.94762
▁overfor	-9.94883
▁viking	-9.94986
øst	-9.95002
fylt	-9.95056
dige	-9.95209
▁mørk	-9.95252
gard	-9.95257
94	-9.95274
hørt	-9.95339
▁gui	-9.95467
skytter	-9.95472
ledning	-9.95495
▁høye	-9.95541
▁arrangere	-9.956
▁bokstav	-9.95601
▁litterær	-9.95601
▁avhengig	-9.95602
▁1914	-9.95611
▁protest	-9.95612
▁blomster	-9.95613
grense	-9.95644
ppen	-9.95667
▁high	-9.95701
fil	-9.95718
▁sten	-9.9574
▁prins	-9.9578
▁ram	-9.95846
▁religiøse	-9.95917
▁oftes	-9.96081
øyene	-9.96146
▁slave	-9.96183
lid	-9.96196
drift	-9.96199
▁kvar	-9.96247
mur	-9.96332
▁buss	-9.96668
gjort	-9.96719
slutning	-9.96818
vendt	-9.96882
▁kinas	-9.96926
▁kritikk	-9.96937
traktaten	-9.96939
▁bispedømme	-9.96941
▁jazz	-9.96951
▁diplomat	-9.96962
oli	-9.97074
▁typer	-9.97132
▁systemet	-9.97157
19	-9.97223
▁angrepet	-9.97284
▁dukke	-9.97343
▁jevn	-9.97353
phi	-9.97361
▁hovedstad	-9.97367
▁spre	-9.97453
▁polsk	-9.97486
verdig	-9.97509
regn	-9.97542
▁vinne	-9.97668
▁cap	-9.97695
▁vinteren	-9.97743
▁løv	-9.97837
▁spise	-9.97905
qu	-9.97937
▁virkelig	-9.98089
heng	-9.9811
utvikling	-9.98144
født	-9.98159
▁bygninger	-9.98165
▁fn	-9.98218
lipp	-9.98229
▁vit	-9.98277
▁akershus	-9.98284
▁jacob	-9.98285
konferanse	-9.98285
▁charles	-9.98285
wood	-9.98299
▁1917	-9.98299
faktor	-9.9831
▁1938	-9.9831
▁nasjonalpark	-9.98311
▁anledning	-9.98345
▁kjønn	-9.98346
▁rad	-9.98348
gal	-9.98349
▁avholdt	-9.98368
▁avtale	-9.984
visning	-9.98422
oni	-9.98513
hol	-9.98519
masse	-9.98548
▁gram	-9.98594
▁endelig	-9.98697
▁betegne	-9.98769
▁deri	-9.98832
▁mesterskapet	-9.98841
▁trener	-9.98906
▁tilbud	-9.98906
vind	-9.98955
delen	-9.99032
ona	-9.99038
byr	-9.99202
▁rep	-9.99212
▁rå	-9.99248
▁hill	-9.99256
▁møter	-9.99398
figur	-9.99533
kultur	-9.9959
12	-9.99621
myndighet	-9.99631
▁antagelig	-9.99654
▁tilknyttet	-9.99654
▁vietnam	-9.99654
▁kilder	-9.99656
▁south	-9.99661
▁1921	-9.9967
▁1943	-9.99674
▁pensjon	-9.99689
▁rammet	-9.99696
▁hitler	-9.99741
▁saint	-9.99756
▁verket	-9.99757
▁teologi	-9.99758
▁marc	-9.99759
▁bevegelsen	-9.99796
▁dommer	-9.99865
riket	-10.0004
▁rein	-10.0013
vold	-10.0014
▁alb	-10.0017
▁fløy	-10.0019
▁mannskap	-10.0022
▁minutter	-10.0025
istene	-10.0034
trinn	-10.0038
igh	-10.004
▁språket	-10.0044
▁75	-10.0046
▁prosjektet	-10.0049
▁erobret	-10.0052
fot	-10.0054
ón	-10.0056
deles	-10.006
▁landsbyen	-10.0061
▁pen	-10.0065
▁leg	-10.0069
▁motiv	-10.008
35	-10.0091
▁stol	-10.0093
▁debut	-10.0101
▁studio	-10.0104
▁kjærlighet	-10.0104
▁okkupasjon	-10.0104
hastighet	-10.0104
▁generelt	-10.0104
▁drammen	-10.0104
▁college	-10.0105
▁beholdt	-10.0105
▁utøver	-10.0105
▁vokalist	-10.011
▁riksvei	-10.0125
▁oversettelse	-10.0136
▁kino	-10.0137
ith	-10.014
▁nam	-10.0141
▁vitenskapelig	-10.0166
▁inntekt	-10.0167
▁idrettslag	-10.0177
▁che	-10.018
▁bay	-10.0195
ledd	-10.0204
26	-10.0205
▁kongens	-10.0216
▁off	-10.0217
▁mak	-10.0221
▁stri	-10.0229
▁cu	-10.023
▁trekke	-10.0235
slått	-10.0236
virksomhet	-10.0237
trafikk	-10.0237
▁forekommer	-10.0245
▁joseph	-10.0245
▁1933	-10.0247
▁signert	-10.0247
▁1925	-10.0247
▁1934	-10.0247
ordning	-10.0249
▁planlagt	-10.025
▁wei	-10.0251
snitt	-10.0251
▁armé	-10.0257
▁trekk	-10.0257
▁nyere	-10.026
foss	-10.0262
▁max	-10.0264
▁vendt	-10.0266
▁sørover	-10.0274
▁bånd	-10.028
▁verker	-10.0285
▁hendelse	-10.029
▁utga	-10.0302
▁struktur	-10.0303
▁timer	-10.0306
▁sørge	-10.0315
▁tverr	-10.0318
kapit	-10.0318
farge	-10.0334
▁kanal	-10.034
▁linjen	-10.0349
▁private	-10.035
rommet	-10.0354
▁sko	-10.0363
▁sag	-10.0363
kop	-10.0369
▁bevege	-10.0374
forbundet	-10.0375
▁statlig	-10.0376
▁gjeste	-10.0382
front	-10.0383
▁sær	-10.0386
▁45	-10.0387
kjønn	-10.0388
▁introdusert	-10.0388
▁tømmer	-10.0388
▁nominert	-10.0388
▁royal	-10.0388
▁innspilling	-10.0389
▁medaljer	-10.039
▁studere	-10.039
mod	-10.0391
▁euro	-10.0392
▁effektiv	-10.0393
▁grønland	-10.0399
▁dato	-10.0399
press	-10.04
▁resultatet	-10.0416
▁irak	-10.042
type	-10.0422
▁administrasjons	-10.043
▁sykehus	-10.0432
tiker	-10.0437
▁bevegelse	-10.0442
▁kvalitet	-10.0444
18	-10.0444
▁formen	-10.0445
▁bølge	-10.0445
▁arbeide	-10.0449
våg	-10.045
▁demokratisk	-10.0462
▁utvalg	-10.0463
▁dobbelt	-10.0484
24	-10.0485
▁33	-10.0493
mesterskapet	-10.0515
kanten	-10.0518
vitenskap	-10.0524
▁typen	-10.0525
politikk	-10.0527
▁mary	-10.0531
▁kaptein	-10.0533
▁respekt	-10.0533
▁kapell	-10.0533
▁islam	-10.0534
▁1929	-10.0534
▁anklage	-10.0535
▁forholdsvis	-10.0536
▁forretnings	-10.0539
▁eksport	-10.054
con	-10.0543
▁nedlagt	-10.0544
zz	-10.055
▁song	-10.0557
▁mottatt	-10.0557
▁internasjonalt	-10.0558
▁1000	-10.0558
▁kok	-10.0561
▁objekt	-10.0563
▁spansk	-10.0566
▁rund	-10.0567
▁tang	-10.0568
gata	-10.0604
▁rose	-10.0604
▁luc	-10.0605
▁nes	-10.0607
▁sla	-10.0612
▁ønsker	-10.0615
gul	-10.0618
▁may	-10.0621
▁anlegg	-10.0622
▁berømte	-10.0623
▁bredt	-10.0633
dommer	-10.0637
analyse	-10.0641
▁will	-10.0641
▁sete	-10.0643
▁landslag	-10.0646
bakken	-10.0649
gaard	-10.0652
aten	-10.0659
▁dør	-10.0659
▁hydro	-10.0662
▁bydel	-10.0677
oid	-10.0679
▁1905	-10.068
▁involvert	-10.068
▁münchen	-10.068
▁vulkan	-10.068
▁dollar	-10.068
▁hindre	-10.068
hav	-10.0682
▁län	-10.0683
▁smith	-10.0684
program	-10.0688
23	-10.0691
▁handel	-10.0692
▁radikal	-10.0694
▁modellen	-10.0695
▁ok	-10.0698
▁sammenligne	-10.0701
▁sankt	-10.0704
▁morgen	-10.0706
ctor	-10.0708
motor	-10.0709
▁selge	-10.0709
▁hage	-10.0719
▁manus	-10.0725
▁utstyrt	-10.074
▁pil	-10.074
▁kjøl	-10.0754
▁begrenset	-10.0766
drevet	-10.0768
▁sw	-10.0771
▁sent	-10.0775
▁kai	-10.0777
▁elve	-10.0784
▁ph	-10.0785
▁samfunn	-10.0798
▁starten	-10.0802
ula	-10.0802
▁bein	-10.0815
low	-10.0824
▁marie	-10.0825
▁stillingen	-10.0826
▁administrativ	-10.0829
▁hensikt	-10.0829
▁frykt	-10.0829
▁fattig	-10.0829
▁fungert	-10.083
▁markeds	-10.083
magasin	-10.0831
▁mes	-10.0831
▁video	-10.0831
▁1910	-10.0832
mektig	-10.0833
kjempe	-10.0838
eksamen	-10.0841
▁mikro	-10.0843
hard	-10.0851
jern	-10.0859
▁knut	-10.0864
slekt	-10.0867
fjell	-10.0873
trekning	-10.088
▁phil	-10.0883
▁ran	-10.0884
▁riket	-10.0887
▁filosofi	-10.0894
ball	-10.0896
▁music	-10.0899
21	-10.0908
▁turist	-10.091
▁matt	-10.0914
▁anta	-10.0917
▁fotograf	-10.0922
▁landene	-10.093
▁stoff	-10.0933
▁uttale	-10.0937
▁finske	-10.0941
▁forlag	-10.0949
▁kreft	-10.095
▁damp	-10.0951
▁hotell	-10.0954
bach	-10.0955
▁senter	-10.0955
slett	-10.0956
▁avtalen	-10.0956
▁bunn	-10.0957
▁ånd	-10.0969
▁gruve	-10.0972
▁overført	-10.0975
▁pasient	-10.0981
▁geografisk	-10.0981
▁school	-10.0981
▁kombinert	-10.0981
▁major	-10.0981
▁himmel	-10.0982
kunst	-10.0982
▁menighet	-10.0982
▁1923	-10.0983
▁1906	-10.0983
▁makten	-10.0988
byrå	-10.0988
fortelling	-10.0993
▁utgjorde	-10.0994
▁gard	-10.1004
bygger	-10.1009
▁vekst	-10.1012
▁bestod	-10.1015
herre	-10.1016
lingen	-10.102
▁kari	-10.1021
▁lø	-10.1021
▁bredde	-10.1028
▁ulik	-10.1046
gua	-10.1056
▁rase	-10.1056
▁festning	-10.108
rekke	-10.1088
▁bygning	-10.1091
▁fan	-10.1097
kampen	-10.1117
▁vers	-10.1128
▁initiativ	-10.1135
▁eksemple	-10.1135
▁nektet	-10.1135
▁fysisk	-10.1135
▁hovedrollen	-10.1135
▁eksistert	-10.1135
▁myndighetene	-10.1135
▁1904	-10.1137
▁etterfølger	-10.1137
▁meldt	-10.1139
forfatter	-10.114
trukket	-10.114
▁pin	-10.1142
▁gjenstand	-10.1144
▁ekstra	-10.1148
▁brødrene	-10.1152
▁oss	-10.1153
▁hode	-10.1159
bevegelsen	-10.1164
▁nedre	-10.1167
lend	-10.1169
▁universitets	-10.1174
▁jean	-10.1177
▁inne	-10.1179
gra	-10.1181
▁forbundet	-10.1183
▁øvrige	-10.1185
▁rør	-10.1193
▁planter	-10.1193
bukta	-10.12
rakk	-10.1221
▁dokumenter	-10.1222
forsamlingen	-10.1222
96	-10.1227
▁versjonen	-10.1227
▁kjell	-10.1234
83	-10.1239
▁grev	-10.1243
▁hendelser	-10.1245
▁tha	-10.125
▁sønnen	-10.1251
▁fartøy	-10.1253
▁funn	-10.1255
konge	-10.1256
▁museet	-10.126
17	-10.1264
▁amt	-10.1284
▁ordre	-10.1287
gikk	-10.1289
▁advokat	-10.1291
▁kvalifisering	-10.1291
▁manuskript	-10.1291
▁østerriksk	-10.1291
▁magnus	-10.1291
▁utnytte	-10.1291
▁faktisk	-10.1291
▁1922	-10.1292
▁arbeiderpartiet	-10.1292
▁oscar	-10.1293
▁1916	-10.1293
▁telemark	-10.1294
92	-10.1295
▁videregående	-10.1296
forskning	-10.1299
maskin	-10.1302
▁kvinnelige	-10.1305
bøker	-10.131
▁sammenlagt	-10.1311
▁kommunikasjon	-10.1321
▁sveitsisk	-10.1325
▁stre	-10.133
org	-10.1335
▁handler	-10.1335
▁underlagt	-10.1339
skriv	-10.1348
▁brand	-10.1348
▁øyer	-10.1355
▁provins	-10.1356
▁boka	-10.1374
serie	-10.1382
▁fylket	-10.1389
▁gy	-10.1395
▁representant	-10.1398
▁forsker	-10.1398
▁medisinsk	-10.14
▁hunnen	-10.1405
▁mik	-10.1407
▁penge	-10.1407
▁medisin	-10.1416
▁tsj	-10.1416
jal	-10.1434
time	-10.1448
▁afghanistan	-10.145
▁guvernør	-10.145
▁inkluderer	-10.145
▁arrestert	-10.145
▁belgisk	-10.145
▁inneholdt	-10.145
▁doktorgrad	-10.145
▁konstant	-10.145
▁1931	-10.1451
▁kommunistisk	-10.1451
▁forskere	-10.1452
▁papir	-10.1452
▁jackson	-10.1453
▁tilhenger	-10.1456
▁varierer	-10.1457
forbindelse	-10.146
hjem	-10.1461
▁liberal	-10.1465
▁deltaker	-10.1466
hev	-10.1471
▁team	-10.1472
▁muligheten	-10.1489
▁forbi	-10.1494
▁artikkel	-10.1497
▁insekter	-10.1501
▁rester	-10.1502
▁sagt	-10.1507
▁musikalsk	-10.1508
▁begynne	-10.1509
stasjonen	-10.151
ington	-10.1513
driv	-10.1514
▁strak	-10.1516
▁hører	-10.1517
▁poet	-10.1519
▁innhold	-10.1523
litt	-10.1525
jord	-10.1536
▁arn	-10.1536
▁bibliotek	-10.1539
strid	-10.1557
▁romanen	-10.1557
▁utsatt	-10.1558
▁myr	-10.1562
alitet	-10.1566
▁utstyr	-10.1575
▁minister	-10.1579
bygget	-10.158
▁representanter	-10.1592
typen	-10.1596
▁intern	-10.1601
løpet	-10.1602
▁wolf	-10.1602
▁kampene	-10.1605
97	-10.1606
▁sports	-10.161
▁county	-10.1611
▁skjul	-10.1611
▁finnmark	-10.1612
▁lufthavn	-10.1612
▁ytterst	-10.1613
▁hustru	-10.1614
▁brenn	-10.1619
▁arkitektur	-10.1622
prosjekt	-10.1623
stykke	-10.1625
▁human	-10.1629
▁ferd	-10.1632
▁samarbeidet	-10.1634
▁tau	-10.1641
84	-10.1643
▁fante	-10.1648
▁maleri	-10.1651
▁sportsutøvere	-10.1651
▁160	-10.1666
▁ansvarlig	-10.1667
bank	-10.1688
▁bord	-10.169
▁haug	-10.1691
fjellet	-10.1697
▁finsk	-10.1698
lm	-10.171
▁uttalte	-10.1729
▁kil	-10.1731
▁redde	-10.1736
▁vogn	-10.1746
▁dun	-10.1747
hild	-10.1759
▁kristian	-10.1767
▁barcelona	-10.1775
▁katedral	-10.1775
▁stafett	-10.1775
▁ødelegge	-10.1775
▁befinne	-10.1776
▁beregne	-10.178
88	-10.1784
▁kode	-10.1786
▁hersker	-10.1788
▁undergrunns	-10.179
▁ledende	-10.1791
fyr	-10.18
▁jim	-10.1808
forsvar	-10.1811
▁vegg	-10.1813
▁foreningen	-10.1815
▁storm	-10.1818
▁stammer	-10.182
▁spillet	-10.1821
avtale	-10.1823
▁sats	-10.1824
▁populært	-10.1826
▁andreas	-10.1833
▁johann	-10.1833
▁byggingen	-10.1838
13	-10.1842
▁long	-10.1849
▁målet	-10.1849
▁cd	-10.185
▁keiseren	-10.185
▁utstilling	-10.1859
▁36	-10.1871
formede	-10.1877
▁elite	-10.1885
▁sli	-10.1885
edderkopp	-10.1926
komiteen	-10.1928
▁okkupert	-10.1941
▁kristiansand	-10.1941
▁søndag	-10.1942
▁white	-10.1942
▁allianse	-10.1942
▁debatt	-10.1943
▁frivillig	-10.1943
▁imperi	-10.1944
▁france	-10.1944
▁beskrive	-10.1947
▁hovedsak	-10.1948
▁detalj	-10.1948
▁otto	-10.1948
firma	-10.195
bebyggelse	-10.1955
▁oppstod	-10.1956
turneringen	-10.196
nemlig	-10.197
▁dyrke	-10.1978
▁gall	-10.198
▁kanalen	-10.1992
kilden	-10.1994
gli	-10.1998
▁klassen	-10.1999
▁kritiker	-10.2007
▁tilhøre	-10.2011
▁plateselskap	-10.2011
mba	-10.202
▁bol	-10.2026
▁unngå	-10.2029
voll	-10.203
▁utenriks	-10.2032
▁drap	-10.2033
▁elever	-10.2034
▁tank	-10.204
▁tradisjonel	-10.2042
▁festningen	-10.2075
▁drag	-10.2079
hin	-10.2088
▁65	-10.2091
▁vakt	-10.2097
▁atom	-10.21
prinsipp	-10.2102
▁antwerpen	-10.2111
▁halvparten	-10.2111
▁resultert	-10.2111
▁pakistan	-10.2111
▁skjønt	-10.2111
▁terreng	-10.2111
▁hemmelig	-10.2111
▁kritisert	-10.2111
▁cirka	-10.2111
▁riktig	-10.2111
▁award	-10.2111
▁blues	-10.2111
▁studioalbum	-10.2112
▁håndball	-10.2112
▁sverd	-10.2113
▁myndigheter	-10.2114
▁formula	-10.2114
▁endringer	-10.2117
▁velge	-10.2118
▁innsjøen	-10.212
▁pot	-10.212
▁billed	-10.2122
▁spenning	-10.2122
▁1896	-10.2124
▁paven	-10.2126
miljø	-10.2133
modell	-10.2138
33	-10.214
▁tyskerne	-10.214
kilde	-10.2145
kjent	-10.2145
▁gjeld	-10.2147
▁middel	-10.2148
▁master	-10.2149
▁bilder	-10.2151
▁elver	-10.2153
▁diktet	-10.2154
▁uavhengighet	-10.2157
vandring	-10.2159
▁parlamentet	-10.216
▁irsk	-10.2166
troppen	-10.2168
registr	-10.2169
▁85	-10.2178
stripe	-10.2183
▁fulgt	-10.2191
øvelse	-10.2198
▁anton	-10.2203
▁jule	-10.2206
▁disk	-10.2207
▁bell	-10.2222
livet	-10.2225
▁anse	-10.2227
ramme	-10.2229
ico	-10.2237
▁inf	-10.2238
▁forholdet	-10.2242
▁møll	-10.2252
listen	-10.2255
▁saga	-10.226
▁butikk	-10.2261
▁kommun	-10.2262
▁skriver	-10.2262
halvøya	-10.2266
polis	-10.2268
▁finn	-10.2273
▁sikker	-10.2277
▁hannen	-10.2277
▁sum	-10.228
▁eksperiment	-10.2283
▁frekvens	-10.2283
▁science	-10.2283
▁kontinent	-10.2283
▁rogaland	-10.2283
▁angripe	-10.2284
▁tekster	-10.2284
▁club	-10.2285
▁sjette	-10.2285
▁frakte	-10.2286
▁daniel	-10.2287
▁tvunge	-10.2288
▁tronen	-10.2292
vannet	-10.2299
▁sender	-10.2302
skutt	-10.2303
▁mynt	-10.2304
distrikt	-10.2308
historisk	-10.2308
yang	-10.231
handel	-10.2314
▁arrangement	-10.2314
avdeling	-10.2315
nummer	-10.2318
▁nordover	-10.2331
havn	-10.2331
31	-10.2339
▁andel	-10.2348
▁stig	-10.236
▁fremme	-10.2365
▁katolsk	-10.2366
▁tilfelle	-10.2391
▁wien	-10.2402
verdi	-10.2407
▁snu	-10.2412
rød	-10.2416
▁kropps	-10.2424
▁lyn	-10.2425
▁villa	-10.2432
lyst	-10.2434
▁starter	-10.2439
skifte	-10.2439
▁stemmer	-10.244
▁gjeng	-10.245
klubben	-10.2453
▁1903	-10.2459
▁lagkonkurransen	-10.2459
▁positiv	-10.2459
▁kombinasjon	-10.2459
▁debutalbum	-10.246
▁1911	-10.2461
▁1915	-10.2461
▁holdning	-10.2464
▁føde	-10.2465
▁streng	-10.2466
28	-10.2481
▁undervisning	-10.2486
▁driver	-10.2501
▁green	-10.2503
sosialistisk	-10.2504
▁cre	-10.2521
rygg	-10.2524
▁institusjon	-10.2528
▁motsatt	-10.2528
▁kulturell	-10.2547
bein	-10.2549
▁landslaget	-10.2554
▁utgi	-10.2554
▁synge	-10.2556
▁boy	-10.2556
bygningen	-10.2567
▁menneskelig	-10.2568
▁wu	-10.2572
▁departementet	-10.2573
▁ønske	-10.2574
▁thi	-10.2587
▁bio	-10.2595
▁opprøret	-10.2599
▁grunnlov	-10.26
▁smi	-10.2606
▁mø	-10.2615
▁hamar	-10.2616
▁landskap	-10.2619
▁roll	-10.262
11	-10.2626
▁påvirket	-10.2634
sfjorden	-10.2634
▁1902	-10.2637
▁beseiret	-10.2637
▁byprefektur	-10.2637
▁installert	-10.2637
▁referanse	-10.2637
▁dyktig	-10.2637
▁ludvig	-10.2637
▁oppmerksomhet	-10.2637
▁referere	-10.2638
▁terror	-10.2638
▁nevnes	-10.2638
▁overraske	-10.2638
▁arendal	-10.2638
▁alf	-10.2638
▁jesus	-10.2638
▁hardt	-10.2639
plattform	-10.264
domstol	-10.2641
▁drikke	-10.2644
▁lønn	-10.2649
gate	-10.265
▁east	-10.265
▁hul	-10.2651
▁platen	-10.2659
▁eli	-10.2661
▁olsen	-10.2662
kryss	-10.2662
▁skadet	-10.2663
direktør	-10.2668
▁behandle	-10.2668
hode	-10.2672
▁up	-10.2682
▁mengde	-10.2682
27	-10.2685
▁teknologi	-10.2694
▁vg	-10.2698
▁mobil	-10.273
▁besøkt	-10.2744
wald	-10.2745
▁beskriver	-10.2746
verden	-10.2747
▁begrep	-10.2751
handlet	-10.2752
betegnelse	-10.277
▁administrasjon	-10.2809
▁gor	-10.2816
▁fødsel	-10.2819
friidrettsutøver	-10.2819
▁milliarder	-10.2819
▁sistnevnte	-10.2819
▁alkohol	-10.2819
▁jakob	-10.2819
▁innbyggertall	-10.2819
▁opptrådt	-10.2819
▁uvanlig	-10.2819
▁hvem	-10.2819
▁sprint	-10.2819
▁nedbør	-10.2819
kompleks	-10.2819
mønster	-10.282
▁1913	-10.2821
▁1926	-10.2821
▁konsul	-10.2822
▁sco	-10.2829
▁1890	-10.2836
tagelse	-10.2837
▁forvingen	-10.2842
▁kommunal	-10.2847
▁dj	-10.2851
hånd	-10.2853
▁wales	-10.2863
▁metro	-10.2868
▁rulle	-10.2868
▁tell	-10.2869
▁tiår	-10.2872
▁svar	-10.2873
▁strøk	-10.2874
▁bekreftet	-10.288
▁gun	-10.2882
▁lykke	-10.2883
▁american	-10.289
onia	-10.2892
▁kalk	-10.2892
81	-10.2904
fjellene	-10.2905
▁120	-10.2906
tallet	-10.2934
än	-10.2938
▁mord	-10.2939
renn	-10.2941
▁mesterskap	-10.2946
▁uke	-10.2988
row	-10.2989
▁eventyr	-10.3004
▁vilhelm	-10.3004
▁besluttet	-10.3004
▁bryst	-10.3005
offensiv	-10.3005
▁definert	-10.3005
▁oppløst	-10.3006
▁1927	-10.3006
▁definere	-10.3006
▁godkjent	-10.3007
▁kastet	-10.3008
▁alfred	-10.301
kommisjonen	-10.3018
▁grunnlag	-10.3019
▁pap	-10.302
▁beslutning	-10.3021
▁dalen	-10.3021
▁agder	-10.3022
gav	-10.3023
syre	-10.3038
angrep	-10.3043
kontor	-10.3046
▁landsby	-10.3046
stjerne	-10.3054
svarer	-10.3057
eppe	-10.3057
områdene	-10.306
▁paus	-10.3078
kkel	-10.308
▁statsråd	-10.3082
▁vekk	-10.3082
ulf	-10.309
▁utlandet	-10.3095
onne	-10.3096
▁flyktet	-10.3097
▁jøde	-10.3102
▁vill	-10.3105
▁forskjellig	-10.3108
▁fritt	-10.3114
skyting	-10.3114
▁ull	-10.3127
32	-10.3129
▁regional	-10.3132
▁gyl	-10.3158
▁situasjonen	-10.3162
forsyning	-10.3167
▁frihet	-10.3172
▁wil	-10.3185
▁sho	-10.3186
ordnet	-10.3188
▁1907	-10.3193
▁friedrich	-10.3193
▁tyrkia	-10.3193
▁arthur	-10.3193
▁avgjørende	-10.3193
▁inngår	-10.3194
▁bøkene	-10.3194
▁føderal	-10.3194
▁registrert	-10.3194
▁opptrer	-10.3195
ulykke	-10.3196
vokst	-10.3196
▁unnta	-10.3196
▁døgn	-10.3197
▁dvs	-10.3198
▁krevd	-10.3199
▁yu	-10.32
tårn	-10.3203
▁munk	-10.3208
▁helst	-10.3208
▁nederlag	-10.3209
kreft	-10.3209
bygning	-10.3212
▁1300	-10.3214
14	-10.3215
afrikansk	-10.3216
ppel	-10.3224
▁intens	-10.3228
▁sunn	-10.3229
▁ferge	-10.3231
akademi	-10.3234
▁cand	-10.3236
▁cra	-10.3241
feld	-10.3241
arten	-10.3257
▁gruppa	-10.3288
back	-10.3291
▁bakke	-10.3293
▁bærer	-10.3294
▁mengder	-10.3302
▁kapp	-10.3302
kasse	-10.3316
staten	-10.3324
▁truet	-10.3329
bol	-10.3329
▁rand	-10.3335
▁hull	-10.3337
ische	-10.334
stemt	-10.3348
▁wall	-10.3359
karriere	-10.3366
▁prosessen	-10.3367
▁scenen	-10.3368
løytnant	-10.3385
▁konservativ	-10.3385
▁etablere	-10.3385
▁oblast	-10.3385
▁zealand	-10.3385
▁forsvant	-10.3385
▁egenskaper	-10.3386
▁dverg	-10.3386
▁håkon	-10.3387
▁utgivelsen	-10.3387
▁ligner	-10.3387
▁generasjon	-10.3387
▁opplevd	-10.3388
▁foreslått	-10.3389
▁erfaring	-10.339
▁verv	-10.3391
▁tam	-10.3403
kommende	-10.3404
75	-10.3406
▁gitarist	-10.3407
▁østover	-10.3415
skij	-10.3425
konkurranse	-10.343
▁hevder	-10.343
tittel	-10.3433
museet	-10.3434
▁legger	-10.3439
▁stiftelsen	-10.3442
▁semifinalen	-10.3444
▁konstruksjon	-10.3447
vogn	-10.3454
▁skudd	-10.3454
▁ingeniør	-10.3459
cul	-10.3463
29	-10.3465
▁flor	-10.3466
bringe	-10.3484
▁israelsk	-10.3487
▁stål	-10.3506
▁fol	-10.3514
▁fjernet	-10.3523
▁bygda	-10.356
▁observ	-10.3575
▁republikk	-10.3578
▁amsterdam	-10.3581
▁mesteparten	-10.3581
▁skulptur	-10.3581
▁edward	-10.3581
▁tyrkisk	-10.3581
▁preussen	-10.3582
▁brensel	-10.3582
▁oberst	-10.3582
▁opplysning	-10.3582
▁innlemme	-10.3582
▁utmerkelse	-10.3582
▁fjernsyn	-10.3584
▁gullmedalje	-10.3585
▁monark	-10.3586
▁mandat	-10.359
▁kristiania	-10.359
▁fastlandet	-10.3591
▁scott	-10.3591
▁reaksjon	-10.3594
▁brent	-10.3596
▁1898	-10.3599
▁nasjoner	-10.3601
▁kim	-10.3603
▁sikte	-10.3604
▁middelalder	-10.3609
▁lista	-10.3611
▁situasjon	-10.3614
▁neu	-10.3614
▁seire	-10.3615
▁deltatt	-10.3623
▁bydelen	-10.3629
▁buk	-10.3638
▁camp	-10.3644
▁blanding	-10.3645
▁innlede	-10.3647
gudinne	-10.3663
▁arkeologisk	-10.3667
økonom	-10.3682
▁gam	-10.3682
trener	-10.3684
▁bakkroppen	-10.3684
▁jøder	-10.3689
▁cur	-10.3709
▁øvrig	-10.3716
▁samisk	-10.3721
▁bestemme	-10.3725
▁uttrykket	-10.3726
liste	-10.3737
▁vokal	-10.3778
▁sara	-10.3781
▁napoleon	-10.3781
▁australsk	-10.3781
▁ortodoks	-10.3781
▁orkester	-10.3781
▁individuell	-10.3781
▁redusere	-10.3782
▁bodø	-10.3782
▁presentert	-10.3782
▁markedet	-10.3782
▁hjørne	-10.3782
▁glass	-10.3783
▁väst	-10.3783
▁bispe	-10.3783
komité	-10.3784
▁hjerne	-10.3788
▁show	-10.3793
▁utenlands	-10.3795
▁cy	-10.38
▁jack	-10.3811
teori	-10.3813
▁utvikler	-10.3816
▁enkle	-10.3821
▁homo	-10.3822
▁gradvis	-10.3827
▁ufor	-10.3832
▁signal	-10.3843
▁adam	-10.3845
▁vedtatt	-10.3852
▁hjul	-10.387
fartøy	-10.3873
▁flåte	-10.3879
start	-10.3884
▁etnisk	-10.3897
▁omkom	-10.3918
vang	-10.3937
▁karrieren	-10.3947
▁lake	-10.3953
▁fjellene	-10.3957
blomst	-10.397
fant	-10.3976
▁omgang	-10.3983
▁argumenter	-10.3986
▁patriark	-10.3986
▁vedlikehold	-10.3986
▁regissør	-10.3986
▁lyktes	-10.3986
▁victoria	-10.3986
▁monument	-10.3986
▁praktisk	-10.3986
▁utseende	-10.3986
▁opposisjon	-10.3987
▁generell	-10.3988
▁town	-10.3988
▁nylig	-10.3988
▁philip	-10.3989
▁1909	-10.3989
▁reserve	-10.3991
virket	-10.3992
kompani	-10.3993
▁klipp	-10.3994
▁1895	-10.4006
▁900	-10.4012
▁christiania	-10.4012
▁santa	-10.4024
▁250	-10.4025
▁histor	-10.4027
▁løsning	-10.4028
▁velger	-10.4033
hjelp	-10.4043
finalen	-10.4044
▁tidspunktet	-10.4046
samisk	-10.4046
▁myk	-10.4051
▁kjemisk	-10.4055
▁dahl	-10.4057
▁inneha	-10.406
▁urban	-10.4063
▁celle	-10.4066
▁sving	-10.4069
▁hekk	-10.4073
▁artikler	-10.4075
▁forklare	-10.4075
setting	-10.4081
▁grunnlaget	-10.4084
▁smak	-10.4087
kron	-10.4088
com	-10.4103
celle	-10.4113
▁eik	-10.4144
▁flest	-10.4148
▁kara	-10.4153
▁stam	-10.4153
norsk	-10.4161
▁stortings	-10.4165
▁stab	-10.4169
▁individ	-10.4194
▁chicago	-10.4194
▁elisabeth	-10.4194
▁engasjert	-10.4194
▁konkurrere	-10.4194
▁konsept	-10.4194
▁svalbard	-10.4194
budsjett	-10.4194
▁vesentlig	-10.4194
▁avdøde	-10.4194
▁oppretthold	-10.4194
▁gustav	-10.4194
▁ungarsk	-10.4194
▁nedenfor	-10.4195
▁brygge	-10.4198
▁tilhørte	-10.4198
▁fredrikstad	-10.4199
økende	-10.4201
▁blind	-10.4204
metode	-10.421
▁tørr	-10.4211
▁egyptiske	-10.4214
▁levende	-10.4219
▁1860	-10.4221
▁persisk	-10.423
▁betale	-10.423
▁tjenestegjor	-10.4233
element	-10.4233
▁opptatt	-10.4238
roman	-10.4251
▁grøn	-10.4262
måte	-10.4263
forsker	-10.4264
▁grov	-10.4265
▁ef	-10.4266
støtte	-10.4269
▁evig	-10.4272
▁jente	-10.4273
dannelse	-10.4274
▁mangel	-10.4279
▁klokken	-10.4281
▁uken	-10.4285
▁street	-10.4292
▁fru	-10.4302
para	-10.4308
▁høst	-10.4334
▁trening	-10.4339
▁dynasti	-10.4339
▁beskrev	-10.4339
fred	-10.4342
▁salme	-10.435
▁religiøs	-10.4355
bury	-10.4365
22	-10.44
▁1901	-10.4407
▁aleksander	-10.4407
▁eksemplarer	-10.4407
▁midlertidig	-10.4407
▁windows	-10.4407
▁portugal	-10.4407
▁hyppig	-10.4407
▁permanent	-10.4407
▁negativ	-10.4407
▁ekstrem	-10.4407
▁golf	-10.4407
sammenslåing	-10.4407
▁dominert	-10.4407
▁strekningen	-10.4407
▁datamaskin	-10.4408
▁molde	-10.4408
▁søkte	-10.4408
▁kritisk	-10.4409
▁krysser	-10.441
▁antyde	-10.4412
▁medaljen	-10.4412
▁alex	-10.4413
psykolog	-10.4416
▁akku	-10.4422
▁forvente	-10.4424
▁prix	-10.4425
▁romerne	-10.4432
▁trodd	-10.4442
▁verd	-10.4444
▁cuba	-10.4446
▁utbrudd	-10.4449
vakt	-10.4449
▁jag	-10.4456
▁grevskap	-10.4457
fell	-10.4458
▁umiddelbart	-10.4459
▁server	-10.4462
▁fungerer	-10.4463
▁170	-10.4466
▁dramatisk	-10.4467
▁institut	-10.4471
rydde	-10.4471
produsent	-10.4473
▁rasen	-10.4475
botn	-10.4475
▁nazi	-10.4477
▁kommando	-10.4481
▁beskrivelse	-10.4488
agon	-10.4489
iseringen	-10.4491
ligning	-10.4504
blikk	-10.451
▁niko	-10.4512
91	-10.4512
▁nettverk	-10.4517
▁flåten	-10.4519
▁opplag	-10.4533
▁skinn	-10.4538
politi	-10.4542
▁stift	-10.4558
speriode	-10.4572
demokrat	-10.4578
komst	-10.4598
flekk	-10.46
grim	-10.4621
▁middelsstor	-10.4624
▁symfoni	-10.4624
▁washington	-10.4624
▁ressurs	-10.4624
veksling	-10.4624
▁fjær	-10.4624
▁forbedre	-10.4624
▁gregor	-10.4626
▁operatør	-10.4626
▁overlevd	-10.4626
▁internett	-10.4627
kampanje	-10.4628
▁hensyn	-10.463
▁utenlandske	-10.4631
▁auto	-10.4633
▁aksje	-10.4634
▁drepe	-10.4639
idrett	-10.464
▁1897	-10.464
▁magnet	-10.4646
▁etappe	-10.4646
▁fremmed	-10.4649
▁1200	-10.4652
bad	-10.4662
▁stund	-10.4685
▁kommunist	-10.4688
▁hente	-10.469
▁troms	-10.4696
▁krise	-10.4719
bunn	-10.4724
▁erstatte	-10.4733
▁mannlig	-10.4744
strømmen	-10.4748
▁forent	-10.4768
▁preg	-10.4778
otten	-10.4788
▁hovedkvarter	-10.4846
▁liverpool	-10.4846
▁ambassad	-10.4846
▁hordaland	-10.4846
▁oxford	-10.4846
▁kriminal	-10.4846
▁oppstår	-10.4847
▁adresse	-10.4847
▁digital	-10.4848
fond	-10.4849
▁programleder	-10.485
▁feire	-10.4856
▁forsterke	-10.4862
slutt	-10.4862
▁fortellingen	-10.4865
▁kommunestyre	-10.4865
▁mitt	-10.4868
85	-10.4884
▁næringsliv	-10.4891
redskap	-10.4892
▁statue	-10.4899
▁epi	-10.4904
▁utbygging	-10.4904
▁steve	-10.492
materiale	-10.4922
funksjon	-10.4922
▁elektron	-10.4936
▁unna	-10.4936
▁coll	-10.4939
▁kval	-10.4939
mmel	-10.4943
olje	-10.4953
▁chile	-10.5002
▁skuespill	-10.5007
▁tykk	-10.5009
▁ulv	-10.5009
politisk	-10.5017
▁utføre	-10.5025
▁web	-10.5029
▁hellig	-10.503
▁klin	-10.5033
familie	-10.5063
bestand	-10.5066
▁administrere	-10.5074
▁helsingfors	-10.5074
▁intervju	-10.5074
▁konkurrert	-10.5074
molekyl	-10.5074
▁anbefal	-10.5074
▁etablering	-10.5074
▁jørgen	-10.5074
▁forhindre	-10.5074
▁ordinær	-10.5074
▁fenomen	-10.5074
▁kjøtt	-10.5074
▁henrettet	-10.5074
▁betjene	-10.5074
▁gunnar	-10.5074
▁kapital	-10.5074
▁separat	-10.5074
▁forårsake	-10.5074
▁beskjed	-10.5074
▁elementer	-10.5076
▁britis	-10.5076
▁oppnå	-10.5078
▁borgermester	-10.5078
▁dominerende	-10.5078
▁kraftverket	-10.5079
▁tegninger	-10.5081
▁arena	-10.5084
▁1891	-10.5086
▁spesifik	-10.5086
▁nød	-10.5088
▁palm	-10.5091
▁frø	-10.5101
▁nordmenn	-10.5106
▁polar	-10.511
▁tenke	-10.5121
▁overflaten	-10.5127
▁vitne	-10.5132
▁rou	-10.5134
▁troll	-10.5134
▁europe	-10.514
▁ligge	-10.515
▁etasje	-10.5157
▁erobre	-10.5162
studie	-10.5167
▁grunnla	-10.517
basert	-10.5185
næring	-10.5189
▁brei	-10.5192
▁intel	-10.5194
▁oppfatte	-10.5195
▁kunstnerisk	-10.52
▁hå	-10.5201
▁stikk	-10.521
▁bære	-10.522
hui	-10.5223
▁tidspunkt	-10.524
▁bull	-10.5254
▁vanligst	-10.5256
▁schw	-10.5272
blå	-10.528
▁proto	-10.5283
▁folketall	-10.5284
▁skjedd	-10.5285
wick	-10.5285
▁steg	-10.5292
▁pala	-10.5296
▁eventuel	-10.5306
▁nøytral	-10.5306
▁utbredelse	-10.5306
▁alexander	-10.5306
▁innbyggerne	-10.5306
seremoni	-10.5306
▁reklame	-10.5306
▁kostnad	-10.5306
▁brigade	-10.5307
▁tilbrakt	-10.5307
▁anvende	-10.5307
▁romsdal	-10.5308
▁svein	-10.5309
▁forbudt	-10.5314
▁rektor	-10.5317
regime	-10.5317
▁rykte	-10.5319
seier	-10.5324
▁datert	-10.5325
▁ddr	-10.5325
▁inngikk	-10.5329
▁overleve	-10.5332
▁spring	-10.5344
▁angel	-10.5345
▁term	-10.5351
kalender	-10.5354
▁1880	-10.5362
▁brakt	-10.5364
utenriksminister	-10.5374
▁samtid	-10.5379
▁arch	-10.5385
▁oppsto	-10.539
▁parlament	-10.539
vall	-10.5426
▁brem	-10.5435
katt	-10.5478
▁sideelv	-10.548
▁utløp	-10.5506
bolig	-10.5512
▁anerkjenne	-10.5544
▁kollektiv	-10.5544
▁jerusalem	-10.5544
▁juridisk	-10.5544
▁restaurant	-10.5544
▁venezia	-10.5544
▁akseptert	-10.5544
▁göteborg	-10.5544
▁antarktis	-10.5544
▁sachsen	-10.5544
pedagog	-10.5544
▁igjennom	-10.5544
▁central	-10.5545
▁seinere	-10.5545
▁bbc	-10.5545
▁multi	-10.5545
▁francisco	-10.5546
▁inndelt	-10.5547
nevn	-10.555
▁vente	-10.555
gjald	-10.5551
▁kreert	-10.5553
▁dagbladet	-10.5555
▁tropper	-10.5555
▁barndom	-10.5557
▁gjennombrudd	-10.5557
▁høyesterett	-10.5557
▁tenkt	-10.5562
artist	-10.5562
stigning	-10.5563
▁1899	-10.5569
▁kongelig	-10.557
▁utenom	-10.5577
▁beskyttelse	-10.5593
▁emil	-10.56
▁landområde	-10.5618
▁roger	-10.5618
▁takke	-10.5621
▁angi	-10.563
▁krok	-10.5634
▁låter	-10.5643
mengde	-10.5654
melding	-10.5657
▁vingene	-10.5663
▁lyng	-10.5706
wart	-10.5722
følelse	-10.5738
▁kalde	-10.575
løft	-10.5767
ridge	-10.5772
▁synd	-10.5773
▁embets	-10.5783
▁sjeldne	-10.5788
▁angelsaksisk	-10.5788
▁sarpsborg	-10.5788
▁company	-10.5788
▁invadert	-10.5788
▁service	-10.5788
▁texas	-10.5788
▁vestfold	-10.5788
▁integr	-10.5788
▁katolik	-10.5788
▁innvalgt	-10.5789
▁valuta	-10.5789
▁estland	-10.5789
▁bakvingen	-10.5789
▁firmaet	-10.579
alisering	-10.5799
▁1888	-10.5806
▁georgia	-10.5811
▁beholde	-10.582
▁lord	-10.5821
▁sparta	-10.5822
▁birk	-10.5823
▁indianer	-10.5825
▁inndeling	-10.5833
▁furu	-10.5836
▁130	-10.5852
▁filip	-10.5854
▁trygg	-10.5859
skrevet	-10.5877
▁karakteristisk	-10.5879
▁ørn	-10.5879
▁brian	-10.5883
kontrakt	-10.5887
▁melk	-10.5899
▁begrense	-10.5914
▁låten	-10.5936
pakke	-10.5958
▁kupp	-10.596
dratt	-10.5977
stell	-10.5986
▁kjel	-10.599
buss	-10.5991
årig	-10.6011
▁slette	-10.6014
▁kammer	-10.6027
▁høre	-10.603
▁columbia	-10.6038
▁innspilt	-10.6038
▁jomfru	-10.6038
▁returnerte	-10.6038
▁færøyene	-10.6038
▁trommeslager	-10.6038
▁sigurd	-10.6038
▁erobring	-10.6038
▁opptreden	-10.6038
▁eksisterer	-10.6038
▁automatisk	-10.6038
▁varierende	-10.6039
▁middelhavet	-10.6039
▁avansert	-10.604
▁fangst	-10.604
▁bassist	-10.604
væske	-10.604
▁utforming	-10.604
▁forklaring	-10.604
▁bayern	-10.604
▁øynene	-10.6041
▁import	-10.6041
▁turbin	-10.6041
▁trenger	-10.6042
▁oppleve	-10.6044
▁piano	-10.6047
▁forrige	-10.6048
▁fremført	-10.6053
▁1884	-10.6056
▁1894	-10.606
▁bevisst	-10.6065
▁soldatene	-10.6066
▁månen	-10.6071
teater	-10.6075
▁700	-10.6076
gjorde	-10.6077
▁tvang	-10.6082
▁elektro	-10.6084
▁overtatt	-10.6097
chester	-10.6119
▁play	-10.612
▁filosof	-10.612
▁fotballklubb	-10.6122
▁burde	-10.6136
strup	-10.6141
redaktør	-10.6143
musiker	-10.6144
▁bratt	-10.6145
▁elektronisk	-10.6146
▁vende	-10.6157
krev	-10.6158
▁tromme	-10.6166
▁nato	-10.6172
fattet	-10.6183
▁liber	-10.6186
rute	-10.619
▁vindu	-10.6195
register	-10.62
▁hval	-10.6217
▁avslutte	-10.6222
gram	-10.6224
▁overflate	-10.6234
scene	-10.6239
▁kiel	-10.6244
verv	-10.6244
▁gjennomsnitt	-10.6246
gutt	-10.6269
▁larve	-10.628
▁elizabeth	-10.6294
▁forøvrig	-10.6294
▁millimeter	-10.6294
▁vingespenn	-10.6294
▁evangeli	-10.6294
▁oppfatning	-10.6294
▁thailand	-10.6295
▁fjordane	-10.6295
▁uansett	-10.6295
▁frigjøring	-10.6295
▁pedersen	-10.6295
▁testamente	-10.6295
▁biologisk	-10.6295
▁flyktning	-10.6295
▁kulturminne	-10.6295
▁elleve	-10.6295
▁atmosfære	-10.6297
▁høydepunkt	-10.6298
▁innebar	-10.6303
▁tolke	-10.6308
▁forlatt	-10.631
▁1892	-10.6314
slav	-10.6319
▁1870	-10.6323
▁1100	-10.6324
▁simon	-10.6325
tavle	-10.6337
▁lettere	-10.6343
▁prost	-10.6346
▁gjennomsnittlig	-10.6355
medlem	-10.6402
maleri	-10.6412
▁olympi	-10.6414
▁synlig	-10.6463
▁kent	-10.6484
▁110	-10.6485
▁finale	-10.6488
seth	-10.6508
▁hjemmebane	-10.651
økonomi	-10.6537
▁astronom	-10.6558
▁forgjenger	-10.6558
▁jordskjelv	-10.6558
▁portugisisk	-10.6558
▁symptom	-10.6558
▁særskilt	-10.6558
▁tsjekkoslovakia	-10.6558
▁fysikk	-10.6558
▁asteroide	-10.6558
▁skjold	-10.6558
▁midtøsten	-10.6558
▁diameter	-10.6558
▁foregår	-10.6558
▁beslektet	-10.6558
▁ombord	-10.6558
▁trengte	-10.6558
stråling	-10.6558
▁gratis	-10.6558
▁ektemann	-10.6559
▁forberede	-10.6559
▁novell	-10.6559
▁manager	-10.656
▁skarp	-10.656
▁stengt	-10.656
▁divers	-10.656
▁michel	-10.6562
▁opprettelse	-10.6562
▁hovedkontor	-10.6563
▁wilson	-10.6563
▁kaffe	-10.6563
▁house	-10.6564
▁2018	-10.6564
▁stedsnavn	-10.6564
▁lokalisert	-10.6566
▁stalin	-10.6567
▁arkiv	-10.6569
▁bystyre	-10.6574
▁young	-10.6575
▁edderkoppen	-10.6583
▁with	-10.6593
▁usikker	-10.6594
▁hylle	-10.6601
▁vestover	-10.6602
▁brutt	-10.6639
work	-10.6649
bibliotek	-10.6676
representant	-10.6676
▁kirkelig	-10.6681
▁påvirke	-10.6682
▁fett	-10.6692
▁gjennomføre	-10.6707
▁universit	-10.6739
▁frei	-10.6759
light	-10.6785
kommanderende	-10.6828
▁billboard	-10.6828
▁christopher	-10.6828
▁definisjon	-10.6828
▁football	-10.6828
▁renessanse	-10.6828
▁utelukke	-10.6828
▁kvalifisert	-10.6828
▁forkropp	-10.6828
▁vannpolo	-10.6828
▁adolf	-10.6828
▁konvensjon	-10.6828
▁bærum	-10.6828
tolkning	-10.6829
▁tempo	-10.6829
▁tropisk	-10.6831
▁enhver	-10.6831
▁programvare	-10.6832
▁tjue	-10.6832
▁group	-10.6832
▁lidelse	-10.6833
▁forbinde	-10.6833
▁gjenvalg	-10.6833
skikk	-10.6835
▁hjal	-10.6836
▁hvile	-10.6837
vesenet	-10.6837
▁manchester	-10.6837
▁overlevende	-10.6837
▁allmenn	-10.6838
▁størst	-10.6838
▁talent	-10.6839
▁orgel	-10.684
▁1885	-10.6842
▁1875	-10.6844
▁1814	-10.6845
▁1881	-10.6845
▁1883	-10.6848
▁maksimal	-10.6849
▁walter	-10.6853
▁3000	-10.6855
▁för	-10.6859
▁petter	-10.686
▁seksjon	-10.6869
▁great	-10.6885
▁slippe	-10.6886
▁skjerm	-10.6887
▁utvide	-10.6889
▁formannskap	-10.6899
▁løfte	-10.6902
▁sovjet	-10.6939
dømt	-10.6954
kanalen	-10.6956
▁øre	-10.6966
▁forlate	-10.6975
amerikanske	-10.7003
▁demokrati	-10.7019
▁tryg	-10.7036
leif	-10.7048
▁operativ	-10.707
▁aftenposten	-10.7106
▁kvadrat	-10.7106
▁prøvd	-10.7106
▁prøyssisk	-10.7106
▁skandinavia	-10.7106
▁ukraina	-10.7106
▁vurdert	-10.7106
▁antennene	-10.7106
▁buskerud	-10.7106
▁beordret	-10.7106
▁xiàn	-10.7106
▁østfold	-10.7106
▁yngste	-10.7106
▁matematikk	-10.7106
▁amatør	-10.7106
▁rosenborg	-10.7106
▁betydningsfull	-10.7106
▁pastor	-10.7106
▁partner	-10.7106
ström	-10.7107
▁erstatning	-10.7107
▁tabellen	-10.7108
▁hedmark	-10.7109
▁spurt	-10.711
▁håndverk	-10.7113
▁senator	-10.7115
▁falsk	-10.7116
▁forløper	-10.7116
▁skuespillerinne	-10.7119
▁kunstløp	-10.712
▁idé	-10.7121
▁bruce	-10.7122
▁nerve	-10.7129
▁tilsyne	-10.7133
▁tynn	-10.7146
phy	-10.7155
▁sjakk	-10.7161
▁kommunistparti	-10.7165
▁hotel	-10.7172
▁pund	-10.7186
kandidat	-10.724
offiser	-10.724
transport	-10.724
sønn	-10.7242
kunstner	-10.725
▁styremedlem	-10.7251
▁million	-10.7258
▁møtt	-10.7325
næs	-10.7342
▁akademisk	-10.7388
▁invest	-10.7389
▁allikevel	-10.7391
▁argentina	-10.7391
▁country	-10.7391
▁fakultet	-10.7391
▁identifisert	-10.7391
▁strategisk	-10.7391
▁tilstrekkelig	-10.7391
▁tønsberg	-10.7391
▁ferskvann	-10.7391
▁inskripsjon	-10.7391
▁kommandant	-10.7391
▁litauen	-10.7391
▁stridsvogn	-10.7391
▁parallell	-10.7391
▁ovenfor	-10.7391
▁diskusjon	-10.7391
▁dublin	-10.7391
▁ansikt	-10.7391
orientert	-10.7392
▁beleiring	-10.7392
▁rolf	-10.7392
▁tokyo	-10.7392
▁prinsesse	-10.7392
▁larvik	-10.7393
▁mineral	-10.7393
▁sukker	-10.7393
▁smelte	-10.7393
aceae	-10.7394
plater	-10.7395
▁britene	-10.7395
apparat	-10.7395
▁sjanger	-10.7396
▁sjanse	-10.7396
▁slank	-10.7397
▁skrå	-10.7404
▁spyd	-10.7414
▁anlagt	-10.7418
▁1400	-10.7425
▁amerikaner	-10.7429
▁møre	-10.7433
▁potter	-10.7436
▁omdanne	-10.7439
▁personlighet	-10.7441
▁wild	-10.7442
▁trang	-10.7443
recht	-10.7454
▁innerst	-10.7463
▁silke	-10.7481
▁dobbel	-10.7488
divisjon	-10.7535
museum	-10.7535
▁samtale	-10.754
matikk	-10.7544
▁flykte	-10.756
▁arab	-10.7572
samband	-10.7592
oksid	-10.7602
perioden	-10.7613
▁tyde	-10.7647
sjö	-10.7663
▁chris	-10.7665
emperatur	-10.7679
▁konstitusjon	-10.7686
vassdraget	-10.7686
▁assistent	-10.7686
▁jugoslavia	-10.7686
▁klassifiser	-10.7686
▁leipzig	-10.7686
▁lillehammer	-10.7686
▁invitert	-10.7686
▁jersey	-10.7686
▁nøyaktig	-10.7686
▁kavaleri	-10.7686
▁autoritet	-10.7686
▁eidsvoll	-10.7686
komponent	-10.7686
▁baseball	-10.7686
▁autonom	-10.7686
▁nicola	-10.7686
▁fiolin	-10.7686
worth	-10.7686
▁senior	-10.7686
▁seksuell	-10.7686
▁josef	-10.7686
▁noensinne	-10.7686
materiell	-10.7686
nnebærer	-10.7687
▁flytende	-10.7688
▁sentralbank	-10.7688
▁rettssak	-10.7689
▁donald	-10.7691
▁vannkraftverk	-10.7694
▁thu	-10.7696
▁øvelsen	-10.7696
▁regimet	-10.7696
▁skygge	-10.7697
▁bedriften	-10.7701
stråle	-10.7703
▁petr	-10.7715
spreng	-10.7744
▁observert	-10.7781
▁wol	-10.7793
▁filosofisk	-10.7813
▁bakkropp	-10.7831
gruppa	-10.7837
tveit	-10.7887
▁05	-10.7914
cheng	-10.7921
▁espe	-10.7931
kål	-10.7936
ittisk	-10.7939
forvaltning	-10.7985
horn	-10.7986
▁dirigent	-10.7989
▁kontinuerlig	-10.7989
▁landkreis	-10.7989
▁muslimsk	-10.7989
▁psykisk	-10.7989
▁påbegynt	-10.7989
▁shakespeare	-10.7989
▁leilighet	-10.7989
▁barnebarn	-10.7989
▁begravet	-10.7989
høvding	-10.7989
▁massiv	-10.7989
▁sandefjord	-10.7989
▁karbon	-10.7989
▁dvd	-10.7989
eksisterende	-10.7989
▁global	-10.799
▁opphørte	-10.799
▁florida	-10.799
▁utpekt	-10.799
▁kobber	-10.799
▁svekke	-10.799
▁sosialdemokrat	-10.799
▁verdensrekord	-10.7991
▁flekker	-10.7992
▁sannhet	-10.7992
▁røyk	-10.7992
▁syria	-10.7993
▁investering	-10.7994
▁profil	-10.7996
▁åpenbar	-10.7997
▁panser	-10.8008
▁kirk	-10.8023
▁smerte	-10.8033
▁queen	-10.8033
▁ungdomsskole	-10.8036
▁forbli	-10.8063
▁utvidelse	-10.8086
▁kvit	-10.8137
instrument	-10.815
behandling	-10.815
effekt	-10.815
rekord	-10.8154
▁klokke	-10.8192
værelse	-10.8208
▁stiftelse	-10.8217
▁inspirasjon	-10.8301
▁bryllup	-10.8301
▁gymnas	-10.8301
▁heidelberg	-10.8301
▁hongkong	-10.8301
▁libanon	-10.8301
▁meksikansk	-10.8301
▁mongolia	-10.8301
▁nowiki	-10.8301
▁republikansk	-10.8301
▁virginia	-10.8301
▁svømmer	-10.8301
▁1871	-10.8301
▁kringkast	-10.8301
▁utspring	-10.8301
▁umulig	-10.8301
▁tjener	-10.8301
▁ulovlig	-10.8301
▁canadisk	-10.8301
▁samuel	-10.8302
▁power	-10.8303
▁innviet	-10.8303
▁metoder	-10.8304
▁byggverk	-10.8304
▁betong	-10.8304
▁dylan	-10.8304
terapi	-10.8305
▁generalsekretær	-10.8305
▁rednings	-10.8306
▁avgjørelse	-10.8307
▁slapp	-10.8307
▁metoden	-10.8309
▁humor	-10.8311
▁nedtegne	-10.8312
▁betalt	-10.8313
▁robin	-10.8319
▁forandre	-10.832
▁oversette	-10.8323
▁utnevne	-10.8325
▁ernst	-10.833
▁morten	-10.8334
▁lunge	-10.8347
vennlig	-10.8357
medlemmer	-10.839
søyle	-10.8399
utdanning	-10.8473
utvikle	-10.8474
▁minutt	-10.8484
▁brødre	-10.8596
medlemmene	-10.8607
▁francis	-10.8621
▁jesuitt	-10.8624
belteasteroide	-10.8624
▁atlanterhavet	-10.8624
▁belønn	-10.8624
▁cæsar	-10.8624
▁forfremme	-10.8624
▁fundament	-10.8624
▁innendørs	-10.8624
▁luxembourg	-10.8624
▁microsoft	-10.8624
▁omdøpt	-10.8624
▁utdødd	-10.8624
▁aktuell	-10.8624
▁ferdinand	-10.8624
▁angivelig	-10.8624
▁fengsle	-10.8624
▁flandern	-10.8624
▁linux	-10.8624
▁terminal	-10.8624
▁følte	-10.8624
▁forkortelse	-10.8624
▁hebraisk	-10.8624
▁mekanisk	-10.8624
▁sydney	-10.8624
▁bøndene	-10.8624
▁tjent	-10.8624
▁tilskuere	-10.8624
▁fremtidig	-10.8624
▁skildre	-10.8624
▁avviklet	-10.8624
▁økning	-10.8624
teatret	-10.8624
▁ekspert	-10.8624
▁osmansk	-10.8624
▁søsken	-10.8625
▁vakre	-10.8625
▁titler	-10.8625
▁legenden	-10.8625
kjøring	-10.8626
▁fienden	-10.8626
▁tallrike	-10.8626
▁einar	-10.8626
▁moore	-10.8626
palasset	-10.8626
▁brown	-10.8627
▁konsekvens	-10.8627
▁nevner	-10.8627
▁3166	-10.8628
▁kongeriket	-10.8628
▁langrenn	-10.863
▁sykkel	-10.8632
▁biografi	-10.8633
▁styreleder	-10.8634
▁rytter	-10.8637
▁galleri	-10.8642
relatert	-10.8642
▁klatre	-10.8644
▁geir	-10.8646
utdanne	-10.8649
butikk	-10.8656
▁agent	-10.8667
▁stadie	-10.8683
revolusjonen	-10.8694
▁dreie	-10.8696
▁tretten	-10.8702
▁variert	-10.8723
▁luthersk	-10.8762
villig	-10.8798
▁plast	-10.88
medisin	-10.8805
arkitekt	-10.8806
litteratur	-10.8806
kontroll	-10.8806
forekomst	-10.8834
▁musikal	-10.8834
▁kjemi	-10.8845
▁fortelle	-10.8876
kompetanse	-10.8957
▁demonstrasjon	-10.8957
▁geometri	-10.8957
▁illinois	-10.8957
▁innvandrer	-10.8957
▁korrupsjon	-10.8957
▁legendarisk	-10.8957
▁meteorologi	-10.8957
▁shanghai	-10.8957
▁sluppet	-10.8957
▁territorium	-10.8957
▁vellykket	-10.8957
▁1845	-10.8957
▁prefektur	-10.8957
▁minoritet	-10.8957
▁istedenfor	-10.8957
▁vurdere	-10.8957
▁regjere	-10.8957
▁landskamper	-10.8957
betjent	-10.8957
▁kommersiell	-10.8957
▁utsikt	-10.8957
forsikring	-10.8957
▁seoul	-10.8957
▁serbisk	-10.8958
▁krysset	-10.8959
▁magasinet	-10.8959
▁finansminister	-10.896
▁kjørte	-10.896
▁bidratt	-10.8961
▁oppdagelsen	-10.8961
▁foregikk	-10.8962
▁nyhets	-10.8963
▁forvaltnings	-10.8963
▁moderat	-10.8964
▁antonio	-10.8965
▁utstedt	-10.8969
▁franz	-10.8972
▁otta	-10.8975
▁tillatt	-10.8982
▁bakerst	-10.8982
jørn	-10.8995
▁begynt	-10.9035
▁føle	-10.9056
▁turisme	-10.9077
balanse	-10.9088
inntekt	-10.9151
spørsmål	-10.9151
hjul	-10.9151
møll	-10.9154
komite	-10.9155
programmet	-10.9155
▁luther	-10.9157
gyldig	-10.9236
preg	-10.9264
▁psyko	-10.9287
▁doktor	-10.9301
direktoratet	-10.9302
▁annonsert	-10.9302
▁basketball	-10.9302
▁corporation	-10.9302
▁douglas	-10.9302
▁etiopia	-10.9302
▁folkeavstemning	-10.9302
▁garnison	-10.9302
▁lincoln	-10.9302
▁låtskriver	-10.9302
▁propaganda	-10.9302
▁uttrykt	-10.9302
▁vancouver	-10.9302
▁innstifte	-10.9302
▁pattedyr	-10.9302
▁infanteri	-10.9302
▁naturgass	-10.9302
▁tilsammen	-10.9302
▁moderniser	-10.9302
▁massakre	-10.9302
▁atlanta	-10.9302
▁cappelen	-10.9302
▁chelsea	-10.9302
▁risiko	-10.9302
▁protestantisk	-10.9302
▁misjonær	-10.9302
▁vegetasjon	-10.9302
▁ålesund	-10.9302
▁brother	-10.9302
▁færre	-10.9302
▁social	-10.9303
mouth	-10.9303
▁oppfølger	-10.9304
rørende	-10.9305
▁squa	-10.9305
▁korstog	-10.9305
▁avledet	-10.9305
▁sverre	-10.9305
▁regent	-10.9306
▁nordligst	-10.9306
kobling	-10.9306
▁streik	-10.9308
▁fylkesting	-10.9309
▁tsar	-10.931
▁göt	-10.9311
▁kunngjor	-10.9314
▁lisens	-10.9314
hvelv	-10.9316
▁patent	-10.9318
▁kreis	-10.9331
kjøl	-10.9334
artikler	-10.9337
▁kenya	-10.9342
▁spesialisert	-10.9349
opplevelse	-10.9357
▁treffe	-10.9462
▁statistisk	-10.9492
aktivitet	-10.9508
problemer	-10.9508
flagg	-10.9508
design	-10.9512
åpning	-10.9514
nnføringen	-10.9536
▁sportsutøver	-10.9569
areal	-10.9588
▁absolutt	-10.9659
▁assosiert	-10.9659
▁buddhist	-10.9659
▁bulgaria	-10.9659
▁koalisjon	-10.9659
▁kristendommen	-10.9659
▁kronprins	-10.9659
▁normandie	-10.9659
▁regulering	-10.9659
▁restaurert	-10.9659
▁vladimir	-10.9659
disiplin	-10.9659
▁gabriel	-10.9659
▁mandsju	-10.9659
▁matematisk	-10.9659
▁republikaner	-10.9659
▁våpenhvile	-10.9659
pyramid	-10.9659
▁ektefelle	-10.9659
▁foreløpig	-10.9659
▁embeds	-10.9659
▁division	-10.9659
▁regulert	-10.9659
▁haugesund	-10.9659
▁langvarig	-10.9659
▁planlegging	-10.9659
▁theodor	-10.9659
▁deutsche	-10.9659
▁madrid	-10.9659
▁hindu	-10.9659
▁kontrast	-10.9659
▁grekerne	-10.9659
▁senatet	-10.9659
▁rekkevidde	-10.9659
▁drømme	-10.966
▁myrdet	-10.966
▁tendens	-10.966
▁down	-10.966
▁embete	-10.9661
▁redaksjon	-10.9662
▁nkp	-10.9662
▁reformasjonen	-10.9662
▁pierre	-10.9663
▁ulykken	-10.9663
▁fylle	-10.9663
▁ideologi	-10.9664
▁gjenopprette	-10.9665
reglene	-10.9668
forestillinger	-10.9669
▁kantonen	-10.9675
▁billett	-10.968
hausen	-10.9683
bundet	-10.9694
▁bevare	-10.9697
▁manuel	-10.9702
dåp	-10.9702
▁undertegne	-10.9706
▁sokn	-10.9714
▁lauri	-10.9717
yuan	-10.9729
▁uttalt	-10.9768
▁lytte	-10.9801
▁domkirke	-10.9838
president	-10.9877
struktur	-10.9878
utstyr	-10.9884
utgave	-10.9889
vitenskapelig	-10.989
grid	-10.9933
▁dominere	-11.0025
▁academy	-11.0029
▁dekkvingene	-11.0029
▁engasjement	-11.0029
▁fasettøyne	-11.0029
▁hollywood	-11.0029
▁parallelt	-11.0029
▁popularitet	-11.0029
▁elektrisitet	-11.0029
▁fjorten	-11.0029
▁forveksle	-11.0029
▁kommandør	-11.0029
▁satellitt	-11.0029
▁svømming	-11.0029
▁teoretisk	-11.0029
▁wergeland	-11.0029
▁heinrich	-11.0029
▁identitet	-11.0029
▁oppdatert	-11.0029
▁eksistens	-11.0029
▁leonard	-11.0029
▁frilufts	-11.0029
▁margaret	-11.0029
▁dresden	-11.0029
▁kortvarig	-11.0029
▁betingelse	-11.0029
▁oppbevar	-11.0029
▁utfordring	-11.003
▁arsenal	-11.003
▁selvmord	-11.003
▁serbia	-11.003
▁trussel	-11.003
▁indikere	-11.003
▁sibir	-11.003
▁avhandling	-11.003
▁tilfeldig	-11.003
▁protein	-11.003
▁rettferdig	-11.0031
▁naturreservat	-11.0031
▁boston	-11.0032
▁relasjon	-11.0033
▁speil	-11.0036
vík	-11.0036
▁grafisk	-11.0039
▁blank	-11.0041
konsern	-11.0043
protokoll	-11.0057
løk	-11.0059
bukten	-11.006
▁observato	-11.0074
▁koreansk	-11.0093
▁undertrykke	-11.0127
knutepunkt	-11.0183
▁harmoni	-11.0222
▁soldat	-11.0232
kritiker	-11.0247
▁arkeologi	-11.0247
institusjon	-11.0262
undersøkelse	-11.0263
student	-11.0264
bølge	-11.0266
lignende	-11.0271
lengde	-11.0271
sesong	-11.0271
▁fungere	-11.0313
ifikasjon	-11.0381
sekvens	-11.041
▁babylon	-11.0414
▁frankfurt	-11.0414
▁indonesia	-11.0414
▁melbourne	-11.0414
▁plutselig	-11.0414
▁prestegjeld	-11.0414
▁tsjekkia	-11.0414
▁vurdering	-11.0414
▁væpne	-11.0414
▁admiral	-11.0414
▁alpinist	-11.0414
▁avslørt	-11.0414
▁colombia	-11.0414
▁jacque	-11.0414
▁komplisert	-11.0414
▁nidaros	-11.0414
▁nøkkel	-11.0414
▁kjøkken	-11.0414
▁sicilia	-11.0414
▁åpningsseremoni	-11.0414
▁kronologisk	-11.0414
▁parlamentarisk	-11.0414
▁ringerike	-11.0414
▁referert	-11.0414
▁bjørk	-11.0414
▁isolert	-11.0414
▁haakon	-11.0414
▁fiktiv	-11.0414
▁normannisk	-11.0415
scorer	-11.0415
mønstre	-11.0415
▁konsernet	-11.0415
▁utstrekning	-11.0415
▁visepresident	-11.0415
reaktor	-11.0415
▁utmerket	-11.0416
▁underviste	-11.0416
▁fiender	-11.0416
▁dekorert	-11.0417
mekanisme	-11.0418
▁batteri	-11.0419
▁todelt	-11.0419
▁tørke	-11.042
▁verdslig	-11.0421
▁pumpe	-11.0424
syklus	-11.0427
▁operere	-11.0431
▁rifle	-11.0442
▁variasjon	-11.0459
torget	-11.0495
automat	-11.0502
ingeniør	-11.0518
gjest	-11.0616
konsert	-11.0652
kvalitet	-11.0663
tradisjon	-11.0663
gruve	-11.0668
skive	-11.0689
▁alfabetet	-11.0814
▁association	-11.0814
▁begivenhet	-11.0814
▁forvandling	-11.0814
▁interessant	-11.0814
▁massachusetts	-11.0814
▁representasjon	-11.0814
▁rettighetene	-11.0814
▁shackleton	-11.0814
▁skroget	-11.0814
▁alminnelig	-11.0814
▁evolusjon	-11.0814
▁oksygen	-11.0814
▁taiwan	-11.0814
▁utendørs	-11.0814
▁prisvinnere	-11.0814
▁sympati	-11.0814
▁taylor	-11.0814
▁vektklassen	-11.0814
▁hjort	-11.0814
▁konstruert	-11.0814
▁apollo	-11.0814
▁komplett	-11.0814
▁bebodd	-11.0814
▁giovann	-11.0814
▁fjellkjeden	-11.0814
▁trykt	-11.0814
▁statsborger	-11.0814
▁løslatt	-11.0814
▁skåne	-11.0814
▁ntnu	-11.0814
leverandør	-11.0814
▁opphevet	-11.0814
▁walisisk	-11.0814
▁castle	-11.0814
▁muntlig	-11.0814
▁rikard	-11.0815
▁lagtinget	-11.0815
eksamin	-11.0815
▁systematisk	-11.0815
▁senterpartiet	-11.0815
▁oppfordre	-11.0815
▁josé	-11.0815
▁overlegen	-11.0816
▁bensin	-11.0817
▁fasade	-11.0821
nnom	-11.0821
gudstjeneste	-11.0823
kjørt	-11.0826
▁ytelse	-11.0827
▁skanse	-11.0864
▁kjeve	-11.0883
omsorg	-11.0892
gjerning	-11.0912
▁öst	-11.0937
observasjon	-11.1061
grønn	-11.1079
resultat	-11.108
▁inneholde	-11.1131
snegl	-11.1136
fogd	-11.1173
messe	-11.1211
▁beliggenhet	-11.1231
▁færøysk	-11.1231
▁mountain	-11.1231
▁narkotika	-11.1231
▁palestina	-11.1231
▁pennsylvania	-11.1231
▁skandinavisk	-11.1231
▁synonym	-11.1231
▁vampyr	-11.1231
▁æthel	-11.1231
▁anonym	-11.1231
▁carolina	-11.1231
▁baptist	-11.1231
▁kosovo	-11.1231
▁snorre	-11.1231
▁flaggbærer	-11.1231
▁latvia	-11.1231
▁potensiel	-11.1231
▁slalåm	-11.1231
▁church	-11.1231
▁kristelig	-11.1231
▁praktisert	-11.1231
▁avstemning	-11.1231
▁faktum	-11.1231
▁utstrakt	-11.1231
▁franskmennene	-11.1231
▁samvelde	-11.1231
▁heavy	-11.1231
▁regulere	-11.1231
▁henrettelse	-11.1231
▁gjennomgår	-11.1231
▁hjelm	-11.1231
▁brussel	-11.1231
▁brasiliansk	-11.1231
▁globe	-11.1231
▁lennon	-11.1231
metabol	-11.1231
▁barnehage	-11.1231
▁dybde	-11.1231
▁skjøt	-11.1232
krønike	-11.1232
ørkenen	-11.1232
▁moralsk	-11.1232
▁poesi	-11.1233
▁vrak	-11.1233
▁trelast	-11.1233
reservat	-11.1235
▁farao	-11.1235
▁blomstre	-11.1235
▁pioner	-11.1238
▁sluse	-11.124
▁ministr	-11.1241
▁flanke	-11.1241
ière	-11.125
▁nederst	-11.1281
▁estisk	-11.1323
flytting	-11.1325
▁samsvar	-11.1377
▁alliert	-11.1377
▁berømt	-11.1396
bevegelse	-11.1445
sikkerhet	-11.1453
ribbe	-11.1475
kommando	-11.1513
ekspedisjon	-11.1514
forskjell	-11.1514
soldater	-11.1514
biskop	-11.1515
▁insekt	-11.1526
▁bekrefte	-11.1534
▁østsid	-11.1551
krati	-11.1617
bestemmelse	-11.166
▁keyboard	-11.1665
flokkurin	-11.1665
inspektør	-11.1665
perspektiv	-11.1665
▁bachelor	-11.1665
▁budapest	-11.1665
▁championship	-11.1665
▁guddommelig	-11.1665
▁helikopter	-11.1665
▁innsbruck	-11.1665
▁katastrofe	-11.1665
▁konsentrert	-11.1665
▁konstantinopel	-11.1665
▁rjukan	-11.1665
▁varaordfører	-11.1665
▁grün	-11.1665
▁hønefoss	-11.1665
▁mangfold	-11.1665
▁regjert	-11.1665
▁selvbiografi	-11.1665
▁vertikal	-11.1665
▁charlie	-11.1665
▁returnere	-11.1665
▁essay	-11.1665
▁statistikk	-11.1665
leksikon	-11.1665
▁murray	-11.1665
▁seminar	-11.1665
▁lørdag	-11.1666
▁oldtidens	-11.1666
▁utsagn	-11.1666
▁kjøpmann	-11.1666
▁stadium	-11.1666
▁cecil	-11.1666
▁christensen	-11.1666
▁bønder	-11.1666
▁dødsfall	-11.1666
▁harrison	-11.1667
▁margret	-11.1667
▁døpt	-11.1667
▁søvn	-11.1668
krystall	-11.1668
doblet	-11.1677
▁særeg	-11.1677
▁barokk	-11.1679
galakse	-11.1694
▁identisk	-11.1697
regjeringen	-11.1748
▁tobakk	-11.1782
asiatisk	-11.1788
▁america	-11.1944
funnet	-11.1961
hovedstad	-11.1968
institutt	-11.1968
▁formidle	-11.2005
kammeret	-11.2029
▁metamorf	-11.212
▁forhandlinger	-11.212
▁fremtredende	-11.212
▁intellektuell	-11.212
▁kennedy	-11.212
▁konklusjon	-11.212
▁laboratori	-11.212
▁ludwig	-11.212
▁montenegro	-11.212
▁rasmussen	-11.212
▁research	-11.212
▁styrmann	-11.212
▁tilnærming	-11.212
▁uenighet	-11.212
▁vålerenga	-11.212
▁kollaps	-11.212
▁ekspansjon	-11.212
▁subjekt	-11.212
▁valdemar	-11.212
▁larvestadie	-11.212
▁albania	-11.212
▁bystatus	-11.212
▁depresjon	-11.212
▁dessverre	-11.212
▁double	-11.212
▁kontroversiell	-11.212
▁halvorsen	-11.212
▁skildring	-11.212
▁people	-11.212
▁unesco	-11.212
▁fantasy	-11.212
▁plukke	-11.212
▁fusjonert	-11.212
▁begravelse	-11.212
▁praha	-11.212
▁steinkjer	-11.212
▁flukt	-11.212
▁arkitektonisk	-11.212
▁libya	-11.212
▁oppnevnt	-11.212
▁avbrutt	-11.2121
▁munch	-11.2121
▁bowie	-11.2121
▁fangenskap	-11.2121
▁skikkelse	-11.2121
▁andorra	-11.2121
▁deltakelse	-11.2121
▁dedikert	-11.2121
▁middle	-11.2121
▁innflytelsesrik	-11.2122
▁office	-11.2124
▁kanadisk	-11.2127
▁epoke	-11.2135
▁operert	-11.2137
▁vestkyst	-11.2175
▁rakett	-11.2179
▁flamme	-11.2202
tabell	-11.2206
svarte	-11.2244
▁nevro	-11.2286
▁ivareta	-11.2349
konstruksjon	-11.2444
teknologi	-11.2444
europeisk	-11.2445
blanding	-11.2447
radio	-11.2482
▁ødela	-11.2596
▁aluminium	-11.2596
instruktør	-11.2596
kommissær	-11.2596
▁bulgarsk	-11.2596
▁horisontal	-11.2596
▁implement	-11.2596
▁karosseri	-11.2596
▁keramikk	-11.2596
▁ptolemai	-11.2596
▁singapore	-11.2596
▁tsjekkisk	-11.2596
▁warszawa	-11.2596
▁fiendtlig	-11.2596
▁forræder	-11.2596
▁godkjenne	-11.2596
▁habitat	-11.2596
▁minnesota	-11.2596
▁1863	-11.2596
▁felttoget	-11.2596
▁gerilja	-11.2596
▁litauisk	-11.2596
▁spellemann	-11.2596
▁ustabil	-11.2596
skjelettet	-11.2596
▁cruise	-11.2596
▁isabella	-11.2596
▁jupiter	-11.2596
▁primitiv	-11.2596
▁gunstig	-11.2596
▁bomull	-11.2596
▁jamaica	-11.2596
▁romerriket	-11.2596
▁amundsen	-11.2596
▁disney	-11.2596
▁modifiser	-11.2596
▁kypros	-11.2596
sylindre	-11.2596
▁prince	-11.2596
▁sivilisasjon	-11.2596
▁fødselsår	-11.2596
▁skihopper	-11.2596
▁contest	-11.2597
▁østersjøen	-11.2597
▁martyr	-11.2597
▁feiring	-11.2597
▁1859	-11.2597
▁styring	-11.2597
▁conrad	-11.2597
▁nepal	-11.2597
▁theatre	-11.2597
▁stefan	-11.2597
▁embede	-11.2597
kreditt	-11.2598
▁advent	-11.2601
▁raskest	-11.2603
▁earl	-11.2606
dolph	-11.2613
▁genetisk	-11.2614
▁rytme	-11.2621
▁fullføre	-11.2652
skrip	-11.2683
sentral	-11.2711
bløt	-11.2731
strøk	-11.2945
sykehus	-11.2945
signal	-11.2948
teknisk	-11.2949
0	-12.774
