<unk>	0
<s>	0
</s>	0
.	-3.2803
▁i	-3.52421
e	-3.68155
s	-3.71986
▁og	-3.86017
▁	-4.10406
t	-4.22154
er	-4.22956
en	-4.26039
▁av	-4.32579
▁en	-4.49097
▁som	-4.52157
▁er	-4.57408
r	-4.6214
▁til	-4.64078
▁for	-4.69027
▁på	-4.76301
▁med	-4.95077
▁den	-4.95762
▁ble	-4.98873
et	-5.01552
▁det	-5.05733
n	-5.07635
▁var	-5.11629
▁de	-5.20013
▁han	-5.29049
▁å	-5.33702
▁fra	-5.34888
▁et	-5.50325
▁har	-5.53062
a	-5.53159
ene	-5.61711
▁at	-5.72497
ne	-5.83289
d	-5.89735
i	-5.94455
▁ved	-5.96488
▁etter	-6.04202
▁om	-6.05084
▁også	-6.05836
▁men	-6.1577
o	-6.16189
k	-6.2068
▁ut	-6.20688
▁under	-6.26993
de	-6.2875
y	-6.30174
▁seg	-6.30516
te	-6.3508
▁over	-6.35483
▁da	-6.36693
▁hadde	-6.37345
g	-6.37416
m	-6.37721
▁to	-6.37802
▁kan	-6.44173
▁ikke	-6.44436
▁eller	-6.44523
re	-6.50465
▁opp	-6.50498
▁inn	-6.53547
f	-6.54982
p	-6.55732
l	-6.57833
▁andre	-6.61688
▁sin	-6.6241
▁s	-6.62546
v	-6.66565
▁be	-6.66813
ing	-6.68715
▁første	-6.68728
▁18	-6.68776
▁hun	-6.69609
▁1	-6.72582
es	-6.74699
▁dette	-6.76795
▁mot	-6.77232
u	-6.77612
us	-6.79164
▁ha	-6.82354
c	-6.82675
▁mellom	-6.83251
h	-6.84952
in	-6.85389
al	-6.85771
▁hans	-6.86898
▁født	-6.88246
▁år	-6.8887
b	-6.88975
▁a	-6.89324
▁f	-6.92742
▁fikk	-6.95314
▁tre	-6.97663
le	-7.0073
▁denne	-7.01482
sk	-7.0385
an	-7.04202
▁flere	-7.04751
na	-7.04879
j	-7.05096
▁der	-7.05778
▁kom	-7.06063
on	-7.06487
di	-7.06543
ter	-7.06955
▁man	-7.08755
nde	-7.10698
▁the	-7.11316
▁2	-7.12697
ende	-7.12879
▁nord	-7.1321
ia	-7.13999
▁sammen	-7.14118
▁alle	-7.14396
▁blant	-7.15167
z	-7.15974
ar	-7.17921
▁så	-7.18479
▁m	-7.18711
▁del	-7.1877
▁la	-7.20392
w	-7.21076
▁ligger	-7.21543
▁hvor	-7.22091
▁før	-7.22125
vis	-7.23767
ri	-7.23922
la	-7.25733
ke	-7.26287
▁ca	-7.26737
sen	-7.28146
▁b	-7.2926
▁u	-7.29364
▁c	-7.2987
▁stor	-7.30355
ta	-7.30381
ch	-7.30661
▁gjennom	-7.30721
land	-7.31439
▁se	-7.3173
▁17	-7.32866
▁mange	-7.32917
▁p	-7.32941
▁k	-7.32942
lig	-7.35112
▁tidligere	-7.35343
kt	-7.35646
▁3	-7.35803
is	-7.3648
▁død	-7.36757
▁norsk	-7.36862
▁tallet	-7.37635
▁mer	-7.38343
▁byen	-7.39028
be	-7.39221
der	-7.39429
▁senere	-7.39619
▁re	-7.39635
▁her	-7.40384
um	-7.40692
▁siden	-7.41438
il	-7.42312
▁noen	-7.42459
▁ny	-7.42873
▁norge	-7.43476
▁al	-7.43662
▁kjent	-7.43687
os	-7.43699
▁blir	-7.44601
▁sitt	-7.45564
ig	-7.46049
▁annet	-7.46982
ck	-7.47199
▁sør	-7.47234
▁kommune	-7.47361
ur	-7.47742
ning	-7.47864
iske	-7.47907
ng	-7.48205
▁an	-7.48253
nes	-7.48361
ere	-7.48563
øy	-7.4863
▁være	-7.48687
▁selv	-7.48764
▁blitt	-7.48927
▁4	-7.49493
x	-7.49595
▁disse	-7.4973
ens	-7.50392
ske	-7.51333
▁samme	-7.52357
st	-7.52452
for	-7.53047
▁bo	-7.53174
▁d	-7.53496
▁ra	-7.53743
▁ga	-7.54313
▁vært	-7.54511
▁store	-7.54738
li	-7.54901
▁5	-7.55443
ver	-7.55829
▁ol	-7.56076
as	-7.56552
▁vest	-7.56784
▁kr	-7.56965
▁of	-7.57601
▁tid	-7.57626
▁15	-7.57627
▁16	-7.57823
isk	-7.58312
▁land	-7.59496
ra	-7.59865
tt	-7.60583
ma	-7.6238
é	-7.62493
▁g	-7.62657
▁st	-7.62754
ler	-7.63082
het	-7.63343
▁ned	-7.63641
el	-7.64381
or	-7.65322
▁sine	-7.6577
lo	-7.66141
▁grunn	-7.66348
▁frem	-7.66566
ul	-7.6688
ve	-7.66959
ker	-7.67187
▁ba	-7.6719
▁kunne	-7.67327
▁dag	-7.67434
▁w	-7.67636
▁mens	-7.68122
ro	-7.68286
me	-7.68305
▁lag	-7.69337
▁noe	-7.69459
▁ham	-7.69528
▁rundt	-7.69562
id	-7.6975
ry	-7.69833
ga	-7.69856
▁10	-7.7023
▁gikk	-7.70231
▁både	-7.70623
▁øst	-7.71248
▁vant	-7.71271
ge	-7.71285
▁sa	-7.71633
da	-7.71646
▁h	-7.71684
mi	-7.72296
▁li	-7.72318
den	-7.72318
▁pi	-7.72403
at	-7.72545
ff	-7.72551
▁vil	-7.72801
▁t	-7.73308
ad	-7.73419
lige	-7.7401
▁ro	-7.74395
▁ofte	-7.74432
ik	-7.75362
ka	-7.76031
to	-7.76117
om	-7.76527
ha	-7.77224
ba	-7.77228
son	-7.7725
▁skulle	-7.77509
var	-7.77518
erte	-7.78206
ger	-7.7837
▁enn	-7.7849
▁na	-7.78531
bo	-7.78818
▁hoved	-7.80257
▁ni	-7.80383
mo	-7.80808
▁vi	-7.81174
▁km	-7.81196
▁by	-7.81288
▁navnet	-7.81338
▁6	-7.81363
å	-7.81626
▁fire	-7.81641
▁tilbake	-7.81666
kk	-7.8173
▁mest	-7.81755
▁7	-7.81837
ol	-7.81924
▁navn	-7.82037
▁pa	-7.82291
▁ta	-7.82336
▁skal	-7.82583
▁norske	-7.83396
▁gang	-7.83494
▁bare	-7.83538
skap	-7.83741
▁finnes	-7.84794
ell	-7.85064
▁ti	-7.8512
stad	-7.85523
ø	-7.85732
▁8	-7.85896
▁amerikansk	-7.86046
▁tok	-7.86129
▁oslo	-7.86185
▁august	-7.8648
ic	-7.86846
▁sp	-7.87093
▁mai	-7.87366
ut	-7.8792
it	-7.88225
▁dem	-7.88611
erne	-7.88878
▁meter	-7.88886
si	-7.89018
▁nye	-7.89301
vi	-7.89398
▁bli	-7.89578
▁fram	-7.90022
▁000	-7.90712
▁januar	-7.90871
▁usa	-7.91021
▁største	-7.9105
▁v	-7.91143
▁juli	-7.91174
by	-7.91175
▁12	-7.91331
▁hele	-7.91522
mann	-7.91879
▁slik	-7.91922
▁si	-7.91926
▁o	-7.92204
ton	-7.92423
▁ar	-7.93008
▁per	-7.93245
asjon	-7.93405
▁få	-7.93509
bi	-7.93562
ce	-7.93967
ll	-7.94076
▁ho	-7.94162
▁l	-7.94416
un	-7.94841
va	-7.94941
ist	-7.94978
ert	-7.95264
th	-7.95407
▁fly	-7.95771
▁bak	-7.95908
▁le	-7.96255
ja	-7.96429
ang	-7.96513
▁kalt	-7.9664
▁pro	-7.96783
je	-7.96898
ør	-7.96945
▁far	-7.96949
▁samt	-7.96976
▁fri	-7.97172
▁du	-7.9731
man	-7.97333
▁siste	-7.97373
▁nå	-7.97635
▁mars	-7.98003
▁når	-7.98066
gen	-7.98107
▁mål	-7.98179
▁14	-7.98216
▁9	-7.9827
▁do	-7.98534
▁lo	-7.98728
sa	-7.988
pe	-7.99567
bu	-8.00092
▁as	-8.00359
opp	-8.00512
▁di	-8.00812
▁y	-8.00864
mer	-8.01292
mp	-8.0131
▁lang	-8.01696
▁rekke	-8.017
co	-8.01767
am	-8.01858
▁går	-8.02424
▁kirke	-8.02473
ste	-8.02555
ko	-8.02716
dal	-8.03028
men	-8.03195
▁j	-8.03411
▁mo	-8.03458
▁slutt	-8.03949
itt	-8.04121
▁13	-8.04721
go	-8.0475
else	-8.05273
av	-8.05392
▁n	-8.05996
▁co	-8.06192
▁juni	-8.06412
pp	-8.06501
tur	-8.06685
▁bu	-8.06888
▁området	-8.07095
▁11	-8.08158
▁vanlig	-8.08832
ven	-8.08939
au	-8.09243
▁mor	-8.09329
▁mar	-8.0958
▁2008	-8.10062
▁ma	-8.10147
▁alt	-8.10289
▁hos	-8.10782
▁2010	-8.11076
ner	-8.11096
▁ka	-8.11411
▁gi	-8.11447
▁ru	-8.11862
rett	-8.12188
▁he	-8.12317
ti	-8.12416
ho	-8.12513
ed	-8.12591
▁mi	-8.12631
▁engelsk	-8.12713
▁20	-8.12928
▁april	-8.13331
▁deres	-8.13353
▁utgitt	-8.13617
po	-8.13655
▁først	-8.13891
este	-8.13947
▁igjen	-8.13956
dd	-8.14139
▁september	-8.14167
▁no	-8.14637
berg	-8.14693
im	-8.14746
▁po	-8.1499
▁ak	-8.15719
▁bestå	-8.16106
▁kon	-8.16325
▁begynte	-8.16634
▁brukt	-8.1713
ling	-8.17333
ni	-8.17783
▁spilte	-8.17799
▁deltok	-8.17841
ster	-8.18071
▁go	-8.18166
und	-8.18268
▁februar	-8.18455
▁november	-8.18674
do	-8.18825
▁desember	-8.19114
▁mindre	-8.19124
▁leder	-8.19437
▁bruk	-8.19656
▁oktober	-8.19778
gang	-8.19796
▁årene	-8.19848
▁in	-8.19906
▁landet	-8.20225
ment	-8.20308
▁laget	-8.20741
▁ko	-8.21049
▁so	-8.21175
▁fem	-8.21316
ns	-8.21475
▁or	-8.2154
▁bar	-8.22821
▁ju	-8.22922
ær	-8.23166
▁nær	-8.23172
▁musikk	-8.23285
▁tiden	-8.23313
▁ki	-8.23732
sh	-8.23755
á	-8.24084
▁tillegg	-8.24104
▁må	-8.24114
od	-8.24738
▁ri	-8.24754
▁2007	-8.24791
ir	-8.24915
itet	-8.25144
tter	-8.25233
▁vann	-8.25319
▁ville	-8.25485
▁skole	-8.25582
▁kun	-8.25593
ard	-8.26101
▁like	-8.26225
ant	-8.26381
▁medlem	-8.26444
▁videre	-8.26455
▁barn	-8.26793
▁europa	-8.26912
▁sch	-8.27072
▁r	-8.27101
per	-8.27389
▁el	-8.27855
▁eks	-8.2803
▁døde	-8.28037
ci	-8.28059
▁ei	-8.28104
▁tv	-8.28286
▁me	-8.28403
ty	-8.28446
ag	-8.28462
gg	-8.28472
▁plass	-8.28515
▁uten	-8.28607
ion	-8.28662
▁spiller	-8.28738
▁helt	-8.28767
ok	-8.28865
▁pe	-8.28885
▁film	-8.28968
ly	-8.28979
▁mye	-8.29009
▁lu	-8.29355
▁større	-8.29652
tal	-8.29654
▁fa	-8.29951
▁sol	-8.30055
▁egen	-8.30137
▁tro	-8.30171
▁2009	-8.30307
▁new	-8.30649
▁derfor	-8.30752
ft	-8.30841
over	-8.31099
sel	-8.31239
▁folke	-8.31515
▁lov	-8.31572
slag	-8.3168
▁sønn	-8.31721
sjon	-8.31858
▁høy	-8.31872
vik	-8.32098
▁rett	-8.32248
hi	-8.32297
▁tor	-8.32421
▁su	-8.32715
▁hver	-8.32741
pi	-8.32918
▁gjorde	-8.3293
midlertid	-8.33052
▁2006	-8.3306
ak	-8.33484
kke	-8.33563
ca	-8.33696
sp	-8.33727
del	-8.33746
tak	-8.33777
▁lys	-8.33875
nk	-8.34321
siden	-8.34476
▁gamle	-8.34585
▁em	-8.3492
io	-8.35119
▁hennes	-8.3552
▁bi	-8.35652
ikk	-8.3577
hold	-8.35847
▁kort	-8.36005
ö	-8.36125
▁året	-8.3618
gi	-8.36328
▁parti	-8.36353
ek	-8.36493
lin	-8.36642
lse	-8.3671
ring	-8.36825
▁svær	-8.37043
▁innen	-8.37199
ier	-8.37323
▁gift	-8.37334
▁kong	-8.37407
▁form	-8.37478
elle	-8.37691
▁lå	-8.3788
▁gr	-8.37898
▁særlig	-8.38007
▁ulike	-8.38345
æ	-8.38381
lu	-8.38433
nd	-8.38465
ingen	-8.38525
▁mat	-8.38722
▁beste	-8.38783
▁bl	-8.38929
mm	-8.3899
▁kommer	-8.3904
ningen	-8.39285
▁deretter	-8.3937
▁brukes	-8.39599
▁små	-8.39617
no	-8.39785
fa	-8.40311
▁2011	-8.40419
rede	-8.4052
▁forhold	-8.40624
▁and	-8.40675
lag	-8.40708
▁kultur	-8.40883
▁jo	-8.41036
hus	-8.41077
▁sverige	-8.41236
▁2005	-8.41244
▁politisk	-8.41391
▁hus	-8.41758
følge	-8.42011
▁skrev	-8.42218
tor	-8.4224
▁verdens	-8.42264
pa	-8.42274
▁gjen	-8.42322
sted	-8.4241
▁hvert	-8.42421
▁30	-8.42498
ä	-8.42663
▁øy	-8.42731
▁fleste	-8.42951
▁am	-8.42973
▁filmen	-8.4344
▁par	-8.43467
min	-8.43989
ina	-8.44246
▁bygget	-8.45027
▁tyske	-8.45155
▁vei	-8.45288
he	-8.45435
▁språk	-8.45478
▁x	-8.45607
▁seks	-8.45817
tra	-8.46029
vin	-8.46109
▁dagen	-8.46123
▁langs	-8.46127
▁sommer	-8.46173
▁te	-8.46222
▁startet	-8.46279
tten	-8.46306
▁president	-8.46315
▁begge	-8.46609
▁samtidig	-8.46624
▁fast	-8.46761
hu	-8.46807
ering	-8.4701
▁tyskland	-8.47024
ud	-8.47067
▁sam	-8.47092
▁bra	-8.47135
inn	-8.47145
▁skrevet	-8.47277
▁bandet	-8.47626
ie	-8.47641
▁ingen	-8.47646
ber	-8.47672
2	-8.47693
▁måtte	-8.47795
▁pu	-8.48039
▁gitt	-8.48166
▁innbyggere	-8.48361
▁2004	-8.48371
▁ge	-8.48405
▁nasjonal	-8.48421
▁0	-8.48455
▁ord	-8.48565
▁ski	-8.48804
ov	-8.49565
stand	-8.49862
▁sjø	-8.49925
▁mal	-8.50038
▁arbeidet	-8.50683
▁tysk	-8.50692
▁albumet	-8.50858
ian	-8.51102
ium	-8.5112
▁tatt	-8.51232
▁london	-8.5136
▁ab	-8.51392
▁fl	-8.51495
▁sto	-8.51705
▁olympisk	-8.52585
▁satt	-8.526
▁bok	-8.52655
dermed	-8.52825
ow	-8.52991
▁john	-8.53166
▁kunst	-8.53341
▁eksempel	-8.53441
til	-8.53573
▁25	-8.53716
ks	-8.53812
let	-8.53948
▁ad	-8.54174
▁all	-8.5434
inger	-8.54479
▁sted	-8.54534
ot	-8.54671
▁ganger	-8.54733
op	-8.54774
ius	-8.54817
▁hu	-8.5546
▁liv	-8.55731
▁forskjellige	-8.56041
ninger	-8.56117
iv	-8.56283
ran	-8.56417
tid	-8.56526
tu	-8.56572
▁gruppen	-8.56927
▁hel	-8.56951
ord	-8.57055
▁annen	-8.57152
▁kina	-8.57182
▁norges	-8.5727
▁tra	-8.58135
▁klubben	-8.58156
les	-8.58247
▁fi	-8.58259
dom	-8.58534
ac	-8.58621
▁grad	-8.58641
▁ja	-8.58656
verk	-8.58671
ld	-8.58865
▁san	-8.58964
▁pre	-8.59039
▁opprinnelig	-8.59039
elsen	-8.59138
ister	-8.59161
▁bil	-8.59431
gu	-8.59548
stein	-8.59556
▁sett	-8.60198
▁gir	-8.60537
▁perioden	-8.60614
▁hen	-8.60655
▁side	-8.60704
burg	-8.61063
▁provinsen	-8.61416
▁fo	-8.61479
bar	-8.6184
▁deler	-8.61965
▁gull	-8.62155
rik	-8.62402
1	-8.62458
▁førte	-8.62483
mb	-8.63014
ppe	-8.63367
▁selskapet	-8.63385
▁gu	-8.63396
▁spille	-8.63497
▁fotball	-8.63518
▁tri	-8.63898
▁z	-8.63962
satt	-8.64238
▁19	-8.64253
mmer	-8.64539
▁nor	-8.64546
▁tredje	-8.6466
▁plan	-8.64807
ale	-8.64808
isme	-8.64846
art	-8.64987
▁etablert	-8.6504
nt	-8.65042
lev	-8.65098
▁løpet	-8.65229
▁frankrike	-8.65392
bb	-8.65484
▁2000	-8.65501
3	-8.65635
▁viktig	-8.65791
▁gruppe	-8.65815
ting	-8.6586
▁bergen	-8.66051
▁2002	-8.66104
▁21	-8.66109
tiske	-8.66227
▁stort	-8.66272
▁midt	-8.66276
▁stat	-8.66284
▁stedet	-8.66315
sta	-8.66381
ron	-8.66389
▁gammel	-8.66446
▁innehold	-8.66458
▁dr	-8.66533
▁syn	-8.66636
▁mag	-8.66718
ings	-8.66853
vo	-8.66868
▁konge	-8.66908
▁my	-8.67101
ny	-8.6714
▁2001	-8.67205
▁fransk	-8.67228
▁lever	-8.67242
▁styre	-8.67324
▁serien	-8.67345
dag	-8.67422
▁tidlig	-8.67426
▁1990	-8.6752
▁gud	-8.6758
▁ne	-8.67597
len	-8.67741
lot	-8.67883
ong	-8.67945
▁delstaten	-8.68055
sti	-8.68175
▁spilt	-8.68596
▁støtte	-8.68694
ley	-8.68715
▁wa	-8.68815
år	-8.68845
í	-8.69256
▁kn	-8.69262
ü	-8.69317
▁nytt	-8.6955
▁sesongen	-8.69666
▁100	-8.69805
▁stein	-8.70053
▁min	-8.7009
▁millioner	-8.70636
lan	-8.70662
▁innenfor	-8.71239
▁bro	-8.71287
ru	-8.71534
ige	-8.7171
▁22	-8.71826
▁kongen	-8.71861
tisk	-8.71934
lands	-8.72132
▁verden	-8.72176
fe	-8.72283
▁delen	-8.72294
isering	-8.72511
▁britiske	-8.72979
uk	-8.73008
▁sta	-8.73049
▁holde	-8.73343
▁hi	-8.7336
▁sk	-8.73423
ham	-8.73754
mål	-8.73933
▁kjente	-8.73956
▁con	-8.74238
▁sand	-8.74328
▁krigen	-8.74362
▁flyttet	-8.74469
▁england	-8.74567
du	-8.7459
vel	-8.74641
▁val	-8.74858
▁tur	-8.74957
▁sv	-8.75049
em	-8.75082
▁vel	-8.75164
gel	-8.75176
▁svensk	-8.75245
▁car	-8.75256
▁fjell	-8.75288
▁valg	-8.7561
▁øya	-8.75716
stil	-8.75794
tre	-8.75997
▁godt	-8.76139
▁luft	-8.76143
gjerne	-8.76211
kan	-8.76302
ans	-8.76312
▁hatt	-8.7644
▁omkring	-8.76492
▁kl	-8.76598
▁fag	-8.76743
▁bor	-8.7702
så	-8.7709
mar	-8.77368
▁lokal	-8.77879
▁hy	-8.77951
tiden	-8.7817
bruk	-8.7828
▁liten	-8.78332
løp	-8.78357
bre	-8.78539
▁kommunen	-8.78935
▁mann	-8.78965
ine	-8.78983
spill	-8.79045
▁fortsatt	-8.79162
▁ur	-8.7934
▁sangen	-8.79341
ving	-8.79386
▁2003	-8.79683
kon	-8.79723
ó	-8.79766
▁cha	-8.79766
▁26	-8.79792
▁tar	-8.7982
ologi	-8.79913
handling	-8.79957
▁moderne	-8.80006
▁general	-8.80073
anger	-8.80078
▁forfatter	-8.80158
dre	-8.80197
vei	-8.80201
log	-8.80298
▁ren	-8.80339
if	-8.80379
elig	-8.80403
▁23	-8.80408
▁grav	-8.80424
▁får	-8.80445
▁1980	-8.80499
▁holdt	-8.80526
▁th	-8.80531
stre	-8.80532
ung	-8.80625
▁ste	-8.80831
▁historie	-8.80836
▁basert	-8.80979
ou	-8.81072
▁radio	-8.81151
▁sentral	-8.81195
▁kinesisk	-8.81228
ator	-8.81236
form	-8.81324
fly	-8.81326
ken	-8.81421
▁sendt	-8.81732
▁god	-8.81846
bin	-8.81972
uten	-8.82085
▁bre	-8.8209
▁verdenskrig	-8.82182
dalen	-8.82611
bil	-8.82771
▁finne	-8.82871
▁halv	-8.82935
▁betydning	-8.82958
▁vise	-8.82983
ede	-8.83084
▁skolen	-8.83299
zi	-8.83329
▁spesielt	-8.83377
drift	-8.83427
▁mulig	-8.83661
▁hjem	-8.83807
▁24	-8.8385
▁dikt	-8.83967
▁jord	-8.83983
nings	-8.84533
▁mu	-8.84635
▁utviklet	-8.84645
tikk	-8.84672
▁komme	-8.84713
jen	-8.8474
tan	-8.84754
▁vm	-8.85105
▁arbeid	-8.85172
▁danmark	-8.85503
▁russisk	-8.85529
▁rom	-8.8565
▁natur	-8.85778
▁kalles	-8.85815
▁sosial	-8.86001
▁au	-8.86111
▁lite	-8.86165
▁står	-8.86304
lsen	-8.8639
▁ty	-8.86399
▁partiet	-8.8643
▁mil	-8.86459
val	-8.86462
▁ser	-8.86576
▁lav	-8.86644
▁ch	-8.86786
▁kamp	-8.86833
løs	-8.87037
tin	-8.87115
▁datter	-8.87133
▁meg	-8.87191
isere	-8.87365
heten	-8.87416
merke	-8.87436
▁familie	-8.87672
▁langt	-8.87704
▁28	-8.87957
ki	-8.88003
ighet	-8.8802
fi	-8.88106
▁1970	-8.88111
▁personer	-8.88202
skole	-8.8826
▁skog	-8.88395
▁medlemmer	-8.88433
▁viser	-8.88519
tte	-8.8861
▁serie	-8.88738
▁motor	-8.88825
▁storbritannia	-8.88982
▁familien	-8.89119
han	-8.89127
▁rød	-8.89264
▁aktiv	-8.89572
▁lange	-8.89758
▁forbindelse	-8.8991
føre	-8.89954
▁fått	-8.90055
mon	-8.90149
ica	-8.90371
▁eu	-8.90464
sse	-8.90493
▁gal	-8.90513
▁henne	-8.90544
▁krigs	-8.90733
▁russland	-8.90772
▁1999	-8.90778
▁gav	-8.90952
▁verk	-8.9112
sson	-8.91201
▁hva	-8.91283
sten	-8.91348
▁universitetet	-8.91368
▁person	-8.91402
folk	-8.91442
▁karl	-8.91473
▁liste	-8.91521
ug	-8.91542
▁direkte	-8.91678
▁gjort	-8.91869
▁art	-8.9195
kor	-8.91992
▁ledet	-8.92003
rak	-8.92063
▁pave	-8.92104
▁betyr	-8.92138
▁2012	-8.92145
▁bru	-8.92157
▁handels	-8.92205
leder	-8.92259
▁elven	-8.92345
▁va	-8.92369
▁organ	-8.92461
punkt	-8.92486
ket	-8.92551
▁bruker	-8.92552
▁keiser	-8.92554
istiske	-8.92769
ju	-8.92779
▁fin	-8.92862
▁gjør	-8.92955
borg	-8.93014
kul	-8.93078
▁via	-8.93162
▁rolle	-8.93184
▁stats	-8.93219
kel	-8.9326
bok	-8.93289
▁arbeids	-8.93324
ey	-8.93425
pen	-8.93446
pr	-8.93566
▁on	-8.93785
▁anti	-8.9382
▁paris	-8.93853
▁sen	-8.93924
▁utenfor	-8.94099
yn	-8.94109
ach	-8.94211
▁lands	-8.94271
▁folk	-8.94284
ill	-8.94449
▁farge	-8.94727
sch	-8.94955
▁nesten	-8.95023
▁økonomisk	-8.95163
forening	-8.953
mester	-8.95303
▁åtte	-8.95322
mor	-8.95337
▁ku	-8.95341
ari	-8.95346
isert	-8.95351
▁hol	-8.95378
▁knytte	-8.95392
fjorden	-8.95419
▁stra	-8.95457
00	-8.95475
spiller	-8.95476
▁enkelte	-8.9548
▁arbeider	-8.95507
▁com	-8.95645
▁nok	-8.95686
▁hø	-8.95701
▁bygge	-8.95756
▁nummer	-8.95808
▁ett	-8.95937
ku	-8.96039
▁os	-8.9605
yl	-8.96061
▁mark	-8.9608
▁stil	-8.96098
▁kontroll	-8.96125
met	-8.96246
▁militær	-8.96437
▁band	-8.96499
20	-8.96775
▁såkalt	-8.96824
▁1988	-8.9683
▁én	-8.96868
ah	-8.96876
▁paul	-8.96899
▁industri	-8.9694
alt	-8.97081
ation	-8.97091
▁foran	-8.97154
▁1960	-8.97311
bl	-8.9739
ya	-8.97474
▁best	-8.97505
bygg	-8.97598
▁egne	-8.97633
iet	-8.97771
▁inkludert	-8.97784
▁staten	-8.97844
ris	-8.97863
▁gjøre	-8.97894
▁svenske	-8.97895
▁opprettet	-8.98004
lær	-8.98074
dyr	-8.98122
▁jeg	-8.98245
▁viktigste	-8.98323
▁post	-8.98397
par	-8.98526
veien	-8.98538
▁slaget	-8.98591
▁hav	-8.98609
tar	-8.98635
anske	-8.98715
ds	-8.98723
▁ed	-8.98739
▁litt	-8.98801
▁roman	-8.98815
▁internasjonale	-8.9887
▁følge	-8.98885
▁kirken	-8.989
heim	-8.99084
▁antall	-8.991
plass	-8.99144
▁tegn	-8.99237
▁versjon	-8.99272
sjøen	-8.9931
cu	-8.99438
▁produsert	-8.99438
▁full	-8.99663
▁reise	-8.99722
▁hjelp	-8.99823
▁spor	-8.9985
▁dess	-8.99873
banen	-8.99927
80	-8.99983
ding	-9.0006
▁franske	-9.00113
▁ve	-9.00273
▁skuespiller	-9.00329
ab	-9.0039
▁27	-9.00413
▁ferdig	-9.00471
est	-9.00509
▁pla	-9.00578
▁fant	-9.00669
а	-9.00725
▁minst	-9.01111
▁orden	-9.01121
bel	-9.01209
▁drept	-9.01239
▁aldri	-9.01274
▁mennesker	-9.01276
▁pris	-9.01445
øya	-9.01559
▁bill	-9.01589
▁sølv	-9.01717
vær	-9.01828
ita	-9.01849
fo	-9.01935
▁q	-9.01956
stående	-9.0196
▁peter	-9.02138
▁tjeneste	-9.02272
▁høyde	-9.02525
kla	-9.02545
▁berg	-9.02589
▁italiensk	-9.02747
▁åpnet	-9.02857
▁slo	-9.02973
skje	-9.02981
▁funnet	-9.0303
ska	-9.03113
▁meste	-9.03136
▁ben	-9.03165
▁kilometer	-9.03258
▁energi	-9.03309
elt	-9.03339
▁sak	-9.0335
fri	-9.03539
50	-9.03561
tro	-9.03737
▁romersk	-9.03798
▁fu	-9.03853
▁spe	-9.03917
▁turn	-9.03921
▁vinter	-9.03943
lser	-9.03959
▁afrika	-9.04005
setning	-9.04057
lit	-9.0406
eget	-9.04081
▁gate	-9.04089
▁krig	-9.04178
▁pan	-9.04183
landet	-9.04205
leg	-9.0426
▁riks	-9.04387
▁delt	-9.04492
▁ska	-9.045
tz	-9.04502
▁ettersom	-9.04507
▁sang	-9.04513
▁wi	-9.04541
fra	-9.04635
▁menn	-9.04761
tatt	-9.04795
▁brasil	-9.04807
▁italia	-9.04815
mark	-9.04819
▁veien	-9.04823
▁50	-9.04907
▁lett	-9.04932
▁regjeringen	-9.05023
tes	-9.05209
▁valgt	-9.05235
▁periode	-9.05262
▁produksjon	-9.05272
▁hal	-9.05423
▁bort	-9.05432
▁we	-9.05562
▁tak	-9.05568
▁skrive	-9.05694
▁gå	-9.05701
tall	-9.05808
▁album	-9.05808
▁1994	-9.05858
▁gresk	-9.05944
ære	-9.06023
▁gen	-9.06023
▁prest	-9.06133
▁barne	-9.06159
▁ver	-9.0622
▁sj	-9.06318
▁felles	-9.06356
▁betydelig	-9.06375
▁kar	-9.06377
▁venstre	-9.06409
sett	-9.06432
and	-9.06464
▁råd	-9.0666
▁våpen	-9.06681
▁arter	-9.06729
lå	-9.06748
▁bror	-9.06804
▁kvinner	-9.06886
▁1992	-9.06912
▁fall	-9.06938
▁fred	-9.06973
▁utnevnt	-9.07132
laget	-9.07268
▁universitet	-9.07277
gre	-9.07333
▁enkelt	-9.07404
jo	-9.07413
bane	-9.07442
minister	-9.07643
q	-9.07671
kri	-9.07944
▁arm	-9.07949
и	-9.07971
▁studert	-9.07977
ão	-9.07982
▁jan	-9.07985
jel	-9.07992
▁mus	-9.08005
▁makt	-9.08028
▁danne	-9.082
▁grunnlagt	-9.08256
dan	-9.08489
▁ag	-9.0849
▁begynnelsen	-9.08513
▁kjøpt	-9.08545
ika	-9.08625
▁je	-9.08729
▁hvis	-9.08807
▁1997	-9.09057
▁minne	-9.0913
▁fiske	-9.09131
dy	-9.09264
fl	-9.09273
▁29	-9.09327
ski	-9.09348
gren	-9.09424
ys	-9.09502
▁samarbeid	-9.09507
lla	-9.09509
▁konsert	-9.09517
▁kal	-9.09584
▁1995	-9.096
båt	-9.09649
▁fortsatte	-9.09759
▁følgende	-9.09921
▁borger	-9.10113
▁kor	-9.10287
stilling	-9.10514
bro	-9.10527
▁høyre	-9.10532
▁forsøk	-9.10537
▁dansk	-9.10635
svis	-9.10646
øn	-9.1068
▁1998	-9.10699
▁sørøst	-9.10715
valg	-9.10752
▁bestemt	-9.10765
bygd	-9.10898
▁tittelen	-9.10931
hr	-9.10948
▁tap	-9.10952
▁plate	-9.11017
kje	-9.11168
▁york	-9.11241
far	-9.11243
▁kvinne	-9.11332
▁steder	-9.11348
▁br	-9.11422
▁red	-9.11636
▁para	-9.11815
▁lagt	-9.11938
▁klar	-9.11944
▁von	-9.12007
▁fylke	-9.12012
za	-9.12064
lene	-9.12068
og	-9.12089
▁representert	-9.12355
▁høyeste	-9.12417
▁vin	-9.12553
▁berlin	-9.12582
▁40	-9.12647
▁tu	-9.12708
▁fe	-9.12795
ip	-9.12863
▁tildelt	-9.12864
▁fre	-9.12878
▁likevel	-9.13166
▁nett	-9.13259
▁ii	-9.13292
▁modell	-9.13395
▁lokale	-9.13422
▁1945	-9.13488
tiv	-9.13575
syn	-9.13718
▁gul	-9.1378
føring	-9.138
pl	-9.13905
▁gra	-9.13931
▁nordøst	-9.14089
▁robert	-9.14103
▁havn	-9.14232
anlegg	-9.14365
▁angrep	-9.14444
mat	-9.14502
▁helse	-9.14503
sund	-9.14552
lis	-9.14586
▁ber	-9.14595
▁omtrent	-9.14621
▁menneske	-9.14625
film	-9.14643
▁benyttet	-9.14789
▁utvikling	-9.14853
▁løp	-9.14975
▁sal	-9.14995
forbund	-9.15152
che	-9.15169
nske	-9.15267
selskap	-9.15283
▁trykk	-9.15449
skapet	-9.15506
▁system	-9.15515
fall	-9.15586
▁teater	-9.15601
▁mod	-9.15672
▁1996	-9.15782
▁politiker	-9.15815
▁indre	-9.1594
▁regionen	-9.15963
▁elva	-9.15985
▁sentrum	-9.16013
▁lik	-9.16073
▁stasjon	-9.16083
området	-9.1611
▁ry	-9.16149
kal	-9.16234
▁danske	-9.16246
▁christian	-9.16286
▁århundre	-9.16356
system	-9.1637
tok	-9.16384
▁bygd	-9.16523
vann	-9.16587
▁rock	-9.16596
up	-9.16619
▁ap	-9.16621
▁roma	-9.1665
▁divisjon	-9.1667
ble	-9.1669
▁dom	-9.16695
▁områder	-9.16912
▁op	-9.17038
▁europeisk	-9.17115
idae	-9.1718
oll	-9.17399
▁herre	-9.17471
plan	-9.17512
ps	-9.17549
▁31	-9.17586
lik	-9.17726
hy	-9.17785
▁tekst	-9.17867
deling	-9.17879
nntil	-9.17929
gn	-9.17939
▁linje	-9.18076
▁2013	-9.18132
▁sanger	-9.18143
øl	-9.18396
▁samling	-9.18398
kar	-9.18407
▁dager	-9.18479
ay	-9.1853
▁dannet	-9.18573
ino	-9.18676
▁bank	-9.18709
▁drev	-9.18767
fjord	-9.18826
▁grensen	-9.18901
▁topp	-9.18905
▁blå	-9.18982
▁carl	-9.19054
ringen	-9.19144
▁fange	-9.19153
lei	-9.19196
dra	-9.19221
lle	-9.19226
▁af	-9.19302
▁william	-9.19314
▁eldste	-9.19314
▁university	-9.19315
▁hjemme	-9.19333
▁slått	-9.19376
gikk	-9.1939
året	-9.19425
▁olav	-9.19498
ien	-9.19578
all	-9.19628
▁regnes	-9.19717
lys	-9.1976
▁1984	-9.19923
▁1991	-9.19927
▁befolkningen	-9.19958
▁jernbane	-9.20118
▁reist	-9.20182
▁india	-9.2039
vil	-9.20507
▁hevde	-9.20535
▁grand	-9.2069
▁sla	-9.20704
departementet	-9.20992
▁1985	-9.21145
▁utgjør	-9.21148
tel	-9.21176
▁skip	-9.21232
▁sig	-9.21233
▁kunstner	-9.21239
▁kraft	-9.21248
kle	-9.2128
pol	-9.2134
gått	-9.21385
kl	-9.21502
▁karriere	-9.2155
▁viss	-9.21562
skip	-9.21722
gar	-9.21753
▁ø	-9.21839
▁møte	-9.21869
▁kons	-9.21947
▁vo	-9.21955
▁regjering	-9.22012
▁ly	-9.22166
▁mont	-9.22254
▁rev	-9.22254
▁bur	-9.22311
wa	-9.2232
familien	-9.22344
▁tilhører	-9.22363
▁biskop	-9.22365
▁kroppen	-9.22367
▁1981	-9.2237
▁lille	-9.22446
chi	-9.22455
▁ordet	-9.22639
mal	-9.22669
▁ex	-9.22675
▁sø	-9.2271
ola	-9.22785
områder	-9.22905
▁lin	-9.22961
▁suksess	-9.22984
▁spesial	-9.22985
▁dårlig	-9.22985
70	-9.22991
▁1982	-9.22996
▁resultat	-9.2304
▁500	-9.23071
▁resten	-9.23138
▁mester	-9.2319
▁litteratur	-9.23382
port	-9.23442
mus	-9.23547
▁vol	-9.2357
▁1987	-9.23617
cc	-9.2365
▁dis	-9.23661
▁omfatter	-9.23695
regionen	-9.23867
▁punkt	-9.23944
▁måte	-9.23957
▁venn	-9.24032
▁bri	-9.24042
ismen	-9.24106
ford	-9.24108
▁1989	-9.24247
rus	-9.24275
▁henhold	-9.24283
▁hard	-9.24623
lia	-9.24719
▁vekt	-9.24814
▁kron	-9.24911
ros	-9.24934
▁pl	-9.24941
inne	-9.24987
kamp	-9.25008
messig	-9.25509
▁1986	-9.2552
els	-9.25528
▁nest	-9.25566
▁opprør	-9.25604
ich	-9.25674
▁1800	-9.25677
▁lyd	-9.257
ider	-9.25709
▁mur	-9.25756
▁van	-9.25785
kken	-9.25823
ana	-9.25854
▁hæren	-9.25972
full	-9.26076
▁1993	-9.26161
▁legge	-9.26178
30	-9.26331
king	-9.26393
▁valgte	-9.26452
fer	-9.2651
grad	-9.26607
ria	-9.2664
ano	-9.2671
▁gran	-9.2678
lie	-9.2691
▁tross	-9.26972
▁cor	-9.27006
▁kur	-9.27026
gitt	-9.27039
istisk	-9.27074
▁bal	-9.27081
mannen	-9.27086
▁slekt	-9.27096
mu	-9.27135
▁trondheim	-9.27448
▁1920	-9.27468
▁nu	-9.27478
sak	-9.27495
▁slike	-9.27511
ath	-9.27566
▁års	-9.27644
område	-9.2767
▁sesong	-9.27701
liggende	-9.27705
havet	-9.27767
▁skr	-9.27809
stra	-9.27851
▁pr	-9.27936
▁kat	-9.28021
su	-9.28072
о	-9.28094
▁sogn	-9.28152
værende	-9.28203
▁maria	-9.2832
▁dia	-9.28326
hl	-9.28336
▁kraftig	-9.2837
som	-9.2837
mel	-9.28475
▁nordlige	-9.28485
▁besto	-9.28556
▁hovedsakelig	-9.28765
▁1950	-9.28778
ssen	-9.28783
▁eldre	-9.28798
råd	-9.28907
▁sørlig	-9.28958
▁don	-9.28977
alder	-9.29073
latt	-9.29078
menn	-9.29092
▁bred	-9.29146
que	-9.29175
navn	-9.29231
ze	-9.29307
▁prege	-9.29328
▁miljø	-9.29375
▁sannsynlig	-9.29417
▁leve	-9.29455
▁skrift	-9.29624
▁britisk	-9.29626
huset	-9.29637
▁gar	-9.29643
▁finland	-9.29683
▁trans	-9.29707
▁verdi	-9.29894
van	-9.29952
gh	-9.30049
▁japan	-9.30052
▁thomas	-9.30084
▁syv	-9.30097
ap	-9.3014
▁super	-9.30185
▁professor	-9.30211
▁sc	-9.30544
enes	-9.30597
▁island	-9.30603
▁kra	-9.30651
▁gl	-9.30738
▁2015	-9.30774
▁møtte	-9.30779
▁japansk	-9.308
▁mente	-9.30849
▁lek	-9.30908
legge	-9.30958
▁krav	-9.30968
▁ke	-9.31004
gan	-9.31042
▁200	-9.31223
don	-9.31243
▁opera	-9.31268
▁militære	-9.31295
▁vår	-9.31403
▁elv	-9.31444
▁lærer	-9.31465
▁moh	-9.31485
▁hvordan	-9.31528
iserte	-9.31542
gift	-9.31648
▁dyr	-9.3175
▁kamper	-9.31788
▁samle	-9.31807
78	-9.31809
fjell	-9.31839
▁wal	-9.31943
stu	-9.32
bor	-9.32024
▁hverandre	-9.32111
▁1978	-9.32129
ji	-9.32257
▁west	-9.32281
▁blad	-9.3233
ight	-9.32468
▁neste	-9.32529
▁tom	-9.32533
▁gård	-9.32638
▁natt	-9.32666
▁hår	-9.32691
▁tru	-9.32708
▁bedre	-9.3271
▁dra	-9.32725
▁mm	-9.32755
▁stockholm	-9.32796
▁1968	-9.32809
▁1900	-9.32822
▁henrik	-9.32835
samling	-9.32985
rom	-9.33058
▁mel	-9.33113
▁johan	-9.33141
▁kle	-9.3332
▁brun	-9.3333
stat	-9.33355
▁anders	-9.33358
▁eg	-9.33446
▁hånd	-9.33465
▁you	-9.33505
ømme	-9.33595
▁kj	-9.33597
▁iii	-9.33599
▁overtok	-9.33704
▁symbol	-9.33709
▁seier	-9.33863
▁klarte	-9.33995
▁studie	-9.34006
▁sh	-9.34024
▁finalen	-9.34048
▁raskt	-9.34254
▁kinesiske	-9.34306
▁dy	-9.34368
▁plante	-9.3447
▁høsten	-9.34695
tjeneste	-9.34765
gård	-9.34772
▁rø	-9.34773
▁dronning	-9.34882
▁1973	-9.34891
▁martin	-9.34955
▁unge	-9.35129
10	-9.3523
▁data	-9.35251
▁sy	-9.35257
▁skade	-9.35288
▁gren	-9.35337
▁kommun	-9.35341
skrift	-9.3536
▁erstattet	-9.3542
my	-9.3548
▁ønsket	-9.35489
▁sterkt	-9.35543
▁olje	-9.35581
▁1969	-9.35596
▁lære	-9.35599
▁sommeren	-9.35641
arbeid	-9.35895
▁kol	-9.35915
ini	-9.36043
▁endt	-9.36171
▁eid	-9.36187
ð	-9.36293
▁1972	-9.36293
▁poeng	-9.36309
▁viste	-9.36313
55	-9.36323
▁hopp	-9.36328
▁plassert	-9.36449
stol	-9.36471
bygging	-9.3649
▁qu	-9.36682
▁slekten	-9.36804
hø	-9.36805
kraft	-9.36826
nivå	-9.36842
▁selskap	-9.3692
tion	-9.3697
р	-9.37007
▁styrke	-9.37027
▁za	-9.37039
ive	-9.37049
▁midten	-9.3705
▁ul	-9.37133
vet	-9.37376
▁ring	-9.37392
▁amerika	-9.37416
tsj	-9.37548
fisk	-9.37658
▁fylkes	-9.37677
▁syd	-9.37683
pris	-9.37719
bilde	-9.37728
▁vanskelig	-9.37731
▁fylkesvei	-9.37756
▁delta	-9.37786
▁sende	-9.37864
vern	-9.37927
▁tradisjonell	-9.37986
▁kh	-9.38045
▁avdeling	-9.38146
▁mac	-9.38163
▁funksjon	-9.38284
ida	-9.3843
utdannet	-9.38453
▁1975	-9.38465
▁1940	-9.38467
▁statsminister	-9.3847
▁krist	-9.385
▁seil	-9.38568
▁historien	-9.38656
▁park	-9.38659
▁nrk	-9.38695
▁interesse	-9.38717
▁sil	-9.38785
sjons	-9.38817
▁mari	-9.38844
løse	-9.38847
▁naturlig	-9.38859
▁høyere	-9.38869
▁brukte	-9.38957
oc	-9.38962
sjef	-9.3903
▁drift	-9.39095
▁politi	-9.39173
▁arrangert	-9.39181
▁relativ	-9.39181
itz	-9.39229
gruppen	-9.39355
▁lenger	-9.39415
rø	-9.39465
byen	-9.39514
▁not	-9.39532
▁utvikle	-9.39573
▁femte	-9.39596
▁brann	-9.39597
▁pop	-9.3962
▁60	-9.39665
▁merke	-9.39726
▁hall	-9.39763
▁1974	-9.39929
▁2014	-9.39934
selskapet	-9.39955
▁retning	-9.39989
verket	-9.40023
way	-9.40046
asjonen	-9.40055
dor	-9.40119
▁bilde	-9.40249
▁offentlig	-9.40341
sis	-9.40352
ā	-9.404
▁lei	-9.40437
▁opprinnelige	-9.40447
▁russiske	-9.40599
▁beskrive	-9.40671
virkning	-9.40681
▁grå	-9.40781
▁kul	-9.40783
▁80	-9.40788
int	-9.40802
▁vit	-9.40843
▁tett	-9.40874
ara	-9.40928
▁lø	-9.4106
▁miste	-9.41074
▁eier	-9.41159
ms	-9.41163
▁tall	-9.41163
▁ten	-9.41183
språk	-9.41221
▁mulighet	-9.41226
krigen	-9.41241
▁rike	-9.41272
▁lars	-9.41312
▁david	-9.41412
▁hed	-9.41425
stasjon	-9.41479
▁åpen	-9.41559
▁grev	-9.41585
▁slag	-9.41743
brudd	-9.41763
ial	-9.41783
▁totalt	-9.41804
▁område	-9.41981
▁ac	-9.41984
▁bøker	-9.42006
▁gode	-9.42108
▁hertug	-9.42158
▁prosent	-9.42162
▁1971	-9.42168
▁1979	-9.4217
▁informasjon	-9.42175
rin	-9.42207
▁sammenheng	-9.42225
▁havet	-9.42233
red	-9.42239
parti	-9.42283
▁hvit	-9.42335
▁cla	-9.42391
ull	-9.42438
▁son	-9.4256
vig	-9.42661
▁transport	-9.42699
trykk	-9.42743
▁bruke	-9.4275
liv	-9.42754
▁ære	-9.42777
▁asia	-9.42788
▁mos	-9.42852
eier	-9.42862
▁wo	-9.42885
ater	-9.42894
▁øverst	-9.42914
▁voksne	-9.42917
▁james	-9.42919
▁johannes	-9.4292
▁personlig	-9.42921
▁lengre	-9.42927
▁stjerne	-9.4297
asje	-9.4308
▁boken	-9.43095
jon	-9.43199
▁svart	-9.43252
▁regn	-9.43443
▁finsk	-9.43489
lv	-9.43594
▁standard	-9.437
senter	-9.43702
▁svarte	-9.4376
▁ci	-9.43936
kre	-9.44013
skog	-9.44079
▁region	-9.44165
▁syk	-9.44289
▁oppkalt	-9.44449
▁lengde	-9.44467
▁fotballspiller	-9.44475
▁klasse	-9.44502
ød	-9.44619
▁munn	-9.44628
standen	-9.44646
▁heller	-9.44726
▁endret	-9.44733
▁styrker	-9.44745
med	-9.44793
▁programmet	-9.44899
▁flo	-9.44934
▁høyt	-9.44937
▁befolkning	-9.45164
▁kardinal	-9.45221
▁hvilke	-9.45221
▁1964	-9.45234
ledes	-9.45236
▁areal	-9.45239
▁grunnlegge	-9.45278
▁alder	-9.45304
▁sentrale	-9.45427
lighet	-9.45485
▁sterk	-9.45549
abel	-9.45556
▁ang	-9.45597
pro	-9.45613
grav	-9.45681
nyin	-9.45721
strek	-9.45723
▁chi	-9.45767
▁sel	-9.45886
▁kyst	-9.4595
▁københavn	-9.46002
▁start	-9.46012
▁dro	-9.46014
her	-9.4606
▁pass	-9.46064
▁stod	-9.46114
felt	-9.46148
rådet	-9.46158
▁fest	-9.46159
▁400	-9.4619
▁forsøkt	-9.46319
fin	-9.46333
old	-9.46381
▁ji	-9.46526
bær	-9.46535
▁representant	-9.46551
▁sovjetunionen	-9.46789
qu	-9.46797
▁stavanger	-9.46799
▁satte	-9.47062
▁hær	-9.47174
of	-9.47198
▁george	-9.47229
▁can	-9.47267
våg	-9.47274
▁flat	-9.47363
▁stiftet	-9.47387
ori	-9.47429
▁arkitekt	-9.47523
are	-9.47571
▁enhet	-9.47583
▁1983	-9.47583
▁fremdeles	-9.47617
40	-9.47661
▁student	-9.47692
har	-9.47827
▁ven	-9.4783
▁båt	-9.4786
pel	-9.47874
▁tapte	-9.47889
bert	-9.48043
fører	-9.48098
iner	-9.48141
kant	-9.48146
▁col	-9.48245
▁erik	-9.48246
▁lenge	-9.4829
▁mis	-9.48343
▁skape	-9.48364
▁bronse	-9.48365
▁canada	-9.48385
folkerepublikken	-9.48399
systemet	-9.48508
▁bør	-9.48621
▁vestlige	-9.48689
▁følger	-9.48728
dals	-9.48752
ix	-9.48838
▁mc	-9.48907
▁dyp	-9.48991
▁distrikt	-9.48998
tis	-9.49123
▁bjørn	-9.49147
organisasjon	-9.49175
▁australia	-9.49189
▁trøndelag	-9.49189
gra	-9.49267
zo	-9.49292
▁vis	-9.49309
ire	-9.49466
▁varme	-9.49511
mun	-9.49558
▁inter	-9.49673
▁cup	-9.49745
▁tung	-9.49827
rat	-9.4985
fag	-9.50001
▁sju	-9.50004
▁bygningen	-9.50051
▁stemme	-9.50143
▁forsvar	-9.50202
▁politikk	-9.50284
▁skipet	-9.50374
▁veg	-9.5044
▁uni	-9.50482
▁nasjonale	-9.50494
stå	-9.5054
▁thor	-9.50542
▁motstand	-9.50678
▁drama	-9.5069
▁innflytelse	-9.50822
▁snakk	-9.50842
▁gjennomført	-9.50887
sky	-9.51118
▁katolske	-9.51142
60	-9.51187
▁livet	-9.51232
47	-9.51245
▁faren	-9.51245
skolen	-9.51249
▁utviklingen	-9.5126
▁skjer	-9.51285
sto	-9.51307
▁bas	-9.51363
drag	-9.51383
rings	-9.51404
▁besøk	-9.51568
rød	-9.51579
85	-9.51583
▁die	-9.51617
jev	-9.5165
stan	-9.51666
▁spania	-9.51667
▁1930	-9.51672
▁størrelse	-9.5172
▁spar	-9.51723
▁oppført	-9.51794
▁kors	-9.51951
tør	-9.52015
xi	-9.52166
▁jern	-9.52168
hund	-9.52211
gående	-9.52215
▁oppdaget	-9.52309
søk	-9.52339
kast	-9.5238
▁dal	-9.52432
▁sørvest	-9.52486
▁bodde	-9.52492
▁1948	-9.52496
▁2016	-9.525
▁sikre	-9.5253
gata	-9.52606
▁los	-9.52611
▁dersom	-9.52615
▁fulgte	-9.52658
▁historiske	-9.52734
▁finn	-9.52751
organ	-9.52789
bra	-9.53025
▁skyld	-9.53076
▁bolig	-9.53103
▁påvirke	-9.53224
▁dø	-9.53233
65	-9.53236
▁solgt	-9.53319
▁vokste	-9.53326
produksjon	-9.53383
loven	-9.53387
▁hodet	-9.534
▁artist	-9.53434
▁scene	-9.53444
blad	-9.53483
haug	-9.53492
▁jakt	-9.53508
ick	-9.53513
ille	-9.53583
▁forskjell	-9.53642
58	-9.53688
ark	-9.53693
▁dan	-9.53742
▁begrepet	-9.53744
▁lege	-9.53854
42	-9.53903
ette	-9.5394
▁viktige	-9.53959
▁uavhengig	-9.53984
▁hvite	-9.53998
bud	-9.54027
▁polen	-9.54075
▁reg	-9.54079
88	-9.54085
aksjon	-9.54139
ula	-9.54148
▁virke	-9.54151
▁louis	-9.5417
wi	-9.54195
▁kraftverk	-9.54195
▁egentlig	-9.54195
▁tele	-9.54213
▁sm	-9.5424
periode	-9.54259
▁grupper	-9.54289
▁gården	-9.54338
▁samlet	-9.54375
▁cro	-9.54446
▁stilling	-9.54451
▁ep	-9.54504
▁økonomi	-9.54603
▁sub	-9.54742
63	-9.54816
ført	-9.5483
▁greske	-9.54886
▁sl	-9.54907
▁hei	-9.55017
▁tilsvarende	-9.55024
▁øvre	-9.55025
▁nordvest	-9.55029
▁1977	-9.55035
▁soldater	-9.55038
▁harald	-9.55046
39	-9.55046
▁fremst	-9.55075
▁derimot	-9.5508
▁etterhvert	-9.55082
▁stadig	-9.55106
linje	-9.55317
▁gje	-9.55462
ville	-9.55554
▁kast	-9.55564
ani	-9.55575
san	-9.55592
▁fjerde	-9.55838
▁skjedde	-9.55888
▁knut	-9.559
▁1946	-9.55902
▁musikkalbum	-9.55904
66	-9.55919
▁avisen	-9.55934
▁posisjon	-9.55999
▁omfatte	-9.56025
▁snar	-9.56081
▁trak	-9.56291
▁mw	-9.56303
pu	-9.56344
▁len	-9.56356
side	-9.56404
▁øke	-9.56519
▁bern	-9.56534
▁stille	-9.56538
▁gj	-9.56562
▁effekt	-9.56637
lagt	-9.56723
▁nederlandsk	-9.56775
▁70	-9.56785
98	-9.56786
orm	-9.56803
▁fil	-9.56805
fart	-9.56851
▁ytre	-9.56853
▁blod	-9.5687
▁israel	-9.56912
utstilling	-9.56934
▁port	-9.5696
lek	-9.5711
▁design	-9.57187
vor	-9.573
skudd	-9.57351
heng	-9.57362
ima	-9.57416
н	-9.57621
▁religiøs	-9.57633
▁musiker	-9.57635
▁1967	-9.57651
styre	-9.5772
▁regel	-9.57839
ora	-9.57849
▁ør	-9.57862
▁hest	-9.57872
▁sul	-9.5799
▁formel	-9.58072
▁holm	-9.58094
▁prøve	-9.58156
elige	-9.58217
▁oppdag	-9.58224
▁kampen	-9.58259
nu	-9.58333
▁nærings	-9.58382
▁latin	-9.58426
▁1962	-9.58534
▁1963	-9.58537
57	-9.58577
67	-9.58608
▁vist	-9.58671
tive	-9.58765
▁felt	-9.58794
▁kongelig	-9.58869
▁vid	-9.58887
bank	-9.58961
▁stand	-9.59034
▁salt	-9.59065
navnet	-9.59266
▁ball	-9.59303
▁retts	-9.59306
▁gass	-9.59345
ice	-9.59385
▁anlegget	-9.5943
zhou	-9.59433
▁jens	-9.59434
hel	-9.59439
▁fortsette	-9.59445
gl	-9.59455
▁klo	-9.59503
▁stu	-9.59504
▁kam	-9.59507
▁strid	-9.59591
▁utført	-9.59624
▁kjenn	-9.59647
▁tema	-9.59678
▁kilde	-9.59714
mesterskapet	-9.59717
▁arten	-9.59772
▁offentlige	-9.59793
▁kart	-9.59933
▁jobbet	-9.59996
▁teori	-9.60092
▁offisielle	-9.60149
▁opprinnelse	-9.60312
▁bakgrunn	-9.60344
▁feil	-9.60437
tog	-9.60445
▁mengde	-9.60459
▁figur	-9.60496
fest	-9.60502
evne	-9.60522
▁nivå	-9.60564
▁ungdoms	-9.60587
samisk	-9.60662
▁gro	-9.6069
▁uttrykk	-9.60755
▁kv	-9.60818
▁bind	-9.60906
ansk	-9.60944
ringer	-9.61026
▁stø	-9.61083
▁bevegelse	-9.61187
е	-9.61217
с	-9.61221
▁nødvendig	-9.61221
▁kjempe	-9.61222
▁1952	-9.61236
▁smal	-9.61254
▁grense	-9.61292
75	-9.61294
▁huset	-9.61312
▁egg	-9.61335
▁rot	-9.61339
▁300	-9.61388
▁35	-9.61429
strøm	-9.61445
klasse	-9.61452
▁organisasjonen	-9.61476
▁fjern	-9.61488
holm	-9.6149
musikk	-9.61532
▁led	-9.6157
arter	-9.61627
stoff	-9.61652
▁grønn	-9.61656
▁leker	-9.61701
▁spill	-9.61719
▁time	-9.61784
▁fordel	-9.61838
43	-9.61939
later	-9.62096
▁produsere	-9.62138
▁representere	-9.62138
л	-9.62139
▁1928	-9.62149
▁1956	-9.62152
▁1965	-9.62158
▁variant	-9.62214
ball	-9.62221
▁tal	-9.62229
formet	-9.62258
▁enten	-9.62259
▁union	-9.62263
blokk	-9.6227
▁gy	-9.62307
▁komponist	-9.62314
▁fabrikk	-9.62342
▁egypt	-9.62379
▁trolig	-9.6244
▁heter	-9.62508
▁privat	-9.62527
qui	-9.62608
▁journalist	-9.62651
bunn	-9.62688
▁stammer	-9.628
rike	-9.62825
▁vas	-9.62864
▁fot	-9.62951
lem	-9.6297
tradisjon	-9.62978
▁klassisk	-9.63064
▁episode	-9.63065
▁byer	-9.63066
kapasitet	-9.63066
▁nærmest	-9.6307
ins	-9.63084
▁cent	-9.63126
▁nils	-9.63187
▁tolv	-9.63244
▁østlig	-9.63267
▁motsetning	-9.63274
tegn	-9.63305
▁stift	-9.63323
76	-9.63482
▁falt	-9.63493
▁borg	-9.63581
eres	-9.63655
tus	-9.63705
org	-9.63813
▁bygde	-9.63863
▁char	-9.63915
▁strøm	-9.63933
▁produsent	-9.6394
▁folket	-9.63989
▁gjelder	-9.63999
▁kontakt	-9.64002
▁1924	-9.6401
▁2017	-9.64021
gruppe	-9.64032
▁black	-9.64044
79	-9.64062
kommune	-9.64256
▁høye	-9.6427
ther	-9.64315
93	-9.64414
▁hovedstaden	-9.64498
▁irland	-9.64498
ferd	-9.64648
delen	-9.64657
mas	-9.64682
▁ob	-9.64701
sal	-9.64702
▁røde	-9.64796
▁produkt	-9.64882
vekt	-9.64896
▁irsk	-9.64909
▁hjerte	-9.64943
▁1966	-9.64962
▁bronsemedalje	-9.64971
▁bad	-9.64984
▁renner	-9.65128
▁mottok	-9.6514
▁hoff	-9.65195
▁nabo	-9.65229
▁skje	-9.65258
ör	-9.65278
▁hundre	-9.65284
klubb	-9.6537
fon	-9.65419
kra	-9.65483
kin	-9.65497
▁mas	-9.6556
▁karakter	-9.65627
korps	-9.65656
▁bir	-9.65684
hall	-9.6577
▁artene	-9.65776
arm	-9.65829
är	-9.65878
olo	-9.65888
veg	-9.65891
ú	-9.65895
к	-9.65895
▁league	-9.65895
▁utgangspunkt	-9.65895
▁publisert	-9.65895
▁foreldre	-9.65896
▁gutt	-9.65905
▁sommerfugl	-9.65912
▁sivil	-9.6596
86	-9.66026
82	-9.66032
stro	-9.66032
68	-9.6618
møte	-9.66205
▁sur	-9.66261
▁kroner	-9.66293
▁xi	-9.66297
▁måneder	-9.66331
38	-9.66442
stått	-9.66448
62	-9.66468
▁vind	-9.66542
ras	-9.66582
▁ter	-9.6659
▁saken	-9.66623
▁kreve	-9.66767
▁nevnt	-9.66833
▁øvrig	-9.66856
▁united	-9.66857
▁kysten	-9.66868
▁skotsk	-9.66869
▁provins	-9.66887
▁bevart	-9.66893
spor	-9.66947
▁ekspedisjon	-9.67153
plasser	-9.67191
▁middel	-9.67253
▁total	-9.67271
▁kjerne	-9.67328
iz	-9.6737
▁toppen	-9.67384
▁revolusjon	-9.67425
trekk	-9.67486
kirke	-9.67544
è	-9.67646
▁forfatteren	-9.67776
▁finans	-9.6778
46	-9.67782
makt	-9.67815
▁studio	-9.67823
▁konflikt	-9.67827
▁rapport	-9.67827
▁korte	-9.67828
▁avis	-9.67839
▁1912	-9.6784
▁1949	-9.67843
▁nr	-9.67967
ås	-9.68051
▁hit	-9.68114
virke	-9.68281
▁win	-9.6832
kjær	-9.68328
▁adel	-9.68371
▁vinner	-9.68459
▁het	-9.68572
69	-9.68574
cy	-9.68654
▁fengsel	-9.68807
▁mexico	-9.68807
▁oversikt	-9.68809
▁1976	-9.68826
▁1958	-9.68828
hjul	-9.68853
kler	-9.68866
nic	-9.68942
▁runde	-9.68944
ann	-9.68956
▁grenser	-9.69001
▁sjef	-9.69045
▁sort	-9.69094
▁spre	-9.69117
▁strekk	-9.69118
▁fugle	-9.69125
grunn	-9.69127
▁type	-9.69146
▁flagg	-9.69166
▁georg	-9.69207
▁kristne	-9.69233
erende	-9.69239
▁redaktør	-9.69258
gjøre	-9.69351
lov	-9.69354
▁sterke	-9.69553
▁fisk	-9.69603
▁fordelt	-9.69607
▁selve	-9.69615
det	-9.6962
▁sette	-9.69652
bri	-9.69654
▁air	-9.69664
prosess	-9.69692
▁livs	-9.69729
▁pra	-9.6976
▁betrakte	-9.69798
▁spesiell	-9.69798
▁stortinget	-9.69801
▁1944	-9.69814
▁klima	-9.69817
▁jordbruk	-9.69834
▁straffe	-9.69843
▁kinas	-9.6986
▁mørk	-9.69862
gangen	-9.69876
▁rygg	-9.69882
▁brev	-9.69887
▁anne	-9.69966
▁årlig	-9.69975
last	-9.69978
▁grunnlag	-9.69995
▁rang	-9.70038
▁cm	-9.70053
▁undersøkelse	-9.70061
▁hente	-9.70088
ild	-9.70185
leng	-9.70197
▁tettsted	-9.70207
▁rå	-9.70249
▁cu	-9.70258
oni	-9.70304
▁tittel	-9.70378
▁aktivitet	-9.70378
▁metal	-9.70435
▁daglig	-9.70496
midler	-9.70532
▁valget	-9.70637
ves	-9.70642
oper	-9.70716
▁ytterligere	-9.70798
▁national	-9.70798
▁østerrike	-9.70799
▁alltid	-9.70862
ain	-9.70883
▁formann	-9.70992
bø	-9.71061
▁nådd	-9.71069
stid	-9.71135
▁jon	-9.71145
▁ekteskap	-9.7117
▁vold	-9.71171
▁stykke	-9.71186
▁atom	-9.71191
▁betegne	-9.71244
▁prosjekt	-9.71247
▁koloni	-9.7131
4	-9.7133
94	-9.71376
gå	-9.71547
▁krets	-9.71581
▁beskytte	-9.71584
▁1000	-9.71711
▁sha	-9.71802
▁skottland	-9.71808
▁generelt	-9.71808
▁forteller	-9.7181
magasin	-9.71822
▁1939	-9.71829
▁regi	-9.71902
▁mon	-9.71916
▁slott	-9.72012
71	-9.72034
historie	-9.72218
ben	-9.72284
▁forskning	-9.72314
▁test	-9.72391
person	-9.72397
▁måned	-9.72464
▁metall	-9.72552
tru	-9.7258
▁utøve	-9.72611
feltet	-9.72638
▁prisen	-9.72648
▁sent	-9.72653
▁yngre	-9.7283
▁fjorden	-9.72844
▁charles	-9.72852
▁ordfører	-9.72856
▁jule	-9.72881
▁vir	-9.72888
▁ansatte	-9.72969
▁benyttes	-9.72972
på	-9.72982
▁bosatt	-9.7299
▁us	-9.72991
▁sir	-9.73063
ish	-9.73109
▁behandling	-9.73156
▁king	-9.73241
våpen	-9.73267
51	-9.73306
▁instrument	-9.73307
kysten	-9.73319
ordenen	-9.73359
ledende	-9.73427
▁liga	-9.73505
ugh	-9.73508
▁bygg	-9.73512
74	-9.73533
ance	-9.73539
rud	-9.73573
ban	-9.73663
▁ordenen	-9.73688
▁ara	-9.73742
▁opphav	-9.73765
▁leg	-9.738
▁fremme	-9.73822
gna	-9.7383
▁original	-9.73859
▁profesjonell	-9.73859
▁tilgjengelig	-9.73859
▁michael	-9.73859
▁royal	-9.73861
▁flertall	-9.73868
▁1954	-9.73876
▁skilt	-9.73888
▁hører	-9.73898
field	-9.73902
▁fjellet	-9.73925
▁city	-9.73936
▁shi	-9.7396
▁hovedstad	-9.74038
▁kanon	-9.74263
▁real	-9.74325
industri	-9.74329
nner	-9.74432
61	-9.7444
▁løv	-9.74516
▁les	-9.74573
▁tettstedet	-9.74599
▁materiale	-9.74627
sser	-9.74635
▁ledelse	-9.74674
well	-9.74682
▁velge	-9.74688
▁utover	-9.74733
▁distriktet	-9.7477
90	-9.74794
shire	-9.74794
▁reform	-9.74816
▁trafikk	-9.74828
▁dokument	-9.74833
low	-9.74893
▁california	-9.74901
▁etterfulgt	-9.74901
▁fredrik	-9.74902
▁dv	-9.74904
▁1936	-9.74918
▁sovjetisk	-9.74926
▁gjenopp	-9.75013
▁hud	-9.7514
skriv	-9.75163
serien	-9.75212
▁bø	-9.7527
▁sykehus	-9.75292
▁lev	-9.75295
▁problem	-9.75315
▁rh	-9.7534
15	-9.75359
cha	-9.75384
91	-9.75409
▁res	-9.75412
▁ledd	-9.75442
▁bane	-9.75444
▁begynner	-9.75514
▁rekord	-9.75523
▁utvidet	-9.75542
visning	-9.75595
▁museum	-9.75627
▁hor	-9.75629
▁sund	-9.75703
▁årsak	-9.75749
fu	-9.75793
48	-9.75798
manns	-9.75809
▁studenter	-9.75809
▁andreplass	-9.75883
ira	-9.7589
▁mørke	-9.75908
▁utbredt	-9.75953
▁world	-9.75953
bare	-9.75969
▁unntak	-9.7597
▁søster	-9.76011
64	-9.76019
▁front	-9.76052
▁pat	-9.76061
svik	-9.76068
▁jesu	-9.76104
▁oppdrag	-9.76146
nor	-9.76162
press	-9.76183
▁program	-9.76184
▁tusen	-9.76204
lund	-9.76252
▁riket	-9.76262
dam	-9.7633
▁santa	-9.76386
renn	-9.7648
▁dog	-9.76707
▁sveits	-9.76843
zh	-9.76847
istene	-9.76854
▁trekk	-9.7688
▁slå	-9.76893
44	-9.76918
voll	-9.76933
▁folketelling	-9.77017
hastighet	-9.77025
▁kunnskap	-9.77276
▁operasjon	-9.77279
▁fc	-9.77285
▁maskin	-9.77288
▁normalt	-9.77296
gjorde	-9.7732
unt	-9.7733
▁vanlige	-9.77371
▁maur	-9.77422
▁rad	-9.77439
▁kas	-9.77481
bjørn	-9.77536
▁athen	-9.77582
▁fat	-9.77583
▁masse	-9.7761
▁teknologi	-9.77756
oppgave	-9.77761
▁glo	-9.7777
▁mak	-9.77819
▁sier	-9.77854
▁korea	-9.77916
hav	-9.78018
54	-9.78068
▁nordisk	-9.78078
▁ishockey	-9.78092
▁beijing	-9.78092
▁fokus	-9.78095
▁bokstav	-9.78104
ama	-9.78106
▁frank	-9.78109
▁jobb	-9.78133
rykket	-9.78154
rør	-9.78157
▁presse	-9.78187
▁fører	-9.78197
trop	-9.78203
▁festival	-9.7824
dekke	-9.78333
kop	-9.78349
trær	-9.78351
73	-9.7838
▁tromsø	-9.78499
▁listen	-9.78545
senteret	-9.78582
▁bol	-9.78701
▁base	-9.78785
▁krysse	-9.78825
rit	-9.7885
▁spansk	-9.78861
elva	-9.78924
dro	-9.7894
sjonen	-9.78956
▁od	-9.78982
36	-9.79043
▁jorden	-9.79077
sekretær	-9.79164
kost	-9.79175
▁vunnet	-9.79179
▁tidlige	-9.79179
▁innsats	-9.79181
eringen	-9.79184
▁lansert	-9.79186
▁riksvei	-9.79312
▁90	-9.79328
▁passer	-9.79446
▁tonn	-9.79463
mennene	-9.79495
52	-9.79496
▁populær	-9.79545
metode	-9.79659
voks	-9.79682
▁endelig	-9.79693
▁lot	-9.79711
53	-9.79768
▁samfunns	-9.79801
band	-9.80048
▁idretts	-9.80055
deles	-9.80078
▁sti	-9.80092
vers	-9.80101
▁temperatur	-9.80191
▁nan	-9.80214
▁polsk	-9.80215
▁direktør	-9.80228
án	-9.80294
▁1959	-9.80295
▁snø	-9.80311
▁videregående	-9.80313
▁støttet	-9.80368
▁mø	-9.80402
▁1700	-9.80433
▁innført	-9.80467
▁danse	-9.80478
▁euro	-9.80507
komme	-9.80529
ney	-9.80569
▁flyplass	-9.80641
▁singel	-9.80686
▁kro	-9.80738
▁christ	-9.80772
▁spørsmål	-9.80821
▁aust	-9.8088
▁virksomhet	-9.80972
sberg	-9.81015
språklig	-9.81029
▁nes	-9.81082
▁cal	-9.81186
▁vik	-9.81192
hor	-9.81203
▁bay	-9.81238
kkel	-9.81243
49	-9.81275
▁met	-9.81306
▁regnet	-9.81316
▁verne	-9.81364
08	-9.81383
▁inspirert	-9.81389
▁moskva	-9.8139
▁dynastiet	-9.81397
▁spredt	-9.81408
▁betegnelsen	-9.81421
phi	-9.81458
kanten	-9.81478
▁svak	-9.81509
▁virkelig	-9.81524
▁larvene	-9.81537
mod	-9.81548
grafi	-9.81622
▁vinge	-9.81653
ub	-9.81672
▁nasjon	-9.81779
▁ube	-9.81847
▁viking	-9.81856
▁tids	-9.81868
▁historisk	-9.81869
▁internasjonal	-9.81898
▁språket	-9.81913
41	-9.81991
▁omtale	-9.82003
▁debut	-9.82062
▁hill	-9.82112
krets	-9.82131
lon	-9.82172
▁she	-9.82172
rum	-9.82204
37	-9.82373
6	-9.82414
republikk	-9.82456
▁alternativ	-9.82513
teknikk	-9.82513
▁1918	-9.8253
▁lengst	-9.82532
▁forretnings	-9.82536
▁1955	-9.82541
sport	-9.82569
▁lån	-9.82585
▁bomb	-9.82726
92	-9.82728
▁tha	-9.82785
▁ger	-9.82842
▁score	-9.8288
▁ungdom	-9.82975
eks	-9.83025
▁rase	-9.83027
▁skatte	-9.83051
mund	-9.83066
prisen	-9.83087
▁offiser	-9.83106
▁benytte	-9.83171
aktig	-9.83255
jiang	-9.83257
kultur	-9.83257
▁sku	-9.83363
▁lee	-9.83402
▁berømt	-9.83428
war	-9.83464
følgende	-9.83503
skytter	-9.83529
▁lind	-9.83582
à	-9.83649
▁eksempler	-9.83649
▁religion	-9.83649
▁school	-9.8365
▁frederik	-9.83653
▁tydelig	-9.83653
hn	-9.83665
▁middelalderen	-9.83667
▁hustru	-9.83677
▁song	-9.83696
saker	-9.83746
▁inkluderer	-9.83826
▁war	-9.83826
▁vitenskapelig	-9.83838
▁foss	-9.83877
▁likhet	-9.83913
jan	-9.83959
▁jevn	-9.83984
partiet	-9.83995
gjort	-9.84194
▁kontrakt	-9.84211
▁utdanning	-9.84213
▁kjøpe	-9.84248
medlem	-9.84295
▁opphold	-9.84315
vitenskap	-9.84326
▁brenn	-9.84409
▁800	-9.8442
▁sluttet	-9.84477
motor	-9.84512
▁endre	-9.84534
fekt	-9.84544
▁forsknings	-9.84563
▁løper	-9.84678
▁bla	-9.84697
▁gitar	-9.84715
▁fysisk	-9.84802
▁fyr	-9.8481
▁fungere	-9.84813
▁fullført	-9.84816
▁1942	-9.84822
▁1947	-9.84824
▁spiss	-9.84831
▁nåværende	-9.8486
35	-9.84911
▁bosetning	-9.84922
▁senter	-9.84955
▁ban	-9.84967
59	-9.84978
▁kontor	-9.85035
▁vitenskap	-9.85083
▁klubb	-9.85096
ledning	-9.85102
anser	-9.85105
▁rollen	-9.85161
etter	-9.85283
▁fro	-9.85284
▁tegnet	-9.85316
æl	-9.85413
▁hjelpe	-9.85438
trafikk	-9.85496
kunst	-9.85522
▁kreft	-9.85665
stø	-9.85775
plassen	-9.8582
19	-9.85857
▁ramme	-9.85924
▁friidrett	-9.85962
▁melodi	-9.85964
▁1953	-9.85981
▁1957	-9.85985
▁økte	-9.8599
eksjon	-9.86001
▁prins	-9.86032
wood	-9.86035
▁geo	-9.86052
▁albert	-9.86066
▁ind	-9.86124
▁kilder	-9.86124
▁uke	-9.86135
▁gjeste	-9.86219
▁ting	-9.86231
mand	-9.86235
▁sty	-9.86237
▁stasjonen	-9.8627
▁teknisk	-9.86282
▁solo	-9.86354
▁fremste	-9.86425
▁bit	-9.86549
ala	-9.86555
delt	-9.86595
ky	-9.86622
linjen	-9.86663
middel	-9.86672
▁north	-9.86683
▁sar	-9.86773
▁sports	-9.86773
▁landene	-9.86833
▁ram	-9.86906
▁driver	-9.86917
▁just	-9.86977
▁sider	-9.87011
▁ama	-9.87064
▁regjerings	-9.8708
▁beseiret	-9.87138
▁international	-9.87138
▁situasjon	-9.87138
▁verdenscup	-9.87138
56	-9.8714
▁premier	-9.87143
▁markeds	-9.87144
▁fløy	-9.8716
▁college	-9.87163
års	-9.87214
▁nærheten	-9.87215
ata	-9.8722
▁hovedsak	-9.87232
oth	-9.87243
▁turist	-9.87247
▁henry	-9.87309
▁former	-9.87395
▁haug	-9.87406
stemt	-9.87424
▁studier	-9.87504
▁ung	-9.87506
▁plassering	-9.87547
▁linjen	-9.87723
▁sau	-9.87725
emme	-9.87796
▁vinne	-9.87803
▁kjøre	-9.87805
mond	-9.87879
▁avsluttet	-9.87896
ios	-9.88065
▁sky	-9.88093
▁forsvaret	-9.88163
plate	-9.88194
▁tog	-9.88214
▁selvstendig	-9.88222
▁leir	-9.88247
▁utvalg	-9.8828
kilden	-9.88301
▁kategori	-9.88328
▁hurtig	-9.88329
▁richard	-9.88329
▁norrøn	-9.88331
▁hovedrollen	-9.88331
▁typisk	-9.88331
arbeider	-9.8834
▁primær	-9.8837
▁dør	-9.88393
▁effektiv	-9.88394
▁dekker	-9.88446
▁dyre	-9.88486
▁planet	-9.88509
▁elektrisk	-9.88571
18	-9.88577
foss	-9.88601
▁historiker	-9.88623
▁sørge	-9.88688
▁hve	-9.88707
▁mid	-9.8872
fugl	-9.88786
▁kvalitet	-9.88793
kirken	-9.88807
endring	-9.88814
▁organisasjon	-9.88892
ved	-9.88949
▁junior	-9.89003
▁strand	-9.89069
barn	-9.89081
▁ya	-9.89173
▁klassen	-9.89188
hode	-9.89209
hov	-9.89219
▁che	-9.89234
ón	-9.89254
slaget	-9.89258
▁bel	-9.89302
rommet	-9.89307
▁heng	-9.89312
99	-9.89327
artikler	-9.8943
▁ris	-9.89442
▁tunnel	-9.89482
06	-9.89499
▁150	-9.89507
▁nederland	-9.89523
▁installert	-9.89533
▁arabisk	-9.89536
▁jødisk	-9.89538
▁ridder	-9.89539
▁1961	-9.89554
▁1938	-9.89556
▁ansatt	-9.89572
97	-9.89628
▁utdannelse	-9.89668
▁kristen	-9.89672
▁old	-9.89686
▁kg	-9.89734
▁konkurransen	-9.89752
▁enda	-9.89859
▁fal	-9.89914
gjør	-9.90044
alen	-9.90047
▁forsvars	-9.90061
▁bevis	-9.90074
▁åpne	-9.90084
▁oversatt	-9.90154
øyene	-9.90224
▁motiv	-9.90283
samfunn	-9.90338
▁bygning	-9.90386
▁inne	-9.90456
▁live	-9.90485
pho	-9.90514
▁sport	-9.90562
▁overfor	-9.90569
▁konkurranse	-9.90619
▁un	-9.90647
▁bakken	-9.90656
▁utgave	-9.90662
▁elev	-9.90682
▁innsjø	-9.90717
▁tilknytning	-9.90753
kommunikasjon	-9.90758
▁gru	-9.9076
▁solgte	-9.90771
▁1919	-9.90772
▁avhengig	-9.90794
fang	-9.90834
pass	-9.9087
▁synes	-9.90934
▁overført	-9.91004
dorf	-9.91044
▁arve	-9.91091
▁organisert	-9.91094
illa	-9.91145
▁ph	-9.91191
▁innsjøen	-9.91268
▁formål	-9.91282
▁bibliotek	-9.91294
▁dømt	-9.91301
▁debuter	-9.91318
17	-9.91371
hal	-9.91387
▁pri	-9.91462
▁ky	-9.9148
▁landskapet	-9.9149
▁områdene	-9.91551
▁søke	-9.91566
▁bilder	-9.91584
▁hellige	-9.91588
▁vet	-9.91614
ura	-9.91618
14	-9.91649
stedet	-9.91655
kraftverk	-9.91695
▁lignende	-9.91697
▁vær	-9.91727
▁bonde	-9.91808
iger	-9.91887
▁trekke	-9.91903
▁bakkropp	-9.91987
▁praksis	-9.91987
▁jazz	-9.91988
▁positiv	-9.91988
▁kritikk	-9.91989
objekt	-9.9199
▁papir	-9.91991
▁innspilling	-9.91992
▁1951	-9.92009
▁veldig	-9.92043
øst	-9.92122
▁syr	-9.92214
▁rute	-9.92303
åpning	-9.92313
rich	-9.92314
▁skille	-9.92325
▁tale	-9.92333
gri	-9.92392
gle	-9.92456
▁ask	-9.92478
▁beskrevet	-9.92485
95	-9.92502
▁forbundet	-9.92564
▁skips	-9.92623
liste	-9.92634
▁tekster	-9.92646
▁gun	-9.92846
▁tårn	-9.92875
▁dobbelt	-9.92928
▁epi	-9.92935
tha	-9.93035
▁tour	-9.93053
ctor	-9.93196
økonom	-9.93207
▁odd	-9.93219
▁univers	-9.9322
▁landsbyen	-9.93223
▁brøt	-9.93241
▁medlemmene	-9.93247
ér	-9.93249
▁håndball	-9.93257
▁1941	-9.93257
▁republikken	-9.93277
▁vokalist	-9.93336
▁harry	-9.93356
▁eiendom	-9.93362
▁økt	-9.93379
iti	-9.9338
▁keiseren	-9.93422
▁fla	-9.93426
▁nevnes	-9.93599
▁stav	-9.93608
▁gods	-9.93692
▁kvinnelig	-9.93696
pan	-9.93783
27	-9.93802
▁funn	-9.93837
▁tan	-9.93841
▁bord	-9.9392
▁tam	-9.93934
▁kull	-9.94004
program	-9.94133
▁bølge	-9.94177
avdeling	-9.94217
25	-9.94237
pur	-9.94245
dige	-9.94347
brun	-9.94357
▁sønnen	-9.94434
byr	-9.94485
▁wilhelm	-9.94503
▁kjønn	-9.94503
▁alvorlig	-9.94504
▁nærmere	-9.94509
▁jarl	-9.94532
▁oppnådd	-9.94535
▁produksjonen	-9.94539
▁nedlagt	-9.9458
▁angeles	-9.94608
▁high	-9.94609
▁uker	-9.94626
hin	-9.94654
▁tanke	-9.94701
▁våren	-9.9475
kov	-9.94771
mur	-9.94785
▁arkitektur	-9.9482
▁filmer	-9.94884
▁latinsk	-9.94925
▁kvart	-9.94977
▁jean	-9.95002
gard	-9.95017
▁spanske	-9.95032
stykke	-9.95123
▁behandle	-9.95134
pet	-9.95146
konge	-9.952
▁rose	-9.95209
▁forskere	-9.95249
▁pet	-9.95259
▁utsatt	-9.95262
hen	-9.95268
▁dato	-9.9529
▁bry	-9.9531
løpet	-9.95329
▁luc	-9.95409
album	-9.95413
forskning	-9.95452
▁mill	-9.95452
▁vekst	-9.95475
▁verket	-9.95554
isten	-9.95558
▁bidra	-9.95561
skipet	-9.9563
96	-9.95637
▁øyene	-9.95654
▁helge	-9.95654
07	-9.95709
▁teksten	-9.95764
▁1500	-9.95776
▁mytologi	-9.95786
▁aksje	-9.95823
▁gangen	-9.95827
▁rein	-9.95842
▁hell	-9.95902
▁armé	-9.95905
▁rulle	-9.95924
bon	-9.95948
farge	-9.96041
▁eksempelvis	-9.96089
▁single	-9.96139
04	-9.96168
slekt	-9.96249
øk	-9.96323
▁klart	-9.96585
▁institutt	-9.96585
bakk	-9.9668
▁prosjektet	-9.96701
ij	-9.96723
▁nordland	-9.9674
virksomhet	-9.96754
▁kva	-9.96826
▁stoff	-9.96991
parten	-9.97043
▁fan	-9.9706
▁tilhørte	-9.97084
▁sistnevnte	-9.97086
▁protest	-9.97104
▁rosen	-9.97175
ction	-9.97254
▁tilbud	-9.97286
▁spise	-9.97352
▁utføre	-9.97362
lapp	-9.97365
▁lavere	-9.97405
▁ana	-9.97457
▁populære	-9.97501
forsker	-9.97507
▁timer	-9.97515
▁salg	-9.97516
▁poly	-9.9754
kjøp	-9.9762
verdig	-9.97628
▁mad	-9.97641
dagen	-9.97656
▁trener	-9.97656
▁vert	-9.97796
staten	-9.97821
▁arkeolog	-9.97847
▁gruve	-9.97922
▁sykdom	-9.97967
▁tråd	-9.98083
05	-9.98183
formen	-9.98337
▁stemmer	-9.98352
forhold	-9.98367
lista	-9.98369
▁initiativ	-9.984
▁introdusert	-9.984
▁joseph	-9.984
▁liberal	-9.98402
▁myr	-9.98404
▁passasjer	-9.98406
▁drive	-9.9841
▁banen	-9.98446
▁avholdt	-9.98499
▁vendt	-9.98511
▁behov	-9.98548
▁nasjonalpark	-9.9861
12	-9.98623
▁underlagt	-9.98707
▁sørover	-9.98713
områdene	-9.98714
▁systemet	-9.98755
▁dukke	-9.98778
▁johann	-9.98913
▁selge	-9.98943
▁larven	-9.98962
▁pen	-9.98968
akademi	-9.99006
▁styrkene	-9.99008
▁handel	-9.99036
▁gard	-9.99059
89	-9.99166
▁private	-9.99171
23	-9.99197
▁penge	-9.99245
▁sum	-9.99435
aya	-9.99445
rolle	-9.99473
▁skiller	-9.99474
▁pol	-9.99601
gress	-9.99622
▁musikalsk	-9.99733
▁østerriksk	-9.99733
forbundet	-9.99734
▁skøyte	-9.99746
▁tegneserie	-9.99748
▁1925	-9.99752
fabrikk	-9.99764
▁glass	-9.99783
▁vii	-9.99797
▁sølvmedalje	-9.99801
▁typer	-9.99825
▁utga	-9.99893
post	-9.99904
▁gold	-9.99969
▁eva	-9.99993
▁fjord	-10.0003
▁nyere	-10.0009
park	-10.0009
▁kommuner	-10.001
▁eli	-10.0015
▁administrasjons	-10.0023
win	-10.0027
▁problemer	-10.0031
▁music	-10.0044
former	-10.0048
▁ok	-10.0051
▁troll	-10.0052
▁indisk	-10.0053
▁båten	-10.006
▁sist	-10.0063
▁din	-10.0078
figur	-10.0081
fjellet	-10.0083
hjem	-10.0085
nom	-10.0089
▁forut	-10.0089
gate	-10.0092
strid	-10.0095
▁kristian	-10.0104
▁bærer	-10.0107
▁deriblant	-10.0108
▁tilknyttet	-10.0108
▁oscar	-10.0109
ept	-10.0109
▁element	-10.0109
ов	-10.0109
▁kveld	-10.0109
▁antenne	-10.011
▁lufthavn	-10.011
▁1932	-10.011
▁buss	-10.0129
fylt	-10.013
▁iso	-10.0134
▁morgen	-10.0135
▁angrepet	-10.0141
▁registrert	-10.0141
tallet	-10.0149
▁peder	-10.0149
gul	-10.015
▁dokumenter	-10.0159
atet	-10.016
▁foruten	-10.0161
con	-10.0166
▁nedre	-10.0166
▁orkester	-10.0175
▁kandidat	-10.018
rev	-10.0183
▁rask	-10.0189
▁600	-10.019
▁may	-10.0191
▁skaffe	-10.0192
▁stå	-10.0197
▁kari	-10.0206
21	-10.0207
16	-10.0219
maskin	-10.0221
gården	-10.0223
herr	-10.0225
gaard	-10.0229
▁parlament	-10.0229
▁marie	-10.0244
steder	-10.0245
▁artikkel	-10.0245
▁belgia	-10.0245
▁sjelden	-10.0245
▁ungarn	-10.0246
▁redusert	-10.0246
87	-10.0246
grupper	-10.0246
faktor	-10.0248
▁filip	-10.0248
▁ukjent	-10.025
▁bispedømme	-10.025
▁nm	-10.0257
▁inntekt	-10.026
▁oss	-10.0269
▁undervisning	-10.0272
77	-10.0273
▁auto	-10.0276
riket	-10.0281
strand	-10.0289
▁nordover	-10.0291
▁idrettslag	-10.0299
▁py	-10.0312
publi	-10.0323
▁marine	-10.0323
byrå	-10.0342
▁landskap	-10.036
▁utgi	-10.0361
▁kampene	-10.0365
▁por	-10.0371
ordning	-10.0372
▁vannet	-10.0378
▁erkebiskop	-10.0384
▁fullstendig	-10.0384
▁ødelagt	-10.0384
▁kaptein	-10.0384
▁himmel	-10.0384
▁nominert	-10.0384
▁erklært	-10.0384
▁cirka	-10.0384
▁kombinert	-10.0384
▁nektet	-10.0385
▁hotell	-10.0385
▁south	-10.0386
▁1934	-10.0386
▁video	-10.0386
▁1943	-10.0387
▁frukt	-10.0389
▁omtalt	-10.0389
strøk	-10.0392
▁hellas	-10.0392
▁hon	-10.0394
▁møter	-10.0396
▁bryst	-10.04
▁ansett	-10.0401
vinner	-10.0411
▁tverr	-10.0412
▁bygninger	-10.0417
▁rør	-10.0422
løy	-10.044
▁dekket	-10.0453
▁begrep	-10.0455
▁rund	-10.0455
▁lund	-10.0455
▁green	-10.0466
▁struktur	-10.0481
gende	-10.0482
▁iv	-10.0483
trinn	-10.0495
▁bevege	-10.0498
prosjekt	-10.0503
forfatter	-10.0505
▁vä	-10.0506
▁75	-10.0506
▁cou	-10.0508
halvøya	-10.0516
bakken	-10.0518
▁freds	-10.0525
advokat	-10.0525
▁avdøde	-10.0525
▁faktisk	-10.0526
▁konstant	-10.0526
▁1933	-10.0527
▁tidspunkt	-10.0527
▁vokser	-10.0528
arbeidet	-10.053
▁bekrefte	-10.053
▁spenning	-10.0535
bringe	-10.0535
▁tryg	-10.0538
▁nam	-10.0543
▁gitarist	-10.0546
logisk	-10.0548
▁gil	-10.0552
▁levde	-10.0553
kket	-10.0561
▁master	-10.0568
fil	-10.0569
▁internasjonalt	-10.057
elli	-10.0575
▁status	-10.0576
▁bou	-10.0577
vision	-10.0582
▁slags	-10.0586
▁32	-10.0588
▁pala	-10.059
ograf	-10.059
▁amt	-10.0592
▁antallet	-10.0594
rup	-10.0599
▁anta	-10.0603
orp	-10.0611
vind	-10.0617
hard	-10.0617
▁ze	-10.0617
somme	-10.062
▁typen	-10.0621
▁normal	-10.0635
hm	-10.0639
11	-10.0642
▁pin	-10.0644
festival	-10.0648
▁arn	-10.0649
▁kommunene	-10.0657
▁fritt	-10.0662
cal	-10.0668
▁alkohol	-10.0668
▁allierte	-10.0668
▁bidro	-10.0671
13	-10.0673
▁anledning	-10.0675
33	-10.0676
markedet	-10.0676
mont	-10.0677
▁bibel	-10.0688
bebyggelse	-10.0689
▁gjenstand	-10.0692
▁elever	-10.07
▁politiet	-10.0708
▁star	-10.0709
▁oversettelse	-10.0712
reise	-10.0717
▁dominere	-10.0718
▁sats	-10.0719
klubben	-10.0719
møll	-10.0719
▁utstyr	-10.0736
▁minutter	-10.0748
▁ønsker	-10.0752
▁vers	-10.0756
▁overgang	-10.0758
front	-10.0797
imot	-10.0798
24	-10.081
▁administrativ	-10.0813
▁publikum	-10.0813
▁kjærlighet	-10.0813
▁dialekt	-10.0813
▁major	-10.0813
▁län	-10.0813
▁jacob	-10.0813
▁magnus	-10.0814
komité	-10.0814
▁1921	-10.0815
▁1904	-10.0815
5	-10.0818
▁feire	-10.082
eksamen	-10.0823
▁fv	-10.0825
▁deltaker	-10.0828
▁agder	-10.0832
▁dommer	-10.084
▁anna	-10.0842
▁utenlandsk	-10.0842
▁skapte	-10.0848
▁streng	-10.0852
▁france	-10.0859
▁zu	-10.0864
▁intern	-10.0881
norsk	-10.0881
kka	-10.0888
▁maler	-10.0894
▁tilfeller	-10.0897
▁begrenset	-10.0901
tiker	-10.0912
▁shan	-10.0922
▁lese	-10.0935
▁gjeng	-10.095
▁cand	-10.095
skifte	-10.0952
lid	-10.0957
▁nedbør	-10.096
konferanse	-10.096
▁hemmelig	-10.096
▁islam	-10.0961
▁1916	-10.0962
ingeniør	-10.0962
▁turneringen	-10.0962
▁1908	-10.0962
▁bud	-10.0967
▁award	-10.0969
▁ansvarlig	-10.0978
▁33	-10.0988
ön	-10.0994
▁deltatt	-10.0997
▁hindre	-10.0998
▁stål	-10.0999
▁anton	-10.1016
▁bredt	-10.1022
dømmet	-10.1034
firma	-10.1034
▁45	-10.1042
▁up	-10.1046
▁cd	-10.1066
kontor	-10.1072
kampen	-10.1089
bygning	-10.1092
▁ankom	-10.1096
forbindelse	-10.1097
▁bånd	-10.11
▁tang	-10.1104
▁krevde	-10.1109
▁anerkjent	-10.1109
▁terror	-10.1109
▁beholdt	-10.111
▁1935	-10.1112
▁sverd	-10.1113
▁press	-10.1113
▁dalen	-10.1114
▁stabil	-10.1115
vatnet	-10.1118
▁markert	-10.1119
▁sammenlagt	-10.1124
▁1600	-10.1126
▁filosofi	-10.1128
tekt	-10.1133
▁formen	-10.1133
▁mah	-10.1137
parken	-10.1157
dyktig	-10.116
▁tau	-10.1168
▁grunnla	-10.1172
▁verker	-10.1176
▁stilte	-10.1178
09	-10.1183
▁mary	-10.1185
zy	-10.1186
▁sim	-10.1191
▁utenriks	-10.1191
▁overflate	-10.1197
▁bydel	-10.1218
gin	-10.1219
▁vinteren	-10.1237
▁sete	-10.1243
eide	-10.1245
konkurranse	-10.125
ova	-10.125
▁kalk	-10.1253
▁offisielt	-10.1261
▁erobret	-10.1261
▁smith	-10.1261
rådgiver	-10.1261
▁oberst	-10.1261
▁elleve	-10.1262
▁1922	-10.1262
▁otto	-10.1262
▁1929	-10.1263
yang	-10.1263
▁elektro	-10.1264
▁meldt	-10.1266
jern	-10.1279
trukket	-10.1298
▁brand	-10.1303
▁sko	-10.1306
▁kalle	-10.1307
misjon	-10.1308
ifisert	-10.1317
▁unngå	-10.1318
▁sær	-10.1319
▁statlig	-10.1321
▁uttale	-10.1331
mula	-10.1335
▁makten	-10.1343
45	-10.1343
▁innhold	-10.1347
▁sw	-10.1348
zon	-10.1349
▁fylket	-10.1359
▁starten	-10.136
▁ferd	-10.136
▁fn	-10.1366
▁gui	-10.1387
▁landsby	-10.1388
▁stamme	-10.1389
▁ark	-10.139
trå	-10.1392
kjør	-10.1393
speil	-10.1397
▁34	-10.14
▁avtale	-10.1405
▁damp	-10.1406
politisk	-10.1407
▁kurs	-10.141
vogn	-10.1412
▁kvalifisering	-10.1415
▁tilhørende	-10.1415
▁vulkan	-10.1415
▁edvard	-10.1415
▁riktig	-10.1415
▁stadion	-10.1415
▁tidsskrift	-10.1416
▁1926	-10.1416
▁1905	-10.1417
vendt	-10.1417
▁endringer	-10.1418
stjerne	-10.1419
▁svar	-10.1422
▁alpin	-10.1423
▁munk	-10.1433
▁hunnen	-10.1433
▁sunn	-10.1433
▁resultatet	-10.1435
▁tyskerne	-10.1441
bevegelsen	-10.1446
rute	-10.1447
▁cho	-10.1456
▁bass	-10.1457
gro	-10.1457
▁petter	-10.1459
opptreden	-10.146
▁wien	-10.1462
▁will	-10.1471
▁frø	-10.1477
gram	-10.1477
▁nø	-10.1483
▁ånd	-10.1484
▁700	-10.1496
komst	-10.1499
ington	-10.1502
stasjonen	-10.1508
handel	-10.151
▁storm	-10.1513
▁thi	-10.1538
81	-10.1544
▁fyrst	-10.1556
▁romanen	-10.1567
myndighet	-10.1568
fortelling	-10.1569
▁drag	-10.1569
▁wei	-10.157
dynasti	-10.1571
▁washington	-10.1571
▁brensel	-10.1571
psykolog	-10.1571
▁invasjon	-10.1571
▁myndighetene	-10.1572
▁utnytte	-10.1572
▁håkon	-10.1572
▁anklage	-10.1573
▁1914	-10.1573
▁1937	-10.1573
kompani	-10.1576
▁hensyn	-10.1576
▁kai	-10.1577
sjø	-10.1577
▁hitler	-10.158
▁saint	-10.1585
28	-10.1586
soldat	-10.1586
▁avtalen	-10.1606
egne	-10.1608
▁modern	-10.1616
jord	-10.1617
▁håp	-10.1625
▁stig	-10.1627
29	-10.1631
▁lykke	-10.1633
sand	-10.164
legging	-10.164
rekke	-10.165
▁halvdel	-10.1651
▁unn	-10.1654
▁kjøl	-10.1654
gua	-10.1655
▁måten	-10.166
havn	-10.1667
lønn	-10.1671
32	-10.1673
mple	-10.1691
▁levert	-10.1695
▁penger	-10.1696
▁driv	-10.1696
▁bevegelsen	-10.1705
rakk	-10.1708
bru	-10.1712
▁rep	-10.1712
tekst	-10.1717
ligste	-10.1726
tittel	-10.1729
▁sportsutøver	-10.173
konstruksjon	-10.173
▁edderkopp	-10.173
▁ødelegge	-10.173
▁hendelser	-10.173
▁forsvant	-10.173
tysk	-10.173
▁oblast	-10.1731
▁referere	-10.1731
▁1931	-10.1731
▁1913	-10.1732
komiteen	-10.1732
▁erfaring	-10.1733
▁bortsett	-10.1733
▁melk	-10.1734
▁1910	-10.1734
kongress	-10.1736
▁arne	-10.1737
▁beskrivelse	-10.1742
▁forvingen	-10.1752
mmy	-10.1753
▁sag	-10.1763
▁andel	-10.1763
grensen	-10.1768
▁samarbeidet	-10.1779
▁samfunn	-10.1781
▁kommando	-10.1784
asjer	-10.1788
▁institusjon	-10.1792
onym	-10.1799
▁vekk	-10.1802
▁kapp	-10.183
84	-10.1831
▁tradisjonel	-10.1837
▁delstat	-10.1838
▁kjemisk	-10.1845
givelse	-10.1849
▁az	-10.1855
▁bygda	-10.1861
▁fante	-10.1876
▁bakke	-10.1876
▁cre	-10.1878
kommisjon	-10.1884
▁sovjet	-10.1887
hånd	-10.1891
▁okkupasjon	-10.1891
▁umiddelbar	-10.1891
▁negativ	-10.1891
▁vilhelm	-10.1891
▁bodø	-10.1891
▁kulturminne	-10.1891
høgskole	-10.1892
▁fungert	-10.1892
▁geografisk	-10.1892
▁arendal	-10.1892
▁signert	-10.1894
dommer	-10.1901
▁ekstra	-10.1906
▁økende	-10.1907
▁synlig	-10.1909
▁fjellene	-10.191
▁skadet	-10.1911
▁elver	-10.1918
▁betale	-10.1922
avtale	-10.1925
rygg	-10.1929
▁bidrag	-10.1931
▁verdensmester	-10.1931
▁søkt	-10.1935
▁hode	-10.1942
▁spir	-10.195
▁statue	-10.1959
runde	-10.1961
▁samfunnet	-10.1964
▁kode	-10.197
▁menighet	-10.1973
cl	-10.1975
▁dj	-10.1975
▁handle	-10.1981
▁tun	-10.1993
▁kommunal	-10.1993
▁bio	-10.1995
31	-10.1997
▁mini	-10.1998
▁tå	-10.2003
vold	-10.2004
▁stillingen	-10.2007
slutt	-10.2017
livet	-10.2019
▁skjold	-10.202
demokrat	-10.2022
▁bære	-10.2022
▁evne	-10.2026
pin	-10.2029
▁kap	-10.203
stille	-10.2041
▁fartøy	-10.2042
▁fødsel	-10.2055
▁guvernør	-10.2055
▁byprefekturet	-10.2055
▁ukraina	-10.2055
▁hensikt	-10.2055
▁regissert	-10.2055
styrke	-10.2056
▁befinne	-10.2056
slått	-10.2057
▁litterær	-10.2057
▁telemark	-10.2057
politikk	-10.2057
▁1917	-10.2057
▁planlagt	-10.2059
▁daniel	-10.2059
▁uttalt	-10.2064
▁tørr	-10.2066
▁leon	-10.2071
▁horn	-10.2076
▁team	-10.2078
▁trond	-10.2084
▁salme	-10.2085
▁slett	-10.2099
▁oppgi	-10.2099
▁river	-10.2105
▁snu	-10.211
▁jobber	-10.2118
korset	-10.2129
▁long	-10.2136
▁motstander	-10.2137
▁vedtatt	-10.2137
▁jag	-10.2138
kilde	-10.2153
▁kloster	-10.2157
betegnelse	-10.2158
▁stol	-10.219
▁max	-10.2197
vente	-10.2199
▁mono	-10.2201
▁platen	-10.2201
▁hamar	-10.2205
▁asteroide	-10.2221
▁eventuel	-10.2221
▁involvert	-10.2221
▁pasient	-10.2222
gymnas	-10.2222
▁jørgen	-10.2222
▁zealand	-10.2222
▁club	-10.2222
▁dollar	-10.2222
pedagog	-10.2222
▁doktorgrad	-10.2222
▁kristiansand	-10.2222
▁halvparten	-10.2223
▁antikken	-10.2226
▁eksport	-10.2228
▁oppsto	-10.223
▁hersker	-10.223
født	-10.223
▁føde	-10.2231
▁tyr	-10.2231
▁løsning	-10.2231
produkter	-10.2232
belte	-10.2239
▁mannskap	-10.2241
▁phil	-10.2248
▁jack	-10.2248
▁sagt	-10.2255
tagelse	-10.2261
▁kjemi	-10.227
▁hind	-10.2274
▁voksen	-10.2279
▁camp	-10.228
▁begynne	-10.229
▁qui	-10.2292
▁kongedømmet	-10.2296
▁samtid	-10.2304
▁dyrke	-10.2306
34	-10.231
▁elite	-10.2311
▁ønske	-10.2318
▁utstyrt	-10.232
følelse	-10.2323
▁laste	-10.2333
kreis	-10.2334
26	-10.2342
aktiv	-10.2343
ulf	-10.2345
▁mangle	-10.2346
▁regional	-10.2348
▁ytter	-10.2354
orden	-10.2369
▁byttet	-10.238
serie	-10.2385
▁kanalen	-10.2388
▁eksemplarer	-10.2391
▁konkurrere	-10.2391
▁oppmerksomhet	-10.2391
▁records	-10.2391
▁arrestert	-10.2391
▁juridisk	-10.2391
▁strekningen	-10.2391
▁redusere	-10.2391
▁angripe	-10.2391
▁mikro	-10.2391
▁sprint	-10.2391
▁fjernsyn	-10.2393
▁1911	-10.2393
▁foreslått	-10.2393
▁stortings	-10.2397
▁frykt	-10.2398
direktør	-10.2399
tunnel	-10.2399
amerikansk	-10.24
▁butikk	-10.2404
feld	-10.2409
▁festningen	-10.2415
▁isteden	-10.2419
▁lønn	-10.2421
▁skjær	-10.2422
▁metro	-10.2425
▁antatt	-10.2425
▁planter	-10.2436
▁organisasjoner	-10.2437
▁kyr	-10.2439
▁kok	-10.2473
▁mangler	-10.2474
▁insekter	-10.2486
anda	-10.2492
▁skjø	-10.2498
▁grunnlov	-10.2503
kab	-10.2519
▁skiftet	-10.2521
gler	-10.2521
▁jø	-10.2542
bol	-10.255
handler	-10.2552
в	-10.2562
▁middelalder	-10.2562
løytnant	-10.2563
▁portugisisk	-10.2563
▁eventyr	-10.2563
▁vesentlig	-10.2563
▁jakob	-10.2563
▁edward	-10.2565
▁oppnå	-10.2566
▁east	-10.257
▁ull	-10.2572
▁mandat	-10.2572
bånd	-10.2574
produsent	-10.2574
miljø	-10.2575
utvikling	-10.2575
▁vill	-10.2575
angrep	-10.2577
vitsj	-10.2577
▁mobil	-10.2578
▁europe	-10.2585
▁sammenligne	-10.2586
mengde	-10.2586
setting	-10.2587
▁styrte	-10.2588
▁uavhengighet	-10.2601
▁mottatt	-10.2609
▁hil	-10.2609
▁utbygging	-10.2614
given	-10.2619
▁populært	-10.2624
brakte	-10.2625
▁stam	-10.2636
▁andreas	-10.2647
▁bydelen	-10.2651
▁festning	-10.2653
akademiet	-10.2656
▁skjel	-10.2659
▁tilfelle	-10.266
▁frihet	-10.267
▁hellig	-10.2671
▁play	-10.2672
brutt	-10.2674
▁forble	-10.2676
▁landbruks	-10.2684
▁cy	-10.2685
▁lam	-10.269
▁steve	-10.2702
▁omfattet	-10.2706
iansk	-10.2711
▁hem	-10.2712
▁parken	-10.2729
▁antagelig	-10.2739
▁ludvig	-10.2739
▁victoria	-10.2739
▁county	-10.2739
▁gregor	-10.2739
▁ekstrem	-10.2739
▁flyktet	-10.2739
▁utmerkelse	-10.274
▁studere	-10.2741
▁1909	-10.2741
▁operatør	-10.2741
▁blomster	-10.2741
▁skarp	-10.2742
▁olsen	-10.2742
▁1915	-10.2742
▁utgivelsen	-10.2743
vandring	-10.2743
▁luther	-10.2744
▁pensjon	-10.2751
▁reaksjon	-10.2752
temperatur	-10.2753
▁tredjeplass	-10.2755
effekt	-10.2755
▁arena	-10.2757
ische	-10.2759
▁mynt	-10.2762
styrken	-10.2763
▁ernst	-10.2768
▁arrangement	-10.2779
botn	-10.2779
▁kino	-10.2782
styrt	-10.2786
▁statsråd	-10.2787
formasjon	-10.2793
vannet	-10.28
▁allianse	-10.2803
▁kritiker	-10.2815
▁angi	-10.2816
▁sekunder	-10.2821
▁sikkerhets	-10.2833
bal	-10.2837
▁rand	-10.2852
▁opplag	-10.2864
▁lukke	-10.2874
hopp	-10.2876
▁bull	-10.2884
▁hull	-10.2886
▁cra	-10.2887
▁strømme	-10.2891
flokk	-10.2904
pat	-10.2909
▁dir	-10.291
▁hovedkvarter	-10.2917
▁milliarder	-10.2917
▁akershus	-10.2917
▁utbredelse	-10.2917
▁grønland	-10.2917
▁forekommer	-10.2917
▁ulykke	-10.2918
▁starter	-10.2919
▁forklare	-10.292
▁vannkraftverk	-10.2921
▁etappe	-10.2921
▁philip	-10.2922
▁reserve	-10.2924
▁kjell	-10.2932
profil	-10.2933
bygningen	-10.294
▁foreningen	-10.2958
fartøy	-10.2967
▁bøy	-10.297
▁tann	-10.2971
forsamlingen	-10.2984
▁rod	-10.2988
ward	-10.2995
▁ost	-10.3005
▁ansvar	-10.3009
uro	-10.3023
▁skinn	-10.3026
▁sco	-10.3028
blomst	-10.3031
▁troms	-10.3041
▁vegg	-10.3049
hild	-10.3052
dannelse	-10.3052
▁bytte	-10.3058
▁fry	-10.3061
▁saga	-10.3081
▁vokal	-10.3088
▁messe	-10.3089
ç	-10.3099
▁etablering	-10.3099
▁individuell	-10.3099
▁science	-10.3099
ł	-10.3099
▁innebærer	-10.3099
▁foregår	-10.3099
▁terreng	-10.3099
▁mangel	-10.3099
▁tyrkisk	-10.31
▁definert	-10.31
▁yngst	-10.31
▁etterfølger	-10.3102
▁skjønn	-10.3105
▁kapell	-10.3106
▁lake	-10.3106
▁wall	-10.3111
øvelse	-10.3117
▁handlingen	-10.312
wald	-10.3123
lé	-10.313
▁vogn	-10.313
▁korn	-10.3138
typen	-10.314
▁rob	-10.3155
skyting	-10.3157
ania	-10.3159
▁tiår	-10.3182
masse	-10.3182
▁demokratisk	-10.3188
▁ekte	-10.3191
▁parlamentet	-10.3194
▁hul	-10.3209
▁katolsk	-10.3212
▁handler	-10.3213
▁virksomheten	-10.3215
▁vingene	-10.3217
▁chile	-10.3219
▁vg	-10.3221
▁roll	-10.3226
▁virket	-10.323
▁fjernet	-10.3242
▁buk	-10.3251
▁fase	-10.3251
melding	-10.3258
▁mord	-10.3274
plante	-10.3278
ledet	-10.328
▁vietnam	-10.3284
▁anerkjenne	-10.3284
▁friedrich	-10.3284
▁helsingfors	-10.3284
▁innbyggertall	-10.3284
▁engasjert	-10.3284
▁service	-10.3284
▁radikal	-10.3285
▁drammen	-10.3285
▁frivillig	-10.3285
▁romsdal	-10.3286
▁monark	-10.3286
▁nettverk	-10.3286
▁programleder	-10.3287
▁1923	-10.3287
▁1907	-10.3287
▁forbudt	-10.3289
▁hjerne	-10.329
▁varierer	-10.3292
▁kristiania	-10.3295
▁1890	-10.3307
måte	-10.332
▁comp	-10.3323
▁muligens	-10.3325
komedie	-10.3326
▁1850	-10.333
▁human	-10.3341
▁myk	-10.3346
fø	-10.3347
▁tilpasse	-10.3352
▁gruppa	-10.3362
▁signal	-10.3365
▁opptre	-10.338
fell	-10.3384
▁opptak	-10.3403
svømme	-10.3411
▁kulturell	-10.3424
▁flytte	-10.343
▁nevne	-10.343
wan	-10.3433
▁domin	-10.3438
▁ulik	-10.3447
▁villa	-10.3454
▁flåte	-10.3459
▁gla	-10.3463
▁definisjon	-10.3473
▁afghanistan	-10.3473
▁amsterdam	-10.3473
▁astronom	-10.3473
▁brødrene	-10.3473
▁respekt	-10.3473
▁tabellen	-10.3473
▁kommersiell	-10.3473
traktaten	-10.3473
▁inngår	-10.3474
▁manager	-10.3475
▁klokken	-10.3475
▁dahl	-10.3478
▁alfred	-10.3479
▁tronen	-10.3482
gud	-10.3487
syre	-10.3487
▁kil	-10.3491
▁1899	-10.3493
▁grov	-10.3493
▁sankt	-10.3514
fyr	-10.3517
▁bratt	-10.3518
nummer	-10.3518
akker	-10.352
▁fortalt	-10.3522
▁legend	-10.3529
▁erstatte	-10.3533
▁nød	-10.3535
▁alf	-10.3546
▁medaljer	-10.3551
▁maleri	-10.3554
▁medisinsk	-10.3583
▁sikkerhet	-10.3583
▁motta	-10.3588
▁museet	-10.359
base	-10.3603
para	-10.3619
▁medisin	-10.3624
▁kolonien	-10.3634
▁utelukke	-10.3665
▁digital	-10.3665
▁tyrkia	-10.3665
▁kombinasjon	-10.3665
▁forårsake	-10.3666
individ	-10.3666
▁bakvingen	-10.3666
▁definere	-10.3667
konvensjon	-10.3667
forsyning	-10.3668
▁sjette	-10.3669
▁hovedkontor	-10.3671
brua	-10.3671
▁prix	-10.3677
▁show	-10.3678
bukta	-10.3678
▁kommunestyre	-10.3678
▁tynn	-10.3691
▁simon	-10.3695
▁tvang	-10.3698
▁vakt	-10.3699
▁bryte	-10.3705
odden	-10.371
▁lord	-10.3714
▁disk	-10.3745
▁klosteret	-10.3748
istan	-10.3752
bury	-10.3752
▁medaljen	-10.3768
▁ref	-10.3773
▁bjør	-10.3776
▁ligne	-10.3793
▁uttrykket	-10.3818
▁900	-10.3819
▁paus	-10.382
▁israelsk	-10.3826
▁menneskelig	-10.3848
▁verb	-10.3854
▁mcc	-10.3854
friidrettsutøver	-10.3861
▁elisabeth	-10.3861
▁innspilt	-10.3861
▁minoritet	-10.3861
▁antarktis	-10.3862
▁fenomen	-10.3862
▁ungarsk	-10.3862
▁opplæring	-10.3862
▁forbedre	-10.3862
▁opplysning	-10.3862
ström	-10.3862
▁ein	-10.3862
▁adresse	-10.3863
▁sverre	-10.3863
▁stedsnavn	-10.3864
▁trenger	-10.3865
▁skjønt	-10.3865
▁2018	-10.3866
▁jøder	-10.3869
▁young	-10.3878
skij	-10.3883
▁kåret	-10.3885
▁indianer	-10.3887
▁demningen	-10.3891
▁hørt	-10.3891
oide	-10.3894
▁sveitsisk	-10.3894
problem	-10.3897
▁hannen	-10.3897
▁besøkte	-10.3912
drakt	-10.3926
▁road	-10.3926
▁prinsipp	-10.3929
▁aar	-10.393
▁unna	-10.393
▁laks	-10.393
▁steg	-10.3931
basert	-10.3934
▁american	-10.3935
▁ansvaret	-10.3939
bød	-10.395
▁lyn	-10.3957
▁administrasjon	-10.3988
▁gö	-10.3988
awa	-10.3996
22	-10.4008
▁wil	-10.4031
arkiv	-10.4035
▁sving	-10.4036
▁krok	-10.4052
▁drap	-10.4055
▁fett	-10.4057
▁australsk	-10.4061
▁barcelona	-10.4061
▁konkurrert	-10.4061
▁lillehammer	-10.4061
kollektiv	-10.4062
▁referanse	-10.4062
apparat	-10.4063
▁oppløst	-10.4063
▁gustav	-10.4063
▁internett	-10.4063
▁kalde	-10.4064
▁arbeiderpartiet	-10.4064
▁term	-10.4064
▁1927	-10.4064
▁finnmark	-10.4064
▁slu	-10.4066
▁portrett	-10.4069
▁street	-10.407
kapital	-10.4071
kortet	-10.4075
flåten	-10.4077
time	-10.4087
▁bow	-10.4087
regjering	-10.4101
▁ferge	-10.4106
polis	-10.4107
▁rio	-10.4118
ān	-10.4132
▁rettigheter	-10.4134
▁fotballklubb	-10.4136
▁høst	-10.4138
▁skifte	-10.4141
drev	-10.4146
hei	-10.4149
▁verd	-10.4151
▁out	-10.4164
listen	-10.417
▁frakte	-10.4172
støtte	-10.4174
7	-10.4197
sundet	-10.4216
▁inge	-10.4241
▁kval	-10.4264
belteasteroide	-10.4266
▁regissør	-10.4266
osfæren	-10.4266
▁hordaland	-10.4266
▁ressurs	-10.4266
▁vestfold	-10.4266
▁nemlig	-10.4266
▁utseende	-10.4266
▁valuta	-10.4266
▁seksuell	-10.4266
▁debutalbum	-10.4266
▁beregne	-10.4267
mønster	-10.4268
▁estland	-10.4268
▁dverg	-10.427
▁omkom	-10.4273
▁hvile	-10.4274
▁skutt	-10.4279
▁forsterke	-10.4279
skrevet	-10.4297
bekk	-10.4299
▁lettere	-10.4306
skjold	-10.4309
spinner	-10.4309
▁audi	-10.4316
▁personen	-10.4318
▁fru	-10.4327
▁adam	-10.433
▁ennå	-10.4333
kasse	-10.434
▁blande	-10.4356
bredden	-10.437
▁wu	-10.4372
▁beskrev	-10.4403
▁hagen	-10.4404
▁utgaven	-10.4408
▁fulgt	-10.443
▁skuespill	-10.4434
▁och	-10.4442
versjon	-10.4445
▁skyte	-10.445
olje	-10.4452
▁sikker	-10.4457
▁invest	-10.4471
▁1901	-10.4474
▁1903	-10.4474
▁aleksander	-10.4474
▁artilleri	-10.4474
▁shanghai	-10.4474
▁trommeslager	-10.4474
▁øyeblikk	-10.4474
▁nøyaktig	-10.4474
▁texas	-10.4474
▁fjær	-10.4474
▁gunnar	-10.4474
▁reklame	-10.4474
▁tilskuer	-10.4474
▁multi	-10.4474
▁tømmer	-10.4474
▁innlemme	-10.4475
▁nøkkel	-10.4475
▁godkjent	-10.4475
▁1906	-10.4477
▁town	-10.4477
▁oppgaver	-10.4478
▁gravlagt	-10.4478
▁tvunge	-10.4483
▁kreert	-10.4483
▁scott	-10.4483
▁bob	-10.4486
▁tradisjonen	-10.449
▁1200	-10.449
▁fasci	-10.449
▁cri	-10.4496
▁tempel	-10.4499
▁1300	-10.45
roman	-10.4506
▁registr	-10.4506
ity	-10.4509
▁fotograf	-10.4513
▁falk	-10.4517
▁gradvis	-10.4522
funksjon	-10.4522
finalen	-10.4525
▁seire	-10.4526
▁tjenestegjor	-10.4528
▁pont	-10.4547
▁brede	-10.4565
▁eik	-10.4567
▁marinen	-10.4604
▁ledelsen	-10.4611
▁biografi	-10.4617
ifikasjon	-10.4658
▁vindu	-10.4667
▁250	-10.467
▁skapt	-10.4673
▁middelsstor	-10.4687
▁katedral	-10.4687
▁returnert	-10.4687
▁monument	-10.4687
▁rektor	-10.4687
▁eksisterer	-10.4687
▁bøkene	-10.4687
▁brigade	-10.4687
▁autonom	-10.4688
▁stoppet	-10.4688
▁brown	-10.4688
mekanisme	-10.4689
▁oldtiden	-10.469
▁myndigheter	-10.469
▁lidelse	-10.4693
▁opplevd	-10.4693
▁ordnet	-10.4694
▁programmer	-10.4696
▁høyesterett	-10.4698
▁opptrådt	-10.4698
▁operativ	-10.4711
▁helst	-10.4711
▁kara	-10.4717
▁ungdomsskole	-10.472
▁persisk	-10.4723
vekst	-10.4743
kanalen	-10.4746
modell	-10.4749
bøker	-10.4751
stamme	-10.4762
▁synge	-10.4772
utenriksminister	-10.4786
▁inneba	-10.4795
alistisk	-10.4799
▁rester	-10.4804
8	-10.4814
▁hammer	-10.4818
▁tykk	-10.4827
▁angel	-10.4831
samband	-10.4847
fattet	-10.4851
stav	-10.4854
▁bispe	-10.4898
▁gjennomsnittlig	-10.4904
▁svalbard	-10.4904
▁manuskript	-10.4904
▁administrere	-10.4904
▁company	-10.4904
▁kobber	-10.4905
▁prinsesse	-10.4905
▁konsept	-10.4906
▁import	-10.4906
▁røyk	-10.4907
▁døgn	-10.4907
▁smelte	-10.4907
▁generell	-10.4907
aceae	-10.4907
▁forvaltnings	-10.4908
▁house	-10.4908
▁moderat	-10.4913
▁german	-10.4917
▁nederlag	-10.492
▁neu	-10.4921
▁ruten	-10.4931
ère	-10.4945
▁gross	-10.4956
talende	-10.4962
materiale	-10.4962
bølge	-10.4963
kreft	-10.4963
▁terri	-10.4966
kurs	-10.497
fond	-10.4972
▁wales	-10.4975
kjent	-10.4979
▁redde	-10.4983
▁komposisjon	-10.4984
uksjon	-10.4992
▁yu	-10.5003
utgivelse	-10.5018
▁semifinalen	-10.5023
start	-10.5048
familie	-10.5053
▁etnisk	-10.5058
▁xii	-10.5064
kamerat	-10.508
▁chu	-10.5104
agon	-10.5112
▁akseptert	-10.5126
▁antwerpen	-10.5126
▁münchen	-10.5126
vassdraget	-10.5126
▁kommandør	-10.5126
▁innbyggerne	-10.5126
▁stafett	-10.5126
▁dagbladet	-10.5126
▁fiolin	-10.5126
▁uvanlig	-10.5126
▁besluttet	-10.5126
▁slippe	-10.5126
▁usikker	-10.5126
▁hydro	-10.5126
▁mektig	-10.5126
▁mekanisk	-10.5127
▁oppstår	-10.5127
▁studioalbum	-10.5127
▁unntatt	-10.5128
▁tjue	-10.5128
▁detalj	-10.513
▁coll	-10.5134
▁fredrikstad	-10.5135
▁britis	-10.5139
▁byggingen	-10.5139
▁sikte	-10.5147
▁1897	-10.515
bombe	-10.515
▁undervist	-10.5155
▁christiania	-10.5157
▁østover	-10.5168
▁sønd	-10.5168
næs	-10.5173
dahl	-10.5179
kjøring	-10.5189
hjelp	-10.519
▁roger	-10.52
lignende	-10.5201
▁kjede	-10.5207
årig	-10.5208
teori	-10.5213
▁thu	-10.5214
▁teologi	-10.5222
redskap	-10.5233
▁bell	-10.5247
▁dominert	-10.5256
▁drei	-10.5258
kryss	-10.5261
▁plei	-10.5262
prøv	-10.5264
▁jona	-10.5277
trener	-10.5287
▁trekant	-10.5289
▁bestemme	-10.5295
▁intens	-10.531
head	-10.5337
▁hum	-10.5352
▁fakultet	-10.5354
▁chicago	-10.5354
▁dirigent	-10.5354
▁kriminal	-10.5354
▁adolf	-10.5354
▁nikola	-10.5354
tolkning	-10.5354
regulering	-10.5355
▁firmaet	-10.5355
▁karbon	-10.5356
▁analyser	-10.5356
▁redaksjon	-10.5357
▁wolf	-10.5357
▁lisens	-10.5364
▁michel	-10.5367
▁gudinne	-10.5372
▁møre	-10.5393
▁koreansk	-10.5403
▁variert	-10.5419
transport	-10.5422
▁motsatt	-10.5432
▁praktisk	-10.5438
tårn	-10.5452
▁koste	-10.5454
sosialistisk	-10.5458
▁arkeologisk	-10.5464
▁hå	-10.5468
▁palass	-10.5477
ittisk	-10.548
▁avslutte	-10.55
trio	-10.5516
formann	-10.5557
▁størst	-10.5568
▁sho	-10.5576
▁flest	-10.5582
▁låtskriver	-10.5586
▁alexander	-10.5586
▁christoph	-10.5586
▁etablere	-10.5586
▁forhindre	-10.5586
▁kommunistparti	-10.5586
▁hendelsen	-10.5586
▁systematisk	-10.5587
▁tilsvarer	-10.5587
▁fjordane	-10.5587
▁utgravning	-10.5587
▁naturreservat	-10.5587
materiell	-10.5587
▁generasjon	-10.5587
▁forklaring	-10.5587
▁naturgass	-10.5587
▁nedenfor	-10.5588
▁sykkel	-10.5593
▁eiendommen	-10.5594
▁interessert	-10.5595
▁holdning	-10.5596
▁allmenn	-10.5596
▁gullmedalje	-10.5597
▁skuld	-10.5597
▁fremført	-10.5599
▁landslaget	-10.5603
▁rykte	-10.5604
▁drepe	-10.5607
▁plast	-10.5612
▁1848	-10.5614
▁inndelt	-10.5619
▁ektemann	-10.5627
lange	-10.563
▁tidligst	-10.5644
aldt	-10.5647
representant	-10.5657
struktur	-10.5659
teknologi	-10.566
museum	-10.566
konsert	-10.566
skyld	-10.5668
▁løfte	-10.5676
▁glad	-10.5685
▁skall	-10.5691
▁innlede	-10.5704
▁kvit	-10.571
▁web	-10.5738
▁hekk	-10.5749
▁santo	-10.5756
▁innvie	-10.5757
▁larve	-10.5767
▁oppleve	-10.5776
enhver	-10.5787
▁rosa	-10.5791
▁symfoni	-10.5824
▁jerusalem	-10.5824
▁nowiki	-10.5824
▁omdøpt	-10.5824
▁portugal	-10.5824
▁kostnad	-10.5824
▁pakistan	-10.5824
▁embets	-10.5824
▁florida	-10.5824
▁ovenfor	-10.5824
▁sigurd	-10.5824
førsel	-10.5824
bransjen	-10.5824
▁rolf	-10.5825
▁overraske	-10.5825
▁stengt	-10.5826
▁bbc	-10.5826
▁great	-10.5826
▁midlertidig	-10.5829
▁drikke	-10.5833
▁holstein	-10.5834
▁smak	-10.5835
▁lokalisert	-10.5837
▁utvide	-10.584
▁koble	-10.5846
karriere	-10.5849
▁romerne	-10.5852
▁slaver	-10.5852
▁traff	-10.5861
▁johansen	-10.5862
▁beskyttelse	-10.5863
▁oppstod	-10.5864
▁utløp	-10.5865
▁isbre	-10.5869
manuel	-10.5886
celler	-10.5888
historisk	-10.5903
chester	-10.5917
▁landbruk	-10.5931
forretning	-10.5933
▁mannlig	-10.5938
0	-10.5947
▁medalje	-10.5971
▁begrense	-10.5984
▁opprettelse	-10.5991
▁fremmed	-10.6001
fred	-10.6005
▁from	-10.6021
light	-10.6027
▁gli	-10.6028
teater	-10.6038
alisme	-10.6053
▁jomfru	-10.6068
▁katolikk	-10.6068
▁sjeldne	-10.6068
▁særskilt	-10.6068
▁tønsberg	-10.6068
▁1902	-10.6068
▁færøyene	-10.6068
▁sebasti	-10.6068
▁oppretthold	-10.6068
▁lyktes	-10.6068
▁risiko	-10.6068
orientert	-10.6068
▁henrettet	-10.6068
▁hyppig	-10.6068
▁beordre	-10.6069
▁beskjed	-10.6069
▁tropper	-10.6069
▁biologisk	-10.6069
▁elektronisk	-10.6069
▁global	-10.6069
▁søndag	-10.6071
▁akademisk	-10.6072
▁molde	-10.6073
▁divers	-10.6078
▁fastlandet	-10.6079
▁fortellingen	-10.6086
▁1884	-10.6087
▁regler	-10.6093
▁amerikaner	-10.6096
▁skrå	-10.6106
▁1860	-10.6106
▁diplomat	-10.6118
sagn	-10.6121
▁fusjon	-10.6122
▁krim	-10.6156
▁dramatisk	-10.6163
▁ytterst	-10.6164
▁million	-10.6174
▁urban	-10.6179
▁lyng	-10.6187
bryter	-10.6208
▁skjerm	-10.6208
strup	-10.6217
formede	-10.6243
▁wild	-10.625
▁prakt	-10.6258
▁opposisjon	-10.6273
reformen	-10.6274
▁forlate	-10.6304
▁luxembourg	-10.6318
▁påbegynt	-10.6318
▁society	-10.6318
▁vedlikehold	-10.6318
▁country	-10.6318
▁innendørs	-10.6318
▁konstruert	-10.6318
▁fengsle	-10.6318
frekvens	-10.6318
▁kritisert	-10.6318
▁josef	-10.6318
▁presentert	-10.6318
▁bærum	-10.6318
▁senior	-10.6319
▁lojal	-10.6319
▁føderal	-10.6319
▁konsekvens	-10.6319
▁verdensrekord	-10.632
▁telefon	-10.632
væske	-10.6321
bestemmelse	-10.6321
stipend	-10.6321
▁britene	-10.6322
▁vakre	-10.6323
▁wilson	-10.6324
▁rytter	-10.6332
▁humor	-10.6335
▁rival	-10.6336
▁anlagt	-10.6336
▁heart	-10.6343
▁ddr	-10.6345
▁1892	-10.6346
▁för	-10.6347
▁morten	-10.6353
▁with	-10.6354
▁oval	-10.6354
▁brent	-10.6357
forestilling	-10.6373
▁vennskap	-10.6393
▁poli	-10.6393
distrikt	-10.6406
▁utvidelse	-10.6409
litteratur	-10.641
nettverk	-10.6414
▁strategisk	-10.6416
cheng	-10.6449
phy	-10.6455
regimet	-10.6504
sidig	-10.6506
▁ulv	-10.6537
▁tenke	-10.6545
løft	-10.6551
▁cuba	-10.6557
vang	-10.6563
▁kunstig	-10.6569
vurder	-10.6572
observasjon	-10.6574
▁argentina	-10.6575
▁cambridge	-10.6575
▁elizabeth	-10.6575
▁kristendommen	-10.6575
▁lincoln	-10.6575
▁matematikk	-10.6575
▁prøyssisk	-10.6575
▁restaurant	-10.6575
budsjett	-10.6575
▁xiàn	-10.6575
▁argument	-10.6575
▁permanent	-10.6575
▁midtøsten	-10.6575
▁tillatelse	-10.6575
▁lagkonkurransen	-10.6575
▁hebraisk	-10.6575
▁kjennetegn	-10.6575
▁kontrast	-10.6575
▁betydningsfull	-10.6575
▁splitte	-10.6575
▁belgisk	-10.6575
▁tokyo	-10.6575
▁vegetasjon	-10.6575
▁fangst	-10.6576
▁tallrike	-10.6577
▁forståelse	-10.6577
▁francisco	-10.6577
▁svein	-10.6578
на	-10.6578
▁øvelsen	-10.6579
▁programvare	-10.658
▁tilfeldig	-10.6587
▁kunstløp	-10.6588
▁1877	-10.6598
▁1896	-10.66
▁1895	-10.6601
▁krise	-10.6605
▁basis	-10.6606
▁nordmenn	-10.661
▁johnson	-10.6612
▁smerte	-10.6613
søyle	-10.6619
▁romania	-10.662
▁server	-10.6626
▁polar	-10.6628
zza	-10.6629
▁heav	-10.6632
▁lært	-10.6634
▁lenin	-10.6645
▁karakteristisk	-10.6648
gass	-10.6659
▁histori	-10.6672
institutt	-10.6674
▁furu	-10.6676
▁kunde	-10.6708
▁føle	-10.6713
▁utkom	-10.6726
▁kontinent	-10.6796
bragt	-10.6804
▁hjørne	-10.6838
▁koalisjon	-10.6838
▁kronprins	-10.6838
▁patriark	-10.6838
▁vingespenn	-10.6838
▁væpne	-10.6838
▁eksisterende	-10.6838
▁geometri	-10.6838
▁preussen	-10.6838
▁ansikt	-10.6838
▁alexandr	-10.6838
▁selvmord	-10.6838
▁arthur	-10.6838
▁utpekt	-10.6838
▁beleiring	-10.6838
▁contest	-10.6838
▁kjørte	-10.6838
▁herunder	-10.6839
▁anvende	-10.6839
▁power	-10.684
▁konservative	-10.684
terminal	-10.684
▁disney	-10.6841
▁hydrogen	-10.6842
▁ideologi	-10.6842
▁distanse	-10.6842
▁kongsberg	-10.6844
▁down	-10.6845
▁mongolia	-10.6845
▁debatt	-10.6845
▁variasjon	-10.6846
▁grep	-10.6848
▁røtter	-10.6849
▁sending	-10.6849
▁heinric	-10.6853
▁georgia	-10.6857
scene	-10.6858
▁1889	-10.6863
▁1837	-10.6867
▁nerve	-10.6892
▁departement	-10.6899
sdatter	-10.692
tank	-10.693
▁oppfatte	-10.6933
medlemmer	-10.6953
▁insekt	-10.6958
▁minutt	-10.6958
stokk	-10.6961
kall	-10.6961
hår	-10.698
▁kosm	-10.7031
▁sideelv	-10.7064
forvaltning	-10.7106
▁inspirasjon	-10.7108
▁evolusjon	-10.7108
▁hollywood	-10.7108
▁liverpool	-10.7108
▁okkupert	-10.7108
▁sarpsborg	-10.7108
▁tilsynelaten	-10.7108
▁tsjekkoslovakia	-10.7108
▁virginia	-10.7108
▁automatisk	-10.7108
▁buskerud	-10.7108
▁intervju	-10.7108
▁invitert	-10.7108
▁fysikk	-10.7108
▁tilsammen	-10.7108
▁uansett	-10.7108
▁rogaland	-10.7108
▁lørdag	-10.7108
▁aktuell	-10.7108
▁avgjørende	-10.7108
▁oppheve	-10.7109
▁senterpartiet	-10.7109
▁bayern	-10.711
▁oppfølger	-10.7111
▁keltisk	-10.7113
▁jackson	-10.7115
▁onkel	-10.7117
▁manchester	-10.7118
▁bystyre	-10.7121
▁einar	-10.7121
▁night	-10.7126
▁takket	-10.7126
▁talent	-10.7129
▁eirik	-10.713
▁slektning	-10.7131
▁gjennombrudd	-10.7133
▁1887	-10.7133
▁nederst	-10.7135
▁bevisst	-10.7138
▁avansert	-10.7141
ship	-10.7148
▁jernbanestasjon	-10.7156
▁beholde	-10.7171
▁næringsliv	-10.7178
▁kupp	-10.7183
▁muslimsk	-10.7218
tavle	-10.722
revolusjonen	-10.7222
kledd	-10.7223
middag	-10.7225
rekord	-10.7237
trådt	-10.7242
utvalg	-10.7242
skaffe	-10.7244
▁greid	-10.7245
▁utarbeide	-10.7249
rsdag	-10.7263
forandring	-10.7263
▁demokrati	-10.7305
vidt	-10.7342
▁kirkegård	-10.7345
▁academy	-10.7386
▁admiral	-10.7386
▁infanteri	-10.7386
▁parallelt	-10.7386
▁prefektur	-10.7386
▁satellitt	-10.7386
▁1883	-10.7386
▁fasettøyne	-10.7386
▁kommandant	-10.7386
▁komponert	-10.7386
▁oxford	-10.7386
▁frigjøring	-10.7386
veksling	-10.7386
▁canadisk	-10.7386
▁kommentar	-10.7386
▁kjøretøy	-10.7386
▁protestantisk	-10.7386
▁erobring	-10.7386
▁golf	-10.7386
▁andré	-10.7386
▁ålesund	-10.7386
▁seinere	-10.7387
▁protein	-10.7387
▁varierende	-10.7387
alfabet	-10.7387
▁trodde	-10.7387
▁dynam	-10.7387
▁poesi	-10.7388
▁bensin	-10.7388
▁kaffe	-10.7388
▁betong	-10.7388
▁svekke	-10.7391
▁tretti	-10.7392
▁håndverk	-10.7394
▁vandre	-10.7394
vesenet	-10.7394
▁åpningen	-10.7398
▁metoden	-10.7402
▁1881	-10.7408
▁østlandet	-10.7411
▁1400	-10.7415
analyse	-10.7419
▁kontinental	-10.743
basseng	-10.7447
▁formell	-10.7454
programmet	-10.7511
museet	-10.7515
radio	-10.7515
▁senest	-10.7516
▁telegraf	-10.7519
▁låten	-10.7537
▁blind	-10.7553
vervet	-10.7566
▁teologisk	-10.7568
wei	-10.7578
sjö	-10.7591
▁egyptisk	-10.7596
▁klage	-10.7622
▁filosofisk	-10.7638
veps	-10.7644
▁mongol	-10.7666
▁psyko	-10.7671
▁angelsaksisk	-10.7671
▁arrangeres	-10.7671
▁forøvrig	-10.7671
▁heidelberg	-10.7671
▁rekrutt	-10.7671
▁utslipp	-10.7671
▁windows	-10.7671
▁resultert	-10.7671
▁arbeidsgiver	-10.7671
▁oppfatning	-10.7671
▁evangeli	-10.7671
komponent	-10.7671
▁kypros	-10.7671
▁beatles	-10.7671
▁sektor	-10.7672
▁prøvde	-10.7672
▁grün	-10.7672
▁separat	-10.7672
▁kalender	-10.7673
▁dekorert	-10.7673
▁betjene	-10.7673
▁tjener	-10.7673
▁prim	-10.7673
▁flytende	-10.7674
vilkår	-10.7675
▁bjar	-10.7675
▁troppen	-10.7676
forsikring	-10.7676
betingelse	-10.7683
▁ibsen	-10.769
syssel	-10.769
▁selvstendighet	-10.7697
▁oversette	-10.7704
▁bassist	-10.7706
tveit	-10.7728
▁industriell	-10.7757
torget	-10.776
▁kallenavn	-10.778
▁utforske	-10.7786
sønn	-10.7816
rengt	-10.7834
▁barneskole	-10.7837
▁klippe	-10.7853
▁diplomatisk	-10.7906
▁ideal	-10.7924
kontroll	-10.7943
▁observato	-10.7957
▁brygge	-10.7965
▁napoleon	-10.7966
▁forgjenger	-10.7966
▁offensiv	-10.7966
▁beslutning	-10.7966
▁ferdinand	-10.7966
▁fiendtlig	-10.7966
▁potensiel	-10.7966
▁renessanse	-10.7966
▁visepresident	-10.7966
▁columbia	-10.7966
▁forplikte	-10.7966
▁innstifte	-10.7966
▁diskusjon	-10.7966
▁stridsvogn	-10.7966
▁brønn	-10.7966
▁kavaleri	-10.7966
▁parallell	-10.7966
▁axel	-10.7966
teatret	-10.7966
▁fremtidig	-10.7966
▁eksistens	-10.7966
▁tennis	-10.7966
kompetanse	-10.7966
▁larvik	-10.7966
▁hjal	-10.7966
▁vurdering	-10.7967
▁kullkraftverk	-10.7967
▁sukker	-10.7967
▁soldatene	-10.7967
▁erstatning	-10.7967
▁amatør	-10.7968
▁3000	-10.7968
▁regjere	-10.7968
▁embete	-10.7968
▁felttog	-10.7968
▁utgivelser	-10.7968
▁etterkommer	-10.7969
kobling	-10.797
▁francis	-10.7972
føderasjon	-10.7973
▁bryggeri	-10.7974
▁regiment	-10.7974
▁sykdommen	-10.7974
▁forrige	-10.7975
▁nyhets	-10.7976
ografisk	-10.7976
fellesskap	-10.798
regning	-10.7995
▁franz	-10.8005
vík	-10.8017
▁legeme	-10.8018
oksid	-10.8029
▁gratis	-10.8033
▁harmoni	-10.8039
divisjon	-10.8105
sykdom	-10.8106
▁ligge	-10.8118
snegl	-10.8145
tempelet	-10.8232
medaljen	-10.8235
filosof	-10.826
▁favoritt	-10.8269
▁göteborg	-10.8269
▁jugoslavia	-10.8269
▁reservoar	-10.8269
▁vladimir	-10.8269
▁stråling	-10.8269
▁litauen	-10.8269
▁kronologisk	-10.8269
▁forkortelse	-10.8269
▁korrekt	-10.8269
▁landskamper	-10.8269
▁ordinær	-10.8269
▁bridge	-10.8269
▁tilhengere	-10.8269
mouth	-10.8269
▁forberede	-10.827
ев	-10.827
romerriket	-10.8271
▁velkjent	-10.8271
▁leilighet	-10.8272
▁alpene	-10.8273
▁kanadisk	-10.8273
▁kongeriket	-10.8273
▁generalsekretær	-10.8273
▁igjennom	-10.8276
▁ørken	-10.8276
▁vinkel	-10.8277
▁spillefilm	-10.8278
▁antonio	-10.8285
slavisk	-10.8301
stredet	-10.8301
yuan	-10.8306
▁instru	-10.8307
flytting	-10.8323
▁offisiell	-10.8324
▁twi	-10.8413
bæk	-10.8414
kandidat	-10.8416
offiser	-10.8416
utvikle	-10.8418
▁poll	-10.8418
utstyr	-10.8421
aktivitet	-10.8422
▁franc	-10.8424
▁grei	-10.8464
▁nettsted	-10.8482
kompleks	-10.8541
▁bulgaria	-10.8581
▁engasjement	-10.8581
▁identifisert	-10.8581
▁mangfold	-10.8581
▁massachusetts	-10.8581
▁molekyl	-10.8581
▁ortodoks	-10.8581
▁psykisk	-10.8581
▁symptom	-10.8581
▁jersey	-10.8581
▁hjort	-10.8581
▁identitet	-10.8581
▁eidsvoll	-10.8581
▁fantasy	-10.8581
▁sluppet	-10.8581
▁thailand	-10.8581
▁church	-10.8581
▁castle	-10.8581
▁narvik	-10.8582
▁apple	-10.8582
▁kvalifisert	-10.8582
▁gabriel	-10.8582
▁partner	-10.8582
▁novelle	-10.8582
▁margret	-10.8582
▁fremstilt	-10.8583
▁uefa	-10.8583
▁fuktig	-10.8583
▁riksdagen	-10.8584
▁group	-10.8585
▁vurdert	-10.8587
▁medførte	-10.8588
▁kritisk	-10.8588
▁tørke	-10.8591
▁smitte	-10.8591
▁frp	-10.8592
▁forestillingen	-10.8592
▁avgjørelse	-10.8592
smykke	-10.8594
▁prosessen	-10.8596
vennlig	-10.8598
▁identisk	-10.8606
▁maritim	-10.8613
▁ferie	-10.8613
▁komplekse	-10.8621
▁månen	-10.8628
▁lunge	-10.8635
kurat	-10.8663
vidde	-10.8664
fylling	-10.8715
åpne	-10.8742
▁sekund	-10.8754
drive	-10.8776
ladning	-10.8844
stigning	-10.8872
▁opprette	-10.8875
▁association	-10.8904
▁bryllup	-10.8904
▁ferskvann	-10.8904
▁frankfurt	-10.8904
▁friluft	-10.8904
▁hongkong	-10.8904
▁kontrovers	-10.8904
▁lokomotiv	-10.8904
▁makedonia	-10.8904
▁observert	-10.8904
▁popularitet	-10.8904
▁matematisk	-10.8904
▁avstemning	-10.8904
▁testamente	-10.8904
▁nevø	-10.8904
▁assistent	-10.8904
▁autoritet	-10.8904
▁dublin	-10.8904
leverandør	-10.8904
▁styrmann	-10.8904
▁charlotte	-10.8904
▁trussel	-10.8904
▁fjellkjede	-10.8904
▁haakon	-10.8904
▁theodor	-10.8904
▁regulere	-10.8904
▁forfremme	-10.8904
▁5000	-10.8904
▁fiktiv	-10.8904
▁noensinne	-10.8905
▁pianist	-10.8905
▁ekspert	-10.8905
thorax	-10.8906
▁jurist	-10.8907
▁konkurs	-10.8908
▁fiction	-10.8908
▁bydistrikt	-10.8909
▁svømmer	-10.8909
▁familiegruppen	-10.891
▁temple	-10.8911
▁tsar	-10.8912
▁investering	-10.8913
flaten	-10.8916
tingsvalget	-10.8917
▁rifle	-10.8918
▁fjerdeplass	-10.8922
▁hylle	-10.8927
▁prosesser	-10.893
▁øks	-10.893
kjøl	-10.8935
▁ballett	-10.8937
▁ventet	-10.8951
betaling	-10.8965
▁stanse	-10.8977
ministre	-10.9021
▁lovgiv	-10.9054
orkester	-10.9072
kontrakt	-10.9072
spørsmål	-10.9072
utdanning	-10.9072
design	-10.9074
▁afrikansk	-10.9084
brand	-10.9107
løv	-10.9137
▁undersøke	-10.9185
recht	-10.9188
▁ambassadør	-10.9237
▁dekkvingene	-10.9237
▁folkeavstemning	-10.9237
▁inskripsjon	-10.9237
▁maksimal	-10.9237
▁shakespeare	-10.9237
▁gjeldende	-10.9237
▁søknad	-10.9237
▁uttrykt	-10.9237
▁sicilia	-10.9237
▁taiwan	-10.9237
▁østfold	-10.9237
▁frogner	-10.9237
▁skåne	-10.9237
grunnsstasjon	-10.9237
▁forfedre	-10.9237
▁frimurer	-10.9237
▁domstolen	-10.9237
▁seoul	-10.9237
▁klatre	-10.9238
▁tendens	-10.9238
▁titler	-10.9239
striper	-10.9239
▁datamaskin	-10.9239
▁økning	-10.924
▁kommunistene	-10.924
▁tjent	-10.9241
▁presentere	-10.9242
▁antyde	-10.9242
▁meteor	-10.927
finansiert	-10.9271
▁bønn	-10.9278
nevnte	-10.9299
bevegelse	-10.9328
grønn	-10.9417
▁bonn	-10.9422
givning	-10.9432
▁kongedømme	-10.9433
sirkel	-10.9453
malerie	-10.9459
asiatiske	-10.951
demonstrasjon	-10.9582
▁kjøkken	-10.9582
▁millimeter	-10.9582
▁pilegrim	-10.9582
▁skandinavisk	-10.9582
▁uregelmessig	-10.9582
▁vålerenga	-10.9582
▁hospital	-10.9582
▁krønike	-10.9582
▁colombia	-10.9582
▁katarina	-10.9582
▁deutsche	-10.9582
▁unesco	-10.9582
▁beslektet	-10.9582
▁tolket	-10.9582
▁indikere	-10.9582
▁færre	-10.9582
▁skjebne	-10.9582
▁utsikt	-10.9582
▁ntnu	-10.9582
▁flukt	-10.9582
sammenslåing	-10.9582
▁nepal	-10.9582
▁sibir	-10.9583
▁osmansk	-10.9583
▁klaver	-10.9583
mønstre	-10.9583
▁innvalgt	-10.9583
▁spyd	-10.9586
▁bakteri	-10.9587
▁forekomst	-10.9587
▁teller	-10.9588
▁patent	-10.9595
▁overlever	-10.96
▁voldsom	-10.9615
▁bevare	-10.9654
stryk	-10.9657
▁kamera	-10.9668
▁estisk	-10.9673
knapp	-10.9687
▁åndelig	-10.971
klipp	-10.9724
hvert	-10.9758
instrument	-10.9774
redaktør	-10.9774
▁omhandle	-10.9794
▁treffe	-10.9802
brann	-10.9809
perspektiv	-10.9939
▁absolutt	-10.9939
▁ambassade	-10.9939
▁douglas	-10.9939
▁football	-10.9939
▁forvandling	-10.9939
▁generalmajor	-10.9939
▁gjøvik	-10.9939
▁konsentrert	-10.9939
▁leipzig	-10.9939
▁opphørte	-10.9939
▁billboard	-10.9939
▁undergrunnsbane	-10.9939
▁utnevnelse	-10.9939
▁ekspansjon	-10.9939
▁forkropp	-10.9939
▁linux	-10.9939
▁hjelm	-10.9939
▁skildre	-10.9939
▁zevs	-10.994
▁tverrbånd	-10.994
▁für	-10.994
▁barokk	-10.994
▁skikkelse	-10.994
▁tempo	-10.994
▁fylle	-10.9941
▁samuel	-10.9941
▁avskaffet	-10.9942
▁marsjert	-10.9942
▁myrdet	-10.9942
▁forventet	-10.9942
▁boston	-10.9942
▁skygge	-10.9943
▁suveren	-10.9943
▁filosofen	-10.9946
▁pierre	-10.9946
▁alex	-10.9948
▁tropisk	-10.995
▁betalt	-10.9951
konsernet	-10.9957
▁kunngjor	-10.9959
syklus	-10.9966
9	-11.0002
knute	-11.003
▁forstyrre	-11.0069
fabrik	-11.0092
bibliotek	-11.0145
dømt	-11.0145
hovedstad	-11.0145
størrelse	-11.0145
herredømme	-11.0156
▁strategi	-11.0165
bregne	-11.0165
grå	-11.0304
▁høgskolen	-11.0308
▁atlanterhavet	-11.0309
▁færøysk	-11.0309
▁melbourne	-11.0309
▁skandinavia	-11.0309
▁skjult	-11.0309
▁slovakia	-11.0309
▁stjørdal	-11.0309
▁ukrainsk	-11.0309
▁vancouver	-11.0309
▁venezia	-11.0309
potensial	-11.0309
▁akseptere	-11.0309
▁filippinene	-11.0309
▁konstitusjon	-11.0309
▁progressiv	-11.0309
▁babylon	-11.0309
▁depresjon	-11.0309
▁forveksle	-11.0309
▁høvding	-11.0309
▁stephen	-11.0309
▁slesvig	-11.0309
▁buddhist	-11.0309
▁antakelig	-11.0309
▁tilnærme	-11.0309
▁skihopper	-11.0309
▁utspring	-11.0309
▁prince	-11.0309
▁misjonær	-11.0309
▁trykt	-11.0309
▁regulert	-11.031
▁bøndene	-11.031
▁løslatt	-11.031
▁serbia	-11.031
konsulent	-11.031
▁guinea	-11.031
▁oppløsning	-11.031
▁rettferdig	-11.031
▁marcus	-11.031
▁trengte	-11.031
▁assistere	-11.0311
▁uklar	-11.0311
▁nymfe	-11.0311
▁pastor	-11.0311
▁mineral	-11.0312
▁tribun	-11.0312
▁sosialdemokrati	-11.0312
▁meyer	-11.0315
▁fraksjon	-11.0318
▁pumpe	-11.0321
flyvning	-11.0411
kritiker	-11.0463
▁pansre	-11.0466
palasset	-11.0508
provinsen	-11.053
signal	-11.0532
losjen	-11.0537
▁america	-11.0551
kvinne	-11.0584
▁sjakk	-11.06
▁øygrupp	-11.0611
▁doktor	-11.0693
direktoratet	-11.0694
▁aftenposten	-11.0694
▁elektrisitet	-11.0694
▁etiopia	-11.0694
▁köln	-11.0694
▁meksikansk	-11.0694
▁mountain	-11.0694
▁oksygen	-11.0694
▁pyramid	-11.0694
▁spellemannpris	-11.0694
▁tilfredsstille	-11.0694
▁avslørt	-11.0694
▁carolina	-11.0694
▁eksperimenter	-11.0694
▁invadert	-11.0694
▁pattedyr	-11.0694
▁sanskrit	-11.0694
▁slalåm	-11.0694
▁mislykke	-11.0694
▁mjøs	-11.0694
disiplin	-11.0694
▁rockeband	-11.0694
▁utstrakt	-11.0694
▁fødselsår	-11.0694
▁margaret	-11.0694
▁chelsea	-11.0694
▁gordon	-11.0694
▁monroe	-11.0695
▁diamant	-11.0695
▁tyngde	-11.0695
▁barnehage	-11.0695
▁uenighet	-11.0695
▁spredning	-11.0695
erklæring	-11.0695
▁kombinere	-11.0695
▁utforming	-11.0695
▁utfordre	-11.0696
▁queens	-11.0696
kollega	-11.0696
jylland	-11.0696
▁referert	-11.0698
▁abbed	-11.0698
▁havneby	-11.0699
▁pioner	-11.0704
▁undertegne	-11.0728
▁avskjed	-11.0743
gruppa	-11.0845
sentrum	-11.0931
▁muslim	-11.0933
lokale	-11.0964
frem	-11.1038
▁åpningsseremoni	-11.1094
fullmektig	-11.1094
▁distribusjon	-11.1094
▁fjorten	-11.1094
▁fremtredende	-11.1094
▁fundament	-11.1094
▁generalguvernør	-11.1094
▁giovanni	-11.1094
▁identifisere	-11.1094
▁indonesia	-11.1094
▁nøytral	-11.1094
▁territorium	-11.1094
▁tsjekkia	-11.1094
▁alminnelig	-11.1094
▁rudolf	-11.1094
▁teoretisk	-11.1094
▁bekjempe	-11.1094
▁albania	-11.1094
▁anmelder	-11.1094
▁innvandre	-11.1094
▁utkjempe	-11.1094
järvi	-11.1094
▁ritual	-11.1094
▁katalog	-11.1094
▁legitim	-11.1094
▁tvilling	-11.1094
▁firenze	-11.1094
▁følte	-11.1094
▁madrid	-11.1094
▁begravelse	-11.1094
▁koreograf	-11.1094
▁overgrep	-11.1094
▁plukke	-11.1094
▁napoli	-11.1094
▁selvbiografi	-11.1095
▁theatre	-11.1095
▁oppfordre	-11.1095
▁sprang	-11.1095
infeksjon	-11.1095
▁massiv	-11.1097
▁moore	-11.1098
▁public	-11.1098
▁clark	-11.1098
▁bolivia	-11.1102
▁spurt	-11.1103
▁marxist	-11.1105
▁befeste	-11.1111
▁steinkjer	-11.1115
▁operere	-11.112
▁ekstern	-11.1121
cellene	-11.1129
bundet	-11.1144
rømte	-11.118
▁dobbel	-11.1196
▁hevn	-11.1216
loyd	-11.1252
▁begynt	-11.1254
▁facto	-11.1269
▁særeg	-11.1298
parlament	-11.1345
forskjell	-11.1345
institusjon	-11.1346
europeisk	-11.1346
produsert	-11.1346
kjerne	-11.1349
gjerde	-11.137
▁kringkasting	-11.1511
svømming	-11.1511
▁eksklusiv	-11.1511
▁illustrert	-11.1511
▁kontinuerlig	-11.1511
▁larvestadiet	-11.1511
▁plutselig	-11.1511
▁seremoni	-11.1511
▁tilstrekkelig	-11.1511
köping	-11.1511
▁bachelor	-11.1511
▁intelligen	-11.1511
▁utdødd	-11.1511
eksplosjon	-11.1511
▁reaktor	-11.1511
▁konsonant	-11.1511
▁annerledes	-11.1511
▁dimensjon	-11.1511
▁ekeberg	-11.1511
▁umulig	-11.1511
▁russerne	-11.1511
▁bebodd	-11.1511
▁diameter	-11.1511
▁nelson	-11.1511
▁forandret	-11.1511
▁henrettelse	-11.1511
▁forklart	-11.1511
▁stråle	-11.1512
▁hovedpersonen	-11.1512
▁serbisk	-11.1513
▁social	-11.1513
▁fienden	-11.1514
▁stefan	-11.1514
▁isolert	-11.1514
streiken	-11.1515
▁advent	-11.1517
▁galleri	-11.1517
▁læring	-11.1518
▁benevn	-11.1559
▁balanse	-11.1666
kvalitet	-11.1781
likevel	-11.1782
interesse	-11.1782
forstyrrelse	-11.1789
ledelse	-11.1845
årsjubileum	-11.1945
▁anatolia	-11.1945
▁infrastruktur	-11.1945
▁mccartney	-11.1945
▁palestinsk	-11.1945
▁pennsylvania	-11.1945
▁prestegjeld	-11.1945
▁republikansk	-11.1945
▁toppscorer	-11.1945
▁vellykket	-11.1945
▁benedikt	-11.1945
▁cæsar	-11.1945
sammenslutning	-11.1945
▁1872	-11.1945
▁beleiret	-11.1945
▁kollaps	-11.1945
kommanderende	-11.1945
▁hockey	-11.1945
▁forberedt	-11.1945
▁jupiter	-11.1945
▁algerie	-11.1945
▁betjent	-11.1945
▁essay	-11.1945
▁jamaica	-11.1945
▁empire	-11.1946
▁ringerike	-11.1946
▁tenåring	-11.1946
▁kortvarig	-11.1946
▁forenklet	-11.1946
▁ferdigstilt	-11.1946
▁legendarisk	-11.1946
▁sjokk	-11.1946
▁walisisk	-11.1946
▁brussel	-11.1946
▁rimelig	-11.1946
▁kjøpmann	-11.1946
▁stadium	-11.1947
kommentator	-11.1947
▁stadiet	-11.1947
▁magnetisk	-11.1947
▁claude	-11.1948
▁blomstre	-11.1949
▁verdslig	-11.1952
▁gjenopprette	-11.1952
▁forhandle	-11.1963
liknende	-11.1971
▁kenya	-11.2023
▁sjanse	-11.2027
næringen	-11.2028
▁blanc	-11.2061
▁opprykk	-11.2159
▁skanse	-11.2173
bukten	-11.2206
rettigheter	-11.2235
sykehus	-11.2235
allianse	-11.2238
utgave	-11.224
▁elektr	-11.2292
konservativ	-11.2396
inspektør	-11.24
skvadron	-11.24
▁aristokrat	-11.24
▁arrangør	-11.24
▁besittelse	-11.24
▁britannia	-11.24
▁gerilja	-11.24
▁individuelt	-11.24
▁kennedy	-11.24
▁koordiner	-11.24
▁kristoffer	-11.24
▁laboratorie	-11.24
▁massakren	-11.24
▁michigan	-11.24
▁microsoft	-11.24
▁mobiltelefon	-11.24
▁representasjon	-11.24
▁research	-11.24
▁resolusjon	-11.24
▁restaurering	-11.24
▁skribent	-11.24
▁terningkast	-11.24
▁uteksaminer	-11.24
▁varaordfører	-11.24
▁embeds	-11.24
▁godkjenne	-11.24
▁respons	-11.24
▁etterretnings	-11.24
▁krystall	-11.24
▁latvia	-11.24
▁oriental	-11.24
▁isabella	-11.24
▁krypt	-11.24
▁birkeland	-11.24
▁baptist	-11.24
ã	-11.9543
