<unk>	0
<s>	0
</s>	0
.	-3.297
▁i	-3.44512
e	-3.62326
s	-3.77258
▁og	-3.83504
t	-4.22851
er	-4.2297
▁	-4.25438
▁av	-4.27639
en	-4.29184
▁en	-4.4482
▁som	-4.44937
▁er	-4.58745
▁til	-4.60012
r	-4.66909
▁for	-4.69547
▁på	-4.70574
▁ble	-4.86167
▁den	-4.8835
▁med	-4.91504
▁det	-4.92912
n	-4.96469
▁var	-5.02029
et	-5.07167
▁de	-5.08221
▁han	-5.14279
▁å	-5.2356
▁fra	-5.30768
▁et	-5.46996
▁har	-5.50658
ene	-5.59848
▁at	-5.61379
a	-5.67592
▁ved	-5.91514
ne	-5.95391
i	-5.98073
▁etter	-5.99259
▁om	-5.99904
▁men	-6.02524
▁også	-6.03458
d	-6.05714
k	-6.09647
▁ut	-6.11604
▁seg	-6.19697
▁under	-6.24214
▁ikke	-6.27434
te	-6.27913
▁hadde	-6.28717
▁da	-6.2914
o	-6.3138
▁over	-6.34072
g	-6.37535
y	-6.38098
m	-6.38328
▁to	-6.39805
▁eller	-6.44323
▁opp	-6.4591
de	-6.45955
▁inn	-6.46142
▁kan	-6.47705
p	-6.49205
▁andre	-6.53422
▁sin	-6.53583
f	-6.56162
▁s	-6.56981
re	-6.58169
▁første	-6.59784
▁mot	-6.62961
l	-6.63274
v	-6.68006
▁dette	-6.68701
▁hun	-6.68922
▁1	-6.71348
ing	-6.7219
▁år	-6.73093
▁18	-6.74663
▁be	-6.78205
▁a	-6.7849
es	-6.79675
▁ha	-6.80568
▁født	-6.82781
▁mellom	-6.83261
an	-6.85358
us	-6.86647
▁hans	-6.87179
b	-6.87863
c	-6.89625
▁tre	-6.91718
u	-6.92223
▁fikk	-6.92883
▁kom	-6.92897
▁denne	-6.93887
al	-6.94846
▁der	-6.96811
ende	-6.97934
ter	-6.98094
h	-7.01038
sk	-7.01251
▁f	-7.02509
▁flere	-7.0282
▁man	-7.03471
in	-7.04252
na	-7.05737
▁sammen	-7.0959
▁2	-7.10278
▁alle	-7.10386
▁blant	-7.10912
▁the	-7.12561
is	-7.1284
▁del	-7.13639
ia	-7.13913
ra	-7.14289
le	-7.14547
▁nord	-7.14626
ri	-7.1577
▁før	-7.16412
▁mange	-7.16421
st	-7.16423
▁hvor	-7.16443
▁så	-7.16591
▁m	-7.18173
la	-7.19254
▁tallet	-7.20735
lig	-7.20766
▁g	-7.20793
▁la	-7.21022
nde	-7.21384
sen	-7.22439
▁senere	-7.24475
▁død	-7.24671
w	-7.2605
▁ligger	-7.2609
di	-7.27242
▁norge	-7.27659
▁se	-7.28058
▁ca	-7.28924
▁u	-7.29732
▁selv	-7.31095
▁re	-7.31448
▁b	-7.31517
▁være	-7.31587
▁siden	-7.32681
z	-7.33276
ar	-7.3363
▁mer	-7.33807
▁stor	-7.34071
▁3	-7.34238
▁byen	-7.34765
▁noen	-7.34794
▁tidligere	-7.35048
land	-7.36255
ch	-7.3663
▁4	-7.38491
▁17	-7.38945
▁disse	-7.39291
▁kjent	-7.39618
iske	-7.39918
be	-7.40234
▁norsk	-7.40682
or	-7.4076
▁ol	-7.40834
▁blir	-7.4105
▁ny	-7.41074
▁blitt	-7.41637
▁vi	-7.41992
▁annet	-7.42419
▁gjennom	-7.4354
▁tid	-7.43721
▁5	-7.4428
▁p	-7.44551
▁k	-7.44712
ke	-7.45151
▁land	-7.45957
▁samme	-7.46006
▁sitt	-7.48376
▁kommune	-7.48873
ens	-7.48911
▁vært	-7.49194
ro	-7.49303
ning	-7.49809
▁her	-7.50062
on	-7.51238
j	-7.51275
▁sør	-7.51353
il	-7.51458
um	-7.51869
▁d	-7.52031
▁15	-7.5232
ste	-7.52436
ta	-7.52685
ma	-7.53629
ur	-7.54023
▁16	-7.54093
▁st	-7.55104
▁rundt	-7.55336
▁noe	-7.55346
ck	-7.55614
ler	-7.5601
▁c	-7.57076
ng	-7.57289
ver	-7.57382
▁dag	-7.57414
▁kunne	-7.57449
▁ned	-7.57789
der	-7.58091
▁vant	-7.58094
as	-7.58146
ig	-7.58151
▁store	-7.58793
ve	-7.59114
▁ro	-7.59457
vis	-7.59953
▁sa	-7.59972
øy	-7.60308
het	-7.60887
▁grunn	-7.61099
▁mest	-7.6145
kt	-7.61474
▁sine	-7.61496
at	-7.6242
isk	-7.62485
▁ta	-7.62629
▁kr	-7.62878
▁10	-7.63038
▁vil	-7.63188
▁vest	-7.63431
▁al	-7.63544
ga	-7.64016
for	-7.64078
▁of	-7.64204
da	-7.64447
▁skulle	-7.64464
▁mens	-7.64555
▁ham	-7.64887
▁gang	-7.65183
▁bo	-7.65202
li	-7.65866
▁gikk	-7.65904
▁båd	-7.66186
lige	-7.66273
ske	-7.67453
ad	-7.6852
▁km	-7.69117
ha	-7.69343
▁ga	-7.69445
os	-7.69847
▁bli	-7.70227
▁h	-7.70288
th	-7.70579
▁norske	-7.71077
▁frem	-7.71154
son	-7.71261
▁usa	-7.72084
▁bare	-7.72206
▁skal	-7.72356
▁6	-7.72552
▁meter	-7.7261
lo	-7.72864
▁tilbake	-7.72908
▁nye	-7.72969
ba	-7.73225
▁by	-7.73392
ut	-7.73556
▁o	-7.74138
é	-7.7436
▁enn	-7.74919
▁slik	-7.74944
▁navnet	-7.75107
ul	-7.75928
nes	-7.76092
▁ofte	-7.7616
x	-7.76391
▁navn	-7.77363
▁si	-7.78844
▁an	-7.78904
▁ar	-7.79243
ør	-7.79805
ge	-7.80022
si	-7.80141
to	-7.8037
bo	-7.80698
▁få	-7.80864
▁he	-7.80931
▁siste	-7.81558
▁mai	-7.81682
ff	-7.82578
den	-7.82818
dal	-7.82871
▁ti	-7.82916
▁mars	-7.83809
ø	-7.84109
▁hele	-7.84196
▁august	-7.84429
▁oslo	-7.84601
▁øst	-7.84773
▁tok	-7.85013
▁fire	-7.85029
▁januar	-7.85232
kk	-7.85385
▁8	-7.85808
el	-7.86047
tt	-7.8605
▁7	-7.86687
mann	-7.86773
ton	-7.87571
mo	-7.87907
ol	-7.87994
▁brukt	-7.88098
it	-7.88155
sa	-7.88337
▁dem	-7.88562
▁ba	-7.88736
▁finnes	-7.89553
▁ra	-7.89623
▁fram	-7.89713
▁nå	-7.89901
▁mo	-7.90135
▁kon	-7.90306
▁juli	-7.90471
▁lag	-7.90512
å	-7.90755
▁t	-7.90772
erte	-7.91349
▁000	-7.91351
ka	-7.91729
▁le	-7.91967
stad	-7.93383
▁w	-7.93457
erne	-7.93886
▁største	-7.93996
ell	-7.94102
om	-7.94762
ker	-7.94802
▁mål	-7.94814
▁rekke	-7.9483
▁fri	-7.94937
▁bi	-7.95481
▁12	-7.95513
▁9	-7.95521
▁fly	-7.95834
▁kun	-7.96136
▁ma	-7.96152
me	-7.96292
▁ni	-7.96495
▁ho	-7.96572
gen	-7.96901
▁20	-7.96923
▁landet	-7.97174
▁hoved	-7.97539
▁deltok	-7.97636
▁sp	-7.97733
by	-7.97902
▁du	-7.97966
▁bak	-7.98212
▁14	-7.98436
ner	-7.98672
▁lang	-7.98962
▁først	-7.99054
▁su	-7.99104
ven	-7.99105
▁laget	-7.99263
mi	-8.00185
▁kalt	-8.00517
mer	-8.00639
ll	-8.00735
skap	-8.00755
▁per	-8.00874
▁mor	-8.01001
▁når	-8.01449
▁oktober	-8.01499
ger	-8.01535
▁v	-8.01623
▁årene	-8.01776
▁13	-8.02132
▁kirke	-8.02308
▁li	-8.0237
id	-8.02487
ce	-8.02707
▁2008	-8.02715
▁bu	-8.02896
ling	-8.02948
▁igjen	-8.03423
av	-8.03547
▁co	-8.03927
▁11	-8.03982
▁området	-8.04086
ry	-8.04175
▁lo	-8.04283
▁2007	-8.04983
vi	-8.05202
var	-8.05227
▁samt	-8.05408
▁po	-8.05451
ja	-8.05512
je	-8.05762
▁ko	-8.06096
▁tillegg	-8.06166
man	-8.06222
▁satt	-8.06543
▁di	-8.07493
▁l	-8.07753
▁desember	-8.07971
▁april	-8.08378
▁juni	-8.08537
opp	-8.08902
▁begynte	-8.09184
▁videre	-8.09199
▁spilte	-8.09287
ic	-8.09408
år	-8.09463
▁fransk	-8.09888
▁na	-8.09953
▁februar	-8.10019
▁alt	-8.10044
▁vanlig	-8.10167
▁september	-8.10226
▁plass	-8.10349
gi	-8.11055
▁bruk	-8.11221
ster	-8.11424
▁far	-8.11587
ikk	-8.12208
asjon	-8.12282
ns	-8.12398
▁ville	-8.1261
ft	-8.12873
mp	-8.13214
tter	-8.13228
2	-8.13393
▁pro	-8.1342
▁går	-8.1345
pe	-8.13456
un	-8.13632
ist	-8.13781
sh	-8.13885
▁2010	-8.14039
va	-8.14194
▁mindre	-8.14254
▁lu	-8.14576
▁pa	-8.15004
▁utgitt	-8.15182
ingen	-8.15277
no	-8.16296
▁tyskland	-8.16521
▁ka	-8.16693
▁skole	-8.16721
▁mar	-8.16807
▁pi	-8.17359
▁større	-8.1744
ho	-8.17448
▁rett	-8.17464
▁j	-8.17581
▁november	-8.17756
ring	-8.18078
▁n	-8.18114
ang	-8.18337
▁tiden	-8.18494
midlertid	-8.18653
▁uten	-8.1893
ir	-8.18939
▁tv	-8.19007
▁par	-8.19141
▁pe	-8.19243
▁gi	-8.1933
tal	-8.19469
gang	-8.19749
▁deres	-8.20069
lse	-8.20115
▁ei	-8.20431
ti	-8.2046
▁fa	-8.20526
▁gjen	-8.2064
au	-8.20893
do	-8.20961
kke	-8.21092
▁hver	-8.2126
▁olympisk	-8.21266
stand	-8.21327
▁bestå	-8.21357
▁døde	-8.21448
▁hos	-8.21615
ak	-8.21645
ö	-8.2167
▁2005	-8.21871
nd	-8.21963
sjon	-8.2205
▁ri	-8.22072
men	-8.22161
▁vann	-8.22347
▁gjorde	-8.22438
▁liv	-8.22537
ment	-8.22589
▁em	-8.22609
▁europa	-8.22803
▁fem	-8.22965
go	-8.23023
ard	-8.23687
pp	-8.23829
else	-8.24001
▁leder	-8.24032
ok	-8.24033
ld	-8.24199
▁like	-8.245
▁new	-8.24528
▁må	-8.24576
▁mi	-8.24695
bi	-8.24714
iv	-8.25291
▁barn	-8.2543
del	-8.25488
▁helt	-8.25541
berg	-8.25671
▁no	-8.25715
▁sch	-8.25786
▁spiller	-8.25816
▁mye	-8.25845
▁hennes	-8.26251
▁året	-8.2634
▁tyske	-8.27042
sted	-8.27055
rede	-8.27207
▁tatt	-8.27637
pa	-8.27751
▁y	-8.28041
vik	-8.28059
ks	-8.28103
▁kong	-8.28165
▁nær	-8.28266
rett	-8.2829
▁film	-8.28562
▁sverige	-8.29103
▁so	-8.2911
▁as	-8.29514
▁gamle	-8.29605
kker	-8.29671
▁sønn	-8.29718
▁gift	-8.29761
ca	-8.29908
▁lov	-8.30117
▁bygget	-8.3039
▁do	-8.31234
ier	-8.31639
lag	-8.31847
ion	-8.31988
▁go	-8.32101
ko	-8.32174
am	-8.32195
▁innen	-8.32254
▁medlem	-8.32321
▁kina	-8.3253
op	-8.32783
▁2009	-8.32933
▁egen	-8.33037
▁sommer	-8.33294
▁beste	-8.3344
tak	-8.33722
▁bar	-8.33834
▁me	-8.341
od	-8.34461
▁30	-8.34919
per	-8.34962
▁ju	-8.34977
▁politisk	-8.3498
▁mat	-8.35165
itet	-8.353
▁ru	-8.35369
▁svær	-8.35399
▁innbyggere	-8.35565
▁am	-8.35702
▁deretter	-8.3585
slag	-8.3593
sel	-8.36437
▁filmen	-8.36461
over	-8.36898
ag	-8.36904
▁0	-8.37092
▁and	-8.37405
▁små	-8.37552
lin	-8.37848
▁startet	-8.38037
▁tro	-8.38112
▁amerikansk	-8.38162
▁perioden	-8.38232
bu	-8.38489
▁kinesisk	-8.39098
itt	-8.39307
ings	-8.39366
▁ver	-8.39561
▁ak	-8.39619
▁folke	-8.39711
▁england	-8.39942
▁kommer	-8.39995
▁seks	-8.40062
▁sk	-8.40087
▁annen	-8.401
▁brukes	-8.40442
▁2004	-8.40782
derfor	-8.40882
▁sted	-8.41096
á	-8.41435
ering	-8.41467
▁2006	-8.41889
▁sesongen	-8.42034
ni	-8.42044
elle	-8.42053
▁arbeidet	-8.42083
hi	-8.42113
▁2011	-8.42194
▁or	-8.4243
dd	-8.42454
▁ne	-8.42647
▁ingen	-8.42947
▁dr	-8.4296
▁tysk	-8.42973
im	-8.43103
ær	-8.43304
▁ganger	-8.43456
▁john	-8.43583
▁form	-8.43738
▁sett	-8.4399
plass	-8.44012
▁hus	-8.44185
ed	-8.44251
co	-8.44294
▁fotball	-8.44363
ek	-8.44673
▁ulike	-8.44862
▁løpet	-8.45044
▁fleste	-8.45109
gu	-8.45359
▁øy	-8.45681
▁forhold	-8.45685
▁språk	-8.45724
dag	-8.4573
ant	-8.45816
▁etablert	-8.45967
▁deler	-8.46068
▁x	-8.46103
▁r	-8.4637
jø	-8.46423
ningen	-8.46443
▁ski	-8.46557
▁særlig	-8.46562
ä	-8.46665
▁gitt	-8.46787
▁eksempel	-8.46809
▁begge	-8.46864
▁hvert	-8.46968
1	-8.47046
▁jo	-8.47134
▁musikk	-8.47315
▁slutten	-8.47451
▁tra	-8.48059
▁el	-8.48142
▁samtidig	-8.48686
ina	-8.48785
vo	-8.48956
▁2000	-8.48978
nder	-8.49146
▁klubben	-8.49272
tra	-8.49542
▁president	-8.49639
▁skrevet	-8.49826
ov	-8.49835
▁norges	-8.50009
sp	-8.50089
▁100	-8.50138
▁vm	-8.50204
▁sjø	-8.50256
▁vei	-8.5027
▁verden	-8.50363
▁verdenskrig	-8.50546
▁lys	-8.50596
▁lå	-8.50624
par	-8.5065
▁kort	-8.50706
val	-8.50717
▁lever	-8.50905
▁krigen	-8.51098
ow	-8.51334
▁skrev	-8.51422
▁dermed	-8.51483
▁millioner	-8.5163
mb	-8.51735
▁bandet	-8.51903
▁øya	-8.51915
▁kultur	-8.52072
gg	-8.52267
▁engelsk	-8.52314
les	-8.5234
▁min	-8.52436
▁san	-8.52481
ie	-8.52483
▁kunst	-8.52624
▁dagen	-8.52679
▁gammel	-8.52708
ud	-8.5288
▁spilt	-8.52885
▁ført	-8.53191
siden	-8.53197
▁langs	-8.53343
▁gull	-8.53588
▁grad	-8.53623
ron	-8.53772
▁bra	-8.53995
sta	-8.54002
▁parti	-8.54048
tor	-8.54209
▁måtte	-8.54332
▁tor	-8.54539
▁25	-8.54629
▁frankrike	-8.54631
▁stort	-8.54634
▁fi	-8.54715
▁te	-8.55048
▁nytt	-8.551
hold	-8.55141
ken	-8.55369
▁all	-8.55496
ci	-8.55523
inn	-8.55559
▁ch	-8.55592
▁amerikanske	-8.55629
hus	-8.55687
▁høy	-8.55869
▁london	-8.56257
▁gruppen	-8.56271
▁kjente	-8.56314
▁ge	-8.56439
verk	-8.56453
ru	-8.56489
tu	-8.56643
tre	-8.56882
▁bergen	-8.56921
▁gu	-8.56952
▁eks	-8.56962
▁fast	-8.57537
ighet	-8.57544
▁flyttet	-8.57609
stre	-8.57734
bel	-8.57801
▁gir	-8.57925
ley	-8.58598
ku	-8.58653
ik	-8.58826
let	-8.59318
ting	-8.59422
ty	-8.59472
▁tredje	-8.59915
▁sol	-8.60088
▁ab	-8.60389
pi	-8.60454
▁god	-8.60638
▁albumet	-8.60691
ill	-8.60886
til	-8.60981
em	-8.61023
▁verdens	-8.61077
▁eneste	-8.61107
len	-8.61127
▁side	-8.614
▁nasjonal	-8.61639
▁mulig	-8.61726
▁stedet	-8.61893
▁sv	-8.61983
▁lokal	-8.62115
▁hu	-8.62325
▁1990	-8.62355
▁slutt	-8.62584
satt	-8.62616
ly	-8.62691
▁danmark	-8.627
▁2003	-8.62714
▁2002	-8.62718
▁va	-8.62779
▁sam	-8.62809
▁sto	-8.63008
ian	-8.63199
▁tidlig	-8.63344
ige	-8.63389
▁ad	-8.6339
ius	-8.63487
▁23	-8.63578
▁forbindelse	-8.63684
▁gjern	-8.63827
art	-8.63862
ny	-8.64055
▁provinsen	-8.64244
lu	-8.64364
▁storbritannia	-8.64466
▁2001	-8.6448
følge	-8.64502
▁støtte	-8.64631
▁gresk	-8.64643
▁britiske	-8.64684
bruk	-8.64827
io	-8.64932
tiden	-8.65076
▁stein	-8.65108
ü	-8.65181
tur	-8.65259
mme	-8.65267
jo	-8.65353
ksjon	-8.65382
tten	-8.65636
vin	-8.65651
▁kamp	-8.6581
wa	-8.65911
▁kirken	-8.65928
▁komme	-8.66071
hu	-8.66392
▁viktig	-8.66544
▁tri	-8.66593
▁bok	-8.66617
sj	-8.6664
▁gruppe	-8.66789
ium	-8.66899
▁ja	-8.67291
▁forskjellige	-8.67347
▁selskapet	-8.67348
▁bygd	-8.67422
po	-8.67582
▁spesielt	-8.67727
løp	-8.67741
æ	-8.67783
▁sentral	-8.67838
und	-8.68051
▁bro	-8.68159
▁19	-8.68349
▁kommunen	-8.68614
ran	-8.68911
▁hen	-8.68921
elsen	-8.68925
▁vel	-8.68993
▁gud	-8.69114
▁familien	-8.69119
form	-8.69159
bar	-8.69208
kom	-8.69292
ans	-8.69594
▁holdt	-8.69623
▁fred	-8.69745
▁nor	-8.69864
▁fe	-8.70118
▁konge	-8.70535
▁syn	-8.70568
▁kalles	-8.70738
▁fjell	-8.70792
▁22	-8.70801
ber	-8.70839
ris	-8.71056
▁fortsatt	-8.71103
her	-8.71144
ot	-8.71404
▁langt	-8.71651
▁ord	-8.71831
▁sendt	-8.71885
▁th	-8.71921
mar	-8.71969
ord	-8.72033
▁person	-8.7211
inger	-8.72112
za	-8.72334
kel	-8.72613
▁sand	-8.72619
▁forfatter	-8.72732
▁ki	-8.732
ab	-8.73252
▁basert	-8.73293
▁lite	-8.73415
▁con	-8.73636
▁paris	-8.73693
kor	-8.73781
isme	-8.73826
tid	-8.73891
▁verk	-8.73904
▁gjort	-8.73987
▁antall	-8.74143
▁spille	-8.74203
mon	-8.74226
▁21	-8.74293
▁ty	-8.7438
▁fant	-8.74399
▁1980	-8.74595
▁luft	-8.74645
▁innenfor	-8.74668
▁opprinnelig	-8.74669
▁sangen	-8.74775
▁1999	-8.74988
▁delen	-8.75207
▁rom	-8.75255
▁godt	-8.75425
▁au	-8.75613
▁hjem	-8.75649
jer	-8.76077
tiske	-8.76124
lot	-8.76385
min	-8.76527
ble	-8.76636
stein	-8.77001
▁kl	-8.77005
▁pre	-8.77027
så	-8.771
fjorden	-8.77189
▁familie	-8.77338
tok	-8.77394
▁serien	-8.77699
▁hi	-8.7796
▁delstaten	-8.78224
▁holde	-8.78361
▁cha	-8.78368
lat	-8.78394
met	-8.7843
▁stat	-8.78547
▁pu	-8.78705
▁24	-8.78942
▁funnet	-8.79175
che	-8.79248
anske	-8.79254
▁arbeid	-8.79337
▁omkring	-8.79438
tte	-8.79441
▁innehold	-8.79443
▁tar	-8.79444
▁dy	-8.7961
▁universitetet	-8.79669
▁farge	-8.79762
▁én	-8.79885
selskap	-8.7994
▁opprettet	-8.8005
▁car	-8.80157
▁bygge	-8.80168
▁hel	-8.80293
▁får	-8.8041
▁tur	-8.80442
▁historie	-8.80563
▁utenfor	-8.80787
skole	-8.80931
rik	-8.80932
lands	-8.81105
▁general	-8.81108
du	-8.81125
gre	-8.81145
▁fo	-8.81288
▁gå	-8.81297
dalen	-8.81493
kon	-8.81537
▁står	-8.81855
▁bil	-8.81869
gel	-8.81917
▁bl	-8.81936
▁hatt	-8.82126
▁utviklet	-8.82283
▁prest	-8.82287
▁aktiv	-8.82492
▁egne	-8.82618
stil	-8.82632
log	-8.82748
▁my	-8.82917
▁folk	-8.82989
▁utnevnt	-8.83
▁midt	-8.83104
▁italia	-8.83241
▁mennesker	-8.83264
▁kn	-8.833
sse	-8.83347
▁produksjon	-8.83396
▁nok	-8.83421
▁1998	-8.83671
▁moderne	-8.83693
▁mann	-8.83717
▁grav	-8.83928
iet	-8.84081
dre	-8.84099
▁berg	-8.84176
▁viser	-8.84217
▁valg	-8.84238
▁paul	-8.84287
elig	-8.84423
▁bru	-8.84474
▁wi	-8.8455
▁økonomisk	-8.84579
▁spor	-8.84585
isering	-8.84606
lsen	-8.84619
lle	-8.84626
▁28	-8.84748
vel	-8.84805
▁1994	-8.84975
vei	-8.8504
ede	-8.85046
▁barne	-8.85307
sch	-8.85322
▁personer	-8.8535
bb	-8.85362
▁bor	-8.85621
▁ett	-8.85754
sten	-8.85831
▁afrika	-8.85982
▁lagt	-8.86137
▁pave	-8.86197
▁50	-8.86387
bre	-8.86409
▁halv	-8.86452
▁svensk	-8.86624
▁fag	-8.86738
▁vise	-8.86833
elt	-8.86945
sak	-8.86959
ninger	-8.87216
▁partiet	-8.87267
lev	-8.87331
burg	-8.87485
borg	-8.87534
mor	-8.87562
▁1960	-8.87638
▁svenske	-8.87755
▁veien	-8.87824
rø	-8.87928
í	-8.88073
▁betydning	-8.88081
skje	-8.88109
ong	-8.88177
▁keiser	-8.88189
▁ser	-8.88322
dyr	-8.88332
▁26	-8.88378
▁elven	-8.884
ki	-8.88416
føre	-8.88497
▁lange	-8.88514
▁ben	-8.88515
ator	-8.8866
▁ku	-8.88903
▁pan	-8.88983
▁1970	-8.88995
setning	-8.89255
▁meste	-8.89345
▁fått	-8.89621
▁arbeider	-8.89779
▁ur	-8.89814
▁regjeringen	-8.89838
fe	-8.89884
▁york	-8.89904
▁tu	-8.89957
▁bort	-8.90135
▁rolle	-8.90191
kul	-8.90361
bil	-8.90516
▁biskop	-8.90568
▁reise	-8.90611
fly	-8.9071
lan	-8.90767
▁ledet	-8.9087
▁kal	-8.91061
▁nett	-8.9124
▁delt	-8.91305
▁periode	-8.91702
tisk	-8.9177
og	-8.91862
if	-8.91939
▁kor	-8.92026
▁divisjon	-8.92033
▁band	-8.92157
▁val	-8.92255
vann	-8.92257
ight	-8.923
he	-8.92564
▁skuespiller	-8.92713
mål	-8.92799
▁vo	-8.92836
▁slaget	-8.92852
▁best	-8.92979
isert	-8.93
▁nummer	-8.93026
▁begynnelsen	-8.93179
▁danne	-8.9332
▁gjøre	-8.93622
▁skolen	-8.93641
▁italiensk	-8.93651
yl	-8.93662
▁mil	-8.93769
▁minst	-8.9379
▁krig	-8.93813
ya	-8.94092
▁medlemmer	-8.94198
▁krigs	-8.94365
▁post	-8.9442
50	-8.94429
▁1996	-8.94615
kan	-8.94623
▁romersk	-8.94635
sett	-8.94663
▁27	-8.94674
▁motor	-8.94735
▁følgende	-8.94768
▁gjør	-8.94806
▁hjelp	-8.94835
▁hy	-8.94934
▁jeg	-8.9497
▁kar	-8.94978
ou	-8.95017
▁datter	-8.95065
ac	-8.95273
bro	-8.95558
ó	-8.95569
▁drept	-8.95579
▁århundre	-8.9558
▁russland	-8.9558
▁1988	-8.95584
▁1997	-8.95586
▁industri	-8.95711
fa	-8.95717
ham	-8.96002
▁katolsk	-8.96067
ket	-8.9612
ich	-8.96124
▁militær	-8.96338
▁høyre	-8.96512
▁internasjonale	-8.96557
▁åtte	-8.96574
ps	-8.96669
▁foran	-8.96893
▁fylke	-8.97111
▁fiske	-8.9712
▁gul	-8.97148
▁nesten	-8.97176
▁følge	-8.97187
uk	-8.97339
▁måte	-8.97383
tar	-8.97468
▁gal	-8.975
▁india	-8.97507
▁kongen	-8.97511
▁bruker	-8.97699
▁enkelte	-8.97735
▁ren	-8.97816
▁natur	-8.97914
▁berlin	-8.9797
▁dannet	-8.98076
▁40	-8.98283
▁valgt	-8.98381
▁litt	-8.98407
▁sti	-8.98508
▁1992	-8.98542
▁sang	-8.98603
legg	-8.98666
▁bri	-8.98875
▁serie	-8.9888
▁tap	-8.9891
▁viktigste	-8.9913
bok	-8.99136
▁radio	-8.9921
▁von	-8.99309
▁mal	-8.99346
tz	-8.99393
▁lav	-8.99415
leg	-8.99427
ay	-8.99505
▁kur	-8.99635
▁full	-8.99691
mat	-8.99704
ine	-8.99798
net	-8.99806
▁tjeneste	-9.00037
▁arter	-9.00061
▁venstre	-9.00068
▁1950	-9.00075
▁hol	-9.00137
▁tittelen	-9.00218
fi	-9.00353
▁liten	-9.00536
▁anti	-9.00546
▁kvinne	-9.00547
figur	-9.00612
▁kvinner	-9.00752
▁stats	-9.00755
▁z	-9.00799
ska	-9.00814
stat	-9.00856
▁ska	-9.01033
▁topp	-9.01072
▁trondheim	-9.0108
▁såkalt	-9.01085
▁produsert	-9.01086
▁gav	-9.01098
▁tildelt	-9.011
▁sak	-9.01114
▁menn	-9.01153
▁ul	-9.01201
kle	-9.01322
dy	-9.01344
▁vinter	-9.01345
▁felt	-9.0142
▁universitet	-9.01453
▁op	-9.01534
dig	-9.01548
▁led	-9.01576
3	-9.01963
▁ed	-9.01965
▁slått	-9.01969
▁fl	-9.02058
ung	-9.02141
▁jord	-9.02164
so	-9.02289
▁interesse	-9.0229
mester	-9.02392
pol	-9.02476
my	-9.02539
merke	-9.02585
▁mari	-9.02609
▁omtrent	-9.02635
▁betyr	-9.02637
▁1995	-9.02642
▁bestemt	-9.02651
▁art	-9.02693
rat	-9.02731
▁tross	-9.02732
han	-9.0289
▁motstand	-9.02936
▁bror	-9.0301
▁befolkningen	-9.03045
▁rød	-9.0306
▁sm	-9.03219
akt	-9.03225
▁dager	-9.0331
tro	-9.03445
laget	-9.03559
▁aldri	-9.03687
▁solgt	-9.03697
▁fin	-9.03706
▁kje	-9.03875
▁karl	-9.03906
▁lett	-9.04041
▁hva	-9.04044
▁fortsatte	-9.04229
▁29	-9.04365
far	-9.04515
▁com	-9.0455
kken	-9.04565
cu	-9.04768
▁henne	-9.04986
ologi	-9.05035
▁endt	-9.05104
ip	-9.05193
heten	-9.05367
▁åpnet	-9.05391
▁rø	-9.05416
▁teater	-9.05513
▁eget	-9.05568
▁orden	-9.05611
skip	-9.05718
▁1989	-9.05823
▁roman	-9.05969
▁organ	-9.05982
▁sosial	-9.06122
▁peter	-9.06168
▁mag	-9.06178
▁sta	-9.0624
▁liste	-9.06242
▁vin	-9.06755
а	-9.06896
▁dessut	-9.06904
mmer	-9.06964
▁møte	-9.06994
▁park	-9.07119
rå	-9.07262
▁danske	-9.07468
heim	-9.07474
▁poeng	-9.07485
ug	-9.07572
ds	-9.07613
ale	-9.07656
▁ettersom	-9.07694
zo	-9.07872
▁sølv	-9.07996
▁representert	-9.07998
▁hovedsake	-9.08035
▁sentrum	-9.08204
and	-9.08254
▁bre	-9.08324
▁angrep	-9.08358
gående	-9.08504
▁betydelig	-9.08551
▁eldre	-9.08579
▁regionen	-9.08622
vær	-9.08749
▁hø	-9.08751
▁elva	-9.08773
spiller	-9.08789
dt	-9.0879
▁dro	-9.08793
lit	-9.08806
▁skog	-9.08834
bin	-9.08893
styre	-9.08951
plan	-9.09082
▁kilometer	-9.09106
▁album	-9.09119
▁sørøst	-9.09125
▁syk	-9.0919
vern	-9.0927
zi	-9.09353
ju	-9.09387
▁slekt	-9.09468
forening	-9.09476
▁on	-9.09479
▁styre	-9.09585
▁herre	-9.09639
sson	-9.09706
anger	-9.09776
▁russisk	-9.0979
▁lands	-9.09831
▁pla	-9.09848
▁finne	-9.09853
▁mon	-9.10168
▁1991	-9.10231
▁kraftig	-9.10407
inne	-9.10454
▁handels	-9.10456
▁skip	-9.10588
▁gate	-9.1065
▁staten	-9.10735
▁1940	-9.10804
▁høyeste	-9.1081
▁van	-9.10815
landet	-9.10837
▁indre	-9.10837
▁japan	-9.10884
▁vekt	-9.109
▁reist	-9.11026
▁sanger	-9.11051
nske	-9.1117
▁lokale	-9.11177
ppe	-9.11337
▁knytte	-9.11361
▁200	-9.11424
res	-9.11448
▁hal	-9.11484
▁skade	-9.11493
dan	-9.11564
▁sl	-9.11627
▁xi	-9.1181
▁2014	-9.11942
▁2012	-9.11947
▁60	-9.11971
▁professor	-9.12001
▁bedre	-9.12092
sund	-9.12135
▁europeisk	-9.12182
▁havn	-9.12184
▁finalen	-9.12185
▁stil	-9.1221
føring	-9.12332
▁hav	-9.12432
▁samarbeid	-9.12461
▁ter	-9.12596
ære	-9.12642
ika	-9.12644
film	-9.12746
▁eu	-9.12794
▁dansk	-9.12826
▁råd	-9.12852
yn	-9.12908
▁lei	-9.12911
▁forsøk	-9.12916
mel	-9.12929
ald	-9.12959
▁slo	-9.13161
▁kamper	-9.13182
▁ferdig	-9.13198
▁legge	-9.13317
▁felles	-9.13336
▁31	-9.13375
drift	-9.13409
felt	-9.13541
sti	-9.13545
▁start	-9.13573
veien	-9.1361
▁dikt	-9.13647
▁suksess	-9.13665
▁direkte	-9.13665
▁canada	-9.13666
▁1920	-9.13678
▁engelske	-9.13817
øya	-9.13837
▁minne	-9.13878
▁ring	-9.141
dom	-9.14203
▁bal	-9.14225
su	-9.14361
▁steder	-9.14473
▁mark	-9.14479
kjenne	-9.14505
asjonen	-9.14608
tin	-9.14639
▁arbeids	-9.14698
▁nordøst	-9.14866
▁likevel	-9.14875
kla	-9.14936
lys	-9.15002
▁christian	-9.15368
▁robert	-9.15467
▁hvordan	-9.15516
▁1800	-9.15517
tion	-9.15532
ation	-9.15625
stilling	-9.15719
don	-9.15725
fra	-9.15729
▁benyttet	-9.15753
we	-9.15805
kamp	-9.15832
mm	-9.15855
▁arrangert	-9.16025
▁hevde	-9.16039
departementet	-9.16208
▁offentlig	-9.1629
▁neste	-9.16386
▁hvi	-9.16456
året	-9.16482
▁gre	-9.16544
råd	-9.16562
▁1900	-9.16637
▁via	-9.16741
▁nordlig	-9.16954
▁vanskelig	-9.17229
▁1981	-9.17236
▁ke	-9.17323
ister	-9.17325
▁kraft	-9.17406
gjør	-9.17426
▁seier	-9.17537
kal	-9.17665
▁pal	-9.17776
▁borger	-9.17858
▁boken	-9.17972
▁resultat	-9.18026
▁utvikling	-9.18087
▁fre	-9.18092
sto	-9.18103
▁mis	-9.18132
sky	-9.1827
▁miljø	-9.18346
▁turn	-9.18365
▁opprør	-9.1845
gått	-9.18504
▁versjon	-9.18588
pen	-9.1862
ført	-9.18653
liggende	-9.18675
▁los	-9.1873
▁carl	-9.18785
kant	-9.18868
▁ordet	-9.18945
▁fjerde	-9.19056
rom	-9.19148
▁ø	-9.1936
ros	-9.19419
▁dra	-9.19423
▁jan	-9.1955
iker	-9.1969
van	-9.1973
▁you	-9.19738
▁regnes	-9.19818
▁midten	-9.19828
▁wa	-9.1986
▁christ	-9.19969
▁tak	-9.19977
▁enkelt	-9.20115
▁sterkt	-9.20128
punkt	-9.20247
gruppen	-9.2029
▁henhold	-9.20328
▁ber	-9.20446
▁spe	-9.20563
▁meget	-9.20717
▁lyd	-9.20729
▁områder	-9.20823
▁plan	-9.2088
▁inkludert	-9.2092
▁2013	-9.20933
▁sogn	-9.20938
▁politiker	-9.20954
▁fu	-9.20987
▁resten	-9.21049
nntil	-9.21139
▁heller	-9.21145
enes	-9.21375
stående	-9.21461
▁makt	-9.21493
▁system	-9.2152
▁pr	-9.21521
▁brasil	-9.2155
▁university	-9.2155
ah	-9.21572
skapet	-9.2168
▁brun	-9.21693
▁klar	-9.22009
svis	-9.22043
nk	-9.22043
stan	-9.22182
▁fall	-9.22195
bygging	-9.22213
▁ras	-9.2233
▁stra	-9.22343
▁grunnlagt	-9.22355
▁flo	-9.22361
det	-9.22423
▁lin	-9.22448
bra	-9.22462
▁bill	-9.22512
syn	-9.22518
▁bank	-9.22554
ita	-9.22607
spill	-9.22618
kraft	-9.22679
▁blå	-9.22685
banen	-9.22699
▁tru	-9.22702
▁1982	-9.22825
▁ry	-9.22849
ød	-9.22875
▁litteratur	-9.23126
ys	-9.23273
▁linje	-9.23342
▁we	-9.23429
▁spania	-9.2346
▁samle	-9.23464
▁1975	-9.23467
jær	-9.23566
kar	-9.23626
pr	-9.23696
▁gro	-9.23719
ding	-9.23766
▁dyr	-9.24016
byen	-9.24041
▁1993	-9.24104
▁prosent	-9.24109
▁kul	-9.24119
chi	-9.24159
▁regi	-9.24344
ål	-9.24381
▁viss	-9.24495
▁livet	-9.24525
▁500	-9.246
▁plate	-9.24625
▁kjøpt	-9.24735
ica	-9.24745
▁william	-9.24754
▁virke	-9.24893
▁område	-9.25019
▁finans	-9.25048
▁skr	-9.25054
▁helse	-9.25144
▁finner	-9.25273
som	-9.25292
▁hånd	-9.25331
▁je	-9.25345
▁hvilke	-9.2541
▁bur	-9.25514
løs	-9.25559
tes	-9.25569
▁roma	-9.25646
stasjon	-9.25701
▁press	-9.25839
▁sal	-9.25839
iner	-9.25968
▁hverandre	-9.26065
▁sovjetunionen	-9.26065
▁stockholm	-9.26065
▁studerte	-9.26065
▁eldste	-9.26066
▁1984	-9.26073
▁statsminister	-9.26077
fall	-9.26139
▁tekst	-9.26262
▁kontroll	-9.26281
▁syv	-9.26354
▁mod	-9.26413
▁nu	-9.26509
и	-9.26727
asj	-9.26847
▁tom	-9.26912
▁våpen	-9.26947
▁finland	-9.2698
▁pris	-9.27001
▁fange	-9.27034
the	-9.27069
▁slag	-9.27187
sal	-9.27247
▁sc	-9.2725
ls	-9.27276
istiske	-9.27283
ria	-9.27329
▁sesong	-9.27377
▁asia	-9.27393
▁københavn	-9.27394
messig	-9.27396
▁1987	-9.27402
ji	-9.27505
▁kat	-9.27617
▁utgjør	-9.27641
vet	-9.27656
elser	-9.27713
▁tilhører	-9.27789
▁os	-9.27862
gitt	-9.27914
▁ønsket	-9.27925
▁verdi	-9.27933
▁gran	-9.27942
▁thomas	-9.28065
▁us	-9.28066
10	-9.28247
lia	-9.28247
sø	-9.28288
▁kroppen	-9.28296
minister	-9.28381
▁oppdaget	-9.28383
▁sig	-9.28429
▁hjemme	-9.28443
jen	-9.28557
▁ve	-9.2858
leder	-9.28616
▁gl	-9.28703
▁seil	-9.28726
ford	-9.28802
▁lærer	-9.28813
rike	-9.28893
▁tett	-9.28991
▁rock	-9.29035
▁styrke	-9.29109
▁leker	-9.29215
menn	-9.29367
▁col	-9.29391
▁1972	-9.29429
▁1952	-9.29434
▁2015	-9.29442
▁viste	-9.29456
bygd	-9.29488
port	-9.29499
ani	-9.29522
▁trykk	-9.29535
værende	-9.29576
▁alder	-9.29651
full	-9.29796
▁stjerne	-9.29802
lla	-9.2989
▁mu	-9.29951
fri	-9.29981
▁samling	-9.30202
ino	-9.3021
▁tilsvare	-9.30222
▁militære	-9.30412
▁sø	-9.305
▁maria	-9.3062
▁1978	-9.30808
▁unge	-9.30841
▁nest	-9.30846
▁tegn	-9.3088
▁møtte	-9.30923
▁krav	-9.30987
dde	-9.31244
▁kampen	-9.31428
krigen	-9.31447
▁gode	-9.31459
lei	-9.31469
▁etterhvert	-9.3149
▁informasjon	-9.31496
▁1976	-9.31502
system	-9.31514
mark	-9.31596
▁menneske	-9.31633
▁drift	-9.31798
▁overtok	-9.31805
▁br	-9.31838
systemet	-9.32011
lik	-9.32039
alt	-9.3206
▁løp	-9.32071
▁can	-9.32142
▁retning	-9.32148
▁henrik	-9.3222
▁hær	-9.32221
30	-9.32407
▁vestlige	-9.32455
▁areal	-9.32492
up	-9.32627
▁bodde	-9.32948
▁super	-9.32998
▁sørlig	-9.3306
▁riks	-9.3313
▁ob	-9.33147
pu	-9.33153
▁sommeren	-9.33187
▁karriere	-9.33197
▁tapte	-9.33212
bane	-9.33263
▁mur	-9.33304
ringen	-9.33447
asjoner	-9.3351
▁stiftet	-9.33603
▁1945	-9.3361
▁1964	-9.33615
tsj	-9.33738
▁kron	-9.33927
vil	-9.33936
▁selskap	-9.33948
ien	-9.33966
▁skrift	-9.34024
▁hvit	-9.34048
▁ag	-9.34228
▁1968	-9.34329
▁erik	-9.3443
▁arkitekt	-9.34432
▁styrker	-9.34597
▁stu	-9.34625
▁jon	-9.34718
▁års	-9.34754
age	-9.34921
ai	-9.34963
tel	-9.34985
q	-9.35001
fu	-9.35017
▁religiøs	-9.35036
▁dårlig	-9.35037
▁1930	-9.35054
▁80	-9.35076
▁mus	-9.35176
▁koloni	-9.35215
▁olje	-9.35427
▁ledelse	-9.35435
familien	-9.35479
▁formann	-9.35603
▁virksomhet	-9.35688
▁1986	-9.35777
▁stre	-9.35829
▁energi	-9.35837
▁gård	-9.35837
▁leve	-9.35915
▁dis	-9.3607
▁svarte	-9.36242
▁rike	-9.36285
▁voksne	-9.36491
▁1985	-9.36502
nz	-9.36591
▁arten	-9.36685
området	-9.36869
▁lengde	-9.36902
skog	-9.36902
▁gren	-9.36952
ark	-9.36979
ach	-9.36991
▁regjering	-9.36993
▁besøk	-9.37002
▁slekten	-9.37011
stra	-9.3711
gård	-9.37137
▁grensen	-9.37251
▁standard	-9.37252
▁skjer	-9.37274
rid	-9.37292
▁gen	-9.37295
vir	-9.37323
king	-9.37438
▁hard	-9.3756
▁transport	-9.37613
▁forsøkt	-9.37703
▁omfatter	-9.37743
▁gje	-9.37756
pper	-9.37762
▁politi	-9.37838
fisk	-9.37838
▁cor	-9.37866
е	-9.37967
cy	-9.37969
▁soldater	-9.3798
oc	-9.37992
▁stadig	-9.38031
▁klasse	-9.38075
▁grev	-9.38202
▁jernbane	-9.38318
▁erstattet	-9.38358
▁cup	-9.38413
▁besto	-9.3849
▁mester	-9.38493
▁sammenheng	-9.38582
▁johan	-9.38664
▁funksjon	-9.38714
festival	-9.38716
▁fylkesvei	-9.38742
fjord	-9.38774
▁regn	-9.38805
▁lenger	-9.38918
fin	-9.38945
▁hundre	-9.38954
▁delta	-9.38971
▁britisk	-9.39119
ismen	-9.39219
▁grense	-9.39278
▁russiske	-9.39299
▁kardinal	-9.39465
▁fremdeles	-9.39466
▁bronse	-9.39468
▁avdeling	-9.39498
▁bjørn	-9.39509
▁hæren	-9.39557
▁tung	-9.39655
våg	-9.39674
▁vår	-9.39717
kin	-9.39749
▁ten	-9.39797
bry	-9.39911
eng	-9.39994
▁ac	-9.40034
9	-9.40047
idae	-9.40072
▁amerika	-9.40131
▁hall	-9.40143
ana	-9.40149
▁studie	-9.40168
▁havet	-9.40179
о	-9.40218
▁australia	-9.40223
▁vokste	-9.40223
▁arm	-9.40264
sjef	-9.40267
mun	-9.40334
gar	-9.40349
86	-9.4041
▁merke	-9.40413
retning	-9.40444
▁maler	-9.40567
tiv	-9.4059
▁høsten	-9.40637
▁prisen	-9.40644
▁anders	-9.40693
40	-9.40791
▁lenge	-9.40856
trykk	-9.40902
▁forsvar	-9.40953
▁sikre	-9.40992
▁politikk	-9.41014
lighet	-9.41064
▁af	-9.41092
▁endret	-9.41106
▁bruke	-9.41129
▁george	-9.41137
fer	-9.41155
▁venn	-9.41159
lagt	-9.41302
sjøen	-9.41328
▁sen	-9.41422
▁lik	-9.41618
▁ev	-9.41667
▁za	-9.4169
▁blad	-9.41726
ida	-9.41737
sekretær	-9.41755
▁stavanger	-9.41763
ola	-9.41841
▁ex	-9.41957
ct	-9.42025
ör	-9.42099
▁vol	-9.42283
▁bilde	-9.4241
▁port	-9.42465
▁nordvest	-9.42535
▁1967	-9.42543
anlegg	-9.42556
tjeneste	-9.42682
ferd	-9.42685
▁symbol	-9.42716
▁skipet	-9.42727
▁pri	-9.42766
▁olav	-9.42785
bygg	-9.42873
all	-9.43283
virkning	-9.43315
▁2016	-9.43332
▁jobbe	-9.43388
▁hor	-9.43474
▁plassert	-9.43495
▁fremst	-9.43511
lene	-9.43514
tek	-9.43545
▁hopp	-9.43552
tive	-9.43574
▁skapt	-9.43635
ice	-9.43645
▁sh	-9.43718
istisk	-9.4382
▁renn	-9.43845
▁cu	-9.43867
▁historien	-9.43878
▁q	-9.43891
▁høre	-9.43931
ving	-9.44034
▁kle	-9.44079
▁mm	-9.44091
▁trøndelag	-9.44099
▁james	-9.44104
▁dronning	-9.44104
▁1979	-9.44113
▁city	-9.44144
ild	-9.44145
▁sivil	-9.4415
66	-9.44182
ini	-9.44227
▁kv	-9.44287
▁punkt	-9.44297
▁tall	-9.44491
▁klarte	-9.44561
▁spesial	-9.44569
dømme	-9.44855
samling	-9.44855
▁1983	-9.44903
▁omfattende	-9.44938
▁polen	-9.45007
regionen	-9.45072
▁lære	-9.45105
▁mac	-9.4519
▁totalt	-9.45208
▁fal	-9.45259
▁mel	-9.4534
▁fil	-9.45361
00	-9.45492
▁raskt	-9.45517
▁90	-9.45534
▁lær	-9.4556
20	-9.45616
▁1969	-9.45705
▁1977	-9.45706
▁egentlig	-9.45716
tøy	-9.45764
▁son	-9.45803
65	-9.45882
▁grupper	-9.46103
tall	-9.46111
▁hvite	-9.46201
▁sentrale	-9.4626
navn	-9.46268
▁georg	-9.46359
▁blod	-9.46407
▁skape	-9.46419
▁offisiell	-9.46499
slutning	-9.465
▁wal	-9.46506
▁lengre	-9.46513
▁2017	-9.46518
▁para	-9.46523
▁lille	-9.46567
løse	-9.46569
▁ball	-9.46596
skudd	-9.46607
▁grand	-9.46658
▁innført	-9.46707
af	-9.46722
▁høyere	-9.46762
iti	-9.46777
brudd	-9.4679
▁sju	-9.46791
▁utført	-9.46795
ider	-9.46831
▁island	-9.46848
▁gru	-9.46863
kast	-9.47001
▁stod	-9.47224
▁regnet	-9.47232
▁alltid	-9.47355
▁ungdoms	-9.47402
▁enten	-9.47416
▁trakk	-9.47443
▁regel	-9.47447
▁400	-9.47458
▁feil	-9.47458
4	-9.47464
▁stand	-9.47498
▁nrk	-9.47508
periode	-9.47534
▁organisasjonen	-9.47574
▁mont	-9.4761
▁samlet	-9.47646
▁drev	-9.47647
▁eier	-9.47719
fl	-9.4773
▁følger	-9.47753
▁museum	-9.47756
▁røde	-9.47802
▁cl	-9.47907
▁stasjon	-9.48087
▁1973	-9.48146
gan	-9.48173
ind	-9.48315
▁nederlandsk	-9.48396
▁trans	-9.48408
▁kjøre	-9.48435
tog	-9.48494
▁strøm	-9.48529
▁grå	-9.48721
▁elv	-9.48763
ski	-9.48807
ari	-9.48846
mannen	-9.48916
▁1948	-9.4897
fest	-9.48987
▁kroner	-9.49036
▁mc	-9.49213
øve	-9.49238
hund	-9.49264
ano	-9.49274
rop	-9.49294
▁adel	-9.4933
red	-9.49475
hl	-9.49484
▁posisjon	-9.49504
▁tradisjon	-9.4956
▁lars	-9.49569
37	-9.49576
lå	-9.49763
▁ly	-9.49795
▁publisert	-9.498
▁moh	-9.49902
▁kol	-9.49921
▁david	-9.49957
huset	-9.5012
xi	-9.50241
▁opera	-9.50364
▁iii	-9.50387
liv	-9.50459
har	-9.50481
▁gra	-9.50515
▁befolkning	-9.50548
▁økonomi	-9.50556
samfunn	-9.50558
▁kontakt	-9.50636
arbeid	-9.5065
▁klart	-9.50698
▁svart	-9.50738
▁utviklingen	-9.50906
gl	-9.50931
▁irland	-9.51002
på	-9.51015
▁sterk	-9.51025
▁nederland	-9.51218
▁vist	-9.51428
▁1936	-9.51485
▁1946	-9.51493
hy	-9.51725
▁naturlig	-9.51776
▁chi	-9.51849
▁faren	-9.51854
▁pra	-9.51934
▁ap	-9.5194
▁red	-9.52181
mu	-9.522
▁høye	-9.52226
▁fylkes	-9.52228
80	-9.52259
▁fordel	-9.52302
▁stilling	-9.5231
▁vunnet	-9.52334
▁ytterligere	-9.52334
▁fla	-9.52335
båt	-9.52346
▁brann	-9.52352
▁fulgte	-9.52353
▁gar	-9.52366
▁martin	-9.52403
▁syd	-9.52469
▁stille	-9.52507
▁valgte	-9.52548
▁måneder	-9.52559
▁bakgrunn	-9.52581
▁slike	-9.52696
wi	-9.5273
ze	-9.52761
▁delvis	-9.52901
▁uavhengig	-9.53002
▁kunstner	-9.53009
▁sterke	-9.5313
▁sørvest	-9.53198
▁cm	-9.53199
▁1928	-9.53207
▁1956	-9.53211
spiss	-9.53274
▁ci	-9.53335
▁wo	-9.53349
ons	-9.53411
▁don	-9.53413
rin	-9.53433
ial	-9.53496
▁høyde	-9.53551
▁try	-9.53574
sberg	-9.53577
▁artene	-9.53694
▁forut	-9.53701
▁korea	-9.53761
valg	-9.53849
bilde	-9.5387
bert	-9.53932
▁natt	-9.53948
dra	-9.54015
▁bør	-9.54049
jel	-9.54053
▁prøve	-9.54081
tatt	-9.5411
trolig	-9.5419
▁distrikt	-9.54241
▁oppgave	-9.54241
▁skrive	-9.54279
pon	-9.54322
▁spre	-9.54335
▁region	-9.54372
▁temperatur	-9.54387
▁qu	-9.54444
ritt	-9.54491
mul	-9.54648
▁fører	-9.54718
rsom	-9.54725
▁nådd	-9.54738
gruppe	-9.5475
▁komponist	-9.54943
▁gjennomført	-9.55028
▁debutert	-9.55034
ledes	-9.5504
aksjon	-9.55089
▁thor	-9.5511
makt	-9.55271
▁inter	-9.55289
område	-9.55298
▁jule	-9.55347
52	-9.5537
▁dia	-9.5539
side	-9.5543
▁teori	-9.55439
ografi	-9.55466
▁konkurransen	-9.55608
pris	-9.55639
▁opprinnelige	-9.55644
lie	-9.55649
▁bø	-9.55745
▁nødvendig	-9.55828
▁hertug	-9.55831
▁skjedde	-9.55838
▁air	-9.55841
▁bevart	-9.55847
▁kjempe	-9.55853
▁mistet	-9.55855
▁søster	-9.55876
▁lind	-9.56001
▁marine	-9.56034
▁design	-9.56068
▁grenser	-9.56101
bor	-9.56108
ua	-9.56141
park	-9.56157
skrift	-9.56192
produksjon	-9.56195
▁sub	-9.56244
ansk	-9.56272
lett	-9.56292
havet	-9.56347
▁sent	-9.56399
▁int	-9.56425
folk	-9.56453
▁størrelse	-9.56463
▁war	-9.56484
ben	-9.56626
ix	-9.56645
▁lege	-9.56668
▁jobb	-9.56682
▁båt	-9.56714
▁1971	-9.56735
▁snakk	-9.56738
▁nevnt	-9.5688
▁modell	-9.57051
▁beskrive	-9.571
foreningen	-9.57139
▁klubb	-9.57205
▁tradisjonell	-9.57256
kje	-9.57283
▁70	-9.57369
▁jens	-9.5745
sette	-9.57465
▁plante	-9.57586
▁utdannet	-9.57622
▁teknisk	-9.57622
ão	-9.57629
▁fredrik	-9.5763
▁1924	-9.57633
▁1974	-9.57636
▁musiker	-9.57658
▁huset	-9.57688
▁variant	-9.57703
▁ytre	-9.5771
▁union	-9.57777
▁sha	-9.57807
▁blo	-9.57863
▁west	-9.57976
▁egg	-9.58095
fart	-9.58103
dor	-9.5813
linje	-9.58148
▁kraftverk	-9.58173
▁kysten	-9.58267
▁tanke	-9.58274
anser	-9.58301
fat	-9.5846
nik	-9.58481
è	-9.5851
▁daglig	-9.58534
▁bronsemedalje	-9.58535
fag	-9.58551
▁latin	-9.5861
▁polsk	-9.5866
gh	-9.58665
tta	-9.5868
▁liga	-9.58848
▁strid	-9.58891
▁artist	-9.58937
47	-9.58978
nett	-9.59007
▁stoppe	-9.59027
▁uttrykk	-9.5904
way	-9.59041
ban	-9.5909
▁retts	-9.592
▁mw	-9.59211
▁holm	-9.59256
▁mengde	-9.59276
fører	-9.59301
р	-9.59448
▁institutt	-9.5945
▁oppkalt	-9.59453
▁1944	-9.59463
▁ordfører	-9.59466
▁handling	-9.59486
▁gården	-9.59498
▁viktige	-9.59514
▁pl	-9.59524
▁300	-9.59532
of	-9.59592
▁kors	-9.59649
▁base	-9.5968
▁journalist	-9.59693
▁motsetning	-9.59718
▁uke	-9.59736
itz	-9.5977
▁årsak	-9.59772
▁ting	-9.59805
rådet	-9.59836
dige	-9.5984
▁femte	-9.5991
▁idretts	-9.59931
▁fro	-9.59955
▁kyst	-9.60031
gangen	-9.6011
▁nasjonale	-9.60154
▁japansk	-9.60225
▁smal	-9.60286
musikk	-9.60293
▁bygde	-9.60318
▁klassisk	-9.60374
▁tilgjengelig	-9.60374
▁fullført	-9.60393
loven	-9.6046
▁johannes	-9.60556
▁eid	-9.606
forbund	-9.60611
▁oppført	-9.60614
ap	-9.60727
▁nasjon	-9.60737
med	-9.60778
organisasjon	-9.60818
▁israel	-9.60892
verket	-9.60904
skil	-9.60967
▁veg	-9.6109
▁sjef	-9.61185
▁beijing	-9.61309
▁ekspedisjon	-9.61315
▁fotballspiller	-9.61346
▁vitenskapelig	-9.61347
ph	-9.61362
▁angeles	-9.61366
senter	-9.61385
▁jorden	-9.61462
▁bad	-9.61487
navnet	-9.61555
klubb	-9.61617
språk	-9.61638
▁oppsto	-9.61697
▁vold	-9.61801
nivå	-9.6186
▁vind	-9.61897
58	-9.61958
komme	-9.62042
▁uni	-9.62063
▁gjelder	-9.62142
79	-9.6215
▁type	-9.62159
mal	-9.62184
▁åpen	-9.62279
▁løs	-9.62358
▁slå	-9.6237
▁egypt	-9.62381
▁begrepet	-9.6264
▁not	-9.62672
▁sette	-9.62715
▁nivå	-9.62732
hov	-9.62789
▁populær	-9.62811
voll	-9.62857
▁student	-9.62893
▁produsent	-9.63013
78	-9.63148
▁tele	-9.63198
▁konflikt	-9.63205
51	-9.63205
▁1939	-9.63217
cc	-9.63238
▁ledd	-9.63285
▁rot	-9.6335
▁ang	-9.63376
grad	-9.63409
gjort	-9.63563
▁effekt	-9.63564
▁vis	-9.63707
▁het	-9.63707
▁ep	-9.63731
▁øyene	-9.63819
ologisk	-9.63847
gjorde	-9.63877
sis	-9.63899
gift	-9.63909
▁avisen	-9.6397
lus	-9.63996
eier	-9.64022
▁bygningen	-9.64024
skolen	-9.64034
▁sovjetisk	-9.6405
rimot	-9.64075
73	-9.6409
vid	-9.64099
▁historisk	-9.64104
gje	-9.64161
▁berømt	-9.64166
▁original	-9.64166
▁stortinget	-9.6417
magasin	-9.64176
▁påvirke	-9.64184
▁nåværende	-9.64219
▁skilt	-9.64258
▁forsvars	-9.64363
▁hoff	-9.6439
▁skje	-9.6442
▁preget	-9.64555
cia	-9.64603
▁uker	-9.64696
yk	-9.64767
▁munn	-9.64781
finn	-9.64865
evne	-9.64887
▁personlig	-9.64892
▁ban	-9.64958
win	-9.65019
▁passer	-9.65021
▁bøker	-9.65028
▁pinyin	-9.65137
▁college	-9.65138
▁1962	-9.65152
▁1963	-9.65152
▁pop	-9.65178
▁støttet	-9.65231
▁rollen	-9.65238
▁bosatt	-9.65273
drag	-9.65281
▁hit	-9.65289
64	-9.65339
▁real	-9.65378
øl	-9.65402
▁tal	-9.65403
▁pol	-9.65446
▁les	-9.65478
▁hest	-9.65581
grunn	-9.65648
valget	-9.65654
▁fjorden	-9.65715
trinn	-9.65829
5	-9.65866
▁dom	-9.65908
▁sky	-9.65977
myndighet	-9.66111
▁1951	-9.66134
gal	-9.66192
▁stykke	-9.66232
zhou	-9.66241
svik	-9.66276
▁stemme	-9.66288
▁frank	-9.66292
stol	-9.66389
▁områdene	-9.6642
▁hovedstaden	-9.66439
▁tema	-9.66475
▁bane	-9.66557
▁fortsette	-9.66705
heng	-9.66809
▁kart	-9.66898
▁spill	-9.66923
▁republikken	-9.67031
▁runde	-9.67073
н	-9.67096
▁sølvmedalje	-9.67113
▁1912	-9.67121
▁falt	-9.67131
ama	-9.67138
ammen	-9.67162
▁stammer	-9.6717
roll	-9.67194
grav	-9.67211
▁jesu	-9.67231
rit	-9.67393
▁spørsmål	-9.6746
gav	-9.67469
▁anlegget	-9.67508
ky	-9.67596
▁meg	-9.67639
▁tettstedet	-9.67725
hel	-9.67731
alis	-9.67859
▁distriktet	-9.67879
▁historiske	-9.67931
fo	-9.67949
▁pat	-9.68001
77	-9.68071
▁california	-9.68108
▁betrakte	-9.68108
▁lansert	-9.68112
▁ridder	-9.68113
▁maskin	-9.68115
rum	-9.6812
▁1965	-9.68129
▁1966	-9.68129
▁nærheten	-9.68158
▁privat	-9.68205
▁systemet	-9.68212
▁likhet	-9.68223
▁behov	-9.68231
▁sil	-9.68295
▁jakt	-9.68326
▁redaktør	-9.68492
▁forskning	-9.68532
▁prosjekt	-9.6854
56	-9.68694
▁heter	-9.68753
▁mas	-9.6876
▁lot	-9.68772
vig	-9.68826
76	-9.68998
▁konsert	-9.69117
▁rapport	-9.69118
▁religion	-9.69118
folkerepublikken	-9.69127
▁richard	-9.6913
▁1949	-9.69135
▁charles	-9.69135
▁profesjonell	-9.69171
bø	-9.69179
▁vitenskap	-9.69196
din	-9.69211
▁lage	-9.69315
▁folket	-9.6943
▁kloster	-9.69474
turnering	-9.69596
▁athen	-9.69639
▁lund	-9.6969
49	-9.69695
hall	-9.69711
▁lek	-9.69862
kirken	-9.69955
serien	-9.69978
rim	-9.69995
▁data	-9.70011
▁direktør	-9.70066
▁valget	-9.70105
▁snart	-9.70142
▁1918	-9.70153
organ	-9.70156
▁jern	-9.7019
▁fot	-9.70221
cha	-9.70261
ney	-9.70272
▁slott	-9.70282
▁kristne	-9.70292
▁vanlige	-9.70349
▁status	-9.70412
tikken	-9.70502
ville	-9.70533
▁aktivitet	-9.7057
▁svak	-9.70751
▁utdanning	-9.70755
▁problem	-9.70985
60	-9.70986
tru	-9.71054
lingen	-9.71114
korps	-9.71136
▁masse	-9.7114
renn	-9.71155
▁mexico	-9.71169
▁skottland	-9.71169
▁national	-9.71169
▁louis	-9.71169
▁friidrett	-9.71188
▁knut	-9.71284
57	-9.71322
gikk	-9.71362
▁revolusjon	-9.71372
ved	-9.71415
lon	-9.71417
68	-9.71479
ios	-9.71488
hr	-9.71525
▁ordenen	-9.71571
▁minutter	-9.71648
▁dal	-9.71694
▁offentlige	-9.71748
ire	-9.7178
▁internasjonal	-9.71787
▁korte	-9.71803
misjon	-9.71804
▁materiale	-9.71882
haug	-9.71919
▁kap	-9.71944
▁produkt	-9.72002
midler	-9.72021
▁flat	-9.72113
▁ung	-9.72182
▁tegnet	-9.72185
▁sund	-9.72194
▁banen	-9.72207
▁wilhelm	-9.72211
▁nominert	-9.72211
▁oversikt	-9.72212
▁østerrike	-9.72212
▁nærmest	-9.72213
▁fokus	-9.72213
▁1942	-9.72222
▁1953	-9.72227
▁unntak	-9.72227
▁cro	-9.72238
▁albert	-9.72277
▁samfunns	-9.72291
metode	-9.72336
▁off	-9.72383
▁tusen	-9.72474
vand	-9.72498
▁ark	-9.72599
▁rus	-9.72703
▁sy	-9.72711
46	-9.72724
iz	-9.72724
▁programmet	-9.72761
ple	-9.72779
▁sel	-9.72797
stall	-9.72831
▁fjellet	-9.7288
▁shi	-9.72992
44	-9.73108
▁total	-9.73126
▁sluttet	-9.73178
holm	-9.73189
▁foreldre	-9.73265
▁sommerfugl	-9.7328
▁strekker	-9.73306
▁bibel	-9.73378
slekt	-9.73423
rev	-9.7347
▁produsere	-9.73498
▁bolig	-9.73544
levende	-9.73551
▁relativt	-9.73601
▁sende	-9.73641
▁behandling	-9.73684
▁gutt	-9.73688
▁avsluttet	-9.73743
▁tittel	-9.73763
▁øke	-9.73788
▁pap	-9.73804
våpen	-9.73974
▁elev	-9.74021
▁kanon	-9.74046
arbeider	-9.74059
▁opprinnelse	-9.74327
▁selvstendig	-9.74327
▁1947	-9.74347
▁rev	-9.74387
shire	-9.7439
▁1500	-9.74403
▁2006.	-9.74422
kur	-9.7445
delt	-9.74519
▁forfatteren	-9.74696
▁beskrevet	-9.748
81	-9.74816
74	-9.74904
ekte	-9.7496
▁salt	-9.74997
▁årlig	-9.75048
▁old	-9.75052
historie	-9.75062
▁betegnelsen	-9.75117
fon	-9.75188
▁sveits	-9.75272
områder	-9.75304
▁rute	-9.75364
▁episode	-9.75403
▁ekteskap	-9.75412
▁1932	-9.75413
▁1934	-9.75414
enberg	-9.75543
hør	-9.75617
▁eli	-9.75777
▁fest	-9.75794
ås	-9.75795
stid	-9.75836
▁hud	-9.75895
▁styrkene	-9.75946
▁dam	-9.75958
last	-9.75988
▁len	-9.76083
▁gy	-9.7612
▁kristen	-9.76179
▁ask	-9.76201
▁trener	-9.76289
54	-9.76363
67	-9.76414
▁forskjell	-9.7642
▁øvre	-9.7649
▁ødelagt	-9.7649
▁1958	-9.76509
▁straffe	-9.76516
▁nes	-9.76544
▁bryte	-9.76597
ance	-9.76638
▁sports	-9.76642
rud	-9.76656
▁tydelig	-9.76724
63	-9.76746
▁cent	-9.76851
▁lese	-9.76871
▁pass	-9.76915
støt	-9.76919
▁euro	-9.76951
▁tettsted	-9.76958
pet	-9.76989
▁kir	-9.77032
▁hei	-9.77034
linjen	-9.77082
▁offiser	-9.77083
lund	-9.77197
▁løv	-9.7732
mand	-9.77377
▁sist	-9.77474
▁sir	-9.77476
▁gitar	-9.775
▁fordelt	-9.77559
▁rik	-9.77586
▁utbredt	-9.77588
▁publikum	-9.77588
71	-9.77599
▁ven	-9.77599
▁1961	-9.77603
▁just	-9.77611
rio	-9.77635
plikt	-9.77676
mund	-9.77715
▁hve	-9.77721
▁flyplass	-9.77723
▁gjenopp	-9.77727
▁nærmer	-9.7776
▁plassering	-9.77772
hen	-9.77799
▁eiendom	-9.77806
que	-9.77812
▁hodet	-9.77827
▁star	-9.77842
lov	-9.77862
bygning	-9.77881
▁auto	-9.77882
▁sykehus	-9.77933
06	-9.78141
▁formel	-9.78166
stedet	-9.78199
con	-9.7824
▁saken	-9.7829
55	-9.78335
industri	-9.78396
▁glo	-9.78397
▁bind	-9.78428
▁benyttes	-9.78544
parti	-9.78712
▁1959	-9.78715
▁flagg	-9.78728
▁35	-9.78771
prisen	-9.7879
tti	-9.78825
53	-9.78826
▁drive	-9.78919
▁undersøkelse	-9.78952
▁nordisk	-9.78987
▁bla	-9.79053
hn	-9.79095
▁ansatte	-9.79101
▁time	-9.79147
▁byer	-9.79192
▁handel	-9.79203
▁bern	-9.79271
▁utvidet	-9.7929
▁leg	-9.79425
▁gun	-9.7943
▁rad	-9.79445
▁rekord	-9.79466
▁fyr	-9.79495
▁harald	-9.79514
aktig	-9.7954
85	-9.79571
▁bidra	-9.79588
▁ze	-9.79785
▁allierte	-9.79824
62	-9.79825
▁1921	-9.79838
▁1954	-9.79841
▁drama	-9.79916
▁skatte	-9.79962
▁representant	-9.79984
hol	-9.8007
visning	-9.80125
15	-9.80182
pl	-9.80274
▁bel	-9.80286
ova	-9.80308
iserte	-9.80616
▁ansatt	-9.80694
▁ji	-9.80767
▁un	-9.80771
▁våren	-9.80779
69	-9.8078
trekk	-9.80876
nis	-9.80905
▁eksempl	-9.80958
▁world	-9.8096
▁hjerte	-9.80961
▁1943	-9.80976
▁effektiv	-9.81
▁operasjon	-9.81008
▁kampene	-9.8101
43	-9.81042
▁avhengig	-9.81046
▁oppdrag	-9.81145
▁sau	-9.81154
▁hovedstad	-9.81168
kirke	-9.81183
▁markert	-9.8124
▁skips	-9.81246
18	-9.8125
vatnet	-9.81261
▁vik	-9.81285
ā	-9.81349
kammer	-9.81446
▁die	-9.81455
ringer	-9.81477
▁opphold	-9.81518
▁zh	-9.81604
▁studenter	-9.81607
▁høyt	-9.81629
▁fugle	-9.81697
arter	-9.81767
album	-9.81823
kunst	-9.81857
▁karakter	-9.8193
forhold	-9.82019
oll	-9.82029
jiang	-9.82054
▁600	-9.82093
▁1941	-9.82109
▁elektrisk	-9.82109
▁generelt	-9.82109
▁united	-9.8211
▁yngre	-9.8211
▁tidsskrift	-9.82111
▁jarl	-9.82142
▁app	-9.82148
trukket	-9.82172
▁nabo	-9.82349
▁bidrag	-9.82353
▁sørge	-9.82358
▁angrepet	-9.82362
▁listen	-9.82526
▁krets	-9.82571
vert	-9.82576
▁fjern	-9.82624
▁borg	-9.82627
▁single	-9.82664
▁landskapet	-9.82667
▁bon	-9.8269
▁sykdom	-9.82857
stamme	-9.82884
▁utover	-9.83089
▁nærings	-9.83167
▁forbundet	-9.83226
▁prosess	-9.83235
elli	-9.83246
▁hurtig	-9.83273
▁forteller	-9.83275
gå	-9.83291
▁1957	-9.83291
ball	-9.83308
bunn	-9.83337
▁toppen	-9.83401
▁kongens	-9.83444
▁landene	-9.83526
▁scoret	-9.83567
dels	-9.83722
▁hellige	-9.83823
▁kontrakt	-9.83838
gle	-9.83854
formet	-9.83894
▁trafikk	-9.83917
▁teksten	-9.83958
rute	-9.84005
▁nyere	-9.84069
▁por	-9.84103
ante	-9.84114
ledning	-9.84143
▁måned	-9.84155
▁brev	-9.84249
▁medisin	-9.84269
kysten	-9.84341
05	-9.84405
▁fengsel	-9.84448
▁league	-9.84448
▁michael	-9.84448
kapasitet	-9.8445
▁melodi	-9.8445
▁hovedsak	-9.84465
▁dyre	-9.84492
▁front	-9.845
bru	-9.84522
▁filmer	-9.84523
▁kilde	-9.84526
kjør	-9.84543
▁dog	-9.84645
▁gram	-9.84708
san	-9.84853
avis	-9.84953
▁endelig	-9.84967
teri	-9.85009
▁omtale	-9.85022
isten	-9.85039
▁andreplass	-9.85044
▁begynner	-9.85127
▁aust	-9.85287
▁gass	-9.85297
▁verne	-9.85463
krig	-9.85464
▁turist	-9.85473
▁yu	-9.85514
▁kunnskap	-9.8564
▁faktisk	-9.85641
▁kvinnelig	-9.85643
▁south	-9.85651
är	-9.85721
▁bombe	-9.85777
▁lø	-9.85825
▁nekte	-9.85826
bli	-9.85849
pin	-9.85852
▁she	-9.85868
▁alvorlig	-9.85875
▁indisk	-9.85987
▁nordland	-9.86006
▁lau	-9.86077
▁lignende	-9.86196
org	-9.86205
▁kull	-9.86213
▁foss	-9.86215
▁stasjonen	-9.86232
▁kongelige	-9.86235
▁tonn	-9.86253
▁innsjøen	-9.86313
sang	-9.86352
95	-9.8639
▁selve	-9.86444
▁landsbyen	-9.8646
gata	-9.8651
▁larven	-9.8652
arm	-9.86529
▁elve	-9.86587
▁klokk	-9.86628
medlem	-9.86646
48	-9.86737
▁kontor	-9.86752
▁åpne	-9.86806
▁arabisk	-9.86845
▁tilhørte	-9.86846
▁lengst	-9.86851
▁1908	-9.86859
▁1955	-9.86862
▁oss	-9.8689
følgende	-9.86897
▁prins	-9.86901
▁stilt	-9.86939
brakte	-9.87009
▁organisert	-9.87021
▁spa	-9.87043
jev	-9.87047
tic	-9.87076
▁sag	-9.87104
▁45	-9.87143
▁pen	-9.87148
▁østlige	-9.87216
▁nils	-9.87318
▁dømt	-9.8733
ativ	-9.87391
▁anne	-9.87444
▁arve	-9.87547
▁vinner	-9.87579
25	-9.8758
▁bord	-9.87594
sport	-9.876
▁overgang	-9.87604
▁kas	-9.87681
serie	-9.87811
▁win	-9.87873
ona	-9.87882
stått	-9.87915
▁driver	-9.8802
▁formål	-9.88041
▁inspirert	-9.88063
▁primær	-9.88063
▁1914	-9.88074
▁1935	-9.88078
ón	-9.88089
regn	-9.88131
læ	-9.88134
soldat	-9.88145
▁arkitektur	-9.88156
▁åpning	-9.88172
▁bosetning	-9.88194
jar	-9.88298
▁jevn	-9.8831
▁sider	-9.88345
59	-9.88462
▁vet	-9.8847
▁viking	-9.88518
hand	-9.88542
▁north	-9.88554
▁bred	-9.88632
▁mid	-9.88876
▁dø	-9.8894
▁tårn	-9.88954
▁beskytte	-9.89054
▁solo	-9.89093
forskning	-9.8912
qui	-9.89128
krets	-9.89146
▁problemer	-9.89185
▁fylket	-9.89245
▁helge	-9.89259
▁offisielt	-9.89297
▁praksis	-9.89297
▁brøt	-9.89301
▁publi	-9.89305
▁medlemmene	-9.89305
▁flertall	-9.89305
▁klima	-9.8931
▁bygninger	-9.89321
jan	-9.89373
▁tredjeplass	-9.89377
vesen	-9.89403
▁oppnådd	-9.89473
▁grø	-9.89501
▁spanske	-9.89503
▁hjelpe	-9.89513
fang	-9.89544
▁vær	-9.89578
mennene	-9.89588
▁grunnlag	-9.89601
▁ungdom	-9.8964
mil	-9.89739
▁32	-9.89749
▁ana	-9.89782
▁hell	-9.89809
lem	-9.89825
vinger	-9.90254
band	-9.90264
▁dato	-9.90264
▁kreft	-9.90307
▁bevis	-9.90323
▁populære	-9.90391
møte	-9.90404
øyene	-9.90499
wood	-9.90526
▁tilknytning	-9.90547
▁jazz	-9.90548
▁1700	-9.90557
▁1926	-9.90558
▁planlagt	-9.90566
▁spredt	-9.90584
▁øverste	-9.90592
▁middelalderen	-9.90605
▁snø	-9.90608
strand	-9.90648
▁fc	-9.90654
ctor	-9.90655
70	-9.90664
spor	-9.90726
senteret	-9.90751
▁mulighet	-9.90799
▁junior	-9.90937
▁kjerne	-9.9105
ink	-9.91096
▁tale	-9.91197
▁sønnen	-9.91251
61	-9.91251
12	-9.91251
▁klassen	-9.91304
klassen	-9.91341
▁ram	-9.91345
▁hår	-9.9137
æl	-9.91402
▁søke	-9.91407
90	-9.91537
97	-9.91643
vitenskap	-9.9166
trafikk	-9.91664
▁møter	-9.91768
▁univers	-9.91789
kommunikasjon	-9.91813
▁ishockey	-9.91813
▁records	-9.91813
▁moskva	-9.91813
▁beseire	-9.91813
▁inkluderer	-9.91813
▁redusert	-9.91814
▁anerkjent	-9.91814
▁rykket	-9.91815
▁sistnevnte	-9.91816
▁fungere	-9.91818
▁1919	-9.91827
▁hustru	-9.91843
▁frykt	-9.91853
▁turneringen	-9.91853
▁jordbruk	-9.91857
▁tog	-9.91869
▁dekket	-9.91916
▁eg	-9.91981
▁makten	-9.92021
▁konkurranse	-9.92078
▁anta	-9.92101
▁800	-9.92117
▁hin	-9.92164
konge	-9.92254
båter	-9.92279
▁markeds	-9.92313
bus	-9.92372
▁stav	-9.92546
án	-9.92642
▁utgave	-9.92679
verdig	-9.92701
▁bygg	-9.92724
▁00	-9.92733
▁riket	-9.92748
▁nø	-9.92774
21	-9.92787
▁motiv	-9.92863
kvart	-9.92871
prosjekt	-9.92963
▁provins	-9.93035
▁vinge	-9.9308
partiet	-9.93089
▁bevege	-9.93103
stykke	-9.93124
motor	-9.93139
▁rang	-9.93209
rup	-9.93227
▁økte	-9.93239
▁spillet	-9.93275
▁jean	-9.93338
▁harry	-9.93375
kjent	-9.93387
▁larvene	-9.93447
▁disk	-9.93505
07	-9.93529
▁struktur	-9.93702
▁poly	-9.93779
▁hode	-9.93887
kh	-9.9401
▁ce	-9.94023
▁fremme	-9.94039
▁utvalg	-9.94077
▁sikkerhets	-9.94313
▁innflytelse	-9.94389
▁fan	-9.94391
▁alternativ	-9.94394
▁vietnam	-9.94394
▁hensikt	-9.94394
▁verdenscup	-9.94394
▁jacob	-9.94395
▁cirka	-9.94395
▁bidro	-9.94395
▁1931	-9.94406
▁hindre	-9.94412
▁nan	-9.94456
▁kjøpe	-9.94458
eksamen	-9.94466
▁avholdt	-9.94481
▁oversettelse	-9.94488
hopp	-9.94508
▁scene	-9.94541
99	-9.94567
▁tyskerne	-9.94611
givelse	-9.94624
▁enda	-9.94633
▁mørke	-9.94639
▁fritt	-9.94647
39	-9.94667
▁endre	-9.9467
▁hage	-9.94686
▁tj	-9.94722
▁est	-9.94728
grupper	-9.94736
▁normalt	-9.94747
▁løper	-9.94896
vekt	-9.94922
▁char	-9.95004
foss	-9.95168
▁trekke	-9.95185
▁sier	-9.95377
▁kam	-9.95498
hm	-9.95517
▁bakken	-9.95523
28	-9.95586
fil	-9.95603
▁vannet	-9.95614
▁debut	-9.95621
▁ph	-9.95627
▁ya	-9.95629
▁kristian	-9.95641
▁spansk	-9.95666
▁vinne	-9.95706
▁international	-9.9571
▁passasjer	-9.9571
▁belgia	-9.9571
▁jødisk	-9.95711
▁litterær	-9.95721
▁kropps	-9.95726
▁leir	-9.95728
▁musikkalbum	-9.95734
▁erklært	-9.9577
ordenen	-9.9579
▁metall	-9.95801
fjell	-9.95874
lly	-9.96032
pel	-9.96057
▁landsby	-9.96066
▁tilbud	-9.96214
▁bølge	-9.96221
▁oversatt	-9.96391
▁kjøp	-9.96424
▁rh	-9.96493
▁anna	-9.96561
▁wei	-9.96629
▁linjen	-9.96652
byr	-9.96669
slav	-9.96716
▁båten	-9.96726
▁ub	-9.96753
▁test	-9.96766
olo	-9.96772
plate	-9.96832
▁forsvaret	-9.96891
▁opphav	-9.96941
bjørn	-9.96965
87	-9.96974
в	-9.97035
▁advokat	-9.97043
▁edvard	-9.97043
▁islam	-9.9705
▁lufthavn	-9.97055
▁1938	-9.97057
▁saint	-9.97065
▁bob	-9.97101
▁ekstra	-9.97134
field	-9.97139
▁nedlagt	-9.9714
styrken	-9.97284
▁sort	-9.97354
tegn	-9.97356
kritiker	-9.97365
▁omfatte	-9.97375
▁skille	-9.97529
▁teolog	-9.9757
sco	-9.97579
bank	-9.97613
▁studier	-9.97642
75	-9.9768
▁domin	-9.97715
kov	-9.97725
▁klo	-9.97789
blad	-9.97831
handler	-9.97844
▁reform	-9.97886
rige	-9.97899
08	-9.97949
▁sul	-9.97954
dorf	-9.98005
▁program	-9.9806
stoff	-9.981
▁mørk	-9.9815
dam	-9.98248
▁skyld	-9.98272
▁varme	-9.98324
▁avstand	-9.98386
▁sjelden	-9.98394
▁individuell	-9.98395
▁cell	-9.984
▁bispedømme	-9.98401
▁hemmelig	-9.98404
ingeniør	-9.98414
▁øvelse	-9.98416
ula	-9.98418
▁sannsynligvis	-9.98438
▁veldig	-9.98466
hjul	-9.98467
▁armé	-9.98474
▁1600	-9.98487
ura	-9.9853
▁riksvei	-9.98548
▁objekt	-9.98621
▁finsk	-9.98677
▁vakt	-9.98726
▁gard	-9.98742
klær	-9.98784
▁forble	-9.98811
▁historiker	-9.98844
▁strand	-9.98896
▁bydel	-9.98902
▁tour	-9.99038
▁utdannelse	-9.99054
▁tunnel	-9.99114
▁sko	-9.9915
▁ansett	-9.99191
▁haug	-9.99296
▁sur	-9.99336
▁150	-9.99404
▁salg	-9.99411
analyse	-9.9943
35	-9.99543
24	-9.99562
gy	-9.99566
▁fremste	-9.99567
▁økt	-9.99737
somme	-9.99742
▁guvernør	-9.99764
▁dialekt	-9.99764
▁finnmark	-9.99765
▁school	-9.99765
▁bokstav	-9.99766
▁norrøn	-9.99768
▁antenne	-9.99771
▁1929	-9.99775
forvaltning	-9.99776
▁skotsk	-9.9978
▁debatt	-9.99804
ax	-9.9999
handlet	-9.99995
▁samarbeidet	-10.0001
skipet	-10.0006
▁verket	-10.0019
tha	-10.0021
83	-10.0021
▁cal	-10.0022
▁instrument	-10.0031
sler	-10.0036
▁kh	-10.0042
▁rør	-10.0043
▁magne	-10.0043
▁sten	-10.0065
▁utgivelsen	-10.0066
▁rund	-10.0081
▁forsknings	-10.0083
▁brede	-10.0098
dommen	-10.0099
▁kommuner	-10.011
▁individ	-10.0115
▁nevnes	-10.0115
▁stadion	-10.0116
▁levde	-10.0116
kommune	-10.0116
▁1925	-10.0117
▁ukjent	-10.0123
▁hellas	-10.0123
▁arne	-10.0123
▁timer	-10.0127
▁stoff	-10.0139
▁grunnlegge	-10.0143
▁ran	-10.0143
▁fn	-10.0146
mus	-10.0147
vision	-10.0153
▁språket	-10.0155
▁slags	-10.0158
nær	-10.0161
▁maur	-10.0164
arbeidet	-10.0172
▁hill	-10.0172
▁nedre	-10.0178
▁involvert	-10.0182
grense	-10.0188
▁bibliotek	-10.0189
lang	-10.0195
mond	-10.0202
ish	-10.0203
sam	-10.0203
▁æres	-10.0221
98	-10.0223
klubben	-10.0225
▁former	-10.0244
kop	-10.0251
▁administrativ	-10.0256
▁helsingfors	-10.0256
▁installert	-10.0256
▁kontinent	-10.0256
▁institusjon	-10.0256
▁ungarn	-10.0256
▁frederik	-10.0257
▁1917	-10.0258
driv	-10.026
▁alpin	-10.0264
▁henry	-10.027
iel	-10.0275
▁kaptein	-10.029
▁mary	-10.0299
▁fløy	-10.0302
▁king	-10.0306
▁tilfelle	-10.0326
▁stam	-10.0328
▁oppdag	-10.0331
ograf	-10.0347
mma	-10.0348
▁innsjø	-10.035
▁styret	-10.035
▁tilfeller	-10.0352
▁rygg	-10.0362
▁nic	-10.037
rib	-10.037
press	-10.0379
fylt	-10.0382
ram	-10.0383
▁private	-10.0385
bul	-10.0387
▁kha	-10.0391
▁ferd	-10.0392
dar	-10.0394
▁may	-10.0399
▁1922	-10.0399
▁introdusert	-10.0399
▁konservativ	-10.0399
▁erkebiskop	-10.0399
▁län	-10.0399
lever	-10.0399
▁tolv	-10.04
▁glass	-10.04
strøm	-10.04
▁1916	-10.0401
▁utøver	-10.0401
faktor	-10.0402
▁anledning	-10.0404
kultur	-10.0407
▁cd	-10.0415
94	-10.0416
▁undervisning	-10.0425
▁representerer	-10.0433
mod	-10.044
farge	-10.0442
▁vokser	-10.0447
84	-10.0449
▁dobbelt	-10.045
▁overfor	-10.0452
fot	-10.0453
▁andreas	-10.0457
kjede	-10.0464
pass	-10.0465
23	-10.0466
▁hed	-10.0467
musik	-10.0469
henger	-10.047
▁dokument	-10.0472
▁erobret	-10.0473
▁kandidat	-10.0473
▁synes	-10.0473
▁rein	-10.0491
stripe	-10.0494
▁wien	-10.0495
stasjonen	-10.0508
▁johann	-10.051
16	-10.052
▁myr	-10.0527
▁bol	-10.0531
▁politiet	-10.0535
▁måten	-10.0537
▁tidlige	-10.0539
▁joseph	-10.0544
▁oscar	-10.0544
▁smith	-10.0544
▁dollar	-10.0544
▁royal	-10.0544
▁bryst	-10.0545
rommet	-10.0546
▁signert	-10.0546
distrikt	-10.0548
hånd	-10.0548
▁betegne	-10.0549
▁omtalt	-10.0549
▁33	-10.0552
type	-10.0564
snitt	-10.0565
▁solen	-10.0577
bein	-10.0579
▁vers	-10.0586
▁insekter	-10.0589
fabrikk	-10.0592
▁blanding	-10.0594
▁bilder	-10.0595
▁ansvar	-10.0595
▁svar	-10.0599
▁kjøl	-10.0608
▁lån	-10.061
▁ok	-10.0618
▁stortings	-10.0625
▁nr	-10.0625
▁ordre	-10.0625
low	-10.0645
unt	-10.0649
▁ann	-10.066
04	-10.0689
▁engasjert	-10.0691
▁award	-10.0691
▁arrestert	-10.0691
▁hovedrollen	-10.0691
▁tegneserie	-10.0692
▁regjerings	-10.0697
konkurranse	-10.0697
avdeling	-10.0698
well	-10.0702
▁latinsk	-10.0705
▁rammet	-10.0708
▁kanalen	-10.0711
▁produksjonen	-10.0723
ulykke	-10.0723
▁vekk	-10.0735
▁tang	-10.0738
▁ankom	-10.0739
▁utenriks	-10.0739
▁ramme	-10.074
▁behandle	-10.0753
uka	-10.0753
▁dynastiet	-10.0754
feld	-10.0755
barn	-10.0755
▁grunnla	-10.0759
▁dokumenter	-10.0765
▁opprettelse	-10.0781
▁fartøy	-10.0795
slaget	-10.0801
▁normal	-10.0803
▁endringer	-10.0807
▁mill	-10.0811
▁forbi	-10.0813
rick	-10.0836
▁tråd	-10.0837
▁akershus	-10.084
▁tilknyttet	-10.084
▁østerriksk	-10.084
▁regissert	-10.084
▁tempel	-10.084
▁typisk	-10.0841
▁kritikk	-10.0841
▁krevd	-10.0841
▁kvalitet	-10.0842
▁riktig	-10.0842
▁premier	-10.0842
▁blue	-10.0844
▁1910	-10.0844
▁beregne	-10.0846
forsvar	-10.085
firma	-10.085
▁forvingen	-10.0852
82	-10.0853
▁agder	-10.0853
▁aksje	-10.0854
▁graf	-10.0858
▁antatt	-10.0861
▁organisasjon	-10.0869
▁syr	-10.0869
▁mesterskapet	-10.0874
post	-10.0877
▁planet	-10.088
▁spise	-10.0883
▁overført	-10.0884
▁nordover	-10.0885
▁stål	-10.0891
former	-10.0893
▁edderkopp	-10.0912
dagen	-10.0915
▁green	-10.0935
ugh	-10.0938
hem	-10.0938
gården	-10.0941
▁ligne	-10.0946
▁vä	-10.0947
▁dør	-10.0949
bær	-10.0951
▁avtalen	-10.0961
▁rag	-10.0965
▁frihet	-10.0965
▁trening	-10.0969
▁mono	-10.0971
gren	-10.0975
skift	-10.0984
▁kommunal	-10.0992
▁magnus	-10.0992
▁adresse	-10.0992
▁unngå	-10.0992
▁beholdt	-10.0993
▁generasjon	-10.0993
▁1927	-10.0993
▁1923	-10.0994
▁sim	-10.0997
▁video	-10.0998
72	-10.0999
▁marc	-10.1
direktør	-10.1003
▁damp	-10.1013
▁bay	-10.1022
▁filip	-10.1026
gaard	-10.1034
▁semifinalen	-10.1034
maler	-10.1035
▁anton	-10.1038
▁dalen	-10.104
▁metal	-10.1043
▁bredd	-10.1048
▁sete	-10.1049
▁fotograf	-10.1052
▁regional	-10.1061
17	-10.1079
kampen	-10.1091
▁qui	-10.1099
skyting	-10.11
▁vinteren	-10.11
ordning	-10.1102
gard	-10.1117
▁met	-10.1126
▁festning	-10.1129
▁dommer	-10.1132
mesterskapet	-10.1133
▁pin	-10.1135
▁elisabeth	-10.1146
▁etterfulgt	-10.1146
▁fullstendig	-10.1146
ов	-10.1147
▁monark	-10.1149
▁protestant	-10.115
▁varierer	-10.1152
reise	-10.1157
prosess	-10.1159
maskin	-10.1159
▁wat	-10.1163
▁øvrige	-10.1164
▁bydelen	-10.1165
6	-10.1167
▁odd	-10.1174
▁ansvarlig	-10.1176
▁kommunene	-10.1177
▁verdensmester	-10.1178
brand	-10.1178
▁imot	-10.1192
bevegelsen	-10.1202
▁demokratisk	-10.1208
▁internasjonalt	-10.1209
▁stillingen	-10.1221
▁idrettslag	-10.1223
vind	-10.1224
▁planer	-10.1224
▁selge	-10.1238
qua	-10.1241
▁fremtid	-10.1243
▁bærer	-10.1249
▁filosofi	-10.1252
▁up	-10.1254
bladet	-10.1257
▁keiseren	-10.1265
27	-10.1265
fugl	-10.1268
lyn	-10.1271
▁santa	-10.1277
▁middel	-10.1278
▁angi	-10.128
kilden	-10.1285
hard	-10.1291
▁velge	-10.1297
▁fabrikk	-10.1298
▁milliarder	-10.1302
▁county	-10.1302
▁eventuel	-10.1302
▁positiv	-10.1302
▁kombinert	-10.1302
▁sachsen	-10.1302
▁mikro	-10.1302
19	-10.1302
▁oppfatte	-10.1302
▁mytologi	-10.1304
▁1906	-10.1304
▁show	-10.1306
▁streng	-10.1315
virksomhet	-10.1318
▁team	-10.1318
▁minister	-10.1323
▁kino	-10.133
42	-10.1333
▁38	-10.1336
▁styrte	-10.1336
handel	-10.1339
▁tropp	-10.1344
▁eva	-10.1345
▁vitne	-10.1346
▁inntekt	-10.135
phi	-10.136
styrke	-10.1363
▁nm	-10.1364
▁gruve	-10.1377
▁innhold	-10.1379
▁mun	-10.138
▁medaljer	-10.1388
▁penger	-10.1395
▁trekk	-10.1397
▁stab	-10.1399
▁utsatt	-10.1404
styrt	-10.1407
▁sportsutøvere	-10.1411
tallet	-10.1431
▁irsk	-10.1452
▁1000	-10.1456
▁amsterdam	-10.1461
▁antagelig	-10.1461
▁umiddelbar	-10.1461
▁mektig	-10.1461
▁eksistert	-10.1461
▁fysisk	-10.1461
kommisjon	-10.1462
▁telemark	-10.1462
▁senter	-10.1463
▁frukt	-10.1465
▁kapell	-10.1469
▁kristiania	-10.147
▁forkorte	-10.1471
▁innsats	-10.1471
byrå	-10.1477
▁liberal	-10.1482
▁modellen	-10.15
▁tekster	-10.1502
▁eik	-10.1502
▁besøkte	-10.151
hø	-10.1511
løpet	-10.1517
brun	-10.1521
eide	-10.1521
▁leon	-10.1522
▁teknologi	-10.1524
▁unn	-10.1535
▁eide	-10.1544
11	-10.1546
føl	-10.1549
distanse	-10.1549
gli	-10.1549
▁hunnen	-10.1557
atet	-10.1558
▁løsning	-10.1577
▁buss	-10.1581
▁utstyr	-10.1588
▁song	-10.1597
▁lagene	-10.1597
▁utstilling	-10.1602
▁vekst	-10.1602
can	-10.1605
staten	-10.1609
drevet	-10.161
▁salme	-10.1614
▁middelalder	-10.1615
▁sannsynlig	-10.1617
13	-10.1619
▁musikken	-10.1622
▁innbyggertall	-10.1622
▁kjærlighet	-10.1622
▁kvalifisering	-10.1622
▁registrert	-10.1622
▁forekommer	-10.1622
▁brensel	-10.1622
▁samfunnet	-10.1624
▁philip	-10.1625
▁skaffe	-10.1625
▁1937	-10.1625
▁sverd	-10.1627
▁oppmerksomhet	-10.1627
34	-10.1644
angrep	-10.1645
områdene	-10.1646
vekst	-10.1647
masse	-10.1655
▁tone	-10.1663
▁betale	-10.1664
▁fortalt	-10.1669
▁representanter	-10.1675
▁artikkel	-10.1681
ledd	-10.1682
▁motsatt	-10.1685
iko	-10.1692
▁elever	-10.1693
▁bredt	-10.1698
gin	-10.1714
▁lord	-10.1717
▁teknikk	-10.1718
▁tromsø	-10.1719
▁begrep	-10.1719
▁museet	-10.1722
fjellet	-10.1726
▁neu	-10.1728
▁bach	-10.1736
lim	-10.1742
88	-10.1752
istene	-10.1758
pot	-10.1765
▁nazi	-10.1783
▁protest	-10.1784
▁1902	-10.1786
▁portugal	-10.1786
▁kategori	-10.1786
▁jakob	-10.1786
▁nedbør	-10.1786
▁invasjon	-10.1786
▁myndighetene	-10.1787
▁blomster	-10.1788
blomst	-10.1789
▁opplevd	-10.1789
▁max	-10.1791
▁hentet	-10.1792
38	-10.1792
▁hitler	-10.1796
▁utføre	-10.1796
▁krysse	-10.1802
▁forskere	-10.1802
▁resultatet	-10.1803
▁finske	-10.1804
▁grønne	-10.1805
▁gold	-10.1807
▁atom	-10.1809
▁tradisjonel	-10.1818
▁bonde	-10.1818
zy	-10.1819
▁stol	-10.1822
▁phil	-10.1825
▁slett	-10.1838
▁will	-10.1854
▁rose	-10.1857
▁flåte	-10.1859
▁nettverk	-10.1863
▁føre	-10.1871
▁gjeste	-10.1873
▁versjonen	-10.1875
▁anse	-10.1878
▁troll	-10.188
▁utstyrt	-10.1882
▁skiftet	-10.1884
▁kg	-10.1885
▁ære	-10.1895
dekke	-10.1915
▁nar	-10.1921
▁fjord	-10.1922
0	-10.1929
løft	-10.1948
▁geografisk	-10.1953
▁belgisk	-10.1953
▁arbeiderpartiet	-10.1954
▁1905	-10.1955
▁bevegelsen	-10.1958
▁cra	-10.1959
▁nederlag	-10.1964
▁redde	-10.1966
alderen	-10.1968
▁mangler	-10.1969
▁gitarist	-10.1977
▁gjeld	-10.1979
bøker	-10.1986
stille	-10.1988
språklig	-10.1988
▁bilen	-10.1988
▁studio	-10.1995
løsning	-10.1998
blant	-10.2
▁preg	-10.2002
fyll	-10.2003
▁kode	-10.2005
▁nam	-10.2013
▁brenn	-10.2017
tegnelse	-10.2024
▁frø	-10.203
forbud	-10.2031
▁skikk	-10.2031
▁statlig	-10.2039
▁populært	-10.2043
▁39	-10.2044
▁34	-10.2048
▁fjernet	-10.205
▁avtale	-10.205
▁bei	-10.2065
▁prosjektet	-10.2066
▁skriver	-10.2081
▁medalje	-10.2087
▁kanal	-10.2099
una	-10.21
▁synlig	-10.2103
ifisert	-10.2105
▁natten	-10.2108
▁lyn	-10.2113
dikt	-10.212
institu	-10.2121
▁venner	-10.2121
▁eksperiment	-10.2122
▁kristiansand	-10.2122
▁terreng	-10.2122
▁svømme	-10.2122
▁oppløst	-10.2123
▁håndball	-10.2124
▁1933	-10.2124
▁gullmedalje	-10.2124
▁generell	-10.2124
▁otto	-10.2124
▁1915	-10.2125
▁pensjon	-10.2127
▁bekrefte	-10.2127
▁vendt	-10.2128
høgskole	-10.2129
▁akademi	-10.2134
▁talent	-10.2134
▁epi	-10.2135
▁reaksjon	-10.2136
▁mottatt	-10.2148
kka	-10.2149
96	-10.2152
▁hendelser	-10.2157
▁kapp	-10.2163
▁bevegelse	-10.2164
▁intern	-10.2168
45	-10.2177
▁planen	-10.2181
▁ken	-10.2194
▁konserter	-10.2204
▁villa	-10.2205
▁anlegg	-10.2211
▁penge	-10.2214
▁beskrev	-10.2227
▁geo	-10.2236
samisk	-10.2237
▁planter	-10.2247
ary	-10.2248
wald	-10.2254
▁sving	-10.2257
halvøya	-10.2263
▁kai	-10.2264
▁kilder	-10.2266
äl	-10.2273
▁andel	-10.2281
▁landskap	-10.2282
ico	-10.2282
▁romanen	-10.2284
▁munk	-10.2285
▁rosen	-10.229
▁vg	-10.2291
økonom	-10.2292
▁portugisisk	-10.2294
▁fødsel	-10.2294
▁utenlandske	-10.2294
▁radikal	-10.2294
▁jøder	-10.2295
▁utnytte	-10.2295
dommer	-10.2296
▁anklage	-10.2296
▁internett	-10.2298
▁hensyn	-10.2299
▁portrett	-10.2301
ella	-10.2301
beth	-10.2302
▁1200	-10.2302
▁feire	-10.2305
▁vokalist	-10.2306
▁75	-10.2306
▁typer	-10.2308
▁mangle	-10.2311
▁1890	-10.2311
▁sideelv	-10.2313
▁fase	-10.2319
▁eksempelvis	-10.2324
▁bass	-10.2328
▁ost	-10.2332
møll	-10.2338
fyr	-10.2345
domstol	-10.2348
▁ky	-10.2354
▁parlamentet	-10.236
▁storm	-10.2365
▁begynne	-10.2368
▁artikler	-10.238
▁evne	-10.2382
▁begrenset	-10.2395
33	-10.2401
▁700	-10.241
▁hamar	-10.2412
32	-10.2413
▁55	-10.2415
▁etasje	-10.2415
▁forstå	-10.2423
▁typen	-10.2436
▁vogn	-10.2436
▁oppnå	-10.2454
arrangement	-10.2469
▁etablere	-10.247
▁observer	-10.247
▁ødelegge	-10.247
▁håp	-10.247
▁hotell	-10.2471
▁etterfølger	-10.2472
▁drammen	-10.2474
▁dvs	-10.2475
▁bispe	-10.2475
▁korn	-10.2475
runde	-10.248
▁prix	-10.2482
▁oppstå	-10.2489
▁sovjet	-10.2491
▁jack	-10.2492
hode	-10.2498
▁kjell	-10.2501
kasse	-10.2502
▁opptatt	-10.2502
kreft	-10.2502
program	-10.2503
produkt	-10.2505
produsent	-10.2505
forbindelse	-10.2506
miljø	-10.2509
vogn	-10.2509
kontor	-10.2511
▁clar	-10.2518
▁utgangspunktet	-10.2523
▁grønn	-10.2531
▁betegnelse	-10.2535
ity	-10.2536
▁rå	-10.2538
▁kalde	-10.2546
▁fry	-10.2559
▁grunnlov	-10.2564
▁jernbanen	-10.2567
▁stemmer	-10.2569
elva	-10.2573
øst	-10.2577
▁fremmed	-10.2578
mba	-10.2578
▁parlament	-10.2581
start	-10.2583
kanten	-10.2585
▁starter	-10.2587
▁fante	-10.2594
89	-10.2595
▁helst	-10.2613
graf	-10.2617
▁boka	-10.2622
fell	-10.2644
▁elektro	-10.2646
▁konkurrere	-10.2648
▁alexander	-10.2648
▁håkon	-10.2648
▁rådgiver	-10.2648
▁eksisterer	-10.2648
▁kim	-10.2649
▁mongol	-10.2649
▁gjennomføre	-10.265
▁fjernsyn	-10.265
▁1904	-10.265
▁1907	-10.2651
▁organisasjoner	-10.2651
▁europe	-10.2659
▁stabil	-10.266
lokk	-10.2662
▁administrasjons	-10.2664
31	-10.2665
▁flytte	-10.2669
▁tvang	-10.2671
▁kopi	-10.2672
middel	-10.2687
tittel	-10.2691
havn	-10.2691
▁innlede	-10.2698
▁mad	-10.2698
▁orkester	-10.2699
▁vente	-10.2701
▁gruppa	-10.2734
▁tilhøre	-10.2739
▁bånd	-10.2742
▁ønsker	-10.2742
selva	-10.2743
▁flyktet	-10.2743
kol	-10.2746
▁bære	-10.2757
▁virkelig	-10.2766
▁funn	-10.2768
▁republikk	-10.2769
▁hum	-10.277
▁stri	-10.2774
▁byttet	-10.2776
▁ønske	-10.2777
bakken	-10.2788
▁skyte	-10.2794
14	-10.2795
bygningen	-10.28
▁spesielle	-10.2822
▁muligheten	-10.2829
▁antwerpen	-10.283
▁doktorgrad	-10.283
▁eventyr	-10.283
▁heidelberg	-10.283
▁initiativ	-10.283
▁nikola	-10.283
▁bodø	-10.283
▁frivillig	-10.283
▁grønland	-10.283
▁fattig	-10.283
▁angripe	-10.283
▁francisco	-10.2831
▁wolf	-10.2833
▁france	-10.2834
▁daniel	-10.2834
▁studere	-10.2837
▁black	-10.2839
▁halvdel	-10.2841
▁handler	-10.2843
▁økende	-10.2844
uz	-10.2844
03	-10.2845
▁søkt	-10.2848
rekke	-10.285
▁hamburg	-10.285
▁lake	-10.2857
▁lim	-10.286
▁malm	-10.2863
com	-10.2863
▁festningen	-10.2879
▁sporter	-10.2884
▁snu	-10.2888
▁krim	-10.2892
▁bakkroppen	-10.2899
▁tykk	-10.2902
avtale	-10.2908
▁kalk	-10.2909
▁sæ	-10.2911
▁ansvaret	-10.2915
▁frakte	-10.2929
fjellene	-10.2931
▁uttale	-10.2945
▁rio	-10.2974
▁hvile	-10.298
▁rek	-10.2983
ledet	-10.299
▁fjellene	-10.2992
▁42	-10.3006
butikk	-10.3008
▁afghanistan	-10.3015
▁australsk	-10.3015
▁halvparten	-10.3015
▁innendørs	-10.3015
▁fungerte	-10.3015
▁vilhelm	-10.3015
▁lagkonkurransen	-10.3015
▁preussen	-10.3015
▁zealand	-10.3015
▁gustav	-10.3016
▁ekstrem	-10.3016
▁utmerkelse	-10.3016
▁innlemme	-10.3016
▁konsul	-10.3017
▁reserve	-10.302
▁din	-10.3021
komiteen	-10.3034
▁kommunestyre	-10.3034
▁drap	-10.3041
▁luc	-10.3042
▁diktet	-10.3046
▁akku	-10.3046
▁utvikle	-10.3057
▁cre	-10.3062
▁high	-10.3065
▁strøk	-10.3071
▁musikalsk	-10.3073
▁vedtatt	-10.3074
▁camp	-10.3082
▁spenning	-10.3089
▁jag	-10.3099
▁tiår	-10.3104
▁kjønn	-10.3107
▁utgivelse	-10.3114
▁hastighet	-10.3123
▁buk	-10.3147
▁skiller	-10.3151
▁overta	-10.3153
▁mannskap	-10.3166
▁folketellingen	-10.3167
▁utgaven	-10.3167
▁oppleve	-10.3173
▁mei	-10.3184
kreis	-10.3184
▁grunnlegger	-10.3189
▁prosessen	-10.3194
▁tropper	-10.32
▁friedrich	-10.3204
▁katedral	-10.3204
▁company	-10.3204
▁pakistan	-10.3204
▁virginia	-10.3204
▁washington	-10.3204
▁tyrkisk	-10.3204
▁stafett	-10.3204
▁arrangere	-10.3204
▁rogaland	-10.3204
▁astronom	-10.3204
▁himmel	-10.3204
▁hjerne	-10.3204
▁referere	-10.3204
ström	-10.3204
▁ombord	-10.3204
▁inngår	-10.3205
▁dvd	-10.3205
▁singelen	-10.3205
▁opposisjon	-10.3205
livet	-10.3207
▁forretnings	-10.3208
prinsipp	-10.3209
▁stå	-10.3213
▁byggingen	-10.3215
▁bio	-10.3216
▁administrasjon	-10.3216
▁landslaget	-10.3217
▁tverr	-10.3217
▁føde	-10.3219
▁morgen	-10.3244
▁knap	-10.3245
▁uavhengighet	-10.3247
▁allianse	-10.3251
▁sagt	-10.3253
utvikling	-10.3254
▁irak	-10.3256
▁laste	-10.3256
▁tell	-10.3256
▁ess	-10.3258
▁dahl	-10.3261
spillet	-10.3261
▁lønn	-10.3269
redskap	-10.3273
▁grov	-10.3276
▁skøyter	-10.3278
▁utlandet	-10.3283
kolleg	-10.329
▁hull	-10.3292
▁forsker	-10.3297
▁elske	-10.332
▁steve	-10.3332
tagelse	-10.3343
▁uttrykket	-10.3345
▁elementer	-10.3348
▁etnisk	-10.3353
▁endring	-10.3354
▁melk	-10.3377
000	-10.3382
▁ambassadør	-10.3396
▁konsekvens	-10.3396
▁edward	-10.3396
▁forhindre	-10.3396
▁digital	-10.3396
▁hordaland	-10.3396
▁oppretthold	-10.3396
▁vannkraftverk	-10.3396
▁forårsake	-10.3396
▁foregår	-10.3396
▁henrettet	-10.3397
▁egenskaper	-10.3397
▁skutt	-10.3397
▁kveld	-10.3397
▁romsdal	-10.3398
komité	-10.3398
▁søndag	-10.3399
▁beslutte	-10.3401
▁kara	-10.3401
▁programmer	-10.3402
▁1898	-10.3413
bygget	-10.3417
▁krysser	-10.3419
flø	-10.3419
▁karrieren	-10.342
▁adam	-10.343
▁simon	-10.3433
▁olsen	-10.3434
formede	-10.3435
født	-10.3453
▁120	-10.3454
▁unna	-10.3457
▁gjeng	-10.3471
26	-10.3477
▁løfte	-10.3478
▁troms	-10.3479
ische	-10.3514
ique	-10.3515
pho	-10.3521
▁utvikler	-10.3525
▁tau	-10.3533
▁kommunistisk	-10.3537
▁tronen	-10.3544
▁dj	-10.3544
ical	-10.3551
▁36	-10.3554
▁stig	-10.3566
▁kongelig	-10.3573
ulf	-10.3577
▁bell	-10.3587
matisk	-10.3589
▁hval	-10.3591
overflate	-10.3591
▁1901	-10.3592
▁1909	-10.3592
▁aleksander	-10.3592
▁1893	-10.3592
▁tømmer	-10.3592
▁vulkan	-10.3592
▁alfred	-10.3593
▁vesentlig	-10.3593
▁sjette	-10.3593
▁kombinasjon	-10.3593
▁redusere	-10.3593
artilleri	-10.3593
▁terror	-10.3593
▁divers	-10.3594
tårn	-10.3594
▁britene	-10.3596
▁imperi	-10.3597
▁opptreden	-10.3597
▁klipp	-10.3598
▁hersker	-10.3601
forbundet	-10.3603
▁moderat	-10.3604
▁jeff	-10.3607
▁metro	-10.3623
▁kåre	-10.3631
▁samtid	-10.3634
▁river	-10.3641
▁wales	-10.3642
▁tron	-10.3642
▁element	-10.3646
historisk	-10.3649
▁ennå	-10.3653
forsker	-10.3655
▁web	-10.3659
▁indo	-10.367
▁krever	-10.3689
▁situasjonen	-10.3701
kall	-10.3703
idrett	-10.3703
flåten	-10.3705
▁strak	-10.3707
▁kreve	-10.3708
agon	-10.3724
▁kil	-10.3728
korset	-10.3733
onia	-10.3734
▁revet	-10.3745
▁gjennomsnitt	-10.3745
▁høyden	-10.3755
▁fv	-10.3755
yang	-10.3763
▁egyptisk	-10.3765
▁arkeologisk	-10.3785
▁matematikk	-10.3792
▁münchen	-10.3792
territorie	-10.3792
▁innbyggerne	-10.3792
▁golf	-10.3793
▁kongress	-10.3793
▁debutalbum	-10.3793
▁avdød	-10.3794
▁programleder	-10.3794
▁manager	-10.3794
▁forberede	-10.3795
▁group	-10.3795
▁konstruksjon	-10.3799
▁skytter	-10.3799
▁meldt	-10.3802
▁cand	-10.3807
▁1897	-10.3811
▁fyrst	-10.3828
lö	-10.383
▁folketelling	-10.3832
▁gui	-10.3848
medalje	-10.385
▁kortere	-10.3855
flekk	-10.3855
liste	-10.3857
norsk	-10.3864
strid	-10.3864
▁rester	-10.387
▁stund	-10.3874
bukta	-10.3875
▁israelsk	-10.3883
▁strekningen	-10.3905
▁boy	-10.3909
▁gil	-10.391
▁sammenligne	-10.3912
mur	-10.3914
▁sosialistisk	-10.3916
▁oppdagelse	-10.392
▁hendelsen	-10.3949
lement	-10.3955
▁ross	-10.3956
▁bestemme	-10.3957
▁detalj	-10.3965
polis	-10.3977
løytnant	-10.3997
mønster	-10.3997
▁sprint	-10.3997
▁definert	-10.3997
▁føderal	-10.3997
plattform	-10.3997
▁molde	-10.3998
▁trær	-10.3998
▁oberst	-10.3999
▁etterkommer	-10.3999
▁rektor	-10.3999
▁nasjonalpark	-10.4001
▁jackson	-10.4002
▁forandre	-10.4006
folket	-10.4008
▁lettere	-10.4015
▁rulle	-10.4017
▁lavere	-10.4018
▁1885	-10.4018
▁vende	-10.4019
▁sammenlagt	-10.402
sending	-10.4021
▁kast	-10.4029
▁dyrke	-10.4034
▁ernst	-10.4038
trådte	-10.4042
▁master	-10.4061
materiale	-10.4062
befolkning	-10.4062
▁long	-10.4083
▁mynt	-10.4092
▁ideen	-10.4097
olje	-10.41
▁nød	-10.4105
▁kongedømmet	-10.4119
verdi	-10.412
▁vingene	-10.4121
gods	-10.4123
▁markedet	-10.4124
▁spring	-10.4127
time	-10.4131
▁250	-10.4134
▁170	-10.4137
▁kyr	-10.415
▁menneskelig	-10.4152
familie	-10.4154
▁bytte	-10.4172
▁tjenestegjor	-10.4176
▁orient	-10.4183
lé	-10.4193
ington	-10.4194
versjon	-10.4201
vurder	-10.4202
▁okkupasjon	-10.4204
▁tønsberg	-10.4205
▁tabellen	-10.4205
førsel	-10.4205
▁club	-10.4205
▁dominerende	-10.4205
▁anerkjenne	-10.4205
▁avgjørende	-10.4205
▁fjordane	-10.4205
▁prinsesse	-10.4206
▁studioalbum	-10.4206
▁uro	-10.4206
▁1913	-10.4207
▁kritisk	-10.4207
▁erfaring	-10.4208
▁utløp	-10.421
▁fastlandet	-10.4212
▁scenen	-10.4224
8	-10.4224
brigade	-10.423
▁flu	-10.423
▁1880	-10.4234
▁forlate	-10.4236
forståelse	-10.4236
▁gradvis	-10.4239
gram	-10.4245
▁isteden	-10.4246
▁beskyttelse	-10.4247
veg	-10.4264
kalender	-10.4266
amerikanske	-10.4275
rekord	-10.4276
nummer	-10.429
▁music	-10.4306
bury	-10.4316
▁underlag	-10.4319
▁skinn	-10.4328
▁medisinsk	-10.4329
bol	-10.4331
▁vegg	-10.4334
▁fru	-10.4342
▁cho	-10.4346
▁jim	-10.4361
▁hom	-10.437
▁krise	-10.4381
▁opptre	-10.4396
▁major	-10.4415
fant	-10.4417
▁fakultet	-10.4418
▁konstruert	-10.4418
▁sparebank	-10.4418
▁særskilt	-10.4418
▁øyeblikk	-10.4418
▁alkohol	-10.4418
▁service	-10.4418
▁ansikt	-10.4418
▁scott	-10.4418
▁beordre	-10.4418
▁firmaet	-10.4419
▁signal	-10.4419
strup	-10.442
▁brygge	-10.442
▁import	-10.442
на	-10.442
▁nau	-10.442
▁satse	-10.4422
▁rask	-10.4423
▁ulik	-10.4424
▁eksport	-10.4424
▁allmenn	-10.4425
▁høyesterett	-10.4427
▁platen	-10.4428
▁inge	-10.4428
▁anlagt	-10.4431
▁forsterke	-10.4432
▁forbunds	-10.4434
▁1894	-10.4435
▁brødrene	-10.4452
▁ferge	-10.4456
▁mala	-10.4468
▁velger	-10.4477
syre	-10.4479
▁krist	-10.448
posisjon	-10.4481
▁roger	-10.4482
▁benytter	-10.4494
hjem	-10.4494
▁dukket	-10.4494
▁kastet	-10.4496
29	-10.4505
▁skjold	-10.4509
▁fotballklubb	-10.4509
tysk	-10.4512
nntatt	-10.4517
basert	-10.4518
konsern	-10.4522
▁hellig	-10.4524
▁paus	-10.4529
strømmen	-10.4531
▁beskrivelse	-10.4543
luk	-10.4568
listen	-10.4572
passet	-10.4574
blokk	-10.4574
▁forent	-10.4592
slått	-10.4603
▁øre	-10.4607
▁vokal	-10.4626
▁angelsaksisk	-10.4635
▁færøyene	-10.4635
budsjett	-10.4635
▁fysikk	-10.4635
▁gymnas	-10.4635
▁ludvig	-10.4635
▁permanent	-10.4635
▁reklame	-10.4635
▁kommersiell	-10.4635
▁hjal	-10.4635
▁presentert	-10.4635
▁overraske	-10.4636
▁1911	-10.4637
▁tørr	-10.4638
▁møre	-10.4638
▁kulturell	-10.464
▁forbudt	-10.464
stipend	-10.4644
▁1300	-10.4645
botn	-10.4645
▁furu	-10.4647
▁skjønn	-10.4648
innspilling	-10.4649
▁enorm	-10.466
▁bevisst	-10.4664
▁kompleks	-10.4681
▁statsråd	-10.4687
nemlig	-10.4688
▁variert	-10.4693
skrevet	-10.4703
▁steg	-10.4706
hjelp	-10.4715
▁bou	-10.4721
▁meta	-10.4724
▁baron	-10.4725
▁statue	-10.4728
▁dominert	-10.4728
▁wu	-10.4729
▁brutt	-10.4739
fartøy	-10.4756
▁finale	-10.4773
▁synge	-10.4779
▁900	-10.4785
▁utgangspunkt	-10.479
91	-10.4798
grensen	-10.4821
▁wall	-10.4833
▁slave	-10.485
▁utelukke	-10.4857
svømming	-10.4857
▁byprefektur	-10.4857
▁definisjon	-10.4857
▁prøvd	-10.4857
▁kvadrat	-10.4857
▁negativ	-10.4857
teatret	-10.4857
▁bøkene	-10.4858
▁utseende	-10.4858
▁kjemisk	-10.4858
▁bbc	-10.4858
givning	-10.4858
▁telefon	-10.4859
▁hedmark	-10.4859
▁definere	-10.4859
▁forlenge	-10.4859
▁1903	-10.4859
▁enhver	-10.486
▁flekker	-10.486
▁kreert	-10.486
▁godkjent	-10.4861
▁german	-10.4861
▁formula	-10.4863
▁etappe	-10.4864
▁tvunge	-10.4864
▁mannlig	-10.487
▁forvente	-10.4872
▁1896	-10.4873
▁1895	-10.4879
▁ferr	-10.4881
▁queen	-10.4885
▁with	-10.4888
▁johansen	-10.489
▁brent	-10.4891
▁deltatt	-10.4897
▁sankt	-10.4899
▁befinne	-10.4901
▁næringsliv	-10.4901
▁sørover	-10.4904
▁sunn	-10.4905
▁lunge	-10.4906
tank	-10.4928
▁medaljen	-10.4941
▁plast	-10.4958
talende	-10.4965
▁play	-10.4973
▁urban	-10.498
ān	-10.5007
klasse	-10.5022
▁hul	-10.5022
▁mah	-10.5036
▁rich	-10.5037
▁hop	-10.5046
kilde	-10.5054
▁opptrådt	-10.5062
▁game	-10.5063
typen	-10.507
vinner	-10.5072
cca	-10.5074
▁administrere	-10.5085
▁barcelona	-10.5085
▁skulptur	-10.5085
▁utbredelse	-10.5085
▁beatles	-10.5085
▁fenomen	-10.5085
▁separat	-10.5085
▁juridisk	-10.5085
▁valuta	-10.5085
▁risiko	-10.5085
▁døgn	-10.5085
▁klatre	-10.5085
▁nedenfor	-10.5086
▁dyktig	-10.5086
træ	-10.5088
▁eliza	-10.5088
▁drikke	-10.51
▁1889	-10.51
▁rykte	-10.5104
▁fjær	-10.5118
▁hannen	-10.5119
▁derfra	-10.5125
▁wang	-10.5143
▁tidspunktet	-10.515
▁slaver	-10.5153
skij	-10.5158
vold	-10.5199
hei	-10.5205
▁bratt	-10.5222
▁bakke	-10.5249
fond	-10.5251
▁mesterskap	-10.5262
fast	-10.5269
rygg	-10.5272
roman	-10.5294
▁esp	-10.5304
observasjon	-10.5317
▁etablering	-10.5317
▁lillehammer	-10.5317
▁thailand	-10.5317
▁tsjekkoslovakia	-10.5317
▁tyrkia	-10.5317
▁regissør	-10.5317
▁returnert	-10.5317
▁manchester	-10.5317
▁praktisk	-10.5317
▁gunnar	-10.5317
▁multi	-10.5319
▁plateselskap	-10.5323
▁mandat	-10.5324
▁2018	-10.5324
odden	-10.5336
▁billed	-10.5337
▁shan	-10.5348
snegl	-10.5351
▁indianer	-10.5356
▁estland	-10.5356
▁respekt	-10.5376
politikk	-10.5381
▁american	-10.5384
▁vanligste	-10.5388
▁cuba	-10.5391
utdanning	-10.5412
forfatter	-10.5413
▁diplomat	-10.5415
▁laks	-10.5418
høyde	-10.5426
samband	-10.545
skade	-10.5455
▁pik	-10.5458
▁bau	-10.5464
esisk	-10.5474
elv	-10.5474
▁tidspunkt	-10.5488
seil	-10.5495
▁wel	-10.55
▁mobil	-10.5506
▁histor	-10.5518
forsyning	-10.552
▁vindu	-10.5522
▁øvrig	-10.5526
▁konstant	-10.5534
gud	-10.5538
▁kriminal	-10.5555
friidrettsutøver	-10.5555
▁colombia	-10.5555
▁konkurrert	-10.5555
▁kronprins	-10.5555
▁nowiki	-10.5555
▁oksygen	-10.5555
▁skjønt	-10.5555
▁vedlikehold	-10.5555
▁eksisterende	-10.5555
▁testament	-10.5555
▁kritisert	-10.5555
▁avviklet	-10.5555
▁tillatelse	-10.5556
▁ytterst	-10.5556
▁forklaring	-10.5556
▁soldatene	-10.5556
vík	-10.556
bebyggelse	-10.5565
▁lokalisert	-10.5568
▁orgel	-10.5569
▁kjørt	-10.5571
▁1884	-10.5575
▁kommunist	-10.5578
lend	-10.5579
▁1848	-10.5579
▁great	-10.558
▁lista	-10.5583
▁1860	-10.5583
▁sveitsisk	-10.5585
▁lykke	-10.5589
▁østover	-10.5591
kredit	-10.5594
▁vennskap	-10.5598
▁skuespill	-10.5599
▁pund	-10.5616
▁human	-10.5642
registre	-10.5644
▁pont	-10.5644
▁dol	-10.5648
divisjon	-10.565
▁out	-10.5652
republikk	-10.5653
teknikk	-10.5656
museet	-10.5659
▁sønd	-10.5676
▁hekk	-10.5678
▁skøyte	-10.5704
phy	-10.5731
næs	-10.574
▁flest	-10.5782
sats	-10.5799
▁argentina	-10.5799
▁assistent	-10.5799
▁chicago	-10.5799
▁hjørne	-10.5799
▁låtskriver	-10.5799
▁republikansk	-10.5799
▁sammenslåing	-10.5799
▁embets	-10.5799
▁victoria	-10.5799
▁kommando	-10.5799
▁uvanlig	-10.5799
kostnad	-10.5799
▁alexandr	-10.5799
▁sjanger	-10.5799
▁senior	-10.5799
▁beleiring	-10.5799
▁ungarsk	-10.5799
pedagog	-10.5799
▁kvalifisert	-10.5799
▁novelle	-10.58
▁josé	-10.58
▁kristendommen	-10.58
▁anvende	-10.5801
▁fortellinger	-10.5801
▁bayern	-10.5801
▁forklare	-10.5802
▁east	-10.5804
wick	-10.5806
▁tolke	-10.5811
▁patent	-10.5812
▁nerve	-10.5812
▁gjennombrudd	-10.5817
▁kval	-10.582
▁1887	-10.5821
▁drepe	-10.5824
orientert	-10.5826
▁alfa	-10.583
▁gress	-10.5837
▁inngikk	-10.5837
▁polar	-10.5838
▁kari	-10.5861
▁akseptert	-10.5863
▁stemmene	-10.587
▁chile	-10.5892
kryss	-10.5899
▁hjemmebane	-10.5902
hastighet	-10.5905
▁kongedømme	-10.5907
▁vall	-10.5908
▁homo	-10.5922
mengde	-10.5924
▁jente	-10.5977
▁kvit	-10.5989
36	-10.5994
▁foto	-10.6023
▁trodd	-10.6042
stue	-10.6047
▁færøysk	-10.6049
▁konsept	-10.6049
▁nøytral	-10.6049
▁okkupert	-10.6049
▁skandinavia	-10.6049
▁utendørs	-10.6049
bataljon	-10.6049
▁midtøsten	-10.6049
▁yngste	-10.6049
▁hovedkvarter	-10.6049
seremoni	-10.6049
▁indiker	-10.605
▁betjene	-10.605
▁arendal	-10.605
konferanse	-10.605
▁rolf	-10.605
▁elleve	-10.605
▁stengt	-10.6051
▁tropisk	-10.6051
▁tallrike	-10.6052
▁senator	-10.6056
▁takket	-10.6057
▁tsar	-10.6059
▁komposisjon	-10.6061
▁1891	-10.6063
▁sikkerhet	-10.6065
▁tann	-10.607
▁greid	-10.6073
▁amerikaner	-10.6076
økning	-10.6081
▁christiania	-10.6084
▁morten	-10.6085
teori	-10.6086
▁vestsiden	-10.6088
slutt	-10.6094
▁farlig	-10.6151
▁million	-10.616
kjøp	-10.6163
stjerne	-10.6164
▁situasjon	-10.6165
lengde	-10.6173
bød	-10.6178
▁begrense	-10.6179
▁liber	-10.6191
▁lyng	-10.6199
▁kva	-10.6211
karriere	-10.6218
▁avvist	-10.6219
▁gli	-10.6234
▁qi	-10.6247
messe	-10.6256
▁øverst	-10.6296
▁atmosfære	-10.6306
▁intervju	-10.6306
▁könig	-10.6306
▁popularitet	-10.6306
▁svalbard	-10.6306
▁jørgen	-10.6306
▁kommandant	-10.6306
▁kjennetegn	-10.6306
▁sigurd	-10.6306
▁adolf	-10.6306
▁forsvant	-10.6306
▁selvmord	-10.6306
▁automatisk	-10.6306
▁visepresident	-10.6307
væske	-10.6307
worth	-10.6308
▁blind	-10.6308
▁foreslått	-10.6308
▁komedie	-10.6313
▁foretatt	-10.6313
▁fortellingen	-10.6313
▁østlandet	-10.6324
▁variasjon	-10.6333
▁myk	-10.6338
▁sikte	-10.6339
▁romania	-10.6345
▁johnson	-10.6348
▁potter	-10.6349
7	-10.6363
▁gjennomgå	-10.6368
settelse	-10.638
▁norman	-10.6391
▁seire	-10.6394
▁beholde	-10.6398
▁kontrollert	-10.6402
▁låten	-10.6411
offiser	-10.6426
museum	-10.6426
modell	-10.6435
▁160	-10.6447
støtte	-10.6455
▁bull	-10.646
bestemmelse	-10.6477
▁kontrollere	-10.6486
▁legende	-10.6494
seth	-10.6509
▁1100	-10.656
▁fulgt	-10.6563
▁alminnelig	-10.6569
▁begivenhet	-10.6569
▁football	-10.6569
▁göteborg	-10.6569
▁jordskjelv	-10.6569
▁jugoslavia	-10.6569
▁middelsstor	-10.6569
▁renessanse	-10.6569
▁ukraina	-10.6569
▁forveksle	-10.6569
▁innebærer	-10.6569
▁katolikk	-10.6569
▁oxford	-10.6569
▁1892	-10.6569
▁muslimsk	-10.6569
▁texas	-10.6569
▁opplæring	-10.6569
▁wilson	-10.6569
▁kongeriket	-10.6569
▁white	-10.6569
▁eksemplarer	-10.6569
▁autonom	-10.6569
▁skjebne	-10.6569
▁flyktning	-10.6569
▁tokyo	-10.6569
▁utpekt	-10.657
▁datamaskin	-10.657
▁middelhavet	-10.657
▁betong	-10.6571
▁hovedkontor	-10.6574
▁avgjørelse	-10.6574
▁gravlagt	-10.6574
relatert	-10.6574
▁onkel	-10.6578
▁bygnings	-10.658
▁lidelse	-10.6583
▁tilhengere	-10.6583
▁scor	-10.659
▁sparta	-10.6592
▁datert	-10.6594
▁psykologi	-10.6597
▁glad	-10.6603
▁skyldes	-10.6604
▁nordmenn	-10.6612
▁inneha	-10.6613
▁benytte	-10.6634
ordnet	-10.6656
stigning	-10.6676
bibliotek	-10.6696
tunnel	-10.6696
vegg	-10.6712
akademiet	-10.6718
vatn	-10.6761
dratt	-10.6761
▁inneba	-10.6799
▁formell	-10.6804
lipp	-10.6829
▁slektning	-10.6836
▁admiral	-10.6839
▁fiendtlig	-10.6839
▁science	-10.6839
▁østfold	-10.6839
▁anbefal	-10.6839
▁nøyaktig	-10.6839
▁church	-10.6839
▁deutsche	-10.6839
▁uansett	-10.6839
kompetanse	-10.6839
▁haugesund	-10.6839
▁diameter	-10.6839
▁ulovlig	-10.6839
▁arthur	-10.6839
▁rettigheter	-10.6839
▁karbon	-10.6839
▁uklar	-10.684
▁trengte	-10.684
▁dverg	-10.684
▁beskjed	-10.684
▁splitte	-10.684
▁partner	-10.684
▁carolin	-10.684
▁deltakere	-10.684
▁antyde	-10.684
▁fuktig	-10.6841
▁senatet	-10.6841
▁høst	-10.6843
▁tjue	-10.6844
▁størst	-10.6845
▁columbia	-10.6847
▁medførte	-10.6848
▁dagbladet	-10.6848
▁sykdommen	-10.6849
▁operere	-10.6852
▁kunstløp	-10.6854
▁idé	-10.6854
▁barokk	-10.6859
▁1882	-10.6861
▁følt	-10.6861
▁filosofisk	-10.6862
▁skifte	-10.688
fallende	-10.6893
▁strategisk	-10.6938
▁guddomme	-10.6944
forsamlingen	-10.6944
bånd	-10.6973
kandidat	-10.6973
tradisjon	-10.6974
regjering	-10.6974
transport	-10.6974
programmet	-10.6976
▁brei	-10.6978
▁erstatte	-10.6996
blå	-10.7013
▁trø	-10.702
▁departement	-10.7031
demokrati	-10.7056
revolusjonen	-10.7062
▁rand	-10.7069
▁trent	-10.7083
tavle	-10.7092
▁bulgaria	-10.7117
▁forgjenger	-10.7117
▁jomfru	-10.7117
▁makedonia	-10.7117
▁maksimal	-10.7117
▁mangfold	-10.7117
▁sluppet	-10.7117
▁asteroide	-10.7117
▁hospital	-10.7117
▁offensiv	-10.7117
▁amatør	-10.7117
▁florida	-10.7117
▁utspring	-10.7117
▁lyktes	-10.7117
▁kulturminne	-10.7117
▁utgravning	-10.7117
▁bedrifter	-10.7118
▁jurist	-10.7119
▁verdensrekord	-10.7119
▁overflaten	-10.7119
▁skarp	-10.7121
▁midlertidig	-10.7122
givende	-10.7122
▁tenke	-10.7123
▁betalt	-10.7123
▁tilsammen	-10.7123
▁fredrikstad	-10.7128
▁piano	-10.7129
▁spesiell	-10.7129
▁begynt	-10.7132
▁rytter	-10.7132
▁landområde	-10.7138
▁1872	-10.7139
▁1899	-10.7142
▁life	-10.7144
▁forskjellig	-10.7145
▁tidligst	-10.7148
▁alban	-10.715
▁zu	-10.7162
▁that	-10.7164
▁tyde	-10.7171
▁voksen	-10.7196
▁server	-10.7201
formasjon	-10.7207
▁ligge	-10.7211
▁kunstnerisk	-10.7229
▁vokse	-10.7231
brød	-10.7256
▁erobre	-10.7257
▁anslå	-10.7257
utstilling	-10.7281
▁spenn	-10.7356
▁opplysning	-10.7399
▁hydro	-10.7399
▁basketball	-10.7402
▁kullkraftverk	-10.7402
▁skandinavisk	-10.7402
▁vingespenn	-10.7402
▁venezia	-10.7402
▁minoritet	-10.7402
▁bystatus	-10.7402
▁erobring	-10.7402
▁yrkes	-10.7402
▁global	-10.7403
▁bærum	-10.7403
▁komponert	-10.7403
▁skjøt	-10.7403
▁walisisk	-10.7403
▁utslipp	-10.7403
▁systematisk	-10.7403
▁ørken	-10.7403
▁osmansk	-10.7403
▁angel	-10.7403
aceae	-10.7404
▁fienden	-10.7405
▁tibet	-10.7406
▁argumenter	-10.7407
▁åpenbar	-10.7408
▁holdning	-10.741
▁tegninger	-10.741
▁tildeling	-10.7415
▁tilfeldig	-10.7416
▁kristus	-10.7417
▁skjell	-10.7418
▁sosialdemokrat	-10.742
▁tortur	-10.7421
▁1814	-10.7421
▁sound	-10.7422
▁fremført	-10.7424
▁1883	-10.7427
▁1870	-10.743
▁grim	-10.743
▁geir	-10.7433
▁romerne	-10.7433
▁manuskripte	-10.7438
▁karakteristisk	-10.7446
prest	-10.7449
▁helhet	-10.7455
artikler	-10.7455
▁persisk	-10.7462
stevne	-10.7505
▁pels	-10.7525
kjønn	-10.7536
kontrakt	-10.7553
litteratur	-10.7554
▁arkeologi	-10.7561
▁strategi	-10.759
▁afrikansk	-10.7607
▁kirkegård	-10.7611
▁dynasti	-10.7629
endring	-10.7644
bredden	-10.7653
kanalen	-10.7658
drakt	-10.7684
representant	-10.7693
fortelling	-10.7693
▁arrangør	-10.7697
▁konkluder	-10.7697
▁liverpool	-10.7697
▁luxembourg	-10.7697
▁millimeter	-10.7697
▁prefektur	-10.7697
▁påbegynt	-10.7697
molekyl	-10.7697
regulering	-10.7697
▁fiolin	-10.7697
▁misjonær	-10.7697
▁turbiner	-10.7697
▁hebraisk	-10.7697
▁frigjøring	-10.7697
▁seksuell	-10.7697
▁isolert	-10.7697
▁elektronisk	-10.7698
▁erstatning	-10.7698
▁templ	-10.7698
apparat	-10.7698
▁styring	-10.7698
▁vinterleke	-10.7698
▁samuel	-10.7699
▁power	-10.7699
gjald	-10.7701
▁nestleder	-10.7701
▁trenger	-10.7701
▁borgermester	-10.7703
▁profil	-10.7704
▁eiendommer	-10.7707
▁innspillingen	-10.7708
▁slippe	-10.7709
▁hugh	-10.7712
▁tillatt	-10.7716
▁1845	-10.7717
▁1888	-10.7718
▁vakker	-10.772
▁tsje	-10.7726
▁tilsyne	-10.7729
ekspert	-10.7753
▁öst	-10.7754
▁kenya	-10.7762
▁dramatisk	-10.7775
▁folkeparti	-10.7792
▁tyve	-10.7795
løv	-10.7797
▁fritid	-10.7802
president	-10.7855
gruppa	-10.7856
struktur	-10.7856
problemer	-10.7856
europeisk	-10.7857
konsert	-10.7858
treffe	-10.7861
▁olymp	-10.7867
▁flykte	-10.7874
▁arving	-10.7895
investering	-10.7916
▁brødre	-10.7952
▁symfoni	-10.7992
▁napoleon	-10.8
kommanderende	-10.8
▁benjamin	-10.8
▁buskerud	-10.8
▁cambridge	-10.8
▁forøvrig	-10.8
▁identifisert	-10.8
▁kollektiv	-10.8
▁ortodoks	-10.8
▁prøyssisk	-10.8
▁psykisk	-10.8
▁regulert	-10.8
▁tsjekkia	-10.8
▁vellykket	-10.8
▁vestfold	-10.8
▁diskusjon	-10.8
▁innstifte	-10.8
▁referanse	-10.8
▁bøndene	-10.8
▁canadisk	-10.8
▁underholdning	-10.8
▁eksistens	-10.8
▁slapp	-10.8
▁gerhard	-10.8
▁igjennom	-10.8
▁bakvingen	-10.8
▁regler	-10.8
▁ektemann	-10.8
▁rettferdig	-10.8001
▁gregor	-10.8001
▁slank	-10.8002
▁einar	-10.8002
▁sydney	-10.8002
▁brown	-10.8002
▁flanke	-10.8005
▁opprette	-10.8008
forestillinger	-10.8008
▁flukt	-10.8009
▁forenkle	-10.801
▁donau	-10.8011
▁down	-10.8014
▁blokker	-10.8015
▁røtter	-10.8018
▁3000	-10.8021
▁tjent	-10.8026
▁kommunistparti	-10.8057
dannelse	-10.8062
▁detaljert	-10.807
▁gjennomsnittlig	-10.8085
nevnte	-10.8113
bragt	-10.8133
følelse	-10.8142
▁stanse	-10.8144
forandring	-10.8148
▁marked	-10.8162
opera	-10.8174
▁fellesskap	-10.8179
▁astro	-10.818
▁akademisk	-10.8204
▁pakke	-10.828
utenriksminister	-10.8282
▁hytte	-10.8287
▁regjer	-10.8291
scene	-10.8297
▁operativ	-10.831
belteasteroide	-10.8312
▁association	-10.8312
▁forfremme	-10.8312
▁frankfurt	-10.8312
▁generalmajor	-10.8312
▁innspilt	-10.8312
▁kvartfinalen	-10.8312
▁pasienter	-10.8312
▁pennsylvania	-10.8312
▁prestegjeld	-10.8312
▁shanghai	-10.8312
▁territorium	-10.8312
▁trondhjem	-10.8312
▁brønn	-10.8312
▁forbedret	-10.8312
▁konstitusjon	-10.8312
▁konvensjon	-10.8312
▁naturgass	-10.8312
▁identitet	-10.8312
▁antarktis	-10.8312
▁nøkkel	-10.8312
▁josef	-10.8312
▁ordinær	-10.8312
▁arsenal	-10.8312
▁henrettelse	-10.8312
▁spesifik	-10.8312
▁innrømme	-10.8312
▁tilskuer	-10.8313
▁batteri	-10.8313
▁noensinne	-10.8313
▁innvalgt	-10.8313
▁seinere	-10.8313
▁inklu	-10.8313
▁innviet	-10.8314
nwar	-10.8314
▁oppfølger	-10.8314
▁flytende	-10.8315
▁svein	-10.8316
▁øynene	-10.8316
▁nyhets	-10.8316
▁hydrogen	-10.8316
▁sverre	-10.8317
▁narvik	-10.8317
▁utløst	-10.8318
▁lisens	-10.8321
▁trommer	-10.8326
▁bassist	-10.8329
▁ddr	-10.8334
▁håndverk	-10.8337
▁konstantin	-10.8341
▁britis	-10.8342
oksid	-10.8343
▁forretningsmann	-10.8356
▁manuel	-10.836
▁utvidelse	-10.8369
▁virkelighet	-10.8399
▁utvide	-10.8439
politisk	-10.8461
▁minutt	-10.8485
grønn	-10.8491
biskop	-10.8492
▁diplomatisk	-10.8504
▁romantisk	-10.8507
▁musikal	-10.8536
fabrik	-10.8539
▁psyko	-10.8554
▁avslutte	-10.8572
▁fed	-10.8597
hugge	-10.8604
▁integr	-10.8604
▁ambassade	-10.8635
▁filippinene	-10.8635
▁generalguvernør	-10.8635
▁heinrich	-10.8635
▁kroatia	-10.8635
▁massachusetts	-10.8635
▁omdøpt	-10.8635
▁restaurant	-10.8635
▁rudolf	-10.8635
▁kjøkken	-10.8635
▁meteorologi	-10.8635
▁uavgjort	-10.8635
▁annonsert	-10.8635
▁ektefelle	-10.8635
▁flaggbærer	-10.8635
▁gjøvik	-10.8635
▁jamaica	-10.8635
pningsseremonien	-10.8635
frekvens	-10.8635
▁margaret	-10.8635
▁hyppig	-10.8635
mouth	-10.8635
▁korrekt	-10.8635
▁fiktiv	-10.8635
▁utbruddet	-10.8635
▁institute	-10.8635
▁protein	-10.8636
▁madrid	-10.8636
▁fiender	-10.8637
terapi	-10.8637
▁utfordre	-10.8637
skildring	-10.8638
▁styremedlem	-10.8638
▁spyd	-10.8638
▁majoritet	-10.8638
▁skygge	-10.8641
ière	-10.8642
▁viktor	-10.8643
▁vurdert	-10.8643
▁stasjonert	-10.8644
▁rifle	-10.8644
▁røyk	-10.8644
▁estisk	-10.8644
▁tjener	-10.8648
▁bakterie	-10.8652
▁punk	-10.8656
trofe	-10.867
teater	-10.8732
▁filosof	-10.8795
resultat	-10.8825
sesongen	-10.8826
traktaten	-10.8826
▁palass	-10.888
▁infanteri	-10.896
demonstrasjon	-10.8968
▁absolutt	-10.8968
▁folkeavstemning	-10.8968
▁hollywood	-10.8968
▁sarpsborg	-10.8968
▁uttrykt	-10.8968
▁dirigent	-10.8968
▁jersey	-10.8968
▁sanskrit	-10.8968
▁sicilia	-10.8968
mønstre	-10.8968
▁hovedperson	-10.8968
disiplin	-10.8968
▁løslatt	-10.8968
▁betydningsfull	-10.8968
▁utrydde	-10.8968
▁mekanisk	-10.8968
▁stefan	-10.8968
▁russerne	-10.8968
▁haakon	-10.8968
▁nepal	-10.8969
▁andré	-10.8969
▁senterpartiet	-10.8969
▁innflytelsesrik	-10.8969
▁sosiolog	-10.897
▁mineral	-10.897
▁tennis	-10.8971
▁kristelig	-10.8973
▁melding	-10.8974
▁styreleder	-10.8974
▁death	-10.8975
▁axel	-10.8975
▁gudinne	-10.9001
støp	-10.9011
▁brant	-10.9014
▁poli	-10.9025
▁stadie	-10.9041
leigh	-10.9053
oide	-10.9105
lignende	-10.912
▁slange	-10.9156
ortsett	-10.9158
medisin	-10.917
utdannelse	-10.9175
effekt	-10.9179
sdatter	-10.9212
▁utarbeide	-10.9213
▁aksept	-10.9223
areal	-10.9233
▁møtt	-10.9249
vassdraget	-10.9267
▁høgskolen	-10.9298
▁francis	-10.9311
▁landhockey	-10.9313
▁assosiert	-10.9313
▁kapittel	-10.9313
▁kasakhstan	-10.9313
▁patriark	-10.9313
▁trommeslager	-10.9313
▁væpne	-10.9313
▁hønefoss	-10.9313
▁kommandør	-10.9313
▁window	-10.9313
▁kavaleri	-10.9313
▁annerledes	-10.9313
▁medvirket	-10.9313
▁tsjekkisk	-10.9313
▁referert	-10.9313
▁planlegging	-10.9313
▁evangeli	-10.9313
grunnsstasjon	-10.9313
▁undertegnet	-10.9313
▁kobber	-10.9313
▁utsikt	-10.9313
▁castle	-10.9313
▁vegetasjon	-10.9314
▁framstilt	-10.9314
terminal	-10.9314
▁utforming	-10.9314
▁nicola	-10.9315
▁rakett	-10.9315
▁oblast	-10.9316
▁reformasjonen	-10.9316
▁avdekket	-10.9317
▁befal	-10.9319
▁sirkel	-10.9319
▁alex	-10.932
▁antonio	-10.9321
▁kamera	-10.9322
▁work	-10.9323
▁bønn	-10.9325
▁basil	-10.9344
▁ideologi	-10.9509
markedet	-10.9527
instrument	-10.9527
dømt	-10.9527
behandling	-10.9527
teknologi	-10.9528
▁demokrat	-10.9581
balanse	-10.9592
▁humanist	-10.9621
shaw	-10.9628
▁keyboard	-10.967
▁atlanterhavet	-10.967
▁dekkvingene	-10.967
▁douglas	-10.967
▁ekspansjon	-10.967
▁halveringstid	-10.967
▁koalisjon	-10.967
▁mobiltelefon	-10.967
▁oppmuntret	-10.967
▁propaganda	-10.967
▁society	-10.967
▁billboard	-10.967
▁invitert	-10.967
▁minimum	-10.967
▁symptom	-10.967
▁bachelor	-10.967
▁stephen	-10.967
▁styreformann	-10.967
▁pattedyr	-10.967
▁stridsvogn	-10.967
▁frogner	-10.967
▁pedersen	-10.967
▁prince	-10.967
▁langvarig	-10.967
▁skåne	-10.967
▁oppbevar	-10.967
▁skuffe	-10.967
▁nevner	-10.967
▁operatør	-10.967
▁tverrbånd	-10.967
▁redigert	-10.9671
▁firenze	-10.9671
▁uenighet	-10.9671
forsikring	-10.9671
▁lillestrøm	-10.9672
▁butikker	-10.9674
▁høydepunkt	-10.9674
▁opphørt	-10.9674
▁smelte	-10.9678
▁pumpe	-10.9681
▁metoden	-10.9682
▁genetisk	-10.9684
syssel	-10.9689
▁identisk	-10.9701
pengene	-10.9739
▁rangert	-10.9782
nærmet	-10.9809
▁hevn	-10.9857
redaktør	-10.9897
kontroll	-10.9898
bølge	-10.9899
mynt	-10.992
kjerne	-10.9933
▁alvor	-10.9967
▁harmoni	-10.9991
ressurs	-11.0038
psykiatri	-11.004
▁allikevel	-11.004
▁beliggenhet	-11.004
▁bulgarsk	-11.004
▁business	-11.004
▁engasjement	-11.004
▁giovanni	-11.004
▁intelligen	-11.004
▁ammunisjon	-11.004
▁tilstrekkelig	-11.004
▁primitiv	-11.004
▁ovenfor	-11.004
▁hamilton	-11.004
▁parallell	-11.004
▁landskamper	-11.004
▁lofoten	-11.004
▁dresden	-11.004
▁forklart	-11.0041
▁valdres	-11.0041
▁korsfarer	-11.0041
▁contest	-11.0041
▁massiv	-11.0041
▁tempo	-11.0041
▁class	-11.0041
▁avhandling	-11.0042
▁mastergrad	-11.0042
▁døpt	-11.0042
▁pastor	-11.0042
▁patrick	-11.0042
betjent	-11.0042
▁arrangementet	-11.0042
▁fylkeskommune	-11.0042
▁riksdagen	-11.0043
▁harrison	-11.0043
▁bensin	-11.0046
▁stedsnavn	-11.005
▁ødela	-11.0051
▁invest	-11.0145
premie	-11.0177
▁boligområde	-11.0196
krate	-11.0211
▁strekning	-11.0225
edderkopper	-11.0239
temperatur	-11.0282
sentrum	-11.0283
aktivitet	-11.0395
kjøl	-11.0407
ifikasjon	-11.0425
pyramide	-11.0425
reservoar	-11.0425
▁ferdinand	-11.0425
▁ferskvann	-11.0425
▁hongkong	-11.0425
▁innsbruck	-11.0425
▁jerusalem	-11.0425
▁pronotum	-11.0425
▁varaordfører	-11.0425
▁babylon	-11.0425
▁gabriel	-11.0425
▁sekundær	-11.0425
köping	-11.0425
▁anvendt	-11.0425
▁arbeidsgiver	-11.0425
▁embeds	-11.0425
▁ptolem	-11.0425
▁anmelder	-11.0425
▁litauen	-11.0425
▁konsesjon	-11.0425
▁autoritet	-11.0425
▁snorre	-11.0425
▁deltakerne	-11.0425
▁samvelde	-11.0425
▁kongsvinger	-11.0425
▁charlotte	-11.0425
▁grekerne	-11.0425
▁verdensarv	-11.0425
▁begravelse	-11.0425
▁central	-11.0426
▁armenia	-11.0426
▁navy	-11.0426
▁oppfordre	-11.0426
▁rednings	-11.0426
▁first	-11.0426
▁bløt	-11.0426
▁monroe	-11.0426
▁dybde	-11.0427
▁underviste	-11.0427
▁serbisk	-11.0427
▁fangst	-11.0428
▁sannhet	-11.0429
▁advent	-11.043
▁programvare	-11.043
▁ladning	-11.0431
▁keltisk	-11.0432
▁ivareta	-11.0432
▁særeg	-11.0433
stuhl	-11.0437
▁ekstern	-11.0446
artikkel	-11.0458
▁integrert	-11.0462
▁jernalder	-11.0468
▁kunngjor	-11.0472
▁pedr	-11.0474
▁storkors	-11.0476
komite	-11.0479
bundet	-11.0491
stryke	-11.0538
flyvning	-11.0541
fordeling	-11.058
▁domkirke	-11.0583
▁traktat	-11.0592
spørsmål	-11.0682
utgave	-11.07
▁representere	-11.073
sykdom	-11.0755
▁undersøke	-11.0796
direktoratet	-11.0825
▁alfabetet	-11.0825
▁intellektuell	-11.0825
▁leipzig	-11.0825
▁romerriket	-11.0825
▁sjeldne	-11.0825
▁stjørdal	-11.0825
▁avslørt	-11.0825
▁bryllup	-11.0825
▁dokumentarfilm	-11.0825
▁utkjempe	-11.0825
▁årsjubile	-11.0825
▁afghansk	-11.0825
▁bjørg	-11.0825
▁tolkning	-11.0825
▁muslimer	-11.0825
▁statistikk	-11.0825
▁geometri	-11.0825
▁jagerfly	-11.0825
forhandlinger	-11.0825
▁frimurer	-11.0825
▁nedtegnet	-11.0825
▁aktuell	-11.0825
▁diskutere	-11.0825
▁forvandling	-11.0825
▁unesco	-11.0825
▁serbia	-11.0825
▁benedikt	-11.0825
▁seminar	-11.0825
▁forekomst	-11.0825
▁telenor	-11.0825
▁verdslig	-11.0825
▁brasiliansk	-11.0826
▁fangenskap	-11.0826
▁oppheve	-11.0826
▁gratis	-11.0826
▁tendens	-11.0826
▁dekorert	-11.0827
▁omstridt	-11.0827
▁søsken	-11.0827
▁innføringen	-11.0827
▁ressurser	-11.0827
▁claus	-11.0827
▁nkp	-11.0828
▁boston	-11.0828
mekanisme	-11.0829
▁pierre	-11.083
▁voldsom	-11.0831
▁søyle	-11.0854
arrest	-11.0867
▁operativsystem	-11.0896
betaling	-11.0936
obling	-11.0961
kroppen	-11.1095
forsøk	-11.1099
tilbud	-11.11
blanding	-11.11
produser	-11.1143
▁championship	-11.1242
▁country	-11.1242
▁cæsar	-11.1242
▁kambodsja	-11.1242
▁konstantinopel	-11.1242
▁kontinuerlig	-11.1242
▁köln	-11.1242
▁ludwig	-11.1242
▁naturreservat	-11.1242
▁plyndre	-11.1242
▁restaurert	-11.1242
▁singapore	-11.1242
▁statsoverhode	-11.1242
▁vålerenga	-11.1242
▁westfalen	-11.1242
▁fjorten	-11.1242
▁undergrunnsbane	-11.1242
▁1801	-11.1242
▁abraham	-11.1242
▁grieg	-11.1242
▁innvandrer	-11.1242
eksaminer	-11.1242
▁foreløpig	-11.1242
▁humoristisk	-11.1242
▁faktum	-11.1242
▁rockeband	-11.1242
▁elefant	-11.1242
▁chelsea	-11.1242
▁triumf	-11.1242
▁opprykk	-11.1242
▁komplett	-11.1242
▁oppfatning	-11.1242
leverandør	-11.1242
▁bebodd	-11.1242
▁libya	-11.1242
▁drømme	-11.1242
▁patriot	-11.1242
▁forestillingen	-11.1242
▁føderasjon	-11.1243
stråler	-11.1243
▁herunder	-11.1243
▁utstrekning	-11.1243
jylland	-11.1243
▁følelser	-11.1244
▁court	-11.1244
▁utforme	-11.1244
▁prinsippet	-11.1244
▁deltakelse	-11.1244
▁spurt	-11.1247
▁fasade	-11.1248
metabol	-11.1255
▁åndelig	-11.1298
bevegelse	-11.1412
▁arkeolog	-11.1455
historiker	-11.1533
provins	-11.1533
kloster	-11.1535
▁america	-11.1551
løk	-11.1645
inskripsjon	-11.1676
▁etiopia	-11.1676
▁identifisere	-11.1676
▁konsentrert	-11.1676
▁langrennsløper	-11.1676
▁mountain	-11.1676
▁musikkvideo	-11.1676
▁republikaner	-11.1676
▁shakespeare	-11.1676
▁stuttgart	-11.1676
▁tanzania	-11.1676
▁ukrainsk	-11.1676
▁distribusjon	-11.1676
▁elektrisitet	-11.1676
▁evolusjon	-11.1676
▁libanon	-11.1676
▁restaurering	-11.1676
▁satellitt	-11.1676
▁hammerfest	-11.1676
▁regulere	-11.1676
medaljong	-11.1676
▁hertugdømmet	-11.1676
▁undersøkt	-11.1676
▁avsløre	-11.1677
▁avstemning	-11.1677
▁dublin	-11.1677
▁lørdag	-11.1677
▁matematisk	-11.1677
▁fusjonert	-11.1677
▁theodor	-11.1677
betennelse	-11.1677
▁tyngre	-11.1677
▁utfordring	-11.1677
▁ålesund	-11.1677
▁seoul	-11.1677
▁liknende	-11.1677
▁organisere	-11.1677
▁stadium	-11.1677
▁naturvitenskape	-11.1678
▁vurdering	-11.1678
▁forelske	-11.168
▁pioner	-11.168
▁belønne	-11.168
▁gjenopprette	-11.1681
▁beundr	-11.1686
▁smitte	-11.1694
▁oppfylle	-11.1715
arbeidsplass	-11.1731
palasset	-11.1794
basseng	-11.1839
ingsrepresentant	-11.1921
▁bakkropp	-11.1963
▁relativ	-11.1984
studier	-11.1988
hovedstad	-11.1988
interesse	-11.1989
asiatisk	-11.1998
utstyr	-11.1999
▁aleksandr	-11.2131
▁bysantinsk	-11.2131
▁ekteparet	-11.2131
▁illustrasjon	-11.2131
▁interessant	-11.2131
▁larvestadie	-11.2131
▁mislyktes	-11.2131
▁palestina	-11.2131
▁palestinsk	-11.2131
▁resolusjon	-11.2131
▁sebastian	-11.2131
▁skjult	-11.2131
▁vancouver	-11.2131
▁warszawa	-11.2131
▁begrensning	-11.2131
▁mellomkrigstid	-11.2131
▁parallelt	-11.2131
▁marokko	-11.2131
▁ustabil	-11.2131
▁besittelse	-11.2131
▁sogneprest	-11.2131
▁tragedie	-11.2131
▁dramatiker	-11.2131
▁veksel	-11.2131
▁revisjon	-11.2131
▁vedkommende	-11.2131
▁populasjon	-11.2131
▁grün	-11.2131
▁napoli	-11.2131
▁husholdning	-11.2131
▁kommentar	-11.2131
▁normandie	-11.2131
▁begravet	-11.2131
▁rekkevidde	-11.2131
▁lennon	-11.2131
▁akustisk	-11.2132
▁pianist	-11.2132
ensemble	-11.2132
▁sultan	-11.2132
▁für	-11.2132
▁middle	-11.2132
▁sjokk	-11.2132
▁nigeria	-11.2132
▁saturn	-11.2133
▁tørke	-11.2133
▁dream	-11.2133
▁oppdrett	-11.2133
▁mysteri	-11.2133
▁puerto	-11.2133
reaktor	-11.2134
▁blomstre	-11.2134
▁muntlig	-11.2135
▁kineser	-11.2136
▁presentere	-11.2138
strålen	-11.2143
▁hendelse	-11.2146
tenkning	-11.2157
skjelette	-11.2168
▁vassdrag	-11.2193
vennlig	-11.2269
▁presidentvalge	-11.2272
forstyrrelse	-11.2307
▁forstyrre	-11.2425
▁insekt	-11.2457
sykehus	-11.2464
størrelse	-11.2464
strøk	-11.2464
inntekt	-11.2465
trekningen	-11.2468
▁inspirasjon	-11.2606
▁anmeldelse	-11.2607
▁attraktiv	-11.2607
▁avskaffet	-11.2607
▁etterspørsel	-11.2607
▁forfulgt	-11.2607
▁forhandlingene	-11.2607
▁fundament	-11.2607
▁helikopter	-11.2607
▁kjønnsmodne	-11.2607
▁konføder	-11.2607
▁kypros	-11.2607
▁leningrad	-11.2607
▁ordenstegnet	-11.2607
▁regulær	-11.2607
▁slovakia	-11.2607
▁spellemannpris	-11.2607
▁uppsala	-11.2607
▁uruguay	-11.2607
▁indonesia	-11.2607
▁krønike	-11.2607
▁lokomotiv	-11.2607
▁utnevnelse	-11.2607
▁kjæreste	-11.2607
▁oppdatert	-11.2607
▁overbevist	-11.2607
▁slesvig	-11.2607
▁taylor	-11.2607
▁komponent	-11.2607
▁belønning	-11.2607
▁kostbar	-11.2607
▁torpedo	-11.2607
▁dedikert	-11.2607
▁relasjoner	-11.2607
▁vannpolo	-11.2607
▁italiener	-11.2607
platået	-11.2607
▁krystall	-11.2607
▁beograd	-11.2607
▁sediment	-11.2607
▁omvendt	-11.2607
▁oppvoks	-11.2607
▁griff	-11.2607
▁færre	-11.2607
▁hjelm	-11.2607
▁sandefjord	-11.2607
▁skjule	-11.2608
▁trussel	-11.2608
▁kallenavn	-11.2608
▁lewis	-11.2608
▁begrunnelse	-11.2608
▁guinea	-11.2608
▁sofia	-11.2608
▁delegat	-11.2608
▁registrere	-11.2608
▁umulig	-11.2608
forsterkning	-11.261
▁skandale	-11.2617
▁mannsnavn	-11.2623
▁nevro	-11.2753
spesialist	-11.2808
▁koreansk	-11.2819
kjoldet	-11.2893
kronologisk	-11.2921
orkester	-11.2951
lønn	-11.2965
flyttet	-11.2965
høyskolen	-11.3014
▁columb	-11.3094
▁aristokrat	-11.3107
▁volleyball	-11.3107
kommissær	-11.3107
▁aluminium	-11.3107
▁anthony	-11.3107
▁athletic	-11.3107
▁billedkunstner	-11.3107
▁brandenburg	-11.3107
▁gasskraftverk	-11.3107
▁hårfagre	-11.3107
▁infrastruktur	-11.3107
▁invadert	-11.3107
▁isabella	-11.3107
▁korrupsjon	-11.3107
▁lawrence	-11.3107
▁mccartney	-11.3107
▁metamorfose	-11.3107
▁novgorod	-11.3107
▁perspektiv	-11.3107
ã	-12.7733
