<unk>	0
<s>	0
</s>	0
.	-3.29599
▁i	-3.44866
e	-3.71548
s	-3.7384
▁og	-3.82817
t	-4.04457
▁	-4.20374
▁av	-4.2885
en	-4.31943
er	-4.3221
▁som	-4.45211
▁en	-4.45213
▁til	-4.57182
▁er	-4.57752
▁for	-4.66757
r	-4.68175
▁på	-4.70042
▁den	-4.86601
▁ble	-4.91352
▁med	-4.92766
▁det	-4.92958
n	-4.94378
▁var	-5.014
▁de	-5.05712
et	-5.12097
▁han	-5.15299
▁å	-5.2355
▁fra	-5.31955
▁et	-5.4452
▁har	-5.50035
▁at	-5.62526
a	-5.65777
ene	-5.66314
k	-5.90272
▁ved	-5.93048
ne	-5.93525
▁om	-5.99337
▁etter	-6.03287
▁også	-6.03518
▁men	-6.08112
i	-6.10203
d	-6.1688
▁seg	-6.18426
▁ut	-6.18529
▁under	-6.20066
o	-6.23787
▁da	-6.25053
▁hadde	-6.26822
▁ikke	-6.27158
y	-6.32137
g	-6.32454
te	-6.34316
▁to	-6.34665
▁over	-6.36943
l	-6.3761
▁opp	-6.41207
▁eller	-6.44308
▁s	-6.45896
▁inn	-6.46887
de	-6.51011
f	-6.51163
▁kan	-6.51641
m	-6.52694
▁andre	-6.52716
▁sin	-6.54394
re	-6.58671
▁mot	-6.58886
▁første	-6.63471
p	-6.64298
in	-6.65474
▁hun	-6.66893
u	-6.67601
▁18	-6.68224
▁dette	-6.68318
▁1	-6.68726
b	-6.72441
h	-6.75123
sk	-6.76054
▁år	-6.76586
ing	-6.77479
▁mellom	-6.78829
▁a	-6.79484
▁ha	-6.79908
v	-6.83804
▁be	-6.84579
▁hans	-6.85274
▁født	-6.87352
es	-6.87903
▁tre	-6.87977
▁f	-6.91454
▁kom	-6.91978
▁der	-6.9212
▁g	-6.92135
▁fikk	-6.94931
al	-6.95094
▁denne	-6.96084
c	-6.96723
us	-6.99503
▁2	-7.02622
ia	-7.02692
ter	-7.02799
▁flere	-7.03074
le	-7.04547
▁man	-7.05323
on	-7.05838
ende	-7.06483
▁alle	-7.07026
▁sammen	-7.08668
an	-7.09214
na	-7.10077
▁nord	-7.10983
▁hvor	-7.12323
sen	-7.12491
▁the	-7.13225
or	-7.15182
▁blant	-7.15969
ske	-7.16597
ri	-7.17063
li	-7.17085
▁før	-7.18142
▁del	-7.18404
▁så	-7.18568
j	-7.20183
▁tallet	-7.21841
is	-7.22177
di	-7.23081
▁ligger	-7.23632
▁m	-7.23758
▁u	-7.2596
▁siden	-7.2628
▁selv	-7.26489
▁re	-7.27126
land	-7.27612
z	-7.27713
▁død	-7.28046
▁norge	-7.28359
▁stor	-7.28575
▁mange	-7.29526
▁senere	-7.30828
▁17	-7.30845
w	-7.31052
▁mer	-7.32672
▁ca	-7.33493
▁se	-7.33755
la	-7.34224
▁byen	-7.34355
ar	-7.3477
nde	-7.35341
▁norsk	-7.35706
ning	-7.35968
▁la	-7.36082
▁3	-7.36412
▁ny	-7.37115
▁blir	-7.37783
▁vært	-7.38004
ch	-7.38469
▁ol	-7.38593
▁tidligere	-7.3881
▁annet	-7.3936
▁gjennom	-7.39412
lig	-7.40104
▁tid	-7.40139
▁være	-7.40217
▁noen	-7.40491
▁disse	-7.40679
▁k	-7.41073
ver	-7.42243
▁land	-7.42856
▁samme	-7.43888
▁blit	-7.44513
▁b	-7.44557
▁an	-7.45591
▁5	-7.45891
iske	-7.47098
▁sitt	-7.47215
▁sør	-7.47567
▁c	-7.48001
▁4	-7.4906
▁her	-7.49118
▁noe	-7.49424
▁kjent	-7.49574
el	-7.49726
be	-7.5001
il	-7.50091
▁kommune	-7.50186
▁store	-7.50388
▁ta	-7.50651
▁gikk	-7.51598
▁vi	-7.51851
ta	-7.52368
ra	-7.52372
ck	-7.52423
ke	-7.52659
vis	-7.52862
um	-7.53268
ler	-7.53922
▁rundt	-7.54011
ma	-7.55735
▁dag	-7.55928
▁vant	-7.56073
ere	-7.56315
▁frem	-7.56425
▁15	-7.57769
ut	-7.57778
▁kunne	-7.59091
øy	-7.59102
id	-7.59501
▁enn	-7.5966
▁ned	-7.60008
der	-7.60138
x	-7.60333
▁of	-7.60378
▁ra	-7.60414
é	-7.60596
▁al	-7.61202
ens	-7.61338
for	-7.61721
▁16	-7.61784
▁p	-7.62111
isk	-7.62239
▁grunn	-7.62249
as	-7.62671
▁di	-7.63137
da	-7.63738
▁bo	-7.63958
▁vil	-7.64203
▁by	-7.64393
▁sine	-7.65276
ng	-7.65358
▁båd	-7.65831
os	-7.65972
▁o	-7.66522
▁skulle	-7.66628
▁ba	-7.66672
▁vest	-7.66828
▁øst	-7.67207
▁mens	-7.67318
▁d	-7.67336
▁ro	-7.67369
▁sa	-7.6761
ol	-7.67757
▁kr	-7.68116
▁mest	-7.68484
å	-7.69011
▁6	-7.6946
bo	-7.69838
▁tilbake	-7.6989
den	-7.7035
▁st	-7.70553
▁ham	-7.70762
▁li	-7.71041
▁10	-7.71103
▁ofte	-7.71867
▁ga	-7.72097
ff	-7.72942
▁h	-7.73352
nes	-7.73665
lo	-7.7375
▁ti	-7.74076
▁tok	-7.7556
ner	-7.75593
▁fram	-7.75601
▁nå	-7.75885
ur	-7.75899
▁bare	-7.76271
ge	-7.76423
ste	-7.76516
▁ka	-7.76677
ig	-7.76779
ø	-7.76797
mer	-7.77449
▁få	-7.77544
men	-7.78116
▁le	-7.78319
▁usa	-7.7832
▁skal	-7.78628
▁fire	-7.79185
▁norske	-7.79225
▁slik	-7.79316
▁nye	-7.79332
ton	-7.79526
ul	-7.7957
▁gang	-7.79937
▁mai	-7.80316
▁bli	-7.80783
▁navn	-7.8093
▁oslo	-7.81009
me	-7.81234
▁navnet	-7.81453
▁km	-7.82313
erne	-7.83003
▁v	-7.83022
▁meter	-7.83104
▁pa	-7.83504
ro	-7.83539
mo	-7.83723
at	-7.84024
▁ho	-7.84083
ger	-7.84616
▁hele	-7.84923
kk	-7.85081
▁per	-7.85537
▁7	-7.85645
▁siste	-7.86092
▁rekke	-7.86561
▁000	-7.86716
▁kirke	-7.87216
▁dem	-7.87854
▁l	-7.87867
je	-7.88197
ns	-7.88205
▁finnes	-7.88625
▁august	-7.88857
▁8	-7.88886
▁ni	-7.89044
dal	-7.89787
▁ma	-7.90099
ve	-7.90105
skap	-7.90493
▁n	-7.90586
to	-7.90846
ker	-7.90906
▁2008	-7.91401
▁deltok	-7.91442
erte	-7.91582
▁lag	-7.91718
th	-7.91778
▁w	-7.92523
man	-7.92585
ry	-7.92872
▁mål	-7.92877
▁mars	-7.93146
gang	-7.93198
▁januar	-7.93299
ven	-7.93671
ga	-7.93887
pp	-7.94094
son	-7.94225
▁juli	-7.94435
stad	-7.94491
si	-7.94601
▁12	-7.94615
it	-7.95027
ha	-7.95196
tter	-7.95292
ør	-7.95369
▁hoved	-7.95912
by	-7.95951
▁bak	-7.96157
gen	-7.96307
ist	-7.96307
mann	-7.96664
▁14	-7.96745
het	-7.96782
▁he	-7.96798
▁si	-7.96834
▁største	-7.9688
ka	-7.97082
pe	-7.97255
▁igjen	-7.97397
▁landet	-7.98033
▁9	-7.98749
▁fly	-7.9894
▁kalt	-7.99253
lige	-7.99547
berg	-7.99942
▁laget	-7.99984
▁tillegg	-8.00286
▁fa	-8.00872
▁kon	-8.00913
len	-8.01474
ad	-8.01718
▁fri	-8.01945
▁oktober	-8.02246
ba	-8.02356
▁e	-8.02491
▁lo	-8.02527
ll	-8.02697
▁20	-8.03413
ic	-8.03875
▁når	-8.03886
▁først	-8.04165
ingen	-8.04471
ell	-8.04548
▁kun	-8.04565
rett	-8.04673
ang	-8.04772
▁13	-8.04861
ling	-8.04991
▁po	-8.05044
▁2007	-8.05355
else	-8.05791
▁du	-8.06295
om	-8.06342
im	-8.07053
▁lang	-8.07066
▁juni	-8.07076
▁mo	-8.07365
▁11	-8.07531
▁april	-8.07542
▁går	-8.07551
▁co	-8.08182
ik	-8.08806
▁samt	-8.08865
bu	-8.08881
▁y	-8.09012
▁plass	-8.09109
sa	-8.09183
▁as	-8.09451
▁na	-8.09485
▁årene	-8.10284
mp	-8.10294
▁rett	-8.10482
▁pi	-8.10542
▁2010	-8.10618
var	-8.10646
▁begynte	-8.1096
▁november	-8.11026
▁september	-8.11026
▁området	-8.1147
▁tyske	-8.11597
ær	-8.1161
▁mindre	-8.11663
▁ar	-8.11722
▁bu	-8.12692
▁so	-8.12772
ö	-8.12847
ko	-8.12902
▁tiden	-8.12983
gi	-8.13128
▁gi	-8.13292
ja	-8.13424
▁deres	-8.13616
▁t	-8.13731
midlertid	-8.1399
mi	-8.14063
▁spilte	-8.14147
▁bi	-8.1419
elig	-8.14316
ring	-8.14807
go	-8.149
▁gjorde	-8.15157
▁hos	-8.15391
▁europa	-8.15728
▁desember	-8.15941
▁fem	-8.16189
▁bruk	-8.16201
▁far	-8.16218
▁alt	-8.16294
▁beste	-8.16893
▁mor	-8.16973
▁videre	-8.175
▁større	-8.17505
▁egen	-8.17662
▁brukt	-8.17692
▁2009	-8.17711
▁ri	-8.17727
▁musikk	-8.17886
va	-8.1847
▁me	-8.1906
sh	-8.19267
am	-8.19528
ho	-8.19545
lag	-8.19743
▁olympisk	-8.20421
▁ville	-8.20578
▁helt	-8.21124
op	-8.2119
▁barn	-8.21222
od	-8.21311
▁do	-8.21416
ce	-8.2147
opp	-8.21487
▁skole	-8.21987
inn	-8.2214
▁nær	-8.223
▁døde	-8.22857
▁utgitt	-8.23053
▁medlem	-8.23406
▁2006	-8.23689
▁su	-8.23689
▁form	-8.23882
co	-8.23979
ion	-8.24057
▁spiller	-8.24441
▁new	-8.24735
æ	-8.248
▁sk	-8.24915
au	-8.24922
asjon	-8.24971
▁mye	-8.25487
▁pro	-8.25575
ok	-8.25692
▁30	-8.25706
▁film	-8.25913
▁like	-8.26074
ster	-8.26152
do	-8.26157
tak	-8.26278
av	-8.26429
vi	-8.26672
ment	-8.267
▁tv	-8.26827
retter	-8.26992
▁februar	-8.27051
▁sp	-8.27265
▁kina	-8.27415
▁hus	-8.27428
▁kultur	-8.27484
▁sommer	-8.27694
▁leder	-8.27753
tur	-8.27754
▁uten	-8.27949
▁2005	-8.28044
bi	-8.28248
år	-8.28817
▁sam	-8.29261
▁tra	-8.29268
▁året	-8.29317
▁ju	-8.29703
▁eksempel	-8.29781
▁bar	-8.2981
ings	-8.30075
▁no	-8.30138
un	-8.3027
▁innen	-8.30361
▁kl	-8.30443
ed	-8.30719
▁fleste	-8.30759
▁hennes	-8.3083
sta	-8.30881
▁and	-8.3095
▁filmen	-8.30969
▁gamle	-8.31047
rede	-8.3106
▁slutt	-8.31779
▁go	-8.32453
▁kommer	-8.32515
sted	-8.32634
▁tatt	-8.32704
▁par	-8.32739
▁startet	-8.32794
iv	-8.32842
ie	-8.33241
▁j	-8.33288
▁sverige	-8.33366
nd	-8.33974
▁mar	-8.34094
▁sønn	-8.3427
▁tro	-8.34341
▁2011	-8.34685
▁brukes	-8.3475
io	-8.34791
ant	-8.34944
tal	-8.3498
bar	-8.35244
▁or	-8.35351
▁bestå	-8.35673
▁jo	-8.35702
▁ulike	-8.35798
▁forhold	-8.36026
á	-8.36315
▁må	-8.36335
▁tyskland	-8.36406
▁0	-8.36439
sel	-8.36529
▁hver	-8.36618
▁grad	-8.36895
stre	-8.37311
▁lå	-8.37357
form	-8.37372
ni	-8.37408
ca	-8.37469
▁innbyggere	-8.37628
▁frankrike	-8.3763
ä	-8.3766
▁kong	-8.37903
▁ski	-8.37977
▁perioden	-8.37995
kte	-8.38121
▁sol	-8.38234
▁john	-8.38448
▁el	-8.38705
mb	-8.38996
▁ei	-8.39246
▁pe	-8.39459
▁ru	-8.39628
ti	-8.39677
no	-8.39691
▁sch	-8.39971
vin	-8.40167
ikk	-8.40187
ber	-8.40353
▁am	-8.4057
ty	-8.4085
▁arbeidet	-8.40866
ier	-8.41102
gu	-8.4113
▁måtte	-8.41253
ard	-8.41424
▁ingen	-8.41581
▁løpet	-8.41624
ag	-8.41755
▁begge	-8.41836
▁russisk	-8.42087
anske	-8.42569
ina	-8.42962
▁bandet	-8.4299
▁president	-8.43163
▁vann	-8.43178
▁kunst	-8.43348
per	-8.43466
▁samtidig	-8.43512
stand	-8.43628
pa	-8.44082
▁em	-8.44266
ot	-8.44367
▁tysk	-8.44405
▁ne	-8.44529
▁hvert	-8.44532
▁gjen	-8.44731
satt	-8.4491
del	-8.44937
▁sesongen	-8.45401
▁ganger	-8.45595
ld	-8.45785
▁særlig	-8.45866
▁sett	-8.45872
▁gu	-8.45936
▁svær	-8.45975
itt	-8.45993
▁bygget	-8.45997
▁2004	-8.46153
min	-8.46174
hold	-8.46318
▁x	-8.46344
ly	-8.4636
over	-8.46552
nk	-8.46787
▁mat	-8.47022
▁ko	-8.47071
▁skrevet	-8.47159
▁dagen	-8.47327
▁dermed	-8.47373
▁deler	-8.47391
dag	-8.47415
und	-8.47431
▁høy	-8.47711
▁språk	-8.47875
ir	-8.48062
▁satt	-8.48121
if	-8.48285
po	-8.48753
▁gitt	-8.49091
elle	-8.4941
▁parti	-8.49565
sjon	-8.4984
▁gull	-8.49966
lse	-8.50015
▁langs	-8.5002
▁engelsk	-8.50096
▁nest	-8.5036
▁amerikanske	-8.50412
les	-8.50501
▁norges	-8.50569
▁lu	-8.50643
▁25	-8.50696
ering	-8.51081
ans	-8.51344
▁fast	-8.51346
kker	-8.51395
▁små	-8.51579
▁kort	-8.51703
vik	-8.51981
tor	-8.52248
▁klubben	-8.52382
▁all	-8.52399
▁2000	-8.52589
▁seks	-8.53092
ting	-8.53323
▁kjente	-8.53411
lu	-8.53524
▁amerikansk	-8.53637
gg	-8.5365
▁hu	-8.53797
▁fotball	-8.53832
▁kommunen	-8.5387
ys	-8.54111
lin	-8.54162
▁finne	-8.54433
ningen	-8.547
▁lys	-8.54715
derfor	-8.54746
▁gud	-8.5479
▁vei	-8.5493
▁annen	-8.55102
▁etablert	-8.55128
ci	-8.55132
and	-8.5546
▁england	-8.55464
▁gruppen	-8.55729
▁lov	-8.55748
elsen	-8.55819
▁slutten	-8.55863
▁nytt	-8.56234
▁tidlig	-8.56292
▁tri	-8.56402
▁san	-8.56467
▁krigen	-8.56624
▁eks	-8.56848
▁eneste	-8.56885
▁folke	-8.56897
▁viktig	-8.56995
ü	-8.57092
▁verdenskrig	-8.57122
følge	-8.57196
tid	-8.57458
slag	-8.57492
▁liv	-8.57679
▁britiske	-8.5773
ek	-8.57883
▁vm	-8.58077
ley	-8.58111
tte	-8.58123
lat	-8.58288
lot	-8.58375
▁verdens	-8.58399
dd	-8.5842
▁sjø	-8.58464
▁millioner	-8.58646
dig	-8.58659
▁london	-8.58759
mon	-8.589
▁serien	-8.58952
ill	-8.59154
▁side	-8.59184
▁bergen	-8.59382
ium	-8.59424
▁skrev	-8.59479
▁car	-8.59558
bruk	-8.59669
▁styre	-8.59674
stein	-8.59729
hu	-8.59969
▁mann	-8.60036
▁nasjonal	-8.60253
ov	-8.60302
▁sted	-8.60445
▁ad	-8.60545
siden	-8.6066
tiden	-8.61278
▁ser	-8.61364
▁pre	-8.61428
▁provinsen	-8.61561
ak	-8.61625
▁gammel	-8.61831
▁2002	-8.61839
mmer	-8.61843
vo	-8.62174
▁2001	-8.62193
▁stedet	-8.62238
▁hi	-8.62352
tok	-8.62424
▁person	-8.62662
▁tor	-8.62697
▁god	-8.62895
▁albumet	-8.62969
▁støtte	-8.62984
verk	-8.63019
ologi	-8.63097
▁sv	-8.63286
▁verden	-8.63286
▁min	-8.63582
▁øya	-8.63687
tre	-8.63747
mm	-8.63922
▁stort	-8.64008
jo	-8.64173
▁2003	-8.64295
▁fortsatt	-8.64354
▁ak	-8.64369
▁gir	-8.64569
▁sto	-8.64574
ny	-8.64618
hi	-8.6462
hus	-8.64796
ru	-8.65282
nder	-8.65299
att	-8.65367
art	-8.65446
▁ord	-8.65814
▁spilt	-8.66178
isme	-8.66182
▁mulig	-8.66623
▁ab	-8.66634
ud	-8.66727
▁1990	-8.6681
ius	-8.67116
▁1980	-8.67179
pi	-8.67209
▁holdt	-8.67213
▁forskjellige	-8.67272
▁val	-8.67386
▁spor	-8.67405
fe	-8.67689
▁va	-8.6787
▁hovedsak	-8.67919
▁100	-8.68088
▁delen	-8.68355
▁bok	-8.69024
▁vanlig	-8.69183
▁kirken	-8.69218
ive	-8.69263
itet	-8.69448
▁fjell	-8.69636
▁flyttet	-8.69642
▁ført	-8.69694
▁1999	-8.69767
▁gift	-8.69774
ator	-8.69798
▁bra	-8.69815
▁konge	-8.69918
▁ja	-8.69994
ding	-8.70028
▁fi	-8.70056
rik	-8.7007
▁gr	-8.70164
tiske	-8.70857
▁bygge	-8.7097
▁gjør	-8.71298
før	-8.71523
▁tredje	-8.71611
í	-8.71994
▁lokal	-8.72046
mar	-8.72318
ran	-8.72342
▁delstaten	-8.72445
sse	-8.7259
dalen	-8.7265
ken	-8.72732
ac	-8.7281
kel	-8.72819
▁gjort	-8.72891
▁ki	-8.72979
▁hel	-8.73002
fa	-8.73532
▁utviklet	-8.73535
tra	-8.73643
sten	-8.73647
til	-8.73725
▁sangen	-8.73744
▁fag	-8.73843
▁forbindelse	-8.73936
▁aktiv	-8.73985
▁bre	-8.74471
ige	-8.74483
▁vise	-8.7457
▁sentral	-8.74936
▁halv	-8.75151
legg	-8.75231
▁con	-8.7528
▁universitetet	-8.7528
▁godt	-8.7538
▁tar	-8.75414
▁betydning	-8.75556
▁mennesker	-8.75571
▁ge	-8.75652
▁1994	-8.7596
▁nor	-8.76016
▁bro	-8.76111
▁langt	-8.76499
▁vel	-8.76554
▁te	-8.76587
▁storbritannia	-8.76756
ow	-8.7691
▁19	-8.77035
▁mi	-8.77091
▁opprinnelig	-8.77138
▁forfatter	-8.77148
▁danmark	-8.7716
▁hatt	-8.77242
▁pl	-8.77306
tiv	-8.77379
▁valg	-8.77392
og	-8.77463
▁22	-8.77464
▁arbeid	-8.77492
pen	-8.77511
▁elven	-8.77538
ble	-8.77586
▁selskapet	-8.77725
▁hen	-8.77769
dom	-8.77801
▁bl	-8.77862
▁th	-8.77873
▁står	-8.77947
▁familie	-8.77992
▁partiet	-8.78016
▁21	-8.78148
▁produksjon	-8.7828
▁lever	-8.78309
▁ste	-8.78422
▁r	-8.78608
▁basert	-8.78714
▁stein	-8.79243
▁sky	-8.79395
▁plan	-8.79536
kke	-8.7955
løp	-8.79812
▁gjøre	-8.79856
2	-8.79902
▁viser	-8.80064
dre	-8.80131
▁24	-8.80195
▁stat	-8.80262
vel	-8.80273
▁luft	-8.80447
vei	-8.80491
▁innenfor	-8.80534
ham	-8.80622
▁liten	-8.80793
ian	-8.81419
▁ledet	-8.81542
▁historie	-8.81669
▁innehold	-8.81711
▁franske	-8.81806
▁23	-8.81999
ede	-8.82003
inger	-8.82016
▁veien	-8.82089
▁italia	-8.82135
ou	-8.82209
mme	-8.82233
ku	-8.82394
▁regjeringen	-8.82543
▁omkring	-8.82556
tu	-8.82565
▁folk	-8.8266
bre	-8.82671
▁ty	-8.82865
mål	-8.82873
▁vinter	-8.82965
▁spesielt	-8.82982
▁enkelte	-8.83057
▁lav	-8.83105
▁gå	-8.83458
▁rød	-8.83488
sti	-8.83647
▁my	-8.83745
▁menneske	-8.83839
▁art	-8.8387
▁utenfor	-8.83939
▁lite	-8.8401
▁kar	-8.84113
▁gav	-8.84195
▁au	-8.84213
▁sendt	-8.843
uten	-8.84338
▁spille	-8.84446
▁roman	-8.84526
▁kinesisk	-8.84545
ong	-8.8463
▁staten	-8.84646
▁grav	-8.84938
værende	-8.84958
▁pu	-8.85077
est	-8.85196
▁dr	-8.85283
▁gruppe	-8.8532
kon	-8.85324
▁bety	-8.8534
leg	-8.85359
▁mon	-8.85418
▁tap	-8.85456
jen	-8.85496
▁rolle	-8.85497
kom	-8.85498
▁militær	-8.85509
em	-8.85873
▁slaget	-8.85894
▁we	-8.86125
▁1960	-8.86477
▁rom	-8.8648
▁ben	-8.86504
ord	-8.86635
isering	-8.86869
wa	-8.86903
▁familien	-8.87067
▁tur	-8.87179
landet	-8.87188
▁os	-8.87313
▁26	-8.87444
sch	-8.87469
▁valgt	-8.87607
▁menn	-8.87912
▁nok	-8.8805
▁makt	-8.88118
så	-8.88216
akt	-8.88255
burg	-8.88316
▁bru	-8.88444
▁midt	-8.88526
▁paris	-8.88595
▁afrika	-8.88696
▁forsøk	-8.8872
ighet	-8.88919
forening	-8.88964
▁gjerne	-8.89166
▁én	-8.89203
▁skuespiller	-8.89204
▁svensk	-8.89259
kan	-8.89321
▁bor	-8.89378
▁kvinner	-8.8938
ninger	-8.89486
bil	-8.8955
▁litt	-8.89556
ung	-8.89618
kle	-8.89799
▁italiensk	-8.9008
▁1998	-8.90086
▁pan	-8.90107
lan	-8.90192
▁28	-8.90433
▁fo	-8.90471
▁syn	-8.90546
▁1970	-8.90551
▁gul	-8.90576
▁1992	-8.91011
skje	-8.91022
lands	-8.91167
▁bygd	-8.91178
▁åpnet	-8.91232
plass	-8.91309
▁kal	-8.91414
ron	-8.91463
▁india	-8.91516
▁datter	-8.91543
▁får	-8.91772
▁2012	-8.9195
▁neste	-8.91986
ret	-8.91994
▁fått	-8.92033
let	-8.92055
tisk	-8.92101
▁skog	-8.9216
▁foran	-8.92297
▁fortsatte	-8.92344
▁fransk	-8.92347
▁personer	-8.92355
▁farge	-8.92379
tar	-8.92454
ju	-8.92598
▁kamp	-8.93049
▁henne	-8.93207
▁natur	-8.93266
▁kor	-8.9335
▁bri	-8.93363
▁opprettet	-8.93629
▁komme	-8.93714
▁york	-8.93828
▁russland	-8.93829
gel	-8.9383
setning	-8.93863
tan	-8.9396
▁hø	-8.94077
▁hol	-8.94181
lsen	-8.94236
3	-8.94295
isert	-8.94298
▁inkludert	-8.94306
▁kalles	-8.94449
heten	-8.94465
▁utnevnt	-8.94477
mark	-8.94502
▁fl	-8.94582
▁lange	-8.9463
▁jeg	-8.94753
▁internasjonale	-8.94757
▁robert	-8.94815
stan	-8.94832
▁prest	-8.94857
▁berg	-8.95152
▁general	-8.95317
▁minst	-8.9553
tro	-8.95641
ó	-8.95738
▁aldri	-8.95764
▁cha	-8.95805
bel	-8.95835
he	-8.95913
▁befolkningen	-8.95925
kor	-8.95948
▁egne	-8.96188
my	-8.9624
▁moderne	-8.96279
▁bestemt	-8.96308
▁50	-8.96433
▁følge	-8.96475
▁sand	-8.96517
▁ed	-8.96531
▁gal	-8.96648
▁universitet	-8.96675
anlegg	-8.96861
▁funnet	-8.96935
skole	-8.96978
▁divisjon	-8.96996
▁arbeids	-8.971
▁antall	-8.97124
▁samarbeid	-8.97163
▁amerika	-8.97225
▁danne	-8.97265
00	-8.97284
tun	-8.97405
▁hal	-8.97727
▁skolen	-8.97753
lene	-8.97774
bok	-8.97876
▁kur	-8.98129
▁ver	-8.98141
▁direkte	-8.98219
råd	-8.98431
▁topp	-8.98546
uk	-8.98572
▁åtte	-8.98668
▁27	-8.98682
cu	-8.98742
▁romersk	-8.98756
▁krigs	-8.98757
fi	-8.9882
▁meste	-8.98874
▁orden	-8.98899
tri	-8.99152
fly	-8.99367
▁serie	-8.99392
spiller	-8.99414
▁wa	-8.99424
▁tu	-8.99478
par	-8.99517
▁industri	-8.99519
ki	-8.99577
▁fu	-8.99654
▁vanligvis	-8.998
stilling	-8.99834
fjord	-8.99952
ks	-9.00068
▁album	-9.00069
▁arbeider	-9.00227
▁arter	-9.00266
bygg	-9.00283
▁berlin	-9.00336
▁hjem	-9.00544
▁best	-9.00574
laget	-9.00583
▁svenske	-9.0065
lev	-9.00677
▁betydelig	-9.00745
▁bil	-9.00887
▁kongen	-9.00939
ps	-9.00951
▁sentrum	-9.01013
ach	-9.01153
log	-9.01228
▁van	-9.01232
elt	-9.01269
▁paul	-9.01496
▁nummer	-9.01628
▁1995	-9.01778
ien	-9.01787
▁produsert	-9.01877
▁bort	-9.01913
mor	-9.02179
▁fant	-9.02258
▁port	-9.02286
▁henhold	-9.02319
▁endt	-9.02353
▁40	-9.02357
▁via	-9.02386
heim	-9.02416
leder	-9.02511
minister	-9.02617
▁politiske	-9.0263
skrift	-9.02899
▁ch	-9.02917
båt	-9.0293
sson	-9.03028
fra	-9.03246
▁bruker	-9.03255
▁mag	-9.03279
▁begynnelsen	-9.0334
inne	-9.03474
far	-9.03481
▁ettersom	-9.03586
met	-9.03609
▁dess	-9.03757
borg	-9.03762
ica	-9.03811
▁likevel	-9.03895
▁tjeneste	-9.0396
stasjon	-9.04035
han	-9.0404
▁knytte	-9.04391
▁1997	-9.04395
▁riks	-9.04472
▁japan	-9.04545
▁elva	-9.04725
det	-9.04737
ine	-9.04841
▁pr	-9.04889
▁kilometer	-9.04922
▁grunnlagt	-9.04944
▁motor	-9.0512
▁anti	-9.05135
▁plate	-9.05168
▁dikt	-9.05213
▁hva	-9.05251
som	-9.05346
▁representert	-9.05457
▁omtrent	-9.05457
▁fiske	-9.05515
▁politisk	-9.05518
▁resultat	-9.05578
▁full	-9.05642
▁ferdig	-9.05743
▁keiser	-9.05822
▁lik	-9.05927
▁danske	-9.05935
▁radio	-9.06018
q	-9.06092
▁medlemmer	-9.06098
yn	-9.06172
▁lands	-9.06227
▁biskop	-9.06536
▁stats	-9.06565
▁slag	-9.06587
▁sang	-9.06639
▁jobbe	-9.06687
ris	-9.06703
▁29	-9.06723
▁hjelp	-9.06865
▁kontroll	-9.06876
kamp	-9.06879
las	-9.06888
ære	-9.0691
▁ur	-9.06928
▁post	-9.07021
▁sølv	-9.07076
▁william	-9.07079
▁eldste	-9.07079
▁karl	-9.07112
▁on	-9.0713
mun	-9.07177
bin	-9.07249
▁jord	-9.07345
▁nett	-9.07473
▁mari	-9.07479
▁arrangert	-9.07625
▁tittelen	-9.07724
banen	-9.07767
▁band	-9.07893
ji	-9.07993
▁mu	-9.08022
mu	-9.08038
styre	-9.08064
mal	-9.08067
▁drept	-9.08175
▁1996	-9.08181
fl	-9.08371
▁fe	-9.08449
mester	-9.08496
▁rø	-9.08521
▁eget	-9.08554
▁handels	-9.08581
▁ku	-9.08662
▁angrep	-9.0871
▁1991	-9.08734
▁fred	-9.08801
nte	-9.08818
▁legge	-9.08851
▁benyttet	-9.09081
port	-9.09227
▁professor	-9.09282
▁1988	-9.0929
▁bror	-9.09504
▁seier	-9.09569
▁felles	-9.09589
rø	-9.09614
jær	-9.09625
▁roma	-9.09652
isere	-9.09793
▁indre	-9.09888
▁lagt	-9.09909
▁klar	-9.09962
vet	-9.09974
spill	-9.09977
selskap	-9.10057
▁fin	-9.10114
asje	-9.10248
▁mil	-9.10278
ska	-9.1028
▁lett	-9.10373
▁z	-9.1041
jer	-9.10434
▁eldre	-9.10436
▁slekt	-9.10677
▁krig	-9.10815
▁barne	-9.1084
plan	-9.10919
▁minne	-9.10949
▁finalen	-9.10979
▁stil	-9.11069
▁skip	-9.11281
▁gate	-9.11337
▁mal	-9.1135
kar	-9.11494
▁såkalt	-9.11536
▁regionen	-9.11605
bro	-9.11731
za	-9.118
ller	-9.11941
sky	-9.12002
▁je	-9.12095
anger	-9.12162
ip	-9.12276
up	-9.12277
▁delta	-9.12362
▁slo	-9.12453
res	-9.12486
▁sak	-9.12504
ya	-9.12523
▁høyre	-9.12556
▁blå	-9.1264
▁q	-9.12657
▁1989	-9.12693
▁venstre	-9.12698
fyl	-9.12787
▁1800	-9.12828
▁ly	-9.12856
1	-9.12888
iner	-9.12979
▁liste	-9.13101
▁system	-9.13198
svis	-9.13212
▁engelske	-9.13217
du	-9.1326
▁canada	-9.13261
▁31	-9.13579
▁hy	-9.13792
ford	-9.13888
▁kjøpt	-9.1389
▁politiker	-9.13903
ket	-9.13905
▁ag	-9.13933
ct	-9.13986
liggende	-9.14029
liv	-9.14072
▁ter	-9.14099
▁ring	-9.14104
▁kraft	-9.14289
sø	-9.14299
gle	-9.14307
▁sha	-9.14463
pu	-9.14472
vær	-9.14495
▁tross	-9.14537
▁herre	-9.14561
▁bedre	-9.14586
▁von	-9.14613
året	-9.1463
▁jernbane	-9.14668
ana	-9.14781
stilt	-9.14799
▁omfatter	-9.14802
▁enkelt	-9.14959
▁fall	-9.15023
sett	-9.15098
▁suksess	-9.15143
▁våpen	-9.15156
van	-9.15348
▁tildelt	-9.15419
▁hav	-9.15481
fjorden	-9.15508
▁ep	-9.15551
val	-9.15554
▁kamper	-9.15557
▁steder	-9.15718
▁fylke	-9.1573
▁dy	-9.15736
departementet	-9.15754
iet	-9.15867
▁ber	-9.15889
▁ve	-9.15956
▁brasil	-9.162
▁teater	-9.1622
▁sta	-9.16336
▁periode	-9.16355
▁følgende	-9.16371
▁nordlige	-9.16477
mel	-9.1655
▁ordet	-9.16719
▁stockholm	-9.168
▁1900	-9.16819
ab	-9.1702
▁litteratur	-9.17094
▁dannet	-9.17138
▁mis	-9.17204
▁seil	-9.17271
▁christian	-9.17321
▁hverandre	-9.17403
▁skje	-9.17522
▁eu	-9.17594
▁mass	-9.176
▁dansk	-9.1761
▁lege	-9.17615
øya	-9.17645
▁hvis	-9.17649
▁sen	-9.17695
▁delt	-9.17769
▁johan	-9.17831
▁dro	-9.17969
jel	-9.18015
▁gresk	-9.18023
▁prosent	-9.18025
▁200	-9.18056
▁blad	-9.18085
▁holde	-9.18094
▁skr	-9.18265
▁verk	-9.18295
▁bal	-9.18296
▁leker	-9.18485
80	-9.18507
▁press	-9.18661
▁energi	-9.18677
▁militære	-9.18725
zi	-9.18788
▁viktigst	-9.19105
▁ett	-9.19177
▁regi	-9.19237
▁skipet	-9.19287
▁resten	-9.19368
▁rev	-9.19478
▁jan	-9.19522
▁wi	-9.19587
▁kje	-9.19643
tz	-9.19833
▁områder	-9.1984
▁1983	-9.19858
▁1920	-9.19863
kant	-9.19897
ini	-9.20094
▁møtte	-9.20138
▁europeisk	-9.20265
tall	-9.20433
▁vanskelig	-9.20473
▁slått	-9.20538
▁års	-9.20619
▁utgjør	-9.20979
su	-9.2103
▁århundre	-9.21096
▁opera	-9.21107
▁2014	-9.21112
▁britisk	-9.21185
givelse	-9.21197
▁regnes	-9.2124
skip	-9.21255
30	-9.21317
▁katolske	-9.2134
stoff	-9.21365
▁vo	-9.214
▁renn	-9.21448
▁høyde	-9.216
▁kvinne	-9.21681
▁interesse	-9.21696
▁2013	-9.21734
▁red	-9.21744
▁samling	-9.21754
▁heller	-9.21878
▁finland	-9.21915
heter	-9.22047
ister	-9.22208
▁sannsynlig	-9.22357
veien	-9.22578
▁sanger	-9.22635
▁vin	-9.22674
▁tekst	-9.22697
under	-9.22835
▁trondheim	-9.22999
▁1987	-9.23002
▁1993	-9.23004
▁stra	-9.23045
▁rock	-9.23259
▁fange	-9.23261
50	-9.2333
senter	-9.23437
film	-9.23448
▁krav	-9.23492
▁ska	-9.23502
vann	-9.23518
▁lokale	-9.23518
▁kroppen	-9.23638
stil	-9.23839
▁mark	-9.23992
so	-9.24024
▁dager	-9.2404
vern	-9.24147
lett	-9.24228
▁kron	-9.24274
▁studert	-9.24287
▁1979	-9.24289
▁1984	-9.2429
ismen	-9.24501
dyr	-9.24552
▁peter	-9.2462
▁område	-9.24634
sjef	-9.24847
▁spania	-9.24931
▁1986	-9.24943
▁poeng	-9.24944
▁henrik	-9.24959
▁organ	-9.25105
stående	-9.25215
▁stjerne	-9.2547
▁høyeste	-9.25586
▁versjon	-9.25608
▁sosial	-9.25977
folk	-9.26092
gitt	-9.26227
fri	-9.26231
▁1945	-9.26248
▁1950	-9.26258
▁offentlig	-9.26439
▁brun	-9.2662
vil	-9.26717
▁mente	-9.26812
▁spi	-9.26819
▁miste	-9.26833
ater	-9.26873
gikk	-9.26883
▁1968	-9.26915
▁lyd	-9.27018
dt	-9.27092
▁regn	-9.27121
▁møte	-9.27227
▁eid	-9.27237
asjonen	-9.27365
dan	-9.27372
ald	-9.27426
stra	-9.27458
▁pave	-9.27522
tes	-9.27529
ation	-9.27545
byen	-9.27693
▁koloni	-9.27764
bygd	-9.28054
tjeneste	-9.2815
deling	-9.28224
▁reise	-9.28227
▁bruke	-9.28237
▁thomas	-9.28241
▁bøker	-9.28244
dømme	-9.28246
▁1972	-9.28252
▁stadig	-9.28331
ida	-9.28344
▁kol	-9.28369
lle	-9.28371
▁natt	-9.28372
▁skade	-9.2841
fabrikk	-9.28454
elser	-9.28525
40	-9.2858
▁ledelse	-9.2868
▁fre	-9.2872
▁retning	-9.28768
▁helse	-9.28836
ari	-9.28842
▁island	-9.2885
▁moh	-9.28865
▁virke	-9.28884
▁dårlig	-9.28918
▁linje	-9.28918
▁midten	-9.2892
▁øy	-9.28929
▁ønsket	-9.28955
▁ii	-9.29079
▁gran	-9.29201
▁don	-9.29209
▁grensen	-9.29224
▁arm	-9.29254
▁ev	-9.29287
▁utvikling	-9.29338
gan	-9.29358
lagt	-9.29383
▁asia	-9.29421
а	-9.29589
ski	-9.29651
▁dersom	-9.29742
▁ke	-9.29798
▁sterkt	-9.29862
▁viste	-9.29896
istisk	-9.29902
nntil	-9.29913
område	-9.29978
▁spe	-9.30124
gruppen	-9.30132
king	-9.30184
▁boken	-9.30273
▁sovjetunionen	-9.30282
▁1964	-9.30293
mat	-9.30299
▁500	-9.30363
▁lærer	-9.30405
sjøen	-9.30431
ino	-9.30462
istiske	-9.30543
che	-9.30719
▁tom	-9.30746
▁høsten	-9.30759
ika	-9.30786
▁alder	-9.30809
▁tegn	-9.30834
▁sal	-9.30905
▁1985	-9.30981
▁1940	-9.30988
▁sørøst	-9.30996
vid	-9.31042
▁lenger	-9.31103
▁livet	-9.31134
▁hjemme	-9.31205
enes	-9.31262
tale	-9.31358
▁tilhører	-9.31371
▁op	-9.31428
dra	-9.31513
▁dis	-9.3153
▁hånd	-9.31589
området	-9.31657
▁voksne	-9.31666
▁brukte	-9.3167
▁ry	-9.31726
▁hvordan	-9.31756
flate	-9.31852
▁nrk	-9.31884
▁tett	-9.32107
▁selskap	-9.32183
ay	-9.32279
▁program	-9.32352
▁hvilke	-9.32366
fisk	-9.32374
▁1978	-9.32375
▁1976	-9.32375
▁ren	-9.32426
▁marked	-9.32452
▁personlig	-9.32474
menn	-9.32494
bra	-9.32533
bl	-9.32537
▁sø	-9.3258
▁erik	-9.32665
▁cla	-9.32711
kere	-9.32765
▁styrke	-9.32884
ind	-9.32908
▁kv	-9.32939
way	-9.32958
▁stod	-9.33037
▁eli	-9.33132
kre	-9.33211
▁mur	-9.33239
▁bank	-9.33246
▁jon	-9.33587
▁cor	-9.3364
▁hvit	-9.337
▁tak	-9.33877
▁hvite	-9.33903
▁olav	-9.33972
▁dyr	-9.34003
▁kn	-9.34029
aksjon	-9.34049
evne	-9.34075
ød	-9.34146
ledes	-9.34243
▁ball	-9.34412
▁tru	-9.34487
messig	-9.34495
tig	-9.34696
▁mus	-9.34706
▁sørlige	-9.34723
▁mester	-9.34762
dy	-9.34791
▁modell	-9.34966
▁enten	-9.3506
pol	-9.35111
▁statsminister	-9.35229
▁standard	-9.35231
eres	-9.35271
▁pris	-9.35357
▁løp	-9.35439
▁samle	-9.35541
20	-9.35608
medalje	-9.3561
▁posisjon	-9.35665
▁sommeren	-9.35694
▁japansk	-9.35739
hy	-9.3577
▁verdi	-9.35812
pr	-9.35837
▁miljø	-9.35839
trykk	-9.35895
▁nådd	-9.3591
mannen	-9.35943
▁gode	-9.3599
▁vår	-9.36098
▁innført	-9.36115
▁uttrykk	-9.36147
▁areal	-9.36247
elige	-9.36458
▁styrker	-9.36488
▁skrive	-9.36615
▁australia	-9.36667
▁1981	-9.36673
▁2015	-9.36681
▁pri	-9.367
▁gården	-9.36721
system	-9.36763
▁ap	-9.36876
70	-9.36965
▁kors	-9.36982
full	-9.36993
▁tapte	-9.37031
▁utdanne	-9.37133
▁israel	-9.37143
syn	-9.3717
rå	-9.3723
▁sterk	-9.37278
the	-9.3728
▁punkt	-9.37308
▁mac	-9.37321
▁sc	-9.37395
▁sesong	-9.374
▁kardinal	-9.37403
▁lengre	-9.37403
▁university	-9.37405
▁1974	-9.37408
▁1975	-9.37413
▁drift	-9.37581
yl	-9.37647
▁hæren	-9.37658
▁kri	-9.37712
vare	-9.37726
▁høyere	-9.3774
her	-9.37885
▁regjering	-9.37909
▁motstand	-9.38009
havet	-9.3807
▁arkitekt	-9.38099
▁fremdeles	-9.38173
que	-9.38201
▁lille	-9.38204
pl	-9.38234
▁hopp	-9.38243
▁regel	-9.38259
▁forsvar	-9.38332
▁sub	-9.384
▁elev	-9.38407
▁flo	-9.38424
kast	-9.38549
▁bur	-9.38716
60	-9.38739
▁regnet	-9.38877
▁arten	-9.38902
red	-9.38999
øl	-9.39013
ringer	-9.39048
iz	-9.39048
▁mod	-9.39054
▁athen	-9.39073
▁lei	-9.39077
▁viss	-9.3918
▁studie	-9.39208
▁løs	-9.39431
10	-9.39554
▁sentrale	-9.39619
▁trøndelag	-9.39642
▁1969	-9.39651
chi	-9.3971
▁dom	-9.39813
▁tradisjon	-9.39842
▁merke	-9.39904
▁svarte	-9.39908
ita	-9.40066
▁60	-9.40101
▁øverst	-9.40151
▁skrift	-9.40202
▁gifte	-9.4021
▁båt	-9.40344
▁com	-9.40363
▁air	-9.40364
stat	-9.40377
▁københavn	-9.40399
▁tilsvarende	-9.40399
▁spesial	-9.40402
▁2016	-9.40413
regionen	-9.40442
styrke	-9.40443
▁sikre	-9.40449
bane	-9.40476
▁avdeling	-9.40503
▁los	-9.40539
▁chi	-9.40598
▁kinesiske	-9.40687
▁valgte	-9.40707
▁turn	-9.40787
▁endret	-9.40818
▁ex	-9.40882
▁finsk	-9.40942
▁ob	-9.41074
▁80	-9.41094
▁oppkalt	-9.41163
▁raskt	-9.41176
▁vekt	-9.41296
eks	-9.41306
grad	-9.41307
huset	-9.41325
handler	-9.41446
ish	-9.41448
▁gård	-9.41516
▁stasjon	-9.41593
▁wil	-9.41613
▁sig	-9.4169
▁strøm	-9.41761
▁erstattet	-9.41787
▁solgt	-9.41802
ale	-9.41888
▁uni	-9.41894
▁dyp	-9.41931
и	-9.41932
▁skjedde	-9.41942
▁alltid	-9.41981
▁bodde	-9.41982
▁variant	-9.41995
▁unge	-9.42121
▁klasse	-9.42132
ds	-9.42227
▁super	-9.42257
samling	-9.42262
▁west	-9.42435
fall	-9.42487
▁kul	-9.4249
kra	-9.42655
systemet	-9.42673
▁1973	-9.42716
▁1948	-9.42718
▁opprinnelige	-9.42747
pro	-9.42816
▁park	-9.42927
of	-9.42943
▁sammenheng	-9.42976
▁bør	-9.43075
rom	-9.43102
▁ul	-9.43167
navn	-9.43194
ban	-9.43286
▁sykdom	-9.43316
gar	-9.43378
▁mm	-9.43424
graf	-9.43459
▁stilling	-9.43478
▁etterhvert	-9.43488
▁organisasjon	-9.43503
▁måte	-9.43508
▁syd	-9.43532
▁mege	-9.43607
▁polen	-9.43637
ves	-9.43645
førte	-9.43817
lser	-9.4389
▁bill	-9.43977
hr	-9.43995
▁blod	-9.44012
skog	-9.4409
▁besøk	-9.44147
felt	-9.44219
▁blo	-9.44243
▁dronning	-9.4428
▁qu	-9.44396
ferd	-9.44492
punkt	-9.44503
gne	-9.4451
▁gar	-9.44516
▁havet	-9.4452
▁sogn	-9.44561
▁mont	-9.44592
▁lære	-9.44753
▁kampen	-9.44851
gård	-9.44891
▁figur	-9.44914
▁nu	-9.44927
▁reform	-9.44973
▁hær	-9.44983
▁stille	-9.45044
▁stavanger	-9.45077
don	-9.45083
▁fylkesvei	-9.45095
▁faren	-9.45164
▁sju	-9.45212
▁david	-9.45297
bunn	-9.45325
ze	-9.45326
▁cup	-9.45341
gge	-9.45397
▁70	-9.45452
xi	-9.45473
▁kunstner	-9.4548
▁fjorden	-9.45513
sikkerhet	-9.45532
rike	-9.45569
ah	-9.45582
▁nivå	-9.45637
ice	-9.45663
fart	-9.457
▁hevdet	-9.4575
stid	-9.45878
86	-9.45882
▁befolkning	-9.45957
we	-9.46018
▁plassert	-9.46056
▁data	-9.4607
▁leve	-9.46138
▁viktige	-9.46296
ath	-9.46306
▁svart	-9.46396
▁direktør	-9.4642
▁latin	-9.46421
89	-9.46623
▁za	-9.46627
demokrati	-9.46668
▁religiøs	-9.46676
ā	-9.46676
▁mc	-9.46687
▁1952	-9.46688
▁trykk	-9.4673
▁syv	-9.46737
▁fulgte	-9.46769
▁slekten	-9.46847
▁bjørn	-9.46851
▁ji	-9.46876
▁klarte	-9.46882
▁trolig	-9.46898
▁olje	-9.47063
▁plante	-9.47071
ai	-9.47164
▁bred	-9.47216
▁anders	-9.47316
▁lenge	-9.47426
▁1982	-9.47501
▁1977	-9.47503
▁anlegget	-9.47505
▁gro	-9.47576
ap	-9.47734
▁rike	-9.47758
▁start	-9.4792
▁delvis	-9.48042
lighet	-9.48096
lam	-9.48136
tion	-9.48211
ms	-9.48229
▁fjerde	-9.48242
▁mel	-9.48247
▁city	-9.48359
▁meg	-9.48388
▁ytre	-9.484
▁årlig	-9.48418
▁iii	-9.48425
▁kyst	-9.48447
cia	-9.48585
▁opprør	-9.48599
▁formel	-9.486
park	-9.48614
▁begrepet	-9.48711
side	-9.48757
▁høyt	-9.48872
▁lars	-9.489
▁cm	-9.48919
▁uavhengig	-9.48931
asjoner	-9.48952
dde	-9.49023
pass	-9.49072
lar	-9.49076
р	-9.49135
▁bronsemedalje	-9.49143
▁virksomhet	-9.49197
ib	-9.4924
▁300	-9.49242
produksjon	-9.49319
ata	-9.49351
▁rad	-9.49432
▁ark	-9.4947
▁rot	-9.4953
strøm	-9.49604
▁lengde	-9.49628
▁fot	-9.49651
▁råd	-9.4973
▁fremst	-9.49815
▁sm	-9.49818
▁bø	-9.4982
▁felt	-9.49929
navnet	-9.49945
▁symbol	-9.49968
▁relativ	-9.49969
▁1936	-9.49979
▁vokste	-9.49988
▁fotballspiller	-9.50001
▁vind	-9.50026
▁eier	-9.50156
▁havne	-9.50168
ym	-9.50232
merke	-9.5029
▁kh	-9.50314
ani	-9.50415
▁dal	-9.50418
tel	-9.5043
▁ledd	-9.5044
▁carl	-9.50499
▁col	-9.50583
nett	-9.50669
løse	-9.50719
о	-9.50805
▁stortinget	-9.50812
▁james	-9.50814
bilde	-9.5088
▁slike	-9.50896
▁400	-9.50905
▁ky	-9.50959
gift	-9.51206
rud	-9.51207
▁overtok	-9.51239
▁bolig	-9.51286
▁base	-9.51325
▁student	-9.5141
▁sir	-9.51445
ich	-9.51528
är	-9.51545
▁skjer	-9.51562
▁vik	-9.51576
vit	-9.51591
▁bakgrunn	-9.5168
▁måneder	-9.51745
▁klart	-9.51882
▁nederlandsk	-9.51912
ör	-9.51951
▁grønn	-9.521
▁effekt	-9.52132
▁vold	-9.52178
42	-9.52314
▁pal	-9.5233
spiss	-9.52437
sekretær	-9.52498
▁kontakt	-9.52515
bygging	-9.52519
▁1966	-9.52525
▁debuterte	-9.52535
▁korea	-9.52541
▁het	-9.52574
▁gass	-9.52599
alt	-9.52733
▁valget	-9.52766
▁grense	-9.52778
ritt	-9.52823
▁trans	-9.52881
▁sil	-9.52931
▁byer	-9.52932
▁son	-9.52944
▁karriere	-9.52983
▁grand	-9.53037
eier	-9.53038
▁munn	-9.53154
▁fylkes	-9.53214
nivå	-9.53341
dagen	-9.53359
virkning	-9.53375
▁para	-9.53402
cy	-9.53414
abel	-9.53502
idae	-9.53512
▁egg	-9.53599
▁stu	-9.53602
▁hall	-9.53624
forbund	-9.53631
▁brann	-9.5371
▁nordøst	-9.5383
▁syk	-9.53843
▁programmet	-9.53866
formet	-9.53962
plassen	-9.54013
▁grå	-9.54039
valget	-9.54049
tog	-9.54054
▁ac	-9.54109
lekt	-9.5416
cha	-9.54202
▁klubb	-9.54226
bert	-9.54237
▁george	-9.54248
▁nordvest	-9.54252
▁sj	-9.54275
▁fortsette	-9.5428
drag	-9.54284
hl	-9.54285
▁kraftig	-9.54336
▁utviklingen	-9.54377
▁bilde	-9.54535
▁type	-9.54579
▁revolusjon	-9.54663
▁irland	-9.54694
▁us	-9.54705
▁maria	-9.54774
med	-9.54874
fer	-9.54899
▁offisielle	-9.54957
bas	-9.55015
▁slå	-9.55081
▁kanal	-9.55116
▁1962	-9.55131
▁ære	-9.55256
▁bygningen	-9.5527
▁gutt	-9.55278
▁vestlige	-9.5535
▁forteller	-9.55386
ight	-9.55403
▁jakt	-9.55475
▁feil	-9.55528
retning	-9.55547
trekk	-9.55571
▁gra	-9.55642
▁transport	-9.55683
▁bronse	-9.55683
band	-9.55806
▁gren	-9.5581
▁utbredt	-9.56004
▁kristne	-9.56005
▁musiker	-9.56006
▁forsøkt	-9.56014
▁1939	-9.56019
▁totalt	-9.56021
▁finans	-9.56045
▁plassering	-9.56151
▁middel	-9.56189
▁sent	-9.56304
kin	-9.56305
▁hovedstaden	-9.56317
▁tanke	-9.56329
▁økonomisk	-9.56352
ført	-9.56353
▁artene	-9.56405
▁funksjon	-9.5648
▁fordel	-9.56644
▁bane	-9.56678
skapet	-9.56723
arbeid	-9.56778
▁xi	-9.56816
▁økonomi	-9.56859
▁original	-9.56897
▁skottland	-9.56897
▁soldater	-9.56907
▁1971	-9.56908
▁derimo	-9.56909
▁1912	-9.5691
▁1949	-9.56912
▁omfattende	-9.56938
lling	-9.56964
▁can	-9.56981
bry	-9.57006
▁kysten	-9.57012
▁union	-9.57025
▁sende	-9.57043
ria	-9.57076
▁størrelse	-9.57099
ville	-9.57166
▁tropp	-9.5721
▁satte	-9.57265
▁beskrive	-9.57276
▁oppdaget	-9.57405
pris	-9.57425
▁cr	-9.57442
▁behandling	-9.57444
▁ramme	-9.5763
▁wo	-9.57732
è	-9.57798
▁1946	-9.57811
▁ordfører	-9.57814
lus	-9.57829
▁prege	-9.57849
▁euro	-9.57911
familien	-9.57951
aks	-9.57952
▁35	-9.57959
▁kunnskap	-9.57983
▁design	-9.58052
▁naturlig	-9.58074
▁adel	-9.58111
▁skape	-9.58129
organisasjon	-9.58133
musikk	-9.58177
▁åpen	-9.5821
▁samlet	-9.58254
▁lek	-9.58276
lon	-9.58326
▁historiske	-9.58333
37	-9.58346
▁region	-9.58352
▁nederland	-9.58441
▁time	-9.58531
▁fil	-9.58572
verket	-9.58603
våg	-9.58609
▁hor	-9.58647
▁mengde	-9.58663
▁informasjon	-9.58707
▁sørvest	-9.58713
▁1924	-9.58717
▁eiendom	-9.58779
▁tredjeplass	-9.58819
▁johannes	-9.58962
san	-9.59022
▁operasjon	-9.59023
▁grupper	-9.59079
ben	-9.59142
▁spørsmål	-9.59169
▁fest	-9.5933
sjonen	-9.59435
▁spa	-9.59488
▁tilgjengelig	-9.59625
▁1954	-9.59638
▁1930	-9.59648
ringen	-9.59678
▁eg	-9.59732
▁ze	-9.59741
▁hest	-9.598
▁tung	-9.5988
▁folket	-9.59997
▁styrkene	-9.60044
sak	-9.60047
▁lin	-9.60201
lv	-9.60203
▁borger	-9.60208
▁harald	-9.60221
77	-9.6023
tus	-9.60259
ås	-9.60328
▁fer	-9.60368
klær	-9.60388
55	-9.60411
ara	-9.60414
lia	-9.60456
▁grunnlag	-9.60527
▁fengsel	-9.60551
е	-9.60551
▁fokus	-9.60552
▁stykke	-9.60563
▁martin	-9.60577
▁anne	-9.60597
▁kart	-9.60611
▁cl	-9.60621
▁maskin	-9.6065
▁avis	-9.60817
▁ekspedisjon	-9.60922
▁redaktør	-9.60922
▁journalist	-9.60934
ros	-9.60944
▁politi	-9.60992
▁områdene	-9.61005
▁dra	-9.61032
rådet	-9.61062
qui	-9.61063
63	-9.61225
68	-9.61278
▁politikk	-9.61418
▁kreve	-9.61437
▁hår	-9.61473
▁beijing	-9.61485
▁marine	-9.61532
▁90	-9.61538
▁nærings	-9.61588
trop	-9.61681
▁situasjon	-9.61776
▁passer	-9.61906
▁grenser	-9.61926
▁utvikle	-9.6203
▁stiftet	-9.62072
▁tall	-9.62129
▁klo	-9.62249
ence	-9.62268
▁utstyr	-9.6233
66	-9.62366
▁produkt	-9.62374
ð	-9.62429
▁nødvendig	-9.62429
▁nærmest	-9.6243
▁1928	-9.62438
gress	-9.62459
hund	-9.625
pel	-9.62523
▁kroner	-9.6253
▁grev	-9.62584
▁hevde	-9.62626
handle	-9.62658
▁kjøre	-9.62724
▁she	-9.62817
39	-9.62835
lei	-9.62901
itz	-9.62916
▁ci	-9.62987
▁struktur	-9.63008
sund	-9.63092
hall	-9.63122
▁fordelt	-9.63243
cc	-9.63341
▁fører	-9.63353
fest	-9.63355
▁1958	-9.63395
▁1959	-9.63395
▁egentlig	-9.63414
▁ishockey	-9.63419
▁oppført	-9.63457
▁øyene	-9.63509
▁hei	-9.63522
▁femte	-9.63556
▁nabo	-9.63614
▁utført	-9.63718
▁historien	-9.63871
gående	-9.63927
▁organisasjonen	-9.63968
valg	-9.64057
▁fla	-9.64105
49	-9.64115
sco	-9.64182
▁mos	-9.6419
ografi	-9.64221
57	-9.64328
▁skips	-9.64346
▁lansert	-9.64357
47	-9.64411
jev	-9.64446
▁prisen	-9.64494
▁tele	-9.6457
ras	-9.64583
▁sjef	-9.64616
områder	-9.64622
▁stemme	-9.64631
shire	-9.64642
▁kjøpe	-9.64656
▁hundre	-9.64668
▁påvirke	-9.64722
▁enhet	-9.6473
▁egypt	-9.64806
▁hard	-9.64827
▁ordenen	-9.64862
▁sette	-9.64893
stu	-9.64927
▁museum	-9.64964
▁borg	-9.65003
▁festning	-9.65092
▁økonomiske	-9.65153
65	-9.65154
▁venn	-9.65207
▁ten	-9.65262
▁ytterligere	-9.65313
▁louis	-9.65314
kapasitet	-9.65315
▁østerrike	-9.65315
gren	-9.65433
mus	-9.65533
▁hit	-9.65539
▁trafikk	-9.65557
▁frank	-9.65603
▁brev	-9.65605
64	-9.6563
sjons	-9.65664
rad	-9.65704
▁begynner	-9.65925
▁prøve	-9.6595
blad	-9.6599
hav	-9.6602
lad	-9.66056
gy	-9.66065
▁stammer	-9.66105
▁flat	-9.6616
▁konsert	-9.66167
gruppe	-9.66193
▁mw	-9.66226
ire	-9.66256
▁greske	-9.6629
▁betrakte	-9.66294
▁1944	-9.66309
▁bevart	-9.66312
▁jordbruk	-9.66327
jern	-9.66369
arbeider	-9.66369
lede	-9.66412
midler	-9.66434
▁stand	-9.66642
▁tale	-9.6672
▁bern	-9.66828
▁velge	-9.66867
▁thor	-9.66886
▁reiste	-9.67007
▁varme	-9.6702
linjen	-9.67029
linje	-9.67063
▁heter	-9.6707
▁sun	-9.67096
age	-9.67152
▁you	-9.67162
▁høye	-9.67263
▁hertug	-9.67276
▁bad	-9.67283
▁mexico	-9.67284
▁typisk	-9.67286
magasin	-9.67297
▁opphav	-9.673
▁snakke	-9.67301
løsning	-9.6733
▁røde	-9.67356
▁nasjonale	-9.67466
▁jern	-9.67494
▁havn	-9.67526
plasser	-9.67569
rak	-9.6758
▁hoff	-9.67594
▁rute	-9.67614
▁tettsted	-9.67675
▁pol	-9.6768
haug	-9.6783
▁privat	-9.67832
holm	-9.67838
33	-9.6784
▁distriktet	-9.67907
fo	-9.67915
▁offentlige	-9.67983
▁holder	-9.68003
▁populær	-9.68082
senteret	-9.68185
▁kra	-9.68199
▁forskjell	-9.68204
▁følger	-9.68254
▁kontor	-9.68281
▁komponist	-9.68284
▁nærmere	-9.68289
▁1967	-9.68299
▁kraftverk	-9.68413
▁tolv	-9.68502
▁prosjekt	-9.68567
ild	-9.686
▁vunnet	-9.68655
▁lau	-9.68791
sal	-9.68813
▁kjerne	-9.6885
kraftverk	-9.68879
▁tour	-9.68954
▁ansatt	-9.68995
selskapet	-9.69075
▁sur	-9.6917
aktig	-9.69184
▁veg	-9.69288
▁klassisk	-9.69294
▁erobre	-9.69315
61	-9.69317
44	-9.69337
rus	-9.69354
▁teksten	-9.69393
▁vannet	-9.69427
▁spre	-9.69468
▁livs	-9.69495
▁nevnt	-9.69555
82	-9.69563
▁undersøkelse	-9.69617
▁spanske	-9.69621
▁ram	-9.69625
▁saken	-9.69641
▁artist	-9.69657
▁strand	-9.69665
stø	-9.69668
bø	-9.69682
ativ	-9.69689
▁tema	-9.69734
▁strid	-9.6976
72	-9.69777
▁forsker	-9.69808
▁fjellet	-9.69927
▁huset	-9.69928
▁avisen	-9.69936
▁uke	-9.69944
▁teori	-9.70019
▁utover	-9.70023
▁kost	-9.70056
▁kommet	-9.7024
tha	-9.70268
▁utgave	-9.70307
ο	-9.70315
▁opprinnelse	-9.70315
▁rapport	-9.70315
▁tydelig	-9.70318
▁1955	-9.70332
▁2017	-9.70334
▁ven	-9.70377
▁forsvars	-9.70437
iserte	-9.70506
▁vitenskapelig	-9.70522
▁motsetning	-9.70613
93	-9.7071
▁stift	-9.70712
▁problem	-9.70758
▁bon	-9.70826
▁ansatte	-9.70834
▁ting	-9.70851
▁turist	-9.70997
kjempe	-9.71
▁trekk	-9.71008
jar	-9.71112
▁sul	-9.71163
▁trener	-9.71169
▁gitar	-9.71279
▁turneringen	-9.71285
▁elektrisk	-9.71345
▁offisielt	-9.71345
▁utgangspunkt	-9.71345
ú	-9.71345
▁teknisk	-9.71345
▁pinyin	-9.71347
▁1965	-9.71362
▁1942	-9.71364
▁sommerfugl	-9.71367
▁black	-9.71399
ction	-9.71423
▁andreplass	-9.71423
▁uker	-9.71425
ori	-9.71525
▁oppgave	-9.71537
▁stø	-9.7155
korps	-9.71576
▁distrikt	-9.71611
▁af	-9.71679
ado	-9.71699
▁stoppe	-9.71738
▁rekord	-9.7184
67	-9.72012
▁daglig	-9.72029
▁filmer	-9.72049
56	-9.72092
▁inter	-9.72115
▁kull	-9.722
sjoner	-9.72229
▁vist	-9.72271
▁beskytte	-9.72275
wi	-9.72333
▁faktisk	-9.72391
▁vinner	-9.72393
▁1961	-9.72403
▁1957	-9.72404
▁søster	-9.72433
▁nærheten	-9.72449
52	-9.72462
kket	-9.72517
▁bevegelse	-9.72551
▁toppen	-9.72562
▁hovedstad	-9.72662
54	-9.72725
▁wal	-9.72735
kraft	-9.72783
▁landsbyen	-9.72878
▁rang	-9.72881
gjorde	-9.72917
▁lan	-9.73017
bevegelsen	-9.73031
▁win	-9.73091
zo	-9.73194
▁hjelpe	-9.73297
▁kilde	-9.7335
arki	-9.73379
parten	-9.73381
▁innflytelse	-9.73433
▁konflikt	-9.7344
▁friidrett	-9.7344
▁1918	-9.73453
▁skotsk	-9.73468
▁hjerte	-9.73474
▁jarl	-9.73507
92	-9.73509
▁nasjon	-9.73514
field	-9.73515
klubb	-9.73517
▁prins	-9.73542
rene	-9.73568
makt	-9.7363
ance	-9.73647
▁vol	-9.73745
▁kalle	-9.73803
kro	-9.73843
▁bel	-9.73867
tti	-9.73913
stått	-9.73917
▁hodet	-9.73959
▁aktivitet	-9.74069
kjøp	-9.7407
▁runde	-9.74179
▁rykke	-9.74258
59	-9.7431
▁war	-9.74364
ial	-9.74375
75	-9.74419
▁enda	-9.74503
▁publikum	-9.74504
▁1963	-9.74521
hel	-9.7453
bor	-9.74542
▁avhengig	-9.74559
sam	-9.74585
▁våren	-9.74598
▁sti	-9.74608
▁1500	-9.74615
▁benytte	-9.74656
▁lyn	-9.74661
▁bosatt	-9.74689
▁char	-9.74762
kene	-9.74771
▁dø	-9.74776
bri	-9.74798
▁tusen	-9.748
fon	-9.74833
▁problemer	-9.7485
▁hud	-9.74854
spi	-9.74916
▁not	-9.74927
blokk	-9.75017
▁støttet	-9.75037
▁salt	-9.75195
▁pop	-9.75215
▁lignende	-9.75233
▁formann	-9.75274
▁bla	-9.75454
▁omtale	-9.75469
▁kilder	-9.75506
▁dekk	-9.75556
51	-9.75565
▁kategori	-9.75579
▁michael	-9.75579
▁profesjonell	-9.75579
▁oversikt	-9.75579
organ	-9.75581
▁college	-9.75583
▁lengst	-9.75584
▁1941	-9.75594
rakk	-9.75632
84	-9.75668
▁pra	-9.75692
▁besto	-9.75806
58	-9.75889
05	-9.75902
▁dyre	-9.75932
▁medlemmene	-9.75986
83	-9.76068
▁løper	-9.76134
▁zh	-9.76331
▁gjelder	-9.76467
fag	-9.76519
▁forsknings	-9.76547
л	-9.76666
arrangement	-9.76666
▁etterfulgt	-9.76666
▁flertall	-9.76666
▁world	-9.76666
▁melodi	-9.76668
▁1932	-9.76675
▁1951	-9.76682
konservat	-9.76692
▁aust	-9.76729
▁georg	-9.76731
▁cal	-9.76767
our	-9.76791
▁kongens	-9.76812
fører	-9.76826
▁gått	-9.7691
ix	-9.77096
▁gjennomført	-9.77134
vitenskap	-9.77202
vig	-9.77211
medlem	-9.77404
lem	-9.77411
▁øye	-9.77439
▁spill	-9.77441
▁bånd	-9.77467
▁jens	-9.77487
vogn	-9.77499
▁karakter	-9.77501
stå	-9.77525
▁star	-9.7758
tegn	-9.77654
94	-9.77716
▁pen	-9.7772
à	-9.77765
folkerepublikken	-9.77765
▁norrøn	-9.77767
▁klima	-9.77792
▁omtalt	-9.77808
▁kanon	-9.77897
▁1700	-9.77916
nik	-9.77928
trekning	-9.77933
lund	-9.78002
▁unntak	-9.78032
mund	-9.78057
ano	-9.78085
strekker	-9.78131
▁landskapet	-9.78137
▁riket	-9.78191
▁temperatur	-9.78257
▁drev	-9.78368
▁bonde	-9.78377
komme	-9.78388
▁cent	-9.78406
▁sh	-9.78413
▁idretts	-9.7842
▁fremme	-9.78615
▁ansett	-9.78713
▁tog	-9.78856
▁spesiell	-9.78876
▁allierte	-9.78876
▁snart	-9.78881
▁systemet	-9.78906
▁konkurransen	-9.78908
▁øvrig	-9.78941
08	-9.79013
▁organisert	-9.7902
sc	-9.79118
ola	-9.79218
▁pass	-9.79344
▁jorden	-9.79346
▁skatt	-9.79409
bus	-9.79416
grep	-9.79433
▁bind	-9.79488
▁liga	-9.79502
▁sønnen	-9.79508
kunst	-9.79601
▁svar	-9.79624
▁stilt	-9.79636
gav	-9.79636
41	-9.79711
▁forskning	-9.79814
▁hellige	-9.79815
46	-9.79932
▁rus	-9.79959
▁episode	-9.79999
▁dømt	-9.80004
▁publisert	-9.80007
▁musikkalbum	-9.80019
levende	-9.80026
ios	-9.80075
lik	-9.80099
▁shi	-9.8013
▁hente	-9.80216
ova	-9.80371
▁sel	-9.80399
▁utdanning	-9.80486
▁kam	-9.80528
▁viking	-9.80566
▁samfunnet	-9.8057
▁offiser	-9.80651
▁banen	-9.80657
rio	-9.80664
53	-9.80718
48	-9.80733
▁un	-9.80784
▁alb	-9.80792
historie	-9.80795
▁avstand	-9.80957
lys	-9.81124
▁tilknytning	-9.81136
12	-9.81165
▁oppdag	-9.81173
win	-9.81178
▁flagg	-9.81185
▁bibel	-9.81211
▁800	-9.81223
▁vitenskap	-9.81305
zhou	-9.81315
▁angrepet	-9.81327
språk	-9.81374
▁lavere	-9.81392
▁østlige	-9.81435
▁salg	-9.81477
omme	-9.81503
▁vå	-9.81562
▁tilbud	-9.81601
▁gen	-9.81635
▁populære	-9.81641
løpet	-9.81649
hov	-9.81734
91	-9.81746
▁oversatt	-9.8183
▁tettstedet	-9.81883
▁svak	-9.81972
▁spansk	-9.82022
▁betegnelsen	-9.82073
▁middelalderen	-9.8208
ugh	-9.82085
▁studio	-9.82283
▁arabisk	-9.82288
▁län	-9.82288
▁ødelagt	-9.8229
▁haug	-9.823
▁1947	-9.82304
▁ukjent	-9.82321
▁bosetning	-9.82405
ark	-9.82519
løs	-9.82748
▁nan	-9.82767
▁markert	-9.82851
▁kaste	-9.82879
43	-9.82914
▁instrument	-9.82923
▁tittel	-9.82993
▁lind	-9.83051
møte	-9.83162
▁falt	-9.83182
arter	-9.83224
▁ung	-9.83255
▁ube	-9.83317
dø	-9.83351
▁kir	-9.83418
stemt	-9.83438
▁primær	-9.83448
▁richard	-9.83448
▁redusert	-9.83449
▁hurtig	-9.83449
▁1943	-9.83464
assi	-9.83479
elva	-9.83508
rup	-9.83529
▁stav	-9.8358
ick	-9.83582
▁tråd	-9.83583
▁ph	-9.83604
76	-9.8364
▁smal	-9.83709
lapp	-9.83787
tta	-9.83805
stikk	-9.83821
▁fantes	-9.83829
▁len	-9.83846
ppen	-9.83871
▁internasjonal	-9.84111
sser	-9.84144
▁sider	-9.84153
▁mulighet	-9.84154
▁turner	-9.84164
90	-9.84179
▁åpne	-9.84223
▁endre	-9.84246
lang	-9.84274
pan	-9.84329
▁selvstendig	-9.84402
▁leir	-9.84468
▁vis	-9.84544
▁folketelling	-9.84625
▁sistnevnte	-9.84626
▁fredrik	-9.84627
▁fn	-9.84634
▁jazz	-9.84635
▁christ	-9.84695
▁inf	-9.84749
▁sterke	-9.84752
▁regjerings	-9.84757
vende	-9.84831
rum	-9.84849
gard	-9.84866
▁fyr	-9.84943
ula	-9.8506
▁beskrevet	-9.85088
▁synes	-9.85094
▁vanlige	-9.85174
▁bakken	-9.85175
brudd	-9.85267
▁kontrakt	-9.85295
▁studenter	-9.85339
▁kvinnelig	-9.85411
drift	-9.85447
ledning	-9.85486
▁sosiale	-9.85497
99	-9.85579
▁romanen	-9.85626
▁bidra	-9.85658
▁california	-9.85815
▁brøt	-9.85817
▁py	-9.85819
▁arbeiderpartiet	-9.85825
▁oscar	-9.85829
▁1914	-9.8583
▁sølvmedalje	-9.85834
▁ara	-9.85836
▁straffe	-9.85849
ón	-9.85857
▁festival	-9.85871
▁flekk	-9.8589
▁handling	-9.85909
▁sovjetisk	-9.85944
▁vet	-9.85972
69	-9.86067
▁tilfelle	-9.86093
▁løv	-9.86103
parti	-9.86114
▁bry	-9.86119
36	-9.86123
▁foruten	-9.86164
tekt	-9.86195
fu	-9.86198
manns	-9.86215
▁fløy	-9.86226
gjøre	-9.8623
▁krets	-9.86283
▁linjen	-9.86283
saker	-9.86284
▁hill	-9.86396
well	-9.86417
skolen	-9.8645
ato	-9.86536
88	-9.86552
▁test	-9.8659
78	-9.867
våpen	-9.86739
try	-9.86981
ob	-9.87004
▁gjenopp	-9.87012
▁inkluderer	-9.8702
▁liberal	-9.87021
▁kap	-9.87035
▁1956	-9.87038
▁videregående	-9.87055
▁behov	-9.87133
▁bol	-9.87208
stedet	-9.87239
▁formål	-9.87284
loven	-9.87294
all	-9.87299
▁heng	-9.87379
▁innsjø	-9.87464
▁historiker	-9.87469
▁camp	-9.87477
▁tradisjonelle	-9.87525
etter	-9.87543
ming	-9.87561
▁listen	-9.87562
rich	-9.87646
▁vid	-9.87676
serien	-9.87686
19	-9.87701
96	-9.87813
ving	-9.87842
▁dato	-9.87863
mid	-9.87866
feltet	-9.8794
vinger	-9.87968
gjort	-9.8798
bjørn	-9.87982
79	-9.87999
dro	-9.88034
mil	-9.88049
62	-9.88059
▁bydel	-9.8811
▁akademi	-9.88112
▁drama	-9.88154
▁tegnet	-9.88206
▁måned	-9.88214
▁anna	-9.88217
▁bispedømme	-9.88239
▁guvernør	-9.88239
▁kvalifisering	-9.88239
▁national	-9.88239
forvaltning	-9.88243
▁sykehus	-9.8825
gra	-9.88289
fugl	-9.88448
strand	-9.88462
▁buss	-9.88526
▁status	-9.88544
▁rh	-9.88579
▁jevn	-9.88581
▁maur	-9.88591
svik	-9.88639
▁nordland	-9.88643
byr	-9.8867
▁junior	-9.88751
mesterskapet	-9.88921
voll	-9.89017
01	-9.89032
person	-9.89042
▁gru	-9.89082
▁trekke	-9.89204
▁rollen	-9.89223
18	-9.89228
▁produsent	-9.89233
middel	-9.89257
▁kampene	-9.89398
▁fullstendig	-9.89474
▁inspirert	-9.89474
▁dialekt	-9.89474
▁regissert	-9.89474
hastighet	-9.89479
▁spredt	-9.89499
▁charles	-9.89501
▁eksistere	-9.89524
▁stamme	-9.89531
▁angeles	-9.89567
▁sete	-9.8959
kule	-9.89605
▁bit	-9.89697
fang	-9.89744
▁praksis	-9.89746
▁harry	-9.90105
▁ran	-9.90129
▁iso	-9.9017
▁forfatteren	-9.9038
olo	-9.90391
grunn	-9.9046
kjønn	-9.90491
▁konkurranse	-9.90519
▁front	-9.90532
▁nr	-9.90567
▁malt	-9.90595
▁rose	-9.90598
krigen	-9.90684
▁alternativ	-9.90724
▁objekt	-9.90724
▁sportsutøver	-9.90724
▁moskva	-9.90724
▁video	-9.90775
▁uttalt	-9.90791
▁johann	-9.90803
heng	-9.90816
delen	-9.90824
▁rygg	-9.90843
85	-9.90865
▁arne	-9.90893
jan	-9.90896
rommet	-9.909
▁språket	-9.90901
▁oppdrag	-9.90963
ky	-9.91014
▁ekteskap	-9.91097
▁minutter	-9.91149
▁timer	-9.9115
▁flåte	-9.91221
gjør	-9.91262
▁sier	-9.91299
▁stå	-9.91473
▁bevis	-9.91509
▁flytte	-9.91528
▁avsluttet	-9.91551
▁motstander	-9.91562
sjø	-9.9158
14	-9.91601
▁ungdom	-9.9163
▁landsby	-9.91671
▁real	-9.91719
øyene	-9.91781
verdig	-9.91809
▁univers	-9.91973
▁installert	-9.9199
▁passasjer	-9.9199
▁nasjonalpark	-9.92018
▁sau	-9.92022
▁utvidet	-9.9203
▁kjenne	-9.92041
▁riksvei	-9.9207
▁tromsø	-9.92105
▁lese	-9.92111
▁normal	-9.92122
▁knut	-9.9216
wood	-9.92172
▁benyttes	-9.92286
dam	-9.92293
04	-9.92347
▁bord	-9.92352
▁sund	-9.92376
▁ansvar	-9.92435
▁økt	-9.92579
▁stasjonen	-9.92607
▁verne	-9.9266
gården	-9.92785
▁kil	-9.92809
gått	-9.93078
73	-9.93141
grav	-9.9322
▁fugle	-9.93228
▁erkebiskop	-9.93272
▁belgia	-9.93272
▁nevnes	-9.93274
vatnet	-9.93277
▁fungere	-9.93278
▁alpin	-9.9328
▁1938	-9.93282
▁skøyte	-9.9329
▁hører	-9.93314
▁tilhenger	-9.93316
▁vendt	-9.93316
krets	-9.93321
følgende	-9.93338
bakk	-9.93348
▁kritikk	-9.93349
▁innsats	-9.9337
▁dør	-9.93374
▁bay	-9.93394
▁1600	-9.93401
snitt	-9.93415
▁samfunn	-9.93505
▁nyere	-9.93516
▁ø	-9.93614
▁skille	-9.93633
5	-9.93644
▁prosess	-9.93649
▁gyl	-9.93792
▁dynastiet	-9.93882
▁single	-9.93886
▁helge	-9.93976
▁larvene	-9.93989
▁lot	-9.94024
press	-9.94029
▁fyrst	-9.94043
▁prosjektet	-9.94106
▁est	-9.94201
▁ok	-9.94307
▁off	-9.9432
kka	-9.94328
▁lage	-9.94469
▁streng	-9.94484
▁øke	-9.94503
vekt	-9.94507
▁kropps	-9.94518
▁ungdoms	-9.94522
masse	-9.94566
▁administrativ	-9.9457
▁1908	-9.94589
▁øvre	-9.94654
▁metall	-9.9471
▁oppnådd	-9.94745
▁møter	-9.94758
serie	-9.94781
▁ann	-9.94832
▁kode	-9.94846
95	-9.94854
▁brenn	-9.9489
▁sist	-9.94901
▁kjøl	-9.94956
▁antallet	-9.94969
kirke	-9.95021
samisk	-9.95134
hjul	-9.9519
▁utdannelse	-9.95213
deles	-9.95238
▁materiale	-9.95252
▁north	-9.95364
▁begrep	-9.9537
old	-9.95401
arbeidet	-9.9542
87	-9.95436
ball	-9.95456
misjon	-9.95522
▁dog	-9.95608
spor	-9.95614
▁rund	-9.95692
▁holm	-9.95722
skudd	-9.95726
▁150	-9.95742
▁hell	-9.95779
▁betegne	-9.95848
▁anerkjent	-9.95887
tas	-9.95894
▁1919	-9.95903
gaard	-9.95904
▁cro	-9.95916
▁nedlagt	-9.95992
▁stemmer	-9.96005
leir	-9.96025
▁kongelige	-9.96209
gger	-9.96211
▁bestod	-9.96216
▁drive	-9.96217
ull	-9.96223
▁nils	-9.96276
▁slett	-9.96334
▁aksje	-9.96337
▁blei	-9.96412
bul	-9.96447
har	-9.96477
phi	-9.96498
iti	-9.96498
9	-9.96539
▁ankom	-9.96618
06	-9.96644
plate	-9.96649
bakken	-9.96685
▁driver	-9.9669
riket	-9.96712
slaget	-9.96737
▁representant	-9.96762
▁hode	-9.96763
rør	-9.96782
▁utsatt	-9.96861
stripe	-9.96929
▁score	-9.97015
▁damp	-9.97174
▁fir	-9.97201
alis	-9.97206
▁united	-9.97221
▁institutt	-9.97224
▁vedtatt	-9.97239
▁frihet	-9.97264
brun	-9.97346
bokstav	-9.97367
▁landene	-9.97367
elli	-9.97374
98	-9.9741
▁sports	-9.97424
rige	-9.97497
▁gangen	-9.97521
low	-9.97536
▁produsere	-9.9763
▁tonn	-9.97636
kirken	-9.97682
▁ånd	-9.97701
sfjorden	-9.97716
dorf	-9.97743
▁freds	-9.97763
atet	-9.97773
▁kandidat	-9.9794
▁kvart	-9.97947
løst	-9.98086
4	-9.98149
▁tvil	-9.982
▁mørk	-9.98264
11	-9.98328
71	-9.98358
prisen	-9.98377
▁sveits	-9.98386
▁mill	-9.98434
samfunn	-9.98511
▁may	-9.98529
maskin	-9.98568
▁joseph	-9.98571
▁dollar	-9.98571
▁hemmelig	-9.98575
▁ridder	-9.98577
▁levde	-9.98578
▁smith	-9.98579
▁1927	-9.98585
▁protest	-9.98587
▁bidro	-9.98605
▁ekstra	-9.9866
▁sverd	-9.98663
isten	-9.98724
angrep	-9.98851
rolle	-9.98957
▁king	-9.99078
▁32	-9.99142
farge	-9.99142
▁irak	-9.99298
▁bygde	-9.99418
▁troll	-9.99547
▁led	-9.99582
▁verket	-9.99583
▁stål	-9.99606
▁tilfeller	-9.99634
▁odd	-9.9967
▁bygninger	-9.99696
▁unn	-9.99714
gata	-9.9975
industri	-9.99752
trafikk	-9.99837
virksomhet	-9.99837
myndighet	-9.99915
ordenen	-9.99924
▁kontinent	-9.99941
▁nominert	-9.99941
▁religion	-9.99941
▁drammen	-9.99942
▁invasjon	-9.99944
▁antatt	-9.99947
▁edward	-9.99951
▁1953	-9.9996
▁saint	-9.99969
▁planlagt	-9.99984
renn	-10.0001
▁hitler	-10.0003
▁ekte	-10.0013
kov	-10.0013
rev	-10.0013
▁gruve	-10.0015
mennene	-10.0017
▁solgte	-10.0019
▁effektiv	-10.0024
▁korte	-10.0024
▁vinteren	-10.0026
▁mørke	-10.0028
kkel	-10.0028
▁metal	-10.0029
▁likhet	-10.0033
▁arve	-10.004
▁skapt	-10.0041
kysten	-10.0066
▁aks	-10.0067
▁che	-10.0071
▁debut	-10.0075
visning	-10.0076
▁kåre	-10.0089
▁planet	-10.0096
syre	-10.0099
▁fartøy	-10.01
kamera	-10.0107
25	-10.011
trinn	-10.0112
▁maler	-10.0115
▁rå	-10.0115
gna	-10.0117
▁pin	-10.0117
▁lån	-10.0119
▁last	-10.012
▁fylket	-10.0128
▁elve	-10.0131
▁positiv	-10.0133
▁school	-10.0133
▁royal	-10.0133
▁bølge	-10.0134
▁antenne	-10.0134
▁1917	-10.0134
▁debatt	-10.0136
07	-10.0136
▁snø	-10.0139
▁veldig	-10.014
▁kristen	-10.0142
▁600	-10.0146
▁team	-10.0146
▁cirk	-10.015
hard	-10.0153
slav	-10.0159
▁oversettelse	-10.016
ira	-10.0161
metode	-10.0162
▁bidrag	-10.0163
▁borgerkrig	-10.0168
21	-10.0175
▁gard	-10.0177
▁fremste	-10.018
▁endelig	-10.0182
▁tell	-10.0184
gul	-10.019
▁mik	-10.0192
▁bibliotek	-10.02
car	-10.02
årene	-10.0203
▁45	-10.0203
▁elv	-10.0209
▁opphold	-10.0211
mand	-10.0214
ura	-10.0217
6	-10.0224
▁penge	-10.023
bær	-10.0248
ved	-10.0256
tag	-10.026
festival	-10.0267
kultur	-10.0269
hjem	-10.027
områdene	-10.0274
▁beseiret	-10.0274
▁yngre	-10.0274
▁referere	-10.0274
▁south	-10.0274
▁vær	-10.0279
▁utvalg	-10.0282
▁buk	-10.0284
▁avholdt	-10.0285
▁app	-10.0287
▁1000	-10.0287
▁ya	-10.0305
▁kommando	-10.0307
▁zo	-10.0311
▁disk	-10.0312
▁handel	-10.0314
▁statue	-10.0316
▁kaptein	-10.0318
fjell	-10.0322
▁salme	-10.0326
rey	-10.0326
▁private	-10.0338
▁venner	-10.0339
▁vers	-10.0347
lov	-10.0351
slått	-10.0354
ella	-10.0357
klassen	-10.0362
▁spillet	-10.037
▁lø	-10.037
▁reist	-10.0374
▁fro	-10.0388
blikk	-10.0391
kur	-10.0392
ernes	-10.0395
án	-10.0396
▁normalt	-10.0406
ary	-10.0409
▁up	-10.0414
▁antagelig	-10.0417
▁involvert	-10.0417
▁ungarn	-10.0417
▁himmel	-10.0417
▁nedbør	-10.0417
▁magnus	-10.0417
▁undergrunns	-10.0417
▁håndball	-10.0418
▁blomster	-10.0418
▁1935	-10.0418
▁skaffe	-10.0418
avdeling	-10.0418
▁1933	-10.0419
▁dominere	-10.042
faktor	-10.042
▁award	-10.0426
▁forbundet	-10.0429
▁henry	-10.0431
▁ris	-10.0434
▁sammenlagt	-10.0436
▁albert	-10.0437
▁moren	-10.0443
▁kommuner	-10.0449
▁administrasjons	-10.0449
▁uavhengighet	-10.0452
mond	-10.046
kveld	-10.0467
▁rør	-10.0478
▁begrenset	-10.0481
▁internasjonalt	-10.0489
▁tang	-10.0492
øvelse	-10.0496
▁foss	-10.05
▁drevet	-10.0501
▁omfatte	-10.0509
24	-10.051
butikk	-10.0513
økonom	-10.0535
▁snu	-10.0538
▁mid	-10.0542
▁forsvaret	-10.0543
▁sko	-10.0546
▁utføre	-10.0547
▁yu	-10.0552
program	-10.0558
▁uttale	-10.056
▁international	-10.0562
▁hensikt	-10.0562
▁wilhelm	-10.0562
▁high	-10.0562
▁hustru	-10.0562
▁jødisk	-10.0562
▁stadion	-10.0562
▁diplomat	-10.0573
▁700	-10.0573
▁deltatt	-10.0574
▁åpning	-10.0575
▁bombe	-10.0576
▁sammenligne	-10.0581
partiet	-10.0583
▁provins	-10.059
▁muligens	-10.0595
▁foreningen	-10.0597
▁parlamentet	-10.0599
ith	-10.0602
▁wien	-10.0638
▁live	-10.0649
▁museet	-10.0652
▁kvi	-10.0655
▁fan	-10.0656
premie	-10.0657
kanten	-10.0659
▁solo	-10.066
▁skiller	-10.0683
bru	-10.0698
▁statlig	-10.0702
▁studier	-10.0703
▁bakkropp	-10.0709
▁league	-10.0709
▁portugal	-10.0709
▁sjelden	-10.0709
▁riktig	-10.0709
▁bass	-10.0709
▁00	-10.0709
▁lufthavn	-10.071
▁hotell	-10.071
▁1937	-10.0711
▁produksjonen	-10.0711
eksamen	-10.0719
▁kjempe	-10.072
fold	-10.0722
▁que	-10.0723
▁hed	-10.0727
▁bakke	-10.0734
stykke	-10.0736
ryd	-10.0744
▁nordisk	-10.0746
▁samfunns	-10.0747
klubben	-10.0748
▁bredde	-10.0758
▁begynne	-10.0763
▁nedre	-10.0765
▁teknikk	-10.077
mitt	-10.0775
endring	-10.0778
▁overfor	-10.0783
▁loven	-10.0791
▁hellig	-10.0794
pet	-10.0795
ntin	-10.0798
▁foreldre	-10.0805
▁skadet	-10.0807
grupper	-10.0807
rekk	-10.0831
▁skapte	-10.0833
gal	-10.0843
staten	-10.0845
▁dukke	-10.0845
gate	-10.0852
35	-10.0855
post	-10.0855
▁overgang	-10.0857
▁arrangere	-10.0858
▁hovedrollen	-10.0858
▁skiftet	-10.086
hånd	-10.086
halvøya	-10.0863
▁rase	-10.0863
▁sagt	-10.0865
▁etappe	-10.0866
▁armé	-10.0869
▁agder	-10.0872
27	-10.0873
▁forretnings	-10.0876
▁ek	-10.0879
skij	-10.0881
▁phil	-10.0886
▁scene	-10.0887
avtale	-10.0887
▁nes	-10.089
▁will	-10.0893
▁ing	-10.0896
▁hendelser	-10.0898
▁representerer	-10.0898
23	-10.0899
▁verker	-10.0915
▁bilder	-10.0931
▁verdenscupen	-10.0931
veg	-10.0941
preg	-10.0943
▁bio	-10.0949
▁kapp	-10.0949
stille	-10.0954
▁mannskap	-10.0956
zy	-10.0957
▁penger	-10.0965
ima	-10.0976
plikt	-10.098
▁vinne	-10.0996
▁atom	-10.1005
▁records	-10.1009
▁konkurrere	-10.1009
▁registrert	-10.1009
▁definert	-10.1009
▁jacob	-10.101
▁fysisk	-10.101
▁myndighetene	-10.101
▁1922	-10.101
▁1929	-10.1011
▁litterær	-10.1011
prosess	-10.1014
▁varierer	-10.1015
analyse	-10.1017
▁føde	-10.1021
▁magnet	-10.1022
▁wei	-10.1027
▁gram	-10.103
▁36	-10.1032
▁jean	-10.1035
▁tyskerne	-10.104
▁resultatet	-10.104
▁gold	-10.1041
▁vokser	-10.1043
foss	-10.1045
bygget	-10.1049
▁olsen	-10.1051
▁demo	-10.1051
▁teknologi	-10.1064
▁forbi	-10.1065
kreis	-10.1068
▁føl	-10.1082
kilden	-10.1083
▁flyet	-10.1087
bank	-10.1088
▁poly	-10.1092
dahl	-10.1107
▁kari	-10.1107
▁berømte	-10.1108
▁sær	-10.1108
komiteen	-10.1116
ping	-10.1123
ney	-10.1137
▁foreta	-10.1158
filosof	-10.116
tikken	-10.1161
▁innsjøen	-10.1161
н	-10.1161
▁stillingen	-10.1163
▁introdusert	-10.1163
▁konsept	-10.1163
▁respekt	-10.1163
▁arrestert	-10.1163
▁mytologi	-10.1163
▁sachsen	-10.1163
▁frivillig	-10.1163
▁scott	-10.1164
▁luther	-10.1164
off	-10.1164
▁gjeste	-10.1164
▁1934	-10.1165
▁1923	-10.1165
▁1906	-10.1165
▁reserve	-10.1165
▁konstant	-10.1167
bygningen	-10.1167
vokst	-10.1171
forsvar	-10.1172
vekst	-10.1174
▁old	-10.1176
▁befinne	-10.1177
bøker	-10.1177
▁typer	-10.1183
▁bredt	-10.1184
▁filosofi	-10.119
▁lee	-10.1195
▁fortalt	-10.1202
duk	-10.1207
▁bou	-10.1208
town	-10.1208
▁medvirke	-10.1212
listen	-10.1212
▁kapell	-10.1214
handel	-10.1214
ati	-10.1228
hild	-10.123
▁unngå	-10.1231
▁75	-10.1273
▁dobbelt	-10.1277
feld	-10.1278
▁scor	-10.128
▁skriver	-10.1286
▁hamar	-10.1288
fjellene	-10.1296
▁båten	-10.1305
lutt	-10.1305
▁motiv	-10.131
▁eksempler	-10.132
▁individ	-10.132
▁münchen	-10.132
▁milliard	-10.132
▁prinsipp	-10.132
▁america	-10.132
▁rådgiv	-10.132
▁1916	-10.1321
▁1921	-10.1321
▁anklage	-10.1321
▁republikken	-10.1321
▁telemark	-10.1322
strøk	-10.1324
▁anledning	-10.1327
produkt	-10.1329
▁mobil	-10.1331
bygning	-10.1332
født	-10.1332
28	-10.134
▁enorm	-10.1342
lid	-10.1349
▁historisk	-10.1353
▁søkt	-10.1354
▁funn	-10.1356
▁allianse	-10.1359
▁auto	-10.1361
bein	-10.1362
▁alvorlig	-10.1363
▁dekket	-10.1364
▁indisk	-10.1367
▁samarbeidet	-10.1371
▁fullført	-10.1372
▁orkester	-10.1373
stall	-10.1374
▁innhold	-10.1403
▁vakt	-10.1427
ordnet	-10.1443
▁sovjet	-10.1461
▁vokal	-10.1468
▁oppnå	-10.1471
▁ferd	-10.1473
▁elektro	-10.1477
▁strategi	-10.1478
▁frykt	-10.1478
kompleks	-10.1478
▁nektet	-10.1479
▁frederik	-10.1479
▁doktorgrad	-10.1479
▁tempel	-10.1479
alitet	-10.148
▁tømmer	-10.148
hjørne	-10.148
▁kvalitet	-10.148
▁1901	-10.148
▁erfaring	-10.1481
▁france	-10.1481
▁1910	-10.1482
▁oppmerksomhet	-10.1483
▁økende	-10.1486
▁arkitektur	-10.1488
▁fjernet	-10.1489
prosjekt	-10.149
▁hersker	-10.149
▁gjenstand	-10.149
▁hellas	-10.1491
skipet	-10.1494
later	-10.1495
▁mary	-10.1496
▁mø	-10.1508
byrå	-10.1509
aka	-10.1512
artikler	-10.1512
▁hunnen	-10.1516
kampen	-10.1527
▁met	-10.1534
▁imot	-10.1538
▁ulykke	-10.154
▁utstilling	-10.1545
▁behandle	-10.1547
▁larven	-10.1551
▁sivile	-10.1558
▁roll	-10.156
▁vinge	-10.1563
skrigen	-10.1564
illa	-10.1569
▁song	-10.1571
▁marg	-10.1576
▁måter	-10.1579
▁cd	-10.1585
▁luc	-10.1594
komst	-10.1602
45	-10.1606
▁virkelig	-10.1606
språklig	-10.1616
minne	-10.1638
▁reiser	-10.1639
▁akseptert	-10.164
▁etablere	-10.164
▁praktisk	-10.164
▁tegneserie	-10.1641
▁1931	-10.1641
▁1925	-10.1641
▁1904	-10.1642
▁øyer	-10.1643
▁konst	-10.1644
can	-10.1645
▁eksport	-10.1645
▁stabil	-10.1648
lyst	-10.1653
▁tj	-10.1653
turneringen	-10.1654
▁håndverk	-10.1656
▁pensjon	-10.1666
▁emne	-10.1669
▁hj	-10.1671
▁wales	-10.1673
ische	-10.1676
▁driv	-10.168
▁bob	-10.1691
▁keiseren	-10.1696
▁idrettslag	-10.1706
con	-10.171
▁institusjon	-10.1712
▁menighet	-10.1725
ledd	-10.1725
▁sivil	-10.1729
▁økte	-10.1732
▁ledende	-10.1738
▁kreft	-10.1757
▁flu	-10.1762
▁populært	-10.1764
▁deles	-10.1771
▁landslag	-10.1779
▁fjerne	-10.1795
▁vekst	-10.1797
▁versjonen	-10.18
▁administrere	-10.1803
▁skulptur	-10.1803
▁jakob	-10.1804
▁mottatt	-10.1805
traktaten	-10.1805
▁halvparten	-10.1806
▁signert	-10.1806
▁bortsett	-10.1807
▁sankt	-10.1808
▁avledet	-10.1808
album	-10.1819
akademi	-10.1821
forbindelse	-10.1821
▁bryst	-10.1826
▁trond	-10.1829
▁adam	-10.1833
▁gjeld	-10.1834
▁selge	-10.1841
type	-10.1849
forhold	-10.1849
▁regional	-10.1863
▁rent	-10.1865
▁ønske	-10.1867
▁latinsk	-10.1868
hm	-10.1873
▁fc	-10.1875
vika	-10.1877
▁forvingen	-10.189
fjellet	-10.1896
▁perioder	-10.1898
▁kongedømmet	-10.1903
▁bryte	-10.1905
▁nm	-10.191
▁kloster	-10.1911
▁elver	-10.1928
▁korn	-10.1929
▁politiet	-10.1934
▁hind	-10.1937
▁levert	-10.194
▁bygning	-10.1954
в	-10.1969
▁vietnam	-10.197
▁kombinert	-10.197
▁rettigheter	-10.197
konstruert	-10.197
▁manager	-10.1971
▁1915	-10.1972
politikk	-10.1972
▁glass	-10.1973
▁byggingen	-10.1974
▁dommer	-10.1975
ulf	-10.1986
distrikt	-10.199
▁modellen	-10.1992
kontor	-10.1996
▁ansvarlig	-10.1996
▁besøkt	-10.1998
blant	-10.2006
▁avtale	-10.2008
finn	-10.2017
▁sort	-10.2019
ordning	-10.2019
skyting	-10.2021
▁insekter	-10.2022
15	-10.2027
▁cho	-10.203
▁music	-10.2031
▁just	-10.2035
▁andreas	-10.2038
dommer	-10.2052
dannelse	-10.2052
▁kjell	-10.2058
aya	-10.206
▁vekk	-10.206
industrien	-10.2062
▁sørge	-10.2068
▁lam	-10.2068
▁planter	-10.2073
▁ligne	-10.2081
▁cap	-10.2088
orp	-10.2091
▁overført	-10.2091
▁polsk	-10.2093
▁rep	-10.2096
▁starten	-10.2101
▁intern	-10.2106
egnet	-10.2113
▁fremført	-10.2126
▁1902	-10.214
▁tilhørte	-10.214
▁overraske	-10.214
▁1913	-10.2141
▁generelt	-10.2141
▁1926	-10.2141
▁midlertidig	-10.2142
▁skylde	-10.2143
▁hensyn	-10.2144
▁kjørt	-10.2148
▁plu	-10.2155
▁1896	-10.2157
konkurranse	-10.2162
miljø	-10.2163
vannet	-10.2165
▁ull	-10.2167
▁kjønn	-10.2171
wan	-10.2183
▁typen	-10.2185
▁hindre	-10.2192
▁bydelen	-10.2195
▁papir	-10.2196
▁dun	-10.2208
▁horn	-10.2219
▁klassen	-10.2227
▁gener	-10.2229
▁dokumenter	-10.2245
▁prosessen	-10.2257
▁jule	-10.2257
▁motoren	-10.2275
▁parken	-10.2275
matisk	-10.2278
▁bevege	-10.2278
▁tø	-10.2282
▁regjer	-10.2287
▁opptre	-10.2287
29	-10.2297
▁villa	-10.2298
▁helsingfors	-10.2312
▁tilknytte	-10.2312
▁stafett	-10.2312
▁finnmark	-10.2312
▁digital	-10.2312
▁kommersiell	-10.2312
▁terror	-10.2313
▁utnytte	-10.2313
▁innspilling	-10.2313
▁1905	-10.2315
▁myndigheter	-10.2315
▁alex	-10.2315
lyktes	-10.2321
▁ordre	-10.2322
kompani	-10.2323
17	-10.2331
▁human	-10.2333
▁cra	-10.2337
▁forstå	-10.2341
▁statsråd	-10.2345
▁utga	-10.2361
▁verdensmester	-10.2362
▁storm	-10.2362
ico	-10.2362
drakt	-10.2366
▁fritt	-10.237
delt	-10.2373
istene	-10.2376
▁semifinalen	-10.2378
▁gli	-10.2385
▁cu	-10.2387
▁overleve	-10.2393
▁konstruksjon	-10.24
▁katolsk	-10.2419
▁tsj	-10.2423
ward	-10.2427
▁søke	-10.2429
▁kno	-10.2434
▁betegnelse	-10.2435
▁eik	-10.2435
▁hardt	-10.2437
▁anse	-10.2446
▁kommunistisk	-10.2449
▁starter	-10.2456
▁stig	-10.2462
▁lake	-10.248
korset	-10.2486
▁astronom	-10.2487
▁liverpool	-10.2487
▁ortodoks	-10.2487
▁radikal	-10.2488
▁skjul	-10.2488
regissør	-10.2488
fødsel	-10.2488
▁sjette	-10.2488
▁blanding	-10.2488
▁prinsesse	-10.2488
▁opptatt	-10.2489
▁endringer	-10.249
▁filip	-10.2492
▁daniel	-10.2492
lau	-10.2494
dyktig	-10.2497
▁vokalist	-10.2499
▁900	-10.25
▁administrasjon	-10.25
▁nød	-10.2501
▁maleri	-10.2503
▁sikker	-10.2505
▁reaksjon	-10.2506
▁max	-10.2512
▁undervisning	-10.2515
▁bærer	-10.2517
▁morgen	-10.2519
▁chang	-10.2519
kommune	-10.2522
etten	-10.253
motor	-10.2542
▁kritiker	-10.2545
▁krysse	-10.2554
16	-10.2567
▁mad	-10.2568
▁lagene	-10.2582
▁syl	-10.2585
gno	-10.2586
▁kim	-10.2589
▁brede	-10.2593
▁nettverk	-10.2597
▁konserter	-10.2598
▁luk	-10.2604
▁oppsto	-10.2605
▁vg	-10.2618
▁lund	-10.2624
▁utvide	-10.2625
strid	-10.2629
▁myr	-10.2634
26	-10.2634
▁nav	-10.2645
mur	-10.2645
kommisjon	-10.2647
formede	-10.2659
øst	-10.2663
▁initiativ	-10.2666
▁advokat	-10.2666
▁kjærlighet	-10.2666
▁friedrich	-10.2666
plattform	-10.2666
▁redusere	-10.2666
▁tyrkisk	-10.2666
▁nedenfor	-10.2667
▁edvard	-10.2667
▁studere	-10.2669
▁britene	-10.2669
▁medaljer	-10.267
▁utenlandske	-10.2671
▁gullmedalje	-10.2671
ity	-10.2676
▁ali	-10.268
▁jesus	-10.2684
▁kommunestyre	-10.2684
▁tekster	-10.2685
bebyggelse	-10.2689
▁styrte	-10.2692
polis	-10.2693
front	-10.27
▁bygda	-10.2705
lé	-10.2709
97	-10.2712
▁brudd	-10.2722
▁spise	-10.2724
▁ulv	-10.2733
▁lønn	-10.2735
▁klosteret	-10.2736
grensen	-10.2737
▁kjempet	-10.2737
▁bell	-10.274
▁sku	-10.2741
▁monark	-10.2749
▁indo	-10.2753
▁ønsker	-10.2768
alderen	-10.278
▁beskrev	-10.2783
▁platen	-10.2791
▁produserer	-10.2792
▁paven	-10.2799
▁medisinsk	-10.2807
▁tradisjonell	-10.2809
▁kg	-10.2823
▁gui	-10.2828
▁mangel	-10.2828
▁kristian	-10.2838
bød	-10.284
▁eva	-10.2844
▁hannen	-10.2846
høgskole	-10.2846
▁kraftige	-10.2847
▁okkupasjon	-10.2848
▁antwerpen	-10.2848
▁resultert	-10.2848
▁utelukke	-10.2848
▁krevde	-10.2848
▁sprint	-10.2848
▁gustav	-10.2848
▁forsvant	-10.2848
▁utseende	-10.2848
▁belgisk	-10.2848
▁klokken	-10.2849
▁håkon	-10.2849
▁bøkene	-10.285
▁bekrefte	-10.2852
▁representanter	-10.2853
▁dyrke	-10.2855
▁kopi	-10.286
▁38	-10.2864
▁årsak	-10.2866
soldat	-10.2867
tagelse	-10.2874
▁kino	-10.2879
ito	-10.2882
▁celle	-10.2883
produsent	-10.2884
figur	-10.2884
jord	-10.2886
▁drag	-10.2891
▁signal	-10.2901
▁bull	-10.2901
start	-10.2912
utenriksminister	-10.2913
▁stol	-10.2917
▁stam	-10.2935
▁medisin	-10.2948
▁thi	-10.2948
▁anton	-10.2953
▁kalk	-10.2967
eppe	-10.2968
formula	-10.2973
34	-10.2981
▁jobber	-10.2981
▁fv	-10.2986
▁opprøret	-10.2992
▁melk	-10.3002
▁bilen	-10.3003
▁boka	-10.3013
▁250	-10.302
forbundet	-10.3024
▁planen	-10.3028
▁eventyr	-10.3033
▁jerusalem	-10.3033
▁ressurs	-10.3033
▁østerriksk	-10.3033
▁kristiansand	-10.3033
▁kommunal	-10.3033
▁soldatene	-10.3034
▁grunnlegger	-10.3034
▁fjellkjede	-10.3035
▁wolf	-10.3036
▁arena	-10.304
▁muligheten	-10.304
▁kristiania	-10.3042
▁mini	-10.3043
▁east	-10.3044
▁jack	-10.3058
▁mynt	-10.3061
▁skudd	-10.3061
president	-10.3073
▁diktet	-10.3073
▁halvdel	-10.3073
▁håp	-10.3075
tittel	-10.3077
trener	-10.3082
38	-10.3086
▁verv	-10.3091
stjerne	-10.3092
▁gruppa	-10.3094
vakt	-10.3096
▁redde	-10.3098
▁israelsk	-10.3099
▁utgaven	-10.3101
▁skikk	-10.3103
32	-10.3104
▁esp	-10.3105
▁tilhøre	-10.3114
right	-10.3118
havn	-10.3118
▁eksisterte	-10.3125
kilde	-10.3127
▁mesterskapet	-10.3129
oid	-10.3135
▁edderkopp	-10.3146
runde	-10.3152
31	-10.3166
▁etnisk	-10.318
▁byttet	-10.3183
vold	-10.3194
budsjett	-10.3222
▁washington	-10.3222
▁eksemplar	-10.3222
▁fjernsyn	-10.3222
▁foregår	-10.3222
▁permanent	-10.3222
▁mektig	-10.3222
▁hvem	-10.3222
▁forklare	-10.3222
▁romsdal	-10.3223
▁godkjent	-10.3223
▁distanse	-10.3224
▁molde	-10.3224
▁angripe	-10.3225
bedrift	-10.3225
▁34	-10.3225
kasse	-10.3227
▁vende	-10.3231
▁rein	-10.3234
▁1897	-10.3235
styrt	-10.324
▁christiania	-10.325
▁simon	-10.3252
▁neu	-10.3253
utvikling	-10.3265
effekt	-10.3265
▁green	-10.3269
▁kulturell	-10.3281
▁unna	-10.3288
bevisst	-10.3296
familie	-10.33
speil	-10.3307
▁måten	-10.3308
▁landslaget	-10.3311
▁egyptisk	-10.3321
▁andel	-10.3323
▁nam	-10.3324
roman	-10.3328
▁sim	-10.333
▁stri	-10.3332
▁utgi	-10.3338
▁alf	-10.3345
▁tårn	-10.3348
wald	-10.3355
▁khan	-10.3358
▁forskjellig	-10.3377
▁hage	-10.339
hev	-10.3392
▁stortings	-10.3393
rute	-10.3404
hockey	-10.3406
▁frukt	-10.3413
basert	-10.3414
friidrettsutøver	-10.3414
▁1909	-10.3414
▁portugisisk	-10.3414
▁katedral	-10.3414
▁ludvig	-10.3414
▁pakistan	-10.3414
▁artikkel	-10.3414
▁terreng	-10.3414
▁slippe	-10.3414
▁misjonær	-10.3414
▁club	-10.3414
▁zealand	-10.3414
▁forbudt	-10.3414
▁forberede	-10.3415
komité	-10.3416
▁overlevd	-10.3417
▁tørr	-10.342
▁vestfold	-10.342
▁onkel	-10.3421
▁avtalen	-10.3425
uka	-10.3432
setting	-10.3436
▁vente	-10.3437
▁prof	-10.3447
▁arkeologi	-10.3452
▁cur	-10.3456
kjede	-10.346
historisk	-10.346
▁polar	-10.3463
vard	-10.3468
hem	-10.3468
galleri	-10.3468
måte	-10.3471
reise	-10.3472
▁roger	-10.3476
▁verken	-10.3476
▁årsaken	-10.3479
spillet	-10.3487
▁mah	-10.3488
▁long	-10.3489
▁grunnla	-10.3491
▁kritisk	-10.3492
▁urban	-10.3492
▁wall	-10.3503
▁cuba	-10.3506
domstol	-10.3506
▁trukket	-10.3509
▁arv	-10.3509
▁ross	-10.3524
▁jente	-10.3531
▁oppleve	-10.3541
▁lokaliser	-10.3543
bol	-10.3544
liste	-10.3548
▁trær	-10.3548
▁kai	-10.3578
▁tradisjonel	-10.3587
trenger	-10.3595
sosialistisk	-10.3599
▁beat	-10.3605
▁eksperiment	-10.361
▁amsterdam	-10.361
▁engasjert	-10.361
▁færøyene	-10.361
▁science	-10.361
▁lagkonkurransen	-10.361
admiral	-10.361
mønster	-10.3612
▁otto	-10.3612
▁1907	-10.3612
▁gravlagt	-10.3615
▁jøder	-10.3615
▁svekke	-10.3616
▁forkorte	-10.3617
▁publi	-10.3618
▁1100	-10.3623
▁jag	-10.3629
▁1885	-10.363
▁hagen	-10.3634
▁oppløst	-10.3635
▁karakteristisk	-10.3641
▁kara	-10.3643
▁sørover	-10.3649
▁utbygging	-10.366
▁tau	-10.3661
▁nordover	-10.3666
▁malm	-10.3667
▁slottet	-10.3674
▁forlate	-10.368
▁bratt	-10.3683
▁angl	-10.3686
fyr	-10.3688
▁beina	-10.3689
▁tyr	-10.369
▁kortere	-10.3692
▁helst	-10.3695
▁cand	-10.3696
fartøy	-10.3702
▁elementer	-10.3702
▁vitne	-10.3705
▁saga	-10.3709
fant	-10.3745
vingen	-10.3749
forsamlingen	-10.3749
▁dj	-10.3753
▁slott	-10.3758
▁rand	-10.3762
på	-10.3767
▁ulik	-10.379
sey	-10.3795
▁synge	-10.3801
klokke	-10.3804
▁bestemme	-10.3806
qua	-10.3808
▁fakultet	-10.381
▁göteborg	-10.381
▁kvalifisert	-10.381
kjøtt	-10.381
▁argument	-10.381
▁forhindre	-10.381
▁tyrkia	-10.381
▁opptrådt	-10.381
▁brensel	-10.381
teatret	-10.381
▁flyktet	-10.3811
▁utgivelsen	-10.3812
▁overtatt	-10.3812
▁philip	-10.3813
▁interessert	-10.382
▁lykke	-10.3821
▁billed	-10.3824
▁tverr	-10.3826
▁prix	-10.3826
▁hjerne	-10.3827
▁karrieren	-10.3832
▁republikk	-10.3837
▁demningen	-10.3837
▁lærd	-10.3843
▁puppe	-10.3849
▁hul	-10.385
kjør	-10.3853
▁kommunikasjon	-10.3855
bånd	-10.3865
▁sparta	-10.3871
modell	-10.3872
▁million	-10.3882
▁vegg	-10.3898
kjøring	-10.3902
kutt	-10.3907
fred	-10.3933
klasse	-10.3939
sjanger	-10.3947
horn	-10.3947
mod	-10.3987
▁kvinnen	-10.4006
▁afghanistan	-10.4014
▁ambassadør	-10.4014
▁australsk	-10.4014
▁barcelona	-10.4014
▁county	-10.4014
▁nøyaktig	-10.4014
▁negativ	-10.4014
▁fenomen	-10.4014
▁forekommer	-10.4014
▁geografisk	-10.4014
▁svømme	-10.4014
▁naturreservat	-10.4015
▁singelen	-10.4015
blomst	-10.4016
▁forlenge	-10.4017
▁1911	-10.4017
▁skarp	-10.4017
▁etterfølger	-10.4017
stipend	-10.4018
▁grov	-10.402
▁allmenn	-10.4021
▁mandat	-10.4023
▁stalin	-10.4023
▁fastlandet	-10.4024
▁street	-10.4024
▁1200	-10.4029
kanalen	-10.4029
▁vannkraftverk	-10.403
▁brygge	-10.4031
▁inntekt	-10.4042
døpt	-10.4042
▁gitarist	-10.4043
▁middelalder	-10.4052
▁1850	-10.4055
firma	-10.4064
kreft	-10.4066
▁betale	-10.4071
▁øyne	-10.4074
▁river	-10.4075
▁rulle	-10.4084
▁feire	-10.4093
▁thu	-10.4099
▁verd	-10.4104
▁høst	-10.4119
▁unnta	-10.4129
▁fru	-10.4137
sats	-10.4138
▁paus	-10.4142
▁sho	-10.4143
herre	-10.4143
▁anke	-10.416
hopp	-10.4172
dekk	-10.4174
▁gjennomføre	-10.4185
bestemmelse	-10.4196
▁kjemisk	-10.42
▁oppfatte	-10.4201
▁voksen	-10.4208
▁musikal	-10.4214
▁akershus	-10.4223
▁hovedkvarter	-10.4223
▁prøvd	-10.4223
▁reklame	-10.4223
▁service	-10.4223
▁fungerte	-10.4223
▁gregor	-10.4223
▁preussen	-10.4223
▁selvmord	-10.4223
▁beslutte	-10.4223
▁valuta	-10.4223
▁avdøde	-10.4223
▁beordre	-10.4223
▁elleve	-10.4223
▁dverg	-10.4223
▁programleder	-10.4226
▁jackson	-10.4227
▁holdning	-10.4228
rate	-10.423
▁spenning	-10.423
▁fortellingen	-10.4231
▁osv	-10.4234
▁1881	-10.4235
▁mikro	-10.4239
▁tronen	-10.4243
▁with	-10.4245
▁rosa	-10.4246
▁scenen	-10.4258
▁løfte	-10.426
▁white	-10.426
nngår	-10.4261
▁brag	-10.4263
▁vestre	-10.4275
skade	-10.4283
forfatter	-10.4286
nummer	-10.4291
mengde	-10.43
cca	-10.43
vind	-10.4317
▁utenriks	-10.4318
▁grunnlov	-10.4326
▁drap	-10.4352
▁finale	-10.4353
81	-10.4361
▁utøve	-10.4396
verden	-10.4398
▁markere	-10.4403
bukta	-10.4403
▁krysser	-10.4406
▁størst	-10.4406
ittisk	-10.4409
74	-10.4418
typen	-10.4432
forsyning	-10.4432
▁aleksander	-10.4435
▁konkurrert	-10.4435
▁lillehammer	-10.4435
▁windows	-10.4435
▁yngste	-10.4435
ов	-10.4436
▁betjene	-10.4437
▁etterkommer	-10.4437
▁mangler	-10.4439
▁bakvingen	-10.4439
▁dvs	-10.444
▁manchester	-10.4443
▁meldt	-10.4443
teori	-10.4443
▁jiang	-10.4444
▁høyesterett	-10.4446
▁show	-10.4446
▁geo	-10.4446
kryss	-10.4454
▁1895	-10.4456
▁inndelt	-10.4457
▁1848	-10.4459
▁angel	-10.4463
▁inneha	-10.4469
▁generasjon	-10.447
▁lettere	-10.4472
formann	-10.4473
▁bære	-10.4478
▁coll	-10.4489
▁tiår	-10.4492
▁erstatte	-10.4496
▁synlig	-10.4498
representant	-10.4503
direktør	-10.4503
forskning	-10.4504
skrive	-10.4504
13	-10.4525
fotograf	-10.4528
▁vingene	-10.4531
trær	-10.4542
▁ansvaret	-10.4544
celle	-10.4563
▁hull	-10.4586
▁tykk	-10.4599
▁mesterskap	-10.4601
tekst	-10.4609
▁underlag	-10.4614
▁invest	-10.4623
▁fulgt	-10.4627
▁jesu	-10.4638
▁nazi	-10.4652
▁1903	-10.4653
▁referanse	-10.4653
▁vesentlig	-10.4653
▁vulkan	-10.4653
▁innbyggerne	-10.4653
▁oppretthold	-10.4653
▁kombinasjon	-10.4653
▁rektor	-10.4653
▁multi	-10.4653
▁innlemme	-10.4653
▁definere	-10.4653
▁innebære	-10.4654
aceae	-10.4655
▁næringsliv	-10.4655
▁drikke	-10.4658
▁kommunist	-10.4659
▁bodø	-10.4662
yang	-10.4664
versjon	-10.4667
▁skutt	-10.4678
▁kongelig	-10.4688
▁kjemi	-10.469
head	-10.4696
▁øde	-10.4701
▁tidspunktet	-10.4712
embete	-10.4716
europeisk	-10.4726
▁jø	-10.473
▁ligge	-10.4731
lærer	-10.4743
▁sideelv	-10.4755
▁stab	-10.476
▁dokument	-10.477
22	-10.4776
▁burde	-10.4777
▁opprettelse	-10.4778
▁bytte	-10.4789
▁eies	-10.4802
ansett	-10.4805
▁myk	-10.4816
▁individuelle	-10.4875
▁innbyggertall	-10.4875
▁nøytral	-10.4875
▁umiddelbar	-10.4875
▁vedlikehold	-10.4875
▁eventuel	-10.4875
▁gunnar	-10.4875
▁church	-10.4875
▁flyktning	-10.4875
▁pedersen	-10.4875
▁ekstrem	-10.4875
▁studioalbum	-10.4876
▁elektronisk	-10.4876
▁internett	-10.4879
▁forbunds	-10.4885
▁grønland	-10.4885
▁idé	-10.4888
▁takket	-10.4893
▁1898	-10.4896
▁drepe	-10.4897
▁intel	-10.4898
▁sikte	-10.4908
▁tvang	-10.4911
▁østover	-10.4911
▁møre	-10.4913
vald	-10.4914
▁utbrudd	-10.4915
karriere	-10.492
▁gradvis	-10.4921
▁dramatisk	-10.4926
▁utøvere	-10.4928
▁foreldrene	-10.4955
bord	-10.498
▁avvist	-10.5
▁120	-10.5012
komedie	-10.5027
▁pul	-10.5039
redskap	-10.504
gro	-10.5047
▁hval	-10.5053
▁frø	-10.5061
belteasteroide	-10.5102
▁okkupert	-10.5102
▁skjold	-10.5102
▁juridisk	-10.5102
▁utbredelse	-10.5102
▁vellykke	-10.5102
▁alexander	-10.5102
▁adolf	-10.5102
▁aktuell	-10.5102
▁nikola	-10.5102
▁uvanlig	-10.5102
konferanse	-10.5102
▁blues	-10.5102
▁arthur	-10.5102
▁ytterst	-10.5102
pedagog	-10.5103
▁klatre	-10.5103
▁osmansk	-10.5103
▁beholdt	-10.5104
▁väst	-10.5104
▁tjenestegjorde	-10.5105
apparat	-10.5105
▁tegninger	-10.5108
▁tvunge	-10.5108
▁alfred	-10.5109
▁humor	-10.5112
sikring	-10.5119
▁1890	-10.5127
▁ombord	-10.5128
▁etterpå	-10.5131
▁munk	-10.5132
▁from	-10.5132
▁slaver	-10.5136
▁utløp	-10.5144
▁seire	-10.5152
▁vennskap	-10.5158
lignende	-10.5161
▁innerst	-10.5177
▁farlig	-10.518
tårnet	-10.5182
museum	-10.5186
▁stund	-10.5196
▁torg	-10.5196
▁trø	-10.5221
revolusjonen	-10.5222
kjent	-10.5233
forestilling	-10.5236
▁tenke	-10.5246
virke	-10.5261
perioden	-10.5266
▁gjennomsnitt	-10.5279
handlinger	-10.5293
dokumentar	-10.53
vang	-10.5334
▁anerkjenne	-10.5335
▁byprefekturet	-10.5335
▁definisjon	-10.5335
▁kollektiv	-10.5335
▁napoleon	-10.5335
▁renessanse	-10.5335
▁returnerte	-10.5335
▁matematikk	-10.5335
opplæring	-10.5335
▁bbc	-10.5335
▁forbedre	-10.5335
▁forårsake	-10.5335
▁great	-10.5336
▁antyde	-10.5337
gjald	-10.5338
▁avgjørelse	-10.534
vesenet	-10.5342
stigning	-10.5342
▁koble	-10.5351
▁utenlands	-10.5355
▁psykolog	-10.5364
▁sveitsisk	-10.5367
▁vestover	-10.5373
▁furu	-10.5377
▁fjær	-10.5378
▁marx	-10.5382
▁play	-10.5383
anlagt	-10.5385
▁road	-10.5399
▁stemmene	-10.5404
gods	-10.541
pumpe	-10.5414
kongen	-10.5415
pha	-10.5415
▁rester	-10.5416
posisjon	-10.5417
transport	-10.5424
regjering	-10.5424
▁smak	-10.5437
▁låten	-10.5458
krig	-10.5475
▁kontrollert	-10.55
maker	-10.5502
▁tidspunkt	-10.5508
gjenger	-10.5516
▁palm	-10.5517
▁satse	-10.5526
▁brand	-10.5527
kall	-10.5528
awa	-10.5534
vindu	-10.5556
▁chicago	-10.5573
▁jomfru	-10.5573
▁oksygen	-10.5573
▁alkohol	-10.5573
▁litauen	-10.5573
▁jørgen	-10.5573
▁gymnas	-10.5573
▁syria	-10.5573
▁monument	-10.5573
▁opplevde	-10.5573
▁henrettet	-10.5573
▁ungarsk	-10.5573
▁kjøretøy	-10.5573
▁modern	-10.5573
▁arendal	-10.5573
▁oberst	-10.5574
▁kjennetegn	-10.5574
▁verdensrekord	-10.5574
▁hydro	-10.5575
▁3166	-10.5576
▁spesifik	-10.5577
turbiner	-10.5577
▁langrenn	-10.5579
▁tropisk	-10.558
▁piano	-10.558
▁afrikansk	-10.5581
▁avansert	-10.5585
▁søyle	-10.5592
▁landskap	-10.5596
▁1888	-10.5598
▁sandnes	-10.5598
▁oppstod	-10.5601
▁romerne	-10.5606
▁1870	-10.5614
▁beholde	-10.5618
nemlig	-10.5618
▁metro	-10.566
struktur	-10.5667
▁hå	-10.5677
▁talt	-10.5682
▁fei	-10.5688
▁mira	-10.5689
▁comp	-10.569
falt	-10.5698
▁brent	-10.5703
politi	-10.5708
følelse	-10.5708
▁milan	-10.573
▁hammer	-10.5734
▁spring	-10.5747
blå	-10.5759
▁hendelsen	-10.5764
▁grøn	-10.5765
▁skuespill	-10.5796
▁global	-10.5817
▁luxembourg	-10.5817
▁tilstrekkelig	-10.5817
▁antarktis	-10.5817
▁dekkvingene	-10.5817
▁vilhelm	-10.5817
▁separat	-10.5817
▁ingeniør	-10.5817
▁søndag	-10.5817
orientert	-10.5817
kommandant	-10.5817
▁dvd	-10.5817
▁utmerkelse	-10.5817
▁kritisert	-10.5817
▁rolf	-10.5817
▁dominert	-10.5818
▁strekningen	-10.5818
▁bedrifter	-10.582
▁kongeriket	-10.582
▁house	-10.582
▁hovedkontor	-10.5822
▁kreert	-10.5822
▁plast	-10.5823
▁tilfeldig	-10.5827
▁1300	-10.5833
▁fremmed	-10.5839
▁tynn	-10.5854
sundet	-10.5859
▁samtlige	-10.586
▁kommunistparti	-10.5864
▁petter	-10.5866
▁trygg	-10.5876
funn	-10.5907
museet	-10.5921
problem	-10.5926
høyde	-10.5927
▁møtt	-10.5958
▁beskrivelse	-10.5973
planter	-10.5974
▁parlament	-10.6001
▁norman	-10.603
▁bang	-10.6033
▁øv	-10.6048
▁troms	-10.6055
▁beslutning	-10.6067
▁millimeter	-10.6067
▁etablering	-10.6067
▁forfremme	-10.6067
▁komponert	-10.6067
▁company	-10.6067
▁midtøsten	-10.6067
▁katolik	-10.6067
▁shanghai	-10.6067
▁landskamper	-10.6067
▁tilsammen	-10.6067
regulering	-10.6067
▁utgravning	-10.6067
▁golf	-10.6067
▁innledet	-10.6067
▁erobring	-10.6068
▁beskjed	-10.6068
▁serbisk	-10.6068
▁fortellinger	-10.6069
▁knud	-10.6073
▁2018	-10.6073
▁antikken	-10.6077
▁komposisjon	-10.6077
lengde	-10.6082
на	-10.6082
▁grunnleggen	-10.6085
▁vanligste	-10.61
overføring	-10.6106
▁master	-10.6115
▁intens	-10.6143
næs	-10.6144
▁utvidelse	-10.6158
▁øre	-10.618
bukt	-10.6196
▁steve	-10.6197
årig	-10.6208
gass	-10.6208
▁brakt	-10.6212
wall	-10.6216
▁santa	-10.6228
▁parallell	-10.6257
departement	-10.6259
▁observa	-10.629
fond	-10.6295
vall	-10.6299
finalen	-10.6302
▁assistent	-10.6323
▁elisabeth	-10.6323
▁koalisjon	-10.6323
▁manuskript	-10.6323
▁påbegynt	-10.6323
▁sjeldne	-10.6323
▁tønsberg	-10.6323
▁mislykke	-10.6323
▁forklaring	-10.6323
▁rogaland	-10.6323
▁mekanisk	-10.6323
▁kristus	-10.6323
▁avgjørende	-10.6324
▁ørken	-10.6324
▁automatisk	-10.6324
▁opposisjon	-10.6324
▁stefan	-10.6324
▁naturgass	-10.6325
▁jurist	-10.6325
▁bayern	-10.6325
▁generalsekretær	-10.6327
▁betalt	-10.6329
▁opptreden	-10.6331
▁falk	-10.6333
▁musikalske	-10.6333
fortelling	-10.6336
▁gjennombrudd	-10.6337
▁anvende	-10.6338
▁rival	-10.6338
▁jordan	-10.6344
▁nederlag	-10.6347
▁knap	-10.6351
▁1899	-10.6351
▁beskyttelse	-10.6352
▁walter	-10.6352
▁brødrene	-10.6355
▁verb	-10.6362
▁isteden	-10.6365
▁1860	-10.6367
▁øynene	-10.6372
▁slave	-10.6396
▁water	-10.6399
▁klippe	-10.6401
▁skifte	-10.6415
▁tenkt	-10.6422
stemme	-10.6423
kontrakt	-10.6437
offiser	-10.6438
chester	-10.6462
▁ideal	-10.6485
▁sving	-10.6531
▁georgia	-10.657
vegg	-10.6581
jubileum	-10.6586
▁aftenposten	-10.6586
▁invaderte	-10.6586
▁popularitet	-10.6586
▁særskilt	-10.6586
ström	-10.6586
▁hordaland	-10.6586
▁taylor	-10.6586
▁kapital	-10.6586
▁risiko	-10.6586
▁stridsvogn	-10.6586
▁ovenfor	-10.6586
▁evangeli	-10.6586
▁beleiring	-10.6587
▁karbon	-10.6587
▁kampanje	-10.6587
▁seksuell	-10.6587
▁trengte	-10.6587
▁føderal	-10.6587
▁adresse	-10.6587
▁firmaet	-10.6588
▁hørte	-10.6588
▁sydney	-10.6588
▁stengt	-10.6588
▁virkeligheten	-10.6589
▁tallrike	-10.6589
▁import	-10.6589
▁spurt	-10.6589
▁bakterie	-10.659
▁oldtiden	-10.659
▁victoria	-10.6597
botn	-10.6597
▁nedtegne	-10.6601
▁manglen	-10.6605
økning	-10.6605
▁franz	-10.661
▁datert	-10.6611
stadiet	-10.6618
▁1892	-10.6618
▁1865	-10.6621
▁utenom	-10.6626
dikt	-10.6651
politisk	-10.6652
▁bringe	-10.6656
▁laks	-10.6658
mpel	-10.6659
▁kval	-10.6679
burn	-10.668
▁avslutte	-10.6683
instrument	-10.6707
aktivitet	-10.6707
programmet	-10.671
gjennom	-10.6716
behandling	-10.672
▁ødelegge	-10.6772
wick	-10.6793
▁ferge	-10.6795
▁bjø	-10.6806
▁histor	-10.6812
forhandling	-10.6821
fattet	-10.6825
holt	-10.6831
▁zu	-10.6847
▁greid	-10.6849
iansk	-10.6852
▁jugoslavia	-10.6857
▁kronprins	-10.6857
▁låtskriver	-10.6857
▁maksimal	-10.6857
▁restaurant	-10.6857
▁sluppet	-10.6857
▁svalbard	-10.6857
▁tsjekkoslovakia	-10.6857
▁vingespenn	-10.6857
▁innvandre	-10.6857
▁utspring	-10.6857
▁linux	-10.6857
▁oppfatning	-10.6857
▁infanteri	-10.6857
frekvens	-10.6857
▁autonom	-10.6857
▁operatør	-10.6857
▁senior	-10.6857
▁sjakk	-10.6857
▁brigade	-10.6857
▁jødene	-10.6857
▁kriminal	-10.6857
▁streik	-10.6857
▁gratis	-10.6857
▁tendens	-10.6857
▁mineral	-10.6858
▁rettssak	-10.686
▁høydepunkt	-10.686
▁vurdert	-10.686
▁enhver	-10.686
▁foreslått	-10.6861
▁tsar	-10.6862
▁bønn	-10.6865
brød	-10.6867
▁sjanse	-10.6869
▁forsterke	-10.687
▁amfi	-10.6871
▁sosialdemokrat	-10.6873
▁1874	-10.6873
stopp	-10.6875
▁petr	-10.6881
▁skriftlig	-10.6883
▁1887	-10.6883
▁deltager	-10.6884
▁1878	-10.6885
periode	-10.689
▁observasjon	-10.6891
▁tann	-10.6893
▁teologi	-10.69
▁selvstendighet	-10.6908
▁hyll	-10.6913
▁hekk	-10.6915
▁klage	-10.6919
▁gott	-10.692
▁meta	-10.697
stolen	-10.698
kandidat	-10.6985
funksjon	-10.6985
divisjon	-10.6986
▁helhet	-10.6988
▁kongress	-10.7006
forsker	-10.7044
▁chile	-10.7045
ledende	-10.705
▁lord	-10.7065
▁blind	-10.7078
stell	-10.7126
tavle	-10.7127
▁douglas	-10.7134
▁hollywood	-10.7134
▁kristendommen	-10.7134
▁territorie	-10.7134
▁kommandør	-10.7134
▁autoritet	-10.7134
▁fjordane	-10.7134
▁betydningsfull	-10.7134
▁hebraisk	-10.7135
▁nicola	-10.7135
▁varierende	-10.7135
▁patron	-10.7135
▁rettferdig	-10.7136
worth	-10.7136
▁flukt	-10.7136
▁mjø	-10.7136
▁beregnet	-10.7136
▁kryp	-10.7137
▁francisco	-10.7137
▁tilbrakt	-10.7138
▁øygruppen	-10.7139
▁istedenfor	-10.714
▁jernbanestasjon	-10.714
▁michel	-10.7141
▁åpenbar	-10.7143
▁birke	-10.7144
▁justis	-10.7148
▁young	-10.7149
▁forandre	-10.7153
▁whi	-10.7156
▁ibsen	-10.7157
▁hamburg	-10.7163
▁morten	-10.7175
▁flest	-10.7184
▁republikansk	-10.7188
▁trodd	-10.719
aften	-10.7193
▁pund	-10.7204
konge	-10.7215
▁oversette	-10.7221
▁mannlig	-10.7225
azz	-10.7234
▁gross	-10.7237
alisert	-10.7248
▁usikker	-10.7259
▁teologisk	-10.726
skrevet	-10.7261
materiale	-10.7271
sentrum	-10.7272
debut	-10.7276
▁verdenscup	-10.728
▁tidligst	-10.7289
▁forståelse	-10.7307
kjerne	-10.7317
▁drei	-10.733
▁tryg	-10.7353
▁dynasti	-10.7356
løyp	-10.7356
fallende	-10.7404
kansler	-10.7408
▁francis	-10.7417
▁angelsaksisk	-10.742
▁argentina	-10.742
▁elizabeth	-10.742
▁prøyssisk	-10.742
▁slalåm	-10.742
▁alfabet	-10.742
▁buskerud	-10.742
▁geometri	-10.742
▁invitert	-10.742
▁fiktiv	-10.742
▁jersey	-10.742
▁dagbladet	-10.742
▁ansikt	-10.742
▁canadisk	-10.742
▁splitte	-10.742
▁konkurs	-10.742
▁uttrykt	-10.742
▁begravelse	-10.742
▁skildre	-10.7421
▁oppstår	-10.7421
▁innvalgt	-10.7421
▁slank	-10.7422
▁ideologi	-10.7424
▁tjue	-10.7424
▁fattige	-10.7425
▁lidelse	-10.7427
▁talent	-10.7428
▁profil	-10.7429
seminar	-10.7429
▁orgel	-10.7436
▁domini	-10.7436
stråle	-10.7437
▁ddr	-10.7437
▁røtter	-10.744
▁variasjon	-10.7444
▁blandet	-10.7461
▁variert	-10.7471
▁estland	-10.7471
▁folkeparti	-10.7474
▁tretten	-10.7474
▁montert	-10.7481
▁ørn	-10.7507
wich	-10.7528
▁kongedømme	-10.7544
konstruksjon	-10.7564
spørsmål	-10.7565
ætt	-10.7575
▁brutt	-10.7578
▁element	-10.7578
▁tvers	-10.762
sykling	-10.7624
lån	-10.7629
▁alvor	-10.7633
▁kunstnerisk	-10.7639
arkeolog	-10.7662
▁filosofisk	-10.7669
▁hytte	-10.7681
fried	-10.7683
▁columbia	-10.7714
▁færøysk	-10.7714
▁hongkong	-10.7714
▁middelsstor	-10.7714
▁skjønt	-10.7714
bataljon	-10.7714
▁texas	-10.7714
▁mangfold	-10.7714
▁sigurd	-10.7714
▁lørdag	-10.7714
▁bærum	-10.7714
▁skjebne	-10.7715
▁kongsberg	-10.7715
▁temple	-10.7715
▁novelle	-10.7715
▁tokyo	-10.7715
▁fangst	-10.7716
▁grevskapet	-10.7716
▁tillatelse	-10.7717
▁døgn	-10.7717
▁smelte	-10.7718
▁røyk	-10.7719
▁sykkel	-10.772
▁drøm	-10.7721
▁biografi	-10.7724
▁kupp	-10.7738
▁sagn	-10.7742
sfære	-10.7744
▁trakt	-10.7765
lusjon	-10.7767
▁offisiell	-10.777
▁silke	-10.7771
▁møll	-10.7793
▁institut	-10.781
▁generell	-10.7811
light	-10.7848
litteratur	-10.7868
konsert	-10.7869
▁pavelig	-10.7882
▁opprette	-10.7894
▁kosm	-10.7899
▁09	-10.7918
▁vasa	-10.7963
▁brødre	-10.7979
vassdraget	-10.7995
▁vannkraft	-10.8006
▁major	-10.8016
løytnant	-10.8017
▁allikevel	-10.8017
▁heidelberg	-10.8017
▁integrert	-10.8017
▁musikkvideo	-10.8017
▁skandinavia	-10.8017
▁vatikan	-10.8017
▁venezia	-10.8017
▁beslektet	-10.8017
▁ferskvann	-10.8017
▁oxford	-10.8017
ovitsj	-10.8017
▁heinrich	-10.8017
▁taiwan	-10.8017
▁avstemning	-10.8017
▁regulert	-10.8017
▁utsikt	-10.8017
▁indiker	-10.8017
▁dialog	-10.8017
▁kristelig	-10.8017
▁serbia	-10.8017
▁identifisere	-10.8018
▁betingelse	-10.8018
▁aktør	-10.8018
▁grei	-10.8019
▁telefon	-10.8019
hertugdømmet	-10.802
▁brown	-10.802
▁sentralbank	-10.8021
løve	-10.8021
▁leilighet	-10.8021
▁group	-10.8022
▁patric	-10.8022
▁regimet	-10.8024
▁spillefilm	-10.8024
▁tjener	-10.8025
nnføringen	-10.8028
▁kunstløp	-10.8034
▁dimensjon	-10.805
▁fotballklubb	-10.8105
volum	-10.8122
slekten	-10.8135
▁forplikte	-10.8152
fellesskap	-10.816
▁nordøstlig	-10.8179
bibliotek	-10.818
trukket	-10.8181
hjelp	-10.8182
lokale	-10.8185
rekord	-10.8187
sesongen	-10.8203
▁lukke	-10.8216
klipp	-10.8248
▁fortelle	-10.826
løft	-10.8281
▁pakke	-10.8283
▁befal	-10.8284
▁hjemmebane	-10.8302
amerikanske	-10.8316
▁association	-10.833
▁christopher	-10.833
▁nowiki	-10.833
▁tippeliga	-10.833
▁krønike	-10.833
▁materiell	-10.833
▁offensiv	-10.833
▁operativsystem	-10.833
▁xiàn	-10.833
kompetanse	-10.833
▁kortvarig	-10.833
▁søndre	-10.833
▁referert	-10.833
▁uklar	-10.833
▁josef	-10.833
▁fuktig	-10.833
▁regler	-10.833
▁identifisert	-10.833
▁fylkeskommune	-10.8331
▁utmerket	-10.8331
▁utfordre	-10.8332
▁power	-10.8333
▁franskmennene	-10.8333
▁borgermester	-10.8334
opplysning	-10.8334
▁stedsnavn	-10.8337
▁operere	-10.8339
▁fredrikstad	-10.8339
fattig	-10.834
reglene	-10.8342
▁rykte	-10.8347
▁tilsyne	-10.8347
▁tjent	-10.8357
▁månen	-10.8362
▁nerve	-10.8367
investering	-10.8375
▁verksted	-10.8396
▁palass	-10.8397
▁domkirke	-10.8416
▁barneskole	-10.842
▁gjennomsnittlig	-10.8421
høyskole	-10.8501
befolkningen	-10.8503
▁basis	-10.8537
▁rådhus	-10.8555
prest	-10.8586
støtte	-10.8588
komite	-10.861
ан	-10.8636
▁chris	-10.8651
▁doktor	-10.8652
▁artilleri	-10.8652
▁avslørt	-10.8652
▁disiplin	-10.8652
▁forøvrig	-10.8652
▁inspirasjon	-10.8652
▁intervju	-10.8652
▁observert	-10.8652
▁pasienten	-10.8652
▁patriark	-10.8652
▁virginia	-10.8652
▁deltakerne	-10.8653
▁castle	-10.8653
▁fangenskap	-10.8653
▁biologisk	-10.8653
▁debutalbum	-10.8653
▁utpekt	-10.8653
▁facto	-10.8653
▁gjøvik	-10.8654
▁samlealbum	-10.8654
▁moralsk	-10.8655
▁myrdet	-10.8655
▁hedmark	-10.8655
▁senatet	-10.8656
▁fruktbar	-10.8657
kammeret	-10.866
▁kirkegård	-10.866
▁senket	-10.8664
konsern	-10.8667
▁straks	-10.8668
▁forløper	-10.8672
▁bassist	-10.8674
▁fylle	-10.868
▁ungdomsskole	-10.8692
▁gjenvalg	-10.8697
▁ødeleggelse	-10.8755
▁sammenslåing	-10.8757
reformen	-10.879
▁holdeplass	-10.8808
▁landområde	-10.8813
institusjon	-10.8836
temperatur	-10.8836
▁omdanne	-10.8845
▁konsul	-10.8852
oksid	-10.8862
▁könig	-10.8986
▁football	-10.8986
▁frankfurt	-10.8986
▁meksikansk	-10.8986
▁molekyl	-10.8986
▁resolusjon	-10.8986
▁respons	-10.8986
▁shakespeare	-10.8986
▁vancouver	-10.8986
▁jordskjelv	-10.8986
▁prefekt	-10.8986
▁selvbiografi	-10.8986
▁slesvig	-10.8986
▁thailand	-10.8986
▁senterpartiet	-10.8986
▁embets	-10.8986
▁frigjøring	-10.8986
▁madrid	-10.8986
▁fiolin	-10.8986
▁barnehage	-10.8986
▁eksistens	-10.8986
▁ordinær	-10.8986
▁walisisk	-10.8986
▁tverrbånd	-10.8986
▁vegetasjon	-10.8986
▁partner	-10.8987
▁kristin	-10.8987
▁brasiliansk	-10.8988
▁velkjent	-10.8988
▁poesi	-10.8988
▁oppfølger	-10.8989
sivilisasjon	-10.8989
mekanisme	-10.899
▁regent	-10.899
▁akkur	-10.8992
▁organisere	-10.8992
▁metoden	-10.8994
▁øvelsen	-10.8996
▁bedriften	-10.8999
▁down	-10.9004
bundet	-10.901
5000	-10.9023
vennlig	-10.9063
regning	-10.9063
snegl	-10.9097
utdanning	-10.9181
resultat	-10.9181
utvikle	-10.9182
låt	-10.92
▁representere	-10.9237
forekomst	-10.9243
palasset	-10.9258
▁hendelse	-10.9312
kjøkken	-10.933
▁aluminium	-10.933
▁bryllup	-10.933
▁bulgaria	-10.933
▁bysantinsk	-10.933
▁innendørs	-10.933
▁nobelprisen	-10.933
▁psykisk	-10.933
▁trommeslager	-10.933
▁korrupsjon	-10.933
▁plutselig	-10.933
▁symptom	-10.933
▁kavaleri	-10.933
▁kurfyrst	-10.933
▁dresden	-10.9331
▁ulovlig	-10.9331
▁charlotte	-10.9331
▁diskusjon	-10.9331
▁bridge	-10.9331
▁oblast	-10.9331
▁theodor	-10.9331
▁avviklet	-10.9331
▁platon	-10.9331
▁narvik	-10.9331
▁haakon	-10.9331
▁konsernet	-10.9332
▁trykt	-10.9332
▁majoritet	-10.9332
▁innflytelsesrik	-10.9333
▁avdekket	-10.9333
▁larvik	-10.9333
▁tørke	-10.9333
▁einar	-10.9333
▁riksvåpen	-10.9334
▁genetisk	-10.9347
kulasjon	-10.9347
▁koreansk	-10.9349
▁pirat	-10.9355
plikasjon	-10.9355
▁fjerdeplass	-10.9359
▁karakterisert	-10.936
rustning	-10.9371
▁fullføre	-10.9432
▁forbli	-10.9434
reisende	-10.9438
▁begynt	-10.9441
▁utnevne	-10.9452
azar	-10.9489
yuan	-10.9501
hovedstad	-10.9538
teknikk	-10.9538
provins	-10.9539
sentral	-10.9548
▁kostnad	-10.9562
utstyr	-10.9591
eiro	-10.9617
areal	-10.9634
▁undersøke	-10.9636
▁midtbane	-10.9669
▁victor	-10.9673
▁absolutt	-10.9688
▁assosiert	-10.9688
▁cambridge	-10.9688
▁innspilt	-10.9688
▁kapittel	-10.9688
▁sanskrit	-10.9688
▁territorium	-10.9688
▁ukrainsk	-10.9688
▁warszawa	-10.9688
▁ferdinand	-10.9688
▁propaganda	-10.9688
▁ukraina	-10.9688
▁abraham	-10.9688
▁grekerne	-10.9688
▁vinterleker	-10.9688
▁depresjon	-10.9688
▁amatør	-10.9688
▁forfatning	-10.9688
▁haugesund	-10.9688
▁testamente	-10.9688
▁vedkommende	-10.9688
▁hyppig	-10.9688
▁umulig	-10.9688
▁flandern	-10.9688
▁folketallet	-10.9688
▁nepal	-10.9688
▁lennon	-10.9688
▁fremtidig	-10.9688
▁geologisk	-10.9688
▁presentert	-10.9688
▁skåne	-10.9688
▁bemerket	-10.9688
▁ekspert	-10.9689
▁grunnleggelse	-10.9689
▁innviet	-10.9689
▁fiender	-10.969
▁opplysninger	-10.969
▁belønne	-10.969
▁disney	-10.969
▁betong	-10.9691
▁høgskolen	-10.9691
▁nyhets	-10.9692
▁divers	-10.9692
▁øks	-10.9694
▁urolig	-10.9695
▁hvile	-10.9702
sprang	-10.9707
▁benevn	-10.9722
næringen	-10.9736
arrest	-10.9775
▁frost	-10.9806
erklæring	-10.9863
betegnelse	-10.9908
redaktør	-10.9909
ekspedisjon	-10.9909
▁overføre	-10.999
antonio	-11
▁psyko	-11.0057
▁avskaffet	-11.0058
▁basketball	-11.0058
▁cæsar	-11.0058
▁innstifte	-11.0058
▁interessant	-11.0058
▁pilegrim	-11.0058
▁angivelig	-11.0058
▁annonsert	-11.0058
▁tilnærming	-11.0058
▁tsjekkisk	-11.0058
▁kronologisk	-11.0058
▁forbedring	-11.0058
▁identitet	-11.0058
▁academ	-11.0058
▁vannpolo	-11.0058
▁florida	-11.0058
▁grieg	-11.0058
▁nevø	-11.0058
▁rockeband	-11.0058
▁benedikt	-11.0058
▁matematisk	-11.0058
▁muntlig	-11.0058
bransjen	-11.0058
▁gordon	-11.0058
▁unesco	-11.0058
▁bøndene	-11.0058
▁kommentar	-11.0058
▁alminnelig	-11.0059
▁russerne	-11.0059
mouth	-11.0059
▁systematisk	-11.0059
▁erstatning	-11.0059
▁datamaskin	-11.006
▁utforming	-11.0061
▁flytende	-11.0061
▁pierre	-11.0062
▁krigsfange	-11.0064
▁forestillingen	-11.0068
▁rifle	-11.0081
strof	-11.0083
register	-11.0143
▁hevn	-11.0162
▁berømt	-11.0194
gripe	-11.0242
ulykke	-11.0298
▁konvensjon	-11.0301
opplevelse	-11.0302
nevner	-11.0304
8	-11.0319
asteroide	-11.0435
direktorat	-11.0443
flokkurin	-11.0443
▁champions	-11.0443
▁distribusjon	-11.0443
▁erkebispedømme	-11.0443
▁forvandling	-11.0443
▁kvadrat	-11.0443
▁larvestadie	-11.0443
▁makedonia	-11.0443
▁muslimsk	-11.0443
▁pennsylvania	-11.0443
▁sarpsborg	-11.0443
▁skandinavisk	-11.0443
▁avslutning	-11.0443
▁inskripsjon	-11.0443
▁styrmann	-11.0443
▁embeds	-11.0443
▁foreløpig	-11.0443
▁hjalp	-11.0443
▁aspekt	-11.0443
▁romerriket	-11.0443
▁statistikk	-11.0443
▁reaktor	-11.0443
▁krigføring	-11.0443
▁prince	-11.0443
achusett	-11.0443
▁petersburg	-11.0443
▁korrekt	-11.0443
▁central	-11.0443
▁oppfinnelse	-11.0443
▁finansiert	-11.0443
▁sibir	-11.0443
▁corneli	-11.0443
▁dåp	-11.0443
▁dream	-11.0444
▁rednings	-11.0444
▁noensinne	-11.0444
▁mastergrad	-11.0444
▁kristiansund	-11.0444
▁søvn	-11.0445
▁relasjon	-11.0446
▁blomstre	-11.0446
▁isolert	-11.0446
▁kanadisk	-11.0447
▁sverre	-11.0447
▁spyd	-11.045
▁befolke	-11.0457
▁smitte	-11.0458
▁armensk	-11.0463
▁ivareta	-11.0467
▁barokk	-11.0471
▁vurdere	-11.0487
▁nevro	-11.0497
▁slange	-11.052
bjørg	-11.0522
nevnte	-11.0596
ifikasjon	-11.0618
▁teolog	-11.0623
historiker	-11.0693
vunnet	-11.0694
medlemmene	-11.0694
brann	-11.0705
▁minutt	-11.0707
▁republik	-11.0708
flåte	-11.0717
fabrik	-11.0747
psykologi	-11.0794
▁ammunisjon	-11.0843
▁bulgarsk	-11.0843
▁country	-11.0843
▁fundament	-11.0843
▁gjengjeld	-11.0843
▁illinois	-11.0843
▁infrastruktur	-11.0843
▁konsentrert	-11.0843
▁kontinuerlig	-11.0843
▁kontroversiell	-11.0843
▁mccartney	-11.0843
▁mongolia	-11.0843
▁palestinsk	-11.0843
▁rudolf	-11.0843
▁stjørdal	-11.0843
▁symfoni	-11.0843
▁sørafrikansk	-11.0843
▁vålerenga	-11.0843
kommanderende	-11.0843
▁billboard	-11.0843
▁konsekvens	-11.0843
▁skribent	-11.0843
▁uruguay	-11.0843
▁våpenhvile	-11.0843
▁flaggbærer	-11.0843
▁minoritet	-11.0843
▁nøkkel	-11.0843
▁progressiv	-11.0843
▁snorre	-11.0843
▁tilskuere	-11.0843
▁komplett	-11.0843
▁synspunkt	-11.0843
▁oppgradert	-11.0843
▁protestantisk	-11.0843
▁söder	-11.0843
▁arsenal	-11.0843
▁sektor	-11.0843
▁færre	-11.0843
▁brother	-11.0843
▁lagtinget	-11.0843
▁tennis	-11.0843
▁vincen	-11.0844
▁protein	-11.0844
▁bjerk	-11.0844
▁omstridt	-11.0844
▁legenden	-11.0844
▁dekorert	-11.0845
▁court	-11.0845
▁nordligst	-11.0848
▁moderat	-11.086
▁avskjed	-11.0886
▁jernalder	-11.0891
▁nederst	-11.0901
flytting	-11.0914
▁parallel	-11.0947
▁kenya	-11.0995
▁begrense	-11.1072
teknologi	-11.1096
grønn	-11.111
tilbud	-11.1112
tradisjon	-11.1113
▁vokse	-11.1199
krisen	-11.1202
▁avhandling	-11.1235
▁kringkasting	-11.1259
▁bachelor	-11.1259
▁edinburgh	-11.1259
▁etiopia	-11.1259
▁glasgow	-11.1259
▁melbourne	-11.1259
▁tsjekkia	-11.1259
▁vladimir	-11.1259
▁æthel	-11.1259
▁brønn	-11.1259
▁diagnose	-11.1259
▁forveksle	-11.1259
▁katarina	-11.1259
▁uavgjort	-11.1259
▁besittelse	-11.1259
▁ekteparet	-11.1259
▁høvding	-11.1259
▁manusforfatter	-11.1259
▁odysse	-11.1259
▁sosiologi	-11.1259
▁brandenburg	-11.1259
▁krystall	-11.1259
▁mozart	-11.1259
▁skihopper	-11.1259
▁ingeborg	-11.1259
▁parlamentarisk	-11.1259
▁nelson	-11.1259
▁gjennomgår	-11.1259
▁regulere	-11.1259
▁statsborger	-11.1259
▁firenze	-11.1259
▁hvileperiode	-11.126
▁østersjøen	-11.126
▁deutsch	-11.126
begrensning	-11.126
▁utfordring	-11.126
▁kombinere	-11.126
▁pianist	-11.126
▁christensen	-11.126
▁forkropp	-11.126
▁pastor	-11.1261
▁delstats	-11.1261
katalog	-11.1261
▁uefa	-11.1261
▁kommentert	-11.1262
gjerd	-11.1274
▁flanke	-11.1277
▁gjenopprette	-11.1302
nøtt	-11.1328
▁hjemmekampe	-11.1344
konsulent	-11.1438
fraksjon	-11.1446
bevegelse	-11.1469
lønn	-11.1543
orkester	-11.1544
skiftet	-11.1544
studier	-11.1545
prøve	-11.1549
▁insekt	-11.1557
▁konsentrasjon	-11.1637
▁apostolisk	-11.1694
▁catalonia	-11.1694
▁corporation	-11.1694
▁engasjement	-11.1694
▁generalmajor	-11.1694
▁illustrasjon	-11.1694
▁illustratør	-11.1694
▁michigan	-11.1694
▁narkotika	-11.1694
▁primitiv	-11.1694
▁society	-11.1694
▁diameter	-11.1694
▁hønefoss	-11.1694
▁indonesia	-11.1694
▁konkurrent	-11.1694
▁kosovo	-11.1694
▁representasjon	-11.1694
▁synonym	-11.1694
▁sørkoreansk	-11.1694
▁stabæk	-11.1694
▁anmelder	-11.1694
▁arbeidsgiver	-11.1694
▁forsterkning	-11.1694
▁prestisje	-11.1694
▁sogneprest	-11.1694
▁prefekturet	-11.1694
▁forklart	-11.1694
▁kontrast	-11.1694
▁inflasjon	-11.1694
▁grafikk	-11.1694
▁atlanta	-11.1694
▁langvarig	-11.1694
▁begravet	-11.1694
▁innrømme	-11.1694
▁sandefjord	-11.1694
▁namsos	-11.1694
▁tenkning	-11.1694
▁bmw	-11.1694
▁seoul	-11.1695
▁lewis	-11.1695
▁contest	-11.1695
▁opprykk	-11.1695
▁veksle	-11.1695
▁veteran	-11.1695
▁detroit	-11.1695
▁harrison	-11.1695
▁kalender	-11.1696
▁abbed	-11.1696
▁knust	-11.1697
▁tønne	-11.1699
▁rakett	-11.1701
▁samuel	-11.1702
▁befeste	-11.1705
▁fossile	-11.1706
mission	-11.1708
▁mannsnavn	-11.1718
▁vassdrag	-11.1726
▁balanse	-11.1727
▁avgrense	-11.1732
vík	-11.1748
spektr	-11.1754
▁stortingsvalge	-11.1783
gruppa	-11.1999
kritiker	-11.1999
institutt	-11.1999
papir	-11.1999
kontroll	-11.2
▁vestkyst	-11.2026
▁utarbeide	-11.2122
▁prestegjeld	-11.2149
▁arrangør	-11.2149
▁britannia	-11.2149
▁budapest	-11.2149
▁fengslet	-11.2149
▁filippinene	-11.2149
▁folkeavstemning	-11.2149
▁innsbruck	-11.2149
▁pyramide	-11.2149
▁skjøt	-11.2149
▁stephen	-11.2149
▁westfalen	-11.2149
▁pattedyr	-11.2149
▁garnison	-11.2149
▁okkupasjonsmakt	-11.2149
▁rovdyr	-11.2149
▁jagerfly	-11.2149
▁opphørt	-11.2149
▁bosnia	-11.2149
▁sicilia	-11.2149
komponent	-11.2149
▁utstrakt	-11.2149
▁dublin	-11.2149
▁tilnærme	-11.2149
▁ordenstegne	-11.2149
døgnflue	-11.2149
▁omsorg	-11.2149
▁løslatt	-11.2149
▁margaret	-11.2149
▁alaska	-11.2149
▁normandie	-11.2149
▁særegen	-11.2149
leverandør	-11.2149
▁anthon	-11.2149
▁trussel	-11.2149
▁globe	-11.2149
▁libya	-11.2149
▁rhode	-11.2149
▁uenighet	-11.215
▁relatert	-11.215
▁betaling	-11.2151
▁sannhet	-11.2153
reservat	-11.2153
▁satellitt	-11.2163
▁napoli	-11.2164
7	-11.2168
▁hekse	-11.2178
fragment	-11.2242
holome	-11.2288
konvensjonen	-11.2319
▁identifi	-11.2404
situasjon	-11.2476
student	-11.2477
kaptein	-11.2482
størrelse	-11.2499
▁gjø	-11.2508
vurder	-11.2569
terapi	-11.2606
hefte	-11.2621
landeveissyklist	-11.2625
pningsseremonien	-11.2625
▁atlanterhavet	-11.2625
▁atmosfæren	-11.2625
▁canterbury	-11.2625
▁kjønnsmodn	-11.2625
▁markedsføring	-11.2625
▁metamorfose	-11.2625
▁omdiskutert	-11.2625
▁oppslutning	-11.2625
▁philadelphia	-11.2625
▁rektangulær	-11.2625
▁roosevelt	-11.2625
▁spellemannpris	-11.2625
▁storslalåm	-11.2625
▁varaordfører	-11.2625
▁1809	-11.2625
▁imperiet	-11.2625
▁teoretisk	-11.2625
▁underholdnings	-11.2625
▁utendørs	-11.2625
terapeut	-11.2625
▁gravitasjon	-11.2625
▁torpedo	-11.2625
▁baptist	-11.2625
▁kirurgi	-11.2625
▁libanon	-11.2625
lovgivning	-11.2625
▁bystatus	-11.2625
▁tolkning	-11.2625
▁ektefelle	-11.2625
▁simpson	-11.2625
▁faktum	-11.2625
▁gustaf	-11.2625
koordinat	-11.2625
▁diskutert	-11.2625
▁empire	-11.2625
▁kollisjon	-11.2625
▁organismer	-11.2625
▁lastebil	-11.2625
▁henrettelse	-11.2625
▁opphevet	-11.2625
▁ålesund	-11.2625
▁hovedpersonen	-11.2625
▁marcus	-11.2626
▁bråt	-11.2626
▁again	-11.2626
mønstre	-11.2627
▁stryke	-11.2628
kollega	-11.2628
▁sørligst	-11.263
▁verdslig	-11.263
▁seksjon	-11.2631
sylindre	-11.2632
skriving	-11.2635
▁syklist	-11.2644
▁earl	-11.2652
▁rikdom	-11.2657
▁manuel	-11.2687
▁cupfinal	-11.2694
amanu	-11.2739
gruv	-11.2742
▁dobbel	-11.2759
▁eksistert	-11.2876
0	-12.7769
