<unk>	0
<s>	0
</s>	0
.	-3.28103
▁i	-3.54061
e	-3.60038
s	-3.66051
▁og	-3.86053
t	-4.08593
▁	-4.09533
er	-4.25081
en	-4.28196
▁av	-4.32736
▁en	-4.52242
▁som	-4.5289
▁er	-4.5715
▁til	-4.65196
▁for	-4.71422
r	-4.7174
▁på	-4.77322
▁med	-4.95465
▁den	-4.95843
et	-4.96028
▁ble	-4.96552
▁det	-5.03528
n	-5.07728
▁var	-5.10446
▁de	-5.17609
▁han	-5.31429
▁fra	-5.35524
▁å	-5.36914
▁et	-5.50806
▁har	-5.51674
ene	-5.5642
a	-5.62677
▁at	-5.69412
ne	-5.88746
▁ved	-5.95851
k	-6.01693
i	-6.02387
▁om	-6.04509
o	-6.05714
▁også	-6.05863
d	-6.06788
▁etter	-6.07838
▁men	-6.15694
y	-6.18286
▁ut	-6.20034
g	-6.21108
▁under	-6.25379
▁seg	-6.31441
l	-6.32405
de	-6.3308
▁hadde	-6.35739
▁ikke	-6.3676
te	-6.37293
m	-6.38384
▁over	-6.38732
▁eller	-6.39802
▁to	-6.42745
▁da	-6.44949
▁kan	-6.45242
▁opp	-6.45944
▁inn	-6.50331
f	-6.53422
p	-6.58644
▁andre	-6.60341
h	-6.60607
ing	-6.64153
v	-6.64455
▁mot	-6.66305
in	-6.67336
re	-6.6744
▁s	-6.67525
▁be	-6.68495
▁sin	-6.70081
c	-6.72092
▁første	-6.74754
▁dette	-6.76668
▁18	-6.76999
▁a	-6.77132
▁hun	-6.78358
▁1	-6.79309
▁ha	-6.82881
al	-6.84462
an	-6.85051
us	-6.85485
▁født	-6.87064
▁hans	-6.87282
u	-6.88297
▁mellom	-6.89028
▁der	-6.90725
b	-6.90946
▁år	-6.91744
▁tre	-6.92467
is	-6.96448
▁fikk	-6.96967
ende	-6.98349
le	-6.99197
▁f	-7.02933
on	-7.03921
▁man	-7.04241
ter	-7.0539
na	-7.05572
▁denne	-7.06941
▁flere	-7.07716
sk	-7.0822
la	-7.09559
▁blant	-7.0986
▁hvor	-7.10441
▁the	-7.10869
ar	-7.1291
▁2	-7.13079
▁kom	-7.1354
▁før	-7.14599
▁sammen	-7.15176
▁m	-7.16599
▁re	-7.16967
▁la	-7.19145
ia	-7.19374
▁nord	-7.19844
▁så	-7.22044
▁ligger	-7.22686
▁del	-7.23565
ere	-7.24112
kk	-7.24114
sen	-7.2432
▁mange	-7.28741
z	-7.29081
vis	-7.29161
▁17	-7.30178
ur	-7.31757
be	-7.32055
st	-7.32137
▁stor	-7.32697
li	-7.3272
▁u	-7.32959
w	-7.33377
▁3	-7.33605
▁tallet	-7.33632
▁ca	-7.34157
land	-7.34345
▁mer	-7.34404
▁noen	-7.34831
ri	-7.35174
▁død	-7.35647
▁norsk	-7.35998
iske	-7.3616
ke	-7.36618
▁gjennom	-7.36723
or	-7.37322
ch	-7.38961
▁vi	-7.39552
▁alle	-7.40212
▁tidligere	-7.40235
lig	-7.405
for	-7.40581
▁c	-7.40733
▁norge	-7.4199
▁byen	-7.42129
ra	-7.4217
▁bo	-7.42394
nes	-7.42649
ning	-7.42784
ske	-7.43059
nde	-7.43662
▁senere	-7.43886
▁siden	-7.4407
▁kommune	-7.44266
▁blir	-7.44342
▁ga	-7.44362
ig	-7.44527
▁b	-7.44641
ens	-7.44732
▁selv	-7.44737
▁al	-7.44773
um	-7.44793
il	-7.45034
▁an	-7.45115
▁se	-7.45243
▁disse	-7.45435
▁annet	-7.45477
▁her	-7.4561
x	-7.46288
▁4	-7.46852
øy	-7.47197
▁sitt	-7.47232
▁sør	-7.47924
▁ny	-7.47972
▁være	-7.4847
▁of	-7.48677
▁5	-7.49818
▁kjent	-7.4995
ma	-7.51024
é	-7.51184
▁p	-7.51388
j	-7.51444
▁ol	-7.51939
as	-7.52117
ck	-7.52119
▁d	-7.52864
▁vært	-7.53131
isk	-7.53741
ta	-7.53762
blitt	-7.53785
▁g	-7.5468
▁store	-7.54939
ver	-7.56218
▁k	-7.56455
den	-7.56645
het	-7.57158
os	-7.5795
▁rundt	-7.58555
▁samme	-7.58758
▁16	-7.58895
th	-7.59914
ge	-7.60099
▁grunn	-7.60105
▁15	-7.60319
at	-7.60532
▁frem	-7.60793
▁kr	-7.62406
el	-7.62437
å	-7.62633
▁noe	-7.6327
▁land	-7.63574
der	-7.63785
ut	-7.63877
bo	-7.63915
▁st	-7.64051
ng	-7.64176
▁dag	-7.64695
ro	-7.65713
▁h	-7.6587
▁gikk	-7.66077
▁le	-7.66411
ad	-7.66457
▁ned	-7.6648
▁enn	-7.68558
ry	-7.68605
▁tid	-7.69001
▁6	-7.69006
▁sine	-7.69118
▁ro	-7.69451
da	-7.69475
di	-7.69528
både	-7.69717
ler	-7.69801
▁kunne	-7.70436
ell	-7.70677
▁pi	-7.70771
▁ofte	-7.71027
▁mest	-7.71696
▁norske	-7.71803
ger	-7.71845
ste	-7.72516
ff	-7.72533
▁10	-7.72601
ø	-7.72836
je	-7.73026
▁skulle	-7.73401
ga	-7.73493
▁vil	-7.73644
ner	-7.74166
▁km	-7.74316
▁sa	-7.7478
ve	-7.7492
▁vant	-7.75044
▁by	-7.75639
▁ta	-7.75693
▁ham	-7.75827
▁øst	-7.75956
▁vest	-7.76747
▁ba	-7.76801
▁o	-7.77115
it	-7.77641
mi	-7.78442
▁mens	-7.78522
vi	-7.79739
lo	-7.79979
ton	-7.80137
to	-7.80404
▁tilbake	-7.80466
▁nå	-7.8054
▁w	-7.80599
▁ka	-7.80846
▁sp	-7.80903
▁navn	-7.80926
gen	-7.8096
me	-7.81129
ker	-7.81249
▁tok	-7.81442
ka	-7.82033
son	-7.82571
▁hoved	-7.82993
▁navnet	-7.83242
▁bare	-7.83385
▁12	-7.83417
stad	-7.83421
▁t	-7.83486
erte	-7.84345
mo	-7.84403
▁he	-7.84971
sa	-7.85144
▁slik	-7.8516
▁nye	-7.85299
▁8	-7.85526
▁finnes	-7.85538
▁li	-7.85795
ist	-7.85911
▁oslo	-7.86175
▁kon	-7.86217
▁ti	-7.87005
ja	-7.87096
▁mai	-7.8719
▁bli	-7.87232
▁skal	-7.87508
▁fire	-7.87533
▁kalt	-7.87811
▁lag	-7.87973
▁gang	-7.88022
▁usa	-7.88142
ul	-7.88445
ven	-7.88475
▁ra	-7.89247
▁ho	-7.89279
▁meter	-7.89305
▁ni	-7.89519
▁januar	-7.89852
op	-7.89975
▁si	-7.90146
▁7	-7.90448
ster	-7.9074
▁fram	-7.90968
▁du	-7.91055
var	-7.91164
▁000	-7.9124
▁l	-7.9133
▁største	-7.91457
ak	-7.9147
ti	-7.92201
ang	-7.92958
mp	-7.92969
lige	-7.93045
▁v	-7.93354
mann	-7.93449
ol	-7.93815
▁n	-7.93877
id	-7.93973
▁di	-7.94091
▁juli	-7.94246
ha	-7.94569
by	-7.94922
man	-7.95141
▁do	-7.95173
▁mars	-7.95544
kt	-7.96227
▁per	-7.96246
erne	-7.9669
▁brukt	-7.96795
▁få	-7.97595
▁kirke	-7.97615
▁bak	-7.98002
▁siste	-7.98379
mer	-7.9869
▁fri	-7.98801
▁in	-7.99092
▁rekke	-7.99737
▁pro	-7.99806
▁far	-7.99859
dal	-8.00071
av	-8.00158
▁hele	-8.00267
ko	-8.00299
▁mor	-8.00769
▁fly	-8.01176
ce	-8.01247
▁august	-8.01497
bu	-8.01948
▁videre	-8.0226
▁dem	-8.02461
ør	-8.02982
tor	-8.03114
▁9	-8.03387
▁går	-8.03792
ment	-8.04406
tid	-8.04562
iv	-8.04669
un	-8.04753
▁når	-8.0516
asjon	-8.05262
▁mål	-8.06014
▁området	-8.06026
▁j	-8.06203
▁mo	-8.06241
▁lang	-8.06432
va	-8.06762
▁po	-8.06933
▁su	-8.07011
skap	-8.07058
▁utgitt	-8.07445
▁co	-8.07761
ant	-8.08019
men	-8.0806
▁as	-8.08174
▁11	-8.08337
ær	-8.08339
om	-8.08519
▁oktober	-8.08561
mm	-8.08615
▁2008	-8.08766
gi	-8.08979
▁samt	-8.09117
▁mindre	-8.0917
else	-8.09394
▁mar	-8.0954
pp	-8.09593
▁bu	-8.09993
▁tillegg	-8.10234
im	-8.10335
itt	-8.11104
▁na	-8.1115
ion	-8.11566
▁først	-8.11691
▁hos	-8.11744
▁y	-8.12333
▁deltok	-8.12654
am	-8.1291
▁2010	-8.1302
ir	-8.13052
ik	-8.13195
si	-8.13452
ling	-8.13563
▁begynte	-8.13991
æ	-8.14137
▁13	-8.14365
▁juni	-8.14417
▁alt	-8.14433
▁laget	-8.14463
▁no	-8.14614
▁14	-8.14647
ed	-8.14756
▁satt	-8.1497
▁ei	-8.15028
rett	-8.15077
▁september	-8.15949
sted	-8.1626
▁ko	-8.16307
▁årene	-8.16312
▁vanlig	-8.16361
▁desember	-8.1659
▁leder	-8.16784
▁ar	-8.16843
▁20	-8.17391
▁bruk	-8.1767
ic	-8.18046
▁bar	-8.18158
gang	-8.18193
ba	-8.18287
▁november	-8.1832
ok	-8.18378
▁spilte	-8.1848
sel	-8.1868
▁2007	-8.18763
do	-8.18933
▁gi	-8.19012
ca	-8.19374
▁vann	-8.19384
▁rett	-8.19831
år	-8.20136
▁imidlertid	-8.20525
ard	-8.20565
▁igjen	-8.20752
▁februar	-8.20972
▁april	-8.20972
▁tv	-8.21178
▁skole	-8.21305
▁kun	-8.21355
▁deres	-8.21449
sjon	-8.21815
▁0	-8.22015
▁lo	-8.22373
berg	-8.22914
co	-8.23178
lu	-8.23304
▁mat	-8.23869
▁tro	-8.23962
ku	-8.24009
▁like	-8.24131
▁bi	-8.24707
▁folke	-8.24723
ier	-8.24768
au	-8.2481
nske	-8.24844
tur	-8.24979
form	-8.25276
▁pa	-8.25514
opp	-8.25857
ering	-8.25866
▁el	-8.26124
▁bestå	-8.26253
▁ma	-8.26302
▁ru	-8.26324
bi	-8.26457
▁fransk	-8.26631
▁film	-8.26673
▁døde	-8.26766
lag	-8.27028
▁må	-8.27086
▁mi	-8.2716
▁2006	-8.27695
▁nær	-8.27846
ina	-8.27893
pe	-8.28102
▁2009	-8.28172
vik	-8.2821
▁musikk	-8.28241
▁kong	-8.28697
po	-8.28782
▁bl	-8.28812
▁eksempel	-8.29378
▁helt	-8.29513
▁medlem	-8.29894
▁mye	-8.3018
▁britisk	-8.30384
tter	-8.30416
▁jo	-8.30585
▁språk	-8.30587
tak	-8.30667
▁uten	-8.30884
▁all	-8.31034
▁kultur	-8.31165
elle	-8.31229
od	-8.31244
sh	-8.31841
ans	-8.31904
▁par	-8.31915
ud	-8.32055
ft	-8.32206
▁fem	-8.32232
ll	-8.32265
▁filmen	-8.3253
▁hennes	-8.32588
▁te	-8.32594
▁gamle	-8.32597
▁ri	-8.3272
ns	-8.32789
▁ville	-8.32799
gg	-8.32856
á	-8.32863
▁new	-8.32921
▁or	-8.32928
ag	-8.33127
ingen	-8.33358
ni	-8.33525
▁lov	-8.33719
▁plass	-8.33719
mb	-8.33752
lin	-8.33777
▁kinesisk	-8.33862
▁go	-8.33896
▁sønn	-8.339
ings	-8.33977
▁ulike	-8.34007
▁gjorde	-8.34046
▁kort	-8.34199
▁året	-8.34318
▁lu	-8.34694
dre	-8.34717
▁gu	-8.3476
▁2011	-8.34891
▁høy	-8.3494
▁tiden	-8.34994
tal	-8.35039
▁30	-8.35214
▁større	-8.35388
▁brukes	-8.35411
▁svær	-8.35522
▁sch	-8.35629
ren	-8.35757
▁startet	-8.35905
▁va	-8.3591
▁and	-8.35995
▁olympisk	-8.36042
ber	-8.36506
▁form	-8.36517
ring	-8.36774
▁fa	-8.3683
tre	-8.36914
go	-8.37247
▁ski	-8.37394
nd	-8.37786
▁særlig	-8.37787
ho	-8.37926
▁beste	-8.38775
▁ingen	-8.38832
▁am	-8.39313
▁barn	-8.39434
▁em	-8.39479
▁spiller	-8.39584
▁deretter	-8.39649
▁liv	-8.3992
▁tyske	-8.39986
▁me	-8.40238
▁skrevet	-8.40246
dan	-8.40255
▁ganger	-8.40261
▁langs	-8.40752
▁pe	-8.40967
siden	-8.41209
▁sverige	-8.41263
▁gift	-8.41302
▁tra	-8.41551
▁bygget	-8.41954
hus	-8.42269
▁hu	-8.42612
bil	-8.42616
eg	-8.42647
▁ak	-8.42777
▁europa	-8.42928
styr	-8.43137
▁x	-8.43543
▁små	-8.43851
dd	-8.44304
▁hver	-8.44494
les	-8.44587
▁hvert	-8.44609
▁2005	-8.44618
▁kl	-8.44671
▁ki	-8.44837
▁kunst	-8.44898
▁eks	-8.45237
▁sam	-8.45246
he	-8.45338
▁25	-8.45595
und	-8.45634
ord	-8.45655
▁parti	-8.45666
▁kommer	-8.45752
▁ne	-8.46131
ie	-8.46398
slag	-8.46495
ningen	-8.46522
▁hel	-8.46565
▁so	-8.46701
▁plan	-8.46759
▁innen	-8.46858
▁samtidig	-8.46923
▁fleste	-8.46979
▁lever	-8.4705
▁arbeidet	-8.47183
▁dermed	-8.47236
▁vei	-8.47282
stein	-8.47453
▁president	-8.4747
▁innbyggere	-8.47488
▁fast	-8.47536
sta	-8.47565
▁lys	-8.4771
ru	-8.47855
▁skrev	-8.47943
▁tatt	-8.48361
art	-8.48524
▁begge	-8.48669
▁ad	-8.48672
▁måtte	-8.48684
▁ge	-8.48758
▁bandet	-8.48808
fa	-8.48849
▁engelsk	-8.48926
del	-8.49043
nk	-8.49337
len	-8.49347
over	-8.49747
min	-8.49755
▁2004	-8.49858
▁russisk	-8.49861
no	-8.50031
▁forskjellige	-8.50042
▁gjen	-8.50058
▁egen	-8.50205
▁sett	-8.50248
ks	-8.50587
▁r	-8.50666
hold	-8.50854
pi	-8.50861
▁lå	-8.50905
io	-8.50998
▁john	-8.51015
sp	-8.514
▁tysk	-8.51508
▁london	-8.51662
ö	-8.51693
▁perioden	-8.51865
▁sol	-8.5192
▁tor	-8.52343
▁norges	-8.5236
ian	-8.52399
▁gitt	-8.52618
▁politisk	-8.52659
følge	-8.52719
tiden	-8.52968
▁fi	-8.53027
▁grad	-8.53052
vin	-8.53241
▁øy	-8.53253
dag	-8.53377
▁sv	-8.53558
▁kommunen	-8.53893
▁kina	-8.53905
▁ju	-8.54069
▁annen	-8.54281
▁bil	-8.54426
ot	-8.54474
▁gruppen	-8.54561
verk	-8.54636
▁klubben	-8.54664
pa	-8.54706
▁seks	-8.54707
elsen	-8.54719
▁san	-8.54719
▁øya	-8.55326
tu	-8.55624
▁flytte	-8.55632
▁deler	-8.55708
lse	-8.55848
▁tyskland	-8.55851
▁sommer	-8.56018
bar	-8.56097
ede	-8.56191
▁hus	-8.56213
▁stedet	-8.56338
▁regne	-8.56414
ium	-8.5643
3	-8.5663
▁amerikansk	-8.57132
▁fo	-8.57153
▁god	-8.57326
ow	-8.57522
▁sjø	-8.5777
▁pu	-8.57884
ä	-8.58327
satt	-8.58523
sj	-8.58659
▁kjente	-8.58888
▁sk	-8.58967
▁landet	-8.59166
ige	-8.59202
▁etablert	-8.59248
▁amerikanske	-8.5934
ius	-8.59386
▁stein	-8.59398
ly	-8.59423
gu	-8.59447
▁gir	-8.59571
inn	-8.59709
▁2000	-8.59943
▁nasjonal	-8.60156
itet	-8.60161
▁tri	-8.60189
jø	-8.60822
▁bergen	-8.61043
derfor	-8.61224
ninger	-8.61251
▁sand	-8.61268
▁wa	-8.6132
▁forhold	-8.61786
stil	-8.61857
▁sted	-8.6186
▁side	-8.61869
tiske	-8.61898
per	-8.61898
▁min	-8.61914
wa	-8.61984
elig	-8.61998
ü	-8.62248
stre	-8.62546
▁ord	-8.62674
▁gull	-8.62798
▁historie	-8.62899
▁gud	-8.62966
uk	-8.62985
tra	-8.6316
▁mulig	-8.63177
tten	-8.63259
▁vel	-8.63626
ding	-8.63692
▁fjell	-8.63948
ken	-8.63977
▁car	-8.64063
port	-8.64064
▁serien	-8.64134
1	-8.64246
▁jord	-8.64516
▁bra	-8.64531
▁tidlig	-8.6477
▁provinsen	-8.64812
▁verdens	-8.65004
ran	-8.65296
dalen	-8.65436
▁ty	-8.65704
par	-8.65711
▁ab	-8.6575
▁albumet	-8.65836
laget	-8.65901
▁millioner	-8.65921
▁nytt	-8.65965
▁pr	-8.66171
ting	-8.66468
▁24	-8.6656
mon	-8.66673
▁spilt	-8.66844
▁kongen	-8.67021
▁bok	-8.67029
hu	-8.67212
stand	-8.67224
anger	-8.67226
fl	-8.67294
▁løpet	-8.67332
▁lokal	-8.67482
▁stort	-8.67492
▁fotball	-8.67647
til	-8.67694
▁con	-8.67919
▁frankrike	-8.68177
▁slutten	-8.68436
tok	-8.68471
ien	-8.68518
▁verden	-8.68627
fe	-8.68694
▁krigen	-8.68802
▁støtte	-8.689
ci	-8.68901
▁konge	-8.68909
▁21	-8.69011
ikk	-8.69023
▁art	-8.69187
▁england	-8.69274
hi	-8.69388
▁person	-8.69408
kor	-8.69683
▁grav	-8.69703
5	-8.69863
2	-8.7006
kom	-8.7015
▁23	-8.70166
▁gjør	-8.70174
tisk	-8.70226
▁førte	-8.70299
let	-8.70386
▁fortsatt	-8.70565
▁selskapet	-8.70587
gre	-8.70802
så	-8.71008
▁22	-8.71038
ron	-8.71082
▁vise	-8.71228
▁eneste	-8.71238
▁bety	-8.71241
▁innenfor	-8.71545
est	-8.71549
ong	-8.71554
ny	-8.71653
▁pre	-8.71969
▁nor	-8.71985
▁fordi	-8.72138
sten	-8.72249
▁slutt	-8.72541
▁2001	-8.72596
▁roman	-8.726
▁100	-8.72686
▁forfatter	-8.72912
met	-8.72926
▁tredje	-8.73674
ty	-8.73828
▁viktig	-8.74165
▁fag	-8.74231
and	-8.74311
jen	-8.74624
dig	-8.74663
▁dr	-8.74677
nder	-8.74748
tes	-8.74751
▁opprinnelig	-8.7479
▁bro	-8.74871
▁vinter	-8.74945
▁gammel	-8.7524
tar	-8.75242
ley	-8.75315
▁midt	-8.75319
▁fred	-8.75405
lands	-8.75511
▁ledet	-8.75588
forening	-8.75624
▁utviklet	-8.75638
▁lav	-8.75862
▁kv	-8.75974
▁familien	-8.76348
▁delstaten	-8.76404
inger	-8.76652
▁1990	-8.76799
kel	-8.76927
▁mil	-8.77135
▁verdenskrig	-8.77215
heten	-8.77324
kan	-8.77335
res	-8.77412
▁hatt	-8.77484
▁ur	-8.77705
▁familie	-8.7773
▁arbeids	-8.77756
▁1980	-8.77988
▁én	-8.78016
mar	-8.78026
▁tar	-8.78299
▁natur	-8.78307
▁ch	-8.78328
▁moderne	-8.78382
▁stat	-8.78491
▁godt	-8.78575
▁2002	-8.7878
ju	-8.78996
legg	-8.78998
værende	-8.79099
▁spille	-8.79186
lot	-8.79502
▁os	-8.79566
▁spesielt	-8.79571
▁basert	-8.79599
sch	-8.79607
isme	-8.79714
▁litt	-8.79765
net	-8.7977
▁lite	-8.79987
▁nok	-8.80005
fly	-8.80027
▁står	-8.80329
▁omkring	-8.8038
red	-8.80487
uten	-8.80579
▁svensk	-8.80636
em	-8.80724
▁1999	-8.80791
fjorden	-8.80886
vo	-8.80945
▁liten	-8.81069
▁fin	-8.8117
▁vm	-8.81633
▁sangen	-8.81681
sson	-8.81997
ham	-8.81998
▁1970	-8.82022
▁halv	-8.82049
▁19	-8.82086
▁kn	-8.82163
yl	-8.82279
▁kirken	-8.82664
▁sesongen	-8.82817
▁val	-8.82981
▁ben	-8.82984
spill	-8.83005
ung	-8.83042
▁vis	-8.8311
▁sto	-8.83195
▁prest	-8.83221
▁2003	-8.83273
vet	-8.83292
▁au	-8.83356
▁mennesker	-8.8341
bb	-8.83681
▁viser	-8.83768
▁kar	-8.83778
▁ser	-8.83838
▁bri	-8.83912
▁ren	-8.83941
▁datter	-8.83974
burg	-8.8412
▁hol	-8.8413
▁bruker	-8.84148
▁rom	-8.84252
rø	-8.84314
▁we	-8.84327
▁mag	-8.84491
bruk	-8.84492
▁aktiv	-8.84507
▁tur	-8.84511
▁kalles	-8.84574
som	-8.84647
▁ja	-8.8467
plass	-8.84699
▁sta	-8.84982
▁egne	-8.84986
▁dikt	-8.85077
▁antall	-8.8509
▁sentral	-8.85129
ac	-8.8534
skje	-8.85501
▁paris	-8.85765
▁danmark	-8.85804
ation	-8.85848
▁medlemmer	-8.85863
▁bru	-8.86014
ologi	-8.86052
▁z	-8.86181
landet	-8.86338
bre	-8.86513
▁mon	-8.86548
▁allerede	-8.86669
▁gul	-8.86715
▁fått	-8.86727
80	-8.8673
▁kor	-8.86815
▁nesten	-8.86854
▁foran	-8.86998
í	-8.87178
▁50	-8.87271
tro	-8.87511
▁arbeider	-8.87556
▁hi	-8.8761
▁fre	-8.87647
før	-8.87797
▁gruppe	-8.87854
kon	-8.8788
▁opprettet	-8.87918
enes	-8.87951
▁langt	-8.88121
▁radio	-8.88212
ica	-8.88243
ator	-8.88311
lan	-8.88326
tikk	-8.88343
▁inkludert	-8.88401
ki	-8.88471
nings	-8.88604
▁mann	-8.88634
▁28	-8.88797
▁delen	-8.89031
▁gjøre	-8.89222
9	-8.89295
▁romersk	-8.89307
mor	-8.89331
ya	-8.8946
vel	-8.89465
▁berg	-8.89607
ller	-8.89829
mål	-8.8984
▁fant	-8.89863
▁skog	-8.89975
▁gr	-8.89995
▁hjem	-8.90022
▁arbeid	-8.90028
▁ø	-8.9019
▁skuespiller	-8.90199
▁partiet	-8.90298
▁får	-8.90429
ou	-8.90512
▁personer	-8.90628
▁produsert	-8.90628
▁27	-8.90793
▁gjort	-8.90795
film	-8.90838
vei	-8.90881
▁åtte	-8.91009
▁betydning	-8.91074
▁riks	-8.91242
▁historisk	-8.9126
og	-8.91505
▁italiensk	-8.91526
▁reise	-8.91579
far	-8.91645
ska	-8.91846
▁utenfor	-8.92108
▁ste	-8.9211
▁kur	-8.92304
det	-8.92358
bok	-8.9248
▁slaget	-8.92485
▁op	-8.92667
ære	-8.92904
eres	-8.93328
▁internasjonale	-8.9354
▁samarbeid	-8.93594
▁lange	-8.93606
dom	-8.93637
bel	-8.93692
▁ed	-8.93779
▁knytte	-8.93824
▁bort	-8.93839
ó	-8.93853
▁holdt	-8.93868
tte	-8.94017
løp	-8.94037
▁verk	-8.94115
tz	-8.94166
▁italia	-8.94291
▁serie	-8.94386
▁gav	-8.94507
▁sj	-8.94625
▁wi	-8.94681
▁pave	-8.94698
▁29	-8.94699
lå	-8.94706
▁general	-8.94749
stat	-8.94835
4	-8.94883
lys	-8.95031
▁sentrum	-8.95225
ab	-8.95236
▁jeg	-8.95395
▁anti	-8.95403
▁veien	-8.95513
▁universitetet	-8.95545
▁elven	-8.95596
▁bor	-8.95685
▁katolsk	-8.95693
▁luft	-8.95743
▁funnet	-8.95908
▁delt	-8.96095
▁full	-8.9616
▁storbritannia	-8.96167
▁kal	-8.96172
gående	-8.96259
menn	-8.9627
ssen	-8.96416
▁skolen	-8.96494
▁ver	-8.96494
▁minst	-8.9651
▁ett	-8.96527
▁industri	-8.96589
▁militær	-8.96674
dyr	-8.96853
▁motor	-8.96888
ov	-8.96948
▁stats	-8.96983
▁slag	-8.97028
fi	-8.9704
øn	-8.97076
▁hav	-8.97167
▁cha	-8.97185
▁karl	-8.97299
rik	-8.97355
ld	-8.97364
▁meste	-8.97389
▁hen	-8.974
che	-8.97431
borg	-8.97431
▁1997	-8.97608
my	-8.97639
▁fu	-8.97707
tion	-8.97729
▁orden	-8.97768
▁valg	-8.97811
▁nett	-8.97846
ris	-8.97909
▁ag	-8.97928
sett	-8.97964
dømme	-8.97991
▁forbindelse	-8.98003
▁svenske	-8.98278
▁hjemme	-8.98355
skole	-8.98544
pris	-8.98636
▁ul	-8.98646
van	-8.98659
dde	-8.98759
ana	-8.98911
lene	-8.9899
▁1996	-8.99064
vær	-8.99072
▁mari	-8.9923
jer	-8.99324
▁åpnet	-8.99394
▁kvinne	-8.99448
▁ku	-8.99486
▁pan	-8.9956
heim	-8.99621
▁gå	-8.99722
▁fiske	-8.9977
ds	-8.99812
føring	-8.99924
bro	-9.00009
▁tak	-9.00013
▁staten	-9.00057
▁hal	-9.00292
▁sang	-9.00295
▁2012	-9.00546
ine	-9.00664
gel	-9.00733
øya	-9.00769
kul	-9.00801
▁krigs	-9.00813
▁ettersom	-9.00819
▁farge	-9.00847
isering	-9.00882
▁dager	-9.00883
ale	-9.00884
▁spor	-9.00919
tan	-9.01033
▁universitet	-9.01294
▁26	-9.01473
▁rød	-9.01488
▁betydelig	-9.01535
q	-9.01795
if	-9.01818
gruppen	-9.01825
▁sl	-9.01959
▁via	-9.01982
▁my	-9.02021
▁william	-9.02037
▁1991	-9.02041
ill	-9.02077
nn	-9.021
▁befolkningen	-9.02239
▁angrep	-9.02334
▁sen	-9.02401
▁fylke	-9.02425
▁syn	-9.02613
▁omtrent	-9.0305
▁lands	-9.03168
jo	-9.03185
plan	-9.0323
▁roma	-9.03299
▁høyre	-9.03494
stan	-9.035
50	-9.03535
▁gjerne	-9.03561
▁teater	-9.03585
▁bred	-9.03761
▁jernbane	-9.03768
up	-9.03849
▁organ	-9.03919
ys	-9.03952
▁fer	-9.04005
▁1960	-9.0408
▁tap	-9.04109
yn	-9.04151
▁regjeringen	-9.04183
▁q	-9.04241
▁band	-9.04364
▁col	-9.04401
mmer	-9.0444
▁hjelp	-9.04495
▁direkte	-9.04588
▁biskop	-9.04589
ug	-9.04609
▁com	-9.04612
▁havn	-9.04703
▁hø	-9.04736
ight	-9.04766
dy	-9.04779
løs	-9.04837
spiller	-9.04928
▁afrika	-9.05017
▁hånd	-9.05091
▁stil	-9.05142
iker	-9.05244
▁keiser	-9.05248
▁inntil	-9.0534
▁bill	-9.05402
▁vin	-9.05441
▁eu	-9.05505
▁kamp	-9.05549
liggende	-9.05728
▁hy	-9.05767
▁tittelen	-9.05785
▁divisjon	-9.05929
selskap	-9.05967
▁dagens	-9.06042
▁york	-9.06151
▁paul	-9.06316
led	-9.06553
samling	-9.06627
▁russland	-9.06679
▁eget	-9.06719
leder	-9.068
asjonen	-9.06832
▁post	-9.07193
▁sig	-9.07234
▁lokale	-9.07377
elt	-9.07378
veien	-9.07437
ip	-9.07448
sti	-9.07528
▁kla	-9.07529
▁aldri	-9.07602
▁henne	-9.07674
▁1998	-9.07744
ika	-9.07747
▁berlin	-9.07766
▁periode	-9.07835
▁album	-9.07875
▁slekt	-9.08032
▁måte	-9.08055
▁ferdig	-9.08086
▁kvinner	-9.0817
ek	-9.0824
▁hevde	-9.08282
▁enkelte	-9.08285
▁erstatte	-9.08313
▁johan	-9.08389
cu	-9.08398
▁kraft	-9.08433
▁følge	-9.08549
▁dess	-9.0857
▁styre	-9.08697
han	-9.08749
▁robert	-9.08824
fra	-9.08956
lett	-9.09008
▁indre	-9.09037
▁je	-9.0906
▁arter	-9.09062
▁folk	-9.09067
▁on	-9.09124
isert	-9.09143
▁nordøst	-9.09385
▁fall	-9.094
▁tjeneste	-9.09479
▁bror	-9.09577
▁steder	-9.09656
▁sak	-9.09694
▁ras	-9.09725
▁menn	-9.09726
▁1988	-9.09902
▁motstand	-9.10086
▁mus	-9.10204
▁studert	-9.10447
▁1993	-9.10448
▁hovedsakelig	-9.1045
▁venstre	-9.10454
▁tom	-9.10552
▁sc	-9.10603
fabrikk	-9.10607
▁jan	-9.10738
eri	-9.10754
ister	-9.10871
▁liste	-9.10935
bin	-9.10944
▁flo	-9.10952
▁van	-9.10964
▁tildelt	-9.11029
▁dannet	-9.11045
▁bre	-9.1106
▁minne	-9.11098
skip	-9.11141
mel	-9.11201
råd	-9.11238
▁slo	-9.11286
▁høyeste	-9.11545
▁forsøk	-9.11549
▁1994	-9.11549
▁1950	-9.11559
▁viktigste	-9.11618
▁rolle	-9.11797
▁lett	-9.11835
▁møte	-9.11857
00	-9.11926
ph	-9.12094
▁enkelt	-9.12125
▁sh	-9.12184
▁gate	-9.12224
▁bygge	-9.12302
▁europeisk	-9.12325
▁valgt	-9.1238
▁inneholder	-9.12382
▁ly	-9.12424
▁felles	-9.12579
▁drept	-9.12657
året	-9.12666
brudd	-9.12673
stilling	-9.12691
sund	-9.12804
istiske	-9.12925
▁rø	-9.13042
▁bygd	-9.13064
▁fe	-9.13146
▁utnevnt	-9.13218
▁1995	-9.13228
▁brun	-9.13471
▁peter	-9.13535
za	-9.13601
▁pas	-9.13643
zi	-9.13723
▁kje	-9.13809
▁bal	-9.13929
▁grunnlagt	-9.13994
▁lik	-9.14131
а	-9.14345
▁nummer	-9.1435
▁brasil	-9.14354
▁sal	-9.14465
▁sm	-9.14489
▁lagt	-9.14698
▁gen	-9.14705
▁kron	-9.14838
▁krig	-9.14864
asjoner	-9.14892
▁danske	-9.14919
▁våpen	-9.14924
▁university	-9.14925
▁begynnelsen	-9.14926
▁40	-9.14986
vil	-9.15208
▁borger	-9.15217
▁les	-9.15221
▁31	-9.15259
▁konsert	-9.15348
minister	-9.15356
▁nordlig	-9.15409
▁pri	-9.1544
▁eldste	-9.15498
ai	-9.1554
▁hard	-9.15748
▁følgende	-9.15785
▁helse	-9.15852
▁råd	-9.15945
▁neste	-9.1595
ap	-9.15969
▁2013	-9.16084
iet	-9.1612
▁lille	-9.16146
▁dansk	-9.16167
▁dis	-9.16266
ive	-9.16363
sto	-9.16372
▁1992	-9.16668
pen	-9.16692
▁kunstner	-9.16793
banen	-9.16827
▁slått	-9.16837
▁menneske	-9.16898
tig	-9.16991
▁sy	-9.17021
▁handels	-9.17089
▁virke	-9.17118
fall	-9.17125
rom	-9.17376
▁tettsted	-9.17567
▁tekst	-9.1764
▁kilometer	-9.1783
▁kjøpt	-9.17879
▁bank	-9.17931
kant	-9.17959
mal	-9.17997
rin	-9.18044
fo	-9.18055
10	-9.18081
mark	-9.18388
departementet	-9.18422
▁eldre	-9.18484
▁skip	-9.18528
ble	-9.18532
▁fle	-9.18545
▁system	-9.18557
ket	-9.18597
▁chi	-9.18655
▁rock	-9.18674
kre	-9.18823
bru	-9.18918
bygd	-9.18963
▁kroppen	-9.1902
▁likevel	-9.19054
▁best	-9.19086
▁sanger	-9.19107
bl	-9.19152
▁politiker	-9.19257
▁th	-9.19278
imot	-9.19291
▁flagg	-9.19318
tel	-9.19369
kamp	-9.19374
su	-9.19385
▁ber	-9.19547
▁bør	-9.19555
fer	-9.19741
mu	-9.19761
ep	-9.19813
▁litteratur	-9.19893
▁områder	-9.20027
▁rev	-9.20039
tatt	-9.20094
inne	-9.20133
ald	-9.2019
▁representert	-9.20218
▁david	-9.20221
▁nest	-9.20533
▁meget	-9.20565
▁von	-9.20668
▁pla	-9.20693
▁mis	-9.20765
▁regionen	-9.20806
ther	-9.20808
▁hva	-9.20854
▁tradisjon	-9.20953
kal	-9.21001
▁resten	-9.21003
▁lærer	-9.21088
▁gro	-9.21097
40	-9.21116
▁reist	-9.21288
deling	-9.21295
▁utvikling	-9.21327
du	-9.21373
we	-9.21409
▁stjerne	-9.21461
▁landets	-9.21504
val	-9.21514
lagt	-9.21533
▁holde	-9.21536
▁komme	-9.2162
▁stra	-9.21634
▁ex	-9.21692
▁kraftig	-9.21746
kler	-9.21761
▁tilhører	-9.21783
stående	-9.21787
▁utgjør	-9.21796
istisk	-9.21832
område	-9.21841
gh	-9.21881
▁lyd	-9.2189
▁topp	-9.21958
▁israel	-9.22048
▁vanskelig	-9.22051
▁dro	-9.22098
▁dra	-9.22175
ater	-9.22207
▁ev	-9.22229
▁ordet	-9.2223
ah	-9.22254
lev	-9.22421
ført	-9.22483
ach	-9.2257
full	-9.22707
▁opprør	-9.22792
▁miljø	-9.22807
▁svart	-9.22869
tjeneste	-9.22905
▁ke	-9.22999
▁mac	-9.23016
navn	-9.23216
▁christian	-9.23225
▁års	-9.23314
syn	-9.23316
ferd	-9.23321
▁politi	-9.23376
▁lenger	-9.23436
▁ve	-9.23502
▁fortsatte	-9.23577
▁mu	-9.23612
vann	-9.23631
▁skade	-9.23637
▁turn	-9.23731
▁sendt	-9.23759
▁herre	-9.23766
▁trondheim	-9.23916
gitt	-9.23916
▁henrik	-9.23997
rus	-9.24082
65	-9.24092
øl	-9.24164
▁lei	-9.242
▁elva	-9.24209
medalje	-9.24442
▁suksess	-9.2454
▁1984	-9.24546
▁finalen	-9.24552
bane	-9.24579
ros	-9.24674
▁skr	-9.24724
gård	-9.24772
rid	-9.24823
▁versjon	-9.24875
gl	-9.24967
▁vekt	-9.24969
merke	-9.25008
▁barne	-9.25011
lsen	-9.25024
stasjon	-9.25047
sser	-9.25105
▁fjerde	-9.25173
▁1979	-9.25181
punkt	-9.25563
▁ry	-9.25602
▁gra	-9.25714
▁arrangert	-9.2581
▁sørøst	-9.25841
lle	-9.25856
▁seier	-9.26009
▁za	-9.26032
kje	-9.2608
chi	-9.26155
▁kontroll	-9.264
▁dårlig	-9.26451
▁prosent	-9.26458
▁energi	-9.2652
▁klar	-9.26528
krigen	-9.26578
regionen	-9.26738
▁linje	-9.26895
▁offentlig	-9.26929
vern	-9.27018
pu	-9.27037
▁sølv	-9.27087
▁tru	-9.2709
▁2014	-9.2711
▁komp	-9.27132
idae	-9.27192
elige	-9.2729
▁mark	-9.2746
log	-9.27472
▁høyde	-9.2751
▁gal	-9.27646
▁pal	-9.27671
▁mont	-9.27707
▁200	-9.27729
▁voksne	-9.27746
▁1986	-9.27755
▁lege	-9.27871
▁samling	-9.27899
ps	-9.27952
kar	-9.27956
tårn	-9.27981
▁stasjon	-9.27995
▁unge	-9.28012
▁løs	-9.28223
folk	-9.2825
▁af	-9.2828
ino	-9.28379
▁sterkt	-9.28413
pper	-9.28496
havet	-9.28522
▁1800	-9.28529
ski	-9.28543
spi	-9.28549
▁blå	-9.28572
▁uttrykk	-9.28588
▁midten	-9.28828
kken	-9.28971
▁sannsynlig	-9.29057
▁århundre	-9.29057
▁1945	-9.29063
▁1978	-9.29068
▁statsminister	-9.29072
grad	-9.29078
▁skrive	-9.29078
▁erik	-9.29079
▁sogn	-9.29084
▁stilling	-9.29089
▁verdi	-9.29119
ving	-9.29141
▁lin	-9.29159
ford	-9.29166
▁bedre	-9.29205
▁ter	-9.29239
▁natt	-9.29247
▁mc	-9.2928
system	-9.29341
▁finsk	-9.29351
▁hvis	-9.2944
▁tu	-9.29562
▁makt	-9.29673
olog	-9.29675
▁københavn	-9.29719
▁hverandre	-9.29719
▁india	-9.29791
▁samle	-9.29852
▁trans	-9.30039
▁park	-9.30147
▁samlet	-9.30158
▁seil	-9.3017
ji	-9.30177
30	-9.30277
▁stu	-9.30351
▁offisiell	-9.30386
▁poeng	-9.30403
tus	-9.30418
▁grensen	-9.30655
fjord	-9.30718
▁kors	-9.30729
lla	-9.30742
▁maria	-9.30767
old	-9.30783
▁boken	-9.3079
▁delta	-9.308
sjøen	-9.30811
▁br	-9.30902
zo	-9.30922
▁svarte	-9.30941
▁kamper	-9.30953
▁hvit	-9.30992
▁amerika	-9.31022
alder	-9.3109
▁retning	-9.31205
▁professor	-9.31232
nor	-9.3124
▁spesial	-9.31247
▁spe	-9.3133
▁gode	-9.31348
skog	-9.31408
▁jobb	-9.31482
▁omfatter	-9.31512
▁blad	-9.31602
▁sil	-9.31718
mester	-9.31719
▁flat	-9.31719
▁interesse	-9.31731
и	-9.31733
▁1989	-9.3174
▁mur	-9.31781
▁tross	-9.31952
▁såkalte	-9.3208
▁ring	-9.32325
▁1900	-9.3243
kra	-9.32444
pol	-9.32557
▁skje	-9.32595
▁finner	-9.3265
lei	-9.32669
drift	-9.32818
▁port	-9.32875
▁500	-9.32883
cy	-9.32921
▁benyttet	-9.32929
▁dyr	-9.32946
▁dy	-9.33048
▁1967	-9.3311
▁1972	-9.33111
▁stadig	-9.33133
▁arten	-9.33292
ark	-9.33313
våg	-9.33315
▁olav	-9.33323
▁merke	-9.33431
felt	-9.33433
▁tegn	-9.33778
▁stiftet	-9.33788
▁1983	-9.33794
områder	-9.33828
▁bruke	-9.33996
▁finland	-9.34056
▁strøm	-9.34146
▁punkt	-9.3419
▁mm	-9.34235
skrift	-9.34235
▁kra	-9.34316
oppgave	-9.34341
▁viste	-9.34454
▁stockholm	-9.34482
▁dronning	-9.34487
▁ska	-9.3449
▁1981	-9.34493
▁korea	-9.34541
elser	-9.3473
20	-9.34787
▁avdeling	-9.34869
▁kul	-9.34933
▁ansvar	-9.34976
kraft	-9.35073
▁2016	-9.35194
familien	-9.35203
▁martin	-9.35206
▁organisasjon	-9.35297
▁område	-9.3552
▁skipet	-9.35549
▁bilde	-9.35596
▁plate	-9.35647
bygg	-9.35787
▁tal	-9.35811
▁sentrale	-9.35858
▁2015	-9.35901
nyin	-9.35915
fag	-9.35953
▁bodde	-9.35977
nett	-9.36091
området	-9.36345
е	-9.36595
mat	-9.36614
ider	-9.36644
ismen	-9.36707
▁japan	-9.36724
anlegg	-9.36754
▁es	-9.36849
▁vo	-9.36852
handling	-9.36891
▁resultat	-9.36894
trykk	-9.36908
▁west	-9.36919
▁ji	-9.36934
▁møtte	-9.36947
▁gar	-9.37038
▁eier	-9.37051
fest	-9.37064
▁eg	-9.37131
▁dal	-9.37149
▁mel	-9.37154
drag	-9.37174
▁heller	-9.37192
sky	-9.372
▁stod	-9.37253
▁iii	-9.37258
omme	-9.37291
▁ledelse	-9.37366
ida	-9.3743
▁mos	-9.37445
eid	-9.37454
▁arkitekt	-9.37571
▁valgte	-9.37642
▁cla	-9.37871
▁qu	-9.37908
oc	-9.3796
▁livet	-9.37961
▁leker	-9.38036
▁carl	-9.38109
▁vestlig	-9.38138
▁blod	-9.38143
▁vår	-9.38201
▁time	-9.38286
▁skjer	-9.38545
huset	-9.38636
bra	-9.38656
tør	-9.38739
▁sørvest	-9.38756
▁1976	-9.38763
▁1964	-9.38765
▁hall	-9.38783
tall	-9.38834
▁syv	-9.3887
▁gresk	-9.38926
▁opera	-9.39034
byen	-9.39044
ekte	-9.39092
sak	-9.39187
▁1987	-9.39491
▁endret	-9.39538
▁endte	-9.39577
▁maskin	-9.39645
▁fange	-9.397
▁drift	-9.39777
▁funksjon	-9.39784
▁olje	-9.39826
▁overtok	-9.39843
▁hæren	-9.39864
▁bjørn	-9.39865
▁lars	-9.39996
▁krav	-9.40003
▁island	-9.40024
▁para	-9.40193
▁øverst	-9.40219
ita	-9.40292
▁engelske	-9.40303
▁prosess	-9.40324
▁forsvar	-9.4037
▁besøk	-9.40404
▁ap	-9.40465
▁figur	-9.40466
▁fyr	-9.40575
▁finne	-9.40972
▁egentlig	-9.40975
▁tett	-9.40994
nev	-9.41024
arbeid	-9.41062
▁cor	-9.41163
▁eiendom	-9.4119
▁skrift	-9.41216
▁tapte	-9.4127
ban	-9.41289
gar	-9.41294
▁høsten	-9.41435
cc	-9.41467
▁plante	-9.4149
▁inter	-9.41549
fjell	-9.41585
▁arm	-9.41597
▁drama	-9.4161
▁studie	-9.41699
messig	-9.417
▁1975	-9.41711
▁1920	-9.41721
▁felt	-9.41747
sjef	-9.41765
▁militære	-9.41826
ix	-9.41898
▁trykk	-9.41938
▁stemme	-9.41998
▁sommeren	-9.42114
▁60	-9.42152
ød	-9.42229
▁oppdaget	-9.42309
▁sag	-9.42421
▁tilsvarende	-9.42457
▁oppkalt	-9.42461
nsk	-9.42466
▁sivil	-9.42511
▁sesong	-9.42511
▁skape	-9.42659
▁nrk	-9.42671
▁havet	-9.42732
▁hår	-9.42772
abel	-9.4285
fang	-9.42855
▁nu	-9.42893
▁son	-9.42897
▁grå	-9.42937
▁effekt	-9.43081
▁anders	-9.43103
▁red	-9.43157
gan	-9.4319
▁relativ	-9.43215
▁thomas	-9.43234
▁standard	-9.43235
▁brann	-9.43255
fri	-9.43298
▁gren	-9.4334
▁bolig	-9.43819
hy	-9.43829
▁leir	-9.43866
▁privat	-9.43901
▁areal	-9.43993
ull	-9.44018
▁grand	-9.44047
▁kyst	-9.44281
▁data	-9.44349
är	-9.44393
senter	-9.44493
mannen	-9.44493
▁fil	-9.44534
72	-9.44566
musikk	-9.44674
42	-9.44692
▁gutt	-9.44721
navnet	-9.4474
▁australia	-9.44747
▁sovjetunionen	-9.44747
▁canada	-9.44748
▁1973	-9.44757
▁1969	-9.44758
▁fylkesvei	-9.44777
▁grev	-9.44845
▁selskap	-9.44886
▁ten	-9.44916
▁vold	-9.4493
ano	-9.4499
▁dom	-9.45077
▁student	-9.45106
ola	-9.45111
▁bur	-9.45156
rat	-9.45175
skapet	-9.45193
kast	-9.452
▁asia	-9.452
▁mente	-9.45294
37	-9.45481
ð	-9.45522
virkning	-9.45525
▁1948	-9.45532
forbund	-9.45534
▁stavanger	-9.45536
▁totalt	-9.4554
▁alder	-9.45556
▁400	-9.45604
▁brø	-9.45671
▁ledd	-9.45735
ice	-9.45753
▁sha	-9.45801
▁vol	-9.45817
▁sosial	-9.45839
reis	-9.4585
▁mester	-9.4591
▁moh	-9.46007
▁viktige	-9.46054
▁formel	-9.46156
organisasjon	-9.4618
▁los	-9.46208
▁museum	-9.46265
▁lenge	-9.46295
▁hvilke	-9.46305
▁kristne	-9.46305
▁hertug	-9.46307
▁lengde	-9.46329
▁fremdeles	-9.46333
▁klasse	-9.46376
ativ	-9.46386
kin	-9.46403
dekke	-9.46479
▁pl	-9.46622
▁miste	-9.46885
▁styrke	-9.46895
▁george	-9.46906
▁can	-9.46939
linje	-9.47018
ringer	-9.47059
▁1982	-9.47098
▁1968	-9.47105
▁xi	-9.47136
74	-9.47277
plat	-9.47333
retning	-9.47343
▁tanke	-9.47428
▁transport	-9.47491
▁thor	-9.47516
▁solgt	-9.47518
▁pris	-9.47537
itz	-9.47549
▁gran	-9.47588
ari	-9.47613
о	-9.4788
▁informasjon	-9.47885
▁ph	-9.47897
▁lengre	-9.47906
▁bakgrunn	-9.47914
▁mod	-9.47916
▁slekten	-9.47999
med	-9.48181
▁sammenheng	-9.48185
▁mal	-9.48188
▁gri	-9.4829
▁slike	-9.48329
båt	-9.48452
▁personlig	-9.48614
▁1974	-9.487
▁nederlandsk	-9.48711
▁fot	-9.48841
▁hopp	-9.48918
fisk	-9.4895
44	-9.48981
▁kro	-9.4903
fører	-9.49083
▁latin	-9.49111
▁størrelse	-9.49116
ama	-9.4922
▁verne	-9.49233
heng	-9.4926
kjønn	-9.49322
▁danne	-9.49355
▁hit	-9.49362
lik	-9.49366
rakt	-9.4937
▁ac	-9.49436
produksjon	-9.49462
søk	-9.49464
▁plassert	-9.49485
▁sju	-9.49486
▁teknisk	-9.49491
▁1952	-9.49505
▁sikre	-9.4955
▁region	-9.49702
roll	-9.49708
▁kampen	-9.49756
▁regjering	-9.49785
rit	-9.4984
36	-9.49869
skolen	-9.49876
rør	-9.49892
ledes	-9.49963
▁ep	-9.49969
fin	-9.49989
▁fas	-9.50019
don	-9.50181
▁sti	-9.50197
▁start	-9.50246
▁kardinal	-9.50304
▁1977	-9.50315
▁gje	-9.50317
ua	-9.50322
34	-9.50341
▁ytre	-9.50421
lia	-9.50436
giver	-9.50454
▁ii	-9.50462
▁regn	-9.50522
▁symbol	-9.50558
▁80	-9.50564
▁lær	-9.50679
▁stre	-9.50716
▁heter	-9.50763
▁franc	-9.509
ör	-9.50924
oli	-9.50939
gift	-9.50955
92	-9.5099
▁air	-9.51059
▁nordvest	-9.5113
systemet	-9.51161
våpen	-9.51189
loven	-9.51201
▁union	-9.51235
gle	-9.51299
▁nan	-9.51345
▁forsknings	-9.51347
▁grupper	-9.5145
elva	-9.51518
▁glo	-9.51546
ini	-9.5163
▁produksjon	-9.51649
▁posisjon	-9.51713
▁tall	-9.51718
▁politikk	-9.51724
▁hær	-9.51735
standen	-9.51765
▁fest	-9.51778
▁produkt	-9.51793
ball	-9.51884
▁kart	-9.51925
▁not	-9.51965
▁rap	-9.51967
▁mw	-9.5203
rike	-9.5205
az	-9.52158
gruppe	-9.52229
▁fulgte	-9.52259
▁smal	-9.52301
68	-9.52381
▁legge	-9.52415
▁koloni	-9.52417
▁len	-9.52511
▁daglig	-9.52536
▁tung	-9.52537
▁japansk	-9.52644
gra	-9.5269
way	-9.527
▁løv	-9.52711
sal	-9.5274
▁sterk	-9.52746
▁borg	-9.52769
▁dan	-9.52799
▁vind	-9.52812
dra	-9.52827
▁debut	-9.52973
▁total	-9.53012
▁mulighet	-9.53048
all	-9.53055
dals	-9.53095
▁variant	-9.532
▁cm	-9.53292
ille	-9.53321
▁ball	-9.53376
▁300	-9.534
▁utdanne	-9.53413
▁løp	-9.53414
▁følger	-9.53534
iner	-9.53545
▁pass	-9.53556
▁mad	-9.53625
▁soldater	-9.5364
▁1930	-9.53643
▁befolkning	-9.53686
▁enhet	-9.5369
▁syd	-9.53718
mengde	-9.53736
▁real	-9.5379
▁styrker	-9.53797
▁egg	-9.53837
▁marine	-9.53888
▁anlegget	-9.5403
bygging	-9.54077
▁redaktør	-9.54085
gul	-9.54117
▁kraftverk	-9.54342
▁ønsket	-9.54423
ish	-9.54438
▁jorden	-9.54444
р	-9.54471
▁1985	-9.54483
▁kh	-9.54509
▁syk	-9.54525
▁regi	-9.54622
gikk	-9.54624
bri	-9.54742
▁super	-9.54823
▁karriere	-9.55184
løse	-9.55208
38	-9.55271
▁johannes	-9.55341
66	-9.55355
▁omfattende	-9.55366
67	-9.55381
▁ban	-9.55446
▁rik	-9.55508
▁journalist	-9.55579
▁reform	-9.55619
▁fugl	-9.5592
▁war	-9.56015
alis	-9.56024
ã	-9.56188
▁1936	-9.56204
▁sub	-9.56207
▁passer	-9.56268
rek	-9.56272
industri	-9.56286
▁don	-9.56299
▁feil	-9.56302
▁endring	-9.56305
08	-9.56318
hall	-9.56319
▁leve	-9.56366
▁klubb	-9.56409
▁gård	-9.56418
fart	-9.56422
▁sterke	-9.56445
▁mørke	-9.56475
▁por	-9.56542
ub	-9.56607
bud	-9.5664
▁grense	-9.5664
▁distrikt	-9.56676
formet	-9.56725
▁drev	-9.56739
▁ind	-9.56773
▁greske	-9.56867
▁søk	-9.56912
64	-9.56931
▁dagen	-9.56932
▁østerrike	-9.57059
▁vokste	-9.57083
▁salt	-9.57098
ara	-9.57099
▁you	-9.571
gangen	-9.57112
55	-9.57118
52	-9.57126
▁jens	-9.57151
rådet	-9.57154
ologisk	-9.57193
lem	-9.57193
språk	-9.57231
ås	-9.5731
makt	-9.57401
ani	-9.5741
▁skapt	-9.57456
▁enten	-9.57467
▁rygg	-9.57467
bor	-9.57504
▁hundre	-9.57539
▁revolusjon	-9.57556
grense	-9.57631
organ	-9.57693
iserte	-9.57694
▁teori	-9.5791
qui	-9.57962
▁gjennomført	-9.58031
▁hvite	-9.58033
ay	-9.5812
parti	-9.58127
▁trak	-9.58156
▁ordenen	-9.58179
▁design	-9.58272
dor	-9.58299
▁begrepet	-9.58351
▁modell	-9.58363
ib	-9.58368
fal	-9.58385
▁prosjekt	-9.58459
▁bad	-9.58469
ich	-9.58493
bas	-9.58615
▁jern	-9.58615
▁delvis	-9.58676
▁fylkes	-9.58731
side	-9.58795
▁spania	-9.58844
vitenskap	-9.58949
▁benyttes	-9.58957
periode	-9.58959
uf	-9.58971
▁produksjons	-9.59066
▁sende	-9.59116
▁fjorden	-9.59119
▁psyk	-9.59144
▁virksomhet	-9.59147
handler	-9.593
▁uni	-9.59369
tegn	-9.59373
▁holder	-9.59444
▁base	-9.59479
ringen	-9.59497
▁uavhengig	-9.59523
51	-9.59677
ú	-9.59713
▁trøndelag	-9.59713
▁vunnet	-9.59713
kapasitet	-9.59713
▁henhold	-9.59752
▁egypt	-9.59857
▁knut	-9.59871
▁gass	-9.59895
▁bygde	-9.59916
spor	-9.60016
▁utviklingen	-9.60019
rop	-9.60051
▁bøker	-9.60086
▁problem	-9.60088
høy	-9.60122
stol	-9.60283
▁kreve	-9.60322
▁musiker	-9.60331
▁elev	-9.60358
▁ger	-9.60513
95	-9.6052
▁cap	-9.60574
▁trener	-9.60575
78	-9.60597
▁gjelder	-9.60613
▁religion	-9.60614
▁etterhvert	-9.60614
▁richard	-9.60614
teknikk	-9.60615
▁kontakt	-9.60619
▁bygningen	-9.6062
▁1944	-9.6063
▁skjedde	-9.60632
▁1940	-9.60636
▁type	-9.60695
▁kast	-9.60776
uc	-9.60781
▁nasjonale	-9.60791
▁rus	-9.60832
▁artene	-9.6087
▁raskt	-9.60884
▁lek	-9.60902
▁ekspedisjon	-9.6091
▁grenser	-9.60914
▁beskrive	-9.6093
▁jobbet	-9.6101
▁nådd	-9.61124
▁kroner	-9.612
plasser	-9.61203
▁kilde	-9.61242
bank	-9.61401
tta	-9.61435
lighet	-9.61451
70	-9.61494
senteret	-9.61509
▁publisert	-9.6153
▁musikkalbum	-9.61547
mus	-9.61643
mul	-9.61742
parten	-9.61773
folkerepublikken	-9.61775
vogn	-9.61779
81	-9.61924
▁aktivitet	-9.61955
ze	-9.61999
▁historien	-9.62123
▁lan	-9.62212
▁ramme	-9.6222
▁sel	-9.62225
▁debutert	-9.62296
án	-9.62385
▁fotballspiller	-9.62471
på	-9.6248
▁city	-9.62497
▁lære	-9.62583
▁sky	-9.62597
tale	-9.62603
▁dyp	-9.62665
▁innført	-9.62679
kjenn	-9.62691
▁bla	-9.62693
▁brev	-9.62699
▁dia	-9.62712
▁folket	-9.62742
▁ze	-9.62745
▁sørlige	-9.62762
▁gården	-9.62797
cia	-9.62809
▁undersøkelse	-9.62858
▁ken	-9.62878
▁middel	-9.6292
▁områdene	-9.62959
▁nivå	-9.62997
stra	-9.6311
▁mas	-9.63151
▁frank	-9.63177
▁representere	-9.63366
▁motsetning	-9.63367
▁bronse	-9.63375
▁nærheten	-9.6343
▁fører	-9.63431
zhou	-9.63459
▁mid	-9.63582
lser	-9.63588
eksjon	-9.63613
verket	-9.6371
▁beskrevet	-9.63767
▁hei	-9.6377
que	-9.63791
▁sku	-9.63815
56	-9.63817
▁spørsmål	-9.63875
▁metall	-9.63898
▁høyere	-9.63936
▁sø	-9.63989
▁oppdag	-9.64064
46	-9.64221
▁rike	-9.64275
▁materiale	-9.64279
▁international	-9.64301
▁ytterligere	-9.64301
▁michael	-9.64301
▁årlig	-9.64315
▁1966	-9.64317
▁regjerings	-9.64374
grunn	-9.64375
ort	-9.64401
rich	-9.64432
▁vers	-9.64455
▁produsere	-9.64539
ves	-9.64542
virke	-9.64563
bare	-9.64614
rum	-9.64668
▁hell	-9.64795
▁rekord	-9.64834
▁klarte	-9.64875
▁cl	-9.64938
▁klart	-9.64951
▁forskning	-9.65172
▁fremst	-9.65176
▁1961	-9.65244
▁nødvendig	-9.65244
▁spesiell	-9.65244
▁komponist	-9.65244
▁typisk	-9.65248
▁kristen	-9.6525
▁1971	-9.65257
▁bø	-9.65373
ult	-9.65401
▁økonomisk	-9.65427
park	-9.65446
▁vitenskapelig	-9.65449
▁oppført	-9.65494
▁ci	-9.65521
▁naturlig	-9.65531
▁høre	-9.65606
▁strekk	-9.6561
▁vik	-9.65759
▁christ	-9.65802
rud	-9.6582
▁ven	-9.6596
aktig	-9.65989
vesen	-9.66043
▁spar	-9.66083
gjorde	-9.66141
▁original	-9.66197
▁opprinnelse	-9.66197
▁beijing	-9.66197
▁1924	-9.66207
tek	-9.66222
kirke	-9.66236
▁james	-9.66254
60	-9.66285
holm	-9.66329
▁femte	-9.66435
▁spill	-9.66626
▁grønn	-9.66658
▁innehold	-9.66681
▁liga	-9.66693
▁helge	-9.66724
pet	-9.66779
▁instrument	-9.66801
lapp	-9.66812
▁fro	-9.67019
assi	-9.67042
▁snakke	-9.67159
▁1946	-9.67173
▁ordfører	-9.67181
▁bass	-9.67186
▁finans	-9.67215
▁spre	-9.67278
lly	-9.67325
▁varme	-9.67327
▁dato	-9.67403
▁polen	-9.67469
▁skips	-9.6747
▁plassering	-9.6747
▁hor	-9.67476
ā	-9.67561
▁behold	-9.6757
liv	-9.67589
▁bern	-9.67642
▁bind	-9.67643
▁veg	-9.67689
▁sent	-9.67733
▁rad	-9.67735
▁un	-9.6777
▁presse	-9.67845
▁internasjonal	-9.68001
ville	-9.68096
▁melodi	-9.68133
▁bronsemedalje	-9.68139
høgskole	-9.68194
trolig	-9.68256
plikt	-9.68268
▁måneder	-9.6827
63	-9.68306
valg	-9.68425
▁che	-9.68448
kunst	-9.68454
leng	-9.68466
▁holm	-9.68484
stedet	-9.68517
stått	-9.68549
slekt	-9.68568
tog	-9.68612
▁slå	-9.6862
▁teknologi	-9.68646
▁kall	-9.68971
aksjon	-9.68976
▁senter	-9.69001
è	-9.69059
partiet	-9.69089
▁produsent	-9.69092
▁organisasjonen	-9.69104
▁national	-9.6911
▁berømt	-9.69117
▁2017	-9.69127
▁charles	-9.69133
▁tele	-9.69171
▁90	-9.6921
▁virkelig	-9.69233
gren	-9.69275
▁gard	-9.69319
▁tusen	-9.69331
62	-9.69376
album	-9.69406
▁polsk	-9.69412
kommune	-9.69447
▁byer	-9.6947
trekk	-9.69505
▁bygning	-9.69546
▁stammer	-9.69634
▁ob	-9.69661
▁stoppe	-9.69753
▁stav	-9.69804
▁adel	-9.69809
bakk	-9.69823
ira	-9.69917
▁munn	-9.69951
▁konflikt	-9.70099
▁avhengig	-9.70101
▁høyt	-9.70117
tti	-9.70134
▁protest	-9.70138
▁runde	-9.7015
▁operasjon	-9.70241
▁regel	-9.70258
midler	-9.70285
trinn	-9.70304
▁sjef	-9.70314
kjøp	-9.70335
39	-9.70376
▁cup	-9.70376
under	-9.70382
tic	-9.70389
▁utført	-9.70447
▁økonomi	-9.70517
▁opphav	-9.70529
▁irland	-9.70563
▁forfatteren	-9.70568
▁wal	-9.70605
▁toppen	-9.70627
▁åpne	-9.70649
▁ære	-9.70687
▁valget	-9.70843
▁huset	-9.70846
selskapet	-9.70895
н	-9.71089
▁united	-9.71101
▁1958	-9.71114
▁front	-9.71116
▁kysten	-9.71192
▁fc	-9.71379
▁nabo	-9.7138
sjonen	-9.7153
▁ce	-9.71536
▁vanlige	-9.71593
▁70	-9.71819
▁behandling	-9.71947
▁fredrik	-9.72105
▁alternativ	-9.7211
▁klassisk	-9.72111
▁albert	-9.72122
▁1956	-9.72126
▁lansert	-9.7213
▁unntak	-9.7213
off	-9.72176
field	-9.72207
▁forsøkt	-9.72218
ved	-9.72271
manns	-9.72307
▁handling	-9.72433
fon	-9.72434
bladet	-9.72534
▁lev	-9.72563
41	-9.72586
stall	-9.72591
øyene	-9.726
dagen	-9.72655
▁skj	-9.72842
▁hest	-9.72856
▁sir	-9.72893
▁avisen	-9.72914
▁het	-9.7297
▁teksten	-9.72993
▁pat	-9.73028
▁ung	-9.73086
▁økonomiske	-9.73091
▁danse	-9.731
▁øvrig	-9.7313
▁stortinget	-9.73134
mand	-9.73145
▁1962	-9.73145
▁sommerfugl	-9.73146
▁bevart	-9.73157
▁scene	-9.73173
▁dyre	-9.73186
▁markeds	-9.73191
▁venn	-9.7321
▁renner	-9.73281
cha	-9.73282
▁trafikk	-9.73319
▁korte	-9.73323
ies	-9.7343
delen	-9.73456
arter	-9.73469
▁sette	-9.73495
program	-9.73519
af	-9.73541
▁just	-9.7355
▁kjerne	-9.73563
nivå	-9.73574
47	-9.73704
▁ek	-9.73732
press	-9.73738
arbeider	-9.73982
▁distriktet	-9.74029
▁rute	-9.7403
▁lar	-9.7404
▁bord	-9.7408
▁nærings	-9.74136
kum	-9.74147
▁ekteskap	-9.74169
58	-9.742
linjen	-9.74203
▁idretts	-9.74327
ance	-9.74379
▁stykke	-9.74405
▁est	-9.74419
ova	-9.74519
tha	-9.74556
vatnet	-9.74597
▁35	-9.7473
▁temperatur	-9.74763
▁lign	-9.74772
▁vitenskap	-9.74826
▁rot	-9.7483
▁direktør	-9.74868
▁høye	-9.74872
ild	-9.7488
▁old	-9.74889
vekt	-9.74971
tilfelle	-9.75004
▁anne	-9.75088
hel	-9.75114
▁inspirert	-9.75203
▁installert	-9.75203
▁1918	-9.75215
▁1947	-9.75218
▁saint	-9.75228
93	-9.75232
▁black	-9.75264
▁jevn	-9.7527
▁riksvei	-9.75296
▁østlig	-9.75325
▁kinas	-9.75505
wi	-9.75523
▁forteller	-9.75607
▁typer	-9.75608
▁strid	-9.75616
▁nils	-9.75634
vert	-9.75653
klubb	-9.75685
86	-9.75691
▁faren	-9.75724
▁sund	-9.75748
▁kol	-9.75846
▁tema	-9.75854
▁char	-9.76044
▁populær	-9.76049
▁vist	-9.76098
▁betegnelsen	-9.76106
▁åpen	-9.76163
▁pol	-9.76181
▁1949	-9.76255
▁arabisk	-9.76256
▁søster	-9.76305
▁streng	-9.76337
▁opprinnelige	-9.76437
▁strand	-9.76584
6	-9.76672
▁aust	-9.76717
dels	-9.76734
komst	-9.76774
▁us	-9.76876
▁problemer	-9.76925
ith	-9.76966
▁fn	-9.77009
▁sørge	-9.77152
▁sport	-9.77185
▁gitar	-9.77288
▁fengsel	-9.77319
▁kritikk	-9.7732
76	-9.77348
▁åpning	-9.77441
57	-9.77466
stripe	-9.77565
▁hovedstaden	-9.77713
▁selve	-9.77738
▁led	-9.77821
▁vannet	-9.77826
▁falt	-9.77863
▁bestemt	-9.77912
77	-9.77958
▁lund	-9.77966
▁prøve	-9.78007
▁cent	-9.78018
▁hente	-9.78092
85	-9.78143
kjør	-9.78166
43	-9.7818
▁vær	-9.78244
win	-9.78254
07	-9.78359
her	-9.78375
à	-9.78394
▁elektrisk	-9.78394
▁skottland	-9.78394
▁øvre	-9.78395
kilde	-9.78407
▁spredt	-9.78411
▁1963	-9.78411
▁1908	-9.78413
▁jarl	-9.78424
hard	-9.78488
▁spanske	-9.78513
▁landbruk	-9.78522
▁wo	-9.78532
▁rollen	-9.78534
▁kontor	-9.78569
▁bud	-9.78579
▁tog	-9.78597
▁sko	-9.78629
ney	-9.78665
▁sær	-9.788
▁bol	-9.78804
90	-9.78813
▁ube	-9.78932
møte	-9.78944
of	-9.78955
hopp	-9.78992
88	-9.79004
▁bestemte	-9.79014
lek	-9.79035
haug	-9.7904
▁drive	-9.79066
▁fordelt	-9.79142
▁lind	-9.7916
▁konkurransen	-9.79166
sberg	-9.79223
▁tittel	-9.79233
▁bidra	-9.79293
▁tang	-9.7934
▁årsak	-9.79344
▁kam	-9.79345
▁passasjer	-9.79481
▁profesjonell	-9.79481
▁tolv	-9.79488
▁tidspunkt	-9.79493
▁beskytte	-9.7952
▁straffe	-9.79619
▁georg	-9.79663
▁bevis	-9.79689
shire	-9.7975
▁styrt	-9.7979
gram	-9.80008
▁utdanning	-9.80065
bjørn	-9.80066
▁forsvars	-9.80086
▁kontrakt	-9.80173
▁rh	-9.80191
▁vinner	-9.80214
▁harald	-9.80255
iz	-9.80287
▁turist	-9.80288
byr	-9.80296
▁vet	-9.80301
innen	-9.80302
▁blokk	-9.80315
▁lot	-9.80347
▁utgave	-9.80399
▁stille	-9.804
▁uke	-9.80498
▁kommet	-9.8057
▁bel	-9.80575
▁wilhelm	-9.8058
▁sjelden	-9.8058
▁nærmest	-9.80582
▁eid	-9.80598
▁fullført	-9.80605
▁kg	-9.80614
▁bydel	-9.80637
kanten	-9.80645
▁flyplass	-9.80647
eksamen	-9.80658
▁gått	-9.80688
▁effektiv	-9.80752
▁danner	-9.80785
▁offentlige	-9.80867
▁gall	-9.80928
▁fjern	-9.80979
▁historiker	-9.81006
▁dog	-9.81032
▁tids	-9.81159
▁song	-9.81162
▁mes	-9.81215
rsom	-9.81311
shi	-9.81314
▁anna	-9.81339
59	-9.81371
▁bane	-9.81406
▁sovjetisk	-9.81453
▁kvinnelig	-9.81503
▁røde	-9.81516
▁preget	-9.81522
▁studenter	-9.81561
▁kost	-9.81582
ux	-9.81588
▁ting	-9.81612
▁våren	-9.81624
▁administrativ	-9.81691
▁henholdsvis	-9.81704
▁jazz	-9.81706
vig	-9.81765
▁fla	-9.8177
▁mangler	-9.81787
▁1600	-9.81791
▁shi	-9.81795
71	-9.81867
▁jean	-9.8196
ky	-9.81992
▁hovedstad	-9.82096
skifte	-9.82139
con	-9.822
▁epi	-9.82206
▁lage	-9.82285
▁program	-9.82304
▁populære	-9.82376
▁hodet	-9.82377
ben	-9.8243
▁tradisjonelle	-9.82517
▁vid	-9.82518
▁livs	-9.82539
▁løper	-9.82626
▁utdannelse	-9.82664
▁nederland	-9.82796
▁mexico	-9.82815
▁hurtig	-9.82815
▁louis	-9.82815
▁nevnt	-9.82815
▁south	-9.8282
▁1965	-9.82841
▁klima	-9.82841
▁formål	-9.82845
▁hovedsak	-9.82865
▁utnytte	-9.8287
last	-9.82871
▁samfunns	-9.82888
dia	-9.82955
forsker	-9.82998
trær	-9.83034
▁will	-9.83058
▁filmer	-9.83088
▁rå	-9.83105
69	-9.83143
fil	-9.83266
▁sendte	-9.83271
▁poly	-9.83389
kirken	-9.83416
løpet	-9.83419
prosjekt	-9.83436
▁akademi	-9.8351
▁allierte	-9.83571
54	-9.83654
vinner	-9.83677
stemt	-9.83705
▁programmet	-9.8372
▁atom	-9.83798
ios	-9.83821
▁dar	-9.83824
▁stand	-9.83828
▁spillet	-9.83887
eks	-9.83924
▁sistnevnte	-9.83951
▁tilgjengelig	-9.83951
▁utbredt	-9.83951
▁moskva	-9.83951
▁hustru	-9.83953
ori	-9.84034
▁øyene	-9.84044
dring	-9.84078
▁jakt	-9.84085
▁she	-9.84119
▁kongelige	-9.84219
▁ungdoms	-9.8424
▁athen	-9.8436
▁krets	-9.84369
gal	-9.8441
▁foss	-9.84434
▁kanon	-9.84517
distrikt	-9.84596
historie	-9.84603
▁jag	-9.84608
▁heng	-9.84628
▁kjøre	-9.84693
▁båt	-9.84741
▁rein	-9.84749
jev	-9.84755
▁svak	-9.84767
ordning	-9.84802
▁zh	-9.84847
▁bydelen	-9.84857
vende	-9.84871
▁forbi	-9.84915
hund	-9.84984
klær	-9.85009
▁fisk	-9.85093
▁ishockey	-9.85101
▁oversikt	-9.85102
▁yngre	-9.85102
▁hjerte	-9.85103
▁sølvmedalje	-9.85118
▁1939	-9.85118
teri	-9.85122
▁omtalt	-9.85132
▁tenn	-9.85168
▁arkitektur	-9.85211
mod	-9.85219
▁henry	-9.85223
▁kull	-9.85234
▁landsbyen	-9.85272
▁politiet	-9.85402
har	-9.85432
▁status	-9.85443
▁filosofi	-9.85473
▁gy	-9.85477
▁sykdom	-9.85531
▁sider	-9.85584
▁oppsto	-9.85614
▁stoff	-9.85633
▁rose	-9.85667
▁single	-9.85682
▁offiser	-9.85773
skudd	-9.85778
middel	-9.8578
73	-9.85861
▁elv	-9.85869
▁sier	-9.8587
zz	-9.859
åp	-9.85905
gler	-9.85906
▁formann	-9.86081
▁hjelpe	-9.86117
gaard	-9.86146
79	-9.86147
▁cal	-9.86213
medlem	-9.86244
▁bosetning	-9.86265
▁sekund	-9.86272
▁1957	-9.8628
▁video	-9.8629
▁frukt	-9.86293
▁spiss	-9.86327
▁flertall	-9.86331
25	-9.86351
▁behov	-9.86357
▁die	-9.86403
▁metal	-9.86435
▁32	-9.8644
▁harry	-9.86484
klubben	-9.86691
▁synes	-9.86692
turnering	-9.86715
feltet	-9.86727
▁angrepet	-9.86841
tis	-9.86869
mot	-9.86898
▁lignende	-9.86912
▁utvidet	-9.87027
▁utover	-9.87089
ordenen	-9.87093
▁institutt	-9.87123
kh	-9.87149
▁lån	-9.8715
bø	-9.87251
lid	-9.87343
99	-9.87385
▁fullstendig	-9.8744
▁glass	-9.87441
▁sluttet	-9.87443
▁nærmere	-9.87446
▁hoff	-9.87477
hjul	-9.87478
▁erklært	-9.87502
gon	-9.87562
gard	-9.8761
ata	-9.87618
▁mun	-9.8768
▁stasjonen	-9.8777
skjold	-9.87811
▁bevegelse	-9.87867
▁fjellet	-9.87967
jiang	-9.87974
gjort	-9.88034
▁masse	-9.88037
▁north	-9.88051
▁fordel	-9.88086
▁landskapet	-9.88095
▁dø	-9.88104
▁buss	-9.88126
▁normalt	-9.88149
▁flu	-9.88192
▁rang	-9.88281
▁larven	-9.88315
endt	-9.88353
▁haug	-9.8837
▁star	-9.88373
følgende	-9.88414
slav	-9.88431
▁skilt	-9.88563
▁fremme	-9.88597
hastighet	-9.88631
▁jødisk	-9.88631
▁norrøn	-9.88634
▁bispedømme	-9.88638
▁lufthavn	-9.88643
▁1919	-9.88643
▁1955	-9.88651
gjøre	-9.88668
▁win	-9.88685
▁1500	-9.88702
mur	-9.88762
▁bosatt	-9.88853
▁jøde	-9.88876
▁utvalg	-9.8888
▁organisert	-9.88912
▁kaptein	-9.88923
rag	-9.88946
▁solo	-9.88987
ugh	-9.89047
▁enda	-9.89073
▁konkurranse	-9.8918
▁ok	-9.89247
virksomhet	-9.89391
▁støttet	-9.89428
grav	-9.89429
bøker	-9.89437
▁arn	-9.89541
▁bytte	-9.89567
▁trekke	-9.89579
▁overleve	-9.89607
gin	-9.89682
▁ansatt	-9.89724
▁sten	-9.89754
▁kåre	-9.89768
▁møter	-9.89779
▁hill	-9.89785
▁joseph	-9.89835
▁league	-9.89835
▁records	-9.89835
▁sportsutøver	-9.89835
▁sykehus	-9.89849
▁metode	-9.89857
▁snø	-9.89873
stasjonen	-9.89919
disk	-9.90028
▁hed	-9.90086
▁oppdrag	-9.90102
ima	-9.90107
verdig	-9.90109
tag	-9.9019
▁sports	-9.90199
farge	-9.90213
▁endelig	-9.90235
saker	-9.90465
▁hode	-9.90514
▁stol	-9.90535
▁struktur	-9.90541
▁erobret	-9.90577
ahl	-9.90605
forfatter	-9.90629
qua	-9.90656
▁kjøpe	-9.90676
band	-9.90727
lov	-9.90881
▁horn	-9.90952
▁sveits	-9.90956
▁trekk	-9.90956
enberg	-9.90963
▁fal	-9.90967
rov	-9.90992
▁etterfulgt	-9.91055
▁introdusert	-9.91055
▁tilknytning	-9.91055
▁kombinert	-9.91055
▁stadion	-9.91059
▁kropps	-9.91063
▁1943	-9.91072
18	-9.91073
▁1942	-9.91078
▁jule	-9.91111
▁veldig	-9.91114
▁score	-9.91125
kov	-9.91131
▁bibel	-9.91131
▁overfor	-9.91193
▁oppnådd	-9.91308
▁grunnlag	-9.91364
▁arve	-9.91399
▁larvene	-9.91434
ij	-9.91482
lund	-9.91482
▁skille	-9.91535
ial	-9.91663
▁økt	-9.91667
pan	-9.91699
▁ris	-9.91752
94	-9.91767
▁timer	-9.91827
figur	-9.91879
▁py	-9.91879
ografi	-9.91891
kultur	-9.91893
06	-9.91922
▁45	-9.91938
avdeling	-9.91952
▁hunnen	-9.91958
▁ram	-9.91977
▁avsluttet	-9.92017
▁bit	-9.92073
▁prosjektet	-9.92113
▁ky	-9.92134
▁bakken	-9.92221
▁østerriksk	-9.92289
▁minutter	-9.9229
▁folketelling	-9.9229
støt	-9.92294
▁1932	-9.92303
bisk	-9.9233
▁gru	-9.92335
▁øke	-9.92354
▁vendt	-9.92359
▁tegnet	-9.92412
sam	-9.92436
lon	-9.92445
▁storm	-9.92454
▁edderkopp	-9.92493
▁cu	-9.9254
samisk	-9.92635
▁overført	-9.92641
▁prisen	-9.9266
▁landsby	-9.9268
▁master	-9.92682
▁lavere	-9.92683
øst	-9.92775
mesterskapet	-9.92797
▁kok	-9.92878
hai	-9.92924
▁dynastiet	-9.92932
nik	-9.92955
48	-9.93049
▁auto	-9.93083
97	-9.93145
▁provins	-9.93194
serien	-9.93299
lang	-9.93421
▁bj	-9.93432
14	-9.93516
sekretær	-9.93526
▁utgangspunkt	-9.93539
▁episode	-9.9354
▁royal	-9.93542
strekning	-9.93545
▁1928	-9.93548
▁1959	-9.93556
▁yu	-9.93558
▁salme	-9.93559
▁sist	-9.93622
ms	-9.93637
▁luk	-9.93683
vind	-9.93755
▁kampene	-9.93871
▁ansatte	-9.93893
▁mary	-9.93935
arbeidet	-9.93959
▁verket	-9.94081
▁nes	-9.94105
▁styrkene	-9.9414
▁nr	-9.94166
politikk	-9.94236
dommen	-9.94288
▁andreas	-9.94331
▁dam	-9.94422
havn	-9.94485
fugl	-9.94552
▁stig	-9.94576
▁magasin	-9.94592
▁sur	-9.94608
wer	-9.94637
▁måned	-9.94639
stoff	-9.94681
▁lø	-9.9472
▁pop	-9.94736
▁anta	-9.94755
▁ukjent	-9.94805
▁hovedrollen	-9.9481
▁snart	-9.9481
blomst	-9.94829
▁blomster	-9.94829
▁myr	-9.94834
▁driver	-9.94838
▁styret	-9.95037
▁gil	-9.95074
▁amt	-9.95125
▁versjonen	-9.95264
pass	-9.95314
grupper	-9.95518
98	-9.95603
▁sul	-9.95606
▁bibliotek	-9.95633
ple	-9.95668
▁tromsø	-9.9568
gården	-9.95749
▁bredt	-9.9576
ora	-9.9585
▁tour	-9.95875
strid	-9.95911
▁kanal	-9.95936
▁tidlige	-9.96001
▁listen	-9.96026
▁univers	-9.96068
▁innflytelse	-9.96082
▁world	-9.96087
▁generelt	-9.96088
▁betrakte	-9.96089
komité	-9.96096
regn	-9.96113
▁motiv	-9.96117
lege	-9.96135
▁forkorte	-9.96151
soldat	-9.96192
kammer	-9.96375
▁unn	-9.96379
brakt	-9.96436
▁fylket	-9.96467
▁mill	-9.96684
▁innhold	-9.96742
jon	-9.96864
person	-9.96872
serie	-9.96978
▁riket	-9.97173
▁forskere	-9.97187
▁spansk	-9.97246
strøm	-9.97301
▁pin	-9.97317
▁studio	-9.97381
▁antagelig	-9.97386
▁nordisk	-9.97386
▁school	-9.97386
▁cirka	-9.97387
▁regissert	-9.97387
▁kunnskap	-9.97387
▁betegne	-9.9739
▁fungere	-9.97395
▁1913	-9.97396
▁1912	-9.974
▁mytologi	-9.97402
kompleks	-9.97406
▁skotsk	-9.97415
▁sau	-9.97418
▁rykke	-9.97451
ula	-9.9746
▁dekket	-9.97501
▁lyn	-9.97509
handel	-9.97519
▁kommunal	-9.9758
▁overgang	-9.97593
▁behandle	-9.97634
spekt	-9.97695
mf	-9.97779
▁iso	-9.97781
▁maler	-9.9783
▁150	-9.97839
blad	-9.97877
▁klo	-9.97926
▁sho	-9.98023
▁begynner	-9.98052
▁elektron	-9.98092
eringen	-9.98093
▁press	-9.98094
15	-9.98196
▁landene	-9.98205
deles	-9.98226
87	-9.98328
▁may	-9.98348
▁karakter	-9.98378
▁music	-9.98391
▁600	-9.98395
▁bygg	-9.98403
▁mak	-9.98464
hode	-9.98548
▁jon	-9.98573
▁offisielt	-9.98702
▁edward	-9.98702
▁alpin	-9.9871
▁hotell	-9.98715
▁lengst	-9.98736
▁ask	-9.98739
post	-9.98747
motor	-9.9875
ric	-9.98836
▁dekker	-9.98866
▁utstilling	-9.98901
▁damp	-9.98903
▁romanen	-9.99001
båter	-9.99021
▁ansvarlig	-9.99106
▁religiøse	-9.99123
▁gangen	-9.99136
▁omfatte	-9.9921
tunnelen	-9.9936
yang	-9.99372
byrå	-9.99376
32	-9.99394
▁opphold	-9.99402
89	-9.99439
skytter	-9.99597
▁internasjonalt	-9.99678
fjellet	-9.99689
low	-9.99725
stykke	-9.99735
▁middelalderen	-9.99857
▁cd	-9.99878
▁vinge	-10.0003
в	-10.0003
ledning	-10.0003
▁anerkjent	-10.0003
▁verdenscup	-10.0004
▁primær	-10.0004
▁publikum	-10.0004
▁element	-10.0004
▁frederik	-10.0004
▁antenne	-10.0005
▁menighet	-10.0005
▁1941	-10.0005
▁1938	-10.0006
▁armé	-10.0013
dam	-10.0014
▁meg	-10.002
▁test	-10.0023
▁bombe	-10.0024
▁gold	-10.0025
▁redd	-10.0028
▁utføre	-10.0028
▁levde	-10.0029
▁peder	-10.0033
mund	-10.0042
▁max	-10.0044
▁gun	-10.0045
▁maur	-10.0049
deler	-10.0063
▁føl	-10.0066
▁foreldre	-10.0071
▁sw	-10.0077
▁tha	-10.0081
▁kandidat	-10.0089
▁omtale	-10.009
▁nordland	-10.0097
▁cre	-10.0104
hjem	-10.0113
voll	-10.0119
▁800	-10.0123
kamera	-10.0129
ón	-10.0129
forhold	-10.0136
▁california	-10.0139
▁jacob	-10.0139
▁alvorlig	-10.0139
▁bølge	-10.0142
▁kilder	-10.0144
▁angeles	-10.0144
▁prins	-10.0148
▁ekstra	-10.0149
35	-10.0156
skipet	-10.0158
din	-10.0165
▁øyne	-10.0167
▁bestod	-10.0168
▁singel	-10.0176
slått	-10.0177
▁ann	-10.0189
▁inntekt	-10.0192
▁sort	-10.0194
▁besto	-10.0204
oni	-10.0218
▁sønnen	-10.0226
▁pen	-10.0228
eppe	-10.0231
▁kap	-10.0231
▁salg	-10.0239
▁utøver	-10.0243
visning	-10.0245
▁johann	-10.025
maskin	-10.0251
▁nam	-10.0252
31	-10.0265
▁retts	-10.0268
▁vokal	-10.0269
▁irsk	-10.0269
▁forskjell	-10.0271
▁skatte	-10.0271
▁erkebiskop	-10.0276
▁terreng	-10.0276
▁bidro	-10.0276
▁stiftelse	-10.0276
▁medlemmene	-10.0277
▁1933	-10.0277
▁college	-10.0277
▁1935	-10.0277
▁1954	-10.0277
▁riktig	-10.0278
▁tradisjonel	-10.0279
▁bekrefte	-10.028
klo	-10.0282
▁agder	-10.0292
▁innsjøen	-10.0296
firma	-10.0302
▁klassen	-10.0306
▁likhet	-10.0316
orp	-10.0321
▁samfunn	-10.0342
verdi	-10.0346
96	-10.0357
▁ran	-10.0359
26	-10.0362
▁kvart	-10.0374
▁tonn	-10.0378
▁korn	-10.0379
▁linjen	-10.0383
▁studier	-10.0383
▁kari	-10.0384
trafikk	-10.0389
miljø	-10.0389
▁selvstendig	-10.039
▁kara	-10.0392
språklig	-10.0396
kjær	-10.0399
▁utga	-10.0399
▁rask	-10.0408
▁bakke	-10.0409
▁litterær	-10.0417
▁sete	-10.0417
▁frykt	-10.0417
▁1910	-10.0418
▁diplomat	-10.0418
▁jordbruk	-10.042
▁portrett	-10.0421
▁detalj	-10.0424
▁republikken	-10.0425
▁flykte	-10.0427
▁private	-10.0429
▁elve	-10.0433
▁bonde	-10.0436
jord	-10.0437
▁luc	-10.0437
plassen	-10.0443
▁hud	-10.0444
▁forekommer	-10.0444
▁systemet	-10.0452
19	-10.0453
▁stå	-10.0457
▁aker	-10.0461
▁viking	-10.0462
▁kjøl	-10.0473
▁uker	-10.0475
valget	-10.0475
▁solgte	-10.0481
▁forble	-10.0491
gata	-10.0496
▁ungdom	-10.0502
▁ild	-10.0503
▁mørk	-10.0509
tallet	-10.0517
01	-10.0519
▁eva	-10.0523
▁verd	-10.0531
konkurranse	-10.0531
utvikling	-10.0532
forskning	-10.0533
▁bevege	-10.0536
▁mono	-10.0539
▁sentralt	-10.0551
elli	-10.0553
▁vesentlig	-10.0555
▁himmel	-10.0555
▁ødelagt	-10.0556
▁vekst	-10.0556
▁tidsskrift	-10.0557
▁overflate	-10.0557
▁1951	-10.0558
▁1937	-10.0558
▁län	-10.0559
fu	-10.056
▁varierer	-10.0562
▁nedlagt	-10.0567
29	-10.0568
▁hydro	-10.0569
▁inkluderer	-10.0571
▁handel	-10.0573
▁praksis	-10.0585
▁andreplass	-10.059
ppel	-10.0593
ifisert	-10.0594
▁1700	-10.0599
▁foruten	-10.0604
▁hund	-10.0611
▁ari	-10.0615
bakken	-10.0626
24	-10.0628
▁oversatt	-10.063
▁økte	-10.064
12	-10.0642
▁skyld	-10.0659
▁75	-10.0676
▁oppnå	-10.0679
▁gruve	-10.0679
kraftverk	-10.0682
pel	-10.0683
bygget	-10.0684
lyn	-10.0684
▁representanter	-10.0696
▁friidrett	-10.0698
▁fødsel	-10.0698
▁hendelser	-10.0698
▁major	-10.0698
▁tydelig	-10.0698
▁definert	-10.0699
▁ridder	-10.0699
▁oppløst	-10.0699
▁gjeld	-10.0701
▁forsvaret	-10.0701
▁bortsett	-10.0703
▁hellas	-10.0709
▁innsjø	-10.0711
▁ledende	-10.0712
▁produksjonen	-10.0716
marked	-10.072
lam	-10.0723
▁utstyr	-10.0731
▁foreningen	-10.0734
▁artikkel	-10.075
▁artist	-10.0757
▁stilte	-10.076
mba	-10.0763
lokk	-10.0771
▁grunnla	-10.0772
back	-10.0774
▁tale	-10.0781
▁gjeste	-10.079
foss	-10.0791
type	-10.0793
▁play	-10.0802
styrken	-10.0803
rygg	-10.0812
komiteen	-10.0819
bach	-10.0821
▁up	-10.0823
▁app	-10.0835
▁1904	-10.0843
▁eksempler	-10.0843
▁redusert	-10.0843
▁blanding	-10.0844
▁forårsake	-10.0844
▁1922	-10.0844
▁utenlandsk	-10.0844
▁invest	-10.0845
▁skiftet	-10.0847
▁gitarist	-10.086
▁sammenlagt	-10.0863
▁undervisning	-10.0865
▁markert	-10.0881
▁oversettelse	-10.0883
▁wien	-10.0888
▁dør	-10.0891
formede	-10.0895
▁vedtatt	-10.0906
▁laste	-10.0911
▁kommuner	-10.0921
▁tråd	-10.0922
▁unngå	-10.0922
holdsvis	-10.0929
▁slave	-10.0935
▁saken	-10.0943
▁verv	-10.0944
car	-10.0945
well	-10.0957
▁bygda	-10.0964
prosess	-10.0971
▁besøkt	-10.0976
▁fv	-10.0983
▁uttale	-10.0987
arrangement	-10.099
▁initiativ	-10.099
▁1953	-10.099
▁alexander	-10.099
▁tilhørte	-10.099
▁tilknyttet	-10.099
▁ødelegge	-10.099
▁dollar	-10.099
▁fjernsyn	-10.0992
▁1915	-10.0992
▁oscar	-10.0992
▁skaffe	-10.0994
▁dømt	-10.0996
▁forretnings	-10.0996
▁stabil	-10.0998
▁kapell	-10.0998
▁whi	-10.1005
▁tørr	-10.1007
▁tunnel	-10.1014
tank	-10.1016
▁antatt	-10.102
vinger	-10.1022
▁bidrag	-10.1027
▁kvalitet	-10.1039
▁nar	-10.1041
▁fremste	-10.1041
▁insekter	-10.1042
▁avtale	-10.1044
▁former	-10.1044
hol	-10.1048
skyting	-10.1051
bevegelsen	-10.1052
▁måten	-10.1061
▁tvil	-10.1062
▁slott	-10.1079
▁imot	-10.1079
▁penger	-10.1085
▁administrasjons	-10.1086
▁niels	-10.1088
▁1000	-10.1099
▁representant	-10.1108
▁statlig	-10.1113
fylt	-10.1118
▁fartøy	-10.1122
hånd	-10.1125
▁kontinent	-10.1139
▁ungarn	-10.114
▁drammen	-10.114
▁1925	-10.1141
▁nasjonalpark	-10.1142
▁kode	-10.1143
▁arne	-10.1146
▁vakt	-10.1146
▁anledning	-10.1146
▁wall	-10.1147
▁tilhenger	-10.1148
▁ö	-10.1153
▁selge	-10.1156
▁team	-10.1163
▁fantes	-10.1166
▁morgen	-10.1176
▁kalk	-10.1179
rac	-10.1181
▁keiseren	-10.1204
▁och	-10.1209
kommisjon	-10.1216
▁latinsk	-10.122
kompani	-10.1224
▁mini	-10.1233
vika	-10.1239
11	-10.1244
▁kapp	-10.1249
▁starten	-10.125
▁jente	-10.1251
▁odd	-10.1255
▁bay	-10.126
▁solen	-10.126
▁antallet	-10.1262
▁nm	-10.1266
nov	-10.1275
45	-10.1279
samfunn	-10.1281
halvøya	-10.1281
tittel	-10.1282
angrep	-10.1283
festivalen	-10.1283
▁fan	-10.1291
▁1905	-10.1291
▁deriblant	-10.1291
▁godkjent	-10.1291
▁kategori	-10.1291
▁objekt	-10.1291
▁finnmark	-10.1291
▁forbundet	-10.1291
▁faktisk	-10.1291
▁eksistert	-10.1292
▁myndighetene	-10.1292
▁invasjon	-10.1292
▁1921	-10.1292
▁arbeiderpartiet	-10.1293
▁otto	-10.1295
▁fortellingen	-10.1296
ania	-10.1296
▁planlagt	-10.1297
▁føde	-10.1302
▁innsats	-10.1306
▁egenskap	-10.1307
rommet	-10.1313
▁fjord	-10.132
krig	-10.1325
▁demokratisk	-10.133
▁frø	-10.133
▁spenning	-10.134
▁sosiale	-10.1343
▁troll	-10.1348
illa	-10.1356
▁elever	-10.1359
▁hind	-10.136
områdene	-10.1361
▁lønn	-10.1363
▁kjell	-10.1363
▁bygninger	-10.1365
▁planter	-10.1366
▁nettverk	-10.1378
▁maleri	-10.1392
elv	-10.1397
▁nø	-10.1397
jö	-10.1399
▁king	-10.1409
▁landskap	-10.1409
▁festival	-10.1413
klar	-10.1423
▁700	-10.1435
äl	-10.144
▁dokumenter	-10.1445
▁ludvig	-10.1445
▁belgia	-10.1445
▁nektet	-10.1445
▁telemark	-10.1446
▁daniel	-10.145
▁pensjon	-10.1451
typen	-10.1453
krets	-10.1458
▁malt	-10.1462
▁hellige	-10.1469
▁polar	-10.1471
jan	-10.148
▁verker	-10.1484
▁motta	-10.1485
duk	-10.1492
▁kil	-10.1499
herre	-10.15
▁meta	-10.1502
vol	-10.1503
▁bry	-10.1504
klassen	-10.1512
mond	-10.1515
▁institusjon	-10.1517
▁hammer	-10.1521
▁musikalsk	-10.1533
▁samarbeidet	-10.1544
▁log	-10.1554
▁hull	-10.1558
▁skiller	-10.1569
000	-10.1575
▁uttalte	-10.1585
84	-10.159
dikt	-10.1593
▁fritt	-10.1594
▁nasjon	-10.1598
vokst	-10.1601
▁individ	-10.1601
▁beseiret	-10.1601
▁doktorgrad	-10.1601
▁positiv	-10.1601
▁umiddelbar	-10.1601
▁kristiansand	-10.1601
▁orkester	-10.1601
▁nominert	-10.1601
▁innspilling	-10.1602
▁grunnlegger	-10.1602
situasjon	-10.1602
dyktig	-10.1602
▁1923	-10.1603
▁1914	-10.1603
rick	-10.1604
▁programmer	-10.1607
▁islam	-10.1611
▁gjenopp	-10.1613
▁1898	-10.1615
▁makten	-10.1629
23	-10.1631
sats	-10.1642
▁hve	-10.1644
▁løsning	-10.1646
▁fyrste	-10.1646
▁junior	-10.1654
zy	-10.1657
▁long	-10.1662
▁manus	-10.1665
▁green	-10.1668
▁båten	-10.1673
▁tekster	-10.1678
ago	-10.1684
▁begrep	-10.1685
▁samfunnet	-10.1688
gått	-10.1689
▁hov	-10.1696
▁administrasjon	-10.1697
▁festning	-10.1712
16	-10.1712
▁cur	-10.1713
ulf	-10.1715
laten	-10.1722
▁fokus	-10.1736
▁grov	-10.174
▁ark	-10.1741
▁din	-10.1744
▁sammenligne	-10.1744
istene	-10.1748
▁bunn	-10.1748
▁priser	-10.1755
riket	-10.1755
▁arrangere	-10.176
▁kombinasjon	-10.176
▁america	-10.176
▁begrenset	-10.176
▁1917	-10.1761
▁1901	-10.1761
▁indisk	-10.1769
castle	-10.1772
▁evne	-10.1774
▁dommer	-10.1776
▁deltaker	-10.1776
pat	-10.1777
strand	-10.1793
▁vokser	-10.1794
▁registrert	-10.1798
▁liberal	-10.18
▁bull	-10.1801
17	-10.1804
▁størst	-10.1807
▁deles	-10.1808
nos	-10.1817
▁modellen	-10.1818
svarer	-10.1819
▁klosteret	-10.1831
ax	-10.1832
▁sikker	-10.1834
▁skudd	-10.1838
▁ønsker	-10.1841
stokk	-10.1848
bær	-10.1854
speil	-10.1855
ledet	-10.1856
▁aller	-10.1856
livet	-10.1861
aria	-10.1862
▁bære	-10.1862
bukta	-10.1869
kampen	-10.187
▁formen	-10.1875
▁grunnlov	-10.1884
▁cou	-10.1885
▁rør	-10.1888
feld	-10.1897
▁starter	-10.1914
bånd	-10.1918
▁anlegg	-10.1921
▁grønland	-10.1921
▁kommunikasjon	-10.1921
▁science	-10.1921
▁ekstrem	-10.1921
▁nedbør	-10.1921
▁fattig	-10.1921
▁scott	-10.1921
▁referere	-10.1921
basert	-10.1921
▁terror	-10.1922
▁sjette	-10.1922
▁signal	-10.1922
▁1926	-10.1923
▁fløy	-10.1923
▁generasjon	-10.1923
▁1934	-10.1924
▁erfaring	-10.1925
▁high	-10.1925
▁dvs	-10.1926
▁turneringen	-10.1927
▁rob	-10.1928
▁hersker	-10.1931
▁krevd	-10.1931
▁tverr	-10.1931
▁vokalist	-10.1932
▁aksje	-10.1934
▁celle	-10.1937
▁frakte	-10.1941
▁tilbud	-10.1942
▁østover	-10.1945
dorf	-10.1948
listen	-10.1951
▁stål	-10.1954
skij	-10.1957
vannet	-10.1959
▁nordover	-10.1963
▁handle	-10.1972
▁ankom	-10.1972
▁250	-10.1977
▁troms	-10.198
▁bob	-10.1988
▁dobbelt	-10.1993
▁brenn	-10.2004
▁stemmer	-10.2014
▁kjemisk	-10.2015
27	-10.2034
▁medisin	-10.2045
▁cro	-10.2047
▁kai	-10.2055
▁kjempe	-10.207
setting	-10.2071
hild	-10.2079
▁eide	-10.208
▁fru	-10.2081
gymnas	-10.2085
▁mektig	-10.2085
▁nevnes	-10.2085
▁premier	-10.2086
▁club	-10.2086
▁befinne	-10.2087
▁jackson	-10.2088
vekst	-10.2089
▁beslutte	-10.2089
hem	-10.2091
▁banen	-10.2095
▁butikk	-10.2097
bøkene	-10.2099
▁tredjeplass	-10.2101
▁mesterskap	-10.2104
▁sankt	-10.2107
▁bryst	-10.211
▁tyskerne	-10.2111
▁shan	-10.2117
ity	-10.2118
▁nedre	-10.2124
tysk	-10.2132
▁håp	-10.2138
øvelse	-10.2144
▁snu	-10.2145
▁funn	-10.2146
▁gress	-10.2148
▁fli	-10.2157
▁regional	-10.2157
stjerne	-10.2162
▁venner	-10.2167
▁brand	-10.2167
ico	-10.2168
▁utstyrt	-10.217
▁hul	-10.2185
▁gli	-10.2187
hov	-10.2188
▁roller	-10.2211
ín	-10.2218
▁utvikle	-10.222
83	-10.2235
▁korps	-10.2244
forbundet	-10.2246
▁vinne	-10.2247
▁advokat	-10.2252
▁milliarder	-10.2252
▁alfred	-10.2252
▁dialekt	-10.2252
▁akershus	-10.2252
▁frivillig	-10.2252
▁publi	-10.2252
ов	-10.2253
▁1911	-10.2253
▁geografisk	-10.2253
produsent	-10.2255
effekt	-10.2255
front	-10.2257
nummer	-10.2259
▁modern	-10.2261
▁thi	-10.2264
row	-10.2281
▁fortalt	-10.2282
▁intern	-10.232
syre	-10.2321
▁forskjellig	-10.2323
▁spise	-10.2323
▁33	-10.2336
▁teologi	-10.2344
▁tradisjonell	-10.2349
▁kloster	-10.2351
▁populært	-10.2353
rekke	-10.2357
liste	-10.2357
▁kreft	-10.2365
dommer	-10.2382
▁hamar	-10.2401
bygning	-10.2412
onia	-10.2414
▁konkurrere	-10.2421
▁hensikt	-10.2421
▁individuell	-10.2421
konferanse	-10.2421
bak	-10.2421
▁analyse	-10.2422
▁unntatt	-10.2423
▁1927	-10.2423
▁1929	-10.2423
prinsipp	-10.2424
▁signert	-10.2424
▁lykte	-10.2424
matisk	-10.2428
▁utgaven	-10.2436
21	-10.2436
bærer	-10.2438
▁nederlag	-10.2442
bygningen	-10.2443
▁dj	-10.2449
▁sunn	-10.2459
▁avtalen	-10.246
▁parlamentet	-10.2462
▁utbygging	-10.2463
▁melk	-10.2466
▁velge	-10.2476
▁underlagt	-10.2478
▁bevegelsen	-10.2482
▁kjempet	-10.2488
▁tilhøre	-10.2497
ische	-10.2497
wald	-10.2498
▁kjemi	-10.2511
▁geo	-10.2512
▁eik	-10.2518
82	-10.2518
▁bou	-10.252
polis	-10.2544
▁misjons	-10.2547
una	-10.2549
▁rulle	-10.2549
▁museet	-10.2551
▁kanalen	-10.2559
▁hannen	-10.2562
▁verdensmester	-10.2564
▁registr	-10.2565
gaten	-10.257
▁ross	-10.2573
▁tropper	-10.2574
▁typen	-10.2578
▁rund	-10.258
▁parken	-10.2593
▁involvert	-10.2594
▁manuskript	-10.2594
▁edvard	-10.2594
▁bodø	-10.2594
▁romsdal	-10.2595
▁etterfølger	-10.2596
▁fortsette	-10.2597
▁bånd	-10.2597
▁strekningen	-10.2597
▁karrieren	-10.2598
kysten	-10.2601
▁brygge	-10.2602
museum	-10.2603
▁anvende	-10.2604
president	-10.2605
▁avholdt	-10.2608
kontor	-10.2613
▁simon	-10.2613
▁gyl	-10.2614
▁petter	-10.2615
▁lykke	-10.2622
▁trond	-10.2623
▁eli	-10.2638
▁grim	-10.2644
▁kyr	-10.2645
gate	-10.2654
▁klokken	-10.2661
tropisk	-10.2683
▁ulik	-10.2696
▁sideelv	-10.2698
▁preg	-10.2721
stø	-10.2747
▁tiår	-10.2747
▁esp	-10.2755
▁stortings	-10.2759
yan	-10.2768
▁velger	-10.2769
▁helsingfors	-10.2769
▁midlertidig	-10.2769
▁regissør	-10.2769
▁byprefektur	-10.2769
▁eventuel	-10.2769
▁eventyr	-10.2769
▁nøyaktig	-10.2769
▁negativ	-10.2769
▁avdøde	-10.2769
▁jakob	-10.2769
▁award	-10.2769
▁autonom	-10.2769
▁hein	-10.2769
fysikk	-10.2769
▁papir	-10.2769
traktaten	-10.2769
kriminal	-10.2769
▁tegneserie	-10.277
aceae	-10.277
konvensjon	-10.2772
▁hitler	-10.278
bebyggelse	-10.2786
vold	-10.2786
▁forvingen	-10.2786
▁elver	-10.2791
▁andel	-10.2793
▁cuba	-10.2793
▁legger	-10.2795
▁graf	-10.2801
▁skjønn	-10.2806
▁uavhengighet	-10.2807
kryss	-10.2807
▁hindre	-10.2814
▁ansett	-10.2821
ømt	-10.2828
▁angel	-10.2829
▁tø	-10.2834
fond	-10.2842
▁camp	-10.2843
bøl	-10.2847
▁tropp	-10.2849
teori	-10.2855
▁følelse	-10.286
▁skriver	-10.287
▁ønske	-10.288
komedie	-10.2886
▁ingeniør	-10.2888
▁fjernet	-10.289
sikkerhet	-10.2892
33	-10.2897
▁bærer	-10.2914
▁tam	-10.2935
▁pakistan	-10.2948
▁tempel	-10.2948
▁gustav	-10.2948
▁fjær	-10.2948
▁bygger	-10.2948
▁fysisk	-10.2948
▁1916	-10.2949
▁smith	-10.295
▁1907	-10.295
▁studere	-10.2952
▁bilder	-10.2954
▁økende	-10.2957
ittisk	-10.2959
▁olsen	-10.2962
▁sikkerhets	-10.2964
problem	-10.2965
▁voksen	-10.2966
▁1890	-10.2967
▁artister	-10.2967
korps	-10.2967
tain	-10.2971
▁wales	-10.2974
kjell	-10.2984
▁synlig	-10.2986
▁cho	-10.2989
än	-10.2997
ington	-10.3005
▁ulykke	-10.3008
▁roger	-10.3015
▁gruppa	-10.3019
▁benytter	-10.3021
ntin	-10.3027
▁paus	-10.3035
▁såkalt	-10.3036
skilt	-10.304
▁cra	-10.3045
▁etnisk	-10.3061
91	-10.3069
vatn	-10.3069
▁idrettslag	-10.307
▁buk	-10.3073
familie	-10.3079
drakt	-10.3097
rute	-10.3116
▁kommunistisk	-10.3117
▁koll	-10.312
▁900	-10.3123
▁street	-10.3124
▁vegg	-10.3126
friidrettsutøver	-10.3129
▁barcelona	-10.3129
▁friedrich	-10.3129
▁fenomen	-10.3129
▁kommando	-10.3129
▁integr	-10.313
▁sachsen	-10.313
▁forsvant	-10.313
▁adresse	-10.3131
▁tilfeller	-10.3132
▁nasjoner	-10.3132
▁medaljer	-10.3134
trukket	-10.3135
▁kristiania	-10.3137
▁oppmerksomhet	-10.3137
▁kjørt	-10.3145
rey	-10.3146
▁tykk	-10.3169
▁mottatt	-10.3175
▁steve	-10.318
kro	-10.3195
▁svar	-10.32
▁demokrati	-10.3206
krev	-10.3209
▁tromme	-10.321
kritiker	-10.3222
lé	-10.323
masse	-10.3234
▁rio	-10.3236
▁stamme	-10.3236
rakk	-10.3243
▁wei	-10.3251
forsyning	-10.326
▁festningen	-10.3294
kjøtt	-10.33
▁utløp	-10.3302
vulkan	-10.3313
kvalifisering	-10.3315
▁arrestert	-10.3315
▁guvernør	-10.3315
▁portugal	-10.3315
▁argument	-10.3315
▁service	-10.3315
opplæring	-10.3315
▁kommersiell	-10.3315
▁praktisk	-10.3315
▁svømme	-10.3315
▁rektor	-10.3315
▁nedenfor	-10.3316
▁slank	-10.3316
▁smak	-10.333
▁1899	-10.3333
politisk	-10.3338
statue	-10.3345
alitet	-10.3347
måte	-10.3347
▁karakteristisk	-10.3352
▁boka	-10.3357
▁ost	-10.3357
▁vor	-10.3368
▁normal	-10.3373
ön	-10.3374
▁platen	-10.3374
▁opprette	-10.3376
▁munk	-10.3377
▁mei	-10.3384
▁cri	-10.3385
▁tun	-10.3389
▁begynne	-10.3406
▁arv	-10.3407
▁myk	-10.3409
▁cand	-10.3416
▁bakkroppen	-10.3426
▁psykologi	-10.3434
stone	-10.3441
▁bio	-10.3447
▁frihet	-10.3452
givelse	-10.3455
▁jud	-10.348
▁rand	-10.3487
manuel	-10.3494
▁kristian	-10.3494
skill	-10.35
▁utelukke	-10.3503
▁washington	-10.3503
▁grunnleggende	-10.3503
▁antarktis	-10.3503
▁strøk	-10.3504
▁tømmer	-10.3505
▁overlevd	-10.3506
apparat	-10.3506
▁debatt	-10.3507
▁arkiv	-10.351
▁fler	-10.351
▁east	-10.3511
▁beregne	-10.3512
▁arena	-10.3512
▁etasje	-10.3513
▁resultatet	-10.3514
▁internett	-10.3517
kampanje	-10.3522
født	-10.3532
▁næringsliv	-10.3535
trådte	-10.354
▁sovjet	-10.3544
▁gradvis	-10.3547
stemme	-10.3551
▁opptatt	-10.3553
start	-10.3556
▁sof	-10.3561
fartøy	-10.3566
▁enkle	-10.3568
drevet	-10.3577
▁opptrådt	-10.358
tekst	-10.3593
▁skyte	-10.3594
▁raf	-10.3598
alisme	-10.3606
karriere	-10.361
▁tronen	-10.3619
▁bestemme	-10.3619
▁wood	-10.362
▁finale	-10.3621
▁utsatt	-10.3625
▁betegnelse	-10.3643
vakt	-10.3658
▁landslag	-10.3664
▁barna	-10.368
▁1909	-10.3696
▁asteroide	-10.3696
▁hordaland	-10.3696
▁plattform	-10.3696
▁vurdert	-10.3696
▁etterkommer	-10.3696
▁eksisterer	-10.3696
▁hebraisk	-10.3696
▁gunnar	-10.3696
▁inngår	-10.3696
▁ombord	-10.3696
▁sprint	-10.3696
▁utgivelsen	-10.3699
▁konsul	-10.3699
▁mikro	-10.3699
▁meldt	-10.37
▁formula	-10.3701
▁turbin	-10.3702
▁reserve	-10.3703
com	-10.3709
▁ull	-10.3711
vandring	-10.372
▁magnet	-10.3724
▁with	-10.3728
▁levende	-10.3738
▁tann	-10.3744
▁løfte	-10.3759
grensen	-10.3761
later	-10.3766
▁motsatt	-10.3774
▁slottet	-10.3794
cio	-10.3799
utgivelse	-10.3799
▁vitne	-10.3806
▁120	-10.381
▁adam	-10.3816
▁nød	-10.3817
▁fotograf	-10.3833
▁intens	-10.3839
▁vanligst	-10.3845
▁institu	-10.3867
▁kommunestyre	-10.3876
phi	-10.3885
▁innbyggertall	-10.3892
▁rettigheter	-10.3892
▁jørgen	-10.3892
▁henrettet	-10.3892
▁hjerne	-10.3892
▁studioalbum	-10.3893
▁allianse	-10.3893
▁telefon	-10.3893
▁håkon	-10.3893
▁prinsesse	-10.3894
▁1906	-10.3894
▁bell	-10.3894
▁håndball	-10.3895
▁halvparten	-10.3895
▁kritisk	-10.3895
▁glad	-10.3898
▁feire	-10.3898
kapital	-10.3898
▁forbudt	-10.3898
▁grei	-10.3901
▁byggingen	-10.3901
▁respekt	-10.3904
▁reaksjon	-10.3908
▁fremført	-10.3909
▁skutt	-10.3915
aya	-10.3916
▁nylig	-10.3921
partner	-10.3921
▁white	-10.3922
magasin	-10.3925
▁eksemplarer	-10.3926
forbindelse	-10.3926
historisk	-10.3926
▁kommunist	-10.393
▁estland	-10.3933
▁arkeolog	-10.3934
▁flåte	-10.3935
▁innebære	-10.3943
13	-10.3954
▁satse	-10.3958
fel	-10.3961
▁villa	-10.3967
roman	-10.3973
▁unna	-10.3976
▁forsterke	-10.3983
▁beskrev	-10.4017
▁fulgt	-10.4017
▁sønd	-10.402
▁filosof	-10.4027
75	-10.4042
▁gjennomsnitt	-10.4043
▁flåten	-10.4048
mming	-10.4057
▁lid	-10.4059
hof	-10.406
able	-10.4061
▁arkeologisk	-10.4062
▁utvikler	-10.4067
22	-10.4084
myndighet	-10.4088
▁afghanistan	-10.4092
▁aleksander	-10.4092
▁konkurrert	-10.4092
▁okkupasjon	-10.4092
▁portugisisk	-10.4092
▁renessanse	-10.4092
▁engasjert	-10.4092
▁referanse	-10.4092
▁konsept	-10.4092
▁alkohol	-10.4092
▁company	-10.4092
ifikasjon	-10.4092
▁juridisk	-10.4092
▁kritisert	-10.4092
▁kongedømmet	-10.4092
▁zealand	-10.4092
▁syria	-10.4092
▁utseende	-10.4092
▁bispe	-10.4093
▁brown	-10.4093
▁kommun	-10.4094
ique	-10.4095
▁hensyn	-10.4096
▁britene	-10.4097
▁hvile	-10.41
▁forbunds	-10.411
▁orient	-10.4111
▁sikte	-10.4116
▁regime	-10.414
▁inge	-10.4145
bunn	-10.4148
▁santa	-10.4167
▁landslaget	-10.4179
planter	-10.418
▁malm	-10.4187
▁fortsetter	-10.4197
▁skatt	-10.4204
▁skinn	-10.4213
▁samtid	-10.4219
▁kim	-10.4225
avisen	-10.4228
▁beskrivelse	-10.4233
▁medisinsk	-10.4236
versjon	-10.4248
▁neu	-10.4285
head	-10.4287
▁vietnam	-10.4292
▁australsk	-10.4296
▁definisjon	-10.4296
▁færøyene	-10.4296
▁kjærlighet	-10.4296
▁embets	-10.4296
▁ungarsk	-10.4296
pedagog	-10.4296
▁redusere	-10.4296
▁langrenn	-10.4296
▁separat	-10.4296
▁hjal	-10.4296
▁brødrene	-10.4296
stråle	-10.4297
▁arendal	-10.4297
seminar	-10.4298
▁1931	-10.4298
▁anklage	-10.4298
▁skarp	-10.4299
▁filip	-10.4301
▁sverd	-10.4302
▁høyesterett	-10.4307
▁lake	-10.4307
▁eksport	-10.4309
▁skjøt	-10.4314
▁vestre	-10.4314
▁1897	-10.4315
▁kulturell	-10.4316
▁europe	-10.4317
▁1860	-10.4321
▁prix	-10.4322
oksid	-10.4324
▁vekk	-10.4324
produkt	-10.4335
▁sørover	-10.4336
bredden	-10.4341
▁1850	-10.4343
▁operatør	-10.4345
▁menneskelig	-10.4348
▁thu	-10.4351
▁furu	-10.4364
▁stam	-10.4366
ovn	-10.4369
▁hå	-10.4395
▁elite	-10.4401
▁utenriks	-10.441
brev	-10.4436
▁bau	-10.4436
▁religiøs	-10.4437
▁mah	-10.4452
▁penge	-10.4458
kutt	-10.4466
▁khan	-10.4475
enhver	-10.4487
misjon	-10.4489
▁skuespill	-10.4493
▁buskerud	-10.4504
▁intervju	-10.4504
▁angripe	-10.4504
▁county	-10.4504
▁manchester	-10.4504
▁stafett	-10.4504
▁skjønt	-10.4504
▁presentert	-10.4504
▁angi	-10.4504
▁valuta	-10.4504
▁dukket	-10.4505
▁molde	-10.4506
bokstav	-10.4506
▁påvirket	-10.4507
▁foreslått	-10.4508
▁drikke	-10.4512
▁lokalisert	-10.4514
▁rytter	-10.4515
▁humor	-10.4515
▁ey	-10.4518
▁etappe	-10.4519
▁legend	-10.4526
▁anlagt	-10.4526
▁dahl	-10.4528
▁christiania	-10.453
▁tvang	-10.4537
▁nordmenn	-10.4538
▁inngikk	-10.4542
▁ernst	-10.4543
▁gjenstand	-10.455
materiale	-10.4551
representant	-10.4551
programmet	-10.4554
▁histor	-10.4562
utstilling	-10.457
▁ordre	-10.457
▁tallrik	-10.4574
▁sving	-10.4584
▁halvdel	-10.4589
▁skall	-10.4596
▁kjenner	-10.46
wick	-10.4607
marsj	-10.4619
▁term	-10.4674
▁nazi	-10.4677
▁foto	-10.4683
▁saga	-10.4693
▁1903	-10.4717
▁territorie	-10.4717
▁prefektur	-10.4717
budsjett	-10.4717
ström	-10.4717
▁uansett	-10.4717
▁lørdag	-10.4717
▁global	-10.4717
▁etablering	-10.4717
▁magnus	-10.4717
▁zu	-10.4718
▁hørte	-10.4718
▁definere	-10.472
▁søndag	-10.472
▁dominerende	-10.4721
planlegging	-10.4722
▁gullmedalje	-10.4723
▁røtter	-10.4727
▁1200	-10.4727
▁antoni	-10.4729
▁wu	-10.4731
▁statsråd	-10.4758
▁chang	-10.4761
kontroll	-10.4768
▁kino	-10.4771
skyld	-10.4778
sønn	-10.4779
modell	-10.478
tagelse	-10.4792
▁euro	-10.4792
▁160	-10.4802
▁vingene	-10.4809
▁kontrollert	-10.481
▁schi	-10.4816
▁fett	-10.4817
▁anse	-10.4825
▁foreldrene	-10.4825
▁avslutte	-10.4829
▁skjær	-10.483
▁brem	-10.4849
▁bryte	-10.4858
▁vente	-10.4871
strømmen	-10.4881
▁sara	-10.4881
feng	-10.4915
▁vindu	-10.4923
▁liverpool	-10.4934
▁windows	-10.4934
▁tønsberg	-10.4934
▁østfold	-10.4934
▁yngste	-10.4934
▁gregor	-10.4934
▁wilson	-10.4934
alfabet	-10.4934
▁bærum	-10.4934
▁foregår	-10.4934
▁hendelsen	-10.4935
▁fjellkjede	-10.4935
▁ytterst	-10.4935
▁golf	-10.4935
▁forbedre	-10.4935
▁innvalgt	-10.4935
▁overraske	-10.4935
▁kongress	-10.4936
▁einar	-10.4936
▁konstruksjon	-10.4937
▁house	-10.4938
▁hovedkontor	-10.4939
▁ibsen	-10.4948
▁regler	-10.4951
▁sveitsisk	-10.4952
givende	-10.4953
▁innledet	-10.4956
▁johnson	-10.4965
lærer	-10.4966
▁utvidelse	-10.4971
dong	-10.4985
▁forklare	-10.4986
▁gjennomsnittlig	-10.4988
▁emil	-10.4999
vassdraget	-10.5004
maleri	-10.5012
▁million	-10.5016
kongen	-10.5031
▁fotballklubb	-10.5033
▁ligge	-10.5034
▁låten	-10.5043
talende	-10.505
▁brutt	-10.5071
rence	-10.5076
ståelse	-10.5079
▁hekk	-10.5085
▁benytte	-10.5087
28	-10.5094
▁fry	-10.5098
tasje	-10.5099
▁mala	-10.5104
▁avvist	-10.5117
runde	-10.5118
▁out	-10.5133
▁fargen	-10.5134
▁alv	-10.5135
▁drap	-10.5135
forvaltning	-10.5152
belteasteroide	-10.5156
▁svalbard	-10.5156
▁victoria	-10.5156
▁prøvd	-10.5156
▁returnert	-10.5156
▁strategisk	-10.5156
▁reklame	-10.5156
▁vestfold	-10.5156
▁stridsvogn	-10.5156
▁digital	-10.5157
▁rogaland	-10.5157
▁radikal	-10.5157
▁flyktning	-10.5157
▁andré	-10.5157
▁innlemme	-10.5157
▁elleve	-10.5158
▁opprettelsen	-10.5158
▁myndigheter	-10.5159
▁møre	-10.5159
▁generell	-10.5161
▁mynt	-10.5168
▁orgel	-10.5169
bury	-10.5175
▁sev	-10.5178
▁1885	-10.5181
▁middelalder	-10.5189
strup	-10.5196
▁persisk	-10.5205
skrevet	-10.5208
konsert	-10.5218
studie	-10.5222
▁mannlig	-10.5227
▁fremmed	-10.5236
▁kval	-10.5243
▁utarbeide	-10.5245
▁kontrollere	-10.525
▁musikal	-10.5254
▁gjeng	-10.5256
▁brei	-10.5265
▁falk	-10.527
▁comp	-10.5274
▁øre	-10.5282
▁urban	-10.5299
▁nav	-10.5334
▁egyptisk	-10.5347
▁130	-10.5372
▁naturreservat	-10.5384
▁ressurs	-10.5384
▁semifinalen	-10.5384
▁åpningsseremoni	-10.5384
▁minoritet	-10.5384
▁vilhelm	-10.5384
▁nicola	-10.5384
▁kjennetegn	-10.5384
▁kjøretøy	-10.5384
▁datamaskin	-10.5385
▁verdensrekord	-10.5385
▁mineral	-10.5385
▁hjørne	-10.5386
▁opplevd	-10.5386
▁stengt	-10.5387
▁wolf	-10.5387
▁import	-10.5388
▁vannkraftverk	-10.5388
▁brønn	-10.5389
botn	-10.539
▁antikken	-10.539
▁uklar	-10.5394
▁talent	-10.5402
▁hamburg	-10.5408
▁bystat	-10.5409
▁allmenn	-10.541
skjerm	-10.5422
▁nerve	-10.543
posisjon	-10.544
utvikle	-10.545
amerikanske	-10.545
▁bevisst	-10.5451
museet	-10.5455
høyskole	-10.5466
blokk	-10.5469
▁road	-10.5469
▁takke	-10.5477
▁game	-10.5479
fatte	-10.5488
bød	-10.5504
konsern	-10.5507
▁katedral	-10.554
blå	-10.5547
konge	-10.5548
▁usikker	-10.5562
vald	-10.5564
klasse	-10.5597
wich	-10.5608
horn	-10.5613
▁tyrkia	-10.5616
▁tyrkisk	-10.5616
▁nikola	-10.5616
▁etablere	-10.5617
▁utgravning	-10.5617
▁verdensarv	-10.5617
▁fjordane	-10.5617
▁besetning	-10.5617
▁klippe	-10.5618
▁røyk	-10.5618
▁flest	-10.5618
▁høst	-10.5618
▁sykkel	-10.5621
▁konservative	-10.5623
relatert	-10.563
▁metro	-10.5633
▁1887	-10.5637
▁nederst	-10.5637
▁1886	-10.5642
▁mobil	-10.5644
▁knap	-10.5653
▁inneha	-10.5655
▁hylle	-10.5656
▁home	-10.5657
vegg	-10.5658
olje	-10.5663
skatt	-10.5663
▁synd	-10.5664
▁river	-10.5671
▁synge	-10.5671
▁søkte	-10.568
▁stund	-10.5686
hjelp	-10.5688
kanalen	-10.5691
▁slette	-10.571
▁ferge	-10.5721
▁elektro	-10.5726
▁helst	-10.5727
variasjon	-10.5728
▁hil	-10.5737
▁trent	-10.5788
vall	-10.5827
løft	-10.5847
ografisk	-10.5849
▁eksperiment	-10.5854
▁1902	-10.5854
▁admiral	-10.5854
▁argentina	-10.5854
▁atmosfære	-10.5854
▁beslutning	-10.5854
▁bryllup	-10.5854
▁christopher	-10.5854
▁elisabeth	-10.5854
▁kronprins	-10.5854
▁münchen	-10.5854
▁nowiki	-10.5854
▁restaurant	-10.5854
▁eksisterende	-10.5854
▁hjort	-10.5854
▁fungerte	-10.5854
▁evangeli	-10.5854
veksling	-10.5854
tråling	-10.5854
▁amatør	-10.5855
▁statsborger	-10.5855
▁komponert	-10.5855
▁oppstår	-10.5855
▁ålesund	-10.5855
▁josef	-10.5855
▁dominert	-10.5855
▁forklaring	-10.5856
▁multi	-10.5856
▁fangst	-10.5856
▁rolf	-10.5856
▁huske	-10.5859
▁2018	-10.586
▁opptreden	-10.586
▁michel	-10.5864
▁rival	-10.5867
brødre	-10.5869
▁1891	-10.587
▁skyldes	-10.5871
▁prosti	-10.5872
▁panser	-10.5875
▁1848	-10.5877
▁jack	-10.5883
stipend	-10.5885
▁samtlige	-10.5901
spinner	-10.5902
▁pont	-10.5931
direktør	-10.5932
funn	-10.5934
▁antyde	-10.5936
stigning	-10.5953
▁dramatisk	-10.5954
cent	-10.5965
▁burde	-10.5976
▁from	-10.5985
zel	-10.5991
▁sies	-10.6011
▁mitt	-10.6022
mannskap	-10.6033
▁liber	-10.6082
▁straff	-10.6086
pend	-10.6092
gods	-10.6092
utvalg	-10.6093
▁angelsaksisk	-10.6098
▁göteborg	-10.6098
▁lillehammer	-10.6098
▁hjelm	-10.6098
▁fiction	-10.6098
▁unesco	-10.6098
▁misjonær	-10.6098
▁betydningsfull	-10.6098
▁avgjørende	-10.6098
▁verktøy	-10.6099
▁kulturminne	-10.6099
▁krysset	-10.61
▁group	-10.6103
▁oppleve	-10.6103
▁rednings	-10.6104
▁forvaltnings	-10.6104
▁onkel	-10.6107
▁tvunge	-10.6107
▁popul	-10.6108
▁1875	-10.6113
▁pels	-10.6116
▁1870	-10.613
▁blandet	-10.6135
▁lord	-10.6136
▁lettere	-10.6153
▁170	-10.6164
▁forstå	-10.617
▁akseptert	-10.618
ingeniør	-10.6181
institutt	-10.6183
regjering	-10.6184
▁solid	-10.6185
musiker	-10.6186
kreft	-10.6189
▁tjenestegjor	-10.6197
vidt	-10.6199
behandling	-10.6206
forsvar	-10.6231
prest	-10.6231
fyr	-10.6234
ān	-10.6243
▁klokke	-10.6268
▁hval	-10.628
frihet	-10.6292
sdatter	-10.6315
▁markere	-10.6319
tredende	-10.6344
▁amsterdam	-10.6348
▁assistent	-10.6348
▁forhindre	-10.6348
▁infanteri	-10.6348
▁maksimal	-10.6348
▁vedlikehold	-10.6348
▁oksygen	-10.6348
▁identitet	-10.6348
▁litauen	-10.6348
▁ovenfor	-10.6348
▁haugesund	-10.6348
▁thailand	-10.6348
▁aktuell	-10.6348
▁faktor	-10.6348
▁fiolin	-10.6348
▁utmerkelse	-10.6349
▁døpt	-10.6349
▁slippe	-10.6349
▁oblast	-10.635
▁betjene	-10.635
▁great	-10.6351
▁opptrer	-10.6351
▁situasjonen	-10.6352
▁skygge	-10.6358
syklus	-10.6363
▁volum	-10.6368
settelse	-10.6373
nnie	-10.6373
▁betale	-10.6377
▁walter	-10.6377
▁demningen	-10.638
støtte	-10.6382
▁queen	-10.6385
▁vestover	-10.6385
▁jury	-10.6388
▁kongelig	-10.639
▁personlighet	-10.6395
▁republikk	-10.64
▁tilpasse	-10.6406
profil	-10.6413
utenriksminister	-10.6426
▁aviser	-10.6433
bibliotek	-10.6438
▁server	-10.6446
illo	-10.6468
▁plast	-10.6502
sirkel	-10.6519
zon	-10.6534
kall	-10.6555
▁verb	-10.6566
vass	-10.6573
▁kjenne	-10.6582
bryter	-10.6602
▁bulgaria	-10.6605
▁konstruert	-10.6605
▁microsoft	-10.6605
▁mislykke	-10.6605
▁prestegjeld	-10.6605
▁påbegynt	-10.6605
▁sarpsborg	-10.6605
▁shanghai	-10.6605
▁vingespenn	-10.6605
rettighetene	-10.6605
▁embeds	-10.6605
▁innbyggerne	-10.6605
▁hyppig	-10.6605
▁yrkes	-10.6605
▁fiktiv	-10.6605
▁arthur	-10.6605
▁anerkjenne	-10.6605
hospital	-10.6605
▁brigade	-10.6605
▁soldatene	-10.6606
▁beskjed	-10.6606
▁jesus	-10.6606
▁manager	-10.6607
▁våt	-10.6607
▁markedet	-10.6607
▁inndelt	-10.6607
на	-10.6607
▁town	-10.6608
▁tjent	-10.6608
▁sverre	-10.6608
▁krysser	-10.6609
▁mannskapet	-10.6611
▁hevn	-10.6611
▁fyll	-10.6612
▁mandat	-10.6616
▁1400	-10.6618
▁rykte	-10.6621
▁oppfatte	-10.6623
▁georgia	-10.6623
batteri	-10.6628
palasset	-10.663
▁håndverk	-10.6637
▁avisa	-10.6638
▁enorm	-10.6639
▁utenom	-10.6643
▁tynn	-10.6643
sidig	-10.6644
▁beskyttelse	-10.6646
▁who	-10.6655
▁indianer	-10.666
▁thom	-10.669
kandidat	-10.6701
kontrakt	-10.6701
instrument	-10.6701
▁chris	-10.672
▁jam	-10.6734
tegning	-10.6739
▁arving	-10.6762
▁fortelle	-10.6791
▁bratt	-10.6815
▁dyrke	-10.6821
orientert	-10.6846
▁napoleon	-10.6868
▁fakultet	-10.6868
▁frilufts	-10.6868
▁gjaldt	-10.6868
▁jesuitt	-10.6868
▁tolkning	-10.6868
▁xiàn	-10.6868
▁lagkonkurransen	-10.6868
▁risiko	-10.6868
▁senior	-10.6868
▁kvalifisert	-10.6868
▁oppløsning	-10.6868
beordret	-10.6869
▁utpekt	-10.6869
▁titler	-10.6869
▁ektemann	-10.6869
▁distanse	-10.687
▁hedmark	-10.687
▁programleder	-10.6871
▁kongeriket	-10.6871
▁komposisjon	-10.6877
▁valley	-10.6878
▁1100	-10.6882
▁1884	-10.6888
▁tolke	-10.6888
▁1889	-10.6891
▁wild	-10.6892
▁1894	-10.6893
slutt	-10.6893
▁down	-10.6903
▁human	-10.6905
▁fokusere	-10.6908
▁stadie	-10.692
▁klage	-10.6929
▁oversette	-10.6933
▁flam	-10.694
fragment	-10.6941
▁variert	-10.6949
▁plei	-10.695
kalender	-10.6951
akademi	-10.6972
revolusjonen	-10.6983
snegl	-10.7041
dannelse	-10.7041
chel	-10.7045
▁aksept	-10.7048
hytte	-10.7063
▁innerst	-10.7078
▁poli	-10.7084
▁forberede	-10.7138
▁elizabeth	-10.7138
▁forfremme	-10.7138
▁invadert	-10.7138
▁invitert	-10.7138
▁resultert	-10.7138
▁utbredelse	-10.7138
▁velkjent	-10.7138
▁naturgass	-10.7138
▁permanent	-10.7138
▁midtøsten	-10.7138
▁preussen	-10.7138
▁uvanlig	-10.7138
bransjen	-10.7138
▁mekanisk	-10.7138
▁ordinær	-10.7138
▁tilfeldig	-10.7139
▁haakon	-10.7139
▁bedrifter	-10.7139
▁samlealbum	-10.7141
▁medvirket	-10.7142
▁alex	-10.7143
▁bønder	-10.7143
▁vennskap	-10.7147
▁sykdommer	-10.7148
▁fredrikstad	-10.7149
vitsj	-10.7151
▁bønn	-10.7151
▁fastlandet	-10.7152
▁1300	-10.7152
▁piano	-10.7156
▁1882	-10.7157
▁1896	-10.7161
▁klatre	-10.7161
▁konstantin	-10.7162
▁romerne	-10.7167
▁agent	-10.7168
▁brent	-10.7172
▁undervist	-10.7176
▁drepe	-10.7176
▁lunge	-10.7179
stevne	-10.7183
▁seire	-10.7189
▁keiserlig	-10.7222
▁erobre	-10.7247
gjerning	-10.7267
drive	-10.7282
▁olympi	-10.7286
samband	-10.7294
▁philip	-10.7322
▁rådhus	-10.7323
▁henri	-10.7327
8	-10.7397
▁dverg	-10.7413
nevner	-10.7415
▁antwerpen	-10.7416
▁hovedkvarter	-10.7416
▁jerusalem	-10.7416
▁jugoslavia	-10.7416
▁ludwig	-10.7416
▁middelsstor	-10.7416
▁okkupert	-10.7416
▁prøyssisk	-10.7416
▁champion	-10.7416
▁sluppe	-10.7416
▁florida	-10.7416
▁sigurd	-10.7416
▁barnehage	-10.7416
▁bakvingen	-10.7417
▁bayern	-10.7418
▁basil	-10.7421
7	-10.7422
▁programvare	-10.7423
▁kongsberg	-10.7423
▁bystyre	-10.7424
▁power	-10.7426
▁straks	-10.7432
▁avansert	-10.7432
▁1883	-10.7435
syssel	-10.7444
▁good	-10.7445
▁barneskole	-10.747
hvelv	-10.7474
▁gjennomføre	-10.7479
▁bestemmelse	-10.7505
▁philipp	-10.751
skrive	-10.7534
wood	-10.7535
struktur	-10.7535
temperatur	-10.7535
offiser	-10.7535
divisjon	-10.7536
register	-10.7551
automat	-10.7571
aften	-10.761
gutt	-10.7644
▁material	-10.7645
▁palass	-10.7675
toppen	-10.7686
▁lukke	-10.7695
direktoratet	-10.7702
▁columbia	-10.7702
▁innvandrer	-10.7702
▁inspirasjon	-10.7702
▁offensiv	-10.7702
▁progressiv	-10.7702
▁tsjekkoslovakia	-10.7702
▁virginia	-10.7702
▁æthel	-10.7702
▁forveksle	-10.7702
▁jomfru	-10.7702
▁oxford	-10.7702
▁tillatelse	-10.7702
▁erobring	-10.7702
▁testamente	-10.7702
▁trykt	-10.7702
▁forkropp	-10.7702
▁terminal	-10.7702
▁skjebne	-10.7702
▁fengsl	-10.7702
▁føderal	-10.7702
▁sukker	-10.7703
▁observasjon	-10.7704
▁redaksjon	-10.7704
▁firmaet	-10.7704
▁3166	-10.7705
▁imperi	-10.7706
økonomi	-10.7707
▁styreleder	-10.7708
▁kirkegård	-10.7709
▁geologisk	-10.771
▁gjentatt	-10.7712
▁senator	-10.7713
▁vandre	-10.7716
▁datert	-10.7716
▁jonas	-10.772
▁tjue	-10.772
▁palme	-10.7724
møll	-10.7726
▁montert	-10.7733
kasse	-10.7737
▁ørn	-10.7745
▁voss	-10.7746
▁tsje	-10.7749
▁morten	-10.775
▁selvstendighet	-10.7753
finalen	-10.7756
▁utvide	-10.776
▁dreie	-10.7761
opplevelse	-10.7771
▁katt	-10.7773
balanse	-10.7805
▁blind	-10.7808
rekord	-10.7839
▁vokse	-10.7907
næs	-10.7941
▁kollektiv	-10.7996
▁babylon	-10.7996
▁colombia	-10.7996
▁country	-10.7996
▁leipzig	-10.7996
▁nøytral	-10.7996
▁seremoni	-10.7996
▁sosialdemokrat	-10.7996
▁oppfatning	-10.7996
▁statistikk	-10.7996
▁geometri	-10.7996
▁fiendtlig	-10.7996
▁ansikt	-10.7996
▁kommentar	-10.7996
▁igjennom	-10.7996
▁oppfordre	-10.7996
▁dvd	-10.7997
▁belgisk	-10.7997
▁bemerket	-10.7997
▁seinere	-10.7997
▁nepal	-10.7997
▁utmerket	-10.7997
▁kristiansund	-10.7998
▁sydney	-10.7998
▁massiv	-10.7998
▁utgivelser	-10.7998
▁myrdet	-10.8
▁trenger	-10.8001
▁samuel	-10.8001
▁narvik	-10.8001
▁moderat	-10.8004
▁melding	-10.8005
▁zhang	-10.8005
▁holdning	-10.8005
▁söd	-10.8007
▁donau	-10.8007
▁interessert	-10.8007
▁hyper	-10.8008
▁kunstløp	-10.801
▁cross	-10.801
liknende	-10.8012
▁tenkt	-10.8016
▁tilsyne	-10.8017
▁ddr	-10.8017
▁bond	-10.8018
▁manglen	-10.803
platå	-10.8033
▁franz	-10.8033
jørn	-10.8035
▁kirk	-10.8054
domstol	-10.8062
flyvning	-10.8079
▁bakkropp	-10.8118
savtale	-10.8128
tradisjon	-10.8131
spørsmål	-10.8132
redaktør	-10.8132
kommuni	-10.8146
▁forlate	-10.8159
▁sjakk	-10.8226
▁biografi	-10.8269
nytt	-10.8272
▁annonsert	-10.8299
▁bataljon	-10.8299
▁corporation	-10.8299
▁dirigent	-10.8299
▁meksikansk	-10.8299
▁molekyl	-10.8299
▁ortodoks	-10.8299
▁patriark	-10.8299
▁popularitet	-10.8299
▁resolusjon	-10.8299
▁sjeldne	-10.8299
▁chicago	-10.8299
▁kvadrat	-10.8299
▁nøkkel	-10.8299
▁kvelden	-10.8299
▁eksistens	-10.8299
disiplin	-10.8299
▁beatles	-10.8299
▁deutsche	-10.8299
▁fuktig	-10.8299
▁adolf	-10.8299
▁alexandr	-10.8299
▁referert	-10.8299
▁selvmord	-10.8299
teatret	-10.8299
▁begravelse	-10.8299
▁varierende	-10.83
▁stefan	-10.83
▁isolert	-10.83
▁kristendommen	-10.83
▁forenkle	-10.8301
▁opposisjon	-10.8301
▁plateselskapet	-10.8302
▁gratis	-10.8303
▁reformasjonen	-10.8303
▁elsker	-10.8303
▁svein	-10.8304
▁borgermester	-10.8304
▁akkur	-10.8304
▁larvik	-10.8307
▁rettssak	-10.8312
▁kreert	-10.8316
▁young	-10.8317
løv	-10.8323
▁uttalt	-10.8336
blikk	-10.8351
▁grep	-10.8365
▁slange	-10.8368
▁bekjempe	-10.8408
utdanning	-10.8445
teknologi	-10.8446
prøve	-10.8449
utdannelse	-10.8451
trikk	-10.8499
▁undergrunns	-10.8522
▁parlament	-10.8535
▁dynasti	-10.8536
tyder	-10.8595
▁konstitusjon	-10.8611
▁artilleri	-10.8611
▁brenselkilden	-10.8611
▁generalmajor	-10.8611
▁heidelberg	-10.8611
▁innspilt	-10.8611
▁kapittel	-10.8611
▁mangfold	-10.8611
▁mongolia	-10.8611
▁muslimsk	-10.8611
▁pronotum	-10.8611
▁sicilia	-10.8611
▁uttrykt	-10.8611
▁francisco	-10.8611
▁konkurs	-10.8611
▁utspring	-10.8611
▁autoritet	-10.8611
▁trommeslager	-10.8611
vurdering	-10.8611
▁kristus	-10.8611
▁nemlig	-10.8611
▁arsenal	-10.8611
▁skildre	-10.8612
▁kobber	-10.8612
▁nevø	-10.8612
▁finansiert	-10.8612
▁central	-10.8612
▁seksuell	-10.8612
mouth	-10.8612
▁stadium	-10.8612
▁skikkelse	-10.8613
▁bbc	-10.8613
▁frigjøring	-10.8613
▁jurist	-10.8613
▁temple	-10.8614
▁regelmessig	-10.8614
▁divers	-10.8614
▁stillehavet	-10.8614
▁leilighet	-10.8615
▁dialog	-10.8615
▁administrerende	-10.8615
▁smelte	-10.8616
▁høydepunkt	-10.8616
▁tørke	-10.8618
▁svikt	-10.8619
▁stedsnavn	-10.862
▁biologisk	-10.8622
▁tegninger	-10.8623
▁ballett	-10.8625
▁åpenbar	-10.8627
▁sjanse	-10.8633
shaw	-10.8672
▁ungdomsskole	-10.869
▁idrett	-10.8692
▁spenn	-10.8692
radio	-10.877
kledd	-10.8775
ubert	-10.878
næringen	-10.8802
bestand	-10.887
▁basketball	-10.8934
▁bysantinsk	-10.8934
▁forøvrig	-10.8934
▁frankfurt	-10.8934
▁konsekvens	-10.8934
▁observert	-10.8934
▁omdøpt	-10.8934
▁shakespeare	-10.8934
▁vancouver	-10.8934
kreditert	-10.8934
▁kommandør	-10.8934
▁könig	-10.8934
▁utslipp	-10.8934
▁tabellen	-10.8934
▁church	-10.8934
▁rosenborg	-10.8934
▁parallell	-10.8934
▁monument	-10.8934
▁tilsammen	-10.8934
▁diameter	-10.8934
▁bjørk	-10.8934
▁essay	-10.8934
▁theodor	-10.8934
▁utsikt	-10.8934
▁avviklet	-10.8934
forsikring	-10.8934
▁axel	-10.8934
▁sektor	-10.8934
▁døgn	-10.8935
▁lagtinget	-10.8935
▁ekspert	-10.8935
▁kullkraftverk	-10.8935
▁fortellinger	-10.8936
▁generalsekretær	-10.8937
▁sultan	-10.8939
▁betong	-10.8939
▁nyhets	-10.8939
▁action	-10.894
▁lojal	-10.894
▁clark	-10.894
▁frp	-10.894
▁death	-10.8942
▁forandring	-10.8942
▁tsar	-10.8945
▁bjerk	-10.8946
▁karakterisert	-10.8949
▁forløper	-10.895
ière	-10.8951
▁drøm	-10.8952
worth	-10.8957
basseng	-10.8963
ørret	-10.8966
▁avskjed	-10.8966
kjemper	-10.8982
▁anslå	-10.9099
europeisk	-10.9101
▁konstant	-10.9239
▁assosiert	-10.9267
▁puppestadi	-10.9267
▁symfoni	-10.9267
▁vellykke	-10.9267
▁venezia	-10.9267
▁diagnose	-10.9267
▁kavaleri	-10.9267
▁matematikk	-10.9267
▁alminnelig	-10.9267
▁buddhist	-10.9267
▁kommandant	-10.9267
▁opplysninger	-10.9267
▁opprettholde	-10.9267
fundament	-10.9267
▁øyeblikk	-10.9267
▁dresden	-10.9267
▁landskamper	-10.9267
▁barnebarn	-10.9267
▁heavy	-10.9267
▁karbon	-10.9268
▁oberst	-10.9268
▁ørken	-10.9268
▁protein	-10.9268
▁kristin	-10.9269
▁sosiolog	-10.9269
▁tjener	-10.9269
▁sviger	-10.9269
▁bedriften	-10.927
▁utforme	-10.9272
▁patron	-10.9274
servatori	-10.9279
▁styring	-10.9286
gjerd	-10.9292
▁benevn	-10.931
▁harmoni	-10.9326
ferdighet	-10.9432
betegnelse	-10.9445
provins	-10.9445
resultat	-10.9446
transport	-10.9446
grønn	-10.9446
størrelse	-10.9446
befolkningen	-10.9447
flagg	-10.9447
tjern	-10.9453
grå	-10.9453
▁trappe	-10.955
recht	-10.9589
struksjon	-10.9608
▁aluminium	-10.9612
▁ferdinand	-10.9612
▁filippinene	-10.9612
▁football	-10.9612
▁innendørs	-10.9612
▁intelligen	-10.9612
▁sebastian	-10.9612
köping	-10.9612
▁diskusjon	-10.9612
▁vurdere	-10.9612
▁ferskvann	-10.9612
▁romerriket	-10.9612
▁parlamentarisk	-10.9612
▁beleiring	-10.9612
▁snorre	-10.9612
▁begravet	-10.9612
▁canadisk	-10.9612
▁perfekt	-10.9612
▁regulere	-10.9612
▁normannisk	-10.9612
▁undertegnet	-10.9613
▁trengte	-10.9613
▁detroit	-10.9613
▁fremstilt	-10.9615
▁forlatt	-10.9616
▁presentere	-10.9618
▁pierre	-10.9618
▁spyd	-10.962
▁øvelsen	-10.9623
palpene	-10.9627
▁bokstaven	-10.9631
rhein	-10.9655
hovedstad	-10.9701
slakt	-10.972
▁demokrat	-10.9728
▁glede	-10.9733
strakte	-10.9738
▁domkirke	-10.9779
▁afrikansk	-10.9798
arkitekt	-10.9803
litteratur	-10.9803
koloni	-10.9824
▁pedr	-10.9826
styremedlem	-10.9838
lignende	-10.9848
skjæring	-10.9862
▁sosialistisk	-10.9864
▁bringe	-10.9887
▁ivareta	-10.9909
▁undersøke	-10.9945
▁observa	-10.9953
fortelling	-10.9961
identifiser	-10.9964
▁dominere	-10.9967
▁allikevel	-10.9969
▁association	-10.9969
▁forvandling	-10.9969
▁hongkong	-10.9969
▁løytnant	-10.9969
▁petroleum	-10.9969
▁stjørdal	-10.9969
▁territorium	-10.9969
▁tilfredsstille	-10.9969
▁texas	-10.9969
▁væske	-10.9969
▁tsjekkisk	-10.9969
▁bøndene	-10.9969
▁petersburg	-10.9969
▁senatet	-10.997
▁fremtidig	-10.997
▁mikael	-10.997
▁utbruddet	-10.997
▁særskilt	-10.997
▁monroe	-10.997
▁dream	-10.9971
▁mount	-10.9971
▁valgdelta	-10.9971
▁poesi	-10.9971
▁fiender	-10.9972
▁prinsippet	-10.9972
▁etterretnings	-10.9972
▁avgjørelse	-10.9972
▁møller	-10.9972
bevegelse	-10.9975
▁keltisk	-10.9976
▁indikere	-10.9976
bjørg	-10.9978
0	-10.9978
gudinne	-10.9979
▁operativsystem	-10.9997
feiring	-11
bukten	-11.0039
▁modifiser	-11.0039
bæk	-11.0052
▁krise	-11.0073
smetode	-11.0094
forhandle	-11.0106
hefte	-11.016
utgave	-11.0177
komite	-11.0225
bourg	-11.0251
helikopter	-11.034
▁astronomi	-11.034
▁douglas	-11.034
▁innstiftet	-11.034
▁katolikker	-11.034
▁millimeter	-11.034
▁primitiv	-11.034
▁restaurert	-11.034
▁sykepleier	-11.034
▁uppsala	-11.034
kommanderende	-11.034
▁illustrasjon	-11.034
▁musikkvideo	-11.034
▁rekrutt	-11.034
▁taiwan	-11.034
▁nichola	-11.034
▁telegraf	-11.034
▁abraham	-11.034
▁anmelder	-11.034
▁umulig	-11.034
▁veksel	-11.034
▁landkreis	-11.034
▁rockeband	-11.034
▁hertugdømmet	-11.034
▁kjæreste	-11.034
▁ringerike	-11.034
▁deltakelse	-11.034
▁legendarisk	-11.034
▁frimurer	-11.034
▁spirit	-11.034
▁sandefjord	-11.034
▁amerikanerne	-11.034
▁corneli	-11.034
▁glatt	-11.034
▁tverrbånd	-11.034
▁für	-11.034
▁vegetasjon	-11.0341
▁sibir	-11.0341
▁utfordre	-11.0341
▁herbert	-11.0341
▁utforming	-11.0342
tronome	-11.0343
skildring	-11.0343
mekanisme	-11.0343
▁charlie	-11.0343
▁belønne	-11.0343
▁grammati	-11.0344
kobling	-11.0344
▁year	-11.0344
flyging	-11.0345
▁identifisert	-11.0345
▁kanadisk	-11.0345
forestillinger	-11.035
▁operert	-11.0354
▁domstolen	-11.0356
▁kunngjor	-11.0363
torget	-11.0429
▁begynt	-11.0446
fraksjon	-11.0463
nnom	-11.049
▁birg	-11.0527
▁inneba	-11.0544
aktivitet	-11.0558
ræd	-11.0574
vennlig	-11.0599
▁nordsid	-11.062
▁rettferdig	-11.0687
▁ødela	-11.0724
▁eurovision	-11.0724
▁favoritt	-11.0724
▁færøysk	-11.0724
▁guddommelig	-11.0724
▁konsentrert	-11.0724
▁konstantinopel	-11.0724
▁larvestadie	-11.0724
▁låtskriver	-11.0724
▁makedonia	-11.0724
▁napoléon	-11.0724
▁nobelprisen	-11.0724
▁pennsylvania	-11.0724
▁plutselig	-11.0724
▁avslørt	-11.0724
▁diskutert	-11.0724
▁erkebispe	-11.0724
▁gælisk	-11.0724
▁ensemble	-11.0724
▁leopold	-11.0724
▁sanskrit	-11.0724
▁jupiter	-11.0724
▁angivelig	-11.0724
▁latvia	-11.0724
▁skroget	-11.0724
▁avsløre	-11.0724
▁nynorsk	-11.0724
▁regulert	-11.0724
▁stephen	-11.0724
▁omsorg	-11.0724
▁vilkår	-11.0724
▁gjennomgår	-11.0724
▁langvarig	-11.0724
▁østersjøen	-11.0725
▁erstatning	-11.0726
reaktor	-11.0727
▁maritim	-11.0727
▁støp	-11.0727
▁lensmann	-11.0728
▁gjenopprette	-11.0728
terapi	-11.0729
▁1861	-11.073
vietnamesisk	-11.073
▁forbli	-11.0735
▁befolke	-11.0752
sammensetning	-11.076
▁undergrunnsbane	-11.0763
▁bakerst	-11.0763
▁pakke	-11.0773
▁sørafrikansk	-11.0818
økonom	-11.0886
institusjon	-11.0957
preget	-11.0958
funksjon	-11.0958
spalte	-11.0965
troppen	-11.1072
▁innenriks	-11.1087
kjerne	-11.1089
demonstrasjon	-11.1124
▁dekkvingene	-11.1124
▁evolusjon	-11.1124
▁infrastruktur	-11.1124
▁kypros	-11.1124
▁lincoln	-11.1124
▁luxembourg	-11.1124
▁mobiltelefon	-11.1124
▁singapore	-11.1124
▁skandinavia	-11.1124
▁satellitt	-11.1124
▁kennedy	-11.1124
▁kjønnsmod	-11.1124
▁oppfinnelse	-11.1124
▁sympati	-11.1124
▁taylor	-11.1124
▁secret	-11.1124
▁konsesjon	-11.1124
▁sivilisasjon	-11.1124
▁gjenvalgt	-11.1124
▁gordon	-11.1124
▁matematisk	-11.1124
▁fusjonert	-11.1124
▁henrettelse	-11.1124
▁fangenskap	-11.1125
▁apollo	-11.1125
▁hovedpersonen	-11.1125
▁forestillingen	-11.1125
▁martyr	-11.1125
▁organisere	-11.1125
▁framstilt	-11.1125
▁sophie	-11.1126
▁gabriel	-11.1126
▁innflytelsesrik	-11.1126
▁kritikerne	-11.1126
▁rakett	-11.1126
▁sannhet	-11.1127
▁understreke	-11.1127
▁delstats	-11.1128
betjent	-11.1129
▁mystisk	-11.1134
▁spurt	-11.1135
▁syklist	-11.1146
▁åndelig	-11.1161
festival	-11.1228
grunnsstasjon	-11.126
▁alliert	-11.1263
drevne	-11.1297
gruppa	-11.1374
medisin	-11.1374
variant	-11.1375
▁insekt	-11.1396
gjelle	-11.1426
fabrik	-11.1446
▁forekomme	-11.1451
▁utøve	-11.1505
▁gudbrand	-11.1541
▁symptom	-11.1541
▁ambassadør	-11.1541
▁atlanterhavet	-11.1541
▁fridtjo	-11.1541
▁indonesia	-11.1541
▁koalisjon	-11.1541
▁malaysia	-11.1541
▁matematiker	-11.1541
▁mongolsk	-11.1541
▁normandie	-11.1541
▁propaganda	-11.1541
▁republikansk	-11.1541
▁reservoar	-11.1541
▁skandinavisk	-11.1541
▁skribent	-11.1541
▁society	-11.1541
▁tórshavn	-11.1541
▁vladimir	-11.1541
distribusjon	-11.1541
▁hønefoss	-11.1541
▁katarina	-11.1541
▁ukraina	-11.1541
saksofon	-11.1541
▁gjøvik	-11.1541
▁felttoget	-11.1541
▁patriot	-11.1541
▁besittelse	-11.1541
▁vannpolo	-11.1541
▁fantasy	-11.1541
▁brennevin	-11.1541
▁imponere	-11.1541
▁charlotte	-11.1541
perspektiv	-11.1541
▁regjere	-11.1541
▁margaret	-11.1541
▁resterende	-11.1541
▁prince	-11.1541
▁brasiliansk	-11.1541
▁skåne	-11.1541
▁africa	-11.1541
metabol	-11.1541
▁istedenfor	-11.1541
▁korrekt	-11.1542
forurensning	-11.1542
▁walisisk	-11.1542
▁virtu	-11.1542
▁tempo	-11.1542
▁søsken	-11.1542
▁christensen	-11.1542
▁osmansk	-11.1542
▁social	-11.1542
▁tokyo	-11.1543
▁konverter	-11.1543
▁margret	-11.1544
▁salomo	-11.1547
▁work	-11.1548
▁støv	-11.155
▁flanke	-11.1551
▁rifle	-11.156
skikke	-11.1561
▁pumpe	-11.1563
▁ytelse	-11.1564
▁søyle	-11.1573
▁normalbakke	-11.1595
fellesskap	-11.1605
ampton	-11.1654
bragt	-11.1682
dekning	-11.1725
stammen	-11.177
historiker	-11.1809
inntekt	-11.1809
sykdom	-11.1816
design	-11.1826
kjøl	-11.1838
sosialistiske	-11.1839
lokale	-11.1843
granat	-11.1933
konservativ	-11.1963
▁aftenposten	-11.1976
▁britannia	-11.1976
▁canterbury	-11.1976
▁drivstoff	-11.1976
▁engasjement	-11.1976
▁gjengjeld	-11.1976
▁guangdong	-11.1976
▁kambodsja	-11.1976
▁nürnberg	-11.1976
▁parallelt	-11.1976
▁avslutning	-11.1976
▁konklave	-11.1976
▁lofoten	-11.1976
▁sponsor	-11.1976
▁hockey	-11.1976
▁selskab	-11.1976
protokoll	-11.1976
▁løpebille	-11.1976
▁foreløpig	-11.1976
▁sediment	-11.1976
▁westfalen	-11.1976
▁dublin	-11.1976
▁kollaps	-11.1976
▁krønike	-11.1976
▁tilnærme	-11.1976
▁krypt	-11.1976
▁guinea	-11.1976
▁kongsvinger	-11.1976
borough	-11.1976
▁ulovlig	-11.1976
▁stanley	-11.1976
kostnader	-11.1976
▁seoul	-11.1976
▁russerne	-11.1976
▁armenia	-11.1976
▁lewis	-11.1976
▁betingelse	-11.1976
▁contest	-11.1977
▁forsinke	-11.1978
▁mottakelse	-11.1978
▁muntlig	-11.1979
▁parodi	-11.1979
piercing	-11.198
▁smitte	-11.1991
▁genetisk	-11.1991
▁fossile	-11.2
avtalen	-11.2068
tetthet	-11.2174
ribbe	-11.2232
sentral	-11.227
▁vassdrag	-11.2284
▁barokk	-11.2353
lønn	-11.2384
artikkel	-11.2425
▁kringkasting	-11.243
▁patrulje	-11.243
instruktør	-11.243
pilegrim	-11.243
representasjon	-11.243
▁ammunisjon	-11.243
▁birkeland	-11.243
▁distribuer	-11.243
▁elektrisitet	-11.243
▁glasgow	-11.243
▁individuelt	-11.243
▁interessant	-11.243
▁metamorfose	-11.243
▁substantiv	-11.243
▁utendørs	-11.243
▁varaordfører	-11.243
▁vålerenga	-11.243
▁warszawa	-11.243
potensial	-11.243
▁billboard	-11.243
▁kjøkken	-11.243
▁kroatia	-11.243
▁muslimer	-11.243
▁ragnar	-11.243
▁signatur	-11.243
▁nidaros	-11.243
▁løslatt	-11.243
▁bolivia	-11.243
inspektør	-11.243
▁frederick	-11.243
▁ralph	-11.243
▁arkitektonisk	-11.2431
▁bebodd	-11.2431
▁monarki	-11.2431
▁anthon	-11.2431
