<unk>	0
<s>	0
</s>	0
.	-3.12998
s	-3.33457
e	-3.54755
▁	-3.72396
t	-4.05205
er	-4.07591
en	-4.10541
▁i	-4.11538
▁og	-4.15034
r	-4.58407
▁er	-4.58817
▁av	-4.86802
n	-4.88379
et	-4.88684
a	-4.97286
▁for	-5.12074
▁en	-5.13715
▁som	-5.25375
▁til	-5.27692
▁på	-5.33678
▁med	-5.39097
i	-5.42822
d	-5.50631
▁var	-5.55007
o	-5.56725
k	-5.57809
▁de	-5.62198
▁den	-5.67741
y	-5.71394
ene	-5.71498
▁fra	-5.75749
▁har	-5.78607
ne	-5.79034
▁ble	-5.83974
m	-5.87898
te	-5.96191
▁et	-5.98623
▁det	-5.98893
g	-6.0499
f	-6.10961
l	-6.11795
p	-6.12965
de	-6.1955
▁han	-6.20543
re	-6.22687
▁s	-6.26191
in	-6.28016
▁ved	-6.30812
ing	-6.32919
es	-6.32975
h	-6.33309
us	-6.34998
u	-6.35785
c	-6.37785
▁også	-6.38956
▁å	-6.42012
an	-6.44381
b	-6.46735
▁eller	-6.46796
v	-6.47231
▁a	-6.51682
▁ut	-6.52204
na	-6.56196
le	-6.58106
▁under	-6.5845
▁kan	-6.58705
al	-6.61377
▁to	-6.63104
on	-6.63199
▁om	-6.66357
▁m	-6.67338
▁be	-6.69691
▁over	-6.7054
sk	-6.70607
is	-6.7295
▁opp	-6.73418
z	-6.74838
▁etter	-6.76163
▁the	-6.76748
▁f	-6.77672
ar	-6.78006
ter	-6.79108
▁at	-6.80177
ia	-6.84964
▁inn	-6.88
w	-6.88611
▁18	-6.89313
ri	-6.92652
ma	-6.93296
um	-6.93311
ta	-6.93964
li	-6.94023
kk	-6.95011
j	-6.95171
x	-6.95307
▁da	-6.9722
▁andre	-6.99096
▁h	-6.99403
▁d	-6.99647
▁b	-6.99714
▁se	-7.01526
el	-7.01752
or	-7.02932
▁la	-7.03471
ende	-7.0365
st	-7.03675
ke	-7.05064
▁p	-7.0703
land	-7.07484
▁ligger	-7.08968
▁ha	-7.0997
3	-7.10119
▁c	-7.12262
isk	-7.12409
▁g	-7.13165
ens	-7.13444
▁u	-7.14543
ng	-7.1464
ra	-7.14888
di	-7.15317
▁al	-7.15398
la	-7.15849
ck	-7.16691
▁re	-7.18364
▁tre	-7.18702
▁pi	-7.18908
é	-7.19108
da	-7.19116
ler	-7.19917
▁in	-7.20101
der	-7.20109
ch	-7.20282
▁an	-7.21066
be	-7.21398
▁men	-7.21888
ga	-7.23001
▁mellom	-7.24821
ver	-7.249
ur	-7.25357
▁mot	-7.2546
ka	-7.25757
▁k	-7.25829
▁blant	-7.26176
▁seg	-7.26259
▁hadde	-7.26616
lig	-7.27175
▁of	-7.2919
as	-7.29216
▁sin	-7.29799
ut	-7.30828
os	-7.31627
ge	-7.32008
il	-7.33026
▁her	-7.33052
▁1	-7.33249
nes	-7.33251
den	-7.33721
ning	-7.33808
ba	-7.34184
▁man	-7.34527
▁le	-7.34822
▁li	-7.35739
▁l	-7.35804
ff	-7.36131
1	-7.36212
nde	-7.36362
▁bo	-7.36385
▁v	-7.36474
ja	-7.36624
▁t	-7.36627
ro	-7.37584
▁hans	-7.37634
lo	-7.37779
iske	-7.38429
▁j	-7.38996
stad	-7.39187
▁ca	-7.39204
ul	-7.3955
2	-7.39558
ko	-7.39613
▁nord	-7.39632
▁ikke	-7.4023
▁gjennom	-7.40279
▁he	-7.40337
id	-7.4084
▁hoved	-7.40869
ker	-7.41315
ol	-7.42805
7	-7.43313
ig	-7.44368
ske	-7.44727
bo	-7.44792
at	-7.45485
to	-7.45904
▁17	-7.46278
▁and	-7.4647
▁co	-7.46532
th	-7.46546
ad	-7.46917
it	-7.47279
▁ro	-7.47375
▁født	-7.47518
ger	-7.47593
▁as	-7.48826
▁n	-7.49096
ic	-7.49567
son	-7.49807
▁di	-7.49899
▁na	-7.49975
▁kon	-7.50405
man	-7.50768
ed	-7.51341
▁pa	-7.51665
øy	-7.51707
for	-7.52679
ve	-7.52956
▁5	-7.53049
▁sammen	-7.53457
▁2	-7.53679
ha	-7.53923
▁vi	-7.54444
▁16	-7.54711
4	-7.55003
▁o	-7.55156
▁dette	-7.55415
ner	-7.55636
ton	-7.56414
▁no	-7.57211
▁flere	-7.58109
▁sa	-7.58311
▁første	-7.5874
▁w	-7.58911
▁denne	-7.59463
▁der	-7.59889
▁do	-7.60313
si	-7.60894
▁sp	-7.6102
▁si	-7.61298
▁ny	-7.61336
▁hun	-7.62071
▁kinesisk	-7.62549
▁fikk	-7.62589
ør	-7.62762
ce	-7.63057
dal	-7.63118
co	-7.63125
▁stor	-7.63282
▁3	-7.63548
va	-7.63711
by	-7.63891
mp	-7.63988
mo	-7.64116
▁ti	-7.64401
erte	-7.64745
6	-7.64822
ry	-7.65236
op	-7.65556
gen	-7.66752
▁st	-7.67067
bi	-7.67285
pp	-7.6782
▁ka	-7.6856
mann	-7.68757
▁du	-7.69248
▁15	-7.69724
▁ni	-7.69877
pe	-7.70307
▁alle	-7.70363
het	-7.70431
▁by	-7.7103
▁ta	-7.71128
berg	-7.71136
▁del	-7.71158
sjon	-7.71221
kt	-7.71363
ær	-7.71379
▁po	-7.7165
ni	-7.71693
▁mar	-7.71895
▁r	-7.71965
▁per	-7.72568
ster	-7.73009
vis	-7.73555
ti	-7.73936
▁blir	-7.74121
lige	-7.74265
▁mo	-7.74906
▁ho	-7.75175
me	-7.75211
ven	-7.75489
tal	-7.75669
ell	-7.75703
bu	-7.75816
om	-7.7629
▁4	-7.76451
ø	-7.7661
gi	-7.77095
▁sør	-7.77316
▁bu	-7.77518
ist	-7.77613
ten	-7.77764
á	-7.77842
ste	-7.77997
▁kommune	-7.78025
am	-7.78201
æ	-7.78643
mer	-7.78875
▁bi	-7.78974
vi	-7.79107
▁disse	-7.79116
mi	-7.79128
▁ko	-7.79516
▁tidligere	-7.80072
je	-7.80348
ling	-7.80561
▁lo	-7.8068
ment	-7.80867
▁or	-7.8112
▁bar	-7.81647
do	-7.81891
▁ri	-7.82186
▁so	-7.8251
▁land	-7.82542
ang	-7.82815
tra	-7.83033
▁mor	-7.83227
sh	-7.83989
▁annet	-7.8404
▁10	-7.84117
un	-7.84161
▁kom	-7.84358
▁su	-7.84795
▁te	-7.8595
else	-7.86351
ca	-7.86467
▁ra	-7.86781
gu	-7.87858
▁tor	-7.87862
▁ba	-7.87882
▁me	-7.88807
▁y	-7.89154
▁ga	-7.89338
▁jo	-7.89835
▁ned	-7.90587
skap	-7.90646
ik	-7.91079
▁samt	-7.91468
ly	-7.91696
▁byen	-7.91835
▁ma	-7.92144
▁mens	-7.92299
vik	-7.92692
▁mer	-7.92795
ie	-7.93008
▁kalles	-7.93349
▁øst	-7.93605
▁el	-7.93688
ir	-7.94101
ho	-7.945
▁mange	-7.94631
▁min	-7.94864
erne	-7.94871
vin	-7.95111
▁kalt	-7.9522
▁far	-7.95516
ant	-7.95745
men	-7.95792
▁ei	-7.96123
var	-7.96368
▁pro	-7.96577
▁hu	-7.96982
im	-7.97099
▁finnes	-7.97234
▁am	-7.97734
io	-7.98052
▁fri	-7.98284
▁så	-7.98493
ci	-7.98541
▁8	-7.98587
▁navnet	-7.98978
▁ofte	-7.99022
▁gi	-7.99313
▁6	-7.99428
▁frem	-7.99647
9	-7.99664
▁sch	-7.99688
ard	-7.99808
▁vest	-8.00069
▁går	-8.00526
sta	-8.00872
no	-8.00896
go	-8.011
od	-8.01162
pi	-8.0151
▁lu	-8.0153
▁år	-8.01675
lin	-8.02052
ikk	-8.0248
▁14	-8.028
ina	-8.02805
▁bestå	-8.03179
▁tilhører	-8.03886
▁skal	-8.03907
au	-8.04489
▁bak	-8.05047
ä	-8.05183
å	-8.06182
▁go	-8.06211
▁ja	-8.06325
lag	-8.06594
mb	-8.0662
▁con	-8.0664
ö	-8.06989
itt	-8.07329
▁store	-8.07377
po	-8.07383
ll	-8.07519
▁gu	-8.07542
▁12	-8.07659
ü	-8.07993
▁navn	-8.08013
ering	-8.08018
nd	-8.08136
hi	-8.08289
del	-8.08391
▁norsk	-8.08497
▁før	-8.08781
ion	-8.08851
hu	-8.09133
sted	-8.09678
▁sitt	-8.09729
▁dag	-8.10032
▁sk	-8.10085
▁vann	-8.1011
▁ru	-8.10153
▁7	-8.10296
▁fa	-8.1046
lu	-8.10587
▁russisk	-8.10854
rett	-8.10871
ian	-8.1099
ov	-8.11276
í	-8.1154
over	-8.11545
▁ad	-8.11892
▁11	-8.11937
▁pe	-8.12453
ns	-8.12542
▁ab	-8.12921
▁død	-8.13121
ium	-8.13255
▁13	-8.1347
▁være	-8.14145
▁fly	-8.14562
▁senere	-8.1489
▁ge	-8.15221
sel	-8.15347
▁vil	-8.16356
les	-8.16408
ud	-8.16834
▁ne	-8.1713
▁mi	-8.17536
▁z	-8.17546
asjon	-8.1781
pa	-8.1785
▁fire	-8.18357
nyin	-8.18408
▁9	-8.18421
em	-8.18642
ok	-8.18661
elle	-8.18704
▁fi	-8.18869
▁hos	-8.18967
▁lag	-8.19562
▁noen	-8.19618
ring	-8.1965
ber	-8.19926
▁slik	-8.19928
gg	-8.2036
idae	-8.20486
ag	-8.20601
▁ju	-8.2062
yl	-8.20905
hus	-8.21092
▁tri	-8.21179
▁san	-8.21199
ru	-8.21387
▁sol	-8.21583
▁spilt	-8.2163
ku	-8.21691
ung	-8.22073
▁selv	-8.22318
▁x	-8.22498
▁car	-8.22655
ken	-8.22985
▁hvor	-8.23103
▁ham	-8.24298
tor	-8.24508
▁sam	-8.2487
5	-8.24976
år	-8.25113
▁ch	-8.25648
dag	-8.25879
ny	-8.25973
fa	-8.26048
▁kirke	-8.26278
▁største	-8.26335
▁john	-8.26459
ot	-8.26488
ó	-8.26558
ong	-8.2676
▁kjent	-8.26883
▁sand	-8.2752
▁tro	-8.27523
▁pre	-8.27662
tid	-8.27814
▁innen	-8.27815
▁mest	-8.28259
▁hel	-8.28284
▁tra	-8.28347
ica	-8.29131
ow	-8.29484
satt	-8.29559
tan	-8.29565
▁lever	-8.29607
▁my	-8.29715
jo	-8.29881
▁rundt	-8.29962
per	-8.30031
▁all	-8.3007
▁mat	-8.3019
ede	-8.30345
ningen	-8.30354
▁ak	-8.30402
ak	-8.30411
▁mål	-8.31218
hold	-8.31347
tre	-8.31907
▁wi	-8.31936
ac	-8.32151
▁par	-8.32636
stein	-8.3268
sp	-8.32844
za	-8.32886
verk	-8.33355
▁nå	-8.33373
gang	-8.33569
▁ste	-8.33695
▁mu	-8.33863
▁kr	-8.34284
mar	-8.34399
▁både	-8.34402
he	-8.34514
ier	-8.34611
▁siden	-8.3476
ron	-8.3479
ou	-8.34816
▁grunn	-8.34894
▁sv	-8.35022
av	-8.35137
ki	-8.3528
▁sine	-8.35445
▁lang	-8.35844
▁musikk	-8.36096
stre	-8.36208
mme	-8.36217
ft	-8.36461
▁film	-8.36581
ord	-8.3715
▁fe	-8.37187
▁gjen	-8.37565
sj	-8.37792
▁ski	-8.37817
tin	-8.37871
▁fram	-8.38071
art	-8.38224
sch	-8.38259
▁langs	-8.38534
0	-8.38661
tter	-8.38755
ju	-8.38954
tar	-8.39062
▁engelsk	-8.39134
▁val	-8.39159
ine	-8.39249
▁fjell	-8.39682
▁kunst	-8.39741
len	-8.39957
und	-8.39962
▁fu	-8.39978
ek	-8.40017
ill	-8.40034
▁eks	-8.40117
▁ku	-8.40118
о	-8.40284
▁vel	-8.40493
▁ar	-8.40593
met	-8.40775
▁små	-8.40804
sson	-8.40822
▁bra	-8.41158
ation	-8.4131
▁bro	-8.41444
▁kar	-8.41447
▁sønn	-8.41498
dalen	-8.41529
▁tid	-8.41628
ologi	-8.41782
▁leder	-8.41868
▁kina	-8.42171
▁skole	-8.42739
itet	-8.42793
ans	-8.42869
gn	-8.42896
stand	-8.42924
bb	-8.42959
til	-8.42964
▁berg	-8.43106
min	-8.43198
▁familien	-8.43219
▁0	-8.43279
iv	-8.43289
▁laget	-8.43618
ley	-8.43875
▁nær	-8.43961
▁hus	-8.43977
bar	-8.44035
kom	-8.4408
▁pu	-8.4418
▁folke	-8.44842
familien	-8.4491
tak	-8.44952
mor	-8.45155
▁art	-8.45189
ks	-8.45405
▁20	-8.45525
tisk	-8.45609
ji	-8.45861
▁syn	-8.4614
ran	-8.46222
▁området	-8.46327
dd	-8.46357
▁gir	-8.46629
▁km	-8.46631
▁nor	-8.46661
wa	-8.46683
▁ki	-8.46708
▁va	-8.47738
ingen	-8.48086
▁ur	-8.48379
tro	-8.48446
▁we	-8.48479
▁følgende	-8.48592
▁ben	-8.48614
▁mai	-8.48812
ph	-8.48905
▁je	-8.49092
▁op	-8.49206
▁form	-8.49291
▁omfatter	-8.49407
▁gruppen	-8.49419
▁bru	-8.49678
▁fem	-8.49917
tu	-8.50212
▁provinsen	-8.50218
if	-8.50248
▁stein	-8.50341
ya	-8.50482
▁parti	-8.50678
▁kultur	-8.50732
bre	-8.51004
▁sal	-8.51187
ator	-8.51208
▁hi	-8.5129
▁on	-8.51506
▁tok	-8.51517
▁cha	-8.51572
▁br	-8.51682
sten	-8.5195
▁roman	-8.52185
▁com	-8.5223
е	-8.52604
▁oslo	-8.52607
▁norske	-8.52631
▁bl	-8.52683
▁vant	-8.52949
nder	-8.52971
▁ol	-8.53069
▁can	-8.53111
vo	-8.53119
ty	-8.53278
du	-8.53323
▁tu	-8.53434
fly	-8.53603
▁ty	-8.53603
yn	-8.53654
▁jan	-8.53671
▁mag	-8.53775
ius	-8.54047
mmer	-8.5423
▁brukes	-8.54291
▁kommer	-8.54433
▁norge	-8.54868
tall	-8.54926
▁spiller	-8.5495
ham	-8.55035
fe	-8.55045
▁språk	-8.55069
▁2002	-8.55092
▁tv	-8.5511
ting	-8.55142
▁når	-8.5542
▁rett	-8.5542
heim	-8.55519
▁videre	-8.55631
fi	-8.55754
▁mars	-8.55769
▁gar	-8.56001
sti	-8.56024
▁mal	-8.56144
▁bok	-8.5639
▁vin	-8.56537
▁19	-8.56693
nings	-8.56794
▁gift	-8.56884
▁verdens	-8.57027
lan	-8.57039
vet	-8.57085
ach	-8.57125
kel	-8.57383
▁like	-8.57388
▁new	-8.57512
▁kor	-8.57527
▁enn	-8.57969
▁samme	-8.58126
▁vært	-8.58161
tion	-8.58204
mon	-8.5822
▁sjø	-8.58347
▁juli	-8.58566
ære	-8.58628
▁nye	-8.58679
vel	-8.58689
dre	-8.58703
▁pan	-8.59041
folkerepublikken	-8.59075
lse	-8.59175
▁øy	-8.59216
▁inneholder	-8.59379
elsen	-8.59398
▁sy	-8.59401
su	-8.59448
ā	-8.59519
▁folketelling	-8.59564
▁col	-8.59788
▁ve	-8.59813
▁skrev	-8.59858
▁må	-8.5986
▁ulik	-8.59934
far	-8.60064
▁eksempel	-8.60105
▁hal	-8.60224
▁fo	-8.60224
▁brun	-8.60401
▁ed	-8.60466
bruk	-8.60548
senter	-8.60618
▁august	-8.60649
▁betyr	-8.60691
dy	-8.60776
▁un	-8.60894
и	-8.60964
▁hav	-8.60983
▁verk	-8.61038
par	-8.61166
sjoner	-8.61166
bro	-8.61253
▁fast	-8.61819
▁jord	-8.61823
▁ag	-8.61843
▁plan	-8.62005
nn	-8.62013
▁th	-8.62013
à	-8.62023
tur	-8.62118
bil	-8.62281
▁rom	-8.62288
▁van	-8.62378
▁halv	-8.62475
▁alt	-8.62542
▁kjente	-8.62847
▁kommunen	-8.62955
ú	-8.63135
zi	-8.63174
sund	-8.63236
siden	-8.63385
▁fag	-8.63387
kon	-8.63399
▁kn	-8.63491
slag	-8.63643
▁tysk	-8.63785
ug	-8.63992
▁høy	-8.64021
▁bor	-8.64071
sett	-8.64404
tz	-8.645
▁bil	-8.64958
▁sen	-8.64979
▁au	-8.65023
inger	-8.65137
borg	-8.65222
▁nasjonal	-8.65278
▁em	-8.6539
kan	-8.65409
ding	-8.65423
isme	-8.65483
а	-8.65522
ana	-8.65581
pper	-8.65697
bl	-8.65774
ino	-8.65811
▁egen	-8.65893
▁pr	-8.66161
▁hele	-8.66412
▁gra	-8.66509
tiske	-8.66541
ão	-8.66605
▁hol	-8.66641
▁sta	-8.66693
veien	-8.66805
chi	-8.66858
uk	-8.6692
▁2008	-8.66921
gel	-8.67053
tiv	-8.67179
mål	-8.67233
▁lys	-8.67951
bel	-8.67959
▁gul	-8.68298
ld	-8.68338
▁kong	-8.6843
▁blitt	-8.6866
vei	-8.68669
▁os	-8.68923
▁fin	-8.69032
▁rød	-8.69167
▁vo	-8.69333
▁bare	-8.69396
▁sig	-8.69443
▁selskapet	-8.69572
▁red	-8.6967
▁ke	-8.6996
▁gud	-8.69981
▁opprinnelig	-8.70385
bin	-8.70437
øya	-8.70582
▁2007	-8.70736
form	-8.70786
▁af	-8.70841
tes	-8.71095
bra	-8.71487
let	-8.71561
▁midt	-8.71751
▁hy	-8.71783
kar	-8.71834
ski	-8.71864
▁deres	-8.71915
är	-8.7202
▁hen	-8.72109
nnenfor	-8.72273
▁2006	-8.72526
jø	-8.72607
▁lå	-8.7273
løp	-8.72806
fjorden	-8.72879
▁eg	-8.72904
▁ver	-8.73322
▁bre	-8.73494
ze	-8.73623
▁mark	-8.73694
bygg	-8.73955
▁uten	-8.73972
▁grav	-8.74017
▁sh	-8.74063
▁kunne	-8.74066
8	-8.74088
▁chi	-8.74115
▁skulle	-8.74115
ab	-8.7435
▁bruk	-8.74378
▁sø	-8.74404
▁flagg	-8.74411
ble	-8.74427
lands	-8.74455
hr	-8.74514
▁tur	-8.74553
▁vei	-8.75063
▁står	-8.75102
mark	-8.75105
▁tillegg	-8.7518
▁2005	-8.75333
▁støtte	-8.75402
qu	-8.75617
▁gre	-8.7562
laget	-8.75843
xi	-8.75881
val	-8.75918
▁heter	-8.75941
fjord	-8.76124
gh	-8.76202
tel	-8.76243
ale	-8.7639
▁ren	-8.76644
▁begge	-8.76693
ris	-8.76775
▁von	-8.77014
fra	-8.77055
we	-8.77213
▁dan	-8.77244
legg	-8.77274
▁gikk	-8.7732
▁post	-8.77407
▁moh	-8.77448
dan	-8.77558
▁luft	-8.77613
▁motor	-8.77613
▁dem	-8.77615
my	-8.77645
▁vis	-8.77766
▁christian	-8.77959
rin	-8.78015
ive	-8.78135
inn	-8.78217
▁gresk	-8.7846
mm	-8.78535
▁god	-8.78591
▁ord	-8.78766
leder	-8.79027
▁paul	-8.79055
▁bruker	-8.79101
▁tom	-8.79169
rø	-8.79194
▁landet	-8.79377
▁hver	-8.79548
ah	-8.79564
▁wa	-8.79683
▁sommerfugl	-8.79849
▁tallet	-8.79874
▁norges	-8.79909
rik	-8.8032
fer	-8.80379
▁peter	-8.80395
▁mont	-8.80542
▁rekke	-8.80715
ich	-8.80808
▁sil	-8.80824
▁mac	-8.809
▁mil	-8.80962
▁via	-8.80978
spill	-8.80979
▁lokal	-8.81026
▁kv	-8.81312
▁ifølge	-8.81469
ninger	-8.81503
che	-8.81529
kje	-8.81604
▁hennes	-8.81811
▁you	-8.81951
▁natur	-8.82008
dyr	-8.82009
ita	-8.82037
▁kur	-8.82221
▁fiske	-8.82268
▁kun	-8.82322
▁kinas	-8.82483
▁kort	-8.8251
▁gamle	-8.82522
▁vise	-8.82683
▁juni	-8.82705
eres	-8.82796
van	-8.82903
▁skog	-8.82958
▁cu	-8.83007
øn	-8.83034
▁mel	-8.83243
eg	-8.83284
▁radio	-8.8334
è	-8.83413
▁meter	-8.83441
rom	-8.83637
▁ber	-8.83702
▁za	-8.83869
▁kj	-8.8391
▁30	-8.84033
mat	-8.84047
▁kla	-8.84117
ige	-8.84203
gar	-8.84275
▁stre	-8.84479
▁band	-8.84618
▁mindre	-8.84631
and	-8.84633
▁2010	-8.84633
dom	-8.84652
lev	-8.84779
▁president	-8.84912
ī	-8.84925
▁usa	-8.84974
▁styre	-8.85008
▁skrevet	-8.85042
q	-8.85481
ix	-8.85506
▁tar	-8.85749
isering	-8.85849
20	-8.85881
ther	-8.85893
ini	-8.86048
▁dy	-8.86076
▁utgitt	-8.8608
▁side	-8.86105
▁sak	-8.86109
ari	-8.86254
▁stil	-8.86258
▁mon	-8.86326
ska	-8.86354
up	-8.86463
▁blå	-8.86761
ai	-8.8677
▁dr	-8.86843
kal	-8.87069
vann	-8.87208
▁stra	-8.87449
▁dikt	-8.87526
д	-8.87749
▁arm	-8.87822
enes	-8.87844
▁gjerne	-8.87862
gre	-8.8811
▁ang	-8.88124
burg	-8.88224
▁eu	-8.88238
▁sentral	-8.88529
▁fl	-8.8857
ct	-8.88625
▁kal	-8.88756
т	-8.88767
lot	-8.89023
ula	-8.89023
▁ry	-8.89084
▁000	-8.89117
forening	-8.89188
fisk	-8.89299
rid	-8.89411
mel	-8.89426
▁25	-8.89461
gård	-8.89463
▁barn	-8.89564
▁tele	-8.8963
▁ci	-8.89665
▁tak	-8.89669
▁lav	-8.89779
▁barne	-8.89808
banen	-8.89901
▁februar	-8.89919
▁liste	-8.89934
ap	-8.89962
▁vår	-8.90046
bok	-8.9009
▁shi	-8.90096
ola	-8.90129
ister	-8.90131
▁kyst	-8.90197
ara	-8.90209
mester	-8.90233
lle	-8.90276
lå	-8.90346
▁fred	-8.90349
est	-8.90406
▁ex	-8.90422
▁beste	-8.90454
ket	-8.90632
skole	-8.90647
▁imidlertid	-8.90653
▁derfor	-8.90884
▁filmen	-8.90915
▁farge	-8.90918
medalje	-8.90937
fall	-8.91193
▁nu	-8.91197
log	-8.91202
red	-8.91293
▁gl	-8.91301
▁operatør	-8.91393
ott	-8.91437
fo	-8.915
råd	-8.91554
organisasjon	-8.91695
▁seks	-8.91763
▁innbyggere	-8.91764
▁william	-8.91764
▁slutt	-8.91858
hl	-8.9187
stra	-8.91874
ons	-8.9194
lene	-8.91943
dig	-8.92051
område	-8.92127
▁energi	-8.92177
res	-8.92292
▁tal	-8.92301
ath	-8.92445
mal	-8.92671
▁medlem	-8.9276
▁bjørn	-8.92804
▁maria	-8.92945
▁liv	-8.93087
▁særlig	-8.93321
▁gull	-8.93339
anlegg	-8.93377
han	-8.93444
syn	-8.93475
cu	-8.93621
▁januar	-8.93644
▁och	-8.93783
lys	-8.94011
all	-8.94041
kor	-8.9406
ving	-8.94174
▁stats	-8.94219
ör	-8.94479
ighet	-8.94711
50	-8.9473
▁grå	-8.94843
▁rø	-8.9485
▁noe	-8.94872
stu	-8.95042
▁sha	-8.95044
mu	-8.95056
▁samtidig	-8.95174
▁2009	-8.95239
▁forskjellige	-8.95263
▁pat	-8.95317
ij	-8.95319
▁jeg	-8.95358
▁dagen	-8.95526
▁general	-8.95559
▁vanligvis	-8.95591
▁deretter	-8.95617
▁bal	-8.95781
▁mc	-8.95867
▁person	-8.95883
▁startet	-8.95918
▁basert	-8.96029
▁svensk	-8.96083
▁trans	-8.96377
og	-8.96494
ssen	-8.96499
▁west	-8.96544
isten	-8.96546
skog	-8.96585
gj	-8.96605
▁distrikt	-8.96726
ppe	-8.96729
▁kra	-8.96737
vær	-8.96739
selskapet	-8.96768
▁nest	-8.96808
▁anti	-8.97129
▁industri	-8.97187
▁bli	-8.97204
lett	-8.97217
▁viktigst	-8.97322
▁22	-8.97352
▁først	-8.97496
▁pri	-8.97498
▁innbyggertall	-8.97513
▁dia	-8.97629
elig	-8.97659
ice	-8.97688
løs	-8.97719
ida	-8.97754
▁gen	-8.97816
tiden	-8.97922
ps	-8.98008
mus	-8.98157
▁historie	-8.98204
▁familie	-8.98211
▁ji	-8.98221
isert	-8.98286
▁fransk	-8.98292
▁får	-8.98407
▁ingen	-8.98421
▁ul	-8.98626
▁ly	-8.98688
▁thor	-8.98739
ika	-8.9876
▁air	-8.98824
att	-8.99187
bærer	-8.99233
bert	-8.99303
▁vol	-8.99314
ata	-8.99361
zh	-8.99572
▁inkluderer	-8.99582
kter	-8.99588
▁bur	-8.99595
▁sang	-8.99644
▁siste	-8.99647
don	-8.99651
ater	-8.99693
▁datter	-8.99737
▁lov	-8.9976
▁ac	-8.99829
ani	-8.99837
▁sto	-8.99873
▁representert	-8.99908
stat	-8.99936
lia	-8.99983
▁ban	-9.00092
▁fotball	-9.00158
▁ring	-9.00308
▁oktober	-9.00313
elser	-9.00379
jer	-9.00564
har	-9.00629
▁fil	-9.00722
▁følger	-9.0074
л	-9.00898
▁fla	-9.00958
▁sett	-9.01012
rud	-9.01023
▁bas	-9.01101
▁gro	-9.01144
arbeid	-9.01193
▁bør	-9.01329
▁ras	-9.01345
▁helt	-9.01378
▁kamp	-9.01445
▁april	-9.01538
р	-9.01733
ros	-9.01759
▁tekst	-9.0182
▁mod	-9.02019
dra	-9.02059
▁tru	-9.02153
pro	-9.02173
side	-9.02176
pen	-9.02236
▁latin	-9.02264
▁carl	-9.02273
mun	-9.02358
▁desember	-9.02362
▁bri	-9.02552
▁riks	-9.02619
▁erik	-9.02675
pris	-9.02739
▁tilbake	-9.0278
figur	-9.02828
mannen	-9.02869
▁arbeids	-9.0289
▁samarbeid	-9.02917
port	-9.03038
▁hår	-9.03078
▁stat	-9.03234
ob	-9.03268
rop	-9.03341
▁viser	-9.03357
▁not	-9.03469
▁port	-9.03543
án	-9.03629
▁bergen	-9.03647
▁ser	-9.03658
▁sub	-9.03672
▁lind	-9.03685
inne	-9.03723
mand	-9.03811
▁karl	-9.03903
lsen	-9.04024
lek	-9.04027
▁såkalt	-9.04035
▁fylke	-9.04049
▁don	-9.04118
▁europa	-9.04211
▁spor	-9.0422
▁modern	-9.0422
eri	-9.04388
▁september	-9.04454
leg	-9.04472
navnet	-9.04529
stri	-9.0457
▁gran	-9.04582
▁dis	-9.04779
▁bred	-9.04816
▁bandet	-9.04833
nett	-9.04899
elt	-9.05003
▁martin	-9.05004
stan	-9.0508
ay	-9.0511
▁kl	-9.05472
30	-9.0554
▁johan	-9.05637
bane	-9.0571
nivå	-9.05741
▁hei	-9.05853
fri	-9.05939
ål	-9.06106
š	-9.0616
▁november	-9.0616
▁mas	-9.06179
gan	-9.06236
of	-9.06236
kin	-9.06499
under	-9.06552
qui	-9.06586
▁gang	-9.06592
▁sommer	-9.06628
ip	-9.06719
▁ven	-9.06725
rak	-9.06788
▁26	-9.06884
byen	-9.06994
▁foran	-9.07016
▁inkludert	-9.07024
▁robert	-9.07115
cc	-9.07168
føre	-9.07169
▁gal	-9.07242
▁tradisjonell	-9.07259
▁uni	-9.07327
▁gri	-9.07346
lagt	-9.07361
▁lands	-9.07475
▁mad	-9.07515
▁mos	-9.076
▁stu	-9.07662
▁24	-9.07672
▁kol	-9.07675
▁sangen	-9.0769
rus	-9.07819
▁forfatter	-9.07886
▁bj	-9.07905
▁øya	-9.07916
▁spe	-9.0794
▁studie	-9.07958
▁ob	-9.07982
området	-9.08029
age	-9.08088
cy	-9.08218
ð	-9.08236
▁hvit	-9.08272
▁park	-9.08328
sto	-9.08342
▁blad	-9.08352
lla	-9.08478
vern	-9.08534
▁olav	-9.08557
styre	-9.08648
н	-9.08763
▁åpningsseremoni	-9.08774
▁system	-9.09079
ført	-9.09169
iz	-9.09193
▁japansk	-9.09279
▁mus	-9.09299
▁rev	-9.09409
▁reg	-9.0945
▁lett	-9.09528
▁wo	-9.0958
kri	-9.09581
▁elven	-9.09622
α	-9.09661
▁cla	-9.09723
lø	-9.09776
rum	-9.09843
øv	-9.09946
ight	-9.10021
asjonen	-9.1018
▁johannes	-9.10313
▁23	-9.10335
ub	-9.10408
rede	-9.1047
▁sl	-9.10479
с	-9.10496
▁utenfor	-9.10646
▁data	-9.10653
▁regi	-9.10846
▁svær	-9.10987
▁bror	-9.11042
grad	-9.11062
kh	-9.11217
▁døde	-9.11255
way	-9.11274
▁sc	-9.11319
▁lange	-9.11336
sak	-9.11384
▁italiensk	-9.11459
båt	-9.11504
klubb	-9.11687
navn	-9.11735
▁topp	-9.11753
▁begynt	-9.11915
tatt	-9.12119
ep	-9.12138
våg	-9.12221
sal	-9.12268
80	-9.12284
▁dermed	-9.12422
▁vinter	-9.12642
▁inter	-9.12729
hy	-9.12747
▁mari	-9.12797
gren	-9.12813
▁lev	-9.12934
▁est	-9.13046
▁bel	-9.13082
▁hell	-9.13094
ford	-9.13109
fon	-9.13155
▁dal	-9.13201
ette	-9.13288
ald	-9.13457
bri	-9.13461
dor	-9.13493
our	-9.13533
selskap	-9.13575
40	-9.13667
som	-9.13719
bygd	-9.1373
asjons	-9.13856
olog	-9.13875
▁dom	-9.13919
jen	-9.14098
▁lin	-9.14216
▁ten	-9.14222
språk	-9.14238
▁valg	-9.14248
▁ph	-9.14318
press	-9.14553
rat	-9.14594
▁tidlig	-9.14671
▁para	-9.14692
kul	-9.14707
▁thomas	-9.14718
alis	-9.14791
▁fant	-9.15114
plass	-9.15168
▁tittelen	-9.15212
▁tegn	-9.15318
▁versjon	-9.15327
▁året	-9.1535
▁klubben	-9.15376
skje	-9.15412
ferd	-9.15556
▁arter	-9.15561
▁ram	-9.15562
graf	-9.1558
▁cor	-9.15596
▁spi	-9.15618
▁produsere	-9.15626
▁1989	-9.15639
▁igjen	-9.15659
▁russland	-9.15701
▁mann	-9.15849
rike	-9.15961
lik	-9.16233
the	-9.16252
bus	-9.16269
▁kron	-9.16302
▁vas	-9.16364
landet	-9.16525
▁full	-9.16532
▁utgjør	-9.16659
▁blod	-9.16677
▁plass	-9.16715
▁lyd	-9.16723
▁george	-9.16777
▁ap	-9.16797
▁brukt	-9.1691
▁fr	-9.16919
▁ind	-9.17075
▁son	-9.17077
▁bank	-9.17104
fugl	-9.17153
vil	-9.17222
jel	-9.17324
▁pen	-9.17431
fag	-9.17442
stasjon	-9.17448
▁fro	-9.17496
у	-9.17536
▁fylkesvei	-9.17549
▁gammel	-9.17557
▁felles	-9.17592
85	-9.17623
▁war	-9.17638
bjørn	-9.17644
▁litt	-9.17655
ves	-9.17659
stil	-9.17702
▁bø	-9.17726
▁les	-9.17751
fører	-9.17769
▁ole	-9.17865
▁slag	-9.17975
ish	-9.18052
pu	-9.18105
ien	-9.18193
▁grad	-9.18194
▁gruppe	-9.18272
▁win	-9.18401
▁tredje	-9.18506
iet	-9.18516
▁student	-9.18533
ativ	-9.18543
ria	-9.18698
kra	-9.1871
ografi	-9.18785
film	-9.18854
▁2011	-9.19006
▁arkitekt	-9.19037
▁jens	-9.1906
▁større	-9.19091
cia	-9.19167
tegn	-9.19237
▁ya	-9.19275
sjef	-9.19496
▁venstre	-9.19516
▁pla	-9.19651
▁hjelp	-9.19779
oni	-9.19799
▁und	-9.19801
dar	-9.19867
▁forhold	-9.19889
▁mye	-9.19981
▁keiser	-9.1999
bø	-9.20002
▁riksvei	-9.20039
▁kle	-9.2017
▁egg	-9.2022
▁fre	-9.20235
▁eng	-9.20296
spiller	-9.20297
lighet	-9.20312
gle	-9.20404
ban	-9.20464
▁skuespiller	-9.20472
▁hovedstad	-9.20571
sjøen	-9.20574
▁konge	-9.20586
▁2004	-9.20588
▁plat	-9.20749
▁gav	-9.20776
øl	-9.20783
liv	-9.2089
▁eksempler	-9.20967
lat	-9.21012
▁david	-9.21052
▁opera	-9.21102
este	-9.2113
▁lille	-9.21171
▁svart	-9.21225
▁mm	-9.21239
zo	-9.21263
▁skolen	-9.21275
▁georg	-9.21296
skip	-9.21307
▁wal	-9.21345
nik	-9.2135
▁super	-9.21416
ick	-9.21431
▁distriktet	-9.21504
▁fyr	-9.21542
▁james	-9.21617
▁kh	-9.21635
▁28	-9.21685
stor	-9.21687
▁årene	-9.21722
▁nett	-9.21733
plan	-9.21784
▁serien	-9.2196
▁kraft	-9.21993
org	-9.22018
▁herre	-9.22043
▁lege	-9.22102
▁sel	-9.22168
10	-9.2225
▁menneske	-9.22304
istisk	-9.22339
▁lær	-9.22341
▁rock	-9.22351
▁utviklet	-9.22363
▁rik	-9.22403
samling	-9.22522
gaard	-9.22528
kov	-9.2254
kast	-9.22551
▁hånd	-9.22554
mund	-9.22665
menn	-9.22678
dt	-9.22692
▁arbeider	-9.22814
ano	-9.22816
elva	-9.2283
▁q	-9.22988
▁pra	-9.23038
▁få	-9.2315
asje	-9.23153
▁regn	-9.23285
▁tr	-9.23288
gard	-9.23428
▁21	-9.23488
▁ø	-9.23598
▁internasjonale	-9.23605
kant	-9.23676
▁mis	-9.23768
▁mur	-9.23908
que	-9.23939
hund	-9.24001
belteasteroide	-9.24006
▁dessuten	-9.24006
▁ska	-9.24031
mot	-9.24058
▁island	-9.24132
▁overtok	-9.24139
90	-9.2415
eksjon	-9.24199
▁prest	-9.24294
jev	-9.24299
systemet	-9.24491
▁helse	-9.24506
60	-9.2452
tus	-9.24541
к	-9.24577
▁finner	-9.24649
▁politisk	-9.2467
▁lund	-9.24683
merke	-9.24761
minister	-9.24788
▁sosial	-9.24901
▁cr	-9.24942
ras	-9.25021
ova	-9.25023
prosess	-9.25023
▁ledet	-9.25043
▁arne	-9.25185
▁slekt	-9.25212
▁kunstner	-9.25229
lus	-9.25243
ved	-9.2526
fin	-9.25283
▁100	-9.25323
▁ter	-9.25389
▁modell	-9.2545
▁die	-9.25497
▁politi	-9.25626
▁albumet	-9.2569
aks	-9.25756
trykk	-9.25758
▁ett	-9.25792
65	-9.25955
68	-9.25973
▁cap	-9.26012
huset	-9.26045
▁fredrik	-9.26107
▁thi	-9.26137
▁eier	-9.262
▁frank	-9.26262
▁prosjekt	-9.26287
▁bilde	-9.26326
▁xi	-9.26377
ance	-9.26472
▁het	-9.26486
▁hovedsakelig	-9.2661
kamp	-9.26769
ologisk	-9.26871
▁spesial	-9.26925
▁2000	-9.27046
pol	-9.27054
senteret	-9.27129
▁michael	-9.2714
zhou	-9.27181
▁liten	-9.27245
stilt	-9.27332
▁høyre	-9.27346
gruppen	-9.27594
gående	-9.2763
70	-9.27755
tok	-9.28006
stoff	-9.28011
▁sj	-9.2802
▁vanlig	-9.28044
▁jon	-9.28081
▁ør	-9.28094
gt	-9.28116
▁ek	-9.28121
▁fal	-9.28122
▁amerikansk	-9.28145
▁29	-9.28172
▁høyeste	-9.28227
▁holm	-9.28425
led	-9.28461
▁ordet	-9.28577
▁standard	-9.28746
▁teater	-9.28816
▁løp	-9.2884
▁will	-9.28869
parti	-9.28914
▁antall	-9.28941
ora	-9.28957
▁grenser	-9.29029
kle	-9.29201
▁bort	-9.29204
stående	-9.29227
▁spesielt	-9.29284
ib	-9.29419
itz	-9.2945
▁grønn	-9.29525
▁pal	-9.29588
▁che	-9.29591
▁viktige	-9.29596
▁gjorde	-9.29602
valg	-9.29605
▁fer	-9.29697
▁annen	-9.29803
ū	-9.29817
▁omkring	-9.29829
tun	-9.29857
kur	-9.29915
▁serie	-9.29949
▁skjer	-9.29975
ismen	-9.30115
sberg	-9.3013
iner	-9.30181
▁mø	-9.30325
gge	-9.30333
dde	-9.30366
▁2001	-9.30407
heten	-9.30445
▁hor	-9.30447
▁sur	-9.30511
▁flo	-9.30698
▁egne	-9.3076
tek	-9.30792
16	-9.30858
▁jag	-9.30873
п	-9.30923
haug	-9.30965
▁len	-9.31209
▁orden	-9.31248
▁universitet	-9.31311
▁løper	-9.31343
▁minne	-9.31417
▁privat	-9.3148
▁strøm	-9.31483
48	-9.31514
▁ordenen	-9.31544
▁jernbane	-9.31551
▁poly	-9.31582
▁il	-9.31602
▁krigs	-9.31619
▁kilde	-9.3164
▁dra	-9.31649
lar	-9.31667
pan	-9.31838
sky	-9.31884
▁nytt	-9.31899
dømme	-9.31924
ky	-9.31936
▁haug	-9.31971
▁mak	-9.31974
▁olje	-9.31983
alt	-9.32008
▁ok	-9.32021
problem	-9.32091
uc	-9.32099
alder	-9.32126
cht	-9.32131
system	-9.32141
elli	-9.32185
med	-9.32194
м	-9.32196
▁yu	-9.3222
shi	-9.32239
▁sm	-9.32269
ssa	-9.32381
▁sverige	-9.32591
partiet	-9.32635
78	-9.32704
▁27	-9.32717
▁gr	-9.32795
▁india	-9.32833
▁våpen	-9.32966
▁fall	-9.33035
dals	-9.33077
39	-9.3313
▁spilles	-9.33144
ull	-9.33145
wi	-9.33145
instrument	-9.33152
▁kull	-9.33216
▁medlemmer	-9.33277
▁kre	-9.33307
55	-9.33336
▁slekten	-9.33339
▁ros	-9.33368
▁hit	-9.33377
▁fle	-9.33387
на	-9.33415
95	-9.33476
ansk	-9.33549
tic	-9.33593
liggende	-9.33722
▁anne	-9.33762
ella	-9.33785
▁sogn	-9.33796
▁arbeidet	-9.33797
rich	-9.33832
▁santa	-9.33982
full	-9.33996
▁eli	-9.34029
bry	-9.34154
▁lan	-9.3417
skrift	-9.34266
strøm	-9.34269
ν	-9.34285
istiske	-9.34317
▁finn	-9.34341
▁handels	-9.34372
las	-9.34397
nor	-9.3441
ain	-9.3447
▁syd	-9.34536
37	-9.34569
▁design	-9.34573
▁tildelt	-9.34574
fal	-9.3463
old	-9.34633
▁hall	-9.34667
iller	-9.34734
farge	-9.34796
▁punkt	-9.34851
▁oppkalt	-9.34861
▁lik	-9.34963
søk	-9.34986
▁bill	-9.35153
heng	-9.35167
▁plante	-9.35271
▁lars	-9.35302
mper	-9.35378
▁bon	-9.35403
▁virke	-9.35465
gor	-9.35475
▁2003	-9.35476
cul	-9.35514
▁partiet	-9.35633
king	-9.35654
▁dø	-9.35663
manns	-9.35796
ød	-9.35839
▁mulig	-9.35858
▁skrift	-9.36023
▁kors	-9.36061
▁kap	-9.36107
▁knut	-9.36129
▁besto	-9.3615
ille	-9.36158
loven	-9.36232
▁region	-9.36311
▁kontroll	-9.36372
▁lau	-9.36389
gul	-9.3642
kla	-9.36485
svis	-9.36497
lund	-9.36561
stedet	-9.36634
än	-9.36709
rå	-9.36786
▁hon	-9.36838
gne	-9.36855
▁utvikling	-9.36907
oli	-9.3695
gitt	-9.36998
▁just	-9.37007
bank	-9.37036
▁31	-9.37065
▁qu	-9.37072
▁world	-9.37176
ori	-9.37177
føring	-9.37205
bær	-9.37497
åk	-9.37608
▁din	-9.37643
▁års	-9.37653
▁kir	-9.37667
ì	-9.37764
▁tyske	-9.37783
▁kat	-9.37815
gon	-9.37874
organ	-9.37906
▁cy	-9.37996
jan	-9.38047
sam	-9.38125
▁vit	-9.38245
erende	-9.38259
▁type	-9.38314
hn	-9.38323
▁byprefekturet	-9.38355
▁vid	-9.38367
fl	-9.38467
felt	-9.38488
▁turn	-9.3867
▁ger	-9.38723
▁selskap	-9.38731
▁rein	-9.38882
ura	-9.3893
stilling	-9.38947
▁måtte	-9.38962
▁gate	-9.38974
▁administrasjons	-9.38978
▁black	-9.39009
punkt	-9.39027
▁sted	-9.3913
98	-9.39141
▁ky	-9.39159
▁hjemme	-9.39172
38	-9.39262
▁stemme	-9.39285
▁gitar	-9.39355
▁lite	-9.3939
▁staten	-9.39413
▁bygget	-9.39424
one	-9.39546
hel	-9.39559
▁stjerne	-9.39568
▁mid	-9.39667
foss	-9.39694
▁hard	-9.39782
▁satt	-9.39797
ón	-9.39833
▁stasjon	-9.39878
ugh	-9.39918
46	-9.39946
▁fv	-9.39952
vig	-9.40145
▁international	-9.40152
▁2012	-9.40171
▁res	-9.40221
▁tiden	-9.40334
▁she	-9.40384
ild	-9.40418
▁es	-9.40435
▁stedet	-9.40458
▁pol	-9.40461
▁myr	-9.40475
▁folk	-9.40482
▁driver	-9.40544
can	-9.40556
vende	-9.4057
▁tilby	-9.40611
▁sky	-9.40703
▁styrke	-9.40712
▁omtrent	-9.40758
▁direkte	-9.40759
cha	-9.40763
▁ungdoms	-9.40766
▁åtte	-9.40807
arter	-9.40905
veg	-9.41098
17	-9.41189
nu	-9.41192
▁tyskland	-9.41262
▁are	-9.41276
▁salt	-9.41313
▁finsk	-9.41325
▁kristian	-9.41389
aceae	-9.41392
▁rot	-9.41432
▁gansk	-9.4144
▁bass	-9.41509
▁rei	-9.4154
▁elva	-9.41571
løse	-9.41606
▁hører	-9.41622
▁trykk	-9.41667
vid	-9.41679
ritt	-9.41732
syre	-9.41744
rad	-9.41863
▁pris	-9.41914
▁sølv	-9.42004
drag	-9.42013
▁nev	-9.42039
▁søster	-9.42087
▁rad	-9.42127
▁40	-9.42189
kraft	-9.42198
▁ev	-9.42223
▁ganger	-9.42245
▁cas	-9.42289
kraftverk	-9.4229
▁amerikanske	-9.42368
▁forsknings	-9.42416
▁bygge	-9.42466
▁dam	-9.42517
▁nils	-9.42521
gra	-9.42539
▁berlin	-9.42598
▁ze	-9.42608
bru	-9.42699
▁larvene	-9.4274
▁tang	-9.42749
områder	-9.4276
ов	-9.42772
▁dar	-9.42958
▁løv	-9.43007
▁kvinne	-9.43151
▁odd	-9.43182
▁tilsvarende	-9.43219
▁seil	-9.43234
ney	-9.43239
▁cam	-9.43254
▁ep	-9.43379
lang	-9.43463
kommune	-9.43465
sykl	-9.4351
äl	-9.43593
havet	-9.43595
vatnet	-9.43615
▁anders	-9.43687
▁litteratur	-9.43714
skapet	-9.43736
røy	-9.43746
▁gla	-9.43766
ala	-9.43768
▁miljø	-9.43828
ager	-9.43841
▁edderkopp	-9.43844
▁national	-9.43846
▁bind	-9.43904
folk	-9.4397
▁arabisk	-9.44002
ial	-9.4401
her	-9.44013
ān	-9.4404
ben	-9.44115
ammen	-9.44147
▁cal	-9.44172
▁app	-9.44256
▁dre	-9.44263
ming	-9.44387
▁university	-9.44567
iserte	-9.44585
▁zi	-9.44603
anger	-9.44633
▁bad	-9.44748
sø	-9.44836
▁imp	-9.44871
lie	-9.44948
▁utgav	-9.44954
▁sau	-9.44963
▁kjøpt	-9.44966
ram	-9.45011
▁50	-9.45011
midler	-9.45076
▁ville	-9.45151
▁hjerte	-9.4516
▁pet	-9.45189
97	-9.45206
▁bay	-9.4543
▁div	-9.4543
▁hest	-9.45476
▁én	-9.45498
86	-9.4554
▁eneste	-9.45583
fest	-9.45596
▁lei	-9.45625
▁flat	-9.45637
▁kro	-9.45672
ι	-9.45743
▁dokument	-9.45743
field	-9.45826
▁pin	-9.45835
▁old	-9.45844
▁stav	-9.45847
anske	-9.45979
▁elv	-9.46022
▁militær	-9.46065
▁sund	-9.46068
cl	-9.46134
▁enkelte	-9.46151
▁johann	-9.46207
▁gil	-9.46234
abel	-9.46275
14	-9.46277
æl	-9.46283
ische	-9.46298
ō	-9.46305
▁stort	-9.46308
▁økonomisk	-9.46384
▁representerer	-9.46384
▁mottok	-9.46481
▁vir	-9.4652
▁180	-9.46573
▁munn	-9.46582
▁för	-9.46593
departementet	-9.46612
▁sir	-9.4666
orm	-9.4666
▁enkelt	-9.46666
▁gass	-9.46675
▁fylkes	-9.46675
▁godt	-9.46685
▁smal	-9.46725
▁aktiv	-9.46771
▁gun	-9.46813
voll	-9.46845
▁offentlig	-9.46893
dige	-9.46939
96	-9.46967
â	-9.47028
ρ	-9.47029
oc	-9.47042
musikk	-9.47151
cent	-9.47168
▁tha	-9.47217
▁deler	-9.47223
low	-9.47261
▁leg	-9.47264
tis	-9.4736
▁hovedstaden	-9.47382
▁fortsatt	-9.47415
året	-9.47571
▁funksjon	-9.4763
▁bakvingen	-9.47681
▁ein	-9.47696
▁informasjon	-9.47725
blad	-9.47752
44	-9.47756
92	-9.47783
hm	-9.47787
trekk	-9.47802
▁hå	-9.47855
▁hatt	-9.47867
▁bygg	-9.47872
▁stø	-9.47879
▁museum	-9.47989
▁nan	-9.48114
▁anna	-9.48149
▁gy	-9.48201
▁sla	-9.48271
▁album	-9.4828
▁sanger	-9.48363
tha	-9.48395
produksjon	-9.48543
▁zu	-9.48568
▁flu	-9.48627
yo	-9.48735
vare	-9.48881
в	-9.48888
grav	-9.48891
▁organ	-9.48905
▁konsert	-9.48938
fjell	-9.48955
lov	-9.4897
▁ball	-9.48991
▁richard	-9.48991
▁delstaten	-9.48993
▁lufthavn	-9.49002
▁spansk	-9.49006
▁hjem	-9.49012
▁bygd	-9.4903
lv	-9.49083
▁mik	-9.49159
▁polsk	-9.49172
▁henrik	-9.4929
løper	-9.49296
▁kirken	-9.49308
▁fest	-9.49361
ico	-9.49364
76	-9.49405
▁mørke	-9.49485
tyr	-9.49486
▁bygde	-9.49538
▁sag	-9.4962
rev	-9.49627
▁høyde	-9.4966
▁egentlig	-9.49677
▁finans	-9.49681
ytter	-9.49704
▁daniel	-9.49744
▁helge	-9.49764
▁legge	-9.49793
▁danner	-9.49807
▁spill	-9.49817
▁mørk	-9.49852
ence	-9.4992
ity	-9.49943
▁strand	-9.4998
▁sten	-9.50089
blomst	-9.50225
well	-9.50316
▁1999	-9.50319
skij	-9.5033
▁middel	-9.50331
ekte	-9.50377
vinger	-9.50398
foreningen	-9.504
lling	-9.5043
▁samling	-9.5049
ical	-9.50524
84	-9.50554
▁bol	-9.50681
bånd	-9.50698
fang	-9.50713
▁uk	-9.50742
▁tett	-9.50779
els	-9.50823
49	-9.50856
▁that	-9.50989
elige	-9.51029
▁nevnes	-9.51074
▁grev	-9.51169
▁klasse	-9.51181
▁linje	-9.51304
formet	-9.51353
ringer	-9.51366
▁with	-9.51412
▁regnes	-9.51472
▁star	-9.51592
▁dyre	-9.51631
τ	-9.51666
ç	-9.51666
▁ant	-9.51667
▁1998	-9.51688
▁gjeld	-9.51693
▁fleste	-9.51759
car	-9.51859
▁bern	-9.51966
▁felt	-9.52028
34	-9.52049
ås	-9.5205
nia	-9.52082
▁dato	-9.52103
▁auto	-9.52205
▁vinner	-9.52206
nom	-9.52206
▁sim	-9.52228
dorf	-9.52277
are	-9.52291
skolen	-9.52311
▁metall	-9.52311
б	-9.52346
▁grunnlagt	-9.52397
øk	-9.524
pur	-9.52414
▁fugle	-9.52454
▁grand	-9.52493
▁best	-9.52528
▁hvert	-9.52644
▁veien	-9.52765
snitt	-9.52822
▁kongen	-9.52831
▁sw	-9.52898
ball	-9.52957
▁sho	-9.52975
▁endre	-9.53001
ade	-9.53039
▁typisk	-9.53039
bygging	-9.53075
▁rh	-9.53082
▁gor	-9.53103
▁eldre	-9.53138
klar	-9.53215
▁produsent	-9.53224
▁frukt	-9.53241
▁wei	-9.53278
▁idretts	-9.53288
pla	-9.53328
fik	-9.53403
▁indisk	-9.53533
unt	-9.53534
▁hær	-9.53694
▁kul	-9.53706
▁nordøst	-9.53723
▁sentrum	-9.53741
▁studert	-9.53745
pha	-9.53786
emi	-9.53801
▁provins	-9.53845
▁vind	-9.53852
▁besøk	-9.5388
▁skade	-9.53897
brudd	-9.53904
▁kommunene	-9.5391
▁uttrykk	-9.5392
kro	-9.53944
▁kraftverk	-9.53949
win	-9.53958
hal	-9.53989
cell	-9.53993
▁aust	-9.54087
▁åpnet	-9.54091
▁kam	-9.541
ture	-9.54174
kunst	-9.54223
▁jern	-9.54273
høy	-9.54348
▁eid	-9.5435
bor	-9.54438
89	-9.5447
▁reise	-9.54494
▁gård	-9.54543
gli	-9.54577
▁press	-9.54672
rio	-9.54702
▁merke	-9.5471
ez	-9.54732
kka	-9.54747
mod	-9.548
forbund	-9.54841
▁skille	-9.54904
gruppe	-9.54911
mit	-9.54955
ati	-9.54972
iti	-9.55102
č	-9.55115
▁middelsstor	-9.55115
▁gitt	-9.55119
▁2013	-9.55137
én	-9.55152
▁spar	-9.55213
wan	-9.55348
▁foss	-9.55378
▁drama	-9.55402
▁rep	-9.55453
verket	-9.55517
ppen	-9.55563
▁løs	-9.55603
▁ken	-9.55623
fot	-9.55632
▁grunnla	-9.55636
▁vokal	-9.55663
net	-9.55714
feltet	-9.55717
feld	-9.55751
▁finland	-9.55753
▁veg	-9.55781
bygning	-9.55814
▁filosof	-9.55819
▁nowiki	-9.55819
ith	-9.55847
▁camp	-9.5585
bilde	-9.55861
forbundet	-9.55937
▁kjerne	-9.55947
utstyr	-9.55949
bare	-9.55991
▁marg	-9.56026
ér	-9.56055
etter	-9.56156
eier	-9.56246
▁behandling	-9.56246
vert	-9.563
▁mol	-9.56334
ping	-9.56373
shan	-9.56417
uch	-9.56435
▁cra	-9.56457
▁tj	-9.56461
▁brukte	-9.56562
▁lyse	-9.56566
evne	-9.56569
▁dannet	-9.56573
▁snø	-9.56616
motor	-9.56735
sport	-9.56739
skriv	-9.56772
▁spille	-9.56831
▁bat	-9.56875
ledning	-9.56886
▁klo	-9.57016
nis	-9.57044
▁harald	-9.57047
▁arten	-9.57058
ktig	-9.5711
spor	-9.57131
▁kin	-9.5716
▁natt	-9.5716
▁cro	-9.57232
▁viktig	-9.57253
▁varme	-9.57368
▁albert	-9.57398
12	-9.57494
tti	-9.57511
▁ana	-9.57606
yang	-9.5768
▁komp	-9.57696
osa	-9.57882
▁sul	-9.57895
58	-9.57961
▁inge	-9.57971
▁bit	-9.58108
▁oppført	-9.58155
▁hør	-9.58191
13	-9.58191
▁king	-9.58244
▁svenske	-9.58245
skudd	-9.58337
▁gren	-9.5834
delen	-9.58394
dø	-9.58413
▁opprettet	-9.585
industri	-9.5856
▁hed	-9.58561
▁nærings	-9.58589
wer	-9.58687
stå	-9.58688
▁autonom	-9.58696
▁1980	-9.58717
hol	-9.58748
87	-9.58759
▁vik	-9.58789
▁produksjon	-9.58807
able	-9.58853
▁renner	-9.58868
▁lengde	-9.58897
chu	-9.58929
67	-9.58946
▁syv	-9.58962
gata	-9.5904
retning	-9.59065
band	-9.59145
bol	-9.59153
▁betydning	-9.59157
15	-9.59264
▁ton	-9.59325
▁japan	-9.59363
▁betydelig	-9.59418
det	-9.59433
▁charles	-9.59444
▁etablert	-9.59451
eide	-9.59493
illa	-9.59519
▁andreas	-9.59549
▁populær	-9.59556
oid	-9.59574
▁gje	-9.59577
▁ann	-9.5959
dia	-9.59617
ias	-9.59636
▁max	-9.59637
▁north	-9.59668
▁skje	-9.59719
▁knytte	-9.5977
▁omfatte	-9.59796
▁trekk	-9.59806
poli	-9.59842
▁grense	-9.59849
▁cho	-9.59858
▁slå	-9.5993
▁gjør	-9.59963
grunn	-9.60031
øyene	-9.60127
ο	-9.60147
́	-9.60152
▁service	-9.60152
▁statsminister	-9.60171
▁dj	-9.6019
▁power	-9.60216
ernes	-9.60306
▁musiker	-9.6034
05	-9.60348
▁historisk	-9.60374
lei	-9.60569
oppgave	-9.60624
mil	-9.60666
▁beskrive	-9.60684
▁valgt	-9.60741
bein	-9.60751
zy	-9.60753
▁verdi	-9.60786
▁brann	-9.6085
▁sterkt	-9.60865
bladet	-9.6088
▁arbeid	-9.60887
klubben	-9.60888
▁eldste	-9.60894
▁altså	-9.60896
▁kas	-9.60928
▁debut	-9.60951
tag	-9.61
▁jobb	-9.61027
▁pl	-9.61131
▁kjøp	-9.61326
▁blei	-9.61408
▁32	-9.61423
sang	-9.61436
▁internasjonal	-9.61474
▁nam	-9.61611
▁ce	-9.61616
hall	-9.61619
▁israel	-9.6164
▁maskin	-9.61641
▁politiker	-9.61737
▁hud	-9.61796
sil	-9.61803
▁venn	-9.61813
▁kjell	-9.61835
▁wat	-9.6185
gir	-9.61943
con	-9.61997
▁tung	-9.61999
▁passer	-9.6216
▁por	-9.62174
й	-9.62213
mur	-9.62233
▁jean	-9.62281
mes	-9.62309
strand	-9.62363
▁louis	-9.62392
▁2014	-9.62416
▁glo	-9.62465
▁kroppen	-9.62473
35	-9.62509
▁bolig	-9.62581
▁dro	-9.62738
vekst	-9.62837
▁benytte	-9.6286
▁kjø	-9.62865
▁villa	-9.6287
▁drift	-9.62933
▁pop	-9.63038
▁leir	-9.63063
områdene	-9.63065
▁ec	-9.63091
▁wu	-9.63162
gger	-9.63194
last	-9.63206
88	-9.63322
▁avdeling	-9.63326
▁vold	-9.63357
▁web	-9.63366
▁zo	-9.63385
grense	-9.63454
sikt	-9.63492
11	-9.63507
▁årlig	-9.63589
lønn	-9.63627
08	-9.63761
▁produsert	-9.63882
representant	-9.63911
▁1997	-9.63934
▁iso	-9.6396
▁vinge	-9.64072
deles	-9.64105
▁vekt	-9.64155
▁hvite	-9.64294
▁stan	-9.64329
▁betegne	-9.64347
rek	-9.64431
▁elev	-9.64431
▁jur	-9.6449
kler	-9.64526
▁sort	-9.64658
▁tjeneste	-9.64658
▁offisiell	-9.64681
myndighet	-9.64681
messig	-9.647
▁1990	-9.64709
▁danmark	-9.64721
gården	-9.64722
▁forsøk	-9.64744
korps	-9.64747
▁long	-9.64764
▁nasjonale	-9.64795
nummer	-9.64853
avi	-9.64963
▁krist	-9.64974
▁boken	-9.65017
ique	-9.65055
yll	-9.65163
г	-9.65175
eringen	-9.65212
rådet	-9.65238
▁tap	-9.65239
25	-9.6525
▁stiftet	-9.6527
я	-9.65456
▁1991	-9.65456
top	-9.65504
▁transport	-9.65507
middel	-9.65515
maskin	-9.65517
▁erstatte	-9.65556
▁may	-9.65642
ordenen	-9.65695
butikk	-9.65704
ira	-9.65707
▁glass	-9.65707
vogn	-9.65788
▁us	-9.65817
▁time	-9.65873
▁rang	-9.65911
▁høyt	-9.65932
klo	-9.65965
▁sentrale	-9.65971
ua	-9.66042
▁comp	-9.66084
▁gru	-9.66144
▁1993	-9.66237
▁demokrat	-9.66237
▁kropp	-9.66251
virkning	-9.66276
▁redaktør	-9.66371
79	-9.66389
▁lar	-9.66395
18	-9.66415
▁enhet	-9.6643
▁sports	-9.66455
▁angel	-9.6646
▁svarte	-9.66498
▁larven	-9.6658
ima	-9.6673
eller	-9.66738
▁blomster	-9.66848
▁ref	-9.66852
▁test	-9.66995
▁epi	-9.67006
teknikk	-9.67026
▁dansk	-9.67125
ulf	-9.67133
rekord	-9.67149
bit	-9.6718
pel	-9.67191
ín	-9.67196
▁sju	-9.67206
▁35	-9.67227
▁neu	-9.67334
lid	-9.67368
akt	-9.67446
▁kai	-9.67448
▁nordvest	-9.67827
▁forenkle	-9.67857
▁slott	-9.679
cheng	-9.67909
trær	-9.67919
▁flytte	-9.67926
▁italia	-9.67928
vit	-9.6804
▁class	-9.68074
▁hydro	-9.68138
24	-9.68141
▁tittel	-9.68143
dring	-9.68171
▁love	-9.68176
▁kvi	-9.68257
71	-9.68269
▁indre	-9.68407
kilde	-9.68466
▁1995	-9.68645
rup	-9.68679
▁kloster	-9.6868
▁tverr	-9.68699
yuan	-9.68727
▁bio	-9.6879
▁flor	-9.68932
oner	-9.69093
59	-9.69202
▁angrep	-9.69203
▁neste	-9.69222
▁selve	-9.69241
cher	-9.69329
▁regionen	-9.69337
ß	-9.69388
ual	-9.69391
ε	-9.69424
▁brenselkilden	-9.69425
▁wilhelm	-9.69425
▁http	-9.69426
▁samle	-9.69453
▁60	-9.69474
▁korte	-9.69482
▁nr	-9.69531
▁fører	-9.69601
flu	-9.69613
▁80	-9.69676
▁delt	-9.69681
▁linjen	-9.69686
vold	-9.69774
▁hovedrollene	-9.69834
▁møte	-9.69846
▁cur	-9.69891
19	-9.69911
oksid	-9.70068
▁russ	-9.7008
dahl	-9.7015
▁gjøre	-9.70178
▁elektro	-9.70219
▁arn	-9.70234
▁arrangere	-9.70238
▁qū	-9.70253
▁artikkel	-9.70254
▁1992	-9.70261
▁bille	-9.70328
▁hum	-9.70336
▁produkt	-9.70527
▁landsbyen	-9.70563
▁lokale	-9.70639
▁anton	-9.70771
▁ask	-9.70846
arm	-9.70935
▁nabo	-9.70998
▁original	-9.71054
▁1983	-9.71057
▁london	-9.71058
svik	-9.71096
din	-9.71133
politikk	-9.7115
holm	-9.71217
▁resultat	-9.71237
▁hvis	-9.71242
▁tank	-9.71273
32	-9.71305
bakken	-9.71313
▁verden	-9.71317
▁rå	-9.71442
▁pass	-9.71497
kryss	-9.71547
▁steder	-9.71604
tøy	-9.71611
▁nar	-9.71645
▁bob	-9.71684
mond	-9.71685
▁tau	-9.71743
lad	-9.71784
▁båt	-9.71813
▁adel	-9.71844
▁1994	-9.71884
▁bydistrikt	-9.71918
hin	-9.71989
▁deltok	-9.71994
▁primær	-9.72013
▁kraftig	-9.72061
▁daglig	-9.72075
▁drev	-9.72184
▁bla	-9.72191
▁song	-9.72207
▁gau	-9.72232
vekt	-9.72299
▁slo	-9.72382
avdeling	-9.72438
sopp	-9.72475
tog	-9.72542
▁meg	-9.72643
▁tw	-9.72654
▁horn	-9.72688
▁sommeren	-9.72693
fabrikk	-9.72715
▁ønske	-9.72735
▁1988	-9.72738
▁høsten	-9.72758
▁jazz	-9.72775
▁antenne	-9.72801
værende	-9.72819
▁skips	-9.72836
▁hellig	-9.72854
kultur	-9.7297
▁økt	-9.72987
slav	-9.73036
ato	-9.73059
▁effekt	-9.73269
▁simon	-9.7331
▁stasjonen	-9.73456
ili	-9.73504
▁but	-9.7351
kanalen	-9.73513
▁kategori	-9.73558
▁tidsskrift	-9.73567
marked	-9.73567
▁mannskapet	-9.73575
▁1996	-9.73581
▁sykdom	-9.73614
▁nummer	-9.73627
▁ferdig	-9.73722
▁mikro	-9.73763
hof	-9.73785
rør	-9.7381
kreft	-9.73847
hjem	-9.73855
shire	-9.73968
▁gården	-9.74005
ville	-9.74039
samfunn	-9.74131
fold	-9.74161
ats	-9.74176
san	-9.74192
64	-9.74279
▁danske	-9.74299
drift	-9.74317
▁esp	-9.74341
cho	-9.74364
▁ting	-9.74398
σ	-9.74405
hør	-9.74407
▁øvre	-9.74424
hed	-9.74453
produkter	-9.74453
▁uavhengig	-9.74464
▁likevel	-9.74468
▁gua	-9.74495
▁att	-9.7453
hjul	-9.7456
▁nes	-9.74565
▁que	-9.74595
gangen	-9.7463
▁sven	-9.74634
▁dyr	-9.74802
▁minst	-9.74843
linjen	-9.74865
light	-9.74897
▁professor	-9.7492
gress	-9.74937
▁fan	-9.75023
▁lek	-9.75078
▁program	-9.75079
▁millioner	-9.7509
hei	-9.75129
pin	-9.7514
▁forbindelse	-9.75147
nov	-9.75152
28	-9.75158
ев	-9.75162
fil	-9.75185
ringen	-9.75236
ström	-9.7526
▁school	-9.75261
▁foreldre	-9.75262
▁1987	-9.75282
▁2016	-9.75296
▁britiske	-9.75305
saker	-9.75332
▁с	-9.75337
▁skapt	-9.75378
historie	-9.75521
ary	-9.75522
▁music	-9.75543
rand	-9.75588
▁direktør	-9.7561
▁log	-9.75669
▁sesongen	-9.75739
▁jule	-9.75766
uz	-9.75828
▁klar	-9.75918
▁sendt	-9.75982
45	-9.76
▁cat	-9.76037
▁tall	-9.76085
ön	-9.76103
▁oc	-9.76115
▁joseph	-9.76122
▁dyp	-9.76123
▁tydelig	-9.76127
▁trondheim	-9.76136
▁virksomhet	-9.7614
▁sivil	-9.76226
firma	-9.76252
▁lø	-9.76264
stol	-9.76268
kirken	-9.76361
▁hj	-9.76398
våpen	-9.76407
▁elve	-9.76438
▁personlig	-9.76454
▁delvis	-9.7648
row	-9.76493
dam	-9.76561
▁utvide	-9.76575
pek	-9.76697
utstilling	-9.767
▁live	-9.76708
pot	-9.76733
handler	-9.76852
▁uttale	-9.76857
▁dun	-9.76893
75	-9.76909
▁ud	-9.7692
mid	-9.76941
▁øvrig	-9.76992
▁tam	-9.76995
▁temperatur	-9.77038
▁mah	-9.77054
stykke	-9.77064
hode	-9.7707
▁aldri	-9.77083
▁hansen	-9.77084
▁euro	-9.77127
▁high	-9.77142
▁henry	-9.77153
▁spiss	-9.77161
tig	-9.772
▁utgi	-9.77207
mos	-9.77251
▁qui	-9.77263
▁dynastiet	-9.77265
▁hannen	-9.77301
▁personer	-9.77378
▁olsen	-9.77378
▁ordens	-9.77462
▁gui	-9.77547
▁kara	-9.77616
▁buss	-9.77624
▁off	-9.77693
liste	-9.77714
▁ris	-9.77739
klasse	-9.77817
ù	-9.77868
▁biskop	-9.7787
▁2015	-9.77896
▁anlegget	-9.77913
▁makt	-9.77926
basert	-9.77934
▁holde	-9.78034
nch	-9.78042
▁rolle	-9.78062
▁run	-9.78066
mul	-9.78085
styrt	-9.78106
gjorde	-9.78121
▁luk	-9.78125
▁stammer	-9.7822
kort	-9.78232
havn	-9.78323
▁sko	-9.78368
lokk	-9.78429
ко	-9.78439
▁kok	-9.78443
kamera	-9.78448
lé	-9.78538
kirke	-9.78582
▁borger	-9.78612
nan	-9.78644
▁tan	-9.78648
merket	-9.78718
plassen	-9.78733
λ	-9.78753
▁kulturminner	-9.78753
▁stockholm	-9.78753
▁utdannet	-9.78753
▁kilometer	-9.78753
▁tilhørte	-9.78755
▁club	-9.78755
▁geo	-9.78783
▁blue	-9.7881
▁bell	-9.78876
▁dahl	-9.78897
ст	-9.78902
▁roma	-9.79042
▁komponist	-9.79123
▁langt	-9.79175
▁rute	-9.79325
▁lærer	-9.79335
▁omtale	-9.79364
▁gall	-9.79403
▁176	-9.79412
▁bestod	-9.79416
▁borg	-9.79453
▁delta	-9.79501
▁170	-9.79517
▁70	-9.79526
▁hill	-9.79549
stø	-9.79584
▁øverst	-9.79649
på	-9.79657
sand	-9.79662
▁fått	-9.79699
000	-9.79741
varer	-9.79896
programmer	-9.7993
▁beskrev	-9.79937
skilt	-9.80197
▁nrk	-9.80233
▁vanlige	-9.80245
▁hode	-9.80316
spis	-9.80464
ppel	-9.80504
▁vær	-9.8053
▁nåværende	-9.80573
▁start	-9.80616
▁tids	-9.80751
riket	-9.80777
brun	-9.80809
▁alf	-9.80826
▁samfunns	-9.80886
▁brit	-9.80898
musik	-9.80972
▁lære	-9.81031
tjenester	-9.81066
fjellet	-9.81158
▁unge	-9.81198
▁tim	-9.81217
løsning	-9.81375
▁forkorte	-9.81381
▁rosen	-9.81397
▁kart	-9.81443
▁administrativ	-9.81456
vor	-9.81468
▁real	-9.81472
▁nattfly	-9.81482
▁2017	-9.81489
▁bølge	-9.81502
com	-9.81553
gruppa	-9.81581
arbeider	-9.81619
holmen	-9.81645
ark	-9.81684
▁bærer	-9.81723
▁rygg	-9.81756
▁teksten	-9.81802
▁kalte	-9.81806
▁ö	-9.81844
utgivelse	-9.81877
lock	-9.81882
▁konkurranse	-9.81916
syke	-9.81922
▁elektrisk	-9.81932
▁livs	-9.81958
▁størrelse	-9.82002
▁ran	-9.82023
▁skul	-9.82029
rov	-9.82059
▁sjef	-9.82101
▁dol	-9.82103
koll	-9.82141
▁disk	-9.82172
▁skrive	-9.82253
▁sun	-9.82278
▁nederlandsk	-9.82308
▁vä	-9.82315
▁christ	-9.8234
22	-9.8235
▁jim	-9.82353
▁1982	-9.82374
▁xiàn	-9.82374
stikk	-9.8239
36	-9.82406
iger	-9.82434
▁120	-9.82453
▁danse	-9.82524
▁fordi	-9.82527
parken	-9.82532
▁forfatteren	-9.82543
ies	-9.82547
assi	-9.82548
▁organisasjonen	-9.82549
▁bydelen	-9.82555
plasser	-9.82578
azz	-9.82635
sis	-9.82642
prisen	-9.8272
roll	-9.82744
enberg	-9.82753
▁operasjon	-9.82776
▁team	-9.82786
utvikling	-9.82798
▁typer	-9.82814
kontor	-9.82888
▁arve	-9.82997
pal	-9.831
▁troll	-9.83142
▁00	-9.83221
▁aktivitet	-9.83272
▁www	-9.833
formede	-9.8331
▁oblast	-9.83315
▁smith	-9.83316
reng	-9.83338
▁rob	-9.83344
▁shu	-9.83407
▁fylket	-9.83446
serien	-9.8346
▁kim	-9.83492
former	-9.83513
▁cm	-9.83552
▁marie	-9.83623
cal	-9.83627
▁hopp	-9.83655
fart	-9.83666
formen	-9.83769
▁boy	-9.83802
museum	-9.83803
▁char	-9.83856
▁ledelse	-9.83962
hua	-9.84015
▁lyn	-9.84025
▁bøker	-9.84052
▁hul	-9.841
linje	-9.8417
▁gunnar	-9.84238
▁meget	-9.84238
▁1984	-9.84261
▁group	-9.84268
▁1985	-9.8427
vinner	-9.84314
vesen	-9.84373
▁drag	-9.84396
bakk	-9.8442
▁mes	-9.84483
▁gutt	-9.84498
▁benyttet	-9.84507
dannelse	-9.84553
▁manus	-9.84591
▁stod	-9.8462
▁bomb	-9.84687
▁akademi	-9.84707
nntil	-9.8477
hai	-9.84842
lli	-9.84885
▁flyplass	-9.84997
▁total	-9.85039
▁jacob	-9.85104
▁hou	-9.85106
▁fjord	-9.85115
ada	-9.85171
▁eva	-9.85171
ē	-9.85177
▁naturgass	-9.85178
▁sørøst	-9.8518
▁dronning	-9.85186
▁publisert	-9.85202
tikken	-9.85209
▁multi	-9.8521
ante	-9.85233
▁hunde	-9.85311
▁cer	-9.85319
rød	-9.85363
▁dommer	-9.85379
▁pave	-9.85426
▁brand	-9.85462
▁fc	-9.85487
▁niels	-9.85527
▁kost	-9.85529
▁plate	-9.85543
▁hoff	-9.85724
▁oliv	-9.85739
▁aur	-9.85808
▁vill	-9.85822
gå	-9.85832
linjer	-9.85944
fartøy	-9.86016
▁element	-9.86085
▁kode	-9.86094
▁phil	-9.86105
μ	-9.8613
▁fulgte	-9.8613
▁hustru	-9.86133
▁york	-9.8614
▁akt	-9.8618
▁ost	-9.86182
▁franske	-9.863
▁gram	-9.86339
21	-9.86352
rekke	-9.8636
42	-9.86363
▁в	-9.86429
▁kari	-9.86478
▁hodet	-9.86522
▁hunnen	-9.86558
innen	-9.86614
finn	-9.8672
olu	-9.86738
▁lot	-9.86797
▁dialekt	-9.86804
grupper	-9.86812
▁innsjøen	-9.86859
▁tema	-9.86876
▁cru	-9.86973
aya	-9.86977
▁material	-9.86986
▁bokstav	-9.87062
▁tilgjengelig	-9.87091
▁relativ	-9.87092
▁gustav	-9.87094
▁33	-9.871
svømme	-9.8714
▁omtalt	-9.87141
handel	-9.87164
▁from	-9.8722
▁frø	-9.87221
ł	-9.87229
festivalen	-9.87245
▁trafikk	-9.87246
▁føl	-9.87318
▁hv	-9.87326
▁kall	-9.87348
fle	-9.87378
bevegelsen	-9.87401
▁handling	-9.87411
mini	-9.87418
▁base	-9.87502
jord	-9.87538
▁apo	-9.87581
▁råd	-9.87647
ár	-9.87677
▁kontor	-9.87871
▁150	-9.87905
ô	-9.87988
▁ara	-9.88032
з	-9.88062
▁tilknyttet	-9.88062
▁klassisk	-9.88066
▁prosent	-9.8807
▁south	-9.88073
▁ordfører	-9.88096
▁solgt	-9.88195
▁bord	-9.88234
▁marine	-9.88258
▁larsen	-9.88273
▁city	-9.88276
▁up	-9.88277
▁bibliotek	-9.88299
▁forretnings	-9.88314
atur	-9.88339
analyse	-9.88353
aktig	-9.88469
trinn	-9.88492
verdi	-9.88505
▁gress	-9.88531
▁lyst	-9.8855
▁vor	-9.886
▁gjeste	-9.88616
prosjekt	-9.88663
vang	-9.88705
▁melodi	-9.88739
▁arv	-9.88751
▁90	-9.88761
åsen	-9.88824
▁hage	-9.88855
▁stri	-9.8891
▁1986	-9.89074
▁bronse	-9.89083
▁ube	-9.89128
▁plu	-9.89147
▁records	-9.89172
karriere	-9.89209
▁britisk	-9.89256
gav	-9.89344
▁høyere	-9.89447
zu	-9.89477
▁kristen	-9.89487
▁steve	-9.89533
ån	-9.89576
▁åpen	-9.89584
▁benyttes	-9.89775
▁behandle	-9.89818
▁75	-9.89832
▁markert	-9.89849
▁brenn	-9.89953
▁regjeringen	-9.89954
▁stam	-9.89977
aktiv	-9.90032
κ	-9.90033
▁1979	-9.90057
▁tørr	-9.90088
vision	-9.90101
▁human	-9.90118
▁kha	-9.90152
▁amt	-9.90165
▁bygningen	-9.90214
▁vokste	-9.9029
▁holdt	-9.90294
▁påvirke	-9.90392
snegl	-9.9041
gate	-9.90456
▁jack	-9.90485
▁dor	-9.90486
handling	-9.90506
▁dekk	-9.90548
▁normal	-9.90557
▁interesse	-9.90557
▁motta	-9.90557
▁sor	-9.90562
▁koll	-9.90682
▁ali	-9.90726
▁totalt	-9.90892
▁dekker	-9.90958
▁matt	-9.90965
▁video	-9.91003
hild	-9.91022
ë	-9.91033
▁fjerde	-9.91034
bedrift	-9.91043
▁møtte	-9.91045
▁frankrike	-9.91054
▁ledd	-9.91081
▁betegnelsen	-9.91082
ledd	-9.91112
▁alltid	-9.91172
▁dersom	-9.91177
▁saa	-9.91245
▁fjellet	-9.91269
▁bos	-9.91277
aba	-9.91355
▁motstand	-9.91358
ctor	-9.91392
▁forsvars	-9.91452
▁fortsatte	-9.91494
gy	-9.915
▁jevn	-9.91597
iva	-9.91624
zon	-9.91647
offiser	-9.91664
▁sja	-9.91687
▁sær	-9.91687
▁nø	-9.91729
produsent	-9.91759
▁pap	-9.91777
▁out	-9.91891
modell	-9.91893
▁od	-9.9194
▁naturlig	-9.91975
isch	-9.91983
olo	-9.91984
▁bevegelse	-9.91989
bach	-9.9199
war	-9.91997
somme	-9.92022
▁alternativ	-9.92043
▁1977	-9.92043
▁kardinal	-9.92043
▁sveits	-9.92044
▁regissert	-9.92044
▁fjær	-9.92045
▁sørvest	-9.92047
▁begrepet	-9.92058
▁seier	-9.92068
▁førte	-9.92092
▁36	-9.92095
▁otto	-9.92158
tting	-9.92163
lignende	-9.9218
▁cri	-9.92194
fortelling	-9.92237
▁tun	-9.92317
cio	-9.92354
▁underlagt	-9.9237
▁gold	-9.92372
▁klokke	-9.92426
▁try	-9.92471
▁yo	-9.92509
aria	-9.92549
▁ari	-9.92558
sjø	-9.92617
▁green	-9.9262
▁turist	-9.92708
▁rand	-9.92795
▁skipet	-9.92821
▁back	-9.92874
▁fot	-9.92968
ytte	-9.92968
▁henne	-9.92973
gnos	-9.93001
▁whi	-9.93012
utdanning	-9.93015
▁inc	-9.9302
▁avis	-9.9303
▁prefektur	-9.93063
▁religion	-9.93064
▁magnus	-9.93072
▁referere	-9.93086
historiker	-9.93087
fjellene	-9.93087
▁kjønn	-9.931
psykologi	-9.9312
▁stig	-9.93169
▁foruten	-9.93217
▁perioden	-9.93264
▁menighet	-9.93278
▁paris	-9.9333
▁qi	-9.93388
▁trener	-9.93435
visning	-9.93457
▁klima	-9.93471
▁æres	-9.93497
▁raskt	-9.93512
▁buk	-9.9352
▁festival	-9.93697
▁skj	-9.93697
▁symbol	-9.93722
▁sco	-9.93737
▁mester	-9.9374
▁american	-9.93744
▁fjorden	-9.93756
▁gjort	-9.93777
vitenskap	-9.9385
hopp	-9.93869
ра	-9.9387
▁scene	-9.93926
▁mill	-9.93958
▁hem	-9.94061
▁mangler	-9.94104
▁verne	-9.94107
▁1970	-9.94132
▁skatte	-9.94155
▁prisen	-9.94165
▁henhold	-9.94188
olje	-9.94191
cker	-9.94248
▁stamme	-9.94251
▁nok	-9.9427
▁stopp	-9.94302
bul	-9.94339
▁tettsted	-9.94374
▁front	-9.94378
▁kry	-9.94414
▁chu	-9.94455
▁produksjons	-9.94612
▁single	-9.94614
vikler	-9.9472
▁kvinner	-9.94725
▁stol	-9.9473
▁sav	-9.9477
▁driv	-9.94808
▁cle	-9.94809
ward	-9.94918
hånd	-9.94923
oma	-9.94943
▁storm	-9.95068
sanger	-9.95082
26	-9.9509
ος	-9.95142
▁canada	-9.95166
▁antonio	-9.95194
▁byer	-9.95216
▁grupper	-9.95243
rim	-9.95309
kjøretøy	-9.95421
▁skip	-9.95462
▁mennesker	-9.95499
▁retning	-9.95555
▁artene	-9.95566
vald	-9.95603
lak	-9.95612
▁listen	-9.95856
▁teknisk	-9.95896
lich	-9.95953
lingen	-9.96022
museet	-9.96059
▁200	-9.96171
▁papir	-9.96197
▁bygda	-9.96221
park	-9.96226
brød	-9.96274
arten	-9.96292
▁kalk	-9.96359
▁forskning	-9.96458
vika	-9.96462
▁regjerings	-9.96473
▁nasjonalpark	-9.96493
▁høye	-9.96521
▁asia	-9.9659
▁skriver	-9.96664
vre	-9.96701
hov	-9.96707
▁peder	-9.96717
▁tone	-9.96778
levende	-9.96823
▁laste	-9.96839
▁polar	-9.96857
▁holder	-9.96867
pet	-9.96875
▁bland	-9.96876
▁måte	-9.96892
awa	-9.9698
▁bety	-9.96989
vall	-9.97015
forfatter	-9.9708
album	-9.97106
▁kil	-9.97141
▁drive	-9.97171
tempelet	-9.97181
▁1981	-9.97252
▁christoph	-9.97253
ingeniør	-9.97269
ire	-9.97283
▁varierer	-9.973
▁brø	-9.97415
▁stål	-9.97424
▁festning	-9.97444
▁orkester	-9.97488
tsje	-9.97522
▁ou	-9.97533
▁svak	-9.97538
▁lignende	-9.97545
▁korn	-9.97593
▁krets	-9.9763
etten	-9.97715
▁feil	-9.97729
▁stift	-9.97748
▁gjer	-9.97784
▁eik	-9.97807
▁normalt	-9.97837
29	-9.97858
program	-9.97902
valget	-9.9795
cup	-9.98163
▁tilhøre	-9.9818
▁sønnen	-9.98205
▁ung	-9.98222
▁markeds	-9.9828
▁intern	-9.98319
ś	-9.98328
▁storbritannia	-9.98328
▁derimot	-9.98329
▁havne	-9.98332
▁middelalder	-9.98343
▁familiegruppen	-9.98354
typen	-9.98377
▁opprør	-9.98503
▁huset	-9.98609
▁enten	-9.98647
▁pur	-9.98693
▁celle	-9.98714
ikere	-9.98746
årig	-9.9877
hor	-9.98862
▁morten	-9.9902
krets	-9.99162
▁øyene	-9.99162
▁metal	-9.99265
▁afrika	-9.99406
ы	-9.99415
▁deriblant	-9.99415
▁københavn	-9.99415
▁jakob	-9.99416
▁college	-9.99422
▁rolf	-9.99423
ан	-9.99425
▁kvar	-9.99432
▁drammen	-9.99443
god	-9.99467
▁500	-9.9948
▁dominere	-9.99486
▁alfred	-9.99505
▁forvingen	-9.99515
innspilling	-9.99532
▁herman	-9.99534
▁300	-9.99558
▁sats	-9.99562
▁johansen	-9.99574
kritiker	-9.99576
phy	-9.99576
▁tog	-9.99578
▁bonde	-9.99579
▁award	-9.99585
▁atom	-9.99641
▁small	-9.99819
▁prop	-9.99823
▁arkiv	-9.99832
ór	-9.99863
▁tann	-9.99868
▁game	-9.99888
▁hov	-9.99903
dagen	-9.99911
▁avslutte	-9.99916
▁penge	-9.99921
slutt	-9.99937
seth	-9.99943
vand	-10.0004
▁landskap	-10.0004
▁maur	-10.001
▁verb	-10.0017
▁kjemisk	-10.0019
▁spp	-10.0021
▁meta	-10.0024
▁sar	-10.0028
spenning	-10.0029
▁sterke	-10.0032
▁sti	-10.0035
▁tatt	-10.0036
kutt	-10.0038
▁melk	-10.0041
▁hverandre	-10.0051
▁nicol	-10.0057
▁harry	-10.0063
later	-10.0064
▁mengde	-10.0075
▁los	-10.008
▁divisjon	-10.0094
næs	-10.0099
▁teknologi	-10.0102
opera	-10.0103
▁adam	-10.0109
▁oversatt	-10.0121
▁klubb	-10.0126
▁emil	-10.014
▁solo	-10.0145
▁komme	-10.0148
distrikt	-10.015
tilbud	-10.0152
▁etablerte	-10.0157
▁ånd	-10.0157
ñ	-10.0162
ž	-10.0162
▁friedrich	-10.0162
▁1974	-10.0162
▁1973	-10.0162
▁inspirert	-10.0162
▁norrøn	-10.0163
grå	-10.0163
▁journalist	-10.0164
mont	-10.0165
▁utga	-10.0165
▁1978	-10.0166
▁pul	-10.0167
▁gjø	-10.017
▁artist	-10.0173
▁malm	-10.0175
▁røde	-10.0178
▁internett	-10.0179
▁mitt	-10.0182
vannet	-10.0184
▁flekk	-10.0187
▁kjøre	-10.019
hallen	-10.0193
▁sankt	-10.0198
dikt	-10.0198
▁england	-10.0203
sdatter	-10.0205
▁måned	-10.0206
▁wen	-10.0212
▁wil	-10.0216
▁retts	-10.0222
▁num	-10.0223
jö	-10.0225
ál	-10.0229
▁bedre	-10.0229
▁union	-10.0233
▁åpne	-10.0235
▁roger	-10.0242
▁fabrikk	-10.0251
▁idrettslag	-10.0255
▁prøve	-10.0256
konge	-10.0264
leir	-10.0266
edit	-10.0267
▁plassert	-10.0268
rygg	-10.0272
ò	-10.0275
▁styrmann	-10.0275
▁egypt	-10.0275
▁inneholdt	-10.0275
frekvens	-10.0275
▁amerika	-10.0275
▁deutsch	-10.0275
kandidat	-10.0276
▁stavanger	-10.0276
▁fremdeles	-10.028
ät	-10.028
▁lager	-10.0283
▁hvordan	-10.0285
møte	-10.0291
kjede	-10.0292
skiftet	-10.0303
systemer	-10.0304
▁trond	-10.0306
roman	-10.0309
▁stille	-10.0312
▁grov	-10.0316
▁furu	-10.0326
▁jarl	-10.0332
▁hil	-10.0341
spir	-10.0343
▁mei	-10.0345
▁struktur	-10.0356
wald	-10.0361
▁fremme	-10.0363
institut	-10.0363
format	-10.0365
▁univers	-10.0365
isse	-10.0368
▁åpning	-10.0376
▁selge	-10.038
gram	-10.0383
pass	-10.0386
virksomhet	-10.0386
▁folket	-10.0386
▁prins	-10.0387
▁skape	-10.0388
▁vingespenn	-10.0388
▁administrere	-10.0388
▁berømt	-10.0388
spørsmål	-10.0388
▁flertall	-10.0389
▁drept	-10.0391
kommando	-10.0391
▁1968	-10.0392
▁pedersen	-10.0396
inae	-10.0405
▁mobil	-10.0408
plikt	-10.041
▁liber	-10.0415
▁verd	-10.0416
▁geir	-10.0419
▁forsvar	-10.0419
▁ansvarlig	-10.0423
▁wolf	-10.0426
galleri	-10.0429
onia	-10.0434
▁sideelv	-10.0436
▁følge	-10.044
▁aar	-10.0443
blom	-10.0443
herre	-10.0443
▁server	-10.0445
▁krav	-10.0449
▁ramme	-10.0454
▁malt	-10.0454
▁cel	-10.0455
gri	-10.0464
▁sab	-10.0472
▁master	-10.0472
sentre	-10.0476
▁rør	-10.0477
▁ark	-10.0478
kvalitet	-10.048
▁kru	-10.0481
▁az	-10.0486
▁hin	-10.0489
▁stykk	-10.0498
bygningen	-10.0498
▁chang	-10.05
▁opprinnelse	-10.0503
▁ukrainsk	-10.0503
▁digital	-10.0503
▁hurtig	-10.0504
▁inngår	-10.0504
▁royal	-10.0504
▁ferr	-10.0505
▁andersen	-10.0514
▁trommer	-10.0516
▁kjenne	-10.0525
ikkel	-10.0529
▁fjern	-10.0531
▁oh	-10.0534
▁verket	-10.0534
▁prof	-10.0536
▁foto	-10.0539
pes	-10.054
▁jakt	-10.0542
▁stoff	-10.0547
fyr	-10.055
▁petter	-10.0558
▁medisin	-10.0563
▁forsker	-10.0576
▁irsk	-10.0582
▁nærmeste	-10.0583
▁dog	-10.0597
byrå	-10.06
▁beg	-10.0604
▁day	-10.0615
head	-10.0617
kasse	-10.0618
ekspedisjon	-10.062
forskjell	-10.062
▁lengst	-10.0621
▁edward	-10.0622
wood	-10.0623
bridge	-10.0625
▁iii	-10.0626
▁saint	-10.0628
▁scott	-10.0628
▁eiendom	-10.0631
sey	-10.0633
teori	-10.0634
▁qua	-10.0641
ello	-10.0646
▁kristin	-10.0646
▁fange	-10.0647
▁mente	-10.0648
▁hai	-10.066
▁korea	-10.0663
avhengig	-10.0686
komedie	-10.0694
▁forlag	-10.0697
▁hva	-10.0699
slekten	-10.0701
øvelse	-10.071
▁regional	-10.0714
▁former	-10.0723
▁bran	-10.0728
π	-10.0737
▁sannsynlig	-10.0737
▁spesiell	-10.0737
skulptur	-10.0738
▁sunn	-10.074
▁bryst	-10.074
▁1976	-10.0741
▁1955	-10.0741
▁teori	-10.0746
spinner	-10.0757
▁rollen	-10.0757
▁dru	-10.0759
▁bydel	-10.076
▁vakt	-10.0769
hui	-10.0769
▁ross	-10.0771
▁metode	-10.0773
▁utført	-10.0777
▁vokser	-10.0778
▁kommun	-10.0785
▁160	-10.0792
▁jun	-10.0799
▁fol	-10.0801
uri	-10.0801
▁line	-10.0808
▁cast	-10.0821
▁cd	-10.0822
▁artister	-10.0823
▁tegnet	-10.0828
▁skjø	-10.083
▁kommunikasjon	-10.0843
▁vers	-10.0848
▁hotell	-10.0851
▁masse	-10.0854
sekretær	-10.0855
ς	-10.0856
▁tegneserie	-10.0858
▁regjering	-10.0859
▁kjempe	-10.0859
funksjon	-10.0865
miljø	-10.0868
▁mono	-10.0873
▁undervisning	-10.0874
▁coll	-10.0881
▁magnet	-10.0881
▁befolkningen	-10.089
▁dannes	-10.0891
tunnelen	-10.0893
▁lim	-10.0893
sønn	-10.0894
▁tenn	-10.0895
▁tynn	-10.0895
▁vanligst	-10.0909
▁gode	-10.0916
▁arc	-10.0918
komite	-10.0922
▁pel	-10.0925
tjeneste	-10.0927
▁64	-10.0933
betegnelse	-10.0935
▁bach	-10.0936
skipet	-10.094
▁roll	-10.0941
beck	-10.0942
krigen	-10.0951
▁områder	-10.0954
▁syr	-10.0959
tropp	-10.0968
friidrettsutøver	-10.0977
▁religiøs	-10.0977
▁dekkvingene	-10.0977
▁reference	-10.0977
▁was	-10.0977
▁bou	-10.0977
▁konstant	-10.0978
▁himmel	-10.0979
halvøya	-10.0981
undersøkelse	-10.0984
▁wood	-10.0984
▁hjerne	-10.0988
▁omfattende	-10.0988
forskning	-10.099
▁sikkerhets	-10.0996
▁oppdrag	-10.1001
▁einar	-10.1003
▁mary	-10.1005
kretsen	-10.1009
▁birk	-10.1011
▁krig	-10.1011
serie	-10.1016
trolig	-10.1016
▁overfor	-10.1018
▁kald	-10.1018
▁betydninger	-10.102
▁fotballklubb	-10.1021
stjerne	-10.1022
▁dyn	-10.1024
▁slett	-10.1036
▁regel	-10.1041
▁rai	-10.1052
eira	-10.1058
mennene	-10.1063
▁kampen	-10.1065
uru	-10.1066
▁europeisk	-10.1068
▁45	-10.1069
town	-10.1072
iserer	-10.1073
▁shan	-10.1088
ledende	-10.1092
finalen	-10.1097
▁thu	-10.1097
▁1962	-10.1099
▁jørgen	-10.1099
dok	-10.11
mmel	-10.1101
mønster	-10.1101
▁1975	-10.1101
▁oscar	-10.1103
▁bekrefte	-10.1105
begrep	-10.1108
▁gå	-10.1114
▁vitenskapelig	-10.1115
posisjon	-10.1116
enburg	-10.1117
dommer	-10.1118
▁museet	-10.1129
▁show	-10.113
▁fru	-10.1145
▁kanon	-10.1145
forhold	-10.1147
stasjonen	-10.1151
▁damp	-10.1151
▁universitetet	-10.1155
▁polen	-10.1161
▁kunnskap	-10.1162
flat	-10.1163
▁funn	-10.1165
person	-10.1177
▁paa	-10.118
▁øke	-10.1192
▁had	-10.1195
▁tettstedet	-10.1196
▁produserte	-10.1198
▁gli	-10.1204
▁havet	-10.1206
bakterie	-10.121
▁led	-10.1213
aktige	-10.1215
advokat	-10.1222
▁alkohol	-10.1222
▁nikola	-10.1223
▁noctu	-10.1223
▁debutalbum	-10.1223
▁stadion	-10.1224
▁islam	-10.1224
▁1967	-10.1226
▁landsby	-10.1226
▁play	-10.1227
▁slank	-10.1229
▁lansert	-10.1234
▁romersk	-10.1234
strup	-10.1238
▁aas	-10.1242
▁histo	-10.1253
aki	-10.1272
▁bånd	-10.1277
folket	-10.1278
▁opphav	-10.1287
punktet	-10.1288
ligste	-10.1288
▁nådd	-10.13
▁forsvaret	-10.1312
▁norman	-10.1316
▁egil	-10.1317
▁dør	-10.1318
amin	-10.1319
topp	-10.1319
ulering	-10.1322
begrense	-10.1324
zj	-10.1329
ensis	-10.1329
áng	-10.1333
▁kraftige	-10.1342
▁individ	-10.1347
▁arrangert	-10.1347
▁1972	-10.1347
▁vietnam	-10.1347
▁generelt	-10.1347
▁kontakt	-10.1349
▁1960	-10.1352
▁gaten	-10.1355
▁tradisjon	-10.1357
▁fortsette	-10.136
planter	-10.1367
▁økonomi	-10.137
▁rulle	-10.137
▁grøn	-10.137
horn	-10.1373
▁piano	-10.1377
▁starter	-10.1379
omi	-10.138
ла	-10.1381
▁poet	-10.1381
▁42	-10.1386
skyld	-10.1387
▁forekommer	-10.1391
▁stilling	-10.1393
▁skylde	-10.1402
▁ull	-10.1402
▁xu	-10.1422
▁white	-10.1425
delt	-10.1425
▁bau	-10.1426
▁klart	-10.1431
▁beat	-10.1432
▁jam	-10.1436
konsern	-10.1436
▁verneområde	-10.144
▁kåre	-10.1441
▁nova	-10.1446
▁spise	-10.1453
botn	-10.1455
▁anta	-10.1466
▁eide	-10.1468
krever	-10.1473
▁bispedømme	-10.1474
▁etterfulgt	-10.1474
▁brev	-10.1474
▁beijing	-10.1474
▁eventuel	-10.1474
▁katolsk	-10.1474
▁østerrike	-10.1474
▁nedenfor	-10.1475
hard	-10.1475
▁sykehus	-10.1475
▁ola	-10.1482
▁lagt	-10.1486
ōng	-10.149
▁ekstra	-10.15
▁republikken	-10.1501
▁rod	-10.1503
▁bodde	-10.1513
▁bin	-10.152
▁sna	-10.1523
effekt	-10.1528
▁term	-10.153
post	-10.1531
▁tilfelle	-10.1536
ро	-10.1536
hvit	-10.1542
klær	-10.1542
fred	-10.1546
nøtt	-10.1565
▁latinsk	-10.1574
endte	-10.1579
▁130	-10.158
▁sara	-10.1581
▁voks	-10.1581
▁beh	-10.1582
▁fur	-10.1587
▁lenger	-10.1587
▁krigen	-10.1597
▁sider	-10.1597
▁liberal	-10.16
▁revolusjon	-10.1602
▁varaordfører	-10.1602
▁arthur	-10.1602
ovitsj	-10.1602
▁hvilke	-10.1603
▁stortings	-10.1604
▁1965	-10.1607
▁invest	-10.161
▁arch	-10.1611
▁hevde	-10.1612
▁portrett	-10.1613
skatt	-10.1614
▁myk	-10.1615
▁organisert	-10.1623
▁47	-10.1634
forsvar	-10.1636
▁skinn	-10.1637
▁prim	-10.1646
▁finale	-10.1658
gö	-10.166
▁gitarist	-10.1668
▁175	-10.1675
▁funnet	-10.1688
pensjon	-10.169
▁py	-10.1691
▁nedre	-10.1705
▁ple	-10.1711
▁saga	-10.1717
▁bein	-10.1717
▁kjærlighet	-10.1732
▁introdusert	-10.1732
▁tyrkisk	-10.1732
▁oppdaget	-10.1733
▁fokus	-10.1733
▁dverg	-10.1734
▁josé	-10.1735
▁1945	-10.1735
▁politiet	-10.1741
▁markere	-10.1742
veksle	-10.1743
▁eksistere	-10.1746
▁east	-10.1755
▁khan	-10.1756
▁aksje	-10.1757
▁kata	-10.1757
▁osv	-10.1758
▁beta	-10.1769
▁skå	-10.1771
▁gruve	-10.1787
▁runde	-10.179
▁qing	-10.1791
lö	-10.1791
▁proto	-10.1793
høyskole	-10.1794
▁militære	-10.1797
▁bod	-10.1812
▁medlemmene	-10.1815
▁mong	-10.182
▁resten	-10.1821
▁henge	-10.1821
▁wel	-10.1831
▁luc	-10.1835
▁populære	-10.1842
tjenesten	-10.185
▁henri	-10.1855
▁wall	-10.1855
▁chris	-10.1859
▁kommunist	-10.1861
▁studio	-10.1863
▁offisielt	-10.1863
▁company	-10.1864
▁josef	-10.1864
▁für	-10.1865
▁dårlig	-10.1865
▁energy	-10.1865
kontrakt	-10.1866
▁1964	-10.1867
▁mytologi	-10.1872
▁sverd	-10.1872
▁life	-10.1876
formasjon	-10.1878
medlem	-10.1893
norsk	-10.1896
forbindelse	-10.1898
▁ledes	-10.1916
magasin	-10.192
parten	-10.1921
▁reaksjon	-10.1926
▁tråd	-10.1927
endringer	-10.1931
▁tårn	-10.1934
▁utløp	-10.1948
▁frihet	-10.1949
pat	-10.1951
delingen	-10.1952
▁wan	-10.1953
▁kjøtt	-10.1956
▁hente	-10.1966
hem	-10.1967
▁wade	-10.1967
ин	-10.197
ь	-10.1972
▁publi	-10.1982
▁motiv	-10.1988
▁bære	-10.1989
stitusjon	-10.1993
▁nilsen	-10.1993
▁profesjonell	-10.1997
▁alexander	-10.1997
▁mekanisk	-10.1997
▁episode	-10.1997
▁rektor	-10.1997
▁hertug	-10.1998
▁ansatte	-10.1998
▁insekt	-10.1999
▁vanskelig	-10.1999
▁svein	-10.2003
▁1930	-10.2003
▁jordbruk	-10.2006
▁brasil	-10.201
▁blokk	-10.2011
fell	-10.2013
▁kapp	-10.2015
virke	-10.2016
▁arkitektur	-10.2017
▁soldat	-10.202
mesterskapet	-10.2022
plattform	-10.2022
▁reform	-10.203
bukta	-10.2031
grønn	-10.2032
struktur	-10.2035
▁areal	-10.2035
▁lavere	-10.2037
▁koloni	-10.2038
▁parken	-10.2044
▁bunn	-10.2049
▁signal	-10.2054
▁sca	-10.2063
jiang	-10.2064
passet	-10.2076
▁river	-10.2083
▁grim	-10.2089
▁pala	-10.2095
vakt	-10.211
▁posisjon	-10.2112
āng	-10.2112
rock	-10.2112
▁ungdom	-10.2113
▁periode	-10.2118
▁mario	-10.2118
▁400	-10.2119
▁nerv	-10.2125
▁australia	-10.2132
▁tabellen	-10.2132
▁sjelden	-10.2132
▁komponert	-10.2132
▁adresse	-10.2134
▁fotballspiller	-10.2136
terapi	-10.2137
mission	-10.2142
▁vingene	-10.2144
▁straffe	-10.2144
vev	-10.2146
kvart	-10.2148
gjort	-10.2154
▁kval	-10.2158
fond	-10.2163
bord	-10.2163
▁michel	-10.2164
▁programmet	-10.2166
▁jonas	-10.2167
▁samlet	-10.2167
▁bakke	-10.2168
kjeden	-10.2168
▁even	-10.2168
▁kammer	-10.2168
▁begynner	-10.2174
trafikk	-10.2175
styrke	-10.218
gift	-10.2183
▁tykk	-10.219
▁tran	-10.2197
▁hval	-10.2202
▁fotograf	-10.2204
▁mit	-10.2222
▁qa	-10.2222
kjent	-10.2222
jal	-10.2227
▁sikte	-10.2228
vatn	-10.223
▁befolkning	-10.223
▁kongelig	-10.2236
▁dobbelt	-10.2236
▁fett	-10.2241
▁jiang	-10.2243
▁kyr	-10.2247
▁ey	-10.2253
▁sku	-10.2255
▁trøndelag	-10.2269
▁1969	-10.2269
▁anbefal	-10.2269
▁parlament	-10.2269
▁1961	-10.2269
▁science	-10.2269
▁pasient	-10.2269
▁sigurd	-10.2269
▁integr	-10.2269
▁alvorlig	-10.2269
▁studioalbum	-10.2269
▁sukker	-10.2271
▁01	-10.2273
▁kaller	-10.2275
▁rav	-10.2275
▁øker	-10.2275
▁krysser	-10.2277
▁ukjent	-10.2277
▁arkeolog	-10.2283
automat	-10.2284
materiale	-10.2285
blanding	-10.2293
▁fløy	-10.2298
▁skjold	-10.2304
plate	-10.2306
avgift	-10.2312
domstol	-10.2314
anda	-10.2315
▁avisen	-10.2319
æd	-10.232
▁typen	-10.2321
▁alp	-10.2322
forsker	-10.2325
ер	-10.2329
▁netto	-10.2332
▁kaptein	-10.2333
▁rask	-10.2334
bøker	-10.2335
ordnet	-10.2336
▁statlig	-10.2338
stemt	-10.2339
▁fritt	-10.2348
handle	-10.2349
▁kit	-10.2363
▁rig	-10.2364
▁spring	-10.2367
▁vend	-10.2368
iano	-10.2372
▁raj	-10.2376
▁kvinnelig	-10.238
▁planter	-10.2387
alitet	-10.2389
barn	-10.2392
beskytte	-10.2405
ship	-10.2407
ætt	-10.2407
▁naturreservat	-10.2408
▁forteller	-10.241
prest	-10.241
▁1950	-10.2415
▁mineral	-10.2415
▁protest	-10.2415
▁major	-10.2417
▁eksport	-10.2418
▁øl	-10.2419
▁big	-10.2422
▁sammenheng	-10.2422
ал	-10.2423
▁vitenskap	-10.2423
▁skjær	-10.2427
ч	-10.2433
▁båten	-10.2434
streng	-10.2437
▁lyng	-10.2437
▁dyrke	-10.2445
▁metro	-10.2453
▁corn	-10.2455
regionen	-10.2458
▁66	-10.2465
▁morgen	-10.2467
▁clo	-10.2467
▁pil	-10.2472
▁rund	-10.2475
▁svar	-10.2479
▁nettverk	-10.2482
▁krim	-10.2483
▁fat	-10.2485
aften	-10.2494
▁løk	-10.2497
▁strid	-10.2499
▁tai	-10.251
bury	-10.2512
▁kli	-10.2512
▁victor	-10.2537
skifte	-10.2537
▁utnevnt	-10.2538
hagen	-10.254
▁lom	-10.254
▁grunnlegger	-10.2545
▁registrert	-10.2549
▁sovjetunionen	-10.2549
▁1900	-10.2549
▁sistnevnte	-10.2549
▁1952	-10.2549
▁regissør	-10.2549
kapasitet	-10.2549
▁oversettelse	-10.2549
▁suksess	-10.2549
ович	-10.2549
▁vert	-10.2549
▁frederik	-10.255
▁isbn	-10.2551
rettigheter	-10.2552
løft	-10.2554
strategi	-10.2555
▁institutt	-10.2556
burn	-10.2557
versjon	-10.2561
▁brown	-10.2562
▁dvs	-10.2565
▁gjennomført	-10.2568
▁german	-10.2571
hjort	-10.2584
▁fond	-10.2586
▁tilstand	-10.2589
▁walter	-10.2589
bryter	-10.259
▁ernst	-10.2597
bøl	-10.2599
ен	-10.2603
▁maleri	-10.2613
▁grensen	-10.2615
▁beina	-10.2617
▁maa	-10.262
▁innhold	-10.2622
stemme	-10.2625
▁pont	-10.2629
plante	-10.2634
▁bull	-10.2635
kontroll	-10.2642
▁utvikler	-10.2648
▁upp	-10.2653
▁bakkroppen	-10.2653
▁bai	-10.2666
typer	-10.2667
▁arg	-10.2673
korn	-10.2685
▁fau	-10.2691
▁bulgarsk	-10.2692
▁etterhvert	-10.2692
▁efter	-10.2693
▁lengre	-10.2696
▁sikre	-10.2698
myr	-10.27
▁drikke	-10.27
ressurs	-10.27
▁raf	-10.2702
cca	-10.2704
▁alv	-10.2706
flo	-10.2707
▁fac	-10.271
▁terje	-10.271
▁dio	-10.2713
blå	-10.2719
▁carlo	-10.2724
regiment	-10.2726
▁ytre	-10.2729
▁ettersom	-10.2739
dekket	-10.2739
zio	-10.2748
▁rau	-10.2751
▁stadig	-10.2752
▁nordisk	-10.2754
ally	-10.2759
▁slu	-10.2771
▁gross	-10.2781
ва	-10.2789
møll	-10.2789
ittisk	-10.2798
▁salme	-10.2811
▁74	-10.2815
▁psyko	-10.2829
▁millimeter	-10.2836
▁ytterligere	-10.2836
▁1966	-10.2836
▁betjener	-10.2836
▁ekteskap	-10.2838
▁stefan	-10.2839
▁blank	-10.2843
▁bakgrunn	-10.2843
▁fremført	-10.2848
▁snakke	-10.2849
▁wang	-10.2849
▁center	-10.2852
▁santo	-10.2852
▁bestemt	-10.2857
▁tolv	-10.2867
▁christi	-10.2871
▁munk	-10.2878
▁måne	-10.2895
▁gjenopp	-10.2895
hjelp	-10.2896
▁fab	-10.2908
jå	-10.2912
▁valle	-10.2922
▁utøver	-10.2923
magasinet	-10.2926
▁slaget	-10.2932
type	-10.2942
▁vig	-10.2947
▁reist	-10.2957
▁rio	-10.2974
løytnant	-10.2984
▁1953	-10.2984
▁1956	-10.2984
▁cirka	-10.2984
▁united	-10.2984
▁forårsake	-10.2984
▁valuta	-10.2984
▁skøyte	-10.2986
▁programleder	-10.2986
▁jacobsen	-10.2996
▁nederland	-10.2998
ington	-10.3003
▁hvorav	-10.3003
kysten	-10.3007
▁right	-10.3008
▁prinsipp	-10.3015
verdig	-10.3016
▁hundre	-10.3021
▁fyll	-10.3026
▁little	-10.3028
▁kjemi	-10.3032
ар	-10.3033
▁då	-10.3041
politisk	-10.3045
▁bosetning	-10.3047
▁sesong	-10.3054
bredd	-10.306
hydr	-10.3074
avtale	-10.3087
▁hir	-10.3092
▁snu	-10.3097
▁rosa	-10.3108
▁avgjør	-10.3111
▁kapell	-10.3122
kjøl	-10.3124
▁heinrich	-10.3133
▁observa	-10.3133
konferanse	-10.3133
▁arendal	-10.3134
▁elektronisk	-10.3134
▁1971	-10.3137
alistisk	-10.3141
strøk	-10.3145
eksamen	-10.3148
wick	-10.3171
▁vokalist	-10.3174
▁exp	-10.3183
▁reserve	-10.3192
▁bag	-10.3194
▁ankom	-10.3195
ligning	-10.3198
▁viking	-10.3199
▁lenge	-10.3201
▁skarp	-10.3201
amerikanske	-10.3206
▁smak	-10.3207
tittel	-10.3209
▁fry	-10.3212
▁nordlige	-10.3218
▁hammer	-10.3223
orum	-10.3225
blikk	-10.3226
▁irland	-10.3228
▁skar	-10.3229
aq	-10.3241
▁carol	-10.3241
▁thom	-10.3244
bregne	-10.3251
▁nordland	-10.3258
ła	-10.3263
tårn	-10.3267
▁mala	-10.327
▁elisabeth	-10.3284
▁selvstendig	-10.3284
▁vulkan	-10.3284
▁århundre	-10.3284
pedagog	-10.3284
▁hebraisk	-10.3284
▁bjørk	-10.3285
▁tilsvarer	-10.3288
stipend	-10.3289
▁sverre	-10.3289
apparat	-10.3291
▁1920	-10.3293
▁stab	-10.3295
strømmen	-10.3295
▁poeng	-10.3298
▁ulv	-10.3304
▁600	-10.3308
▁fritz	-10.331
▁night	-10.3312
maker	-10.3313
ifisert	-10.3324
▁hjørne	-10.334
▁skjell	-10.3343
▁sovjetisk	-10.3349
ordning	-10.335
▁lån	-10.335
▁trø	-10.3352
gått	-10.3355
▁tell	-10.3357
konkurranse	-10.3361
akademi	-10.3361
▁enkle	-10.3367
▁innsjø	-10.3371
design	-10.3372
▁tunnel	-10.3392
▁landskapet	-10.3408
krig	-10.3415
rente	-10.3417
journal	-10.3436
▁guvernør	-10.3438
▁pseudo	-10.3438
▁symptom	-10.3438
▁1951	-10.3438
▁parallell	-10.3438
sekvens	-10.3439
▁kjennetegn	-10.344
▁import	-10.3441
▁skotsk	-10.3441
▁1928	-10.3442
▁forbinde	-10.3451
▁billed	-10.3451
▁benevn	-10.3459
turnering	-10.3461
▁schi	-10.3461
▁stone	-10.3462
▁marin	-10.3468
▁veldig	-10.3468
speil	-10.3468
▁persisk	-10.3469
▁bidrag	-10.3472
▁72	-10.3473
vá	-10.348
▁kommunal	-10.3489
го	-10.3494
▁kg	-10.3497
fabrik	-10.3507
▁havn	-10.3516
makt	-10.3516
▁preget	-10.3522
▁who	-10.3526
behandling	-10.3531
▁ørn	-10.3545
bandet	-10.3552
pakke	-10.3558
▁karakter	-10.3559
lä	-10.356
perioden	-10.3563
thal	-10.3573
støtte	-10.3575
konservativ	-10.3594
▁katedral	-10.3594
▁1954	-10.3594
▁passasjer	-10.3594
▁tømmer	-10.3594
mä	-10.3595
▁definert	-10.3595
▁vunnet	-10.3596
▁corp	-10.3597
500	-10.3598
setting	-10.3599
▁kvalifiser	-10.3601
▁home	-10.3602
▁møter	-10.3607
▁krf	-10.3609
pul	-10.3612
ligner	-10.3618
▁bibel	-10.3619
▁likhet	-10.3625
▁voksne	-10.3634
blomsterflue	-10.3639
brett	-10.3646
qi	-10.3647
icus	-10.3658
ograph	-10.3661
styrken	-10.3668
teknologi	-10.3672
født	-10.3686
pati	-10.3704
▁rub	-10.3716
▁tho	-10.3717
▁fjerne	-10.3721
konstruksjon	-10.3753
▁innflytelse	-10.3753
▁central	-10.3753
▁således	-10.3753
▁objekt	-10.3753
førsel	-10.3753
orientert	-10.3753
▁opplysning	-10.3753
▁global	-10.3754
▁doktorgrad	-10.3754
▁eventyr	-10.3754
▁1929	-10.3756
▁1800	-10.3759
▁1940	-10.376
▁bevart	-10.376
▁hendelse	-10.3761
bjørg	-10.3766
▁stiv	-10.377
▁luther	-10.3771
uit	-10.3772
▁jones	-10.3776
▁frei	-10.3793
▁forkortelse	-10.3813
▁tradisjonel	-10.3814
▁left	-10.3819
alisme	-10.3824
▁overflate	-10.3832
▁homo	-10.384
▁brede	-10.3857
signal	-10.3893
næring	-10.3895
▁utover	-10.3897
▁trenings	-10.3901
forvaltning	-10.3907
aire	-10.3909
▁1963	-10.3914
▁hovedkvarter	-10.3915
▁yngre	-10.3915
▁kriminal	-10.3915
▁nærmere	-10.3915
▁redusere	-10.3916
▁andré	-10.3916
▁skjedde	-10.3917
utvalget	-10.3917
▁snart	-10.3919
▁1948	-10.392
▁wild	-10.3924
ulykke	-10.3924
▁tempel	-10.3925
▁grunnlegge	-10.3934
time	-10.3935
▁vindu	-10.3939
▁mega	-10.3945
ruter	-10.3945
▁stabil	-10.3951
▁toll	-10.3951
variant	-10.3959
▁mauri	-10.3969
▁preg	-10.3969
▁great	-10.3973
ка	-10.3975
▁jøde	-10.3978
tveit	-10.398
▁lill	-10.3988
ри	-10.3994
▁frp	-10.4004
direktør	-10.4011
▁fordelt	-10.4012
kompani	-10.4022
▁road	-10.4028
stråle	-10.4031
▁bratt	-10.4035
▁ker	-10.404
▁pyr	-10.404
▁høst	-10.4071
▁francis	-10.4074
▁corporation	-10.4078
▁fullstendig	-10.4078
▁shanghai	-10.4078
▁1957	-10.4078
▁ekstrem	-10.4079
▁jødisk	-10.4079
ensemble	-10.4079
kommisjon	-10.4079
drakt	-10.4083
masse	-10.4086
▁samuel	-10.409
▁utdannings	-10.4092
høgskole	-10.4097
▁vennskap	-10.4098
▁deltaker	-10.4098
▁samisk	-10.41
▁victoria	-10.4101
gjøre	-10.4102
▁laks	-10.4109
▁tromsø	-10.4117
▁panser	-10.4121
▁vestlige	-10.413
ни	-10.4139
▁ansvar	-10.4145
veps	-10.4165
havs	-10.417
divisjon	-10.4181
▁nød	-10.4184
▁69	-10.4198
chang	-10.4204
▁audi	-10.4221
skinn	-10.4227
▁plateselskap	-10.4229
▁wol	-10.4235
▁lamb	-10.4238
▁1941	-10.4245
▁mexico	-10.4245
▁utbredt	-10.4245
▁linux	-10.4245
▁hindu	-10.4249
▁brei	-10.425
▁håkon	-10.425
▁føde	-10.4251
▁pierre	-10.4255
▁jackson	-10.4256
▁acc	-10.4261
▁franz	-10.4264
▁landsforening	-10.4265
▁luci	-10.4269
▁bevis	-10.4269
prosessor	-10.4275
chester	-10.4281
▁ungdomsskole	-10.4281
▁junior	-10.4291
▁lod	-10.43
▁sørlige	-10.4311
▁sønd	-10.4317
reise	-10.4323
▁salg	-10.4325
bæk	-10.4326
▁vad	-10.4341
▁99	-10.4371
duk	-10.4377
▁nevnt	-10.4379
lista	-10.4385
▁electric	-10.4415
▁ishockey	-10.4415
▁fengsel	-10.4415
▁skottland	-10.4415
▁publikum	-10.4415
▁unntak	-10.4415
▁foregår	-10.4415
▁adolf	-10.4415
▁etterfølger	-10.4415
▁nedbør	-10.4415
▁evangel	-10.4415
▁premier	-10.4416
▁kristiansand	-10.4416
▁håndball	-10.4417
▁1946	-10.442
evitsj	-10.4421
▁nærheten	-10.4422
▁verdenskrig	-10.4423
▁diesel	-10.443
elius	-10.4432
▁strenge	-10.4432
▁johnny	-10.444
▁femte	-10.4441
▁ferge	-10.4447
nytt	-10.4452
▁public	-10.4462
▁nærmest	-10.4468
▁hyper	-10.4481
▁miste	-10.4495
▁sving	-10.4499
arafa	-10.4528
arkiv	-10.4543
▁medisinsk	-10.4551
▁utkom	-10.4559
▁dong	-10.456
▁tross	-10.4571
drevet	-10.4581
gymnas	-10.4584
▁support	-10.4587
▁ungarsk	-10.4587
▁fiolin	-10.4587
▁betrakte	-10.4587
▁fysisk	-10.4587
▁stortinget	-10.4588
▁gabriel	-10.4588
▁lord	-10.4589
▁ridder	-10.4589
▁gråbrun	-10.459
▁fuktig	-10.4594
▁kaffe	-10.4598
▁lokalisert	-10.4599
▁viklere	-10.4599
▁håndverk	-10.4606
▁orgel	-10.4615
▁utdannelse	-10.4615
ль	-10.4619
▁francesc	-10.4619
▁oberst	-10.4636
skrevet	-10.4643
▁johnson	-10.4643
▁oval	-10.466
mming	-10.4665
▁1000	-10.4667
▁tusen	-10.4689
▁kw	-10.4698
▁font	-10.4699
▁gyld	-10.4703
▁leif	-10.4706
dynastiet	-10.4707
▁china	-10.4721
profil	-10.4752
administrasjon	-10.4754
▁fødsel	-10.4762
▁arrangement	-10.4762
▁oksygen	-10.4762
▁tortricidae	-10.4762
▁1943	-10.4762
▁ytterkant	-10.4762
▁yrkes	-10.4763
▁beregne	-10.4763
▁140	-10.4763
▁firmaet	-10.4766
▁1932	-10.4767
▁1959	-10.4767
▁bygninger	-10.4774
▁nederst	-10.4776
▁down	-10.4779
▁bønn	-10.4781
▁alex	-10.4783
▁effektiv	-10.4788
▁omhandler	-10.4789
▁cour	-10.4794
vík	-10.4794
▁innført	-10.4804
▁kvad	-10.4816
▁smerte	-10.4819
▁grund	-10.482
sikkerhet	-10.4822
▁arab	-10.4833
▁bassist	-10.484
▁status	-10.4845
▁plast	-10.4859
▁athen	-10.4861
▁four	-10.4874
historisk	-10.4889
tysk	-10.4909
idrett	-10.4918
ск	-10.4919
tavle	-10.4924
▁brødrene	-10.4941
▁ovenfor	-10.4941
▁vesentlig	-10.4941
▁fiktiv	-10.4941
▁oppstår	-10.4941
▁golf	-10.4942
järvi	-10.4944
▁musikkalbum	-10.4945
terminal	-10.4945
institusjoner	-10.4946
▁komposisjon	-10.4947
▁1939	-10.4947
▁telemark	-10.4949
▁hindi	-10.4956
▁smør	-10.4959
fatning	-10.496
ection	-10.4963
▁bodø	-10.4963
▁bö	-10.4982
▁kilo	-10.4983
▁young	-10.4987
▁maj	-10.502
▁naz	-10.5047
▁synlig	-10.5052
medisin	-10.5074
skjold	-10.5078
aux	-10.5078
lect	-10.5083
rommet	-10.5083
▁statue	-10.5094
lengde	-10.5095
▁troms	-10.5095
▁association	-10.5123
▁finskspråklig	-10.5123
▁utelukke	-10.5123
▁nødvendig	-10.5123
▁nordsamisk	-10.5123
▁1933	-10.5123
▁kombinert	-10.5123
▁geometri	-10.5123
▁partner	-10.5124
▁arrest	-10.5138
▁demningen	-10.5139
aksjonen	-10.5145
▁oppnådd	-10.5149
▁amfi	-10.5154
▁klippe	-10.5163
kjøring	-10.5168
▁falk	-10.5172
▁anima	-10.5188
ière	-10.5194
▁tapte	-10.5197
knapp	-10.5198
palass	-10.5203
metode	-10.5205
▁olympisk	-10.5208
▁sterk	-10.5222
følge	-10.525
▁alpin	-10.5251
bibliotek	-10.5263
arkitekt	-10.5263
▁vegg	-10.5268
▁dukke	-10.5269
▁høg	-10.529
▁bidra	-10.5303
▁windows	-10.5308
▁country	-10.5308
▁initiativ	-10.5308
▁jacque	-10.5308
rådgiver	-10.5308
▁church	-10.5308
▁thailand	-10.5308
forsikring	-10.5308
▁utdype	-10.5308
▁serbisk	-10.5309
▁fremstille	-10.5309
▁karbon	-10.5309
▁spania	-10.5309
▁definere	-10.5311
▁komplett	-10.5312
▁hemmelig	-10.5312
▁1924	-10.5312
faktor	-10.5313
▁signert	-10.5316
▁forvaltnings	-10.5318
▁bernard	-10.5319
▁høyesterett	-10.5319
▁skrå	-10.5323
▁emb	-10.5325
kledt	-10.5328
styring	-10.5331
▁sammenlagt	-10.5331
▁allmenn	-10.534
▁tekstil	-10.5342
▁sound	-10.5344
▁befinne	-10.5353
▁drap	-10.536
▁agder	-10.5367
skaja	-10.5374
ugle	-10.5375
▁110	-10.5383
▁molde	-10.5395
▁inneha	-10.5397
▁oppsto	-10.5398
▁blind	-10.54
stell	-10.5402
▁visse	-10.541
▁rab	-10.541
▁intens	-10.5421
skyting	-10.5436
▁årsak	-10.5441
orkester	-10.5455
resultat	-10.5455
programmet	-10.5459
▁aero	-10.5469
personell	-10.547
▁sammenligne	-10.5484
▁bang	-10.549
▁giovanni	-10.5497
▁kollektiv	-10.5497
▁sjeldne	-10.5497
▁utgangspunkt	-10.5497
▁tvilling	-10.5497
▁moskva	-10.5497
▁innskriften	-10.5497
▁zhang	-10.5497
▁stadium	-10.5498
worth	-10.55
▁1905	-10.5501
▁1958	-10.5502
▁1944	-10.5502
▁smelte	-10.5504
▁pettersen	-10.5507
▁axel	-10.5512
▁hersker	-10.5514
▁skytter	-10.5515
▁inndelt	-10.5516
▁karakteristisk	-10.5521
tjern	-10.5524
▁call	-10.5527
▁olaf	-10.5534
▁solberg	-10.5544
lidelse	-10.5552
▁philip	-10.5554
▁800	-10.5581
▁02	-10.5582
striper	-10.5583
▁hovedrollen	-10.5592
▁kristne	-10.5595
▁rib	-10.5608
skade	-10.564
bød	-10.565
frukt	-10.5652
grunnlaget	-10.5665
stift	-10.5672
▁hytte	-10.5686
▁arrangør	-10.5689
▁douglas	-10.5689
▁oppmerksomhet	-10.5689
▁infanteri	-10.5689
▁jesuitt	-10.5689
▁systematikken	-10.5689
høvding	-10.5689
▁skildre	-10.5689
hastighet	-10.569
▁fattig	-10.5691
▁arnold	-10.5691
▁opptrer	-10.5692
▁1942	-10.5693
▁fullført	-10.5694
▁skjønn	-10.5694
▁1949	-10.5694
▁søndag	-10.5698
▁öster	-10.5702
▁rednings	-10.5704
kostnad	-10.5705
▁eriksen	-10.572
▁feire	-10.5721
ður	-10.5732
▁good	-10.5735
schaft	-10.5741
avisen	-10.5745
▁rag	-10.5746
melding	-10.5747
▁heart	-10.575
dekke	-10.5758
familie	-10.576
▁kö	-10.5765
kså	-10.5773
ić	-10.5778
▁arb	-10.5781
økonomi	-10.581
▁kunde	-10.5841
ич	-10.5848
redaktør	-10.5851
kirch	-10.5871
eiro	-10.5881
▁rudolf	-10.5885
▁umiddelbar	-10.5885
vassdraget	-10.5885
▁færøyene	-10.5885
▁mediebedriften	-10.5885
▁øyvind	-10.5885
▁geografisk	-10.5885
▁fenomen	-10.5885
▁risiko	-10.5886
▁redusert	-10.5886
▁kobber	-10.5886
▁bærum	-10.5886
▁kritikk	-10.5886
konsept	-10.5887
tolkning	-10.5887
▁beholdt	-10.5887
▁nkp	-10.5888
▁barokk	-10.5888
▁what	-10.5888
▁francisco	-10.5891
▁møller	-10.5891
▁1938	-10.5891
box	-10.5893
▁rapporter	-10.5901
▁mich	-10.5902
▁ombord	-10.5904
▁øystein	-10.5905
▁jernbanestasjon	-10.5913
▁rug	-10.5914
▁manuel	-10.5914
▁oversikt	-10.5919
hausen	-10.5919
▁utnytte	-10.5929
▁evig	-10.5941
▁09	-10.5967
▁1910	-10.5969
leddet	-10.5999
▁slave	-10.6012
yama	-10.6015
▁kjel	-10.6025
▁harmoni	-10.6027
▁kath	-10.604
▁poll	-10.6054
front	-10.6065
stigning	-10.6069
▁afghanistan	-10.6085
▁elizabeth	-10.6085
▁erkebiskop	-10.6085
▁keyboard	-10.6085
▁restaurant	-10.6085
▁symfoni	-10.6085
▁1947	-10.6085
▁argument	-10.6085
▁pakistan	-10.6085
▁syndrom	-10.6085
▁regulere	-10.6086
▁diverse	-10.6086
trener	-10.6087
▁godkjent	-10.6087
▁900	-10.6089
▁finnmark	-10.6091
▁opplags	-10.6091
▁generell	-10.6091
▁trenger	-10.6091
måte	-10.6091
▁social	-10.6094
▁hovedkontor	-10.6098
▁onkel	-10.6104
▁ltd	-10.6105
▁maritim	-10.6112
chel	-10.6113
▁dream	-10.6114
▁kaste	-10.6115
link	-10.613
fysikk	-10.6136
▁alban	-10.6142
▁glatt	-10.6144
▁nevro	-10.617
▁beskrivelse	-10.6182
▁kä	-10.6199
vandring	-10.621
▁mou	-10.6224
fordeling	-10.6228
▁lukke	-10.6264
▁krog	-10.6269
▁bokser	-10.628
▁oppnå	-10.6281
▁aleksander	-10.6289
▁aleksandr	-10.6289
▁microsoft	-10.6289
▁sebastian	-10.6289
▁trommeslager	-10.6289
▁vladimir	-10.6289
▁positiv	-10.6289
▁pradesh	-10.6289
▁væske	-10.6289
▁utmerkelse	-10.6289
▁alexandr	-10.6289
▁innebærer	-10.6291
▁avledet	-10.6292
maleri	-10.6293
▁stiftelsen	-10.6293
▁litterær	-10.6293
▁brønn	-10.6294
▁gratis	-10.6298
▁nepal	-10.6299
▁wilson	-10.6301
▁ytterst	-10.6308
▁ansikt	-10.6311
støl	-10.6312
▁ideal	-10.6314
relatert	-10.6317
▁län	-10.6322
▁popul	-10.633
▁sosialistisk	-10.6346
preg	-10.6348
▁skyte	-10.6351
▁frigjør	-10.6352
▁organisk	-10.6377
samband	-10.6408
▁flyge	-10.641
▁kjeve	-10.6418
røtter	-10.6428
kompleks	-10.643
▁philipp	-10.6438
▁styrte	-10.6451
medlemmer	-10.6485
▁sanskrit	-10.6497
bataljon	-10.6497
▁artikler	-10.6497
▁taylor	-10.6497
▁edvard	-10.6498
▁anerkjent	-10.6498
▁beseiret	-10.6498
▁monroe	-10.6499
komité	-10.6499
▁1926	-10.6501
tekst	-10.6501
▁1936	-10.6502
▁1918	-10.6503
▁1925	-10.6503
▁varianter	-10.6503
▁techn	-10.6505
▁hormon	-10.6506
▁barndom	-10.6506
▁forbud	-10.6508
▁hjemmebane	-10.6513
▁barnehage	-10.6516
▁plantefamilie	-10.652
▁vandre	-10.6524
bunn	-10.6524
ми	-10.6528
▁grønland	-10.6528
▁alpinist	-10.6534
migr	-10.6537
bahn	-10.655
▁forbunds	-10.6553
▁lauri	-10.6578
▁agent	-10.6606
setninger	-10.6606
stått	-10.6622
ã	-10.6669
regjering	-10.6693
rapport	-10.6694
▁dirigent	-10.671
▁jomfru	-10.671
▁research	-10.671
▁installert	-10.671
▁colombia	-10.671
▁referanse	-10.671
ópolis	-10.671
▁respekt	-10.671
▁nemlig	-10.6711
▁muslim	-10.6711
▁haakon	-10.6711
▁begynnelsen	-10.6711
komponent	-10.6711
▁anvendes	-10.6711
▁automatisk	-10.6712
alfabet	-10.6712
▁palasset	-10.6713
▁tropisk	-10.6715
▁disney	-10.6716
▁text	-10.6716
▁novell	-10.6719
▁utenlandske	-10.6719
bestemmelse	-10.672
liknende	-10.6725
▁hamburg	-10.6727
▁pistol	-10.6731
provinshovedstad	-10.6738
▁behov	-10.6744
▁institute	-10.6748
seire	-10.6755
festival	-10.6759
▁million	-10.676
allianse	-10.6767
▁musikal	-10.679
forsyning	-10.6795
▁bekke	-10.6804
ault	-10.6825
ма	-10.6831
▁jente	-10.6834
owski	-10.6867
▁utenriks	-10.6885
▁flåte	-10.69
▁datterselskap	-10.6906
temperatur	-10.6916
▁regjer	-10.6917
▁brenselstype	-10.6928
▁forøvrig	-10.6928
▁kronprins	-10.6928
▁ludwig	-10.6928
▁istedenfor	-10.6928
▁tyrkia	-10.6928
▁ukraina	-10.6928
▁oppdatert	-10.6928
▁negativ	-10.6928
▁embets	-10.6931
▁1921	-10.6932
straße	-10.6938
seminar	-10.6939
ytelse	-10.6941
▁frykt	-10.6943
▁moderat	-10.6955
▁øks	-10.6973
▁lunge	-10.6974
▁hjemmeside	-10.6986
▁terreng	-10.6991
▁slektning	-10.6996
▁utvikle	-10.7017
ović	-10.7029
▁elektri	-10.7034
strekker	-10.7058
▁musikalsk	-10.7072
forretning	-10.7078
▁aksel	-10.7091
givelse	-10.7107
kjøp	-10.7143
transport	-10.7144
sentrum	-10.7144
flagg	-10.7147
sykdom	-10.7149
eksperiment	-10.715
▁orchestra	-10.715
▁business	-10.715
▁1904	-10.715
▁league	-10.715
opplæring	-10.715
▁asteroide	-10.715
disiplin	-10.715
▁county	-10.715
▁reklame	-10.715
installasjon	-10.715
▁bidro	-10.715
▁sprint	-10.7151
▁flytende	-10.7152
▁klø	-10.7153
▁næringsliv	-10.7153
▁igjennom	-10.7154
▁clark	-10.7155
▁1934	-10.7156
▁bensin	-10.7158
▁bryggeri	-10.7162
▁diplomat	-10.7167
laug	-10.7169
▁summ	-10.7195
▁ballett	-10.7196
kjerne	-10.7217
▁bedrifts	-10.7218
fløyte	-10.7227
▁tallrik	-10.7255
svarte	-10.7266
▁sovjet	-10.7281
forsamlingen	-10.7282
departement	-10.7296
opptak	-10.7315
▁france	-10.7346
align	-10.7376
▁society	-10.7377
▁australsk	-10.7377
▁inskripsjon	-10.7377
▁forkroppen	-10.7377
▁konkurrere	-10.7377
▁abraham	-10.7377
▁inspirasjon	-10.7377
▁ludvig	-10.7377
veksling	-10.7377
▁petersburg	-10.7377
▁theodor	-10.7378
▁terror	-10.7378
▁prinsesse	-10.7379
▁friidrett	-10.7382
▁høi	-10.7382
▁hjelm	-10.7382
▁hindre	-10.7383
▁1935	-10.7383
▁2018	-10.7383
▁bjarn	-10.7384
▁øygrupp	-10.7384
▁eiendommen	-10.7386
▁vestfold	-10.7386
▁ragnar	-10.7387
▁biologisk	-10.7396
▁mount	-10.7397
▁grunnlov	-10.7398
protokoll	-10.7404
bukten	-10.7407
▁larve	-10.7442
▁innsats	-10.7466
▁endelig	-10.7483
▁rådhus	-10.7502
▁700	-10.7518
▁universit	-10.7537
▁gjennomføre	-10.7548
▁forskjellig	-10.7558
▁messe	-10.7572
▁opprette	-10.7586
budsjett	-10.761
▁california	-10.761
▁forgjenger	-10.761
▁frankfurt	-10.761
▁sosialdemokrat	-10.761
▁tibetansk	-10.761
▁østerriksk	-10.761
▁chicago	-10.761
▁nøkkel	-10.761
▁oxford	-10.761
▁1927	-10.761
▁antagelig	-10.761
▁kongedømmet	-10.761
▁airlines	-10.761
▁krystall	-10.761
▁lørdag	-10.761
▁texas	-10.761
▁minutter	-10.761
grunnsstasjon	-10.761
▁ålesund	-10.761
▁söder	-10.761
▁kommersiell	-10.761
▁stephen	-10.761
▁separat	-10.761
▁senior	-10.7611
konvensjon	-10.7611
▁bøkene	-10.7611
▁taiwan	-10.7611
▁seinere	-10.7612
▁spredt	-10.7612
▁style	-10.7613
▁arbeiderpartiet	-10.7614
▁beskytter	-10.7615
▁1919	-10.7615
▁year	-10.7617
politi	-10.762
▁norway	-10.7621
▁muskel	-10.7622
følgende	-10.7623
▁utenlands	-10.7627
▁filip	-10.7629
▁lykke	-10.7632
radio	-10.7635
montert	-10.7647
sjön	-10.7654
skikkelse	-10.7665
▁hvile	-10.7669
▁komplekse	-10.769
basseng	-10.7701
▁etnisk	-10.7722
▁olymp	-10.7738
▁nyhets	-10.7748
gutt	-10.7774
▁løfte	-10.7777
▁urban	-10.7791
▁spesifik	-10.7799
hovedstaden	-10.7819
direktoratet	-10.7848
lokomotiv	-10.7848
▁tusenårssted	-10.7848
▁utbredelse	-10.7848
saksofon	-10.7848
▁1899	-10.7848
▁unntatt	-10.7848
▁margaret	-10.7849
▁lewis	-10.7849
▁generasjon	-10.7851
▁velges	-10.7851
▁datamaskin	-10.7851
▁årsproduksjon	-10.7851
patrick	-10.7853
▁charlie	-10.7853
▁1912	-10.7854
▁kallenavn	-10.7855
trukket	-10.7856
president	-10.7857
smykke	-10.7858
papir	-10.7858
muligheter	-10.7858
▁action	-10.786
▁sergej	-10.7861
▁lisens	-10.7865
cliff	-10.7865
verdighet	-10.79
▁domini	-10.7902
lokale	-10.7914
▁variert	-10.7932
abili	-10.7945
overflaten	-10.7985
▁puppe	-10.7991
▁palme	-10.8012
▁domkirke	-10.8028
element	-10.8046
derav	-10.8072
azar	-10.8074
▁petroleum	-10.8092
▁renessanse	-10.8092
▁sarpsborg	-10.8092
▁undergrunnsbane	-10.8092
▁vedlikehold	-10.8092
▁wergeland	-10.8092
▁tolkien	-10.8092
▁trygve	-10.8092
konflikt	-10.8092
▁krevde	-10.8092
▁frivillig	-10.8092
▁originaltittel	-10.8093
▁oppfatte	-10.8093
▁praktisk	-10.8093
▁grün	-10.8093
▁marcus	-10.8094
▁generalsekretær	-10.8094
▁tørke	-10.8094
▁micro	-10.8095
▁romsdal	-10.8097
▁betong	-10.8097
▁gulbrun	-10.8097
▁monark	-10.8098
▁1911	-10.8098
▁forestilling	-10.8099
▁1937	-10.81
▁hawk	-10.81
pleie	-10.8101
▁office	-10.8104
▁ibsen	-10.8104
▁mau	-10.8104
▁arild	-10.8108
aktivitet	-10.8113
regning	-10.8117
▁kjørt	-10.8125
▁talent	-10.8137
▁utarbeide	-10.8157
fylte	-10.8169
gudinnen	-10.8215
hjørn	-10.825
▁vestsid	-10.8292
▁skuespill	-10.8341
▁valgdeltakel	-10.8342
▁aftenposten	-10.8342
▁aluminium	-10.8342
▁generalmajor	-10.8342
▁guangdong	-10.8342
▁buddhist	-10.8342
▁kontinental	-10.8342
▁maksimal	-10.8342
presentasjon	-10.8342
▁sykepleie	-10.8342
▁european	-10.8342
▁høyhastighets	-10.8342
▁permanent	-10.8342
▁gælisk	-10.8342
▁gjennomsnittlig	-10.8342
▁overlevde	-10.8342
▁situasjon	-10.8342
▁artilleri	-10.8342
▁embeds	-10.8342
betennelse	-10.8342
▁gwh	-10.8342
▁vegetasjon	-10.8343
▁uttalte	-10.8343
▁medvirket	-10.8343
▁belgisk	-10.8343
▁sibir	-10.8344
▁gerhard	-10.8344
▁barnebarn	-10.8344
▁misjons	-10.8345
materiell	-10.8345
▁anklage	-10.8346
▁space	-10.8347
▁1908	-10.8348
▁1915	-10.8348
▁donald	-10.8349
▁forbruker	-10.8357
▁røyk	-10.8369
oidea	-10.8373
tvedt	-10.8376
▁frederic	-10.838
▁first	-10.8381
▁gryt	-10.8393
▁lasse	-10.8403
▁symbolisere	-10.8433
▁motsetning	-10.8451
▁klage	-10.8467
▁kreert	-10.8484
produkt	-10.8493
balanse	-10.853
▁spenne	-10.8532
▁barcelona	-10.8598
▁færøysk	-10.8598
▁midlertidig	-10.8598
▁portugisisk	-10.8598
▁tønsberg	-10.8598
▁natrium	-10.8598
▁identifiser	-10.8598
konsulent	-10.8598
▁1891	-10.8598
▁fjernsyns	-10.8598
▁veksel	-10.8598
▁rogaland	-10.8598
▁ungarn	-10.8598
teatret	-10.8599
▁zealand	-10.8599
▁regelmessig	-10.8599
▁føderal	-10.8601
▁byfylke	-10.8602
▁stryk	-10.8602
▁borgermester	-10.8602
▁sjanger	-10.8603
▁saturn	-10.8603
▁1922	-10.8604
▁meyer	-10.861
▁manglen	-10.8611
dimensjon	-10.8613
▁erklært	-10.8616
▁sykler	-10.8626
kommunikasjon	-10.8627
▁tolke	-10.8629
konsert	-10.8633
nevnte	-10.8654
ий	-10.8659
pub	-10.8697
losje	-10.8786
funn	-10.8834
▁doktor	-10.8861
helikopter	-10.8861
▁academy	-10.8861
▁bulgaria	-10.8861
▁hongkong	-10.8861
▁intelligen	-10.8861
▁sekundær	-10.8861
reservoar	-10.8861
▁fakultet	-10.8861
▁kristoffer	-10.8861
jubileum	-10.8861
▁benjamin	-10.8861
▁ferskvann	-10.8861
▁oppretthold	-10.8861
▁anmelder	-10.8861
▁nanjing	-10.8861
▁observer	-10.8861
vurdering	-10.8861
▁heavy	-10.8861
▁selvmord	-10.8861
ский	-10.8861
▁juridisk	-10.8862
▁prince	-10.8862
▁detaljer	-10.8862
▁zhong	-10.8862
▁mountain	-10.8862
▁redigert	-10.8863
▁visepresident	-10.8863
▁faktisk	-10.8863
▁kjetil	-10.8864
▁cecil	-10.8864
trening	-10.8864
▁indikere	-10.8865
▁døpt	-10.8866
▁centre	-10.8867
▁sjette	-10.8869
▁programvare	-10.8874
▁varianten	-10.8877
▁bedriften	-10.8884
haupt	-10.8887
▁nettside	-10.8887
mouth	-10.8903
▁skygge	-10.8904
▁molekyl	-10.8915
when	-10.8966
akken	-10.8972
vokst	-10.8988
tjente	-10.9108
vennlig	-10.9112
beite	-10.912
skilpadde	-10.9131
▁akseptert	-10.9131
▁françois	-10.9131
▁münchen	-10.9131
▁admiral	-10.9131
▁leopold	-10.9131
▁matematisk	-10.9131
▁1906	-10.9131
▁1931	-10.9132
▁halvorsen	-10.9132
▁hyppig	-10.9132
▁nøyaktig	-10.9132
▁regulert	-10.9132
kompetanse	-10.9132
▁charlotte	-10.9132
▁democr	-10.9132
▁über	-10.9133
▁singelen	-10.9133
▁africa	-10.9133
▁bernhard	-10.9133
klinikk	-10.9136
▁avhandlingen	-10.9136
▁brygge	-10.9136
▁1600	-10.9137
▁massiv	-10.9138
▁elleve	-10.9143
kobling	-10.9145
føderasjon	-10.9148
▁satellitt	-10.915
opplevelse	-10.9153
▁rytme	-10.9153
▁ekstern	-10.9153
▁studere	-10.918
åpning	-10.9183
ansvaret	-10.9221
▁marcel	-10.9223
katalog	-10.9228
▁besetning	-10.9229
100	-10.9253
astronom	-10.9284
overføring	-10.9328
forandring	-10.9335
pumpe	-10.9377
kreps	-10.9393
ская	-10.9409
▁illustrert	-10.9409
▁konstruert	-10.9409
▁buskerud	-10.9409
▁misjonær	-10.9409
▁pattedyr	-10.9409
▁bystatus	-10.9409
leksikon	-10.9409
▁skihopper	-10.9409
leverandør	-10.941
▁innlemme	-10.941
nkjønn	-10.941
▁utnevne	-10.941
▁detroit	-10.941
▁kråke	-10.941
teoretisk	-10.9411
▁fantasi	-10.9411
▁presentert	-10.9411
▁claudi	-10.9412
▁hög	-10.9413
▁koreansk	-10.9414
▁forlenge	-10.9421
▁innstifte	-10.9421
▁forvalte	-10.9435
syssel	-10.9465
▁earl	-10.9466
▁markedsføre	-10.9471
sentral	-10.9474
▁søyle	-10.9482
astrid	-10.9483
▁america	-10.9506
▁astronomi	-10.9537
bevegelse	-10.9618
instruktør	-10.9695
ttoregistertonn	-10.9695
▁argentina	-10.9695
▁innbefatte	-10.9695
▁jurisdiksjon	-10.9695
▁kambodsja	-10.9695
▁washington	-10.9695
▁ambassadør	-10.9695
▁anerkjenne	-10.9695
▁napoleon	-10.9695
▁svalbard	-10.9695
▁territorie	-10.9695
▁sichuan	-10.9695
▁ødelegge	-10.9695
▁utspring	-10.9695
▁sørsamisk	-10.9695
▁gustaf	-10.9695
▁antarktis	-10.9695
▁fantasy	-10.9695
▁krydder	-10.9695
▁individuell	-10.9695
▁kritisert	-10.9695
▁rumensk	-10.9695
▁forbedre	-10.9696
▁utseende	-10.9696
▁inngikk	-10.9696
▁dekorert	-10.9697
▁kalender	-10.9697
▁invasjon	-10.9698
▁unngå	-10.9698
▁beordr	-10.9699
▁kronologisk	-10.9701
▁andorra	-10.9704
▁bokstavelig	-10.9705
▁utøve	-10.9705
▁pryd	-10.9707
▁avansert	-10.9708
▁skaffe	-10.9715
▁karakterisert	-10.9715
størrelse	-10.9755
litteratur	-10.9755
▁etappe	-10.9779
▁nomina	-10.9841
inndeling	-10.9878
▁forekomme	-10.9886
▁blanc	-10.9913
misbruk	-10.9913
▁bremse	-10.9929
▁nøytron	-10.9989
▁omdøpt	-10.9989
▁sammenslåing	-10.9989
▁substantiv	-10.9989
▁toppnivådomene	-10.9989
▁rekrutt	-10.9989
▁bladbiller	-10.9989
▁akershus	-10.9989
▁limited	-10.9989
▁1903	-10.9989
▁hordaland	-10.9989
▁stridsvogn	-10.9989
▁torpedo	-10.9989
▁utdødd	-10.9989
▁fungerte	-10.9989
▁special	-10.9989
▁monument	-10.9989
▁1873	-10.9989
▁fjeld	-10.9989
▁begravet	-10.999
▁jamaica	-10.999
▁opererer	-10.999
føtter	-10.999
▁about	-10.9991
▁søvn	-10.9993
▁stedsnavn	-11.0002
▁foretrekke	-11.0003
▁størst	-11.0003
enøst	-11.0012
kirurg	-11.002
flåten	-11.0028
universitet	-11.0055
produsert	-11.0058
▁bakkropp	-11.0069
prøve	-11.0071
▁sokn	-11.0097
▁organisere	-11.0108
▁bløt	-11.0128
kapell	-11.0138
▁forstyrre	-11.0292
▁kringkasting	-11.0292
▁psykiatri	-11.0292
▁assosiert	-11.0292
▁chrysomel	-11.0292
▁fasettøyne	-11.0292
▁göteborg	-11.0292
▁involvert	-11.0292
▁musikkvideo	-11.0292
▁network	-11.0292
▁ortodoks	-11.0292
▁definisjon	-11.0292
▁registrering	-11.0292
▁etterkommere	-11.0292
▁management	-11.0292
▁kapittel	-11.0292
▁kyrillisk	-11.0292
▁mandsju	-11.0292
▁innbyggerne	-11.0292
▁1923	-11.0292
▁1869	-11.0292
▁kenneth	-11.0292
▁opptrådt	-11.0292
▁øivin	-11.0292
▁amatør	-11.0292
▁kommentar	-11.0292
▁praksis	-11.0292
▁marilyn	-11.0292
▁uvanlig	-11.0292
▁oppfølger	-11.0293
▁köln	-11.0293
▁skrivemåte	-11.0293
▁walisisk	-11.0293
▁ntnu	-11.0293
▁delstats	-11.0293
▁claude	-11.0294
▁varierende	-11.0294
▁ødelagt	-11.0294
▁særskilt	-11.0294
▁paradis	-11.0295
▁diamant	-11.0295
▁afrikansk	-11.0295
▁svekke	-11.0296
mekanisme	-11.0297
▁enzym	-11.0301
kjerring	-11.0314
vunne	-11.0325
flyvning	-11.0351
▁modifiser	-11.036
▁dobbel	-11.0367
europeisk	-11.037
▁direct	-11.0377
sparc	-11.0386
▁usikker	-11.0451
▁record	-11.0563
▁frilufts	-11.0605
▁billedhugger	-11.0605
▁ferdinand	-11.0605
▁hviterussisk	-11.0605
▁laboratorie	-11.0605
▁milliarder	-11.0605
▁norwegian	-11.0605
▁tilknytning	-11.0605
▁tsjekkisk	-11.0605
▁amsterdam	-11.0605
▁ragnhild	-11.0605
▁lillehammer	-11.0605
▁xinjiang	-11.0605
▁piauí	-11.0605
▁litauen	-11.0605
▁mongolia	-11.0605
▁nobelpris	-11.0605
▁statistikk	-11.0605
▁project	-11.0605
▁serbia	-11.0605
▁christensen	-11.0606
▁underholdning	-11.0606
▁ekspert	-11.0607
▁klinisk	-11.0609
▁fasade	-11.0614
▁smitte	-11.0626
▁gamma	-11.0626
bourne	-11.0628
shaw	-11.0634
utenriksminister	-11.0667
▁henvise	-11.0671
knopp	-11.0679
angrep	-11.0699
teknisk	-11.07
▁birge	-11.0771
▁inneholde	-11.0824
spect	-11.0839
inspektør	-11.0927
▁development	-11.0927
▁mobiltelefon	-11.0927
▁narkotika	-11.0927
▁nøytral	-11.0927
▁zìzhìxiàn	-11.0927
▁patriark	-11.0927
▁technology	-11.0927
▁stråling	-11.0927
▁bachelor	-11.0927
øyenstikker	-11.0927
▁jupiter	-11.0927
▁vertikal	-11.0927
▁komplisert	-11.0927
▁firkant	-11.0927
▁people	-11.0927
▁beskyttelse	-11.0928
▁nelson	-11.0928
▁wagner	-11.0928
▁ronald	-11.0928
▁hovedpersonen	-11.0928
selskab	-11.0928
samfund	-11.0929
▁anatol	-11.0935
▁krypt	-11.0937
▁blond	-11.0945
sprang	-11.0961
jernbane	-11.1022
dialekt	-11.1027
kreditt	-11.1058
sammensetning	-11.1089
▁folkegrupp	-11.1106
▁begynne	-11.1156
traksjon	-11.1223
▁omdanne	-11.1236
▁helsingfors	-11.1261
▁instruksjon	-11.1261
▁jerusalem	-11.1261
▁koalisjon	-11.1261
▁palestinsk	-11.1261
▁uttrykt	-11.1261
▁litauisk	-11.1261
▁minnesota	-11.1261
▁langrennsløper	-11.1261
▁columbia	-11.1261
▁sophie	-11.1261
korrespon	-11.1261
▁channel	-11.1261
▁operativsystem	-11.1261
▁tilføyd	-11.1261
▁medvirkende	-11.1261
ć	-11.9913
ǎ	-13.2544
