<unk>	0
<s>	0
</s>	0
.	-3.23154
s	-3.536
e	-3.53884
▁i	-3.73952
▁og	-3.96354
▁	-4.01627
er	-4.11632
t	-4.13205
en	-4.19014
▁av	-4.49774
r	-4.56705
▁er	-4.5836
▁en	-4.70067
▁som	-4.783
▁for	-4.84921
et	-4.8875
▁til	-4.89624
n	-4.90204
▁på	-4.9828
▁med	-5.05959
▁den	-5.22462
a	-5.27225
▁ble	-5.30571
▁var	-5.34088
▁de	-5.40842
▁det	-5.42175
▁fra	-5.48682
▁har	-5.62954
▁et	-5.63361
ene	-5.64652
▁å	-5.68465
▁han	-5.72088
i	-5.76524
d	-5.76735
k	-5.78617
ne	-5.79342
o	-5.8861
▁ved	-6.01207
y	-6.01915
▁at	-6.1372
▁også	-6.175
l	-6.19133
te	-6.20806
g	-6.21931
▁om	-6.22751
de	-6.25317
m	-6.26638
re	-6.29942
f	-6.32124
▁etter	-6.34706
p	-6.36304
▁ut	-6.3672
▁s	-6.39815
▁under	-6.40485
▁eller	-6.42394
▁over	-6.47748
▁opp	-6.49117
▁men	-6.52929
▁kan	-6.54056
▁to	-6.55976
c	-6.57147
v	-6.58925
es	-6.61058
▁seg	-6.61643
▁a	-6.61997
▁inn	-6.62902
us	-6.63184
u	-6.64465
▁be	-6.64867
h	-6.65459
▁18	-6.65768
▁da	-6.66403
ing	-6.66905
▁hadde	-6.71479
in	-6.72283
an	-6.74927
b	-6.7585
▁ikke	-6.77914
al	-6.78581
sk	-6.78581
▁andre	-6.82067
▁sin	-6.8626
on	-6.88587
na	-6.88796
▁mot	-6.88854
ter	-6.89804
▁mellom	-6.90092
▁f	-6.90182
is	-6.91298
▁the	-6.91582
le	-6.9392
la	-6.94375
z	-6.94924
▁født	-6.96179
▁ha	-6.98385
ri	-6.99379
ia	-7.00338
ar	-7.00923
▁hans	-7.01116
▁1	-7.01625
w	-7.04393
▁b	-7.05218
▁dette	-7.07382
▁hun	-7.074
ende	-7.0764
▁tre	-7.0808
▁m	-7.08262
sen	-7.08482
▁u	-7.12288
▁man	-7.12817
ke	-7.1363
▁første	-7.13737
di	-7.14973
nde	-7.14978
▁ligger	-7.15909
▁blant	-7.15967
▁re	-7.16593
▁p	-7.16931
▁g	-7.1711
ma	-7.18777
ck	-7.18982
land	-7.20737
ur	-7.21775
▁nord	-7.22248
▁der	-7.22282
vis	-7.22404
▁2	-7.22784
ens	-7.22932
▁sammen	-7.23579
▁ca	-7.23921
▁la	-7.24937
▁fikk	-7.25184
ch	-7.25277
lig	-7.26107
▁an	-7.26626
j	-7.27654
▁flere	-7.28263
▁c	-7.28935
▁k	-7.28995
ra	-7.29005
ta	-7.29389
um	-7.29671
▁d	-7.29843
or	-7.30035
x	-7.30044
▁gjennom	-7.30463
at	-7.31364
isk	-7.32498
▁denne	-7.32513
il	-7.32546
ske	-7.32655
ning	-7.34253
el	-7.35597
▁alle	-7.35756
▁år	-7.35857
der	-7.35957
▁se	-7.36178
kk	-7.36219
▁her	-7.36637
▁3	-7.37384
ng	-7.38866
lo	-7.3901
kt	-7.39274
▁del	-7.39638
▁pi	-7.39743
li	-7.40825
da	-7.4185
▁hvor	-7.42072
os	-7.42571
▁of	-7.42592
ro	-7.42826
den	-7.42941
mo	-7.43799
▁blir	-7.44279
ver	-7.44664
ry	-7.44727
iske	-7.4485
ler	-7.45048
be	-7.46289
øy	-7.46321
▁17	-7.46398
nes	-7.46837
▁bo	-7.47686
▁h	-7.47882
ka	-7.48109
é	-7.48387
▁stor	-7.49266
▁ny	-7.49403
me	-7.49916
for	-7.5039
▁kr	-7.50451
▁t	-7.5062
▁by	-7.50639
▁ro	-7.50795
▁o	-7.50863
▁før	-7.52143
▁norsk	-7.52557
ig	-7.52788
▁kom	-7.53559
▁tidligere	-7.54055
▁mange	-7.54687
tt	-7.54714
▁al	-7.54838
å	-7.54857
▁død	-7.55055
ul	-7.55699
ker	-7.5575
▁ga	-7.56175
ce	-7.56326
ton	-7.56493
id	-7.5653
as	-7.56614
▁le	-7.56639
▁di	-7.56875
son	-7.58063
▁annet	-7.58718
▁mer	-7.58801
ge	-7.59845
▁5	-7.6005
ve	-7.60057
▁så	-7.60068
▁li	-7.60201
▁disse	-7.60604
▁kommune	-7.6071
ør	-7.61868
▁byen	-7.6199
ad	-7.62008
ut	-7.62195
▁in	-7.62442
▁hoved	-7.62531
lige	-7.62536
th	-7.62741
▁kon	-7.62989
mp	-7.6331
ner	-7.63454
▁15	-7.63648
▁sa	-7.63984
ga	-7.64868
ger	-7.65196
stad	-7.65403
▁16	-7.65859
▁senere	-7.65876
▁sør	-7.65984
▁ra	-7.6627
it	-7.66295
▁4	-7.66329
▁n	-7.67988
ba	-7.68211
▁l	-7.69035
▁mar	-7.69367
ell	-7.69537
▁vi	-7.69801
▁st	-7.7045
▁ba	-7.70467
bo	-7.71333
▁r	-7.71444
▁siden	-7.71618
▁ma	-7.71624
ja	-7.71826
to	-7.71892
▁kjent	-7.73392
▁ned	-7.73401
æ	-7.73445
mi	-7.73751
▁10	-7.73807
▁sitt	-7.74063
man	-7.74148
▁v	-7.74332
ha	-7.74932
▁mens	-7.74938
▁ta	-7.74947
ist	-7.74963
▁noen	-7.76052
▁he	-7.76242
▁kalt	-7.76751
om	-7.76897
mer	-7.76977
ic	-7.77407
▁være	-7.78022
▁selv	-7.78218
gen	-7.78611
▁as	-7.79089
▁j	-7.79201
dal	-7.79763
ø	-7.8003
▁navnet	-7.80428
▁per	-7.80829
▁du	-7.81005
ff	-7.81071
ær	-7.81612
▁me	-7.81717
▁ni	-7.81853
by	-7.81903
asjon	-7.82281
▁ti	-7.82658
▁store	-7.82933
▁co	-7.83174
▁rundt	-7.83562
ik	-7.83596
erte	-7.8365
▁ho	-7.83979
▁vil	-7.83989
het	-7.84138
▁6	-7.84437
▁ham	-7.84439
▁ar	-7.84441
▁w	-7.84497
je	-7.84654
▁and	-7.84659
▁land	-7.85537
▁sp	-7.85707
del	-7.85731
ste	-7.86164
▁fa	-7.86279
▁12	-7.86294
▁skal	-7.86644
▁bu	-7.86653
ster	-7.86929
ol	-7.86961
▁vest	-7.87282
▁øst	-7.8751
bu	-7.87553
berg	-7.87949
var	-7.87976
▁folke	-7.88135
▁frem	-7.88215
▁går	-7.88231
▁samt	-7.88397
▁tallet	-7.88862
si	-7.89135
ling	-7.89176
▁si	-7.89557
▁dag	-7.89632
ion	-7.89739
▁8	-7.90452
▁ofte	-7.91154
im	-7.91227
ven	-7.9141
▁sine	-7.91498
gg	-7.91521
ti	-7.91694
▁na	-7.91718
▁ri	-7.92122
▁grunn	-7.92241
else	-7.9275
gi	-7.92785
ho	-7.92825
ä	-7.92898
▁bi	-7.93111
▁7	-7.93431
ment	-7.93879
erne	-7.93888
ant	-7.94136
vik	-7.94314
▁kinesisk	-7.94557
▁ol	-7.94904
▁no	-7.94938
▁norge	-7.95079
mann	-7.95149
ll	-7.95257
▁navn	-7.95728
do	-7.95812
pe	-7.95868
▁fri	-7.96084
▁do	-7.96095
▁finnes	-7.9612
▁hver	-7.96355
▁vært	-7.96755
▁båd	-7.96798
▁or	-7.97014
▁samme	-7.97059
nd	-7.97357
skap	-7.97524
á	-7.97551
opp	-7.97901
▁kunne	-7.97966
co	-7.98295
▁norske	-7.98394
ang	-7.98404
ed	-7.98427
ko	-7.9872
pp	-7.98744
▁mest	-7.9877
vi	-7.98983
▁11	-7.99173
3	-7.99238
ir	-7.99247
▁lo	-7.99458
▁km	-7.99582
gikk	-7.99783
rett	-7.99882
▁blitt	-7.99972
▁bar	-8.00152
men	-8.00353
▁14	-8.00391
▁fire	-8.00494
▁hos	-8.01475
sa	-8.01821
▁mo	-8.02012
▁fram	-8.0227
▁gi	-8.02323
▁tid	-8.02513
▁slik	-8.02595
▁kirke	-8.03194
op	-8.03409
▁skulle	-8.03456
bi	-8.03607
va	-8.03874
▁mars	-8.03879
▁like	-8.04451
av	-8.04568
▁kina	-8.0476
▁9	-8.05334
▁film	-8.05349
ard	-8.05533
▁mi	-8.05677
▁ei	-8.05684
sjon	-8.05795
lin	-8.05925
▁lag	-8.06012
ni	-8.0605
▁august	-8.0607
gu	-8.0699
▁pa	-8.06998
▁far	-8.07086
ok	-8.0772
ings	-8.07935
▁enn	-8.07964
▁amerikansk	-8.08248
ningen	-8.08384
▁sch	-8.08437
ring	-8.0853
▁13	-8.08707
▁fly	-8.08766
▁mor	-8.09129
▁lang	-8.09713
▁skrev	-8.09742
▁vant	-8.09784
▁el	-8.1012
go	-8.10581
▁når	-8.10701
sel	-8.11384
tter	-8.11428
▁mai	-8.11514
▁tok	-8.11901
▁noe	-8.12361
▁te	-8.12387
iv	-8.12394
▁bak	-8.12445
▁største	-8.12626
gang	-8.12856
▁januar	-8.13026
▁oslo	-8.13058
▁mål	-8.13281
io	-8.13377
▁po	-8.1359
elle	-8.13822
ering	-8.14255
▁ad	-8.14408
sh	-8.14563
ak	-8.14613
▁sk	-8.1511
2	-8.15278
ot	-8.15452
▁sol	-8.16279
▁nå	-8.16704
▁juli	-8.17392
▁sønn	-8.17599
▁hele	-8.17821
▁bestå	-8.18005
no	-8.18674
od	-8.1883
▁ju	-8.19102
▁bare	-8.19283
ö	-8.19576
▁0	-8.19607
tor	-8.19923
hold	-8.20006
▁20	-8.20315
▁y	-8.20385
▁ko	-8.21031
▁nye	-8.21227
len	-8.21637
▁hu	-8.21686
1	-8.21687
▁su	-8.21702
ly	-8.21767
bar	-8.21892
mm	-8.22163
ca	-8.22341
▁gjen	-8.22535
▁vanlig	-8.22556
▁tilbake	-8.22568
ikk	-8.22831
ina	-8.22868
▁bra	-8.22908
▁tv	-8.23299
▁jo	-8.23509
▁pro	-8.23922
▁sam	-8.24109
▁lu	-8.24154
vel	-8.24203
▁innen	-8.24629
▁hen	-8.24647
▁san	-8.24726
▁vann	-8.25047
▁leder	-8.2539
▁skole	-8.25405
ov	-8.25699
▁meter	-8.2591
dag	-8.26341
▁musikk	-8.26363
år	-8.26399
am	-8.26572
sted	-8.26906
tra	-8.26936
ier	-8.2697
▁tillegg	-8.26971
lag	-8.27471
pa	-8.27635
tal	-8.27829
▁nær	-8.27978
▁tor	-8.28278
▁uten	-8.2842
▁ka	-8.28449
un	-8.28467
▁utgitt	-8.29334
ft	-8.29621
po	-8.29745
dd	-8.29841
▁dem	-8.29854
▁000	-8.30591
▁rekke	-8.30704
▁rett	-8.30729
▁usa	-8.3074
sta	-8.30817
▁laget	-8.31008
▁bok	-8.31106
ag	-8.31248
ium	-8.31354
au	-8.31507
▁pe	-8.31568
▁må	-8.31582
▁ab	-8.31874
▁eks	-8.31899
▁juni	-8.31904
▁kunst	-8.31983
▁gift	-8.32237
▁gu	-8.32562
▁området	-8.3264
▁siste	-8.32757
▁april	-8.32883
per	-8.33203
form	-8.33238
▁små	-8.3339
tro	-8.33643
ian	-8.33881
▁tra	-8.33905
▁go	-8.33914
ny	-8.33994
▁brukes	-8.34
siden	-8.34053
ie	-8.34184
▁john	-8.34289
▁gang	-8.34457
▁fl	-8.34473
este	-8.34531
▁tro	-8.34533
▁tri	-8.34559
hu	-8.34585
over	-8.34645
▁ru	-8.34755
▁am	-8.35024
verk	-8.35285
▁spilte	-8.35444
▁fem	-8.35545
ci	-8.35714
les	-8.35976
ingen	-8.35985
▁con	-8.36026
▁langs	-8.3605
ran	-8.36156
▁so	-8.36345
▁sv	-8.36542
lu	-8.36718
▁kong	-8.36762
▁par	-8.36827
▁kl	-8.37253
▁bli	-8.37283
▁eksempel	-8.37375
▁wa	-8.37485
tak	-8.37582
▁mat	-8.37888
▁høy	-8.37905
rik	-8.37959
ns	-8.37991
tur	-8.38602
ighet	-8.38866
▁ja	-8.39544
▁kalles	-8.39561
▁sand	-8.39586
▁russisk	-8.40328
ou	-8.40433
ans	-8.40482
▁new	-8.40712
ede	-8.40966
▁februar	-8.4107
▁oktober	-8.4107
ken	-8.41463
ü	-8.41572
▁2010	-8.41586
ord	-8.41973
▁deres	-8.41999
mar	-8.42038
▁hus	-8.42052
▁desember	-8.42079
følge	-8.42295
▁øy	-8.42323
▁egen	-8.42457
ty	-8.42518
▁ski	-8.42756
▁kultur	-8.43074
dan	-8.43176
▁lys	-8.43295
▁bro	-8.43298
▁november	-8.43612
ill	-8.43745
▁ulike	-8.4375
▁september	-8.43869
rø	-8.44137
▁kar	-8.4426
ley	-8.44276
vin	-8.44373
▁2008	-8.44399
▁all	-8.44479
kel	-8.44594
▁lever	-8.44611
▁ge	-8.44812
▁fi	-8.44903
hus	-8.4496
▁landet	-8.45026
ksjon	-8.45032
stein	-8.45406
▁igjen	-8.45528
▁spiller	-8.45756
▁få	-8.45789
▁ne	-8.45921
▁kun	-8.45983
▁kommer	-8.46054
▁derfor	-8.46167
ow	-8.46237
▁videre	-8.46239
▁hel	-8.46463
▁hennes	-8.46524
▁gir	-8.46577
und	-8.46613
▁min	-8.4724
▁bruk	-8.47241
▁2005	-8.47289
▁provinsen	-8.47516
pi	-8.4759
jø	-8.47883
tte	-8.481
burg	-8.4831
▁startet	-8.48429
▁em	-8.48433
▁form	-8.48447
kon	-8.48501
▁2006	-8.48632
▁2007	-8.48635
min	-8.48951
▁bl	-8.49116
▁car	-8.49129
▁begge	-8.49176
▁først	-8.49362
inn	-8.49495
kker	-8.49854
▁fo	-8.4986
yl	-8.4987
ks	-8.49958
ninger	-8.50029
lse	-8.50309
gel	-8.50941
midlertid	-8.51096
▁mindre	-8.51111
▁verdens	-8.51125
▁hi	-8.51166
▁30	-8.51267
dalen	-8.51491
fa	-8.51541
▁gamle	-8.51649
ku	-8.51756
tan	-8.51758
ius	-8.5185
▁stein	-8.52043
í	-8.52093
bb	-8.52266
▁innenfor	-8.52287
ru	-8.52453
▁deretter	-8.5251
▁engelsk	-8.52764
▁nor	-8.52775
▁2009	-8.5278
▁vei	-8.53337
▁x	-8.53595
itet	-8.53777
and	-8.53953
ber	-8.54003
▁filmen	-8.54043
▁begynte	-8.54106
▁bru	-8.54112
▁god	-8.54353
▁vel	-8.54358
▁lå	-8.54451
4	-8.54474
▁språk	-8.54663
▁sjø	-8.54709
▁midt	-8.54915
stre	-8.55042
▁konge	-8.55169
▁alt	-8.55376
5	-8.55519
▁syn	-8.55568
slag	-8.55765
ld	-8.55942
▁mel	-8.55968
art	-8.56003
sten	-8.5608
vo	-8.56235
▁særlig	-8.56507
▁cha	-8.56904
▁liv	-8.57415
▁litt	-8.57758
▁brukt	-8.57761
▁gruppen	-8.57935
▁president	-8.58021
ud	-8.58175
anske	-8.58225
ator	-8.58225
ó	-8.58719
sti	-8.58725
▁parti	-8.58812
ham	-8.5889
▁helt	-8.58954
rede	-8.59189
▁rom	-8.59441
▁døde	-8.59519
▁my	-8.5962
ron	-8.59655
tten	-8.597
mb	-8.59726
stand	-8.59761
▁gresk	-8.60059
til	-8.60316
ung	-8.60349
▁norges	-8.60359
par	-8.60434
mål	-8.60518
sch	-8.60547
forening	-8.60736
ige	-8.60811
▁året	-8.60874
▁sal	-8.60894
▁tysk	-8.61158
▁bandet	-8.61278
tre	-8.61381
▁nasjonal	-8.61382
▁pre	-8.61418
▁ed	-8.61434
▁dr	-8.6155
▁fast	-8.61614
ting	-8.61874
wa	-8.62007
isme	-8.62096
▁barn	-8.62145
elig	-8.62219
▁ty	-8.62671
▁fag	-8.62699
itt	-8.62899
▁val	-8.63109
dy	-8.63279
gn	-8.6331
▁mag	-8.63396
løp	-8.63411
▁ki	-8.63429
▁gjorde	-8.63472
▁kort	-8.63496
▁pu	-8.63729
▁øya	-8.63805
▁ben	-8.63823
▁medlem	-8.63934
ac	-8.64056
tid	-8.64081
som	-8.64129
▁tidlig	-8.64257
▁beste	-8.64413
inger	-8.64464
stil	-8.64528
▁fu	-8.6476
▁ak	-8.64859
▁vis	-8.64893
vert	-8.65057
mon	-8.6509
nyin	-8.65181
bel	-8.65246
▁basert	-8.65305
▁fjell	-8.65713
let	-8.6574
est	-8.66108
dre	-8.66124
fly	-8.66196
▁britisk	-8.66297
▁etablert	-8.66345
▁kor	-8.66495
▁selskapet	-8.66547
bre	-8.66554
▁mye	-8.66569
▁grav	-8.66685
▁ord	-8.6691
▁samtidig	-8.66994
ong	-8.67007
hi	-8.67016
▁årene	-8.67235
▁europa	-8.67328
▁nest	-8.67347
du	-8.6742
ju	-8.67434
▁tiden	-8.67464
▁art	-8.67529
nings	-8.67717
▁inneholder	-8.67932
jo	-8.68117
ek	-8.68514
▁svært	-8.68636
elsen	-8.68863
▁betyr	-8.68966
▁ur	-8.68987
ki	-8.69017
sto	-8.69021
▁gull	-8.69217
▁kjente	-8.69255
▁bil	-8.6926
▁2004	-8.69306
▁lokal	-8.6943
▁ville	-8.69462
mor	-8.69612
▁fr	-8.69918
▁dermed	-8.70001
00	-8.70099
ologi	-8.70271
ica	-8.70334
▁com	-8.70403
sson	-8.7044
▁ren	-8.70482
ya	-8.70681
sp	-8.70753
▁sommer	-8.7076
▁natur	-8.70999
▁stort	-8.71046
▁forskjellige	-8.71087
▁sentral	-8.71164
tiske	-8.71235
▁side	-8.71278
tisk	-8.71292
▁familien	-8.71442
▁ver	-8.71504
▁større	-8.71619
▁vin	-8.71626
▁radio	-8.72073
▁dan	-8.72106
▁gud	-8.72258
▁bergen	-8.72317
▁ku	-8.72493
borg	-8.72614
tar	-8.72675
ære	-8.72846
▁2011	-8.73034
han	-8.73123
▁25	-8.73316
▁politisk	-8.73335
▁fin	-8.73428
▁ste	-8.73508
kom	-8.73598
up	-8.73651
za	-8.73732
▁22	-8.73795
▁sta	-8.73828
▁berg	-8.73979
▁innbyggere	-8.74067
dig	-8.74386
▁luft	-8.74462
▁sen	-8.74745
▁kommunen	-8.74762
▁bri	-8.74787
sj	-8.74837
▁lov	-8.7501
▁24	-8.75121
▁seks	-8.7517
far	-8.75285
▁mann	-8.75288
▁va	-8.75307
lands	-8.75413
▁måtte	-8.75508
sund	-8.75536
øya	-8.75753
▁wi	-8.75876
6	-8.75997
fi	-8.76298
▁ingen	-8.76395
heim	-8.7643
▁satt	-8.76681
▁kal	-8.76706
▁hal	-8.76726
▁verk	-8.76745
▁2002	-8.76914
▁plass	-8.76924
fra	-8.77029
▁rød	-8.77061
▁sett	-8.77164
port	-8.77169
▁kje	-8.77217
▁tyske	-8.7744
tz	-8.77563
▁ch	-8.77659
▁annen	-8.77672
▁person	-8.7774
▁halv	-8.77946
▁støtte	-8.77947
sett	-8.78008
tiden	-8.78027
bro	-8.78081
▁hav	-8.78143
▁brun	-8.78155
▁jord	-8.78389
ska	-8.78411
▁står	-8.78442
▁tar	-8.78671
▁we	-8.78681
▁deltok	-8.78778
fjorden	-8.78897
▁jan	-8.79084
▁plan	-8.79159
▁sto	-8.79228
▁albumet	-8.7927
▁tilhører	-8.79427
ation	-8.79466
▁bygget	-8.7947
kan	-8.79552
▁bruker	-8.79897
bok	-8.79906
▁von	-8.80149
che	-8.80159
▁ø	-8.80187
▁gjern	-8.80239
ight	-8.80258
▁je	-8.80554
▁mu	-8.80862
▁op	-8.80953
▁lav	-8.80968
▁kur	-8.80977
▁hol	-8.80979
▁col	-8.81112
▁ser	-8.81289
▁fe	-8.81378
▁dikt	-8.8139
▁tur	-8.81452
▁fotball	-8.81557
mark	-8.81925
ph	-8.81931
▁roman	-8.82089
▁arbeidet	-8.8211
ug	-8.82166
spill	-8.82219
▁bre	-8.82237
isere	-8.82284
organisasjon	-8.82384
▁on	-8.82529
▁19	-8.82592
▁mil	-8.82694
sjoner	-8.82702
и	-8.82814
▁stat	-8.83105
veien	-8.83136
▁tredje	-8.83499
▁får	-8.83531
skole	-8.83576
▁lange	-8.83706
republikken	-8.83769
▁th	-8.83904
ister	-8.83912
▁omkring	-8.83967
▁2003	-8.84018
met	-8.84136
▁bor	-8.84195
ab	-8.84251
ys	-8.84376
nk	-8.84408
▁gul	-8.84475
▁følgende	-8.84504
anger	-8.846
▁pan	-8.84798
pper	-8.84813
▁fransk	-8.8497
▁sverige	-8.85129
▁van	-8.85164
▁farge	-8.85223
▁deler	-8.85231
▁motor	-8.85289
yn	-8.85327
▁forhold	-8.85333
▁såkalt	-8.85522
▁tu	-8.85744
▁sangen	-8.85746
▁svensk	-8.85771
fe	-8.86108
▁br	-8.86146
uk	-8.86174
▁mark	-8.862
▁utenfor	-8.86414
▁hjelp	-8.86726
jer	-8.86748
▁anti	-8.86916
▁gammel	-8.87111
▁fylke	-8.87444
▁gro	-8.87798
▁fleste	-8.87939
▁datter	-8.88019
akt	-8.88164
▁vise	-8.88258
▁viser	-8.88261
isert	-8.88261
laget	-8.88471
ine	-8.88503
ale	-8.886
▁bygd	-8.88726
elt	-8.88751
pl	-8.88756
▁gl	-8.89089
zi	-8.89091
▁ledet	-8.89094
em	-8.89125
▁vo	-8.89127
▁grad	-8.89174
▁riks	-8.89255
dyr	-8.89326
ino	-8.89446
▁industri	-8.89526
isering	-8.89537
lær	-8.89582
▁mus	-8.89663
▁gitt	-8.89705
▁ag	-8.89922
ah	-8.90084
rak	-8.90152
skog	-8.90161
▁slag	-8.90325
▁general	-8.90327
▁serien	-8.90393
▁21	-8.90422
ari	-8.90456
▁stra	-8.90543
van	-8.90663
▁antall	-8.90741
før	-8.9083
▁arbeids	-8.90887
rom	-8.90922
▁sted	-8.91102
▁fylkesvei	-8.91166
lle	-8.91229
▁forfatter	-8.91282
▁ganger	-8.91335
anlegg	-8.91347
rud	-8.91354
og	-8.91518
▁pr	-8.91556
spiller	-8.91578
▁slekt	-8.91763
▁nett	-8.91973
▁23	-8.92059
vet	-8.92498
mmer	-8.92512
syn	-8.92582
▁christian	-8.92743
▁utviklet	-8.92838
▁spilt	-8.92853
▁cor	-8.93041
▁sang	-8.93188
▁tak	-8.93268
ps	-8.93303
▁100	-8.93351
▁gav	-8.93411
lø	-8.9348
gan	-8.93618
▁au	-8.93625
▁stre	-8.93628
▁italiensk	-8.9367
▁jeg	-8.9371
ologisk	-8.93772
▁foran	-8.93912
▁liten	-8.93986
film	-8.94106
▁viktigste	-8.9414
▁omfatter	-8.94144
▁sj	-8.94186
gruppen	-8.94317
▁historie	-8.94457
▁stedet	-8.94496
▁bort	-8.94755
▁lands	-8.94773
kal	-8.94845
▁2000	-8.94951
bane	-8.95029
▁red	-8.9506
▁tyskland	-8.95166
▁ke	-8.95211
lsen	-8.95222
lan	-8.95226
▁spesielt	-8.95383
▁hatt	-8.95387
fjord	-8.95587
gh	-8.95609
▁opprinnelig	-8.95937
▁perioden	-8.95938
▁bror	-8.95972
if	-8.96089
▁band	-8.96117
▁sø	-8.96138
kar	-8.96158
▁inkludert	-8.96251
lys	-8.9627
▁kla	-8.96379
▁lei	-8.96405
▁familie	-8.96419
råd	-8.96445
▁chi	-8.96532
▁hovedsakelig	-8.96695
▁nytt	-8.96771
▁styre	-8.96819
▁william	-8.97126
▁26	-8.97285
ski	-8.97291
▁skog	-8.97302
lev	-8.97331
▁hy	-8.97447
ana	-8.97504
vern	-8.97567
▁bill	-8.97582
bygg	-8.97586
bl	-8.97811
▁viktig	-8.98057
plan	-8.98166
▁elven	-8.98178
su	-8.98273
▁organ	-8.98304
▁godt	-8.98346
▁hånd	-8.98448
▁london	-8.98454
▁militær	-8.98468
▁pri	-8.98507
▁kirken	-8.98508
▁ev	-8.98664
▁flo	-8.98706
▁arbeider	-8.98735
▁via	-8.98768
ach	-8.98792
▁gre	-8.98803
▁ber	-8.98898
skje	-8.99098
nor	-8.99118
satt	-8.99221
tel	-8.99371
▁serie	-8.99488
heten	-8.99716
▁paul	-8.99736
dom	-8.99822
▁hjemme	-8.99985
▁hør	-8.99985
det	-9.00016
▁karl	-9.00098
kje	-9.00295
▁ring	-9.00323
▁enkelte	-9.00325
leder	-9.00357
▁blå	-9.00384
▁2001	-9.00723
kor	-9.00757
iet	-9.00809
bygd	-9.00814
gar	-9.00851
▁full	-9.01069
е	-9.01155
▁delstaten	-9.01185
▁fred	-9.01208
▁teater	-9.01228
gård	-9.01241
▁rø	-9.01255
he	-9.01266
stå	-9.01329
tin	-9.01445
▁bur	-9.01465
▁gruppe	-9.01571
▁tom	-9.01578
▁betydning	-9.01621
system	-9.01837
▁nu	-9.01904
50	-9.01974
▁egne	-9.02163
val	-9.02167
istiske	-9.02169
▁sig	-9.02183
▁klubben	-9.02189
banen	-9.02263
bil	-9.02307
▁gjør	-9.02368
vær	-9.02462
øl	-9.02668
▁hø	-9.02761
▁produsert	-9.02764
dt	-9.02929
▁eu	-9.03028
kast	-9.03389
▁millioner	-9.03477
▁valg	-9.03507
▁dy	-9.03733
▁sosial	-9.03746
▁internasjonale	-9.03828
▁tildelt	-9.03993
pen	-9.04035
my	-9.04191
▁stats	-9.04397
▁ry	-9.04436
▁ska	-9.04453
tsj	-9.0454
tiv	-9.0463
lene	-9.04704
fon	-9.04811
grense	-9.04826
stra	-9.04839
▁spor	-9.04851
▁sm	-9.04877
▁barne	-9.04902
landet	-9.05058
ds	-9.0519
eres	-9.05262
▁russland	-9.05371
▁1999	-9.05377
plass	-9.0542
syk	-9.05521
stu	-9.05523
bra	-9.05631
pel	-9.05645
legg	-9.05699
▁ex	-9.05703
chi	-9.05787
▁lite	-9.05897
▁fiske	-9.05955
▁bygge	-9.06035
ap	-9.06074
ald	-9.061
▁arbeid	-9.06318
▁syd	-9.06504
idae	-9.06561
▁skolen	-9.06632
▁50	-9.06757
▁dra	-9.06824
▁mulig	-9.0684
tikk	-9.06949
ini	-9.06963
mat	-9.07083
we	-9.07152
▁mon	-9.07196
▁kron	-9.07232
skip	-9.07288
minister	-9.0729
▁nok	-9.07325
bø	-9.07417
▁ras	-9.07464
▁post	-9.07501
stat	-9.07618
▁universitet	-9.07622
▁don	-9.07683
res	-9.0778
asje	-9.07798
▁robert	-9.07848
asjonen	-9.07861
▁z	-9.07991
▁stil	-9.08025
▁ordet	-9.08106
▁bas	-9.0835
age	-9.08407
stående	-9.08411
▁orden	-9.08448
mel	-9.08475
30	-9.0856
▁arm	-9.0869
▁moderne	-9.08795
tu	-9.08812
▁27	-9.08836
fri	-9.09014
pris	-9.09032
▁peter	-9.09035
▁dessuten	-9.09262
skrevet	-9.09459
▁krigs	-9.09566
▁ly	-9.09607
▁vol	-9.09658
familien	-9.09706
▁gen	-9.09711
а	-9.09717
▁plante	-9.0977
▁1990	-9.09773
▁2012	-9.09776
▁para	-9.09833
▁elva	-9.09864
▁28	-9.09908
ater	-9.09926
▁reise	-9.10026
språk	-9.10026
▁lett	-9.1005
ji	-9.10402
▁stjerne	-9.1042
hr	-9.10525
▁slutt	-9.10563
folk	-9.1057
sjøen	-9.1064
▁høyre	-9.10917
punkt	-9.11023
vann	-9.11178
▁medlemmer	-9.11342
▁hjem	-9.11469
▁bal	-9.11517
▁åtte	-9.11524
olog	-9.11555
▁af	-9.11559
hl	-9.1164
don	-9.11683
stan	-9.11712
▁park	-9.1179
bruk	-9.11792
enes	-9.11817
ika	-9.11841
▁sesongen	-9.11847
q	-9.11905
▁helse	-9.1191
▁liste	-9.11919
▁fortsatt	-9.11929
ub	-9.1197
ula	-9.12136
▁best	-9.12136
▁moh	-9.12176
▁felles	-9.12179
lek	-9.12201
liv	-9.12241
▁pl	-9.12342
▁rev	-9.1241
selskap	-9.12439
pu	-9.12455
stasjon	-9.12479
▁åpnet	-9.12567
ding	-9.1258
▁kamp	-9.12592
▁mm	-9.12625
р	-9.12627
▁én	-9.12636
sak	-9.12678
▁29	-9.12764
▁student	-9.12799
▁super	-9.12839
▁menneske	-9.12878
ze	-9.12906
▁staten	-9.12991
menn	-9.13008
ferd	-9.13097
leg	-9.13127
▁qu	-9.13439
▁tittelen	-9.1355
mal	-9.13583
▁cla	-9.13687
senter	-9.13779
▁les	-9.13813
▁stemme	-9.13941
▁johan	-9.13962
▁system	-9.13968
▁31	-9.14031
▁energi	-9.14041
▁ap	-9.14052
▁carl	-9.14143
sjef	-9.14207
▁olympisk	-9.14352
▁produksjon	-9.14425
rus	-9.14441
samling	-9.14518
▁kn	-9.14522
mus	-9.14652
ris	-9.14674
kle	-9.14861
▁opera	-9.14872
▁ferdig	-9.14927
▁aktiv	-9.14978
▁veien	-9.1501
liggende	-9.15042
▁kunstner	-9.15049
led	-9.15243
▁os	-9.15284
all	-9.15311
▁motstand	-9.15379
messig	-9.15406
▁1980	-9.15415
▁eldre	-9.15456
▁sendt	-9.15464
bor	-9.15506
fall	-9.15581
▁maria	-9.15608
▁gra	-9.15632
fo	-9.15721
xi	-9.15728
▁grunnlagt	-9.15729
▁kol	-9.15759
▁mont	-9.1577
▁samarbeid	-9.15788
▁versjon	-9.15882
▁hår	-9.15927
▁venstre	-9.1595
▁album	-9.1598
tok	-9.15983
▁tru	-9.16
▁holdt	-9.16034
ida	-9.16067
▁mac	-9.16099
▁langt	-9.16163
vei	-9.16163
ria	-9.1636
▁hva	-9.16368
▁rike	-9.1637
hy	-9.16405
lett	-9.16458
▁university	-9.16466
▁dannet	-9.1648
grad	-9.16552
▁felt	-9.16596
▁wo	-9.16805
▁tatt	-9.1682
blad	-9.16984
▁sølv	-9.16993
ú	-9.16998
▁data	-9.17002
▁arter	-9.1701
▁fått	-9.17155
▁lyd	-9.17289
ringen	-9.17337
▁erik	-9.17432
vinne	-9.17453
ai	-9.17583
▁ve	-9.17639
▁tekst	-9.17706
område	-9.17716
▁len	-9.17754
dømme	-9.17764
▁fant	-9.17834
▁pris	-9.17914
▁rock	-9.17926
ire	-9.18004
▁kilometer	-9.18076
ther	-9.1819
▁hvit	-9.18226
lik	-9.18295
ich	-9.1847
▁finner	-9.18492
istisk	-9.18567
▁jernbane	-9.1857
▁york	-9.18622
▁gjøre	-9.18659
tun	-9.1873
о	-9.18758
▁gran	-9.18759
▁års	-9.18814
▁bank	-9.18839
▁trans	-9.18891
20	-9.19004
▁sanger	-9.19184
▁sh	-9.19189
▁historisk	-9.19216
▁lev	-9.19326
▁forbindelse	-9.1933
▁overtok	-9.1934
▁gate	-9.19348
▁miljø	-9.19466
ip	-9.19559
▁folk	-9.19627
▁direkte	-9.19716
▁eget	-9.19835
▁sha	-9.19947
▁vinter	-9.20063
▁dal	-9.20083
ekte	-9.20106
90	-9.2015
kul	-9.20184
▁2014	-9.2028
gitt	-9.20322
▁politiker	-9.20327
▁40	-9.20407
▁partiet	-9.20624
jen	-9.20674
▁dagens	-9.2068
▁mur	-9.20686
prosess	-9.20804
▁forut	-9.20914
▁david	-9.20939
▁gri	-9.20959
▁minne	-9.21026
▁politi	-9.21028
▁sak	-9.21075
10	-9.21144
▁herre	-9.21171
▁eid	-9.21202
ial	-9.21203
▁makt	-9.21255
ita	-9.21338
▁fremst	-9.21383
▁kul	-9.2147
ay	-9.21748
▁bjørn	-9.21855
▁representert	-9.21944
▁1998	-9.21952
lei	-9.22033
▁tjeneste	-9.22082
tjeneste	-9.22103
mannen	-9.22126
▁india	-9.22157
ola	-9.22185
▁flyttet	-9.22402
elser	-9.22493
▁oppkalt	-9.22513
ket	-9.22522
band	-9.22571
ves	-9.22635
sal	-9.22696
▁lar	-9.22756
▁måte	-9.22843
▁opprettet	-9.22874
ismen	-9.22902
▁bør	-9.22909
cc	-9.22947
▁ac	-9.22957
▁verdi	-9.22989
▁handels	-9.22991
▁enkelt	-9.23029
ð	-9.23077
▁solgt	-9.23123
området	-9.23151
fabrikk	-9.23184
▁skjer	-9.2329
båt	-9.23309
tive	-9.23354
▁arkitekt	-9.23399
▁kryss	-9.23419
loven	-9.23464
mester	-9.23466
▁mod	-9.23501
▁svart	-9.23508
▁ul	-9.23833
▁port	-9.23873
lighet	-9.24038
fer	-9.24045
▁hvis	-9.24104
områder	-9.24179
ving	-9.24212
▁omtrent	-9.24223
▁rolle	-9.24242
▁xi	-9.24333
king	-9.24457
▁west	-9.24521
▁sir	-9.24538
way	-9.24692
▁ball	-9.24779
▁gar	-9.24803
▁blod	-9.24898
stilling	-9.24918
lot	-9.2514
▁skade	-9.25152
▁blad	-9.25252
mun	-9.25339
produksjon	-9.25371
▁betydelig	-9.25382
▁studert	-9.25392
▁besto	-9.25492
▁ten	-9.25497
▁zh	-9.25517
▁uttrykk	-9.25545
▁sterkt	-9.25677
▁sentrum	-9.25677
▁stø	-9.25784
▁selskap	-9.25986
▁england	-9.25993
▁vekt	-9.26186
▁60	-9.26211
▁krigen	-9.26244
felt	-9.26274
nik	-9.26285
▁delt	-9.26378
▁olje	-9.26457
▁danmark	-9.26582
▁martin	-9.26756
dra	-9.26766
byen	-9.26801
▁fv	-9.26876
▁lengde	-9.26986
cu	-9.27009
▁distrikt	-9.27025
▁løpet	-9.27056
lagt	-9.27065
tall	-9.27099
▁2013	-9.27159
▁høyeste	-9.27205
cha	-9.27278
▁tele	-9.27299
ins	-9.27369
▁mal	-9.27416
bri	-9.27439
86	-9.27528
▁eier	-9.27563
▁indre	-9.27593
ā	-9.27698
alt	-9.27707
▁1989	-9.27754
▁sku	-9.27757
▁sy	-9.27796
tes	-9.27907
sberg	-9.2792
▁lille	-9.28107
▁universitetet	-9.28119
▁meget	-9.28202
▁bred	-9.28218
hø	-9.28326
stedet	-9.28328
▁lik	-9.28353
▁1960	-9.28355
▁kjøpt	-9.28387
án	-9.28512
75	-9.28526
sam	-9.28598
▁war	-9.28641
▁bilde	-9.28644
▁minst	-9.28694
▁franske	-9.287
full	-9.28711
▁mis	-9.28782
▁ett	-9.28831
▁mennesker	-9.28861
▁henne	-9.28868
medalje	-9.28884
deling	-9.28894
▁mos	-9.28904
▁tradisjonell	-9.28918
▁komme	-9.28989
▁dansk	-9.2899
kraft	-9.29004
▁kvinne	-9.29067
н	-9.29125
fin	-9.29125
▁za	-9.2914
under	-9.29267
▁utgjør	-9.29284
året	-9.29285
vil	-9.29303
▁figur	-9.29306
huset	-9.29318
heter	-9.29404
inne	-9.29409
tale	-9.29536
▁borger	-9.29552
▁trondheim	-9.29557
▁not	-9.29586
pro	-9.29599
bjørn	-9.29645
▁regn	-9.29887
è	-9.30088
▁regionen	-9.30153
▁symbol	-9.30159
lus	-9.30316
sky	-9.30404
▁vår	-9.30544
▁design	-9.30549
pir	-9.30581
▁latin	-9.30614
▁brukte	-9.30637
havet	-9.30698
▁lind	-9.30719
▁neste	-9.30773
▁1997	-9.30779
▁italia	-9.30785
▁island	-9.30932
▁kraft	-9.30944
pr	-9.3097
▁årlig	-9.31035
▁spille	-9.31061
organ	-9.31087
▁personer	-9.31121
▁skuespiller	-9.31256
▁keiser	-9.31276
stø	-9.3131
▁svenske	-9.31328
▁ky	-9.31337
ford	-9.31357
kin	-9.31377
▁frankrike	-9.31397
▁gal	-9.31579
▁johannes	-9.31651
▁mc	-9.31669
qui	-9.31698
ssen	-9.31769
40	-9.31778
▁forsøk	-9.31804
▁danske	-9.31916
80	-9.3198
▁klo	-9.32015
▁1991	-9.3202
▁sub	-9.32043
rat	-9.32058
▁christ	-9.32177
▁george	-9.32236
▁kampen	-9.32263
▁holde	-9.32271
søk	-9.32385
▁kj	-9.32392
fisk	-9.3241
ix	-9.32426
▁utgav	-9.32489
ved	-9.32494
gre	-9.32617
▁1996	-9.32647
▁konsert	-9.32653
▁can	-9.32772
▁pol	-9.32778
▁trykk	-9.32884
rike	-9.32953
våg	-9.32989
▁transport	-9.33048
lla	-9.33071
▁jon	-9.33158
▁drift	-9.33164
tic	-9.33268
▁1994	-9.33271
▁våpen	-9.33284
snitt	-9.33349
▁riksvei	-9.33366
departementet	-9.33381
▁dyr	-9.3339
▁lokale	-9.33408
▁ven	-9.33427
▁virke	-9.33452
navn	-9.3349
drag	-9.33612
tegn	-9.3364
▁kv	-9.33681
lia	-9.33705
aktig	-9.33863
▁fil	-9.33871
▁nordøst	-9.33936
cy	-9.3396
▁grå	-9.33964
last	-9.33987
▁økt	-9.34032
ani	-9.34045
que	-9.34108
▁høyde	-9.34153
▁nrk	-9.34157
▁you	-9.3437
gren	-9.3438
▁informasjon	-9.34535
▁1988	-9.34548
▁regi	-9.34569
▁trekk	-9.3461
▁tall	-9.34626
▁utvikling	-9.3463
▁verden	-9.34648
68	-9.3468
▁paris	-9.34684
▁strøm	-9.34696
kamp	-9.34703
▁wal	-9.34811
navnet	-9.34814
▁son	-9.34867
▁air	-9.3487
dring	-9.34963
sser	-9.34971
▁regjeringen	-9.35021
▁angrep	-9.35026
gruppe	-9.35046
▁berlin	-9.35104
▁start	-9.35135
▁skrift	-9.35294
▁hei	-9.35302
▁spesial	-9.3532
vid	-9.35322
▁venn	-9.35344
▁hall	-9.35438
log	-9.35581
▁klar	-9.35594
▁los	-9.35749
teori	-9.35764
arbeid	-9.35771
sin	-9.35785
ons	-9.35789
▁tegn	-9.35802
az	-9.35965
▁løs	-9.36191
65	-9.36202
▁skj	-9.36291
rin	-9.36325
▁grand	-9.36362
60	-9.36393
▁høsten	-9.36448
▁kontroll	-9.36465
▁1970	-9.36481
▁standard	-9.36489
▁flagg	-9.3651
▁finsk	-9.36591
▁kongen	-9.36612
nivå	-9.36739
▁cro	-9.36742
fest	-9.36915
▁fest	-9.36993
hin	-9.37009
▁thor	-9.37012
▁fall	-9.37094
▁hjerte	-9.37125
▁sommerfugl	-9.37139
▁plat	-9.37203
▁hard	-9.37271
grunn	-9.37344
▁samle	-9.37344
▁drev	-9.37388
iserte	-9.37497
▁mørke	-9.37647
▁syk	-9.37751
▁benyttet	-9.37782
▁skyld	-9.37812
side	-9.37836
▁olav	-9.37938
løse	-9.38062
▁kraftverk	-9.38087
▁kap	-9.38202
▁krav	-9.38252
▁delen	-9.38338
▁lege	-9.38446
▁fylkes	-9.38492
▁region	-9.38622
gle	-9.38657
▁boken	-9.38663
▁sogn	-9.38703
▁flat	-9.38779
▁resultat	-9.38794
▁samling	-9.38799
strøm	-9.38826
▁gass	-9.38897
▁råd	-9.38948
▁thomas	-9.39111
▁biskop	-9.39113
▁1984	-9.39123
▁1995	-9.39124
▁ansvar	-9.39249
▁spar	-9.39285
▁topp	-9.39306
tta	-9.39324
▁steder	-9.3937
▁studie	-9.39378
itz	-9.39439
▁heter	-9.39494
▁stiftet	-9.3953
▁følger	-9.39558
▁sommeren	-9.39567
retning	-9.39571
▁litteratur	-9.39651
▁viktige	-9.39654
ram	-9.39725
tion	-9.3976
▁stu	-9.39772
▁tilsvarende	-9.39782
▁hvilke	-9.39783
▁1992	-9.39789
hall	-9.398
lov	-9.3981
the	-9.3985
▁økonomisk	-9.3989
ville	-9.3996
førte	-9.39989
▁pen	-9.40044
85	-9.40055
kjenne	-9.40057
▁natt	-9.4008
her	-9.40098
▁aldri	-9.40106
▁80	-9.40133
▁turn	-9.40161
tus	-9.40201
bus	-9.40254
▁gren	-9.40388
get	-9.40392
ød	-9.40394
▁prest	-9.40395
▁lær	-9.40452
▁statsminister	-9.40475
▁dager	-9.40588
▁museum	-9.40653
▁møte	-9.40722
▁fører	-9.40731
▁stasjon	-9.4083
▁kir	-9.40881
▁styrke	-9.40966
▁skje	-9.41007
fal	-9.41046
▁lek	-9.41055
mu	-9.41116
▁kroppen	-9.41148
▁drept	-9.41155
▁egentlig	-9.41166
▁dom	-9.41278
handling	-9.41295
▁egg	-9.41354
▁henrik	-9.4137
▁bø	-9.4142
ider	-9.41433
▁tap	-9.41442
▁mø	-9.41592
▁gru	-9.41641
old	-9.4173
▁krig	-9.41773
▁1986	-9.4184
ain	-9.41905
▁sc	-9.42051
bru	-9.4213
▁sky	-9.42255
midler	-9.42326
ara	-9.4235
ble	-9.42363
▁funksjon	-9.42464
▁prosent	-9.4252
▁tal	-9.42552
▁kyst	-9.42577
systemet	-9.42663
fag	-9.42699
▁shi	-9.42733
▁grense	-9.4275
▁funnet	-9.42806
▁regnes	-9.42811
▁rus	-9.42857
nntil	-9.42928
▁jens	-9.42929
▁led	-9.42995
▁fortsatte	-9.43026
▁avdeling	-9.43043
▁befolkningen	-9.43162
▁populær	-9.43167
à	-9.43207
▁fla	-9.43306
▁metall	-9.43322
▁bedre	-9.43352
37	-9.43408
▁plate	-9.4347
▁eg	-9.43474
▁sil	-9.43508
▁produkt	-9.43541
brudd	-9.43609
ano	-9.43692
▁fange	-9.43728
kant	-9.43767
oni	-9.43811
bert	-9.43826
▁lin	-9.43828
▁real	-9.43851
▁relativ	-9.43907
▁2015	-9.4393
▁dyp	-9.4395
pol	-9.44004
▁lan	-9.44035
▁kraftig	-9.44038
dor	-9.4406
lie	-9.44073
stol	-9.44092
▁skrive	-9.4411
▁japansk	-9.44116
formet	-9.44349
oll	-9.44383
skolen	-9.44421
▁q	-9.44447
dals	-9.44548
mul	-9.4457
▁øverst	-9.44612
▁sørøst	-9.44638
▁varme	-9.44642
▁wil	-9.44794
zhou	-9.44893
▁bern	-9.44898
kunst	-9.44933
så	-9.44942
▁professor	-9.45005
▁skip	-9.45024
▁tett	-9.45026
ansk	-9.45041
▁vinge	-9.45071
ban	-9.45128
samfunn	-9.45206
hel	-9.45254
▁ci	-9.45281
▁ledelse	-9.45372
▁svarte	-9.45396
▁linje	-9.45423
▁james	-9.45443
musikk	-9.45487
valg	-9.45511
▁ya	-9.45526
har	-9.45526
trekk	-9.45584
ind	-9.45736
med	-9.45784
bygging	-9.45817
▁vm	-9.45822
ull	-9.45895
▁nils	-9.45953
▁kilde	-9.45971
▁eldste	-9.46035
virkning	-9.46037
▁hevde	-9.46075
▁slekten	-9.46114
39	-9.46123
▁ang	-9.46139
gra	-9.46141
▁200	-9.46336
bin	-9.46414
▁grønn	-9.46445
gul	-9.46552
▁punkt	-9.46583
▁tids	-9.46584
▁ole	-9.46685
64	-9.46722
▁klasse	-9.46727
▁sivil	-9.46809
▁nærings	-9.46909
▁opprør	-9.4691
nu	-9.46922
▁ram	-9.46936
alder	-9.46958
ati	-9.47018
senteret	-9.47058
park	-9.47072
▁gjort	-9.47149
▁ph	-9.47215
▁ettersom	-9.47259
▁mill	-9.47261
gata	-9.47277
komme	-9.47306
▁kvinner	-9.47327
59	-9.47392
▁vold	-9.47434
▁åpen	-9.47456
▁1987	-9.47492
▁anlegget	-9.47503
▁smal	-9.47515
lem	-9.47549
lang	-9.4756
▁oppført	-9.47568
rød	-9.47572
▁mad	-9.47584
▁bruke	-9.47631
47	-9.47687
nett	-9.47712
linje	-9.47753
▁lagt	-9.47759
sek	-9.47813
▁mun	-9.47817
stru	-9.47874
▁sten	-9.47902
con	-9.47938
▁pot	-9.48025
63	-9.48061
▁500	-9.48067
▁bad	-9.4807
▁aust	-9.48112
š	-9.48208
▁michael	-9.48208
▁knut	-9.48284
▁stilling	-9.48313
▁behandling	-9.48332
▁type	-9.48407
▁wh	-9.48638
▁tha	-9.48648
▁kors	-9.48691
78	-9.48722
▁nev	-9.48726
▁delta	-9.48769
zo	-9.48857
hund	-9.48898
▁storbritannia	-9.48944
▁typisk	-9.48947
▁omtalt	-9.48969
▁søster	-9.49018
▁lærer	-9.4911
verket	-9.49199
fart	-9.49239
▁tank	-9.49278
ativ	-9.49314
88	-9.49321
rum	-9.49321
▁ban	-9.49546
▁inter	-9.49594
▁vid	-9.49603
▁anne	-9.49644
ō	-9.49684
▁københavn	-9.49684
▁folketelling	-9.49685
▁følge	-9.49697
▁2016	-9.49703
▁verdenskrig	-9.49752
▁menn	-9.49809
▁danner	-9.49824
▁problem	-9.49858
elva	-9.49918
▁middel	-9.49937
lser	-9.49972
▁het	-9.5004
▁ob	-9.50111
eier	-9.50112
hn	-9.50149
▁ledd	-9.50203
▁vind	-9.50286
▁grensen	-9.50356
lis	-9.50369
▁amerika	-9.50422
▁1993	-9.5043
▁1976	-9.50442
ien	-9.50627
ugh	-9.50645
styre	-9.50672
▁nabo	-9.50698
▁slo	-9.50738
grav	-9.50842
▁karriere	-9.51019
▁rot	-9.51024
▁virksomhet	-9.51087
▁sl	-9.51105
▁rep	-9.51167
▁nordvest	-9.51186
▁syv	-9.51193
field	-9.51246
▁black	-9.51255
haug	-9.51322
▁renner	-9.51338
arm	-9.51342
gangen	-9.5138
kla	-9.5155
▁hor	-9.51649
løst	-9.51673
▁maskin	-9.51708
middel	-9.51718
▁forsknings	-9.5181
▁kost	-9.51837
▁1985	-9.51957
win	-9.51961
trop	-9.51968
▁løp	-9.51968
▁unge	-9.51969
▁brann	-9.51971
36	-9.5203
▁mol	-9.52063
▁fjorden	-9.52135
stoff	-9.5229
▁interesse	-9.5231
▁afrika	-9.52352
46	-9.52435
▁gården	-9.52449
▁korte	-9.52465
▁knyttet	-9.52505
fugl	-9.52551
▁cm	-9.52592
ms	-9.52612
▁arne	-9.52649
▁strand	-9.52654
▁dårlig	-9.52704
cia	-9.52768
spon	-9.52793
jev	-9.52794
▁idretts	-9.52809
▁høyt	-9.5286
▁georg	-9.52922
87	-9.53006
delen	-9.53023
▁bel	-9.53033
tti	-9.53107
▁tradisjon	-9.53342
rådet	-9.53365
48	-9.53378
▁drama	-9.53425
▁arten	-9.53456
▁1973	-9.53484
▁charles	-9.53494
▁møtte	-9.535
▁tung	-9.53663
▁modell	-9.53703
ér	-9.53711
▁sel	-9.5375
of	-9.53771
▁skatt	-9.53901
kh	-9.53907
95	-9.53916
▁lau	-9.54022
red	-9.54065
33	-9.54283
ora	-9.54406
▁lund	-9.54419
▁lenger	-9.54426
▁komp	-9.54502
34	-9.5451
selskapet	-9.54534
merke	-9.54557
▁meste	-9.54579
▁win	-9.54642
▁karakter	-9.54796
▁privat	-9.54809
▁representant	-9.54901
▁fulgte	-9.54964
▁sund	-9.54976
bank	-9.55037
▁1979	-9.55041
▁områder	-9.55082
▁bla	-9.5517
▁slått	-9.55189
82	-9.55225
▁daglig	-9.55323
▁offentlig	-9.55362
press	-9.55511
tek	-9.55526
klubb	-9.55569
▁ze	-9.55654
▁reform	-9.55789
slutning	-9.55835
▁merke	-9.55882
▁jobb	-9.55894
samisk	-9.5591
89	-9.55929
▁dyre	-9.55933
rene	-9.56006
08	-9.56027
▁arabisk	-9.56063
gli	-9.56081
vit	-9.56083
▁distriktet	-9.56102
▁bestemt	-9.56164
▁europeisk	-9.56246
▁periode	-9.56278
mit	-9.56326
▁seil	-9.56362
▁sykdom	-9.56437
8	-9.56445
skrift	-9.56452
unn	-9.56486
▁miste	-9.56496
vekt	-9.56606
ο	-9.5661
▁national	-9.5661
▁hertug	-9.56613
▁engelske	-9.56638
▁dro	-9.56645
▁akademi	-9.56684
49	-9.56722
bilde	-9.5673
▁ana	-9.56732
19	-9.56845
værende	-9.56923
44	-9.56996
aks	-9.57009
▁nordlige	-9.57127
▁lø	-9.57173
dekke	-9.57199
rør	-9.57202
▁ek	-9.57268
▁ordenen	-9.57343
▁parlament	-9.5741
▁pin	-9.57427
▁brasil	-9.57428
▁betegnelsen	-9.57434
▁gjelder	-9.57439
▁skips	-9.57442
▁slutten	-9.57462
ney	-9.57509
givelse	-9.57693
vatnet	-9.57717
gården	-9.57753
▁jean	-9.57816
eide	-9.57904
gon	-9.57923
▁sul	-9.57938
pass	-9.57964
saker	-9.5798
▁temperatur	-9.5798
▁totalt	-9.57997
qu	-9.58017
в	-9.58075
▁erstattet	-9.58112
kommune	-9.58127
▁louis	-9.58217
▁180	-9.58224
fla	-9.58297
▁forfatteren	-9.5836
▁feil	-9.58398
▁huset	-9.584
▁havet	-9.58423
gne	-9.58451
▁drive	-9.58501
▁kil	-9.58549
lund	-9.58551
▁divisjon	-9.58669
▁produsent	-9.58673
▁pave	-9.58693
▁passer	-9.58714
15	-9.58722
ssa	-9.58842
satte	-9.58933
▁pass	-9.58962
kov	-9.58972
▁regjering	-9.58983
▁1972	-9.59029
▁hverandre	-9.5903
▁dronning	-9.59035
▁marie	-9.59051
▁stav	-9.59056
▁kloster	-9.59087
▁tverr	-9.59121
itu	-9.59136
▁cap	-9.59165
▁sju	-9.59181
43	-9.59209
▁sur	-9.59216
▁mørk	-9.59228
▁legge	-9.59308
▁munn	-9.59319
▁borg	-9.59339
▁finland	-9.59439
▁res	-9.59586
с	-9.59591
▁harald	-9.59626
vesen	-9.59647
▁bind	-9.59686
low	-9.59712
ås	-9.59764
▁enhet	-9.5979
67	-9.59816
føring	-9.5984
▁original	-9.59846
▁foss	-9.59849
▁1950	-9.59876
▁che	-9.59883
▁sag	-9.60003
▁mottok	-9.60024
66	-9.60045
sis	-9.60058
ben	-9.60088
rd	-9.60117
▁ære	-9.60132
▁kval	-9.6015
tha	-9.60153
▁veg	-9.60161
pan	-9.60164
▁hovedstad	-9.60233
trykk	-9.60237
▁etterh	-9.60242
▁handling	-9.60264
ör	-9.60393
ata	-9.60443
▁japan	-9.60458
▁prøve	-9.60552
våpen	-9.60608
▁hovedstaden	-9.60638
99	-9.60659
▁trøndelag	-9.60676
▁derimot	-9.60676
▁lufthavn	-9.60688
▁kat	-9.60699
stykke	-9.60703
▁salt	-9.60723
gaard	-9.60724
▁kjempe	-9.60733
▁bøker	-9.60776
▁gård	-9.60859
▁just	-9.60872
▁materiale	-9.60884
▁nan	-9.60889
ritt	-9.60963
▁bass	-9.60984
▁ført	-9.61126
7	-9.6113
▁she	-9.61198
gin	-9.61233
▁sti	-9.61353
oli	-9.61387
▁alb	-9.61394
▁musiker	-9.61442
▁gode	-9.61447
▁valgt	-9.61474
▁inspirert	-9.61509
▁fjerde	-9.61509
▁hovedrollen	-9.61511
▁pra	-9.61524
▁musikkalbum	-9.61528
▁heller	-9.6157
▁johann	-9.61634
▁star	-9.6169
▁mas	-9.61708
▁regel	-9.61822
▁resten	-9.61876
plassen	-9.61894
▁nummer	-9.61905
▁frank	-9.61932
fu	-9.62066
58	-9.62067
fjell	-9.62067
77	-9.62106
ept	-9.62126
▁sko	-9.62159
▁epi	-9.62175
farge	-9.62258
industri	-9.62317
▁utnevnt	-9.62349
▁nåværende	-9.62379
▁jern	-9.62476
▁slott	-9.62484
▁viste	-9.62511
к	-9.62537
▁vokste	-9.6254
krigen	-9.62675
▁sende	-9.62702
▁time	-9.62716
▁fyr	-9.62726
▁mid	-9.6277
▁nasjonale	-9.62775
shire	-9.6287
57	-9.6289
fører	-9.62956
▁redaktør	-9.62956
▁båt	-9.62964
din	-9.6303
▁fal	-9.63034
▁hvite	-9.63041
▁vas	-9.6308
▁militære	-9.63169
▁myr	-9.63174
▁1945	-9.63209
▁1968	-9.63216
ez	-9.63229
▁finans	-9.63243
gift	-9.63307
spor	-9.63316
84	-9.63343
▁fjern	-9.63344
▁slike	-9.63344
ance	-9.63382
▁inkluderer	-9.63436
▁gjest	-9.63451
iner	-9.63469
▁aks	-9.63503
ische	-9.63597
▁finne	-9.6363
▁marine	-9.63718
▁kam	-9.63724
▁leg	-9.63747
▁fø	-9.63747
▁påvirke	-9.63791
▁bry	-9.63808
▁holm	-9.63814
▁reg	-9.63901
41	-9.63973
▁bolig	-9.63997
▁pat	-9.64051
α	-9.64051
▁sannsynlig	-9.64051
▁utdannet	-9.64051
▁kategori	-9.64052
▁sau	-9.64055
▁poeng	-9.64076
▁seier	-9.64109
ato	-9.64123
▁die	-9.64141
bol	-9.64217
71	-9.64219
gate	-9.6429
▁trolig	-9.64362
skapet	-9.64388
▁forskning	-9.64429
løs	-9.64457
▁fro	-9.64533
▁scene	-9.64555
cell	-9.64568
▁terr	-9.64608
▁retning	-9.64703
shi	-9.64774
▁posisjon	-9.64823
ette	-9.64856
person	-9.64871
ført	-9.64886
▁stockholm	-9.64914
▁jacob	-9.64915
▁1982	-9.6493
▁altså	-9.64945
ografi	-9.64961
▁mester	-9.65116
▁jarl	-9.65124
▁utført	-9.65145
▁enten	-9.65212
▁sort	-9.65225
▁beskrive	-9.65247
▁koloni	-9.65286
ffer	-9.65345
▁forsvars	-9.65346
▁senter	-9.65391
▁ep	-9.65406
kur	-9.65408
▁våren	-9.6543
▁gå	-9.65458
gående	-9.65475
▁bevegelse	-9.65537
▁love	-9.65551
л	-9.65638
▁bygde	-9.65676
▁bol	-9.65733
т	-9.65776
▁profesjonell	-9.65783
forvaltning	-9.65789
korps	-9.658
▁dam	-9.65828
▁naturlig	-9.65851
▁slaget	-9.65874
styrke	-9.65936
▁70	-9.65948
▁representerer	-9.66019
▁komponist	-9.66024
▁cent	-9.66039
gjorde	-9.66076
▁ji	-9.66129
heng	-9.66235
åpning	-9.66241
▁larven	-9.66252
96	-9.66254
▁kh	-9.66259
gal	-9.66286
sku	-9.66348
ova	-9.66387
▁opprinnelige	-9.66414
▁spre	-9.6654
▁sentrale	-9.66553
▁uni	-9.66557
manns	-9.66591
▁byprefekturet	-9.6666
▁opprinnelse	-9.6666
▁wilhelm	-9.6666
▁richard	-9.66661
▁solo	-9.66681
graf	-9.66684
regionen	-9.66689
festival	-9.6672
▁innehold	-9.6679
▁retts	-9.66803
arbeider	-9.66845
jan	-9.66904
▁tilby	-9.6696
42	-9.66986
los	-9.66991
▁tross	-9.67045
▁metal	-9.6709
▁larvene	-9.67138
parti	-9.67256
partiet	-9.67294
▁romerske	-9.67347
arter	-9.67462
mund	-9.67496
ekspedisjon	-9.67545
▁alternativ	-9.67545
▁kardinal	-9.67545
kapasitet	-9.67546
hastighet	-9.6755
▁nærmest	-9.6755
▁oppdaget	-9.6755
▁røde	-9.67557
▁kristen	-9.67618
ij	-9.6762
▁nederlandsk	-9.67627
iger	-9.67646
▁city	-9.67649
▁organisasjonen	-9.67667
isten	-9.67758
▁kart	-9.67778
linjen	-9.67787
▁sesong	-9.67817
standen	-9.67922
▁anders	-9.67926
▁pop	-9.67994
oid	-9.68049
kop	-9.68102
62	-9.68103
▁bygg	-9.68133
▁raskt	-9.68148
evne	-9.68238
vig	-9.68261
elige	-9.68375
variant	-9.6843
▁international	-9.68438
▁1981	-9.68453
▁1978	-9.68456
▁1975	-9.6846
▁skape	-9.68461
▁holder	-9.6852
▁fyrst	-9.68553
▁undersøkelse	-9.6859
forbund	-9.68604
▁administrasjons	-9.68621
▁test	-9.68648
▁lage	-9.68665
51	-9.68726
▁egypt	-9.68925
gt	-9.68964
ppen	-9.69001
52	-9.69136
▁roma	-9.69251
yang	-9.69283
▁grev	-9.69326
▁fremme	-9.6933
hol	-9.69338
м	-9.69339
▁1983	-9.69339
▁world	-9.69339
▁1967	-9.69355
▁stavanger	-9.69356
▁1900	-9.69377
▁bob	-9.69379
▁hud	-9.69429
▁prisen	-9.69452
▁un	-9.69476
▁ting	-9.695
▁hundre	-9.69621
▁total	-9.69698
deles	-9.69729
▁sammenheng	-9.69793
▁operasjon	-9.69804
▁utdanning	-9.69848
69	-9.69934
▁rose	-9.70046
▁rute	-9.70076
wood	-9.70093
81	-9.70189
på	-9.70236
▁offisiell	-9.70248
▁ref	-9.70256
▁kreve	-9.7026
gler	-9.70308
▁instrument	-9.70387
▁teksten	-9.70391
▁single	-9.70416
▁stod	-9.70421
▁us	-9.70498
▁fugle	-9.70541
mand	-9.70576
dar	-9.70577
▁hoff	-9.70586
▁jakt	-9.7063
▁selve	-9.70716
ios	-9.70719
▁forsøkt	-9.70814
▁north	-9.70891
▁spe	-9.70928
abel	-9.70935
▁gitar	-9.7096
▁bon	-9.71019
▁kristian	-9.71068
▁glo	-9.71085
▁suksess	-9.71165
▁arrangert	-9.71166
▁jazz	-9.71166
▁school	-9.71166
▁kjerne	-9.71169
▁sørvest	-9.71169
▁bronse	-9.71187
▁fremdeles	-9.71205
▁effekt	-9.7122
▁livet	-9.71224
cus	-9.71248
▁dar	-9.71251
kultur	-9.71339
kraftverk	-9.71351
▁kro	-9.71468
hav	-9.71635
gard	-9.71637
ón	-9.71651
istene	-9.7167
vogn	-9.71709
fang	-9.71779
▁program	-9.71817
▁poly	-9.71874
▁stoff	-9.71888
mas	-9.71893
▁tema	-9.71936
▁besøk	-9.7204
▁løper	-9.7205
▁australia	-9.72091
▁religion	-9.72092
▁lignende	-9.72095
▁fokus	-9.72095
▁melodi	-9.72098
▁sykehus	-9.72107
▁regjerings	-9.72121
▁direktør	-9.72157
avdeling	-9.72292
▁hell	-9.72303
▁will	-9.72327
▁mw	-9.72334
▁vær	-9.72355
ifisert	-9.72391
79	-9.72412
▁old	-9.72486
▁elv	-9.72541
▁styrker	-9.72612
▁ung	-9.72618
▁ii	-9.72685
kort	-9.7276
voll	-9.72852
56	-9.72944
▁omfatte	-9.73007
д	-9.73026
▁1971	-9.73042
▁lengre	-9.73047
▁cu	-9.7305
▁lansert	-9.73058
ão	-9.73072
virksomhet	-9.73144
▁møter	-9.73167
drift	-9.73277
▁tegnet	-9.7328
▁rygg	-9.73296
hal	-9.7333
hm	-9.73355
vind	-9.73371
ib	-9.73489
09	-9.73639
▁verne	-9.73705
prisen	-9.73767
kket	-9.7383
ili	-9.73842
▁rang	-9.73867
70	-9.73884
tog	-9.73885
▁tonn	-9.73965
▁elektrisk	-9.73969
▁religiøs	-9.73969
▁øvre	-9.7397
▁1977	-9.73986
▁1920	-9.73995
▁lenge	-9.74007
▁cal	-9.7402
▁est	-9.74034
25	-9.74051
program	-9.74147
▁forsvar	-9.74175
foss	-9.74212
▁gutt	-9.74243
ild	-9.74245
▁mengde	-9.74272
▁spill	-9.74358
▁lot	-9.74373
▁hit	-9.74456
gjø	-9.74462
▁gard	-9.74469
ras	-9.74504
slav	-9.74504
▁pla	-9.74522
▁størrelse	-9.74541
▁rein	-9.7463
▁befolkning	-9.74699
▁innført	-9.74724
▁femte	-9.74759
▁danse	-9.74809
▁grenser	-9.74809
▁32	-9.74895
▁omtale	-9.74951
elli	-9.74967
bånd	-9.75117
hjem	-9.75117
▁heste	-9.75123
▁albert	-9.75145
org	-9.75166
▁pal	-9.75255
▁øyene	-9.75273
▁elve	-9.75338
▁opphav	-9.7538
motor	-9.75386
▁anna	-9.75415
▁begrepet	-9.75422
▁kamper	-9.75485
▁und	-9.75497
bare	-9.75504
▁normalt	-9.75546
ming	-9.75623
▁journalist	-9.75654
▁dis	-9.75677
▁gun	-9.75699
ledning	-9.75745
kilden	-9.75875
▁øvrig	-9.75883
▁klassisk	-9.75885
iblant	-9.75898
▁2017	-9.75903
▁bygningen	-9.75925
▁haug	-9.7594
▁omfattende	-9.7597
appe	-9.75978
▁arn	-9.76003
▁90	-9.76022
▁stadig	-9.76026
lapp	-9.76028
gy	-9.76029
fjellet	-9.76033
▁gjenopp	-9.76033
ов	-9.76038
▁ramme	-9.7604
▁skifte	-9.76073
▁song	-9.76122
▁gram	-9.76165
well	-9.76172
kysten	-9.76247
▁kanon	-9.76278
▁høyere	-9.76304
pul	-9.76364
alis	-9.76369
76	-9.76473
▁israel	-9.76506
sø	-9.76518
18	-9.7652
▁zo	-9.76536
▁prosjekt	-9.76573
jö	-9.76659
▁odd	-9.7668
▁samfunns	-9.76695
▁cou	-9.76787
▁katolske	-9.76788
▁ask	-9.76789
▁stammer	-9.76824
▁univers	-9.76831
▁benyttes	-9.76854
▁tunnel	-9.7686
▁element	-9.76861
▁individ	-9.76864
▁canada	-9.76866
▁1964	-9.76874
høgskole	-9.7692
firma	-9.76926
ori	-9.76945
▁oppgave	-9.77014
▁vent	-9.7703
▁bryst	-9.77119
▁leir	-9.77156
▁skipet	-9.77239
▁typer	-9.77407
▁tø	-9.77408
▁hodet	-9.77424
ity	-9.77425
▁faren	-9.77495
▁por	-9.77517
▁camp	-9.7752
▁atom	-9.77641
▁vokal	-9.77714
merket	-9.77756
▁høye	-9.77787
type	-9.77817
▁sli	-9.77824
▁selvstendig	-9.77835
▁århundre	-9.77835
▁vanskelig	-9.77841
▁publisert	-9.77851
▁økonomi	-9.77854
▁snakk	-9.77861
▁ungdoms	-9.77863
brun	-9.77867
▁glass	-9.7794
▁front	-9.77993
▁jag	-9.78049
▁nådd	-9.78061
▁300	-9.78077
▁nam	-9.78088
ami	-9.78112
▁kas	-9.78148
sol	-9.78188
▁1800	-9.78189
▁studio	-9.78207
▁driver	-9.78219
▁vestlig	-9.78312
▁gyl	-9.78363
▁sørlig	-9.78369
plasser	-9.78372
▁brev	-9.78412
virke	-9.78472
vor	-9.7848
▁cre	-9.78507
▁dynastiet	-9.7851
ali	-9.7852
▁teknologi	-9.78579
▁metode	-9.78618
▁grunnla	-9.78663
▁bane	-9.78669
▁kva	-9.78677
ikken	-9.78708
▁ger	-9.78768
▁nar	-9.7878
▁may	-9.78794
visning	-9.78799
▁gor	-9.78801
ς	-9.78825
▁joseph	-9.78825
▁teknisk	-9.78825
▁foreldre	-9.78828
▁alltid	-9.78897
▁straffe	-9.78904
dersom	-9.78915
▁pet	-9.78952
▁kall	-9.78977
▁eiendom	-9.78986
▁sikre	-9.79009
▁valgte	-9.79019
32	-9.79049
▁forsker	-9.79101
▁fjellet	-9.79121
plate	-9.79129
▁avis	-9.79176
zy	-9.79214
hov	-9.79239
▁ønske	-9.79248
klar	-9.79261
▁begynner	-9.79277
gna	-9.79281
▁cup	-9.79302
war	-9.79311
▁bio	-9.79334
▁samlet	-9.79356
ordenen	-9.79363
▁king	-9.7939
▁varierer	-9.79413
ura	-9.79445
▁grupper	-9.79465
▁hopp	-9.79487
kro	-9.79538
▁plassert	-9.79572
74	-9.79627
▁gjennomført	-9.7966
▁masse	-9.79672
▁uavhengig	-9.79677
▁livs	-9.79713
dagen	-9.79736
▁endt	-9.79746
▁hær	-9.79814
belteasteroide	-9.79825
kret	-9.79834
▁char	-9.7984
▁1948	-9.79844
▁ordfører	-9.79847
▁stille	-9.79863
▁bakgrunn	-9.79871
avis	-9.79927
▁område	-9.79953
▁alder	-9.80019
▁vitenskap	-9.80055
▁sjef	-9.80159
▁vik	-9.80183
▁presse	-9.8019
▁iii	-9.80265
▁thi	-9.80305
▁preste	-9.80337
▁tj	-9.80373
▁kjøl	-9.80411
▁vet	-9.80513
▁euro	-9.8055
▁programmet	-9.80621
73	-9.80623
12	-9.80704
oph	-9.80787
▁middelsstor	-9.80835
▁tydelig	-9.80839
punktet	-9.80855
▁havne	-9.80927
▁støttet	-9.8094
▁kvinnelig	-9.8102
▁tettsted	-9.81089
▁kull	-9.81153
skudd	-9.8117
▁betegne	-9.81176
▁rå	-9.81196
serien	-9.81237
løpet	-9.81254
▁malt	-9.81262
bevegelsen	-9.81296
▁havn	-9.81312
▁avisen	-9.81327
▁forlot	-9.81374
▁nes	-9.81409
▁kontor	-9.8144
ias	-9.81489
ada	-9.81521
feld	-9.81572
98	-9.81595
stid	-9.81598
holmen	-9.8164
handler	-9.81729
ux	-9.81733
herre	-9.81816
ball	-9.81823
stikk	-9.81847
▁passasjer	-9.81855
▁dialekt	-9.81855
▁brensel	-9.81857
▁himmel	-9.8187
▁1974	-9.81871
ith	-9.81887
fyll	-9.81914
rute	-9.8193
▁nr	-9.81948
▁fordelt	-9.81965
stripe	-9.81973
▁forlag	-9.82057
54	-9.82146
▁up	-9.82166
▁rør	-9.82189
skjell	-9.82288
ob	-9.82335
▁festning	-9.82348
▁velge	-9.82356
stall	-9.82468
vinger	-9.82484
▁fisk	-9.82496
▁elev	-9.82505
▁formel	-9.82536
▁markeds	-9.82604
▁35	-9.8272
▁produksjons	-9.82856
▁administrativ	-9.82886
▁regissert	-9.82887
▁fredrik	-9.82891
▁norrøn	-9.82891
▁kontakt	-9.82893
▁fylket	-9.82917
▁asia	-9.82923
▁akt	-9.82982
▁stri	-9.83022
▁max	-9.8303
▁union	-9.83109
▁vinner	-9.83174
▁likhet	-9.83209
gjøre	-9.83242
▁artene	-9.83246
formen	-9.83262
medlem	-9.83271
▁dagen	-9.8329
▁fan	-9.83328
jar	-9.83387
▁hæren	-9.83472
off	-9.83512
avtale	-9.83583
▁gje	-9.83631
▁cy	-9.83644
▁rollen	-9.8372
town	-9.83769
▁krets	-9.83825
dommen	-9.83874
▁innflytelse	-9.83928
▁fungere	-9.8394
▁1956	-9.83945
▁klima	-9.83961
▁blue	-9.83982
vold	-9.83992
▁grunnlag	-9.84021
▁jesu	-9.84139
▁tenn	-9.84199
▁lære	-9.84235
45	-9.84326
▁jorden	-9.84402
▁landsbyen	-9.84421
▁fot	-9.84438
▁hed	-9.84455
21	-9.84483
gor	-9.84506
▁lars	-9.84529
forhold	-9.84569
▁klarte	-9.84577
▁rask	-9.8459
▁indisk	-9.84689
▁dato	-9.84727
▁bølge	-9.8473
▁aktivitet	-9.84778
fjellene	-9.84823
▁orkester	-9.8485
▁py	-9.84873
▁pala	-9.84914
24	-9.84953
brand	-9.84974
ł	-9.8498
▁xiàn	-9.84981
▁beijing	-9.84981
▁primær	-9.84981
▁operatør	-9.84982
▁snart	-9.84987
▁1940	-9.85006
vunnet	-9.85009
▁jordbruk	-9.85013
▁fotballspiller	-9.85019
▁kai	-9.85022
▁high	-9.85033
▁magasin	-9.85057
▁video	-9.85088
▁snø	-9.8509
▁vanlige	-9.85129
▁freds	-9.85165
ies	-9.85233
▁log	-9.8529
▁sider	-9.85409
▁søke	-9.85417
ping	-9.85421
holm	-9.85545
ima	-9.85612
▁strid	-9.85656
▁sovjetisk	-9.8567
▁sim	-9.85684
byrå	-9.85724
▁horn	-9.85786
▁troll	-9.85831
▁eva	-9.85842
▁cho	-9.85875
▁slå	-9.85969
øyene	-9.86003
▁spillet	-9.86015
▁offisielt	-9.86044
▁spesiell	-9.86045
▁positiv	-9.86045
▁spania	-9.86048
▁løv	-9.8612
▁sverd	-9.86126
▁blei	-9.86156
løsning	-9.86173
▁yu	-9.86301
▁amt	-9.86351
grupper	-9.86374
▁base	-9.86407
▁objekt	-9.86434
▁tang	-9.86476
vekst	-9.86482
mur	-9.86485
▁områdene	-9.86532
wi	-9.86537
rev	-9.86544
▁kroner	-9.86589
skytter	-9.86627
▁åpne	-9.86749
▁dø	-9.86818
11	-9.86903
91	-9.86914
▁ce	-9.87001
stille	-9.87042
▁rad	-9.87076
▁award	-9.87121
▁skjedde	-9.87122
▁magnus	-9.87125
▁stoppe	-9.87131
▁1952	-9.87138
▁1957	-9.87139
▁1944	-9.87139
▁1939	-9.87142
hard	-9.87157
▁folket	-9.87281
▁hage	-9.87395
▁stasjonen	-9.87397
▁utvidet	-9.87506
▁flyplass	-9.87598
ish	-9.87677
itter	-9.87703
▁sterk	-9.87768
▁400	-9.87815
post	-9.87846
▁spiss	-9.87907
ary	-9.87913
later	-9.88041
stav	-9.88042
ite	-9.88051
▁kreft	-9.88114
▁festival	-9.88133
myndighet	-9.88169
▁ok	-9.88182
г	-9.88206
▁college	-9.8821
▁begynnelsen	-9.88213
▁nevnes	-9.88309
bud	-9.88533
soldat	-9.88536
trafikk	-9.88591
▁kha	-9.88647
figur	-9.88654
▁endret	-9.88657
▁tusen	-9.88666
produsent	-9.88685
slaget	-9.88718
▁spise	-9.88758
anda	-9.88887
fatte	-9.88907
▁eli	-9.88918
▁minutter	-9.88975
▁buk	-9.88991
jon	-9.88997
▁utføre	-9.89023
▁frukt	-9.89063
▁innsjøen	-9.89094
▁dog	-9.89122
▁tog	-9.89191
▁storm	-9.89198
havn	-9.89205
▁mulighet	-9.89244
levende	-9.89274
▁voks	-9.89297
▁sistnevnte	-9.89305
▁sovjetunionen	-9.89305
▁episode	-9.89307
▁østerrike	-9.89308
▁1963	-9.89328
▁areal	-9.89341
▁harry	-9.89347
▁och	-9.89399
▁prins	-9.895
▁jule	-9.89524
▁organisert	-9.89585
▁henry	-9.89637
veg	-9.8965
▁pas	-9.89742
▁tittel	-9.89803
maskin	-9.89808
slekt	-9.89862
hode	-9.89915
▁sønnen	-9.89985
▁nivå	-9.90023
kveld	-9.90034
▁od	-9.90059
lum	-9.90128
▁lyn	-9.90152
sso	-9.90155
35	-9.9019
▁hon	-9.90207
29	-9.90352
▁publi	-9.90411
▁nødvendig	-9.90416
▁royal	-9.9042
▁sekund	-9.90433
▁islam	-9.90506
▁eksistere	-9.90508
▁populære	-9.9051
▁nordland	-9.9054
ulf	-9.90557
historie	-9.90587
bein	-9.90589
16	-9.90615
gjort	-9.908
kirke	-9.90892
prosjekt	-9.90921
▁arve	-9.90923
album	-9.90924
ona	-9.90948
møte	-9.90956
▁gla	-9.90958
▁nav	-9.90983
▁hode	-9.91051
dro	-9.91118
dommer	-9.91129
parten	-9.91148
▁music	-9.91218
▁dor	-9.91231
bær	-9.91264
▁institutt	-9.91314
▁tettstedet	-9.91316
rich	-9.91358
dikt	-9.91387
▁syr	-9.91394
▁trener	-9.9142
▁innbyggertall	-9.9154
▁eksempler	-9.9154
у	-9.9154
▁kunnskap	-9.91541
▁bispedømme	-9.91546
▁smith	-9.91555
▁bevart	-9.91576
▁systemet	-9.91593
▁yngre	-9.91656
▁formann	-9.9167
ernes	-9.91772
alisme	-9.91788
▁ligne	-9.91896
▁ali	-9.91899
▁sterke	-9.91974
ín	-9.92002
inntekt	-9.92048
07	-9.92072
▁irland	-9.92176
▁offentlige	-9.92193
▁gall	-9.92211
23	-9.9222
forestilling	-9.92249
▁beskrevet	-9.92387
▁ö	-9.92475
▁buss	-9.92594
bia	-9.92641
▁erkebiskop	-9.92676
▁tilknytte	-9.92676
ulert	-9.92686
▁1954	-9.92693
▁bit	-9.92705
▁domin	-9.92718
strand	-9.928
▁ansatte	-9.92821
wan	-9.92828
▁irsk	-9.92868
▁konkurranse	-9.92885
▁meg	-9.92906
▁athen	-9.92922
▁human	-9.92929
pin	-9.92965
▁jevn	-9.92987
▁planet	-9.93028
▁voksne	-9.93065
▁bonde	-9.93098
▁sier	-9.93137
mba	-9.93165
behandle	-9.9318
ī	-9.93268
▁zi	-9.93384
▁cra	-9.93391
▁hill	-9.93404
▁tromsø	-9.93431
▁mary	-9.93472
▁ulik	-9.93497
▁nordisk	-9.93694
▁kraftige	-9.93774
▁streng	-9.93779
▁sikkerhets	-9.93799
▁svak	-9.93799
▁ishockey	-9.93826
▁konstant	-9.93833
▁insekt	-9.93837
ifisering	-9.93841
▁overflate	-9.93845
▁1933	-9.93847
▁soldater	-9.93857
▁forretnings	-9.9388
▁oftest	-9.93903
én	-9.93916
pur	-9.93931
▁vit	-9.93967
cho	-9.93993
▁45	-9.94035
▁alf	-9.94048
felle	-9.94071
finn	-9.94096
car	-9.94169
▁din	-9.94171
▁politikk	-9.94187
▁bidrag	-9.94263
illa	-9.94328
▁klubb	-9.94367
utvikling	-9.94381
miljø	-9.94415
▁listen	-9.94455
▁preget	-9.94468
klubben	-9.94486
rolle	-9.94502
▁ark	-9.94545
trakk	-9.94566
▁beskytte	-9.94691
▁utover	-9.94697
tallet	-9.94744
ark	-9.94864
▁historien	-9.94886
▁debutert	-9.94955
▁service	-9.94989
▁ytterligere	-9.94989
▁united	-9.9499
▁kristne	-9.94991
▁lengst	-9.94999
▁1928	-9.95003
▁tolv	-9.95013
▁sei	-9.95015
▁videregående	-9.95017
▁cur	-9.95126
▁ytre	-9.9513
pha	-9.95134
▁avhengig	-9.95135
plikt	-9.95158
dannelse	-9.95161
▁tå	-9.95338
▁sankt	-9.95376
ction	-9.95414
▁tapte	-9.95424
▁kg	-9.95437
▁inge	-9.95499
▁150	-9.95526
forfatter	-9.95614
produkt	-9.95617
født	-9.95625
▁forholdsvis	-9.9563
▁cel	-9.9566
▁ønsket	-9.95672
ledd	-9.95702
unt	-9.95767
▁hente	-9.9579
can	-9.9585
▁kno	-9.95887
▁phil	-9.95899
▁maur	-9.959
▁sette	-9.95959
hed	-9.95973
▁stamme	-9.95999
ico	-9.9607
meter	-9.96103
▁regional	-9.96123
́	-9.96165
▁records	-9.96165
▁utgangspunkt	-9.96165
▁premier	-9.96169
▁jobbet	-9.96173
▁kjønn	-9.96181
▁saken	-9.96183
▁håkon	-9.96183
▁sar	-9.96207
▁tørr	-9.96274
▁ekstra	-9.96334
bakk	-9.96359
grep	-9.96371
fil	-9.96421
▁steve	-9.9646
▁lavere	-9.96462
bryt	-9.96524
▁spørsmål	-9.96618
arbeidet	-9.9665
▁rob	-9.96675
▁graf	-9.96687
▁neu	-9.96822
▁jim	-9.96864
▁spansk	-9.96878
com	-9.96977
▁indi	-9.9698
▁bombe	-9.97038
▁landslag	-9.97084
▁turist	-9.97163
▁helge	-9.97238
▁stan	-9.97314
▁california	-9.97356
▁autonom	-9.97357
▁hurtig	-9.97358
▁kritikk	-9.97358
▁bosetning	-9.97359
▁tegneserie	-9.97361
▁olsen	-9.97361
▁frederik	-9.97362
▁ekteskap	-9.97368
▁1955	-9.9737
▁bodde	-9.97373
▁1912	-9.97373
▁polen	-9.97374
▁1965	-9.97382
▁1930	-9.97392
▁nevnt	-9.97399
▁hustru	-9.97403
▁ala	-9.97413
▁skilt	-9.97424
bukta	-9.97507
krit	-9.97512
rick	-9.97665
▁andreas	-9.979
▁master	-9.97956
▁hannen	-9.9799
▁esp	-9.9804
nummer	-9.98116
▁skriver	-9.98165
14	-9.98166
▁gil	-9.98188
mf	-9.98239
trinn	-9.98291
▁markert	-9.98365
▁hunnen	-9.98397
▁ama	-9.98436
▁fotograf	-9.98443
ctor	-9.98458
▁filosofi	-9.98539
sekretær	-9.98547
▁prof	-9.98548
▁installert	-9.98561
▁tilhørte	-9.98561
▁arrangere	-9.98561
▁stortinget	-9.98566
▁oscar	-9.98577
▁1969	-9.9858
aceae	-9.98582
▁stål	-9.98597
▁saint	-9.98609
bit	-9.98623
▁tilhøre	-9.98647
ella	-9.98659
▁vannet	-9.98666
▁spek	-9.98705
▁bunn	-9.98726
legger	-9.98735
▁former	-9.98784
krig	-9.98824
▁skille	-9.98832
▁vakt	-9.98903
▁petter	-9.98929
▁kata	-9.98973
▁ost	-9.99034
▁grov	-9.99213
lam	-9.9922
teknikk	-9.99262
konkurranse	-9.9928
▁liberal	-9.99303
28	-9.99319
liste	-9.99357
▁slett	-9.99409
formede	-9.99434
▁anton	-9.99481
▁zu	-9.99505
▁bånd	-9.99532
fyr	-9.99588
▁auto	-9.9966
▁tale	-9.99684
jä	-9.99694
▁fordel	-9.99761
▁kjøre	-9.99776
▁introdusert	-9.9978
▁vingespenn	-9.9978
▁publikum	-9.9978
▁pasient	-9.99781
▁innspilling	-9.99785
▁finalen	-9.99789
historiker	-9.99792
▁multi	-9.99797
▁1942	-9.99801
▁1958	-9.99801
▁1941	-9.99802
▁1946	-9.99804
▁måneder	-9.99806
▁nasjonalpark	-9.99811
▁victor	-9.99828
▁kode	-9.99909
▁bay	-9.99959
38	-10.0014
kilde	-10.0049
▁timer	-10.0051
▁landskap	-10.0052
▁maleri	-10.0056
▁blokk	-10.0063
▁strekk	-10.0073
▁forbundet	-10.0076
mond	-10.0081
▁produserer	-10.0082
▁nederland	-10.0093
▁byer	-10.0094
ū	-10.0101
▁friedrich	-10.0101
▁fengsel	-10.0102
▁situasjon	-10.0102
ici	-10.0104
▁endre	-10.011
▁mikro	-10.0111
▁papir	-10.0111
vitenskap	-10.0116
vitsj	-10.012
▁produsere	-10.0121
leir	-10.0129
▁tårn	-10.013
▁oppdrag	-10.0131
bakken	-10.0131
▁handler	-10.0132
stått	-10.0135
▁oversatt	-10.0139
▁dahl	-10.0139
▁anta	-10.0141
▁utga	-10.0145
▁gjer	-10.0148
rop	-10.0149
▁advokat	-10.0151
▁overført	-10.0152
▁politiet	-10.0167
▁1000	-10.0169
▁forvingen	-10.0175
kjøp	-10.0182
▁niels	-10.0189
basert	-10.0198
▁stand	-10.0206
mesterskapet	-10.0207
▁vitenskapelig	-10.0211
turbin	-10.0216
ì	-10.0226
▁fullstendig	-10.0226
▁generelt	-10.0227
▁oversikt	-10.0227
▁stadion	-10.0227
▁1966	-10.0229
▁1947	-10.0229
▁bakvingen	-10.0229
dorf	-10.0239
▁fn	-10.024
▁rulle	-10.0243
stasjonen	-10.0243
▁torg	-10.0249
▁undervisning	-10.0249
▁sitter	-10.0252
▁off	-10.0253
▁kongens	-10.0255
▁personlig	-10.0263
rekke	-10.0271
▁kommunene	-10.0281
▁fortsetter	-10.0284
▁bygger	-10.0286
▁kjell	-10.0291
▁finn	-10.0297
▁gress	-10.03
▁landsby	-10.0302
▁long	-10.0303
veis	-10.031
▁runde	-10.0314
verdig	-10.0316
▁overfor	-10.0316
31	-10.0332
▁berømte	-10.0335
▁utvide	-10.0335
▁landbruks	-10.0338
▁sports	-10.0338
▁romanen	-10.034
analyse	-10.0342
än	-10.0343
▁vii	-10.0352
▁tilgjengelig	-10.0353
frekvens	-10.0353
▁sjelden	-10.0353
▁alexander	-10.0353
▁betrakte	-10.0353
▁1938	-10.0355
▁oblast	-10.0355
▁1951	-10.0355
giver	-10.0359
kommisjon	-10.0361
▁vig	-10.0363
eksamen	-10.0364
▁rand	-10.0365
▁fløy	-10.038
▁salg	-10.0389
▁private	-10.0389
▁underlagt	-10.0391
▁maler	-10.0402
▁stift	-10.0405
▁falt	-10.0407
▁dør	-10.0409
▁kim	-10.0411
▁ris	-10.0415
▁villa	-10.0424
▁trond	-10.0437
▁studier	-10.0438
▁run	-10.0442
▁vä	-10.0445
øvelse	-10.045
▁offiser	-10.0457
▁starter	-10.0457
▁ey	-10.0462
gå	-10.0465
▁south	-10.0481
▁således	-10.0481
▁internasjonal	-10.0482
▁1924	-10.0483
▁1943	-10.0484
▁1959	-10.0484
▁bydel	-10.0486
▁valget	-10.0489
▁mytologi	-10.0491
▁arkitektur	-10.0498
▁sof	-10.0511
▁frø	-10.0525
jern	-10.0528
▁bull	-10.0528
▁innsjø	-10.0542
55	-10.0547
▁sete	-10.0559
vang	-10.0568
cle	-10.0569
kanten	-10.0569
rekord	-10.0572
▁kontrakt	-10.0572
▁selge	-10.0575
kontor	-10.0577
▁ud	-10.0583
▁ken	-10.0586
▁bord	-10.0587
økonom	-10.0588
▁gy	-10.0591
eppe	-10.0592
▁verd	-10.0592
ön	-10.0597
▁bygning	-10.0604
▁motta	-10.0607
familie	-10.0608
▁kysten	-10.0608
▁skottland	-10.0611
▁erklært	-10.0611
▁jødisk	-10.0611
▁forteller	-10.0612
▁1936	-10.0614
▁1937	-10.0614
▁skarp	-10.0614
▁laste	-10.0619
▁wei	-10.0619
▁korea	-10.0638
▁ube	-10.0643
▁santa	-10.0653
sfjorden	-10.0668
▁celle	-10.0676
▁gruve	-10.0677
▁samarbeidet	-10.0681
kamera	-10.0683
valget	-10.0684
▁elever	-10.0694
▁web	-10.0695
▁hem	-10.0697
▁spilles	-10.0701
bygningen	-10.0707
gav	-10.0708
▁sun	-10.0708
▁prop	-10.0716
▁skiller	-10.0726
▁bibliotek	-10.0741
▁forekommer	-10.0743
▁alvorlig	-10.0743
▁sum	-10.0744
▁nærmere	-10.0744
▁flertall	-10.0744
▁riktig	-10.0744
▁uttale	-10.0744
▁vers	-10.0745
▁1949	-10.0745
▁skotsk	-10.0746
▁utvalg	-10.0746
▁bidro	-10.0747
▁modellen	-10.0752
henger	-10.0755
▁flu	-10.0755
ulykke	-10.0759
▁agder	-10.0766
▁keiseren	-10.0773
▁nasjon	-10.0775
▁with	-10.0776
møll	-10.0779
▁roll	-10.0783
serie	-10.0789
▁klart	-10.079
vannet	-10.0792
▁ran	-10.0796
▁middelalder	-10.0798
▁oliv	-10.08
▁ingeniør	-10.0819
øst	-10.0819
▁lam	-10.0829
▁dekker	-10.083
dam	-10.0837
▁kok	-10.0839
▁dommer	-10.0844
▁skudd	-10.0845
▁brenn	-10.0847
betegnelse	-10.085
▁00	-10.0851
bedrift	-10.0852
▁motiv	-10.086
▁klassen	-10.0861
▁sunn	-10.0861
syre	-10.0864
▁vill	-10.0866
▁tradisjonel	-10.0868
▁rod	-10.0871
▁kombinasjon	-10.0876
▁krevde	-10.0876
▁digital	-10.0876
▁club	-10.0876
▁debutalbum	-10.0876
▁studioalbum	-10.0877
▁medlemmene	-10.0877
▁1929	-10.0878
▁1962	-10.0878
▁nedre	-10.0879
▁reiste	-10.0879
▁group	-10.0881
▁daniel	-10.0882
laten	-10.0885
▁blomster	-10.0885
▁hovedsak	-10.0888
▁sven	-10.0892
▁för	-10.0894
▁aas	-10.0898
▁myk	-10.091
17	-10.0911
▁yo	-10.0916
▁sideelv	-10.0916
▁utviklingen	-10.0926
▁kåre	-10.0932
▁matt	-10.0937
▁republikken	-10.0945
▁artikkel	-10.0951
▁dekket	-10.0951
▁latinsk	-10.0961
▁verket	-10.0967
museum	-10.0973
time	-10.0974
▁struktur	-10.0983
▁lyst	-10.0984
▁dj	-10.0988
▁prosjektet	-10.0989
▁herman	-10.0993
▁moren	-10.0995
27	-10.1011
▁eventyr	-10.1011
ç	-10.1011
▁dokumenter	-10.1011
▁konkurrere	-10.1011
konstruksjon	-10.1011
▁power	-10.1013
▁bærer	-10.1013
▁unntak	-10.1013
versjon	-10.1014
▁tekster	-10.1015
▁line	-10.1016
følgende	-10.1018
▁ukjent	-10.1019
▁henhold	-10.1028
able	-10.1028
▁kalk	-10.1034
▁radi	-10.1036
▁hil	-10.1043
▁tron	-10.1044
26	-10.1051
▁kapp	-10.1055
▁tau	-10.1067
▁damp	-10.1068
kompani	-10.1073
afrikansk	-10.1075
▁bevis	-10.1079
▁levert	-10.1086
vald	-10.1087
▁mangler	-10.1101
kirken	-10.1104
zar	-10.1106
kasse	-10.111
cca	-10.1111
ān	-10.1113
▁sho	-10.1116
▁institut	-10.1117
stjerne	-10.1118
▁linjen	-10.112
▁ansvarlig	-10.1122
▁larsen	-10.1133
▁kommuner	-10.1141
klassen	-10.1141
ordning	-10.1142
▁sammenligne	-10.1143
▁dobbelt	-10.1148
▁etterfulgt	-10.1148
▁wolf	-10.115
▁kropps	-10.115
▁referere	-10.1151
▁philip	-10.1151
▁effektiv	-10.1153
▁formula	-10.1156
▁tone	-10.1165
▁dru	-10.1168
▁team	-10.1174
▁artister	-10.1179
▁cirk	-10.118
kamper	-10.118
gress	-10.1181
▁east	-10.1189
▁stabil	-10.119
▁kjøpe	-10.1191
skij	-10.1195
strid	-10.1203
▁planter	-10.121
▁ankom	-10.1215
▁fjord	-10.122
▁østlig	-10.1229
ito	-10.1235
▁innhold	-10.1239
▁medisinsk	-10.1242
▁sikte	-10.1243
▁landskapet	-10.1245
▁bidra	-10.1252
materiale	-10.1252
▁vinteren	-10.1253
osa	-10.1254
hem	-10.1257
▁utgi	-10.126
▁120	-10.1264
▁press	-10.1269
▁ånd	-10.1271
angen	-10.1273
▁vall	-10.1277
9	-10.1283
▁bredt	-10.1284
▁1904	-10.1287
▁moskva	-10.1287
▁innsats	-10.1287
▁kjærlighet	-10.1288
▁godkjent	-10.1289
▁parken	-10.1291
▁bibel	-10.1303
▁grunnlegge	-10.1304
▁ledende	-10.1306
kjent	-10.1314
▁statlig	-10.1318
▁konkurransen	-10.1319
▁fullført	-10.1323
▁hå	-10.1325
elv	-10.1334
▁stilt	-10.1336
▁signal	-10.1358
▁toppen	-10.1358
▁kvalitet	-10.1361
reise	-10.1362
13	-10.1367
▁trafikk	-10.137
forbundet	-10.1377
▁polsk	-10.1396
masse	-10.1405
▁munk	-10.1408
▁verker	-10.1411
▁mono	-10.1415
høyde	-10.1423
▁hellige	-10.1427
staten	-10.1428
▁1953	-10.1428
▁1961	-10.1428
▁edward	-10.1428
▁praksis	-10.1428
▁dollar	-10.1428
▁gunnar	-10.1428
▁forårsake	-10.1429
▁etterfølger	-10.143
▁samfunnet	-10.1431
▁1910	-10.1432
▁wu	-10.1434
▁dvs	-10.1435
▁wien	-10.1441
dingen	-10.1441
komedie	-10.1445
▁mini	-10.1447
▁skapte	-10.1448
▁ull	-10.1451
fylt	-10.1454
friidrettsutøver	-10.1459
▁artist	-10.1463
▁american	-10.1471
▁sveits	-10.1475
92	-10.1477
▁kari	-10.1481
▁kin	-10.1486
▁revolusjon	-10.1486
skipet	-10.1487
▁disk	-10.1496
▁slave	-10.1499
føringen	-10.1503
▁eik	-10.1504
domstol	-10.1507
bærer	-10.1508
▁spanske	-10.1512
▁sist	-10.1513
▁middelalderen	-10.1513
▁blomst	-10.1522
ommer	-10.1523
modell	-10.1535
forskning	-10.1541
tekst	-10.1543
museet	-10.1547
ô	-10.1552
gende	-10.1555
▁fc	-10.1564
▁kaptein	-10.1571
gymnas	-10.1571
▁kjemisk	-10.1572
▁slank	-10.1573
▁1932	-10.1573
▁utstyr	-10.1577
▁enkle	-10.1579
▁skapt	-10.1579
▁inngår	-10.1581
▁anledning	-10.1582
▁oversettelse	-10.1582
▁mobil	-10.1582
sentre	-10.1584
▁butikk	-10.1584
▁intern	-10.1586
▁føde	-10.1593
olin	-10.1605
næring	-10.1606
▁ein	-10.1606
▁bestemme	-10.1606
tårn	-10.1609
▁bygninger	-10.1628
▁teknikk	-10.1632
▁hydro	-10.1636
holdsvis	-10.1639
▁fed	-10.1646
ique	-10.1646
▁hellig	-10.1648
politikk	-10.1673
▁kandidat	-10.168
duk	-10.1687
▁språket	-10.1689
▁forsvaret	-10.1694
▁rund	-10.1698
ovn	-10.1704
▁guvernør	-10.1716
▁brøt	-10.1717
assistent	-10.1717
▁fol	-10.1721
▁from	-10.1724
faktor	-10.1724
▁show	-10.1732
▁ansatt	-10.1734
▁utdannelse	-10.1737
▁skall	-10.1745
▁billed	-10.1748
▁gold	-10.175
▁gui	-10.1758
▁båten	-10.1762
oksid	-10.1767
▁forbund	-10.1771
▁bydelen	-10.1778
▁vor	-10.1781
▁reserve	-10.1782
▁55	-10.179
▁ild	-10.1798
▁tell	-10.1804
gått	-10.1812
▁bou	-10.1813
▁kanal	-10.1814
▁internett	-10.1828
ical	-10.1835
▁geo	-10.1835
kontroll	-10.1835
problem	-10.1837
amerikansk	-10.1837
▁ungdom	-10.1838
sønn	-10.1839
regnet	-10.1856
▁drammen	-10.1863
▁fysisk	-10.1863
▁arendal	-10.1864
▁protest	-10.1865
▁1919	-10.1866
▁bekrefte	-10.1868
▁modern	-10.187
▁stig	-10.1879
halvøya	-10.1883
▁angeles	-10.1884
▁internasjonalt	-10.1899
97	-10.1905
▁arrangement	-10.1906
allianse	-10.1914
▁utøver	-10.1914
▁forble	-10.1919
▁endelig	-10.193
▁nettverk	-10.1931
rykket	-10.1937
▁hammer	-10.1947
▁sluttet	-10.1952
▁vekst	-10.1956
▁kanalen	-10.1958
▁musikalsk	-10.1959
kjær	-10.197
▁uker	-10.1979
distrikt	-10.1983
speil	-10.1988
forbindelse	-10.1988
vev	-10.1991
▁spenning	-10.2006
hei	-10.2011
▁1906	-10.2012
▁erobret	-10.2012
▁ødelegge	-10.2012
▁sigurd	-10.2012
▁ekstrem	-10.2012
ич	-10.2013
▁utbredt	-10.2013
cal	-10.2013
▁sverre	-10.2015
▁signert	-10.2015
▁brown	-10.2016
▁kry	-10.2016
▁alex	-10.2018
åsen	-10.2029
▁160	-10.2037
▁morgen	-10.2049
▁vindu	-10.2053
▁gått	-10.2053
▁simon	-10.2062
registre	-10.2065
▁korn	-10.2067
▁rapport	-10.207
▁verb	-10.2073
▁sats	-10.2097
▁skinn	-10.2103
▁nyere	-10.2107
▁virkelig	-10.2108
▁debut	-10.211
▁bosatt	-10.2128
▁cri	-10.2132
instrument	-10.214
president	-10.2143
mmel	-10.2146
▁ara	-10.2147
▁bakke	-10.2153
▁brødrene	-10.2163
konferanse	-10.2164
▁valuta	-10.2164
▁redusert	-10.2164
▁hjul	-10.2164
▁qū	-10.2164
▁hotell	-10.2165
▁finnmark	-10.2165
▁1908	-10.2166
▁otto	-10.2168
▁familiegruppen	-10.2168
▁programmer	-10.2173
tina	-10.2173
▁hitler	-10.2175
▁drag	-10.2176
▁medisin	-10.2182
▁europe	-10.2188
▁vokalist	-10.2188
▁cru	-10.2189
▁fotballklubb	-10.2209
▁filosof	-10.2237
▁sport	-10.224
▁bakkroppen	-10.2241
▁vokser	-10.2243
zan	-10.2243
▁lån	-10.2247
vingen	-10.2248
rommet	-10.225
▁begrep	-10.2254
▁sea	-10.2262
emble	-10.2263
tysk	-10.2265
horn	-10.2276
▁medie	-10.2281
mennene	-10.2284
front	-10.2303
gudinne	-10.2305
wald	-10.2307
▁mexico	-10.2317
▁østerriksk	-10.2317
▁benytter	-10.2317
▁hebraisk	-10.2317
▁jakob	-10.2318
▁sprint	-10.2318
▁rolf	-10.2318
▁tømmer	-10.232
▁skøyte	-10.232
на	-10.2322
▁snu	-10.2327
▁veldig	-10.2327
▁elektro	-10.2327
▁beregne	-10.2328
▁avholdt	-10.2332
klasse	-10.2336
▁behov	-10.2339
▁lønn	-10.234
plattform	-10.2342
▁tråd	-10.2344
cheng	-10.2345
▁tun	-10.2346
forsker	-10.2347
▁green	-10.2352
▁vegg	-10.2361
▁hindre	-10.2362
▁lord	-10.2363
▁bredde	-10.2365
ск	-10.2365
▁status	-10.2376
drakt	-10.2376
▁viking	-10.238
▁utstyrt	-10.2385
vika	-10.24
▁uke	-10.2405
▁blanding	-10.2406
▁wel	-10.241
▁utvikle	-10.2414
▁intens	-10.2415
sikkerhet	-10.2416
misjon	-10.2417
▁angel	-10.2434
▁preg	-10.2436
▁term	-10.2437
matisk	-10.2439
▁jiang	-10.245
▁arkiv	-10.246
94	-10.2461
skifte	-10.2463
gjennom	-10.2463
▁andersen	-10.2467
▁alpin	-10.247
▁elisabeth	-10.2474
▁skulptur	-10.2474
▁alkohol	-10.2474
▁registrert	-10.2474
▁motsetning	-10.2474
▁1922	-10.2475
▁1934	-10.2477
▁gustav	-10.2477
▁france	-10.2482
▁allmenn	-10.2483
▁mount	-10.2483
▁portrett	-10.2484
▁katolsk	-10.2484
▁diplomat	-10.2485
bred	-10.2486
kjøretøy	-10.2493
▁plassering	-10.2494
▁ernst	-10.2495
gass	-10.2498
phy	-10.2503
▁kommunal	-10.2503
▁luk	-10.2506
▁kammer	-10.2509
▁temp	-10.2515
botn	-10.2517
kammer	-10.2519
▁bryte	-10.254
blom	-10.2547
▁hull	-10.2551
▁sving	-10.2551
▁pap	-10.2553
▁mah	-10.2559
▁kaste	-10.2565
▁vekk	-10.2575
hild	-10.2577
▁fru	-10.2578
▁liga	-10.26
akademi	-10.2617
▁tempel	-10.2625
▁bære	-10.2626
▁gjeld	-10.263
▁science	-10.2632
▁grunnlegger	-10.2632
▁ytterst	-10.2633
▁utnytte	-10.2633
▁dverg	-10.2634
▁myndighetene	-10.2634
effekt	-10.2634
▁1918	-10.2635
▁fjernsyn	-10.2635
▁sørge	-10.2636
▁endringer	-10.2636
▁bau	-10.2637
▁bydistrikt	-10.2638
▁bell	-10.2639
bille	-10.2657
▁oberst	-10.2664
▁patri	-10.2664
▁stab	-10.2667
▁angrepet	-10.2674
▁forskjell	-10.2675
▁museet	-10.2676
▁banen	-10.2682
▁shu	-10.2694
kjennelse	-10.27
▁bladet	-10.2702
historisk	-10.2704
▁tam	-10.2708
▁jam	-10.2712
drev	-10.2713
låt	-10.272
▁malm	-10.2724
▁legend	-10.2725
områdene	-10.2725
▁mala	-10.2732
minne	-10.2732
▁sca	-10.2732
▁gruppa	-10.274
▁beina	-10.2746
▁800	-10.2748
▁øke	-10.2749
▁forbud	-10.2758
▁ulv	-10.2758
bad	-10.2773
▁idrettslag	-10.2777
maker	-10.278
magasin	-10.2782
direktør	-10.2782
▁bilder	-10.2792
▁måned	-10.2793
▁1905	-10.2794
▁ludvig	-10.2794
▁rogaland	-10.2794
▁adolf	-10.2794
▁konsept	-10.2794
▁utmerkelse	-10.2794
▁definert	-10.2794
mengde	-10.2795
▁forkortet	-10.2795
▁1926	-10.2795
▁geografisk	-10.2796
▁oppnådd	-10.2796
▁1921	-10.2796
kompleks	-10.2797
▁lykke	-10.2803
▁eksport	-10.2805
▁lisens	-10.2807
▁mord	-10.2811
▁mynt	-10.2812
▁tann	-10.282
▁frihet	-10.2822
▁samisk	-10.2824
▁tour	-10.2833
▁ray	-10.2834
▁skjær	-10.2835
▁kvart	-10.2835
▁persisk	-10.2836
▁fau	-10.2838
▁adam	-10.2838
▁fritt	-10.2846
▁bach	-10.2863
▁beskrev	-10.2877
kost	-10.2879
zon	-10.2889
▁kapell	-10.2889
▁fremført	-10.2894
teater	-10.29
politisk	-10.291
▁600	-10.2915
▁svar	-10.292
▁romersk	-10.2922
▁øker	-10.2928
bygning	-10.2941
▁pur	-10.2946
fred	-10.2948
▁utvikler	-10.2954
▁eventuel	-10.2958
▁initiativ	-10.2958
▁kritiker	-10.2958
▁antagelig	-10.2958
▁company	-10.2958
▁nedbør	-10.2958
▁respekt	-10.2958
▁angripe	-10.2958
▁ridder	-10.2959
▁nedenfor	-10.2959
▁adresse	-10.2959
komité	-10.2959
▁singelen	-10.2959
▁1931	-10.296
▁län	-10.2965
▁armé	-10.2979
bebyggelse	-10.2983
▁hk	-10.2989
▁sørover	-10.2991
▁sara	-10.2996
▁great	-10.3003
▁unngå	-10.3004
▁38	-10.3011
▁rekord	-10.3012
▁gitarist	-10.3014
▁scoret	-10.3014
▁levde	-10.3016
▁drikke	-10.302
▁trommer	-10.3023
strømmen	-10.3025
▁kau	-10.3026
▁orient	-10.3029
itch	-10.3029
▁provins	-10.3032
▁angi	-10.3033
▁kjær	-10.3033
▁høst	-10.3034
▁fantes	-10.3041
▁fett	-10.3047
▁krim	-10.3047
verdi	-10.3058
mbo	-10.3068
kretsen	-10.3077
▁bakken	-10.3082
▁hul	-10.3091
sdatter	-10.3095
skade	-10.3113
▁fjernet	-10.3113
▁handel	-10.3123
▁fødsel	-10.3124
▁administrere	-10.3124
▁engasjert	-10.3124
▁tyrkisk	-10.3124
▁edvard	-10.3124
▁søndag	-10.3124
▁fjær	-10.3124
▁mekanisk	-10.3124
▁klokken	-10.3125
▁major	-10.3125
▁redusere	-10.3125
▁bøkene	-10.3125
utstyr	-10.3125
▁anvende	-10.3125
▁1914	-10.3126
▁1923	-10.3126
▁1935	-10.3126
▁sølvmedalje	-10.3127
▁komposisjon	-10.3129
seth	-10.3129
▁sykkel	-10.313
▁forenkle	-10.313
▁mottatt	-10.3137
bøker	-10.3138
▁piano	-10.3142
▁lake	-10.3152
▁befinne	-10.3156
▁furu	-10.3165
▁lunge	-10.3167
▁vg	-10.3172
▁karakteristisk	-10.3175
tain	-10.3184
vegg	-10.3185
▁pensjon	-10.319
▁normal	-10.3191
roman	-10.3191
▁henri	-10.3204
▁play	-10.3207
▁chu	-10.3233
▁jones	-10.3237
▁bow	-10.324
▁foto	-10.3254
administrasjon	-10.3259
nøtt	-10.3262
▁aur	-10.3264
▁overleve	-10.3265
▁avsluttet	-10.3267
▁sab	-10.3271
slått	-10.3279
▁fartøy	-10.328
▁forbinde	-10.328
lock	-10.3286
kanalen	-10.3293
▁oppmerksomhet	-10.3294
kompetanse	-10.3294
▁frykt	-10.3294
▁scott	-10.3294
▁nektet	-10.3294
▁overraske	-10.3295
▁hemmelig	-10.3295
▁naturgass	-10.3296
▁1911	-10.3296
▁næringsliv	-10.3296
▁proto	-10.3297
idrett	-10.3299
typer	-10.3313
kaffe	-10.3314
▁hov	-10.3323
kron	-10.3324
▁vanligste	-10.3332
▁trø	-10.3333
▁peder	-10.3339
▁ferge	-10.3339
▁styrte	-10.3339
▁underfamilien	-10.3351
▁tilbud	-10.3354
▁troms	-10.3363
▁unn	-10.3365
gjen	-10.3377
▁roger	-10.3379
jord	-10.3379
dahl	-10.3383
▁demokratisk	-10.3384
head	-10.3387
orientert	-10.3394
▁dømt	-10.3397
bomb	-10.3404
▁wall	-10.3405
▁styrkene	-10.341
manuel	-10.341
▁departement	-10.3434
setting	-10.3459
▁konflikt	-10.3466
admiral	-10.3466
▁county	-10.3466
▁nominert	-10.3466
▁kontinent	-10.3466
tråling	-10.3466
▁ansikt	-10.3466
▁nikola	-10.3466
▁skihopp	-10.3466
hjul	-10.3467
▁utstilling	-10.3467
bibliotek	-10.3468
▁1907	-10.3468
▁monark	-10.3469
▁telemark	-10.3471
▁myndigheter	-10.3471
▁turneringen	-10.3471
konsert	-10.3472
▁spredt	-10.3473
▁michel	-10.3474
snegl	-10.349
▁life	-10.3499
▁qua	-10.35
▁spring	-10.3511
▁motsatt	-10.3526
▁edderkoppen	-10.3539
slutt	-10.3592
feng	-10.3603
stemme	-10.3605
▁terreng	-10.3611
▁utsatt	-10.3611
▁skjold	-10.3621
▁free	-10.3622
▁gaten	-10.3625
▁big	-10.3631
qi	-10.3633
▁symfoni	-10.3642
▁eksperiment	-10.3642
▁millimeter	-10.3642
▁vesentlig	-10.3642
▁kjøtt	-10.3642
▁beseire	-10.3642
forsyning	-10.3644
▁novell	-10.3644
▁verdensmester	-10.3646
▁kritisk	-10.3646
▁knud	-10.3649
komiteen	-10.3649
▁hjerne	-10.365
▁luther	-10.3651
▁studere	-10.3652
▁uttalt	-10.3652
▁pedersen	-10.3656
behandling	-10.3661
▁terror	-10.3674
▁gradvis	-10.3675
spinner	-10.3675
lich	-10.3676
▁christiania	-10.3684
▁utbygging	-10.3686
▁queen	-10.3688
▁nordover	-10.3697
periode	-10.3712
▁grim	-10.3723
▁river	-10.3724
▁kommando	-10.3725
▁utenriks	-10.3733
▁penger	-10.3749
næs	-10.3749
litt	-10.3755
▁sik	-10.3759
ан	-10.3761
▁176	-10.377
▁nm	-10.377
▁juridisk	-10.382
▁league	-10.382
▁argument	-10.382
▁kombinert	-10.382
▁prefektur	-10.382
▁fenomen	-10.382
▁nicola	-10.382
▁fattig	-10.382
▁egenskaper	-10.3821
apparat	-10.3821
ев	-10.3823
mønster	-10.3823
hånd	-10.3823
terminal	-10.3823
▁fuktig	-10.3824
skrive	-10.3824
▁jackson	-10.3826
voks	-10.3826
▁byggingen	-10.3827
▁alfred	-10.3828
▁mineral	-10.3831
▁nærheten	-10.3831
▁hersker	-10.3832
▁carlo	-10.3836
▁250	-10.3839
▁anlagt	-10.3844
▁kopi	-10.3851
handel	-10.3856
angrep	-10.3859
▁skyte	-10.3862
▁inneha	-10.3865
▁tyng	-10.3867
▁jack	-10.3873
vandring	-10.3876
▁chang	-10.3883
▁elektron	-10.3888
▁trekant	-10.3893
▁vestre	-10.3904
▁bei	-10.3918
▁stam	-10.3929
bakterie	-10.3932
styrt	-10.3938
▁yi	-10.3943
▁tykk	-10.3944
skyting	-10.3954
melding	-10.3954
▁paus	-10.3959
zel	-10.3961
▁bang	-10.3963
▁arkeologisk	-10.3965
▁antenne	-10.3968
▁shan	-10.3985
▁140	-10.3987
▁alpe	-10.3995
▁definisjon	-10.4002
▁portugisisk	-10.4002
▁restaurant	-10.4002
ström	-10.4002
▁asteroide	-10.4002
▁vulkan	-10.4002
▁referanse	-10.4002
▁evangeli	-10.4002
▁golf	-10.4002
▁utenlandsk	-10.4004
▁håndball	-10.4004
▁programleder	-10.4005
▁1909	-10.4005
myr	-10.4005
▁skygge	-10.4005
▁friidrett	-10.4006
▁biografi	-10.4006
kjøn	-10.4009
▁fortellingen	-10.4009
▁skrå	-10.4011
▁hensyn	-10.4014
▁slu	-10.4023
ор	-10.4023
måte	-10.4025
▁typen	-10.4027
strup	-10.4028
lyng	-10.4029
nemlig	-10.403
krutt	-10.4031
stell	-10.4031
▁1700	-10.4032
▁geir	-10.4033
▁integr	-10.4037
bach	-10.4038
endinger	-10.4041
▁audi	-10.4044
▁erstatte	-10.4051
▁liber	-10.4052
politi	-10.4061
▁grøn	-10.4064
ordnet	-10.407
▁hop	-10.4073
▁statue	-10.4073
vakt	-10.408
▁tidsskriftet	-10.408
▁dukke	-10.41
▁unna	-10.4104
▁beskrivelse	-10.4129
▁kommunistisk	-10.4136
▁tilstand	-10.4145
olje	-10.4151
▁900	-10.4178
▁nowiki	-10.4187
▁svalbard	-10.4187
▁artikler	-10.4187
▁hordaland	-10.4187
▁trommeslager	-10.4187
▁kulturminner	-10.4187
▁negativ	-10.4187
▁anerkjent	-10.4187
▁kobber	-10.4187
▁anklage	-10.419
▁debatt	-10.4192
▁filip	-10.4193
▁detalj	-10.4198
▁lokalisert	-10.4198
nntatt	-10.4198
funksjon	-10.4201
▁nedlagt	-10.4202
▁stone	-10.4203
▁hellas	-10.4204
▁grønland	-10.4205
▁sukker	-10.4206
turnering	-10.4212
lignende	-10.4214
▁aksel	-10.4227
▁synge	-10.4243
āng	-10.4249
▁opptre	-10.4262
22	-10.4267
korset	-10.428
jia	-10.4287
stab	-10.4291
histori	-10.4295
▁tidsskrift	-10.4297
▁smak	-10.4299
col	-10.4299
▁observ	-10.4299
▁etnisk	-10.4303
▁sveitsisk	-10.4314
000	-10.4327
▁elite	-10.4333
▁emil	-10.4338
▁funn	-10.4341
▁rub	-10.4353
▁guy	-10.4357
▁kino	-10.4375
▁arrestert	-10.4376
▁dekkvingene	-10.4376
▁washington	-10.4376
▁anbefal	-10.4376
▁jørgen	-10.4376
▁kommersiell	-10.4376
▁rektor	-10.4376
▁tilsvarer	-10.4376
▁innebærer	-10.4376
▁ørken	-10.4377
▁generasjon	-10.4377
▁fungert	-10.4377
▁elleve	-10.4377
▁hovedkvarter	-10.4379
▁beslutte	-10.4384
▁tegninger	-10.4384
kreft	-10.439
▁hvile	-10.439
løft	-10.4391
forsvar	-10.4394
går	-10.4402
▁morten	-10.4411
▁skaffe	-10.4426
▁ansett	-10.4426
bunn	-10.443
faglig	-10.4432
▁pont	-10.4446
▁saga	-10.445
▁junior	-10.4457
▁avslutte	-10.4461
flukt	-10.4468
▁laks	-10.4482
gods	-10.449
trener	-10.4501
▁jin	-10.4504
▁meta	-10.4508
▁cover	-10.4519
▁kommun	-10.4519
inndelt	-10.4542
▁milliarder	-10.4568
▁oksygen	-10.4568
▁involver	-10.4568
▁kollektiv	-10.4568
▁bodø	-10.4568
▁ungarsk	-10.4568
forsikring	-10.4569
▁opplysning	-10.4569
komponent	-10.4569
stråle	-10.4569
▁1917	-10.457
▁francisco	-10.4571
▁firmaet	-10.4571
▁1915	-10.4572
fold	-10.4572
▁svein	-10.4572
monument	-10.4573
▁paven	-10.4576
posisjon	-10.4582
▁vikler	-10.4584
▁dyrke	-10.4585
chu	-10.4591
▁marin	-10.4594
tittel	-10.4595
▁østover	-10.46
▁blandet	-10.4608
wick	-10.4609
oppstår	-10.4611
fartøy	-10.4611
ekspert	-10.4611
▁besøkte	-10.462
▁akk	-10.4627
▁variere	-10.4627
▁astronomi	-10.4628
▁170	-10.4633
jong	-10.4639
▁700	-10.464
▁løfte	-10.4642
bevisst	-10.4642
▁norman	-10.4666
▁wang	-10.4684
▁utløp	-10.4709
▁whi	-10.471
perioden	-10.4714
▁rem	-10.4742
▁stang	-10.4752
▁osv	-10.4753
stokk	-10.4753
vassdraget	-10.4757
▁aleksander	-10.4764
▁særskilt	-10.4764
▁heinrich	-10.4764
disiplin	-10.4764
▁forgjenger	-10.4764
▁ovenfor	-10.4764
▁risiko	-10.4764
▁thailand	-10.4764
▁forbedre	-10.4765
▁frivillig	-10.4765
▁doktorgrad	-10.4765
▁arbeiderpartiet	-10.4767
▁tallrike	-10.4767
▁smelte	-10.4768
stipend	-10.4768
▁antyde	-10.4768
▁telefon	-10.4768
▁beslekte	-10.4773
▁bedriften	-10.4775
▁german	-10.4781
▁forsterke	-10.4782
strøk	-10.4783
▁nød	-10.4784
▁anslå	-10.4785
▁kristiania	-10.4785
kampanje	-10.4786
relatert	-10.4786
orkester	-10.479
▁tynn	-10.4795
▁luc	-10.48
▁walter	-10.4803
arkiv	-10.4803
maleri	-10.4804
fast	-10.4818
▁budd	-10.482
▁hekk	-10.4822
▁sovjet	-10.4834
forsamlingen	-10.4845
montert	-10.4846
stamme	-10.4851
▁elektronisk	-10.4877
polis	-10.4878
hev	-10.489
start	-10.4891
listen	-10.4893
ografisk	-10.4898
▁xu	-10.4898
▁trent	-10.4901
▁utkom	-10.4923
▁intel	-10.4933
lidelse	-10.4958
▁barcelona	-10.4964
▁dokumentar	-10.4964
▁seremoni	-10.4964
▁society	-10.4964
▁akershus	-10.4964
▁pakistan	-10.4964
▁symptom	-10.4964
▁innbyggerne	-10.4964
vurdering	-10.4964
▁charlotte	-10.4964
▁arthur	-10.4965
▁brigade	-10.4965
▁naturreservat	-10.4965
▁belgisk	-10.4965
▁betjene	-10.4966
pedagog	-10.4966
▁josé	-10.4966
▁flytende	-10.4966
▁bronsemedalje	-10.4966
▁1913	-10.4966
▁foregår	-10.4967
▁1916	-10.4967
▁import	-10.4967
kobling	-10.4967
▁avledet	-10.4969
▁kunde	-10.4969
▁historikeren	-10.4969
▁vannkraftverk	-10.497
▁server	-10.4971
▁eiendommen	-10.4973
▁sound	-10.4983
▁gjennomføre	-10.4989
▁lettere	-10.4989
▁beskyttelse	-10.499
▁oppfatte	-10.4993
▁dio	-10.4995
▁meteor	-10.4996
▁white	-10.4999
▁arkeolog	-10.5019
kalle	-10.5022
▁mjø	-10.5034
▁cand	-10.5055
automat	-10.5056
īn	-10.5062
▁road	-10.5066
▁flytte	-10.5074
▁handle	-10.51
▁brem	-10.5105
▁hytte	-10.5108
▁penge	-10.5131
▁ørn	-10.5132
▁sikker	-10.5147
▁qi	-10.5157
fortelling	-10.5161
▁jente	-10.5164
▁psyko	-10.5165
budsjett	-10.5168
▁corporation	-10.5168
▁tilknytning	-10.5168
▁oppretthold	-10.5168
▁vilhelm	-10.5168
▁belgia	-10.5168
▁reklame	-10.5169
▁hjal	-10.5169
▁invasjon	-10.517
▁trær	-10.517
▁linux	-10.517
▁1927	-10.5171
▁foreslått	-10.5171
▁stemt	-10.5177
▁økende	-10.5179
▁profil	-10.5185
▁idé	-10.5185
kjerne	-10.5193
▁panser	-10.5197
▁antatt	-10.5198
▁demningen	-10.5199
representant	-10.5202
▁synlig	-10.5209
▁blind	-10.5211
▁polar	-10.5221
▁johansen	-10.5221
trådte	-10.5228
▁israelsk	-10.5242
▁yng	-10.5256
▁dramatisk	-10.526
planter	-10.5264
▁nerve	-10.5266
▁kommunist	-10.5275
settelse	-10.5282
▁urban	-10.5293
▁opptrådt	-10.5324
▁palm	-10.5325
▁feli	-10.5338
▁mening	-10.5338
ramme	-10.5344
▁bevege	-10.5357
▁institusjon	-10.5357
pningsseremonien	-10.5377
▁association	-10.5377
▁1902	-10.5377
▁eksemplar	-10.5377
▁nøyaktig	-10.5377
veksling	-10.5377
▁lørdag	-10.5377
▁ungarn	-10.5377
▁uvanlig	-10.5377
▁etablering	-10.5377
▁massiv	-10.5377
▁faktisk	-10.5379
▁prinsesse	-10.5379
▁bispe	-10.5379
▁antikken	-10.5379
▁erfaring	-10.5382
▁planlagt	-10.5383
▁2018	-10.5383
▁generell	-10.5383
▁forlenge	-10.5383
▁fredrikstad	-10.5386
▁holdning	-10.5388
▁foregikk	-10.5407
lö	-10.5413
ар	-10.5423
▁qing	-10.5429
▁brent	-10.5439
▁edderkopp	-10.5447
▁ungdomsskole	-10.5456
▁sosialistisk	-10.5464
logi	-10.5472
▁fusjon	-10.5528
bal	-10.5538
stige	-10.5559
▁regjer	-10.5571
▁vitne	-10.5576
kommunikasjon	-10.558
▁elizabeth	-10.5589
▁münchen	-10.5589
▁shanghai	-10.5589
▁okkupasjon	-10.5589
▁colombia	-10.5589
▁tabellen	-10.5589
▁forhindre	-10.5589
▁verdenscup	-10.5589
▁parallell	-10.5589
▁kongedømmet	-10.5589
▁kristiansand	-10.559
▁skildre	-10.559
▁josef	-10.559
▁praktisk	-10.559
▁hovedpersonen	-10.559
▁døgn	-10.559
▁efter	-10.5591
▁1925	-10.5593
▁fiolin	-10.5593
▁østfold	-10.5594
tolkning	-10.5598
▁tropisk	-10.5599
▁1892	-10.5609
▁rival	-10.5609
utgave	-10.5612
▁1600	-10.5613
▁betale	-10.5613
psykologi	-10.5614
▁talent	-10.5614
▁action	-10.5619
yuan	-10.562
▁kontrollert	-10.5631
litteratur	-10.5631
▁antennene	-10.5633
offiser	-10.5635
kredit	-10.5638
ittisk	-10.5638
▁estland	-10.5644
▁knytte	-10.5648
▁krok	-10.5653
jiang	-10.5654
▁tyskerne	-10.5658
▁silke	-10.5664
trukket	-10.5674
vatn	-10.5676
▁glad	-10.568
▁egyptisk	-10.5689
▁plast	-10.5693
▁klippe	-10.5699
▁låten	-10.5711
▁ferr	-10.5713
▁mangle	-10.5714
astronom	-10.574
▁visst	-10.5745
regiment	-10.5782
▁unik	-10.5793
▁vad	-10.5793
▁wild	-10.5801
løytnant	-10.5807
▁jerusalem	-10.5807
▁buskerud	-10.5807
▁intervju	-10.5807
▁regissør	-10.5807
fundament	-10.5807
artilleri	-10.5807
▁barnehage	-10.5807
▁fjellkjede	-10.5807
▁haakon	-10.5807
▁global	-10.5808
kjøring	-10.5808
▁søkte	-10.581
▁nyhets	-10.581
▁vestfold	-10.5811
talende	-10.5812
▁falk	-10.5813
tegning	-10.5818
aften	-10.5835
▁forskjellig	-10.584
krem	-10.5845
struktur	-10.5853
▁variert	-10.5856
▁arab	-10.5857
▁puppe	-10.5861
▁helst	-10.5863
▁popul	-10.5877
▁georgia	-10.5892
▁wales	-10.5904
troppen	-10.5905
▁forklare	-10.5908
hydr	-10.5911
messe	-10.5921
mesterskap	-10.5938
▁rådhus	-10.5967
årig	-10.5984
▁kvit	-10.6012
▁sev	-10.6016
▁jomfru	-10.6029
▁utslipp	-10.6029
territorie	-10.6029
▁forsvant	-10.6029
▁henrettet	-10.6029
▁separat	-10.6029
▁skjønn	-10.603
▁vedtatt	-10.603
▁automatisk	-10.6031
▁stiftelsen	-10.6032
▁definere	-10.6032
▁konservative	-10.6033
▁spyd	-10.6035
▁splitt	-10.6035
▁tibet	-10.6035
▁down	-10.6038
▁høyesterett	-10.6042
mannskapet	-10.6051
tempelet	-10.6052
▁party	-10.6055
▁1500	-10.606
▁skuespill	-10.6066
▁tredjeplass	-10.6078
abilit	-10.6078
medisin	-10.608
aktivitet	-10.6081
programmet	-10.6085
▁innerst	-10.6086
karriere	-10.6087
hvelv	-10.6098
vall	-10.61
▁gott	-10.6106
flåten	-10.6116
▁slange	-10.6124
metode	-10.6126
kansler	-10.6128
▁rau	-10.6133
▁musikal	-10.6134
▁mitt	-10.6145
▁hind	-10.6153
brygge	-10.6156
fabrik	-10.618
▁mcc	-10.6206
▁fortsette	-10.6219
0	-10.6245
▁sarpsborg	-10.6256
▁sjeldne	-10.6256
▁1903	-10.6256
▁kjennetegne	-10.6256
presentasjon	-10.6256
▁texas	-10.6256
▁africa	-10.6257
▁fangst	-10.6257
▁seinere	-10.6258
▁rådgiver	-10.6258
▁gerhard	-10.6258
▁datamaskin	-10.6258
▁clark	-10.626
▁stykket	-10.6264
▁hovedkontor	-10.6265
▁røtter	-10.6272
▁einar	-10.6275
▁glans	-10.6282
▁young	-10.6283
ière	-10.6283
▁sammenlagt	-10.6286
▁stolt	-10.6289
eira	-10.629
▁prix	-10.6296
▁isteden	-10.6298
▁landbruk	-10.6303
▁drepe	-10.6304
▁barndom	-10.6312
kandidat	-10.6313
▁statsråd	-10.6315
▁personlighet	-10.6315
teknologi	-10.6316
bølge	-10.6318
recht	-10.632
▁håp	-10.6324
▁nova	-10.6327
▁luci	-10.6332
utvalget	-10.6363
▁cuba	-10.6394
▁flåte	-10.641
▁hjel	-10.6419
nettverk	-10.6429
bekken	-10.6443
▁halvpart	-10.6458
fallende	-10.646
▁mathi	-10.6467
redskap	-10.6472
▁markere	-10.6473
▁fakultet	-10.6489
▁helsingfors	-10.6489
▁kavaleri	-10.6489
▁virginia	-10.6489
▁øyeblikk	-10.6489
▁bjørk	-10.6489
▁hensikt	-10.6489
▁embets	-10.6489
▁redaksjon	-10.6489
▁amatør	-10.6489
▁dominerende	-10.6489
▁bærum	-10.6489
teatret	-10.6489
▁hyppig	-10.6489
▁katolik	-10.649
▁für	-10.649
▁kristin	-10.649
▁tilfeller	-10.6491
▁føderal	-10.6491
prest	-10.6491
▁enhver	-10.6492
planlegging	-10.6492
▁romsdal	-10.6493
▁gregor	-10.6494
▁britene	-10.6495
▁scor	-10.6503
▁indikere	-10.6505
▁kommunestyre	-10.6505
▁onkel	-10.6505
▁deltatt	-10.6514
▁1870	-10.6521
ла	-10.6523
▁franz	-10.6523
hjelp	-10.655
▁fortalt	-10.6551
frukt	-10.6551
▁minutt	-10.6561
▁smerte	-10.6567
ifikasjon	-10.6588
▁kath	-10.6594
▁hyper	-10.6599
▁katedral	-10.6614
blå	-10.6677
flue	-10.668
veps	-10.6689
posit	-10.6717
▁bryllup	-10.6727
▁afghanistan	-10.6727
▁bataljon	-10.6727
▁dirigent	-10.6727
▁forveksle	-10.6727
▁ortodoks	-10.6727
▁tønsberg	-10.6727
▁ressurs	-10.6727
▁avdøde	-10.6727
▁antarktis	-10.6727
▁tsjekkisk	-10.6727
▁tilsammen	-10.6727
kommandør	-10.6727
▁sachsen	-10.6727
▁serbisk	-10.6727
▁utseende	-10.6728
▁flyktning	-10.6728
▁fiktiv	-10.6728
▁følelse	-10.6728
▁beordre	-10.6728
▁skjøt	-10.6728
worth	-10.6729
▁midlertidig	-10.673
▁fortellinger	-10.673
ал	-10.6733
▁gullmedalje	-10.6733
▁nazi	-10.6736
▁svekke	-10.6736
▁straks	-10.6746
▁1897	-10.6748
▁punk	-10.6749
▁geit	-10.6751
flokk	-10.6753
▁1898	-10.6757
▁uavhengighet	-10.6762
▁good	-10.6764
▁1899	-10.6765
▁enorm	-10.6765
tradisjon	-10.6793
redaktør	-10.6795
▁frei	-10.6815
grå	-10.6816
▁knap	-10.6827
drive	-10.6832
ко	-10.6841
▁begynne	-10.6858
▁musik	-10.686
▁dominert	-10.6863
▁barneskole	-10.6876
▁lill	-10.6881
lengde	-10.6904
▁chris	-10.6912
▁rednings	-10.6948
▁angelsaksisk	-10.6971
▁færøysk	-10.6971
▁lillehammer	-10.6971
▁tyrkia	-10.6971
▁1901	-10.6971
▁færøyene	-10.6971
▁pattedyr	-10.6971
▁anmelder	-10.6971
▁christopher	-10.6971
▁veksel	-10.6971
▁gjennomsnittlig	-10.6971
▁margaret	-10.6971
▁allierte	-10.6971
▁ordinær	-10.6971
▁karbon	-10.6971
▁stefan	-10.6972
▁fjordane	-10.6972
▁patriark	-10.6972
▁social	-10.6972
▁utgivelsen	-10.6972
▁gabriel	-10.6972
▁mektig	-10.6973
▁grieg	-10.6973
▁poesi	-10.6973
▁bayern	-10.6974
▁styremedlem	-10.6974
mekanisme	-10.6975
▁sjette	-10.6977
▁styreleder	-10.6978
▁moderat	-10.6987
▁söd	-10.6989
▁prosessen	-10.699
▁koble	-10.6994
▁ddr	-10.7002
trenger	-10.7004
▁oval	-10.7018
temperatur	-10.7043
kontrakt	-10.7045
befolkning	-10.7045
▁thu	-10.7046
arkitekt	-10.7046
bæk	-10.7051
utstilling	-10.7067
▁britis	-10.7086
vitenskapelig	-10.7089
wich	-10.7099
stigning	-10.711
▁opprette	-10.7197
▁vietnam	-10.7221
▁atmosfære	-10.7221
▁sammenslåing	-10.7221
▁umiddelbart	-10.7221
▁kommandant	-10.7221
▁hospital	-10.7221
▁ødelagt	-10.7221
▁trygg	-10.7221
▁misjonær	-10.7221
▁komponert	-10.7221
leverandør	-10.7221
▁overtatt	-10.7221
▁prosessor	-10.7221
▁kjøpmann	-10.7221
▁originaltittel	-10.7222
givende	-10.7222
▁årsaken	-10.7222
▁plateselskapet	-10.7224
▁manager	-10.7224
▁røyk	-10.7226
▁betong	-10.7227
▁pierre	-10.7231
▁opptreden	-10.7231
▁fraktet	-10.7231
▁kongress	-10.7232
bevegelse	-10.7233
▁tjener	-10.7233
▁bønn	-10.7235
liknende	-10.7236
▁vendt	-10.7237
▁birg	-10.7239
▁distin	-10.7239
blomsterflue	-10.7239
▁1894	-10.7242
institusjoner	-10.7244
▁gjennombrudd	-10.7245
▁deltaker	-10.7252
▁regler	-10.7263
▁spenn	-10.727
musiker	-10.7302
blokk	-10.7304
▁ideologi	-10.7313
spiss	-10.7322
▁romantisk	-10.7423
svarte	-10.7439
▁francis	-10.7474
▁bulgaria	-10.7477
▁gjaldt	-10.7477
▁ludwig	-10.7477
▁matematikk	-10.7477
▁kronprins	-10.7477
▁oppdatert	-10.7477
▁geometri	-10.7477
▁utspring	-10.7477
▁grün	-10.7477
▁selvbiografi	-10.7477
▁tvilling	-10.7477
▁oppbevar	-10.7477
grunnsstasjon	-10.7477
▁theodor	-10.7477
bransjen	-10.7478
▁etablere	-10.7478
▁kritisert	-10.7478
▁andré	-10.7478
▁partner	-10.7479
▁nepal	-10.7479
▁forberede	-10.7479
▁cecil	-10.7479
skildring	-10.7479
▁opposisjon	-10.7479
▁tørke	-10.748
▁våt	-10.748
terapi	-10.748
▁jurist	-10.7482
▁tilhengere	-10.7482
▁øynene	-10.7482
▁bedrifter	-10.7483
▁terje	-10.7484
▁home	-10.7485
▁hydrogen	-10.7485
▁betalt	-10.7487
▁viktor	-10.7489
▁observasjon	-10.7489
▁avansert	-10.749
▁nevø	-10.7492
▁klatre	-10.7493
▁hylle	-10.7497
▁alpinist	-10.7501
▁hindu	-10.7508
▁aero	-10.751
kalender	-10.7535
gruppa	-10.7564
europeisk	-10.7566
▁datterselskap	-10.7586
spesifik	-10.7629
▁sjakk	-10.7673
▁ambassadør	-10.774
▁forøvrig	-10.774
▁infanteri	-10.774
▁konsekvens	-10.774
▁nøkkel	-10.774
▁vedlikehold	-10.774
▁molekyl	-10.774
skribent	-10.774
▁søndre	-10.7741
▁deutsche	-10.7741
▁heavy	-10.7741
▁fremtidig	-10.7741
▁church	-10.7741
▁monroe	-10.7742
▁utforming	-10.7742
▁opprettelsen	-10.7742
▁besetning	-10.7742
▁katalog	-10.7742
▁squa	-10.7744
▁programvare	-10.7744
▁stykker	-10.7746
▁galleri	-10.7747
▁patron	-10.7748
▁death	-10.7748
▁susan	-10.7755
▁diesel	-10.7755
▁vandre	-10.7759
▁archi	-10.7766
▁jesuitt	-10.7773
cture	-10.7778
▁temple	-10.7779
▁kommunistparti	-10.7795
▁domkirke	-10.7798
missil	-10.7817
▁kenya	-10.7836
pakke	-10.7931
demokrati	-10.7954
▁utøve	-10.8007
▁douglas	-10.8011
▁electric	-10.8011
▁ferskvann	-10.8011
▁inspirasjon	-10.8011
▁konkurrert	-10.8011
▁manuskript	-10.8011
▁frigjøring	-10.8011
▁apotek	-10.8011
▁hjort	-10.8011
▁unesco	-10.8011
▁fengsle	-10.8011
▁hvem	-10.8011
▁utsikt	-10.8011
▁finansiert	-10.8011
▁ektemann	-10.8012
▁grevskapet	-10.8013
▁oppdagelse	-10.8013
▁forklaring	-10.8013
betjent	-10.8013
▁utelukkende	-10.8015
▁samuel	-10.8015
▁hedmark	-10.8015
▁nattfly	-10.8018
▁antonio	-10.802
tillatelse	-10.8022
▁fastlandet	-10.8022
▁tolke	-10.8023
▁donau	-10.8028
▁tilfeldig	-10.803
▁vennskap	-10.8063
transport	-10.8113
utvikle	-10.8113
regjering	-10.8115
▁klage	-10.8118
design	-10.8118
kurat	-10.8147
interesser	-10.8175
▁krise	-10.8175
▁flyge	-10.8219
spesialist	-10.8226
▁lukke	-10.8244
▁harmoni	-10.8276
▁babylon	-10.8288
▁illustrasjon	-10.8288
▁opphørte	-10.8288
▁satellitt	-10.8288
▁ukrainsk	-10.8288
▁undergrunnsbane	-10.8288
▁kollaps	-10.8288
▁venezia	-10.8288
▁offensiv	-10.8288
▁abraham	-10.8288
▁permanent	-10.8288
▁vellykke	-10.8289
▁konstruert	-10.8289
▁kommentar	-10.8289
▁verdensarv	-10.8289
▁aktuell	-10.8289
▁opererer	-10.8289
▁senior	-10.8289
▁protein	-10.8289
▁innlemme	-10.8289
▁erobring	-10.829
▁stadium	-10.829
kollega	-10.829
seminar	-10.8292
▁distanse	-10.8292
palasset	-10.8295
▁syklist	-10.83
▁forbruker	-10.83
▁misjons	-10.8305
▁nederst	-10.8308
▁utarbeide	-10.8309
▁ibsen	-10.8312
▁oppnå	-10.8313
foretak	-10.8365
fløy	-10.8402
radio	-10.8412
lokale	-10.8448
sjekk	-10.8458
tilbud	-10.8462
▁energiselskap	-10.8494
▁undersøke	-10.8553
▁academy	-10.8574
▁bulgarsk	-10.8574
▁françois	-10.8574
▁göteborg	-10.8574
▁løpebiller	-10.8574
▁maksimal	-10.8574
▁orchestra	-10.8574
▁aluminium	-10.8574
▁napoleon	-10.8574
▁bekjempe	-10.8574
▁identitet	-10.8574
▁stafett	-10.8574
▁bokstaven	-10.8575
▁presentert	-10.8575
▁psykisk	-10.8575
▁innledet	-10.8575
▁drømme	-10.8575
▁skjønt	-10.8575
▁bønder	-10.8575
▁forkropp	-10.8575
▁dekorert	-10.8576
▁bjerk	-10.8576
ст	-10.8576
▁bbc	-10.8577
▁generalsekretær	-10.8577
plikasjon	-10.8579
▁fiction	-10.858
▁western	-10.8581
▁elsker	-10.8582
▁kallenavn	-10.8582
▁rifle	-10.8584
▁kommunikasjons	-10.8587
▁forvente	-10.8596
▁benevn	-10.8609
▁forvalte	-10.8614
kvarter	-10.8632
smykke	-10.865
dømt	-10.8692
▁skanse	-10.8714
▁kriminal	-10.8787
▁konsern	-10.879
bøyd	-10.8837
▁motorvei	-10.8852
kommanderende	-10.8868
▁gælisk	-10.8868
▁hollywood	-10.8868
▁hongkong	-10.8868
▁kjønnsmodne	-10.8868
▁prestegjeld	-10.8868
▁prøvd	-10.8868
▁tolkien	-10.8868
▁vurdert	-10.8868
▁brønn	-10.8868
▁oxford	-10.8868
▁portugal	-10.8868
▁innstifte	-10.8868
▁stridsvogn	-10.8868
▁rosenborg	-10.8868
▁syndrom	-10.8868
▁beatles	-10.8868
▁kypros	-10.8868
▁stephen	-10.8869
▁bøndene	-10.8869
▁selvmord	-10.8869
▁prince	-10.8869
▁eksistens	-10.8869
▁beleiring	-10.8869
▁contest	-10.8869
▁apple	-10.8869
▁dyktig	-10.887
▁tilpasset	-10.8871
▁beskjed	-10.8871
▁gråbrun	-10.8871
▁beholdt	-10.8871
▁techn	-10.8873
▁komplett	-10.8873
▁forhånds	-10.8875
▁forandring	-10.8876
▁stedsnavn	-10.8876
▁skuespillerinne	-10.8884
▁tsar	-10.8886
▁pumpe	-10.8887
▁nederlag	-10.8894
institutt	-10.8997
ingeniør	-10.9007
tavle	-10.9052
▁rapportert	-10.9054
▁frost	-10.9131
▁aleksandr	-10.9171
▁frilufts	-10.9171
▁hjørne	-10.9171
▁innspilt	-10.9171
▁konsulent	-10.9171
▁omdøpt	-10.9171
▁styrmann	-10.9171
▁windows	-10.9171
▁australsk	-10.9171
▁pradesh	-10.9171
▁interiør	-10.9171
▁division	-10.9171
▁alminnelig	-10.9172
▁seoul	-10.9172
▁tilskuere	-10.9172
▁forkortelse	-10.9173
▁claudi	-10.9173
▁døpt	-10.9173
▁pianist	-10.9173
▁oppfølger	-10.9174
▁speider	-10.9176
▁energy	-10.9177
▁sosialdemokrat	-10.9177
▁vassdrag	-10.9182
▁dreie	-10.9182
▁operert	-10.9186
bourne	-10.9205
syssel	-10.9215
hausen	-10.9237
▁opplevelse	-10.9238
vennlig	-10.9242
edderkopper	-10.9248
professor	-10.9308
divisjon	-10.9309
utdanning	-10.9309
blanding	-10.931
debut	-10.9317
▁ligge	-10.9339
▁demokrat	-10.9378
▁nettside	-10.9383
artikkel	-10.94
konservativ	-10.9479
distribusjon	-10.9484
▁ammunisjon	-10.9484
▁cambridge	-10.9484
▁hockey	-10.9484
▁inskripsjon	-10.9484
▁research	-10.9484
▁salvador	-10.9484
▁singapore	-10.9484
▁varaordfører	-10.9484
▁chicago	-10.9484
▁jersey	-10.9484
▁operativsystem	-10.9484
▁taiwan	-10.9484
▁jupiter	-10.9484
▁taylor	-10.9484
▁testament	-10.9484
▁fysikk	-10.9484
▁diverse	-10.9484
▁haugesund	-10.9484
▁betydningsfull	-10.9484
▁opplevde	-10.9484
▁utbredelse	-10.9484
▁vietnamesisk	-10.9484
▁canadisk	-10.9484
▁begravelse	-10.9484
▁http	-10.9485
▁reidar	-10.9485
▁regulere	-10.9485
▁krystall	-10.9485
▁tjente	-10.9485
▁kullkraftverk	-10.9486
▁innviet	-10.9486
▁disney	-10.9487
▁messi	-10.9488
▁kråk	-10.9488
▁nkp	-10.9488
▁year	-10.9489
partikler	-10.9495
▁fasade	-10.9495
▁koreansk	-10.9495
▁genetisk	-10.9505
▁fulgt	-10.951
▁circ	-10.9515
▁tveit	-10.9519
sprang	-10.952
overføring	-10.9532
▁oppleve	-10.9534
▁ferie	-10.9564
fellesskap	-10.9574
▁observert	-10.9588
▁overføre	-10.9608
▁slippe	-10.9663
▁hevn	-10.9666
▁prinsipp	-10.9691
▁america	-10.971
søyle	-10.9769
▁argentina	-10.9806
▁drivstoff	-10.9806
▁frankfurt	-10.9806
▁konsentrert	-10.9806
▁meksikansk	-10.9806
▁progressiv	-10.9806
▁protokoll	-10.9806
▁påbegynt	-10.9806
▁shakespeare	-10.9806
▁ukraina	-10.9806
▁wergeland	-10.9806
▁renessanse	-10.9806
▁resultert	-10.9806
▁returnert	-10.9806
▁embeds	-10.9806
▁1883	-10.9806
▁mangfold	-10.9806
klassiker	-10.9806
▁giovann	-10.9806
▁uansett	-10.9806
▁protestantisk	-10.9807
▁essay	-10.9807
▁preussen	-10.9807
▁avgjørende	-10.9807
▁zealand	-10.9807
▁jøder	-10.9808
▁utpekt	-10.9808
▁dream	-10.9808
▁titler	-10.9809
▁embete	-10.9809
▁psykologisk	-10.981
▁krypt	-10.9812
▁særeg	-10.9813
▁skån	-10.9818
straumen	-10.9819
▁moore	-10.982
▁ytelse	-10.9824
▁flanke	-10.9827
▁rytme	-10.9828
føderasjon	-10.9832
▁størst	-10.9844
▁delstats	-10.9916
resultat	-10.9963
dekning	-11.0017
▁omdanne	-11.0029
spenning	-11.003
lån	-11.0062
▁tjenestegjor	-11.0077
svømming	-11.014
▁kontinuerlig	-11.014
▁låtskriver	-11.014
▁muslimsk	-11.014
▁technology	-11.014
▁vampyr	-11.014
lokomotiv	-11.014
▁country	-11.014
▁parallelt	-11.014
▁pseudonym	-11.014
▁uruguay	-11.014
▁invadert	-11.014
▁matthew	-11.014
▁minoritet	-11.014
▁regulering	-11.014
▁angivelig	-11.014
▁ytterkant	-11.014
▁sophie	-11.014
▁lyktes	-11.014
▁matematisk	-11.014
▁trykt	-11.014
▁ulovlig	-11.014
▁kontrast	-11.014
▁gwh	-11.014
▁gjentatt	-11.014
▁opptatt	-11.014
▁central	-11.0141
▁korrekt	-11.0141
▁vegetasjon	-11.0141
▁sosiolog	-11.0143
▁southern	-11.0143
▁space	-11.0143
▁samtids	-11.0145
▁konkurs	-11.0157
betingelse	-11.0182
▁berømt	-11.0187
prinsippet	-11.0255
tagelse	-11.0257
▁tromme	-11.0289
kvalitet	-11.0309
sentrum	-11.031
klipp	-11.0333
regnskap	-11.0335
▁bekke	-11.0425
signal	-11.0437
▁doktor	-11.0484
▁aggressiv	-11.0485
▁amsterdam	-11.0485
▁assosiert	-11.0485
▁basketball	-11.0485
▁columbia	-11.0485
▁football	-11.0485
▁konkurrent	-11.0485
▁microsoft	-11.0485
▁mobiltelefon	-11.0485
▁pronotum	-11.0485
▁prøyssisk	-11.0485
▁traktaten	-11.0485
▁vladimir	-11.0485
▁atlanterhav	-11.0485
▁beliggenhet	-11.0485
▁billedhugger	-11.0485
▁kambodsja	-11.0485
▁kapittel	-11.0485
▁matematiker	-11.0485
▁nøytral	-11.0485
▁vatikan	-11.0485
▁avslørt	-11.0485
▁ekvator	-11.0485
▁könig	-11.0485
▁shandong	-11.0485
▁depresjon	-11.0485
▁alfabet	-11.0485
▁annonsert	-11.0485
▁halvorsen	-11.0485
▁eidsvoll	-11.0485
▁stewart	-11.0485
▁invitert	-11.0485
▁frimurer	-11.0485
köping	-11.0485
▁begravet	-11.0485
▁dimensjon	-11.0485
▁kelly	-11.0486
▁harrison	-11.0486
▁osmansk	-11.0486
mouth	-11.0487
▁isolert	-11.0488
▁kanadisk	-11.049
▁bestilt	-11.0492
▁keltisk	-11.0494
▁mannsnavn	-11.0504
▁presentere	-11.0512
fôr	-11.053
pengene	-11.0539
artiklene	-11.0547
▁hekse	-11.0557
▁jernbanelinj	-11.0652
størrelse	-11.0663
▁aftenposten	-11.0842
▁bevæpne	-11.0842
▁diagnose	-11.0842
▁helikopter	-11.0842
▁interessant	-11.0842
▁langrennsløper	-11.0842
▁lawrence	-11.0842
▁sportsutøver	-11.0842
▁narkotika	-11.0842
▁strategisk	-11.0842
lovgivning	-11.0842
▁teoretisk	-11.0842
▁vertikal	-11.0842
▁1893	-11.0842
▁akseptert	-11.0842
▁innvandre	-11.0842
▁oppfatning	-11.0842
▁anvendt	-11.0842
▁vurdere	-11.0842
▁høvding	-11.0842
▁cappelen	-11.0842
▁mikael	-11.0842
▁fødselsår	-11.0842
▁vilkår	-11.0842
▁mozart	-11.0842
▁castle	-11.0842
▁bryggeri	-11.0842
▁walisisk	-11.0842
▁battle	-11.0842
▁axel	-11.0842
▁snorre	-11.0842
▁systematisk	-11.0843
▁fantasi	-11.0843
▁innskriften	-11.0843
▁stryke	-11.0844
▁dvd	-11.0844
▁ivareta	-11.0846
▁reagere	-11.0847
▁hovedsete	-11.0853
bourg	-11.086
▁balanse	-11.0903
betaling	-11.0919
monopol	-11.0923
utenriksminister	-11.0974
▁planlegge	-11.1005
kapell	-11.1016
produsert	-11.1036
kommando	-11.1036
dynastiet	-11.1036
misbruk	-11.1037
▁usikker	-11.1096
▁inkludere	-11.1107
▁fastsette	-11.1116
▁utforske	-11.1118
▁dynasti	-11.1132
reservat	-11.1211
perspektiv	-11.1212
▁bysantinsk	-11.1212
▁development	-11.1212
▁liverpool	-11.1212
▁mongolia	-11.1212
▁network	-11.1212
▁sebastian	-11.1212
▁spitsbergen	-11.1212
▁terrengsyklist	-11.1212
▁guangdong	-11.1212
▁tanzania	-11.1212
▁utdødd	-11.1212
afylki	-11.1212
▁torpedo	-11.1212
▁litauen	-11.1212
▁manchester	-11.1212
▁sogneprest	-11.1212
▁bystatus	-11.1212
▁rovdyr	-11.1212
▁avskaffet	-11.1212
▁simpson	-11.1212
▁opphevet	-11.1212
leksikon	-11.1212
▁nelson	-11.1212
▁petersburg	-11.1213
▁undertegnet	-11.1213
▁skjebne	-11.1213
▁konsesjon	-11.1213
▁lewis	-11.1213
▁middle	-11.1213
▁russerne	-11.1213
▁akutt	-11.1214
▁lofot	-11.1214
▁fienden	-11.1215
▁first	-11.1215
▁avgjørelse	-11.1216
▁knust	-11.1216
thorax	-11.1218
▁hawk	-11.1221
▁publisere	-11.1227
▁våpenskjold	-11.1232
▁marcel	-11.1288
flyvning	-11.1295
kjøl	-11.1352
filosofi	-11.1417
indeks	-11.1419
▁journal	-11.1428
prøve	-11.1428
basseng	-11.1465
▁representere	-11.1491
▁absolutt	-11.1597
▁alexandra	-11.1597
▁filippinene	-11.1597
▁foundation	-11.1597
▁indonesia	-11.1597
▁jurisdiksjon	-11.1597
▁klassifisere	-11.1597
▁leipzig	-11.1597
▁okkupert	-11.1597
▁universität	-11.1597
▁vålerenga	-11.1597
▁anmeldelse	-11.1597
▁benjamin	-11.1597
▁business	-11.1597
▁hiphop	-11.1597
▁musikkvideo	-11.1597
▁petroleum	-11.1597
▁utendørs	-11.1597
▁fiendtlig	-11.1597
ч	-11.1995
ã	-11.5919
