<unk>	0
<s>	0
</s>	0
.	-3.25613
e	-3.59762
s	-3.62967
▁i	-3.63638
▁	-3.88965
▁og	-3.91054
t	-4.12908
er	-4.21193
en	-4.28718
▁av	-4.41739
r	-4.54163
▁er	-4.57232
▁en	-4.59691
▁som	-4.65869
▁for	-4.76872
▁til	-4.7722
▁på	-4.86384
n	-4.89125
▁med	-5.00775
et	-5.00781
▁den	-5.06438
▁ble	-5.11869
▁var	-5.23485
▁det	-5.24435
▁de	-5.28557
▁fra	-5.4089
a	-5.43064
▁å	-5.48971
▁han	-5.49851
▁har	-5.5811
▁et	-5.58619
ene	-5.65123
k	-5.87088
i	-5.87976
▁at	-5.90407
ne	-5.92196
▁ved	-6.00546
d	-6.03187
o	-6.09223
▁om	-6.12319
▁også	-6.1534
g	-6.16544
te	-6.16677
▁etter	-6.17649
y	-6.21497
m	-6.26696
▁under	-6.27005
▁ut	-6.28516
▁men	-6.30765
de	-6.32083
▁eller	-6.39314
f	-6.42257
p	-6.42315
l	-6.45358
▁over	-6.45925
▁kan	-6.4613
▁to	-6.4733
▁opp	-6.47365
re	-6.48765
▁seg	-6.49154
▁da	-6.51542
▁hadde	-6.53587
in	-6.54305
▁inn	-6.56731
▁ikke	-6.57896
▁a	-6.64702
c	-6.64994
v	-6.65013
▁s	-6.6639
ing	-6.67405
es	-6.6898
▁sin	-6.70377
h	-6.71374
▁be	-6.74593
▁mot	-6.7502
b	-6.75316
us	-6.75604
▁andre	-6.75611
u	-6.80453
al	-6.82238
▁18	-6.82623
▁født	-6.84274
▁mellom	-6.86139
▁dette	-6.86786
an	-6.87472
▁f	-6.87775
▁ha	-6.8941
▁første	-6.89476
le	-6.93175
na	-6.93217
▁1	-6.93268
▁hans	-6.94552
ter	-6.97078
z	-6.98435
sk	-6.98701
▁hun	-7.00053
▁tre	-7.00306
is	-7.00675
ia	-7.02872
▁år	-7.05363
ende	-7.05655
▁the	-7.05791
▁la	-7.07966
la	-7.08396
▁der	-7.08813
▁sammen	-7.0935
▁m	-7.11085
▁man	-7.11594
▁fikk	-7.11823
▁denne	-7.13641
blant	-7.16854
▁c	-7.16994
or	-7.17128
▁re	-7.17157
▁u	-7.1739
sen	-7.18144
on	-7.18182
▁flere	-7.18964
▁ligger	-7.19279
▁hvor	-7.19942
ri	-7.21192
ar	-7.21346
um	-7.21604
▁kom	-7.22064
land	-7.22844
kt	-7.26189
st	-7.26416
▁ca	-7.26711
der	-7.27117
▁2	-7.27758
ke	-7.296
▁nord	-7.29744
lig	-7.30075
▁gjennom	-7.30336
▁d	-7.32546
▁kr	-7.32657
▁g	-7.33467
ma	-7.33525
nde	-7.33765
vis	-7.34492
ens	-7.35073
ta	-7.35122
▁k	-7.3542
▁stor	-7.35424
da	-7.36799
ra	-7.37216
w	-7.37692
▁del	-7.38223
il	-7.38397
▁p	-7.38667
▁blir	-7.387
▁se	-7.38863
li	-7.38972
▁3	-7.39046
ur	-7.39257
▁17	-7.39646
ch	-7.39664
iske	-7.39788
▁død	-7.41041
▁alle	-7.41096
▁før	-7.41212
den	-7.41493
ig	-7.41829
▁norsk	-7.41926
▁tidligere	-7.41985
isk	-7.41988
▁så	-7.42214
▁her	-7.42807
▁mange	-7.42898
be	-7.43354
▁5	-7.43524
lo	-7.43973
x	-7.45341
▁al	-7.45512
ske	-7.4581
▁an	-7.46027
▁b	-7.46291
kk	-7.46912
for	-7.47091
os	-7.4776
ver	-7.48327
ut	-7.48346
▁kommune	-7.49557
é	-7.50369
el	-7.50436
▁byen	-7.50511
øy	-7.50641
▁of	-7.50653
j	-7.50729
nes	-7.50732
▁ra	-7.50749
ere	-7.50914
▁sitt	-7.51122
▁sør	-7.51184
▁annet	-7.5119
ck	-7.51883
▁senere	-7.52227
ning	-7.52232
di	-7.53462
▁ny	-7.53682
▁mer	-7.5428
ff	-7.54308
▁disse	-7.55336
▁4	-7.55381
▁di	-7.55808
▁siden	-7.57363
as	-7.57388
▁noen	-7.57883
ste	-7.58393
ba	-7.58868
▁kjent	-7.59418
th	-7.59485
▁he	-7.59556
ger	-7.59756
▁være	-7.61408
▁selv	-7.61618
at	-7.61764
ry	-7.62236
▁15	-7.62622
▁tallet	-7.62652
▁land	-7.62696
ga	-7.63193
▁ro	-7.63932
▁16	-7.64087
▁st	-7.64266
▁ga	-7.64526
▁le	-7.64748
to	-7.65348
▁bo	-7.65543
▁ta	-7.65722
▁in	-7.66432
▁ofte	-7.66444
ng	-7.66486
ler	-7.66696
ka	-7.66824
▁n	-7.68162
sa	-7.68169
stad	-7.68322
ve	-7.68342
ner	-7.6871
▁store	-7.68897
▁vil	-7.69087
▁ba	-7.69197
▁mens	-7.69414
ul	-7.69919
ge	-7.70488
▁hoved	-7.70556
▁vært	-7.71323
▁rundt	-7.71577
▁ni	-7.71759
▁vi	-7.71969
ha	-7.72083
▁10	-7.7219
me	-7.72313
▁li	-7.72344
dal	-7.72936
▁by	-7.73209
▁ol	-7.73508
▁vest	-7.73669
mi	-7.7381
▁sa	-7.7383
ton	-7.73941
si	-7.74433
ce	-7.74623
▁samme	-7.75463
▁slik	-7.75588
▁ned	-7.75818
▁spilt	-7.76073
lige	-7.76138
bo	-7.76477
▁dag	-7.76646
▁norge	-7.77048
▁sine	-7.77051
▁tid	-7.77213
▁navnet	-7.77374
ker	-7.77528
▁mest	-7.7826
▁h	-7.78277
ell	-7.78394
▁sp	-7.78403
blitt	-7.78742
▁frem	-7.7923
▁øst	-7.79267
man	-7.794
it	-7.79807
▁skal	-7.80092
▁l	-7.80095
son	-7.8027
▁na	-7.80537
erne	-7.80672
mann	-7.80911
▁v	-7.81051
▁noe	-7.8284
▁nå	-7.82924
▁både	-7.83013
▁co	-7.8302
mer	-7.83057
ist	-7.83116
ho	-7.83487
▁7	-7.83687
▁du	-7.83788
▁ar	-7.83991
ro	-7.84003
id	-7.84518
ør	-7.84662
▁si	-7.85503
▁per	-7.85529
▁navn	-7.86319
asjon	-7.86921
▁kunne	-7.87108
je	-7.87201
▁norske	-7.87237
▁o	-7.8746
▁12	-7.87883
var	-7.88942
▁6	-7.89015
ad	-7.89676
▁kalt	-7.90287
va	-7.90714
▁går	-7.90736
å	-7.90798
skap	-7.91048
▁ti	-7.91198
mo	-7.91222
▁fri	-7.91308
▁gikk	-7.91343
▁pro	-7.9178
▁fly	-7.92075
gen	-7.9211
▁j	-7.92398
▁skulle	-7.92406
bi	-7.92672
▁km	-7.93042
▁lo	-7.93135
berg	-7.93345
het	-7.93507
by	-7.93523
ja	-7.9371
▁enn	-7.93718
erte	-7.94039
▁fire	-7.94076
ko	-7.94529
om	-7.94632
mp	-7.94883
ster	-7.95207
▁8	-7.95217
▁grunn	-7.95306
▁ham	-7.95425
▁kirke	-7.95661
▁vant	-7.95666
▁mai	-7.96077
▁pi	-7.96151
▁lag	-7.96356
▁nye	-7.96374
else	-7.96643
▁tok	-7.96753
gi	-7.97366
ik	-7.97629
▁fram	-7.97632
▁no	-7.97934
▁finnes	-7.98044
vi	-7.98061
ak	-7.98075
un	-7.98571
▁mars	-7.98618
▁største	-7.98926
ic	-7.99047
▁11	-7.99383
▁hos	-7.99545
▁ri	-7.99572
▁ma	-7.99728
▁kon	-8.00144
▁januar	-8.00441
▁bi	-8.00478
▁ei	-8.01115
▁lang	-8.01206
sjon	-8.01287
▁tilbake	-8.0185
▁far	-8.02233
▁w	-8.02328
▁oslo	-8.02776
▁ka	-8.02844
▁samt	-8.02925
nd	-8.02992
▁so	-8.03168
ment	-8.03174
go	-8.03421
▁mål	-8.03522
▁august	-8.03636
▁fa	-8.03718
▁bli	-8.0397
ol	-8.0401
▁14	-8.04029
ling	-8.04626
▁når	-8.04641
▁ho	-8.04962
▁hele	-8.05139
▁t	-8.05363
▁bare	-8.05473
ll	-8.0552
▁bu	-8.05983
bu	-8.06081
co	-8.06445
ni	-8.07073
▁20	-8.07436
▁bak	-8.07533
▁juli	-8.07671
▁and	-8.07744
▁su	-8.08406
ant	-8.08451
ä	-8.09179
▁0	-8.10034
▁siste	-8.10501
tre	-8.10709
av	-8.10736
æ	-8.1076
▁mo	-8.11022
▁mor	-8.1117
▁gi	-8.11363
▁000	-8.11537
▁mar	-8.11674
am	-8.11771
▁dem	-8.11847
▁gang	-8.11942
▁13	-8.11973
▁juni	-8.12444
▁utgitt	-8.12758
ø	-8.12944
do	-8.13021
▁meter	-8.13058
▁9	-8.13367
opp	-8.13562
lin	-8.13738
tor	-8.14183
gang	-8.14256
ingen	-8.14584
▁vanlig	-8.1478
▁rekke	-8.15264
len	-8.15497
vik	-8.1553
ag	-8.1595
au	-8.16387
▁hu	-8.16464
▁me	-8.16838
▁bestå	-8.16866
▁bar	-8.16873
▁alt	-8.17134
pe	-8.17261
tra	-8.17282
▁sk	-8.17603
▁do	-8.17948
rett	-8.17954
tter	-8.17989
ven	-8.18054
od	-8.1821
ang	-8.18678
▁deres	-8.1893
▁usa	-8.18948
ca	-8.19204
ion	-8.19292
▁innen	-8.19321
▁gu	-8.19695
▁vann	-8.19721
▁få	-8.19903
▁nær	-8.20064
▁as	-8.20143
▁tillegg	-8.20689
▁kina	-8.21069
▁april	-8.21132
no	-8.21469
ok	-8.21491
iv	-8.21513
▁mindre	-8.22003
▁am	-8.22228
▁skole	-8.22505
ks	-8.2257
im	-8.22808
▁tv	-8.22899
elle	-8.22902
tur	-8.23271
▁oktober	-8.23303
▁desember	-8.23743
▁eksempel	-8.23743
▁pa	-8.23783
▁sam	-8.24613
▁2010	-8.24641
▁like	-8.24699
sh	-8.24783
ir	-8.25025
▁2008	-8.25079
▁or	-8.25187
▁november	-8.25299
▁kun	-8.2534
▁februar	-8.25523
▁landet	-8.26186
lag	-8.26465
fa	-8.26473
ed	-8.26748
▁form	-8.26995
▁området	-8.27344
▁el	-8.27874
▁2007	-8.28258
itt	-8.28476
▁fem	-8.28485
sted	-8.28555
▁eks	-8.28573
▁fi	-8.28614
sel	-8.28826
sta	-8.29224
▁ulike	-8.30371
▁høy	-8.30431
lu	-8.30449
▁new	-8.30515
▁lys	-8.30523
▁brukes	-8.30718
▁ko	-8.30727
▁r	-8.30801
▁språk	-8.31019
ard	-8.31263
▁gift	-8.31373
00	-8.31432
over	-8.3151
▁bok	-8.31512
▁laget	-8.31562
▁kultur	-8.3169
lse	-8.31742
▁september	-8.31775
ti	-8.31877
tak	-8.32047
ft	-8.32114
pa	-8.32136
jø	-8.32175
▁først	-8.32269
▁sønn	-8.32319
▁musikk	-8.32459
á	-8.32648
ikk	-8.32657
▁igjen	-8.32738
▁rett	-8.3338
▁po	-8.33477
▁leder	-8.33602
fi	-8.33624
ek	-8.33627
9	-8.33817
▁film	-8.33935
▁opprinnelig	-8.33949
▁ju	-8.33983
pp	-8.34024
ly	-8.34183
ans	-8.34184
▁30	-8.34527
ord	-8.34589
▁videre	-8.34712
gg	-8.34869
▁bruk	-8.35157
midlertid	-8.3518
▁folke	-8.35183
▁tra	-8.35323
ina	-8.35399
▁john	-8.35433
ov	-8.35604
kker	-8.35618
▁liv	-8.35653
▁lu	-8.35676
▁va	-8.36084
år	-8.36412
▁ja	-8.36507
▁sol	-8.36626
▁go	-8.36703
ow	-8.36764
ær	-8.36869
1	-8.36898
gu	-8.37016
▁ne	-8.37048
bel	-8.37181
dag	-8.3734
▁hennes	-8.37463
▁barn	-8.37603
▁kunst	-8.37687
siden	-8.37746
▁helt	-8.37792
ier	-8.37991
▁par	-8.38135
▁ru	-8.38235
▁tor	-8.3836
▁brukt	-8.38383
▁bra	-8.38474
ium	-8.38824
▁små	-8.38873
io	-8.39104
▁mat	-8.39266
per	-8.39292
form	-8.39358
op	-8.39439
mb	-8.39499
ie	-8.39666
5	-8.39721
▁gamle	-8.3973
men	-8.39781
▁uten	-8.39941
ring	-8.40139
▁tro	-8.40236
▁2009	-8.40258
ns	-8.40292
▁ab	-8.40392
tid	-8.4045
po	-8.40989
▁startet	-8.41106
▁fl	-8.41162
▁kommer	-8.41306
ü	-8.42349
▁skrevet	-8.42418
▁pe	-8.42514
▁hel	-8.42814
4	-8.42832
ningen	-8.42915
▁all	-8.42956
▁lov	-8.42993
▁parti	-8.43134
▁årene	-8.43191
▁verdens	-8.43193
▁må	-8.43688
▁medlem	-8.43865
▁egen	-8.44101
bar	-8.44174
2	-8.44428
▁te	-8.44729
▁filmen	-8.44743
les	-8.44831
▁my	-8.44938
ken	-8.44946
▁hver	-8.44952
▁langs	-8.45018
▁2006	-8.45049
▁x	-8.45132
ede	-8.45315
▁jo	-8.45489
▁tri	-8.45558
dan	-8.45652
derfor	-8.458
▁san	-8.4586
bruk	-8.45899
▁ville	-8.4627
tal	-8.46332
ud	-8.46533
▁russisk	-8.46704
ö	-8.4671
▁dr	-8.46813
▁kinesisk	-8.46991
3	-8.47012
▁tysk	-8.4702
▁tiden	-8.47105
▁begynte	-8.47125
▁større	-8.47354
ller	-8.47396
▁spiller	-8.47456
▁wa	-8.47518
▁bandet	-8.47714
▁2005	-8.4782
til	-8.48094
ru	-8.48222
▁mi	-8.48229
▁deretter	-8.48391
▁døde	-8.48437
▁ge	-8.4896
ble	-8.49119
▁kong	-8.49296
slag	-8.49435
▁ad	-8.49528
hu	-8.49562
sp	-8.49619
▁svær	-8.49637
følge	-8.49741
▁politisk	-8.49878
ian	-8.49939
inn	-8.50079
▁samtidig	-8.50366
▁lå	-8.50459
ci	-8.50528
▁president	-8.5054
▁året	-8.50612
ber	-8.50672
▁norges	-8.50673
▁y	-8.50844
▁2011	-8.50951
ering	-8.50968
▁dermed	-8.50977
tiv	-8.51096
▁ki	-8.51162
▁hus	-8.51199
▁gir	-8.51301
▁gruppen	-8.5131
▁gjorde	-8.51567
▁vel	-8.51698
▁sch	-8.51827
▁lever	-8.51849
▁provinsen	-8.51966
▁vei	-8.52145
satt	-8.52167
inger	-8.52237
let	-8.52263
hus	-8.5244
ny	-8.52447
▁deltok	-8.52469
▁ski	-8.52646
▁sommer	-8.52667
▁pre	-8.52812
▁begge	-8.52995
▁nasjonal	-8.53093
▁em	-8.53094
ot	-8.53421
sse	-8.53541
▁beste	-8.5355
ius	-8.53579
▁fast	-8.53586
sett	-8.5394
▁con	-8.54011
▁tyske	-8.54267
▁ku	-8.54697
▁25	-8.54723
tiske	-8.54802
▁ste	-8.54916
í	-8.55047
▁særlig	-8.55109
ige	-8.55124
if	-8.55126
▁amerikansk	-8.55352
del	-8.55441
▁fleste	-8.55465
ac	-8.55951
▁kal	-8.55999
▁mye	-8.56026
ug	-8.56052
▁bru	-8.56084
▁syn	-8.56288
som	-8.56398
▁plass	-8.56573
▁kn	-8.56616
▁bl	-8.56651
▁ch	-8.56919
▁kalles	-8.56931
▁hi	-8.56937
vin	-8.5699
▁nor	-8.57155
ting	-8.57364
sten	-8.57436
gel	-8.57474
▁gull	-8.57847
ab	-8.57971
▁gjen	-8.58079
▁innbyggere	-8.58143
hold	-8.58371
stein	-8.58463
▁tidlig	-8.58671
ings	-8.58797
tten	-8.58967
▁sverige	-8.59081
isme	-8.59129
sto	-8.5915
mor	-8.59276
burg	-8.59395
▁gud	-8.59424
rik	-8.59595
ou	-8.597
▁skrev	-8.60039
▁pu	-8.60069
▁engelsk	-8.6018
tisk	-8.60207
ley	-8.60732
▁stein	-8.60742
▁wi	-8.60861
stand	-8.61286
sch	-8.61372
vo	-8.61654
itet	-8.61853
hi	-8.61923
▁kort	-8.61956
fjorden	-8.621
ong	-8.62193
▁etablert	-8.6227
ighet	-8.62311
min	-8.62443
▁arbeidet	-8.625
lær	-8.62597
▁2004	-8.62607
▁z	-8.62715
za	-8.62789
▁ur	-8.62905
▁side	-8.62957
▁fjell	-8.62964
▁sc	-8.63006
▁albumet	-8.63399
fe	-8.63416
art	-8.63702
▁kjente	-8.63838
nder	-8.63916
▁sjø	-8.64102
▁ingen	-8.64108
▁måtte	-8.64239
val	-8.64414
▁forskjellige	-8.64727
▁seks	-8.64767
ku	-8.64955
▁21	-8.64987
▁innenfor	-8.64994
▁car	-8.65107
▁person	-8.65118
▁bergen	-8.6527
▁val	-8.65445
kel	-8.65487
ris	-8.65649
bb	-8.65828
▁olympisk	-8.65901
▁europa	-8.65909
mar	-8.65959
▁gjern	-8.65989
em	-8.66126
▁roman	-8.66249
rø	-8.66283
lands	-8.66516
▁sted	-8.66814
▁2000	-8.66923
verk	-8.66976
yl	-8.6711
▁dagen	-8.6718
▁24	-8.67204
▁halv	-8.67209
skole	-8.6731
elsen	-8.67525
sjoner	-8.67723
▁perioden	-8.67844
▁bygget	-8.68027
▁tar	-8.68043
ya	-8.68121
▁amerikanske	-8.6815
ill	-8.68233
ron	-8.68367
▁midt	-8.68646
elig	-8.6882
▁lokal	-8.69
par	-8.69077
▁100	-8.69143
▁ganger	-8.693
▁annen	-8.69303
▁2002	-8.69333
dy	-8.69372
ki	-8.69425
dalen	-8.6943
jer	-8.6953
ska	-8.69547
▁gresk	-8.69763
▁bro	-8.69843
▁sand	-8.70247
▁on	-8.7028
▁mann	-8.70308
▁ren	-8.70496
▁god	-8.70623
▁hvert	-8.70696
▁sett	-8.70718
tan	-8.70812
und	-8.70877
pen	-8.70884
▁natur	-8.70915
▁fotball	-8.70943
▁tyskland	-8.70972
ty	-8.71443
ret	-8.71489
▁ben	-8.71559
▁jord	-8.71604
▁radio	-8.71668
mm	-8.71984
▁forfatter	-8.72315
▁19	-8.72377
mål	-8.72468
▁styre	-8.72487
kon	-8.7254
sti	-8.72678
dyr	-8.72897
▁fu	-8.72906
tok	-8.72924
▁farge	-8.72926
▁sv	-8.73014
▁sto	-8.73206
cu	-8.73374
▁øya	-8.73527
tiden	-8.7353
▁gammel	-8.73594
▁gitt	-8.73651
▁bor	-8.74083
▁selskapet	-8.74162
▁general	-8.74316
▁satt	-8.74357
pi	-8.74457
▁tredje	-8.74611
ld	-8.74671
▁sangen	-8.74795
▁kommunen	-8.74885
▁mag	-8.74928
▁mel	-8.75013
lot	-8.75073
tu	-8.75129
ket	-8.75164
så	-8.75288
▁grad	-8.75425
▁bre	-8.75504
ham	-8.75689
port	-8.75752
▁ver	-8.75905
▁fag	-8.76107
dd	-8.76182
ation	-8.76189
▁utenfor	-8.76249
mel	-8.76401
▁hal	-8.76425
▁os	-8.76617
▁serien	-8.76736
▁lange	-8.7695
bre	-8.76974
bok	-8.77155
▁står	-8.77223
▁fe	-8.77267
▁forhold	-8.77281
▁fred	-8.77353
tz	-8.77383
▁basert	-8.7744
▁bety	-8.7752
ninger	-8.77564
▁støtte	-8.77738
gre	-8.77751
▁berg	-8.78173
mmer	-8.78207
far	-8.78315
ine	-8.78638
▁ledet	-8.7876
▁arbeider	-8.78829
50	-8.7892
▁svensk	-8.79175
▁spesielt	-8.79182
▁orden	-8.7924
fly	-8.79495
han	-8.79592
▁industri	-8.7961
▁bort	-8.79664
ator	-8.79827
▁nytt	-8.79847
ó	-8.79887
▁liten	-8.79943
▁omkring	-8.79954
▁pr	-8.79976
tar	-8.80159
▁ser	-8.80285
▁22	-8.80333
▁com	-8.80345
▁via	-8.80437
▁mil	-8.80516
▁stil	-8.80572
▁ord	-8.80577
yd	-8.80578
lå	-8.80728
▁frankrike	-8.80735
uk	-8.80813
dre	-8.80862
▁gal	-8.80872
▁utviklet	-8.81056
▁2001	-8.8121
rat	-8.81483
▁hav	-8.81524
▁kor	-8.81556
▁mal	-8.8158
▁danne	-8.81891
▁deler	-8.81923
▁tekst	-8.82136
▁rolle	-8.82251
▁mulig	-8.82256
▁kar	-8.82259
▁min	-8.82711
lik	-8.82714
▁england	-8.82718
▁klubben	-8.82858
▁konge	-8.8288
▁slutt	-8.83017
råd	-8.83105
▁plan	-8.83139
▁historie	-8.83189
tegn	-8.83328
bil	-8.83357
lan	-8.83575
øya	-8.83582
▁rom	-8.83652
▁rock	-8.83654
kom	-8.83686
lsen	-8.83691
ran	-8.83773
før	-8.8396
▁fransk	-8.83985
▁bil	-8.84081
▁28	-8.84098
▁krigen	-8.84291
▁cha	-8.84367
wa	-8.84512
▁dikt	-8.84584
▁op	-8.84768
ju	-8.8484
▁hen	-8.84862
▁gul	-8.84871
isering	-8.84878
met	-8.84906
▁motor	-8.84936
▁ed	-8.84974
▁familien	-8.85004
▁fordi	-8.85005
du	-8.85086
▁allerede	-8.85118
▁26	-8.85123
og	-8.85165
▁verk	-8.85188
mon	-8.85251
▁stra	-8.85398
fjord	-8.85724
▁karl	-8.85788
ding	-8.85854
ica	-8.85886
ving	-8.86049
▁gruppe	-8.8607
arbeid	-8.86232
▁23	-8.8632
▁th	-8.86336
▁viktig	-8.86369
▁mennesker	-8.86432
▁ak	-8.86552
▁au	-8.8661
▁datter	-8.86653
▁godt	-8.86708
▁london	-8.87171
▁antall	-8.87228
▁stat	-8.87304
▁forbindelse	-8.87384
▁vise	-8.87459
ide	-8.87587
▁betydning	-8.87588
▁kur	-8.87613
▁øy	-8.87737
ologi	-8.87902
dig	-8.87958
skje	-8.88391
▁tal	-8.88496
▁millioner	-8.887
borg	-8.88719
▁sentral	-8.88735
▁barne	-8.88826
▁sn	-8.88848
▁stedet	-8.88927
▁sesongen	-8.88951
fra	-8.89093
▁1999	-8.89277
▁ob	-8.89302
isere	-8.89336
▁bred	-8.89405
▁sta	-8.89459
▁eneste	-8.89479
▁paul	-8.89545
▁lite	-8.89588
akt	-8.89621
fall	-8.89783
▁hatt	-8.89797
▁vin	-8.89888
pper	-8.89917
▁egne	-8.9008
а	-8.90106
▁arbeid	-8.90143
▁gav	-8.90321
▁tatt	-8.90335
▁tur	-8.90506
▁2003	-8.90568
▁lands	-8.90615
▁brun	-8.90622
▁grav	-8.90628
▁gra	-8.90725
ip	-8.90821
forening	-8.90904
▁moderne	-8.90922
▁kirken	-8.91123
ika	-8.91137
▁langt	-8.91558
qu	-8.91624
▁pan	-8.91759
▁lav	-8.9176
jo	-8.91833
▁såkalt	-8.91852
lat	-8.91854
▁je	-8.91854
▁skuespiller	-8.9194
▁hol	-8.92109
spiller	-8.92155
▁litt	-8.92222
▁ten	-8.92229
legg	-8.92255
iet	-8.92274
▁1980	-8.92297
▁versjon	-8.92299
▁q	-8.92462
valg	-8.92627
▁christian	-8.92663
elt	-8.92682
▁nesten	-8.92684
pol	-8.92726
selskap	-8.92776
▁red	-8.92908
▁band	-8.93015
▁sen	-8.9303
▁viser	-8.93079
spill	-8.93118
▁inneholde	-8.93176
▁we	-8.93207
ys	-8.93216
ister	-8.93328
6	-8.93412
▁bruker	-8.93526
▁prest	-8.93568
▁27	-8.93608
▁lett	-8.93647
▁rød	-8.93802
▁nok	-8.93991
▁delstaten	-8.9406
merke	-8.94137
▁enkelte	-8.94207
værende	-8.94301
▁skolen	-8.94343
medalje	-8.94796
▁åtte	-8.9486
▁50	-8.94943
▁opprettet	-8.95054
▁jeg	-8.95162
▁fiske	-8.95198
▁stats	-8.95215
▁holdt	-8.95347
sson	-8.95382
▁1990	-8.95408
mester	-8.95434
▁omfatter	-8.95517
▁jernbane	-8.95545
yn	-8.95592
▁møte	-8.95616
su	-8.9567
▁mont	-8.95691
▁anti	-8.95695
▁får	-8.95753
van	-8.95807
▁medlemmer	-8.95812
gh	-8.95892
▁én	-8.95916
▁mu	-8.95985
▁elven	-8.96014
leder	-8.96155
tatt	-8.96423
kan	-8.96548
▁sosial	-8.96665
ung	-8.96681
▁gre	-8.97096
mark	-8.97158
▁william	-8.97223
▁ty	-8.97267
▁full	-8.97278
▁serie	-8.97364
▁von	-8.97405
▁delen	-8.97452
▁følgende	-8.97465
▁29	-8.97663
ski	-8.97762
log	-8.97789
▁krigs	-8.97836
▁40	-8.97906
bro	-8.97915
løp	-8.9802
▁sal	-8.9803
▁lin	-8.98398
kar	-8.98635
▁sø	-8.98646
▁slag	-8.98786
dom	-8.9893
▁kv	-8.98945
▁arter	-8.99102
▁luft	-8.99129
laget	-8.99325
che	-8.99347
▁organ	-8.99447
▁kons	-8.99514
▁flyttet	-8.99521
▁vinter	-8.99681
rom	-8.99862
▁verden	-8.9992
▁arm	-8.9995
▁jan	-9.00068
▁franske	-9.00188
heten	-9.00255
ach	-9.00312
▁politiker	-9.00564
vel	-9.00722
▁lyd	-9.00897
vær	-9.00939
▁kontroll	-9.00982
▁fo	-9.01036
▁bri	-9.01075
▁reise	-9.01091
▁van	-9.01126
▁31	-9.01218
▁familie	-9.01409
▁energi	-9.0151
▁ø	-9.01598
▁helse	-9.01602
▁blå	-9.01644
▁peter	-9.0176
▁staten	-9.01917
ight	-9.01984
▁riks	-9.02086
▁kraft	-9.02225
▁tilhører	-9.02336
lle	-9.02397
▁verdenskrig	-9.02482
ale	-9.02586
▁data	-9.02617
▁britiske	-9.02897
▁russland	-9.02901
7	-9.02967
▁best	-9.03158
sjøen	-9.03178
kul	-9.03238
▁minst	-9.0324
res	-9.03241
▁italiensk	-9.03386
▁pinyin	-9.03386
▁fre	-9.0347
▁produsert	-9.0355
heim	-9.03551
idae	-9.03567
gård	-9.03574
▁valg	-9.03586
▁mac	-9.03603
mat	-9.03703
asjonen	-9.03868
▁sak	-9.03936
▁aktiv	-9.03937
▁fortsatt	-9.04097
▁album	-9.04136
▁mari	-9.04333
bru	-9.04377
▁militær	-9.04494
system	-9.0465
▁personer	-9.04664
sund	-9.0467
▁post	-9.04699
ana	-9.04741
isert	-9.04834
mal	-9.04842
▁knytte	-9.04865
setning	-9.04925
▁eu	-9.04933
▁ke	-9.04938
skip	-9.04945
tsj	-9.04972
▁gjør	-9.05199
ive	-9.05204
▁inkludert	-9.05361
▁bygge	-9.05429
▁felles	-9.05526
evne	-9.05569
sj	-9.05599
▁system	-9.05644
▁minne	-9.05736
q	-9.05844
▁kl	-9.0585
и	-9.05858
▁nett	-9.05863
▁viktigst	-9.05895
stilt	-9.05922
kor	-9.05968
ey	-9.06143
▁col	-9.06278
▁spille	-9.0643
▁hjem	-9.06634
vet	-9.06755
▁plate	-9.06833
▁stort	-9.06943
▁partiet	-9.06994
▁sig	-9.07053
▁chi	-9.07136
est	-9.07183
lene	-9.07193
8	-9.07272
▁park	-9.07332
▁dy	-9.07366
ð	-9.07376
▁solgt	-9.07396
▁tru	-9.07536
▁spe	-9.07601
▁mus	-9.0764
bra	-9.07656
▁angrep	-9.07745
▁ter	-9.07786
ari	-9.07867
▁tittelen	-9.07909
▁gjort	-9.07921
red	-9.07944
▁fylke	-9.08012
ich	-9.08037
▁fant	-9.08048
zi	-9.08134
fer	-9.08157
▁tu	-9.08251
▁pal	-9.08261
ppe	-9.08262
▁mis	-9.08276
▁økonomisk	-9.08298
▁bygd	-9.08329
▁york	-9.08401
▁borger	-9.08459
vil	-9.08551
▁sj	-9.08694
▁sentrum	-9.0873
▁høyre	-9.08909
▁representert	-9.08915
▁utnevnt	-9.08915
▁gro	-9.08953
▁ev	-9.09166
stilling	-9.09207
▁nu	-9.09263
▁spor	-9.09288
mu	-9.09318
▁bur	-9.09331
veien	-9.09429
▁betydelig	-9.09435
ferd	-9.09478
landet	-9.0952
▁para	-9.09525
▁handels	-9.09575
▁skog	-9.09785
▁hjemme	-9.09818
▁syd	-9.09969
▁ry	-9.10129
banen	-9.10261
gra	-9.10261
▁enkelt	-9.10339
vei	-9.10374
▁danske	-9.1041
▁funnet	-9.10472
plass	-9.10548
▁hjelp	-9.10567
▁måte	-9.10702
don	-9.1072
▁slutten	-9.10761
hl	-9.10781
▁makt	-9.10818
▁stjerne	-9.10822
▁omtrent	-9.11004
▁venstre	-9.11004
▁vol	-9.11324
▁mm	-9.11445
ald	-9.11528
▁veien	-9.11536
▁hovedsakelig	-9.1154
lø	-9.11592
▁gen	-9.116
all	-9.1165
ph	-9.11662
liggende	-9.1168
▁bror	-9.11684
gar	-9.11689
▁elva	-9.11717
▁sang	-9.11803
▁keiser	-9.11901
chi	-9.11915
▁fall	-9.11936
▁henne	-9.11936
▁resultat	-9.12065
▁berlin	-9.12268
▁ag	-9.12319
▁gran	-9.12403
up	-9.12408
ds	-9.12587
▁fylkesvei	-9.12613
lie	-9.12619
▁dannet	-9.12649
▁folk	-9.12664
grad	-9.12678
▁motstand	-9.12799
stra	-9.12951
løs	-9.13004
▁arbeids	-9.13099
▁kamp	-9.13145
▁politi	-9.13264
▁liste	-9.13358
sak	-9.13436
vann	-9.13545
▁grunnlagt	-9.13562
and	-9.13566
▁2013	-9.1369
vern	-9.13735
stående	-9.13854
tek	-9.13877
stykke	-9.13947
▁nest	-9.13991
▁foran	-9.14041
▁moh	-9.14212
▁1998	-9.14228
▁hy	-9.14234
selskapet	-9.14248
▁åpnet	-9.14562
▁pl	-9.14688
▁eid	-9.14718
▁mester	-9.14831
▁carl	-9.14983
▁regjeringen	-9.14994
tel	-9.15039
bygd	-9.15043
gitt	-9.15051
▁inntil	-9.15062
▁sy	-9.15113
▁pris	-9.15122
▁dessuten	-9.15317
familien	-9.1534
▁historisk	-9.15361
▁robert	-9.1538
age	-9.15422
▁internasjonale	-9.15561
▁overtok	-9.1557
ath	-9.156
ater	-9.15621
▁start	-9.15643
søk	-9.15674
▁paris	-9.15676
▁venn	-9.15701
brudd	-9.15729
cy	-9.15737
▁tap	-9.1581
▁slekt	-9.15858
kant	-9.15987
▁universitetet	-9.15989
▁miljø	-9.15999
film	-9.16178
gan	-9.16235
▁løpet	-9.16278
ære	-9.16353
oc	-9.16356
▁samarbeid	-9.16409
▁1960	-9.16439
▁kongen	-9.16452
skog	-9.16458
▁rø	-9.16798
bane	-9.16829
▁1989	-9.16991
istiske	-9.17051
▁fått	-9.17051
▁lik	-9.17067
▁blad	-9.17339
navn	-9.17476
▁tildelt	-9.17546
▁1970	-9.17554
kle	-9.17591
istisk	-9.17645
▁bedre	-9.17719
▁skade	-9.17723
▁mark	-9.17733
king	-9.17868
▁fortsatte	-9.17882
▁dyr	-9.17901
▁dansk	-9.17987
▁lokale	-9.1805
▁johan	-9.18055
heng	-9.18063
▁2012	-9.18126
▁høyeste	-9.1813
▁teater	-9.18181
▁ap	-9.18347
my	-9.18358
nings	-9.18506
▁eldste	-9.18679
▁danmark	-9.18692
bin	-9.18871
▁topp	-9.18917
xi	-9.18932
▁meget	-9.19174
pris	-9.19181
е	-9.19244
▁italia	-9.1926
▁hvit	-9.19389
▁lei	-9.1946
▁områder	-9.19614
▁stemme	-9.19676
zo	-9.19715
▁hø	-9.19726
▁air	-9.19808
▁drept	-9.19825
▁1996	-9.19831
▁ferdig	-9.1985
året	-9.19906
▁forsøk	-9.19946
▁hånd	-9.19975
enes	-9.19984
tion	-9.20078
▁dager	-9.20087
▁ført	-9.20128
liv	-9.20249
▁university	-9.20405
▁lagt	-9.20434
hr	-9.20438
▁olje	-9.20474
rus	-9.20505
▁pat	-9.20523
▁krig	-9.20575
▁slo	-9.20593
ien	-9.20595
he	-9.20607
mot	-9.20615
▁svenske	-9.20625
▁interesse	-9.20737
ah	-9.20751
▁tak	-9.208
ves	-9.20885
▁art	-9.20944
▁kilometer	-9.20984
▁1997	-9.20991
▁studert	-9.20993
▁universitet	-9.21066
lit	-9.21094
ör	-9.21109
▁svarte	-9.21301
▁utgjør	-9.21408
båt	-9.21485
▁1992	-9.21576
▁tom	-9.21589
▁erstatte	-9.21609
▁mod	-9.21733
stan	-9.21982
▁boken	-9.21995
dde	-9.22046
leg	-9.22065
▁1995	-9.22166
▁ji	-9.22224
▁180	-9.22238
kamp	-9.22248
▁ganske	-9.22256
▁natt	-9.22283
stat	-9.22299
området	-9.22336
▁menneske	-9.224
▁bill	-9.22444
▁kvinne	-9.22456
▁len	-9.22467
lis	-9.22499
ford	-9.22577
styre	-9.22586
▁ettersom	-9.22617
▁bjørn	-9.22618
ino	-9.22671
▁ber	-9.22823
loven	-9.22926
▁bør	-9.22963
tro	-9.22981
▁gå	-9.23016
▁lege	-9.23086
fri	-9.23205
ps	-9.2332
▁herre	-9.23333
eget	-9.2334
▁thomas	-9.23344
rå	-9.2346
samling	-9.23646
▁flo	-9.23929
▁ordet	-9.23935
▁storbritannia	-9.23943
▁direkte	-9.23943
▁1994	-9.2395
▁ul	-9.24045
▁indre	-9.24065
ved	-9.24102
▁pave	-9.24179
▁regnes	-9.24243
10	-9.24316
▁les	-9.24408
▁holde	-9.2445
rid	-9.24462
tes	-9.24476
▁trondheim	-9.2455
▁utvikling	-9.24832
▁regi	-9.24964
produksjon	-9.24973
▁ex	-9.25037
о	-9.25146
▁1991	-9.25162
▁bank	-9.25254
kast	-9.25284
bø	-9.25284
ola	-9.25309
▁don	-9.25462
ay	-9.25548
▁200	-9.25716
▁valgt	-9.25754
▁aldri	-9.25768
▁funksjon	-9.25779
▁romersk	-9.25794
▁delt	-9.26009
▁slått	-9.26076
kla	-9.26102
▁biskop	-9.26168
øl	-9.26214
lett	-9.26237
departementet	-9.26353
▁følge	-9.26362
▁1993	-9.26385
▁eier	-9.26402
▁kle	-9.26543
▁museum	-9.26558
asj	-9.26584
▁periode	-9.26588
vinne	-9.2665
▁gjøre	-9.26667
▁vm	-9.26667
▁kat	-9.26685
que	-9.26686
▁ett	-9.26736
▁ci	-9.26775
▁fil	-9.26781
▁neste	-9.26843
▁gård	-9.26845
▁seil	-9.26886
▁sterkt	-9.26907
forbund	-9.26933
▁stasjon	-9.26942
▁trans	-9.26987
▁sølv	-9.26991
▁1988	-9.26999
▁gjeld	-9.27014
ji	-9.27075
▁kla	-9.27094
▁fremst	-9.27359
▁skjer	-9.27411
▁tjeneste	-9.27412
▁likevel	-9.27451
eri	-9.27455
▁maria	-9.27457
ita	-9.27579
senter	-9.27726
▁samle	-9.27867
sky	-9.27878
eres	-9.2794
tall	-9.27956
bær	-9.27996
▁ska	-9.28041
▁regionen	-9.28063
anske	-9.28103
▁mos	-9.28153
▁1985	-9.2825
jen	-9.28279
bygg	-9.28323
▁lille	-9.28351
▁vekt	-9.28359
dø	-9.28594
▁linje	-9.28602
▁dan	-9.28656
ze	-9.28706
▁fin	-9.28829
▁cor	-9.28897
▁super	-9.28938
full	-9.28947
▁sh	-9.29033
▁nordlig	-9.29183
▁hvis	-9.29191
▁gate	-9.29317
atet	-9.29353
ismen	-9.29413
kning	-9.29429
▁standard	-9.29518
▁legge	-9.29544
folkerepublikken	-9.29597
skjell	-9.2974
ama	-9.29759
▁rus	-9.29805
▁mc	-9.29966
▁br	-9.29968
▁mon	-9.2999
▁kvinner	-9.30015
▁dis	-9.30056
▁mur	-9.30088
▁oppkalt	-9.30137
är	-9.30191
▁plante	-9.3021
gruppen	-9.30211
▁våpen	-9.30232
ice	-9.30312
60	-9.30366
▁benyttet	-9.30508
▁afrika	-9.30625
▁sub	-9.30662
▁ac	-9.30668
bert	-9.30695
sjonen	-9.30778
▁sir	-9.30845
stru	-9.30893
mmen	-9.30906
ym	-9.30999
trykk	-9.31133
▁fange	-9.31172
▁xi	-9.31297
▁rev	-9.31309
net	-9.31316
kin	-9.31365
р	-9.31409
middel	-9.31423
navnet	-9.3152
byen	-9.31602
▁verdi	-9.31771
▁steder	-9.31833
itz	-9.31928
syn	-9.31936
▁skrive	-9.32066
▁møtte	-9.32078
▁opprør	-9.32085
sco	-9.32097
skapet	-9.32218
▁type	-9.32249
fon	-9.32262
▁sag	-9.32275
▁grå	-9.32349
▁svart	-9.32356
iner	-9.32358
▁sanger	-9.32367
▁lærer	-9.32429
▁sha	-9.32501
▁høyere	-9.32503
20	-9.3253
lighet	-9.32539
▁ledelse	-9.32566
▁ære	-9.32587
kje	-9.32656
organisasjon	-9.32668
▁george	-9.32694
▁trykk	-9.32703
▁vanskelig	-9.32729
▁sky	-9.32759
▁rot	-9.32788
▁klar	-9.32917
krigen	-9.3302
▁slaget	-9.33096
områder	-9.33108
område	-9.33109
musikk	-9.33183
▁opera	-9.33193
ini	-9.33292
▁jern	-9.33355
н	-9.3337
▁bal	-9.33443
mas	-9.33475
fisk	-9.33659
▁nummer	-9.33705
▁europeisk	-9.33758
iz	-9.33774
ål	-9.33775
det	-9.33896
▁konsert	-9.33966
skrift	-9.34022
▁egentlig	-9.34071
▁lengde	-9.34077
▁kul	-9.34117
▁gri	-9.34126
▁jens	-9.34186
▁kunstner	-9.34284
vid	-9.34307
▁regjering	-9.34384
rud	-9.344
▁kyst	-9.344
30	-9.34466
we	-9.34483
▁reist	-9.34499
handling	-9.34564
▁kron	-9.347
▁amerika	-9.34706
▁brasil	-9.3472
▁poeng	-9.34725
▁tilsvarende	-9.34739
40	-9.34836
pro	-9.34844
▁david	-9.34871
ida	-9.34895
gne	-9.34959
▁grev	-9.35083
▁gar	-9.35086
▁regn	-9.35347
▁1984	-9.35396
ap	-9.35487
voks	-9.35506
▁trekk	-9.35562
▁professor	-9.35569
▁arkitekt	-9.35618
▁menn	-9.35857
▁avdeling	-9.35894
førte	-9.36034
stil	-9.36042
rike	-9.36059
▁skrift	-9.36079
65	-9.36092
anlegg	-9.36183
▁olav	-9.36238
▁70	-9.36287
▁studie	-9.36449
▁område	-9.36478
organ	-9.36501
▁årlig	-9.36608
▁tradisjon	-9.36705
▁west	-9.36717
way	-9.36746
▁1945	-9.3675
▁skip	-9.36762
drive	-9.36841
sjef	-9.36851
▁tha	-9.36903
▁ring	-9.37053
▁ungdoms	-9.37127
▁finsk	-9.37189
ani	-9.37248
▁råd	-9.37313
▁cm	-9.37315
▁offentlig	-9.37366
els	-9.37409
▁offisiell	-9.37425
▁gje	-9.37473
▁tett	-9.37502
▁can	-9.37582
▁kampen	-9.37636
▁japan	-9.37723
lev	-9.37737
stu	-9.37765
retning	-9.37833
ekte	-9.37871
▁inter	-9.37951
felt	-9.37979
▁hår	-9.38019
ú	-9.38114
▁høsten	-9.3814
pon	-9.38203
kken	-9.38209
▁tele	-9.38232
▁bø	-9.38239
▁bon	-9.38302
▁finne	-9.38387
ix	-9.384
gikk	-9.38464
iti	-9.38484
▁vo	-9.38508
åpning	-9.3857
▁befolkningen	-9.38617
▁dra	-9.3866
▁divisjon	-9.38688
▁litteratur	-9.38702
▁fyr	-9.38721
▁dyp	-9.38751
▁suksess	-9.38809
▁kroppen	-9.38814
rin	-9.38855
cc	-9.38914
▁kraftverk	-9.38954
▁henrik	-9.38959
grens	-9.38968
▁åpen	-9.39109
▁viss	-9.39147
ara	-9.39242
pet	-9.39287
▁strøm	-9.39291
tus	-9.39312
▁af	-9.39314
dring	-9.39365
▁års	-9.3941
lia	-9.39471
▁brukte	-9.39494
▁hor	-9.39499
▁1974	-9.39521
▁1986	-9.39523
▁sommerfugl	-9.39524
våg	-9.39595
har	-9.3963
▁britisk	-9.39684
▁tall	-9.39702
▁seier	-9.39884
▁bruke	-9.4013
▁2015	-9.40231
▁eldre	-9.40262
mannen	-9.40276
▁shi	-9.40384
▁za	-9.40464
spiss	-9.4051
▁los	-9.4052
▁mid	-9.40542
▁skje	-9.4067
▁modell	-9.40764
▁india	-9.40861
stro	-9.40882
messig	-9.40918
▁københavn	-9.40922
▁wo	-9.40964
▁sentrale	-9.41024
cia	-9.41066
▁syk	-9.41069
▁christ	-9.41196
▁hva	-9.41351
▁sm	-9.41386
▁roma	-9.41403
▁georg	-9.4149
▁lars	-9.41504
tør	-9.41538
▁thor	-9.41538
▁samling	-9.41544
punkt	-9.41597
▁stavanger	-9.41642
▁1981	-9.41648
▁figur	-9.41702
wi	-9.41798
parti	-9.41871
▁syv	-9.41884
dra	-9.41893
løse	-9.42017
▁øke	-9.42135
66	-9.42179
erings	-9.42186
bor	-9.42295
▁karriere	-9.42386
▁kjenne	-9.42387
▁sivil	-9.42393
▁punkt	-9.425
▁representant	-9.42783
▁viktige	-9.42994
▁ly	-9.43002
▁kors	-9.43062
▁stockholm	-9.4308
▁dronning	-9.43084
▁1979	-9.43088
▁1982	-9.4309
▁martin	-9.431
▁blod	-9.43185
ros	-9.43199
▁stilling	-9.4324
type	-9.43255
▁erik	-9.43295
▁organisasjon	-9.43333
menn	-9.4337
▁finland	-9.43384
▁hall	-9.43508
havet	-9.43517
plan	-9.43597
minister	-9.43604
▁miste	-9.43619
▁militære	-9.43624
▁finner	-9.43789
dia	-9.43793
▁tung	-9.43821
▁raskt	-9.43834
▁symbol	-9.43837
▁bad	-9.43861
▁stadig	-9.43942
▁nordøst	-9.43949
of	-9.43982
gje	-9.44024
ial	-9.44051
▁80	-9.44079
lund	-9.44179
▁nrk	-9.44207
▁komme	-9.44248
elser	-9.44488
▁program	-9.44493
л	-9.44545
▁århundre	-9.44546
▁1987	-9.44557
▁statsminister	-9.44559
▁ii	-9.4456
▁1940	-9.44563
old	-9.44575
▁1950	-9.44577
alder	-9.44708
lling	-9.44733
▁gru	-9.44766
▁wh	-9.4479
▁johannes	-9.44802
drag	-9.44814
▁gården	-9.44864
▁1800	-9.44882
disk	-9.45117
▁slekten	-9.45281
▁relativ	-9.45286
ringer	-9.45296
▁ang	-9.45341
▁totalt	-9.45374
▁flat	-9.45401
bygging	-9.45445
dt	-9.4545
▁kol	-9.45523
36	-9.45553
▁klasse	-9.45723
▁dro	-9.45767
▁tross	-9.4582
▁kull	-9.45846
huset	-9.45899
▁produsere	-9.46032
▁sikre	-9.46052
▁båt	-9.46062
styrt	-9.46149
▁valgte	-9.46174
42	-9.46182
▁phil	-9.46252
leng	-9.46274
nivå	-9.46307
▁høyde	-9.46396
kro	-9.46418
anger	-9.46494
sal	-9.46568
ther	-9.46583
64	-9.46585
ula	-9.46639
▁satte	-9.46718
hø	-9.46765
▁hverandre	-9.46784
▁fjerde	-9.46784
▁dårlig	-9.46785
▁prosent	-9.46793
▁2014	-9.46796
▁1978	-9.46799
▁1930	-9.46803
▁hopp	-9.46834
▁fjorden	-9.46918
▁effekt	-9.46922
▁nådd	-9.46984
▁region	-9.47003
▁krav	-9.47098
▁500	-9.47133
akademi	-9.47249
skudd	-9.47304
▁kraftig	-9.47306
nik	-9.47367
46	-9.47402
hn	-9.47476
▁sommeren	-9.47552
▁1968	-9.47556
▁kloster	-9.47573
fag	-9.47595
gul	-9.47622
hund	-9.47638
▁stu	-9.47651
well	-9.47655
samisk	-9.47853
kraftverk	-9.47857
▁selskap	-9.47961
▁grønn	-9.47965
haug	-9.48001
▁følger	-9.48175
tjeneste	-9.48202
inne	-9.48217
koll	-9.48303
▁sannsynlig	-9.48305
▁informasjon	-9.48305
▁folketelling	-9.48305
▁1973	-9.48314
▁spesial	-9.48325
▁2016	-9.48326
▁island	-9.48358
86	-9.48388
▁sammenheng	-9.48419
rio	-9.48431
spor	-9.48539
▁varme	-9.4854
▁sogn	-9.48545
▁vår	-9.48558
▁krist	-9.48561
▁egg	-9.48586
ons	-9.48711
▁you	-9.48727
side	-9.48762
▁stø	-9.48797
▁samlet	-9.48861
▁grense	-9.48937
▁gass	-9.48991
our	-9.49049
▁elv	-9.49086
af	-9.49102
▁derimo	-9.49131
▁city	-9.49157
ire	-9.49222
▁høye	-9.49262
▁uttrykk	-9.49359
▁resten	-9.49374
lv	-9.49389
▁frank	-9.49394
▁smal	-9.49455
▁eiendom	-9.49553
▁øye	-9.49572
▁karakter	-9.49613
ledes	-9.49645
heter	-9.49726
kap	-9.49767
è	-9.49807
▁pol	-9.49826
▁arrangert	-9.49849
▁oppført	-9.49859
▁1948	-9.49864
bladet	-9.49875
gangen	-9.49947
▁stod	-9.49967
trekk	-9.4997
ille	-9.49974
partiet	-9.49992
bilde	-9.50121
▁wil	-9.50141
▁60	-9.50152
▁beskrive	-9.50176
mper	-9.5019
37	-9.50233
▁flagg	-9.50258
án	-9.50312
ple	-9.50337
reng	-9.50364
rene	-9.50364
gruppe	-9.50385
hel	-9.50399
▁gode	-9.50444
elva	-9.50447
▁tradisjonell	-9.50471
▁delta	-9.50628
▁voksne	-9.50638
▁begynnelsen	-9.50639
▁1969	-9.50643
▁1967	-9.50647
▁variant	-9.50701
▁koloni	-9.50758
▁løp	-9.50773
39	-9.50814
iserte	-9.50948
▁sørlige	-9.50956
▁grensen	-9.50994
▁forsvar	-9.50996
▁holm	-9.51102
55	-9.5113
▁transport	-9.51188
▁delvis	-9.51197
▁brann	-9.51203
aktig	-9.51248
hjul	-9.51281
▁borg	-9.51325
▁1972	-9.51426
virkning	-9.51432
▁latin	-9.51514
nu	-9.51533
▁endte	-9.51534
oli	-9.51595
fart	-9.51628
▁sun	-9.51649
alt	-9.51679
▁løs	-9.51724
ild	-9.51762
bri	-9.51783
med	-9.51797
▁alder	-9.51839
▁plassert	-9.51855
vent	-9.51872
▁dal	-9.51873
lla	-9.51902
nor	-9.51936
▁skipet	-9.52058
▁enhet	-9.52142
▁eg	-9.52214
▁2017	-9.52228
▁drift	-9.52321
▁kje	-9.52348
▁livet	-9.52356
grunn	-9.52407
▁fremme	-9.52419
midler	-9.52463
▁artist	-9.52477
▁hard	-9.52568
▁tapte	-9.52582
fl	-9.52605
▁ve	-9.52623
▁løv	-9.52631
▁prøve	-9.5266
ført	-9.52673
▁japansk	-9.52691
holm	-9.5273
▁katolske	-9.5278
bus	-9.5281
ban	-9.52913
▁1975	-9.5302
▁port	-9.53036
▁retning	-9.53059
▁ordenen	-9.53075
▁ønsket	-9.53115
forbundet	-9.53143
last	-9.53245
ås	-9.53326
ppen	-9.53407
lem	-9.53415
67	-9.53432
▁iii	-9.53458
▁merke	-9.53567
▁arten	-9.53601
▁sørøst	-9.53629
pir	-9.53719
på	-9.53721
▁fredrik	-9.53815
▁national	-9.53819
▁1977	-9.53827
▁1920	-9.53839
fest	-9.53861
▁1900	-9.53874
ano	-9.53961
▁tegn	-9.53972
▁sesong	-9.54032
▁lære	-9.54079
▁produsent	-9.54123
ritt	-9.54142
▁pop	-9.54221
formet	-9.5438
▁reform	-9.54423
gått	-9.54456
▁bilde	-9.54478
▁uavhengig	-9.54494
▁vestlig	-9.54577
▁klassisk	-9.54632
▁grupper	-9.54657
linjen	-9.54701
▁larven	-9.5475
▁hær	-9.54758
▁virksomhet	-9.5477
▁kanon	-9.54836
linje	-9.54866
▁nærings	-9.54888
ub	-9.5495
▁rike	-9.55049
▁bøker	-9.55059
▁vik	-9.5511
▁fører	-9.55117
shi	-9.55161
▁stiftet	-9.55194
▁grand	-9.55268
mus	-9.55284
▁dom	-9.55303
▁besøk	-9.55379
▁1983	-9.55465
▁ask	-9.55496
▁feil	-9.55647
zh	-9.55724
44	-9.55839
▁styrker	-9.55875
▁utført	-9.55887
▁klima	-9.55914
47	-9.55989
▁epi	-9.56052
▁sel	-9.56139
ringen	-9.56141
▁sju	-9.5623
▁son	-9.56243
▁handling	-9.56264
▁design	-9.56281
▁fugle	-9.56305
arm	-9.56325
klubb	-9.56343
skolen	-9.56422
▁fest	-9.56567
85	-9.5661
kere	-9.5669
▁anlegget	-9.567
tti	-9.56885
bånd	-9.57029
▁felt	-9.57029
ografi	-9.5703
▁etterhvert	-9.57111
ori	-9.57113
▁nordvest	-9.57115
▁1976	-9.57124
▁1964	-9.57129
▁gren	-9.57188
▁lind	-9.57189
fører	-9.57193
rådet	-9.57226
▁høyt	-9.57274
▁produksjon	-9.57447
▁utvikle	-9.5746
her	-9.57542
fo	-9.57761
▁viste	-9.5779
▁dam	-9.57794
mun	-9.57818
▁ark	-9.57839
systemet	-9.57887
▁anders	-9.57916
▁religiøs	-9.57951
▁teknisk	-9.57951
ball	-9.57966
▁virke	-9.58095
▁vid	-9.58096
▁produkt	-9.58206
▁lenger	-9.58221
▁direktør	-9.58269
▁pla	-9.58345
▁skjedd	-9.58357
▁grenser	-9.5836
78	-9.5839
▁hovedstaden	-9.58414
▁ledd	-9.58442
▁myr	-9.58451
føring	-9.58464
▁salt	-9.58519
▁35	-9.58564
▁het	-9.5865
▁fot	-9.58654
à	-9.58798
▁kardinal	-9.58798
▁publisert	-9.58798
▁nevnt	-9.58799
▁typisk	-9.588
▁festning	-9.58812
zhou	-9.58826
▁personlig	-9.58841
▁profesjonell	-9.5885
▁mø	-9.58898
▁hit	-9.59017
▁asia	-9.5911
▁faren	-9.59129
hy	-9.59219
forsker	-9.59233
▁bygde	-9.59281
▁endret	-9.59296
▁400	-9.59429
▁skifte	-9.59482
rød	-9.59592
pan	-9.59649
▁finalen	-9.59654
▁james	-9.59661
▁jobbe	-9.5968
▁nederlandsk	-9.59717
▁alltid	-9.59729
lede	-9.5977
▁wal	-9.59772
▁kamper	-9.59793
virket	-9.59834
lang	-9.59837
ios	-9.59894
vogn	-9.59943
senteret	-9.60068
43	-9.6016
▁idretts	-9.60163
▁operasjon	-9.60181
▁naturlig	-9.60212
▁not	-9.60294
▁temperatur	-9.60347
▁mik	-9.60361
▁bj	-9.60421
folk	-9.60437
gående	-9.6044
stasjon	-9.60462
▁marine	-9.60511
▁fokus	-9.60517
høgskole	-9.60551
▁munn	-9.60569
rich	-9.60623
eier	-9.60652
▁vold	-9.60674
▁tanke	-9.6073
korps	-9.60753
jel	-9.60759
▁kir	-9.6079
▁korte	-9.60832
vig	-9.60905
▁finans	-9.60913
▁vinge	-9.60921
gler	-9.60929
ric	-9.60948
▁ven	-9.6095
▁engelske	-9.60968
▁heller	-9.61018
41	-9.61026
▁pri	-9.61048
▁heter	-9.61113
▁cup	-9.61136
mid	-9.61167
▁tettstedet	-9.61168
84	-9.61169
band	-9.61194
delt	-9.61231
▁økonomi	-9.61272
▁bind	-9.61338
▁byer	-9.61348
sekretær	-9.61385
▁hertug	-9.61389
▁måneder	-9.61389
48	-9.61403
gle	-9.61435
▁pen	-9.61469
▁sterk	-9.61532
▁passer	-9.61536
▁regel	-9.61599
renner	-9.61689
fartøy	-9.61718
▁redaktør	-9.61769
▁stopp	-9.61776
kka	-9.61778
▁mun	-9.61784
▁israel	-9.61797
▁oppdaget	-9.61847
▁ole	-9.61851
slekt	-9.61877
▁dø	-9.61897
▁nr	-9.62051
▁est	-9.62074
▁havet	-9.62074
kraft	-9.62133
▁fortsette	-9.62144
tol	-9.6233
▁nils	-9.62337
▁vind	-9.62436
▁innført	-9.62478
▁base	-9.625
fjellet	-9.62607
▁unge	-9.62743
▁ger	-9.62867
61	-9.62926
arter	-9.62965
ansk	-9.63028
68	-9.63032
▁sul	-9.63041
▁just	-9.63084
▁ban	-9.63087
▁rad	-9.63105
▁australia	-9.63147
▁begrepet	-9.63147
▁leir	-9.63161
▁stille	-9.63161
▁1965	-9.63167
▁yu	-9.63178
▁lengre	-9.63179
▁war	-9.63208
fil	-9.63226
▁rygg	-9.6326
▁mol	-9.63267
deles	-9.63301
▁ball	-9.63354
80	-9.63367
38	-9.6342
▁tema	-9.63465
▁styrke	-9.63489
vitenskapelig	-9.63537
dige	-9.63656
▁ph	-9.63668
▁journalist	-9.63707
istene	-9.63708
▁hvite	-9.63732
▁res	-9.63755
▁besto	-9.6376
▁glo	-9.63817
63	-9.63833
▁ting	-9.63845
oni	-9.63888
▁fro	-9.63933
tog	-9.63942
æl	-9.63983
pur	-9.63997
▁original	-9.6404
▁canada	-9.64041
▁utdannet	-9.64049
▁areal	-9.64064
▁historien	-9.64115
▁hei	-9.64122
app	-9.64136
▁sku	-9.64184
▁maskin	-9.64209
tale	-9.64218
lys	-9.6422
bevegelsen	-9.64261
øyene	-9.64265
tis	-9.64273
▁metall	-9.64277
▁student	-9.64325
▁utstyr	-9.64337
▁nabo	-9.6434
ish	-9.64386
▁mas	-9.64429
▁hund	-9.64533
▁che	-9.64574
ark	-9.64818
▁total	-9.64842
▁hed	-9.64861
rick	-9.64918
с	-9.64935
▁stortinget	-9.64944
▁fremdeles	-9.64984
▁slott	-9.65026
sam	-9.6503
isten	-9.6506
▁die	-9.65067
▁skape	-9.65237
▁win	-9.65343
▁kristne	-9.65349
ora	-9.65359
▁gutt	-9.65483
saker	-9.65545
▁mørke	-9.6564
▁presse	-9.65701
▁lø	-9.65735
▁spar	-9.65739
▁sendt	-9.65763
▁bronse	-9.65862
kapasitet	-9.6588
språk	-9.65898
dor	-9.66081
stid	-9.66103
▁retts	-9.66119
▁jøde	-9.66155
▁forsknings	-9.66174
gl	-9.66215
ms	-9.66253
▁teori	-9.66344
▁sund	-9.66358
qua	-9.66381
▁knut	-9.66437
74	-9.66467
▁dynastiet	-9.66469
▁kart	-9.66515
▁harald	-9.6655
virksomhet	-9.6661
bjørn	-9.66613
▁distrikt	-9.66627
▁hodet	-9.66643
fugl	-9.66765
ata	-9.66767
▁ytterligere	-9.66767
▁1956	-9.66783
▁ep	-9.66784
▁musikkalbum	-9.66789
▁lenge	-9.6679
▁90	-9.66844
gift	-9.6685
vit	-9.66883
▁ung	-9.66919
93	-9.66936
serien	-9.66958
▁pass	-9.67029
▁trolig	-9.67059
ade	-9.67065
▁forfatteren	-9.67091
farge	-9.67107
▁odd	-9.67111
gjøre	-9.67145
▁avis	-9.67164
▁front	-9.67234
▁klubb	-9.67249
dels	-9.67397
våpen	-9.67555
ød	-9.67659
▁alternativ	-9.67693
▁wilhelm	-9.67693
▁tydelig	-9.67696
▁østerrike	-9.67697
▁1963	-9.6771
▁fotballspiller	-9.67729
ult	-9.67741
▁un	-9.67812
▁kongelig	-9.67884
▁dyre	-9.67904
▁sur	-9.67905
▁artene	-9.67918
dommer	-9.67934
▁sko	-9.68066
gjorde	-9.68165
liste	-9.68188
ben	-9.68302
▁enten	-9.68493
▁cap	-9.68494
shire	-9.68603
▁uke	-9.68607
▁united	-9.68629
81	-9.68638
▁1971	-9.68642
▁hjerte	-9.68653
▁snakke	-9.68666
▁holder	-9.68678
▁befolkning	-9.68686
ella	-9.68705
▁midten	-9.68709
lus	-9.68745
pu	-9.68783
▁oppgave	-9.68788
drift	-9.68809
▁union	-9.68809
▁sier	-9.68892
▁utviklingen	-9.68897
▁try	-9.68985
erende	-9.68997
gaard	-9.69025
▁gjennomført	-9.69067
▁irsk	-9.69072
▁meste	-9.69079
▁bygningen	-9.69151
▁spill	-9.69154
▁demokrat	-9.69162
▁buss	-9.69162
▁betegnelsen	-9.69179
▁elev	-9.69193
gata	-9.69277
▁kha	-9.69356
fang	-9.69358
industri	-9.69462
ott	-9.69468
▁300	-9.69485
▁drev	-9.69518
dahl	-9.69541
56	-9.69557
ō	-9.69571
▁trøndelag	-9.69571
▁louis	-9.69572
▁melodi	-9.69579
▁revolusjon	-9.69595
veis	-9.69633
57	-9.69804
hal	-9.69833
analyse	-9.69877
▁undersøkelse	-9.69878
▁tusen	-9.69931
▁nasjonale	-9.69962
▁festival	-9.69968
fu	-9.69987
▁sterke	-9.70091
▁pin	-9.70133
▁johann	-9.70144
▁fordelt	-9.70148
virke	-9.70257
rum	-9.703
▁distriktet	-9.70322
lagt	-9.70343
▁ok	-9.70358
figur	-9.70442
maskin	-9.70463
▁formann	-9.70483
lly	-9.70486
к	-9.70517
▁komponist	-9.70524
▁nærmest	-9.70526
▁norrøn	-9.70527
▁black	-9.70558
▁metal	-9.7067
rop	-9.70756
▁led	-9.70778
vatnet	-9.70804
▁stand	-9.70856
▁tj	-9.70867
▁tettsted	-9.70874
▁daglig	-9.70904
▁jevn	-9.70909
lar	-9.70914
52	-9.7093
kh	-9.70996
nske	-9.7103
▁strid	-9.71173
▁larvene	-9.71191
▁øyene	-9.71239
the	-9.71305
▁bern	-9.71309
stav	-9.71329
▁kjempe	-9.71352
gjort	-9.71354
hav	-9.71421
▁sovjetunionen	-9.71485
▁vokste	-9.71493
91	-9.71515
field	-9.71519
▁element	-9.71523
▁behandling	-9.71682
▁hoff	-9.71785
▁likhet	-9.71804
▁gla	-9.71847
sø	-9.71877
83	-9.71923
▁mw	-9.71928
elige	-9.71952
▁stasjonen	-9.71994
▁hører	-9.72044
▁benyttes	-9.72085
▁listen	-9.72103
ira	-9.7215
▁produksjons	-9.72157
verket	-9.72198
▁kam	-9.72244
▁landslag	-9.72267
▁røde	-9.72289
т	-9.72456
▁innflytelse	-9.72456
▁instrument	-9.72456
voll	-9.72478
▁velge	-9.72494
▁stammer	-9.72507
wood	-9.72511
▁helge	-9.72561
▁fø	-9.72564
▁mad	-9.72569
▁privat	-9.7262
▁cam	-9.7264
▁skatte	-9.72646
▁uni	-9.72649
▁sykdom	-9.72651
▁rute	-9.72661
▁ram	-9.72694
▁ramme	-9.72696
person	-9.72699
▁kroner	-9.72734
lon	-9.72754
▁polsk	-9.72799
press	-9.72811
mengde	-9.7289
▁char	-9.72912
▁aust	-9.72958
▁jon	-9.73099
vekt	-9.73138
▁hovedstad	-9.73252
▁kost	-9.73291
▁arne	-9.7332
stikk	-9.73345
▁representere	-9.73436
▁spesiell	-9.73437
▁omfattende	-9.73452
▁ana	-9.73458
▁ytre	-9.73572
▁sports	-9.73595
▁tråd	-9.73599
▁pot	-9.73606
arbeider	-9.73658
dekke	-9.73772
▁krets	-9.73839
dagen	-9.73851
▁vis	-9.7388
▁us	-9.73953
▁fylkes	-9.74027
62	-9.74045
ette	-9.74073
▁cu	-9.74087
▁klarte	-9.74122
▁anne	-9.74212
▁test	-9.74369
▁forskning	-9.74374
program	-9.74408
▁religion	-9.74427
▁øvre	-9.74427
▁richard	-9.74427
▁bakgrunn	-9.74465
▁femte	-9.74496
pl	-9.74522
ologisk	-9.74528
kler	-9.74566
▁skips	-9.74583
▁song	-9.74648
cha	-9.74653
▁fv	-9.74739
▁bass	-9.74749
▁egypt	-9.7482
mund	-9.7498
▁kilde	-9.75053
kunst	-9.75092
ction	-9.75121
bare	-9.75122
stø	-9.75133
mand	-9.75143
▁kg	-9.7525
▁våren	-9.75276
90	-9.75298
kirke	-9.7537
▁michael	-9.75426
skjold	-9.75427
▁1966	-9.75449
▁selve	-9.75468
gard	-9.75489
▁lan	-9.75502
▁søster	-9.75515
ati	-9.7552
▁gard	-9.75569
▁middel	-9.75577
ón	-9.75599
▁havne	-9.75668
slav	-9.75702
▁meg	-9.75734
▁150	-9.75762
▁domin	-9.75807
87	-9.7582
fabrikk	-9.75821
ona	-9.75899
trær	-9.75915
▁toppen	-9.75978
▁åpne	-9.75993
▁poly	-9.76041
tic	-9.76066
▁plat	-9.76089
▁fal	-9.7609
sberg	-9.7618
▁utdanning	-9.76181
▁benytte	-9.76253
kammer	-9.76255
stedet	-9.76262
▁områdene	-9.76295
▁haug	-9.76414
ance	-9.76415
jiang	-9.76422
rad	-9.76424
▁international	-9.76436
▁betrakte	-9.76437
▁fengsel	-9.76437
▁1944	-9.76456
▁lansert	-9.76457
▁hæren	-9.76469
historie	-9.76474
slutt	-9.76509
▁gjenopp	-9.76519
krets	-9.76554
nett	-9.76617
ob	-9.76671
▁bispedømme	-9.76675
▁avisen	-9.76693
▁ansatte	-9.76738
▁mulighet	-9.76752
▁bel	-9.76855
manns	-9.76865
▁jakt	-9.76869
syre	-9.76883
elli	-9.76935
bank	-9.7708
▁klo	-9.77136
▁politikk	-9.77236
con	-9.77324
▁masse	-9.7734
▁kjøpte	-9.77376
hall	-9.77403
▁elektrisk	-9.77457
▁inkluderer	-9.77457
▁spania	-9.77458
▁kontakt	-9.77462
▁1958	-9.77472
▁1938	-9.77475
album	-9.77508
▁sau	-9.77597
sol	-9.77634
▁provins	-9.77655
delen	-9.77697
ann	-9.777
din	-9.77715
▁45	-9.77749
▁ran	-9.77787
▁vanlige	-9.77897
▁stål	-9.77957
butikk	-9.78043
▁teksten	-9.78054
▁stift	-9.78173
▁cent	-9.78254
▁stre	-9.78348
▁kinesiske	-9.78414
76	-9.78449
▁mørk	-9.78452
▁drama	-9.78466
▁opprinnelse	-9.78488
▁beijing	-9.78488
▁deriblant	-9.78496
▁1962	-9.78505
▁primær	-9.78538
grupper	-9.78552
▁typer	-9.7864
plassen	-9.78651
▁kongens	-9.7875
illa	-9.78751
▁lage	-9.78775
▁strand	-9.78782
▁spansk	-9.78827
▁soldater	-9.78896
gal	-9.7901
▁kjøpe	-9.79014
▁aktivitet	-9.79111
blad	-9.79129
nom	-9.79154
vesen	-9.79163
▁omtale	-9.79183
▁organisasjonen	-9.79259
▁turn	-9.79386
dommen	-9.7939
▁sjef	-9.7946
under	-9.79556
▁markeds	-9.79578
▁størrelse	-9.79645
stall	-9.7978
▁prisen	-9.79874
▁endre	-9.79905
▁forsøkt	-9.79943
alis	-9.79959
▁kristen	-9.8001
kov	-9.80029
ij	-9.80095
▁leve	-9.80251
ā	-9.80266
69	-9.80346
▁systemet	-9.80396
▁veg	-9.80409
vert	-9.80437
25	-9.80439
▁vitenskap	-9.80441
stoff	-9.80473
в	-9.80562
▁time	-9.80567
▁konflikt	-9.80582
▁arabisk	-9.80584
▁stadion	-9.80587
utgivelse	-9.80593
▁1952	-9.806
▁offentlige	-9.80673
▁kast	-9.8069
plasser	-9.80691
▁foss	-9.80865
fot	-9.80882
▁bytte	-9.8092
▁fjern	-9.80983
preget	-9.80992
cher	-9.81028
▁hom	-9.81118
▁oversatt	-9.81155
▁kommuner	-9.8121
▁damp	-9.81306
▁tyn	-9.81333
▁vist	-9.81448
▁samfunns	-9.81454
▁gitar	-9.81526
▁kh	-9.81552
▁skotsk	-9.81672
san	-9.8168
▁omtalt	-9.81684
▁bevegelse	-9.81708
▁ze	-9.81727
▁bodde	-9.81741
▁riksvei	-9.81754
▁solo	-9.818
strøm	-9.818
gren	-9.81809
▁kai	-9.81861
▁huset	-9.81942
▁lund	-9.81998
▁forteller	-9.8206
▁trakk	-9.82075
▁maur	-9.82076
▁sort	-9.82084
hol	-9.82179
▁valget	-9.82184
bedrift	-9.82318
low	-9.82369
gger	-9.82384
95	-9.82406
19	-9.82509
▁ya	-9.82541
▁hente	-9.82615
▁verne	-9.82616
▁max	-9.82707
▁nødvendig	-9.82721
▁school	-9.82722
▁oversikt	-9.82723
▁fysisk	-9.82725
▁1941	-9.82742
▁1939	-9.82743
levende	-9.82747
jev	-9.82758
▁hjelpe	-9.82831
gav	-9.82918
▁mikro	-9.82957
fjell	-9.8301
▁rh	-9.83062
▁dog	-9.8309
▁will	-9.83103
lid	-9.83168
▁forsvars	-9.8318
▁real	-9.83204
parken	-9.83246
▁landskapet	-9.83301
▁mill	-9.83302
70	-9.83307
▁normalt	-9.83392
▁løper	-9.83414
▁anta	-9.83477
verdig	-9.83479
▁prosess	-9.83513
71	-9.83519
▁anna	-9.83556
▁wei	-9.83589
▁posisjon	-9.83732
▁single	-9.83803
▁jacob	-9.8381
▁1928	-9.83819
▁1955	-9.8383
▁fulgte	-9.83849
▁driver	-9.83849
▁edderkopp	-9.83865
kirken	-9.8394
▁avhengig	-9.83951
forfatter	-9.83992
stri	-9.84119
▁jorden	-9.84152
▁bonde	-9.84191
▁bio	-9.84246
▁bol	-9.84286
▁kj	-9.84287
▁bit	-9.84324
spekt	-9.84349
▁utøve	-9.84364
▁lot	-9.8441
stripe	-9.84421
▁kjønn	-9.84515
▁stamme	-9.8459
▁landsbyen	-9.84596
▁hunnen	-9.84609
▁sette	-9.84623
▁geo	-9.84783
▁forsvaret	-9.84805
▁trafikk	-9.84843
▁kanal	-9.84902
š	-9.84907
▁administrativ	-9.84907
▁world	-9.84907
▁club	-9.84908
▁stol	-9.8491
▁sørvest	-9.8491
▁foreldre	-9.8491
▁tidsskrift	-9.84917
▁mytologi	-9.84923
▁1943	-9.84928
18	-9.84931
▁kjerne	-9.84974
▁mak	-9.84983
45	-9.8502
rende	-9.85052
▁sendte	-9.85056
føringen	-9.85127
møte	-9.8514
▁fan	-9.85142
phi	-9.85152
mod	-9.8516
▁arve	-9.85184
▁beskytte	-9.85304
58	-9.85306
▁sim	-9.85348
ordenen	-9.85351
war	-9.85441
▁rep	-9.8554
▁lar	-9.85554
▁polen	-9.85588
▁spørsmål	-9.85598
▁flyplass	-9.85708
post	-9.8573
fjellene	-9.85739
▁avstand	-9.85771
▁programmet	-9.85828
løst	-9.85862
▁tegnet	-9.85936
feltet	-9.85969
12	-9.85982
▁prosjekt	-9.85986
▁univers	-9.85997
α	-9.86018
▁kaptein	-9.86018
▁lengst	-9.86065
scene	-9.86067
▁gil	-9.86116
prosess	-9.86269
▁foruten	-9.86329
▁stav	-9.86382
▁king	-9.86414
▁32	-9.86425
▁sykehus	-9.86432
▁slå	-9.86502
▁bane	-9.86506
▁beskrevet	-9.8657
kanten	-9.86623
▁irland	-9.86658
strand	-9.86682
feld	-9.86687
oy	-9.86711
▁salg	-9.8674
▁falt	-9.8675
▁hage	-9.86826
krig	-9.8691
▁vokal	-9.86976
▁fn	-9.87033
▁vær	-9.87036
mitt	-9.87058
▁bet	-9.87084
komst	-9.87133
▁musiker	-9.87134
ο	-9.87141
▁1949	-9.87142
▁kategori	-9.87142
▁records	-9.87142
magasin	-9.87142
▁oscar	-9.87143
▁magnus	-9.87146
▁1935	-9.87158
▁1947	-9.87164
kjær	-9.87171
▁populære	-9.87247
▁internasjonal	-9.87296
somme	-9.87306
kjempe	-9.8733
▁albert	-9.87342
▁betegne	-9.8736
▁ce	-9.87379
ney	-9.87381
▁bredt	-9.87402
▁vinner	-9.87417
▁pas	-9.87446
▁off	-9.87478
zy	-9.87489
ram	-9.87546
foss	-9.87674
▁fjellet	-9.87678
ity	-9.87713
motor	-9.87774
▁hundre	-9.87792
▁salme	-9.87843
▁bolig	-9.87912
løpet	-9.87981
hode	-9.88037
▁bidra	-9.88058
16	-9.88108
visning	-9.8819
▁kvinnelig	-9.88223
ī	-9.88278
▁1954	-9.88278
35	-9.88303
▁vit	-9.88303
▁straffe	-9.88326
▁streng	-9.88417
▁kysten	-9.88417
▁skille	-9.88462
▁virkelig	-9.88501
▁horn	-9.88509
▁planter	-9.88509
hard	-9.88532
trafikk	-9.88534
▁bestemte	-9.8861
▁sær	-9.88617
holdt	-9.88629
▁iso	-9.88767
bol	-9.88779
dorf	-9.88811
▁nes	-9.88906
▁frø	-9.88948
vind	-9.88988
steder	-9.88993
▁bry	-9.89027
99	-9.89041
▁hud	-9.89146
pin	-9.89174
▁utover	-9.89204
▁kommunene	-9.89208
▁rein	-9.89276
▁old	-9.89319
skriv	-9.89421
▁studio	-9.89424
▁kontrakt	-9.89428
▁debutert	-9.89429
▁nærmere	-9.89435
▁regnet	-9.89451
▁1946	-9.89452
▁1936	-9.89452
▁bevart	-9.89465
▁olsen	-9.89479
▁ukjent	-9.89491
▁lignende	-9.89503
▁forvingen	-9.89598
▁sten	-9.89627
trinn	-9.8963
▁saken	-9.8966
utvikling	-9.89706
▁kontor	-9.89719
cho	-9.89723
ppel	-9.89763
▁bidrag	-9.89766
▁harry	-9.89812
▁normal	-9.8992
▁luk	-9.89936
▁hill	-9.90174
jan	-9.90176
82	-9.90342
▁nar	-9.90413
▁rund	-9.90415
▁verket	-9.90415
▁sveits	-9.90419
krit	-9.90462
høy	-9.90537
▁kjøre	-9.90557
▁middelalderen	-9.90589
▁mexico	-9.9059
▁berømt	-9.9059
▁inspirert	-9.9059
▁ishockey	-9.9059
▁tilgjengelig	-9.9059
▁selvstendig	-9.90591
▁jazz	-9.90591
▁arrangere	-9.90591
▁1918	-9.90608
pel	-9.90629
▁por	-9.90669
bakk	-9.90675
▁angeles	-9.90711
leir	-9.90747
▁ekstra	-9.90754
▁lyn	-9.90788
kam	-9.90816
lov	-9.90817
▁bryst	-9.90838
wan	-9.90854
▁auto	-9.90918
▁andreas	-9.90951
▁føre	-9.91017
formen	-9.91145
▁viking	-9.91156
▁havn	-9.91216
11	-9.91224
trop	-9.91226
▁snø	-9.91282
▁north	-9.91298
▁sovjetisk	-9.91341
▁hode	-9.91385
kkel	-9.91385
▁studenter	-9.91395
skipet	-9.91462
ville	-9.91523
pla	-9.91534
▁euro	-9.91546
▁south	-9.91611
▁bydelen	-9.91714
м	-9.91767
▁fullstendig	-9.91767
▁installert	-9.91767
▁situasjon	-9.91768
▁hurtig	-9.91768
▁ridder	-9.91776
▁1912	-9.91784
plante	-9.91793
▁forretnings	-9.91817
▁uttalt	-9.91828
▁nærheten	-9.91838
▁hitler	-9.91842
blomst	-9.91903
ön	-9.91916
mesterskapet	-9.92076
▁utga	-9.92082
▁timer	-9.92124
▁mini	-9.92131
avdeling	-9.92148
olo	-9.92187
▁folket	-9.92233
▁tonn	-9.9227
▁vakt	-9.92299
▁liga	-9.92494
lingen	-9.92501
ifisert	-9.92542
▁ky	-9.92562
▁hvilke	-9.92571
▁konkurransen	-9.92648
sso	-9.92775
ledning	-9.92792
▁brev	-9.9288
gården	-9.92926
▁parlament	-9.92957
▁1951	-9.92957
▁1953	-9.92957
▁passasjer	-9.92957
▁anerkjent	-9.92958
▁ødelagt	-9.92959
▁lufthavn	-9.92968
▁administrasjons	-9.92974
▁invest	-9.92976
▁saint	-9.92985
▁islam	-9.92986
▁trener	-9.93
serie	-9.93088
15	-9.93098
▁utdannelse	-9.93099
▁lek	-9.9313
▁museet	-9.93165
▁glass	-9.93227
ernes	-9.93402
▁hovedrollen	-9.93424
▁kas	-9.93641
21	-9.93664
kampen	-9.93723
ping	-9.9374
▁opphav	-9.9375
▁teknologi	-9.93806
ordning	-9.93807
▁bestemt	-9.93827
mur	-9.93862
dam	-9.93862
▁fordel	-9.93887
▁sea	-9.93901
▁sentralt	-9.93927
▁rekord	-9.93957
▁kil	-9.93984
grav	-9.94029
▁institutt	-9.94106
▁offisielt	-9.94162
▁moskva	-9.94162
▁innspilling	-9.94167
▁college	-9.94175
▁tids	-9.94199
prinsipp	-9.94199
▁jobb	-9.94211
▁gjeste	-9.9425
▁overflate	-9.94316
▁yngre	-9.94319
▁innsjø	-9.94333
▁støttet	-9.94361
regionen	-9.94396
▁materiale	-9.94402
▁bygg	-9.94449
▁lavere	-9.94552
distrikt	-9.94559
renn	-9.94634
▁hon	-9.9471
▁koll	-9.94743
▁vekst	-9.94774
▁ankom	-9.94777
▁od	-9.94777
holdsvis	-9.94818
park	-9.94827
▁ub	-9.94842
▁ek	-9.9493
▁rollen	-9.94998
▁nordisk	-9.95001
▁bydel	-9.95123
plate	-9.95135
▁sw	-9.95174
▁ansatt	-9.95273
▁tilhørte	-9.95382
▁nevnes	-9.95386
▁hotell	-9.95396
▁ordfører	-9.95406
▁stoff	-9.95438
stasjoner	-9.95561
▁vokalist	-9.95564
▁magnet	-9.95578
▁produksjonen	-9.95625
▁forut	-9.95641
ische	-9.95671
flate	-9.95735
▁filmer	-9.9575
fylt	-9.95771
prosjekt	-9.95845
kjøp	-9.95973
▁metode	-9.96
▁styrkene	-9.96002
▁skul	-9.96033
▁frukt	-9.96052
handler	-9.96066
prisen	-9.96407
▁motta	-9.96502
▁nederland	-9.96542
▁problem	-9.96544
▁vet	-9.96564
øtt	-9.96569
▁1959	-9.96616
▁artikkel	-9.96616
▁california	-9.96616
▁etterfulgt	-9.96616
▁generelt	-9.96617
▁pasient	-9.96617
▁frederik	-9.96622
hastighet	-9.96628
▁vunnet	-9.9663
▁unntak	-9.96638
▁1961	-9.9664
▁kropps	-9.9664
▁tog	-9.96646
▁charles	-9.96647
▁henhold	-9.96676
▁runde	-9.9672
▁maleri	-9.9674
▁bølge	-9.96789
▁star	-9.96801
ulykke	-9.96907
▁organisert	-9.96909
▁tegning	-9.96966
▁she	-9.96994
bakken	-9.97014
slaget	-9.97017
strekker	-9.97051
vision	-9.97108
kultur	-9.97187
▁bob	-9.97194
ward	-9.97223
kysten	-9.9731
alitet	-9.97397
ura	-9.97406
▁medisin	-9.97474
▁steve	-9.97509
▁kreft	-9.9751
▁py	-9.97519
▁økt	-9.97522
gruppa	-9.97582
mond	-9.97584
▁bibliotek	-9.97624
stjerne	-9.97633
▁alb	-9.97682
▁rang	-9.97697
▁hevdet	-9.97829
▁dør	-9.97857
▁fabrikk	-9.97859
▁skottland	-9.97866
▁royal	-9.97869
▁kritikk	-9.9787
▁offiser	-9.97874
▁1924	-9.97882
▁planlagt	-9.97889
▁korea	-9.97907
▁sverd	-9.97921
▁award	-9.98004
historiker	-9.98008
▁turist	-9.98008
▁skriver	-9.98026
blikk	-9.98048
språklig	-9.98074
formede	-9.98077
▁tidspunkt	-9.9812
▁gitarist	-9.98137
▁tolv	-9.98147
▁motsetning	-9.98169
▁grunnet	-9.98265
▁vers	-9.98309
skatt	-9.98312
enhet	-9.98348
nten	-9.98367
staten	-9.98375
▁senter	-9.98403
konkurranse	-9.98432
▁behandle	-9.98588
▁overgang	-9.98714
kort	-9.98947
handel	-9.98992
▁cre	-9.99011
▁eva	-9.99032
strid	-9.99045
ova	-9.99091
▁elektro	-9.99124
konstruksjon	-9.99132
▁introdusert	-9.99132
▁positiv	-9.99132
▁alvorlig	-9.99133
▁1914	-9.99143
▁republikken	-9.99165
sfære	-9.99188
▁bud	-9.9925
▁armé	-9.99285
▁henry	-9.99304
▁bibel	-9.99313
kritiker	-9.99327
mmy	-9.99341
▁gold	-9.99366
▁slave	-9.99371
▁struktur	-9.99407
▁markert	-9.99421
mmet	-9.99432
jon	-9.99496
89	-9.99567
▁sider	-9.99618
▁jean	-9.99669
kommune	-9.99715
bred	-9.99778
ox	-9.99805
▁utgave	-9.99856
▁nivå	-9.99965
gate	-9.99981
▁sammenligne	-10.0002
▁hannen	-10.0006
▁atom	-10.0014
▁cal	-10.0024
▁dato	-10.0031
aria	-10.0037
lege	-10.004
▁innbyggertall	-10.0041
▁league	-10.0041
▁publikum	-10.0041
▁tilknytte	-10.0041
advokat	-10.0041
▁dialekt	-10.0041
▁dollar	-10.0041
▁1932	-10.0043
▁bronsemedalje	-10.0043
▁jordbruk	-10.0049
▁intern	-10.005
▁effektiv	-10.0061
▁innsjøen	-10.0063
▁undervisning	-10.0064
▁oppdrag	-10.0069
▁klart	-10.0069
▁opprette	-10.0076
ntin	-10.0079
▁status	-10.0081
▁tang	-10.0082
▁hou	-10.0083
▁øverste	-10.0083
vitenskap	-10.0086
▁landsby	-10.0087
▁master	-10.0092
▁final	-10.0093
▁kilder	-10.0094
▁romanen	-10.0098
▁studier	-10.01
▁dobbelt	-10.0104
sens	-10.0107
▁hindre	-10.011
kilden	-10.0114
vendt	-10.0118
rup	-10.0125
▁prosjektet	-10.0126
▁opphold	-10.0132
▁sar	-10.0139
▁utstilling	-10.0139
92	-10.0143
▁spir	-10.0146
23	-10.0148
▁blomster	-10.0163
▁marc	-10.0163
▁latinsk	-10.0164
▁østerriksk	-10.0171
▁insekt	-10.0172
▁avsluttet	-10.0172
▁henholdsvis	-10.0173
▁ekteskap	-10.0173
▁skiller	-10.0174
▁motiv	-10.0175
▁korn	-10.0176
▁hustru	-10.0177
▁regjerings	-10.0178
▁snart	-10.0178
tikken	-10.0179
upp	-10.0182
98	-10.0189
▁bosatt	-10.0193
▁nasjonalpark	-10.0205
▁bunn	-10.0209
▁østlige	-10.0212
▁hind	-10.0216
▁rør	-10.022
▁angrepet	-10.0225
rykket	-10.0227
▁idrettslag	-10.023
▁utføre	-10.0231
▁føde	-10.0237
▁inngå	-10.0238
▁finn	-10.024
▁elve	-10.0242
▁plassering	-10.0242
▁populær	-10.0262
▁leker	-10.0262
▁former	-10.0262
▁poet	-10.0263
▁stab	-10.0266
klubben	-10.0268
▁nan	-10.0291
øvrig	-10.0298
▁cho	-10.0299
▁byprefekture	-10.0303
▁utgangspunkt	-10.0303
▁utbredt	-10.0303
▁dømt	-10.0304
▁referere	-10.0304
▁vinteren	-10.0306
▁gustav	-10.0307
▁øvrige	-10.0308
▁bord	-10.0311
▁preg	-10.0312
▁fylket	-10.032
gli	-10.0321
▁tverr	-10.0324
makten	-10.0327
▁danse	-10.0328
tunnelen	-10.0329
▁ulik	-10.033
▁problemer	-10.0334
32	-10.0342
teori	-10.0342
▁spre	-10.0343
94	-10.0351
klassen	-10.0352
24	-10.0353
▁troll	-10.0356
▁minutter	-10.0357
▁eli	-10.0359
ledd	-10.0364
▁medlemmene	-10.0365
▁nordland	-10.0373
vekst	-10.0374
kur	-10.0374
▁elever	-10.0381
gram	-10.0382
regn	-10.0383
▁gau	-10.0383
stasjonen	-10.0389
pass	-10.0401
▁verd	-10.0402
▁samfunn	-10.0404
øvelse	-10.0404
▁camp	-10.0421
▁unn	-10.0424
▁hell	-10.0428
▁1929	-10.0436
▁registrert	-10.0436
▁fattig	-10.0436
▁län	-10.0436
▁fungere	-10.0438
▁jule	-10.0438
▁tilhenger	-10.0445
sending	-10.0454
▁populært	-10.0466
▁may	-10.0466
▁oversettelse	-10.0469
▁fett	-10.0475
▁bay	-10.0475
▁up	-10.0479
reise	-10.0484
ary	-10.049
▁formål	-10.0494
møll	-10.0501
▁vor	-10.0503
▁prins	-10.0509
jord	-10.0509
trekning	-10.0515
▁leon	-10.0518
▁handel	-10.053
▁rulle	-10.0532
vikler	-10.0544
▁75	-10.0553
▁600	-10.0554
familie	-10.0554
▁svi	-10.0557
sand	-10.0558
▁spillet	-10.0558
▁bilder	-10.0566
▁joseph	-10.0571
▁innsats	-10.0572
▁redusere	-10.0572
▁premier	-10.0573
▁otto	-10.0574
▁tradisjonelt	-10.0574
▁skilt	-10.0575
▁dvs	-10.0577
▁nedlagt	-10.0578
bygning	-10.0582
▁fc	-10.0585
stemme	-10.0588
▁cra	-10.0589
ito	-10.059
▁klassen	-10.059
brøt	-10.0591
roll	-10.0591
▁skjær	-10.0596
▁boy	-10.06
▁morgen	-10.06
▁linjen	-10.0604
▁nyere	-10.0605
▁tilhøre	-10.0608
▁oppdag	-10.0617
▁begynne	-10.0621
73	-10.0627
politikk	-10.0628
▁internasjonalt	-10.0629
drevet	-10.0629
▁overfor	-10.0643
88	-10.0653
bøker	-10.0656
iansk	-10.0658
nummer	-10.0662
▁ungdom	-10.0664
▁mary	-10.0668
▁sønnen	-10.067
▁33	-10.0672
▁andersen	-10.069
styrke	-10.0699
myndighet	-10.0704
д	-10.0708
stått	-10.0708
▁kombinert	-10.0708
▁erklært	-10.0708
▁nektet	-10.0709
▁1937	-10.0711
▁kode	-10.0712
▁bidro	-10.0712
▁videregående	-10.0712
▁jarl	-10.0716
havn	-10.0718
▁hersker	-10.072
▁high	-10.0724
konge	-10.0739
skij	-10.074
▁tann	-10.0748
▁tykk	-10.0749
▁tittel	-10.0752
▁kunnskap	-10.0752
slått	-10.0754
jö	-10.0756
▁endelig	-10.0766
▁long	-10.0773
▁fløy	-10.0781
historisk	-10.0787
▁kommun	-10.0789
▁ekspedisjon	-10.079
▁riket	-10.0793
oph	-10.0798
▁internett	-10.0806
▁log	-10.0806
bein	-10.0807
▁fon	-10.0808
▁spanske	-10.0817
▁und	-10.082
▁regional	-10.0821
▁penger	-10.0832
▁rob	-10.0834
▁utvidet	-10.0838
▁sist	-10.0843
institusjon	-10.0844
▁friedrich	-10.0847
områdene	-10.0848
▁behov	-10.0848
▁himmel	-10.0849
▁ann	-10.085
▁kvalitet	-10.085
▁1942	-10.085
bygningen	-10.085
▁papir	-10.0858
▁ledende	-10.0861
assi	-10.0868
▁ron	-10.0868
▁lykke	-10.087
deler	-10.0873
▁cur	-10.0873
▁yng	-10.0874
win	-10.0882
▁120	-10.0883
ān	-10.0889
▁hellige	-10.0894
▁zo	-10.0895
▁maler	-10.09
▁nedre	-10.0902
▁arts	-10.0903
▁rapport	-10.0904
▁demon	-10.0911
rap	-10.0926
festival	-10.0929
forbindelse	-10.0929
▁akt	-10.0931
▁tilstand	-10.094
▁bakkroppen	-10.0942
▁høst	-10.0953
▁kandidat	-10.0961
følgende	-10.0963
▁bevis	-10.0966
▁bombe	-10.097
▁grunnlegger	-10.0978
▁roll	-10.0984
▁nowiki	-10.0988
▁tilknytning	-10.0988
firmaet	-10.0988
▁redusert	-10.0988
▁myndighetene	-10.0989
▁1933	-10.099
▁1934	-10.099
▁music	-10.099
▁protest	-10.0991
▁varierer	-10.0994
eksamen	-10.0997
kjent	-10.1
ulf	-10.1001
▁video	-10.1001
▁sport	-10.1002
▁veldig	-10.1004
▁ønske	-10.1006
▁tårn	-10.1007
▁grunnlegge	-10.101
▁kari	-10.1023
▁athen	-10.1026
▁fullført	-10.1034
riket	-10.104
96	-10.1046
▁ein	-10.1048
13	-10.106
▁celle	-10.1069
▁foreningen	-10.1082
▁press	-10.1083
giver	-10.1088
rommet	-10.1094
79	-10.1098
▁vannet	-10.1103
▁private	-10.1107
▁grunnla	-10.1119
foreningen	-10.1126
▁involver	-10.1131
▁vilhelm	-10.1131
▁smith	-10.1131
komiteen	-10.1132
▁edward	-10.1133
▁operatør	-10.1133
▁1957	-10.1133
dro	-10.1135
angen	-10.1139
▁stabil	-10.1143
▁svak	-10.1145
▁kjøpt	-10.1147
▁sete	-10.1154
▁bach	-10.1156
yang	-10.116
▁rå	-10.116
sanger	-10.1172
▁fotballklubb	-10.118
▁spise	-10.1189
gå	-10.1192
▁økte	-10.1193
wald	-10.1211
hallen	-10.1213
▁beskrev	-10.1215
direktør	-10.1221
produsent	-10.1221
▁bygger	-10.1223
▁tilfeller	-10.1229
skytter	-10.1235
▁innhold	-10.1241
mont	-10.1241
▁meta	-10.1241
herre	-10.1247
▁sho	-10.1252
97	-10.1269
ough	-10.127
▁matt	-10.1273
▁penge	-10.1273
vannet	-10.1274
▁sistnevnte	-10.1276
▁nedbør	-10.1276
▁muslim	-10.1276
▁brensel	-10.1276
▁reaksjon	-10.1276
▁tegneserie	-10.1276
▁utnytte	-10.1277
byrå	-10.1279
opplysning	-10.1283
▁tilbyr	-10.1284
alistisk	-10.1286
▁hovedsak	-10.1288
▁170	-10.1291
▁thi	-10.1292
hild	-10.1292
▁petter	-10.1295
arten	-10.1299
▁lønn	-10.1309
setting	-10.1316
▁simon	-10.1316
lyst	-10.1321
markedet	-10.1336
▁gruve	-10.134
forestilling	-10.1347
skyting	-10.136
▁anlegg	-10.1361
row	-10.1364
tittel	-10.1372
▁erobret	-10.1373
cal	-10.1377
▁synes	-10.1389
basert	-10.1389
▁sluttet	-10.1395
▁forstå	-10.1407
▁bull	-10.1414
▁statlig	-10.1416
idrett	-10.1417
▁lån	-10.142
skift	-10.142
ł	-10.1423
▁eksperiment	-10.1423
belteasteroide	-10.1423
▁eksempler	-10.1423
▁konkurrere	-10.1423
▁sjelden	-10.1423
▁nominert	-10.1423
▁svømme	-10.1423
▁victor	-10.1423
▁liberal	-10.1424
▁edvard	-10.1424
34	-10.1433
▁diplomat	-10.1434
▁160	-10.1447
▁andreplass	-10.1448
ygg	-10.1452
▁drap	-10.1452
▁hve	-10.1461
▁1700	-10.1461
▁bygning	-10.1469
▁dalen	-10.147
▁buk	-10.1477
kryss	-10.1486
▁musikalsk	-10.1488
▁mobil	-10.1499
▁svar	-10.1502
▁funn	-10.1508
▁cri	-10.1509
▁skapte	-10.1514
effekt	-10.1522
front	-10.1524
▁lim	-10.1531
27	-10.1533
▁ingeniør	-10.1534
▁jag	-10.1538
▁kjøl	-10.1539
▁konkurranse	-10.1544
▁avtale	-10.1545
forhold	-10.1548
▁telemark	-10.156
dokument	-10.1566
▁1905	-10.1572
▁pakistan	-10.1572
▁kjærlighet	-10.1572
frekvens	-10.1572
▁regissert	-10.1572
konferanse	-10.1572
kompleks	-10.1572
▁kapell	-10.1573
▁måned	-10.1573
▁levde	-10.1573
▁praksis	-10.1574
▁dverg	-10.1574
domstol	-10.1575
▁spredt	-10.1575
▁1910	-10.1576
▁luther	-10.1577
▁vokser	-10.1579
▁vill	-10.158
▁anledning	-10.158
▁plasser	-10.1583
bukta	-10.1586
▁1000	-10.1589
▁hellig	-10.1591
▁tilbud	-10.1598
town	-10.16
▁bou	-10.1602
▁1600	-10.1603
▁underlagt	-10.1605
▁tau	-10.1616
roman	-10.1618
77	-10.162
▁gor	-10.1622
▁adam	-10.1624
▁kommunikasjon	-10.1629
sider	-10.1631
▁omfattet	-10.1639
▁larve	-10.1639
▁turner	-10.1645
▁skinn	-10.1646
innen	-10.1652
33	-10.1663
▁utsatt	-10.167
31	-10.1679
▁slu	-10.1683
▁tour	-10.1685
modell	-10.1685
▁tjenester	-10.169
alisme	-10.1694
rekke	-10.1711
punktet	-10.1716
▁anse	-10.1719
▁alkohol	-10.1724
stråling	-10.1724
▁multi	-10.1725
▁1931	-10.1725
▁bygninger	-10.173
▁dokumenter	-10.173
▁alpin	-10.1733
▁sikkerhets	-10.1735
▁brygge	-10.1737
▁fritt	-10.1739
plattform	-10.174
givelse	-10.174
▁enorm	-10.1743
▁kjell	-10.1749
▁ansvar	-10.1749
jær	-10.1754
▁samarbeidet	-10.1767
▁irak	-10.1769
▁keiseren	-10.1774
▁kval	-10.178
▁fantes	-10.1785
▁ansvaret	-10.1795
▁seine	-10.18
bomb	-10.1801
▁tromsø	-10.1814
▁sven	-10.1817
museum	-10.1833
▁ref	-10.1834
▁green	-10.1835
▁fotograf	-10.1838
▁minister	-10.1848
▁trø	-10.1849
hjem	-10.1852
skrev	-10.1856
▁kenn	-10.1858
▁bilen	-10.1867
▁bakken	-10.1873
▁1901	-10.1877
▁guvernør	-10.1877
▁middelsstor	-10.1877
▁initiativ	-10.1878
▁ludvig	-10.1878
▁definert	-10.1878
▁akershus	-10.1878
▁rogaland	-10.1878
▁flertall	-10.1878
▁major	-10.1878
▁angripe	-10.1878
▁hemmelig	-10.1878
▁inneholdt	-10.1878
▁bakvingen	-10.1878
▁nedenfor	-10.1878
▁1922	-10.1879
▁flekker	-10.1881
▁kapp	-10.1886
▁arkitektur	-10.1892
kostnad	-10.1893
misjon	-10.19
22	-10.1905
galleri	-10.1906
▁vg	-10.1907
▁bygda	-10.1908
▁with	-10.1915
▁tone	-10.1919
▁kvart	-10.1922
▁nettverk	-10.1928
▁politiet	-10.1934
▁zu	-10.1937
▁gaten	-10.1946
bevisst	-10.1947
▁gli	-10.1954
▁kok	-10.1959
▁filosofi	-10.196
▁trond	-10.197
▁grov	-10.1971
barn	-10.1973
▁stig	-10.1973
produkt	-10.1987
▁orkester	-10.1988
hjelp	-10.1991
▁arv	-10.2
17	-10.2003
▁gyl	-10.2004
onia	-10.2006
▁levert	-10.2006
▁storm	-10.2007
▁hardt	-10.2011
mynt	-10.2012
▁landskap	-10.2014
▁orient	-10.2015
▁skyld	-10.2019
fyr	-10.2024
duk	-10.2027
▁tyrkisk	-10.2034
▁allierte	-10.2034
▁romsdal	-10.2035
▁jesus	-10.2035
hev	-10.2035
▁anklage	-10.2036
▁skaffe	-10.2039
▁wel	-10.2039
com	-10.2043
▁och	-10.2052
▁34	-10.2053
26	-10.2057
▁utvalg	-10.2061
registre	-10.2065
▁jack	-10.2066
▁uttale	-10.2075
▁kommunal	-10.2076
▁frihet	-10.2078
▁hull	-10.2079
▁banen	-10.2081
▁båten	-10.2082
▁sideelv	-10.2083
▁tilfelle	-10.2086
▁utløp	-10.2089
▁slett	-10.209
▁kommet	-10.2099
▁dj	-10.2105
▁mangler	-10.2112
▁hammer	-10.2118
begynner	-10.2133
▁overført	-10.2138
brand	-10.2144
▁bla	-10.2145
halvøya	-10.2152
chang	-10.2154
hul	-10.216
▁tunnel	-10.2162
sikkerhet	-10.2168
nettet	-10.2174
gende	-10.2176
irk	-10.2178
▁kim	-10.218
▁ali	-10.219
▁rase	-10.2192
friidrettsutøver	-10.2192
▁science	-10.2192
▁astronom	-10.2192
▁kontinent	-10.2192
▁hendelser	-10.2193
▁konstant	-10.2194
▁power	-10.2194
væske	-10.2194
▁drammen	-10.2195
▁bekrefte	-10.2195
▁scott	-10.2196
▁dekket	-10.2204
▁respekt	-10.2204
▁handler	-10.2226
▁deltaker	-10.2229
▁tun	-10.2234
▁tilpasse	-10.2235
pistol	-10.2244
▁cro	-10.2248
▁furu	-10.2251
▁pap	-10.2255
▁tam	-10.2266
▁kraftige	-10.2269
▁søkt	-10.2272
uch	-10.2273
▁paus	-10.2281
▁kommando	-10.2286
▁aker	-10.2307
▁kalk	-10.2308
▁qui	-10.2309
▁hil	-10.2312
▁ansvarlig	-10.2318
dannelse	-10.2318
▁beina	-10.232
▁ekspedisjonen	-10.2326
▁starter	-10.2328
▁brenn	-10.2335
▁løsning	-10.2337
▁nam	-10.235
livet	-10.2351
ç	-10.2354
▁1908	-10.2354
▁regissør	-10.2354
▁vulkan	-10.2354
▁erkebiskop	-10.2354
▁konsept	-10.2354
▁jødisk	-10.2354
▁riktig	-10.2355
▁slank	-10.2355
▁manager	-10.2356
▁inntekt	-10.2356
▁skarp	-10.2356
▁elske	-10.2358
▁synlig	-10.2359
▁800	-10.2359
▁portrett	-10.236
blokk	-10.2361
▁planen	-10.2362
▁europe	-10.2363
lement	-10.2363
▁ligne	-10.2371
▁vannkraftverk	-10.2372
hed	-10.2377
▁metro	-10.2379
▁team	-10.2379
▁formen	-10.2382
strømmen	-10.2387
▁vekk	-10.2391
▁hval	-10.2392
pat	-10.2393
▁forekommer	-10.2399
▁katolsk	-10.2401
▁gy	-10.2406
▁tw	-10.2412
▁motsatt	-10.242
▁klokken	-10.2422
▁blande	-10.2422
▁håp	-10.2424
▁gress	-10.2431
▁opptre	-10.2431
sentre	-10.2432
mennene	-10.2446
▁wu	-10.2451
zu	-10.2454
beck	-10.2456
folket	-10.2457
72	-10.2461
▁prim	-10.2462
▁neu	-10.2464
gress	-10.2468
▁landene	-10.2472
lé	-10.2474
otte	-10.2477
struktur	-10.2482
forskning	-10.2484
▁fru	-10.2489
måte	-10.2489
horn	-10.2491
bunn	-10.2492
▁uker	-10.2514
▁innbyggerne	-10.2518
molekyl	-10.2518
▁jakob	-10.2518
▁belgia	-10.2518
▁risiko	-10.2518
▁ekstrem	-10.2518
▁cirka	-10.2518
▁rektor	-10.2518
▁kjørt	-10.2518
▁avdøde	-10.2518
▁forårsake	-10.2519
▁utenlandsk	-10.2519
anda	-10.2519
▁håndball	-10.252
▁telefon	-10.252
▁signert	-10.2521
▁endringer	-10.2522
▁beregne	-10.2523
▁filip	-10.2523
istan	-10.2525
tain	-10.253
75	-10.253
▁show	-10.2532
▁soldat	-10.2533
▁bosetning	-10.2534
▁sende	-10.2537
▁hevde	-10.2541
ånd	-10.2542
▁uavhengighet	-10.2545
▁human	-10.2554
put	-10.2562
bestod	-10.2565
▁kyr	-10.2578
▁bei	-10.2596
▁takke	-10.2628
▁vitne	-10.2636
mming	-10.2637
artikler	-10.2642
▁ønsker	-10.2644
tjenesten	-10.2647
▁vig	-10.2649
født	-10.2655
▁elver	-10.267
▁uttrykket	-10.2672
▁antagelig	-10.2684
▁kristiansand	-10.2685
▁arendal	-10.2685
mønster	-10.2686
▁1925	-10.2687
bridge	-10.2691
kompani	-10.2692
ittisk	-10.2692
▁nød	-10.2697
▁arrestert	-10.2703
▁agder	-10.271
▁lord	-10.2724
▁santa	-10.273
▁ull	-10.2731
▁petr	-10.2751
spillet	-10.2756
▁ulv	-10.2756
oksid	-10.2759
▁back	-10.2759
▁stå	-10.2762
▁polar	-10.2763
▁prosessen	-10.2769
▁forbud	-10.2774
norsk	-10.2785
▁modellen	-10.2793
▁fjernet	-10.2798
▁saga	-10.2805
styrken	-10.2806
ual	-10.2814
▁håndverk	-10.2816
▁mono	-10.2824
problem	-10.2824
miljø	-10.2825
▁bevege	-10.2828
▁overleve	-10.2831
▁legen	-10.2838
▁teknikk	-10.2842
▁aas	-10.2845
▁kristian	-10.2848
▁bærer	-10.2852
▁beseiret	-10.2854
▁1904	-10.2854
▁integr	-10.2854
komité	-10.2855
▁overlevd	-10.2856
▁1927	-10.2856
▁1911	-10.2856
gymnas	-10.2856
▁1919	-10.2857
▁oblast	-10.2857
▁terreng	-10.2857
▁stam	-10.2857
aceae	-10.2858
▁fry	-10.2864
▁gui	-10.2864
flukt	-10.2868
lønn	-10.2868
bebyggelse	-10.2868
▁demningen	-10.2875
▁nordre	-10.2875
vika	-10.2877
▁tilsvare	-10.2879
▁kanalen	-10.2882
▁fremtid	-10.2884
28	-10.2893
▁hå	-10.29
▁vii	-10.2901
hem	-10.291
▁trening	-10.2921
flekk	-10.2921
▁dyrke	-10.293
▁vendt	-10.2949
▁flytte	-10.2953
▁bratt	-10.2953
▁shan	-10.2963
▁jente	-10.2976
▁oberst	-10.2982
▁ferr	-10.2989
▁selge	-10.2991
▁eik	-10.2992
redskap	-10.3005
▁individ	-10.3026
▁konservativ	-10.3026
▁tømmer	-10.3026
▁service	-10.3026
▁ødelegge	-10.3026
▁sigurd	-10.3026
▁geografisk	-10.3026
▁negativ	-10.3026
▁arthur	-10.3026
▁ungarn	-10.3026
▁doktorgrad	-10.3027
▁golf	-10.3027
▁signal	-10.3027
▁håkon	-10.3028
▁finnmark	-10.3028
▁1926	-10.3028
▁friidrett	-10.3031
▁alfred	-10.3032
▁turneringen	-10.3033
▁fremført	-10.3034
▁hellas	-10.3037
klasse	-10.3038
▁cand	-10.3039
▁feire	-10.3039
▁sveitsisk	-10.3052
▁drepe	-10.3052
▁nerve	-10.3061
▁sørover	-10.3067
vandring	-10.3068
▁utbygging	-10.3072
▁bein	-10.3073
▁mottatt	-10.3076
forsamlingen	-10.308
▁villa	-10.3088
▁yo	-10.3109
▁vegg	-10.3113
▁israelsk	-10.3119
▁begrenset	-10.3122
▁utkom	-10.3122
▁hov	-10.3131
▁skapt	-10.3136
▁flåte	-10.3145
▁street	-10.3148
råk	-10.3149
▁foto	-10.3162
stiftelsen	-10.3162
økonomi	-10.3171
ington	-10.3173
sosial	-10.318
bølge	-10.318
museet	-10.3183
angrep	-10.3191
▁betegnelse	-10.3197
▁aksjon	-10.3199
bygget	-10.32
▁1902	-10.3202
▁eksemplar	-10.3202
▁milliarder	-10.3202
▁shanghai	-10.3202
▁konstruert	-10.3202
▁digital	-10.3202
▁anbefal	-10.3202
skulptur	-10.3202
▁følelse	-10.3202
▁terror	-10.3202
▁fungert	-10.3203
▁1923	-10.3204
▁etterfølger	-10.3204
▁indiske	-10.3204
▁programleder	-10.3205
▁hensyn	-10.3206
bud	-10.3207
▁jackson	-10.3207
▁east	-10.3209
▁utgivelsen	-10.3211
▁arena	-10.3213
▁eksport	-10.3214
▁spenning	-10.3216
kasse	-10.3218
▁1899	-10.3219
▁kommunestyre	-10.3219
▁paven	-10.3221
▁1880	-10.3223
▁tørr	-10.3226
botn	-10.3229
▁hørt	-10.3229
tårn	-10.3239
bringe	-10.3241
zon	-10.3243
▁from	-10.3251
▁rand	-10.3257
▁arrangement	-10.3262
kran	-10.3265
▁schw	-10.3273
▁komedie	-10.3287
▁vedtatt	-10.3296
samfunn	-10.33
▁inge	-10.33
▁utenriks	-10.332
ative	-10.3322
▁ordre	-10.3343
jal	-10.3376
▁fødsel	-10.338
▁naturreservat	-10.338
▁observasjon	-10.338
▁krevde	-10.338
▁vesentlig	-10.338
▁vestfold	-10.338
▁antarktis	-10.338
▁xiàn	-10.338
▁monument	-10.338
▁bøkene	-10.3381
▁vestre	-10.3381
agon	-10.3382
▁1916	-10.3383
▁midlertidig	-10.3384
▁frykt	-10.3388
▁kveld	-10.3388
▁aksje	-10.3391
▁fjær	-10.3393
flu	-10.3399
▁beholdt	-10.34
▁oppnådd	-10.3405
▁antatt	-10.3411
▁gradvis	-10.3413
▁platen	-10.3423
start	-10.3436
▁hvilket	-10.3439
mmel	-10.345
strup	-10.3474
▁samfunnet	-10.348
▁vedtok	-10.3512
fred	-10.3514
▁rose	-10.3547
▁tell	-10.3554
▁vietnam	-10.3555
▁corporation	-10.3562
▁country	-10.3562
▁okkupasjon	-10.3562
▁washington	-10.3562
▁eventuel	-10.3562
▁etablere	-10.3562
▁hensikt	-10.3562
▁opptrådt	-10.3562
▁juridisk	-10.3562
▁godkjent	-10.3564
▁monark	-10.3565
▁sølvmedalje	-10.3566
▁innlede	-10.3566
▁raske	-10.3569
faktor	-10.3569
▁1898	-10.3577
▁1895	-10.3581
▁oppløst	-10.3591
▁vente	-10.3594
▁ytterst	-10.36
korset	-10.3603
▁sankt	-10.3612
▁esp	-10.3615
▁emil	-10.3616
ical	-10.362
▁spring	-10.362
▁utgaven	-10.3627
▁ross	-10.363
▁pensjon	-10.3641
▁krim	-10.3648
▁etappe	-10.3651
▁betale	-10.3652
▁forskjellig	-10.3657
turnering	-10.366
ruten	-10.3666
▁omkom	-10.3672
▁handle	-10.3675
vard	-10.3678
kilde	-10.3678
▁nazi	-10.3688
▁kjemisk	-10.3692
▁mala	-10.3714
▁medisinsk	-10.3714
▁mei	-10.3715
▁grunnlov	-10.3734
▁laste	-10.3738
kontor	-10.3747
▁administrere	-10.3747
▁oppmerksomhet	-10.3747
▁jørgen	-10.3747
▁rettigheter	-10.3748
▁belgisk	-10.3748
▁mongol	-10.3748
▁studioalbum	-10.3748
▁eksistert	-10.3748
▁faktisk	-10.3749
▁kommunistisk	-10.3749
▁innebære	-10.3749
▁1917	-10.3749
▁divers	-10.375
▁sykkel	-10.3754
▁drikke	-10.3756
▁daniel	-10.3758
▁young	-10.3761
▁befinne	-10.3762
▁bell	-10.3764
▁antennene	-10.3783
▁bryte	-10.379
▁sender	-10.3791
▁tyskerne	-10.3798
▁modern	-10.3798
teater	-10.3805
flåten	-10.3808
yrk	-10.3809
veld	-10.3816
▁kjemi	-10.3818
cca	-10.3819
øst	-10.3828
▁troms	-10.3834
▁bjør	-10.3836
▁adels	-10.3841
opera	-10.3852
perioden	-10.3857
tysk	-10.3882
▁bære	-10.3888
bury	-10.3899
▁antenne	-10.3902
wick	-10.3908
▁rune	-10.3915
▁oppnå	-10.3923
▁vingene	-10.3926
▁øre	-10.3927
▁kara	-10.3933
▁gö	-10.3933
▁cru	-10.3934
▁anerkjenne	-10.3936
▁eventyr	-10.3936
▁okkupert	-10.3936
▁portugisisk	-10.3936
▁renessanse	-10.3936
▁company	-10.3936
▁ungarsk	-10.3936
pedagog	-10.3936
▁dokumentar	-10.3936
▁dominerende	-10.3938
▁fjernsyn	-10.3938
▁middelalder	-10.3938
▁wolf	-10.3938
kjøretøy	-10.3945
▁skrå	-10.3948
▁beskyttelse	-10.3953
▁life	-10.397
lock	-10.3983
▁nordover	-10.3991
▁angi	-10.3991
▁kommunist	-10.3997
▁løfte	-10.4009
årig	-10.4009
▁bakke	-10.401
▁grunnlaget	-10.4013
▁roger	-10.4022
▁osv	-10.4022
▁alv	-10.4023
▁kåret	-10.4031
▁unna	-10.4048
▁sikte	-10.4049
▁blu	-10.4054
▁institut	-10.4076
▁anton	-10.4077
▁ytter	-10.4112
14	-10.4115
▁kår	-10.4117
funksjon	-10.4123
evolusjon	-10.4123
politisk	-10.4124
▁dekkvingene	-10.4128
▁county	-10.4128
▁utelukke	-10.4128
▁vedlikehold	-10.4128
▁kombinasjon	-10.4128
▁hebraisk	-10.4128
▁thailand	-10.4128
▁fiolin	-10.4128
▁radikal	-10.4128
▁mekanisk	-10.4128
▁forbedre	-10.4129
▁ombord	-10.4129
▁definere	-10.4129
hytte	-10.4129
▁autonom	-10.4129
▁elektronisk	-10.4129
▁1921	-10.4131
▁smelte	-10.4132
▁trenger	-10.4132
▁angel	-10.4132
▁myndigheter	-10.4133
▁lyng	-10.4134
▁debatt	-10.4134
▁hjerne	-10.4135
▁komposisjon	-10.4135
karriere	-10.4141
▁1200	-10.4141
spinner	-10.4145
▁reserve	-10.4147
behandling	-10.4154
▁bog	-10.416
▁kino	-10.4182
▁besøkte	-10.4188
▁hj	-10.4192
▁vanligst	-10.4195
▁play	-10.4206
tavle	-10.4206
▁junior	-10.4206
▁praktisk	-10.4214
lignende	-10.4215
▁american	-10.422
opter	-10.423
▁kortere	-10.4233
▁sikker	-10.4248
▁henge	-10.4251
leie	-10.4256
▁mord	-10.4263
vold	-10.427
flo	-10.4285
▁skuespill	-10.4286
▁marked	-10.4289
▁shu	-10.4293
▁130	-10.4309
▁australsk	-10.4324
▁engasjert	-10.4324
▁manuskript	-10.4324
▁nøyaktig	-10.4324
▁christopher	-10.4324
▁referanse	-10.4324
▁canadisk	-10.4325
▁sachsen	-10.4325
▁kommersiell	-10.4325
▁strøk	-10.4325
▁yrkes	-10.4325
▁white	-10.4325
▁mesteparten	-10.4325
▁litterær	-10.4327
▁sverre	-10.4328
▁down	-10.433
▁prix	-10.4343
▁hjal	-10.4343
orientert	-10.4349
▁1500	-10.4352
▁delstat	-10.4356
▁estland	-10.4359
▁høre	-10.4363
▁næringsliv	-10.4383
▁wall	-10.4385
høyden	-10.4391
periode	-10.4394
vakt	-10.4411
▁fol	-10.4414
▁verksted	-10.4419
▁etasje	-10.442
▁urban	-10.4441
chester	-10.4456
▁pul	-10.4483
studie	-10.4494
▁avtalen	-10.4499
▁hamar	-10.4502
▁rasen	-10.4517
gjennomsnitt	-10.4524
▁aleksander	-10.4524
▁amsterdam	-10.4524
▁maksimal	-10.4524
▁trommeslager	-10.4524
▁østfold	-10.4524
▁alexander	-10.4524
▁reklame	-10.4524
▁uvanlig	-10.4525
▁zealand	-10.4525
▁trukket	-10.4525
▁psyko	-10.4525
▁bokstaven	-10.4525
▁utmerkelse	-10.4525
▁batteri	-10.4525
▁adresse	-10.4525
▁generasjon	-10.4525
▁fangst	-10.4526
materiale	-10.4526
musiker	-10.4527
▁import	-10.4528
▁gravlagt	-10.4528
▁britene	-10.4528
▁web	-10.4529
▁departement	-10.4532
▁studere	-10.4532
▁hydro	-10.4533
▁filosof	-10.4538
▁1896	-10.454
fund	-10.4542
verdi	-10.4548
▁250	-10.4548
▁palm	-10.4548
▁good	-10.455
▁brødrene	-10.4564
gass	-10.4576
▁synge	-10.4583
▁rosen	-10.4593
▁river	-10.4598
forsyning	-10.4636
tjern	-10.4646
▁elite	-10.4649
▁bestemme	-10.4662
▁markere	-10.4677
▁gw	-10.4679
finn	-10.4684
forvaltning	-10.469
psy	-10.4698
▁unngå	-10.4705
▁sekund	-10.4719
lich	-10.4721
▁seremoni	-10.4728
▁1903	-10.4728
▁admiral	-10.4728
▁helsingfors	-10.4728
▁sjeldne	-10.4728
▁tønsberg	-10.4728
▁annonsert	-10.4728
▁artilleri	-10.4728
▁separat	-10.4728
▁parallell	-10.4729
▁fenomen	-10.4729
▁kritisert	-10.4729
▁blanding	-10.473
▁halvparten	-10.473
▁hedmark	-10.4732
sønn	-10.4737
▁rod	-10.4739
▁syl	-10.474
▁gjenstand	-10.4741
▁smerte	-10.4758
▁morten	-10.4759
▁arkeolog	-10.4785
▁sosialistisk	-10.4786
▁marx	-10.4798
inkel	-10.4806
head	-10.4816
▁gjeng	-10.4835
▁øverst	-10.4869
▁oppdagelse	-10.4904
▁140	-10.4926
▁kollektiv	-10.4937
▁buskerud	-10.4937
▁heinrich	-10.4937
▁søndag	-10.4937
▁eksisterer	-10.4937
▁overraske	-10.4938
▁flytende	-10.4939
▁assistent	-10.4939
kjøring	-10.4939
▁egenskaper	-10.494
▁1915	-10.494
▁generell	-10.494
▁mengder	-10.4942
▁erfaring	-10.4944
▁allmenn	-10.4945
▁byggingen	-10.4945
▁900	-10.4946
▁stortings	-10.4948
▁røtter	-10.4948
▁forenkle	-10.4949
▁britis	-10.4951
▁anlagt	-10.4951
▁bøy	-10.4952
▁bodø	-10.4953
▁1882	-10.4957
▁blues	-10.4959
maleri	-10.4967
▁tredjeplass	-10.4976
▁kapit	-10.4982
▁møre	-10.4983
harmoni	-10.4984
▁skyte	-10.4984
minne	-10.4989
▁fau	-10.4989
▁andel	-10.4992
▁slippe	-10.4998
hest	-10.5025
gods	-10.5025
jong	-10.5025
vang	-10.5055
falt	-10.506
tind	-10.5065
▁nordmenn	-10.507
næs	-10.5076
▁beskrivelse	-10.5077
kopi	-10.511
opplevelse	-10.511
drakt	-10.5113
▁utvide	-10.5125
rock	-10.5144
▁jul	-10.5148
▁debutalbum	-10.515
▁elisabeth	-10.515
▁elizabeth	-10.515
▁hovedkvarter	-10.515
▁vingespenn	-10.515
▁1909	-10.515
▁oppstår	-10.515
▁amatør	-10.515
▁ordinær	-10.515
▁hendelsen	-10.515
▁oppstod	-10.515
▁strekningen	-10.515
ов	-10.515
▁invasjon	-10.5151
▁bbc	-10.5152
▁krysset	-10.5152
▁svein	-10.5153
▁arbeiderpartiet	-10.5154
▁fortellingen	-10.516
posisjon	-10.5162
▁franz	-10.5162
teknikk	-10.5165
kanalen	-10.5166
syssel	-10.5172
▁1890	-10.5173
▁tempel	-10.5187
▁østover	-10.5188
▁christiania	-10.5193
▁wales	-10.5217
utstyr	-10.522
talende	-10.5223
▁falk	-10.5234
▁schi	-10.5242
regime	-10.5261
▁verb	-10.5262
▁klippe	-10.5266
▁hyll	-10.5266
▁henri	-10.5278
avisen	-10.528
▁prakt	-10.528
bekken	-10.529
▁størst	-10.531
▁flest	-10.5325
pakke	-10.5326
▁toll	-10.5331
▁histori	-10.5338
krever	-10.5341
▁kunstnerisk	-10.5353
▁patriark	-10.5367
▁sportsutøver	-10.5367
▁kommandør	-10.5367
▁tabellen	-10.5367
▁indikere	-10.5367
▁individuell	-10.5367
▁semifinale	-10.5367
▁skildre	-10.5367
▁geometri	-10.5368
▁rolf	-10.5368
▁virtu	-10.5368
▁fjellkjede	-10.5369
▁1913	-10.537
hatt	-10.537
▁klokke	-10.5372
▁birke	-10.5374
▁piano	-10.5377
▁kristiania	-10.5378
▁avansert	-10.5381
medlem	-10.5384
▁1888	-10.5385
▁tyng	-10.5386
▁1889	-10.5386
▁ibsen	-10.5388
▁koble	-10.5389
▁avvist	-10.5394
▁johansen	-10.5412
▁grunnlag	-10.5417
▁teologi	-10.5419
▁variert	-10.5423
▁georgia	-10.5425
▁kosm	-10.5436
▁dreie	-10.5454
sjekk	-10.5527
▁bang	-10.5531
inndeling	-10.5535
vá	-10.5537
avtale	-10.554
▁munk	-10.5552
▁hö	-10.5553
▁mangle	-10.5557
▁tiår	-10.5568
løytnant	-10.5589
▁afghanistan	-10.5589
▁kvalifisering	-10.5589
▁færøyene	-10.5589
▁hordaland	-10.5589
▁josef	-10.5589
▁valuta	-10.559
▁utseende	-10.559
▁andré	-10.559
▁skjøt	-10.559
▁rådgiver	-10.5591
▁kongedømmet	-10.5591
▁beordre	-10.5591
▁røyk	-10.5594
▁holdning	-10.5595
konvensjon	-10.5596
▁sara	-10.5599
▁kamera	-10.5601
▁tjener	-10.5601
▁1879	-10.5606
▁vindu	-10.5609
▁verdensmester	-10.5629
▁forvaltnings	-10.5634
▁derfra	-10.5638
▁ernst	-10.5639
▁book	-10.5645
▁peder	-10.5649
▁road	-10.5663
settelse	-10.5664
▁menneskelig	-10.5678
▁jones	-10.5689
▁låten	-10.5689
▁egyptisk	-10.5726
▁term	-10.5755
kommisjon	-10.5763
vassdraget	-10.5816
▁1906	-10.5816
▁1907	-10.5816
▁aluminium	-10.5816
▁assosiert	-10.5816
▁barcelona	-10.5816
▁forhindre	-10.5816
▁symfoni	-10.5816
▁chicago	-10.5816
ström	-10.5817
▁frivillig	-10.5817
▁sprint	-10.5817
▁forklaring	-10.5817
▁pont	-10.5818
▁madrid	-10.5819
▁opplevd	-10.582
▁francisco	-10.582
▁kongsberg	-10.5822
▁vende	-10.5825
▁manchester	-10.5826
▁gjenværende	-10.5826
▁fredrikstad	-10.583
▁einar	-10.5832
▁knud	-10.5833
▁panser	-10.584
brett	-10.5844
▁sukker	-10.5848
▁heart	-10.5855
▁grei	-10.5858
▁kaller	-10.5884
syklus	-10.5885
▁karakteristisk	-10.5887
▁statue	-10.5889
▁klage	-10.5901
▁million	-10.5903
▁blind	-10.5904
▁lukke	-10.5915
▁frakte	-10.5918
parten	-10.5919
▁oppfatte	-10.6012
lende	-10.6028
øse	-10.6035
▁jesuitt	-10.6049
▁münchen	-10.6049
▁skjønt	-10.6049
▁styrmann	-10.6049
▁gunnar	-10.6049
▁texas	-10.6049
▁sluppet	-10.6049
▁foregår	-10.6049
▁nikola	-10.6049
▁bærum	-10.605
▁forkortet	-10.605
▁tverrbånd	-10.605
▁novell	-10.6051
▁samuel	-10.6053
▁foreslått	-10.6053
▁grøn	-10.6058
▁tronen	-10.6061
▁høyesterett	-10.6061
▁lokalisert	-10.6061
▁tropper	-10.6062
▁lunge	-10.6066
finalen	-10.6067
▁1894	-10.6068
▁aksel	-10.6072
▁grønland	-10.6075
▁hamburg	-10.6076
▁skyldes	-10.6082
litteratur	-10.6085
▁utenom	-10.6087
time	-10.6094
▁persisk	-10.6096
▁kva	-10.6097
utenriksminister	-10.61
utvalget	-10.611
▁mørkere	-10.6119
▁basis	-10.6127
▁server	-10.613
▁stund	-10.6132
▁sovjet	-10.6134
regjering	-10.616
støtte	-10.6168
▁lært	-10.6175
▁intens	-10.6198
▁nøt	-10.6236
▁kapital	-10.6237
samband	-10.6238
kledd	-10.6243
▁ove	-10.6247
bevegelse	-10.6254
▁regjer	-10.6257
prest	-10.6268
▁stang	-10.6277
▁poli	-10.6282
▁francis	-10.6284
▁fakultet	-10.6287
▁konkurrert	-10.6287
▁observato	-10.6287
▁oksygen	-10.6287
▁svalbard	-10.6287
▁ukrainsk	-10.6287
▁virginia	-10.6287
▁hjørne	-10.6287
▁preussen	-10.6287
▁ansikt	-10.6287
▁deutsche	-10.6287
▁psykologi	-10.6287
▁hjort	-10.6288
▁flyktning	-10.6288
▁gjennomsnittlig	-10.6288
▁kjøtt	-10.6288
▁utfordre	-10.6289
▁innlemme	-10.6289
▁naturgass	-10.6289
▁silke	-10.6289
▁bakterie	-10.629
▁fortellinger	-10.629
▁brown	-10.629
▁group	-10.6292
▁biografi	-10.6297
dimensjon	-10.6298
fortelling	-10.6298
▁donau	-10.63
▁hvile	-10.6303
▁antikken	-10.6304
▁ordnet	-10.6305
▁ddr	-10.6309
▁sammenlagt	-10.631
▁klatre	-10.6311
▁kunstig	-10.6315
▁kjel	-10.6322
▁indianer	-10.6323
hei	-10.6325
▁beholde	-10.6325
kjede	-10.6325
divisjon	-10.6329
▁oval	-10.633
styring	-10.633
▁audi	-10.6331
rekord	-10.6337
▁republikk	-10.6343
▁fortalt	-10.6346
▁glad	-10.6354
ique	-10.6364
▁erobre	-10.6374
hvit	-10.6375
▁puppe	-10.6402
▁luci	-10.6403
▁islandsk	-10.6408
▁satse	-10.6418
▁cuba	-10.6427
nntatt	-10.6465
▁unik	-10.6475
▁arkeologisk	-10.6489
▁vev	-10.6509
edderkopper	-10.6518
stigning	-10.6523
kontroll	-10.6529
▁portugal	-10.6531
budsjett	-10.6531
▁permanent	-10.6531
▁testamente	-10.6531
▁utspring	-10.6531
▁embets	-10.6531
▁henrettet	-10.6531
▁kommentar	-10.6531
▁avgjørende	-10.6531
▁skihopp	-10.6531
▁regulere	-10.6531
▁germansk	-10.6531
▁føderal	-10.6532
feksjon	-10.6532
▁mineral	-10.6533
▁rosenborg	-10.6533
▁disney	-10.6534
▁avgjørelse	-10.6534
redaksjon	-10.6534
▁forklare	-10.6536
▁igjennom	-10.6537
▁2018	-10.6538
▁forbinde	-10.6542
▁bønn	-10.6542
▁1872	-10.6547
▁hms	-10.6554
▁talent	-10.656
▁walter	-10.6565
▁gjennomføre	-10.6566
▁katedral	-10.6566
▁romerne	-10.6567
▁tvang	-10.6571
▁bestemmelse	-10.6572
kandidat	-10.6579
bibliotek	-10.6579
temperatur	-10.6579
programmet	-10.6583
▁seire	-10.6594
ologen	-10.6615
tromme	-10.6631
radio	-10.6636
▁dominert	-10.6655
▁spesialiser	-10.6719
▁antoni	-10.6724
▁material	-10.6729
▁brødre	-10.6731
feng	-10.6744
▁argumenter	-10.6781
▁football	-10.6781
▁frankfurt	-10.6781
▁hollywood	-10.6781
▁infanteri	-10.6781
▁church	-10.6781
apparat	-10.6782
▁prinsesse	-10.6782
▁josé	-10.6782
▁opposisjon	-10.6783
▁bispe	-10.6784
▁magasinet	-10.6784
▁bensin	-10.6785
terminal	-10.6785
▁pierre	-10.6785
▁anvende	-10.6786
▁programvare	-10.6787
▁fastlandet	-10.6791
metri	-10.6792
▁nederlag	-10.6801
▁1892	-10.6802
▁lisens	-10.6805
▁1870	-10.6807
▁akku	-10.6809
▁plast	-10.6822
befolkning	-10.6835
prøve	-10.6839
▁afrikansk	-10.6842
▁thu	-10.6865
demokrati	-10.6873
vatn	-10.6882
▁ligge	-10.6886
nettverk	-10.6898
▁forlate	-10.6901
egenskap	-10.6942
▁tilsyne	-10.703
▁napoleon	-10.7037
▁ambassadør	-10.7037
▁jomfru	-10.7037
▁kontinuerlig	-10.7037
▁windows	-10.7037
▁prøvd	-10.7037
▁anmelder	-10.7037
▁landkreis	-10.7037
▁adolf	-10.7037
▁ovenfor	-10.7037
▁karbon	-10.7038
▁kapittel	-10.7039
▁elleve	-10.7039
▁våt	-10.704
▁frigjøring	-10.704
▁regelmessig	-10.704
▁dukket	-10.704
▁jurist	-10.704
▁betjene	-10.7042
▁sjanger	-10.7042
на	-10.7043
gjald	-10.7044
▁avledet	-10.7044
▁frp	-10.7047
▁formula	-10.7049
▁betalt	-10.7049
▁trygg	-10.705
▁forskjellen	-10.7053
▁skjønn	-10.7053
▁1877	-10.7056
▁1897	-10.7057
▁jonas	-10.7058
▁1873	-10.7058
tradisjon	-10.71
▁slektning	-10.7123
▁tjenestegjor	-10.7123
▁billed	-10.7132
▁filosofisk	-10.7143
▁oppleve	-10.7162
toppen	-10.7219
medlemmer	-10.7219
fordeling	-10.7232
veps	-10.7277
▁fulgt	-10.7291
fabrik	-10.7291
▁nøkkel	-10.7301
▁sarpsborg	-10.7301
▁asteroide	-10.7301
▁kommandant	-10.7301
traktaten	-10.7301
▁kulturminner	-10.7301
▁tilskuere	-10.7301
▁charlotte	-10.7301
▁besluttet	-10.7301
▁konkurs	-10.7301
▁mektig	-10.7301
løft	-10.7301
▁kobber	-10.7302
teoretisk	-10.7302
▁massiv	-10.7302
▁enhver	-10.7304
worth	-10.7308
▁foredrag	-10.7309
▁krysser	-10.7309
▁bjerk	-10.731
▁pedersen	-10.7315
ière	-10.7315
▁1814	-10.7316
▁forandre	-10.7316
vilkår	-10.7316
▁øvelsen	-10.7317
▁meldt	-10.7321
▁schles	-10.7325
▁orgel	-10.7325
tillatelse	-10.7326
▁rykte	-10.7326
▁forsterke	-10.7326
▁senke	-10.7333
▁brent	-10.7334
utdanning	-10.7369
ingeniør	-10.7376
▁ferge	-10.7379
▁agent	-10.7389
nemlig	-10.7406
▁fyrste	-10.7434
▁forvente	-10.7438
▁usikker	-10.7475
faglig	-10.7497
▁administrasjon	-10.7536
▁punk	-10.7541
▁akseptert	-10.7571
▁benedikt	-10.7571
▁columbia	-10.7571
▁definisjon	-10.7571
▁favoritt	-10.7571
▁inspirasjon	-10.7571
▁låtskriver	-10.7571
▁prestegjeld	-10.7571
▁vladimir	-10.7571
grunnsstasjon	-10.7571
▁evangeli	-10.7571
▁lørdag	-10.7571
▁unesco	-10.7571
▁ålesund	-10.7571
▁selvmord	-10.7571
▁svekke	-10.7572
▁ørken	-10.7572
▁nymfe	-10.7572
stipend	-10.7573
katalog	-10.7573
▁verdensrekord	-10.7573
ев	-10.7573
▁väst	-10.7575
▁omdanne	-10.7575
▁oldtiden	-10.7575
▁sjette	-10.7575
▁skøyte	-10.7577
▁blank	-10.7577
▁stedsnavn	-10.7577
▁geologisk	-10.7577
▁misjons	-10.758
▁moderat	-10.7581
▁tvunge	-10.7582
▁trodde	-10.7582
▁øystein	-10.7583
▁bedriften	-10.7584
▁kunstløp	-10.7585
▁hyper	-10.7586
▁tillatt	-10.7587
▁1875	-10.7589
▁lidelse	-10.759
▁stanse	-10.7607
kredit	-10.7643
konsert	-10.765
▁dramatisk	-10.7678
▁öst	-10.7689
aften	-10.7717
▁egil	-10.7754
▁kriminal	-10.7775
▁nordsid	-10.7778
▁døgn	-10.7842
▁ressurs	-10.7842
▁angelsaksisk	-10.7849
▁antwerpen	-10.7849
▁association	-10.7849
▁giovanni	-10.7849
▁identifisere	-10.7849
▁jerusalem	-10.7849
▁konsekvens	-10.7849
▁lillehammer	-10.7849
▁observert	-10.7849
▁ortodoks	-10.7849
▁påbegynt	-10.7849
▁symptom	-10.7849
▁babylon	-10.7849
▁brønn	-10.7849
▁göteborg	-10.7849
▁skjult	-10.7849
▁komponert	-10.7849
▁heavy	-10.7849
▁tilsammen	-10.7849
▁relatert	-10.7849
▁haakon	-10.7849
▁vegetasjon	-10.7849
▁brigade	-10.7849
▁nepal	-10.7849
▁kallenavn	-10.785
▁splitt	-10.785
materiell	-10.785
ск	-10.7851
▁forberede	-10.7851
▁ektemann	-10.7851
▁franskmennene	-10.7851
▁hjemmebane	-10.7854
ра	-10.7855
▁grafisk	-10.7856
▁tropisk	-10.7858
▁alex	-10.7858
▁ballett	-10.7859
▁bydistrikt	-10.7859
▁opptreden	-10.7861
▁blokker	-10.7864
▁vandre	-10.7864
kampanje	-10.7866
▁idé	-10.7868
▁assist	-10.7872
▁smak	-10.7874
vík	-10.7879
▁oversette	-10.789
▁cornel	-10.7894
▁halvdel	-10.7911
▁anslå	-10.7914
teknologi	-10.7918
kreft	-10.7931
orkester	-10.7932
grønn	-10.7933
provins	-10.7933
verktøy	-10.7937
gjerd	-10.7941
▁bakkropp	-10.7941
▁gratis	-10.7944
ettighetene	-10.7945
▁barokk	-10.7957
strakte	-10.7971
▁fortelle	-10.8053
▁etnisk	-10.8068
▁vannkraft	-10.8121
▁nøytral	-10.8134
▁restaurant	-10.8134
▁ukraina	-10.8134
▁forveksle	-10.8134
▁hospital	-10.8134
▁könig	-10.8134
▁uttrykt	-10.8134
▁eksisterende	-10.8134
▁opprettholde	-10.8134
▁forfremme	-10.8134
▁fysikk	-10.8134
▁linux	-10.8134
▁fjordane	-10.8134
▁krystall	-10.8134
veksling	-10.8134
köping	-10.8134
▁nicola	-10.8134
▁folketallet	-10.8134
▁følte	-10.8135
▁forsvant	-10.8135
høvding	-10.8135
▁utfordring	-10.8135
▁barnehage	-10.8135
▁underholdning	-10.8135
▁sektor	-10.8135
▁skrog	-10.8135
▁systematisk	-10.8135
ovitsj	-10.8136
▁arbeidsgiver	-10.8137
vunne	-10.8139
▁institusjoner	-10.8141
▁hovedkontor	-10.8141
▁kaffe	-10.8142
▁mannskapet	-10.8143
▁gudinnen	-10.8143
▁rednings	-10.8143
▁ytelse	-10.8147
▁forlatt	-10.8152
▁kopier	-10.8154
▁tolke	-10.8156
▁månen	-10.8159
▁nederst	-10.8162
▁mandat	-10.8164
rull	-10.8189
▁avskjed	-10.8202
institutt	-10.8226
transport	-10.8227
likevel	-10.8227
▁spenne	-10.8234
sentral	-10.8235
brann	-10.8236
▁begrense	-10.8283
▁kongress	-10.8293
▁rapportert	-10.8309
utstillingen	-10.8314
næringen	-10.8364
forandring	-10.8384
pningsseremonien	-10.8428
▁absolutt	-10.8428
▁argentina	-10.8428
▁mangfold	-10.8428
▁petroleum	-10.8428
▁pronotum	-10.8428
▁venezia	-10.8428
▁intervju	-10.8428
▁automatisk	-10.8428
▁resultert	-10.8428
▁hyppig	-10.8428
▁stafett	-10.8428
bataljon	-10.8429
▁komplett	-10.8429
▁regulert	-10.8429
▁fengsle	-10.8429
▁begravet	-10.8429
▁begravelse	-10.8429
▁frimurer	-10.8429
▁alminnelig	-10.8429
▁dekorert	-10.8429
▁uklar	-10.8429
forsikring	-10.843
▁skikkelse	-10.843
▁referert	-10.843
▁central	-10.843
▁gregor	-10.843
▁partner	-10.843
▁beskjed	-10.8431
▁rettferdig	-10.8431
▁årsaken	-10.8431
▁innebar	-10.8433
▁alpene	-10.8434
▁tibet	-10.8434
▁hydrogen	-10.8434
ressurser	-10.8435
▁rifle	-10.8441
veggen	-10.8444
▁sosialdemokrat	-10.845
▁cross	-10.8454
▁fasci	-10.8472
▁utvidelse	-10.8499
hvelv	-10.8507
vennlig	-10.8513
biskop	-10.853
▁domkirke	-10.8542
kjøl	-10.8552
streik	-10.8582
stamme	-10.8589
▁musikal	-10.8599
▁kontrollert	-10.8667
▁lærd	-10.8683
utdanne	-10.8691
bryter	-10.8728
▁konkluder	-10.8731
▁diagnose	-10.8731
▁hongkong	-10.8731
▁omdøpt	-10.8731
▁tsjekkoslovaki	-10.8731
hertugdømmet	-10.8731
▁dramatiker	-10.8731
▁selvbiografi	-10.8731
▁pattedyr	-10.8731
▁returnert	-10.8731
▁britannia	-10.8731
▁litauen	-10.8731
▁sparebank	-10.8732
▁betydningsfull	-10.8732
▁margaret	-10.8732
leverandør	-10.8732
▁alexandr	-10.8732
palasset	-10.8732
▁sandefjord	-10.8732
▁slapp	-10.8732
▁guinea	-10.8732
▁walisisk	-10.8732
▁tokyo	-10.8732
▁stadium	-10.8733
▁sibir	-10.8733
▁visepresident	-10.8733
▁fylkeskommune	-10.8733
▁filmatiser	-10.8734
▁year	-10.8734
▁nyhets	-10.8735
▁fienden	-10.8735
mekanisme	-10.8735
▁søndr	-10.8735
▁gjenopprette	-10.8736
▁fuktig	-10.8737
▁spillefilm	-10.8738
▁michel	-10.8738
▁økning	-10.8738
▁historikeren	-10.8739
▁forløper	-10.8754
▁otta	-10.8789
kjønn	-10.8823
▁innerst	-10.8824
sentrum	-10.8843
tilbud	-10.886
▁flue	-10.8864
foretak	-10.8865
▁familiegruppe	-10.8865
▁styremedlem	-10.8876
▁presis	-10.8881
▁basketball	-10.9044
▁generalmajor	-10.9044
▁jugoslavia	-10.9044
▁millimeter	-10.9044
▁orchestra	-10.9044
▁overvåke	-10.9044
▁parallelt	-10.9044
▁society	-10.9044
▁særskilt	-10.9044
▁claudi	-10.9044
▁etablering	-10.9044
▁innendørs	-10.9044
▁invadert	-10.9044
▁psykisk	-10.9044
svømming	-10.9044
▁carolina	-10.9044
▁identitet	-10.9044
▁taylor	-10.9044
▁colombia	-10.9044
▁opphevet	-10.9044
▁aktuell	-10.9044
▁clark	-10.9044
▁verdensarv	-10.9044
▁utbredelse	-10.9044
▁avviklet	-10.9044
▁seksuell	-10.9044
▁skjebne	-10.9044
▁beleiring	-10.9044
▁tempo	-10.9045
▁drømme	-10.9045
▁trengte	-10.9045
▁utforming	-10.9045
▁søsken	-10.9046
▁forkortelse	-10.9046
▁stefan	-10.9046
jylland	-10.9046
▁axel	-10.9046
▁poesi	-10.9046
▁oppfølger	-10.9046
▁bayern	-10.9047
▁kongeriket	-10.9048
▁tallrike	-10.9048
▁akademisk	-10.9055
nekter	-10.9056
seminar	-10.9057
▁sekundær	-10.9062
▁søyle	-10.9081
vokter	-10.9086
betaling	-10.9106
torget	-10.9126
▁høydepunkt	-10.9127
▁rangert	-10.9131
spørsmål	-10.9164
alliansen	-10.9173
▁teolog	-10.9229
fellesskap	-10.9264
bytte	-10.9277
▁ideologi	-10.9331
gudinne	-10.9335
skvadron	-10.9367
▁færøysk	-10.9367
▁guddommelig	-10.9367
▁lincoln	-10.9367
▁palestinsk	-10.9367
▁rudolf	-10.9367
▁episoden	-10.9367
▁tyrkia	-10.9367
▁utendørs	-10.9367
▁diameter	-10.9367
▁foreløpig	-10.9367
▁fantasy	-10.9367
▁massakre	-10.9367
▁kvadrat	-10.9367
▁wagner	-10.9367
▁class	-10.9367
▁utgravning	-10.9367
▁sjakk	-10.9367
▁castle	-10.9367
▁oppfinner	-10.9367
▁vakre	-10.9367
▁senior	-10.9368
▁cecil	-10.9368
ови	-10.9368
▁titler	-10.9368
▁felttog	-10.9369
▁relasjon	-10.937
▁kommisjonen	-10.9371
▁stengt	-10.9373
▁ødela	-10.9377
▁bolivia	-10.938
hjelm	-10.9381
basseng	-10.9388
dekorasjon	-10.9392
kansler	-10.9394
▁kunngjor	-10.9396
østregionen	-10.9421
▁arrest	-10.9429
▁slange	-10.9439
president	-10.9496
▁allianse	-10.9565
muligheter	-10.9599
oppgjør	-10.9609
inistre	-10.9677
lektor	-10.969
lokomotiv	-10.97
▁arrangør	-10.97
▁bryllup	-10.97
▁engasjement	-10.97
▁ferdinand	-10.97
▁popularitet	-10.97
▁shakespeare	-10.97
▁tilnærming	-10.97
▁undergrunnsbane	-10.97
▁uppsala	-10.97
reservoar	-10.97
▁adskilt	-10.97
▁billboard	-10.97
▁frilufts	-10.97
▁kongsvinger	-10.97
▁offensiv	-10.97
▁oppdatert	-10.97
▁albania	-10.97
▁nevø	-10.97
▁stridsvogn	-10.97
▁tolkning	-10.97
▁sicilia	-10.97
▁global	-10.97
▁liknende	-10.97
▁presentert	-10.97
▁eksistens	-10.97
▁gabriel	-10.9701
▁monroe	-10.9701
▁tirol	-10.9701
▁kristendommen	-10.9702
▁dybde	-10.9702
▁protein	-10.9702
▁kristiansund	-10.9702
▁kronologisk	-10.9703
▁plikt	-10.9704
reaktor	-10.9704
▁flanke	-10.9705
lovgivning	-10.9706
betjent	-10.9707
▁isolert	-10.9707
▁tsar	-10.971
▁fossile	-10.9716
▁work	-10.972
▁smitte	-10.9724
▁manuel	-10.9754
▁kenya	-10.9764
▁begrunne	-10.9779
▁øygrupp	-10.982
representant	-10.9827
kommando	-10.9842
bransjen	-10.9998
bukten	-11.0028
▁argentinsk	-11.0045
▁bulgaria	-11.0045
▁cæsar	-11.0045
▁drivstoff	-11.0045
▁ektefelle	-11.0045
▁ferskvann	-11.0045
▁heidelberg	-11.0045
▁liverpool	-11.0045
▁episoder	-11.0045
▁fiendtlig	-11.0045
▁strategisk	-11.0045
▁forkroppen	-11.0045
▁torpedo	-11.0045
▁bystatus	-11.0045
▁1854	-11.0045
▁lyktes	-11.0045
▁florida	-11.0045
▁misjonær	-11.0045
▁people	-11.0045
▁turbiner	-11.0045
▁planlegging	-11.0045
▁forhånd	-11.0045
▁invitert	-11.0045
▁abbey	-11.0045
▁dresden	-11.0045
▁fiktiv	-11.0045
▁petersburg	-11.0045
▁snorre	-11.0045
▁claus	-11.0045
▁noensinne	-11.0045
▁finansiell	-11.0045
▁fantasi	-11.0046
▁kvalifisert	-11.0046
▁stråle	-11.0046
▁bevaring	-11.0046
▁døpt	-11.0047
▁bundes	-11.0053
▁tjue	-11.0068
▁tilfeldig	-11.0069
blomsterflue	-11.0077
▁nevro	-11.0129
blom	-11.0145
speil	-11.0165
aktivitet	-11.0198
europeisk	-11.02
interesse	-11.0201
▁økonom	-11.0208
klima	-11.0216
▁hevn	-11.0232
ramme	-11.0267
▁messi	-11.0311
▁pseudo	-11.0402
flokkurin	-11.0402
▁academy	-11.0402
▁aftenposten	-11.0402
▁aristokrat	-11.0402
▁bulgarsk	-11.0402
▁fysiker	-11.0402
▁illustrasjon	-11.0402
▁innspilt	-11.0402
▁jordskjelv	-11.0402
▁kjønnsmodn	-11.0402
▁kronprins	-11.0402
▁mobiltelefon	-11.0402
▁rekrutt	-11.0402
▁sebastian	-11.0402
distribusjon	-11.0402
▁beslutning	-11.0402
▁fundament	-11.0402
▁signatur	-11.0402
▁embeds	-11.0402
▁jersey	-11.0402
▁nanjing	-11.0402
▁innvandre	-11.0402
▁kavaleri	-11.0402
▁komplisert	-11.0402
▁grimstad	-11.0402
▁mountain	-11.0402
▁populasjon	-11.0402
▁dublin	-11.0402
▁eidsvoll	-11.0402
▁hybrid	-11.0402
▁kreditert	-11.0402
▁statsborger	-11.0402
▁konklave	-11.0402
▁stephen	-11.0402
▁færre	-11.0402
▁tilbrakt	-11.0402
▁ulovlig	-11.0402
selskab	-11.0403
teatret	-11.0403
▁serbisk	-11.0403
▁uenighet	-11.0403
▁osmansk	-11.0403
▁erobring	-11.0403
▁temple	-11.0404
▁embete	-11.0406
▁pioner	-11.0409
▁tørke	-11.0413
▁mystisk	-11.0414
▁ivareta	-11.0421
▁satellitt	-11.0422
▁variasjon	-11.0422
svermer	-11.0436
▁benevn	-11.0448
givende	-11.0463
▁blanc	-11.0555
metoden	-11.0595
▁minutt	-11.0621
▁slip	-11.069
katedralen	-11.0719
bourg	-11.0728
▁kasakhstan	-11.0772
▁makedonia	-11.0772
▁matematiker	-11.0772
▁prøyssisk	-11.0772
▁reflektere	-11.0772
▁væpne	-11.0772
▁aggressiv	-11.0772
▁ambassade	-11.0772
▁fjorten	-11.0772
▁progressiv	-11.0772
▁ragnar	-11.0772
▁tilstrekkelig	-11.0772
▁matematisk	-11.0772
▁synonym	-11.0772
▁bachelor	-11.0772
▁komponent	-11.0772
▁abraham	-11.0772
▁jupiter	-11.0772
▁frogner	-11.0772
▁tilnærme	-11.0772
▁forfatning	-11.0772
▁fødselsår	-11.0772
▁prince	-11.0772
▁protestantisk	-11.0772
▁arsenal	-11.0773
▁begrensning	-11.0773
▁hovedpersonen	-11.0773
▁veksle	-11.0773
▁ntnu	-11.0773
▁konsernet	-11.0773
▁mount	-11.0773
▁utpekt	-11.0773
▁akutt	-11.0774
▁tendens	-11.0775
▁søstre	-11.0775
▁distanse	-11.0777
dolph	-11.0777
▁undersøkt	-11.0778
▁bremse	-11.078
▁operert	-11.0786
vietnamesisk	-11.0787
▁befeste	-11.0787
▁planlegge	-11.0795
tilsynet	-11.0805
▁cruise	-11.0816
hampton	-11.0829
forstyrrelse	-11.0893
betegnelse	-11.0954
flagg	-11.0958
klipp	-11.0965
utgave	-11.0983
▁hovedrolle	-11.1008
▁forekomme	-11.1049
funnet	-11.1082
▁fasettøynene	-11.1157
▁katolikker	-11.1157
▁konstitusjon	-11.1157
▁langrennsløper	-11.1157
▁resolusjon	-11.1157
▁benjamin	-11.1157
▁homofil	-11.1157
▁identifisert	-11.1157
▁keyboard	-11.1157
▁matematikk	-11.1157
▁volleyball	-11.1157
▁minoritet	-11.1157
▁nidaros	-11.1157
▁railway	-11.1157
skribent	-11.1157
▁avslørt	-11.1157
▁libanon	-11.1157
▁oppfatning	-11.1157
eksplosjon	-11.1157
▁vurdere	-11.1157
▁romerriket	-11.1157
▁hamilton	-11.1157
▁midtøsten	-11.1157
▁jamaica	-11.1157
▁prestisje	-11.1157
patrulje	-11.1157
perspektiv	-11.1157
▁ringerike	-11.1157
▁breivik	-11.1157
kjøkken	-11.1157
▁utsikt	-11.1158
▁kombinere	-11.1158
▁contest	-11.1158
▁für	-11.1159
▁veteran	-11.1159
▁smykke	-11.1159
mouth	-11.116
▁kanadisk	-11.1163
▁presentere	-11.1164
mission	-11.1172
schaft	-11.1175
▁utskil	-11.1178
hytta	-11.118
epleier	-11.1182
amerikanske	-11.1184
▁tåle	-11.1191
▁maritim	-11.1192
galakse	-11.1209
stredet	-11.1229
▁pumpe	-11.1234
0	-11.1279
temmelig	-11.1331
dynastiet	-11.1355
frukt	-11.1355
knute	-11.1387
sesongen	-11.1412
▁elektrisitet	-11.1448
platå	-11.1478
▁dynasti	-11.1485
▁aleksandr	-11.1557
▁böhm	-11.1557
▁douglas	-11.1557
▁etterspørsel	-11.1557
▁guangdong	-11.1557
▁helikopter	-11.1557
▁laboratorie	-11.1557
▁ludwig	-11.1557
▁meksikansk	-11.1557
▁narkotika	-11.1557
▁network	-11.1557
▁newcastle	-11.1557
▁plyndre	-11.1557
▁republikansk	-11.1557
▁sichuan	-11.1557
▁valgdeltakelse	-11.1557
▁avslutning	-11.1557
▁publikasjon	-11.1557
▁wergeland	-11.1557
▁angivelig	-11.1557
▁malmö	-11.1557
▁sympati	-11.1557
▁sediment	-11.1557
▁kypros	-11.1557
▁grün	-11.1557
▁svovel	-11.1557
▁haugesund	-11.1557
▁http	-11.1557
▁monaco	-11.1557
▁wright	-11.1557
▁skåne	-11.1557
▁troppene	-11.1557
▁kjøpmann	-11.1557
▁rumensk	-11.1558
▁detroit	-11.1558
oransje	-11.1558
▁dåp	-11.1558
▁sprang	-11.1558
▁nkp	-11.1559
terapi	-11.1562
finansiering	-11.1566
reglene	-11.157
▁nedbryt	-11.1572
fattet	-11.1609
▁utforme	-11.1611
▁omfatte	-11.1695
medisin	-11.1771
størrelse	-11.1772
soldater	-11.1772
▁america	-11.1776
sykdom	-11.1785
spalte	-11.1873
▁billedkunstner	-11.1973
▁fremtredende	-11.1973
▁massachusetts	-11.1973
▁propaganda	-11.1973
▁restaurering	-11.1973
▁skandinavia	-11.1973
▁skandinavisk	-11.1973
