<unk>	0
<s>	0
</s>	0
.	-3.28876
▁i	-3.44536
e	-3.68747
s	-3.77354
▁og	-3.82536
▁	-4.18287
t	-4.2287
▁av	-4.26876
er	-4.27745
en	-4.33572
▁en	-4.44977
▁som	-4.45632
▁er	-4.57139
▁til	-4.5821
▁for	-4.69398
▁på	-4.69615
r	-4.71783
▁ble	-4.87785
▁den	-4.88159
▁med	-4.91585
▁det	-4.92422
n	-4.95746
et	-5.00701
▁var	-5.00701
▁de	-5.10924
▁han	-5.15638
▁å	-5.22466
▁fra	-5.30031
▁et	-5.48883
▁har	-5.50316
a	-5.59309
▁at	-5.61179
ene	-5.65888
▁ved	-5.92635
ne	-5.92677
▁etter	-5.95176
i	-5.99086
▁om	-6.01904
▁men	-6.02975
▁også	-6.03434
k	-6.1003
▁ut	-6.16752
▁under	-6.18387
y	-6.19108
▁seg	-6.20674
g	-6.21793
o	-6.22743
d	-6.2428
▁da	-6.24353
▁ikke	-6.25489
▁hadde	-6.30494
te	-6.30767
▁over	-6.34166
m	-6.3678
▁eller	-6.40711
▁inn	-6.45172
▁to	-6.45218
de	-6.45728
l	-6.47605
▁kan	-6.48522
▁opp	-6.49927
▁andre	-6.51953
re	-6.52656
f	-6.57283
▁s	-6.5901
▁første	-6.59256
▁sin	-6.60264
▁hun	-6.63745
▁dette	-6.64198
▁mot	-6.64233
p	-6.64833
v	-6.65967
u	-6.68549
▁18	-6.72115
b	-6.72416
▁år	-6.73133
▁1	-6.74756
▁ha	-6.80545
▁hans	-6.8198
▁be	-6.82197
▁mellom	-6.82596
▁født	-6.84689
ing	-6.85395
▁kom	-6.86577
▁a	-6.86968
es	-6.89317
▁fikk	-6.89718
us	-6.90602
in	-6.90676
▁der	-6.92228
▁denne	-6.92474
▁tre	-6.93881
is	-6.95442
c	-6.96909
h	-6.98268
▁f	-6.98938
al	-6.99087
▁flere	-6.99772
le	-7.01371
▁man	-7.03365
▁sammen	-7.0449
▁2	-7.06821
sk	-7.06858
▁del	-7.08672
▁før	-7.10148
ter	-7.12069
on	-7.12428
an	-7.12667
na	-7.13253
▁hvor	-7.13433
▁nord	-7.1426
ende	-7.14438
▁mange	-7.14721
▁blant	-7.15201
▁tallet	-7.18541
▁så	-7.22261
sen	-7.22524
▁the	-7.22832
ar	-7.23028
ere	-7.24984
▁stor	-7.25543
▁c	-7.25715
li	-7.25933
▁3	-7.26055
▁ligger	-7.26071
▁la	-7.26277
▁ca	-7.2646
▁død	-7.27275
▁selv	-7.27911
▁norge	-7.28005
la	-7.29488
iske	-7.30564
▁17	-7.31126
▁senere	-7.31396
kk	-7.31648
▁alle	-7.32075
▁noen	-7.32254
▁norsk	-7.32955
lig	-7.3328
z	-7.34762
▁u	-7.35186
ia	-7.35372
▁byen	-7.35404
st	-7.35719
▁sør	-7.35724
▁siden	-7.35743
vis	-7.36178
ch	-7.36482
▁tidligere	-7.37141
▁b	-7.37209
▁mer	-7.37397
▁blir	-7.37827
ri	-7.38495
▁være	-7.39008
▁blitt	-7.39265
▁sitt	-7.39287
land	-7.39372
▁disse	-7.40137
▁ol	-7.40952
▁vært	-7.4233
ta	-7.42724
▁m	-7.42853
▁5	-7.42935
▁4	-7.43104
▁se	-7.43218
w	-7.43532
▁her	-7.43765
▁gjennom	-7.44559
▁annet	-7.44779
å	-7.45045
▁re	-7.46137
▁vi	-7.4643
▁samme	-7.46869
▁frem	-7.46946
▁kjent	-7.47106
isk	-7.4712
il	-7.47139
▁ny	-7.47253
ens	-7.47546
het	-7.48544
j	-7.48919
ke	-7.49219
▁gikk	-7.49705
▁kommune	-7.4978
▁an	-7.50048
for	-7.5074
▁store	-7.51166
ur	-7.514
as	-7.5157
der	-7.51833
or	-7.52065
nde	-7.52992
ske	-7.53009
▁g	-7.53701
ma	-7.55865
▁kr	-7.56018
ning	-7.5609
▁tid	-7.56177
▁kunne	-7.56236
▁noe	-7.56346
▁dag	-7.56594
be	-7.57499
ck	-7.57931
di	-7.58648
▁of	-7.59147
ra	-7.59549
▁grunn	-7.6002
os	-7.60046
um	-7.60124
▁land	-7.60461
øy	-7.60545
▁rundt	-7.60639
bo	-7.6147
ver	-7.61625
lige	-7.62125
da	-7.62144
▁vest	-7.62152
▁16	-7.62192
ut	-7.62495
▁10	-7.62716
ve	-7.62924
▁sine	-7.62996
▁15	-7.63192
ge	-7.63211
▁o	-7.63237
▁d	-7.6325
▁al	-7.64062
ner	-7.64243
▁ro	-7.64467
▁sa	-7.64571
▁k	-7.64777
▁enn	-7.65027
▁ga	-7.65044
▁vant	-7.65402
▁bare	-7.65527
▁slik	-7.65878
el	-7.65883
▁mens	-7.65886
▁tilbake	-7.65983
▁mest	-7.66094
x	-7.66975
▁p	-7.67383
ste	-7.67401
▁h	-7.67479
▁6	-7.67695
▁vil	-7.68311
▁ofte	-7.69596
ol	-7.6986
den	-7.69994
▁ham	-7.70756
ro	-7.70993
▁skulle	-7.71186
ler	-7.71246
▁navnet	-7.71521
ig	-7.7209
mer	-7.72153
▁ned	-7.72235
ba	-7.72452
▁gang	-7.72895
é	-7.73282
▁fram	-7.73366
▁bli	-7.73725
▁skal	-7.7384
▁sp	-7.74221
at	-7.74409
▁både	-7.75201
ka	-7.75224
ul	-7.75351
▁usa	-7.75566
▁km	-7.75597
▁ta	-7.75895
mp	-7.75933
th	-7.76267
vi	-7.76351
▁tok	-7.76462
▁nye	-7.7653
id	-7.76659
ang	-7.76833
▁st	-7.77276
nes	-7.77279
▁øst	-7.77614
▁norske	-7.77859
▁fire	-7.78122
om	-7.78507
▁navn	-7.78542
ry	-7.78601
ll	-7.78783
it	-7.78783
▁oslo	-7.79402
mann	-7.80023
▁hele	-7.8043
▁le	-7.80498
▁7	-7.80515
▁000	-7.80743
ger	-7.81094
▁li	-7.81458
▁by	-7.82385
▁finnes	-7.83164
ff	-7.83185
ton	-7.8323
ng	-7.83401
▁mai	-7.8353
▁8	-7.83596
erte	-7.83926
▁hoved	-7.8418
▁mars	-7.84653
ad	-7.84658
▁si	-7.84798
▁meter	-7.84976
lo	-7.85605
▁bo	-7.85664
▁januar	-7.8568
▁ra	-7.85798
▁ba	-7.8602
▁dem	-7.86159
ist	-7.86267
▁ho	-7.86472
mo	-7.86792
si	-7.87428
▁deltok	-7.87701
▁juli	-7.87722
▁t	-7.87865
ga	-7.88076
▁di	-7.88998
▁august	-7.89151
▁få	-7.89222
▁siste	-7.89443
▁ar	-7.89523
erne	-7.89925
gi	-7.9032
▁største	-7.90441
dal	-7.90679
▁fri	-7.90746
by	-7.91174
son	-7.91517
▁laget	-7.91602
ha	-7.92485
▁he	-7.92552
▁lag	-7.93023
▁per	-7.93339
▁j	-7.93482
ær	-7.94255
▁først	-7.94345
▁12	-7.95133
ker	-7.95314
▁kalt	-7.96078
▁ma	-7.96198
▁nå	-7.964
▁kirke	-7.96403
▁plass	-7.96813
▁l	-7.96964
kt	-7.97684
▁13	-7.98008
me	-7.98037
▁9	-7.98191
ic	-7.98512
var	-7.98916
skap	-7.98931
gg	-7.98964
▁landet	-7.9911
▁ti	-7.99142
▁mål	-7.99334
ti	-7.99348
▁v	-8.00009
ja	-8.0004
▁du	-8.00202
stad	-8.00617
▁na	-8.00727
▁igjen	-8.00734
av	-8.009
▁14	-8.00931
▁n	-8.00993
▁når	-8.0133
▁går	-8.01494
▁2008	-8.01686
▁2010	-8.02452
▁rekke	-8.02656
▁tillegg	-8.02669
ven	-8.02677
ø	-8.02746
▁området	-8.02907
sa	-8.03088
▁videre	-8.03434
▁satt	-8.0442
▁bak	-8.04426
else	-8.04918
▁far	-8.04964
▁september	-8.05171
ell	-8.05595
▁co	-8.05726
co	-8.05965
to	-8.05998
▁ni	-8.0602
ment	-8.06096
▁20	-8.06096
berg	-8.06259
▁desember	-8.06363
▁samt	-8.06758
▁utgitt	-8.07234
▁lang	-8.07686
▁begynte	-8.07894
▁2007	-8.0798
▁fa	-8.08238
▁alt	-8.08387
gen	-8.08418
asjon	-8.08696
▁deres	-8.08838
▁brukt	-8.09287
▁juni	-8.09371
del	-8.09854
▁april	-8.10025
▁me	-8.10056
▁sk	-8.1015
år	-8.10179
▁vanlig	-8.10413
▁oktober	-8.10441
▁gi	-8.10986
▁spilte	-8.11169
▁bruk	-8.11228
▁y	-8.11465
▁as	-8.11513
▁skole	-8.11856
va	-8.12183
▁lo	-8.12231
▁november	-8.12331
▁årene	-8.12658
iv	-8.12682
vik	-8.12724
▁11	-8.12861
▁2006	-8.12977
ed	-8.13145
▁hos	-8.13307
man	-8.13488
▁tiden	-8.13661
ko	-8.1433
ør	-8.14362
▁februar	-8.14692
▁europa	-8.14696
▁helt	-8.14756
tt	-8.15306
▁døde	-8.15975
opp	-8.15998
▁fortsatt	-8.16233
▁fem	-8.16349
▁2009	-8.1645
▁pro	-8.16963
ho	-8.16995
▁gu	-8.17136
▁uten	-8.1736
▁pi	-8.17717
▁leder	-8.17895
▁mindre	-8.18693
▁større	-8.19041
▁lov	-8.19169
ster	-8.19359
sjon	-8.19383
▁tro	-8.19496
▁0	-8.19798
▁mye	-8.19862
ns	-8.19945
gang	-8.1995
▁pa	-8.20181
ant	-8.20378
▁w	-8.20478
nd	-8.20667
▁kun	-8.20735
▁fly	-8.20743
▁rett	-8.20856
ks	-8.21031
midlertid	-8.21199
tak	-8.21297
▁sønn	-8.21373
ling	-8.21395
ly	-8.21632
ningen	-8.21902
ag	-8.22173
go	-8.22212
▁2005	-8.22372
ikk	-8.22384
od	-8.22851
▁tra	-8.22873
▁form	-8.22962
▁barn	-8.23334
ans	-8.23402
▁bu	-8.23471
▁tatt	-8.23619
▁bi	-8.23687
▁beste	-8.23714
ce	-8.23946
æ	-8.24116
▁musikk	-8.24688
▁so	-8.24694
un	-8.24793
▁ka	-8.25152
▁ville	-8.25474
po	-8.25897
▁eksempel	-8.25942
▁tyskland	-8.26059
▁medlem	-8.26241
pe	-8.27254
▁spiller	-8.2733
▁par	-8.27534
▁po	-8.27648
▁ei	-8.27798
rett	-8.27898
ir	-8.2801
▁sol	-8.2805
▁no	-8.28051
▁året	-8.28246
▁olympisk	-8.28403
▁måtte	-8.28664
ina	-8.28821
ering	-8.2905
▁politisk	-8.29248
▁like	-8.29284
no	-8.29476
▁ko	-8.29514
▁el	-8.29535
ok	-8.29649
mi	-8.29811
som	-8.30073
▁ju	-8.30197
▁deretter	-8.30205
sh	-8.30454
▁gift	-8.30601
men	-8.30607
ca	-8.30835
pi	-8.30954
pp	-8.3105
plass	-8.31065
ard	-8.3123
▁lu	-8.31394
▁film	-8.31553
▁nær	-8.31583
▁kommer	-8.3176
ö	-8.31812
▁kong	-8.32066
ty	-8.32684
itet	-8.32775
▁hu	-8.32974
ni	-8.33001
ring	-8.33215
▁and	-8.3341
▁gjorde	-8.33635
▁innbyggere	-8.33775
▁sommer	-8.33913
ingen	-8.34035
lat	-8.34051
dd	-8.34148
tur	-8.34203
elle	-8.34354
▁30	-8.34576
▁mor	-8.34581
▁bar	-8.34759
over	-8.34986
▁mar	-8.35029
▁sverige	-8.35098
am	-8.35148
▁mo	-8.35282
▁filmen	-8.35352
▁tv	-8.35364
▁ulike	-8.35431
▁bestå	-8.35529
▁president	-8.35645
min	-8.35674
▁språk	-8.361
ion	-8.36168
▁svært	-8.3617
▁lå	-8.36299
▁john	-8.36444
▁2004	-8.36444
▁små	-8.3649
▁kl	-8.36853
▁folke	-8.36948
▁kunst	-8.36954
bi	-8.37036
▁kon	-8.37255
▁em	-8.37614
lin	-8.37637
▁hver	-8.37645
▁te	-8.3778
▁2011	-8.37803
dre	-8.37938
je	-8.37974
▁tysk	-8.37994
ik	-8.38
bar	-8.38264
▁innen	-8.38459
▁pe	-8.38528
sp	-8.38684
bu	-8.38949
▁egen	-8.39244
▁vann	-8.39361
▁parti	-8.39853
▁særlig	-8.4001
▁ganger	-8.40279
▁ru	-8.40517
▁hennes	-8.40555
▁dermed	-8.40605
▁25	-8.40622
tter	-8.4087
au	-8.41056
▁new	-8.41193
▁sch	-8.41468
▁norges	-8.41548
▁amerikanske	-8.4173
▁x	-8.41808
▁brukes	-8.41855
▁ingen	-8.41922
▁langs	-8.42196
ron	-8.42256
▁samtidig	-8.42273
▁engelsk	-8.42335
▁ri	-8.42471
▁kina	-8.42676
▁san	-8.4336
▁liv	-8.43685
▁må	-8.43735
sel	-8.43862
▁or	-8.43881
tid	-8.43901
▁tyske	-8.43958
▁gjen	-8.44006
lag	-8.44008
sted	-8.44064
▁grad	-8.44114
▁flytte	-8.44145
á	-8.44253
▁slutten	-8.44305
ud	-8.44467
ä	-8.44506
▁tor	-8.44646
▁arbeidet	-8.44724
▁kort	-8.44863
▁bygget	-8.44892
do	-8.45196
▁eks	-8.45393
derfor	-8.45536
▁spilt	-8.45626
▁gamle	-8.45767
ov	-8.45953
▁verdens	-8.46028
▁go	-8.46591
▁begge	-8.46665
▁hus	-8.46702
len	-8.4677
ft	-8.4682
▁england	-8.4697
ius	-8.47027
▁do	-8.47112
▁krigen	-8.47118
▁bandet	-8.47453
hold	-8.47498
▁klubben	-8.47683
▁høy	-8.47812
▁fast	-8.47923
▁perioden	-8.48014
▁sam	-8.48349
▁kultur	-8.48444
▁vm	-8.4847
▁frankrike	-8.48471
kom	-8.48489
▁løpet	-8.48552
▁su	-8.48604
▁gitt	-8.4908
▁albumet	-8.49256
▁sett	-8.49381
▁pu	-8.49489
▁annen	-8.49664
▁russisk	-8.49705
▁hvert	-8.49812
▁lever	-8.49857
op	-8.49884
stand	-8.50101
▁va	-8.50274
▁forskjellige	-8.50299
▁plan	-8.50374
sta	-8.50386
▁lys	-8.50601
▁gull	-8.50877
▁skrevet	-8.50908
slag	-8.5092
▁mulig	-8.51319
ige	-8.51371
▁mi	-8.51385
▁øya	-8.51534
im	-8.51552
▁fleste	-8.51682
lu	-8.5169
▁forhold	-8.52162
▁finne	-8.52375
▁vel	-8.52463
▁dagen	-8.52472
▁r	-8.52648
▁mat	-8.52743
hus	-8.53081
▁am	-8.53106
tal	-8.53295
▁london	-8.54105
▁2000	-8.54129
ord	-8.54159
ble	-8.54169
▁startet	-8.54353
▁skrev	-8.54377
ium	-8.54478
▁100	-8.54493
▁nytt	-8.54568
▁fi	-8.54882
1	-8.54966
ken	-8.54992
▁stedet	-8.55179
▁sesongen	-8.55284
verk	-8.55347
▁ski	-8.55365
ie	-8.55375
▁etablert	-8.55402
▁deler	-8.55556
lse	-8.55602
ings	-8.55611
▁seks	-8.5568
▁2001	-8.55741
▁2002	-8.56067
ow	-8.56079
hu	-8.5617
▁fotball	-8.56307
▁bergen	-8.56442
▁slutt	-8.56536
inn	-8.56547
følge	-8.56788
kker	-8.56857
▁nasjonal	-8.5697
▁vei	-8.56995
ku	-8.57057
vin	-8.57076
▁støtte	-8.57397
▁verdenskrig	-8.57419
stre	-8.57511
▁ver	-8.57696
tok	-8.57739
▁syn	-8.57967
▁gruppen	-8.58036
io	-8.58122
▁sjø	-8.58128
▁bok	-8.58369
▁1980	-8.58387
▁person	-8.58488
▁amerikansk	-8.58526
satt	-8.58643
dig	-8.59064
ier	-8.593
pa	-8.59363
▁all	-8.59449
siden	-8.59614
▁ge	-8.59656
ninger	-8.59825
▁meg	-8.59834
ologi	-8.59904
▁gir	-8.59988
▁gammel	-8.60077
stein	-8.60137
he	-8.60167
▁stort	-8.60342
▁kor	-8.60427
ci	-8.60441
▁konge	-8.60598
ü	-8.60762
tten	-8.61028
▁stein	-8.6114
▁millioner	-8.61377
▁storbritannia	-8.61454
gu	-8.61601
▁ord	-8.61866
▁kongen	-8.61937
▁opprinnelig	-8.62072
▁tredje	-8.62475
per	-8.62736
ak	-8.6287
▁verden	-8.62961
▁ført	-8.62974
▁sto	-8.63336
▁nest	-8.63374
dag	-8.63463
▁antall	-8.6349
ot	-8.6355
hi	-8.63706
bruk	-8.63743
let	-8.63754
▁ch	-8.64293
▁sted	-8.64528
▁2003	-8.64633
▁ad	-8.64642
▁bro	-8.6473
▁bil	-8.64835
▁fordi	-8.65073
▁selskapet	-8.65167
tor	-8.65337
ber	-8.65462
▁bra	-8.65521
▁jo	-8.65934
fa	-8.66153
▁car	-8.66185
elsen	-8.66344
mme	-8.66387
▁gresk	-8.66449
▁ki	-8.66556
▁1990	-8.66799
▁tidlig	-8.67117
▁22	-8.67121
lot	-8.6716
▁allerede	-8.67163
ede	-8.67372
▁pla	-8.674
lsen	-8.67424
▁bas	-8.67635
▁britiske	-8.67888
▁komme	-8.68045
art	-8.6817
▁hi	-8.68263
▁vinter	-8.68329
▁ab	-8.68389
▁provinsen	-8.68513
▁kjente	-8.68556
par	-8.68707
▁arbeid	-8.68721
▁viktig	-8.68875
▁sentral	-8.69121
itt	-8.69197
▁my	-8.6928
uten	-8.69354
ting	-8.6949
▁19	-8.69567
▁nor	-8.69593
▁hel	-8.69654
▁ja	-8.69656
kel	-8.69662
▁fo	-8.69683
tiden	-8.69755
▁1999	-8.70145
▁familien	-8.7067
wa	-8.70696
▁fl	-8.70862
▁delen	-8.71125
▁mann	-8.71196
▁fred	-8.71199
▁ne	-8.71206
mb	-8.71295
▁hatt	-8.71402
▁serien	-8.715
▁24	-8.71509
fly	-8.71719
hø	-8.71732
les	-8.71866
ac	-8.71919
▁eneste	-8.72201
▁23	-8.72336
▁spille	-8.72377
▁langt	-8.72395
▁holdt	-8.72473
▁side	-8.72675
▁spesielt	-8.72821
▁min	-8.73353
▁familie	-8.73475
▁tri	-8.73605
▁historie	-8.73625
kor	-8.73647
mon	-8.73777
dalen	-8.73905
▁danmark	-8.73998
fjorden	-8.74119
▁svensk	-8.74369
▁lokal	-8.74444
isme	-8.74524
up	-8.7475
▁italia	-8.74787
▁gruppe	-8.74951
ley	-8.75081
▁godt	-8.75291
▁kirken	-8.75372
▁bygge	-8.75575
▁vise	-8.75804
▁bort	-8.75864
tra	-8.75902
▁én	-8.76007
▁utviklet	-8.76058
▁funnet	-8.76153
▁gud	-8.76194
▁tar	-8.76207
ding	-8.76232
▁franske	-8.76237
▁gjør	-8.76343
2	-8.76387
sett	-8.76438
▁fag	-8.76654
▁art	-8.76742
bin	-8.77198
▁natur	-8.77348
ekt	-8.77527
so	-8.77529
mm	-8.77597
▁gjøre	-8.77715
fe	-8.77997
ou	-8.78008
▁gjort	-8.78251
▁mag	-8.78514
▁arbeider	-8.78706
▁lange	-8.78773
▁con	-8.78784
▁omkring	-8.78824
▁delstaten	-8.7894
▁kommunen	-8.79155
▁elven	-8.79234
tre	-8.79586
▁forbindelse	-8.79629
▁sangen	-8.79651
▁øy	-8.79731
ine	-8.79781
heten	-8.79996
landet	-8.80094
kant	-8.80151
lands	-8.80181
▁fått	-8.80192
mar	-8.80312
ian	-8.80363
▁liten	-8.80379
tiske	-8.8039
▁midt	-8.80518
▁bor	-8.80566
▁fjell	-8.80606
▁bred	-8.8076
▁rom	-8.80929
▁folk	-8.81083
mål	-8.8111
▁råd	-8.81243
▁fu	-8.81272
ys	-8.81405
tisk	-8.81531
▁ur	-8.81536
ham	-8.81807
▁kalles	-8.81847
▁os	-8.81952
▁moderne	-8.82063
▁står	-8.82078
elt	-8.82099
▁1970	-8.82186
ving	-8.82393
▁gå	-8.82721
vo	-8.83032
▁utnevnt	-8.83034
▁bl	-8.83047
▁personer	-8.83122
▁50	-8.83219
▁får	-8.83331
▁stat	-8.83367
▁grav	-8.83378
▁paris	-8.8339
ki	-8.83479
▁ser	-8.83653
løp	-8.83655
▁kar	-8.83761
▁valg	-8.83767
▁åpnet	-8.83985
mor	-8.8427
▁ledet	-8.8428
pen	-8.84406
▁afrika	-8.84585
▁21	-8.84641
▁forfatter	-8.84655
▁lite	-8.84692
▁1996	-8.84775
▁sand	-8.84877
▁band	-8.84986
▁tur	-8.8508
▁tekst	-8.85179
mmer	-8.85232
▁krig	-8.85266
▁medlemmer	-8.85294
em	-8.85588
▁knytte	-8.85654
▁skolen	-8.85699
nder	-8.85845
▁kons	-8.85874
▁mennesker	-8.85911
▁valgt	-8.85948
▁28	-8.85965
▁meste	-8.85983
mel	-8.86017
▁kur	-8.86031
▁partiet	-8.86144
▁fransk	-8.86267
▁nok	-8.86445
så	-8.86545
und	-8.8656
▁anti	-8.86734
▁dikt	-8.86827
▁pre	-8.87018
hl	-8.8702
▁basert	-8.87047
▁dr	-8.87134
▁vo	-8.87245
▁divisjon	-8.87262
▁opprettet	-8.87298
anske	-8.87343
▁god	-8.87402
▁militær	-8.87641
▁rolle	-8.87787
▁au	-8.87973
▁lands	-8.88002
▁album	-8.88093
▁enkelte	-8.88137
▁spor	-8.88256
▁jeg	-8.88282
▁russland	-8.88335
▁delt	-8.88335
▁litt	-8.88401
tro	-8.88489
akt	-8.886
▁gl	-8.88653
í	-8.88764
▁ett	-8.88813
▁ben	-8.88822
▁bre	-8.88838
▁40	-8.88877
▁utenfor	-8.88914
met	-8.89001
▁halv	-8.89062
form	-8.89081
▁val	-8.8912
▁2012	-8.89254
▁luft	-8.89287
▁tap	-8.89295
▁aktiv	-8.89303
▁berlin	-8.89378
rø	-8.8938
isert	-8.89383
▁universitetet	-8.89432
▁viser	-8.89446
▁menn	-8.89455
elig	-8.89481
lene	-8.89775
and	-8.89776
gjerne	-8.8985
gående	-8.89916
▁hol	-8.901
if	-8.90155
▁felles	-8.90169
▁jord	-8.90178
▁mil	-8.90299
sch	-8.90311
ug	-8.90496
▁tr	-8.90544
leder	-8.90597
▁innenfor	-8.90729
3	-8.90778
▁hør	-8.90793
iet	-8.9116
sak	-8.91166
su	-8.91333
▁neste	-8.91427
▁stats	-8.91609
▁stil	-8.91619
spiller	-8.91677
▁th	-8.92129
sson	-8.92183
▁bru	-8.9238
kken	-8.92481
▁lett	-8.92484
▁1960	-8.92509
▁begynnelse	-8.92585
kan	-8.92677
▁henne	-8.92889
▁bill	-8.92928
▁betydning	-8.92975
▁aldri	-8.92984
▁lav	-8.93158
isering	-8.93257
▁kinesisk	-8.93316
▁orden	-8.93388
▁wa	-8.93942
▁møte	-8.94166
▁styre	-8.94409
▁1994	-8.94415
ps	-8.94425
▁india	-8.945
dan	-8.94522
▁skuespiller	-8.94551
▁paul	-8.94552
rik	-8.9463
▁gul	-8.94702
gh	-8.9474
bre	-8.94748
lan	-8.94788
far	-8.94809
▁tjeneste	-8.94835
▁sosial	-8.94876
▁århundre	-8.94894
▁rock	-8.9509
fl	-8.95125
▁egne	-8.95207
itu	-8.95327
▁ferdig	-8.95347
▁ku	-8.95378
▁1998	-8.95385
▁radio	-8.95413
du	-8.95413
50	-8.95593
▁fant	-8.95776
▁serie	-8.95809
▁lege	-8.95822
▁regjeringen	-8.95825
▁amerika	-8.95854
▁viktigste	-8.95957
ran	-8.96268
her	-8.96293
▁pr	-8.963
▁sh	-8.96307
▁italiensk	-8.96357
sten	-8.96468
▁internasjonale	-8.96525
▁eget	-8.96646
▁26	-8.96995
bl	-8.97093
▁skog	-8.97179
▁kontroll	-8.97268
▁27	-8.973
▁200	-8.97306
▁fin	-8.97643
▁endt	-8.9771
▁hen	-8.9782
▁kilometer	-8.97842
▁drept	-8.97843
▁tross	-8.97966
▁general	-8.98338
tar	-8.98377
▁forsøk	-8.98436
tan	-8.98478
▁motor	-8.98602
▁kamp	-8.9863
▁universitet	-8.98647
skje	-8.98691
▁danne	-8.98776
plan	-8.98945
▁wi	-8.98979
menn	-8.99168
▁ty	-8.9929
tru	-8.99477
▁sal	-8.99507
▁fiske	-8.99659
▁ke	-8.9968
heim	-8.99682
bygg	-8.99711
▁mu	-8.99729
▁kvinner	-8.99746
▁riks	-8.99861
ater	-8.99993
jo	-9.00021
▁bygd	-9.0003
▁kv	-9.00117
▁kn	-9.0013
▁sc	-9.00176
che	-9.00216
▁katolsk	-9.00368
sund	-9.00377
▁1992	-9.00378
uk	-9.00588
▁finalen	-9.006
▁hva	-9.00615
rak	-9.00652
lær	-9.00683
ny	-9.00745
▁kal	-9.00753
ju	-9.00837
▁tu	-9.00862
▁romersk	-9.0091
film	-9.00999
lø	-9.01019
▁karl	-9.01163
ation	-9.01219
▁nummer	-9.01292
▁eldste	-9.01396
▁betyr	-9.01398
råd	-9.01418
▁tildelt	-9.01441
▁reise	-9.01465
ppe	-9.01495
rom	-9.0152
▁full	-9.01576
▁ry	-9.01613
▁best	-9.01853
▁direkte	-9.01914
ister	-9.02045
ya	-9.02073
ill	-9.02114
ød	-9.02201
▁mon	-9.02246
ek	-9.02277
▁befolkningen	-9.02294
skole	-9.02353
vær	-9.0239
ksjon	-9.02452
res	-9.02543
vei	-9.02564
▁pave	-9.02709
▁via	-9.02906
▁menneske	-9.03001
ator	-9.03043
forening	-9.0307
bygd	-9.0307
▁lagt	-9.03167
ive	-9.03327
▁likevel	-9.03509
veien	-9.03564
▁inneholder	-9.03578
borg	-9.03614
▁von	-9.03632
▁peter	-9.03739
▁datter	-9.03886
▁betydelig	-9.04013
▁ren	-9.04142
▁ø	-9.04201
▁gen	-9.04397
▁z	-9.04445
enes	-9.04482
▁bruker	-9.04543
▁sølv	-9.04546
▁1950	-9.04564
▁bal	-9.04678
▁angrep	-9.04815
ica	-9.05065
▁1997	-9.05087
▁henhold	-9.05104
▁roma	-9.05124
za	-9.05152
ong	-9.05254
▁barne	-9.05261
ah	-9.05308
kle	-9.05328
kul	-9.05332
▁sang	-9.0535
▁ve	-9.05432
▁års	-9.0546
▁holde	-9.05533
▁1993	-9.05628
▁dager	-9.05638
▁regnes	-9.05711
føre	-9.0575
▁arter	-9.05754
ket	-9.05799
nske	-9.0595
▁gav	-9.06042
fo	-9.0609
▁svenske	-9.06206
▁høyde	-9.06346
mun	-9.06362
▁handels	-9.06379
▁hevde	-9.06713
lede	-9.06718
vel	-9.06794
▁je	-9.0702
▁krigs	-9.07077
▁keiser	-9.07117
▁grunnlagt	-9.0715
▁christian	-9.07183
▁omtrent	-9.07248
▁university	-9.07249
▁pan	-9.07267
▁steder	-9.07325
▁slekt	-9.07361
▁hjem	-9.0737
▁professor	-9.07405
senter	-9.07499
stan	-9.07521
▁politiker	-9.07833
▁dra	-9.08078
▁sv	-9.08086
løs	-9.08262
▁kvinne	-9.08297
▁topp	-9.08307
▁johan	-9.08448
▁br	-9.08458
▁makt	-9.08493
▁bur	-9.08497
øya	-9.08526
▁organ	-9.08572
▁gra	-9.08576
laget	-9.08619
kon	-9.08631
inger	-9.08663
▁dansk	-9.08684
mat	-9.08834
▁cha	-9.08853
▁dannet	-9.08863
▁system	-9.08905
▁ak	-9.08967
▁com	-9.09089
asjonen	-9.091
▁rø	-9.09152
▁følgende	-9.09158
▁press	-9.09166
bil	-9.09178
▁29	-9.09191
▁vin	-9.09304
▁følge	-9.09311
▁foran	-9.09342
▁park	-9.0935
▁york	-9.09465
▁brasil	-9.09468
▁opprør	-9.09533
kamp	-9.09542
▁blad	-9.09642
▁slaget	-9.09654
▁sta	-9.09728
ó	-9.09731
ph	-9.09743
4	-9.09835
kning	-9.09886
yl	-9.09958
▁produsert	-9.10034
bro	-9.10095
▁farge	-9.10156
▁ber	-9.1023
▁samarbeid	-9.10507
▁høyre	-9.10579
а	-9.10591
▁hverandre	-9.10591
▁1800	-9.10644
▁alder	-9.10657
▁regionen	-9.10732
stående	-9.10856
▁litteratur	-9.10866
▁enkelt	-9.10882
▁ed	-9.10923
bane	-9.11038
dor	-9.11045
gel	-9.11155
▁inkludert	-9.11159
▁william	-9.1116
▁1989	-9.11166
▁1972	-9.11167
ld	-9.11172
▁inntil	-9.11327
▁sanger	-9.11328
▁mark	-9.11353
zi	-9.1152
▁liste	-9.11592
▁industri	-9.11616
▁gren	-9.11725
departementet	-9.11731
lev	-9.11733
fall	-9.11753
ung	-9.11829
olog	-9.11957
▁mari	-9.11966
est	-9.11982
folk	-9.11983
▁representert	-9.12305
val	-9.12313
▁1988	-9.12316
▁eldre	-9.1236
▁lokale	-9.12428
burg	-9.1245
▁herre	-9.12454
rat	-9.12511
▁seier	-9.12542
▁hav	-9.12625
▁hjemme	-9.12644
▁sendt	-9.12653
vann	-9.12688
han	-9.12858
▁1920	-9.12897
▁veien	-9.12946
▁danske	-9.12956
stilling	-9.12963
▁arbeids	-9.13006
▁fall	-9.1305
▁sentrum	-9.13088
▁japan	-9.13161
▁nordlig	-9.13184
▁eu	-9.13191
▁sørøst	-9.13467
▁trondheim	-9.13468
▁2013	-9.13474
▁slått	-9.135
ris	-9.13507
▁sak	-9.13836
mester	-9.13864
svis	-9.13899
dom	-9.13913
▁31	-9.14017
▁arrangert	-9.1405
▁col	-9.14138
▁benyttet	-9.14179
bel	-9.14237
▁biskop	-9.14263
▁sy	-9.14322
til	-9.14412
▁engelske	-9.14512
bok	-9.14552
festival	-9.14639
▁teater	-9.14672
føring	-9.14758
vet	-9.14844
▁fange	-9.14897
▁hjelp	-9.14922
▁berg	-9.14932
tte	-9.14956
▁bror	-9.15043
▁vanskelig	-9.15232
▁1995	-9.15238
▁1985	-9.15241
dy	-9.15253
▁sen	-9.15324
▁tak	-9.15385
▁resultat	-9.15409
▁områder	-9.15457
▁motstand	-9.15512
▁avdeling	-9.15642
▁sterkt	-9.15645
stilt	-9.15695
van	-9.15761
▁såkalt	-9.15829
▁tittelen	-9.15867
fra	-9.16067
▁linje	-9.16196
ms	-9.16391
▁dårlig	-9.16424
▁1945	-9.1643
▁resten	-9.1652
liggende	-9.16596
▁kol	-9.16601
▁lik	-9.16792
▁reist	-9.16874
▁virke	-9.16882
▁fylke	-9.16906
▁offentlig	-9.16918
▁klasse	-9.16942
▁carl	-9.16991
▁trykk	-9.17039
▁robert	-9.17059
ild	-9.17074
▁hvordan	-9.17131
▁klar	-9.17169
▁åtte	-9.17195
▁hvis	-9.17331
sto	-9.17493
pu	-9.17612
nor	-9.17649
▁høyeste	-9.17652
▁pris	-9.17664
▁ordet	-9.17702
▁bruke	-9.17792
ien	-9.17824
▁livet	-9.17845
of	-9.18013
▁kraft	-9.18028
▁island	-9.18101
▁hal	-9.18124
ep	-9.18172
ika	-9.18178
dømme	-9.18195
▁canada	-9.18242
▁1991	-9.18248
▁hovedsakelig	-9.18249
▁1984	-9.18251
▁elva	-9.18274
dyr	-9.18295
▁slo	-9.18311
▁samling	-9.18475
▁lei	-9.18479
▁tegn	-9.18576
tz	-9.18793
▁1979	-9.18866
ført	-9.18962
ismen	-9.19145
▁1986	-9.19485
net	-9.1951
asjoner	-9.19658
▁bedre	-9.19727
gitt	-9.19773
yn	-9.19818
▁versjon	-9.19985
ds	-9.19987
▁skip	-9.20008
▁ras	-9.20041
spill	-9.20049
▁leker	-9.2007
▁kampen	-9.20088
▁1900	-9.20102
▁1968	-9.20104
▁we	-9.20122
▁drift	-9.20273
▁ste	-9.20294
▁dess	-9.20305
▁dro	-9.20376
cu	-9.20405
▁post	-9.20432
wi	-9.20445
ight	-9.20686
ji	-9.20792
▁verdi	-9.21045
språk	-9.21091
▁ten	-9.21282
▁erstatte	-9.21375
▁drev	-9.21512
ino	-9.21578
▁verk	-9.21636
▁politi	-9.21741
▁kors	-9.21749
▁cup	-9.21786
ial	-9.2197
▁2014	-9.21988
▁poeng	-9.21991
skip	-9.22038
▁roman	-9.22281
gruppen	-9.22282
sjef	-9.2238
▁gar	-9.22494
iker	-9.22496
▁fre	-9.22531
ach	-9.22573
▁jernbane	-9.22633
ale	-9.22679
ru	-9.22748
▁rød	-9.22774
rit	-9.22836
fjord	-9.22954
▁nu	-9.23049
▁stjerne	-9.23077
▁mont	-9.23133
kast	-9.23162
▁havn	-9.23296
old	-9.23397
▁heller	-9.23432
▁gro	-9.23471
▁omfatter	-9.23664
område	-9.23664
tsj	-9.23715
▁måte	-9.23732
▁lille	-9.23938
▁samle	-9.24097
▁delta	-9.24203
▁bjørn	-9.24421
▁sve	-9.24518
▁suksess	-9.24553
▁venstre	-9.24567
▁sogn	-9.24628
▁gode	-9.24656
▁britisk	-9.24667
øl	-9.24756
▁van	-9.24816
▁sig	-9.24838
▁areal	-9.24849
▁uttrykk	-9.25482
▁tilhører	-9.25507
fi	-9.25687
▁regjering	-9.25763
▁1981	-9.25871
▁blå	-9.25956
▁viss	-9.26081
▁klarte	-9.26116
▁militære	-9.26217
▁rev	-9.26248
bru	-9.26341
▁utgjør	-9.26412
▁nordøst	-9.26531
▁ev	-9.26843
punkt	-9.26874
▁koloni	-9.26896
stasjon	-9.27004
q	-9.27061
selskap	-9.27075
▁endret	-9.27237
▁brun	-9.2724
▁våpen	-9.27315
▁vestlig	-9.27564
▁konsert	-9.27582
ab	-9.2762
kar	-9.27621
sjøen	-9.27838
▁stockholm	-9.27865
▁1976	-9.27877
▁helse	-9.2788
▁henrik	-9.27884
▁pat	-9.27885
▁kul	-9.27923
▁valgte	-9.27991
handling	-9.28209
▁don	-9.28281
▁lyd	-9.28316
rin	-9.28323
full	-9.28389
▁skrive	-9.2859
▁fot	-9.28693
dde	-9.28797
▁kraftig	-9.28837
▁renn	-9.28848
▁stra	-9.28929
familien	-9.28936
fer	-9.29053
▁periode	-9.29059
pris	-9.29103
▁fjerde	-9.29221
▁voksne	-9.29221
▁jobb	-9.29298
gård	-9.29358
▁iii	-9.29432
▁tom	-9.29798
▁kamper	-9.29812
mark	-9.29854
▁interesse	-9.29907
▁oppkalt	-9.29908
▁energi	-9.29994
asje	-9.30142
▁kron	-9.30354
▁høsten	-9.30371
▁mal	-9.30428
▁studerte	-9.30502
▁lærer	-9.30604
▁slag	-9.30608
des	-9.30621
værende	-9.30649
▁miljø	-9.30666
drag	-9.30675
havet	-9.30737
året	-9.31081
▁fe	-9.31086
stil	-9.31097
▁israel	-9.31119
30	-9.31196
pre	-9.31271
▁sannsynlig	-9.3129
områder	-9.3143
▁handling	-9.31477
▁selskap	-9.31483
▁hær	-9.31501
▁plate	-9.31552
▁funksjon	-9.31694
▁60	-9.31711
▁havet	-9.31722
messig	-9.3199
▁1964	-9.31998
navn	-9.32114
▁vår	-9.32149
eid	-9.32166
vern	-9.32191
krigen	-9.32254
▁regn	-9.32296
▁totalt	-9.3244
▁on	-9.32577
▁1987	-9.32702
▁sm	-9.32707
▁fulgte	-9.32809
syn	-9.32835
alder	-9.32857
▁los	-9.32879
▁raskt	-9.3295
ald	-9.32968
▁viste	-9.32987
▁ul	-9.33014
banen	-9.33201
▁posisjon	-9.33202
ska	-9.33213
▁gr	-9.33227
▁delvis	-9.33316
▁george	-9.3332
▁løp	-9.33343
▁unge	-9.33358
▁dyr	-9.33392
▁etterhvert	-9.33403
▁prosent	-9.33408
▁1978	-9.33411
▁indre	-9.33482
▁svarte	-9.33572
stra	-9.33582
▁syd	-9.33588
▁samlet	-9.33629
▁skje	-9.33846
▁ør	-9.33847
▁olje	-9.33871
▁krav	-9.33967
▁skrift	-9.33982
▁anders	-9.34001
▁minst	-9.34009
▁minne	-9.341
▁kroppen	-9.3412
▁møtte	-9.34129
▁2015	-9.3414
▁mulighet	-9.34149
▁kje	-9.34165
ros	-9.34198
▁løs	-9.34302
▁lenger	-9.34346
▁båt	-9.34368
▁tele	-9.34424
sj	-9.34465
▁za	-9.34488
ana	-9.34508
▁brukte	-9.34514
▁ønsket	-9.34574
▁lenge	-9.34739
▁arten	-9.34766
har	-9.34766
kter	-9.34794
▁syk	-9.34822
▁hånd	-9.34832
и	-9.34836
▁1983	-9.34847
▁mm	-9.34865
▁para	-9.3497
stat	-9.34984
▁midten	-9.35003
▁bel	-9.35269
don	-9.35318
▁gård	-9.35348
▁grensen	-9.35406
mannen	-9.35434
▁arm	-9.35439
▁spansk	-9.35446
▁bank	-9.35488
▁kjøpt	-9.35611
log	-9.35632
▁sammenheng	-9.35645
nings	-9.35671
▁qu	-9.35691
▁port	-9.35802
20	-9.35822
▁ji	-9.3588
fisk	-9.35904
ford	-9.36025
dt	-9.36123
port	-9.36174
▁rike	-9.36187
▁klart	-9.36247
▁red	-9.36268
brudd	-9.36271
red	-9.36274
▁vekt	-9.3628
ori	-9.36418
▁bri	-9.3647
▁jan	-9.36486
▁stasjon	-9.36522
chi	-9.36525
byen	-9.36532
lser	-9.36598
▁kyst	-9.36616
▁fil	-9.36741
▁ska	-9.3697
styre	-9.36989
▁1969	-9.37038
▁500	-9.37315
tale	-9.37365
▁fer	-9.37453
▁lære	-9.37513
▁xi	-9.37548
▁sesong	-9.37554
▁vold	-9.37669
▁thomas	-9.37767
▁hall	-9.37778
▁1967	-9.37779
▁1930	-9.37785
▁mis	-9.37894
▁80	-9.37951
▁innført	-9.37959
fri	-9.3799
eres	-9.38011
▁skjer	-9.38029
▁mur	-9.38131
ita	-9.38282
samling	-9.3835
sti	-9.38448
▁lengde	-9.38532
55	-9.38534
▁bronse	-9.3854
▁hvite	-9.38541
we	-9.38552
▁400	-9.38556
▁ter	-9.386
▁stadig	-9.38642
rykket	-9.38691
▁stre	-9.38739
båt	-9.3874
▁eid	-9.38913
kal	-9.38931
▁latin	-9.38935
pper	-9.38941
▁af	-9.38972
▁seil	-9.39069
▁sj	-9.39166
all	-9.39172
lighet	-9.39252
regionen	-9.39258
▁1975	-9.39276
▁pl	-9.39313
▁styrker	-9.3932
▁union	-9.39336
bra	-9.39356
▁kroner	-9.39369
skog	-9.39387
▁plante	-9.39397
▁ag	-9.39417
rig	-9.39432
▁maria	-9.39514
▁effekt	-9.39573
▁uavhengig	-9.39734
▁område	-9.39755
fest	-9.39816
▁lin	-9.39827
▁statsminister	-9.40034
▁1940	-9.40039
▁spania	-9.40048
cc	-9.401
▁jern	-9.4011
ain	-9.40278
▁grand	-9.40329
ör	-9.40351
området	-9.40397
▁sil	-9.40545
heng	-9.40617
ip	-9.40675
▁bøker	-9.40737
▁q	-9.40756
▁stille	-9.40768
▁høye	-9.40777
▁sovjetunionen	-9.40786
▁spesial	-9.40786
▁david	-9.40789
▁sikre	-9.40792
▁fylkesvei	-9.4081
tjeneste	-9.40824
▁eier	-9.40909
blo	-9.40909
▁gran	-9.40912
fyl	-9.40927
illa	-9.4094
▁nett	-9.41069
▁nasjonale	-9.411
▁boken	-9.41113
tes	-9.41115
legge	-9.4117
▁pal	-9.41215
▁oppdaget	-9.41354
▁grupper	-9.41455
lia	-9.41492
▁østerrike	-9.41556
▁mod	-9.41561
▁1974	-9.41566
▁egypt	-9.41568
▁ball	-9.41574
▁standard	-9.41578
▁kra	-9.41669
▁sommeren	-9.41738
blad	-9.41763
huset	-9.41782
▁formann	-9.41964
▁pri	-9.4205
▁nådd	-9.42315
▁informasjon	-9.4233
▁trøndelag	-9.4233
▁kontakt	-9.42333
▁fal	-9.4235
gar	-9.42375
▁bør	-9.424
▁dal	-9.42413
cy	-9.42446
int	-9.42492
40	-9.42492
retning	-9.4254
▁finland	-9.42568
gikk	-9.42617
ec	-9.42658
ida	-9.42672
jel	-9.42682
▁bolig	-9.42733
handler	-9.42842
▁miste	-9.42877
ski	-9.42994
▁bilde	-9.43011
▁australia	-9.43112
▁stavanger	-9.43112
▁1973	-9.43124
▁gate	-9.43131
produksjon	-9.43161
▁europeiske	-9.43236
▁merke	-9.4333
▁olav	-9.43398
fag	-9.43573
▁privat	-9.43689
▁artene	-9.43734
▁beskrive	-9.43892
▁kardinal	-9.43899
е	-9.43899
▁vokste	-9.43917
▁nordvest	-9.43937
skudd	-9.4406
cia	-9.44064
▁prest	-9.44248
▁leve	-9.44516
▁svart	-9.44631
▁bronsemedalje	-9.44697
▁2016	-9.4471
xi	-9.44717
kje	-9.44757
▁cor	-9.44771
lei	-9.44784
ativ	-9.44784
▁prosess	-9.44837
▁stiftet	-9.45169
idae	-9.45299
ath	-9.453
▁op	-9.45338
inne	-9.45376
▁faren	-9.4539
lagt	-9.45468
▁staten	-9.45529
▁dyp	-9.45561
▁sentrale	-9.45586
▁kinesiske	-9.4572
▁mus	-9.45723
▁nrk	-9.4574
fabrikk	-9.45752
▁bj	-9.45771
92	-9.45777
▁sørlige	-9.45906
▁karriere	-9.45961
▁slekten	-9.45963
▁mester	-9.46081
grad	-9.46134
▁besøk	-9.46188
▁pol	-9.46239
▁hæren	-9.46276
▁1971	-9.46306
▁1982	-9.46307
▁1977	-9.46313
▁tanke	-9.46318
ola	-9.46342
▁bodde	-9.46354
▁kro	-9.46429
▁blod	-9.46437
▁sha	-9.4649
▁athen	-9.46496
system	-9.46528
▁dis	-9.46878
▁west	-9.46904
ille	-9.46912
▁gass	-9.46918
fin	-9.46937
10	-9.47022
abel	-9.47024
▁tett	-9.47031
▁forsøkt	-9.47052
▁hertug	-9.47055
▁øverst	-9.47113
▁1963	-9.47126
▁kryss	-9.47135
▁egentlig	-9.47137
▁super	-9.47174
kler	-9.47193
og	-9.47215
gan	-9.47319
▁økonomi	-9.4742
felt	-9.47583
▁naturlig	-9.47713
trykk	-9.47824
▁gri	-9.47831
▁figur	-9.47878
grunn	-9.47939
▁1966	-9.47944
▁retning	-9.47949
ls	-9.48064
dra	-9.48184
ama	-9.48317
▁ring	-9.48495
▁cu	-9.48519
▁type	-9.48599
▁ledelse	-9.48691
vig	-9.48718
▁solgt	-9.48732
▁ære	-9.48795
gra	-9.48888
▁opprinnelige	-9.48942
istisk	-9.49078
søk	-9.49123
▁tapte	-9.49156
▁hundre	-9.49169
▁kraftverk	-9.49227
▁historien	-9.4923
▁studie	-9.49238
arbeid	-9.49265
ice	-9.4932
merke	-9.49325
▁fylkes	-9.49381
hy	-9.49551
▁offisiell	-9.49591
ā	-9.49592
▁1961	-9.49599
▁organisasjon	-9.49607
ano	-9.49687
▁fordel	-9.49704
▁regel	-9.49727
skrift	-9.49769
▁mac	-9.49784
ric	-9.49848
▁daglig	-9.49916
▁redaktør	-9.4996
▁mos	-9.49993
▁femte	-9.50083
▁høyere	-9.50084
▁vol	-9.50094
tus	-9.50123
▁beskrev	-9.50148
▁klubb	-9.50149
lett	-9.50163
▁styrke	-9.50169
▁plassert	-9.50194
▁jon	-9.50196
foss	-9.5026
▁forsvars	-9.503
▁1936	-9.50441
▁1948	-9.50445
▁skifte	-9.50468
▁kh	-9.50557
▁lek	-9.50634
▁design	-9.50715
▁utført	-9.50723
▁musiker	-9.50789
▁transport	-9.50811
▁strøm	-9.50931
▁sju	-9.50983
det	-9.50986
tårn	-9.50998
ze	-9.51178
86	-9.51195
▁produksjon	-9.51234
▁vind	-9.51248
ini	-9.51261
▁70	-9.51264
▁relativ	-9.5128
▁skjedde	-9.51292
▁tall	-9.514
kra	-9.51467
▁opera	-9.51494
ich	-9.51534
▁bomb	-9.51682
gruppe	-9.51775
▁fortsette	-9.5188
▁stod	-9.51925
▁utviklingen	-9.52041
stid	-9.52078
▁hest	-9.52084
37	-9.52092
▁dy	-9.52113
▁original	-9.52134
▁bind	-9.52147
hall	-9.52158
▁sørvest	-9.52168
▁løv	-9.52174
▁regi	-9.52176
▁data	-9.5232
lik	-9.52474
▁region	-9.52564
▁lars	-9.52655
▁sterk	-9.52655
ria	-9.52692
løse	-9.52708
bilde	-9.52713
▁polen	-9.52761
iner	-9.5281
lund	-9.52831
▁skade	-9.52871
56	-9.52878
mal	-9.52901
stoff	-9.5299
н	-9.52996
▁stortinget	-9.52999
▁james	-9.52999
▁les	-9.53004
virkning	-9.53016
▁nevnt	-9.53017
▁sub	-9.53019
▁bakgrunn	-9.5303
▁operasjon	-9.5303
▁virksomhet	-9.53032
lie	-9.53038
▁skipet	-9.53156
tall	-9.53161
▁befolkning	-9.53224
▁offiser	-9.53338
forbund	-9.53376
dagen	-9.53386
▁marine	-9.53462
▁hy	-9.53589
▁organisasjonen	-9.53637
▁episode	-9.53867
▁1932	-9.53875
minister	-9.53883
rimot	-9.5389
▁forsvar	-9.53907
▁ly	-9.54119
▁journalist	-9.54126
fører	-9.54152
▁johannes	-9.54163
trekk	-9.54206
▁utvikling	-9.54274
▁overtok	-9.54344
▁tal	-9.54379
▁fremst	-9.54446
▁not	-9.54447
bygging	-9.54484
skapet	-9.5451
▁skyld	-9.54557
▁egg	-9.54571
▁punkt	-9.54573
deling	-9.54591
rådet	-9.54655
▁stoppe	-9.54667
▁kat	-9.54677
med	-9.54688
▁sun	-9.54733
▁dronning	-9.5475
▁1928	-9.54753
▁mc	-9.54771
▁alltid	-9.54802
▁feil	-9.5484
skri	-9.54886
▁syv	-9.54888
▁total	-9.54889
gle	-9.54982
iserte	-9.54985
▁ex	-9.55087
▁fro	-9.55115
nik	-9.55123
▁felt	-9.55126
▁japansk	-9.55219
▁asia	-9.5533
cha	-9.554
▁erik	-9.55417
sky	-9.55471
▁følger	-9.555
▁slå	-9.55553
▁kjerne	-9.55686
85	-9.55731
▁måneder	-9.55776
organisasjon	-9.55845
▁sjef	-9.55974
▁nederlandsk	-9.56027
▁stø	-9.56034
rio	-9.56036
fal	-9.56043
▁air	-9.5609
▁stu	-9.56123
▁anne	-9.56169
▁stilling	-9.5622
ritt	-9.56242
elser	-9.56316
▁sir	-9.56326
▁røde	-9.5635
▁hopp	-9.56371
▁københavn	-9.56521
▁stand	-9.56532
▁1952	-9.56534
▁tilsvarende	-9.56542
▁jobbet	-9.56556
▁hår	-9.56565
▁nåværende	-9.56566
▁you	-9.56573
▁ii	-9.56605
▁grev	-9.56612
▁viktige	-9.56682
▁likhet	-9.56685
▁moh	-9.56745
▁munn	-9.56752
▁administrasjon	-9.56767
▁mel	-9.56769
▁politikk	-9.56785
verdi	-9.56806
▁årlig	-9.56882
lv	-9.56941
sø	-9.57022
▁grense	-9.57092
42	-9.57138
är	-9.57304
▁enten	-9.57329
93	-9.5737
о	-9.57417
▁fredrik	-9.57421
ð	-9.57421
▁nødvendig	-9.57421
▁vunnet	-9.57422
▁kristne	-9.57423
navnet	-9.57425
▁1965	-9.57433
▁christ	-9.57455
76	-9.57473
▁jorden	-9.57504
kin	-9.57612
leng	-9.57624
▁ansatt	-9.57773
mand	-9.57781
▁student	-9.57823
▁thor	-9.57887
▁utvidet	-9.58095
08	-9.58098
mu	-9.58123
▁beijing	-9.58331
▁individ	-9.58332
▁arabisk	-9.58333
▁sivil	-9.58336
▁hvit	-9.58352
▁ci	-9.58416
▁gjenopp	-9.58421
▁tradisjon	-9.58495
parti	-9.5857
88	-9.58695
loven	-9.58717
band	-9.58758
▁jakt	-9.58771
▁het	-9.58792
nett	-9.58803
hr	-9.58831
▁venn	-9.58943
bank	-9.58952
▁teori	-9.58967
▁høyt	-9.58993
▁direktør	-9.59016
▁modell	-9.59093
ben	-9.59151
к	-9.59248
▁skottland	-9.59248
▁regnet	-9.59289
▁ytre	-9.59337
70	-9.59359
▁fyr	-9.59372
▁fjorden	-9.59422
▁oppført	-9.59475
▁son	-9.59516
▁gje	-9.59592
▁økonomisk	-9.59603
▁brann	-9.59631
gren	-9.59674
anlegg	-9.59675
▁mw	-9.59804
verket	-9.59884
▁populær	-9.59897
pol	-9.59926
▁hei	-9.59951
tta	-9.59994
▁vinge	-9.60031
▁real	-9.60038
▁ac	-9.6006
▁300	-9.601
39	-9.60138
▁valget	-9.60177
▁1962	-9.60186
▁bevart	-9.60191
▁legge	-9.60202
formet	-9.60217
▁cm	-9.60314
elva	-9.60376
ografi	-9.60567
▁sterke	-9.60574
tion	-9.60584
▁irland	-9.60618
bbe	-9.60747
▁størrelse	-9.60786
▁sende	-9.60818
ari	-9.60891
ara	-9.60949
våg	-9.60998
▁kunstner	-9.61014
▁nærings	-9.61048
▁bygde	-9.61079
▁snakke	-9.61123
▁1949	-9.61124
trolig	-9.61134
▁historiske	-9.61308
▁start	-9.61348
▁arkitekt	-9.61392
▁distrikt	-9.61415
▁stykke	-9.61418
gjort	-9.61431
▁lage	-9.61464
eier	-9.61478
79	-9.61524
▁styrkene	-9.61529
nivå	-9.61565
▁runde	-9.61578
stått	-9.61588
ringen	-9.61609
ferd	-9.61634
gift	-9.61645
▁mø	-9.61675
▁nivå	-9.61707
▁museum	-9.61728
▁sette	-9.61817
▁vik	-9.61866
▁can	-9.61885
▁innflytelse	-9.62048
▁øvre	-9.62052
▁1912	-9.62063
▁ap	-9.6211
systemet	-9.62226
▁martin	-9.62239
ati	-9.62358
hund	-9.62416
periode	-9.62439
▁aktivitet	-9.62448
lus	-9.62459
bert	-9.6246
▁begynner	-9.62462
▁huset	-9.62481
holm	-9.62544
▁personlig	-9.62555
▁adel	-9.62564
▁sø	-9.62764
▁flat	-9.62803
▁us	-9.62803
istiske	-9.6299
▁utbredt	-9.63004
kapasitet	-9.63005
▁kap	-9.63009
▁unntak	-9.6302
▁1944	-9.6302
▁fremdeles	-9.63035
linje	-9.63045
itz	-9.63212
▁oppdrag	-9.63214
▁vist	-9.63319
▁begrepet	-9.63385
▁anlegget	-9.63398
▁ting	-9.63411
▁heter	-9.63458
▁plassering	-9.63501
▁fest	-9.63537
▁oppdag	-9.63704
▁pop	-9.63721
ish	-9.63792
jer	-9.63814
▁karakter	-9.6384
que	-9.63878
ål	-9.63886
partiet	-9.63892
▁falt	-9.6391
▁pass	-9.63923
▁produksjons	-9.63927
mit	-9.63962
▁etterfulgt	-9.63966
▁fotballspiller	-9.64006
▁city	-9.6403
▁vis	-9.64199
▁avisen	-9.64245
etter	-9.64279
▁behold	-9.64324
historie	-9.64389
▁nabo	-9.64391
▁35	-9.64495
▁natt	-9.64528
▁endring	-9.64553
rud	-9.64585
▁trekke	-9.64625
ark	-9.64637
▁økonomiske	-9.64737
vesen	-9.6479
iz	-9.64887
▁produsent	-9.64902
▁utdannet	-9.64937
▁fordelt	-9.65067
▁strid	-9.65138
15	-9.6518
arbeidet	-9.65198
60	-9.65268
▁ang	-9.65283
▁pot	-9.65286
▁ung	-9.65292
side	-9.65302
ammen	-9.65319
rev	-9.65319
musikk	-9.65385
jen	-9.65407
▁utdanning	-9.65475
▁est	-9.65492
▁rute	-9.65624
▁utover	-9.65725
▁wil	-9.65753
mene	-9.6576
▁gått	-9.65808
▁veg	-9.65859
ssa	-9.65911
▁national	-9.65917
▁klassisk	-9.65917
vit	-9.65922
▁1942	-9.65935
▁2017	-9.65942
▁grå	-9.66034
▁tolv	-9.661
▁grenser	-9.66115
litt	-9.66142
▁brev	-9.66156
oc	-9.66204
▁ordenen	-9.66255
▁nev	-9.66277
▁liga	-9.66325
organ	-9.66369
▁gården	-9.66378
krets	-9.66397
▁rekord	-9.66461
▁mas	-9.66491
ins	-9.66528
▁spi	-9.66554
▁dan	-9.66573
▁programmet	-9.66578
▁90	-9.66588
▁kontor	-9.66684
▁korea	-9.66728
▁gjelder	-9.6679
▁holm	-9.66806
rene	-9.66813
▁stad	-9.66859
▁religion	-9.66907
▁flertall	-9.66914
folkerepublikken	-9.66923
▁kart	-9.66986
▁velge	-9.67066
▁bad	-9.67103
bølge	-9.67183
▁problem	-9.67227
▁spørsmål	-9.67253
tegn	-9.67264
▁ledd	-9.67306
standen	-9.67366
▁folket	-9.67405
▁nederland	-9.6747
ram	-9.67535
▁kysten	-9.67554
▁omtale	-9.67632
grav	-9.67665
▁behandling	-9.67695
▁shi	-9.67727
▁ramme	-9.67769
▁california	-9.67907
▁komponist	-9.67907
▁mexico	-9.67907
▁allierte	-9.67908
▁1924	-9.67919
▁1954	-9.67921
46	-9.67949
▁vet	-9.6795
▁uke	-9.67961
gangen	-9.68006
zhou	-9.68033
gården	-9.68059
▁reform	-9.6808
▁pen	-9.68249
midler	-9.68318
igh	-9.68322
kommune	-9.68444
▁trekk	-9.68504
kraft	-9.68519
virke	-9.68577
▁drama	-9.68627
▁war	-9.68645
▁gutt	-9.6873
77	-9.68738
institusjon	-9.68917
▁konflikt	-9.68917
▁ytterligere	-9.68917
▁pinyin	-9.68917
▁motsetning	-9.68918
▁1958	-9.68932
▁1941	-9.68933
field	-9.68981
▁tredjeplass	-9.68989
▁gjennomført	-9.69014
ix	-9.69058
▁byer	-9.69074
▁bygningen	-9.69084
▁sveits	-9.69123
▁georg	-9.69142
▁smal	-9.69145
05	-9.69287
▁andreplass	-9.69507
44	-9.69511
63	-9.69591
▁stemme	-9.69603
tun	-9.69603
▁skille	-9.69645
▁sent	-9.69672
▁soldater	-9.69715
▁borger	-9.69717
ved	-9.69722
▁bestemt	-9.69749
selskapet	-9.69897
sekretær	-9.69925
▁ob	-9.69934
▁publisert	-9.69938
teknikk	-9.69938
▁bokstav	-9.69939
▁foreldre	-9.6994
▁1953	-9.69951
▁omfattende	-9.69978
▁black	-9.69986
▁angeles	-9.70015
▁områdene	-9.70084
ula	-9.70357
▁sendte	-9.7038
ansk	-9.70459
67	-9.70582
senteret	-9.70615
▁kreve	-9.70623
▁fjellet	-9.70649
oppgave	-9.70709
69	-9.70714
▁distriktet	-9.70722
▁retts	-9.70727
gjorde	-9.70794
▁fører	-9.70801
rus	-9.70804
▁holder	-9.7083
▁strekk	-9.70844
▁betegnelsen	-9.70853
nis	-9.70894
▁fengsel	-9.70969
▁tilgjengelig	-9.70969
▁1956	-9.70989
▁vanlige	-9.70991
▁hodet	-9.70992
▁omtalt	-9.70994
▁skilt	-9.71
▁mengde	-9.71108
▁banen	-9.71111
án	-9.71121
▁rad	-9.71156
▁forskning	-9.71165
▁hoff	-9.71255
▁reg	-9.71267
way	-9.71324
▁elve	-9.71369
▁ekspedisjon	-9.71394
▁opphav	-9.715
serien	-9.71545
▁metall	-9.71554
▁kjøpe	-9.71564
▁metode	-9.71598
haug	-9.71633
▁trans	-9.71753
▁sky	-9.71763
unn	-9.71772
tel	-9.71894
è	-9.71968
ora	-9.71998
▁ask	-9.71998
▁1946	-9.72028
▁nils	-9.72034
▁søster	-9.72046
▁1600	-9.7205
▁tung	-9.72244
▁rot	-9.7227
▁stilt	-9.72272
aksjon	-9.72301
▁instrument	-9.72472
▁gal	-9.72531
▁sel	-9.72588
▁ven	-9.72638
49	-9.72647
øyene	-9.72708
▁provins	-9.72763
▁klo	-9.72763
ledd	-9.72768
hav	-9.72805
▁konkurranse	-9.72834
▁arve	-9.73032
▁øke	-9.73032
73	-9.73034
▁middelalderen	-9.73044
▁international	-9.73063
▁ordfører	-9.73086
▁symbol	-9.73101
liv	-9.73107
▁tegnet	-9.73274
▁sag	-9.73287
▁konkurransen	-9.73371
gul	-9.73401
linjen	-9.73424
▁mid	-9.73496
43	-9.73587
stu	-9.73609
▁atom	-9.73635
medlem	-9.73674
▁len	-9.73716
▁materiale	-9.73843
▁spre	-9.73892
▁lot	-9.73903
ville	-9.73926
parten	-9.73933
fang	-9.73952
▁bevis	-9.73955
vitenskap	-9.74029
▁rus	-9.74032
▁world	-9.74127
▁musikkalbum	-9.74145
▁sommerfugl	-9.74146
▁180	-9.74202
gard	-9.74243
▁knut	-9.74268
▁tale	-9.74296
stikk	-9.7438
▁hor	-9.74384
bø	-9.74398
▁status	-9.74406
▁forteller	-9.74415
rum	-9.74502
▁vinner	-9.74516
gna	-9.74532
▁listen	-9.74549
▁dømt	-9.74586
▁frank	-9.74699
68	-9.74984
erende	-9.75022
▁ban	-9.75032
fortelling	-9.75126
shire	-9.75168
▁united	-9.75203
▁frederik	-9.75205
vogn	-9.75238
levende	-9.75266
▁stammer	-9.75283
▁korte	-9.75318
zz	-9.75386
▁vid	-9.7541
▁arne	-9.75425
▁prisen	-9.75523
▁undersøkelse	-9.75606
75	-9.75745
skolen	-9.75894
84	-9.7611
▁ram	-9.76127
▁bern	-9.76197
48	-9.76224
rick	-9.76247
▁minutter	-9.76289
▁betrakte	-9.76289
▁nærmest	-9.76291
▁typisk	-9.76292
▁lengre	-9.76293
▁skaffe	-9.76305
▁1939	-9.76309
▁1955	-9.76314
▁finans	-9.76322
▁jordbruk	-9.76332
41	-9.76408
▁fla	-9.76453
▁bane	-9.76464
valg	-9.76502
feltet	-9.76646
▁endelig	-9.76728
under	-9.76748
ani	-9.76754
▁bestemte	-9.76817
▁temperatur	-9.76822
▁akademi	-9.76874
▁sykdom	-9.76932
80	-9.76961
ras	-9.76972
▁borg	-9.77094
▁maskin	-9.77145
mis	-9.77148
mus	-9.77179
▁selvstendig	-9.77236
▁erklært	-9.77388
▁tydelig	-9.7739
▁fokus	-9.77391
▁1933	-9.77398
magasin	-9.774
▁klima	-9.77407
▁uker	-9.77432
▁polsk	-9.77449
▁salt	-9.77495
▁spillet	-9.77524
▁strand	-9.77545
90	-9.77562
▁sluttet	-9.77562
qui	-9.77582
▁skips	-9.77593
tti	-9.77626
▁formål	-9.77628
▁ungdoms	-9.77633
▁selve	-9.77635
▁nm	-9.77643
▁viking	-9.77722
▁hovedstaden	-9.77744
stall	-9.77787
66	-9.77819
▁inter	-9.77924
▁prøve	-9.77935
52	-9.78002
▁lignende	-9.78021
san	-9.78056
▁sur	-9.78074
korps	-9.78088
kunst	-9.78117
▁stav	-9.78127
▁populære	-9.78185
▁kvinnelig	-9.78193
▁bla	-9.78238
lon	-9.78288
ban	-9.78321
▁profesjonell	-9.78499
▁edvard	-9.78499
▁melodi	-9.78502
▁snart	-9.78503
▁1934	-9.7851
kirken	-9.78525
fart	-9.78542
▁kristen	-9.78551
▁nærheten	-9.78569
▁streng	-9.78573
▁kanon	-9.78599
▁sund	-9.78641
▁østlig	-9.78647
▁debutert	-9.78693
▁tusen	-9.7882
▁preget	-9.78899
▁hvilke	-9.78914
▁åpen	-9.78946
▁problemer	-9.78977
stin	-9.79024
▁opphold	-9.79063
▁oversatt	-9.79092
▁tog	-9.7916
▁føl	-9.79189
valget	-9.79252
ordenen	-9.79322
57	-9.79323
følgende	-9.79422
▁regjerings	-9.79432
▁mørke	-9.79567
▁alb	-9.79589
▁elektrisk	-9.79623
▁bispedømme	-9.79627
▁1951	-9.79639
▁jarl	-9.79649
eksamen	-9.79683
kh	-9.79718
▁offentlige	-9.79825
▁middel	-9.79862
▁sort	-9.79867
▁kaptein	-9.79894
▁historiker	-9.80039
25	-9.80048
ata	-9.80155
▁dom	-9.80178
▁landsbyen	-9.8023
47	-9.80255
▁harald	-9.803
▁stasjonen	-9.80394
dro	-9.80529
frukt	-9.80602
alis	-9.80689
grense	-9.80691
▁1500	-9.80718
▁alternativ	-9.80759
▁passasjer	-9.80759
▁richard	-9.80759
▁kunnskap	-9.8076
▁timer	-9.80796
99	-9.8083
▁bonde	-9.80852
▁bol	-9.80881
plikt	-9.80918
▁ep	-9.80937
▁north	-9.80949
▁dyre	-9.80975
▁rask	-9.81016
aktig	-9.81021
▁hed	-9.81024
▁front	-9.81034
▁sykehus	-9.81244
▁fugle	-9.81267
rød	-9.81302
▁klassen	-9.81318
▁samfunn	-9.81379
▁tettstedet	-9.81444
51	-9.81457
øs	-9.81589
dersom	-9.81602
jern	-9.81652
stykke	-9.81711
▁odd	-9.81722
▁turn	-9.81827
▁tha	-9.81857
trinn	-9.81879
▁league	-9.81908
▁michael	-9.81908
▁moskva	-9.81909
▁redusert	-9.81909
▁jødisk	-9.8191
▁avhengig	-9.81911
vatnet	-9.81916
▁1947	-9.81926
▁signert	-9.81928
spor	-9.81943
▁vitenskapelig	-9.81954
▁mørk	-9.81978
▁riket	-9.81984
rike	-9.82005
▁fremme	-9.82006
▁kvart	-9.82064
stille	-9.82096
kirke	-9.82121
▁drive	-9.82171
grep	-9.822
▁hovedstad	-9.82217
wan	-9.82275
83	-9.82346
▁leir	-9.82393
▁bø	-9.8244
▁moren	-9.82462
tog	-9.82515
▁landskapet	-9.82544
▁idretts	-9.8255
lang	-9.82614
▁historisk	-9.82663
møte	-9.82736
▁mad	-9.8287
▁lind	-9.82964
ky	-9.82964
▁anta	-9.82998
▁installert	-9.83071
▁royal	-9.83074
▁college	-9.8308
▁flagg	-9.83107
konge	-9.83123
▁bibel	-9.83128
▁bydel	-9.83129
▁teksten	-9.83169
gon	-9.83172
▁toppen	-9.83188
▁albert	-9.83218
▁fn	-9.83256
isten	-9.83306
▁livs	-9.8331
pan	-9.83365
▁rollen	-9.83483
kjøp	-9.83493
58	-9.83543
▁dobbelt	-9.83546
▁internasjonal	-9.83552
▁time	-9.83622
▁kontrakt	-9.8365
▁dø	-9.83705
▁uni	-9.83764
▁filmer	-9.83788
gate	-9.83799
drift	-9.83867
sburg	-9.83882
ance	-9.83892
▁dia	-9.83901
▁nan	-9.83919
▁elev	-9.84005
slav	-9.84013
▁jens	-9.84113
▁svak	-9.84118
gjøre	-9.84157
▁hjelpe	-9.84162
▁våren	-9.84222
▁utgangspunkt	-9.84248
▁louis	-9.84248
▁innsats	-9.84249
▁dekk	-9.84252
▁sølvmedalje	-9.84257
▁1938	-9.84259
▁1957	-9.84265
▁1943	-9.84266
▁straffe	-9.84268
▁1908	-9.8427
▁ukjent	-9.84301
▁kull	-9.84315
▁prins	-9.84356
▁tråd	-9.8441
▁wo	-9.84422
vert	-9.84441
▁levd	-9.8447
▁beskytte	-9.84494
stedet	-9.84688
▁verne	-9.84705
▁zh	-9.84737
▁stift	-9.84755
stø	-9.84759
ction	-9.84773
mesterskapet	-9.84782
▁dynastiet	-9.8489
▁preste	-9.84941
▁synes	-9.84943
▁buss	-9.85051
ringer	-9.85202
▁pra	-9.8526
▁benytte	-9.85309
hn	-9.8536
▁sovjet	-9.85369
74	-9.85415
▁antagelig	-9.85438
▁kategori	-9.85438
▁wilhelm	-9.85438
▁hurtig	-9.85438
▁hjerte	-9.85439
▁flåte	-9.85442
▁1918	-9.85454
▁1700	-9.855
▁flyplass	-9.85568
▁spill	-9.85697
▁win	-9.85698
enberg	-9.85798
arbeider	-9.85878
ias	-9.85892
vision	-9.85904
▁kir	-9.85951
▁salg	-9.8596
▁tettsted	-9.85963
▁avsluttet	-9.85982
jev	-9.86057
istene	-9.86202
▁un	-9.86343
gende	-9.86401
marked	-9.86411
▁støttet	-9.86497
bakken	-9.86538
▁krets	-9.8655
▁dv	-9.86554
▁program	-9.86595
▁måned	-9.86608
▁ødelagt	-9.86643
▁ungarn	-9.86644
▁mytologi	-9.86644
▁oversikt	-9.86644
▁uttalt	-9.86691
▁overgang	-9.86826
▁sønnen	-9.86953
▁hud	-9.87018
hode	-9.87029
løpet	-9.87109
07	-9.87336
98	-9.87348
▁mill	-9.87531
▁ran	-9.87534
trafikk	-9.87564
fil	-9.87564
post	-9.87575
▁spise	-9.87577
våpen	-9.87583
▁aust	-9.87586
▁sti	-9.87613
▁søke	-9.87728
▁vekst	-9.8773
▁eiendom	-9.87856
lov	-9.87862
▁scoret	-9.87864
▁faktisk	-9.87867
▁1959	-9.87879
▁skotsk	-9.87882
59	-9.87884
hjul	-9.8789
▁bidro	-9.87894
▁avholdt	-9.87951
▁statens	-9.87994
▁song	-9.8801
▁studier	-9.88013
▁nærmer	-9.88121
▁ekteskap	-9.88131
gå	-9.88136
▁kongelige	-9.88166
▁chi	-9.88175
hal	-9.88244
▁vitenskap	-9.88258
▁tradisjonelle	-9.88344
▁prosjekt	-9.8837
voll	-9.88396
gin	-9.88401
skytter	-9.88549
▁eg	-9.8858
▁utvikle	-9.88599
▁bakken	-9.8861
▁nes	-9.88701
tør	-9.88749
▁haug	-9.88806
forfatter	-9.88819
▁ansatte	-9.88828
komst	-9.88866
▁forsvaret	-9.88872
▁lese	-9.88914
06	-9.88928
▁ek	-9.88942
ij	-9.89045
▁åpne	-9.89087
▁opprinnelse	-9.89097
▁tilknytning	-9.89097
▁brøt	-9.89101
▁hentet	-9.89132
▁larvene	-9.89139
▁motiv	-9.8923
lad	-9.89264
▁gru	-9.8927
▁resultatet	-9.89345
sport	-9.89347
▁institutt	-9.89435
▁lund	-9.89512
▁saken	-9.89545
▁fremste	-9.89547
64	-9.8955
▁forfatteren	-9.89588
▁besto	-9.8963
▁passer	-9.89654
▁øyene	-9.89664
▁euro	-9.89667
▁single	-9.89838
▁normal	-9.89928
▁bygning	-9.9001
▁bud	-9.90171
▁harry	-9.90209
▁benyttes	-9.90258
ios	-9.90323
▁beseire	-9.90347
▁kommunal	-9.90347
▁belgia	-9.90348
▁gjeste	-9.90356
▁lengst	-9.90376
▁solo	-9.90379
▁tittel	-9.9045
klubb	-9.90544
▁ankom	-9.90546
▁tema	-9.90557
evne	-9.90586
stamme	-9.90646
54	-9.90658
▁king	-9.90662
▁overført	-9.9071
trop	-9.90791
▁maur	-9.90843
gata	-9.9085
▁vannet	-9.9093
turnering	-9.90975
vekt	-9.91122
▁hit	-9.91139
▁språket	-9.91182
▁ledende	-9.91221
95	-9.91299
▁revolusjon	-9.9131
bånd	-9.91358
72	-9.91361
▁storm	-9.91552
▁vietnam	-9.91613
▁sjelden	-9.91613
17	-9.91616
▁ridder	-9.91617
▁wien	-9.91619
▁sekund	-9.91621
18	-9.91623
▁charles	-9.91631
▁fullført	-9.91638
▁stadion	-9.91646
▁sovjetiske	-9.91686
62	-9.91688
▁sul	-9.91707
strid	-9.91717
▁kjenn	-9.91758
ence	-9.91806
▁styret	-9.91894
sam	-9.91932
▁varme	-9.92254
▁sier	-9.92268
▁landsby	-9.92269
▁struktur	-9.92315
▁hell	-9.92318
▁die	-9.92385
eringen	-9.9239
ping	-9.92522
kampen	-9.92623
prosess	-9.92663
▁test	-9.92743
▁trener	-9.9275
35	-9.92768
▁kjøre	-9.92783
▁fc	-9.92828
▁off	-9.92829
ago	-9.92836
ernes	-9.92836
fjell	-9.92873
høgskole	-9.92879
▁studio	-9.92892
▁aksept	-9.92895
▁bakkropp	-9.92895
▁pasient	-9.92895
▁yngre	-9.92895
▁cirka	-9.92896
▁norrøn	-9.92898
▁tidsskrift	-9.92904
▁lansert	-9.92914
▁bon	-9.9295
▁sau	-9.93104
▁rh	-9.93107
19	-9.93111
fik	-9.93321
▁utgave	-9.93364
▁danse	-9.93372
▁tunnel	-9.93463
gal	-9.93478
sket	-9.93504
ova	-9.93534
vor	-9.93557
zo	-9.93646
▁zo	-9.93657
▁øyer	-9.93664
▁samfunnet	-9.93706
▁medisin	-9.93727
▁ze	-9.93791
▁metal	-9.93847
▁gor	-9.93932
▁vinne	-9.93965
▁bord	-9.93973
rommet	-9.93979
middel	-9.93981
gler	-9.94003
▁dog	-9.94055
pet	-9.94099
▁skriver	-9.94102
▁tonn	-9.94103
kysten	-9.94142
▁friidrett	-9.94194
▁kritikk	-9.94194
▁bosetning	-9.94195
▁hovedrollen	-9.94196
▁solgte	-9.94252
qua	-9.94392
▁teknisk	-9.94487
▁stam	-9.94505
▁trafikk	-9.94514
53	-9.94686
▁masse	-9.9477
lam	-9.94776
▁tour	-9.9479
▁kone	-9.94829
▁studenter	-9.94927
▁alf	-9.9505
▁innsjø	-9.9509
styret	-9.95114
jon	-9.95193
well	-9.95243
press	-9.95272
5	-9.95318
tittel	-9.95325
▁systemet	-9.95368
kop	-9.95491
▁fullstendig	-9.95509
▁joseph	-9.95509
▁sportsutøver	-9.95509
▁erkebiskop	-9.9551
▁hemmelig	-9.95514
▁forsknings	-9.95517
▁lufthavn	-9.95518
▁protest	-9.95525
▁drammen	-9.95531
forhold	-9.9556
▁anna	-9.95565
▁hellas	-9.95582
▁veldig	-9.9559
fekt	-9.95629
▁forretnings	-9.95663
▁bosatt	-9.95667
▁stemmer	-9.9567
▁oppnådd	-9.95751
vå	-9.95752
▁bestod	-9.95788
97	-9.95816
rang	-9.95836
strekning	-9.9588
▁forholdet	-9.95883
feld	-9.95898
▁nedre	-9.95916
▁tilfelle	-9.9595
▁irsk	-9.95968
dam	-9.96041
▁nordland	-9.96058
▁char	-9.96092
00	-9.96127
▁utføre	-9.9613
▁johann	-9.96195
ón	-9.96206
lek	-9.96254
▁prosjektet	-9.96286
▁tids	-9.96363
▁båten	-9.9643
stasjonen	-9.96494
halvøya	-9.96502
rør	-9.96568
▁bryte	-9.96668
78	-9.96681
pal	-9.96769
▁larven	-9.96802
▁1904	-9.96843
▁eventyr	-9.96843
▁riktig	-9.96843
▁generelt	-9.96843
▁dialekt	-9.96844
▁jazz	-9.96864
▁elv	-9.9687
▁planlagt	-9.96881
▁tidlige	-9.96882
▁anledning	-9.96896
▁turneringen	-9.96911
løfte	-9.96919
▁islam	-9.96929
▁just	-9.96931
▁ekstra	-9.96931
tallet	-9.97036
▁kilde	-9.97068
▁ungdom	-9.97205
▁max	-9.97226
uth	-9.97262
▁filosofi	-9.97286
▁angrepet	-9.97295
▁regional	-9.97357
▁grunnla	-9.97374
▁driver	-9.97385
▁bit	-9.97494
▁landene	-9.97559
bygning	-9.97563
▁ole	-9.97769
▁auto	-9.97806
▁handel	-9.97984
flo	-9.98037
forskning	-9.98042
republikk	-9.98141
visning	-9.98157
65	-9.98197
▁menighet	-9.98207
▁1929	-9.98208
▁1931	-9.98209
▁etterfølger	-9.98213
▁forbi	-9.98235
▁kinas	-9.98253
▁domin	-9.9827
▁ris	-9.98285
polit	-9.98466
ania	-9.98472
▁junior	-9.98568
ctor	-9.98582
pel	-9.98623
▁anton	-9.98764
▁erobret	-9.98935
last	-9.99036
▁py	-9.99192
vinner	-9.99311
▁gangen	-9.9932
▁virkelig	-9.99351
miljø	-9.99423
11	-9.99447
hastighet	-9.99564
▁lønn	-9.99567
▁godkjent	-9.99577
▁1921	-9.99579
▁high	-9.99684
▁fjord	-9.99702
legging	-9.99734
▁samfunns	-9.99752
▁undervisning	-9.99789
▁kino	-9.99795
stripe	-9.99893
▁tyskerne	-9.99927
punktet	-9.99969
▁debut	-9.99972
hel	-10.0002
pass	-10.0002
kjær	-10.0006
grupper	-10.0013
▁kil	-10.0018
▁epi	-10.0021
▁pin	-10.0026
▁utøver	-10.0028
fugl	-10.0029
▁overfor	-10.0034
96	-10.0044
▁ph	-10.0045
▁økt	-10.0046
prisen	-10.0056
▁makten	-10.0057
▁kropps	-10.0058
▁nr	-10.0072
▁hamar	-10.0073
▁1000	-10.0073
▁ky	-10.0077
▁kampene	-10.0078
▁sammenligne	-10.0079
▁akt	-10.0081
distrikt	-10.0083
▁rose	-10.0084
masse	-10.0087
▁administrativ	-10.0095
▁forekommer	-10.0095
▁guvernør	-10.0095
▁sistnevnte	-10.0095
▁positiv	-10.0095
▁regissert	-10.0095
▁school	-10.0095
▁magnus	-10.0096
lyktes	-10.0096
▁1919	-10.0097
▁otto	-10.0098
▁angripe	-10.0098
▁nedlagt	-10.0104
▁prix	-10.0106
▁telemark	-10.0109
blomst	-10.011
▁effektiv	-10.0116
sjø	-10.0117
▁organisert	-10.0118
▁sider	-10.0126
▁løsning	-10.0134
▁led	-10.0134
▁forskjell	-10.0142
▁perioder	-10.0142
▁600	-10.0147
▁cal	-10.0148
▁borgerkrig	-10.0148
▁fylket	-10.0156
byrå	-10.0161
▁dato	-10.0165
▁finsk	-10.017
wood	-10.018
▁utsatt	-10.0184
▁romanen	-10.0186
▁penger	-10.0188
▁pala	-10.019
▁avtale	-10.0195
cent	-10.02
▁sten	-10.0202
▁45	-10.0205
▁stig	-10.0212
▁tromsø	-10.0214
▁skiller	-10.0222
konkurranse	-10.0226
hånd	-10.0226
myndighet	-10.0233
▁involvert	-10.0236
▁offisielt	-10.0236
▁doktorgrad	-10.0236
▁sprint	-10.0236
forvaltning	-10.0237
▁svar	-10.0238
▁1906	-10.0238
▁1937	-10.0239
▁1910	-10.0239
▁filip	-10.0239
▁tvunge	-10.0239
▁jule	-10.0243
87	-10.0244
▁tverr	-10.0244
▁produkt	-10.0245
▁armé	-10.0245
▁vakt	-10.0255
ima	-10.0255
▁maler	-10.0268
▁riksvei	-10.0268
▁planter	-10.0273
▁enda	-10.0277
▁skatte	-10.0279
▁omfatte	-10.0283
▁sats	-10.0287
▁rei	-10.0296
28	-10.0302
tempelet	-10.0305
ira	-10.0312
▁fartøy	-10.0327
type	-10.0331
▁tilfeller	-10.0333
▁dokumenter	-10.0337
nny	-10.0348
misjon	-10.0351
▁lån	-10.0358
24	-10.0358
lj	-10.0363
▁jag	-10.0364
▁kommuner	-10.0366
produkt	-10.037
▁gitar	-10.0371
▁pel	-10.0376
▁lan	-10.0378
kultur	-10.0379
▁inspirert	-10.0379
▁publikum	-10.0379
▁geografisk	-10.0379
▁kombinert	-10.0379
▁nektet	-10.0379
▁hydro	-10.038
▁1927	-10.0381
▁1917	-10.0381
▁arbeiderpartiet	-10.0381
▁stillingen	-10.0383
▁forkorte	-10.0383
serie	-10.0388
▁snø	-10.0388
▁nasjon	-10.0391
▁føde	-10.0393
▁flyet	-10.0396
▁intens	-10.0396
▁bevegelse	-10.0401
▁olsen	-10.0404
▁fortalt	-10.0405
▁kommunikasjon	-10.0409
somme	-10.041
▁turist	-10.0413
runde	-10.0416
sykl	-10.0423
▁kapp	-10.0426
gje	-10.0433
ledning	-10.0436
▁star	-10.0447
bevegelsen	-10.0455
▁bay	-10.0468
▁cd	-10.0475
oth	-10.0485
ordning	-10.0492
▁landskap	-10.0493
89	-10.051
program	-10.0516
virksomhet	-10.0518
▁univers	-10.0521
▁vendt	-10.0523
▁tyrkisk	-10.0524
▁fødsel	-10.0524
▁begrenset	-10.0524
▁invasjon	-10.0524
▁bestemme	-10.0527
▁indisk	-10.0529
▁detalj	-10.053
▁hovedsak	-10.0535
▁registrert	-10.0537
parken	-10.055
▁mary	-10.055
▁green	-10.0556
▁utbygging	-10.056
▁kaste	-10.0571
▁bydelen	-10.0575
kjent	-10.0581
▁kommunene	-10.0584
arter	-10.0587
▁økte	-10.0588
▁representant	-10.0597
▁kreft	-10.0601
con	-10.0619
▁lagene	-10.062
▁selge	-10.0622
▁800	-10.0622
▁sko	-10.063
mul	-10.0641
▁penge	-10.0646
▁fv	-10.0659
▁lede	-10.0659
▁representanter	-10.0667
▁legger	-10.0669
▁ødelegge	-10.0671
▁club	-10.0671
▁definert	-10.0671
▁luther	-10.0672
▁betegne	-10.0673
▁produksjonen	-10.0675
▁stol	-10.068
bal	-10.0682
▁antatt	-10.0686
kov	-10.0689
▁bygninger	-10.0693
▁nyere	-10.0693
▁butikk	-10.0702
gaard	-10.0706
▁keiseren	-10.0707
▁private	-10.0711
16	-10.0717
gjøring	-10.0727
rolle	-10.0728
mond	-10.074
▁festning	-10.0744
▁hill	-10.0749
▁helge	-10.0755
▁markert	-10.0765
styrt	-10.0768
▁ya	-10.0768
▁nar	-10.077
▁bakke	-10.0784
▁flu	-10.0791
▁grunnlegger	-10.0794
▁gall	-10.0794
▁hardt	-10.0796
▁mik	-10.0801
town	-10.0809
rich	-10.0813
medalje	-10.0814
▁rep	-10.0819
▁tang	-10.082
▁eksempler	-10.082
▁tilhørte	-10.082
▁jakob	-10.082
▁arrangere	-10.082
▁halvparten	-10.0822
▁1935	-10.0822
▁spredt	-10.0823
▁utgivelsen	-10.0823
avdeling	-10.0825
45	-10.0826
kompani	-10.0828
▁stortings	-10.0831
skipet	-10.0836
motor	-10.0838
▁jack	-10.0838
▁typer	-10.0841
utvalg	-10.0849
12	-10.085
▁gradvis	-10.0854
▁lavere	-10.0858
rek	-10.086
lingen	-10.0864
▁ub	-10.0868
▁modern	-10.0869
▁formen	-10.0878
▁ansvaret	-10.0884
▁produsere	-10.0889
▁myr	-10.0891
▁dor	-10.0894
▁skapte	-10.0897
▁tilbud	-10.0906
▁dekket	-10.0919
▁laur	-10.0924
▁kilder	-10.0929
▁fyrst	-10.0934
▁minste	-10.0939
ligner	-10.0951
▁wh	-10.0961
▁kåre	-10.0964
album	-10.0971
в	-10.0971
▁records	-10.0972
▁tilknyttet	-10.0972
▁umiddelbar	-10.0972
▁akershus	-10.0972
▁america	-10.0972
prosjekt	-10.0972
▁1923	-10.0973
▁1909	-10.0973
▁1915	-10.0974
skifte	-10.0975
▁rå	-10.0977
▁ara	-10.0977
▁frykt	-10.0979
▁daniel	-10.0979
▁hersker	-10.098
ado	-10.0981
▁oversettelse	-10.0982
strand	-10.0983
▁religiøse	-10.0983
handel	-10.0983
vind	-10.0987
▁sammenlagt	-10.099
former	-10.099
spillet	-10.0992
▁cra	-10.0998
▁artist	-10.1003
▁vær	-10.1004
▁styrte	-10.1004
▁grunnlegge	-10.1009
▁internasjonalt	-10.101
▁kanal	-10.101
▁opptil	-10.1015
▁slaver	-10.1017
▁alene	-10.1026
▁normalt	-10.1026
dommen	-10.1032
▁elever	-10.1033
▁video	-10.1037
▁kandidat	-10.1037
▁verker	-10.1038
▁eli	-10.1045
▁utviklings	-10.1046
▁latinsk	-10.1051
▁kj	-10.1052
▁frø	-10.1053
▁medaljer	-10.1057
▁ok	-10.1068
▁etasje	-10.107
▁mesterskapet	-10.1074
▁38	-10.1091
klar	-10.1093
▁bidra	-10.1095
listen	-10.1095
▁grei	-10.1099
▁blei	-10.1107
09	-10.1116
▁medaljen	-10.1117
▁arrestert	-10.1126
▁deriblant	-10.1126
▁alkohol	-10.1126
▁stafett	-10.1126
▁nominert	-10.1126
▁nedbør	-10.1126
▁smith	-10.1126
▁behov	-10.1126
▁antenne	-10.1127
▁gullmedalje	-10.1128
▁oppnå	-10.1128
▁myndigheter	-10.1128
▁tradisjonel	-10.1129
finalen	-10.113
▁sverd	-10.113
▁award	-10.1133
▁nevnes	-10.1133
▁økende	-10.1134
▁vokalist	-10.1135
ual	-10.1135
▁kyr	-10.1154
▁tau	-10.1156
mund	-10.1164
▁samarbeidet	-10.1169
▁mannskap	-10.1177
stol	-10.1177
rakk	-10.1181
▁størst	-10.1186
▁starten	-10.1195
31	-10.1198
▁kongedømmet	-10.1199
▁fløy	-10.1201
park	-10.1201
kilden	-10.1203
▁ana	-10.1203
passet	-10.1209
riket	-10.1211
▁rapport	-10.1213
jan	-10.1213
fjellet	-10.1215
slaget	-10.1216
▁kam	-10.122
▁gods	-10.1223
▁starter	-10.123
▁dommer	-10.1236
komiteen	-10.1245
tekst	-10.1248
mba	-10.1251
graf	-10.1252
▁brenn	-10.1252
▁uttale	-10.1254
▁politiet	-10.1258
▁hode	-10.1261
▁utstyr	-10.1268
▁intern	-10.1269
øvelse	-10.1278
▁maleri	-10.128
▁hellige	-10.1281
▁kommunistisk	-10.1281
rop	-10.1281
▁inkluderer	-10.1282
▁kvalifisering	-10.1282
▁østerriksk	-10.1282
▁county	-10.1282
▁dollar	-10.1282
▁eksistert	-10.1282
▁1922	-10.1284
22	-10.1284
faktor	-10.1285
tatt	-10.1285
▁blokk	-10.1285
▁republikken	-10.1286
▁studere	-10.1286
▁eksport	-10.1287
▁sim	-10.1287
produsent	-10.1287
▁gjennomsnitt	-10.1287
▁henrette	-10.1288
bjørn	-10.1288
▁utstilling	-10.1291
▁rein	-10.1292
samfunn	-10.1293
▁anlagt	-10.1294
▁phil	-10.1295
givelse	-10.1296
vendt	-10.1302
▁ark	-10.1302
▁spiss	-10.1304
styrke	-10.1304
▁dekker	-10.1305
▁nettverk	-10.132
forsamlingen	-10.1324
▁sum	-10.1327
rim	-10.133
anda	-10.1347
gy	-10.135
▁bevegelsen	-10.1355
staten	-10.1367
win	-10.1368
▁evne	-10.1371
▁populært	-10.1374
▁rør	-10.1393
▁will	-10.1395
▁app	-10.1396
▁verket	-10.1416
zy	-10.1425
▁jacob	-10.1429
▁wal	-10.1434
forestilling	-10.1436
▁astronom	-10.1441
▁konkurrert	-10.1441
▁oppmerksomhet	-10.1441
▁alvorlig	-10.1441
▁oscar	-10.1441
▁fattig	-10.1441
▁arendal	-10.1441
▁1926	-10.1442
▁premier	-10.1443
▁foreslått	-10.1443
▁beslutte	-10.1444
▁pensjon	-10.1446
opplæring	-10.1448
27	-10.1448
▁versjonen	-10.1448
forbindelse	-10.1449
▁bryst	-10.1452
▁agder	-10.1454
kraftverk	-10.1458
▁liberal	-10.146
▁gjeld	-10.1462
▁sports	-10.1466
person	-10.1473
▁utenlandsk	-10.1474
▁bidrag	-10.1479
▁kvalitet	-10.1489
▁utga	-10.1489
▁imot	-10.1489
▁mol	-10.15
mur	-10.1501
än	-10.1501
▁bibliotek	-10.1501
▁ønsker	-10.1503
afrikansk	-10.1509
▁verdenscupen	-10.1509
▁medalje	-10.1523
lay	-10.1527
▁forbundet	-10.153
▁scene	-10.1532
styrken	-10.1536
▁forskere	-10.155
21	-10.1572
slått	-10.1575
▁øvrige	-10.1585
▁medisinsk	-10.1594
esse	-10.1601
arrangement	-10.1602
▁hensikt	-10.1602
▁finnmark	-10.1602
▁anerkjent	-10.1602
▁arthur	-10.1602
▁terror	-10.1602
ball	-10.1603
▁skjønt	-10.1603
▁hitler	-10.1608
▁programmer	-10.1609
▁typen	-10.1611
▁tilhenger	-10.1612
figur	-10.1613
modell	-10.1617
▁utdannelse	-10.1618
brakte	-10.1622
32	-10.1622
fotograf	-10.163
▁sikkerhets	-10.1634
▁malt	-10.1634
▁ull	-10.1635
lege	-10.1645
▁slags	-10.165
▁nordover	-10.1651
▁ansett	-10.1661
▁parlamentet	-10.1669
▁trening	-10.1671
▁roll	-10.1672
▁troll	-10.1679
foreningen	-10.1679
36	-10.168
82	-10.1681
▁funn	-10.1687
▁kari	-10.1698
▁mini	-10.17
▁innsjøen	-10.1711
▁dj	-10.1712
pro	-10.1713
▁skape	-10.1716
▁fjellene	-10.1729
▁dør	-10.1733
formede	-10.1734
▁sete	-10.1738
▁eva	-10.1752
rute	-10.1754
29	-10.1756
▁forsker	-10.1763
▁33	-10.1763
▁berømt	-10.1766
▁introdusert	-10.1766
▁milliarder	-10.1766
▁münchen	-10.1766
▁praksis	-10.1766
▁kjærlighet	-10.1766
▁primær	-10.1766
▁ekstrem	-10.1766
▁kombinasjon	-10.1766
▁titler	-10.1766
farge	-10.1766
▁håkon	-10.1767
ressurs	-10.1767
▁1916	-10.1768
▁blomster	-10.1768
▁france	-10.1769
▁1200	-10.177
▁medlemmene	-10.1771
▁hustru	-10.1773
▁spar	-10.1774
▁sist	-10.1776
snitt	-10.1776
▁kjemi	-10.1779
▁saint	-10.178
kasse	-10.1781
utgivelse	-10.1782
fre	-10.1787
▁stå	-10.1788
▁kommunestyre	-10.1802
▁håp	-10.1811
bygningen	-10.1837
▁orkester	-10.1842
▁inntekt	-10.185
▁bredt	-10.1862
▁poet	-10.1866
▁hind	-10.1877
bul	-10.188
mod	-10.1884
▁bevege	-10.191
bunn	-10.1913
▁south	-10.1922
▁redde	-10.1923
▁grunnlov	-10.1926
▁lyn	-10.1929
▁frivillig	-10.1932
▁artikkel	-10.1932
▁artikler	-10.1932
▁respekt	-10.1932
▁inneholdt	-10.1932
▁vokser	-10.1933
▁overraske	-10.1933
plattform	-10.1935
▁generasjon	-10.1935
▁monark	-10.1935
▁feire	-10.1936
▁kjønn	-10.1937
▁stabil	-10.1941
▁gyl	-10.1942
▁reaksjon	-10.1942
▁verd	-10.1944
▁halvdel	-10.1944
▁glass	-10.1945
▁mangler	-10.1945
onia	-10.1946
▁overtatt	-10.1952
bøker	-10.1955
▁jevn	-10.196
▁mening	-10.196
lyst	-10.1964
▁nasjonalpark	-10.1974
▁paven	-10.1976
ella	-10.1992
rekke	-10.1994
▁line	-10.1997
▁måten	-10.1998
▁ansvar	-10.1999
fred	-10.2004
▁zu	-10.2007
▁grunnlaget	-10.2009
6	-10.2015
▁statlig	-10.2031
▁skapt	-10.2039
▁web	-10.2043
▁linjen	-10.2052
▁skadet	-10.2055
▁hotell	-10.206
▁kammer	-10.2062
▁00	-10.2067
▁150	-10.2078
▁festningen	-10.2083
▁bry	-10.2097
▁engasjert	-10.2102
▁washington	-10.2102
▁kontinent	-10.2102
▁service	-10.2102
▁rogaland	-10.2102
▁himmel	-10.2102
▁skarp	-10.2103
▁1913	-10.2103
▁oppløst	-10.2104
▁1911	-10.2104
▁invest	-10.2104
▁1925	-10.2105
▁jackson	-10.2106
vokst	-10.2107
▁east	-10.2107
▁tronen	-10.2111
tagelse	-10.2113
94	-10.2117
▁ungdomsskole	-10.2119
▁diplomat	-10.2121
▁tam	-10.2122
vekst	-10.2124
▁gold	-10.2128
▁spesielle	-10.2128
▁grønne	-10.2131
▁hellig	-10.2133
yan	-10.2138
▁vekk	-10.2143
▁forbund	-10.2159
▁villa	-10.216
jord	-10.2168
▁sagt	-10.2173
▁flyktet	-10.2174
▁landslaget	-10.2177
▁34	-10.2178
▁bilder	-10.2181
bygget	-10.2184
▁tjene	-10.2193
næring	-10.2195
▁løper	-10.2201
▁parlament	-10.2203
▁32	-10.2207
formen	-10.2209
▁vente	-10.2212
renn	-10.2213
▁cel	-10.2229
▁minister	-10.224
▁varianter	-10.2242
▁melk	-10.2248
▁75	-10.2252
▁eik	-10.2264
▁finske	-10.2266
manuskript	-10.2274
▁afghanistan	-10.2274
▁jerusalem	-10.2274
▁objekt	-10.2274
▁kristiansand	-10.2274
▁vesentlig	-10.2274
▁strøk	-10.2275
▁utseende	-10.2275
▁oppfatte	-10.2275
▁sjette	-10.2275
▁blanding	-10.2275
dels	-10.2275
▁1914	-10.2276
▁alpin	-10.2276
▁midlertidig	-10.2276
▁erfaring	-10.2277
innspilling	-10.2279
▁formula	-10.228
▁skikk	-10.2284
▁utnytte	-10.2285
▁nasjoner	-10.2286
hm	-10.2287
▁mikro	-10.2289
▁horn	-10.2291
▁fjernet	-10.2298
▁foreningen	-10.2303
▁ansvarlig	-10.2308
▁variant	-10.2313
▁kg	-10.2316
▁advokat	-10.2324
alistisk	-10.2326
38	-10.2337
▁vestre	-10.2338
▁verdensmester	-10.2341
▁poly	-10.2341
ische	-10.2345
▁fantes	-10.2347
▁vende	-10.2347
▁fjerne	-10.2361
▁planen	-10.2368
▁teknologi	-10.237
81	-10.2375
▁bygda	-10.2377
▁tiår	-10.2379
▁utenriks	-10.2381
aria	-10.2385
▁venner	-10.2386
▁museet	-10.2388
klubben	-10.2397
▁aksjon	-10.24
▁kok	-10.2405
▁avtalen	-10.2421
maler	-10.2428
▁salme	-10.2431
på	-10.2438
vassdraget	-10.245
▁brødrene	-10.245
admiral	-10.245
▁argument	-10.245
▁innbyggertall	-10.245
▁insekter	-10.245
▁brensel	-10.245
▁major	-10.245
▁redusere	-10.245
▁bøkene	-10.245
▁romsdal	-10.2451
▁music	-10.2452
▁wei	-10.2452
▁län	-10.2454
▁gram	-10.2462
▁ger	-10.2465
▁nød	-10.2465
▁henry	-10.2467
▁may	-10.2469
▁team	-10.247
▁thi	-10.2475
▁lista	-10.2476
▁nordre	-10.2484
▁jean	-10.2491
▁lykke	-10.2496
▁aker	-10.2509
familie	-10.251
vannet	-10.252
industrien	-10.2521
ux	-10.2522
▁vitne	-10.2523
▁gy	-10.2523
plate	-10.2526
ferdig	-10.2529
▁anlegg	-10.2541
▁jente	-10.2543
▁singelen	-10.2545
▁unngå	-10.2552
▁wall	-10.2561
▁flor	-10.2568
▁begrep	-10.2574
▁markeds	-10.2592
▁celle	-10.2594
▁hunnen	-10.2595
▁skyte	-10.2596
▁betale	-10.26
▁nordiske	-10.2605
▁synlig	-10.2628
▁antwerpen	-10.2628
▁skjul	-10.2629
▁edward	-10.2629
komité	-10.263
mønster	-10.263
ingeniør	-10.2631
▁turner	-10.2631
▁aksje	-10.2632
▁tørr	-10.2638
▁kapell	-10.2639
▁munk	-10.264
▁allmenn	-10.2645
▁overleve	-10.265
▁ekte	-10.2651
▁gitarist	-10.2651
▁drap	-10.2654
▁modellen	-10.2657
utvikling	-10.2657
▁bånd	-10.2665
mengde	-10.2666
▁soldat	-10.2669
▁troms	-10.2669
▁million	-10.2672
▁bob	-10.2673
▁skjø	-10.2679
▁konstruksjon	-10.2683
▁tvil	-10.2688
34	-10.2688
▁hage	-10.2692
▁unn	-10.2693
fjellene	-10.2713
▁36	-10.272
▁behandle	-10.2724
▁strak	-10.2743
▁flest	-10.2749
deles	-10.2753
▁opptre	-10.2772
melding	-10.2775
liste	-10.2788
▁kloster	-10.2802
▁ishockey	-10.2809
▁eventuel	-10.281
▁friedrich	-10.281
▁konkurrere	-10.281
traktaten	-10.281
▁fengsle	-10.281
▁litterær	-10.281
▁fjernsyn	-10.2811
▁myndighetene	-10.2811
▁søndag	-10.2812
▁2018	-10.2815
▁middelalder	-10.2815
▁debatt	-10.2816
ryd	-10.2819
▁yu	-10.2822
▁spenning	-10.2822
bebyggelse	-10.2827
▁drepe	-10.2829
▁fritt	-10.283
000	-10.283
▁fortellingen	-10.2831
koll	-10.2834
▁forvingen	-10.2838
▁kulturell	-10.2843
▁fotballklubb	-10.2849
▁utgaven	-10.2852
▁eksemplarer	-10.2857
▁representerer	-10.2861
▁forstå	-10.2864
fyr	-10.2864
▁road	-10.2868
▁rester	-10.2874
71	-10.2876
▁semifinalen	-10.2876
▁klosteret	-10.2882
▁elite	-10.2897
▁gruppa	-10.2901
▁myk	-10.2904
▁innhold	-10.2908
▁ferd	-10.2918
▁natten	-10.2924
▁ordre	-10.2939
pha	-10.2941
▁slott	-10.2941
klas	-10.2944
vest	-10.2944
▁65	-10.2949
▁grønn	-10.295
▁kai	-10.2957
livet	-10.2959
▁bære	-10.2961
bukta	-10.2968
skij	-10.2973
▁nazi	-10.2984
rettighet	-10.2988
▁artister	-10.299
bedrift	-10.2994
▁aleksander	-10.2995
▁heidelberg	-10.2995
▁initiativ	-10.2995
▁nøyaktig	-10.2995
▁trukket	-10.2995
▁innbyggerne	-10.2995
▁scott	-10.2996
▁allianse	-10.2996
▁analyse	-10.2996
▁kveld	-10.2996
▁edderkopp	-10.2997
▁britene	-10.2997
▁1907	-10.2998
forbundet	-10.2999
▁meldt	-10.3001
▁varierer	-10.3002
sjanger	-10.3007
vald	-10.301
▁64	-10.3014
jö	-10.3014
forbud	-10.3015
▁metro	-10.3015
kamera	-10.3016
▁human	-10.3018
▁skjær	-10.3019
91	-10.3028
historisk	-10.3031
▁river	-10.3032
hjem	-10.3033
▁sho	-10.3034
▁utvikler	-10.3035
▁slett	-10.3042
▁sporter	-10.3042
▁grøn	-10.3055
▁krim	-10.3058
▁slottet	-10.3068
▁utstyrt	-10.3069
klassen	-10.3085
▁700	-10.3108
26	-10.3114
▁mesterskap	-10.3122
61	-10.3124
start	-10.313
▁kjempet	-10.3133
▁hval	-10.3134
▁clar	-10.3135
▁byttet	-10.3138
tjent	-10.314
▁shan	-10.3145
nå	-10.3146
▁landslag	-10.3154
▁gjennomføre	-10.3156
typen	-10.3158
▁omgang	-10.316
▁kristian	-10.3178
kjøtt	-10.3179
hopp	-10.3183
▁hovedkvarter	-10.3184
friidrettsutøver	-10.3184
▁1902	-10.3184
▁pakistan	-10.3184
▁portugisisk	-10.3184
▁vilhelm	-10.3184
budsjett	-10.3184
▁kommersiell	-10.3184
konvensjon	-10.3184
▁studioalbum	-10.3185
▁orient	-10.3186
▁byprefekturet	-10.3186
▁kjøl	-10.3187
▁drikke	-10.3188
▁forbudt	-10.3189
▁reserve	-10.319
botn	-10.3192
▁folketelling	-10.3193
▁1814	-10.3193
firma	-10.3194
▁underlag	-10.3208
▁påvirke	-10.3209
▁1870	-10.3209
▁deltatt	-10.321
▁morgen	-10.321
▁petter	-10.3213
▁kvalifisert	-10.3218
▁gjenstand	-10.3224
▁europe	-10.3237
vold	-10.3238
▁utbrudd	-10.324
▁stål	-10.3243
angrep	-10.3246
▁santa	-10.3249
yang	-10.325
▁kommando	-10.3251
23	-10.326
skyting	-10.3265
▁verken	-10.3265
trener	-10.327
▁bærer	-10.3272
ridge	-10.3276
▁musikalsk	-10.3278
▁kanalen	-10.328
▁kalle	-10.3289
▁finale	-10.3299
▁lukke	-10.3301
versjon	-10.3313
33	-10.3317
▁mart	-10.3321
▁cre	-10.3327
sey	-10.3336
▁sveitsisk	-10.3338
lyse	-10.3341
▁andel	-10.3343
▁tradisjonell	-10.3343
slekt	-10.3349
▁frihet	-10.3353
wald	-10.3374
▁elektro	-10.3375
▁vingespenn	-10.3376
▁manchester	-10.3376
▁fenomen	-10.3376
▁krevde	-10.3376
▁adresse	-10.3377
▁elleve	-10.3377
▁hvile	-10.3377
▁søkte	-10.3377
▁jesus	-10.3378
▁bayern	-10.3378
▁francisco	-10.3379
▁bodø	-10.338
▁portrett	-10.3384
▁etappe	-10.3387
▁trær	-10.3392
▁fremført	-10.3395
kjøretøy	-10.3395
▁opptatt	-10.3395
▁bytte	-10.3396
▁østover	-10.3408
kongress	-10.3408
▁lord	-10.3408
▁sørover	-10.3424
bær	-10.3426
▁ulykke	-10.3439
nummer	-10.3442
▁glo	-10.3452
▁motsatt	-10.3453
▁skatt	-10.3455
makt	-10.3459
▁klokken	-10.3461
▁neu	-10.3468
▁bekreftet	-10.3473
▁camp	-10.348
▁grov	-10.3495
▁rang	-10.3516
gått	-10.3517
▁skaper	-10.3517
ical	-10.352
▁måter	-10.3525
▁påvirket	-10.3529
redning	-10.3536
▁karrieren	-10.3554
▁gruve	-10.3555
▁folketellingen	-10.3564
▁rund	-10.3566
▁stab	-10.3571
▁alexander	-10.3572
▁barcelona	-10.3572
▁juridisk	-10.3572
▁ludvig	-10.3572
▁gunnar	-10.3572
▁terreng	-10.3572
▁vulkan	-10.3572
▁sachsen	-10.3573
▁praktisk	-10.3573
tank	-10.3573
▁konstant	-10.3573
▁programleder	-10.3575
▁oppgaver	-10.3576
▁vegg	-10.358
▁akku	-10.3581
▁arkitektur	-10.3584
▁kim	-10.3587
▁kjell	-10.359
kilde	-10.3597
politikk	-10.3598
nemlig	-10.36
▁seire	-10.3601
▁boy	-10.3602
13	-10.3602
▁vedtatt	-10.3607
▁betegnelse	-10.361
▁grunnlag	-10.3614
maskin	-10.362
▁demokratisk	-10.362
▁gymnas	-10.362
▁israelsk	-10.3621
skyld	-10.3628
fangst	-10.363
høyde	-10.3641
dø	-10.3642
▁long	-10.3643
▁sving	-10.3645
▁høst	-10.3647
▁utløp	-10.3656
▁disk	-10.3656
▁fry	-10.3659
▁urban	-10.3666
▁dukket	-10.3669
egnet	-10.3671
▁dru	-10.3695
områdene	-10.3708
▁bou	-10.3721
▁preg	-10.3744
▁ulik	-10.3748
strategi	-10.3772
▁skulptur	-10.3772
▁radikal	-10.3772
▁digital	-10.3772
▁kjennetegn	-10.3773
▁referere	-10.3773
▁papir	-10.3773
▁kongsberg	-10.3773
▁debutalbum	-10.3773
▁yngst	-10.3773
▁prinsesse	-10.3774
▁markedet	-10.3775
▁enhver	-10.3775
▁inndelt	-10.3775
▁1905	-10.3776
▁tropper	-10.3781
▁niels	-10.3781
▁show	-10.3788
▁1899	-10.3794
▁ektemann	-10.3796
▁boka	-10.3798
▁tvang	-10.3805
▁hendelser	-10.3808
▁oppsto	-10.3809
kampanje	-10.3812
ograf	-10.3817
▁såle	-10.3817
pplysning	-10.3819
strøm	-10.3821
direktør	-10.3823
speil	-10.3825
▁signal	-10.3851
▁elementer	-10.3862
▁dominert	-10.3876
▁hyp	-10.3885
▁tilhøre	-10.3891
▁160	-10.3892
aksel	-10.3893
▁produserer	-10.3895
▁hvilken	-10.39
▁tidspunkt	-10.3907
høyskole	-10.3913
▁kommunist	-10.3925
▁250	-10.3926
utvalget	-10.3929
▁hendelsen	-10.3969
▁fol	-10.397
svømme	-10.3975
▁australsk	-10.3977
▁eksperiment	-10.3977
▁etablere	-10.3977
▁returnert	-10.3977
▁fungerte	-10.3977
▁uansett	-10.3977
▁gustav	-10.3977
▁kjørt	-10.3977
▁mektig	-10.3977
▁fjordane	-10.3977
▁landbruks	-10.3977
ов	-10.3977
▁konservative	-10.3978
▁antyde	-10.3979
▁internett	-10.398
▁michel	-10.3981
▁kristiania	-10.3984
▁arkeologisk	-10.3984
▁alfred	-10.3984
▁german	-10.3986
▁opptrådt	-10.3987
▁vite	-10.3994
▁institut	-10.3999
▁christiania	-10.4005
low	-10.4006
▁isteden	-10.401
▁handle	-10.4024
materiale	-10.4032
født	-10.4036
▁kjempe	-10.4037
syre	-10.4046
▁skjold	-10.4047
▁roger	-10.4048
▁idrettslag	-10.4054
▁begynne	-10.4057
▁ey	-10.4057
lapp	-10.4062
▁lærd	-10.4063
havn	-10.4069
▁kent	-10.4074
gni	-10.4082
▁opprette	-10.4086
sider	-10.4087
▁skinn	-10.4098
▁kode	-10.4098
makten	-10.4098
roman	-10.4103
skrevet	-10.4104
▁120	-10.4115
jal	-10.4131
gav	-10.415
▁cur	-10.4151
setting	-10.4178
▁innlemmet	-10.4185
▁svalbard	-10.4185
▁gregor	-10.4185
veksling	-10.4185
▁avgjørende	-10.4185
▁presentert	-10.4185
▁inngår	-10.4185
▁flekker	-10.4187
▁strekningen	-10.4191
▁beskyttelse	-10.4197
▁forvente	-10.4198
▁dyrke	-10.421
▁simon	-10.422
skade	-10.4231
posisjon	-10.4234
▁polar	-10.4234
▁besøkte	-10.4242
dannelse	-10.4246
▁menneskelig	-10.4253
▁dyktig	-10.4259
▁fungerer	-10.4265
▁blu	-10.4283
▁170	-10.429
▁rand	-10.4311
industri	-10.4318
▁plateselskap	-10.4322
krig	-10.4325
▁bio	-10.4332
dikt	-10.4335
▁angel	-10.4337
kil	-10.4337
▁helst	-10.4342
▁utvide	-10.4353
▁bratt	-10.4362
talende	-10.4375
▁egyptisk	-10.4394
fant	-10.4396
▁reklame	-10.4398
▁tønsberg	-10.4398
▁hordaland	-10.4398
▁tømmer	-10.4398
▁fiolin	-10.4398
▁telefon	-10.4398
▁hvem	-10.4398
▁forbedre	-10.4398
▁fysisk	-10.4399
▁kau	-10.4399
▁håndball	-10.4399
▁tegneserie	-10.4399
▁befinne	-10.44
▁kritisk	-10.44
▁house	-10.4401
▁årsaken	-10.4402
▁gravlagt	-10.4402
gjør	-10.4402
vandring	-10.4402
▁beslekte	-10.4402
▁ferge	-10.4402
▁1300	-10.4403
▁nederlag	-10.4412
▁mottatt	-10.4416
▁indi	-10.4416
▁snu	-10.4417
▁1898	-10.4419
▁1890	-10.4421
kontor	-10.4422
fond	-10.4425
▁wales	-10.4428
▁vg	-10.4429
domstol	-10.4431
sentre	-10.4432
▁hull	-10.4434
▁mitt	-10.4436
▁hagen	-10.4438
▁tann	-10.4438
▁bjør	-10.4442
▁regissør	-10.4443
▁adam	-10.4459
▁unna	-10.4463
▁beregne	-10.4477
▁buk	-10.4487
▁platen	-10.449
▁pil	-10.45
▁mono	-10.4516
▁wolf	-10.4535
▁lake	-10.454
▁filosof	-10.4543
▁frakte	-10.455
▁skuespill	-10.4551
jønn	-10.4553
ique	-10.4573
ity	-10.4574
bød	-10.4577
▁fulgt	-10.4579
▁laste	-10.4581
▁spesiell	-10.4581
▁delstat	-10.4593
kostnad	-10.4595
forsker	-10.46
løytnant	-10.4615
▁angelsaksisk	-10.4615
▁chicago	-10.4615
▁kritiker	-10.4615
▁vestfold	-10.4615
▁østfold	-10.4615
▁zealand	-10.4615
▁ombord	-10.4615
▁global	-10.4616
▁felttog	-10.4616
▁definere	-10.4617
▁brygge	-10.4617
time	-10.4619
▁vannkraftverk	-10.4631
▁white	-10.4637
▁molde	-10.464
▁1860	-10.4642
▁statsråd	-10.4652
▁gaten	-10.4656
▁hindre	-10.4673
▁estland	-10.4674
▁verksted	-10.4675
fast	-10.4684
måte	-10.47
stjerne	-10.4702
utstilling	-10.4703
▁paus	-10.4718
▁hå	-10.472
zon	-10.4723
▁game	-10.4739
ward	-10.4755
▁bell	-10.476
▁comp	-10.4771
verden	-10.4778
▁etnisk	-10.4779
▁prinsipp	-10.4789
▁steg	-10.4802
samband	-10.4816
▁europeisk	-10.4816
▁okkupasjon	-10.4823
▁900	-10.4833
▁1903	-10.4837
▁argentina	-10.4837
▁definisjon	-10.4837
▁fakultet	-10.4837
▁shanghai	-10.4837
▁1901	-10.4837
▁tabellen	-10.4837
førsel	-10.4837
▁eksisterer	-10.4837
frekvens	-10.4837
▁autonom	-10.4837
▁jøder	-10.4837
ström	-10.4838
▁teologisk	-10.4838
▁unntatt	-10.4838
▁verdensrekord	-10.4839
▁innviet	-10.4839
▁hovedkontor	-10.4841
elli	-10.4842
▁1400	-10.4843
▁misjons	-10.4844
▁forlate	-10.4845
▁fredrikstad	-10.4846
▁turné	-10.4846
▁donau	-10.4846
▁tolke	-10.4846
▁orgel	-10.4847
▁imperi	-10.4848
▁1896	-10.4857
▁hekk	-10.4863
▁queen	-10.4866
▁karakteristisk	-10.4867
▁nylig	-10.4874
▁pont	-10.4877
▁opplag	-10.4877
▁demningen	-10.4877
strømmen	-10.4878
grensen	-10.4882
▁sosialistisk	-10.4887
▁markere	-10.489
▁statue	-10.4903
vakt	-10.4903
kanalen	-10.4912
▁tidspunktet	-10.4917
▁ulv	-10.4919
studie	-10.4926
▁cand	-10.4942
▁ef	-10.4943
horn	-10.4948
kammer	-10.4961
0	-10.4964
▁sara	-10.4969
uld	-10.497
messe	-10.4989
polis	-10.5011
forsyning	-10.5022
▁angi	-10.5035
▁raf	-10.504
profil	-10.5044
galleri	-10.5055
▁kalde	-10.5058
▁ønske	-10.5064
▁portugal	-10.5065
▁prøvd	-10.5065
▁resultert	-10.5065
▁øyeblikk	-10.5065
▁kommandør	-10.5065
▁konstruert	-10.5065
▁lagkonkurransen	-10.5065
▁trygg	-10.5065
▁nikola	-10.5065
▁senatet	-10.5065
▁mount	-10.5065
▁elektronisk	-10.5065
▁opposisjon	-10.5065
▁forklaring	-10.5065
▁grevskapet	-10.5066
▁røyk	-10.5067
▁åpenbar	-10.507
▁onkel	-10.5071
▁interessert	-10.5073
▁walter	-10.508
▁grønland	-10.5086
▁1897	-10.5086
▁1880	-10.509
▁mord	-10.5095
▁kongelig	-10.51
▁malm	-10.5101
▁skøyter	-10.5108
▁synge	-10.512
▁grim	-10.5144
museum	-10.5144
programmet	-10.5146
▁uavhengighet	-10.5152
reise	-10.5153
flekk	-10.5157
▁scenen	-10.5169
teori	-10.5171
▁fremmed	-10.518
▁utøve	-10.5187
▁tjenestegjor	-10.5219
▁gli	-10.5227
▁rykte	-10.5227
▁oppleve	-10.523
celle	-10.5238
▁wu	-10.5245
▁kå	-10.526
▁spring	-10.5271
▁religiøs	-10.5279
▁forsterke	-10.5279
vervet	-10.5285
▁inge	-10.5296
▁amsterdam	-10.5297
▁kollektiv	-10.5297
▁etablering	-10.5297
▁science	-10.5297
▁offensiv	-10.5297
▁antarktis	-10.5297
▁innvandre	-10.5297
▁texas	-10.5297
▁fjær	-10.5297
▁oldtiden	-10.5297
▁valuta	-10.5297
▁innvalgt	-10.5298
▁utmerkelse	-10.5298
▁innebære	-10.5298
▁manager	-10.5299
▁hensyn	-10.5302
▁lokalisert	-10.5305
▁rival	-10.5309
▁fastlandet	-10.5309
slutt	-10.5314
▁gjennombrudd	-10.5316
▁østlandet	-10.5322
▁tilsvare	-10.5337
▁smak	-10.5343
▁bull	-10.5353
utenriksminister	-10.536
▁forklare	-10.5375
oksid	-10.5383
kall	-10.5393
▁fjern	-10.5406
▁forent	-10.5417
manuel	-10.5421
gjeng	-10.5436
▁fungere	-10.5448
▁sikkerhet	-10.5487
▁vokal	-10.5527
nngått	-10.5533
▁administrere	-10.5535
▁helsingfors	-10.5535
▁intervju	-10.5535
▁referanse	-10.5535
▁sluppet	-10.5535
symptom	-10.5535
▁erobring	-10.5535
▁oppretthold	-10.5535
▁company	-10.5535
▁uvanlig	-10.5535
▁bispe	-10.5535
▁ungarsk	-10.5535
teatret	-10.5535
pedagog	-10.5535
▁ytterst	-10.5535
▁tilfeldig	-10.5536
▁klatre	-10.5536
▁føderal	-10.5536
▁skutt	-10.5536
▁dominerende	-10.5536
▁anvende	-10.5536
▁import	-10.5537
▁anklage	-10.5537
▁tegninger	-10.554
▁tsar	-10.554
▁philip	-10.5541
▁beskjed	-10.5543
▁høyesterett	-10.5546
▁uklar	-10.5546
▁holdning	-10.5546
▁nobel	-10.5548
▁3000	-10.555
▁forlatt	-10.5552
▁1894	-10.5552
▁hamburg	-10.5554
aften	-10.5572
esisk	-10.559
▁water	-10.5604
work	-10.561
divisjon	-10.5622
museet	-10.563
▁brutt	-10.5638
problem	-10.5638
politisk	-10.5638
▁koste	-10.5643
behandling	-10.5646
myr	-10.574
▁histor	-10.5751
▁georgia	-10.5753
hed	-10.576
hytte	-10.577
▁prøyssisk	-10.5779
▁jørgen	-10.5779
▁negativ	-10.5779
▁monument	-10.5779
▁foregår	-10.5779
▁ansikt	-10.5779
seremoni	-10.5779
▁mekanisk	-10.5779
tråling	-10.578
▁utforming	-10.578
▁fed	-10.578
▁oppheve	-10.578
▁power	-10.5781
▁mjø	-10.5781
▁rettigheter	-10.5782
▁keltisk	-10.5784
▁byggingen	-10.5785
▁tilsyne	-10.5789
▁idé	-10.5791
bury	-10.5793
▁enorm	-10.5799
▁1887	-10.58
▁tynn	-10.5803
▁1895	-10.5803
▁oppstod	-10.5803
▁with	-10.5804
▁sandnes	-10.5807
skjerm	-10.5816
kalender	-10.5824
▁møre	-10.5826
▁lært	-10.5826
yuan	-10.583
▁psykologi	-10.5835
▁liber	-10.5842
▁stemmene	-10.5849
▁forståelse	-10.5849
▁meta	-10.59
▁baron	-10.5908
▁whi	-10.5909
fartøy	-10.5922
▁tenke	-10.5924
▁kontrollert	-10.593
dommer	-10.594
▁singel	-10.5959
▁klage	-10.5966
▁hannen	-10.5968
fronten	-10.5977
▁fru	-10.6022
▁napoleon	-10.6029
▁ambassadør	-10.6029
▁elizabeth	-10.6029
▁forhindre	-10.6029
▁göteborg	-10.6029
▁kompleks	-10.6029
▁liverpool	-10.6029
▁middelsstor	-10.6029
▁nøytral	-10.6029
▁restaurant	-10.6029
▁tyrkia	-10.6029
▁beordret	-10.6029
▁alfabet	-10.6029
▁komponert	-10.6029
▁permanent	-10.6029
▁beatles	-10.6029
▁kritisert	-10.6029
▁besetning	-10.603
▁victoria	-10.603
stipend	-10.6031
▁øynene	-10.6031
▁generell	-10.6032
▁beskrivelse	-10.6032
▁opplevd	-10.6033
▁trenger	-10.6033
▁skygge	-10.6036
▁håndverk	-10.6036
▁tropisk	-10.6037
bakke	-10.6037
▁ond	-10.6038
▁hjerne	-10.604
▁nedtegne	-10.604
▁mobil	-10.6041
▁ordnet	-10.6044
▁forrige	-10.6045
▁sparta	-10.6047
▁rulle	-10.6052
▁sankt	-10.6065
▁etterpå	-10.6068
▁intel	-10.6076
biller	-10.6077
▁jones	-10.6113
▁bestand	-10.6115
▁fjellkjede	-10.6121
▁overleg	-10.6132
regjering	-10.6133
forsvar	-10.6134
følelse	-10.614
▁henge	-10.6142
▁ligge	-10.6148
▁henvis	-10.6158
metode	-10.6162
▁brand	-10.617
▁khan	-10.6175
▁bevisst	-10.6194
14	-10.6201
ledende	-10.6214
▁ross	-10.6214
gass	-10.6261
▁verb	-10.6272
belteasteroide	-10.6285
▁cambridge	-10.6285
▁windows	-10.6285
▁eksisterende	-10.6285
▁automatisk	-10.6285
▁hyppig	-10.6286
▁forsvant	-10.6286
▁skjebne	-10.6286
▁vakre	-10.6286
▁døgn	-10.6286
▁erstatning	-10.6286
▁klippe	-10.6286
▁multi	-10.6286
▁firmaet	-10.6287
▁forgjenger	-10.6288
▁avgjørelse	-10.6291
▁sykdommen	-10.6294
▁nevø	-10.6294
▁arkiv	-10.6294
▁mandat	-10.6297
▁komposisjon	-10.6299
▁driv	-10.6299
▁britis	-10.6303
reformen	-10.6309
▁1878	-10.6309
▁østsiden	-10.6318
▁brent	-10.6322
▁romerne	-10.6324
▁derfra	-10.6332
▁marx	-10.6336
▁qing	-10.6343
▁cru	-10.6351
▁aviser	-10.6373
medisin	-10.6395
funksjon	-10.6396
▁stund	-10.6411
▁musikal	-10.6419
funn	-10.6421
tunnelen	-10.6432
▁lyng	-10.6438
basert	-10.6444
drakt	-10.6483
konsern	-10.6516
lignende	-10.6535
tredende	-10.6536
▁kjemisk	-10.6543
jubileum	-10.6549
▁central	-10.6549
▁forfremmet	-10.6549
▁midtøsten	-10.6549
▁okkupert	-10.6549
▁sjeldne	-10.6549
▁vurdert	-10.6549
▁symfoni	-10.6549
▁artilleri	-10.6549
▁embets	-10.6549
▁risiko	-10.6549
▁thailand	-10.6549
▁preussen	-10.6549
▁langvarig	-10.6549
▁skåne	-10.6549
▁separat	-10.6549
▁slank	-10.655
▁innledet	-10.655
▁nedenfor	-10.655
▁flytende	-10.655
▁tallrike	-10.6551
worth	-10.6551
givende	-10.6551
▁kongeriket	-10.6552
▁betalt	-10.6553
▁lojal	-10.6553
▁deltakere	-10.6555
▁hylle	-10.6555
brigade	-10.6568
▁1882	-10.6569
▁forskjellig	-10.6573
ekspert	-10.6574
▁koble	-10.6577
burn	-10.6581
▁tykk	-10.6587
▁nordmenn	-10.6592
spira	-10.66
▁unik	-10.6648
iansk	-10.6663
settelse	-10.6663
▁katedral	-10.6665
▁erobre	-10.6673
▁blind	-10.6675
▁nettsted	-10.6718
oide	-10.6724
▁samisk	-10.6736
▁mannlig	-10.6752
▁kontr	-10.6757
psykolog	-10.6768
buss	-10.6772
effekt	-10.6775
▁walk	-10.6802
▁francis	-10.6816
▁etiopia	-10.6819
▁etterkommere	-10.6819
▁football	-10.6819
▁infrastruktur	-10.6819
▁jesuitt	-10.6819
▁observator	-10.6819
▁observert	-10.6819
▁vedlikehold	-10.6819
▁færøyene	-10.6819
kompetanse	-10.6819
▁adolf	-10.6819
▁christoph	-10.6819
▁matematikk	-10.6819
▁amatør	-10.6819
innspilt	-10.6819
▁josef	-10.6819
▁hebraisk	-10.6819
▁umulig	-10.6819
▁bbc	-10.6819
▁avdøde	-10.6819
▁regulere	-10.6819
▁egenskaper	-10.6819
hospital	-10.6819
▁visepresident	-10.682
▁konsekvens	-10.682
▁einar	-10.6821
▁rolf	-10.6821
▁hedmark	-10.6821
▁relasjon	-10.6821
▁stengt	-10.6822
▁brown	-10.6822
givning	-10.6822
▁gress	-10.6822
▁bunnen	-10.6823
▁tjue	-10.6823
▁langrenn	-10.6824
▁syria	-10.6825
▁proto	-10.6826
▁center	-10.6827
finansiert	-10.6828
▁bedriften	-10.6828
▁rytter	-10.6833
▁slapp	-10.6842
▁tyng	-10.6843
▁syvende	-10.6845
▁vennskap	-10.6845
pleie	-10.6846
▁variasjon	-10.6853
økonomi	-10.6858
▁presis	-10.6862
▁furu	-10.6869
▁chang	-10.6875
▁trond	-10.6876
▁kommunistparti	-10.6889
▁sideelv	-10.6915
nytt	-10.6927
struktur	-10.6943
teknologi	-10.6944
utdanning	-10.6944
rekord	-10.6948
▁vilje	-10.6957
drive	-10.6957
▁tidligst	-10.6989
qi	-10.7003
skille	-10.7026
▁sosialdemokrat	-10.7045
takket	-10.7064
▁dverg	-10.7093
svømming	-10.7097
▁beslutning	-10.7097
▁ferdinand	-10.7097
▁identifisert	-10.7097
▁konstitusjon	-10.7097
▁lillehammer	-10.7097
▁nowiki	-10.7097
▁rekrutt	-10.7097
▁særskilt	-10.7097
▁utslipp	-10.7097
▁konkurs	-10.7097
▁lørdag	-10.7097
▁oppfatning	-10.7097
▁diameter	-10.7097
▁parallell	-10.7097
▁betydningsfull	-10.7097
▁bærum	-10.7097
▁canadisk	-10.7097
▁selvmord	-10.7097
▁skildre	-10.7097
▁wol	-10.7097
▁sibir	-10.7097
▁svømmer	-10.7099
gjald	-10.7103
▁tilsammen	-10.7104
▁senator	-10.7105
▁piano	-10.7107
▁manglen	-10.7108
kommisjonen	-10.7113
▁bruce	-10.7114
▁1861	-10.7115
▁lidelse	-10.7115
▁1891	-10.7115
▁panser	-10.7115
▁1881	-10.7116
▁blues	-10.7118
▁opptreden	-10.7119
▁tillatt	-10.712
▁1889	-10.712
▁morten	-10.7123
▁jevnlig	-10.7125
▁øvrig	-10.7126
▁1848	-10.7128
▁åttende	-10.7134
▁slave	-10.7135
▁selvstendighet	-10.7135
▁næringsliv	-10.7151
▁persisk	-10.7157
klasse	-10.717
▁dokument	-10.7171
▁dramatisk	-10.7186
▁term	-10.7197
nhard	-10.721
akademi	-10.7211
bestemme	-10.7229
▁sikte	-10.7229
tilbud	-10.7229
▁lukt	-10.7239
▁forfatterskap	-10.7243
▁arkeologi	-10.7257
▁demokrati	-10.727
regime	-10.7285
næs	-10.7297
bundet	-10.7354
▁tyve	-10.7369
matikk	-10.7381
▁ambassade	-10.7382
▁hollywood	-10.7382
▁inspirasjon	-10.7382
▁mccartney	-10.7382
▁normandie	-10.7382
▁skandinavia	-10.7382
▁utelukkende	-10.7382
▁taylor	-10.7382
▁utbredelse	-10.7382
▁kronologisk	-10.7382
▁hjort	-10.7382
▁stridsvogn	-10.7382
▁kavaleri	-10.7382
▁fuktig	-10.7382
▁kobber	-10.7382
▁sivilisasjon	-10.7383
▁madrid	-10.7383
▁ulovlig	-10.7383
▁senior	-10.7383
▁deutsch	-10.7383
▁verdensarv	-10.7383
▁igjennom	-10.7383
▁golf	-10.7383
▁larvik	-10.7383
▁bakvingen	-10.7384
▁embete	-10.7384
▁distanse	-10.7384
▁generalsekretær	-10.7386
▁jurist	-10.7386
▁sverre	-10.7387
▁gjentatt	-10.7387
▁ideologi	-10.7388
▁tjente	-10.7388
▁sykkel	-10.7389
▁kreert	-10.739
▁stemt	-10.739
▁vandre	-10.7394
▁trodde	-10.7396
▁forandre	-10.74
▁jacobsen	-10.7403
▁eiendommen	-10.7405
▁ibsen	-10.7405
tivt	-10.7408
strup	-10.7414
▁romania	-10.7419
▁studert	-10.7422
trådt	-10.7425
▁industriell	-10.7431
▁slippe	-10.7432
▁hender	-10.7447
lock	-10.7458
▁vanligst	-10.7468
bombe	-10.747
kreft	-10.7519
▁tempel	-10.7533
▁muslimsk	-10.7563
snegl	-10.7592
▁dynasti	-10.7605
▁steve	-10.7622
▁turisme	-10.7639
7	-10.7657
observasjon	-10.7677
▁jordskjelv	-10.7677
psykiatri	-10.7677
▁adskilt	-10.7677
▁allikevel	-10.7677
▁country	-10.7677
▁dirigent	-10.7677
▁maksimal	-10.7677
▁massachusetts	-10.7677
▁naturreservat	-10.7677
▁nøkkel	-10.7677
▁ortodoks	-10.7677
kommanderende	-10.7677
▁forkropp	-10.7677
▁eidsvoll	-10.7677
▁kortvarig	-10.7677
▁frimurer	-10.7677
▁sektor	-10.7677
▁castle	-10.7677
▁utfordre	-10.7678
▁osmansk	-10.7678
▁mineral	-10.7678
▁operatør	-10.7678
mekanisme	-10.7679
▁poesi	-10.768
▁bassist	-10.768
round	-10.7682
▁registr	-10.7683
▁1100	-10.7683
▁foregikk	-10.7686
▁biografi	-10.7686
▁kunstløp	-10.7693
▁1871	-10.7696
▁begrunne	-10.7711
▁månen	-10.7711
▁personlighet	-10.7714
▁mathi	-10.7731
dong	-10.7745
▁avisa	-10.7757
▁begravelse	-10.7763
▁pund	-10.7788
resultat	-10.7827
▁chile	-10.7853
▁chris	-10.7853
skjoldet	-10.7858
amerikanske	-10.7868
tveit	-10.7869
▁formue	-10.7953
▁klokke	-10.7966
▁atmosfære	-10.798
▁avslutning	-10.798
▁identifisere	-10.798
▁katolikk	-10.798
▁kontinuerlig	-10.798
▁landhockey	-10.798
▁millimeter	-10.798
▁sarpsborg	-10.798
▁tsjekkoslovakia	-10.798
▁abraham	-10.798
▁alminnelig	-10.798
▁buskerud	-10.798
▁ukraina	-10.798
▁ordinær	-10.798
▁invitert	-10.798
▁komplett	-10.798
▁væske	-10.798
▁margaret	-10.798
▁særeg	-10.798
▁jersey	-10.798
▁avskaffe	-10.798
▁lennon	-10.798
▁trondhjem	-10.798
▁batteri	-10.798
▁utsikt	-10.798
▁søsken	-10.798
▁tokyo	-10.798
▁seinere	-10.7981
▁varierende	-10.7981
▁datamaskin	-10.7981
▁florida	-10.7981
▁naturgass	-10.7981
▁great	-10.7982
▁boston	-10.7982
▁väst	-10.7982
▁reformasjonen	-10.7983
apparat	-10.7984
▁spyd	-10.7986
▁frp	-10.7991
ière	-10.7992
▁fylle	-10.7994
syssel	-10.7996
▁sukker	-10.8001
▁agent	-10.8003
▁fylt	-10.8005
spinner	-10.8031
▁idrett	-10.8033
▁kupp	-10.8038
▁markedsfør	-10.8056
▁hotel	-10.8071
endring	-10.8078
▁innerst	-10.8078
gruppa	-10.8079
▁muslim	-10.8098
karriere	-10.8112
kontrakt	-10.8115
register	-10.812
temperatur	-10.8139
litteratur	-10.8139
inntekt	-10.8139
prøve	-10.8149
▁kongedømme	-10.8154
støtte	-10.8209
▁vannkraft	-10.8281
▁kapittel	-10.8292
▁kronprins	-10.8292
▁mangfold	-10.8292
▁billboard	-10.8292
▁kvadrat	-10.8292
▁oxford	-10.8292
▁sigurd	-10.8292
▁pedersen	-10.8292
▁bøndene	-10.8292
▁elefant	-10.8292
▁assistent	-10.8292
▁beleiring	-10.8292
▁dagbladet	-10.8292
▁theodor	-10.8292
▁haakon	-10.8292
▁contest	-10.8292
▁korrekt	-10.8292
▁noensinne	-10.8293
▁josé	-10.8293
▁utgravninge	-10.8293
▁strategisk	-10.8295
▁virkeligheten	-10.8296
▁teller	-10.8296
▁mistenk	-10.8298
▁folkemusikk	-10.83
sikring	-10.8301
▁dokumentar	-10.8301
▁praha	-10.8302
▁røtter	-10.8306
▁young	-10.8307
betaling	-10.8328
feiring	-10.8328
einrich	-10.833
betingelse	-10.8335
▁låten	-10.8408
▁kunstnerisk	-10.8422
representant	-10.8444
▁bekrefte	-10.8462
▁element	-10.8473
▁verdenscup	-10.8476
▁romantisk	-10.8496
▁representere	-10.8524
kjeden	-10.8535
bukten	-10.8536
head	-10.8553
møll	-10.8554
▁avslutte	-10.8559
▁alexandr	-10.8615
▁britannia	-10.8615
▁frankfurt	-10.8615
▁hjørne	-10.8615
▁leipzig	-10.8615
▁omdøpt	-10.8615
▁renessanse	-10.8615
▁society	-10.8615
▁geometri	-10.8615
▁matematisk	-10.8615
▁taiwan	-10.8615
▁westfalen	-10.8615
▁unesco	-10.8615
▁autoritet	-10.8615
▁terminal	-10.8615
▁forårsake	-10.8615
▁kristus	-10.8615
▁innrømme	-10.8615
▁serbia	-10.8615
▁sydney	-10.8615
▁rektor	-10.8615
▁drømme	-10.8615
▁rikard	-10.8615
▁walisisk	-10.8615
dimensjon	-10.8615
▁für	-10.8615
▁cross	-10.8616
▁stefan	-10.8616
▁kullkraftverk	-10.8616
▁døpt	-10.8616
▁uefa	-10.8616
▁larver	-10.8616
▁gjøvik	-10.8617
▁ishockeyspiller	-10.8617
▁nepal	-10.862
basseng	-10.8621
▁pistol	-10.8621
ifisering	-10.8623
▁bidratt	-10.8625
▁anerkjennelse	-10.8626
▁øvelsen	-10.8629
▁variert	-10.8714
økonom	-10.8715
▁sønd	-10.8722
▁krise	-10.8751
▁hevn	-10.8768
orkester	-10.8795
kontroll	-10.8795
▁kriminal	-10.8833
▁fortelle	-10.8884
skrittspartiet	-10.8948
▁absolutt	-10.8948
▁brønn	-10.8948
▁bysantinsk	-10.8948
▁canterbury	-10.8948
▁elisabeth	-10.8948
▁hongkong	-10.8948
▁konseptet	-10.8948
▁königs	-10.8948
▁popularitet	-10.8948
▁tilstrekkelig	-10.8948
▁babylon	-10.8948
▁diskusjon	-10.8948
▁embeds	-10.8948
▁hjalp	-10.8948
▁besittelse	-10.8948
▁kulturminner	-10.8948
▁litauen	-10.8948
▁church	-10.8948
▁regulert	-10.8948
▁prince	-10.8948
▁misjonær	-10.8948
favoritt	-10.8948
▁benedikt	-10.8948
▁protestantisk	-10.8948
▁referert	-10.8948
▁fossil	-10.8948
▁giovan	-10.8948
pattedyr	-10.8949
▁oberst	-10.8949
▁samuel	-10.8949
▁pastor	-10.8949
▁nkp	-10.8949
▁kristendommen	-10.8949
▁lillestrøm	-10.895
▁linux	-10.895
aceae	-10.895
▁novell	-10.895
▁massiv	-10.895
▁myrdet	-10.8951
▁dialog	-10.8951
▁utgivelser	-10.8951
▁borgermester	-10.8952
▁styremedlem	-10.8952
▁stoffet	-10.8952
▁tørke	-10.8953
▁spurt	-10.8953
▁down	-10.8962
▁foreslo	-10.8962
▁talent	-10.8968
▁moderat	-10.8969
▁bevare	-10.8971
føtt	-10.9001
missil	-10.9009
revolusjonen	-10.9015
bæk	-10.9017
knapp	-10.9037
▁presidentvalge	-10.906
▁arkeolog	-10.9084
▁rapportert	-10.9098
instrument	-10.914
redaktør	-10.914
transport	-10.914
konsert	-10.9141
▁treffe	-10.9154
areal	-10.9242
reisende	-10.9254
▁flykte	-10.9254
komite	-10.9283
▁bachelor	-10.9293
▁bryllup	-10.9293
▁fiendtlig	-10.9293
▁interessant	-10.9293
▁patriark	-10.9293
▁trommeslager	-10.9293
▁uttrykt	-10.9293
▁virginia	-10.9293
▁vålerenga	-10.9293
▁asteroide	-10.9293
▁konsentrert	-10.9293
▁parallelt	-10.9293
▁colombia	-10.9293
▁identitet	-10.9293
▁kristelig	-10.9293
▁avstemning	-10.9293
▁class	-10.9293
▁tolkning	-10.9293
▁kommentar	-10.9293
▁disney	-10.9293
▁andré	-10.9293
▁karbon	-10.9293
▁biologisk	-10.9293
▁organisere	-10.9294
▁normannisk	-10.9294
▁underholdning	-10.9294
▁forberede	-10.9294
forhandle	-10.9294
▁divers	-10.9295
▁sannhet	-10.9296
▁bakterie	-10.9297
▁bedrifter	-10.9297
▁western	-10.9297
▁bønder	-10.9298
▁forfølgelse	-10.9298
▁foretatt	-10.9298
▁varemerke	-10.93
▁tower	-10.9302
▁amfi	-10.9304
▁innspillingen	-10.9306
▁kaffe	-10.9307
▁rytme	-10.9308
▁regent	-10.931
▁identisk	-10.9314
▁søyle	-10.9319
▁skrå	-10.932
▁domkirke	-10.9343
▁lunge	-10.9349
▁dreie	-10.9368
grip	-10.9395
▁kallenavn	-10.9414
▁aero	-10.942
▁øygrupp	-10.9463
▁utvidelse	-10.9463
kandidat	-10.9496
tradisjon	-10.9497
dømt	-10.9498
gudinne	-10.9509
pakke	-10.952
▁bringe	-10.9563
▁basketball	-10.965
▁konklave	-10.965
▁lokomotiv	-10.965
▁mongolia	-10.965
▁pilegrim	-10.965
▁psykisk	-10.965
▁shakespeare	-10.965
▁tsjekkia	-10.965
▁tsjekkisk	-10.965
▁vancouver	-10.965
▁douglas	-10.965
▁frilufts	-10.965
▁leopold	-10.965
▁venezia	-10.965
▁krønike	-10.965
▁rosenborg	-10.965
▁leonard	-10.965
▁ovenfor	-10.965
▁massakre	-10.965
▁ntnu	-10.965
▁sanskrit	-10.965
▁statsborger	-10.965
▁guinea	-10.965
▁sandefjord	-10.965
▁plukke	-10.965
▁patriot	-10.9651
▁nobelprisen	-10.9651
▁fiender	-10.9652
bevegelse	-10.9652
▁knust	-10.9653
▁hittil	-10.9654
▁høgskolen	-10.9655
▁smelte	-10.9656
▁indikere	-10.9659
montert	-10.9659
▁bønn	-10.966
▁rednings	-10.9662
▁kostnaden	-10.9683
▁birk	-10.9701
▁jernbanestasjon	-10.9751
▁rangert	-10.977
harmoni	-10.9792
▁intr	-10.9798
ekspedisjon	-10.9867
sykehus	-10.9867
hjelp	-10.9868
musiker	-10.9871
debut	-10.9872
sentral	-10.9874
video	-10.9879
fabrik	-10.9901
▁begrave	-10.9931
▁undersøke	-10.9994
▁bulgaria	-11.002
▁fredsavtale	-11.002
▁generalmajor	-11.002
▁guangdong	-11.002
▁invadert	-11.002
▁koalisjon	-11.002
▁kringkasting	-11.002
▁luxembourg	-11.002
▁låtskriver	-11.002
▁meksikansk	-11.002
▁narkotika	-11.002
▁pennsylvania	-11.002
▁puppestadi	-11.002
▁territorium	-11.002
▁warszawa	-11.002
▁buddhist	-11.002
▁cæsar	-11.002
▁ferskvann	-11.002
▁vertikal	-11.002
▁bystatus	-11.002
▁dekkvingene	-11.002
▁statistikk	-11.002
diagnosti	-11.002
▁jupiter	-11.002
köping	-11.002
▁hertugdømmet	-11.002
▁haugesund	-11.002
▁stephen	-11.002
▁atlanta	-11.002
▁anthon	-11.0021
▁middelhavs	-11.0021
▁barnehage	-11.0021
▁avviklet	-11.0021
kjøring	-11.0021
▁trengte	-11.0021
▁dybde	-11.0022
▁nymfe	-11.0022
▁temple	-11.0022
▁sunget	-11.0022
▁first	-11.0023
▁salmebok	-11.0023
▁filmatiser	-11.0023
▁opprettelsen	-11.0024
▁oliver	-11.0024
▁3166	-11.0024
ovitsj	-11.0024
▁malmö	-11.0024
▁pierre	-11.0025
▁betong	-11.0025
▁tibet	-11.0025
▁programvare	-11.0026
▁presentere	-11.0026
▁blank	-11.003
metabol	-11.0033
▁kenya	-11.0041
▁forvalte	-11.0047
▁syklist	-11.0054
▁rikdom	-11.0058
▁tvinge	-11.0064
▁nettside	-11.0065
▁slange	-11.007
vegetasjon	-11.0082
▁forstyrre	-11.0131
premie	-11.0132
slakte	-11.0143
▁demokrat	-11.0156
8	-11.0158
▁vektklasse	-11.019
losje	-11.0199
offiser	-11.0252
brann	-11.0258
▁sjakk	-11.0294
▁operativ	-11.039
direktoratet	-11.0405
▁aftenposten	-11.0405
▁arrangør	-11.0405
▁forvandling	-11.0405
▁jomfru	-11.0405
▁komplisert	-11.0405
▁molekyl	-11.0405
▁plutselig	-11.0405
▁singapore	-11.0405
▁økologisk	-11.0405
▁bekjempe	-11.0405
▁odysse	-11.0405
▁garnison	-11.0405
▁gerhard	-11.0405
▁grekerne	-11.0405
▁levanger	-11.0405
▁beregning	-11.0405
▁jamaica	-11.0405
▁sicilia	-11.0405
▁baseball	-11.0405
▁omsorg	-11.0405
bransjen	-11.0405
▁fiktiv	-11.0405
leverandør	-11.0405
▁testamente	-11.0405
▁alaska	-11.0405
▁utpekt	-11.0405
▁brussel	-11.0405
▁ålesund	-11.0405
materiell	-11.0406
▁betjene	-11.0406
▁drivstoff	-11.0406
▁protein	-11.0406
▁stemning	-11.0406
▁oblast	-11.0407
▁fienden	-11.0407
nøtter	-11.0408
▁alpene	-11.0409
▁flanke	-11.0411
▁gudinnen	-11.0411
▁rakett	-11.0411
▁rediger	-11.0417
rhein	-11.0435
▁operativsystem	-11.0435
▁stanse	-11.0456
utstyr	-11.0546
▁utforske	-11.0568
▁løk	-11.061
president	-11.0651
bibliotek	-11.0651
forskjell	-11.0651
institutt	-11.0652
hovedstad	-11.0652
signal	-11.0655
vennlig	-11.0666
▁diplom	-11.0759
produser	-11.0778
▁infanteri	-11.0797
▁association	-11.0805
▁assosiert	-11.0805
▁columbia	-11.0805
▁innsbruck	-11.0805
▁jugoslavia	-11.0805
▁konstantinopel	-11.0805
▁melbourne	-11.0805
▁opphørte	-11.0805
▁republikaner	-11.0805
▁skroget	-11.0805
▁truffet	-11.0805
▁mastergrad	-11.0805
▁forveksle	-11.0805
▁knudsen	-11.0805
▁ptolem	-11.0805
▁landkreis	-11.0805
▁vannpolo	-11.0805
▁latvia	-11.0805
▁margret	-11.0805
▁ringerike	-11.0805
▁aktuell	-11.0805
▁relatert	-11.0805
▁færre	-11.0805
▁rudol	-11.0805
▁eksistens	-11.0805
▁deltakelse	-11.0805
▁hovedpersonen	-11.0806
▁visuell	-11.0806
▁lewis	-11.0806
▁varmekraftverk	-11.0806
▁isolert	-11.0806
▁underviste	-11.0807
▁møller	-11.0808
terapi	-11.0808
▁fasade	-11.081
▁smitte	-11.081
▁vinterleke	-11.0817
▁persia	-11.082
▁armensk	-11.0824
▁sjanse	-11.0828
▁håndtere	-11.083
azar	-11.083
midle	-11.0839
▁nederst	-11.085
▁avskjed	-11.0877
skjelette	-11.0923
▁begynt	-11.0967
▁omdanne	-11.1007
historiker	-11.1068
aktivitet	-11.1068
arkitekt	-11.1068
provins	-11.1069
biskop	-11.1069
utgave	-11.1081
brenning	-11.1095
▁dukke	-11.1162
kjennes	-11.1176
warte	-11.1182
▁annonsert	-11.1222
▁argentinsk	-11.1222
▁corporation	-11.1222
▁evolusjon	-11.1222
▁indonesia	-11.1222
▁innvilget	-11.1222
▁kjøkken	-11.1222
▁konkurrent	-11.1222
▁legendarisk	-11.1222
▁ludwig	-11.1222
▁prestegjeld	-11.1222
▁pyramide	-11.1222
▁republikansk	-11.1222
▁stjørdal	-11.1222
▁uruguay	-11.1222
▁fjorten	-11.1222
▁søknad	-11.1222
▁avslørt	-11.1222
▁flaggbærer	-11.1222
▁gudbrandsd	-11.1222
▁regjerte	-11.1222
▁foreløpig	-11.1222
▁bosnia	-11.1222
▁nicola	-11.1222
▁aspekt	-11.1222
▁utfordring	-11.1222
▁apollo	-11.1222
▁marcus	-11.1222
▁bebodd	-11.1222
▁suveren	-11.1223
▁tåke	-11.1223
▁forsinke	-11.1223
kameratene	-11.1223
▁innflytelsesrik	-11.1224
▁akutt	-11.1224
▁bensin	-11.1226
▁regjere	-11.1227
▁rifle	-11.1234
liknende	-11.1239
▁pumpe	-11.1253
▁maritim	-11.1286
konferansen	-11.1286
▁godkjenne	-11.1313
opplevelse	-11.1448
hawk	-11.1464
dyktig	-11.1502
kommando	-11.1502
spørsmål	-11.1503
sesongen	-11.1504
sentrum	-11.1504
lokale	-11.1533
skandale	-11.1592
konservativ	-11.1652
inspektør	-11.1656
▁anatolia	-11.1656
▁apostolisk	-11.1656
▁atlanterhavet	-11.1656
▁bulgarsk	-11.1656
▁filippinene	-11.1656
▁forøvrig	-11.1656
▁fundament	-11.1656
▁keyboard	-11.1656
▁klassifisert	-11.1656
▁matematiker	-11.1656
▁publikasjon	-11.1656
▁subjekt	-11.1656
▁venezuela	-11.1656
▁verdensbasis	-11.1656
▁belønne	-11.1656
▁demonstrasjon	-11.1656
▁skjønnhet	-11.1656
▁utnevnelse	-11.1656
▁ensemble	-11.1656
▁gerilja	-11.1656
▁selvbiografi	-11.1656
▁vurdere	-11.1656
▁isabella	-11.1656
▁kypros	-11.1656
▁minoritet	-11.1656
▁trussel	-11.1656
▁nordsamisk	-11.1656
▁kroatia	-11.1656
▁dramatiker	-11.1656
▁krystall	-11.1656
▁faktum	-11.1656
▁samvelde	-11.1656
▁utspring	-11.1656
▁angivelig	-11.1656
▁skihopper	-11.1656
▁stråle	-11.1657
▁stanley	-11.1657
▁svekket	-11.1657
▁flyktning	-11.1657
▁russerne	-11.1657
▁kontrast	-11.1657
▁seksuell	-11.1657
▁undertegnet	-11.1658
▁rimelig	-11.1658
▁dekorert	-11.166
chuan	-11.1662
nemnd	-11.1666
▁hovedsete	-11.1667
▁operere	-11.1667
kvinne	-11.1675
▁nigeria	-11.1718
▁balanse	-11.1736
vangelis	-11.1776
▁koreansk	-11.1785
krisen	-11.1795
▁stevn	-11.1823
overføring	-11.1915
▁semifinale	-11.1945
grønn	-11.1957
butikk	-11.1959
design	-11.196
forstyrrelse	-11.1976
▁doktor	-11.211
reservoar	-11.2111
▁cromwell	-11.2111
▁engasjement	-11.2111
▁forutsetning	-11.2111
▁færøysk	-11.2111
▁hiphop	-11.2111
▁hønefoss	-11.2111
▁innendørs	-11.2111
▁lancaster	-11.2111
▁larvestadiet	-11.2111
▁malaysia	-11.2111
▁progressiv	-11.2111
▁påbegynt	-11.2111
▁restaurering	-11.2111
▁shackleton	-11.2111
▁skandinavisk	-11.2111
▁skribent	-11.2111
▁tennessee	-11.2111
▁uenighet	-11.2111
▁ukrainsk	-11.2111
▁apotek	-11.2111
▁gabriel	-11.2111
▁innstifte	-11.2111
▁usikkert	-11.2111
▁campbell	-11.2111
▁slesvig	-11.2111
▁forbedring	-11.2111
▁mandsju	-11.2111
▁utkjempe	-11.2111
▁bolivia	-11.2111
▁utesteng	-11.2111
▁sparebank	-11.2111
▁romerriket	-11.2111
▁populasjon	-11.2111
▁flandern	-11.2111
▁steinkjer	-11.2111
▁gjenvalgt	-11.2111
▁dresden	-11.2111
▁nelson	-11.2111
anmeldelse	-11.2111
▁tempo	-11.2111
▁claus	-11.2111
reduksjon	-11.2112
▁bemerket	-11.2112
▁harrison	-11.2112
beredskap	-11.2113
▁understreke	-11.2114
▁hendene	-11.2115
▁kanadisk	-11.2117
▁stedsnavn	-11.2118
▁landevei	-11.2125
vík	-11.2135
vararepresentant	-11.2135
kkupasjonsmakten	-11.214
▁napoli	-11.2174
ubb	-11.2239
▁facto	-11.2322
▁tobakk	-11.2328
▁dobbel	-11.2402
europe	-11.2433
kloster	-11.2434
sykdom	-11.2436
kolonien	-11.2448
ulykke	-11.2483
▁skøyte	-11.2497
▁slip	-11.2539
grund	-11.2561
▁symboliser	-11.257
prefekturet	-11.2583
sekvens	-11.2586
pningsseremonien	-11.2587
▁aluminium	-11.2587
▁bidragsyter	-11.2587
▁folkeavstemning	-11.2587
▁førstnevnte	-11.2587
▁gjengjeld	-11.2587
▁guddommelig	-11.2587
▁illustrasjon	-11.2587
▁kristoffer	-11.2587
▁legitim	-11.2587
▁microsoft	-11.2587
▁oksygen	-11.2587
▁oppslutning	-11.2587
▁palestina	-11.2587
▁palestinsk	-11.2587
▁pronotum	-11.2587
▁restaurert	-11.2587
▁satellitt	-11.2587
▁uppsala	-11.2587
▁uteksaminert	-11.2587
▁varaordfører	-11.2587
▁vellykket	-11.2587
▁wergeland	-11.2587
▁zimbabwe	-11.2587
▁æthel	-11.2587
▁begrensning	-11.2587
▁luftforsvaret	-11.2587
▁signatur	-11.2587
▁arbeidsgiver	-11.2587
▁oppmuntre	-11.2587
▁regulering	-11.2587
▁bomull	-11.2587
▁franskmennene	-11.2587
▁diskutert	-11.2587
9	-11.5118
