<unk>	0
<s>	0
</s>	0
.	-3.03884
s	-3.24977
▁	-3.54688
e	-3.55793
t	-3.99688
er	-4.0887
en	-4.1305
▁og	-4.35681
▁i	-4.46992
r	-4.66536
▁er	-4.67911
n	-4.73512
a	-4.75336
et	-5.03699
▁av	-5.20524
i	-5.23527
o	-5.3174
d	-5.38345
▁for	-5.38849
k	-5.43924
▁en	-5.56912
y	-5.56976
▁var	-5.64458
▁på	-5.6773
▁til	-5.6927
g	-5.70074
▁som	-5.71559
▁med	-5.71924
▁de	-5.78213
ne	-5.82244
m	-5.8316
ene	-5.83427
te	-5.88004
▁har	-5.97476
l	-5.99568
c	-6.04678
▁den	-6.08402
▁fra	-6.10492
h	-6.12144
f	-6.13013
p	-6.1354
u	-6.20983
de	-6.23683
es	-6.24258
us	-6.24552
v	-6.25014
b	-6.25767
in	-6.2809
al	-6.28514
▁s	-6.28566
ing	-6.28896
an	-6.29977
▁ble	-6.30976
re	-6.34435
▁a	-6.38113
na	-6.38157
▁det	-6.42589
▁et	-6.43601
le	-6.49029
ar	-6.50293
▁p	-6.54086
z	-6.55545
on	-6.56898
▁the	-6.58119
▁m	-6.58916
▁be	-6.59023
▁han	-6.60439
ter	-6.62831
▁eller	-6.65522
is	-6.66853
▁også	-6.67123
▁ved	-6.68485
ch	-6.68739
▁ut	-6.69696
▁d	-6.69729
x	-6.71586
ri	-6.71978
▁å	-6.72127
▁kan	-6.72135
▁under	-6.73151
▁to	-6.73172
j	-6.73402
um	-6.74362
ia	-6.74732
ke	-6.77163
ma	-6.78929
▁f	-6.7998
3	-6.81391
sk	-6.81915
w	-6.83078
5	-6.84507
▁se	-6.86212
la	-6.87364
7	-6.88578
ck	-6.88591
▁b	-6.88645
ur	-6.90457
2	-6.90463
4	-6.91399
ta	-6.91974
▁18	-6.92063
▁over	-6.9254
8	-6.93802
ra	-6.95777
▁opp	-6.95921
▁c	-6.96034
▁om	-6.96693
ens	-6.97592
▁g	-6.97612
é	-6.97775
9	-6.98143
▁k	-6.98161
▁al	-6.98542
el	-6.98682
6	-7.00325
▁in	-7.0138
▁la	-7.02605
▁h	-7.02692
1	-7.02925
▁inn	-7.03941
li	-7.04405
ka	-7.05506
▁u	-7.06342
land	-7.06513
di	-7.06674
or	-7.0689
▁andre	-7.08187
ende	-7.0851
▁an	-7.09233
ga	-7.09415
▁etter	-7.12137
nes	-7.12269
0	-7.1286
der	-7.12914
da	-7.13625
▁l	-7.1371
il	-7.14073
ver	-7.15327
isk	-7.16773
▁ligger	-7.18989
▁da	-7.20015
▁and	-7.20298
ba	-7.20966
as	-7.21122
ng	-7.22117
ja	-7.22622
▁of	-7.23106
th	-7.23642
▁v	-7.24977
lig	-7.2589
stad	-7.26408
ge	-7.26445
ve	-7.2671
ed	-7.26993
øy	-7.27752
▁ha	-7.28072
▁n	-7.28199
▁j	-7.28466
▁re	-7.29199
be	-7.29548
ko	-7.29619
ger	-7.29789
id	-7.30047
ro	-7.31508
to	-7.32007
▁her	-7.34054
▁st	-7.34715
▁na	-7.35206
▁ro	-7.35252
ad	-7.35451
den	-7.3552
▁bo	-7.361
ul	-7.36135
▁at	-7.36156
nde	-7.36166
lo	-7.37026
▁he	-7.3709
▁co	-7.37196
ler	-7.37477
▁no	-7.37622
at	-7.37819
á	-7.3788
man	-7.3814
▁tre	-7.39233
ol	-7.3924
▁nord	-7.40457
▁o	-7.41063
▁le	-7.41378
kk	-7.415
▁man	-7.41894
▁di	-7.42328
▁li	-7.42889
ton	-7.42927
▁t	-7.43005
ha	-7.43509
va	-7.44173
son	-7.44978
ning	-7.45459
▁blant	-7.45606
▁ca	-7.45701
ner	-7.45825
si	-7.46238
co	-7.46311
mi	-7.46422
▁w	-7.47643
ry	-7.47908
ig	-7.47912
os	-7.4837
ut	-7.4861
berg	-7.48687
for	-7.48741
iske	-7.48974
▁sa	-7.49277
mo	-7.49467
▁si	-7.49566
bi	-7.49623
ling	-7.49998
▁hans	-7.50866
ir	-7.51244
▁r	-7.5149
▁mar	-7.51748
ker	-7.52034
▁ka	-7.52474
me	-7.52527
ik	-7.52777
▁pa	-7.52826
ina	-7.52964
▁do	-7.52986
▁vi	-7.53129
▁mot	-7.53684
bo	-7.53844
dal	-7.5414
▁sin	-7.54555
it	-7.54658
▁hoved	-7.54793
▁gjennom	-7.55581
un	-7.55828
ic	-7.56463
▁ni	-7.56875
bu	-7.56992
ce	-7.56995
ske	-7.56995
▁kon	-7.57095
▁mo	-7.57617
ti	-7.57734
by	-7.57907
▁so	-7.58176
▁ra	-7.58256
▁ba	-7.58723
am	-7.59337
▁as	-7.5951
▁du	-7.5974
vi	-7.59821
å	-7.60397
het	-7.60755
ff	-7.60775
▁ho	-7.61307
ør	-7.61667
▁me	-7.61939
▁kalles	-7.627
kt	-7.6297
▁fa	-7.63161
▁sp	-7.63182
ly	-7.63702
▁ma	-7.6379
ell	-7.64059
erte	-7.64537
lige	-7.64777
go	-7.64856
gen	-7.64961
▁per	-7.65261
▁mellom	-7.65467
▁17	-7.6554
æ	-7.65563
▁pi	-7.65664
▁ta	-7.6613
▁am	-7.66132
▁jo	-7.6636
pe	-7.66686
▁pro	-7.66866
▁tor	-7.68022
▁men	-7.68023
▁lo	-7.6879
▁kinesisk	-7.69547
je	-7.71145
mann	-7.71452
▁dette	-7.71908
ant	-7.71945
▁ko	-7.71986
▁po	-7.72164
op	-7.72574
▁hadde	-7.72872
pp	-7.73163
mer	-7.73203
▁ti	-7.73568
▁by	-7.73805
▁sch	-7.74283
do	-7.7443
ste	-7.74829
▁su	-7.74965
▁der	-7.75062
ov	-7.75649
ian	-7.75724
ni	-7.7638
ist	-7.76519
vik	-7.77442
ven	-7.77747
men	-7.77794
else	-7.7796
no	-7.78059
▁1	-7.78209
▁ny	-7.78938
▁stor	-7.78952
▁2	-7.79436
io	-7.80063
au	-7.80196
▁bi	-7.80564
ca	-7.80588
▁lu	-7.80944
▁bar	-7.81162
▁el	-7.81646
▁fri	-7.81706
tter	-7.81805
▁seg	-7.82277
om	-7.82484
tt	-7.83636
ö	-7.84425
im	-7.85019
▁or	-7.85568
ho	-7.85903
▁mor	-7.86226
▁sør	-7.86625
ie	-7.8696
gi	-7.87489
ci	-7.8774
▁flere	-7.87957
í	-7.88073
▁ri	-7.88082
▁denne	-7.88226
▁gu	-7.88757
▁ikke	-7.88904
ster	-7.89032
pa	-7.8923
▁hun	-7.89693
▁ga	-7.89966
▁sol	-7.91605
tra	-7.91854
hu	-7.92002
rett	-7.92051
del	-7.92551
▁disse	-7.92628
asjon	-7.92831
ó	-7.93601
▁sk	-7.93888
▁ja	-7.95086
▁del	-7.95448
▁y	-7.9564
▁ju	-7.95727
elle	-7.95756
▁mi	-7.95942
▁land	-7.96352
▁gi	-7.96694
ment	-7.9733
▁far	-7.97661
▁første	-7.97731
od	-7.97807
▁car	-7.97923
per	-7.97942
▁x	-7.97959
▁min	-7.98104
sh	-7.98217
tal	-7.98266
▁født	-7.98531
▁te	-7.98747
▁z	-7.99334
ow	-8.00127
erne	-8.00244
gu	-8.00482
▁ge	-8.00497
ki	-8.0056
lu	-8.0077
▁ab	-8.01203
▁sammen	-8.01403
ä	-8.0145
ø	-8.01645
▁kommune	-8.01694
▁tilhører	-8.02117
mp	-8.0268
▁tidligere	-8.02709
ær	-8.0271
▁hu	-8.02957
▁blir	-8.03201
sta	-8.03228
▁ne	-8.03246
ns	-8.0329
▁bu	-8.03615
lag	-8.03727
ru	-8.03732
ot	-8.0401
▁fikk	-8.04597
ion	-8.04618
lin	-8.04657
sel	-8.04895
▁ei	-8.04941
▁19	-8.05044
▁ch	-8.06164
po	-8.06261
gg	-8.06555
em	-8.06621
▁kom	-8.06891
▁tra	-8.06906
ring	-8.07173
pi	-8.07207
ll	-8.07449
hi	-8.07678
▁samt	-8.07768
ou	-8.08356
▁ru	-8.08505
ud	-8.0866
▁bestå	-8.09189
av	-8.0928
▁alle	-8.09394
jo	-8.0979
▁øst	-8.10081
ok	-8.10499
ard	-8.10522
▁go	-8.10616
ü	-8.10655
ung	-8.10921
▁lag	-8.10946
▁sam	-8.11201
vis	-8.11299
▁par	-8.11335
▁finnes	-8.11535
▁vest	-8.11899
▁ad	-8.12406
tor	-8.1329
skap	-8.13812
bb	-8.13868
var	-8.13911
▁annet	-8.14015
▁navn	-8.14471
ang	-8.14684
▁nå	-8.1513
ld	-8.15216
nd	-8.15448
▁san	-8.15622
▁all	-8.15811
▁ned	-8.15823
▁omfatter	-8.15918
ation	-8.16105
▁tri	-8.16452
yl	-8.16559
ica	-8.16631
vin	-8.16658
sch	-8.1679
idae	-8.16962
ber	-8.17222
ā	-8.17347
▁vann	-8.1756
▁pu	-8.17601
▁navnet	-8.17803
▁pe	-8.182
ium	-8.18338
▁hel	-8.1852
itt	-8.18745
▁ar	-8.18746
▁3	-8.19006
ord	-8.1901
▁tu	-8.19155
▁så	-8.19453
ier	-8.19497
ken	-8.19837
ine	-8.19898
▁ki	-8.20082
▁mer	-8.2033
▁fi	-8.20335
▁cha	-8.20499
over	-8.20835
▁my	-8.21137
ag	-8.21228
bar	-8.21241
▁russisk	-8.21352
ak	-8.21529
▁ag	-8.2158
▁ver	-8.21684
ering	-8.21779
00	-8.21791
les	-8.22413
▁fly	-8.22446
ong	-8.22637
▁wi	-8.22833
iv	-8.23067
år	-8.2309
▁kalt	-8.23417
▁nor	-8.23485
▁fu	-8.23652
är	-8.23908
е	-8.23937
▁kar	-8.24016
▁frem	-8.24457
▁heter	-8.24612
sson	-8.24619
▁følgende	-8.24668
opp	-8.2504
ley	-8.25506
hold	-8.25554
ku	-8.25643
mb	-8.25858
▁byen	-8.26054
he	-8.26412
▁va	-8.26549
▁mange	-8.26625
▁15	-8.26633
ny	-8.26812
ting	-8.26822
tre	-8.2713
▁tro	-8.27298
▁con	-8.27868
sjon	-8.27879
ede	-8.27958
stein	-8.27976
nings	-8.27976
mar	-8.28145
min	-8.28336
▁ofte	-8.28516
tu	-8.28529
▁går	-8.28745
▁ku	-8.28776
gh	-8.29008
▁jan	-8.2903
▁lang	-8.29224
▁ski	-8.29713
kel	-8.29905
▁5	-8.2999
und	-8.30821
▁før	-8.31147
▁bro	-8.31251
▁norsk	-8.31382
hus	-8.3144
▁on	-8.3178
▁vil	-8.31798
▁val	-8.32192
▁op	-8.32195
ju	-8.32204
▁bak	-8.32228
tan	-8.3239
▁mens	-8.32408
ks	-8.3288
ologi	-8.33075
ek	-8.33161
▁betyr	-8.33202
▁vel	-8.33469
▁pre	-8.33473
▁mu	-8.33508
ikk	-8.33844
gang	-8.34315
len	-8.34414
▁mål	-8.34561
and	-8.34574
▁bok	-8.34657
▁bra	-8.34956
▁kirke	-8.34975
heim	-8.35114
sted	-8.35361
▁tid	-8.35466
▁com	-8.3567
inyin	-8.35808
и	-8.35948
▁john	-8.36006
za	-8.36036
tar	-8.36088
▁syn	-8.36414
р	-8.36656
▁sv	-8.36992
ft	-8.37118
▁liste	-8.37147
▁fire	-8.37149
▁2002	-8.37159
dalen	-8.37231
▁4	-8.37671
familien	-8.37688
▁ak	-8.37905
ú	-8.38187
ron	-8.38187
▁dag	-8.38255
▁we	-8.3833
▁lever	-8.38375
fi	-8.38529
gj	-8.38576
lands	-8.38645
verk	-8.38913
▁operatør	-8.3897
zi	-8.38999
tri	-8.39176
ac	-8.39295
▁være	-8.39305
tak	-8.39471
ius	-8.39615
▁och	-8.40173
lan	-8.40249
ren	-8.40283
▁sal	-8.40353
▁ur	-8.40434
wa	-8.40493
▁største	-8.40701
kker	-8.40858
ham	-8.40869
tin	-8.40957
▁sand	-8.40992
sten	-8.41158
mme	-8.41272
▁kl	-8.41334
▁moh	-8.41539
chi	-8.41621
ze	-8.41652
fa	-8.41672
tisk	-8.41714
ji	-8.41776
ty	-8.41993
▁berg	-8.42012
▁hus	-8.42132
▁mat	-8.42143
mmer	-8.42148
sp	-8.42317
▁sitt	-8.42547
▁rød	-8.4261
net	-8.42878
let	-8.4317
tz	-8.43268
▁mel	-8.43333
sti	-8.43501
▁store	-8.43974
▁ben	-8.44157
dag	-8.44317
▁skal	-8.44852
inn	-8.44854
▁parti	-8.45057
▁år	-8.45327
vo	-8.45739
ug	-8.45912
ya	-8.46044
▁folketelling	-8.46148
▁selv	-8.46184
q	-8.46202
we	-8.46385
ans	-8.46388
▁kor	-8.46488
▁brun	-8.46556
dre	-8.46589
▁bru	-8.46616
ana	-8.46642
▁br	-8.46954
kon	-8.47067
▁liv	-8.47245
mor	-8.47257
▁flaggbærer	-8.47729
følge	-8.47736
pningsseremonien	-8.47956
ingen	-8.4865
▁pan	-8.48653
▁wa	-8.48744
ps	-8.48999
▁vant	-8.49264
vel	-8.49326
▁can	-8.49466
tall	-8.49528
gård	-8.49642
▁fo	-8.49892
▁eks	-8.49946
▁mag	-8.49996
▁ke	-8.5006
ach	-8.50208
est	-8.50212
ator	-8.50319
itet	-8.5049
tid	-8.50539
art	-8.50673
mon	-8.50841
▁gr	-8.50852
▁små	-8.50928
▁mal	-8.50996
▁col	-8.51066
▁død	-8.51108
du	-8.51305
▁hos	-8.51358
ris	-8.5136
if	-8.51548
▁gjen	-8.51591
elsen	-8.51862
▁stein	-8.51939
▁hol	-8.52176
ningen	-8.52237
▁nær	-8.52274
fe	-8.52309
hr	-8.52533
▁leder	-8.52635
bel	-8.52994
▁dr	-8.53163
kar	-8.53419
▁kn	-8.5357
▁familien	-8.53769
kor	-8.5381
bro	-8.53839
▁laget	-8.5388
stand	-8.54003
ip	-8.54208
ill	-8.54657
▁engelsk	-8.54801
▁fe	-8.54803
▁langs	-8.54806
▁af	-8.55014
▁gir	-8.55021
▁film	-8.55215
▁sta	-8.55228
ich	-8.55304
▁senere	-8.55369
ino	-8.55511
vet	-8.55953
bl	-8.56435
dd	-8.56463
rø	-8.56774
borg	-8.56795
▁inneholder	-8.5684
án	-8.56861
veien	-8.5694
▁mest	-8.5697
ice	-8.57108
▁fjell	-8.57174
▁chi	-8.57406
ab	-8.57429
▁folke	-8.576
▁fram	-8.57608
▁bre	-8.57764
ari	-8.57827
▁ste	-8.57868
▁lys	-8.58056
gel	-8.58057
▁nu	-8.58433
▁ed	-8.5848
dy	-8.59012
folkerepublikken	-8.59039
▁ham	-8.59151
▁van	-8.59377
▁musikk	-8.59563
▁noen	-8.59712
ah	-8.59729
▁div	-8.59806
su	-8.59932
▁sønn	-8.60093
▁em	-8.60157
▁mai	-8.60159
form	-8.60213
▁vo	-8.60345
▁fin	-8.60386
▁os	-8.60455
▁new	-8.60456
▁lokal	-8.60468
ara	-8.60515
til	-8.6061
▁høy	-8.60703
kjø	-8.60716
tion	-8.60882
▁kunst	-8.60966
ita	-8.61087
▁sh	-8.61116
▁kommunen	-8.61163
dig	-8.61265
▁spilt	-8.61654
sund	-8.61678
▁ji	-8.61735
▁gar	-8.6193
fly	-8.62088
kje	-8.62237
▁innen	-8.62509
▁cl	-8.62551
kom	-8.62607
ð	-8.62671
▁ol	-8.62747
▁pr	-8.63117
▁skole	-8.63167
▁kv	-8.63289
▁bor	-8.63331
tte	-8.6353
ör	-8.63645
gar	-8.63793
▁hal	-8.63857
siden	-8.64075
han	-8.64151
▁ac	-8.64251
senter	-8.64411
▁sc	-8.64677
▁red	-8.64705
▁rom	-8.64705
▁10	-8.64739
▁shi	-8.64869
▁you	-8.64923
▁20	-8.65198
▁sj	-8.65203
▁fem	-8.6522
▁au	-8.65327
▁vin	-8.65458
▁ty	-8.65496
▁mon	-8.65626
rik	-8.65628
laget	-8.6565
▁peter	-8.65792
▁inkluderer	-8.65893
▁gul	-8.65936
▁ser	-8.66039
ph	-8.66502
▁øy	-8.66574
lik	-8.6668
▁må	-8.66708
ola	-8.66771
satt	-8.67016
øya	-8.67111
▁kommer	-8.67142
hy	-8.67273
▁za	-8.67301
bok	-8.67353
bruk	-8.67441
løp	-8.67469
▁kort	-8.67826
▁fag	-8.67991
è	-8.68043
ski	-8.68137
▁skrev	-8.68309
▁hen	-8.68585
▁norge	-8.68748
val	-8.69079
▁gal	-8.69151
ale	-8.69186
▁bil	-8.69493
▁hvor	-8.69525
▁juli	-8.69568
▁sentral	-8.6957
▁9	-8.69779
ini	-8.69827
stre	-8.699
▁rundt	-8.69946
▁verdens	-8.70098
▁bal	-8.70237
res	-8.70259
mu	-8.70316
far	-8.70385
▁bjørn	-8.7041
▁grunn	-8.70606
д	-8.70642
tten	-8.70675
fra	-8.70706
▁paul	-8.70969
▁kjente	-8.70994
▁bas	-8.71157
▁gra	-8.71345
dyr	-8.71401
▁ap	-8.71463
▁bri	-8.71525
▁tar	-8.71587
▁gen	-8.7159
ige	-8.71651
mat	-8.71674
▁8	-8.72236
mark	-8.72481
с	-8.72634
▁un	-8.72646
о	-8.72844
▁innbyggertall	-8.72958
slag	-8.73068
▁vei	-8.73079
▁post	-8.73192
▁landet	-8.7328
▁ex	-8.73448
▁mari	-8.73521
▁ø	-8.73644
ska	-8.74163
▁kultur	-8.74221
▁ord	-8.74236
▁god	-8.74241
▁lå	-8.74244
xi	-8.74367
▁para	-8.74512
▁skog	-8.74526
ført	-8.74555
▁hi	-8.74592
▁rø	-8.74618
▁fast	-8.7465
▁ry	-8.74859
▁kjent	-8.74886
▁fiske	-8.75054
lia	-8.75068
og	-8.75231
▁representert	-8.7548
eres	-8.75492
š	-8.75628
met	-8.75668
bra	-8.7567
н	-8.75696
▁står	-8.75751
▁spe	-8.7603
jer	-8.76105
▁roman	-8.76158
mester	-8.76264
ding	-8.76277
che	-8.76334
fjord	-8.76414
▁kinas	-8.76804
▁ren	-8.76994
▁art	-8.77014
cc	-8.77124
ī	-8.77233
yn	-8.77269
mål	-8.77391
fo	-8.77548
fjorden	-8.77615
tiske	-8.77741
α	-8.77756
sky	-8.77865
▁von	-8.77883
▁lind	-8.78031
tiv	-8.78186
anger	-8.78575
spill	-8.78634
▁thor	-8.78673
▁christian	-8.78718
▁vis	-8.78771
ran	-8.78854
▁band	-8.78988
▁q	-8.7916
vann	-8.79222
pu	-8.79223
bre	-8.79322
в	-8.79367
▁bur	-8.79381
▁like	-8.79405
gre	-8.79422
fisk	-8.79467
▁ang	-8.79538
shi	-8.79554
kh	-8.79598
▁ber	-8.79607
▁norske	-8.79673
▁grav	-8.79874
▁kj	-8.79947
▁sjø	-8.79964
▁vol	-8.80005
ula	-8.8001
van	-8.80026
▁spiller	-8.80104
▁dy	-8.80105
rin	-8.80126
ninger	-8.80222
▁ten	-8.80223
tur	-8.80268
▁dan	-8.80297
▁ob	-8.80335
ssen	-8.80502
▁sig	-8.80515
dan	-8.80526
▁gruppen	-8.80536
▁hy	-8.80553
pt	-8.80724
sjons	-8.80934
▁kur	-8.8095
▁robert	-8.8096
par	-8.8104
▁fla	-8.81133
▁port	-8.81198
▁tv	-8.81324
▁bruker	-8.81443
▁martin	-8.81669
▁sine	-8.81704
▁inter	-8.81737
▁sub	-8.81773
▁natur	-8.81787
▁selskapet	-8.81833
ket	-8.81957
my	-8.82037
▁innenfor	-8.82228
▁hav	-8.8236
ves	-8.82583
▁cor	-8.82661
▁ly	-8.82668
▁anti	-8.82682
▁6	-8.82777
▁august	-8.82797
leder	-8.8284
oc	-8.82911
▁mark	-8.82928
alis	-8.83105
▁jord	-8.83115
▁2006	-8.8312
burg	-8.83184
isme	-8.83249
▁tom	-8.83568
▁ve	-8.83922
uk	-8.8397
▁dem	-8.84007
▁lav	-8.84028
▁oslo	-8.84195
mm	-8.84404
▁tal	-8.84417
▁gud	-8.8447
que	-8.84482
▁hovedstad	-8.84613
▁7	-8.84631
▁plan	-8.84721
▁sen	-8.84807
▁området	-8.84846
ther	-8.84848
▁und	-8.84978
▁mars	-8.85043
▁radio	-8.8508
age	-8.85101
ida	-8.85191
▁tur	-8.85292
skog	-8.85334
▁class	-8.85424
▁motor	-8.85448
ani	-8.85505
▁bø	-8.85688
▁både	-8.85748
ella	-8.8581
▁norges	-8.85818
▁kina	-8.8608
lys	-8.86103
don	-8.86212
kan	-8.86225
▁sha	-8.86243
ble	-8.86248
▁ul	-8.86326
jø	-8.86329
ære	-8.86465
tic	-8.86478
▁sil	-8.86547
rom	-8.86706
▁bl	-8.86811
▁siden	-8.87073
fall	-8.87108
▁stra	-8.87116
▁gull	-8.87201
▁ind	-8.87374
ala	-8.87576
zo	-8.87591
▁brukes	-8.87624
у	-8.87765
▁http	-8.87766
fon	-8.87772
ev	-8.87888
inger	-8.87946
▁jeg	-8.87968
arbeid	-8.88156
л	-8.88169
▁cas	-8.88247
▁för	-8.8826
hl	-8.88354
▁gro	-8.88525
▁kla	-8.88578
kin	-8.88721
ata	-8.88753
▁hele	-8.88775
▁kra	-8.88805
kle	-8.8884
▁data	-8.88919
▁tak	-8.88983
▁gift	-8.89008
bil	-8.89033
gan	-8.89275
▁erik	-8.8941
▁plat	-8.89452
pris	-8.89463
setning	-8.89471
▁mac	-8.89625
kken	-8.8967
▁ras	-8.89762
ap	-8.89773
▁tysk	-8.89797
ving	-8.89859
lø	-8.89908
▁km	-8.90019
▁alt	-8.90069
som	-8.901
tig	-8.90137
vær	-8.90267
att	-8.90309
ay	-8.90363
mal	-8.90365
klubb	-8.90411
pre	-8.90411
bert	-8.90466
▁kamp	-8.90483
ū	-8.90518
▁slik	-8.90522
rud	-8.90523
bø	-8.90591
▁nasjonal	-8.90719
▁ci	-8.90891
▁die	-8.90979
ull	-8.91234
dom	-8.91367
▁je	-8.91495
▁sel	-8.91544
zz	-8.91553
ind	-8.91612
▁administrasjons	-8.91615
isering	-8.91672
▁fil	-8.91717
▁seks	-8.9181
▁tradisjonell	-8.92097
dra	-8.9216
▁når	-8.92216
ep	-8.92375
▁carl	-8.9253
ō	-8.92557
▁opprinnelig	-8.92635
▁halv	-8.92733
▁verk	-8.92762
▁trans	-8.92954
ros	-8.9302
▁mus	-8.93109
med	-8.93158
zh	-8.93166
▁fransk	-8.9317
lev	-8.93517
▁blå	-8.93562
▁gresk	-8.93571
sett	-8.93634
før	-8.93696
bygg	-8.93821
navn	-8.93846
▁kron	-8.93869
rum	-8.93896
ika	-8.93931
▁stu	-8.94024
▁william	-8.94072
▁hør	-8.94094
ette	-8.94115
nik	-8.94194
huset	-8.94354
▁mad	-8.94377
▁gre	-8.94509
pro	-8.94529
våg	-8.94671
▁via	-8.94937
▁25	-8.94956
▁th	-8.94963
▁mis	-8.95103
▁12	-8.95204
ib	-8.95208
ford	-8.95311
fer	-8.95469
cu	-8.95606
iz	-8.95677
elli	-8.95974
▁kong	-8.95998
ova	-8.96039
▁dis	-8.96056
▁vår	-8.96063
▁tele	-8.96079
▁21	-8.96117
10	-8.96151
▁sø	-8.96194
▁distriktet	-8.96199
▁sommerfugl	-8.96302
▁mos	-8.96422
fin	-8.96603
sto	-8.9669
än	-8.96763
▁west	-8.96833
▁park	-8.96915
▁midt	-8.96922
▁cu	-8.96927
▁small	-8.96996
område	-8.97015
områder	-8.97039
▁tekst	-8.97179
forening	-8.97391
▁lyd	-8.97437
▁luft	-8.97471
▁fred	-8.97473
▁ban	-8.9751
к	-8.97537
ai	-8.97565
▁xi	-8.97665
pan	-8.97718
ij	-8.97731
▁that	-8.97793
▁eng	-8.97814
mel	-8.97918
▁ya	-8.98013
▁100	-8.98023
▁ball	-8.98092
rat	-8.98098
tro	-8.98247
▁will	-8.98321
ub	-8.98432
▁mak	-8.98532
▁hell	-8.98603
pen	-8.98663
ano	-8.98684
ive	-8.98702
har	-8.9873
▁kun	-8.98747
▁karl	-8.98854
▁0	-8.98946
kal	-8.99051
pla	-8.99105
▁reference	-8.99267
▁høyeste	-8.99289
▁hei	-8.99333
▁grå	-8.99427
▁mil	-8.99444
▁het	-8.99463
▁johan	-8.99499
tel	-8.99592
ν	-8.99649
spiller	-8.99651
mus	-8.99659
▁kvinne	-8.99694
▁følger	-8.99717
▁barne	-8.99723
▁gran	-8.99942
▁14	-9.00009
cy	-9.00042
▁yu	-9.00174
fl	-9.00202
els	-9.00236
▁japansk	-9.00365
▁tr	-9.00404
▁stre	-9.00483
▁ole	-9.00487
▁språk	-9.0059
▁gjerne	-9.00612
up	-9.00624
▁plante	-9.00825
▁videre	-9.00845
▁tok	-9.00855
▁david	-9.00864
lar	-9.01015
▁pol	-9.01024
▁fl	-9.01224
▁side	-9.01369
▁hennes	-9.01522
à	-9.01602
▁pra	-9.01707
▁vise	-9.01784
vern	-9.01999
▁lin	-9.02
▁distrikt	-9.02065
▁les	-9.02082
▁politi	-9.02124
▁arbeids	-9.02133
dals	-9.02145
get	-9.02264
▁dal	-9.02348
lå	-9.02373
cul	-9.02513
▁not	-9.02766
stat	-9.02956
▁blad	-9.02972
cha	-9.03029
▁gla	-9.03213
▁jag	-9.03304
sjef	-9.03306
olog	-9.03368
eri	-9.03379
▁2007	-9.03548
▁thomas	-9.03575
wi	-9.0359
lie	-9.03673
▁mun	-9.03744
▁president	-9.03769
nor	-9.03776
▁samme	-9.03799
▁rekke	-9.03982
lei	-9.04183
▁arm	-9.04209
▁full	-9.04213
gge	-9.04268
tsj	-9.04521
▁begge	-9.04566
byen	-9.04571
▁foran	-9.04599
▁30	-9.04665
▁ulike	-9.04756
▁gamle	-9.04885
▁farge	-9.04919
ater	-9.05024
▁www	-9.05152
▁gy	-9.05292
stoff	-9.05293
kul	-9.05348
▁mod	-9.05385
▁sommer	-9.05424
kov	-9.05641
▁sto	-9.05891
▁fal	-9.05917
▁stats	-9.05957
▁spill	-9.06018
▁16	-9.0608
▁war	-9.06099
styrke	-9.06107
▁industri	-9.06271
organisasjon	-9.0628
este	-9.06435
ømme	-9.06575
▁forfatter	-9.06604
▁11	-9.06645
stu	-9.06975
ild	-9.0713
20	-9.07354
ura	-9.07478
▁johannes	-9.0754
tiden	-9.0755
ix	-9.07675
▁sak	-9.07792
▁hø	-9.07833
▁ska	-9.07863
▁28	-9.07975
qu	-9.07987
▁jon	-9.0801
▁ram	-9.08038
jev	-9.08146
▁christ	-9.0832
▁fotball	-9.08322
all	-9.08402
▁27	-9.08419
▁bli	-9.08504
▁bør	-9.08794
jan	-9.0883
ade	-9.08855
▁kol	-9.08912
ort	-9.09024
▁nett	-9.09033
nis	-9.09068
▁cap	-9.09094
senteret	-9.09141
lede	-9.09147
▁vas	-9.0916
▁sang	-9.09218
▁cal	-9.09266
▁are	-9.09457
äl	-9.09521
▁ring	-9.09584
▁stat	-9.09614
the	-9.09639
▁viktigste	-9.09722
▁bon	-9.09793
▁person	-9.09908
▁bred	-9.10103
▁forskjellig	-9.10123
▁fr	-9.1031
▁24	-9.10321
graf	-9.10367
ance	-9.10401
▁vir	-9.10442
ban	-9.10453
▁maria	-9.105
а	-9.10505
fri	-9.10534
elva	-9.10566
▁eg	-9.10576
▁nye	-9.10798
▁with	-9.10804
▁egen	-9.10819
▁form	-9.10828
banen	-9.1085
▁latin	-9.10939
▁opera	-9.10952
▁tru	-9.11003
bus	-9.1106
kontor	-9.11117
▁wal	-9.11189
stra	-9.11197
ky	-9.11295
isert	-9.11382
▁dra	-9.11427
▁georg	-9.11443
▁rev	-9.11631
▁dia	-9.11652
syn	-9.1166
▁2010	-9.11856
mund	-9.11898
sjøen	-9.12001
▁lars	-9.12029
ish	-9.12087
▁eu	-9.12102
▁riks	-9.12113
▁13	-9.12117
øl	-9.12336
tek	-9.12365
▁kr	-9.12429
dor	-9.1255
bane	-9.12555
▁180	-9.12566
ider	-9.12613
▁bare	-9.12669
ose	-9.12692
are	-9.12764
▁qu	-9.12771
rak	-9.12811
værende	-9.12925
▁che	-9.12973
▁sn	-9.13048
retning	-9.13082
т	-9.13109
rød	-9.13119
stilling	-9.13137
▁general	-9.1315
sjoner	-9.13238
▁mc	-9.13395
▁hovedstaden	-9.134
▁rett	-9.13491
iet	-9.13534
▁sur	-9.13574
▁skolen	-9.13642
enes	-9.13646
navnet	-9.13779
▁vært	-9.13826
gon	-9.13896
gul	-9.1394
asje	-9.13957
▁forsvar	-9.13969
pur	-9.14002
vil	-9.14181
uc	-9.14219
iser	-9.14228
▁win	-9.1432
sj	-9.14339
▁sm	-9.14356
log	-9.14532
ved	-9.14676
pol	-9.14679
▁ph	-9.14753
▁23	-9.14774
løs	-9.14783
▁hvit	-9.1483
utvikling	-9.14911
ås	-9.14919
▁bir	-9.14923
▁veg	-9.14949
ram	-9.14959
tegn	-9.15062
▁frank	-9.151
▁22	-9.15155
▁2008	-9.15351
▁kat	-9.15514
dde	-9.15536
medalje	-9.15684
▁dikt	-9.15698
▁cro	-9.15754
▁arabisk	-9.15801
▁26	-9.15807
nu	-9.15906
bær	-9.15922
▁bel	-9.15944
▁mol	-9.16025
elig	-9.16037
bor	-9.16109
▁lev	-9.16118
itz	-9.16178
fører	-9.16182
▁orden	-9.16198
▁fer	-9.16401
lagt	-9.16427
gren	-9.16467
slav	-9.16517
▁energiselskape	-9.16598
ef	-9.16664
ping	-9.16682
▁arne	-9.16718
isten	-9.16723
lekt	-9.16733
rig	-9.16767
▁knut	-9.1683
▁deres	-9.1686
▁tj	-9.16868
▁sky	-9.16922
▁pri	-9.16929
▁eier	-9.17022
oli	-9.17078
▁eksempel	-9.17124
råd	-9.17179
▁svensk	-9.17195
▁dar	-9.17202
▁pass	-9.17308
iti	-9.17356
jen	-9.17398
ister	-9.17422
▁særlig	-9.17677
▁odd	-9.17749
ction	-9.17778
▁wo	-9.1786
ira	-9.17866
▁zu	-9.17959
▁inkludert	-9.18073
▁2009	-9.18073
yk	-9.18146
▁barn	-9.18153
▁dann	-9.18264
asjonen	-9.18273
illa	-9.18328
▁mas	-9.1841
bru	-9.18545
▁lille	-9.18843
stro	-9.18872
▁grenser	-9.18873
▁blod	-9.18883
▁valg	-9.19031
red	-9.19179
lang	-9.19239
▁web	-9.19267
ial	-9.19284
lene	-9.19317
gle	-9.19417
▁eid	-9.19447
ι	-9.19461
▁produsere	-9.19462
на	-9.19751
ighet	-9.19792
cia	-9.19823
området	-9.1987
▁provinsen	-9.19929
▁vanligvis	-9.19946
▁tittelen	-9.20084
voll	-9.20193
verket	-9.202
lighet	-9.20313
én	-9.20368
▁ein	-9.20426
farge	-9.20453
▁ok	-9.20459
▁anne	-9.2053
kre	-9.20597
fat	-9.20643
▁regi	-9.20646
▁derfor	-9.20686
ografi	-9.20792
▁eksempler	-9.2087
▁kyst	-9.20968
ssa	-9.21001
▁blo	-9.21017
▁organ	-9.21035
▁arter	-9.21036
▁she	-9.21128
syre	-9.21151
ann	-9.21189
▁lund	-9.21246
▁nils	-9.21319
asteroide	-9.21489
▁lik	-9.21577
anlegg	-9.21649
erende	-9.2172
ity	-9.21748
ksjon	-9.21769
č	-9.2182
▁militær	-9.2182
▁2005	-9.2182
stil	-9.21821
kontroll	-9.21825
▁gjør	-9.2183
mannen	-9.21903
▁gikk	-9.2192
ple	-9.21976
▁31	-9.22243
▁michael	-9.22299
ias	-9.22301
lund	-9.22307
▁george	-9.22336
ria	-9.22352
gruppen	-9.22615
bygd	-9.22666
lse	-9.22706
rad	-9.22776
▁kulturminner	-9.22779
▁spilles	-9.22787
▁lands	-9.22796
ati	-9.22808
▁egg	-9.2293
▁svart	-9.2294
▁cho	-9.22976
м	-9.23139
àn	-9.23195
▁venstre	-9.23282
▁styre	-9.23315
▁hor	-9.23445
lis	-9.23518
▁uten	-9.2353
▁est	-9.23585
hn	-9.23601
▁dom	-9.23661
systemet	-9.2367
▁dre	-9.23672
▁skulle	-9.23911
▁kh	-9.23916
▁kre	-9.24025
skole	-9.24029
▁system	-9.24045
zhou	-9.24058
▁enn	-9.24079
menn	-9.24083
▁beste	-9.24107
gaard	-9.24195
dia	-9.24336
▁energi	-9.24394
▁rock	-9.24423
▁viktige	-9.245
ão	-9.24549
▁mur	-9.24648
qui	-9.24653
hal	-9.2486
▁tillegg	-9.25002
arter	-9.25006
ora	-9.25049
▁000	-9.25132
▁utgjør	-9.25218
▁2011	-9.25233
▁fredrik	-9.25245
ì	-9.25281
▁don	-9.25319
▁pat	-9.25369
▁son	-9.25496
▁bad	-9.25499
▁hånd	-9.25564
rop	-9.25619
▁februar	-9.25713
plan	-9.25768
stasjon	-9.25787
▁deretter	-9.25787
▁camp	-9.25836
▁sau	-9.25905
ben	-9.25971
▁region	-9.25998
▁hver	-9.26007
ød	-9.26114
́	-9.26211
ob	-9.2623
ori	-9.26247
able	-9.26329
liv	-9.26431
▁finn	-9.2646
veg	-9.26466
▁cam	-9.26491
▁universitet	-9.26513
▁elven	-9.26582
nett	-9.26589
▁versjon	-9.26608
▁klubben	-9.26655
▁imidlertid	-9.26711
▁representerer	-9.26715
sak	-9.26775
qua	-9.26781
system	-9.26863
of	-9.26865
fu	-9.26894
▁uni	-9.26918
ges	-9.26941
▁kri	-9.26949
▁lett	-9.27084
▁hovedbelte	-9.27214
drag	-9.27333
side	-9.27416
▁air	-9.27423
▁att	-9.27561
▁us	-9.27575
▁ky	-9.27746
vei	-9.27911
fyl	-9.27916
▁fle	-9.27978
kast	-9.27984
▁auto	-9.28015
aceae	-9.28023
dar	-9.28143
strand	-9.28146
▁arkitekt	-9.28194
▁spesial	-9.28228
▁jens	-9.28239
▁ingen	-9.28343
hol	-9.28434
ence	-9.28447
▁skul	-9.28557
▁super	-9.28651
▁kir	-9.28703
▁kunne	-9.28712
▁tang	-9.28717
▁nowiki	-9.28736
▁student	-9.28742
▁gammel	-9.2877
zy	-9.288
wer	-9.29044
▁dagen	-9.29055
kommun	-9.29183
ming	-9.29187
stan	-9.29205
ρ	-9.29249
ł	-9.29249
ille	-9.29304
grav	-9.29336
fjellet	-9.29351
▁cy	-9.29364
▁gitar	-9.29413
▁bass	-9.29508
▁herre	-9.29535
▁grønn	-9.2961
▁topp	-9.29621
▁amerikansk	-9.29634
▁poly	-9.29704
jel	-9.29784
▁kam	-9.29792
ische	-9.29819
▁besto	-9.29832
▁nærings	-9.29844
▁europa	-9.29949
lot	-9.29954
samling	-9.29988
selskap	-9.29991
landet	-9.30002
▁skrevet	-9.30036
▁ze	-9.30051
rør	-9.30062
▁filmen	-9.30071
▁char	-9.30097
ici	-9.30156
tta	-9.30209
iner	-9.30223
▁medlem	-9.30239
▁up	-9.30257
▁hall	-9.30331
▁mont	-9.30337
▁usa	-9.3035
▁lov	-9.30483
tikk	-9.30548
▁din	-9.30682
tti	-9.30683
▁start	-9.30706
rich	-9.30818
tis	-9.30892
vig	-9.30956
tus	-9.30991
king	-9.31058
▁redaktør	-9.31077
aks	-9.31086
ima	-9.3116
▁es	-9.31207
partiet	-9.31247
▁historie	-9.31258
rus	-9.31264
løse	-9.3132
▁samtidig	-9.31328
▁fortsatt	-9.31344
minister	-9.31397
car	-9.31514
ringen	-9.31538
▁får	-9.31591
▁slutt	-9.31634
▁viser	-9.31804
▁datter	-9.31831
▁dessuten	-9.31853
▁pla	-9.319
▁dermed	-9.3193
▁black	-9.31938
▁mindre	-9.31943
▁driver	-9.31976
ick	-9.32014
ald	-9.32024
inne	-9.3203
▁mik	-9.32062
▁dam	-9.32067
▁lege	-9.32074
▁just	-9.3213
film	-9.32285
oll	-9.32298
▁litt	-9.32309
▁finner	-9.32361
▁strand	-9.32378
▁rein	-9.32405
dis	-9.32485
vid	-9.32572
▁wei	-9.32635
sal	-9.32694
▁kilde	-9.32712
▁pin	-9.32716
▁1989	-9.32915
rike	-9.32947
▁bay	-9.32975
lær	-9.33033
▁oppført	-9.33093
▁mann	-9.33154
din	-9.3327
trykk	-9.33292
maskin	-9.33332
kropp	-9.33378
▁nr	-9.33424
rå	-9.33437
▁2004	-9.3345
▁richard	-9.3345
▁sund	-9.33463
▁nevnes	-9.33507
▁skjer	-9.33537
foreningen	-9.33555
▁ek	-9.33607
▁vokal	-9.33751
▁app	-9.33883
fang	-9.34027
dro	-9.34055
tha	-9.34094
▁flo	-9.34135
▁miljø	-9.34252
søk	-9.34268
yang	-9.34365
punkt	-9.34464
▁29	-9.3451
▁innbyggere	-9.34527
▁fall	-9.34627
stor	-9.34649
kort	-9.347
▁albert	-9.34757
▁helse	-9.34762
▁imp	-9.34836
▁kap	-9.34852
▁fre	-9.34898
▁lei	-9.3493
fugl	-9.34962
lov	-9.35027
▁blei	-9.35035
aktig	-9.35063
▁ce	-9.35136
12	-9.35145
▁leg	-9.35202
sam	-9.35212
▁cre	-9.35224
mun	-9.35285
▁james	-9.35334
▁50	-9.3536
led	-9.35458
bjørn	-9.35476
manns	-9.35684
▁power	-9.35685
▁utenfor	-9.35695
▁punkt	-9.35735
ledd	-9.35853
af	-9.35882
ras	-9.36088
▁bakvingen	-9.36168
gata	-9.36169
▁ger	-9.36194
▁has	-9.36201
▁olje	-9.36349
▁kull	-9.36361
▁tap	-9.36492
way	-9.36493
one	-9.36504
ico	-9.36506
tjeneste	-9.36551
ér	-9.36578
▁jean	-9.36592
ney	-9.36861
vitsj	-9.36884
▁but	-9.36918
40	-9.3698
com	-9.36985
▁gje	-9.37064
▁pres	-9.3725
▁vind	-9.37305
▁vit	-9.37318
▁gate	-9.37323
▁bill	-9.37348
styre	-9.37403
▁artikkel	-9.37418
▁bank	-9.37499
▁end	-9.37544
▁sul	-9.37571
iserte	-9.37619
▁bergen	-9.37656
organ	-9.37754
б	-9.37814
▁italiensk	-9.37833
▁zo	-9.37836
ringer	-9.37864
båt	-9.37873
full	-9.3788
▁2000	-9.3789
▁fant	-9.37894
band	-9.37952
▁inge	-9.3801
▁hon	-9.3802
▁stemme	-9.38067
▁с	-9.38144
▁stil	-9.38169
ativ	-9.38245
▁kas	-9.38273
▁international	-9.38395
▁mannskapet	-9.38402
ture	-9.38419
blad	-9.3848
▁sir	-9.38491
▁juni	-9.38533
▁internasjonale	-9.38552
▁året	-9.38557
eller	-9.38604
▁gav	-9.38614
▁sw	-9.38659
▁pen	-9.38749
▁slag	-9.3885
▁støtte	-9.38861
low	-9.38872
▁oc	-9.38876
▁was	-9.38898
▁regn	-9.38958
hall	-9.38967
▁løv	-9.38972
▁dansk	-9.39
ål	-9.39058
▁båt	-9.39086
heng	-9.3927
▁myr	-9.393
vatnet	-9.39345
▁bol	-9.39374
ström	-9.39529
▁forenklet	-9.39529
uch	-9.39532
nivå	-9.39581
▁klo	-9.39609
▁overtok	-9.39625
uf	-9.39635
▁unn	-9.39671
▁samarbeid	-9.39718
▁sl	-9.39851
▁long	-9.39868
org	-9.39885
▁mass	-9.39901
▁haug	-9.39975
bank	-9.40008
stol	-9.40033
poli	-9.40035
▁star	-9.401
ín	-9.40181
ferd	-9.40298
▁sten	-9.40406
▁fro	-9.40421
parti	-9.40487
▁skrift	-9.40493
▁mill	-9.40573
dorf	-9.40611
her	-9.40629
▁januar	-9.40676
ansk	-9.40677
▁rot	-9.40717
▁gam	-9.40742
gy	-9.40755
nia	-9.40782
▁bj	-9.40844
▁bandet	-9.40873
grad	-9.40903
▁rest	-9.40904
ire	-9.40937
▁hin	-9.40994
gne	-9.41101
▁tam	-9.41182
feld	-9.41207
cheng	-9.41252
▁lufthavn	-9.41262
▁svært	-9.41263
æl	-9.41273
▁bio	-9.413
▁kommunene	-9.4134
jiang	-9.41354
klar	-9.41508
▁bruk	-9.41518
▁mand	-9.41519
▁gang	-9.41545
▁anna	-9.41612
▁års	-9.41678
▁sangen	-9.41703
▁len	-9.41817
strøm	-9.41934
▁reg	-9.42041
й	-9.42042
▁andreas	-9.42067
ada	-9.42113
▁serien	-9.42203
istisk	-9.42299
▁pot	-9.42308
▁nar	-9.42314
▁dø	-9.42483
▁døde	-9.42484
▁cra	-9.42504
bin	-9.42592
▁serie	-9.42619
resultat	-9.42621
▁comp	-9.42642
▁roll	-9.42659
▁lan	-9.42661
mes	-9.42773
ary	-9.42874
▁grad	-9.42922
▁konge	-9.42986
▁brenselkilden	-9.43007
cal	-9.43036
▁familie	-9.43063
▁først	-9.43107
▁keiser	-9.43114
▁bygde	-9.43363
▁kunstner	-9.435
▁olav	-9.43512
▁tidlig	-9.43575
▁que	-9.43608
▁type	-9.43709
lit	-9.43766
ith	-9.43774
▁sy	-9.43867
oni	-9.43869
▁harald	-9.43945
▁arbeider	-9.44093
▁kode	-9.44094
▁tredje	-9.44196
▁standard	-9.44197
▁basert	-9.44206
▁minne	-9.44258
gress	-9.4433
pet	-9.44332
▁lam	-9.44337
▁grense	-9.44373
▁jernbane	-9.44387
skjær	-9.44404
17	-9.44439
yan	-9.44476
▁liten	-9.4449
▁ør	-9.44528
▁kal	-9.44659
part	-9.44696
▁sag	-9.44778
▁hovedsakelig	-9.44793
ár	-9.4482
▁kristian	-9.44821
▁glo	-9.44832
▁175	-9.44871
skrift	-9.44961
▁laur	-9.44997
ali	-9.45125
▁kraft	-9.45139
▁produsent	-9.4517
▁nam	-9.45197
vold	-9.45204
blomst	-9.45259
olo	-9.45285
last	-9.45286
nom	-9.45292
stav	-9.45307
hov	-9.45394
▁2001	-9.45396
▁ref	-9.45429
lus	-9.45501
г	-9.45521
▁jer	-9.45572
▁hansen	-9.45593
▁esp	-9.45696
▁venn	-9.45719
▁produsert	-9.45765
▁slekt	-9.45783
▁vinter	-9.45803
я	-9.45816
▁meter	-9.45822
▁lange	-9.45886
regjering	-9.45936
▁sho	-9.45975
ado	-9.46031
▁35	-9.46044
loven	-9.46046
▁polsk	-9.46053
field	-9.46069
fjell	-9.46073
▁daniel	-9.46096
▁ye	-9.46264
▁mig	-9.46303
tempelet	-9.46335
can	-9.46341
liste	-9.46363
▁linje	-9.46377
▁ungdoms	-9.4641
gard	-9.46414
▁thi	-9.46491
▁syd	-9.46517
kant	-9.46539
▁stan	-9.46569
tun	-9.46592
▁såkalt	-9.46615
▁siste	-9.46634
nic	-9.46653
▁omkring	-9.46666
▁mah	-9.46671
▁gun	-9.46687
▁ana	-9.46731
▁old	-9.46756
mod	-9.46758
▁anders	-9.46769
▁utgitt	-9.46822
▁matt	-9.46849
fag	-9.46896
blitt	-9.46911
orm	-9.46987
▁grand	-9.47028
▁komp	-9.47094
▁ep	-9.47112
▁ara	-9.47122
▁yo	-9.47215
ē	-9.47225
▁national	-9.47226
▁il	-9.4731
▁tall	-9.47349
▁176	-9.4736
▁spor	-9.47363
▁holm	-9.47385
▁ask	-9.47394
▁ris	-9.47399
▁sla	-9.47459
old	-9.47532
▁island	-9.47545
▁wen	-9.47641
elt	-9.47649
▁ven	-9.47677
sser	-9.47724
øst	-9.47758
yo	-9.47777
haug	-9.47815
ы	-9.47842
▁angel	-9.47844
nummer	-9.47872
renner	-9.48009
skip	-9.48042
▁virke	-9.48062
under	-9.48079
▁led	-9.48086
▁tilby	-9.48114
▁antall	-9.48123
▁hard	-9.48124
▁rei	-9.48178
con	-9.48213
▁borg	-9.48219
▁dj	-9.48227
gin	-9.48247
aksjon	-9.48283
mot	-9.48291
▁sett	-9.483
yu	-9.48331
▁turn	-9.48369
act	-9.48445
▁april	-9.48466
▁sølv	-9.48469
ón	-9.48503
▁finsk	-9.48506
▁fugle	-9.48529
holm	-9.48631
kamp	-9.48664
▁nan	-9.48693
ān	-9.4877
▁hår	-9.48871
▁prest	-9.4888
gitt	-9.49002
lsen	-9.49009
handling	-9.49015
▁may	-9.4906
plass	-9.49068
▁nest	-9.49071
і	-9.49088
▁flat	-9.49108
30	-9.49127
dahl	-9.49177
▁ev	-9.49273
trafikk	-9.49286
▁spi	-9.4934
▁80	-9.4936
▁prosjekt	-9.49372
▁hjemme	-9.49402
forbindelse	-9.49411
50	-9.49458
bit	-9.49464
▁por	-9.49581
18	-9.49601
▁sim	-9.49605
ο	-9.49707
ε	-9.49717
▁40	-9.49722
▁hjerte	-9.49778
▁gil	-9.4995
▁finland	-9.49978
▁studie	-9.4998
ön	-9.50016
awa	-9.50055
▁gl	-9.50092
▁avis	-9.50169
formet	-9.5026
▁moder	-9.50351
ante	-9.5037
▁louis	-9.50412
lon	-9.50457
▁stav	-9.50464
▁eli	-9.50493
▁off	-9.50497
ain	-9.50547
86	-9.50558
▁maur	-9.50578
▁domin	-9.50618
▁ö	-9.50645
▁stjerne	-9.5082
▁kin	-9.50841
▁mørk	-9.50916
▁modell	-9.50926
▁zi	-9.50964
▁from	-9.51021
▁bolig	-9.51086
▁gruppe	-9.51143
▁gor	-9.51216
▁bærer	-9.51222
vinger	-9.5127
▁dato	-9.51289
kka	-9.51314
lapp	-9.51342
produksjon	-9.51373
pin	-9.51393
▁sab	-9.51449
11	-9.51474
▁tim	-9.51488
brun	-9.5154
liga	-9.51545
kop	-9.51551
pha	-9.51608
з	-9.51627
akademi	-9.51631
▁tilbake	-9.51645
fabrikk	-9.51656
skij	-9.51689
▁kil	-9.5169
unt	-9.51717
eide	-9.51877
▁rik	-9.51947
ost	-9.51956
▁frukt	-9.51999
▁tallet	-9.52075
▁hed	-9.52257
▁32	-9.52333
zar	-9.52343
▁finans	-9.52352
alder	-9.5238
oks	-9.52404
▁åtte	-9.52493
rup	-9.5256
nitt	-9.526
▁cent	-9.52687
ies	-9.5271
kla	-9.52753
ß	-9.52896
museet	-9.52919
ž	-9.52922
▁horn	-9.52971
▁mottok	-9.52983
▁left	-9.53183
gri	-9.53192
rede	-9.53195
zu	-9.53217
▁nes	-9.53235
▁felles	-9.5325
▁ordet	-9.53291
▁out	-9.53308
▁have	-9.53365
leg	-9.5341
▁øya	-9.5349
λ	-9.53576
ù	-9.53576
▁sverige	-9.53578
▁ann	-9.53589
▁forsknings	-9.53656
▁teater	-9.53661
▁slekten	-9.53662
▁hem	-9.53686
▁lor	-9.53698
▁ordenen	-9.53923
stykke	-9.5395
▁menneske	-9.54109
hel	-9.54163
▁166	-9.54208
▁2012	-9.54257
▁bekrefte	-9.5428
vers	-9.54339
søn	-9.54354
▁hydro	-9.54368
▁bort	-9.54382
rit	-9.5444
flu	-9.54491
▁stø	-9.5452
pal	-9.54527
▁kjøp	-9.5466
▁cur	-9.54773
▁landsbyen	-9.5481
hai	-9.54838
arafa	-9.54902
▁plass	-9.54907
aw	-9.54913
magasin	-9.54922
ins	-9.55095
tive	-9.55135
lønn	-9.55249
tok	-9.55264
feltet	-9.55269
90	-9.55367
forbund	-9.55382
samisk	-9.55382
▁krigs	-9.55435
fil	-9.55443
▁bror	-9.55474
ко	-9.55524
▁delta	-9.55527
bånd	-9.55535
▁privat	-9.5557
osa	-9.55645
bet	-9.55716
92	-9.55861
▁real	-9.55874
▁tsj	-9.55878
▁gau	-9.55912
ugh	-9.55934
▁mø	-9.55941
shan	-9.56091
▁dor	-9.56135
▁river	-9.5616
stø	-9.56174
▁gjer	-9.56177
ă	-9.56234
temperatur	-9.56236
▁fylke	-9.56277
▁mørke	-9.56336
▁qua	-9.56342
gli	-9.56395
▁bla	-9.56408
off	-9.56461
▁album	-9.56461
▁design	-9.56504
▁større	-9.56543
▁omfatte	-9.56572
win	-9.56665
arm	-9.56677
skje	-9.56708
teori	-9.56737
▁foss	-9.56756
grunn	-9.56786
▁villa	-9.5681
▁im	-9.56837
▁univers	-9.56894
▁wilhelm	-9.56909
вич	-9.56911
enberg	-9.56944
▁klar	-9.5695
lem	-9.5696
▁met	-9.57206
ite	-9.57206
ра	-9.57235
butikk	-9.57272
▁sort	-9.57301
bladet	-9.57307
▁his	-9.57307
tag	-9.57329
ppen	-9.57475
▁vä	-9.57512
▁kalte	-9.57517
19	-9.57559
gården	-9.57572
▁oktober	-9.5759
fot	-9.57622
ure	-9.57622
utdanning	-9.57622
▁larven	-9.57694
▁flor	-9.57703
foss	-9.57795
lser	-9.578
15	-9.5793
▁kategori	-9.57957
▁gren	-9.58025
ique	-9.58043
hjul	-9.58094
mit	-9.58119
onia	-9.5813
gruppe	-9.58199
▁156	-9.58233
▁hit	-9.58238
κ	-9.58275
▁world	-9.58275
▁isbn	-9.58286
▁brann	-9.58357
▁salt	-9.58379
▁rå	-9.5839
60	-9.58442
▁hode	-9.58456
▁kari	-9.5849
stående	-9.58504
22	-9.58515
▁stasjon	-9.58531
▁startet	-9.58541
▁forut	-9.58673
bakken	-9.58719
oth	-9.58742
▁berlin	-9.5879
▁flu	-9.58896
lignende	-9.58936
lid	-9.58952
mid	-9.58967
informasjon	-9.5897
▁charles	-9.5901
port	-9.59011
korps	-9.59031
▁sogn	-9.59088
arten	-9.59185
▁monte	-9.59221
▁lek	-9.59227
▁netto	-9.59252
selskapet	-9.59289
▁dyre	-9.59335
▁johann	-9.5936
▁kjell	-9.59365
▁iso	-9.59403
felt	-9.59421
▁70	-9.59437
▁spar	-9.59462
▁samle	-9.59501
ǎ	-9.59525
▁ukrainsk	-9.59659
forbundet	-9.59723
az	-9.59928
▁ec	-9.59932
vit	-9.59972
28	-9.59975
▁museum	-9.60054
▁arn	-9.60071
▁aktiv	-9.60079
▁elve	-9.60142
▁offisiell	-9.60176
eppe	-9.60179
▁ledet	-9.60184
▁brukte	-9.60211
▁160	-9.60255
kraft	-9.60283
▁politisk	-9.60375
▁utgi	-9.60375
cle	-9.60415
▁slike	-9.60509
▁helge	-9.60551
innen	-9.60586
skjell	-9.60627
▁150	-9.6063
prins	-9.60638
▁ung	-9.60708
lat	-9.6078
ismen	-9.60831
vogn	-9.6087
▁anton	-9.60919
▁skuespiller	-9.60935
ville	-9.60941
aya	-9.60943
ро	-9.60968
▁sosial	-9.60977
sion	-9.61056
▁november	-9.61062
krig	-9.61121
▁bat	-9.61247
svis	-9.61256
etter	-9.61263
▁164	-9.61387
hua	-9.61412
cus	-9.61496
▁staten	-9.6151
▁merke	-9.61627
▁sted	-9.61681
kra	-9.61685
▁hå	-9.61695
▁2003	-9.61772
▁gunnar	-9.61775
▁oppkalt	-9.61776
nie	-9.61795
prisen	-9.61814
musikk	-9.61888
ulf	-9.61959
chu	-9.62058
debut	-9.62088
▁ken	-9.62111
øyene	-9.6212
▁kraftig	-9.62122
▁bilde	-9.62125
▁larvene	-9.62159
▁tittel	-9.62182
▁hovedrollene	-9.62202
▁strøm	-9.62219
istiske	-9.62304
▁neu	-9.62351
kirken	-9.62376
sberg	-9.62397
midler	-9.62442
▁60	-9.62448
τ	-9.6248
▁canada	-9.6252
ball	-9.62582
trekk	-9.62583
uel	-9.62604
skjold	-9.62606
hund	-9.62626
gå	-9.62648
avis	-9.62654
▁produkt	-9.62686
ekte	-9.62759
▁tan	-9.6277
▁metall	-9.6277
▁byer	-9.62799
▁eneste	-9.62854
▁gass	-9.62876
lich	-9.62892
▁rosen	-9.62904
klubben	-9.62968
▁nummer	-9.62979
▁kul	-9.62989
tårn	-9.63024
▁wu	-9.63121
legg	-9.63123
▁få	-9.63157
▁tilhørt	-9.63206
▁cer	-9.63214
▁beskrive	-9.63244
▁albumet	-9.63251
▁steve	-9.63388
ical	-9.6341
▁einar	-9.63482
havet	-9.63482
13	-9.63532
svik	-9.63558
basert	-9.63621
▁sun	-9.63639
▁marine	-9.63657
heten	-9.63661
▁north	-9.63785
cho	-9.63794
▁cell	-9.63795
musik	-9.63818
hode	-9.63875
▁this	-9.63881
▁bygg	-9.63915
▁utviklet	-9.6393
sjø	-9.63949
▁egentlig	-9.63951
▁smal	-9.63999
▁frø	-9.64043
▁natt	-9.64157
ritt	-9.64391
lor	-9.64414
▁elv	-9.64613
prosess	-9.64639
ς	-9.64652
ê	-9.6466
▁høyre	-9.64689
▁blue	-9.64709
horn	-9.64775
ikere	-9.64804
rek	-9.64819
▁japan	-9.64848
▁mulig	-9.649
▁tegn	-9.64914
▁time	-9.64975
ка	-9.65008
▁king	-9.65032
▁nytt	-9.65046
▁cru	-9.65143
▁hjelp	-9.65326
mand	-9.65337
▁årlig	-9.65376
▁desember	-9.65395
liggende	-9.65402
▁igjen	-9.65466
▁gru	-9.65467
▁andersen	-9.65545
▁kha	-9.65562
hard	-9.65563
tom	-9.65608
parken	-9.65617
mur	-9.65643
▁skrive	-9.65655
▁seil	-9.65668
▁olsen	-9.65702
jord	-9.65716
hø	-9.65786
16	-9.65788
oksid	-9.65801
▁lær	-9.65852
▁163	-9.65861
aria	-9.66005
▁transport	-9.6604
▁elev	-9.66059
▁dun	-9.66086
▁typisk	-9.66143
▁rund	-9.66173
▁club	-9.66175
▁arten	-9.66235
▁ves	-9.66238
kreft	-9.66241
▁sanger	-9.66344
▁helt	-9.66347
uv	-9.66386
▁møte	-9.66549
▁ant	-9.66616
▁luc	-9.66642
▁01	-9.66675
▁mit	-9.66734
▁term	-9.6677
▁spesielt	-9.66882
▁franc	-9.67043
industri	-9.67067
hav	-9.6713
14	-9.67132
▁bern	-9.67282
▁rør	-9.67336
kirke	-9.67347
▁trykk	-9.67418
▁buk	-9.67467
tyr	-9.67523
▁regnes	-9.67536
produkter	-9.67546
▁dommer	-9.67621
ò	-9.67634
▁joseph	-9.67645
▁institut	-9.67655
▁landsforening	-9.67674
skudd	-9.67832
ander	-9.67888
havn	-9.67994
▁rep	-9.68052
bakk	-9.68077
▁elektro	-9.68094
bein	-9.6813
ifisert	-9.68143
▁verdi	-9.68151
▁rus	-9.68165
▁gjorde	-9.68179
▁170	-9.68218
▁meg	-9.68253
▁max	-9.6835
mis	-9.68352
▁primær	-9.68484
▁hand	-9.68485
▁annen	-9.685
▁egne	-9.68524
ato	-9.68528
▁song	-9.68533
▁res	-9.68541
▁grunnla	-9.68545
▁henry	-9.6858
vekst	-9.68622
▁kors	-9.68657
▁søster	-9.68736
▁vor	-9.68743
ва	-9.68752
bul	-9.68756
▁arg	-9.68767
▁partiet	-9.68817
ox	-9.68927
▁gui	-9.69056
linje	-9.69096
▁snø	-9.69107
wan	-9.69195
sport	-9.6922
▁pris	-9.69243
▁luk	-9.69303
▁jim	-9.69305
eira	-9.69319
line	-9.6933
▁folk	-9.69356
dam	-9.69388
hed	-9.69483
delen	-9.69531
cio	-9.69571
▁fan	-9.69664
▁vær	-9.69675
eiendom	-9.69708
▁ran	-9.69858
▁larsen	-9.69892
▁nabo	-9.69897
▁middelsstor	-9.69924
holmen	-9.69943
▁style	-9.69951
ili	-9.69984
▁måtte	-9.69994
▁medlemmer	-9.70001
mos	-9.70045
▁nasjonale	-9.70068
▁russland	-9.70105
▁45	-9.70205
▁174	-9.70365
▁hopp	-9.70382
▁74	-9.70383
▁klasse	-9.70431
▁indisk	-9.70452
▁uttale	-9.70457
▁bob	-9.70465
kraftverk	-9.705
jö	-9.7052
wald	-9.70531
▁rand	-9.70671
▁1999	-9.707
teknikk	-9.70702
ktet	-9.70725
▁bind	-9.70812
fest	-9.70853
▁handels	-9.70857
▁hatt	-9.70872
▁geo	-9.70897
▁jen	-9.7096
oma	-9.70965
vor	-9.70974
ona	-9.7103
▁shan	-9.71041
▁hil	-9.71087
▁pap	-9.71105
▁jesu	-9.71158
hallen	-9.71233
rim	-9.71237
▁82	-9.71243
plassen	-9.7126
føring	-9.71276
▁pet	-9.71304
▁tyskland	-9.71372
▁161	-9.71391
motor	-9.71434
▁idretts	-9.71499
fjær	-9.71523
▁jern	-9.71558
▁pop	-9.71564
▁leir	-9.71617
hm	-9.71646
hin	-9.71728
▁syv	-9.71754
skifte	-9.71755
mma	-9.71823
ensis	-9.71929
▁selskap	-9.71931
kanalen	-9.71949
gra	-9.71972
▁æ	-9.71974
▁felt	-9.72045
ст	-9.72117
▁borger	-9.72117
spinner	-9.72126
▁cir	-9.72165
▁nesten	-9.72197
bal	-9.72228
teknologi	-9.72269
▁152	-9.72283
valg	-9.72293
bol	-9.72295
▁fir	-9.72308
▁tai	-9.72348
▁våpen	-9.72479
▁bygge	-9.72497
ito	-9.72523
▁38	-9.72621
museum	-9.72628
fond	-9.72644
ua	-9.72691
▁arve	-9.72797
▁uk	-9.72933
kilde	-9.72939
krigen	-9.72978
ç	-9.72986
sø	-9.73023
▁september	-9.73062
▁service	-9.73062
struktur	-9.73064
▁foreldre	-9.73064
â	-9.73071
▁plu	-9.73103
▁mye	-9.7314
vare	-9.7316
▁till	-9.73166
hei	-9.73192
▁vill	-9.73268
▁jar	-9.73272
▁173	-9.73298
departementet	-9.73303
▁hud	-9.73346
merket	-9.73392
▁kok	-9.73412
▁33	-9.73465
▁noe	-9.7354
▁konst	-9.73544
▁sentrum	-9.73622
▁sar	-9.73764
▁sign	-9.73768
▁rh	-9.73821
dø	-9.73822
▁edderkopp	-9.73862
▁autonom	-9.73876
metode	-9.73876
▁varierer	-9.73903
▁chu	-9.73905
▁epi	-9.73937
skriv	-9.7394
▁sko	-9.73944
divisjon	-9.73945
▁brit	-9.74113
▁165	-9.74118
anda	-9.74139
ã	-9.74151
formede	-9.74152
medisin	-9.7419
▁mm	-9.74204
▁stri	-9.74235
nos	-9.74258
▁36	-9.74271
grense	-9.74275
ов	-9.74385
▁hul	-9.74395
▁music	-9.74471
▁who	-9.74487
▁arbeidet	-9.74505
▁vid	-9.7452
▁ud	-9.74559
områdene	-9.74587
▁kru	-9.74587
▁ita	-9.746
rådet	-9.74671
▁2013	-9.74689
▁opplags	-9.74689
yuan	-9.74969
top	-9.75014
▁trond	-9.75039
▁marc	-9.75192
▁love	-9.75206
bach	-9.75237
▁boy	-9.75316
krets	-9.75457
ë	-9.75481
ś	-9.75481
х	-9.75481
▁etablert	-9.75481
▁1996	-9.75482
▁1995	-9.75482
▁direkte	-9.75482
▁fol	-9.75485
▁rolf	-9.75491
▁tildelt	-9.75544
▁riksvei	-9.75575
▁simon	-9.75578
fold	-9.75626
▁paa	-9.7563
▁gard	-9.75646
▁hj	-9.75661
ffer	-9.75703
spor	-9.75724
▁hum	-9.7576
oide	-9.75762
gler	-9.7578
▁34	-9.75934
▁kjerne	-9.75964
avdeling	-9.75976
▁sær	-9.75988
▁mir	-9.76033
▁internasjonal	-9.76072
sha	-9.76197
▁magnus	-9.7631
▁2014	-9.76321
finn	-9.76322
▁ordens	-9.76365
▁lite	-9.76396
▁naturgass	-9.76397
▁test	-9.76508
▁lak	-9.76519
well	-9.76541
▁skj	-9.76544
▁155	-9.76595
▁multi	-9.76614
▁hill	-9.76691
▁sju	-9.76732
▁los	-9.76743
▁utgav	-9.76781
ous	-9.76805
▁lærer	-9.76824
▁vekt	-9.76827
blom	-9.76832
▁hjem	-9.76884
▁råd	-9.76884
▁aur	-9.76885
▁vinge	-9.76915
anske	-9.76927
▁dahl	-9.76965
▁jacob	-9.77058
▁qi	-9.77078
iebedriften	-9.77094
▁mester	-9.77097
vitenskap	-9.77113
▁olavs	-9.77126
▁begynte	-9.77127
▁nikola	-9.7713
saker	-9.77171
landskap	-9.77252
▁samfunns	-9.7726
amin	-9.77349
▁maskin	-9.7739
▁ever	-9.77404
▁betegne	-9.77591
▁sports	-9.77662
pel	-9.77664
▁reise	-9.77678
▁cat	-9.77704
▁petter	-9.7772
▁stedet	-9.77805
planter	-9.77856
▁utdanne	-9.77951
cent	-9.77958
▁delstaten	-9.77963
▁2017	-9.77986
▁award	-9.78134
hof	-9.78135
øm	-9.78142
▁rygg	-9.78147
▁mid	-9.78169
typen	-9.78182
п	-9.78209
town	-9.78232
▁kim	-9.78246
folk	-9.78248
▁endre	-9.78255
ån	-9.78369
ledning	-9.78384
▁dyp	-9.7844
uz	-9.78458
forsker	-9.78517
ate	-9.78554
▁ah	-9.78604
▁samling	-9.78646
formen	-9.78652
▁funksjon	-9.7866
▁90	-9.78703
seth	-9.78704
▁dol	-9.78758
posisjon	-9.788
▁offentlig	-9.78802
▁sav	-9.78804
▁litteratur	-9.78828
▁trener	-9.78899
▁phil	-9.78899
▁mobil	-9.7902
▁log	-9.79041
lek	-9.79043
bygning	-9.79106
▁regionen	-9.79114
▁kirken	-9.79193
▁sykdom	-9.79231
▁moderne	-9.79339
slekten	-9.79367
▁120	-9.79369
▁kata	-9.79389
brudd	-9.7945
deling	-9.7946
evne	-9.79618
▁human	-9.7965
▁hov	-9.79683
bilde	-9.7969
lä	-9.79728
▁enkelte	-9.7975
▁avdeling	-9.79762
former	-9.79809
▁167	-9.79869
▁bygd	-9.80011
handler	-9.80012
rot	-9.80067
▁bygget	-9.80079
▁qui	-9.80084
▁wall	-9.80084
▁skips	-9.80217
mbo	-9.80219
▁dong	-9.80487
σ	-9.80496
istene	-9.80498
friidrettsutøver	-9.80503
▁jørgen	-9.80503
▁studert	-9.80549
▁kara	-9.80571
huang	-9.80626
post	-9.80635
▁lengde	-9.80652
▁middel	-9.80716
▁formel	-9.80724
▁terr	-9.80776
rica	-9.80785
▁fjord	-9.80792
▁saa	-9.80846
▁godt	-9.80854
▁krist	-9.80909
▁tung	-9.80917
▁ari	-9.80929
▁157	-9.80986
▁marie	-9.81073
våpen	-9.81136
▁jam	-9.81174
park	-9.81174
plasser	-9.81176
kultur	-9.81186
▁instrument	-9.81206
▁vanlig	-9.81211
samfunn	-9.81227
merke	-9.81256
vari	-9.81285
▁osv	-9.81337
ô	-9.81365
▁nærmest	-9.81374
▁trondheim	-9.8139
▁fylkesvei	-9.81398
jia	-9.81433
▁153	-9.81445
▁stasjonen	-9.81477
▁für	-9.81482
▁henne	-9.81541
▁alb	-9.81579
▁hou	-9.81631
ios	-9.81637
▁dekk	-9.81791
rekord	-9.81863
▁kraftverk	-9.81915
▁169	-9.81935
▁behandling	-9.81956
▁hær	-9.82005
▁spiss	-9.82027
▁moren	-9.82027
▁bety	-9.82113
mper	-9.82156
▁varaordfører	-9.82235
▁benytter	-9.82238
▁kost	-9.82259
▁group	-9.82269
zhi	-9.82316
▁az	-9.82369
▁johansen	-9.82386
▁158	-9.8242
▁uttrykk	-9.82442
▁eva	-9.82482
uri	-9.82484
olje	-9.82511
▁vinner	-9.8252
▁tau	-9.82543
▁union	-9.82661
ан	-9.82677
gikk	-9.82699
▁pala	-9.82714
▁retts	-9.82718
▁oliv	-9.82774
skolen	-9.82791
▁green	-9.82823
▁varme	-9.82834
▁wolf	-9.8284
stikk	-9.82863
nan	-9.82873
▁emil	-9.82946
hor	-9.82983
middel	-9.82993
▁patri	-9.83014
▁right	-9.83027
▁francis	-9.83039
gram	-9.83062
▁fry	-9.83081
skipet	-9.83109
▁otto	-9.83115
▁direktør	-9.83129
▁2016	-9.83135
▁ting	-9.83169
messig	-9.83173
▁ville	-9.83195
gående	-9.83291
jar	-9.83323
▁morten	-9.83401
▁glass	-9.83434
▁provins	-9.83503
▁danse	-9.83634
atur	-9.83663
▁vanlige	-9.83696
ii	-9.83718
logen	-9.83722
▁aas	-9.83744
historie	-9.83836
bak	-9.83864
fart	-9.83914
▁mitt	-9.83986
▁1988	-9.83997
▁digital	-9.83998
ordenen	-9.84066
▁løp	-9.84122
▁42	-9.84204
iano	-9.84214
iva	-9.8424
▁løper	-9.84251
▁elva	-9.84278
arbeider	-9.8429
skilt	-9.84372
▁troll	-9.84385
▁musiker	-9.84425
▁omtale	-9.84447
▁tank	-9.84479
▁innsjøen	-9.84489
war	-9.84513
demokra	-9.84556
▁front	-9.84579
▁brand	-9.84589
▁od	-9.8459
▁britisk	-9.84682
fjellene	-9.84791
politikk	-9.8484
▁162	-9.84873
μ	-9.8489
▁betydelig	-9.84892
pil	-9.84896
▁tyske	-9.84921
ен	-9.84924
▁bom	-9.84951
▁cont	-9.84976
▁tett	-9.85018
▁kroppen	-9.85019
para	-9.85038
sang	-9.85048
dus	-9.85068
vikler	-9.85093
utstilling	-9.85118
representant	-9.85266
lement	-9.85269
▁org	-9.85273
phi	-9.85378
▁pal	-9.854
løsning	-9.85416
▁deler	-9.85432
▁kro	-9.85492
stille	-9.85515
▁exp	-9.85519
▁chang	-9.85563
▁tverr	-9.85605
▁lad	-9.85606
▁lit	-9.85628
næs	-9.85634
▁try	-9.85684
▁benyttes	-9.85791
▁utdype	-9.85793
ansvarlig	-9.85793
▁rektor	-9.85824
▁sven	-9.85841
▁mono	-9.85843
myr	-9.85969
▁fylkes	-9.85973
▁harry	-9.85979
hunder	-9.86
▁då	-9.86028
▁kvar	-9.86035
▁bin	-9.86051
vang	-9.86072
sey	-9.86101
align	-9.86156
▁168	-9.86176
▁henrik	-9.86224
katt	-9.86228
▁æres	-9.86242
▁had	-9.86275
▁ey	-9.86313
▁orkester	-9.86349
▁sykl	-9.86357
later	-9.8637
▁rose	-9.86409
kler	-9.86455
vinner	-9.86462
▁52	-9.8648
▁tjeneste	-9.86559
▁kongen	-9.86638
▁lære	-9.86645
▁forhold	-9.86659
utgivelse	-9.86676
snegl	-9.86676
ě	-9.867
▁energy	-9.86714
▁betydning	-9.86819
året	-9.86829
drift	-9.86927
klasse	-9.86934
▁india	-9.87009
▁shu	-9.87123
▁temp	-9.87169
▁pic	-9.87185
feng	-9.87264
▁munn	-9.87271
▁whi	-9.87286
distrikt	-9.87515
▁rob	-9.87614
▁1998	-9.87618
▁sco	-9.87731
lad	-9.87801
▁daglig	-9.87866
▁city	-9.87912
på	-9.88054
tunnelen	-9.88082
bedrift	-9.88176
hem	-9.88211
▁dannet	-9.88223
▁indre	-9.88303
▁kval	-9.88326
▁buss	-9.88388
ative	-9.88393
rygg	-9.88422
▁best	-9.88428
vald	-9.88438
▁hä	-9.88457
sekretær	-9.88532
▁ter	-9.88538
▁stockholm	-9.88543
▁1993	-9.88544
▁gram	-9.88549
▁bronse	-9.88587
▁klima	-9.88592
▁stammer	-9.88595
▁kai	-9.88605
▁ross	-9.88614
periode	-9.88664
▁kyr	-9.88669
▁eldre	-9.88738
▁barb	-9.88758
▁polar	-9.88765
ür	-9.88774
▁bille	-9.88829
▁stig	-9.88842
▁hage	-9.88866
▁fett	-9.88885
yll	-9.8889
▁conc	-9.88896
vá	-9.8894
▁lim	-9.88995
▁stiftet	-9.8903
brev	-9.89101
åsen	-9.89159
▁della	-9.89202
▁hvert	-9.8921
▁inc	-9.89212
levende	-9.89229
▁nilsen	-9.89294
maleri	-9.89304
botn	-9.89373
zan	-9.89393
▁herman	-9.89398
aki	-9.89407
▁eget	-9.89411
▁gjeste	-9.8946
gruppa	-9.89463
▁inngår	-9.89481
ingeniør	-9.89488
ль	-9.8949
▁statsminister	-9.89499
▁б	-9.89511
▁drift	-9.89563
moni	-9.89578
▁bryst	-9.89649
▁tann	-9.89651
▁nova	-9.89658
▁kau	-9.89745
▁svarte	-9.89766
▁back	-9.89785
ark	-9.89786
▁pil	-9.89839
▁sideelv	-9.899
eier	-9.89929
▁fed	-9.89962
▁thu	-9.89968
▁tat	-9.89976
▁37	-9.90114
▁behandle	-9.90224
fø	-9.90226
▁løs	-9.90288
▁140	-9.90301
▁ull	-9.90306
▁00	-9.90335
bry	-9.9036
▁enkelt	-9.90385
▁verden	-9.90406
▁shanghai	-9.90421
▁referere	-9.90447
▁gustav	-9.90485
hjem	-9.90485
▁antonio	-9.9049
erud	-9.90552
▁sivil	-9.90567
▁russ	-9.90572
▁politiker	-9.90575
gro	-9.90703
aktiv	-9.90735
▁brukt	-9.90758
ward	-9.90764
▁ost	-9.90771
▁ple	-9.90789
▁smi	-9.908
atus	-9.90827
▁meta	-9.90841
▁pur	-9.90854
historiker	-9.90895
▁kjær	-9.90905
▁totalt	-9.90933
▁professor	-9.91016
bell	-9.9116
▁pul	-9.91193
▁boken	-9.912
mil	-9.91224
por	-9.91225
▁spin	-9.91233
▁storm	-9.9124
▁tema	-9.91278
▁ett	-9.91364
η	-9.91373
▁friedrich	-9.91373
▁tilknytte	-9.91374
▁tilhøre	-9.91391
▁svein	-9.91417
▁grunnlagt	-9.91419
▁nordøst	-9.91472
▁vent	-9.91483
▁nrk	-9.91487
▁trommer	-9.91493
▁rang	-9.91621
▁iii	-9.91622
▁betjener	-9.91622
skapet	-9.91634
▁xu	-9.91698
hui	-9.917
▁slo	-9.91784
atet	-9.91927
▁oh	-9.91947
▁bou	-9.91957
styrt	-9.92021
▁virksomhet	-9.9209
trær	-9.92108
▁flyplass	-9.92111
breen	-9.92139
▁dyr	-9.92155
▁krets	-9.92177
grupper	-9.92239
▁arc	-9.92244
ät	-9.92249
▁stort	-9.92279
▁tun	-9.923
▁single	-9.92316
▁1994	-9.92336
bridge	-9.92375
▁mei	-9.9242
▁high	-9.92447
pes	-9.9255
▁even	-9.92552
▁rune	-9.92566
▁137	-9.92571
▁prof	-9.92644
▁aar	-9.92686
▁kristin	-9.9271
▁verne	-9.92722
▁97	-9.92738
forskning	-9.92743
▁figur	-9.92756
▁pl	-9.92759
▁alm	-9.92772
tsen	-9.92799
▁festival	-9.9283
head	-9.92851
▁ola	-9.92938
▁kaller	-9.93069
▁brenn	-9.93094
vall	-9.93123
▁blomster	-9.93202
▁sterkt	-9.93222
▁bestod	-9.9323
▁sterk	-9.93253
iller	-9.93275
▁line	-9.93276
hou	-9.93277
▁lyst	-9.93303
kommunikasjon	-9.93306
▁tabellen	-9.93309
▁øverst	-9.9331
▁biskop	-9.93312
▁university	-9.93321
▁2015	-9.93333
▁sverre	-9.93335
▁bonde	-9.93351
▁lenge	-9.93353
▁1990	-9.93355
▁arbeid	-9.93435
inus	-9.93457
▁akt	-9.93485
▁anlegget	-9.93526
▁kommunist	-9.93565
veis	-9.93582
▁prim	-9.93586
klokke	-9.93637
programmet	-9.93692
▁gold	-9.93718
soldat	-9.93775
▁tel	-9.93782
klo	-9.93804
▁gress	-9.93862
▁rek	-9.93886
▁israel	-9.93919
▁jack	-9.94065
▁svenske	-9.94098
pont	-9.94189
▁palm	-9.94216
▁omtrent	-9.94287
▁tolkien	-9.94287
▁pedersen	-9.94353
insk	-9.9437
▁aldri	-9.94452
▁ferdig	-9.94465
▁sjef	-9.94467
▁bomb	-9.94547
kamera	-9.94609
▁sæ	-9.94637
▁fyr	-9.94643
▁semi	-9.94748
▁turist	-9.94762
▁spansk	-9.94815
gue	-9.94829
kur	-9.94876
▁rod	-9.94913
▁stopp	-9.94959
elv	-9.94986
▁disk	-9.94992
sche	-9.95002
dong	-9.9506
▁personlig	-9.95141
▁wil	-9.95194
▁befolkning	-9.95195
▁ledes	-9.95211
▁beg	-9.95253
▁øvrig	-9.95276
▁vig	-9.95298
▁pettersen	-9.95355
løft	-9.95393
møte	-9.95404
▁michel	-9.95405
▁steder	-9.95417
funksjon	-9.95444
▁italia	-9.95462
▁afrika	-9.95472
ello	-9.955
▁hoff	-9.95511
▁fler	-9.95528
▁linjen	-9.95531
▁147	-9.95549
▁kjenn	-9.95623
▁mikro	-9.95634
▁kart	-9.95641
▁oversatt	-9.95653
orum	-9.95664
▁grev	-9.95697
▁mini	-9.95707
▁mala	-9.95745
▁forlag	-9.95775
slått	-9.95776
▁hannen	-9.95812
▁én	-9.95824
spekt	-9.95867
▁ott	-9.95883
▁drama	-9.95891
▁tilsvar	-9.95936
verdig	-9.95996
▁hag	-9.96041
▁rec	-9.96084
pat	-9.96216
π	-9.96276
▁prefektur	-9.96276
myndighet	-9.96277
▁øvre	-9.96278
▁sigurd	-9.96278
▁andré	-9.96292
▁roger	-9.96294
▁dialekt	-9.96304
plante	-9.96332
▁saint	-9.96377
varer	-9.96394
språk	-9.96426
▁fleste	-9.96431
▁tiden	-9.96526
▁drag	-9.96526
āng	-9.96818
▁adam	-9.96957
▁geir	-9.96978
▁fv	-9.9706
sand	-9.97074
▁55	-9.97086
▁drive	-9.97137
▁prop	-9.97199
bare	-9.97261
▁kardinal	-9.97287
▁1982	-9.97287
▁komponist	-9.97288
meter	-9.97289
▁middelalder	-9.97296
firmaet	-9.97307
▁dverg	-9.97323
▁veien	-9.97355
▁tilsvarende	-9.97376
flekk	-9.97396
▁ganske	-9.97434
▁65	-9.9754
▁wade	-9.97552
▁hellig	-9.97635
▁tone	-9.97677
▁bland	-9.97709
▁gå	-9.97794
▁forbinde	-9.97862
▁fur	-9.97891
kurs	-9.97907
▁bach	-9.97923
vision	-9.98043
▁carlo	-9.98088
▁lyn	-9.9816
▁lot	-9.98209
▁rad	-9.98232
tang	-9.98244
▁sum	-9.98314
▁1992	-9.98357
▁philip	-9.98367
hyll	-9.98371
▁hö	-9.9842
▁jazz	-9.98421
▁smith	-9.98429
qi	-9.9844
rapport	-9.98492
fell	-9.985
▁nø	-9.98533
mond	-9.98537
virksomhet	-9.98567
wood	-9.98571
amerikansk	-9.98572
▁underlagt	-9.98598
handel	-9.98624
▁kalk	-9.98655
▁heste	-9.9866
person	-9.98785
▁neg	-9.9882
▁skatte	-9.98855
kran	-9.98858
bour	-9.98904
▁41	-9.98919
løpet	-9.99005
riket	-9.9909
▁þ	-9.99131
▁furu	-9.9914
tog	-9.99206
ь	-9.99324
▁fest	-9.99324
▁original	-9.99334
kandidat	-9.99345
▁south	-9.9936
rolle	-9.9947
virke	-9.99476
▁146	-9.99502
▁ivan	-9.9954
▁nasjonalpark	-9.99575
▁hvite	-9.99655
▁pel	-9.9966
syke	-9.99671
gjorde	-9.99672
måte	-9.99775
то	-9.99782
▁viktig	-9.9979
tjenester	-9.99834
betegnelse	-10.0004
▁besøk	-10.0005
trinn	-10.0006
zj	-10.0008
lege	-10.0008
▁fylket	-10.0011
▁gitt	-10.0014
▁wood	-10.002
▁154	-10.0021
▁500	-10.0021
▁karakter	-10.0024
▁betydninger	-10.0025
fred	-10.0028
mmel	-10.0029
▁høyt	-10.003
dder	-10.0035
γ	-10.0038
▁filosof	-10.0038
▁unicode	-10.0038
▁106	-10.004
gud	-10.0043
▁fei	-10.0043
▁hjerne	-10.0045
▁antenne	-10.0051
▁tø	-10.0052
mont	-10.0052
lli	-10.0055
hopp	-10.0057
▁sukker	-10.0061
▁mathi	-10.0064
onym	-10.0077
▁cath	-10.0084
▁hammer	-10.0095
▁tettsted	-10.0099
▁peder	-10.0102
bon	-10.0104
▁bell	-10.0108
64	-10.0114
▁prisen	-10.0115
▁if	-10.012
▁thr	-10.012
▁skip	-10.0128
dikt	-10.0132
oppgave	-10.0136
▁trekk	-10.0139
▁wel	-10.0143
▁alternativ	-10.0143
▁inneholdt	-10.0143
▁london	-10.0143
▁alexander	-10.0144
▁brown	-10.0149
▁danmark	-10.0149
▁tran	-10.0152
systemer	-10.0157
▁75	-10.0158
linjen	-10.0159
▁sit	-10.0172
▁gutt	-10.0172
▁populær	-10.0178
▁cm	-10.0192
▁stamme	-10.0196
▁satt	-10.0201
▁ganger	-10.0205
tropp	-10.0205
konkurranse	-10.0207
▁historisk	-10.0207
▁57	-10.0208
▁kath	-10.0216
▁tol	-10.0223
stone	-10.023
▁havne	-10.0231
stedet	-10.0232
lokk	-10.0239
▁ash	-10.0246
republik	-10.0249
▁administrere	-10.025
▁electric	-10.025
▁styrmann	-10.025
▁dronning	-10.025
▁motta	-10.0253
▁text	-10.0253
virkning	-10.0256
▁personer	-10.0259
▁alfred	-10.0261
▁115	-10.0262
▁video	-10.027
▁alpin	-10.0277
▁ark	-10.0279
merker	-10.0283
▁105	-10.0285
▁metro	-10.0286
▁lau	-10.0287
vatn	-10.029
produsent	-10.029
▁byene	-10.029
▁tha	-10.0291
asi	-10.0293
verksted	-10.0314
▁wang	-10.0318
byrå	-10.0323
▁santa	-10.0323
▁høyde	-10.0325
▁radi	-10.0327
▁gli	-10.0327
▁dur	-10.0327
▁145	-10.0333
▁inte	-10.0334
fugler	-10.0345
spenning	-10.0345
▁39	-10.0348
▁idrettslag	-10.035
▁sovjetunionen	-10.0357
▁american	-10.0357
▁sykehus	-10.0359
▁slott	-10.0376
▁ivar	-10.0382
zel	-10.0391
▁arr	-10.0394
inntil	-10.0395
ington	-10.0396
▁show	-10.0402
▁chris	-10.0408
ч	-10.0409
▁shar	-10.041
▁deles	-10.0414
▁bølge	-10.0433
▁our	-10.0435
▁still	-10.0436
▁regional	-10.0445
haugen	-10.045
▁svi	-10.0452
dokument	-10.0453
▁play	-10.046
▁europe	-10.046
chester	-10.0463
▁publisert	-10.0466
▁gjelder	-10.0466
▁arthur	-10.0466
▁york	-10.0467
iblant	-10.0468
▁cd	-10.0469
▁angrep	-10.0474
▁hjemmeside	-10.0476
▁feil	-10.0477
klipp	-10.0482
dagen	-10.0489
▁dominere	-10.0489
ōng	-10.049
lind	-10.049
phy	-10.0493
bund	-10.0495
▁forekommer	-10.0498
▁verb	-10.0501
▁stam	-10.0507
nagar	-10.0511
forfatter	-10.0513
pass	-10.0515
▁effekt	-10.0515
▁fremst	-10.0519
kvalitet	-10.0521
kring	-10.0523
medlem	-10.0524
▁ron	-10.0537
▁stol	-10.054
▁bod	-10.0545
▁leif	-10.0549
▁142	-10.0555
▁hir	-10.056
▁bud	-10.0563
▁cri	-10.0565
verdi	-10.0573
▁himmel	-10.0579
▁run	-10.0579
▁program	-10.0582
▁knytte	-10.0585
▁forretnings	-10.0587
festivalen	-10.0588
▁alf	-10.0591
▁kall	-10.0595
▁rio	-10.06
▁økt	-10.0604
▁sara	-10.0606
▁kryss	-10.0607
elius	-10.0608
▁bygningen	-10.0615
▁44	-10.0616
ally	-10.0618
mengde	-10.0619
▁upp	-10.0621
legger	-10.0625
effekt	-10.0626
▁innb	-10.0631
▁vokser	-10.0634
▁asia	-10.0636
▁adel	-10.064
▁fløy	-10.0641
▁lill	-10.0648
problem	-10.0649
▁well	-10.0649
▁edi	-10.0661
▁center	-10.0662
flo	-10.0666
▁heng	-10.0675
▁there	-10.0677
▁64	-10.0678
▁bei	-10.0687
isse	-10.0687
δ	-10.0687
▁jakob	-10.0687
▁scene	-10.069
▁passerer	-10.0694
▁likevel	-10.0695
▁dig	-10.0698
▁mary	-10.0699
▁menighet	-10.0699
grå	-10.0701
▁alltid	-10.0702
▁stål	-10.0703
▁slu	-10.0706
▁kloster	-10.0708
▁grøn	-10.0711
▁ork	-10.0719
tilstand	-10.0724
▁artene	-10.0739
olin	-10.0739
▁audi	-10.0744
▁vold	-10.0747
▁bry	-10.0749
hild	-10.075
▁rub	-10.0769
▁one	-10.0772
▁bit	-10.0776
▁spise	-10.0778
▁bevegelse	-10.0782
▁landsby	-10.0784
▁hunde	-10.0786
presse	-10.0793
▁voks	-10.0798
▁intel	-10.0799
▁hurtig	-10.08
▁programleder	-10.0801
▁efter	-10.0802
▁malt	-10.0807
▁а	-10.0809
▁mangler	-10.0809
▁rute	-10.081
▁clo	-10.081
medlemmene	-10.0812
▁klubb	-10.0813
▁bjør	-10.0818
▁gården	-10.0819
somme	-10.082
bønn	-10.0822
ischen	-10.0822
krev	-10.0828
▁vall	-10.0829
▁utvide	-10.0831
▁fyrst	-10.084
▁oftest	-10.0843
acci	-10.0844
▁vik	-10.0844
▁ferr	-10.0844
▁khan	-10.0845
▁produksjon	-10.0847
▁148	-10.0851
▁bord	-10.0854
▁sku	-10.0856
▁damp	-10.0859
▁team	-10.0862
ful	-10.087
▁histori	-10.0876
īn	-10.0878
▁grov	-10.0882
▁stab	-10.0886
▁erstattet	-10.0897
analyse	-10.0901
ovo	-10.0904
▁kö	-10.0907
▁typer	-10.0909
▁skriver	-10.091
▁malm	-10.0911
▁1987	-10.0913
▁beijing	-10.0913
▁produksjons	-10.0913
▁opprettet	-10.0913
▁familiegruppen	-10.0915
▁day	-10.0917
▁jule	-10.0918
▁fjern	-10.0918
guan	-10.093
▁teksten	-10.0931
▁bai	-10.0931
▁holder	-10.0939
▁123	-10.0941
▁prakt	-10.0944
▁fjorden	-10.0945
▁verneområde	-10.0945
▁enten	-10.0947
▁117	-10.0951
▁hai	-10.0956
▁walter	-10.0957
▁henri	-10.0958
▁vakt	-10.0967
program	-10.0971
▁drev	-10.0972
▁utga	-10.0973
▁jevn	-10.0975
prosjekt	-10.0975
miljø	-10.0978
fabrikken	-10.0981
burn	-10.0986
behandling	-10.0989
▁lån	-10.0991
▁112	-10.0994
ship	-10.1005
▁way	-10.1006
falt	-10.1009
forhold	-10.1011
mul	-10.1013
▁noter	-10.1026
▁religion	-10.1028
▁school	-10.1028
▁tydelig	-10.1028
bed	-10.1031
▁markerer	-10.104
▁snar	-10.1043
▁skade	-10.1058
karriere	-10.1059
▁artister	-10.1061
▁bakke	-10.1065
hagen	-10.1072
▁107	-10.1073
serien	-10.108
▁operasjon	-10.1087
▁bert	-10.1092
figur	-10.1095
▁colle	-10.1098
▁43	-10.1099
▁utstyr	-10.1109
▁fot	-10.1111
▁sport	-10.1118
▁stod	-10.1122
vendt	-10.1123
▁blokk	-10.1127
▁124	-10.114
▁administrativ	-10.1144
giovanni	-10.1144
▁1991	-10.1144
▁1997	-10.1144
▁episode	-10.1144
▁nordvest	-10.1145
▁håkon	-10.1148
▁høsten	-10.1152
▁corp	-10.1152
▁dro	-10.1153
▁føde	-10.1165
▁128	-10.1166
▁bibel	-10.1167
▁aust	-10.1169
▁skje	-10.1172
▁top	-10.1174
▁aktivitet	-10.1175
nytt	-10.1177
▁jeff	-10.1181
regionen	-10.1185
▁09	-10.1201
▁rap	-10.1205
flat	-10.1208
▁dekker	-10.1212
design	-10.1216
▁grim	-10.1229
▁krysser	-10.1244
▁foto	-10.1245
modell	-10.1252
politisk	-10.1254
▁nicola	-10.1256
▁verd	-10.1256
▁nedre	-10.1259
▁hviterussisk	-10.1262
▁debutalbum	-10.1262
▁studio	-10.1262
▁nedenfor	-10.1262
▁forkortet	-10.1262
▁møtte	-10.1266
▁sørøst	-10.1269
▁forvingen	-10.127
▁fortsette	-10.1272
hovedstaden	-10.1277
idrett	-10.1281
▁symbol	-10.1287
▁big	-10.1289
iya	-10.1289
▁carol	-10.1296
▁streng	-10.1307
artikler	-10.1307
▁myk	-10.1313
▁spre	-10.1315
ppel	-10.1321
▁sunn	-10.1329
▁vitenskapelig	-10.1331
link	-10.1339
▁kjempe	-10.1345
▁54	-10.1349
▁72	-10.136
▁frei	-10.136
▁yng	-10.136
tallet	-10.136
støl	-10.1376
▁sanskrit	-10.1381
▁olymp	-10.1381
▁sveits	-10.1381
▁drammen	-10.1381
▁liber	-10.1383
aux	-10.1384
▁mineral	-10.1384
▁kanon	-10.1387
format	-10.1387
▁minst	-10.1388
▁social	-10.1388
▁brygge	-10.1392
▁scott	-10.1392
dekke	-10.1392
lian	-10.1395
roman	-10.1396
▁portrett	-10.1396
ltså	-10.1396
▁material	-10.1398
▁ltd	-10.1399
▁mul	-10.1403
▁guang	-10.1413
hand	-10.1415
▁piano	-10.142
holdning	-10.142
▁intern	-10.1432
illo	-10.1435
▁rem	-10.1436
eiro	-10.1437
▁preg	-10.1439
▁total	-10.1442
▁rag	-10.1448
▁bunn	-10.1461
▁populære	-10.1465
▁cup	-10.1478
▁bibliotek	-10.1479
▁cel	-10.1484
nell	-10.1484
▁egil	-10.1497
▁finale	-10.1498
ekspedisjon	-10.1501
▁fulgte	-10.1501
▁derimot	-10.1501
▁relativ	-10.1501
▁frederik	-10.1502
objekt	-10.1502
kunnskap	-10.1503
▁uavhengig	-10.1508
▁betegnelsen	-10.1508
но	-10.1508
kål	-10.1513
▁fått	-10.1514
▁major	-10.1514
tveit	-10.1518
programmer	-10.1521
▁68	-10.1521
ía	-10.1523
▁gaten	-10.1526
▁skyldes	-10.1526
kasse	-10.1537
во	-10.1538
▁syr	-10.154
▁leon	-10.154
▁begrepet	-10.1544
▁normal	-10.1544
gift	-10.1544
▁distr	-10.1545
fyr	-10.1547
▁utført	-10.1556
▁life	-10.1559
ario	-10.1566
▁kristen	-10.1572
sdatter	-10.1577
▁kali	-10.158
▁deutsche	-10.1582
sentre	-10.1583
▁num	-10.1585
▁hvis	-10.1587
▁grupper	-10.1591
eringen	-10.1594
▁makt	-10.1596
▁kaptein	-10.1602
▁84	-10.1603
▁02	-10.1604
vekt	-10.162
institusjon	-10.1623
▁bulgarsk	-10.1623
▁millioner	-10.1623
dannelse	-10.1626
▁konsert	-10.1626
data	-10.1633
▁bydel	-10.1641
▁persisk	-10.1642
▁organisasjonen	-10.1651
▁wan	-10.1651
▁kjøre	-10.1655
▁bydelen	-10.1661
▁orient	-10.1666
▁åpnet	-10.1666
pone	-10.167
vika	-10.1675
▁kjøpte	-10.1685
næring	-10.1685
▁bull	-10.1687
▁emb	-10.1691
enheten	-10.1697
▁økonomisk	-10.1703
ла	-10.1709
▁rosa	-10.1712
utstyr	-10.1713
▁raf	-10.1713
▁53	-10.1717
møll	-10.1722
▁tog	-10.1727
▁hente	-10.1728
materiale	-10.173
biller	-10.1744
▁spp	-10.1744
▁gabriel	-10.1747
▁arrangerer	-10.1747
▁1968	-10.1747
▁beskrev	-10.1747
▁tibetansk	-10.1749
▁bow	-10.175
▁størrelse	-10.1752
fartøy	-10.1755
mpl	-10.1764
▁nev	-10.1765
icus	-10.1785
▁118	-10.1789
▁fru	-10.1789
▁kammer	-10.1793
▁jonas	-10.1796
▁øyene	-10.18
gö	-10.1807
shire	-10.1811
▁gile	-10.1817
visning	-10.1825
▁dog	-10.1826
▁akk	-10.1832
та	-10.1834
skille	-10.1835
enburg	-10.1836
bukta	-10.1839
▁free	-10.1843
album	-10.1846
▁markeds	-10.1848
▁lyng	-10.1849
▁dynastiet	-10.1849
abili	-10.1853
stilte	-10.186
▁solo	-10.1865
▁vanligst	-10.1868
▁alv	-10.1869
ί	-10.1872
ш	-10.1872
▁parlament	-10.1872
rente	-10.1873
▁stadion	-10.1874
▁omtalt	-10.1876
▁flertall	-10.188
▁dør	-10.188
▁wid	-10.1884
register	-10.1889
▁delt	-10.1892
stripe	-10.1894
▁dvs	-10.1899
▁eie	-10.1905
▁påvirke	-10.1914
го	-10.1918
▁136	-10.1928
stasjonen	-10.1928
bygningen	-10.1932
▁dio	-10.1937
skaja	-10.1941
▁143	-10.1942
▁gruve	-10.1944
melodi	-10.1947
▁ledelse	-10.1965
▁51	-10.197
grønn	-10.197
▁pyr	-10.1977
▁norman	-10.1982
▁ungdom	-10.1983
▁rid	-10.1985
komst	-10.1996
õ	-10.1998
ý	-10.1998
ц	-10.1998
▁1980	-10.1998
▁ungarsk	-10.1999
▁hustru	-10.1999
▁norrøn	-10.1999
▁kjøtt	-10.2
▁frankrike	-10.2001
▁oblast	-10.2002
▁ordfører	-10.2003
▁fab	-10.2004
▁1986	-10.2005
▁europeisk	-10.2006
▁henhold	-10.2012
▁franz	-10.2012
enheter	-10.2014
▁tå	-10.2014
▁atom	-10.202
▁mennesker	-10.2023
zio	-10.2024
▁mcc	-10.2027
▁jarl	-10.2049
▁skapt	-10.2058
cchi	-10.207
recht	-10.2077
long	-10.2083
bury	-10.2085
▁festning	-10.2086
▁ramme	-10.2087
▁normalt	-10.2093
▁slett	-10.2093
cast	-10.2097
kunst	-10.21
▁kjøl	-10.21
▁ube	-10.2102
▁byprefekture	-10.2103
grep	-10.2112
▁schw	-10.2114
▁sider	-10.2114
bøker	-10.2124
▁journalist	-10.2126
▁1979	-10.2126
▁hebraisk	-10.2126
▁teknisk	-10.2127
▁benyttet	-10.2127
▁kjønn	-10.2127
▁eldste	-10.2127
▁ønske	-10.2128
ος	-10.2128
▁hjort	-10.2129
▁grunnlegger	-10.213
▁nok	-10.2132
▁internett	-10.2133
høyde	-10.2133
▁nederland	-10.2136
▁gw	-10.2137
▁terje	-10.2142
▁lengst	-10.2142
▁dannes	-10.2143
▁sym	-10.2145
typer	-10.2148
▁adresse	-10.2149
▁tradisjon	-10.215
▁raj	-10.215
▁folket	-10.2151
▁pave	-10.2156
▁avslutte	-10.2156
plattform	-10.2159
▁ernst	-10.2159
▁48	-10.2161
anlegget	-10.2161
stell	-10.2172
▁elektrisk	-10.2172
▁korea	-10.2174
▁bøker	-10.2176
▁135	-10.2178
gran	-10.2182
bregne	-10.2182
ddy	-10.2188
▁nielsen	-10.2189
avgift	-10.219
print	-10.2197
▁108	-10.2198
▁47	-10.2199
▁08	-10.2199
▁110	-10.2203
▁light	-10.2203
▁corn	-10.2208
▁tyr	-10.2215
▁støtter	-10.2225
▁beat	-10.2225
regn	-10.2229
▁irsk	-10.223
asso	-10.2236
▁arkiv	-10.224
▁tell	-10.2249
▁legge	-10.2254
▁christoph	-10.2256
▁klassisk	-10.2257
type	-10.2257
▁prosent	-10.2258
▁tegnet	-10.2258
▁stavanger	-10.226
fortelling	-10.2262
wick	-10.2267
▁deltok	-10.2268
vurder	-10.2271
▁east	-10.228
▁olaf	-10.2296
finalen	-10.2306
▁glu	-10.2306
▁rollen	-10.231
▁petro	-10.231
▁papir	-10.2312
▁spring	-10.2316
▁flå	-10.2316
▁toll	-10.2319
graph	-10.2319
back	-10.2325
▁104	-10.2326
ân	-10.2328
▁slå	-10.2333
spir	-10.2349
▁mega	-10.235
ordning	-10.2352
▁125	-10.2356
thal	-10.2366
strup	-10.2368
dium	-10.2377
▁water	-10.2378
▁storbritannia	-10.2388
▁1977	-10.2388
▁berømt	-10.2388
▁golf	-10.239
▁tømmer	-10.2391
økonom	-10.2392
terapi	-10.2393
▁73	-10.2395
▁bang	-10.2395
▁invest	-10.2398
assi	-10.2403
▁к	-10.241
▁china	-10.242
▁signal	-10.2427
alisme	-10.2428
▁vu	-10.2431
▁hunnen	-10.2436
▁white	-10.244
offiser	-10.2442
▁mou	-10.2448
▁kåre	-10.2451
▁133	-10.2476
▁latinsk	-10.2478
▁56	-10.2486
mini	-10.2492
▁rau	-10.2498
▁iran	-10.251
▁alfa	-10.2517
▁øde	-10.2519
ń	-10.2521
▁1983	-10.2521
▁sjelden	-10.2521
▁nabokommunen	-10.2521
▁avgjør	-10.2521
tidsskrift	-10.2524
▁nattfly	-10.2525
▁him	-10.2531
▁138	-10.2536
▁oppnå	-10.2536
ар	-10.2537
▁straffe	-10.2542
kall	-10.2547
lender	-10.2547
tunnel	-10.2549
▁plo	-10.2561
▁heart	-10.2565
▁holdt	-10.2568
▁113	-10.2568
▁län	-10.2571
mesterskapet	-10.2572
▁87	-10.2577
bevis	-10.2599
▁149	-10.2602
▁korn	-10.2605
▁stift	-10.2612
▁kw	-10.2618
▁144	-10.262
fir	-10.2629
▁wol	-10.2632
▁språket	-10.2636
▁master	-10.2642
▁46	-10.2644
bord	-10.2651
▁psyko	-10.2652
▁årene	-10.2654
▁opprinnelse	-10.2656
▁republikken	-10.2656
▁kjemisk	-10.2656
▁tyrkisk	-10.2657
kompleks	-10.2658
▁forteller	-10.2659
▁what	-10.266
▁oscar	-10.2663
ça	-10.2663
▁overflate	-10.2664
▁tørr	-10.2669
▁tradisjonel	-10.2683
▁pad	-10.2684
▁popul	-10.2685
▁krok	-10.2688
▁vet	-10.2691
▁hein	-10.2692
søkte	-10.2694
▁sup	-10.2702
▁arch	-10.2706
utøver	-10.2715
▁åpen	-10.2716
▁sesongen	-10.272
tilbud	-10.272
stjerne	-10.2748
lista	-10.2761
▁koll	-10.2764
▁artist	-10.2766
▁åpne	-10.2767
▁kirk	-10.2773
▁bygda	-10.2775
lung	-10.2777
▁102	-10.2778
▁acc	-10.2785
ruten	-10.279
▁vladimir	-10.2793
frekvens	-10.2793
▁1966	-10.2793
▁1976	-10.2793
▁fremdeles	-10.2793
▁company	-10.2794
▁stefan	-10.2796
psykologi	-10.2798
▁josé	-10.2799
▁svømme	-10.2801
▁jakt	-10.2805
galleri	-10.2808
▁count	-10.2809
▁regjeringen	-10.2809
▁snakke	-10.2816
uit	-10.2818
▁float	-10.2819
▁134	-10.282
▁129	-10.2823
▁seier	-10.2825
▁tråd	-10.2829
øvelse	-10.2833
▁beta	-10.2835
▁young	-10.284
▁bidra	-10.2841
▁77	-10.2846
mission	-10.2847
problemer	-10.2862
nøtt	-10.2873
kompani	-10.2875
▁lid	-10.2881
▁kvin	-10.2885
▁paris	-10.2895
▁kreve	-10.2905
▁høg	-10.2912
versjon	-10.2915
høgskole	-10.2927
direktør	-10.2929
▁88	-10.2931
løytnant	-10.2932
▁dobbelt	-10.2932
▁fjerde	-10.2932
▁records	-10.2932
ensemble	-10.2932
hastighet	-10.2933
worth	-10.2935
vakt	-10.2939
▁blank	-10.2942
▁sverd	-10.2943
▁undervisning	-10.2946
▁meget	-10.2947
løv	-10.295
▁hotell	-10.2953
▁95	-10.2955
▁85	-10.296
▁arkitektur	-10.2962
agua	-10.2968
▁sende	-10.297
fokus	-10.2973
▁fotballklubb	-10.2973
ев	-10.2983
konkurransen	-10.2988
▁rig	-10.2992
gall	-10.2993
tysk	-10.2997
▁vokalist	-10.3003
äm	-10.3005
▁areal	-10.3016
▁qa	-10.3062
▁93	-10.3063
▁bog	-10.307
▁elisabeth	-10.3073
▁alkohol	-10.3073
▁1984	-10.3073
▁stadium	-10.3077
▁62	-10.3079
▁billed	-10.3085
▁skytter	-10.3087
▁103	-10.3097
▁øker	-10.3104
▁salg	-10.3115
▁johnson	-10.3118
▁126	-10.3118
▁07	-10.3119
ли	-10.3124
▁sankt	-10.3127
▁hyper	-10.3129
▁måned	-10.3138
▁bære	-10.3145
stedene	-10.3152
▁penge	-10.3153
xiang	-10.3154
▁tempel	-10.3155
▁sesong	-10.3156
abad	-10.3157
▁brei	-10.3159
▁66	-10.3168
▁naturlig	-10.317
▁indian	-10.317
▁delvi	-10.3176
cup	-10.318
▁gott	-10.3187
folket	-10.3198
▁mach	-10.3211
▁flytte	-10.3211
▁116	-10.3212
▁ishockey	-10.3216
▁public	-10.3216
▁saga	-10.3216
▁1970	-10.3216
▁pasient	-10.3216
▁guar	-10.3219
▁brad	-10.3219
▁perioden	-10.3222
▁bjarn	-10.3223
▁jordbruk	-10.3224
▁demningen	-10.3226
▁present	-10.3227
▁76	-10.3239
▁opphav	-10.3255
▁markert	-10.3263
▁dyrke	-10.3271
▁viking	-10.3271
▁demokrati	-10.3272
▁99	-10.3277
▁fotograf	-10.3287
hvit	-10.329
▁busk	-10.3292
▁sä	-10.3294
fabrik	-10.3296
▁141	-10.3298
▁05	-10.3305
▁tykk	-10.3312
herre	-10.3314
▁svar	-10.333
▁nevro	-10.3331
speil	-10.3348
▁skinn	-10.335
serie	-10.3351
▁motiv	-10.3355
▁hypo	-10.3357
▁skall	-10.3361
▁yrkes	-10.3361
▁central	-10.3362
▁insekt	-10.3363
▁protein	-10.3363
▁work	-10.3367
▁sylv	-10.337
bryter	-10.3373
▁63	-10.3376
▁drikke	-10.3377
ligner	-10.3378
▁donau	-10.3381
▁bakover	-10.3383
mennene	-10.3384
▁139	-10.3385
▁høyere	-10.3391
▁driv	-10.3398
▁provinshovedsta	-10.3399
▁flø	-10.3401
▁reform	-10.3405
▁hval	-10.3413
▁skjedd	-10.3417
▁sammenlign	-10.3422
▁intro	-10.3423
▁saf	-10.3432
språklig	-10.3439
dress	-10.3443
kredit	-10.346
▁bedre	-10.347
▁koloni	-10.347
bjørk	-10.3472
▁asp	-10.3489
▁119	-10.349
▁gross	-10.3491
▁skar	-10.3494
▁bispedømme	-10.3508
▁tusenårssted	-10.3508
▁dirigent	-10.3508
▁vulkan	-10.3508
▁petersburg	-10.3508
▁church	-10.3508
▁innskriften	-10.3508
▁sørvest	-10.3509
▁fiktiv	-10.3509
▁midgard	-10.3509
▁redusere	-10.351
båndet	-10.3517
▁114	-10.3518
▁sikkerhets	-10.352
valget	-10.3522
▁element	-10.3523
hjelp	-10.3523
▁austr	-10.3524
bukk	-10.3524
▁omhandler	-10.3525
▁urdu	-10.3525
▁alex	-10.3527
▁lj	-10.3527
tittel	-10.3528
▁öst	-10.3531
▁samuel	-10.3531
▁good	-10.3547
rock	-10.3548
blå	-10.3551
▁singel	-10.3557
right	-10.3562
bygging	-10.3576
▁morgen	-10.3578
▁regel	-10.3582
▁løk	-10.3585
▁josef	-10.3589
▁300	-10.359
truk	-10.3591
▁eb	-10.3605
reserv	-10.3624
▁silke	-10.3626
▁plast	-10.363
▁euro	-10.3636
marked	-10.3644
lect	-10.3647
▁naturreservat	-10.3657
▁aleksandr	-10.3657
▁etterhvert	-10.3657
▁1981	-10.3657
▁1985	-10.3657
▁linux	-10.3657
▁regissert	-10.3658
▁night	-10.3658
kontrakt	-10.3658
▁kjærlighet	-10.3659
kommando	-10.3659
▁svak	-10.3659
▁pierre	-10.3663
▁eksport	-10.3664
▁uttalt	-10.3666
▁forvaltnings	-10.3667
slutt	-10.3668
▁kapp	-10.3673
▁lansert	-10.3673
▁gjenopp	-10.3674
andro	-10.3677
▁wild	-10.3678
▁kä	-10.3679
▁benevn	-10.368
▁motstand	-10.3693
brand	-10.3698
▁127	-10.3701
▁stru	-10.3702
▁sikte	-10.3707
▁sound	-10.371
▁130	-10.3713
spiss	-10.3714
▁måne	-10.3723
owski	-10.373
▁føl	-10.3741
ин	-10.3749
gass	-10.3756
▁jose	-10.3771
illus	-10.3774
▁prøv	-10.3776
▁bau	-10.3777
maker	-10.38
▁amerika	-10.3808
▁łód	-10.3809
arrangement	-10.3809
▁tilgjengelig	-10.3809
▁science	-10.3809
▁1972	-10.3809
▁1978	-10.3809
▁78	-10.3809
▁forårsake	-10.3809
▁noctu	-10.381
▁tidsskriftet	-10.3811
▁integr	-10.3812
▁oversettelse	-10.3825
▁bjerk	-10.383
▁øyvin	-10.3832
transport	-10.3833
▁susan	-10.3836
▁homo	-10.3844
▁panser	-10.3858
▁vad	-10.386
▁ulv	-10.3878
duk	-10.3888
▁cour	-10.389
▁beskytte	-10.3891
forestilling	-10.3895
stokk	-10.3896
▁hest	-10.3898
мо	-10.39
▁pho	-10.3907
▁behold	-10.391
▁hjemmebane	-10.3922
▁mam	-10.3922
dersom	-10.3944
▁kvit	-10.3947
ów	-10.3948
▁valgte	-10.3948
▁egypt	-10.3963
▁således	-10.3963
▁united	-10.3963
▁islam	-10.3964
▁padding	-10.3965
▁royal	-10.3965
▁england	-10.3971
▁call	-10.3982
▁flagg	-10.3988
▁hindi	-10.3988
dynastiet	-10.3991
bibliotek	-10.3991
instrument	-10.3991
▁spillerne	-10.4002
▁offisiel	-10.4003
arkiv	-10.4007
▁revers	-10.4018
▁67	-10.4021
▁symboliser	-10.4032
▁nordisk	-10.4034
▁great	-10.4041
▁101	-10.4045
veps	-10.4064
▁mongol	-10.4065
▁rö	-10.4068
▁tettstedet	-10.4068
▁than	-10.4076
▁plassert	-10.4084
▁59	-10.4087
▁strid	-10.4095
▁skyld	-10.4102
▁niels	-10.4109
åker	-10.4119
▁advokat	-10.4119
▁fødsel	-10.4119
▁regissør	-10.4119
▁yizhi	-10.4119
▁global	-10.4121
▁sekund	-10.4121
▁edward	-10.4122
▁lunge	-10.4124
▁1960	-10.4126
▁anvende	-10.4126
▁tommy	-10.4127
▁vingene	-10.4159
▁hva	-10.4162
gått	-10.4163
▁122	-10.4166
▁fuji	-10.4171
▁frode	-10.4177
▁vidar	-10.4188
▁luci	-10.419
▁novo	-10.419
▁trolig	-10.4201
markedet	-10.4202
▁pensjon	-10.4204
pati	-10.4205
▁fær	-10.4209
▁thy	-10.4227
▁utkom	-10.4232
▁maj	-10.4233
▁cover	-10.4245
▁femte	-10.4272
▁begynner	-10.4277
▁etterfulgt	-10.4277
▁kilometer	-10.4277
▁sjeldne	-10.4277
▁1974	-10.4278
▁observa	-10.4278
▁bakkroppen	-10.4278
▁dårlig	-10.4279
▁archive	-10.4279
palasset	-10.4282
▁bakterie	-10.4282
▁1964	-10.4283
faktor	-10.4285
▁techn	-10.4287
▁aksel	-10.4288
▁eksempelvis	-10.4289
▁muskel	-10.4291
▁jacobsen	-10.4292
▁98	-10.4292
▁ørn	-10.4296
▁smør	-10.4297
▁reaksjon	-10.4298
▁utvikler	-10.43
masse	-10.4301
▁diesel	-10.4303
▁lou	-10.4309
bæk	-10.4352
▁kald	-10.4366
▁four	-10.4367
yama	-10.4373
ated	-10.4379
▁statlig	-10.4395
turbin	-10.4397
▁davis	-10.4398
pleie	-10.4403
▁bha	-10.4414
▁lü	-10.4415
▁fritt	-10.4427
forvaltning	-10.4428
▁font	-10.4433
▁revolusjon	-10.4439
spørsmål	-10.4439
▁arrangeres	-10.4439
▁pradesh	-10.4439
▁systematikk	-10.4439
▁1967	-10.4439
▁1975	-10.4439
▁katolsk	-10.4439
▁østerrike	-10.4439
▁høst	-10.4439
▁heinrich	-10.444
▁inndelt	-10.4441
stamme	-10.4442
▁kommunal	-10.4443
view	-10.4443
▁swa	-10.4444
▁bydistrikt	-10.4447
kapital	-10.4447
▁hotel	-10.4447
prest	-10.4447
▁ukjent	-10.4447
▁when	-10.4448
▁jackson	-10.4449
▁asbjørn	-10.4457
ruter	-10.4462
▁junior	-10.4464
▁milan	-10.4482
ić	-10.4483
fast	-10.4485
▁hugh	-10.4492
▁grund	-10.4497
brett	-10.4508
ugle	-10.4514
▁krav	-10.452
radio	-10.4521
▁69	-10.4544
quist	-10.455
ætt	-10.456
▁qing	-10.4574
▁bryn	-10.4576
spesifik	-10.4591
▁smak	-10.4594
hest	-10.4597
institutt	-10.4598
▁sannsynlig	-10.4603
▁trygve	-10.4603
betennelse	-10.4603
veksling	-10.4603
▁gjort	-10.4603
▁hvilke	-10.4603
undersøkelse	-10.4606
▁fiolin	-10.4608
▁rib	-10.461
▁pistol	-10.4617
apparat	-10.4621
▁røyk	-10.4621
odden	-10.4629
▁down	-10.4632
▁hundre	-10.4641
▁college	-10.4641
▁121	-10.4643
▁fritz	-10.4645
hånd	-10.4651
▁sats	-10.4653
sentrum	-10.4653
pirasjon	-10.4674
по	-10.4677
▁robin	-10.468
▁71	-10.4719
▁skjel	-10.472
▁skarp	-10.4734
kjempe	-10.4737
▁bratt	-10.4751
▁gitarist	-10.4752
▁krog	-10.4753
ская	-10.4769
▁skjønn	-10.4769
▁natrium	-10.4769
▁edvard	-10.4769
ópolis	-10.477
givende	-10.4771
▁generalsekretær	-10.4771
mønster	-10.4772
▁clark	-10.4775
kjøretøy	-10.478
▁drept	-10.4782
wang	-10.4782
▁anta	-10.4785
bjørg	-10.479
derav	-10.4798
▁vinnerlag	-10.48
▁tong	-10.4802
▁nød	-10.4809
vík	-10.481
ovic	-10.481
▁crist	-10.4811
▁kryp	-10.4817
▁vokste	-10.4824
forsvar	-10.4827
ми	-10.4828
bølge	-10.4831
▁132	-10.485
▁kry	-10.4854
▁tolv	-10.4863
▁frp	-10.4865
▁slave	-10.4882
studier	-10.4894
halvøya	-10.4899
▁innsjø	-10.4903
▁109	-10.4908
avtale	-10.4916
▁reserve	-10.4921
bevegelsen	-10.4923
υ	-10.4938
▁tilskuere	-10.4939
▁1961	-10.4939
▁1963	-10.4939
▁airlines	-10.4939
▁valuta	-10.4939
sekvens	-10.494
▁eventyr	-10.494
▁tildeles	-10.4941
▁koreansk	-10.4941
▁arkeolog	-10.4943
▁norway	-10.4948
▁sammenheng	-10.4949
▁omfattende	-10.4956
tegning	-10.4958
▁vandre	-10.4958
▁06	-10.4962
▁johnny	-10.4964
▁yngre	-10.497
▁forbunds	-10.4973
tvedt	-10.4977
▁61	-10.4988
▁ytre	-10.4989
▁hong	-10.4989
▁little	-10.4996
▁trø	-10.5021
melding	-10.5026
▁79	-10.503
▁reich	-10.5035
kjeden	-10.5059
▁utøve	-10.5066
▁03	-10.5071
kjent	-10.5074
▁111	-10.5092
▁thai	-10.5104
kysten	-10.5107
▁symptom	-10.5111
▁passasjer	-10.5111
▁ingrid	-10.5112
▁stortings	-10.5114
▁ansatte	-10.5115
▁reidar	-10.5115
▁telemark	-10.5119
▁sammenlagt	-10.5125
▁dà	-10.5126
▁karakteristisk	-10.5133
▁luther	-10.5136
▁rulle	-10.5141
▁eriksen	-10.5145
ière	-10.5146
▁other	-10.5168
▁økonomi	-10.5179
orkester	-10.518
▁oberst	-10.5189
▁jury	-10.5191
ault	-10.5192
▁04	-10.5193
avhengig	-10.5195
▁ekstra	-10.5197
▁krf	-10.521
legging	-10.5218
skår	-10.5222
▁elias	-10.5226
▁fyll	-10.5228
klub	-10.5236
board	-10.5239
våk	-10.524
skaffe	-10.5245
▁kunde	-10.5246
stiftelse	-10.5251
delser	-10.5252
▁rhin	-10.5255
jì	-10.5264
▁liberal	-10.5265
▁hovedkvarter	-10.5287
▁orchestra	-10.5287
▁ukraina	-10.5287
▁kristoffer	-10.5287
konferanse	-10.5287
▁moskva	-10.5287
▁mytologi	-10.5287
kommisjon	-10.5287
▁tromsø	-10.5287
▁serbisk	-10.5288
▁regulere	-10.5288
nøkkel	-10.5288
▁micro	-10.5289
dommer	-10.5293
positiv	-10.5295
utvalget	-10.5298
▁meyer	-10.53
▁fungere	-10.5302
▁hersker	-10.5303
lyng	-10.5309
▁eirik	-10.531
▁which	-10.5311
▁hovedbyen	-10.5312
▁maxim	-10.5321
▁german	-10.5322
▁flyselskap	-10.5324
▁gong	-10.5333
▁rab	-10.5333
▁first	-10.5335
▁equ	-10.5336
▁thom	-10.5346
mongolsk	-10.5351
▁olga	-10.5352
vitenskapelig	-10.5367
▁blanc	-10.5371
kritiker	-10.5383
light	-10.5389
▁grø	-10.5392
näs	-10.5397
ий	-10.5401
▁color	-10.5416
ло	-10.5418
▁bodde	-10.5432
▁fish	-10.5449
▁nederlandsk	-10.5458
▁arrangør	-10.5465
▁association	-10.5465
▁københavn	-10.5465
▁profesjonell	-10.5465
▁dekkvingene	-10.5465
▁millimeter	-10.5465
▁ytterkant	-10.5465
▁suksess	-10.5465
▁1962	-10.5465
▁1965	-10.5465
▁1957	-10.5465
kapasitet	-10.5466
▁australia	-10.5466
▁zhang	-10.5466
▁valentin	-10.5466
▁senior	-10.5466
▁kristiansand	-10.5467
järvi	-10.547
▁håndball	-10.5472
▁hormon	-10.5474
▁hvordan	-10.5476
▁lö	-10.5476
▁barnehage	-10.5478
▁point	-10.5479
strøk	-10.5484
▁tilpasse	-10.549
▁ultra	-10.5492
drakt	-10.5493
▁oppdrag	-10.55
▁aksje	-10.5508
onic	-10.5511
▁grønland	-10.5512
ма	-10.5522
▁serra	-10.5528
▁oppsto	-10.5533
▁hauk	-10.5538
president	-10.5545
front	-10.5553
lilje	-10.5554
bredd	-10.5572
stjernen	-10.5575
▁81	-10.5576
sidig	-10.5587
▁karbon	-10.5589
▁400	-10.5609
▁kho	-10.5633
▁favoritt	-10.5647
▁rudolf	-10.5647
▁washington	-10.5647
▁ytterligere	-10.5647
▁pattedyr	-10.5647
konstruksjon	-10.5647
▁utmerkelse	-10.5647
▁1955	-10.5647
▁people	-10.5647
▁psych	-10.5648
▁tegneserie	-10.5648
▁adolf	-10.5648
▁filipp	-10.5648
▁support	-10.5648
▁fattig	-10.5648
▁fuktig	-10.5649
▁elektronisk	-10.565
skade	-10.5651
▁styreleder	-10.5653
▁komposisjon	-10.5654
▁utvalg	-10.5655
▁import	-10.5655
▁romersk	-10.5663
▁report	-10.5672
▁were	-10.5675
▁kevin	-10.5678
stemning	-10.5688
▁nobel	-10.57
▁89	-10.5703
distanse	-10.5706
laug	-10.5719
redaktør	-10.5735
frukt	-10.5735
regiment	-10.5764
kså	-10.5764
▁600	-10.5774
årig	-10.5775
bille	-10.5776
▁søke	-10.5785
▁tusen	-10.5797
produkt	-10.5803
▁aero	-10.5814
bataljon	-10.5832
▁krystall	-10.5832
komité	-10.5833
▁space	-10.5836
▁foretrekke	-10.5838
▁nyhets	-10.5839
▁møller	-10.584
▁viktor	-10.5841
tavle	-10.5849
▁øystein	-10.5852
▁eugen	-10.5864
løype	-10.5864
▁begrense	-10.5867
▁anderson	-10.5881
▁katedral	-10.5883
witz	-10.589
drevet	-10.59
blanding	-10.5904
▁jung	-10.5904
▁castel	-10.5917
størrelse	-10.5926
kunstner	-10.594
▁henning	-10.594
▁victor	-10.5961
▁vestlig	-10.5966
си	-10.5971
▁past	-10.5976
sending	-10.5983
strakt	-10.5986
▁96	-10.5987
sykdom	-10.5992
administrasjon	-10.5997
wall	-10.6003
skyting	-10.6005
▁nettsted	-10.6006
▁brasil	-10.6015
▁münchen	-10.6021
▁brønn	-10.6021
▁sistnevnte	-10.6021
▁brenselstypen	-10.6021
▁gymnas	-10.6021
▁1952	-10.6021
▁mekanisk	-10.6021
▁ansikt	-10.6022
▁pepper	-10.6023
strekning	-10.6023
stipend	-10.6023
▁two	-10.6025
▁grunnlegge	-10.6027
▁bakgrunn	-10.6028
▁llc	-10.6031
▁1930	-10.6031
knapp	-10.6036
katalog	-10.6036
▁forvalte	-10.6041
те	-10.6046
▁utnytte	-10.605
▁fremstille	-10.6066
▁nettside	-10.6066
▁orgel	-10.6079
▁nevne	-10.6084
shop	-10.6138
bekken	-10.6143
bunn	-10.615
orientert	-10.615
klosteret	-10.6192
toft	-10.6193
▁kalv	-10.6194
sikkerhet	-10.6199
▁hekke	-10.6206
▁twi	-10.6208
▁introduserte	-10.6213
▁jomfru	-10.6213
▁automatisk	-10.6213
▁evangeli	-10.6213
▁kommentar	-10.6213
▁bitumen	-10.6214
▁theodor	-10.6214
▁fysisk	-10.6214
rettigheter	-10.6215
▁alexandr	-10.6215
▁maritim	-10.6218
rommet	-10.6221
dimensjon	-10.6223
▁1950	-10.6224
kvartett	-10.6227
eksamen	-10.6233
▁poeng	-10.6233
▁trekant	-10.6236
qiao	-10.6237
▁sosialistisk	-10.6239
▁klein	-10.6242
▁terror	-10.6252
▁slektning	-10.6253
▁child	-10.6274
▁ferge	-10.6283
▁bush	-10.6287
fiber	-10.6308
historisk	-10.6323
▁lasse	-10.633
▁sandvik	-10.6339
▁kongelig	-10.6344
registre	-10.6344
samband	-10.6365
aften	-10.6368
kjerne	-10.6378
nymf	-10.6383
▁bestemt	-10.6391
▁prinsipp	-10.6393
▁individ	-10.6409
▁utelukke	-10.6409
▁vingespenn	-10.6409
▁corporation	-10.6409
▁foregår	-10.6409
▁sykkel	-10.6409
▁prinsesse	-10.6409
▁1959	-10.6409
▁registrert	-10.6409
▁1973	-10.641
▁claudi	-10.641
▁ralph	-10.641
▁axel	-10.6411
ressurs	-10.6411
▁etterfølger	-10.6411
▁sendte	-10.6411
▁nasjonalsang	-10.6413
▁leonard	-10.6415
komiteen	-10.6415
▁disney	-10.6416
▁organisere	-10.6417
▁pip	-10.6418
bebyggelse	-10.6421
▁skei	-10.6425
prøve	-10.6427
▁bodø	-10.6432
ablo	-10.6438
kolleg	-10.6442
▁1900	-10.6445
styring	-10.645
▁lavere	-10.6452
▁manuel	-10.6452
▁selger	-10.6456
strømmen	-10.6456
▁131	-10.6457
▁medisinsk	-10.6464
▁johnsen	-10.6474
ović	-10.6497
▁interesse	-10.6504
▁begrep	-10.6562
▁utenriks	-10.6578
forstyrrelse	-10.6609
▁forøvrig	-10.6609
▁norwegian	-10.6609
▁1969	-10.6609
▁kenneth	-10.6609
▁syndrom	-10.661
▁komponert	-10.661
▁gjennomsnitt	-10.661
▁hjelm	-10.6611
komponent	-10.6611
▁godkjent	-10.6611
identifiser	-10.6612
▁vanskelig	-10.6612
▁spirit	-10.6616
▁bernard	-10.6619
▁protest	-10.662
kostnad	-10.6629
▁klatre	-10.6631
▁prosessen	-10.6632
støtte	-10.664
▁kreert	-10.6654
па	-10.6661
ия	-10.6671
▁slip	-10.6687
▁zhen	-10.6695
▁fjellkjede	-10.6697
stråle	-10.6697
▁skaper	-10.6699
amba	-10.6712
▁temple	-10.6745
▁inneha	-10.6753
gnano	-10.6774
▁salme	-10.6812
▁kollektiv	-10.6813
▁tsjekkisk	-10.6813
sentralbanksjef	-10.6813
▁chicago	-10.6813
▁1941	-10.6814
▁arrangert	-10.6814
▁ragnar	-10.6814
▁fjeld	-10.6814
initiativ	-10.6814
▁gregor	-10.6816
▁kritikk	-10.6817
▁gråbrun	-10.6818
straße	-10.6822
▁francesc	-10.6826
▁1940	-10.6826
▁henriksen	-10.6828
▁kråk	-10.6829
▁dokumenter	-10.6838
▁thailand	-10.6839
▁arild	-10.684
▁icao	-10.6842
▁alban	-10.6847
blomsterflue	-10.6852
fysikk	-10.688
sjtsj	-10.6885
▁bestemme	-10.6896
assistent	-10.6904
▁hurra	-10.6909
▁pall	-10.6911
▁poll	-10.6921
ucci	-10.6937
sjön	-10.6939
▁diagnos	-10.6949
ción	-10.6953
ground	-10.6983
▁puppeperioden	-10.7022
▁kapittel	-10.7022
▁kriminal	-10.7022
▁abraham	-10.7022
▁jacque	-10.7022
▁ludvig	-10.7022
▁1971	-10.7022
▁1953	-10.7022
infeksjon	-10.7022
▁ytterst	-10.7022
▁inndelingen	-10.7022
▁spania	-10.7024
forsikring	-10.7024
▁bløt	-10.7025
▁domstol	-10.7026
cephal	-10.7027
▁werner	-10.7028
▁barndom	-10.7029
▁stiftelsen	-10.7029
fordeling	-10.7033
▁salix	-10.7035
▁skiller	-10.7037
▁miao	-10.704
▁tibet	-10.7043
▁utenom	-10.7045
▁kaffe	-10.7046
▁ridder	-10.7049
▁stadig	-10.7051
struct	-10.706
schaft	-10.7063
▁karlsen	-10.7069
bahn	-10.7087
fatning	-10.7092
▁hovedrollen	-10.7106
lândia	-10.7115
▁quart	-10.7129
▁erstatte	-10.7134
▁miste	-10.7148
kirche	-10.7148
ector	-10.7153
papir	-10.7166
▁place	-10.7172
direktoratet	-10.7235
▁douglas	-10.7235
▁hybrid	-10.7235
▁ludwig	-10.7235
skilpadde	-10.7235
▁religiøs	-10.7235
▁management	-10.7235
▁inspirert	-10.7235
▁referanse	-10.7235
▁symfoni	-10.7235
rådgiver	-10.7235
▁svovel	-10.7235
▁wagner	-10.7235
▁capital	-10.7235
▁frivillig	-10.7235
▁pseudo	-10.7236
▁diverse	-10.7237
▁videregående	-10.7238
▁columb	-10.7239
▁nkp	-10.7239
▁skotsk	-10.7239
▁embets	-10.724
▁kongsberg	-10.724
▁beregne	-10.7241
▁plateselskap	-10.7244
▁medaljen	-10.7259
metrisk	-10.7268
▁nådd	-10.7272
▁tynn	-10.7285
bevegelse	-10.7288
öll	-10.7306
▁jøde	-10.7309
redskap	-10.7323
▁bekke	-10.7327
▁larve	-10.7341
tekst	-10.7422
ина	-10.744
binding	-10.745
▁mountain	-10.7452
▁aleksander	-10.7452
▁mercedes	-10.7452
▁publikum	-10.7452
▁musikalsk	-10.7452
▁tilføyd	-10.7452
▁buddhist	-10.7452
▁kongedømme	-10.7452
▁piauí	-10.7452
▁colombia	-10.7452
▁håvard	-10.7452
▁høyhastighets	-10.7452
▁1946	-10.7452
▁1958	-10.7452
kompetanse	-10.7452
▁betrakte	-10.7452
▁krydder	-10.7453
▁lewis	-10.7454
▁fauna	-10.7454
▁kjetil	-10.7454
▁opptrer	-10.7454
▁airport	-10.7455
wicz	-10.7457
▁nevø	-10.7458
▁monark	-10.7459
▁command	-10.7461
liknende	-10.7462
▁wilson	-10.7467
▁arvid	-10.7467
▁bedrifts	-10.7487
kollen	-10.749
duksjon	-10.7499
stemte	-10.7507
▁victoria	-10.7522
▁earl	-10.7525
▁avvist	-10.7538
га	-10.7546
▁varemerke	-10.7547
че	-10.7567
från	-10.7571
▁blind	-10.7591
losje	-10.762
artikkel	-10.7667
utbygging	-10.7673
▁vietnam	-10.7674
ский	-10.7674
▁eksperiment	-10.7674
▁philadelphia	-10.7674
▁guvernør	-10.7674
▁juridisk	-10.7674
saksofon	-10.7674
▁hverandre	-10.7674
▁litauisk	-10.7674
▁tvilling	-10.7674
▁1904	-10.7674
▁generelt	-10.7674
▁fenomen	-10.7674
▁stephen	-10.7675
pedagog	-10.7675
▁zhong	-10.7675
▁studioalbum	-10.7675
▁where	-10.7675
▁finskspråklig	-10.7675
▁über	-10.7675
▁redusert	-10.7675
▁alvorlig	-10.7676
▁patriark	-10.7676
▁igjennom	-10.7677
konsernet	-10.7677
▁arnold	-10.7677
▁partner	-10.7677
▁marianne	-10.7677
▁tørke	-10.7678
▁donald	-10.768
▁country	-10.7684
▁hamburg	-10.7688
▁klage	-10.7698
▁diplomat	-10.7701
▁skrå	-10.7703
▁short	-10.7704
▁bedriften	-10.7706
beskrivelse	-10.7708
▁idrettsforening	-10.7708
▁organisert	-10.7722
dyktig	-10.7726
▁marcel	-10.7729
skjegg	-10.7729
▁sovjetisk	-10.775
▁befinne	-10.7752
sæter	-10.7792
aktivitet	-10.7852
sentral	-10.7856
▁aluminium	-10.7901
▁vennskapsbyer	-10.7901
▁langrennsløper	-10.7901
▁ragnhild	-10.7901
▁vedlikehold	-10.7901
vassdraget	-10.7901
▁ferskvann	-10.7901
▁innbyggerne	-10.7901
▁kennedy	-10.7901
▁færøysk	-10.7902
▁vunnet	-10.7902
▁1951	-10.7902
▁1948	-10.7902
▁1935	-10.7902
▁geografisk	-10.7902
▁trompet	-10.7902
▁kjøkken	-10.7902
▁doktorgrad	-10.7902
▁definert	-10.7903
▁bmw	-10.7903
protokoll	-10.7903
▁taiwan	-10.7904
▁hovedartikkel	-10.7907
▁strekningen	-10.7909
▁finnmark	-10.7909
▁novell	-10.7911
▁bevart	-10.7913
forsterker	-10.7916
verktøy	-10.7922
tropi	-10.793
▁ungdomsskole	-10.7943
▁gudinne	-10.7947
sponsor	-10.7954
▁slange	-10.796
fødte	-10.7977
▁lykke	-10.8018
▁hospital	-10.8053
▁result	-10.8055
departement	-10.8063
▁branc	-10.8067
▁datterselskap	-10.8078
▁fullstendig	-10.8134
▁generalmajor	-10.8134
▁infanteri	-10.8134
▁keyboard	-10.8134
funnstedet	-10.8134
▁medvirkende	-10.8134
▁oppstår	-10.8134
▁1924	-10.8134
▁1945	-10.8134
▁1937	-10.8134
▁artilleri	-10.8134
▁would	-10.8134
▁uigur	-10.8134
▁nedbør	-10.8134
grunnsstasjon	-10.8134
script	-10.8135
▁nemlig	-10.8135
▁eventuel	-10.8135
▁oppdaget	-10.8135
▁endringer	-10.8139
▁armensk	-10.814
▁2018	-10.8141
▁stryk	-10.8141
▁bundes	-10.8142
▁spredt	-10.8143
▁moore	-10.8144
vytsj	-10.8145
▁1919	-10.8145
▁tegl	-10.8146
▁bensin	-10.815
▁ørken	-10.815
treng	-10.815
ifikasjon	-10.815
▁again	-10.8151
▁lisens	-10.8158
messe	-10.8165
▁embeds	-10.817
hvelv	-10.8172
▁oversette	-10.8249
▁årsak	-10.8278
lokale	-10.8319
▁brødrene	-10.8372
▁research	-10.8372
▁trommeslager	-10.8372
▁utgangspunkt	-10.8372
terapeut	-10.8372
▁selvstendig	-10.8372
▁umiddelbar	-10.8372
▁utdødd	-10.8372
▁electro	-10.8372
▁1902	-10.8372
▁taylor	-10.8372
▁1956	-10.8372
▁1929	-10.8372
▁1939	-10.8372
▁fengsel	-10.8372
▁strategi	-10.8372
▁1896	-10.8372
stråling	-10.8373
▁detroit	-10.8373
▁innsats	-10.8373
▁flerårig	-10.8373
▁øivin	-10.8373
▁færøyene	-10.8373
▁nærmere	-10.8374
▁fjernsyn	-10.8375
▁akutt	-10.8375
▁litterær	-10.8376
egenskaper	-10.8379
▁turneringen	-10.8381
▁xiao	-10.8384
▁brent	-10.8414
▁hvile	-10.8422
▁barneskole	-10.8441
forsamlingen	-10.8442
familie	-10.8471
beskyttelse	-10.8486
overføring	-10.8528
nevnte	-10.8553
slipp	-10.8562
arkitekt	-10.858
jernbane	-10.8582
lengde	-10.8607
publikasjon	-10.8616
▁joachim	-10.8616
▁symphon	-10.8616
▁frazioni	-10.8616
▁xinjiang	-10.8616
▁amundsen	-10.8616
▁frederick	-10.8616
▁hjørne	-10.8616
▁palestin	-10.8616
▁reklame	-10.8616
sylindre	-10.8617
▁haakon	-10.8617
▁ungarn	-10.8617
ου	-10.8617
▁brensel	-10.8618
jīng	-10.8619
▁kelly	-10.862
▁arendal	-10.862
▁programvare	-10.862
▁lengre	-10.8626
▁death	-10.8629
▁gratis	-10.8629
▁formula	-10.863
▁bygninger	-10.863
▁glenn	-10.8631
pond	-10.8635
▁effektiv	-10.8638
▁birgit	-10.8645
bestemmelse	-10.8654
▁hytte	-10.8751
ophil	-10.8751
▁assist	-10.8801
▁astronom	-10.8837
▁anerkjenne	-10.8866
▁ortodoks	-10.8866
▁sebastian	-10.8866
▁manuskript	-10.8866
▁oksygen	-10.8866
▁technology	-10.8866
▁pakistan	-10.8866
▁limited	-10.8866
▁kombinert	-10.8866
▁1905	-10.8866
▁ovenfor	-10.8866
▁1936	-10.8866
▁1954	-10.8866
▁vietnamesisk	-10.8866
▁1933	-10.8866
▁wylie	-10.8866
forurensning	-10.8866
▁situasjon	-10.8866
▁søndag	-10.8866
▁regelmessig	-10.8867
opplæring	-10.8867
▁bærum	-10.8868
▁griff	-10.8868
▁bernhard	-10.8868
▁flytende	-10.8869
▁valgspråk	-10.8869
▁sergej	-10.8869
▁arbeiderpartiet	-10.887
▁kristelig	-10.8871
▁gerhard	-10.8871
▁terreng	-10.8871
▁tropisk	-10.8875
açu	-10.8878
▁trenger	-10.8879
▁elsker	-10.8879
▁heath	-10.8883
vandring	-10.8884
▁rifle	-10.8889
▁fasci	-10.8928
festival	-10.8962
foretak	-10.9001
▁nevnt	-10.9023
kansler	-10.9025
▁utnevnt	-10.9036
interesser	-10.9116
▁microsoft	-10.9122
▁illustrer	-10.9122
▁involver	-10.9122
konservativ	-10.9122
▁benjamin	-10.9122
▁vilhelm	-10.9122
▁cappelen	-10.9123
▁sosialdemokrat	-10.9123
▁ekstrem	-10.9123
▁charlotte	-10.9123
▁prince	-10.9123
høvding	-10.9123
▁hovedpersonen	-10.9123
regulering	-10.9124
▁muslim	-10.9124
▁utenlandsk	-10.9124
▁hertug	-10.9125
▁kobber	-10.9126
▁ronald	-10.9127
▁ekteskap	-10.9128
▁claus	-10.9128
▁forbruker	-10.9133
▁elektr	-10.9136
tilsynet	-10.9136
▁søndr	-10.9137
▁jernbanestasjon	-10.9148
svermer	-10.9166
stigning	-10.9174
▁krevd	-10.9175
forsyning	-10.9179
▁direct	-10.9186
▁nøtte	-10.9207
▁tilfelle	-10.9223
læg	-10.9268
väg	-10.9345
▁afghanistan	-10.9386
▁valgdeltakelse	-10.9386
▁anthony	-10.9386
▁frankfurt	-10.9386
▁oppdatert	-10.9386
▁hyppig	-10.9386
leksikon	-10.9386
▁1949	-10.9386
▁1927	-10.9386
▁veksel	-10.9386
▁eivind	-10.9386
▁kroatisk	-10.9386
▁grün	-10.9387
▁storkommunen	-10.9387
▁visepresident	-10.9387
▁jørn	-10.9388
στ	-10.9388
klinikk	-10.9389
▁monroe	-10.9389
betjent	-10.9389
gericht	-10.9392
kobling	-10.9394
▁control	-10.9395
▁nederst	-10.9403
▁sanct	-10.9425
▁innerst	-10.9447
▁sokn	-10.9533
statistikk	-10.9534
▁sovjet	-10.9564
litteratur	-10.9647
døgnfluer	-10.9653
▁undergrunnsbane	-10.9656
▁portugisisk	-10.9656
▁sarpsborg	-10.9656
▁svalbard	-10.9656
▁tortricidae	-10.9656
▁petroleum	-10.9656
▁utbredt	-10.9656
▁tilsammen	-10.9656
▁buddha	-10.9656
▁за	-10.9656
▁claude	-10.9656
▁forsvant	-10.9656
▁kalsium	-10.9656
▁söder	-10.9656
▁jødisk	-10.9656
▁biologisk	-10.9657
▁bård	-10.9657
mekanisme	-10.9657
▁søvn	-10.9658
▁serbia	-10.9658
▁styremedlem	-10.9658
▁barokk	-10.966
▁uefa	-10.9661
▁alpinisten	-10.9662
▁ulykke	-10.9662
▁betong	-10.9664
▁forbud	-10.9665
føderasjon	-10.9669
▁stedsnavn	-10.967
følelse	-10.9672
▁spyd	-10.9688
høyskole	-10.9703
▁quint	-10.9711
▁geometri	-10.9718
ribbe	-10.9767
▁overføre	-10.981
▁baksid	-10.9861
▁aftenposten	-10.9934
▁begynnelse	-10.9934
▁frigjøring	-10.9934
▁inskripsjon	-10.9934
▁network	-10.9934
▁substantiv	-10.9934
▁gjaldt	-10.9934
▁innflytelse	-10.9934
▁through	-10.9934
▁keramikk	-10.9934
budsjett	-10.9934
▁århundre	-10.9934
▁lørdag	-10.9934
kommandør	-10.9934
▁1942	-10.9934
▁1947	-10.9934
▁1938	-10.9934
▁björn	-10.9934
leverandør	-10.9934
▁special	-10.9934
▁registrering	-10.9934
▁nelson	-10.9934
▁stephan	-10.9935
▁luigi	-10.9935
▁syssel	-10.9935
krishna	-10.9935
▁forbedre	-10.9935
▁christensen	-10.9936
ansvaret	-10.9936
▁belgisk	-10.9936
▁kallenavne	-10.9938
qvist	-10.9939
mouth	-10.9951
▁castle	-10.9954
▁fremstilt	-10.9987
konsert	-11.0052
turnering	-11.0153
innehaver	-11.0168
▁lawrence	-11.0219
▁slovakisk	-11.0219
▁erkebiskop	-11.0219
▁sjokolade	-11.0219
▁windows	-11.0219
▁hongkong	-11.0219
▁gjøvik	-11.0219
▁halvorsen	-11.0219
▁skottland	-11.0219
▁bystatus	-11.0219
▁zhōng	-11.0219
▁english	-11.0219
▁1906	-11.0219
▁eksisterer	-11.022
▁australsk	-11.022
▁minutter	-11.022
▁toronto	-11.022
▁1888	-11.022
teatret	-11.022
▁stortinget	-11.022
▁slovensk	-11.0221
▁wessel	-11.0222
▁fylkeskommune	-11.0223
opptreden	-11.0223
▁bremse	-11.0227
▁generell	-11.0228
▁anatol	-11.0242
▁ivareta	-11.0257
vokter	-11.0264
▁plantefamilie	-11.0274
▁døgnflue	-11.0301
region	-11.0303
▁drenere	-11.0316
clair	-11.0348
vokst	-11.0372
▁statisti	-11.0482
▁absolut	-11.0513
▁ferdinand	-11.0513
▁göteborg	-11.0513
▁jesuittordenen	-11.0513
▁liechtenstein	-11.0513
▁magazine	-11.0513
▁trøndelag	-11.0513
▁østerriksk	-11.0513
▁champion	-11.0513
▁rebekka	-11.0513
sykepleier	-11.0513
▁tønsberg	-11.0513
øyenstikker	-11.0513
▁vertikal	-11.0513
▁anastasi	-11.0513
▁stridsvogn	-11.0513
▁waldemar	-11.0513
▁raymond	-11.0513
konsulent	-11.0514
▁benedict	-11.0514
▁1909	-11.0514
▁testament	-11.0514
▁1944	-11.0514
▁1934	-11.0514
▁oxford	-11.0514
▁grunnkretsen	-11.0514
▁montreal	-11.0514
▁ålesund	-11.0514
▁trønder	-11.0514
▁fellow	-11.0514
▁valutakode	-11.0514
▁sandefjord	-11.0514
▁kommersiell	-11.0514
▁originaltittel	-11.0514
▁essay	-11.0514
▁prosessor	-11.0514
▁differen	-11.0515
▁steffen	-11.0515
▁second	-11.0515
praksis	-11.0515
▁buffa	-11.0516
konvensjon	-11.0516
nnebærer	-11.0517
▁føderal	-11.0517
▁gjær	-11.0519
▁søsken	-11.0519
▁smelte	-11.0522
▁jurist	-11.0526
▁koreograf	-11.0526
europeisk	-11.0529
kjørte	-11.0536
relasjon	-11.0609
deutsch	-11.0625
▁asteroid	-11.0724
vennlig	-11.0743
▁beseiret	-11.0816
▁bulgaria	-11.0816
▁jerusalem	-11.0816
▁vancouver	-11.0816
▁foundation	-11.0816
▁kinamisjonær	-11.0816
▁salvador	-11.0816
▁selvbiografi	-11.0816
▁wergeland	-11.0816
▁kvadrat	-11.0816
▁gundersen	-11.0817
▁mexico	-11.0817
▁kroatia	-11.0817
▁vesentlig	-11.0817
▁simpson	-11.0817
▁overlevde	-11.0817
▁trebukker	-11.0817
▁heavy	-11.0817
▁1844	-11.0817
▁ekspress	-11.0817
▁express	-11.0817
▁fjelltopp	-11.0817
stimulere	-11.0817
▁jelena	-11.0817
▁walisisk	-11.0817
▁belgia	-11.0818
▁ntnu	-11.0818
▁klinisk	-11.0819
kirurgi	-11.0819
bransjen	-11.0826
▁isabel	-11.0829
befolkning	-11.0842
provinsen	-11.0843
▁svekke	-11.0849
givelse	-11.0865
pølse	-11.0868
▁grevskape	-11.0898
▁markedsføre	-11.0917
mottaker	-11.0953
signal	-11.1009
▁respons	-11.1057
▁monument	-11.1082
kommanderende	-11.1129
▁barcelona	-11.1129
▁billedhugger	-11.1129
▁california	-11.1129
▁cerambyc	-11.1129
▁fakultet	-11.1129
helikopter	-11.1129
▁nacional	-11.1129
▁skøyteløper	-11.1129
▁elefant	-11.1129
▁leopold	-11.1129
▁antagelig	-11.1129
▁html	-11.1129
▁sūtra	-11.1129
▁antarktis	-11.1129
þ	-11.22
ć	-11.2231
ș	-13.0567
ñ	-13.0568
