<unk>	0
<s>	0
</s>	0
.	-3.04168
s	-3.26309
e	-3.58419
▁	-3.59825
t	-4.00048
er	-4.09035
en	-4.1589
▁og	-4.35022
▁i	-4.47694
r	-4.60375
▁er	-4.67614
a	-4.75492
n	-4.79586
et	-5.03935
▁av	-5.20452
i	-5.23389
o	-5.30598
d	-5.31691
▁for	-5.40486
k	-5.41373
y	-5.50177
▁en	-5.56174
▁var	-5.65624
m	-5.67203
▁til	-5.68427
▁på	-5.68768
▁som	-5.70881
▁med	-5.72804
g	-5.76014
▁de	-5.79129
ne	-5.81571
ene	-5.83186
te	-5.86121
▁har	-5.97295
l	-6.00058
f	-6.04891
▁den	-6.05378
p	-6.06954
▁fra	-6.08496
h	-6.096
c	-6.11807
de	-6.12239
in	-6.13723
b	-6.18294
u	-6.1996
▁s	-6.21939
es	-6.24205
v	-6.24397
an	-6.26667
ing	-6.27487
us	-6.27611
▁a	-6.29731
▁ble	-6.32233
al	-6.3492
le	-6.3903
▁et	-6.40016
na	-6.4044
▁be	-6.40597
re	-6.41823
▁det	-6.43716
on	-6.47494
is	-6.53121
z	-6.54855
▁p	-6.5603
▁han	-6.59104
ar	-6.60776
▁the	-6.61344
▁eller	-6.64296
▁ved	-6.64435
x	-6.65078
▁også	-6.65988
▁ut	-6.67123
ter	-6.67806
j	-6.69665
▁k	-6.71889
▁to	-6.71926
4	-6.73778
▁under	-6.7395
▁kan	-6.74096
um	-6.74925
▁m	-6.75885
▁d	-6.75904
▁å	-6.76788
sk	-6.77556
ch	-6.77742
▁f	-6.78374
w	-6.78459
ri	-6.80354
ta	-6.80884
2	-6.80907
3	-6.81814
ia	-6.83963
5	-6.85284
or	-6.86197
la	-6.87352
ra	-6.87739
▁la	-6.87769
8	-6.88906
6	-6.90579
ma	-6.9062
▁c	-6.9128
ke	-6.91525
7	-6.91715
li	-6.91788
▁opp	-6.93364
▁over	-6.93398
ur	-6.93731
▁om	-6.93892
el	-6.94365
▁an	-6.95414
il	-6.97003
▁b	-6.98321
▁g	-6.98592
▁u	-6.99043
▁in	-6.99129
ens	-6.99209
0	-6.99773
▁se	-7.0008
é	-7.01829
▁18	-7.02647
1	-7.03351
▁inn	-7.03729
ng	-7.04686
ka	-7.05172
ck	-7.05364
land	-7.05437
▁al	-7.06232
▁h	-7.07265
▁etter	-7.08255
der	-7.08751
da	-7.08926
ve	-7.10181
di	-7.10644
▁andre	-7.11613
ler	-7.12919
▁re	-7.13522
nes	-7.13732
ga	-7.13972
9	-7.15129
id	-7.15265
ende	-7.15496
▁da	-7.15577
ø	-7.16447
▁t	-7.18648
▁ha	-7.19277
ge	-7.1985
ja	-7.2025
▁and	-7.21443
▁of	-7.21463
▁ligger	-7.21575
ger	-7.21804
as	-7.23235
be	-7.24235
isk	-7.24637
▁l	-7.2529
▁le	-7.25357
ro	-7.26524
▁sa	-7.2705
▁na	-7.28005
stad	-7.2829
at	-7.28423
to	-7.28483
▁no	-7.29224
vi	-7.29457
▁n	-7.29773
ed	-7.30965
ko	-7.31649
ver	-7.32345
son	-7.32363
os	-7.32487
▁st	-7.32729
▁bo	-7.32789
ut	-7.33167
▁ca	-7.3343
▁ro	-7.33615
▁o	-7.33887
va	-7.3463
▁co	-7.34985
øy	-7.36138
▁ra	-7.36327
▁tre	-7.36723
man	-7.37269
▁di	-7.37514
▁hoved	-7.37866
lig	-7.38041
ff	-7.38333
bo	-7.38461
ton	-7.38482
▁man	-7.38685
▁he	-7.39203
th	-7.39718
nde	-7.39864
▁at	-7.40077
▁her	-7.40142
▁li	-7.40262
lo	-7.40781
me	-7.41073
ner	-7.4279
▁vi	-7.44208
ad	-7.44319
▁po	-7.44356
den	-7.44448
▁do	-7.44478
ul	-7.44808
▁j	-7.45029
▁v	-7.45174
ig	-7.45791
ker	-7.45818
▁blant	-7.46161
ol	-7.46164
å	-7.46457
▁mo	-7.46476
co	-7.46531
it	-7.47666
mi	-7.47792
iske	-7.47814
tor	-7.48339
▁si	-7.49039
ti	-7.49243
▁sp	-7.49247
▁w	-7.49594
▁mot	-7.49645
▁nord	-7.5017
mo	-7.50327
ic	-7.5053
▁hans	-7.50783
▁ma	-7.50843
á	-7.50947
▁ho	-7.51747
berg	-7.51915
ba	-7.52276
▁pa	-7.53267
ir	-7.54295
▁ni	-7.54683
ha	-7.55225
▁ta	-7.5524
▁gjennom	-7.5564
ning	-7.56078
ina	-7.56114
om	-7.56393
mp	-7.56527
ly	-7.56556
dal	-7.56686
▁r	-7.56834
ce	-7.57306
gen	-7.57411
ell	-7.5751
▁kon	-7.5771
for	-7.58472
var	-7.58828
▁lo	-7.59559
ry	-7.59658
▁sin	-7.59819
▁ga	-7.60066
▁du	-7.60604
▁men	-7.60834
▁mar	-7.61289
ske	-7.61725
▁per	-7.6276
▁stor	-7.63275
kt	-7.63648
▁fa	-7.64329
▁kalles	-7.6433
▁as	-7.64687
pe	-7.64753
▁ti	-7.65619
ling	-7.66597
ste	-7.66705
ik	-7.6729
▁so	-7.67337
▁ri	-7.67836
by	-7.6851
í	-7.68801
lige	-7.69113
▁pro	-7.69214
no	-7.69689
vis	-7.69744
do	-7.69816
▁hadde	-7.6999
kk	-7.70055
▁am	-7.70188
▁ru	-7.70216
▁ka	-7.70413
ion	-7.70516
mann	-7.70664
▁kinesisk	-7.70888
▁by	-7.70894
erte	-7.71177
am	-7.71211
si	-7.71257
ør	-7.7162
bi	-7.72301
vik	-7.72483
▁mellom	-7.72484
▁me	-7.72677
▁ny	-7.72805
▁su	-7.73151
▁te	-7.73197
mer	-7.73608
▁der	-7.73784
gi	-7.73876
æ	-7.74101
op	-7.74291
un	-7.7458
ci	-7.74727
▁mor	-7.75201
▁ba	-7.75229
▁or	-7.75309
▁sch	-7.75349
ca	-7.75941
bu	-7.76005
▁1	-7.76189
ist	-7.76495
▁seg	-7.76613
je	-7.77066
▁dette	-7.77148
▁bar	-7.77276
▁pi	-7.77311
tter	-7.77971
▁el	-7.78239
het	-7.78947
▁ko	-7.79059
ant	-7.79197
▁lu	-7.7929
po	-7.79318
ov	-7.80467
▁bi	-7.81428
tt	-7.82021
ster	-7.82028
sh	-7.82066
▁tor	-7.83191
▁flere	-7.83574
ho	-7.83595
ment	-7.83782
▁z	-7.83827
io	-7.83841
▁hun	-7.84361
▁del	-7.84594
pa	-7.84709
▁2	-7.84871
ö	-7.84906
▁ikke	-7.85114
ns	-7.85576
▁sol	-7.86085
▁sammen	-7.86293
▁fri	-7.86513
ie	-7.86534
gu	-7.87231
ä	-7.87438
au	-7.87981
▁ar	-7.88493
▁denne	-7.88511
▁jo	-7.8879
ni	-7.89084
▁gu	-7.89088
ki	-7.89302
▁disse	-7.89635
ica	-7.91424
▁bu	-7.92573
▁ja	-7.92884
ven	-7.92888
gg	-7.93121
tra	-7.93346
▁første	-7.93768
▁kom	-7.94228
ung	-7.94485
im	-7.94985
skap	-7.95296
▁ju	-7.95717
od	-7.96057
▁født	-7.96352
else	-7.96614
lu	-7.96629
go	-7.96644
▁16	-7.96783
ring	-7.9684
▁hu	-7.96915
per	-7.97107
▁vest	-7.97595
ac	-7.97605
ær	-7.97656
▁ne	-7.97677
▁x	-7.97808
▁tilhører	-7.97869
▁car	-7.97904
ard	-7.9801
▁fikk	-7.98541
▁con	-7.99324
▁far	-7.99582
pi	-7.99764
▁land	-8.00222
ian	-8.00242
men	-8.00749
▁sør	-8.0093
▁min	-8.02486
ium	-8.0254
▁y	-8.02825
wa	-8.0334
▁gi	-8.03391
▁sam	-8.03668
kke	-8.03843
▁fly	-8.04164
▁kommune	-8.0456
▁pe	-8.04686
tal	-8.04812
ou	-8.05013
rett	-8.05339
▁samt	-8.0534
sta	-8.05532
▁alle	-8.05739
nd	-8.06059
▁blir	-8.06175
hu	-8.06372
ine	-8.06523
ak	-8.06574
▁tra	-8.06964
itt	-8.07435
ru	-8.07462
iv	-8.07553
ek	-8.07565
ü	-8.07566
▁finnes	-8.07603
▁ab	-8.07606
min	-8.07686
▁go	-8.07998
▁ge	-8.08181
av	-8.08328
▁ei	-8.08605
▁tidligere	-8.08662
del	-8.08927
hold	-8.09123
asjon	-8.09258
▁lag	-8.09532
▁ad	-8.10006
sel	-8.10639
▁bestå	-8.10664
ot	-8.10827
ud	-8.10917
ord	-8.11287
▁bak	-8.12047
sch	-8.12165
▁mi	-8.12458
lin	-8.12849
ation	-8.13158
erne	-8.13271
▁øst	-8.14089
år	-8.1455
▁byen	-8.14696
ering	-8.14877
lag	-8.14946
elle	-8.15201
fa	-8.15554
ken	-8.15648
▁bra	-8.15737
▁navn	-8.15953
▁annet	-8.16441
▁tri	-8.16514
dre	-8.16584
▁mer	-8.1672
▁cha	-8.16897
ku	-8.17011
▁navnet	-8.17333
ty	-8.17459
idae	-8.1757
em	-8.17648
sp	-8.1767
▁ag	-8.17704
▁val	-8.17775
▁omfatter	-8.17835
▁kalt	-8.17932
▁all	-8.18018
▁hel	-8.18058
ó	-8.18574
tar	-8.18847
ede	-8.18917
▁ch	-8.19101
pp	-8.19121
▁ver	-8.193
▁san	-8.19434
over	-8.19475
▁wi	-8.19497
▁russisk	-8.2012
und	-8.20688
▁sk	-8.20753
▁ned	-8.20781
ow	-8.20866
▁3	-8.21066
tre	-8.2112
hus	-8.21182
hi	-8.21365
ber	-8.21616
▁ki	-8.21832
▁va	-8.2187
vin	-8.22191
▁jan	-8.22244
bb	-8.22305
▁så	-8.22521
he	-8.22605
и	-8.22886
▁tro	-8.22987
ny	-8.23172
▁ski	-8.23183
mb	-8.23265
mar	-8.23791
ā	-8.2427
▁17	-8.2443
▁on	-8.24514
▁pre	-8.24641
opp	-8.24915
za	-8.25005
о	-8.25095
▁nå	-8.25158
les	-8.25479
▁ben	-8.25877
yl	-8.25977
▁heter	-8.26025
tan	-8.26126
▁we	-8.26279
▁være	-8.26764
▁my	-8.26985
▁følgende	-8.27587
▁mens	-8.27591
▁vann	-8.27691
ley	-8.27846
00	-8.27913
ting	-8.27918
▁nor	-8.28041
fi	-8.28177
ikk	-8.28226
▁pu	-8.28291
stein	-8.28407
▁frem	-8.2851
▁op	-8.29142
tion	-8.29259
▁lang	-8.29278
jo	-8.29473
▁5	-8.30259
sson	-8.30388
▁fi	-8.30392
kel	-8.30542
and	-8.30556
▁tu	-8.30662
▁sal	-8.30698
ld	-8.30898
ong	-8.30961
▁før	-8.31008
ok	-8.31009
sten	-8.31568
tu	-8.31807
▁mange	-8.32096
▁berg	-8.32196
familien	-8.32427
▁betyr	-8.32616
ang	-8.32712
dag	-8.33245
▁kar	-8.33289
▁bro	-8.33551
sted	-8.33595
▁col	-8.33637
ag	-8.33675
inyin	-8.33856
mon	-8.3398
ron	-8.33996
▁vel	-8.34066
▁vil	-8.34075
bel	-8.34239
▁mel	-8.3472
fe	-8.34805
▁dag	-8.34819
▁ofte	-8.3539
▁norsk	-8.35879
tall	-8.35994
▁ur	-8.36401
ya	-8.36793
▁skal	-8.37458
ll	-8.3754
▁selv	-8.37663
mor	-8.37687
▁th	-8.37729
▁fire	-8.38108
heim	-8.38322
▁ke	-8.38505
lan	-8.38554
▁mat	-8.38555
▁år	-8.38998
▁john	-8.3927
▁går	-8.3929
▁sand	-8.39616
ren	-8.39669
▁syn	-8.39923
elsen	-8.4005
▁lever	-8.40238
▁operatør	-8.40255
▁folke	-8.40312
tte	-8.40334
bar	-8.40671
ier	-8.41178
▁store	-8.41187
lands	-8.41216
▁kirke	-8.41412
▁små	-8.41426
dalen	-8.41696
▁19	-8.419
▁fu	-8.42127
inn	-8.42312
▁4	-8.42351
ius	-8.42747
ningen	-8.42774
ris	-8.43017
▁sta	-8.43186
ill	-8.43348
▁hus	-8.43429
▁fe	-8.43516
kker	-8.43561
▁nu	-8.43562
est	-8.43629
tisk	-8.43678
▁ste	-8.43728
▁stein	-8.4403
är	-8.44178
▁mu	-8.44239
▁rød	-8.44259
ug	-8.44754
ji	-8.44957
▁liste	-8.44958
▁2002	-8.45013
▁och	-8.45367
▁familien	-8.45399
▁par	-8.45487
▁sc	-8.45534
q	-8.456
ze	-8.45633
е	-8.45735
▁sitt	-8.45823
▁kor	-8.46052
▁mål	-8.46181
▁bru	-8.46371
▁største	-8.46801
ju	-8.46933
dy	-8.47118
chi	-8.47191
▁mal	-8.47313
▁chi	-8.47411
ret	-8.47661
▁fo	-8.48409
▁moh	-8.48418
▁ed	-8.48441
art	-8.48683
▁ku	-8.48722
▁eks	-8.491
▁brun	-8.49306
sti	-8.49329
met	-8.49352
len	-8.49353
▁musikk	-8.49399
til	-8.49481
▁innen	-8.49542
we	-8.49811
tri	-8.4984
▁bre	-8.49958
ú	-8.50025
▁nær	-8.50115
ingen	-8.50263
zi	-8.50486
▁can	-8.50581
borg	-8.50901
burg	-8.50914
▁au	-8.50972
▁com	-8.50991
▁inneholder	-8.51018
▁ham	-8.51041
▁flaggbærer	-8.51179
pningsseremonien	-8.51415
▁sig	-8.51535
bil	-8.51735
▁mon	-8.51747
▁høy	-8.5264
gang	-8.52647
▁folketelling	-8.52842
án	-8.53325
▁20	-8.53534
bro	-8.53831
▁hos	-8.53852
veien	-8.53961
bre	-8.53982
▁parti	-8.54045
▁fin	-8.54064
▁engelsk	-8.54169
▁af	-8.54305
vo	-8.54324
tz	-8.54427
siden	-8.54541
▁spilt	-8.54568
verk	-8.54721
che	-8.54771
▁langs	-8.54807
▁mest	-8.54835
kar	-8.54922
▁pan	-8.55457
▁kunst	-8.55481
mmer	-8.55672
▁ol	-8.55926
▁laget	-8.55957
ino	-8.5606
nings	-8.56298
val	-8.56393
vel	-8.56723
let	-8.56966
ach	-8.57199
▁gjen	-8.5746
kon	-8.57485
tur	-8.57576
▁leder	-8.57642
▁øy	-8.57786
ologi	-8.57792
hr	-8.57881
du	-8.5802
▁shi	-8.58313
ps	-8.58323
ah	-8.58431
ft	-8.58668
▁bor	-8.58722
▁gir	-8.58871
▁senere	-8.59098
sjon	-8.59169
▁rundt	-8.59174
▁energi	-8.59293
su	-8.59381
▁vant	-8.59458
▁sønn	-8.5948
ans	-8.59498
▁gen	-8.59787
han	-8.59829
▁død	-8.59947
ran	-8.60217
▁vo	-8.60395
▁verdens	-8.60421
▁fjell	-8.60533
▁sh	-8.60582
ct	-8.6068
▁kommunen	-8.60704
▁os	-8.60712
tin	-8.60825
▁wa	-8.60895
▁hal	-8.60896
ham	-8.61042
folkerepublikken	-8.61078
▁film	-8.61093
▁ak	-8.61292
if	-8.61468
▁br	-8.61704
▁gar	-8.61707
ari	-8.61938
а	-8.62035
tten	-8.6204
▁tid	-8.62054
▁div	-8.62076
▁ex	-8.62083
ana	-8.62235
▁kjente	-8.6229
▁grunn	-8.62434
ska	-8.62572
▁dr	-8.62662
▁fag	-8.62772
▁skole	-8.62967
selskapet	-8.63007
▁art	-8.63046
cu	-8.63148
par	-8.63273
gård	-8.63431
▁fram	-8.63442
▁bl	-8.63691
▁hy	-8.6378
ð	-8.63876
mme	-8.63968
vet	-8.64012
д	-8.64246
▁kr	-8.6433
ini	-8.64591
stand	-8.64591
▁vis	-8.6461
rik	-8.64811
▁gra	-8.64875
dd	-8.64969
fjorden	-8.65151
far	-8.65256
▁god	-8.65285
▁sha	-8.65298
▁new	-8.65406
▁anti	-8.65566
▁gul	-8.65629
▁hol	-8.65747
stre	-8.66037
▁rom	-8.66073
▁paul	-8.66115
▁juli	-8.66144
▁pr	-8.66212
tak	-8.66219
▁kra	-8.66378
dyr	-8.665
▁fem	-8.66578
▁noen	-8.66588
▁van	-8.66636
▁sel	-8.66698
▁un	-8.66889
yn	-8.66991
mu	-8.6718
gar	-8.67438
øya	-8.67596
gh	-8.67939
ola	-8.68213
▁skrev	-8.68248
ita	-8.6831
fly	-8.6844
ab	-8.68556
è	-8.68609
▁peter	-8.68634
▁alt	-8.68772
ara	-8.68775
▁7	-8.68796
ding	-8.68895
ör	-8.68941
inger	-8.69061
▁15	-8.69162
▁inkluderer	-8.69253
bruk	-8.69341
bok	-8.69596
▁sjø	-8.6972
▁ty	-8.69741
tid	-8.69757
▁kommer	-8.69832
▁za	-8.69957
▁sj	-8.70073
sse	-8.70084
klubb	-8.70167
▁bal	-8.70252
▁bas	-8.70333
▁spiller	-8.70637
▁hav	-8.70651
▁stat	-8.70941
▁må	-8.70959
▁kal	-8.71225
slag	-8.71416
▁bjørn	-8.71461
sto	-8.7149
▁mag	-8.71544
fin	-8.7161
tiske	-8.71956
sund	-8.71986
▁lå	-8.72137
▁kjent	-8.72167
▁post	-8.72179
ph	-8.72207
ich	-8.72246
α	-8.72351
▁8	-8.72428
▁mc	-8.72532
▁vei	-8.72554
kan	-8.72656
fra	-8.72855
my	-8.72986
▁pri	-8.7314
▁skog	-8.7346
▁hvor	-8.73537
▁bur	-8.73644
▁bok	-8.73808
▁9	-8.73813
up	-8.73825
▁sø	-8.73896
dra	-8.74106
▁tekst	-8.74237
▁ve	-8.74258
▁kla	-8.74293
samling	-8.74333
▁like	-8.74523
øl	-8.74726
▁dem	-8.7473
▁tar	-8.74762
▁von	-8.74823
itet	-8.74827
à	-8.74931
ice	-8.75122
ula	-8.75134
▁dan	-8.75159
▁roman	-8.75171
▁jord	-8.75177
▁bil	-8.75213
▁em	-8.75228
lse	-8.75334
råd	-8.75378
▁plan	-8.75496
▁ul	-8.75775
laget	-8.75839
▁ci	-8.7594
▁gud	-8.76045
ninger	-8.76047
▁representert	-8.76172
ep	-8.76264
▁kinas	-8.76407
▁natur	-8.76422
bl	-8.7645
ī	-8.76562
xi	-8.76635
skog	-8.76956
▁fast	-8.76975
▁innenfor	-8.77194
▁gr	-8.77241
▁norge	-8.77252
mester	-8.77318
mål	-8.7735
ppe	-8.77465
eres	-8.77507
▁ry	-8.77516
▁grav	-8.77543
▁valg	-8.77823
vann	-8.77866
dan	-8.78089
fjord	-8.78091
ther	-8.78122
▁norske	-8.78128
senter	-8.78179
▁ob	-8.78248
tro	-8.78355
▁ord	-8.78469
▁kina	-8.78583
rin	-8.78601
▁10	-8.7872
ble	-8.78735
led	-8.78738
sett	-8.78939
▁para	-8.79119
▁kultur	-8.79164
▁vin	-8.79265
▁band	-8.79292
▁dy	-8.79575
▁sl	-8.79591
▁innbyggertall	-8.79594
hl	-8.79639
hy	-8.79748
▁mark	-8.79817
kken	-8.79843
form	-8.79848
▁km	-8.80053
т	-8.80201
▁mil	-8.80422
▁cor	-8.80474
▁fiske	-8.80512
▁ren	-8.80562
▁lys	-8.80876
satt	-8.809
▁mars	-8.8092
▁ly	-8.80981
uk	-8.81
▁port	-8.81107
lia	-8.81357
▁lind	-8.81402
▁kort	-8.81403
▁martin	-8.81607
▁besto	-8.81699
▁landet	-8.81702
▁barne	-8.81709
▁kun	-8.81802
▁sen	-8.81965
▁christian	-8.82169
▁lav	-8.82277
▁thor	-8.82287
▁svensk	-8.82322
▁q	-8.82481
▁6	-8.82594
▁står	-8.82595
▁brukes	-8.82655
ani	-8.82678
ano	-8.83046
▁rø	-8.8316
▁ap	-8.83173
▁tur	-8.83178
▁kje	-8.83229
▁mak	-8.83234
▁för	-8.83239
▁slik	-8.83246
▁mai	-8.83267
▁tom	-8.8332
ath	-8.83573
▁und	-8.83626
fo	-8.83738
ij	-8.83771
que	-8.83797
lie	-8.83819
▁august	-8.84076
og	-8.84163
▁sil	-8.8419
▁bruker	-8.84232
drag	-8.84235
▁gift	-8.84272
ay	-8.8429
▁pra	-8.8441
▁gresk	-8.84519
▁die	-8.84539
▁hovedstad	-8.84652
▁gre	-8.84866
ida	-8.85181
▁erik	-8.85209
gel	-8.85384
š	-8.85393
▁ber	-8.85618
▁cas	-8.85629
ild	-8.85651
▁dia	-8.85665
▁bø	-8.85733
▁videre	-8.85775
ving	-8.85845
vær	-8.85867
mark	-8.86003
▁robert	-8.86129
▁pat	-8.86158
▁arm	-8.86189
ført	-8.86249
spill	-8.86375
▁tv	-8.86478
red	-8.86707
▁you	-8.87139
▁jeg	-8.87189
bø	-8.87438
ap	-8.8746
▁siden	-8.87488
▁oslo	-8.87521
▁gruppen	-8.87625
pu	-8.87738
▁2006	-8.87742
▁selskapet	-8.87747
isme	-8.87917
▁eu	-8.87984
▁eksempel	-8.88082
▁opprinnelig	-8.88082
▁class	-8.88209
▁vår	-8.88221
▁hi	-8.88291
mat	-8.88336
ære	-8.88382
kh	-8.88412
▁25	-8.88496
lys	-8.88554
▁kl	-8.88776
▁person	-8.88855
kor	-8.88931
▁fer	-8.89016
▁http	-8.89112
▁mus	-8.89265
▁dis	-8.89304
fer	-8.89337
tel	-8.89359
к	-8.89418
▁området	-8.89514
tic	-8.89566
lev	-8.89576
▁trans	-8.89664
stilling	-8.89712
▁red	-8.89787
ū	-8.89801
▁gull	-8.89979
gle	-8.89981
tsj	-8.90052
▁både	-8.90149
som	-8.90215
▁sub	-8.90216
р	-8.90269
van	-8.90294
▁ya	-8.90448
don	-8.90479
▁ska	-8.9051
ika	-8.90571
ski	-8.90577
ella	-8.90684
▁nasjonal	-8.90763
▁motor	-8.90827
▁kri	-8.90837
▁fr	-8.90874
▁blå	-8.90965
▁hen	-8.91039
▁via	-8.91057
sky	-8.91088
▁kong	-8.91121
sjons	-8.9138
▁inter	-8.91432
▁luft	-8.91624
▁stra	-8.91685
jer	-8.91925
huset	-8.91938
▁cu	-8.91941
rop	-8.92141
ket	-8.9215
▁karl	-8.92176
у	-8.92257
▁sky	-8.92538
pro	-8.92585
all	-8.92633
ova	-8.92642
ford	-8.92722
▁ac	-8.92724
▁mac	-8.92741
▁pol	-8.92875
▁verk	-8.93023
net	-8.93026
▁stu	-8.93123
ip	-8.93159
lett	-8.93247
л	-8.933
pper	-8.93389
har	-8.93467
syn	-8.93721
▁administrasjons	-8.93722
▁fl	-8.93813
▁fal	-8.93863
gren	-8.93868
nu	-8.93926
▁kamp	-8.9396
▁halv	-8.93967
▁21	-8.93983
▁hele	-8.9418
10	-8.94233
vern	-8.94262
▁sv	-8.94323
▁12	-8.94456
rud	-8.94472
skole	-8.94522
wi	-8.94584
▁het	-8.94639
gge	-8.94737
mm	-8.9474
▁gamle	-8.94779
byen	-8.948
pris	-8.94916
ater	-8.9492
ros	-8.94923
gan	-8.94962
▁fred	-8.94985
▁side	-8.95117
ksjon	-8.95132
▁sommer	-8.95405
▁radio	-8.9543
▁carl	-8.95461
alis	-8.95487
▁mad	-8.95614
ull	-8.95753
▁norges	-8.95912
dde	-8.95924
anlegg	-8.95935
▁bri	-8.95979
bra	-8.96077
cy	-8.96324
lik	-8.96344
▁når	-8.9646
▁jon	-8.96532
▁gran	-8.96674
lis	-8.96764
▁midt	-8.96969
ister	-8.9707
kin	-8.97144
▁tysk	-8.97166
▁sine	-8.97167
с	-8.97183
▁ban	-8.97208
spiller	-8.97215
▁ole	-8.97239
rom	-8.97302
▁tok	-8.97586
ssen	-8.97605
▁gro	-8.97637
▁vas	-8.97861
▁meg	-8.97874
▁tak	-8.97975
stat	-8.97997
▁ind	-8.98016
organisasjon	-8.98039
pan	-8.98322
▁president	-8.98328
▁støtte	-8.98444
vei	-8.98485
legg	-8.986
mal	-8.98605
▁språk	-8.98711
stan	-8.9872
▁sommerfugl	-8.98769
res	-8.98798
▁don	-8.98843
ight	-8.98856
▁johan	-8.99052
▁fil	-8.99055
▁distrikt	-8.99064
elser	-8.99159
fall	-8.99242
▁christ	-8.99306
ai	-8.99312
tes	-8.99356
▁blad	-8.99497
get	-8.99525
▁lyd	-8.9963
▁viktigste	-8.99647
sak	-8.9968
ata	-8.99744
▁farge	-8.99761
sj	-8.99948
mel	-8.99998
▁2007	-9.0001
▁that	-9.00024
▁tradisjonell	-9.00146
▁form	-9.00175
▁war	-9.00191
▁skr	-9.00203
cc	-9.00208
fisk	-9.00244
▁vol	-9.00337
ub	-9.00342
▁distriktet	-9.00343
▁følger	-9.00355
lene	-9.00371
ala	-9.00438
elig	-9.00466
▁stats	-9.00542
age	-9.00548
▁24	-9.00799
▁ifølge	-9.00898
▁gjerne	-9.00951
▁att	-9.00952
▁vise	-9.01117
▁fla	-9.01369
øm	-9.01447
ura	-9.01483
iz	-9.01558
▁hell	-9.01673
▁liv	-9.01744
▁seks	-9.0175
▁begge	-9.01764
▁kir	-9.01773
▁with	-9.01774
▁west	-9.01781
våg	-9.01793
elli	-9.01855
ō	-9.01857
▁pal	-9.01912
ì	-9.01948
▁thomas	-9.02063
ish	-9.02102
▁politi	-9.02129
tti	-9.02246
▁ji	-9.0235
▁small	-9.02399
▁grå	-9.02475
▁ras	-9.0249
leder	-9.02505
▁22	-9.02528
forening	-9.02578
▁riks	-9.02623
bin	-9.02682
med	-9.02724
▁kat	-9.02733
▁ang	-9.02892
▁mill	-9.0304
▁park	-9.03274
båt	-9.03349
anger	-9.03393
enes	-9.03408
▁23	-9.03428
reg	-9.03517
▁kol	-9.03544
än	-9.03562
▁hennes	-9.03626
ige	-9.03864
dom	-9.03884
▁organ	-9.0401
zo	-9.04051
jan	-9.04105
ive	-9.04163
▁yu	-9.04478
▁vir	-9.04511
▁beste	-9.0455
ult	-9.04665
dals	-9.04679
▁2008	-9.04727
navn	-9.0481
qu	-9.0484
▁tr	-9.04978
▁plante	-9.04986
rus	-9.05005
▁william	-9.0513
isten	-9.05162
▁not	-9.05191
▁son	-9.05242
▁cap	-9.05391
ønn	-9.05409
ød	-9.05569
▁eng	-9.05571
▁georg	-9.0561
områder	-9.05626
rad	-9.05662
ky	-9.05672
▁bli	-9.05719
▁full	-9.0576
område	-9.05815
banen	-9.05843
▁reference	-9.05941
selskap	-9.05984
▁lø	-9.06057
▁hø	-9.06093
bor	-9.06132
▁ser	-9.06316
▁david	-9.06353
▁ulike	-9.06355
▁tal	-9.06409
▁dra	-9.06428
log	-9.06519
gre	-9.06601
bær	-9.06834
▁knut	-9.06946
▁jag	-9.0697
▁ein	-9.07014
ette	-9.07111
▁spill	-9.07114
▁barn	-9.07153
ves	-9.0719
dig	-9.07382
lekt	-9.07437
lagt	-9.07459
▁lokal	-9.07518
rio	-9.07548
▁bare	-9.0761
▁orden	-9.07611
aks	-9.07625
▁will	-9.07794
▁www	-9.07999
▁stre	-9.08071
▁lin	-9.08072
▁uten	-9.08181
ale	-9.08194
▁egen	-9.08262
▁latin	-9.08333
▁deretter	-9.08476
▁sentral	-9.08487
ges	-9.08504
rum	-9.08526
fri	-9.08559
в	-9.0865
ick	-9.08661
isering	-9.08729
▁are	-9.08732
▁2010	-9.08857
▁char	-9.09071
▁cla	-9.09106
▁hei	-9.09127
▁ze	-9.09148
▁inkludert	-9.09253
▁sm	-9.09371
▁fransk	-9.09498
ming	-9.09523
▁qu	-9.09667
▁bred	-9.09787
▁kur	-9.09846
▁provinsen	-9.09955
▁topp	-9.10097
▁les	-9.10098
на	-9.10134
▁anders	-9.10252
▁lille	-9.1037
▁2005	-9.10525
▁vært	-9.10608
▁30	-9.10663
▁foran	-9.10695
▁derfor	-9.10762
eri	-9.10784
▁14	-9.10805
▁dikt	-9.10839
nik	-9.10849
▁dom	-9.10855
▁sto	-9.10859
▁sang	-9.1086
▁spilles	-9.10894
▁japansk	-9.10897
pen	-9.10924
▁kv	-9.1099
uc	-9.11134
▁ram	-9.11216
lla	-9.11251
▁data	-9.11257
lle	-9.11306
sjef	-9.11351
▁odd	-9.11367
tiden	-9.1138
ås	-9.11413
▁enn	-9.11477
▁dann	-9.1153
▁cal	-9.11782
▁tru	-9.11804
▁rett	-9.11944
ider	-9.11971
▁konge	-9.12028
bus	-9.12129
dro	-9.12144
▁rekke	-9.12207
▁lar	-9.12216
▁ring	-9.12262
kilden	-9.12289
ativ	-9.12301
lus	-9.12343
▁bon	-9.12528
▁george	-9.12627
▁produsere	-9.1268
▁kh	-9.12703
▁mis	-9.12805
én	-9.12835
mund	-9.12844
jø	-9.12852
▁end	-9.12933
▁13	-9.12942
qui	-9.12997
▁samme	-9.13144
utvikling	-9.13146
▁roll	-9.13194
ix	-9.13234
▁zu	-9.13246
jen	-9.1333
ansk	-9.13398
▁elven	-9.13439
▁johannes	-9.13472
ι	-9.13555
▁hver	-9.13591
værende	-9.13697
navnet	-9.13777
pre	-9.13808
zz	-9.13826
ity	-9.13839
▁nett	-9.13901
▁general	-9.14003
▁dal	-9.14036
▁maria	-9.14165
▁she	-9.14381
stil	-9.1439
▁kre	-9.14436
▁spe	-9.14464
ban	-9.1449
kre	-9.14527
shi	-9.14537
ria	-9.14703
▁imidlertid	-9.14883
▁anne	-9.14889
▁arbeids	-9.14916
▁usa	-9.1494
kle	-9.14953
▁skulle	-9.14997
hal	-9.1505
▁nye	-9.15073
cha	-9.1513
ighet	-9.15171
▁bør	-9.1525
verket	-9.15252
▁hvit	-9.15318
mun	-9.15325
▁deres	-9.15332
▁menneske	-9.15341
kant	-9.15491
zhou	-9.15536
eller	-9.15595
▁je	-9.15732
tus	-9.15737
tta	-9.15787
jev	-9.15913
området	-9.16038
▁fotball	-9.1612
sam	-9.16197
dor	-9.16207
▁est	-9.1628
stro	-9.16368
vit	-9.16407
▁lov	-9.16468
▁xi	-9.16702
ekte	-9.16726
▁win	-9.1687
▁0	-9.16961
▁180	-9.16992
lå	-9.1707
punkt	-9.17208
alt	-9.17209
▁arne	-9.17248
▁eier	-9.17249
▁opera	-9.17275
ade	-9.17313
ledd	-9.17319
▁gal	-9.17323
mannen	-9.17372
▁camp	-9.17438
heng	-9.17451
side	-9.1751
▁26	-9.17544
▁eksempler	-9.17592
▁michael	-9.17594
senteret	-9.17695
kov	-9.17777
▁lik	-9.17957
oc	-9.18013
▁tittelen	-9.18097
▁bank	-9.18101
▁ten	-9.1819
б	-9.18227
ib	-9.18275
tun	-9.18334
ved	-9.18387
asje	-9.18476
ial	-9.18481
▁kron	-9.18629
mus	-9.18865
▁grenser	-9.18883
løp	-9.18913
▁tillegg	-9.18934
86	-9.18945
ål	-9.18953
hn	-9.1897
▁arabisk	-9.18975
▁ek	-9.18978
▁ok	-9.19145
stu	-9.1921
cia	-9.19327
ografi	-9.19355
▁frank	-9.19425
▁års	-9.19434
▁industri	-9.19518
▁28	-9.19558
ance	-9.19571
ati	-9.1959
skapet	-9.19779
ram	-9.19792
iet	-9.19798
▁tele	-9.19819
heten	-9.19825
▁eg	-9.19838
▁forskjellig	-9.19907
▁2009	-9.19907
lsen	-9.20092
aceae	-9.20241
sal	-9.20285
gaard	-9.20288
kri	-9.20295
▁hor	-9.20322
▁hovedstaden	-9.20324
▁nils	-9.20416
▁gikk	-9.20472
▁lars	-9.20504
kra	-9.20544
▁viktige	-9.20552
lov	-9.20675
▁web	-9.20675
the	-9.20747
▁cro	-9.20758
▁lund	-9.2093
nor	-9.20964
bjørn	-9.20967
ssa	-9.20967
bru	-9.20992
▁sur	-9.21116
fl	-9.21298
▁ingen	-9.21403
▁datter	-9.21773
tha	-9.21792
▁hall	-9.2192
▁kyst	-9.21963
▁mari	-9.22044
▁system	-9.22046
▁svart	-9.22089
løse	-9.2214
kje	-9.22206
▁helse	-9.22206
voll	-9.22233
▁innbyggere	-9.22278
▁lands	-9.22283
▁representerer	-9.22284
lot	-9.2238
▁wal	-9.22436
ão	-9.22587
arter	-9.22646
я	-9.22757
▁slekt	-9.22788
systemet	-9.22838
rat	-9.22977
▁egg	-9.22985
▁viser	-9.23029
▁100	-9.23183
▁brensel	-9.2322
▁februar	-9.2324
▁militær	-9.2324
г	-9.23481
tig	-9.23491
tis	-9.23498
car	-9.23744
▁særlig	-9.23799
▁pass	-9.23826
▁styre	-9.23831
▁finner	-9.23845
▁finn	-9.23886
▁myr	-9.23944
▁blod	-9.23958
▁ven	-9.23989
▁ball	-9.24069
▁ky	-9.24098
bas	-9.2411
▁terr	-9.24128
▁arkitekt	-9.2418
▁2011	-9.24226
retning	-9.24241
▁vanligvis	-9.24247
▁gla	-9.24287
▁mur	-9.24346
▁sul	-9.2442
▁sak	-9.24454
mod	-9.24496
▁che	-9.24564
dia	-9.24646
ben	-9.24716
fører	-9.24729
▁får	-9.24823
ure	-9.25059
▁ø	-9.25076
gna	-9.25141
▁cho	-9.25192
▁arter	-9.25213
bygd	-9.25279
sjøen	-9.25343
▁dar	-9.25358
vig	-9.25375
rå	-9.25411
▁11	-9.25415
▁rev	-9.25432
▁ph	-9.2555
rig	-9.25553
plan	-9.25598
▁grønn	-9.25626
▁kam	-9.25629
▁fredrik	-9.25718
▁regi	-9.2575
▁herre	-9.25804
ån	-9.25864
gul	-9.25908
н	-9.25919
tatt	-9.25927
▁skolen	-9.25988
▁mod	-9.26009
▁nowiki	-9.26189
rike	-9.26193
▁pin	-9.26375
▁få	-9.26387
▁bass	-9.2645
▁hon	-9.26576
▁27	-9.26631
bane	-9.26653
lar	-9.26655
▁1989	-9.26689
kast	-9.26736
gruppen	-9.2688
▁start	-9.26935
▁bel	-9.26941
▁uni	-9.27047
landet	-9.27098
olog	-9.27112
ρ	-9.27191
lund	-9.27268
▁mann	-9.27411
▁lev	-9.27434
kul	-9.27452
one	-9.27486
nis	-9.2758
istisk	-9.27631
▁2004	-9.27697
▁spesial	-9.27699
м	-9.27911
▁litt	-9.27913
▁james	-9.27945
ora	-9.27949
press	-9.28002
▁ør	-9.28102
▁gjør	-9.28199
č	-9.28204
▁sau	-9.28217
▁kvinne	-9.28274
▁din	-9.28329
▁poly	-9.2833
▁mass	-9.28343
rak	-9.28351
▁mas	-9.28358
▁imp	-9.28454
▁bio	-9.28457
▁tj	-9.28543
unn	-9.28629
▁mannskapet	-9.28727
▁us	-9.28738
▁fortsatt	-9.28819
arbeid	-9.28834
▁plat	-9.28881
ori	-9.28936
fon	-9.29235
▁000	-9.29282
prosess	-9.29299
▁ger	-9.29422
ón	-9.29441
stra	-9.29464
▁miljø	-9.29713
bert	-9.2975
▁gammel	-9.29774
uch	-9.29791
asjonen	-9.29866
▁amerikansk	-9.29939
isert	-9.29977
før	-9.30092
▁europa	-9.30093
▁reg	-9.30178
▁slutt	-9.3022
▁hovedsakelig	-9.3026
▁mindre	-9.30369
ob	-9.30504
▁strand	-9.30515
▁bill	-9.3052
▁176	-9.30553
oni	-9.30619
▁veg	-9.30645
▁slag	-9.30676
lighet	-9.30729
blad	-9.30763
system	-9.30807
▁bruk	-9.30921
minister	-9.30951
▁mont	-9.31014
▁gitar	-9.31032
▁air	-9.31187
stasjon	-9.31226
▁versjon	-9.31233
▁lett	-9.31243
under	-9.31247
ire	-9.3125
▁sund	-9.31321
este	-9.31321
▁29	-9.31402
▁driver	-9.31445
▁pen	-9.31512
illa	-9.31568
▁bay	-9.31621
ith	-9.31651
▁nr	-9.31685
old	-9.31694
▁oc	-9.31732
gri	-9.31761
▁døde	-9.31838
▁dagen	-9.32042
strand	-9.32071
blomst	-9.32073
▁31	-9.32088
▁vid	-9.32118
kamp	-9.32186
ν	-9.32351
gon	-9.32377
itz	-9.32384
rang	-9.32385
▁venstre	-9.32385
lang	-9.32492
trykk	-9.32496
▁ev	-9.32618
bygg	-9.32635
▁ce	-9.32781
▁sir	-9.32781
▁blo	-9.32847
▁filmen	-9.32851
▁kulturminner	-9.32892
tikk	-9.32963
▁lege	-9.32969
▁power	-9.32975
able	-9.32978
ence	-9.32993
▁utgjør	-9.33016
▁just	-9.33076
ugh	-9.33376
▁fro	-9.33474
rakt	-9.33477
styre	-9.33519
pl	-9.33535
▁blei	-9.33549
▁bir	-9.3359
▁cam	-9.33599
ney	-9.33666
hall	-9.33692
kla	-9.33726
▁stil	-9.33831
inne	-9.33836
ille	-9.33874
▁nø	-9.33895
▁fant	-9.33923
skje	-9.33968
▁angel	-9.33985
way	-9.33992
fu	-9.3401
▁historie	-9.3402
▁bad	-9.34066
▁daniel	-9.34079
iti	-9.34132
▁hår	-9.34315
stikk	-9.34368
▁rh	-9.34465
▁rein	-9.34577
skij	-9.3459
▁mun	-9.34634
▁sw	-9.34651
▁medlem	-9.34671
fag	-9.3468
▁rock	-9.34855
ink	-9.34916
film	-9.35157
▁skrift	-9.35333
qua	-9.35429
▁studie	-9.35433
olo	-9.35501
▁dessuten	-9.35595
kraftverk	-9.35616
setning	-9.35712
▁andreas	-9.35737
con	-9.35871
▁vä	-9.36009
▁olje	-9.36036
▁student	-9.36077
▁tap	-9.36082
belteasteroide	-9.36145
ite	-9.36148
▁richard	-9.36149
▁tilbake	-9.36154
▁gy	-9.36162
▁arbeider	-9.36198
mma	-9.3621
▁utenfor	-9.36224
▁kle	-9.36254
loven	-9.36269
syre	-9.3631
grad	-9.3636
foreningen	-9.36499
▁len	-9.36517
yang	-9.36644
▁kunne	-9.36738
▁skj	-9.36747
nivå	-9.3677
lings	-9.36968
▁nan	-9.37002
▁jean	-9.3705
▁nam	-9.37118
▁eid	-9.37241
τ	-9.37253
▁cy	-9.37285
▁spar	-9.37328
▁bergen	-9.37344
▁zo	-9.37344
▁tam	-9.37354
ias	-9.37433
stoff	-9.37454
▁skrevet	-9.37498
▁lei	-9.37623
kjør	-9.37659
wer	-9.37688
▁bygd	-9.37691
can	-9.3774
▁star	-9.37745
bånd	-9.37828
20	-9.37833
▁comp	-9.37834
▁svær	-9.37841
▁stemme	-9.37877
▁super	-9.37901
fugl	-9.37941
▁tallet	-9.38002
й	-9.38008
ary	-9.38197
▁but	-9.38377
▁50	-9.38453
▁im	-9.38479
gjør	-9.38486
▁dam	-9.38556
nett	-9.38572
bia	-9.38759
arafa	-9.38771
▁skjer	-9.3878
manns	-9.38853
▁standard	-9.3894
▁holm	-9.3896
rich	-9.38997
tøy	-9.3903
▁overtok	-9.39033
▁dato	-9.39121
pur	-9.39139
▁rot	-9.39198
▁cre	-9.39218
▁wo	-9.39237
band	-9.39244
▁app	-9.39252
▁fall	-9.39378
renner	-9.39404
tegn	-9.39493
▁samtidig	-9.39508
▁januar	-9.39508
▁world	-9.39519
▁region	-9.3952
▁stri	-9.39522
▁whi	-9.39563
valg	-9.39566
full	-9.39576
▁dermed	-9.39585
ado	-9.39593
▁nærings	-9.39596
▁klubben	-9.39855
▁mol	-9.39894
slav	-9.39899
vende	-9.39937
▁international	-9.40078
▁italiensk	-9.40078
field	-9.40168
▁siste	-9.40207
▁kin	-9.40247
▁long	-9.40254
plass	-9.40284
▁unn	-9.40315
▁stav	-9.40326
▁mik	-9.40394
▁foss	-9.40397
▁glo	-9.40433
▁venn	-9.40548
menn	-9.40554
▁was	-9.4063
▁familie	-9.4068
▁met	-9.4082
▁minne	-9.40839
ira	-9.40842
▁året	-9.40904
king	-9.40914
lær	-9.40958
▁kilde	-9.40967
haug	-9.41006
▁up	-9.41089
▁wei	-9.41123
▁fylke	-9.41221
ström	-9.4123
hol	-9.41244
▁hjerte	-9.41284
vers	-9.41288
▁il	-9.41289
▁rei	-9.41352
▁ran	-9.41378
ов	-9.41486
middel	-9.41507
feld	-9.41768
nia	-9.41795
▁tang	-9.419
virke	-9.41923
hua	-9.42058
▁с	-9.42072
ologisk	-9.42077
ringer	-9.42102
▁artikkel	-9.42111
havet	-9.42167
▁150	-9.42184
▁tilby	-9.4221
50	-9.42213
ain	-9.4232
▁høyeste	-9.42392
akademi	-9.424
vold	-9.42462
erende	-9.42531
lly	-9.4256
parti	-9.42624
dis	-9.42854
kur	-9.42926
grav	-9.42946
▁louis	-9.42987
▁gav	-9.4299
▁ungdoms	-9.43048
▁populær	-9.43098
▁cra	-9.43105
ér	-9.43121
skrift	-9.43145
▁sten	-9.43194
▁først	-9.43221
▁forfatter	-9.43226
▁gun	-9.43227
low	-9.43245
▁gje	-9.43294
vatnet	-9.43343
▁flat	-9.43445
gitt	-9.43531
gy	-9.43556
los	-9.43567
і	-9.43577
▁national	-9.43579
▁forenkle	-9.43592
▁es	-9.43592
▁stan	-9.43603
▁flo	-9.43682
▁grand	-9.43684
▁que	-9.43833
gata	-9.4395
ringen	-9.43971
sø	-9.44008
din	-9.44151
ē	-9.44172
λ	-9.44172
resultat	-9.44175
ferd	-9.44191
▁felles	-9.44203
disk	-9.44221
▁sag	-9.4433
▁80	-9.44331
iserte	-9.44336
▁gor	-9.44356
▁kommunene	-9.44492
▁marc	-9.44538
bank	-9.44551
eng	-9.44562
of	-9.44563
zy	-9.44623
▁mand	-9.44654
elva	-9.44708
cus	-9.44759
ù	-9.44771
▁såkalt	-9.44771
▁tredje	-9.44773
▁meter	-9.44805
▁mottok	-9.44829
▁serie	-9.44831
▁gate	-9.44844
▁bla	-9.44884
▁160	-9.44884
com	-9.44913
▁albert	-9.44957
▁ye	-9.45056
▁pla	-9.4508
▁tall	-9.45083
▁kunstner	-9.45148
atet	-9.45174
▁gang	-9.45177
▁sett	-9.45263
17	-9.45295
søk	-9.45344
▁sølv	-9.45382
gno	-9.45391
port	-9.4543
foss	-9.45441
▁cell	-9.45475
▁juni	-9.45511
▁cur	-9.45529
▁hovedrollene	-9.45574
▁utgitt	-9.45578
▁dyre	-9.45604
▁høyre	-9.45636
▁tettsted	-9.45639
mid	-9.45647
▁ann	-9.45699
▁grense	-9.45701
▁hjemme	-9.45755
partiet	-9.45761
▁polsk	-9.4597
▁omkring	-9.45981
▁jer	-9.46067
iner	-9.46108
▁kull	-9.46126
▁nar	-9.46223
▁ana	-9.46239
stykke	-9.46292
ical	-9.46346
fest	-9.46387
▁bygde	-9.46452
▁gl	-9.46521
▁ordenen	-9.46523
▁kategori	-9.46589
▁gunnar	-9.46592
▁isbn	-9.46599
▁bekrefte	-9.46627
▁anna	-9.46666
aria	-9.46695
liv	-9.46713
gruppe	-9.46734
▁may	-9.46738
▁nevnes	-9.46768
dahl	-9.46772
▁produsent	-9.46819
▁island	-9.46872
▁gruppe	-9.46936
cal	-9.46944
osa	-9.47125
krets	-9.47167
▁kristian	-9.47232
▁haug	-9.47271
▁universitet	-9.47388
▁32	-9.47399
▁løv	-9.47447
jiang	-9.47452
▁liten	-9.47499
▁antall	-9.47541
pol	-9.476
κ	-9.47819
konkurranse	-9.4782
́	-9.4782
▁bakvingen	-9.47822
▁esp	-9.47845
els	-9.47857
▁harald	-9.47862
▁155	-9.47889
bakken	-9.47965
graf	-9.47991
▁oppført	-9.48005
▁redaktør	-9.48128
▁py	-9.48139
▁lange	-9.48164
▁vinter	-9.48172
jel	-9.48217
tempelet	-9.4826
▁jack	-9.48263
zu	-9.48286
▁samarbeid	-9.48321
▁prest	-9.48358
▁ref	-9.48417
▁rik	-9.48496
gje	-9.48528
80	-9.48545
▁inge	-9.48632
bygning	-9.48655
▁vokal	-9.48697
▁større	-9.48739
ama	-9.48862
▁stift	-9.48863
firma	-9.48863
af	-9.48872
strøm	-9.48907
▁horn	-9.48907
mas	-9.48932
mes	-9.48943
▁qua	-9.48944
cheng	-9.48974
▁ec	-9.49014
ε	-9.49066
museet	-9.491
hund	-9.49108
▁2000	-9.49133
▁black	-9.49161
holm	-9.49162
stående	-9.49281
gt	-9.49308
▁jernbane	-9.4931
ann	-9.49373
▁regn	-9.49406
ön	-9.49447
lid	-9.49492
produksjon	-9.4954
kong	-9.49576
bygningen	-9.49754
▁sek	-9.49886
▁sogn	-9.49921
▁kall	-9.49986
▁hører	-9.50008
▁blit	-9.50022
dar	-9.50055
▁tan	-9.50109
▁nes	-9.50111
▁helge	-9.50191
ato	-9.50229
▁punkt	-9.5024
skjær	-9.50278
uel	-9.50283
19	-9.50301
▁dor	-9.50334
▁jern	-9.50409
▁bærer	-9.50501
▁40	-9.50526
aya	-9.50537
satte	-9.50616
▁hed	-9.50678
▁thi	-9.50688
▁anton	-9.50706
▁auto	-9.5073
poli	-9.50737
dorf	-9.50764
ez	-9.50804
enberg	-9.5081
▁plass	-9.50917
ß	-9.50959
▁hansen	-9.51029
ritt	-9.51113
▁dj	-9.51136
▁nova	-9.51136
teori	-9.51187
lat	-9.51291
▁sim	-9.51309
rør	-9.51322
▁vit	-9.51326
cht	-9.51344
▁wat	-9.51344
ín	-9.51426
▁king	-9.51507
▁slekten	-9.51602
▁keiser	-9.51618
nummer	-9.51673
uf	-9.51696
▁aust	-9.51703
pin	-9.51768
▁spor	-9.51781
▁lan	-9.51781
▁156	-9.51839
▁left	-9.51851
formet	-9.51853
▁wu	-9.51881
▁kas	-9.51906
vogn	-9.51912
bit	-9.51958
▁35	-9.51981
▁ung	-9.51999
yu	-9.52056
hai	-9.52059
▁off	-9.52064
føring	-9.52086
▁maur	-9.52106
mos	-9.52108
oli	-9.5215
▁172	-9.52227
last	-9.52244
▁tilhørte	-9.52251
skolen	-9.52334
▁eli	-9.52357
gal	-9.52386
▁kalte	-9.52466
off	-9.52473
▁bol	-9.525
▁nest	-9.52545
ktig	-9.52666
▁hit	-9.52708
▁out	-9.52761
skip	-9.5277
▁strøm	-9.52792
▁bror	-9.5283
cl	-9.5285
▁larvene	-9.52936
mba	-9.52952
▁søster	-9.53007
▁smal	-9.5303
▁tim	-9.53045
lei	-9.53085
debut	-9.53105
▁ordet	-9.53212
▁type	-9.53253
▁have	-9.53347
▁sve	-9.53381
pla	-9.53414
lignende	-9.53479
▁turn	-9.53498
▁fylkes	-9.53515
gra	-9.53552
▁artist	-9.53562
gor	-9.53563
30	-9.53588
▁179	-9.53589
▁old	-9.53598
anske	-9.53643
▁bj	-9.53649
løs	-9.53673
tive	-9.53683
▁russland	-9.53705
hel	-9.53819
eira	-9.53819
▁kraftig	-9.5383
▁startet	-9.53839
▁finland	-9.53907
bøker	-9.54002
▁sho	-9.5402
▁staten	-9.54136
rit	-9.54152
tok	-9.54199
ima	-9.542
æl	-9.54241
▁borg	-9.54296
▁forsknings	-9.54303
stru	-9.54329
▁sangen	-9.54331
felt	-9.54373
▁por	-9.54405
▁tsj	-9.54509
▁kraft	-9.54511
▁delta	-9.54515
ua	-9.54552
▁grad	-9.54593
▁sort	-9.54597
▁klo	-9.54602
øyene	-9.54685
▁råd	-9.54706
hen	-9.54769
gli	-9.54779
▁from	-9.54805
kning	-9.54855
ici	-9.54857
fabrikk	-9.54858
ž	-9.54874
▁ukrainsk	-9.54874
▁skuespiller	-9.54883
▁tidlig	-9.54911
▁åtte	-9.54985
chu	-9.55003
▁krist	-9.5524
▁fjern	-9.55257
gard	-9.55291
16	-9.55422
▁netto	-9.5544
språk	-9.55472
liga	-9.555
▁sverige	-9.55542
gress	-9.55567
oks	-9.55568
▁bolig	-9.5559
15	-9.55593
▁fugle	-9.55597
ali	-9.55607
▁wen	-9.55637
▁spi	-9.55655
istiske	-9.55655
äl	-9.55685
▁design	-9.55722
klar	-9.55756
▁bandet	-9.55758
▁nytt	-9.55803
▁olav	-9.559
▁ask	-9.55925
organ	-9.55974
▁sosial	-9.56036
▁mø	-9.56078
ique	-9.56095
▁benytte	-9.56145
hei	-9.56174
▁grev	-9.56179
з	-9.56182
korps	-9.56202
▁privat	-9.56221
kommune	-9.56234
ies	-9.56266
gående	-9.56284
▁serien	-9.56313
bladet	-9.56325
▁frukt	-9.56366
asjoner	-9.56373
▁salt	-9.56428
▁fre	-9.5648
midler	-9.56527
▁yo	-9.56582
▁iso	-9.5663
ст	-9.56643
wan	-9.56675
▁lek	-9.5668
▁167	-9.56706
▁fle	-9.56836
▁tegn	-9.56959
cker	-9.57089
vinger	-9.57141
▁internasjonale	-9.57169
▁bort	-9.57223
her	-9.57312
▁174	-9.5734
▁real	-9.5737
▁aktiv	-9.57375
lich	-9.57406
▁albumet	-9.57485
▁tha	-9.57522
▁has	-9.57556
▁2001	-9.57568
▁lufthavn	-9.5758
▁gru	-9.5762
▁syd	-9.57719
▁inte	-9.57731
gir	-9.57836
▁steve	-9.57844
stol	-9.57847
stedet	-9.5785
▁hin	-9.5785
▁brann	-9.57876
▁175	-9.57915
▁flor	-9.57927
ān	-9.57935
hov	-9.57959
rup	-9.58054
▁cl	-9.58135
▁elev	-9.58151
▁elektro	-9.58154
cio	-9.58195
▁hud	-9.58231
▁ara	-9.58233
forbundet	-9.58263
▁2012	-9.58272
▁skje	-9.58277
strid	-9.58283
forsvar	-9.58469
▁monte	-9.5853
▁olsen	-9.58577
▁bern	-9.58588
▁elve	-9.58589
▁vind	-9.58688
forbund	-9.58833
▁stjerne	-9.58839
▁finsk	-9.58875
lad	-9.58919
fot	-9.58923
σ	-9.58942
▁qi	-9.58943
▁april	-9.58945
oth	-9.58995
tale	-9.58997
▁komp	-9.59041
maskin	-9.59083
leg	-9.59121
▁jens	-9.59256
▁politisk	-9.59328
▁lær	-9.59329
ische	-9.5938
▁lau	-9.59417
▁hør	-9.59564
lon	-9.59631
▁charles	-9.59693
plassen	-9.59725
▁teater	-9.59763
▁frø	-9.59854
▁metall	-9.59866
▁øver	-9.59883
▁vanlig	-9.59969
ila	-9.60129
▁mig	-9.60131
top	-9.60276
ο	-9.60317
▁informasjon	-9.60391
▁basert	-9.60395
▁01	-9.60633
▁kjell	-9.60794
etter	-9.60845
▁kj	-9.60913
▁hå	-9.6092
▁elv	-9.60974
fatte	-9.60986
sser	-9.60998
▁sko	-9.60998
▁res	-9.61024
hav	-9.61058
▁ud	-9.61067
▁museum	-9.61072
sikt	-9.61073
▁øya	-9.61073
▁arn	-9.61157
▁erstatte	-9.61172
▁hånd	-9.61195
▁japan	-9.61217
utdanning	-9.61254
▁mørke	-9.61261
▁max	-9.61377
▁løper	-9.61384
feltet	-9.61423
▁slike	-9.61481
▁bit	-9.61576
jö	-9.61685
▁2003	-9.6175
▁sted	-9.61754
driv	-9.61793
▁vor	-9.61851
seth	-9.6192
▁hem	-9.62002
ping	-9.62005
mand	-9.6202
vert	-9.62076
formede	-9.62081
▁felt	-9.62153
regjering	-9.62159
▁gall	-9.62161
▁wil	-9.6219
kjøp	-9.62284
ada	-9.62399
krigen	-9.62402
ă	-9.62463
▁original	-9.62464
arm	-9.625
zar	-9.62574
▁kil	-9.62671
▁arg	-9.62729
▁mid	-9.6285
unt	-9.62955
▁dun	-9.63027
lem	-9.63049
mur	-9.6315
▁wilhelm	-9.63183
▁trondheim	-9.632
svik	-9.6321
▁neu	-9.63238
▁handels	-9.63298
▁våpen	-9.63327
evne	-9.63337
▁india	-9.6335
ár	-9.63401
▁sykdom	-9.6352
ous	-9.63524
kanalen	-9.63601
▁årlig	-9.63678
▁gui	-9.63735
▁hend	-9.63764
▁samle	-9.63774
oll	-9.63787
ко	-9.63825
ulf	-9.63827
fond	-9.63855
yuan	-9.63859
▁hard	-9.639
▁desember	-9.63908
struktur	-9.63908
sang	-9.63927
▁studert	-9.63947
fjellet	-9.6405
▁song	-9.64152
iller	-9.64173
▁ö	-9.64237
delen	-9.6427
medisin	-9.64271
mis	-9.64402
lé	-9.64544
temperatur	-9.64637
▁oktober	-9.64638
▁163	-9.64674
departementet	-9.64674
▁kul	-9.64685
arbeider	-9.64699
sko	-9.64889
▁prosjekt	-9.64894
win	-9.64897
rator	-9.6502
▁helt	-9.65032
▁annen	-9.65057
▁produkt	-9.65102
▁161	-9.65114
▁ep	-9.65261
▁betjene	-9.65385
ago	-9.65385
pet	-9.65398
▁canada	-9.65403
hin	-9.65415
▁blue	-9.65427
▁otto	-9.65468
gro	-9.6547
brun	-9.65576
▁42	-9.65614
kka	-9.65743
spor	-9.65778
høy	-9.65809
▁mørk	-9.65922
lä	-9.65937
▁edderkopp	-9.65973
▁regnes	-9.66074
▁univers	-9.66104
▁omfattet	-9.66115
▁dommer	-9.66136
▁ari	-9.6615
løper	-9.66176
▁north	-9.6619
▁gard	-9.66297
motor	-9.66326
▁verdi	-9.66366
grunn	-9.66397
ismen	-9.66415
▁ken	-9.66465
lønn	-9.66468
12	-9.66512
â	-9.66565
▁syl	-9.6657
▁middel	-9.66596
▁hand	-9.66626
▁magne	-9.66627
▁bry	-9.66637
▁modell	-9.66638
fle	-9.66668
▁33	-9.66774
fla	-9.66791
▁82	-9.66844
▁november	-9.6686
▁club	-9.66878
liste	-9.66884
▁larven	-9.66903
jord	-9.66907
row	-9.66963
▁173	-9.66984
▁cer	-9.66986
▁hopp	-9.66998
▁eneste	-9.67023
▁brit	-9.67058
▁marine	-9.67128
hode	-9.67138
▁geo	-9.67168
prisen	-9.67182
parken	-9.67209
havn	-9.67253
▁hj	-9.67432
▁natt	-9.67456
▁borger	-9.67473
områdene	-9.6748
▁pap	-9.67521
▁tittel	-9.6754
tum	-9.67559
ò	-9.67612
вич	-9.67616
▁magnus	-9.67619
teknikk	-9.67619
▁his	-9.6764
▁170	-9.67659
▁kontroll	-9.67669
ра	-9.67772
elv	-9.67846
sha	-9.6791
▁stasjon	-9.67946
skudd	-9.6798
▁enkelt	-9.68062
▁rund	-9.68179
▁hjelp	-9.68241
ello	-9.68241
▁skul	-9.68287
eier	-9.68308
13	-9.68335
▁utviklet	-9.68369
▁2014	-9.6837
▁2013	-9.6839
▁igjen	-9.68391
▁landsforening	-9.68394
▁gjeld	-9.68422
▁torg	-9.68594
▁uk	-9.68596
▁prof	-9.68619
gården	-9.68627
▁ledet	-9.68633
▁hatt	-9.68687
▁gren	-9.68715
▁bind	-9.68718
ville	-9.68722
▁zi	-9.68865
mot	-9.68937
▁byer	-9.68966
▁simon	-9.68971
ensis	-9.68989
bein	-9.69071
▁idretts	-9.69085
ë	-9.69133
▁september	-9.69133
▁begynt	-9.69133
▁riksvei	-9.69198
▁sanger	-9.69247
forskning	-9.69289
vekst	-9.69312
sport	-9.69333
▁andersen	-9.69355
▁time	-9.69386
▁45	-9.69405
tag	-9.69409
18	-9.69452
▁arten	-9.69482
▁trykk	-9.69501
▁glass	-9.69531
anda	-9.69621
▁service	-9.69663
▁hage	-9.69682
▁inc	-9.69719
▁villa	-9.69774
ball	-9.6979
▁bygg	-9.69801
are	-9.69822
oph	-9.69834
▁jacob	-9.69835
rød	-9.6987
ς	-9.69895
ě	-9.69902
▁typisk	-9.69911
▁2017	-9.69928
rev	-9.69955
▁henry	-9.7004
oksid	-9.70048
beskytte	-9.70061
▁larsen	-9.70399
▁noe	-9.70433
representant	-9.70439
▁oliv	-9.70475
az	-9.70495
▁hydro	-9.70544
▁sports	-9.7065
μ	-9.70677
▁oppkalt	-9.70678
▁style	-9.70713
▁169	-9.70715
bakk	-9.70759
▁kata	-9.70852
▁dø	-9.70903
▁sven	-9.70916
▁sju	-9.70966
▁multi	-9.70994
gin	-9.70994
▁kost	-9.71016
trekk	-9.71058
▁beskrive	-9.71109
▁gjer	-9.71127
butikk	-9.71177
sberg	-9.71271
▁indisk	-9.71317
ward	-9.71391
ander	-9.71441
ê	-9.71458
▁1999	-9.71459
▁etablert	-9.71459
▁delstaten	-9.71461
posisjon	-9.71461
▁egentlig	-9.71478
▁maskin	-9.71502
▁60	-9.71519
▁this	-9.71602
▁jim	-9.71638
▁linje	-9.71642
innen	-9.71648
▁gua	-9.71702
▁153	-9.71752
distrikt	-9.71891
▁jar	-9.71909
▁brukte	-9.7199
kropp	-9.71993
▁bygge	-9.72005
▁kara	-9.7201
▁chu	-9.72027
▁seil	-9.72062
▁nesten	-9.72069
▁vinner	-9.72177
▁dokument	-9.72246
▁naturgass	-9.72246
åsen	-9.72297
▁pris	-9.72443
phi	-9.72492
▁alb	-9.72499
▁partiet	-9.72515
▁rand	-9.72534
▁rosen	-9.7255
ager	-9.72554
▁mir	-9.72558
▁vill	-9.72565
fjell	-9.72607
▁einar	-9.72609
▁bis	-9.72645
▁johann	-9.72787
well	-9.72796
slekten	-9.72801
▁selskap	-9.72806
▁saa	-9.7288
formen	-9.72896
▁hul	-9.72929
nie	-9.72947
▁varme	-9.72963
▁nasjonale	-9.73024
▁hum	-9.73049
▁styrke	-9.73055
▁berlin	-9.73093
bol	-9.73098
▁luc	-9.73098
▁medlemmer	-9.73117
bal	-9.73338
rygg	-9.73397
▁hjem	-9.73446
▁matt	-9.73474
▁ves	-9.73553
▁ple	-9.73559
▁gass	-9.73564
rådet	-9.73592
▁krigs	-9.73659
tyr	-9.73678
plante	-9.73779
▁river	-9.73819
ô	-9.73839
▁varaordfører	-9.73839
liggende	-9.73849
klubben	-9.73857
næs	-9.74039
ikere	-9.74108
ã	-9.74123
▁mm	-9.74189
arten	-9.74213
kreft	-9.74216
▁henrik	-9.7432
▁bat	-9.74326
▁transport	-9.7433
gikk	-9.74357
▁ris	-9.74357
▁tung	-9.74384
avdeling	-9.74399
kere	-9.74508
▁osv	-9.74524
▁mester	-9.74532
▁litteratur	-9.74538
▁rep	-9.74546
hjul	-9.74603
▁п	-9.74626
▁bob	-9.74648
▁rør	-9.74655
▁fang	-9.74657
▁opplags	-9.74665
iva	-9.74779
nic	-9.74811
▁qui	-9.74837
holmen	-9.74843
dam	-9.74845
medaljen	-9.7486
▁165	-9.74912
delse	-9.74918
▁morten	-9.74928
▁avdeling	-9.74953
▁folk	-9.74957
løst	-9.74973
▁lite	-9.75045
▁leg	-9.7506
ona	-9.751
roll	-9.7515
▁utgav	-9.75244
hallen	-9.75253
▁cle	-9.75265
ii	-9.75272
▁stø	-9.7534
sjoner	-9.75417
logen	-9.75418
ы	-9.75448
lø	-9.75451
iebedriften	-9.75458
▁für	-9.75465
▁stedet	-9.75506
▁70	-9.75506
sjonen	-9.75558
▁sy	-9.75583
▁mobil	-9.75678
lingen	-9.75683
▁album	-9.7574
ł	-9.75841
bach	-9.75871
ór	-9.75968
▁kors	-9.7604
▁løp	-9.76058
▁reise	-9.76121
▁landsbyen	-9.76177
▁ever	-9.76209
▁spesielt	-9.76278
▁epi	-9.76365
hof	-9.7642
▁johansen	-9.7642
grense	-9.76426
▁snø	-9.76438
▁mye	-9.76506
▁mikro	-9.76592
ан	-9.7662
▁tildelt	-9.76652
▁serv	-9.76676
▁hov	-9.76684
året	-9.76692
▁sav	-9.76753
▁israel	-9.76803
▁36	-9.76811
▁petter	-9.76835
▁dahl	-9.76865
▁leir	-9.77
▁blomster	-9.77065
lend	-9.77081
tom	-9.77087
▁rektor	-9.7711
messig	-9.77133
▁jam	-9.77266
▁146	-9.77302
▁nummer	-9.77311
zhi	-9.77357
fjellene	-9.77362
▁best	-9.77385
▁paa	-9.77411
onia	-9.77453
▁varierer	-9.77462
▁log	-9.77488
telefon	-9.77503
▁innsjøen	-9.77557
▁в	-9.77569
▁enkelte	-9.77619
handler	-9.77665
klo	-9.77666
▁marie	-9.77668
våpen	-9.77772
metode	-9.77797
marked	-9.77847
х	-9.77938
▁direkte	-9.7794
▁nikola	-9.77941
▁kristin	-9.77949
▁tun	-9.78016
rekord	-9.78064
▁utgi	-9.78099
park	-9.781
typen	-9.78154
▁russ	-9.78175
▁brø	-9.78248
produkter	-9.78257
▁dol	-9.7837
▁vekt	-9.78435
▁behandling	-9.78472
▁stasjonen	-9.78484
▁festival	-9.78487
▁34	-9.78579
fang	-9.78608
▁heste	-9.78633
▁dre	-9.78633
industri	-9.78637
▁press	-9.78824
▁jazz	-9.78856
▁regionen	-9.78896
▁eiendom	-9.78967
tjeneste	-9.79048
lio	-9.7909
▁musiker	-9.7912
ен	-9.79133
▁pres	-9.79186
mit	-9.79203
▁emil	-9.79223
fold	-9.79241
aktig	-9.79249
▁kau	-9.79291
bygging	-9.79301
▁kha	-9.79347
ammen	-9.79368
▁ett	-9.79449
eide	-9.79461
▁rå	-9.79477
uv	-9.79596
fart	-9.79619
▁energy	-9.79639
▁inngår	-9.79689
▁fol	-9.79731
▁fj	-9.79735
▁tjeneste	-9.79741
▁bety	-9.79752
▁fjord	-9.79805
pha	-9.79886
▁nabo	-9.79922
kirke	-9.79962
løsning	-9.79992
▁elva	-9.80056
▁skrive	-9.8011
▁én	-9.80164
▁sterk	-9.80211
▁still	-9.8022
▁direktør	-9.80263
▁instrument	-9.80263
▁gjorde	-9.80269
▁mit	-9.80271
ç	-9.80276
11	-9.80283
basert	-9.80361
historie	-9.80401
▁primær	-9.80482
ryd	-9.80492
▁lib	-9.8057
▁aur	-9.80609
▁bygget	-9.80614
▁kap	-9.80622
▁samfunns	-9.80636
▁meta	-9.80642
▁52	-9.8066
▁munn	-9.80694
▁uttale	-9.80695
▁franc	-9.80698
▁då	-9.80755
▁90	-9.80757
krig	-9.80789
▁97	-9.80811
war	-9.80858
▁svi	-9.80863
▁flu	-9.80968
spinner	-9.80978
▁158	-9.81017
kammer	-9.81026
▁shan	-9.81045
▁arve	-9.81054
▁vold	-9.81067
bare	-9.81117
▁ordens	-9.81187
▁try	-9.81212
væ	-9.81265
på	-9.81314
horn	-9.81329
▁middelalder	-9.81343
▁rolf	-9.81353
sjø	-9.81389
▁nev	-9.81417
kontor	-9.81432
▁trener	-9.81477
fre	-9.81546
▁music	-9.8157
▁dyr	-9.81707
medalje	-9.81748
trær	-9.81811
▁kjerne	-9.81836
▁internasjonal	-9.8185
▁ola	-9.81852
musikk	-9.81937
barn	-9.81952
▁landskap	-9.8202
▁test	-9.82032
blom	-9.82048
▁75	-9.82088
litt	-9.82134
▁stol	-9.82143
▁kart	-9.82186
▁jø	-9.8221
▁sær	-9.82275
▁måtte	-9.82302
sey	-9.82436
▁tai	-9.82474
saker	-9.82481
pal	-9.82493
styrke	-9.82511
▁syv	-9.82556
▁wall	-9.82592
▁fyr	-9.82606
merke	-9.82614
hild	-9.82615
wald	-9.82757
▁marg	-9.82799
▁klar	-9.82806
orum	-9.82817
▁who	-9.82858
▁akt	-9.82883
plasser	-9.82887
cz	-9.82946
▁bille	-9.8299
▁od	-9.83008
museum	-9.83066
▁pop	-9.83104
▁barb	-9.83105
forhold	-9.8313
▁betydning	-9.83147
ernes	-9.83189
▁fest	-9.83228
oma	-9.8324
bak	-9.83282
▁spiss	-9.8334
▁fot	-9.83348
▁stopp	-9.83453
▁140	-9.83479
▁grunnla	-9.83489
▁brand	-9.83494
aktivitet	-9.83629
type	-9.83643
▁front	-9.83643
▁geir	-9.83652
følge	-9.837
▁herman	-9.83735
▁betegne	-9.83744
▁vanlige	-9.83785
brudd	-9.83799
atur	-9.83911
▁arbeidet	-9.83937
delt	-9.83949
▁nordøst	-9.83978
▁tolkien	-9.83982
▁joseph	-9.83987
ät	-9.83988
▁az	-9.84007
light	-9.84046
hopp	-9.84114
▁high	-9.84127
areal	-9.84157
▁ledes	-9.84157
àn	-9.84188
▁award	-9.84214
▁eldre	-9.84221
skipet	-9.84229
virkning	-9.84236
flue	-9.84239
▁sunn	-9.84316
▁egne	-9.84321
dige	-9.84349
▁kru	-9.84352
▁lærer	-9.84363
▁64	-9.84368
▁los	-9.84418
▁if	-9.84423
ios	-9.84461
▁mei	-9.8447
▁till	-9.8448
▁sentrum	-9.84494
▁cont	-9.84553
▁rygg	-9.84582
maleri	-9.84654
▁bom	-9.84657
▁rose	-9.84676
▁mulig	-9.8486
▁middelsstor	-9.84868
▁1988	-9.84868
tunnelen	-9.84872
п	-9.8489
vang	-9.84891
▁pedersen	-9.84921
▁bilde	-9.84958
▁foruten	-9.84974
mmel	-9.85011
▁skips	-9.85018
▁æres	-9.85084
magasin	-9.85093
▁utdannet	-9.85094
▁hvert	-9.85153
kop	-9.85172
▁aas	-9.85198
▁38	-9.85265
▁152	-9.85278
stø	-9.85291
▁fry	-9.85332
▁ville	-9.85355
hed	-9.85418
jar	-9.85454
▁green	-9.85532
klasse	-9.85587
merket	-9.85653
▁harry	-9.857
ledning	-9.85709
▁trafikk	-9.85727
π	-9.85768
▁1997	-9.85769
▁utdype	-9.85771
▁foreldre	-9.85772
▁rest	-9.85776
▁dverg	-9.85786
▁kalk	-9.8579
▁south	-9.85797
stille	-9.85835
▁kroppen	-9.85862
snegl	-9.85864
▁steder	-9.85929
▁kongen	-9.85945
▁right	-9.85963
nan	-9.85995
▁politiker	-9.86025
▁olavs	-9.86074
▁dekker	-9.86102
setningen	-9.86112
town	-9.86162
▁buk	-9.86171
▁hannen	-9.86199
kamera	-9.86207
▁sco	-9.86214
▁forkorte	-9.86338
▁part	-9.8634
▁ric	-9.86397
▁vær	-9.86554
▁sykl	-9.8659
politikk	-9.86607
▁bert	-9.86646
▁fisk	-9.86663
▁betydelig	-9.86679
▁moderne	-9.86687
▁øvre	-9.86689
▁1990	-9.867
▁statsminister	-9.867
▁rob	-9.86766
periode	-9.86874
▁55	-9.86902
▁mess	-9.86927
mengde	-9.86933
ро	-9.86933
▁historisk	-9.86986
▁trekk	-9.8699
▁back	-9.87002
▁tett	-9.87016
▁svein	-9.87026
▁drag	-9.87168
tind	-9.8719
▁drive	-9.87204
spekt	-9.87293
sim	-9.87315
▁mini	-9.87341
▁jen	-9.8738
ка	-9.87444
riket	-9.87451
▁org	-9.87465
line	-9.87512
▁båt	-9.87533
▁128	-9.8758
olje	-9.87591
▁klima	-9.87633
▁trommer	-9.87714
medlem	-9.87748
snitt	-9.87888
▁bin	-9.88012
▁tau	-9.88018
zan	-9.88035
▁buss	-9.88067
▁lyn	-9.88076
▁brenn	-9.88183
ál	-9.88228
▁sit	-9.88248
▁sun	-9.88258
kort	-9.88296
▁tyskland	-9.88351
istene	-9.88353
botn	-9.88363
▁adam	-9.885
▁act	-9.88517
▁øvrig	-9.88521
▁senter	-9.88535
▁group	-9.88563
▁indre	-9.88567
▁cent	-9.88574
▁grunnlagt	-9.88579
▁sar	-9.88636
▁kjøre	-9.88644
tjenester	-9.88658
▁aar	-9.88718
▁santa	-9.88772
qi	-9.88787
90	-9.88826
ч	-9.88847
bygger	-9.88848
▁city	-9.88882
lokk	-9.889
▁gold	-9.88919
▁tiden	-9.89038
▁fir	-9.89046
▁pil	-9.89131
▁sæ	-9.89145
planter	-9.89191
former	-9.89192
▁kim	-9.89198
▁vinge	-9.8924
fell	-9.89334
▁1998	-9.89456
kandidat	-9.89465
folk	-9.89477
▁2015	-9.89485
▁stoff	-9.89515
▁plate	-9.89516
▁antonio	-9.89526
shan	-9.89533
▁symbol	-9.89611
▁intern	-9.89729
▁dekk	-9.89778
▁wood	-9.89778
▁kjøpt	-9.89802
ар	-9.89821
▁skade	-9.89824
▁funksjon	-9.89838
▁stammer	-9.8984
vald	-9.89856
levende	-9.89909
▁vent	-9.89962
▁fac	-9.89991
pel	-9.90001
▁dannet	-9.90136
sar	-9.9015
▁jun	-9.90158
▁hær	-9.9016
▁typer	-9.90163
myr	-9.90208
▁britisk	-9.90216
▁oversatt	-9.90227
vision	-9.90227
▁brukt	-9.9025
▁nrk	-9.90331
sekretær	-9.90388
aktiv	-9.90409
▁line	-9.90445
▁nicol	-9.90483
▁cath	-9.90491
kro	-9.90528
▁hjemmeside	-9.90596
▁tog	-9.90652
▁rad	-9.90688
▁sideelv	-9.90697
▁stig	-9.90709
gjorde	-9.90775
vá	-9.9079
▁verden	-9.90843
▁jesu	-9.90855
▁drama	-9.90922
▁michel	-9.9093
align	-9.90944
▁pont	-9.9095
▁thu	-9.90957
▁exp	-9.91
▁svarte	-9.91009
dagen	-9.91042
▁nilsen	-9.91044
▁tyske	-9.91058
▁tverr	-9.91082
▁chang	-9.91102
part	-9.91109
vor	-9.91149
▁oh	-9.91152
▁boken	-9.91186
▁spansk	-9.91214
venn	-9.9122
friidrettsutøver	-9.91351
▁1993	-9.91352
▁illustr	-9.91352
▁lære	-9.91353
▁produksjons	-9.91368
▁polar	-9.91378
▁smith	-9.91429
▁love	-9.91496
dikt	-9.91529
virksomhet	-9.91551
▁live	-9.91584
haugen	-9.91653
kraft	-9.91659
ün	-9.91691
▁provins	-9.91766
skilt	-9.91783
▁kirken	-9.9181
▁г	-9.91834
ь	-9.91913
▁ali	-9.91975
▁professor	-9.92078
▁rune	-9.92239
η	-9.92313
▁friedrich	-9.92313
▁kardinal	-9.92313
myndighet	-9.92313
▁1994	-9.92313
▁unicode	-9.92313
▁jørgen	-9.92314
▁digital	-9.92315
▁sivil	-9.92342
▁apo	-9.92352
▁bai	-9.92404
▁kyr	-9.92407
ico	-9.92426
ischen	-9.92431
▁dansk	-9.92457
▁offisielle	-9.92462
▁italia	-9.9248
▁boy	-9.92563
cula	-9.92593
▁preg	-9.92631
▁retts	-9.92702
hard	-9.92738
ǎ	-9.92749
▁henne	-9.9275
gate	-9.92773
▁storm	-9.92773
▁drift	-9.92868
▁tel	-9.92872
later	-9.92878
▁57	-9.92878
▁kok	-9.9305
▁shu	-9.9306
▁ting	-9.93118
element	-9.93128
▁kro	-9.93162
▁godt	-9.93248
γ	-9.93284
prøve	-9.93347
tang	-9.93369
▁flyplass	-9.93402
▁konsert	-9.93499
▁ey	-9.93518
lege	-9.93584
▁tilhøre	-9.93605
tempel	-9.93613
▁ita	-9.93614
▁dur	-9.93651
▁chris	-9.93652
▁är	-9.93652
byrå	-9.93668
mbo	-9.93673
oto	-9.93695
▁operasjon	-9.9375
▁gjeste	-9.93796
▁hä	-9.93804
▁trond	-9.93818
▁bell	-9.93856
▁xu	-9.94104
▁wade	-9.94179
▁kloster	-9.94239
hor	-9.94254
historiker	-9.94261
kommunikasjon	-9.94264
▁stockholm	-9.94264
▁1996	-9.94264
▁gustav	-9.94266
▁himmel	-9.94292
▁2016	-9.94294
▁ordfører	-9.94297
▁even	-9.94315
bridge	-9.94321
▁saint	-9.94384
▁roger	-9.94385
gruppa	-9.94394
▁luk	-9.9444
verdig	-9.94457
▁kari	-9.94473
flo	-9.94479
▁dro	-9.94481
▁day	-9.94525
▁bonde	-9.9455
▁frei	-9.94708
▁linjen	-9.94791
slått	-9.94825
▁bibliotek	-9.94866
▁deler	-9.94872
▁kath	-9.9488
▁tema	-9.94902
▁troll	-9.94919
▁tå	-9.94927
stid	-9.95033
iserer	-9.95065
cca	-9.95083
stjerne	-9.95089
▁finans	-9.95231
▁slo	-9.95242
▁alternativ	-9.95254
▁sverre	-9.95279
▁forekommer	-9.95289
▁anlegget	-9.95307
iel	-9.95382
▁108	-9.95409
ark	-9.95454
▁produksjon	-9.95482
▁utvide	-9.95485
▁ferdig	-9.95502
▁00	-9.95509
vinner	-9.95529
▁tone	-9.95554
▁gå	-9.95581
▁plu	-9.95587
▁legge	-9.95618
betegnelse	-9.95768
▁47	-9.95787
dong	-9.959
▁omtale	-9.95909
▁feil	-9.95967
▁dynastiet	-9.95973
▁dyp	-9.96009
▁159	-9.96085
kjenne	-9.96105
▁forlag	-9.9611
▁alf	-9.96163
▁betydninger	-9.96192
ί	-9.96254
▁alexander	-9.96259
▁programleder	-9.96266
▁skriver	-9.96267
▁text	-9.96285
▁bronse	-9.9632
▁angrep	-9.96334
▁demokrat	-9.9636
▁fylket	-9.96459
▁sjef	-9.96503
▁bou	-9.96515
▁149	-9.96522
hand	-9.96561
▁65	-9.96793
▁union	-9.96859
▁kai	-9.96908
▁motta	-9.96915
vesen	-9.96915
▁eget	-9.97024
▁merke	-9.97059
▁emb	-9.97112
▁cd	-9.97156
gjort	-9.97157
▁sea	-9.97206
ś	-9.97237
▁styrmann	-9.97264
▁referere	-9.97295
▁antenne	-9.97304
▁skatte	-9.97313
▁ull	-9.97319
▁danse	-9.9733
▁adel	-9.97427
▁eva	-9.97427
▁avis	-9.9744
▁nasjonalpark	-9.97517
▁bryst	-9.97539
▁palm	-9.97561
▁hvite	-9.97567
farge	-9.9761
▁pul	-9.97668
god	-9.97689
hui	-9.97835
kirken	-9.979
▁37	-9.97914
handel	-9.97991
▁cri	-9.98017
▁120	-9.98022
▁havne	-9.9803
ito	-9.98072
møte	-9.98094
▁mitt	-9.98107
▁ross	-9.98155
▁gress	-9.98193
▁hir	-9.98203
▁tids	-9.98219
insk	-9.98248
ǔ	-9.98285
▁administrativ	-9.98285
▁1995	-9.98285
ingeniør	-9.98297
▁1980	-9.98322
sand	-9.9834
▁philip	-9.98343
▁daglig	-9.98353
asi	-9.98376
▁verne	-9.98377
▁økt	-9.9847
▁figur	-9.98512
▁147	-9.98525
fyll	-9.98572
▁bølge	-9.98626
▁hellig	-9.98644
▁metro	-9.98646
tog	-9.98668
bille	-9.98682
måte	-9.98716
styrt	-9.9873
kultur	-9.98755
▁krets	-9.98905
▁there	-9.98909
head	-9.98934
▁totalt	-9.98947
fartøy	-9.98968
▁benyttes	-9.99005
▁naturlig	-9.99059
▁hö	-9.99062
▁lim	-9.99085
▁dong	-9.99214
▁09	-9.99235
▁arbeid	-9.99276
person	-9.9929
▁formel	-9.99305
▁tilknyttet	-9.99315
▁tilsvarende	-9.99316
▁1991	-9.99316
▁omtrent	-9.99316
▁tabellen	-9.99316
ος	-9.99325
▁andré	-9.99333
▁skille	-9.99369
▁hjerne	-9.99384
▁fjær	-9.9942
▁115	-9.9942
kjøn	-9.99437
iano	-9.99439
utgivelse	-9.99489
▁besøk	-9.9955
▁uttrykk	-9.99574
▁institut	-9.99577
psykolog	-9.99643
▁stamme	-9.99655
post	-9.9976
drift	-9.99859
▁drev	-9.99912
▁provinshovedsta	-10.0005
▁gil	-10.0013
artikkel	-10.0015
løpet	-10.0017
folket	-10.0036
▁byprefekturet	-10.0036
advokat	-10.0036
▁shanghai	-10.0036
▁beijing	-10.0036
▁sigurd	-10.0036
▁london	-10.0036
▁biskop	-10.0037
▁university	-10.0037
▁york	-10.0038
omi	-10.0052
løft	-10.0055
vre	-10.0061
stilte	-10.0066
▁mala	-10.0066
kerne	-10.0071
▁dog	-10.0072
▁pel	-10.0077
▁hill	-10.0087
jon	-10.009
▁105	-10.009
▁þ	-10.0092
▁krysser	-10.0098
samfunn	-10.0122
▁phil	-10.0127
▁markeds	-10.0129
▁center	-10.0132
▁ost	-10.0135
▁1992	-10.0141
▁dronning	-10.0142
▁nærmest	-10.0142
ovitsj	-10.0145
▁voks	-10.0145
▁europe	-10.0146
utøver	-10.0146
ltså	-10.0148
▁menighet	-10.0154
▁sentrale	-10.0155
▁hode	-10.0158
grupper	-10.0159
▁hil	-10.0163
▁gram	-10.0178
▁lengde	-10.0178
book	-10.0179
mond	-10.0184
utstilling	-10.0188
ва	-10.0191
▁underlag	-10.0191
▁hammer	-10.0199
▁komponist	-10.0201
▁team	-10.0206
▁alv	-10.0207
▁our	-10.0215
▁klokke	-10.0217
▁leon	-10.0223
▁damp	-10.0228
løk	-10.0229
▁sei	-10.0244
▁episode	-10.0248
vall	-10.0249
▁republikken	-10.0252
▁likevel	-10.0255
▁alfred	-10.0258
▁human	-10.0264
ор	-10.0268
▁furu	-10.0272
analyse	-10.0272
trinn	-10.0272
gangen	-10.0273
▁mono	-10.028
▁bord	-10.028
▁53	-10.0283
▁dru	-10.0284
▁lyse	-10.0284
musik	-10.0288
▁skip	-10.0296
▁hoff	-10.0298
äll	-10.0301
▁pave	-10.0305
hagen	-10.0308
▁bomb	-10.0313
hou	-10.0316
▁pl	-10.0322
ordenen	-10.033
vika	-10.033
▁histori	-10.0335
mont	-10.0343
▁109	-10.0352
▁spise	-10.0354
▁idrettslag	-10.0354
▁norrøn	-10.0355
▁inneholdt	-10.0355
livet	-10.0355
▁jakob	-10.0355
hem	-10.0356
▁familiegruppen	-10.0357
▁media	-10.0357
kjøtt	-10.036
▁danmark	-10.0361
▁betegnelsen	-10.0362
▁brown	-10.0363
▁pettersen	-10.0363
▁dominere	-10.0363
ла	-10.0368
motiv	-10.037
▁aldri	-10.0372
▁sterkt	-10.0374
▁tenn	-10.0376
▁tann	-10.0391
▁forsvars	-10.0409
gran	-10.0411
tveit	-10.0413
▁vik	-10.0417
▁way	-10.042
linjen	-10.0423
▁orkester	-10.0424
▁virksomhet	-10.0441
▁life	-10.0448
▁høyde	-10.045
▁upp	-10.0456
▁top	-10.0459
▁tydelig	-10.0464
▁livs	-10.0465
▁enten	-10.0465
▁dialekt	-10.0468
▁oscar	-10.0469
▁passerer	-10.047
▁behandle	-10.0473
▁kvar	-10.0475
▁stål	-10.0482
▁gile	-10.0485
ça	-10.0485
▁mah	-10.0498
vendt	-10.0499
▁ganger	-10.0501
▁høyt	-10.0508
▁hunnen	-10.051
jia	-10.0513
▁fan	-10.0515
▁effekt	-10.0528
▁had	-10.053
▁62	-10.0534
▁holder	-10.0538
▁aks	-10.0553
▁sku	-10.0559
▁rod	-10.0561
roman	-10.0561
økonom	-10.057
▁turist	-10.057
▁forfatteren	-10.0572
▁fed	-10.0572
▁american	-10.0574
▁jule	-10.0577
▁funn	-10.0581
▁knytte	-10.0582
▁fleste	-10.0588
farget	-10.0589
▁gansk	-10.0591
▁bland	-10.0597
▁malt	-10.0601
▁127	-10.0604
cast	-10.0605
ative	-10.0608
▁syr	-10.0609
▁157	-10.0613
atus	-10.0614
elius	-10.0618
terje	-10.0619
ль	-10.0619
▁lyst	-10.0621
▁jevn	-10.0629
festivalen	-10.063
ła	-10.0632
katt	-10.0638
funksjon	-10.0639
▁artene	-10.064
▁mathi	-10.0648
iana	-10.0651
dannelse	-10.0664
▁offisiel	-10.0667
stab	-10.0668
▁religion	-10.0685
▁opprettet	-10.0685
▁drammen	-10.0687
vurder	-10.0693
pass	-10.0696
▁føde	-10.0701
chester	-10.0703
▁lokale	-10.0705
▁fett	-10.071
selva	-10.071
▁114	-10.071
breen	-10.0711
▁jobb	-10.0711
kjede	-10.0714
▁stam	-10.0717
▁41	-10.0718
▁87	-10.0729
▁dør	-10.0731
phy	-10.0732
▁carlo	-10.0733
▁iii	-10.0742
▁vig	-10.0745
fabrikken	-10.0747
▁vokser	-10.0754
produsent	-10.0755
amerikansk	-10.0755
forfatter	-10.0755
▁fv	-10.0762
▁peder	-10.0764
kunst	-10.0764
▁svar	-10.0767
gift	-10.0768
▁henri	-10.077
reaksjon	-10.077
▁162	-10.0771
▁regional	-10.0774
▁qing	-10.0775
▁enhet	-10.0779
▁utstyr	-10.0783
▁wang	-10.079
ц	-10.0797
δ	-10.0797
▁frederik	-10.0798
kommando	-10.0798
▁college	-10.08
slutning	-10.08
▁sara	-10.0805
▁filip	-10.0805
zon	-10.0806
▁gon	-10.0807
bukta	-10.0817
▁egil	-10.0831
▁mary	-10.0835
▁124	-10.0835
▁bakke	-10.0836
stone	-10.084
systemer	-10.0841
▁grim	-10.0841
▁åpen	-10.0841
▁hunde	-10.0846
hør	-10.0847
verdi	-10.0849
▁single	-10.0852
▁alm	-10.0854
▁gli	-10.0859
▁sport	-10.0869
forbindelse	-10.087
prosjekt	-10.0871
▁term	-10.0884
▁lyng	-10.0885
vning	-10.089
▁slett	-10.0902
shire	-10.0903
▁program	-10.0907
▁brev	-10.0908
▁offentlig	-10.0909
▁sovjetunionen	-10.0911
▁svømme	-10.0911
▁ønske	-10.0911
▁flertall	-10.0913
▁tørr	-10.0916
ер	-10.0918
но	-10.092
▁verneområde	-10.0921
▁personlig	-10.0931
artikler	-10.0943
▁piano	-10.0945
grå	-10.0953
▁begrepet	-10.0957
▁tale	-10.0962
▁verb	-10.0962
▁nielsen	-10.0969
▁beskrev	-10.097
▁silke	-10.0972
ни	-10.0973
▁gaten	-10.0975
▁fab	-10.0981
uni	-10.0984
aktige	-10.0984
▁68	-10.0986
▁mul	-10.0988
▁54	-10.0991
▁jr	-10.0996
▁kurt	-10.0996
kål	-10.1006
ington	-10.1007
▁arc	-10.1009
▁språket	-10.1012
▁audi	-10.1012
vitenskap	-10.1013
▁nedre	-10.1015
ин	-10.1025
▁company	-10.1026
▁wel	-10.1027
▁signal	-10.1029
▁clo	-10.103
▁hvis	-10.1032
▁danske	-10.1032
ppa	-10.1033
kjell	-10.1036
fortelling	-10.1036
▁slav	-10.104
▁stiftet	-10.1041
▁prisen	-10.1044
lock	-10.1044
tropp	-10.1047
▁høsten	-10.1047
▁122	-10.1048
▁divisjon	-10.1049
▁kodes	-10.105
▁kjøl	-10.1052
▁alpin	-10.1053
▁kva	-10.1058
▁produserte	-10.1059
▁krok	-10.1064
āng	-10.1075
▁39	-10.1081
ifisert	-10.1082
▁lenge	-10.1092
▁bydelen	-10.1093
bedrift	-10.1103
▁viktig	-10.1107
▁autonome	-10.1115
utstyr	-10.1115
▁registr	-10.112
kvart	-10.1123
undervisning	-10.1127
▁63	-10.1137
▁yng	-10.1142
ekspedisjon	-10.1142
▁dobbelt	-10.1142
▁fulgte	-10.1142
▁sykehus	-10.1143
▁mangler	-10.1143
▁bevegelse	-10.1149
▁mineral	-10.1151
tilstand	-10.1152
▁blokk	-10.1154
hyll	-10.1155
løv	-10.1155
henger	-10.1159
▁forretnings	-10.116
▁123	-10.1164
▁grøn	-10.1165
▁dannes	-10.1165
▁marit	-10.1172
▁streng	-10.1174
▁big	-10.1177
▁kanon	-10.1178
program	-10.1181
▁elektrisk	-10.1184
▁fjellet	-10.1188
▁noter	-10.1196
▁103	-10.1203
▁spp	-10.1206
▁dig	-10.1213
▁ott	-10.1214
strå	-10.1219
erud	-10.1222
wood	-10.1228
design	-10.1229
▁02	-10.1233
kilde	-10.1233
īn	-10.1238
▁play	-10.1242
fred	-10.1245
hau	-10.1252
▁sider	-10.1253
back	-10.1256
sentre	-10.1256
ə	-10.1259
▁giovanni	-10.1259
▁arthur	-10.126
▁sørøst	-10.126
▁filosof	-10.126
▁44	-10.1261
▁åpning	-10.1264
▁rem	-10.1271
▁liber	-10.1285
vatn	-10.1289
▁106	-10.1299
▁ivan	-10.1304
jun	-10.1308
▁intel	-10.1308
▁forbindelse	-10.1316
▁påvirke	-10.1327
ship	-10.1328
materiale	-10.1338
▁malm	-10.1338
▁benyttet	-10.1345
▁kontor	-10.1348
arbeidet	-10.1352
▁teknisk	-10.1356
▁vall	-10.1363
ppel	-10.1374
▁gabriel	-10.1379
▁publisert	-10.1379
▁hebraisk	-10.1379
▁derimot	-10.1379
▁afrika	-10.1379
kunnskap	-10.1382
▁cm	-10.1382
▁møtte	-10.1384
nøtt	-10.1391
ribu	-10.1395
▁adresse	-10.1397
▁normal	-10.1402
▁bog	-10.1405
▁sukker	-10.1405
ōng	-10.1406
▁gården	-10.1415
▁show	-10.1417
▁tank	-10.1422
befal	-10.1422
▁lid	-10.1425
▁ark	-10.1427
idrett	-10.1428
▁77	-10.1428
sdatter	-10.1431
▁vet	-10.1435
▁fler	-10.1437
▁størrelse	-10.1449
▁lot	-10.1452
▁fotograf	-10.1455
rente	-10.1456
▁marin	-10.1464
▁karakter	-10.1464
▁møte	-10.1466
▁utga	-10.147
▁wan	-10.1471
zio	-10.1472
figur	-10.1477
▁brei	-10.148
brød	-10.1484
▁master	-10.1492
▁bull	-10.1493
▁wol	-10.1494
▁bulgarsk	-10.1499
▁sveits	-10.15
▁hurtig	-10.1501
▁nordlig	-10.1503
▁bod	-10.1505
fugler	-10.1511
▁wor	-10.1512
▁markerer	-10.1512
▁alltid	-10.1513
▁125	-10.1524
lapp	-10.1531
øvelse	-10.1539
▁129	-10.1544
prinsipp	-10.1545
▁bud	-10.1546
format	-10.1549
▁ter	-10.1554
▁84	-10.1556
▁ligne	-10.156
kvalitet	-10.1562
▁jud	-10.1575
▁kvinner	-10.1579
▁holde	-10.1586
▁kristen	-10.1587
▁bach	-10.1592
▁gitt	-10.1603
▁penge	-10.1608
▁1982	-10.1621
▁1987	-10.1621
▁nabokommunen	-10.1621
olin	-10.1621
▁skyldes	-10.1622
▁efter	-10.1622
▁papir	-10.1622
▁tibetansk	-10.1625
▁corp	-10.1627
▁dio	-10.1636
▁113	-10.1638
▁øde	-10.164
▁kropps	-10.1642
karriere	-10.1644
▁grov	-10.1647
kjempe	-10.1655
▁smi	-10.1655
▁akk	-10.1655
▁126	-10.1656
▁sna	-10.1656
▁atom	-10.1662
▁bjørk	-10.1668
▁utført	-10.1671
▁produsert	-10.1682
▁slott	-10.1683
illo	-10.1687
sluttet	-10.1687
▁orient	-10.1689
dommen	-10.1691
vakt	-10.1696
▁white	-10.1697
pil	-10.1699
▁130	-10.1699
▁arrangerer	-10.17
▁wid	-10.1703
næring	-10.1706
house	-10.1707
▁seier	-10.171
▁khan	-10.1712
▁leif	-10.1721
▁disk	-10.1724
▁stod	-10.1729
▁fur	-10.1738
eiro	-10.1742
▁total	-10.1742
▁systematikk	-10.1744
▁nedenfor	-10.1745
▁christoph	-10.1747
▁rub	-10.1749
▁invest	-10.1751
▁ånd	-10.1753
▁deltok	-10.1753
▁major	-10.1759
linje	-10.1763
vekt	-10.1764
serien	-10.177
▁fru	-10.1774
▁500	-10.1777
▁utføre	-10.1779
▁pur	-10.178
strup	-10.1787
▁jarl	-10.1789
▁104	-10.1794
▁ube	-10.1816
▁øyene	-10.1819
▁free	-10.1822
▁kryss	-10.1822
▁vakt	-10.1827
▁fløy	-10.1834
▁mou	-10.1834
▁kode	-10.1835
▁kåre	-10.1839
går	-10.1842
▁ash	-10.1843
▁minst	-10.1844
▁135	-10.1845
▁rosa	-10.1851
▁chr	-10.1855
pati	-10.1867
uba	-10.1868
▁deriblant	-10.1869
▁deutsche	-10.187
problemer	-10.187
▁studio	-10.187
▁stadion	-10.1872
▁count	-10.1882
▁finale	-10.1883
▁veien	-10.1886
▁ltd	-10.1892
▁corn	-10.1904
▁guang	-10.1914
▁bunn	-10.1918
▁bag	-10.1918
▁43	-10.1929
ful	-10.1934
▁åpnet	-10.1935
linjer	-10.1936
asso	-10.1937
▁46	-10.1938
▁graf	-10.1944
bregne	-10.1945
nytt	-10.1953
▁økonomisk	-10.1953
▁tyr	-10.1956
gud	-10.1963
høgskole	-10.1967
▁bydel	-10.1975
▁landsby	-10.1977
lind	-10.1982
▁fyrst	-10.1987
▁arkiv	-10.1989
album	-10.1993
journal	-10.1993
▁parlament	-10.1996
▁tilsvarer	-10.1996
▁nordvest	-10.1998
▁oblast	-10.1999
▁alfa	-10.2
▁internett	-10.2
▁uttalt	-10.2005
▁scott	-10.201
blomsterflue	-10.2013
▁china	-10.2016
▁kjempe	-10.2024
▁oftest	-10.2042
skyld	-10.2046
▁svak	-10.2047
▁cel	-10.2048
tilbud	-10.2051
▁skapt	-10.2071
ending	-10.2076
▁åpne	-10.208
▁klasse	-10.2096
▁raj	-10.211
bury	-10.2111
kontroll	-10.2115
▁hein	-10.2122
▁sanskrit	-10.2124
▁vulkan	-10.2124
▁electric	-10.2124
▁school	-10.2125
▁musikal	-10.2125
▁kjemisk	-10.2125
▁journalist	-10.2127
▁grupper	-10.2128
▁uavhengig	-10.2131
▁følge	-10.2134
▁regjerings	-10.2136
▁eide	-10.2136
iya	-10.2136
duk	-10.2137
▁alex	-10.2143
▁junior	-10.2147
▁skar	-10.2151
▁136	-10.2155
▁74	-10.2157
▁programmet	-10.216
versjon	-10.2162
▁107	-10.2167
▁your	-10.2168
▁material	-10.2169
▁102	-10.2175
komst	-10.2176
▁avisen	-10.2184
komite	-10.2185
▁jensen	-10.2199
merker	-10.2202
▁arch	-10.2206
▁beat	-10.2208
leir	-10.221
▁spin	-10.2212
▁deles	-10.2213
skjold	-10.2229
gni	-10.2235
regiment	-10.2238
maker	-10.2248
▁hviterussisk	-10.2254
▁1985	-10.2254
▁katolsk	-10.2254
objekt	-10.2255
▁flå	-10.2256
▁royal	-10.2256
▁edward	-10.2258
undersøkelse	-10.2258
▁kry	-10.2261
▁sverd	-10.2263
▁pet	-10.2263
▁bab	-10.2268
▁portrett	-10.227
▁yi	-10.227
▁fylkesvei	-10.2271
▁årene	-10.2282
▁verd	-10.2285
▁møter	-10.2293
▁fremste	-10.2297
▁kab	-10.2297
itiv	-10.2298
▁slu	-10.2303
▁eie	-10.2305
▁vokalist	-10.2308
▁delvis	-10.2308
▁154	-10.231
▁foto	-10.231
data	-10.2311
▁ramm	-10.2311
▁pira	-10.2314
▁him	-10.2316
▁05	-10.2326
herre	-10.2327
▁hente	-10.2328
▁171	-10.2332
ić	-10.2335
plate	-10.2339
▁cup	-10.2344
▁kop	-10.2349
▁plassert	-10.2354
▁rau	-10.2354
▁øyvin	-10.2365
▁normalt	-10.2372
▁ansvarlig	-10.2376
avgift	-10.2376
▁dd	-10.2376
▁records	-10.2386
▁1984	-10.2386
hjem	-10.2386
▁59	-10.2386
▁trø	-10.2389
▁håkon	-10.239
▁nordisk	-10.2394
▁schw	-10.2406
▁tegnet	-10.2407
▁float	-10.241
▁organisasjonen	-10.2411
▁kjær	-10.2414
▁flekk	-10.2422
long	-10.2423
▁400	-10.2427
▁walter	-10.243
hamn	-10.2432
cchi	-10.2434
▁lapp	-10.2436
▁jonas	-10.2436
▁sankt	-10.2436
▁forkortelse	-10.2459
▁72	-10.2462
▁144	-10.2464
somme	-10.2481
▁call	-10.2481
cent	-10.2481
▁teknologi	-10.2482
▁pad	-10.2492
▁båten	-10.2496
møll	-10.2497
▁carol	-10.2505
▁elisabeth	-10.2519
▁1981	-10.2519
▁1968	-10.2519
▁1972	-10.2519
kompleks	-10.2519
▁tour	-10.2526
▁kjønn	-10.2527
forsk	-10.2529
▁well	-10.254
▁tran	-10.2541
▁billed	-10.2545
▁bau	-10.2547
▁ytre	-10.2558
ated	-10.256
▁51	-10.2561
chel	-10.2569
aux	-10.2571
▁vitenskapelig	-10.2572
▁holdt	-10.2575
tjenesten	-10.2575
gö	-10.2577
icus	-10.2577
▁morgen	-10.2593
▁lj	-10.2595
buk	-10.2607
▁anta	-10.2621
▁paris	-10.2625
spenning	-10.2626
▁thy	-10.2627
▁festning	-10.2629
pul	-10.2631
▁grunnlegger	-10.2637
▁142	-10.2639
▁hodet	-10.2641
ân	-10.2648
▁139	-10.2649
mennene	-10.2649
▁forbinde	-10.2649
▁bow	-10.2651
▁sikte	-10.2654
▁københavn	-10.2654
▁1965	-10.2654
▁tømmer	-10.2654
▁berømt	-10.2655
▁allerede	-10.2656
▁frankrike	-10.2657
▁fiolin	-10.2657
▁straffe	-10.266
▁1986	-10.2661
verksted	-10.2665
▁vanligste	-10.2666
▁lansert	-10.2668
▁nederland	-10.2668
▁flagg	-10.2676
▁yan	-10.2685
▁134	-10.2692
▁interesse	-10.27
syke	-10.2704
▁lamb	-10.2715
▁mongol	-10.2722
nagar	-10.2729
▁great	-10.2739
▁smak	-10.2743
▁asp	-10.2751
bryte	-10.2752
▁gruve	-10.2754
▁korn	-10.2763
▁latinsk	-10.2765
skift	-10.2769
print	-10.2776
▁maj	-10.2777
▁mach	-10.2778
fyr	-10.2779
befolkning	-10.2788
▁work	-10.2789
▁fullstendig	-10.2791
spørsmål	-10.2791
▁1983	-10.2791
▁relativ	-10.2791
▁midgard	-10.2793
▁perioden	-10.2796
▁hustru	-10.2799
▁sikkerhets	-10.2803
hā	-10.2807
stasjonen	-10.2809
serie	-10.2811
▁johnny	-10.2811
▁east	-10.2816
▁137	-10.2823
grep	-10.2827
▁ernst	-10.2828
▁145	-10.2837
▁spring	-10.284
formasjon	-10.2841
valget	-10.2844
▁viking	-10.2855
▁thom	-10.2855
rykk	-10.2856
▁jä	-10.2859
▁300	-10.2867
krever	-10.2869
burn	-10.2871
zzo	-10.2872
▁mj	-10.2883
▁francis	-10.2901
▁vu	-10.2902
abili	-10.2904
hul	-10.2906
▁busk	-10.2906
▁lån	-10.2906
▁gjenopp	-10.2915
▁133	-10.292
ев	-10.2925
dress	-10.2925
utgave	-10.2929
▁debutalbum	-10.293
▁spesiell	-10.293
▁ungarsk	-10.293
▁eldste	-10.293
▁sørvest	-10.2931
hastighet	-10.2931
▁islam	-10.2932
▁stefan	-10.2933
▁forteller	-10.2933
▁josé	-10.2934
▁pierre	-10.2934
kall	-10.2936
trafikk	-10.2937
▁soldat	-10.2938
▁popul	-10.2941
miljø	-10.2943
▁85	-10.295
galleri	-10.2953
▁persisk	-10.2953
kysten	-10.2953
▁motstand	-10.2961
programmer	-10.2976
ður	-10.2984
kjent	-10.2991
guan	-10.2994
alisme	-10.2996
▁48	-10.3
skjoldet	-10.3006
▁tradisjon	-10.3009
▁høg	-10.3017
▁73	-10.303
korn	-10.3038
▁rö	-10.3048
offiser	-10.3062
▁bang	-10.3067
arrangement	-10.3071
▁yrkes	-10.3071
▁united	-10.3072
ddy	-10.3072
pasient	-10.3082
▁franz	-10.3085
▁høst	-10.3088
▁kum	-10.3089
ет	-10.3091
plattform	-10.3094
▁snakke	-10.3095
▁jeff	-10.3098
▁bibel	-10.3102
▁main	-10.3103
arkiv	-10.3104
▁kald	-10.3106
▁pha	-10.3109
▁116	-10.311
▁høyere	-10.3123
▁112	-10.3125
ск	-10.3125
▁cour	-10.3144
▁pho	-10.3159
▁supp	-10.316
ittisk	-10.3161
▁kaptein	-10.3171
ischer	-10.3175
▁øker	-10.3179
▁kval	-10.3183
▁148	-10.3184
▁reserve	-10.3193
▁gross	-10.3207
egnet	-10.3208
restaurant	-10.3214
▁dirigent	-10.3214
▁1975	-10.3214
skulptur	-10.3214
▁klassisk	-10.3214
▁fiktiv	-10.3215
▁nattfly	-10.3217
▁røyk	-10.3223
▁utvikler	-10.3226
▁fortsette	-10.3227
tvedt	-10.3234
regionen	-10.3235
▁78	-10.3239
та	-10.3255
▁heart	-10.326
stell	-10.3261
▁66	-10.3268
▁novo	-10.3273
▁frode	-10.3277
▁korea	-10.3286
▁koloni	-10.3288
▁petro	-10.3292
▁jakt	-10.3295
▁lunge	-10.3296
prest	-10.3298
søkte	-10.331
▁qa	-10.3316
▁wild	-10.3317
▁lill	-10.3335
▁past	-10.334
▁than	-10.3348
variant	-10.3353
▁amerika	-10.3358
sykepleie	-10.3359
▁østerrike	-10.3359
▁henholdsvis	-10.336
▁euro	-10.3361
▁hva	-10.3364
apparat	-10.3365
▁blank	-10.3369
lista	-10.337
mission	-10.3374
▁urdu	-10.3375
▁markert	-10.3376
▁bjerk	-10.3377
▁irsk	-10.3378
hjelp	-10.3384
▁ledelse	-10.3385
våk	-10.3386
▁sesongen	-10.3392
▁poeng	-10.3393
▁sound	-10.3401
turnering	-10.3401
ordning	-10.3405
▁ful	-10.3406
▁olaf	-10.341
▁toll	-10.342
kling	-10.342
▁49	-10.3438
▁56	-10.3446
▁kapp	-10.3451
alitet	-10.3453
recht	-10.3469
politisk	-10.3482
ashi	-10.3485
▁feng	-10.3486
stitusjon	-10.3495
▁93	-10.3498
▁bære	-10.3501
▁rudolf	-10.3506
▁bakkroppen	-10.3506
▁support	-10.3506
▁forårsake	-10.3507
▁generalsekretær	-10.3507
▁prosent	-10.3507
terapi	-10.3512
▁omtalt	-10.3513
▁dvs	-10.3535
tidsskrift	-10.3536
▁asia	-10.3555
stift	-10.3559
utvalget	-10.3562
▁08	-10.3564
klin	-10.3585
▁game	-10.3587
▁måned	-10.359
▁kast	-10.3596
▁koll	-10.3604
▁gw	-10.3622
▁most	-10.363
▁snu	-10.3647
▁vladimir	-10.3655
frekvens	-10.3655
▁egypt	-10.3655
▁science	-10.3655
järvi	-10.3655
▁hjort	-10.3657
▁omhandle	-10.3661
terminal	-10.3662
▁jordbruk	-10.3664
masse	-10.3666
▁sving	-10.3667
kron	-10.3668
inntekt	-10.367
▁tell	-10.3671
▁88	-10.3675
▁ulv	-10.3677
▁plo	-10.368
▁bakover	-10.3683
▁110	-10.3683
pping	-10.3685
▁skall	-10.3693
▁143	-10.3695
▁opphav	-10.3696
▁glad	-10.3703
blå	-10.3704
▁klein	-10.3709
▁måne	-10.3714
▁begynner	-10.3714
▁regjer	-10.3717
▁four	-10.3727
kommen	-10.3733
▁ekstra	-10.3738
graph	-10.3739
ætt	-10.374
▁frihet	-10.3757
skaja	-10.3758
▁plast	-10.3759
▁pic	-10.3761
▁petr	-10.3767
▁nettverk	-10.377
ми	-10.3771
▁font	-10.3788
gås	-10.3793
▁prins	-10.3795
▁klassen	-10.3795
υ	-10.3806
▁1979	-10.3806
▁diplom	-10.3807
▁petersburg	-10.3807
▁medlemmene	-10.3807
▁central	-10.3807
▁global	-10.3809
▁padding	-10.3809
▁bakterie	-10.381
▁mytologi	-10.381
reserv	-10.3812
▁tolv	-10.3813
▁forvingen	-10.3819
▁jacobsen	-10.382
▁engel	-10.3834
▁lauren	-10.3839
▁niels	-10.3844
direktør	-10.3845
instrument	-10.3845
▁good	-10.3849
▁panser	-10.3853
▁hval	-10.3853
▁johnson	-10.3859
▁län	-10.3862
grønn	-10.3863
vikler	-10.3867
▁bryn	-10.3871
aksjon	-10.3893
▁jose	-10.3901
▁nick	-10.3904
▁jia	-10.392
▁femte	-10.392
fordeling	-10.3923
magasinet	-10.3927
▁frp	-10.3931
▁ørn	-10.3936
zú	-10.3949
▁öst	-10.3952
▁brasil	-10.3957
▁europeisk	-10.3959
filosofi	-10.396
▁sannsynlig	-10.396
▁tusenårssted	-10.396
▁naturreservat	-10.396
▁1961	-10.396
▁fremdeles	-10.396
stipend	-10.3961
▁kjærlighet	-10.3961
▁kristiansand	-10.3962
▁archive	-10.3962
▁stortings	-10.3962
▁redusere	-10.3962
▁what	-10.3964
▁gott	-10.3965
strategi	-10.3966
▁hotell	-10.3967
▁hop	-10.3967
▁gjø	-10.3968
▁tommy	-10.3969
▁sørlig	-10.3978
▁spina	-10.3979
▁oppgave	-10.3982
▁bha	-10.3989
▁raf	-10.3992
▁arkitektur	-10.3992
gram	-10.3997
dynastiet	-10.4004
teknologi	-10.4004
▁young	-10.401
kryp	-10.4013
fylt	-10.4024
▁hyper	-10.403
vegen	-10.4031
▁social	-10.4033
▁acc	-10.4046
▁quin	-10.4047
▁saga	-10.4052
▁kvit	-10.4062
rico	-10.4068
▁slå	-10.407
fabrik	-10.4077
▁95	-10.4092
gutt	-10.4104
▁religiøs	-10.4117
▁symptom	-10.4117
▁opprinnelse	-10.4117
▁pradesh	-10.4117
▁1973	-10.4117
▁moskva	-10.4117
▁oversettelse	-10.4117
ópolis	-10.4117
▁etterfølger	-10.4117
▁fjerde	-10.4117
▁noctu	-10.4117
▁tidsskriftet	-10.4119
tårnet	-10.4119
▁stavanger	-10.412
▁melodi	-10.4123
▁forvaltnings	-10.4127
▁gyld	-10.4133
▁karin	-10.4134
▁hindi	-10.4138
evitsj	-10.414
▁luther	-10.414
▁when	-10.4141
bevegelsen	-10.4141
▁nau	-10.4142
▁enkle	-10.4145
▁first	-10.415
vind	-10.4152
▁autonom	-10.4154
▁skifte	-10.4169
▁overflate	-10.417
▁handling	-10.417
▁arrangere	-10.4173
▁67	-10.4175
▁svan	-10.4175
worth	-10.4178
kommer	-10.4184
svarte	-10.4192
▁mé	-10.4197
spiss	-10.4197
trolig	-10.4207
wick	-10.4209
▁bodde	-10.4211
▁nerve	-10.4214
▁kongelig	-10.4217
owski	-10.4219
thal	-10.4265
gav	-10.4268
▁bispedømme	-10.4275
▁public	-10.4275
▁således	-10.4275
▁1967	-10.4275
▁1976	-10.4275
▁church	-10.4276
▁heinrich	-10.4276
▁golf	-10.4277
▁techn	-10.4282
▁overfor	-10.4285
▁ukjent	-10.4287
▁katedral	-10.4291
▁smør	-10.4294
▁fuji	-10.4312
▁jiu	-10.4318
effekt	-10.433
▁bønn	-10.4334
studier	-10.4345
distanse	-10.4366
▁71	-10.437
ional	-10.4378
ogram	-10.4381
tjern	-10.4426
abad	-10.4427
▁tradisjonel	-10.4429
▁josef	-10.4432
dommer	-10.4435
skade	-10.4436
løytnant	-10.4437
▁fødsel	-10.4437
▁sistnevnte	-10.4437
▁1970	-10.4437
▁sjelden	-10.4437
▁senior	-10.4438
mønster	-10.4439
▁stadium	-10.4439
▁forsvaret	-10.4441
▁clark	-10.4443
kontrakt	-10.4445
døgn	-10.4454
kasse	-10.4458
skab	-10.4458
buch	-10.446
schaft	-10.446
cup	-10.4462
▁lengst	-10.4463
▁susan	-10.4463
▁legend	-10.4466
▁pip	-10.4468
▁eriksen	-10.4469
▁zhu	-10.4473
løype	-10.4474
▁singel	-10.448
▁07	-10.4481
▁81	-10.4481
▁luci	-10.4486
▁04	-10.4489
▁crist	-10.4491
behandling	-10.4496
orkester	-10.4497
▁gårds	-10.4517
brand	-10.452
bukk	-10.4537
della	-10.4539
▁kvin	-10.4548
▁tusen	-10.4549
▁hjemmebane	-10.4557
halvøya	-10.4558
ów	-10.4559
ulykke	-10.4562
▁linn	-10.4567
▁norman	-10.4572
▁nevro	-10.458
årig	-10.4581
▁nederlandsk	-10.4589
brev	-10.4592
bæk	-10.4599
▁1978	-10.4601
▁kristoffer	-10.4601
kapasitet	-10.4601
▁kontakt	-10.4602
▁foregår	-10.4602
▁insekt	-10.4603
▁styreleder	-10.4605
▁bundes	-10.4605
kapital	-10.4606
▁møller	-10.4607
▁llc	-10.4607
▁eksport	-10.4609
▁meyer	-10.4612
tavle	-10.4618
stokk	-10.4623
▁klatre	-10.4624
▁sammenlign	-10.4642
▁fotballklubb	-10.4645
▁orgel	-10.4645
zhong	-10.4649
▁grund	-10.4656
sort	-10.4656
▁119	-10.4665
bibliotek	-10.4665
▁myk	-10.4671
▁dyrke	-10.4671
▁solberg	-10.4675
bekken	-10.468
språklig	-10.4703
▁jøde	-10.4708
▁61	-10.4708
opol	-10.4713
▁mich	-10.4725
▁innsjø	-10.4725
▁cover	-10.4733
▁grø	-10.4739
xiang	-10.4739
▁kub	-10.4755
bilder	-10.4764
▁individ	-10.4767
▁arrangør	-10.4767
▁1977	-10.4767
▁1955	-10.4767
betennelse	-10.4767
▁adolf	-10.4768
▁dårlig	-10.477
▁definere	-10.4772
▁fader	-10.4773
samband	-10.4777
bebyggelse	-10.4777
▁kaffe	-10.4784
▁inndelt	-10.4786
struct	-10.479
rommet	-10.4804
▁night	-10.4808
▁semi	-10.481
▁radi	-10.4816
▁prefekturet	-10.4823
▁vincen	-10.4832
president	-10.4837
transport	-10.4838
sentrum	-10.4839
▁sym	-10.4845
▁hund	-10.4849
endringer	-10.4853
▁castel	-10.4854
▁glu	-10.4875
▁má	-10.4883
▁elias	-10.4884
▁ferge	-10.4906
▁utløp	-10.4907
forvaltning	-10.4926
▁administrere	-10.493
ruten	-10.493
lutt	-10.4933
▁aleksandr	-10.4937
▁sjeldne	-10.4937
▁1962	-10.4937
▁tyrkisk	-10.4937
visning	-10.4937
spirasjon	-10.4937
▁yizhi	-10.4937
▁know	-10.4938
▁skøyte	-10.4939
▁ridder	-10.4939
▁ishockey	-10.494
▁drept	-10.4942
▁bjør	-10.4943
▁brenselstype	-10.4944
▁kallenavn	-10.4945
▁drikke	-10.4951
▁reida	-10.4956
▁wolf	-10.4957
▁99	-10.4978
▁138	-10.498
▁stabil	-10.4981
▁homo	-10.4997
▁revers	-10.4999
▁vindu	-10.5023
▁øke	-10.5024
▁vad	-10.5032
reise	-10.5033
▁hauk	-10.5037
chang	-10.5053
▁91	-10.5055
ал	-10.5055
▁begrep	-10.506
stamme	-10.5065
skriver	-10.5071
▁bjar	-10.5071
▁drei	-10.5073
▁101	-10.5075
▁sesong	-10.5076
ли	-10.5084
▁mario	-10.5086
▁læ	-10.5089
▁gris	-10.5093
▁miste	-10.5096
flik	-10.5106
ская	-10.5109
▁orchestra	-10.5109
▁profesjonell	-10.5109
▁tilgjengelig	-10.5109
▁washington	-10.5109
▁initiativ	-10.5109
konstruksjon	-10.5109
▁igjennom	-10.5109
▁linux	-10.5109
▁komponert	-10.511
▁kriminal	-10.511
hawk	-10.511
▁knud	-10.5111
▁skjell	-10.5113
artilleri	-10.5115
▁revolusjon	-10.5115
sekvens	-10.5118
▁varianten	-10.5122
pakke	-10.5122
▁vinnerlag	-10.5124
▁ungdomsskole	-10.5127
▁øystein	-10.5129
▁asbjørn	-10.5131
▁down	-10.5131
▁03	-10.5134
▁utenom	-10.5136
▁opprør	-10.5138
▁bjarne	-10.5142
ovic	-10.5147
▁kjenn	-10.5149
▁brian	-10.5154
▁118	-10.516
▁munk	-10.5167
▁600	-10.5171
time	-10.5178
domstol	-10.5181
▁76	-10.5183
▁olga	-10.5196
▁seine	-10.5203
▁vokste	-10.5209
▁jess	-10.5213
ugle	-10.5226
▁lü	-10.5229
▁gitarist	-10.5242
▁98	-10.5245
▁color	-10.5251
modellen	-10.5258
▁karbon	-10.5262
▁ungdom	-10.5263
▁111	-10.5267
administrasjon	-10.5268
kritiker	-10.5273
republikk	-10.5276
▁alkohol	-10.5285
▁passasjer	-10.5285
▁kommunal	-10.5285
▁1960	-10.5285
▁1964	-10.5285
▁ingrid	-10.5285
▁alexandr	-10.5285
▁prinsesse	-10.5286
мо	-10.5288
▁snart	-10.529
▁import	-10.529
stemme	-10.529
▁vingene	-10.53
▁krog	-10.5304
▁report	-10.5311
▁forbunds	-10.5316
▁trenings	-10.5336
▁maha	-10.5338
▁rab	-10.5339
gått	-10.5348
▁økonomi	-10.5351
▁little	-10.5352
▁henning	-10.5352
▁96	-10.5354
kirch	-10.5363
nntil	-10.5372
redaktør	-10.5374
▁robin	-10.538
front	-10.5382
quist	-10.5385
▁swa	-10.5391
▁aksje	-10.5396
▁bratt	-10.5409
speil	-10.542
veps	-10.5438
rapport	-10.5447
støv	-10.545
▁flø	-10.5455
▁etterfulgt	-10.5463
▁storbritannia	-10.5463
▁łód	-10.5463
▁regissør	-10.5463
suksess	-10.5463
▁innskriften	-10.5464
▁regissert	-10.5464
▁hjelm	-10.5464
komité	-10.5464
▁tildeles	-10.5465
▁vanskelig	-10.5465
▁xiàn	-10.5466
▁tibet	-10.5467
▁befolkningen	-10.5469
bahn	-10.5469
▁1950	-10.547
▁bakgrunn	-10.547
▁nevne	-10.5478
faktor	-10.5479
▁kö	-10.5482
beskrivelse	-10.5488
▁barnehage	-10.5491
odden	-10.5494
▁place	-10.5496
▁grønland	-10.5509
▁hilde	-10.553
▁pensjon	-10.5536
▁aksel	-10.554
lândia	-10.5542
kompani	-10.5543
▁søke	-10.5548
▁registrert	-10.5558
spect	-10.557
biologi	-10.5572
kommisjon	-10.5577
▁forbl	-10.5578
▁hundre	-10.558
▁aero	-10.5582
▁victor	-10.5584
▁vegg	-10.5593
view	-10.5609
cycl	-10.5612
▁cru	-10.5618
kjerne	-10.5622
avhengig	-10.5633
▁69	-10.5641
støl	-10.5643
▁research	-10.5645
▁tilskuere	-10.5645
▁australia	-10.5645
▁omfattende	-10.5645
▁1958	-10.5645
▁natrium	-10.5645
▁utmerkelse	-10.5645
forsikring	-10.5645
▁alvorlig	-10.5645
▁theodor	-10.5646
▁sendte	-10.5647
egenskaper	-10.5652
døgnfluer	-10.5658
bestemt	-10.5659
▁muskel	-10.5661
▁forekom	-10.5667
▁vandre	-10.5669
▁kapell	-10.5669
derav	-10.5678
▁german	-10.5684
▁begrense	-10.5684
▁benevn	-10.5686
▁fritz	-10.5687
vík	-10.5693
▁forsker	-10.5704
▁represent	-10.5721
ngshan	-10.5727
dersom	-10.5733
sykdom	-10.5757
ий	-10.5764
▁klippe	-10.5776
▁gill	-10.5785
festival	-10.58
▁79	-10.582
▁serra	-10.5827
▁forøvrig	-10.583
▁etterhvert	-10.583
▁trygve	-10.583
▁special	-10.583
▁syndrom	-10.583
▁edvard	-10.583
molekyl	-10.5831
ου	-10.5831
konsernet	-10.5832
▁2018	-10.5835
▁1930	-10.5837
▁allmenn	-10.5842
▁pistol	-10.5843
▁hersker	-10.5858
▁yngre	-10.5861
▁samuel	-10.5867
spreng	-10.5874
▁stadig	-10.5878
▁reform	-10.5883
▁117	-10.5883
▁131	-10.589
▁centre	-10.5897
▁tykk	-10.5911
▁regel	-10.5926
ре	-10.5927
▁sovjet	-10.5932
▁utkom	-10.594
▁statlig	-10.5949
▁salme	-10.5965
▁slip	-10.5993
sikkerhet	-10.6003
▁keyboard	-10.6019
▁mercedes	-10.6019
▁ytterligere	-10.6019
▁hverandre	-10.6019
▁1969	-10.6019
▁1971	-10.6019
▁1956	-10.6019
▁1945	-10.6019
▁skildre	-10.602
▁eventyr	-10.602
▁foretrekke	-10.6024
cephal	-10.6024
▁hvordan	-10.603
▁bydistrikt	-10.603
førsel	-10.6032
▁vidar	-10.6033
nøkkel	-10.6047
▁diesel	-10.6049
bjørg	-10.6051
▁modern	-10.6053
finalen	-10.6055
▁06	-10.6072
tromme	-10.6078
▁132	-10.6086
▁skei	-10.6112
avtale	-10.6118
blanding	-10.612
ović	-10.6124
hånd	-10.6137
vitenskapelig	-10.614
440	-10.6141
ucci	-10.6142
▁141	-10.6158
stock	-10.6179
guó	-10.6182
▁lasse	-10.6185
høyden	-10.6185
produkt	-10.621
▁corporation	-10.6211
▁dekkvingene	-10.6211
▁utelukke	-10.6211
▁ukraina	-10.6211
▁ludvig	-10.6211
▁1963	-10.6211
ensemble	-10.6211
ский	-10.6211
▁thailand	-10.6212
▁prince	-10.6212
▁krystall	-10.6212
▁betrakte	-10.6212
pedagog	-10.6212
▁skotsk	-10.6214
▁ledende	-10.6215
▁håndball	-10.6215
▁nasjonalsang	-10.6216
dimensjon	-10.6216
▁vannkraft	-10.6216
ablo	-10.622
▁moore	-10.6221
▁moll	-10.6222
▁bodø	-10.6225
▁henriksen	-10.6227
ière	-10.623
▁1900	-10.6234
▁veldig	-10.6236
▁introduserte	-10.6241
▁ansatte	-10.6245
▁rulle	-10.6255
▁virkelig	-10.6255
▁domini	-10.6259
▁johnsen	-10.627
▁other	-10.6278
▁medisinsk	-10.6283
wang	-10.6285
▁avslutt	-10.6289
▁sovjetisk	-10.63
▁skarp	-10.6332
öll	-10.6337
▁england	-10.6339
▁blind	-10.6344
▁sandvik	-10.6348
näs	-10.6355
▁89	-10.6394
▁kilometer	-10.6407
▁guvernør	-10.6407
▁innbyggerne	-10.6407
▁sykkel	-10.6407
▁people	-10.6407
▁zhang	-10.6408
▁oppdaget	-10.6408
▁fjeld	-10.6408
rettigheter	-10.6409
▁protein	-10.641
▁two	-10.6412
▁varianter	-10.6414
▁liberal	-10.6414
▁gregor	-10.6415
▁bernard	-10.6418
situasjon	-10.6418
▁høyesterett	-10.6419
▁hemmelig	-10.6426
▁bevart	-10.6426
▁sammenlagt	-10.6427
sidig	-10.6431
▁karakteristisk	-10.6434
▁ansikt	-10.6437
▁nettside	-10.6444
støtte	-10.6447
▁hugh	-10.6469
▁victoria	-10.6473
fiber	-10.6527
▁alban	-10.6539
stemte	-10.6583
melding	-10.6602
▁vennskapsbyer	-10.6607
sentralbanksjef	-10.6607
▁vilhelm	-10.6607
▁1966	-10.6607
▁wagner	-10.6607
▁lørdag	-10.6607
veksling	-10.6608
▁ragnar	-10.6608
▁mekanisk	-10.6608
▁cirka	-10.6608
▁opptrer	-10.661
▁koreansk	-10.6611
gericht	-10.6611
▁nkp	-10.6611
bourn	-10.6612
▁kvalifiser	-10.6619
▁romersk	-10.6622
kså	-10.6624
▁axel	-10.6625
▁partner	-10.6627
▁eirik	-10.6632
▁bedrifts	-10.6635
▁forvalte	-10.6636
▁østlig	-10.6637
knapp	-10.6644
▁cruz	-10.6653
▁sorg	-10.667
lengde	-10.6688
strakt	-10.6704
ǎn	-10.6719
sentral	-10.6755
bølge	-10.6759
witz	-10.676
ма	-10.6768
modul	-10.6769
▁laks	-10.6778
▁utenriks	-10.6778
▁elizabeth	-10.6811
▁favoritt	-10.6811
▁bryggeri	-10.6811
▁management	-10.6811
▁buddhist	-10.6811
▁kennedy	-10.6811
▁tvilling	-10.6811
▁1974	-10.6811
▁hekke	-10.6811
▁vunnet	-10.6811
▁innspilling	-10.6812
▁positiv	-10.6812
▁valentin	-10.6812
straße	-10.6813
▁kveld	-10.6814
holdsvis	-10.6814
▁skjedde	-10.6816
▁werner	-10.6817
▁fremstille	-10.6817
▁komposisjon	-10.6821
▁miao	-10.6823
▁hormon	-10.6824
▁salix	-10.6825
▁nepal	-10.6826
▁stryk	-10.6832
▁herbert	-10.6839
nemlig	-10.685
hausen	-10.6853
▁lauri	-10.6877
gnano	-10.6904
▁kreert	-10.6917
▁eple	-10.692
▁utnevnt	-10.6931
▁hovedrollen	-10.695
kunstner	-10.6978
sjön	-10.6984
ń	-10.7018
forstyrrelse	-10.702
▁færøysk	-10.702
▁oksygen	-10.702
▁ytterkant	-10.702
▁hvilke	-10.702
▁halvorsen	-10.702
kompetanse	-10.702
▁abraham	-10.702
▁1929	-10.702
▁1951	-10.702
▁parallell	-10.702
▁1936	-10.702
▁direct	-10.702
▁flerårig	-10.702
▁ungarn	-10.702
▁luigi	-10.7021
assistent	-10.7021
protokoll	-10.7021
ны	-10.7022
▁lewis	-10.7022
▁elektronisk	-10.7022
▁akutt	-10.7023
▁temple	-10.7023
▁beholdt	-10.7024
▁lengre	-10.7026
▁1920	-10.7028
▁norway	-10.703
▁rednings	-10.7034
▁arkeolog	-10.7034
▁institusjon	-10.7035
følelse	-10.7036
▁viktor	-10.7037
▁eksistere	-10.704
▁sosialistisk	-10.7046
ciano	-10.7047
▁grunnlegge	-10.706
▁hydr	-10.7062
ground	-10.7092
▁morgan	-10.7093
▁mä	-10.7094
▁oberst	-10.7096
strømmen	-10.7119
▁lykke	-10.7129
▁nådd	-10.7151
▁prefektur	-10.7162
tekst	-10.7166
universitetet	-10.7172
fylke	-10.718
programmet	-10.7182
▁automat	-10.7205
▁twi	-10.7219
▁vietnam	-10.7232
▁utbredt	-10.7232
▁html	-10.7232
▁håvard	-10.7232
▁1957	-10.7232
▁geometri	-10.7232
▁tegneserie	-10.7233
▁serbisk	-10.7233
▁kobber	-10.7233
ński	-10.7234
▁arbeiderpartiet	-10.7235
▁arendal	-10.7237
▁eivind	-10.7237
▁grün	-10.7237
▁kritikk	-10.7239
▁novell	-10.724
vandring	-10.7247
▁spesifik	-10.7251
▁vitenskaps	-10.7253
strekning	-10.7258
▁utnytte	-10.726
▁midtbane	-10.7272
fysikk	-10.7284
▁bokser	-10.733
ifikasjon	-10.7348
▁athen	-10.7382
politi	-10.7393
▁introduser	-10.7416
▁ludwig	-10.745
▁norwegian	-10.745
▁portugisisk	-10.745
▁konstantin	-10.745
▁ferskvann	-10.745
▁evangeli	-10.745
▁1949	-10.745
stimulere	-10.745
▁inndelingen	-10.745
▁kenneth	-10.745
▁1952	-10.745
▁hovedkvarter	-10.745
▁kommentar	-10.745
▁avhandling	-10.745
▁negativ	-10.745
▁fysisk	-10.7451
▁muslim	-10.7451
▁regulere	-10.7451
ressurs	-10.7451
▁marianne	-10.7452
▁sibir	-10.7452
▁claudi	-10.7452
▁datamaskin	-10.7453
▁micro	-10.7453
▁hypot	-10.7455
▁fengsel	-10.7455
enøst	-10.7457
▁francesc	-10.7462
älven	-10.7464
▁bokstaven	-10.7465
▁slange	-10.7472
kostnad	-10.7473
▁tynn	-10.7497
måke	-10.7497
fokus	-10.7502
stry	-10.7513
▁beregne	-10.7517
▁gudinne	-10.7526
aften	-10.7526
scenen	-10.7533
opptak	-10.7557
korset	-10.7624
divisjon	-10.7628
glass	-10.7652
▁aleksander	-10.7672
▁eksperiment	-10.7672
▁mountain	-10.7672
▁asteroide	-10.7672
▁chicago	-10.7672
▁oppstår	-10.7672
▁1937	-10.7672
▁1935	-10.7672
▁1946	-10.7672
▁1934	-10.7672
kommandant	-10.7672
▁wylie	-10.7672
▁vietnamesisk	-10.7672
▁haakon	-10.7673
▁finskspråklig	-10.7673
opplæring	-10.7673
betjent	-10.7675
jīng	-10.7675
▁våt	-10.7678
▁monark	-10.7679
▁leonard	-10.768
▁fuktig	-10.7682
liknende	-10.7683
▁formula	-10.7685
oidea	-10.7687
▁hovedkontor	-10.7688
▁dream	-10.7689
▁fremført	-10.769
▁isteden	-10.7695
▁bedriften	-10.7696
▁tilpasse	-10.7699
▁kaare	-10.77
▁forsterke	-10.7709
relatert	-10.7717
▁mulighet	-10.7722
▁feire	-10.7723
bokstav	-10.7724
konsert	-10.7741
lilje	-10.7761
pleie	-10.7778
toft	-10.7796
▁esk	-10.7798
mongolsk	-10.7798
▁kommunistisk	-10.7818
sæter	-10.7832
institutt	-10.7835
▁flamme	-10.7865
▁microsoft	-10.7899
▁publikum	-10.7899
saksofon	-10.7899
vassdraget	-10.7899
▁pattedyr	-10.7899
▁1948	-10.7899
▁1953	-10.7899
▁uigur	-10.7899
▁ronald	-10.79
▁söder	-10.79
▁risiko	-10.79
▁donald	-10.79
kombinasjon	-10.79
▁nærmere	-10.7901
▁væske	-10.7901
▁flytende	-10.7902
▁gråbrun	-10.7903
▁xiao	-10.7906
▁telemark	-10.7907
▁disney	-10.7908
▁francisco	-10.7909
▁country	-10.7909
▁turbin	-10.791
▁krevd	-10.7911
▁elsker	-10.7912
▁jernbanestasjon	-10.7916
▁effektiv	-10.7917
▁ørken	-10.7918
styring	-10.7921
▁rapporter	-10.7922
▁hevde	-10.7924
zhuang	-10.793
▁automatisk	-10.7937
hemme	-10.7941
drevet	-10.7945
▁maxim	-10.7961
▁maritim	-10.797
redaksjon	-10.7979
▁variert	-10.7984
klipp	-10.7995
familie	-10.7998
▁astronom	-10.8
▁nevnt	-10.8004
kollen	-10.804
arkitekt	-10.8099
▁brent	-10.811
ω	-10.8131
▁jomfru	-10.8132
▁millimeter	-10.8132
▁tønsberg	-10.8132
▁vingespenn	-10.8132
▁windows	-10.8132
▁kollektiv	-10.8132
▁douglas	-10.8132
▁frivillig	-10.8132
▁færøyene	-10.8132
▁jacque	-10.8132
▁1959	-10.8132
▁geografisk	-10.8132
▁arrangert	-10.8132
▁psych	-10.8132
konferanse	-10.8132
høvding	-10.8132
▁essay	-10.8132
▁tromsø	-10.8133
▁bærum	-10.8134
▁hurra	-10.8135
▁gerhard	-10.8135
vokst	-10.8136
▁enzym	-10.8137
▁kongsberg	-10.8137
▁1911	-10.8138
▁sergej	-10.8139
▁finnmark	-10.8139
▁1912	-10.8139
▁administrerende	-10.8141
▁hindu	-10.8141
▁øks	-10.8142
vytsj	-10.8144
▁partileder	-10.8144
▁brønn	-10.8146
▁short	-10.8153
▁lisens	-10.8156
qiao	-10.8173
forsyning	-10.8175
kansler	-10.8175
▁earl	-10.818
palasset	-10.8202
▁symbolisere	-10.824
orientert	-10.8243
▁sokn	-10.8255
▁ronn	-10.8302
kjøl	-10.8315
forretning	-10.8327
historisk	-10.8343
frukt	-10.8343
hockey	-10.8366
▁aluminium	-10.837
▁infanteri	-10.837
▁symphon	-10.837
▁benjamin	-10.837
▁xinjiang	-10.837
▁1931	-10.837
▁1938	-10.837
▁høyhastighets	-10.837
▁airlines	-10.837
▁søndag	-10.837
▁stephen	-10.837
infeksjon	-10.837
▁studioalbum	-10.8371
ων	-10.8371
▁senator	-10.8371
▁margaret	-10.8371
▁über	-10.8371
▁hybrid	-10.8371
▁tørke	-10.8373
▁wolfgang	-10.8373
▁godkjent	-10.8373
▁airport	-10.8374
köping	-10.8375
▁lokalisert	-10.8375
▁spirit	-10.8377
▁kjæreste	-10.8377
▁1919	-10.8379
▁command	-10.8379
▁forbruker	-10.838
açu	-10.838
▁glenn	-10.8392
▁spyd	-10.8401
▁fredag	-10.8416
▁organisert	-10.8439
regnskap	-10.8446
komedie	-10.8483
▁tolk	-10.8493
balanse	-10.8505
▁plateselskap	-10.8505
kvinne	-10.8535
▁palass	-10.8544
stigning	-10.8546
evolusjon	-10.8606
basseng	-10.8609
▁barcelona	-10.8614
▁bulgaria	-10.8614
▁langrennsløper	-10.8614
▁lawrence	-10.8614
▁puppeperioden	-10.8614
▁society	-10.8614
▁patriark	-10.8614
▁absolut	-10.8614
▁project	-10.8614
▁petroleum	-10.8614
▁nordsamisk	-10.8614
▁kjennetegne	-10.8614
▁skottland	-10.8614
▁1940	-10.8614
▁1954	-10.8614
▁1924	-10.8614
▁1942	-10.8614
▁would	-10.8614
▁montreal	-10.8614
▁björn	-10.8614
rådgiver	-10.8614
▁prosessor	-10.8615
▁programvare	-10.8618
▁klinisk	-10.8619
▁instituttet	-10.862
▁innlede	-10.8623
▁hvile	-10.8627
▁giuli	-10.8631
▁håndverk	-10.866
plikasjon	-10.8693
▁plantefamilie	-10.8695
▁blanc	-10.8725
rystal	-10.8727
▁hjørne	-10.8733
hjørn	-10.8743
forskeren	-10.875
▁inneha	-10.878
▁datterselskap	-10.8816
størrelse	-10.8848
▁departement	-10.8851
▁pseudo	-10.8861
▁trommeslager	-10.8864
▁trøndelag	-10.8864
▁tsjekkisk	-10.8864
▁oppdatert	-10.8864
▁zhōng	-10.8864
▁1939	-10.8864
▁amundsen	-10.8864
▁gælisk	-10.8864
▁marilyn	-10.8864
▁eventuel	-10.8864
▁stephan	-10.8865
▁mikael	-10.8865
▁utenlandsk	-10.8865
▁about	-10.8866
▁definert	-10.8866
▁taiwan	-10.8867
ον	-10.8867
trukket	-10.8868
▁alpinisten	-10.8869
▁control	-10.8877
▁volks	-10.888
▁ødelegge	-10.8883
underholdning	-10.8887
klosteret	-10.8889
utenriksminister	-10.8905
▁frels	-10.8907
▁viklere	-10.8919
▁kommunist	-10.8923
▁klæ	-10.8925
mottak	-10.8933
▁funnstede	-10.8944
sypress	-10.8971
døde	-10.8987
▁begynne	-10.9018
grunnlaget	-10.9085
instruktør	-10.912
▁association	-10.912
▁generalmajor	-10.912
▁sebastian	-10.912
▁vedlikehold	-10.912
▁joachim	-10.912
▁selvstendig	-10.912
▁buddha	-10.912
▁1921	-10.912
▁ovenfor	-10.912
▁forbedre	-10.9121
▁trompet	-10.9121
flaggermus	-10.9121
avstemning	-10.9122
▁anvendes	-10.9122
▁bernhard	-10.9122
▁visepresident	-10.9122
▁søvn	-10.9122
▁hertug	-10.9123
▁buffa	-10.9123
gjald	-10.9125
▁fjellkjede	-10.9125
qvist	-10.9126
bestemmelse	-10.9127
▁nederst	-10.9128
▁trenger	-10.9129
▁søndr	-10.9129
▁overføre	-10.9136
▁etnisk	-10.9218
▁variere	-10.9246
▁oppleve	-10.9248
че	-10.9289
ribbe	-10.9317
▁hospital	-10.932
▁elektr	-10.9331
▁aftenposten	-10.9383
▁frankfurt	-10.9383
▁inskripsjon	-10.9383
▁manuskript	-10.9383
▁utgangspunkt	-10.9383
▁østerriksk	-10.9383
▁lillehammer	-10.9383
▁litauisk	-10.9383
▁tilføyd	-10.9383
▁frazioni	-10.9383
▁oxford	-10.9383
▁medvirkende	-10.9383
▁taylor	-10.9383
▁1905	-10.9383
▁1926	-10.9383
▁1904	-10.9383
▁1933	-10.9383
▁1944	-10.9383
▁frederick	-10.9383
▁overlevde	-10.9383
▁reklame	-10.9384
▁capital	-10.9384
▁detroit	-10.9384
▁rumensk	-10.9384
▁storkommunen	-10.9385
▁where	-10.9385
▁slovensk	-10.9385
▁afrikansk	-10.9385
▁griff	-10.9385
▁nyheter	-10.9385
▁diverse	-10.9386
▁spredt	-10.9387
▁nyhets	-10.9388
▁generell	-10.939
▁strekningen	-10.9391
▁alpene	-10.9392
▁betong	-10.9393
▁andorra	-10.9393
kobling	-10.9399
▁birgit	-10.9407
eksamen	-10.941
▁brahm	-10.9421
▁idrettsforening	-10.9426
demokratisk	-10.9428
▁fasci	-10.9458
▁varemerke	-10.9495
dømt	-10.9531
▁anthony	-10.9654
▁network	-10.9654
▁philadelphia	-10.9654
▁tortricidae	-10.9654
▁installert	-10.9654
▁kapittel	-10.9654
▁technology	-10.9654
▁frilufts	-10.9654
▁matthew	-10.9654
▁piauí	-10.9654
▁colombia	-10.9654
konsulent	-10.9654
leksikon	-10.9654
▁1908	-10.9654
▁1928	-10.9654
▁1925	-10.9654
▁svovel	-10.9654
lokomotiv	-10.9654
▁anerkjenne	-10.9654
▁jelena	-10.9654
regulering	-10.9654
▁kalsium	-10.9655
▁redigert	-10.9655
▁muhamm	-10.9656
▁christensen	-10.9656
▁nichol	-10.9656
▁styremedlem	-10.9657
▁arnold	-10.9658
▁cooper	-10.9658
▁sørensen	-10.9659
tilsynet	-10.9666
cept	-10.9673
svermer	-10.9693
▁moderat	-10.9706
forsamlingen	-10.9718
jernbane	-10.9735
▁identifi	-10.9755
▁barokk	-10.9763
foretak	-10.9796
kolleg	-10.9817
▁utdann	-10.985
croi	-10.9876
ć	-10.9886
▁skuespill	-10.9928
▁california	-10.9931
▁ferdinand	-10.9931
▁göteborg	-10.9931
▁münchen	-10.9931
symmetrisk	-10.9931
▁bystatus	-10.9931
patrulje	-10.9931
▁symfoni	-10.9931
kommandør	-10.9932
▁fungerte	-10.9932
bataljon	-10.9932
▁veksel	-10.9932
bråten	-10.9932
▁fantasy	-10.9932
▁ålesund	-10.9932
▁1879	-10.9932
▁innsats	-10.9932
▁regelmessig	-10.9932
▁redusert	-10.9932
▁systematisk	-10.9933
▁steffen	-10.9934
▁purpur	-10.9934
▁bmw	-10.9934
konvensjon	-10.9935
▁anatol	-10.994
▁debatt	-10.994
registre	-10.994
▁protest	-10.994
▁romsdal	-10.9947
lokale	-10.9966
karbonat	-10.9968
givelse	-10.9972
ighed	-10.9989
skrevet	-11.0088
▁бо	-11.0106
indeks	-11.0121
▁fyringsolje	-11.0217
▁mjøndalen	-11.0217
▁ragnhild	-11.0217
▁kronprins	-11.0217
▁øivind	-11.0217
▁admiral	-11.0217
▁synonym	-11.0217
▁wergeland	-11.0217
▁generelt	-11.0217
▁hyppig	-11.0217
▁waldemar	-11.0217
▁nacional	-11.0217
▁bokstavelig	-11.0217
budsjett	-11.0217
▁antarktis	-11.0217
▁kroatia	-11.0217
▁kombinert	-11.0217
disiplin	-11.0217
▁1907	-11.0217
▁1941	-11.0217
▁1947	-11.0217
▁fenomen	-11.0217
▁könig	-11.0217
▁trebukker	-11.0217
▁tyrkia	-11.0217
▁kroatisk	-11.0217
▁murray	-11.0217
▁ekstrem	-11.0218
▁utseende	-11.0218
▁gjær	-11.0218
▁bevisst	-11.0219
▁bård	-11.0219
▁apollo	-11.0219
forhandling	-11.022
anadiens	-11.022
▁monroe	-11.0221
▁jonatha	-11.0222
▁smelte	-11.0223
▁signert	-11.0232
▁cruise	-11.0236
ansvarlig	-11.0239
▁studere	-11.0262
dybde	-11.0264
▁harmoni	-11.0383
▁satellitt	-11.0511
skilpadde	-11.0511
▁afghanistan	-11.0511
▁françois	-11.0511
▁kringkasting	-11.0511
▁skiskytter	-11.0511
▁valutakode	-11.0511
▁konkurrere	-11.0511
▁virginia	-11.0511
▁antagelig	-11.0511
▁frigjøring	-11.0511
▁innebærer	-11.0511
▁pakistan	-11.0511
▁århundre	-11.0511
▁raymond	-11.0511
▁observer	-11.0511
▁1922	-11.0511
inspektør	-11.0511
▁krydder	-11.0512
▁1899	-11.0512
▁1896	-11.0512
▁1878	-11.0512
▁1873	-11.0512
▁stortinget	-11.0512
▁1844	-11.0512
▁syssel	-11.0512
▁embeds	-11.0513
▁elect	-11.0517
papir	-11.0544
fatning	-11.0548
røtter	-11.0586
overflaten	-11.0711
▁barndoms	-11.0753
▁alegre	-11.0773
▁døgnflue	-11.0781
katedralen	-11.0784
▁academy	-11.0814
▁basketball	-11.0814
▁müller	-11.0814
▁olympisk	-11.0814
▁ortodoks	-11.0814
▁pacific	-11.0814
▁tsjekkoslovakia	-11.0814
▁advance	-11.0814
▁referanse	-11.0814
▁1902	-11.0814
▁1927	-11.0814
▁baptist	-11.0814
leverandør	-11.0815
▁grieg	-11.0815
▁praktisere	-11.0815
▁nedbør	-11.0815
▁об	-11.0815
▁kommersiell	-11.0815
▁1888	-11.0815
▁kombinere	-11.0815
▁hovedpersonen	-11.0815
▁gummi	-11.0815
fosfat	-11.0816
komponent	-11.0816
rgesmesterskapet	-11.0816
▁belgisk	-11.0817
▁føderal	-11.0819
▁św	-11.0822
▁за	-11.0828
▁stedsnavn	-11.0833
litteratur	-11.0855
student	-11.0859
tradisjon	-11.086
▁drenere	-11.0888
hvelv	-11.0915
gjerd	-11.0918
asiatisk	-11.1022
▁psyko	-11.1028
knute	-11.1036
bevegelse	-11.1058
▁bransje	-11.109
▁aserbajdsjan	-11.1127
▁helikopter	-11.1127
▁inklusive	-11.1127
▁republika	-11.1127
▁tsjekkia	-11.1127
▁valgdeltakelse	-11.1127
▁zìzhìxiàn	-11.1127
publikasjon	-11.1127
▁benedict	-11.1127
▁carabidae	-11.1127
▁rasmussen	-11.1127
▁rekrutt	-11.1127
▁through	-11.1127
þ	-11.565
ñ	-13.0566
