<unk>	0
<s>	0
</s>	0
.	-3.23331
s	-3.44513
e	-3.51825
▁i	-3.73837
t	-3.96806
▁og	-3.97781
▁	-3.9974
er	-4.10629
en	-4.22603
▁av	-4.48708
r	-4.53048
▁er	-4.57204
▁en	-4.73265
▁som	-4.79026
▁for	-4.83251
n	-4.85683
▁til	-4.90558
et	-4.96964
▁på	-4.99458
▁med	-5.09381
▁den	-5.22351
a	-5.25529
▁ble	-5.31829
▁var	-5.33449
▁de	-5.40105
▁det	-5.44741
▁fra	-5.48289
▁et	-5.61239
▁har	-5.63507
ene	-5.63925
▁å	-5.69276
i	-5.70736
▁han	-5.72186
d	-5.73461
k	-5.85803
ne	-5.90101
o	-5.94329
▁ved	-6.00398
y	-6.02569
g	-6.15615
▁at	-6.17492
▁også	-6.19666
m	-6.24175
f	-6.24801
l	-6.25238
te	-6.25269
▁om	-6.28474
▁etter	-6.34435
p	-6.36326
▁under	-6.37007
re	-6.37089
▁ut	-6.37225
▁s	-6.39541
de	-6.41062
▁eller	-6.45617
v	-6.47761
ing	-6.49805
▁over	-6.51093
▁kan	-6.51392
us	-6.53841
▁to	-6.54131
▁be	-6.54836
h	-6.55118
▁opp	-6.55553
in	-6.5645
▁men	-6.57747
b	-6.59031
c	-6.59225
▁inn	-6.61293
an	-6.62758
▁a	-6.63538
▁da	-6.63803
▁seg	-6.6634
▁18	-6.70046
is	-6.70411
on	-6.7092
▁hadde	-6.71035
al	-6.78535
u	-6.79209
sk	-6.79879
▁f	-6.83169
▁andre	-6.84216
na	-6.8508
▁mot	-6.86358
▁ikke	-6.86417
▁sin	-6.86706
le	-6.88486
▁født	-6.92574
▁the	-6.93041
ia	-6.93397
▁mellom	-6.9462
▁p	-6.94807
ter	-6.96696
ar	-6.97889
▁m	-6.98509
▁ha	-7.00943
▁1	-7.02835
w	-7.03725
ende	-7.0409
▁første	-7.04625
▁hun	-7.05414
▁hans	-7.06073
▁tre	-7.06198
z	-7.07072
▁dette	-7.0754
▁u	-7.07757
lig	-7.08296
▁re	-7.09901
sen	-7.10045
ke	-7.12293
ri	-7.12995
▁ligger	-7.135
▁c	-7.14043
▁g	-7.15596
la	-7.16139
▁al	-7.16846
▁k	-7.1808
j	-7.2
▁d	-7.20465
um	-7.2055
▁blant	-7.2096
▁la	-7.21292
vis	-7.21645
▁der	-7.21812
▁man	-7.22069
ma	-7.22245
il	-7.22629
x	-7.22742
land	-7.22898
▁fikk	-7.23271
ur	-7.23601
ver	-7.23616
iske	-7.23936
▁sammen	-7.24429
ta	-7.26621
isk	-7.26988
ens	-7.27028
nes	-7.27946
▁kom	-7.28347
nde	-7.28528
li	-7.28991
▁denne	-7.29282
▁gjennom	-7.29621
or	-7.29762
ra	-7.30608
▁flere	-7.32078
den	-7.32131
el	-7.32633
▁ca	-7.32726
ng	-7.33057
▁2	-7.33427
▁nord	-7.33455
ch	-7.33917
▁17	-7.34365
ske	-7.34625
▁of	-7.35883
▁her	-7.36908
be	-7.3727
as	-7.3775
ør	-7.37753
▁b	-7.39342
lo	-7.39581
▁3	-7.40732
▁kr	-7.40738
▁år	-7.41251
ig	-7.41562
ning	-7.41689
▁ra	-7.42785
os	-7.43148
ck	-7.43337
▁an	-7.43346
ut	-7.43882
da	-7.44424
kt	-7.47255
▁o	-7.47334
▁v	-7.47425
▁blir	-7.47753
for	-7.48251
▁tidligere	-7.49045
▁le	-7.49109
ti	-7.49615
▁ny	-7.50312
▁se	-7.50486
øy	-7.50653
é	-7.50807
▁hvor	-7.5144
▁før	-7.51722
me	-7.51823
bo	-7.51899
▁bo	-7.51903
▁h	-7.52449
▁død	-7.52863
di	-7.53251
ler	-7.53264
son	-7.53313
at	-7.53478
▁alle	-7.53576
▁stor	-7.53812
▁ro	-7.54125
der	-7.55106
▁del	-7.55994
ge	-7.56445
lige	-7.56457
▁kommune	-7.56463
▁vi	-7.57355
ul	-7.57569
▁mer	-7.57957
▁annet	-7.58216
▁15	-7.58421
▁mange	-7.58675
▁sa	-7.59247
ff	-7.59517
▁ba	-7.59532
id	-7.59763
▁så	-7.60077
▁norsk	-7.60318
▁5	-7.60324
▁disse	-7.60522
▁16	-7.60552
▁4	-7.61367
▁hoved	-7.6146
ro	-7.61667
▁di	-7.61776
ve	-7.61844
ker	-7.62297
▁sør	-7.62488
▁byen	-7.6334
▁senere	-7.63698
▁sitt	-7.63785
▁li	-7.64041
▁land	-7.64046
ja	-7.64235
ry	-7.65057
▁l	-7.65072
ner	-7.66109
▁in	-7.66269
ga	-7.67042
ton	-7.6706
ka	-7.67191
▁noen	-7.68318
man	-7.68333
▁co	-7.68481
▁mens	-7.68598
op	-7.68947
ger	-7.69308
pe	-7.69366
kk	-7.70122
erte	-7.70375
it	-7.70745
▁t	-7.70804
ist	-7.71436
ste	-7.71894
▁ta	-7.72421
▁vest	-7.72529
▁kjent	-7.72773
å	-7.72781
si	-7.72797
stad	-7.72985
ad	-7.73293
to	-7.73404
▁as	-7.74735
else	-7.74985
th	-7.75199
▁store	-7.75373
▁ga	-7.75487
▁si	-7.75665
▁være	-7.7579
ko	-7.75851
▁by	-7.75931
dal	-7.7607
var	-7.76314
ic	-7.7648
▁j	-7.76591
co	-7.76613
▁rundt	-7.77821
▁ofte	-7.77947
berg	-7.78454
▁ned	-7.78601
ol	-7.78606
▁sp	-7.78683
▁ni	-7.78924
▁lo	-7.79291
▁6	-7.79324
ell	-7.79842
un	-7.80074
ant	-7.80703
▁bu	-7.8073
▁frem	-7.80852
by	-7.80989
▁siden	-7.8136
▁kon	-7.81596
▁pa	-7.81623
▁per	-7.81782
▁øst	-7.82207
gi	-7.82434
ik	-7.83134
▁10	-7.833
mi	-7.83648
▁selv	-7.83669
▁slik	-7.83815
▁st	-7.84115
ce	-7.84271
▁navnet	-7.84445
▁ti	-7.84775
mo	-7.85801
ven	-7.85934
het	-7.86212
▁lag	-7.86387
vik	-7.86409
bi	-7.86412
ø	-7.86502
▁he	-7.8653
▁na	-7.86667
▁vil	-7.87564
gikk	-7.87585
▁nå	-7.88052
▁sine	-7.88212
mann	-7.88295
▁navn	-7.88648
mer	-7.89021
▁ri	-7.89094
rett	-7.89096
mp	-7.89133
ll	-7.89175
▁dag	-7.89264
▁kalt	-7.89669
gen	-7.89691
æ	-7.89767
ba	-7.89794
va	-7.90118
erne	-7.90273
▁and	-7.90462
▁n	-7.90495
▁går	-7.90953
ha	-7.90963
▁no	-7.91132
skap	-7.91227
▁tallet	-7.91684
▁ol	-7.92087
dag	-7.92186
▁vært	-7.92294
▁både	-7.92578
▁du	-7.92687
pp	-7.92825
om	-7.92989
▁samt	-7.9325
▁pro	-7.93342
▁12	-7.93363
▁fa	-7.936
▁7	-7.9372
ster	-7.94166
▁blit	-7.94213
▁fri	-7.94686
▁lu	-7.94905
▁bak	-7.95003
ær	-7.95825
▁do	-7.95878
▁8	-7.96359
▁w	-7.96438
▁skal	-7.96479
▁samme	-7.96567
▁ho	-7.96726
bu	-7.97081
▁bar	-7.97281
ang	-7.9737
▁pi	-7.97494
▁mo	-7.97597
▁mest	-7.98668
ard	-7.98715
▁kunne	-7.98948
vi	-7.99117
▁finnes	-7.99185
▁14	-7.99351
▁ham	-7.99619
opp	-7.99686
▁norge	-7.9999
▁bestå	-8.00176
▁norske	-8.00247
▁hos	-8.00264
▁mor	-8.0097
men	-8.00979
▁tid	-8.0103
lu	-8.01143
go	-8.01381
▁kinesisk	-8.01412
▁grunn	-8.01902
nd	-8.02235
tter	-8.02361
▁far	-8.02555
á	-8.02687
ie	-8.03127
asjon	-8.03544
▁ma	-8.04089
av	-8.04202
▁sk	-8.04558
tor	-8.04946
▁13	-8.05068
▁mai	-8.05501
▁ar	-8.05564
ly	-8.0572
▁km	-8.05723
▁so	-8.05747
ering	-8.06196
ca	-8.06378
▁11	-8.06536
▁enn	-8.06629
▁fly	-8.06832
▁su	-8.07352
je	-8.08001
▁or	-8.08389
ring	-8.0871
▁po	-8.0879
▁nye	-8.09603
▁ka	-8.09711
am	-8.09751
au	-8.09862
▁største	-8.1037
tur	-8.10983
▁mars	-8.11154
▁fire	-8.1118
▁mar	-8.11192
▁fram	-8.11348
▁tor	-8.1144
ans	-8.11538
▁vant	-8.11641
▁noe	-8.12063
ö	-8.12324
▁august	-8.12781
ov	-8.12882
▁lang	-8.1295
sh	-8.13299
▁te	-8.13307
ho	-8.13687
ina	-8.13898
ier	-8.14041
▁ru	-8.14557
▁vann	-8.14708
▁hele	-8.14766
▁musikk	-8.14919
ok	-8.14938
▁ei	-8.14954
▁når	-8.14983
▁el	-8.15041
gu	-8.15355
▁skulle	-8.15453
lag	-8.15501
▁film	-8.15654
▁juli	-8.16114
do	-8.16178
▁tok	-8.16268
9	-8.16439
▁gi	-8.16457
del	-8.16546
▁20	-8.1672
les	-8.16799
ru	-8.16895
ment	-8.17126
▁hu	-8.17572
▁bare	-8.17574
ings	-8.17727
io	-8.17823
and	-8.17877
▁mål	-8.17979
▁hel	-8.18283
▁januar	-8.18591
▁kirke	-8.18744
tal	-8.18772
▁oslo	-8.1883
▁jo	-8.19402
lin	-8.19409
▁9	-8.19702
▁ski	-8.20002
▁000	-8.20251
▁sch	-8.20607
sta	-8.20652
ed	-8.20741
hu	-8.20768
ud	-8.20845
▁bra	-8.20866
▁sol	-8.20984
▁me	-8.21237
▁meter	-8.22666
iv	-8.22692
▁ge	-8.22763
im	-8.22864
ni	-8.23068
po	-8.23181
▁gang	-8.23213
▁juni	-8.23241
bar	-8.23421
▁sønn	-8.23732
▁ne	-8.2387
▁tilbake	-8.2392
▁pe	-8.24017
itt	-8.24243
od	-8.2437
br	-8.24427
gang	-8.24585
▁y	-8.24845
ling	-8.24892
sjon	-8.24936
▁bi	-8.24955
tak	-8.24972
elle	-8.25148
▁utgitt	-8.25262
▁nær	-8.25658
ium	-8.25685
▁ko	-8.25801
▁innen	-8.25915
ü	-8.26039
▁skole	-8.26377
▁am	-8.26417
sel	-8.26533
▁bli	-8.2672
sted	-8.26811
▁john	-8.27349
ci	-8.2743
▁alt	-8.27656
▁gjen	-8.27682
tid	-8.27802
▁kunst	-8.27846
no	-8.27969
▁dem	-8.28145
▁vanlig	-8.28186
▁gu	-8.28444
▁deres	-8.28699
▁all	-8.28753
pa	-8.28756
siden	-8.28899
▁brukt	-8.29194
▁tillegg	-8.29382
▁ak	-8.29448
▁siste	-8.2977
▁eks	-8.30143
▁sam	-8.30159
ill	-8.30436
▁rekke	-8.31106
ä	-8.31195
und	-8.31649
▁ja	-8.31662
▁go	-8.31893
form	-8.31904
▁langs	-8.32033
mm	-8.32389
▁usa	-8.32529
hold	-8.32841
stre	-8.329
ag	-8.33158
ir	-8.33305
▁april	-8.33394
▁wa	-8.33524
▁car	-8.33597
ft	-8.34018
ede	-8.34289
ot	-8.34438
len	-8.34659
tra	-8.34838
år	-8.35075
▁uten	-8.35078
▁laget	-8.35346
▁spiller	-8.3561
▁tro	-8.35782
▁fem	-8.35798
▁r	-8.35958
▁fl	-8.36017
fa	-8.36035
▁tv	-8.36106
▁små	-8.36257
ken	-8.36347
hus	-8.36886
▁oktober	-8.36923
▁russisk	-8.36924
▁san	-8.37045
ow	-8.3705
vin	-8.3723
▁brukes	-8.37306
ingen	-8.37505
min	-8.37536
▁2007	-8.3789
sj	-8.37892
itet	-8.37939
ion	-8.38
▁0	-8.3812
▁november	-8.38371
▁ad	-8.38379
mb	-8.38423
per	-8.39133
▁spilte	-8.39208
▁gift	-8.39243
▁30	-8.39349
ku	-8.39447
▁nor	-8.39456
▁leder	-8.39508
ian	-8.39533
▁par	-8.39911
ige	-8.4001
▁mindre	-8.40104
▁x	-8.4018
▁2010	-8.40343
▁kina	-8.40672
ac	-8.40793
▁tri	-8.40883
▁ju	-8.4117
▁hus	-8.41258
3	-8.41299
elsen	-8.41367
▁fi	-8.41411
▁parti	-8.41763
▁området	-8.41827
▁skrev	-8.41842
▁ab	-8.41885
log	-8.42036
▁em	-8.42048
▁høy	-8.42054
▁kor	-8.42511
▁ulike	-8.42816
▁landet	-8.42876
▁kalles	-8.43034
▁fast	-8.43042
▁kultur	-8.43236
▁desember	-8.43353
▁februar	-8.43609
til	-8.43688
tar	-8.43757
over	-8.43831
ou	-8.43857
▁con	-8.43929
bruk	-8.44035
▁provinsen	-8.44128
▁videre	-8.44142
og	-8.44263
▁ver	-8.44418
ting	-8.44544
▁eksempel	-8.44563
▁må	-8.44616
midlertid	-8.4464
▁hennes	-8.45044
▁2008	-8.45168
▁verdens	-8.45197
ius	-8.45274
sten	-8.45522
slag	-8.4566
inn	-8.45979
▁folke	-8.46183
▁kun	-8.46327
▁rett	-8.46342
▁2006	-8.46477
ningen	-8.46562
▁min	-8.4673
▁kommer	-8.47023
▁like	-8.47179
pi	-8.47233
sp	-8.47349
▁få	-8.47704
▁fo	-8.47817
par	-8.48008
▁september	-8.4806
verk	-8.48203
▁lov	-8.48227
▁filmen	-8.48262
tro	-8.4829
▁gruppen	-8.48816
følge	-8.48853
kon	-8.49234
ber	-8.49246
▁tra	-8.49572
stein	-8.49706
dalen	-8.49719
▁hver	-8.49778
▁kong	-8.50044
dd	-8.50072
▁bl	-8.50122
ikk	-8.50166
▁new	-8.50323
kom	-8.50748
▁bruk	-8.50777
▁barn	-8.50791
▁sett	-8.50903
anske	-8.51136
▁først	-8.51168
▁va	-8.51231
yl	-8.51238
▁ki	-8.51304
mar	-8.51452
▁kn	-8.51697
▁skrevet	-8.51789
▁lys	-8.51958
▁svær	-8.52026
sch	-8.52083
▁innehold	-8.52164
5	-8.52186
▁bru	-8.52554
▁2009	-8.5273
▁fjell	-8.53229
kor	-8.53241
tiske	-8.53306
wa	-8.5339
▁je	-8.53432
▁gir	-8.53448
lse	-8.53458
ron	-8.53461
▁døde	-8.53528
satt	-8.53654
▁vei	-8.54135
▁selskapet	-8.54296
vel	-8.54639
▁ch	-8.5498
4	-8.55842
za	-8.56098
▁mi	-8.5618
▁plan	-8.56213
ong	-8.56649
▁gamle	-8.57018
▁syn	-8.57068
▁sand	-8.57234
ó	-8.57249
let	-8.57474
▁bro	-8.57534
▁beste	-8.57615
burg	-8.5767
▁mat	-8.57757
▁wi	-8.57868
▁president	-8.57931
ki	-8.58112
fjorden	-8.58128
ak	-8.5815
í	-8.58423
▁igjen	-8.58498
tiden	-8.58612
▁hen	-8.58794
ran	-8.58818
▁begynte	-8.59041
▁særlig	-8.59089
▁lå	-8.59154
tisk	-8.59259
▁bandet	-8.59339
▁kjente	-8.59366
kan	-8.59444
he	-8.59476
▁stein	-8.59639
met	-8.59642
▁bety	-8.59853
▁cha	-8.60029
▁nasjonal	-8.60435
fi	-8.60515
ine	-8.6074
ord	-8.6096
▁25	-8.6097
▁au	-8.61047
tten	-8.61094
tre	-8.61111
▁pu	-8.61117
▁hi	-8.61127
▁egen	-8.61129
▁engelsk	-8.61281
▁tysk	-8.61329
▁dr	-8.61332
2	-8.61402
▁2005	-8.61527
jo	-8.61551
▁val	-8.61561
▁bil	-8.61662
gg	-8.61724
ld	-8.61776
▁kort	-8.61869
▁sjø	-8.62237
▁forskjellig	-8.62344
▁øy	-8.62356
▁språk	-8.62515
▁deretter	-8.62791
vo	-8.62876
løp	-8.62892
▁medlem	-8.63071
▁gresk	-8.63073
ley	-8.63085
ation	-8.63145
▁amerikansk	-8.63623
▁dermed	-8.63705
▁året	-8.63927
bb	-8.64241
▁gul	-8.64355
leg	-8.64557
▁lever	-8.64736
ica	-8.64778
▁vel	-8.64858
▁satt	-8.64892
▁ingen	-8.64902
▁gjern	-8.65021
ble	-8.65091
ek	-8.6523
est	-8.65279
▁innbyggere	-8.65572
▁bok	-8.65655
00	-8.65948
ug	-8.6614
▁helt	-8.66263
▁startet	-8.66268
▁begge	-8.66292
eres	-8.664
▁sta	-8.66478
rik	-8.6659
▁hy	-8.66661
▁tidlig	-8.66749
▁2011	-8.66864
legg	-8.6708
▁mye	-8.67124
em	-8.67189
▁halv	-8.67327
▁tyske	-8.6748
▁samtidig	-8.67527
jer	-8.67781
derfor	-8.6781
▁innenfor	-8.67923
▁rom	-8.681
isme	-8.68121
fjord	-8.68344
lat	-8.68414
ighet	-8.68435
▁vin	-8.68581
▁ku	-8.68648
bin	-8.68748
dre	-8.68806
▁mag	-8.68988
и	-8.69139
kel	-8.6945
ju	-8.69472
▁ren	-8.69484
▁2002	-8.69492
▁sto	-8.6957
▁ty	-8.69579
uk	-8.69587
so	-8.69627
tes	-8.69656
▁dagen	-8.69713
▁luft	-8.69867
▁ber	-8.69938
▁fag	-8.70148
mor	-8.70461
▁sverige	-8.70475
iet	-8.70541
▁dom	-8.70542
jø	-8.70641
▁norges	-8.70731
▁tiden	-8.71033
sson	-8.71065
▁større	-8.71424
mon	-8.7153
▁kar	-8.71793
lands	-8.71883
ninger	-8.72139
▁general	-8.72167
▁ord	-8.72169
▁radio	-8.72171
▁forfatter	-8.72345
▁bor	-8.72348
▁vise	-8.72411
ære	-8.72674
fe	-8.72793
▁meg	-8.7289
▁person	-8.72943
▁berg	-8.7307
▁svensk	-8.73111
tin	-8.73149
▁gud	-8.73155
ung	-8.73279
▁årene	-8.73303
▁kommunen	-8.73344
uten	-8.73534
▁gjorde	-8.73544
ny	-8.7358
fo	-8.73694
▁z	-8.73726
▁form	-8.73939
▁utenfor	-8.73976
▁mil	-8.73999
stand	-8.74111
▁art	-8.7412
▁konge	-8.74158
lev	-8.74267
dom	-8.74454
ah	-8.74712
▁tar	-8.74724
▁fylke	-8.74755
kar	-8.74818
lene	-8.749
øya	-8.74902
borg	-8.75045
idae	-8.75064
inyin	-8.75135
▁my	-8.75199
bil	-8.75338
ab	-8.7541
▁hal	-8.75616
▁litt	-8.75669
▁nest	-8.75728
tall	-8.75768
ty	-8.75963
▁fred	-8.75972
▁ben	-8.76182
art	-8.76192
▁familien	-8.76296
ham	-8.76375
▁deltok	-8.76393
▁politisk	-8.7651
▁albumet	-8.76526
▁op	-8.7653
lot	-8.7662
tu	-8.76701
lan	-8.76808
▁mel	-8.76826
▁fleste	-8.77135
ding	-8.77179
▁ste	-8.77284
fly	-8.77295
а	-8.77384
▁ag	-8.77519
▁basert	-8.77582
▁pre	-8.77699
▁ur	-8.77712
▁jord	-8.77891
▁on	-8.78044
▁pan	-8.78045
▁mal	-8.78258
▁fu	-8.78365
▁21	-8.78368
▁datter	-8.78434
nder	-8.78463
▁foran	-8.78498
▁mus	-8.78591
▁gull	-8.78766
▁th	-8.78824
ska	-8.78854
▁ap	-8.78876
som	-8.78978
▁farge	-8.79003
bok	-8.79058
ida	-8.79241
hi	-8.79311
ator	-8.79396
kker	-8.79509
▁står	-8.79545
▁roman	-8.79595
▁hjelp	-8.7962
1	-8.79957
▁natur	-8.80209
▁sal	-8.80398
▁plass	-8.80564
▁hav	-8.80686
▁industri	-8.80846
▁ville	-8.80916
▁stats	-8.80959
▁brun	-8.81017
pen	-8.81437
gl	-8.81483
▁øya	-8.81501
▁lands	-8.81539
så	-8.81575
tan	-8.81805
▁måtte	-8.81843
▁fre	-8.81876
gre	-8.81893
▁seks	-8.81899
far	-8.82017
dig	-8.82033
tte	-8.8206
▁ed	-8.82122
▁lokal	-8.82187
▁park	-8.82332
▁keiser	-8.82588
mål	-8.82643
▁fransk	-8.82643
mal	-8.82764
▁col	-8.82908
▁riks	-8.82915
▁hol	-8.83009
▁vinter	-8.83105
elig	-8.83184
ologi	-8.83374
▁følgende	-8.83418
▁com	-8.83482
▁24	-8.83556
▁23	-8.83635
dy	-8.83671
▁amerikanske	-8.83835
▁klubben	-8.83882
heim	-8.83903
▁viser	-8.83933
gel	-8.8399
▁gammel	-8.84092
ale	-8.84153
sto	-8.84324
isert	-8.84413
▁via	-8.84433
▁19	-8.84506
▁side	-8.84509
ks	-8.84597
ris	-8.84663
▁støtte	-8.84692
yn	-8.84919
▁tyskland	-8.85083
▁skuespiller	-8.85141
▁bruker	-8.85295
▁bergen	-8.85381
▁sted	-8.85407
▁sentral	-8.855
▁tur	-8.85559
▁2004	-8.8565
plass	-8.85702
▁jan	-8.85735
▁grad	-8.8575
du	-8.85865
▁tredje	-8.86001
▁midt	-8.86077
han	-8.86159
▁opprinnelig	-8.86182
val	-8.86233
▁paul	-8.86408
vet	-8.8642
▁såkalt	-8.86424
handling	-8.86425
bro	-8.86628
skole	-8.8675
råd	-8.8681
▁22	-8.8697
▁slekt	-8.87171
▁hvert	-8.87195
▁mulig	-8.87267
▁pr	-8.8728
van	-8.87315
▁liv	-8.87359
▁sommer	-8.8736
bre	-8.87385
▁fotball	-8.87498
▁holde	-8.87634
▁ledet	-8.87902
▁we	-8.87955
▁os	-8.87965
▁serien	-8.88083
▁spilt	-8.88242
▁bygget	-8.88412
spill	-8.88421
▁barne	-8.88444
res	-8.88704
▁kur	-8.88839
▁von	-8.8886
inger	-8.8893
▁stil	-8.89093
▁får	-8.89366
▁100	-8.8939
▁dess	-8.89402
værende	-8.89438
▁van	-8.89519
▁pri	-8.8953
▁ganger	-8.89752
stasjon	-8.89809
▁spesielt	-8.90022
▁annen	-8.90214
isering	-8.90249
▁peter	-8.90408
forening	-8.90437
▁tak	-8.905
mmer	-8.90561
▁egne	-8.90604
up	-8.90967
bel	-8.91062
▁sangen	-8.911
▁rød	-8.91168
▁omfatter	-8.91239
grense	-8.91318
50	-8.91364
ps	-8.91525
▁skog	-8.91632
▁bred	-8.91649
enes	-8.91707
▁tal	-8.9195
landet	-8.92021
▁produsert	-8.92246
▁ø	-8.92378
▁tilhører	-8.92451
▁inkludert	-8.92496
▁motor	-8.92605
▁lett	-8.92632
sett	-8.92715
punkt	-8.92862
▁gruppe	-8.93098
▁ev	-8.9312
▁anti	-8.93211
cu	-8.93296
▁omkring	-8.93336
▁chi	-8.93343
▁vis	-8.93382
mark	-8.93399
▁versjon	-8.93439
gh	-8.93524
▁bre	-8.93857
▁god	-8.93862
▁band	-8.93891
▁grav	-8.9391
veien	-8.93946
▁millioner	-8.94086
▁betydning	-8.9418
▁gav	-8.94203
ino	-8.94232
▁delstaten	-8.94408
▁mu	-8.94534
▁arbeidet	-8.94582
▁italiensk	-8.94606
▁familie	-8.94657
ze	-8.94776
bud	-8.9482
▁deler	-8.94901
▁valg	-8.94914
▁olympisk	-8.95033
▁russland	-8.95034
▁antall	-8.95112
▁nytt	-8.95139
▁sv	-8.95154
film	-8.95168
sky	-8.95168
heten	-8.95194
▁menneske	-8.95245
▁arbeids	-8.95258
q	-8.9528
pro	-8.95311
▁2000	-8.95502
kken	-8.95683
mat	-8.95756
▁rø	-8.95802
folkerepublikken	-8.95894
ya	-8.95904
▁arm	-8.95932
skje	-8.96109
▁orden	-8.96131
▁europa	-8.96279
▁2001	-8.96353
▁lite	-8.96553
ola	-8.96698
ski	-8.96705
che	-8.96739
▁historie	-8.96759
р	-8.96774
vann	-8.96882
▁sig	-8.9689
rø	-8.9691
▁lav	-8.96968
rom	-8.97165
su	-8.97193
▁fortsatt	-8.9731
▁sang	-8.97371
▁eneste	-8.97697
ys	-8.97723
if	-8.97761
ister	-8.97793
▁arbeider	-8.97895
ana	-8.97922
▁christ	-8.97931
fra	-8.98049
▁stedet	-8.98064
▁bri	-8.98282
bane	-8.98397
▁hvit	-8.98468
▁vo	-8.98502
▁ten	-8.98546
▁28	-8.98598
▁mark	-8.98701
pper	-8.98805
skog	-8.98875
▁stort	-8.99016
▁blå	-8.99099
ā	-8.9925
▁lange	-8.99269
▁william	-8.99411
tion	-8.99517
sund	-8.99689
dyr	-8.99707
▁london	-8.99859
▁karl	-8.99905
▁gitt	-8.99939
▁kl	-9.00014
ip	-9.00076
laget	-9.00099
mester	-9.00243
о	-9.00291
▁sj	-9.0034
fall	-9.00397
▁26	-9.00438
tz	-9.00592
▁moderne	-9.0065
zi	-9.00687
▁spe	-9.0078
▁elva	-9.00884
ført	-9.00894
▁fylkesvei	-9.01227
▁liten	-9.01242
▁prest	-9.01337
▁kat	-9.01673
rak	-9.01692
▁besto	-9.01718
lys	-9.0172
ct	-9.01797
my	-9.01834
7	-9.01842
▁gran	-9.01849
▁råd	-9.01884
▁kv	-9.01926
▁hjem	-9.01933
▁tom	-9.0194
▁godt	-9.01998
▁nu	-9.02026
ach	-9.02091
▁bort	-9.02114
▁ly	-9.02307
sjoner	-9.02382
bor	-9.02446
▁bur	-9.02474
lø	-9.02578
▁danmark	-9.02604
▁mon	-9.0267
е	-9.03049
▁ek	-9.03246
gruppen	-9.03277
▁post	-9.03324
▁stat	-9.0336
selskap	-9.03368
asje	-9.0344
tiv	-9.03553
▁medlemmer	-9.03584
▁mis	-9.03644
isten	-9.03739
▁mac	-9.03742
▁sak	-9.03847
▁perioden	-9.04054
vei	-9.04084
▁tu	-9.04225
▁styre	-9.04361
mel	-9.04374
▁mont	-9.04485
ita	-9.04487
rat	-9.04518
▁sosial	-9.04733
▁tildelt	-9.04808
▁organ	-9.04846
plan	-9.04913
▁1990	-9.04937
▁fordi	-9.05162
▁fin	-9.05164
▁moh	-9.05215
▁best	-9.05249
▁xi	-9.05417
banen	-9.05424
spiller	-9.05439
▁viktig	-9.05509
rin	-9.05515
▁tekst	-9.05601
▁klar	-9.05635
det	-9.05672
▁sm	-9.05809
kning	-9.05904
leder	-9.05917
dra	-9.06019
xi	-9.0602
ferd	-9.06075
▁krigs	-9.06077
▁én	-9.06147
her	-9.06203
ji	-9.06283
▁jeg	-9.06332
▁venstre	-9.0638
▁don	-9.06393
▁viktigste	-9.06411
▁les	-9.065
mand	-9.06573
▁50	-9.0681
▁sha	-9.071
▁ska	-9.07121
▁gre	-9.07227
minister	-9.07403
hy	-9.07492
kal	-9.07637
rid	-9.0764
▁carl	-9.07662
▁etablert	-9.07743
▁kol	-9.07806
▁dikt	-9.0786
▁liste	-9.0792
folk	-9.0796
▁stra	-9.08005
oc	-9.08013
▁mm	-9.08043
▁forhold	-9.08089
▁27	-9.08155
området	-9.08191
▁dis	-9.08245
we	-9.08304
bø	-9.08374
20	-9.08422
ph	-9.08425
▁veien	-9.08435
▁elven	-9.08475
▁grunnlagt	-9.08489
vern	-9.08497
ringer	-9.08502
▁fyr	-9.08561
ap	-9.08597
lle	-9.08605
▁gro	-9.08674
▁slutt	-9.08674
▁india	-9.08782
▁ul	-9.08819
▁benytte	-9.08876
chi	-9.08938
▁erik	-9.0912
▁samarbeid	-9.09126
▁2003	-9.09294
ich	-9.09425
▁opprettet	-9.09613
tatt	-9.09662
▁ser	-9.09677
▁staten	-9.0968
ement	-9.09698
▁spor	-9.09716
▁bal	-9.09734
▁bror	-9.09787
▁sesongen	-9.09792
▁album	-9.09833
▁za	-9.09859
▁mas	-9.09895
▁fer	-9.09933
▁hår	-9.09937
▁sentrum	-9.10068
ford	-9.10073
▁student	-9.10094
▁rolle	-9.10102
▁jon	-9.10498
rus	-9.10498
▁fant	-9.10518
▁enkelte	-9.10538
▁opera	-9.10588
port	-9.10646
▁universitet	-9.10672
▁christian	-9.10699
hr	-9.10815
lser	-9.10837
▁mann	-9.10884
lett	-9.10886
ai	-9.10887
40	-9.11015
▁serie	-9.11039
dde	-9.11241
▁åtte	-9.11248
▁frankrike	-9.11279
▁1992	-9.11279
▁kirken	-9.11303
tikk	-9.11381
▁eid	-9.11608
gar	-9.11672
huset	-9.11771
stol	-9.11871
▁utviklet	-9.11941
▁britiske	-9.11965
familien	-9.12111
▁syd	-9.12143
gård	-9.12375
ller	-9.12558
båt	-9.12561
▁mos	-9.12644
▁bank	-9.12646
▁tru	-9.12889
▁slag	-9.12891
ey	-9.13098
skip	-9.1312
▁pave	-9.1314
▁internasjonale	-9.13296
▁robert	-9.13371
▁arter	-9.13517
ath	-9.13649
asjonen	-9.13656
▁regi	-9.1368
▁gen	-9.13807
▁lars	-9.13866
▁gra	-9.13911
▁holdt	-9.13913
grad	-9.13918
vid	-9.13943
tale	-9.14
▁verk	-9.14004
ald	-9.14012
▁økonomisk	-9.14124
▁kje	-9.14244
▁folk	-9.14269
▁svart	-9.14307
ving	-9.14331
▁blod	-9.14432
ika	-9.14602
▁makt	-9.14612
▁hvis	-9.14741
▁rev	-9.14786
bygd	-9.14808
arbeid	-9.14895
gitt	-9.14902
▁johan	-9.15012
▁dal	-9.15056
▁ci	-9.151
▁energi	-9.15102
▁plante	-9.15214
▁eget	-9.15227
sjøen	-9.15364
▁1980	-9.15393
ano	-9.15535
▁mari	-9.15628
▁nett	-9.15648
▁båt	-9.15699
▁gar	-9.15701
stående	-9.15712
▁skrift	-9.15778
▁system	-9.15784
este	-9.15798
vær	-9.15808
medalje	-9.15815
▁fall	-9.15826
liggende	-9.15953
▁qu	-9.15981
fri	-9.16026
pris	-9.16096
▁blad	-9.16393
▁2012	-9.16457
▁hø	-9.16512
▁sek	-9.16536
▁partiet	-9.16632
▁resultat	-9.16743
ves	-9.16747
har	-9.16752
ini	-9.16864
▁omtrent	-9.16974
▁privat	-9.16976
▁gl	-9.17006
▁skade	-9.17051
dan	-9.1722
▁gjør	-9.17241
øn	-9.17367
▁rock	-9.17381
▁ex	-9.1741
▁franske	-9.17467
▁allerede	-9.17516
▁skolen	-9.1759
▁verden	-9.17645
zo	-9.17747
▁handels	-9.17762
▁hatt	-9.17769
ari	-9.17959
▁teater	-9.181
way	-9.18146
of	-9.182
▁port	-9.18282
mu	-9.18614
kjenn	-9.1863
▁lin	-9.18712
kre	-9.18718
▁trans	-9.18763
▁ring	-9.18789
▁bjørn	-9.1881
bus	-9.18836
▁ke	-9.18836
rang	-9.1885
▁pal	-9.18909
▁sanger	-9.19101
▁eier	-9.19107
▁england	-9.19153
▁nok	-9.19201
▁militær	-9.19212
gan	-9.19242
▁kal	-9.19382
▁enkelt	-9.19428
områder	-9.19453
▁tittelen	-9.1951
▁mc	-9.19525
▁flyttet	-9.19531
▁para	-9.19606
mannen	-9.19642
▁kilometer	-9.19676
▁skjer	-9.19681
▁sendt	-9.19713
▁red	-9.19728
▁olje	-9.19736
▁martin	-9.19761
tok	-9.19798
▁sen	-9.19868
▁krigen	-9.19977
stil	-9.19997
område	-9.20144
byen	-9.20163
vig	-9.20194
▁representert	-9.20226
▁direkte	-9.20226
▁1999	-9.20236
▁standard	-9.20244
▁arbeid	-9.20244
▁40	-9.20305
▁af	-9.2033
▁olav	-9.20362
fl	-9.20377
▁ordet	-9.20424
lå	-9.20437
▁fe	-9.2046
▁fåt	-9.20467
▁ob	-9.20569
lia	-9.20584
▁heter	-9.20637
▁thomas	-9.20779
▁gri	-9.20999
▁års	-9.21052
ep	-9.21161
stri	-9.21164
▁hovedsake	-9.21214
▁hei	-9.21267
▁full	-9.21269
lis	-9.21291
ð	-9.21334
▁spesial	-9.21335
▁lege	-9.2139
▁bill	-9.21399
ice	-9.21516
▁br	-9.21568
sak	-9.21601
stan	-9.21831
pu	-9.21872
▁fjern	-9.2191
ight	-9.22
sjef	-9.22014
▁aktiv	-9.22055
▁kamp	-9.22127
gra	-9.22179
▁lyd	-9.22222
don	-9.22264
lsen	-9.22306
▁dansk	-9.22335
qui	-9.22342
▁31	-9.22367
cy	-9.22418
anlegg	-9.22441
alt	-9.22507
▁langt	-9.22573
▁trekk	-9.22612
▁stasjon	-9.22613
slekt	-9.22631
ater	-9.2273
▁lokale	-9.22812
▁you	-9.22825
▁personer	-9.22967
▁helse	-9.23054
▁høyre	-9.23055
▁lei	-9.23068
system	-9.23179
▁lik	-9.23197
▁hall	-9.23202
gren	-9.23277
trykk	-9.2333
▁flat	-9.23512
▁gal	-9.23549
▁israel	-9.23588
▁italia	-9.23601
▁felles	-9.23684
▁wh	-9.23747
side	-9.23821
▁sh	-9.23849
▁dy	-9.24012
ologisk	-9.24105
è	-9.24119
▁1996	-9.24166
▁tap	-9.24173
▁29	-9.2422
▁bygd	-9.24265
stilt	-9.24275
ativ	-9.24306
▁mur	-9.24309
▁dia	-9.24416
▁hånd	-9.24581
▁hjemme	-9.24615
▁pat	-9.24671
▁nordøst	-9.24764
▁kraft	-9.24802
▁island	-9.24997
▁mennesker	-9.25037
▁thor	-9.25051
mot	-9.25093
▁viktige	-9.25134
▁forbindelse	-9.25136
stra	-9.25216
▁finner	-9.25223
▁seil	-9.2528
departementet	-9.25312
▁politiker	-9.25363
▁flo	-9.2538
brudd	-9.25454
fabrikk	-9.25518
kast	-9.2556
lik	-9.2573
lie	-9.25768
produksjon	-9.25811
organisasjon	-9.25813
ket	-9.25866
▁neste	-9.25893
▁1989	-9.25902
drag	-9.25913
ien	-9.26111
mod	-9.26124
ssa	-9.26183
▁verdi	-9.26209
▁grå	-9.26216
vit	-9.26268
▁selskap	-9.26282
▁utgjør	-9.26287
syn	-9.26432
musikk	-9.26433
▁legge	-9.26447
▁historisk	-9.26501
erende	-9.26529
ther	-9.26545
▁inter	-9.26559
rud	-9.26565
elva	-9.26582
givelse	-9.266
que	-9.26658
▁universitetet	-9.26776
▁førte	-9.26838
▁dan	-9.26864
▁minst	-9.26905
cc	-9.26915
▁svenske	-9.26929
▁åpnet	-9.26939
▁kle	-9.26991
king	-9.2705
▁1998	-9.27074
fer	-9.27123
▁samling	-9.27134
▁grønn	-9.27218
▁biskop	-9.27315
▁ger	-9.27609
navn	-9.27644
kje	-9.27672
▁eldre	-9.27715
ub	-9.2782
ros	-9.2788
▁ry	-9.27902
teri	-9.28012
▁kongen	-9.28068
▁studerte	-9.28142
inne	-9.28321
▁lille	-9.28327
eri	-9.28364
under	-9.28373
▁pol	-9.28395
▁johannes	-9.28426
dals	-9.28523
hl	-9.28524
▁west	-9.28525
stat	-9.28569
▁tele	-9.28632
ansk	-9.28723
organ	-9.28849
▁1994	-9.28862
▁1984	-9.28862
▁lek	-9.2892
▁sc	-9.28948
▁un	-9.29031
▁arkitekt	-9.29165
▁henne	-9.29299
vil	-9.29363
▁wo	-9.29372
▁york	-9.29456
▁trykk	-9.29646
▁can	-9.29678
lagt	-9.2974
▁følger	-9.29817
▁maria	-9.30042
nivå	-9.30069
▁paris	-9.30102
▁regionen	-9.30152
78	-9.30197
▁overtok	-9.30239
▁kla	-9.30264
søk	-9.30312
▁wal	-9.30355
▁rot	-9.30445
▁kron	-9.30536
▁delt	-9.30601
valg	-9.30621
▁ferdig	-9.30837
▁stjerne	-9.30875
48	-9.30881
▁dannet	-9.30957
ømme	-9.31025
▁lengde	-9.31144
▁høyde	-9.31197
▁måte	-9.31203
▁mad	-9.31214
▁cor	-9.31256
▁solgt	-9.31313
▁bygge	-9.31391
▁fange	-9.31488
bygg	-9.31506
▁delen	-9.31507
▁tjeneste	-9.31744
▁sir	-9.31809
eier	-9.31809
▁herre	-9.31823
ismen	-9.31827
▁høsten	-9.31879
▁tatt	-9.31932
▁høyeste	-9.31932
▁funksjon	-9.32002
▁borger	-9.32016
▁david	-9.32065
▁data	-9.32191
kamp	-9.32222
▁euro	-9.32308
▁vår	-9.32348
ms	-9.32443
▁sil	-9.32485
▁drept	-9.32524
▁2013	-9.32537
zhou	-9.32549
iserte	-9.32569
▁kvinne	-9.32621
gje	-9.32699
istiske	-9.32746
▁minne	-9.32837
▁slo	-9.32868
▁eu	-9.32887
▁storbritannia	-9.33147
▁informasjon	-9.33148
føring	-9.33168
▁pris	-9.33186
ial	-9.33203
▁georg	-9.33322
är	-9.33407
kant	-9.33422
▁ven	-9.33507
ram	-9.33604
▁strøm	-9.33639
senter	-9.3364
fag	-9.33691
itz	-9.33709
gge	-9.3371
ay	-9.33713
bas	-9.3373
stilling	-9.33749
▁1997	-9.33783
▁1970	-9.33788
aksjon	-9.33837
red	-9.33927
л	-9.33994
▁len	-9.34
▁funnet	-9.34055
skudd	-9.34217
poli	-9.34232
▁bør	-9.34254
▁jern	-9.34309
▁utvikling	-9.34405
▁university	-9.34413
▁lind	-9.34519
▁fil	-9.34525
gjør	-9.34538
ås	-9.34558
tel	-9.34584
▁politi	-9.34606
▁våpen	-9.34658
fisk	-9.34762
▁tegn	-9.34868
▁latin	-9.34908
▁vekt	-9.34954
▁prosess	-9.34963
krigen	-9.3508
▁q	-9.35091
iz	-9.35154
▁kul	-9.35179
fest	-9.35221
forsker	-9.35242
▁ett	-9.35318
havet	-9.35357
øl	-9.35421
▁skje	-9.35543
ix	-9.35547
sal	-9.35555
dige	-9.35569
▁betydelig	-9.35689
▁kroppen	-9.35696
▁1993	-9.35697
▁cla	-9.35698
språk	-9.35747
▁smal	-9.3578
▁anders	-9.35877
▁sommerfugl	-9.3593
last	-9.35985
året	-9.36049
▁gje	-9.36059
▁felt	-9.36111
ú	-9.36332
▁1960	-9.36347
▁hell	-9.36352
▁aldri	-9.3643
▁miljø	-9.36518
deling	-9.36551
▁jernbane	-9.36599
60	-9.36622
55	-9.36652
led	-9.36669
arm	-9.36788
▁shi	-9.36804
▁britisk	-9.36904
▁hevde	-9.37
iner	-9.37048
▁mø	-9.37057
▁son	-9.3707
▁gy	-9.37075
▁slekten	-9.37208
hel	-9.37248
systemet	-9.37307
▁japansk	-9.37399
vinne	-9.37404
lighet	-9.37408
▁punkt	-9.3742
▁drift	-9.37433
▁spille	-9.37631
klar	-9.37635
middel	-9.3778
▁start	-9.37811
▁lær	-9.37815
56	-9.37818
▁berlin	-9.37851
▁knyttet	-9.38187
ringen	-9.3824
rike	-9.38252
▁syv	-9.38273
▁lagt	-9.38344
▁sø	-9.3838
▁fiske	-9.38387
▁økt	-9.38411
▁skip	-9.38535
▁samle	-9.38571
▁indre	-9.38623
▁utgav	-9.38676
▁litteratur	-9.38681
▁cro	-9.38726
menn	-9.38909
rå	-9.38914
▁topp	-9.38918
age	-9.3895
▁uni	-9.38952
▁inkluderer	-9.38955
ød	-9.38984
▁james	-9.39007
▁bry	-9.39014
rio	-9.3911
skrift	-9.39119
▁regn	-9.39124
▁fjorden	-9.39151
▁dyr	-9.39164
kraft	-9.39173
haug	-9.39245
vatnet	-9.39269
30	-9.39417
▁dager	-9.39441
▁bind	-9.39443
fal	-9.39472
ive	-9.39505
las	-9.39537
65	-9.39598
ī	-9.39622
▁1988	-9.39635
▁sky	-9.39673
▁museum	-9.39748
kunst	-9.39782
▁reg	-9.39784
våg	-9.39806
▁professor	-9.39815
navnet	-9.3991
▁ep	-9.39935
heng	-9.39947
▁spansk	-9.40002
▁fremst	-9.40029
▁war	-9.40071
▁gru	-9.4013
▁200	-9.40282
retning	-9.40283
▁internasjonal	-9.4031
ör	-9.40453
▁venn	-9.40525
н	-9.40687
▁forsøk	-9.40738
pol	-9.40751
▁george	-9.40786
▁fortsatte	-9.40831
▁svarte	-9.40831
▁air	-9.40838
▁bj	-9.40889
▁kraftig	-9.4095
bru	-9.40951
▁afrika	-9.40958
к	-9.40962
▁gate	-9.40963
▁folketelling	-9.40969
▁1981	-9.4098
▁brasil	-9.40982
istisk	-9.41167
▁brø	-9.41269
▁kart	-9.41372
▁likevel	-9.41482
▁hest	-9.41571
▁sy	-9.41639
▁derimot	-9.4165
messig	-9.41664
▁2014	-9.41666
lønn	-9.41782
bert	-9.41863
▁japan	-9.41924
37	-9.41956
án	-9.41958
▁nummer	-9.42036
rum	-9.42289
▁gjøre	-9.42291
▁nordvest	-9.42341
▁tung	-9.42402
▁distrikt	-9.4245
▁finans	-9.42459
jen	-9.42483
▁konsert	-9.42485
▁nordlig	-9.42535
66	-9.4263
▁ettersom	-9.42697
▁stu	-9.42813
38	-9.4283
▁angrep	-9.42976
▁grense	-9.42985
▁michael	-9.43024
▁relativ	-9.43024
▁hvordan	-9.43101
▁eiendom	-9.43106
▁turn	-9.43141
▁kir	-9.43243
kin	-9.43254
▁not	-9.4326
des	-9.43337
samling	-9.43464
86	-9.43511
vol	-9.43692
▁1987	-9.4373
▁munn	-9.43838
ib	-9.43868
felt	-9.4388
▁gla	-9.43925
▁win	-9.43935
ara	-9.43998
▁delta	-9.44021
▁jens	-9.44022
▁lærer	-9.44293
▁salt	-9.44299
▁sau	-9.44305
▁kinas	-9.44365
fil	-9.44373
ark	-9.444
▁tilsvarende	-9.44417
▁mester	-9.44426
▁1986	-9.44432
all	-9.44454
▁het	-9.44531
▁kreve	-9.44559
▁valgt	-9.44597
bygning	-9.44655
▁ky	-9.44681
▁dra	-9.44781
▁danner	-9.44785
▁sel	-9.44816
løse	-9.4482
▁myr	-9.44829
▁løp	-9.44906
▁ban	-9.44921
▁kvinner	-9.44937
64	-9.44941
▁møte	-9.44958
6	-9.44991
▁sterkt	-9.45077
▁motstand	-9.45115
▁kraftverk	-9.45116
▁1973	-9.45136
▁opprør	-9.45137
▁gård	-9.45141
▁gjort	-9.45151
▁ya	-9.45228
▁super	-9.45236
▁regnes	-9.45261
▁henrik	-9.45267
▁nils	-9.45334
lem	-9.45368
styrke	-9.45445
▁tall	-9.45565
▁time	-9.45583
ette	-9.45662
mper	-9.45807
▁amerika	-9.4583
▁sovjet	-9.45831
▁stockholm	-9.45831
▁typisk	-9.45834
▁1991	-9.45842
▁prosent	-9.45843
▁verdenskrig	-9.45864
▁kjøpt	-9.45904
▁avdeling	-9.45973
stoff	-9.46049
▁ze	-9.46091
▁gren	-9.46119
ama	-9.46128
▁kyst	-9.46236
▁sur	-9.46246
▁elev	-9.46282
▁kampen	-9.46299
▁mørke	-9.4634
dri	-9.46351
zh	-9.4637
jel	-9.46426
▁cap	-9.46498
▁transport	-9.46517
▁sølv	-9.46537
▁sørøst	-9.46574
▁slutten	-9.46578
▁egg	-9.46609
klubb	-9.46618
▁bir	-9.46735
▁uttrykk	-9.46765
▁beskrive	-9.46869
▁fest	-9.46888
▁hor	-9.46893
jev	-9.4707
▁ac	-9.47081
ved	-9.47095
▁benyttet	-9.47158
▁national	-9.47265
▁base	-9.47274
▁che	-9.4729
shi	-9.47312
▁danske	-9.47324
ish	-9.47362
cia	-9.47465
▁knut	-9.47473
ild	-9.47484
setning	-9.47545
▁cm	-9.47586
lei	-9.47639
▁ball	-9.47656
▁est	-9.47668
▁ph	-9.47688
▁stø	-9.47712
▁sag	-9.4777
▁cas	-9.47842
▁plate	-9.47897
73	-9.47913
forbund	-9.47923
anger	-9.47947
▁årlig	-9.47981
▁linje	-9.47982
▁hertug	-9.47993
▁oppkalt	-9.47995
▁1950	-9.48015
asjons	-9.4804
▁sivil	-9.48047
▁dekk	-9.48072
ritt	-9.48216
▁ledelse	-9.48314
cent	-9.48334
88	-9.48359
lek	-9.48428
vinger	-9.48625
illa	-9.48692
▁trondheim	-9.48726
▁1995	-9.48731
virkning	-9.48741
▁gå	-9.48758
▁erstattet	-9.4887
▁pla	-9.48994
▁varme	-9.48999
tog	-9.49059
▁spi	-9.49075
▁gass	-9.49086
▁maskin	-9.49252
pet	-9.49279
▁bern	-9.49333
▁instrument	-9.49383
▁metall	-9.49434
▁dro	-9.49444
α	-9.49454
▁eldste	-9.49455
▁1979	-9.49465
▁interesse	-9.4947
▁pass	-9.49511
▁fv	-9.49522
▁sørlig	-9.49576
▁dyp	-9.49593
pan	-9.49659
lund	-9.49693
jon	-9.49829
74	-9.49838
▁vol	-9.49966
figur	-9.50027
▁1982	-9.50195
▁richard	-9.50196
▁ang	-9.50241
▁åpen	-9.50285
▁mottok	-9.50349
▁regjeringen	-9.50373
▁ji	-9.50478
▁løs	-9.50491
▁hard	-9.50546
nett	-9.50553
▁ana	-9.50591
kle	-9.50602
▁inntil	-9.50651
68	-9.50699
▁hit	-9.50704
▁arten	-9.50707
▁kors	-9.50713
▁slaget	-9.50717
▁bad	-9.50789
ire	-9.50852
tive	-9.50893
wan	-9.5093
▁variant	-9.51018
▁regel	-9.51199
▁tan	-9.5121
hav	-9.51253
▁fylkes	-9.51295
endring	-9.51304
70	-9.51348
▁bruke	-9.51369
▁stemme	-9.51416
▁virke	-9.5144
▁steder	-9.51447
▁reise	-9.51541
▁cu	-9.51667
▁ram	-9.51682
▁str	-9.51689
ō	-9.51693
▁1976	-9.51707
01	-9.5171
▁2016	-9.51715
▁teori	-9.51925
▁vas	-9.51949
løs	-9.52005
▁finland	-9.52031
▁komme	-9.52058
vor	-9.52072
merke	-9.5208
bjørn	-9.5214
industri	-9.52141
39	-9.52172
▁stiftet	-9.52208
gruppe	-9.52323
š	-9.52451
▁2015	-9.52473
▁egentlig	-9.52477
▁type	-9.52534
▁styrke	-9.52713
▁mun	-9.5279
▁områder	-9.5284
zz	-9.52872
iti	-9.52899
våpen	-9.52914
▁design	-9.53001
▁imp	-9.53013
▁bon	-9.53098
▁klasse	-9.53098
▁valgte	-9.53166
lid	-9.5317
à	-9.53214
teknikk	-9.53215
▁1983	-9.53227
▁statsminister	-9.53238
▁organisasjon	-9.53254
▁søster	-9.53263
▁offentlig	-9.53299
▁bedre	-9.53356
10	-9.53381
▁bø	-9.53435
på	-9.53448
▁vold	-9.5345
▁vid	-9.53535
▁80	-9.5354
▁ordenen	-9.53581
▁por	-9.53685
57	-9.53743
▁nærings	-9.53771
▁brann	-9.53805
76	-9.53814
▁trafikk	-9.53885
99	-9.53948
▁produsere	-9.53983
▁lufthavn	-9.53994
▁fører	-9.54008
tek	-9.54025
rop	-9.5407
▁vm	-9.54096
ografi	-9.54114
nor	-9.5414
▁følge	-9.54153
orm	-9.54172
▁boken	-9.54275
▁hovedstad	-9.54291
▁frank	-9.54311
▁menn	-9.54319
hal	-9.5437
▁natt	-9.5438
▁tha	-9.54396
▁retts	-9.54411
▁danne	-9.54432
▁eli	-9.5451
▁rh	-9.54522
▁skapt	-9.54531
▁problem	-9.54538
▁kontroll	-9.54575
▁karriere	-9.54628
ence	-9.54641
mul	-9.54712
ani	-9.54729
▁elv	-9.54749
▁kh	-9.54802
▁los	-9.5485
stikk	-9.5487
▁sn	-9.54889
partiet	-9.54985
▁befolkningen	-9.55009
gående	-9.55061
arter	-9.55194
snitt	-9.55207
fang	-9.55226
▁tanke	-9.5525
▁region	-9.55256
▁forsknings	-9.55258
▁normalt	-9.55282
▁utdanne	-9.55315
lling	-9.55327
▁totalt	-9.55353
ata	-9.55447
eksjon	-9.55528
▁international	-9.5554
▁fjerde	-9.5554
liv	-9.5557
▁black	-9.55585
▁skyld	-9.55593
band	-9.55607
blad	-9.5562
41	-9.55622
▁cl	-9.55656
veg	-9.55962
ua	-9.55963
▁ledd	-9.56044
51	-9.56062
mun	-9.56088
▁kam	-9.56099
▁harald	-9.56114
▁pen	-9.56114
voll	-9.56188
▁sports	-9.56189
61	-9.562
47	-9.56256
▁ind	-9.5628
72	-9.56283
▁vind	-9.56283
▁veg	-9.56324
▁hverandre	-9.56327
▁1975	-9.5634
ple	-9.56374
▁enten	-9.56386
▁profesjonell	-9.56386
▁sogn	-9.56464
verket	-9.56536
cha	-9.56657
ria	-9.56717
bet	-9.56798
win	-9.56901
▁merke	-9.56927
▁løpet	-9.56928
skapet	-9.56938
▁krig	-9.57
samfunn	-9.57021
с	-9.57106
▁høyt	-9.57115
▁arabisk	-9.57123
▁1985	-9.57133
▁1968	-9.57136
dor	-9.57181
rich	-9.57209
▁riksvei	-9.5724
▁sub	-9.57294
▁dyre	-9.57304
▁utført	-9.57427
▁edderkopp	-9.57489
spor	-9.57492
▁redaktør	-9.57605
▁europeisk	-9.5765
▁ter	-9.57663
62	-9.57676
▁uavhengig	-9.57786
rek	-9.57824
wi	-9.57858
tch	-9.57918
▁komponist	-9.57921
▁øverst	-9.57922
fin	-9.57943
▁slått	-9.57949
▁kloster	-9.57959
▁bilde	-9.58046
▁sjef	-9.58146
alder	-9.58152
▁plassert	-9.58197
▁mik	-9.58201
mus	-9.58295
▁stod	-9.58306
▁metal	-9.58323
▁selve	-9.58478
▁larven	-9.58507
▁engelske	-9.58525
▁periode	-9.58536
▁drama	-9.58584
▁lø	-9.58607
selskapet	-9.58655
▁syk	-9.58672
nu	-9.58716
▁sund	-9.58739
▁1978	-9.58747
▁raskt	-9.58765
▁mak	-9.58772
field	-9.58798
ann	-9.58806
▁gården	-9.58849
samisk	-9.59031
▁behandling	-9.5904
▁60	-9.59103
ora	-9.59162
ori	-9.5917
▁skape	-9.5926
▁stilling	-9.5933
▁us	-9.59383
▁effekt	-9.59456
magasin	-9.59571
▁sammenheng	-9.59629
dorf	-9.59664
well	-9.59763
▁bestemt	-9.59836
▁hovedstaden	-9.59839
▁nabo	-9.59878
▁økonomi	-9.59907
farge	-9.59972
▁mill	-9.60001
▁rad	-9.60072
jan	-9.60087
grunn	-9.60141
87	-9.60149
ity	-9.60173
▁kunstner	-9.60194
shire	-9.60224
ova	-9.6024
▁besøk	-9.60245
▁korte	-9.60245
gangen	-9.60245
▁hva	-9.60267
в	-9.60291
▁wei	-9.60304
▁fredrik	-9.60359
▁københavn	-9.6036
▁hvilke	-9.60361
▁finsk	-9.60362
uel	-9.60378
▁grunnlag	-9.60393
▁romersk	-9.60418
▁plat	-9.60426
▁direktør	-9.60496
delse	-9.60534
press	-9.6058
▁bit	-9.60688
▁kall	-9.60699
▁tett	-9.60814
▁rute	-9.60876
▁løv	-9.60903
hn	-9.60918
▁iii	-9.60991
▁500	-9.61012
ric	-9.61061
▁unge	-9.61074
▁sommeren	-9.61096
▁kjerne	-9.61136
84	-9.61139
▁musiker	-9.61148
senteret	-9.61155
▁religiøs	-9.61186
▁opprinnelse	-9.61187
▁world	-9.61187
▁samlet	-9.6128
▁city	-9.61306
▁dersom	-9.61386
▁koloni	-9.61392
▁oppført	-9.61449
▁grensen	-9.61494
▁resten	-9.61511
▁røde	-9.61524
▁populær	-9.61545
aks	-9.6155
▁sort	-9.61582
▁stammer	-9.61621
ben	-9.61625
▁skipet	-9.61652
▁utnevnt	-9.61676
▁grand	-9.61692
44	-9.61703
eide	-9.61737
gger	-9.61778
old	-9.61843
▁middel	-9.61857
▁sko	-9.61928
bladet	-9.61934
46	-9.61965
▁canada	-9.62031
ball	-9.6208
grupper	-9.62146
abel	-9.62149
trekk	-9.62215
tegn	-9.62276
▁borg	-9.62332
grav	-9.62358
ction	-9.6237
▁virksomhet	-9.62392
ney	-9.6241
▁foss	-9.62476
▁modell	-9.62476
egnet	-9.62594
▁daglig	-9.62614
▁mod	-9.62661
tha	-9.62675
▁ran	-9.62803
tag	-9.6288
▁høye	-9.62883
agn	-9.62889
alis	-9.6296
▁passer	-9.62962
nik	-9.62963
sjonen	-9.63013
sion	-9.63013
▁hvite	-9.63052
▁faren	-9.631
renner	-9.63123
▁naturlig	-9.63238
skolen	-9.63254
fart	-9.63283
stille	-9.63365
43	-9.6337
94	-9.63391
▁delvis	-9.63473
▁frukt	-9.63529
styrt	-9.63559
▁retning	-9.63577
▁odd	-9.63586
loven	-9.6363
bilde	-9.63648
▁avisen	-9.6366
▁hodet	-9.63693
▁tilgjengelig	-9.63708
▁vanskelig	-9.63721
▁teksten	-9.63799
▁maur	-9.63806
▁heller	-9.63807
fu	-9.6386
tun	-9.63915
▁lign	-9.64219
▁aust	-9.64274
77	-9.64343
▁festning	-9.64441
ira	-9.64443
historie	-9.64451
▁leir	-9.64469
▁oppgave	-9.64488
▁nasjonale	-9.64495
▁klassisk	-9.64564
▁lan	-9.64573
▁administrasjons	-9.64594
ance	-9.64617
hjul	-9.64621
gna	-9.64647
81	-9.64762
hard	-9.64777
▁stasjonen	-9.64814
▁hoff	-9.64868
▁journalist	-9.65025
25	-9.65046
▁fugle	-9.65055
▁hører	-9.65072
▁king	-9.65109
▁representant	-9.65277
▁bibliotek	-9.65309
▁lenge	-9.65353
kommune	-9.65354
▁klo	-9.65411
т	-9.65417
▁bay	-9.6542
▁skifte	-9.65425
▁primær	-9.65425
▁forfatteren	-9.65426
▁melodi	-9.65433
▁poeng	-9.65452
▁she	-9.65484
▁hær	-9.65495
▁tradisjon	-9.65529
▁meste	-9.65534
▁adel	-9.65546
rådet	-9.65598
18	-9.65603
▁mørk	-9.65703
▁anna	-9.65838
67	-9.65841
ische	-9.65855
▁real	-9.65889
▁penge	-9.65893
▁holm	-9.65915
▁skrive	-9.65928
▁rik	-9.6597
kra	-9.66055
▁skips	-9.66121
elt	-9.66126
▁sterke	-9.6615
▁zo	-9.66189
▁spill	-9.66223
м	-9.66294
▁1967	-9.66309
▁kas	-9.66335
8	-9.66349
▁forsvar	-9.66473
▁union	-9.665
08	-9.66511
▁cal	-9.66557
▁trolig	-9.66611
▁symbol	-9.66626
hund	-9.66641
83	-9.66766
▁operasjon	-9.66767
gården	-9.66793
mur	-9.66801
▁øye	-9.66806
52	-9.66825
delen	-9.66854
▁overfor	-9.66859
▁roma	-9.67123
lov	-9.67145
▁suksess	-9.67171
▁louis	-9.67172
▁dårlig	-9.67173
▁hovedrollen	-9.67173
▁fokus	-9.67176
▁voksne	-9.67176
▁1963	-9.67184
pel	-9.67196
▁1900	-9.67211
fører	-9.67216
lon	-9.67225
bygging	-9.67381
▁bomb	-9.67407
gaard	-9.67412
▁tittel	-9.67441
kh	-9.67606
linjen	-9.6777
ér	-9.67824
bær	-9.67835
▁seier	-9.67846
▁temperatur	-9.67872
58	-9.67875
▁scene	-9.67946
ij	-9.67988
arbeider	-9.68001
▁rør	-9.68031
▁sannsynlig	-9.68056
▁øvre	-9.68057
▁østerrike	-9.68058
▁marine	-9.68058
▁1972	-9.68073
▁1974	-9.68074
▁2017	-9.68075
▁asia	-9.68105
▁gode	-9.68196
▁nø	-9.68227
marked	-9.68269
▁sju	-9.68273
▁feil	-9.68279
▁bøker	-9.68416
ios	-9.68453
▁høyere	-9.68465
ato	-9.68477
▁viste	-9.68488
▁70	-9.68578
gard	-9.68609
▁yu	-9.68626
▁grenser	-9.68681
øyene	-9.68682
oni	-9.68695
low	-9.68755
▁thi	-9.68818
gjort	-9.68835
▁kongelig	-9.68843
▁livs	-9.68859
din	-9.68861
▁reist	-9.68872
▁forskning	-9.68885
program	-9.68891
regionen	-9.68915
▁fremdeles	-9.68949
▁sørvest	-9.68956
▁stavanger	-9.68956
▁1930	-9.68968
kur	-9.68989
strand	-9.69005
▁anne	-9.69014
▁kost	-9.69015
▁haug	-9.69018
▁studie	-9.69079
trær	-9.69222
ith	-9.69223
▁mente	-9.69247
gata	-9.6927
▁fulgte	-9.69279
▁nrk	-9.69321
▁sesong	-9.69354
▁fro	-9.69407
75	-9.69413
akt	-9.69552
▁vik	-9.69573
▁cy	-9.69665
gjorde	-9.69677
▁gjelder	-9.69698
▁kroner	-9.69718
93	-9.69738
▁anton	-9.69746
ella	-9.69768
▁kardinal	-9.6985
▁original	-9.6985
ł	-9.6985
sport	-9.69856
ada	-9.69861
▁1977	-9.69865
ppen	-9.69925
▁35	-9.69937
▁sikre	-9.69941
▁distriktet	-9.69947
ick	-9.70013
71	-9.7016
▁produsent	-9.70186
▁vær	-9.70201
▁helge	-9.70242
▁reform	-9.70278
▁300	-9.70313
90	-9.70339
▁old	-9.70353
▁char	-9.70372
▁personlig	-9.70403
▁die	-9.7057
▁aktivitet	-9.70642
tør	-9.70698
strøm	-9.70746
▁innsjø	-9.70755
▁arrangert	-9.70759
midler	-9.70761
▁musikkalbum	-9.70783
▁lengre	-9.70789
▁bis	-9.70791
▁øke	-9.70804
▁star	-9.70806
▁nr	-9.70819
▁slott	-9.70852
kirke	-9.70877
▁sentrale	-9.709
con	-9.70951
▁johann	-9.70978
▁artene	-9.71002
▁tilby	-9.71076
▁danse	-9.71188
▁endret	-9.71214
91	-9.71261
levende	-9.71305
▁anlegget	-9.71306
riket	-9.71359
▁solo	-9.71404
▁ara	-9.71417
▁divisjon	-9.71434
▁dam	-9.71437
▁pin	-9.7146
aktig	-9.71611
med	-9.71666
▁nærmest	-9.7168
ledd	-9.71696
▁vitenskapelig	-9.71713
ograf	-9.71728
▁produkt	-9.71762
95	-9.71793
▁stad	-9.71912
cell	-9.71939
▁auto	-9.71962
▁påvirke	-9.72089
▁hopp	-9.72093
▁ansvar	-9.72185
zy	-9.7229
▁polsk	-9.7231
vesen	-9.72422
▁dokument	-9.72502
▁stadig	-9.72545
▁produksjons	-9.72563
▁norrøn	-9.72605
▁dronning	-9.72607
▁vokste	-9.72607
▁bronse	-9.72609
uf	-9.72664
ppel	-9.72671
lokk	-9.72712
elli	-9.72739
stykke	-9.7285
▁miste	-9.72911
▁sla	-9.72944
fond	-9.72953
ön	-9.7297
▁gun	-9.73049
▁festival	-9.73052
▁klima	-9.73101
ville	-9.7321
gul	-9.73301
▁ungdoms	-9.73461
▁teknisk	-9.73537
▁bolig	-9.73563
▁1940	-9.73564
▁møtte	-9.73568
bedrift	-9.73569
pla	-9.7357
høgskole	-9.73576
▁alltid	-9.73652
▁korea	-9.73681
bare	-9.73714
ky	-9.73735
▁gui	-9.73755
skjell	-9.73772
ins	-9.73856
▁gard	-9.73969
▁typer	-9.74026
▁nevnt	-9.74071
▁stamme	-9.74292
kka	-9.74306
ledning	-9.7431
▁epi	-9.7431
▁militære	-9.74338
▁mengde	-9.7441
▁etterhvert	-9.7448
▁rapport	-9.7448
▁ekspedisjon	-9.74481
▁hjerte	-9.74482
▁tydelig	-9.74485
▁1920	-9.74508
▁bevart	-9.74523
▁ytre	-9.74599
▁senter	-9.74607
▁albert	-9.74607
▁fremme	-9.7463
85	-9.74689
parti	-9.74743
▁leve	-9.74771
lang	-9.74891
▁just	-9.74923
tyre	-9.74962
holm	-9.75134
▁klubb	-9.75149
kla	-9.7516
▁finne	-9.75208
▁materiale	-9.75324
▁posisjon	-9.75343
stedet	-9.75358
▁middelsstor	-9.75433
skjold	-9.75434
▁vanlige	-9.75498
▁bytte	-9.75587
▁tross	-9.75673
▁organisert	-9.757
▁lot	-9.75727
63	-9.75729
krets	-9.7574
▁krets	-9.75745
54	-9.75772
▁bygde	-9.75805
ras	-9.75867
▁lære	-9.75869
▁nar	-9.75882
▁bol	-9.75894
▁hud	-9.75898
▁atom	-9.75935
▁andreas	-9.75968
▁und	-9.76006
▁offisielle	-9.76008
▁laste	-9.76158
▁område	-9.76236
▁indisk	-9.76255
barn	-9.76355
▁prøve	-9.76376
▁400	-9.76382
▁stykke	-9.76393
▁elektrisk	-9.76394
▁inspirert	-9.76394
▁religion	-9.76394
▁landsbyen	-9.764
▁oppdaget	-9.76401
▁1964	-9.76414
▁regjering	-9.76438
▁element	-9.76458
▁fortsette	-9.76469
89	-9.76488
bånd	-9.76493
sberg	-9.76531
▁front	-9.7655
▁produksjon	-9.76582
ón	-9.76596
▁strand	-9.76627
▁vinner	-9.76676
aktiv	-9.7668
▁jorden	-9.76741
▁lenger	-9.76766
▁stille	-9.76786
fugl	-9.76814
▁nan	-9.76901
06	-9.76924
▁ting	-9.7698
▁idretts	-9.77013
▁driver	-9.77022
▁north	-9.77033
olin	-9.77038
▁forsvars	-9.77054
▁historiker	-9.77061
▁tettstedet	-9.77083
voks	-9.77155
▁lyn	-9.77184
ual	-9.7723
▁gitar	-9.77236
45	-9.77236
▁øvrig	-9.77365
▁magnus	-9.7737
▁1952	-9.77381
▁blue	-9.77389
▁fot	-9.77391
▁jazz	-9.77398
▁organisasjonen	-9.7745
▁elve	-9.77466
▁spiss	-9.7747
trafikk	-9.77491
bevegelsen	-9.77531
yang	-9.77614
gå	-9.7763
▁lund	-9.77632
▁polen	-9.77824
saker	-9.77824
▁prisen	-9.77902
standen	-9.77912
▁pra	-9.77914
kilden	-9.77925
▁forsøkt	-9.78008
qua	-9.78082
▁tids	-9.78132
▁karakter	-9.78173
▁livet	-9.78208
lad	-9.78333
д	-9.78345
▁joseph	-9.78346
▁fengsel	-9.78346
▁tog	-9.7836
▁1945	-9.7836
05	-9.78366
▁publisert	-9.78368
▁betegne	-9.78382
▁ein	-9.78402
▁bevegelse	-9.78419
▁tilfelle	-9.78431
▁ok	-9.78487
▁likhet	-9.78562
enhet	-9.78587
▁tegnet	-9.7864
▁strid	-9.78674
▁kull	-9.78731
▁buss	-9.78748
▁sterk	-9.78754
▁utføre	-9.78778
äl	-9.78835
▁krav	-9.78855
▁beskrevet	-9.78892
▁regjerings	-9.7892
▁gjeste	-9.78924
▁single	-9.78928
▁kjøre	-9.78969
formen	-9.79077
oll	-9.79095
▁gods	-9.79096
▁arne	-9.79153
▁stoppe	-9.79165
▁nam	-9.79197
▁utdanning	-9.7926
▁sønnen	-9.79266
▁spesiell	-9.79336
▁flertall	-9.79337
▁college	-9.7934
▁south	-9.79347
aceae	-9.79365
▁fotballspiller	-9.79366
▁løper	-9.79394
▁omfattende	-9.79399
▁jobbe	-9.79443
16	-9.79448
▁stan	-9.79482
▁kjempe	-9.79581
▁egypt	-9.79652
mil	-9.79669
▁bob	-9.79716
forhold	-9.7975
15	-9.79769
▁kontor	-9.79806
▁bygningen	-9.79859
nar	-9.79939
korps	-9.80033
pass	-9.80053
53	-9.80219
▁kristian	-9.80234
▁begynnelsen	-9.8034
▁1971	-9.80352
▁1946	-9.80353
▁akademi	-9.80371
▁bakgrunn	-9.80379
▁up	-9.8039
▁gjenopp	-9.80493
fjell	-9.80503
▁nederlandsk	-9.80507
duk	-9.80508
▁bane	-9.80509
▁damp	-9.80518
▁rygg	-9.80535
formet	-9.80554
▁wil	-9.80558
plassen	-9.80562
▁jakt	-9.80706
▁sti	-9.80798
▁sun	-9.808
▁begynner	-9.80816
▁try	-9.80895
▁hannen	-9.80901
▁rå	-9.81
▁papir	-9.81101
▁hin	-9.81119
▁masse	-9.81142
skij	-9.81154
▁hunnen	-9.81158
rolle	-9.81188
vekt	-9.81224
▁struktur	-9.81268
▁drev	-9.81318
▁rollen	-9.81334
▁alternativ	-9.81346
▁byprefekturet	-9.81346
sekretær	-9.81346
▁forteller	-9.81368
▁1948	-9.8137
▁forretnings	-9.81453
▁etablerte	-9.8148
▁glo	-9.81481
ula	-9.81485
slav	-9.81486
▁syr	-9.81503
ifisert	-9.81543
▁folket	-9.81556
▁bygg	-9.81588
12	-9.81644
▁mobil	-9.81653
gal	-9.81684
▁ube	-9.81699
ykk	-9.81758
▁off	-9.81944
▁pot	-9.81998
▁ung	-9.82008
▁grunnla	-9.82012
▁kjøpe	-9.82078
▁grev	-9.82109
valget	-9.82123
mund	-9.8225
ikere	-9.82255
▁fordel	-9.82296
▁århundre	-9.82366
▁united	-9.82368
kjør	-9.82384
32	-9.82479
▁driv	-9.82487
misjon	-9.82555
19	-9.82607
▁representerer	-9.82619
pek	-9.82621
▁lignende	-9.82636
▁rosen	-9.82726
kov	-9.82734
ān	-9.82735
▁provins	-9.82737
▁dato	-9.82743
▁ansatte	-9.82823
merket	-9.82882
▁vannet	-9.82885
▁kilde	-9.82979
▁prosjekt	-9.82992
plasser	-9.83023
▁stoff	-9.83113
▁omtale	-9.83191
foss	-9.8323
▁sunn	-9.83236
tti	-9.83274
▁larvene	-9.83295
▁nordland	-9.83307
▁opphav	-9.83345
mennene	-9.83375
▁fjellet	-9.83395
▁sovjetunionen	-9.83397
▁tilhørte	-9.83397
▁ytterligere	-9.83397
▁ordfører	-9.83417
▁1966	-9.83419
▁republikken	-9.83433
▁formel	-9.83461
▁verne	-9.83487
pur	-9.8352
manns	-9.83534
▁gor	-9.83565
gate	-9.8358
▁måneder	-9.83588
skriv	-9.83694
▁grupper	-9.83704
▁innført	-9.83708
finn	-9.83709
▁slå	-9.83742
trekning	-9.83799
jiang	-9.83799
hov	-9.8383
pin	-9.83854
▁test	-9.83905
▁klarte	-9.84093
▁svak	-9.84123
aya	-9.84158
▁havne	-9.84242
▁teknologi	-9.84262
▁gyl	-9.84283
▁pop	-9.84311
▁politikk	-9.84364
▁univers	-9.84415
▁nødvendig	-9.84439
▁overflate	-9.8444
▁brensel	-9.8444
▁1944	-9.84457
▁saint	-9.84476
79	-9.84484
ão	-9.84506
bokstav	-9.84516
▁kap	-9.84585
36	-9.84622
▁mid	-9.84693
▁støttet	-9.84707
▁sku	-9.84796
▁kvart	-9.84855
▁katolske	-9.84987
▁will	-9.85103
▁rein	-9.85145
▁bonde	-9.85183
▁poly	-9.85185
▁kjøl	-9.85222
▁timer	-9.85329
▁finalen	-9.85349
▁ann	-9.85357
▁innbyggertall	-9.85491
▁1962	-9.85511
▁gil	-9.85522
▁marie	-9.85524
▁velge	-9.85553
▁prins	-9.8558
▁kanon	-9.85722
back	-9.85768
▁historien	-9.85811
▁camp	-9.85829
▁åpne	-9.85865
▁stål	-9.86028
▁kontrakt	-9.86076
hol	-9.86151
34	-9.86192
▁programmet	-9.86215
▁plu	-9.86259
its	-9.86333
hai	-9.86344
▁hode	-9.86354
▁hill	-9.86358
▁hed	-9.86391
▁bla	-9.86397
park	-9.86405
▁regissert	-9.86556
▁school	-9.86556
▁berømt	-9.86556
▁frederik	-9.86561
▁nivå	-9.86568
feltet	-9.86574
gruppa	-9.86577
kler	-9.8668
▁femte	-9.86697
løy	-9.86706
▁gjennomført	-9.86716
oth	-9.86727
▁henry	-9.86747
02	-9.86788
▁tettsted	-9.86907
▁hæren	-9.86964
ammen	-9.86982
blomst	-9.87077
▁90	-9.87117
▁mulighet	-9.87131
▁undersøkelse	-9.87162
▁intern	-9.87256
▁fal	-9.87288
▁dynastiet	-9.87327
80	-9.87407
▁1959	-9.8763
▁friedrich	-9.8763
hastighet	-9.87634
eller	-9.87675
▁vokal	-9.87693
▁tverr	-9.8774
▁kamper	-9.87779
drift	-9.87833
kjøp	-9.87834
▁stig	-9.8789
▁stav	-9.88016
▁matt	-9.88043
post	-9.88052
▁amt	-9.88217
▁våren	-9.88222
▁total	-9.88258
dro	-9.88336
▁rike	-9.88365
▁ole	-9.88381
▁styrker	-9.88485
▁midten	-9.88537
▁offentlige	-9.88597
▁geo	-9.88616
▁program	-9.88669
ι	-9.88717
▁1969	-9.88717
▁selvstendig	-9.88717
▁nærmere	-9.88724
▁sykehus	-9.88731
▁areal	-9.88749
▁och	-9.88789
evne	-9.88827
▁endt	-9.88853
▁cam	-9.88914
brun	-9.88914
▁flyplass	-9.88915
dømt	-9.88995
▁harry	-9.88998
firma	-9.89025
▁1800	-9.89141
tjeneste	-9.89152
▁arve	-9.89166
▁master	-9.89299
▁opprinnelige	-9.89387
bakk	-9.89592
▁kro	-9.89622
slaget	-9.89704
ν	-9.89816
ο	-9.89816
▁australia	-9.89816
▁deriblant	-9.89816
▁eksempler	-9.89816
▁etterfulgt	-9.89816
▁kategori	-9.89816
▁records	-9.89816
▁kunnskap	-9.89817
▁1958	-9.89834
▁1957	-9.89837
▁bakvingen	-9.89846
▁lansert	-9.89849
▁samfunns	-9.8987
▁ledende	-9.89885
rekke	-9.89957
kanten	-9.89973
▁rase	-9.89993
▁havet	-9.90015
vitenskap	-9.90135
▁debutert	-9.90172
album	-9.9018
dekk	-9.902
▁graf	-9.90281
▁strekk	-9.90303
▁ekstra	-9.90307
▁oppsto	-9.90333
øvelse	-9.90333
elv	-9.90342
syre	-9.90393
▁offiser	-9.90471
42	-9.90611
ordenen	-9.90619
▁forholds	-9.90633
▁long	-9.90673
▁huset	-9.90739
▁nederland	-9.90756
▁størrelse	-9.90797
▁wilhelm	-9.90927
▁tegneserie	-9.90932
▁omfatte	-9.90939
▁tolv	-9.90948
▁snø	-9.90952
▁snakke	-9.90962
▁spania	-9.90985
▁bodde	-9.91065
▁32	-9.91085
▁billed	-9.91134
▁gold	-9.91168
▁jøde	-9.91187
▁stift	-9.91197
▁formann	-9.91253
kirken	-9.91282
gav	-9.91296
▁bærer	-9.91307
sam	-9.91334
▁ark	-9.91337
hånd	-9.91344
maskin	-9.91351
▁artikkel	-9.91371
▁hon	-9.91408
24	-9.91537
▁skatte	-9.91545
▁områdene	-9.91568
dahl	-9.91588
▁gall	-9.91628
sler	-9.9164
▁ramme	-9.91644
ordning	-9.91677
typen	-9.91684
vind	-9.91693
pha	-9.91735
▁betegnelsen	-9.91831
▁kg	-9.91855
▁ønsket	-9.91906
gress	-9.91916
▁tam	-9.91921
trinn	-9.9193
▁eg	-9.91976
▁mess	-9.92009
▁vend	-9.92021
▁studio	-9.92047
belteasteroide	-9.92051
▁1956	-9.92076
▁protest	-9.92093
92	-9.92125
nie	-9.9217
▁ask	-9.92226
11	-9.92233
▁alder	-9.92274
▁bidrag	-9.92288
▁nådd	-9.92293
▁årsak	-9.92347
▁athen	-9.92375
▁rose	-9.92396
▁kommunikasjon	-9.92442
tjent	-9.92462
▁ud	-9.92464
liste	-9.92489
klubben	-9.92598
▁flor	-9.92793
nom	-9.92881
ique	-9.92922
able	-9.93024
▁frø	-9.93064
▁laur	-9.93139
▁nes	-9.93143
98	-9.93177
▁california	-9.93187
▁stortinget	-9.93192
▁1951	-9.93209
▁fungere	-9.93222
▁charles	-9.93229
▁jarl	-9.93268
▁fordelt	-9.93318
redning	-9.93376
▁sar	-9.93406
etter	-9.93469
▁spillet	-9.93494
33	-9.93586
forbindelse	-9.93655
prosess	-9.93655
▁filosofi	-9.93718
21	-9.93807
▁bel	-9.93815
14	-9.93836
▁brev	-9.93847
▁motsetning	-9.93885
▁turist	-9.9391
ary	-9.93915
delt	-9.93924
▁jean	-9.93943
▁landskap	-9.93955
▁befolkning	-9.93966
▁legend	-9.94073
▁øyene	-9.94098
dam	-9.94107
▁spar	-9.94167
▁sea	-9.94296
økonom	-9.94306
▁jobb	-9.94323
č	-9.94337
▁beijing	-9.94337
▁arrangere	-9.94338
▁white	-9.94345
▁1936	-9.94353
▁operatør	-9.94354
▁hou	-9.94356
▁1961	-9.94358
▁åpning	-9.94422
▁kristen	-9.945
løpet	-9.94506
plikt	-9.94511
▁konkurranse	-9.94522
▁jevn	-9.94621
▁liberal	-9.94703
▁fisk	-9.94767
serien	-9.94794
▁dor	-9.94816
▁listen	-9.94887
▁preget	-9.94906
▁tonn	-9.9506
prisen	-9.95199
▁myk	-9.95206
▁mono	-9.95217
motor	-9.95283
ansett	-9.95345
oid	-9.95351
visning	-9.95398
lam	-9.95462
13	-9.95474
▁passasjer	-9.955
konflikt	-9.955
▁hustru	-9.95502
▁jacob	-9.95502
▁nedenfor	-9.95507
▁kontakt	-9.95508
▁sim	-9.95517
▁1965	-9.95525
▁jordbruk	-9.9557
▁bakken	-9.9558
▁bibel	-9.95581
plate	-9.95605
▁administrativ	-9.95622
▁forskjell	-9.95666
gjøre	-9.95668
▁trener	-9.95719
løst	-9.95821
▁runde	-9.95963
atet	-9.95968
▁viking	-9.96049
▁sho	-9.96129
▁henhold	-9.96177
arbeidet	-9.96183
▁tema	-9.96214
▁tradisjonelle	-9.96227
▁kva	-9.96337
bank	-9.9642
▁may	-9.96432
tjenester	-9.96475
▁dø	-9.9649
cal	-9.9656
▁beskytte	-9.96574
bukta	-9.9658
ín	-9.96628
▁sten	-9.96635
myndighet	-9.96637
▁stand	-9.96638
▁publi	-9.9665
▁linjen	-9.96669
▁tilknyttet	-9.96676
▁sistnevnte	-9.96676
kapasitet	-9.96677
▁ekteskap	-9.96678
▁alvorlig	-9.96678
▁erobre	-9.96692
▁1939	-9.96699
▁skjedde	-9.96699
▁streng	-9.96716
▁blomster	-9.9673
cul	-9.96747
28	-9.96748
▁esp	-9.96833
▁ef	-9.96872
▁mini	-9.96875
kkel	-9.96889
eringen	-9.96937
▁storm	-9.96949
vendt	-9.97017
▁nasjon	-9.97101
arkiv	-9.97114
▁bass	-9.97129
▁kvinnelig	-9.97142
møte	-9.97252
nummer	-9.97299
▁irland	-9.97317
▁kommunene	-9.97349
▁hå	-9.97369
▁phil	-9.97415
▁forvingen	-9.97423
forsvar	-9.97427
kysten	-9.9749
▁tradisjonell	-9.97505
innen	-9.97706
▁kongens	-9.97736
▁neu	-9.97756
▁stri	-9.97785
▁skiller	-9.97795
▁søke	-9.97812
▁astronom	-9.97866
▁innflytelse	-9.97866
▁xiàn	-9.97867
▁jødisk	-9.97868
▁oblast	-9.97886
▁kropps	-9.97887
formede	-9.97901
▁daniel	-9.97911
kamera	-9.97915
▁mytologi	-9.97916
hall	-9.97941
▁east	-9.97942
▁dog	-9.97953
▁butikk	-9.9798
▁former	-9.97982
stillingen	-9.9799
▁fc	-9.98039
veis	-9.98042
▁treng	-9.9813
▁live	-9.98142
▁buk	-9.98143
▁ull	-9.98188
▁klassen	-9.98227
mond	-9.98254
▁kok	-9.98327
osa	-9.98381
▁ansvarlig	-9.9843
forfatter	-9.9845
tunnelen	-9.98512
▁mw	-9.98557
▁medisin	-9.98782
▁verket	-9.98929
▁green	-9.99033
▁kai	-9.99035
linje	-9.99046
ô	-9.99071
▁trøndelag	-9.99071
▁vingespenn	-9.99071
▁således	-9.99072
▁insekt	-9.99073
▁nevnes	-9.99074
▁æres	-9.99092
▁omtalt	-9.99123
▁kil	-9.99126
fortelling	-9.99152
▁falt	-9.99175
parken	-9.99378
vannet	-9.99396
▁inge	-9.99452
▁petter	-9.99453
lipp	-9.99516
▁kjell	-9.99522
▁tapte	-9.99605
▁foruten	-9.99631
staten	-9.99648
kultur	-9.99691
politikk	-9.997
▁jule	-9.99914
▁hotell	-9.9997
▁ansatt	-10.0002
makten	-10.0003
leng	-10.0008
▁kreft	-10.0012
▁motiv	-10.0013
titu	-10.0016
bakken	-10.0026
▁kalk	-10.0028
▁ali	-10.0028
▁flagg	-10.0029
▁cirka	-10.0029
96	-10.0029
▁1912	-10.0031
▁multi	-10.0031
▁dominere	-10.0038
▁stortings	-10.004
▁sikkerhets	-10.004
▁handel	-10.0046
ical	-10.0054
▁byer	-10.0058
▁hovedsak	-10.0069
▁tråd	-10.0071
▁tropp	-10.0087
foreningen	-10.0087
▁00	-10.0089
rey	-10.009
▁begrepet	-10.009
lim	-10.009
festival	-10.0093
▁cd	-10.0093
forskning	-10.0094
artikler	-10.0097
▁vitenskap	-10.0105
▁fritt	-10.0105
hin	-10.0108
hode	-10.0109
ernes	-10.0121
▁debut	-10.0123
setningen	-10.0129
▁sent	-10.0133
fjellene	-10.0144
▁individ	-10.0152
ç	-10.0153
▁award	-10.0153
▁kombinert	-10.0153
▁institutt	-10.0153
▁1942	-10.0154
▁1954	-10.0154
▁portrett	-10.0162
▁havn	-10.0167
▁mikro	-10.0169
▁levde	-10.0171
▁hul	-10.0173
▁zu	-10.0179
▁skille	-10.018
▁konkurransen	-10.0181
ulf	-10.0182
▁tradisjonel	-10.0183
svarer	-10.0183
▁human	-10.0184
▁blei	-10.0185
▁singel	-10.0192
▁trak	-10.0194
▁dj	-10.0202
31	-10.0209
▁gau	-10.0218
▁tau	-10.0219
▁tang	-10.0227
▁fremfør	-10.0229
▁vingene	-10.0235
artist	-10.0246
kjede	-10.0246
dem	-10.0247
▁cup	-10.0249
lingen	-10.0252
dans	-10.0255
▁song	-10.0277
▁1949	-10.0278
▁generelt	-10.0278
▁fysisk	-10.0278
▁club	-10.0279
▁smith	-10.0279
kapital	-10.0286
▁video	-10.0288
▁magnet	-10.0293
▁presse	-10.0294
▁kara	-10.0299
vision	-10.0308
▁glass	-10.0308
ado	-10.0312
▁cur	-10.0313
▁innsjøen	-10.0325
fatt	-10.0336
▁elektron	-10.0336
tysk	-10.034
ervat	-10.0341
▁horn	-10.0342
▁dialekt	-10.0345
virksomhet	-10.0348
▁soldater	-10.0353
fik	-10.0359
havn	-10.0375
▁ingeniør	-10.0383
fyr	-10.0388
familie	-10.039
▁150	-10.0395
▁py	-10.0396
▁arn	-10.0396
▁tour	-10.0401
▁betrakte	-10.0404
▁gustav	-10.0404
▁inngår	-10.0404
▁royal	-10.0405
▁flåte	-10.0406
▁vokser	-10.0408
▁akt	-10.0411
▁utøver	-10.0417
▁high	-10.0418
▁formål	-10.042
▁lavere	-10.0424
halvøya	-10.0428
▁dun	-10.0435
▁bakke	-10.0436
gått	-10.0438
▁hundre	-10.044
▁sete	-10.0447
orden	-10.0447
▁dommer	-10.045
▁kaptein	-10.0453
▁utviklingen	-10.0457
▁vestlige	-10.046
▁menighet	-10.046
▁rag	-10.0463
▁tunnel	-10.0464
▁filosof	-10.0473
kjent	-10.048
▁populære	-10.048
handle	-10.0481
▁cho	-10.0493
phi	-10.0494
komme	-10.0497
▁rund	-10.0498
▁overgang	-10.0501
verdi	-10.0504
linjer	-10.0504
fulle	-10.0505
▁enkle	-10.0512
▁behandle	-10.0512
23	-10.0518
▁tsj	-10.0532
▁league	-10.0532
▁oscar	-10.0532
▁hurtig	-10.0533
▁studioalbum	-10.0533
▁konstant	-10.0533
▁sveits	-10.0534
▁1953	-10.0534
▁lengst	-10.0535
▁videregående	-10.0536
▁finn	-10.0536
▁snart	-10.0537
▁straffe	-10.0537
▁hentet	-10.0541
▁veldig	-10.0543
én	-10.0547
▁tilhøre	-10.0548
▁dør	-10.0554
▁tårn	-10.0555
▁bosatt	-10.0558
▁oppdrag	-10.0564
gift	-10.0566
▁dobbelt	-10.0567
byrå	-10.0572
dømmet	-10.0574
▁tusen	-10.0574
▁selge	-10.0575
stått	-10.058
▁nordisk	-10.0581
▁sende	-10.0582
feld	-10.0584
▁redd	-10.0587
▁utvalg	-10.0587
▁vakt	-10.0587
▁cra	-10.0591
▁kvalitet	-10.0594
▁ple	-10.0597
▁music	-10.0597
▁river	-10.0601
▁maleri	-10.0603
utvikling	-10.0609
▁gis	-10.0614
▁salg	-10.062
sanger	-10.0634
▁revolusjon	-10.0636
▁arts	-10.0644
hei	-10.0646
▁maler	-10.0649
▁bio	-10.065
▁kjemisk	-10.0657
▁offisielt	-10.0662
▁service	-10.0662
▁oversikt	-10.0662
▁hjerne	-10.0663
▁utbredt	-10.0663
▁blanding	-10.0663
▁kjønn	-10.0663
▁kritikk	-10.0663
▁rekord	-10.0664
faktor	-10.0667
▁fed	-10.0668
hild	-10.0671
uch	-10.0672
▁avhengig	-10.0675
▁street	-10.0676
bygningen	-10.0679
▁roll	-10.0685
▁internett	-10.069
▁fotballklubb	-10.0696
▁bosetning	-10.0698
▁skall	-10.0699
▁hval	-10.07
17	-10.0705
bal	-10.0707
▁normal	-10.0714
verdig	-10.0716
▁wel	-10.072
full	-10.0731
▁medlemmene	-10.0734
konkurranse	-10.0742
▁verker	-10.0743
▁lev	-10.0744
hjem	-10.0744
▁kandidat	-10.0747
▁endre	-10.0748
avdeling	-10.075
kraftverk	-10.0753
▁anlegg	-10.0774
vir	-10.0775
▁bunn	-10.0776
▁pul	-10.0777
parten	-10.0782
▁lede	-10.0791
▁alkohol	-10.0794
▁company	-10.0794
▁publikum	-10.0794
▁drammen	-10.0796
▁sjelden	-10.0799
pres	-10.0806
▁bryst	-10.0815
▁oversettelse	-10.0819
avtale	-10.082
▁nettverk	-10.0823
▁ankom	-10.0826
▁sankt	-10.0831
▁180	-10.0833
▁adam	-10.0845
▁160	-10.0846
gin	-10.0854
▁grøn	-10.0856
▁lån	-10.0866
norsk	-10.0867
vold	-10.0869
løsning	-10.0869
mesterskapet	-10.0876
produsent	-10.0878
kilde	-10.0878
▁virkelig	-10.0887
▁andersen	-10.0889
27	-10.0891
øst	-10.0902
▁bølge	-10.0903
▁rep	-10.0908
▁forsvaret	-10.091
▁ost	-10.0916
▁mary	-10.0917
▁1935	-10.0927
▁utgangspunkt	-10.0927
basert	-10.0927
hjørne	-10.0927
▁1937	-10.093
▁sverd	-10.0933
▁alex	-10.0936
nny	-10.0942
▁saken	-10.0944
▁kilder	-10.0944
▁reaksjon	-10.0946
▁vokalist	-10.0946
▁tynn	-10.0948
▁henge	-10.0965
hallen	-10.0971
▁handler	-10.0975
hof	-10.0978
ito	-10.0989
ping	-10.101
ough	-10.1014
prosjekt	-10.1014
▁anim	-10.1019
▁din	-10.1022
rup	-10.1035
hopp	-10.1043
forsamling	-10.1044
bygget	-10.1044
▁fan	-10.1053
▁mangler	-10.106
rute	-10.1062
ì	-10.1062
▁science	-10.1062
▁himmel	-10.1062
▁digital	-10.1062
▁referere	-10.1063
▁faktisk	-10.1063
▁1947	-10.1065
▁1955	-10.1065
▁fn	-10.1066
▁philip	-10.1066
▁stadion	-10.1066
prinsipp	-10.1066
▁blokk	-10.1073
eksamen	-10.1077
▁kode	-10.1079
skipet	-10.1082
▁kjemi	-10.1083
dannelse	-10.1086
kredit	-10.1088
▁fantes	-10.1091
▁systemet	-10.1098
▁skjær	-10.11
▁45	-10.1101
▁bære	-10.1107
fylt	-10.1107
▁kanal	-10.1107
▁status	-10.1108
▁utga	-10.1113
▁toppen	-10.1115
lte	-10.1115
fre	-10.1116
▁henholdsv	-10.1132
▁sideelv	-10.1132
▁demon	-10.1141
▁spørsmål	-10.1143
▁cre	-10.1148
gende	-10.1151
stjerne	-10.1154
jord	-10.1157
bestemmelse	-10.1166
bøker	-10.1169
hem	-10.117
▁starter	-10.1171
▁lyst	-10.1175
▁75	-10.1182
▁krysse	-10.1189
sjø	-10.119
cho	-10.119
▁hardt	-10.1193
▁minutter	-10.1199
▁telefon	-10.12
handler	-10.1202
▁wolf	-10.1203
▁otto	-10.1205
▁eksport	-10.1208
▁tørr	-10.1214
▁kraftige	-10.1223
▁santa	-10.1229
▁team	-10.1229
rommet	-10.124
▁ishockey	-10.124
▁føl	-10.1256
▁rune	-10.1256
▁utdannelse	-10.1257
▁33	-10.127
▁eies	-10.1271
▁tekster	-10.1278
lé	-10.1281
▁nedre	-10.1286
rev	-10.1291
▁antenne	-10.1306
▁bydel	-10.131
▁orkester	-10.1316
▁elektro	-10.1318
97	-10.133
ß	-10.1337
й	-10.1338
▁administrere	-10.1338
▁guvernør	-10.1338
▁eventyr	-10.1338
▁jakob	-10.1338
▁1929	-10.1339
▁unntak	-10.1341
▁term	-10.1341
▁1938	-10.1341
▁scott	-10.1346
▁ukjent	-10.1348
metode	-10.1351
▁effektiv	-10.1352
▁saga	-10.1357
▁museet	-10.136
holmen	-10.1363
▁sikte	-10.1369
▁morgen	-10.1374
▁grov	-10.1374
▁nasjonalpark	-10.1378
▁qing	-10.1389
▁endelig	-10.1389
▁vogn	-10.1394
▁42	-10.1396
fjellet	-10.1399
▁pap	-10.1405
▁latinsk	-10.1413
▁oversatt	-10.1413
sundet	-10.1416
▁typen	-10.142
▁valget	-10.1421
▁press	-10.143
▁troll	-10.1437
medlem	-10.144
▁foreningen	-10.1443
▁sider	-10.1451
▁tell	-10.1452
mont	-10.1453
▁corn	-10.1457
tjenesten	-10.1457
drakt	-10.1458
galleri	-10.1475
▁fløy	-10.1475
▁fødsel	-10.1479
▁bakkroppen	-10.1479
▁regissør	-10.1479
▁skottland	-10.1479
▁positiv	-10.1479
▁redusere	-10.1479
▁yngre	-10.1479
▁debutalbum	-10.148
▁premier	-10.1482
▁skotsk	-10.1482
▁adresse	-10.1485
▁petr	-10.1486
ов	-10.1487
▁krysser	-10.1489
▁nedlagt	-10.149
▁svi	-10.1495
▁spilles	-10.1495
▁tun	-10.1506
type	-10.151
ittisk	-10.1529
▁stemmer	-10.153
▁markert	-10.1534
▁østlige	-10.1535
▁filip	-10.1541
▁avsluttet	-10.1543
▁villa	-10.1544
▁språket	-10.1546
▁bydelen	-10.1548
▁gått	-10.1548
▁hydro	-10.155
▁qui	-10.1551
▁analyse	-10.156
▁utstyrt	-10.1573
▁utvikle	-10.1576
distrikt	-10.1578
skjær	-10.1582
▁sul	-10.159
▁landsby	-10.1595
▁demokratisk	-10.1607
▁bidra	-10.1607
▁arrangement	-10.1622
▁1904	-10.1622
▁nowiki	-10.1622
▁moskva	-10.1622
▁1928	-10.1624
▁møter	-10.1624
▁reserve	-10.1624
▁signert	-10.1625
▁gress	-10.1626
cca	-10.1627
▁varierer	-10.1629
▁lam	-10.163
▁vekst	-10.1641
onia	-10.1653
▁palm	-10.1657
▁spise	-10.1658
bol	-10.1659
▁ytterst	-10.1659
▁statlig	-10.1662
▁act	-10.1664
▁moren	-10.1675
▁brenn	-10.1677
▁kim	-10.168
▁sammenligne	-10.1681
▁forstå	-10.1689
▁vert	-10.1691
▁hammer	-10.1693
▁semi	-10.1694
wall	-10.1695
▁pic	-10.1697
▁vii	-10.1698
▁bull	-10.1699
▁signal	-10.1699
▁bord	-10.1701
rød	-10.1702
▁lau	-10.1705
bak	-10.1716
▁boy	-10.172
teori	-10.1742
▁bilder	-10.1742
▁tromsø	-10.1748
▁salme	-10.1751
produkter	-10.1754
▁føde	-10.176
▁hem	-10.1766
▁kald	-10.1766
▁antagelig	-10.1767
▁introdusert	-10.1767
▁county	-10.1767
▁krevde	-10.1767
▁forekommer	-10.1767
▁redusert	-10.1767
▁episode	-10.1767
▁tyrkisk	-10.1767
▁schi	-10.1768
leir	-10.1768
▁1933	-10.1769
▁skøyte	-10.177
▁wu	-10.1775
▁banen	-10.1783
▁aksje	-10.1785
▁behov	-10.1788
plattform	-10.1792
▁meta	-10.1802
hed	-10.1803
▁gö	-10.1805
områdene	-10.1808
▁with	-10.1811
▁intel	-10.1814
▁36	-10.1819
wald	-10.184
▁planter	-10.1842
▁plassering	-10.185
▁underlag	-10.1853
▁måned	-10.1856
▁stam	-10.186
▁kysten	-10.187
▁utover	-10.187
▁studier	-10.1872
▁plasser	-10.1881
miljø	-10.1881
▁ungdom	-10.1891
▁celle	-10.1898
▁innsats	-10.1909
▁drag	-10.1911
▁konkurrere	-10.1914
▁angripe	-10.1914
▁kulturminne	-10.1914
stråling	-10.1914
▁musikalsk	-10.1915
▁ridder	-10.1915
▁etterfølger	-10.1915
▁1924	-10.1916
▁tyr	-10.1916
trukket	-10.1917
▁invest	-10.1917
▁alfred	-10.1921
▁grønland	-10.1935
ordnet	-10.1936
▁1500	-10.1938
▁sco	-10.1946
▁hunder	-10.1948
▁rykke	-10.195
▁løsning	-10.196
▁flyet	-10.1961
▁vinge	-10.1968
▁jim	-10.1972
▁drevet	-10.1974
▁levert	-10.1979
▁kapp	-10.1988
▁vitne	-10.1999
olje	-10.2007
▁formen	-10.2007
▁dekker	-10.2015
øm	-10.2017
ello	-10.2017
sdatter	-10.202
▁utstyr	-10.2023
dø	-10.2025
▁kanalen	-10.2038
vogn	-10.2043
kontor	-10.2045
▁soldat	-10.2045
▁romanen	-10.2048
bryter	-10.2048
▁mah	-10.2051
ular	-10.2052
▁sven	-10.2062
▁elisabeth	-10.2063
▁edvard	-10.2063
▁olsen	-10.2063
▁major	-10.2063
▁arbeiderpartiet	-10.2066
▁1941	-10.2066
kule	-10.2066
årene	-10.2067
▁bidro	-10.2067
▁jackson	-10.2069
на	-10.2071
▁arkitektur	-10.2082
26	-10.2088
▁nm	-10.2094
▁befinne	-10.2097
▁registrert	-10.2099
▁mol	-10.21
livet	-10.2106
▁gutte	-10.2109
▁middelalderen	-10.2111
▁stilt	-10.2112
▁orient	-10.2114
▁trond	-10.2116
lock	-10.2117
vald	-10.212
▁beskrev	-10.2139
▁tykk	-10.2141
▁skriver	-10.2142
▁regional	-10.2144
▁kåre	-10.217
▁sport	-10.2171
▁jag	-10.2175
▁sats	-10.2178
konsert	-10.2185
forbundet	-10.2187
født	-10.2187
row	-10.2203
▁friidrett	-10.2214
▁installert	-10.2215
▁fullstendig	-10.2215
▁washington	-10.2215
▁objekt	-10.2215
▁jørgen	-10.2215
▁erkebiskop	-10.2215
▁nominert	-10.2215
▁kristiansand	-10.2215
▁fjær	-10.2215
rakk	-10.2215
▁mongol	-10.2216
▁1932	-10.2217
▁1943	-10.2217
▁planlagt	-10.222
▁600	-10.2221
▁bygninger	-10.2221
▁foto	-10.2222
▁stabil	-10.2223
▁kapell	-10.2225
▁1000	-10.223
planter	-10.223
▁oppnådd	-10.2232
▁ferge	-10.2237
▁bach	-10.2239
▁kari	-10.2241
▁irsk	-10.2243
▁hage	-10.2243
▁max	-10.2244
▁jack	-10.2251
▁regul	-10.2255
bul	-10.2261
onym	-10.2261
lich	-10.2263
▁utstilling	-10.2277
herre	-10.2285
▁hek	-10.2286
▁begrep	-10.2293
▁oppleve	-10.2294
▁foreldre	-10.2299
▁politiet	-10.2307
▁synes	-10.2315
▁liga	-10.2318
▁terror	-10.232
▁landskapet	-10.2326
▁34	-10.2329
▁prosjektet	-10.2329
konsul	-10.2334
historisk	-10.234
museum	-10.2341
studie	-10.2342
uz	-10.2347
biller	-10.2351
▁zi	-10.2357
▁produksjonen	-10.2367
▁kha	-10.2367
▁millimeter	-10.2368
▁skulptur	-10.2368
▁strategi	-10.2369
▁geografisk	-10.2369
▁nedbør	-10.2369
▁kjærlighet	-10.2369
▁kjøtt	-10.2369
▁finnmark	-10.237
▁1914	-10.237
▁1919	-10.2371
▁sverre	-10.2371
▁innlede	-10.2373
▁uke	-10.2375
▁uttalt	-10.2378
▁artister	-10.2379
kostnad	-10.2381
▁drives	-10.2383
▁angel	-10.2388
▁show	-10.2388
▁bell	-10.2389
▁undervisning	-10.2393
▁slave	-10.2393
▁kommunal	-10.2402
▁furu	-10.2406
krig	-10.2416
virke	-10.2416
▁bispedømme	-10.2419
▁idrettslag	-10.2425
▁stå	-10.2425
▁skilt	-10.2427
rock	-10.2436
demokrati	-10.2447
▁herman	-10.2448
aria	-10.2448
vingen	-10.2448
masse	-10.2452
▁yo	-10.2459
▁innhold	-10.2461
▁sjøen	-10.2468
▁måne	-10.2498
direktør	-10.2499
funksjon	-10.2499
amerikansk	-10.2499
▁fett	-10.2502
▁erstatte	-10.2514
▁markeds	-10.2516
administrasjon	-10.2519
▁mexico	-10.2525
▁vunnet	-10.2525
▁eksperiment	-10.2525
▁tømmer	-10.2525
▁autonom	-10.2526
▁fattig	-10.2526
▁håndball	-10.2527
▁1918	-10.2527
▁hemmelig	-10.2528
mag	-10.2528
▁registr	-10.2529
▁group	-10.2529
▁vill	-10.253
▁bekrefte	-10.2531
laks	-10.2531
zu	-10.2533
sikring	-10.2534
▁nærheten	-10.2535
▁utnytte	-10.2535
▁grunnlov	-10.2535
høyskole	-10.2538
▁inndelt	-10.2546
tårn	-10.2547
▁lim	-10.2547
▁smak	-10.2549
▁server	-10.2566
▁simon	-10.2571
▁jud	-10.2572
▁malm	-10.2574
▁overført	-10.2577
alisme	-10.258
▁ulik	-10.2583
vang	-10.2584
▁preg	-10.2596
lignende	-10.26
▁bygger	-10.2621
styret	-10.2622
botn	-10.2626
▁kyr	-10.2638
skyting	-10.264
▁mala	-10.2642
pone	-10.2643
▁beina	-10.2649
▁tilstand	-10.2651
fic	-10.2659
▁trø	-10.2672
▁az	-10.2679
bred	-10.2679
▁700	-10.2681
høyde	-10.2683
▁aleksander	-10.2683
▁utvikler	-10.2683
▁anerkjent	-10.2684
▁kristne	-10.2684
▁utgivelsen	-10.2684
▁forårsake	-10.2684
▁føderal	-10.2684
▁golf	-10.2684
▁fullført	-10.2687
▁svømme	-10.2687
com	-10.2689
▁michel	-10.2689
▁erklært	-10.2689
▁unn	-10.2693
▁spenning	-10.2693
flukt	-10.2695
stråle	-10.2696
▁hersker	-10.2698
▁stol	-10.2698
▁utløp	-10.2699
▁eksistere	-10.2699
▁mynt	-10.27
▁visse	-10.2702
følgende	-10.2703
▁blande	-10.2703
▁busker	-10.2704
jal	-10.271
turnering	-10.2718
▁eksempelvis	-10.273
▁lake	-10.2735
spinner	-10.2739
▁beat	-10.274
kommisjon	-10.2751
▁hov	-10.2767
▁cel	-10.2772
▁samarbeidet	-10.2773
▁melke	-10.2786
▁uker	-10.2788
▁qi	-10.2802
▁tann	-10.2805
▁ulv	-10.2809
▁frihet	-10.281
▁chu	-10.2812
roman	-10.2816
dommer	-10.2816
▁town	-10.2817
▁bånd	-10.2828
vekst	-10.2829
ū	-10.2844
▁portugisisk	-10.2845
vassdraget	-10.2845
▁brødrene	-10.2845
▁forkortet	-10.2845
▁kommando	-10.2845
▁spredt	-10.2847
▁vannkraftverk	-10.2848
▁anvende	-10.2852
▁sikker	-10.2854
▁wood	-10.2856
stemning	-10.2859
▁beskyttelse	-10.2859
vatn	-10.286
▁demningen	-10.2862
sider	-10.2864
▁loven	-10.2868
▁armé	-10.2869
▁kammer	-10.2887
▁johansen	-10.2887
kammer	-10.2889
▁kop	-10.2893
▁sender	-10.2895
▁grunnlegge	-10.2902
sikkerhet	-10.2902
▁fotograf	-10.2903
▁dru	-10.2904
▁besøkt	-10.2907
▁kel	-10.2912
▁nordre	-10.2921
▁pont	-10.2927
▁arv	-10.2929
▁prakt	-10.2934
reise	-10.2942
▁rob	-10.2944
gutt	-10.2945
▁høst	-10.2953
▁bratt	-10.2953
▁bh	-10.2964
klær	-10.2975
▁riket	-10.2978
▁gaten	-10.2979
head	-10.2986
▁alfa	-10.299
president	-10.2991
versjon	-10.3002
▁østerriksk	-10.3009
▁foregår	-10.3009
▁hendelser	-10.3009
▁mekanisk	-10.3009
▁fiktiv	-10.3009
▁eksistert	-10.301
▁1927	-10.301
mønster	-10.3012
▁france	-10.3013
▁kaste	-10.3017
▁vekk	-10.3019
▁angeles	-10.3019
▁dvs	-10.302
▁piano	-10.3021
▁islam	-10.3024
▁naturgass	-10.3025
bebyggelse	-10.3028
▁østover	-10.3036
▁karakteristisk	-10.3038
▁snu	-10.304
▁1700	-10.3042
▁forbundet	-10.3046
▁gitarist	-10.3052
▁utgi	-10.3059
cheng	-10.3061
▁junior	-10.3065
komiteen	-10.3069
▁jam	-10.308
▁gli	-10.3092
time	-10.3093
▁strøk	-10.3094
▁parlament	-10.3099
▁inntekt	-10.3102
fred	-10.311
▁gram	-10.3113
▁regne	-10.3115
▁comp	-10.3121
▁dukke	-10.3121
beck	-10.3143
▁grunnlegger	-10.3143
▁utvidet	-10.3147
▁bou	-10.3149
▁120	-10.3156
hjelp	-10.3161
museet	-10.3165
front	-10.3166
▁fartøy	-10.3167
▁drap	-10.317
▁hovedkvarter	-10.3175
▁initiativ	-10.3175
▁utmerkelse	-10.3176
▁opplysning	-10.3176
▁bøkene	-10.3176
▁belgisk	-10.3176
▁invasjon	-10.3176
komité	-10.3176
▁1917	-10.3177
▁1911	-10.3177
▁1908	-10.3178
▁hindre	-10.3179
▁techn	-10.3179
▁feire	-10.3183
▁angrepet	-10.3193
▁toll	-10.3196
▁antatt	-10.3197
▁1600	-10.3202
▁teologi	-10.3217
▁molde	-10.3217
▁nordover	-10.322
▁vä	-10.3222
▁kin	-10.324
pakke	-10.3242
▁skatt	-10.3244
distanse	-10.3267
▁konstruksjon	-10.3269
▁diktet	-10.3271
vakt	-10.3277
følelse	-10.3286
▁modellen	-10.3292
▁middelalder	-10.3293
▁vegg	-10.3311
▁boka	-10.3316
årig	-10.3318
▁bevege	-10.3322
▁web	-10.3328
klasse	-10.3331
▁bygda	-10.3336
▁funn	-10.3344
▁doktorgrad	-10.3345
▁prefektur	-10.3345
▁katedral	-10.3345
▁ludvig	-10.3345
▁vesentlig	-10.3345
▁oppmerksomhet	-10.3345
▁sigurd	-10.3345
▁fiolin	-10.3349
▁bydistrikt	-10.335
▁skarp	-10.335
innspilling	-10.3351
bad	-10.3366
strømmen	-10.3372
▁brygge	-10.3378
▁sørover	-10.3379
▁avtalen	-10.3381
▁walter	-10.3382
▁spre	-10.3403
▁shan	-10.3415
avgift	-10.3418
▁styrkene	-10.3422
lærer	-10.3423
▁advokat	-10.3427
▁gruve	-10.344
▁hil	-10.3448
konsern	-10.3449
▁rulle	-10.3452
▁sønd	-10.3452
▁opphold	-10.3453
▁betegnelse	-10.3481
belte	-10.3491
▁steve	-10.3491
setting	-10.3493
▁milliarder	-10.3517
▁nøyaktig	-10.3517
▁dekkvingene	-10.3517
▁alexander	-10.3517
▁negativ	-10.3517
▁definert	-10.3518
friidrettsutøver	-10.3518
▁global	-10.3518
▁betjene	-10.3518
ström	-10.3518
▁mineral	-10.352
▁län	-10.3522
fenomen	-10.3522
▁bodø	-10.3524
▁tilhenger	-10.3524
▁800	-10.3526
▁tå	-10.3534
▁parallell	-10.3534
▁marg	-10.3544
▁opptre	-10.3544
▁skyte	-10.3545
▁agder	-10.3548
▁verksted	-10.3549
▁christiania	-10.3552
ulykke	-10.3554
▁pensjon	-10.3559
krutt	-10.3565
▁aar	-10.3578
▁modern	-10.3579
▁thu	-10.3579
▁hellas	-10.3581
▁medvirke	-10.3588
▁rand	-10.3606
▁american	-10.3612
▁fisker	-10.3612
▁institusjon	-10.3613
▁praktisk	-10.3614
dikt	-10.3616
sentre	-10.362
kjøn	-10.3621
▁institut	-10.3632
▁final	-10.365
▁synlig	-10.3656
flekk	-10.3657
▁khan	-10.3662
▁marc	-10.3666
▁regjer	-10.3674
▁kommun	-10.3678
▁histor	-10.3686
akademi	-10.3686
▁evne	-10.3688
▁restaur	-10.3688
angrep	-10.3688
▁sara	-10.3691
▁kriminal	-10.3692
løytnant	-10.3693
▁kjennetegn	-10.3693
▁monument	-10.3693
▁belgia	-10.3693
▁egenskaper	-10.3693
▁godkjent	-10.3694
bunn	-10.3696
▁samfunnet	-10.3696
stipend	-10.3696
▁verb	-10.3699
▁diplomat	-10.3701
▁drikke	-10.3705
▁metro	-10.372
bekk	-10.3723
▁sykdom	-10.3734
teater	-10.3741
▁statue	-10.3748
kål	-10.3748
▁motsatt	-10.376
kasse	-10.3761
▁utkom	-10.3762
▁score	-10.3764
melding	-10.3774
▁roger	-10.3781
▁ønsker	-10.3781
▁delstat	-10.3801
perioden	-10.3807
▁mei	-10.381
▁beskrivelse	-10.3814
trener	-10.3845
▁math	-10.3858
wick	-10.3859
wood	-10.3868
▁shanghai	-10.3871
▁observer	-10.3871
▁edward	-10.3871
▁1923	-10.3873
▁bronsemedalje	-10.3873
▁firmaet	-10.3873
▁1934	-10.3874
▁1910	-10.3875
▁litterær	-10.3875
▁stiftelsen	-10.3875
▁slank	-10.3876
handel	-10.3884
måte	-10.3886
klassen	-10.3889
behandling	-10.3899
forestilling	-10.3906
▁fol	-10.3908
▁tyskerne	-10.3909
▁søkt	-10.3935
▁tidsskriftet	-10.3938
▁strak	-10.3948
▁parlamentet	-10.3953
sluttet	-10.3962
▁vedtatt	-10.3963
serie	-10.3972
forsyning	-10.3974
næring	-10.3979
▁utsatt	-10.3984
▁170	-10.3988
medi	-10.3989
yuan	-10.4005
▁larve	-10.4012
22	-10.4013
▁verd	-10.4027
▁klokken	-10.4035
▁skjø	-10.4043
▁eksemplar	-10.4053
▁naturreservat	-10.4053
▁akershus	-10.4053
▁eventuel	-10.4053
▁opptrådt	-10.4053
▁juridisk	-10.4053
▁kvadrat	-10.4053
effekt	-10.4054
støtte	-10.4054
▁fungert	-10.4054
▁1922	-10.4054
▁1921	-10.4055
▁1916	-10.4056
▁mannskapet	-10.4056
▁håkon	-10.4056
▁flekker	-10.4057
▁myndigheter	-10.4058
▁erfaring	-10.4058
▁hensyn	-10.406
▁turneringen	-10.406
▁studere	-10.4063
▁fortellingen	-10.4068
▁hitler	-10.4068
▁ernst	-10.407
▁alban	-10.4073
▁good	-10.4076
▁enheter	-10.408
▁medisinsk	-10.4086
▁sca	-10.4092
▁mottatt	-10.4093
▁brei	-10.4107
▁tilpasse	-10.4108
▁vanligst	-10.4126
▁falk	-10.4135
▁osv	-10.4135
29	-10.4146
▁unna	-10.4153
bringe	-10.4154
▁liber	-10.416
▁shu	-10.4162
▁elektronisk	-10.4179
vandre	-10.4179
vari	-10.4188
▁betale	-10.4191
▁110	-10.4213
▁cand	-10.4226
▁beseiret	-10.4238
▁svalbard	-10.4238
▁symfoni	-10.4238
▁tønsberg	-10.4238
▁australsk	-10.4238
▁tabellen	-10.4238
▁vulkan	-10.4238
▁oppstår	-10.4238
førsel	-10.4238
frekvens	-10.4238
▁ungarn	-10.4238
▁ødelagt	-10.4239
▁hendelsen	-10.4239
fysikk	-10.4239
▁1926	-10.424
▁avledet	-10.4241
▁kongedømmet	-10.4244
▁skaffe	-10.4244
▁forvaltnings	-10.4244
alistisk	-10.4248
▁1898	-10.4259
▁anlagt	-10.4259
▁sammenlagt	-10.4262
▁för	-10.4271
zhi	-10.4277
scene	-10.4278
▁estland	-10.4286
▁psykologi	-10.4293
feng	-10.43
næs	-10.4301
feranse	-10.4307
mmy	-10.4329
▁nazi	-10.433
dyktig	-10.434
kall	-10.4359
▁plateselskap	-10.4374
tekst	-10.4391
start	-10.4393
▁frakte	-10.44
▁forklare	-10.4406
forvaltning	-10.4422
▁sveitsisk	-10.4425
▁country	-10.4427
▁komponert	-10.4427
▁praksis	-10.4427
▁reklame	-10.4427
▁ansikt	-10.4427
▁alpin	-10.4427
▁dominert	-10.4428
▁myndighetene	-10.4428
▁palass	-10.4428
▁eike	-10.4428
▁definere	-10.4429
▁kveld	-10.4429
▁1906	-10.443
preg	-10.443
▁intens	-10.443
▁kritiker	-10.4431
▁spreng	-10.4435
▁kino	-10.4436
▁volum	-10.4447
▁250	-10.4447
▁dokumentar	-10.4447
▁riktig	-10.4448
▁bag	-10.4454
▁victoria	-10.4459
▁lord	-10.447
▁oberst	-10.4472
vall	-10.4473
▁næringsliv	-10.4479
▁angi	-10.4492
▁unngå	-10.4502
▁hagen	-10.4507
striper	-10.4511
▁marx	-10.4524
▁arch	-10.4526
▁munk	-10.4586
lä	-10.4598
▁håndverk	-10.4602
▁elizabeth	-10.4619
▁symptom	-10.4619
▁utelukke	-10.4619
▁gabriel	-10.4619
▁resulter	-10.4619
▁ødelegge	-10.4619
veksling	-10.4619
▁dollar	-10.4619
opplæring	-10.4619
▁diverse	-10.4619
▁væske	-10.4619
▁nikola	-10.4619
▁sachsen	-10.4619
apparat	-10.462
▁generasjon	-10.4621
▁dverg	-10.4621
▁arendal	-10.4621
ск	-10.4621
▁1931	-10.4621
▁fru	-10.4622
▁power	-10.4622
▁komposisjon	-10.4626
▁kaffe	-10.4627
transport	-10.4631
▁lunge	-10.464
oksid	-10.4643
▁oppløst	-10.4645
▁etappe	-10.4649
gass	-10.4653
▁planeten	-10.4654
▁oval	-10.4666
▁slette	-10.4671
rygg	-10.4677
▁underfamilien	-10.4686
zel	-10.4708
▁katolsk	-10.4712
▁grim	-10.4719
▁utenriks	-10.4754
wich	-10.4754
▁stone	-10.4758
▁samtid	-10.4759
situasjon	-10.4813
horn	-10.4813
▁engasjert	-10.4815
▁utenlandske	-10.4815
▁ekstrem	-10.4815
▁kommersiell	-10.4816
▁radikal	-10.4816
▁ungarsk	-10.4816
▁josef	-10.4816
ovitsj	-10.4816
▁qū	-10.4816
▁innebære	-10.4817
▁gunnar	-10.4817
▁flytende	-10.4817
▁kryp	-10.4818
▁tropisk	-10.4818
▁import	-10.4818
▁forenkle	-10.482
▁monark	-10.482
▁wilson	-10.4827
▁klatre	-10.4828
▁mandat	-10.4828
struktur	-10.483
utdanning	-10.4831
▁spin	-10.4831
▁økende	-10.4831
▁lisens	-10.4831
▁arena	-10.4833
▁1200	-10.4838
▁arg	-10.4847
▁troms	-10.4855
▁tvang	-10.4855
▁emb	-10.4867
▁homo	-10.4867
▁høre	-10.4871
bach	-10.4881
fartøy	-10.4887
▁flyg	-10.4904
kjerne	-10.4905
▁demokrat	-10.4908
▁nau	-10.4922
▁blom	-10.4937
▁play	-10.4939
▁tempel	-10.4958
▁skuespill	-10.4959
▁fusjon	-10.4967
▁ordre	-10.4982
▁span	-10.4997
▁ross	-10.5007
stemme	-10.5007
▁synge	-10.5011
pningsseremonien	-10.5015
▁barcelona	-10.5015
▁beslutning	-10.5015
▁hensikt	-10.5015
▁texas	-10.5015
▁individuell	-10.5015
▁døgn	-10.5016
▁kjøretøy	-10.5016
▁arthur	-10.5016
▁innlemme	-10.5016
▁unntatt	-10.5017
▁flaggbære	-10.5017
▁gregor	-10.5017
▁beholdt	-10.5018
▁fuktig	-10.5019
▁tilsammen	-10.502
aften	-10.5024
▁social	-10.5026
posisjon	-10.5026
slått	-10.5027
▁pedersen	-10.5027
instrument	-10.5035
medisin	-10.5035
▁deltaker	-10.5037
stift	-10.5038
▁telemark	-10.5044
skifte	-10.5044
▁sjel	-10.5052
▁gjeld	-10.5057
▁smerte	-10.5063
▁mig	-10.5082
▁mitt	-10.5083
▁studiene	-10.5084
avisen	-10.509
lista	-10.5099
svekke	-10.5101
utvalget	-10.5116
▁ranger	-10.5128
▁fyll	-10.5134
▁tidsskrift	-10.5145
orientert	-10.5153
fabrik	-10.5154
▁sørge	-10.5155
▁verdensmester	-10.5162
▁popul	-10.5162
qi	-10.517
▁prost	-10.5201
▁republikk	-10.5213
▁vietnam	-10.5219
▁1907	-10.5219
▁association	-10.5219
▁vedlikehold	-10.5219
▁ukraina	-10.5219
▁argument	-10.5219
▁terreng	-10.5219
▁komplett	-10.5219
▁nicola	-10.5219
▁respekt	-10.522
▁risiko	-10.522
▁brigade	-10.522
▁programleder	-10.5222
▁1913	-10.5222
▁1905	-10.5222
▁brown	-10.5226
▁hovedkontor	-10.5226
▁franz	-10.523
▁kommunist	-10.523
stue	-10.524
utøver	-10.5242
▁1892	-10.5242
materiale	-10.5243
▁slippe	-10.5245
▁class	-10.5259
▁pels	-10.5259
▁gradvis	-10.526
▁figuren	-10.5262
skade	-10.5271
redskap	-10.5288
▁rau	-10.5306
▁polar	-10.531
periode	-10.5315
▁nova	-10.5323
edderkopper	-10.5331
agon	-10.5339
▁psyko	-10.537
samband	-10.5385
ologen	-10.5397
▁sving	-10.5421
kongedømme	-10.5425
▁1903	-10.5428
▁kollektiv	-10.5428
▁konkurrert	-10.5428
▁konsekvens	-10.5428
observasjon	-10.5428
▁innbyggerne	-10.5428
▁heinrich	-10.5428
▁presentert	-10.5428
givning	-10.5429
▁tildeles	-10.543
▁1902	-10.5431
▁skjønt	-10.5431
▁komedie	-10.5432
▁romsdal	-10.5434
▁trommer	-10.5443
▁avansert	-10.5444
▁1897	-10.5446
bibliotek	-10.5456
grønn	-10.5456
▁fasci	-10.5457
▁einar	-10.5458
▁brent	-10.5463
▁utbygging	-10.547
▁antennene	-10.548
▁130	-10.5485
ан	-10.5505
blå	-10.5512
▁lykke	-10.5517
▁krim	-10.5521
▁road	-10.5523
▁foreldrene	-10.5524
▁from	-10.5524
▁dyrke	-10.5538
▁håp	-10.5575
politisk	-10.559
▁gott	-10.5591
▁kommunestyre	-10.5594
▁plast	-10.5596
▁aero	-10.5605
bjørg	-10.561
▁manuskript	-10.564
▁windows	-10.564
▁göteborg	-10.564
▁pakistan	-10.564
▁konsept	-10.564
▁evangeli	-10.564
▁yrkes	-10.564
▁deutsche	-10.5641
▁forbedre	-10.5641
▁valuta	-10.5641
▁strekningen	-10.5641
▁anklage	-10.5643
▁embets	-10.5644
▁igjennom	-10.5644
▁fjernsyn	-10.5644
▁debatt	-10.5647
▁operere	-10.566
▁kristiania	-10.5662
iya	-10.5662
▁valle	-10.5662
▁forbunds	-10.5667
kontroll	-10.5673
seth	-10.5677
kreft	-10.5682
▁great	-10.5683
▁akku	-10.5689
▁moll	-10.569
kommende	-10.569
▁million	-10.5695
▁fortalt	-10.5701
bæk	-10.5713
▁bestemme	-10.5725
orkester	-10.5743
▁helst	-10.576
stell	-10.5777
▁fulgt	-10.5778
▁ønske	-10.5778
▁bredde	-10.5781
personlighet	-10.5782
strup	-10.5799
▁hekk	-10.5812
▁jente	-10.583
▁eb	-10.5841
▁oppnå	-10.5855
▁skrå	-10.5855
▁900	-10.5856
▁atmosfære	-10.5858
▁dirigent	-10.5858
▁konstruert	-10.5858
▁oksygen	-10.5858
▁psykisk	-10.5858
▁tilknytning	-10.5858
▁portugal	-10.5858
▁vilhelm	-10.5858
▁kritisert	-10.5858
▁nemlig	-10.5858
ensemble	-10.5858
▁rasmus	-10.5858
▁utseende	-10.5858
fast	-10.5859
ев	-10.5861
▁hydrogen	-10.5864
▁sykkel	-10.5864
▁hjal	-10.5866
▁biografi	-10.5866
▁samuel	-10.5868
▁tredjeplass	-10.5874
▁bjerk	-10.5875
▁gjenstand	-10.5876
▁sukker	-10.5878
▁avholdt	-10.5878
teknologi	-10.5881
▁vikler	-10.5887
▁1885	-10.5887
▁uavhengighet	-10.5895
ingeniør	-10.5895
representant	-10.5895
aktivitet	-10.5901
føtt	-10.5903
▁romerne	-10.5906
▁vennskap	-10.5909
▁kvit	-10.591
karriere	-10.5916
▁peder	-10.592
okrat	-10.594
▁allianse	-10.5947
▁krok	-10.5959
▁karbon	-10.5961
▁basis	-10.5986
▁urban	-10.5988
▁feli	-10.5993
skutt	-10.6007
▁disk	-10.6009
kanon	-10.6013
▁arkeologisk	-10.6014
▁lukke	-10.6032
▁ytter	-10.6049
▁82	-10.605
▁hä	-10.606
▁konservative	-10.608
▁trommeslager	-10.608
▁central	-10.608
▁opplevde	-10.608
▁frivillig	-10.608
▁seksuell	-10.608
▁ombord	-10.6081
▁rektor	-10.6081
▁1925	-10.6084
▁nattfly	-10.6085
▁midlertidig	-10.6085
▁løfte	-10.6085
▁kallenavn	-10.6086
▁kongsberg	-10.6086
▁gudinnen	-10.6086
▁1880	-10.6106
▁young	-10.6109
▁maritim	-10.6109
▁1895	-10.611
▁avslutte	-10.6116
finalen	-10.6123
▁allmenn	-10.6124
bølge	-10.6125
sentral	-10.6125
▁knytte	-10.6128
▁klokke	-10.6136
spiss	-10.6136
tempelet	-10.6144
problemer	-10.6145
▁holland	-10.6155
▁puppe	-10.6156
▁voksen	-10.6157
town	-10.6174
▁begynne	-10.6197
▁ess	-10.6213
▁nettsted	-10.6241
rått	-10.6296
▁arrestert	-10.6307
▁kronprins	-10.6307
▁1909	-10.6307
▁færøyene	-10.6307
▁forhindre	-10.6307
grunnsstasjon	-10.6307
▁thailand	-10.6308
▁uvanlig	-10.6308
▁barnehage	-10.6308
teatret	-10.6308
▁sprint	-10.6308
▁kullkraftverk	-10.6308
▁tennis	-10.6308
infeksjon	-10.6309
▁partner	-10.6309
▁etterkommer	-10.6309
▁skjønn	-10.631
▁1901	-10.6312
▁røyk	-10.6312
▁gravlagt	-10.6313
▁blank	-10.6315
▁lokalisert	-10.6316
▁tegninger	-10.6316
▁programmer	-10.6317
▁referanse	-10.6318
syklus	-10.6321
▁figurer	-10.6324
▁tolke	-10.6325
▁idé	-10.6327
▁party	-10.6328
▁kunde	-10.6329
▁1896	-10.6331
▁1890	-10.6339
▁meteor	-10.6346
▁nedover	-10.6346
▁life	-10.6354
temperatur	-10.6355
▁mannlig	-10.6362
▁mangle	-10.6363
▁persisk	-10.6368
formula	-10.6389
gods	-10.6399
▁colo	-10.6408
▁dramatisk	-10.6424
▁mølle	-10.6433
▁henri	-10.6438
orps	-10.6448
▁mau	-10.6459
▁egyptisk	-10.6466
▁egil	-10.6474
givende	-10.6494
vindu	-10.6512
regning	-10.6516
nytt	-10.6524
▁forlate	-10.6527
▁helsingfors	-10.654
▁maksimal	-10.654
▁babylon	-10.654
▁istedenfor	-10.654
▁kobber	-10.654
▁bærum	-10.654
▁overraske	-10.6541
▁stefan	-10.6541
worth	-10.6543
ови	-10.6543
▁bensin	-10.6544
▁søndag	-10.6544
▁svein	-10.6544
▁generell	-10.6546
terminal	-10.6546
▁restaurant	-10.6546
blikk	-10.6547
▁koreansk	-10.6551
▁terje	-10.6555
▁hyper	-10.656
regime	-10.6561
▁humor	-10.6561
▁nerve	-10.6566
▁ballett	-10.6569
▁skygge	-10.657
▁britis	-10.657
snegl	-10.6572
▁trygg	-10.6573
▁geir	-10.6577
▁ungdomsskole	-10.6579
pierre	-10.6584
▁xu	-10.6586
▁jury	-10.6589
▁seire	-10.6594
▁queen	-10.6598
▁sosialistisk	-10.6604
musiker	-10.6611
▁wales	-10.6612
▁tallrik	-10.6638
burn	-10.6678
▁kunstnerisk	-10.6683
ал	-10.6695
gjerd	-10.6707
▁trekant	-10.671
▁visst	-10.674
▁afghanistan	-10.6778
▁bryllup	-10.6778
▁molekyl	-10.6778
▁ukrainsk	-10.6778
▁bachelor	-10.6778
▁ressurs	-10.6778
▁nobelpris	-10.6778
▁hyppig	-10.6778
▁ovenfor	-10.6778
▁separat	-10.6778
▁etablere	-10.6778
▁omdanne	-10.678
▁oppfølger	-10.678
▁smelte	-10.6781
▁jurist	-10.6783
▁betong	-10.6784
▁familiegruppen	-10.6785
▁sparta	-10.6786
▁bedrifter	-10.6786
▁maxim	-10.6787
▁antikken	-10.6787
▁forbinde	-10.6791
kampanje	-10.6791
▁donau	-10.6798
▁marcus	-10.6799
▁koble	-10.6801
▁fritz	-10.6803
hvelv	-10.6806
språklige	-10.6817
▁utenom	-10.6822
▁titan	-10.6826
ekspert	-10.6829
▁drepe	-10.6831
▁utvide	-10.6832
▁senat	-10.6837
frukt	-10.6838
utstyr	-10.6846
oppgave	-10.6847
▁hotel	-10.6862
▁arkeolog	-10.6864
▁hylle	-10.6871
▁låten	-10.6875
tegning	-10.6898
▁silke	-10.6929
▁punk	-10.6954
ramme	-10.6975
▁kontrollere	-10.699
▁utforme	-10.6996
▁rosa	-10.7008
▁kjær	-10.7016
▁amsterdam	-10.7022
▁fundament	-10.7022
▁originaltittel	-10.7022
▁verdensrekord	-10.7022
▁landkreis	-10.7022
▁frykt	-10.7022
▁adolf	-10.7022
▁anerkjenne	-10.7023
▁nordmenn	-10.7023
▁datamaskin	-10.7024
▁hindu	-10.7026
▁kritisk	-10.7027
▁britene	-10.7028
▁opptreden	-10.7033
▁utarbeide	-10.7038
▁anledning	-10.7039
▁senator	-10.704
▁trenings	-10.7044
▁night	-10.7046
▁kjørt	-10.7046
▁komplekse	-10.7051
▁ddr	-10.7053
▁panser	-10.707
divisjon	-10.7087
vík	-10.7089
▁variert	-10.7092
▁dreie	-10.711
dress	-10.7177
lengde	-10.7215
▁victor	-10.7229
▁flest	-10.725
▁folkeparti	-10.726
psykolog	-10.7268
▁argentina	-10.7272
▁douglas	-10.7272
▁kompetanse	-10.7272
▁ortodoks	-10.7272
▁hebraisk	-10.7272
▁permanent	-10.7272
▁gjennomsnittlig	-10.7272
▁rogaland	-10.7272
▁amatør	-10.7272
▁misjonær	-10.7272
▁aktuell	-10.7272
▁forsvant	-10.7272
▁haakon	-10.7272
▁nektet	-10.7273
▁andré	-10.7273
▁tilskuer	-10.7273
▁eksistens	-10.7273
▁oppdagelse	-10.7274
▁josé	-10.7274
▁våt	-10.7275
styring	-10.7276
▁francisco	-10.7276
▁metoden	-10.7282
▁stemt	-10.7283
▁innspillingen	-10.7284
▁kontinental	-10.7285
▁fredrikstad	-10.7286
▁klippe	-10.7286
▁antas	-10.7286
▁høyesterett	-10.7288
▁forsterke	-10.729
▁øystein	-10.729
▁folketall	-10.7291
▁right	-10.7293
▁markerer	-10.7295
▁schwe	-10.7307
▁kontrollert	-10.7326
▁morten	-10.733
▁gjennomføre	-10.733
regjering	-10.7344
design	-10.7345
radio	-10.7354
brann	-10.7357
nettverk	-10.7364
skatt	-10.7407
▁kongress	-10.7411
natt	-10.7426
▁etnisk	-10.7434
▁bergart	-10.7453
bregne	-10.7475
sykdommer	-10.7503
ро	-10.7521
søyle	-10.7521
▁akseptert	-10.7528
▁pasienten	-10.7528
▁sarpsborg	-10.7528
▁society	-10.7528
▁instruks	-10.7528
▁krystall	-10.7528
▁arbeidsgiver	-10.7528
▁hjort	-10.7528
▁linux	-10.7528
▁skihopper	-10.7528
▁tvilling	-10.7528
▁langrenn	-10.7529
▁geometri	-10.7529
▁zhang	-10.7529
▁axel	-10.7529
▁petersburg	-10.7529
▁avdøde	-10.7529
▁skildre	-10.7529
▁vegetasjon	-10.7529
▁titler	-10.753
▁beskjed	-10.7531
▁programvare	-10.7531
terapi	-10.7532
▁1915	-10.7532
▁kronologisk	-10.7533
musikal	-10.7533
▁sykdommen	-10.7534
materiell	-10.7535
▁takket	-10.7538
▁diesel	-10.754
▁byggingen	-10.7543
liknende	-10.7543
▁bønn	-10.7547
▁ytterkant	-10.7548
▁anslå	-10.7549
▁nederlag	-10.7549
▁orgel	-10.7552
▁eugen	-10.7553
▁alpinist	-10.7555
▁hamburg	-10.7559
▁balanse	-10.7573
▁bassist	-10.7598
størrelse	-10.7607
papir	-10.7607
verktøy	-10.7633
▁inneha	-10.7638
▁oversette	-10.7641
▁flytte	-10.7702
▁kirkegård	-10.7713
▁innerst	-10.7728
kritik	-10.7751
kompleks	-10.776
▁asteroide	-10.7769
▁brutt	-10.7781
▁kommunistisk	-10.7785
▁angelsaksisk	-10.7791
▁assosiert	-10.7791
▁illustrasjon	-10.7791
▁innspilt	-10.7791
▁münchen	-10.7791
▁patriark	-10.7791
▁pronotum	-10.7791
▁virginia	-10.7791
▁napoleon	-10.7791
▁hordaland	-10.7791
▁oxford	-10.7791
▁automatisk	-10.7792
▁utspring	-10.7792
▁heavy	-10.7792
▁forkortelse	-10.7792
▁konvensjon	-10.7792
▁prince	-10.7792
▁senior	-10.7792
diagnose	-10.7793
▁prinsesse	-10.7793
▁nøkkel	-10.7793
▁søsken	-10.7793
▁für	-10.7793
▁larvik	-10.7793
▁elleve	-10.7794
▁gratis	-10.7794
▁regulere	-10.7795
▁sølvmedalje	-10.7795
▁nyhets	-10.7796
▁stengt	-10.7796
▁stryk	-10.7796
▁afrikansk	-10.7796
▁sjanger	-10.7797
▁work	-10.7802
▁tvunge	-10.7802
bevegelse	-10.7804
▁onkel	-10.7807
▁chris	-10.7807
▁down	-10.7811
▁forvente	-10.7813
innehaver	-10.7813
▁tilsyne	-10.7821
▁benevn	-10.7822
▁kreis	-10.7824
▁datert	-10.7827
hausen	-10.783
tromme	-10.7835
skrevet	-10.7863
tradisjon	-10.7878
likevel	-10.7878
▁klage	-10.789
mengde	-10.7904
▁byfylke	-10.8062
▁football	-10.8062
▁jerusalem	-10.8062
▁jomfru	-10.8062
▁kennedy	-10.8062
▁okkupasjon	-10.8062
▁opphørte	-10.8062
▁tsjekkisk	-10.8062
▁seremoni	-10.8062
▁testament	-10.8062
▁giovann	-10.8062
▁sicilia	-10.8062
▁lørdag	-10.8062
komponent	-10.8062
▁hjelm	-10.8062
▁nevner	-10.8062
▁beleiring	-10.8062
leverandør	-10.8062
▁serbisk	-10.8063
▁nymfe	-10.8063
ст	-10.8064
▁hørte	-10.8064
▁ulykken	-10.8064
▁foreslått	-10.8065
▁sentralbank	-10.8065
▁templ	-10.8065
▁halvparten	-10.8065
▁hedmark	-10.8065
▁sjette	-10.8068
▁rednings	-10.8078
▁hvile	-10.808
relatert	-10.8083
▁heart	-10.8096
▁sosialdemokrat	-10.8103
nevnte	-10.8139
institutt	-10.8154
historiker	-10.8155
europeisk	-10.8155
programmet	-10.8161
beite	-10.8166
bukten	-10.82
drevet	-10.8251
▁russe	-10.8265
▁francis	-10.8336
▁omhandle	-10.8336
psykiatri	-10.834
▁basketball	-10.834
▁corporation	-10.834
▁hollywood	-10.834
▁fasettøyne	-10.834
▁intervju	-10.834
budsjett	-10.834
▁anmelder	-10.834
▁antyder	-10.834
▁litauen	-10.834
▁vestfold	-10.834
▁antarktis	-10.834
▁trondhjems	-10.834
▁charlotte	-10.834
▁hvem	-10.834
▁ektemann	-10.834
▁utnevne	-10.834
▁utslipp	-10.8341
▁arnold	-10.8341
▁grammati	-10.8342
▁forberede	-10.8343
▁sultan	-10.8344
▁situasjonen	-10.8344
▁kjæreste	-10.8346
▁pioner	-10.8347
▁smitte	-10.8351
▁opprette	-10.8353
traktat	-10.8368
▁utskil	-10.837
▁europavei	-10.8394
▁blanc	-10.8425
▁kjeve	-10.8432
kandidat	-10.844
arkitekt	-10.8441
student	-10.8441
kjøl	-10.8496
kledt	-10.8504
▁presis	-10.8508
fellesskap	-10.8583
▁størst	-10.8618
▁buddhist	-10.8625
▁frankfurt	-10.8625
▁langrennsløper	-10.8625
▁låtskriver	-10.8625
▁matematikk	-10.8625
▁chicago	-10.8625
▁definisjon	-10.8625
▁forveksle	-10.8625
▁sammenslåing	-10.8625
▁uttrykt	-10.8625
▁jesuitt	-10.8625
▁kavaleri	-10.8625
▁tidspunktet	-10.8625
▁identitet	-10.8625
disiplin	-10.8625
▁selvmord	-10.8625
▁margaret	-10.8626
▁kontrast	-10.8626
▁begravet	-10.8626
▁utsikt	-10.8626
▁lewis	-10.8626
▁nepal	-10.8627
▁valgdelta	-10.8627
▁grevskapet	-10.8627
▁gråbrun	-10.8628
▁indikere	-10.8628
▁sosiolog	-10.8628
▁fangst	-10.8628
▁regelmessig	-10.8628
▁styreleder	-10.8633
▁fiction	-10.8633
▁holdning	-10.8642
▁øks	-10.8644
▁satellitt	-10.8644
▁forløper	-10.8649
▁oppfatte	-10.865
▁variasjon	-10.8653
▁nevro	-10.8656
svarte	-10.8686
utenriksminister	-10.8717
▁öst	-10.873
krone	-10.8753
▁bøye	-10.8828
møll	-10.8835
▁undergrunnsbane	-10.8919
distribusjon	-10.8919
▁admiral	-10.8919
▁aftenposten	-10.8919
▁aluminium	-10.8919
▁fakultet	-10.8919
▁gjaldt	-10.8919
▁prestegjeld	-10.8919
▁sogneprest	-10.8919
▁alminnelig	-10.8919
▁oppdatert	-10.8919
▁taylor	-10.8919
▁tyrkia	-10.8919
▁bridge	-10.892
▁canadisk	-10.892
▁ohio	-10.892
köping	-10.892
▁cappelen	-10.892
▁etablering	-10.892
▁avgjørende	-10.892
begrensning	-10.892
mouth	-10.892
▁protein	-10.8921
▁uttales	-10.8923
▁traktaten	-10.8924
▁jernbanestasjon	-10.8926
▁hjemmekampe	-10.8927
▁gullmedalje	-10.8928
▁ltd	-10.8937
▁statistisk	-10.8979
▁hevn	-10.9017
basseng	-10.9037
redaktør	-10.9038
overføring	-10.9084
▁styremedlem	-10.9093
▁ektefelle	-10.9222
▁ferdinand	-10.9222
▁generalmajor	-10.9222
▁köln	-10.9222
▁lillehammer	-10.9222
▁plutselig	-10.9222
▁slovakia	-10.9222
▁sparebank	-10.9222
▁jersey	-10.9222
▁support	-10.9222
▁academ	-10.9222
▁embeds	-10.9223
▁utbredelse	-10.9223
▁utgravning	-10.9223
▁wagner	-10.9223
▁ntnu	-10.9223
▁cecil	-10.9223
▁organisere	-10.9223
▁splitte	-10.9223
▁markedsføring	-10.9224
patrick	-10.9226
mekanisme	-10.9228
oidea	-10.9229
▁western	-10.9231
▁kalender	-10.9232
▁mannsnavn	-10.9233
gjær	-10.9233
▁moderat	-10.9239
▁regulert	-10.9288
▁trappe	-10.9331
spørsmål	-10.935
offiser	-10.935
litteratur	-10.9351
sentrum	-10.9352
▁beholde	-10.9357
institusjoner	-10.9362
foretak	-10.9502
▁observato	-10.9532
▁kontrovers	-10.9535
▁ambassadør	-10.9535
▁hovedpersonen	-10.9535
▁infanteri	-10.9535
▁microsoft	-10.9535
▁research	-10.9535
▁sebastian	-10.9535
▁styrmann	-10.9535
▁tilstrekkelig	-10.9535
▁verdenscupen	-10.9535
▁vladimir	-10.9535
▁ferskvann	-10.9535
▁matematisk	-10.9535
▁teoretisk	-10.9535
▁jupiter	-10.9535
▁kristelig	-10.9535
▁prøvde	-10.9535
▁stridsvogn	-10.9535
▁østfold	-10.9535
▁tilnærme	-10.9535
▁stafett	-10.9535
▁tilbrakt	-10.9535
▁dimensjon	-10.9535
givenhet	-10.9535
▁kompani	-10.9535
▁walisisk	-10.9536
▁kirurg	-10.9536
▁detroit	-10.9536
▁systematisk	-10.9536
▁essay	-10.9537
kobling	-10.9537
reaktor	-10.9537
▁opposisjon	-10.9538
plikasjon	-10.9538
▁metoder	-10.954
▁tilfeldig	-10.9553
▁rykte	-10.9556
▁barokk	-10.956
hytta	-10.9564
▁bedriften	-10.9566
raskere	-10.96
▁utvidelse	-10.9604
▁utøve	-10.9605
▁slange	-10.9659
resultat	-10.9673
provinsen	-10.9673
▁opprettelse	-10.9677
prøve	-10.968
lokale	-10.9717
▁energiselskape	-10.9751
tetthet	-10.9773
middag	-10.9806
▁guangdong	-10.9857
▁kristoffer	-10.9857
▁meksikansk	-10.9857
▁mobiltelefon	-10.9857
▁okkupert	-10.9857
▁pasienter	-10.9857
▁popularitet	-10.9857
▁varaordfører	-10.9857
▁bataljon	-10.9857
▁innendørs	-10.9857
▁manchester	-10.9857
▁pattedyr	-10.9857
▁oppfatning	-10.9857
▁airlines	-10.9857
▁bystatus	-10.9857
▁operativsystem	-10.9858
▁muslimsk	-10.9858
▁autoritet	-10.9858
▁nevø	-10.9858
▁publikasjon	-10.9858
▁begravelse	-10.9858
▁zealand	-10.9858
▁arabia	-10.9858
▁ålesund	-10.9858
▁flyktning	-10.9858
▁redigert	-10.9858
▁skrog	-10.9858
▁konkurs	-10.9858
▁tillatelse	-10.9859
▁kombinere	-10.9859
▁isolert	-10.9859
▁utpekt	-10.9859
▁virtu	-10.9859
▁utforming	-10.9859
▁claudi	-10.986
▁paradis	-10.986
▁leeds	-10.9862
kollega	-10.9862
▁moore	-10.9863
▁advent	-10.9866
▁beslutte	-10.9881
▁selvstyre	-10.9885
partei	-10.9887
syssel	-10.9895
▁sokn	-10.9936
krisen	-10.9938
konstruksjon	-11.0005
kontrakt	-11.0006
inntekt	-11.0006
ograph	-11.0009
analyse	-11.0011
▁dynasti	-11.0115
medlemmene	-11.0153
▁undersøke	-11.0177
inspektør	-11.0191
▁forøvrig	-11.0191
▁inklusiv	-11.0191
▁kjønnsmodne	-11.0191
▁propaganda	-11.0191
▁returnerte	-11.0191
▁uppsala	-11.0191
▁cæsar	-11.0191
▁keramikk	-11.0191
▁wergeland	-11.0191
▁1882	-11.0191
▁filippinene	-11.0191
▁hospital	-11.0191
▁pradesh	-11.0191
eksplosjon	-11.0191
▁trygve	-11.0191
▁latvia	-11.0191
▁colombia	-11.0191
▁diskusjon	-11.0191
▁stephen	-11.0191
▁benedikt	-11.0191
▁fødselsår	-11.0191
▁henrettet	-11.0191
▁theodor	-11.0191
▁semifinalen	-11.0191
▁ordinær	-11.0191
▁ulovlig	-11.0192
▁sophie	-11.0192
▁rumensk	-11.0192
▁first	-11.0192
▁apollo	-11.0192
▁lyktes	-11.0192
▁nkp	-11.0193
▁dybde	-11.0193
▁betaling	-11.0193
▁betydningsfull	-11.0193
▁nyheter	-11.0193
rettighetene	-11.0194
▁poesi	-11.0194
▁akutt	-11.0195
▁year	-11.0196
▁flanke	-11.0197
▁rakett	-11.0197
▁tjue	-11.0198
nemnd	-11.0218
▁sorg	-11.0228
føderasjon	-11.0229
schaft	-11.0251
høv	-11.0252
▁overføre	-11.0346
dialekt	-11.0351
klima	-11.0355
▁kosmo	-11.0389
▁dobbel	-11.0442
signal	-11.0502
direktoratet	-11.0536
landeveissyklist	-11.0536
reservoar	-11.0536
▁electric	-11.0536
▁fiendtlig	-11.0536
▁frilufts	-11.0536
▁færøysk	-11.0536
▁indonesia	-11.0536
▁koalisjon	-11.0536
▁påbegynt	-11.0536
▁venezuela	-11.0536
flokkurin	-11.0536
▁overvåke	-11.0536
▁vurdert	-11.0536
▁beordret	-11.0536
▁pseudonym	-11.0536
▁skjult	-11.0536
▁systematikk	-11.0536
▁sediment	-11.0536
▁yngste	-11.0536
▁gustaf	-11.0536
▁fjellkjeden	-11.0536
▁sjeldne	-11.0536
▁oppfordre	-11.0537
▁kjøpmann	-11.0537
blomsterflue	-11.0537
▁finansiert	-11.0537
▁monroe	-11.0537
straße	-11.0538
konferansen	-11.0538
▁again	-11.0538
▁bbc	-11.0539
▁dvd	-11.0539
sektoren	-11.0541
▁lineær	-11.0541
▁rettferdig	-11.0542
▁knust	-11.0545
▁castle	-11.0545
▁immun	-11.0547
▁stedsnavn	-11.055
▁ivareta	-11.055
herredømme	-11.0576
feiring	-11.0588
▁begynt	-11.0591
▁tjenestegjor	-11.0602
gudinne	-11.0636
▁ideologi	-11.0697
strøk	-11.0713
väg	-11.0744
drivende	-11.0774
▁parallel	-11.0858
forstyrrelse	-11.0874
▁diplom	-11.0876
ekspedi	-11.0892
▁absolutt	-11.0893
▁bulgaria	-11.0893
▁cambridge	-11.0893
▁illustrert	-11.0893
▁kontinuerlig	-11.0893
▁kvalifisering	-11.0893
▁library	-11.0893
▁lokomotiv	-11.0893
▁orchestra	-11.0893
▁sluppet	-11.0893
▁tsjekkoslovakia	-11.0893
skvadron	-11.0893
▁ammunisjon	-11.0893
▁halveringstid	-11.0893
▁inskripsjon	-11.0893
▁konstitusjon	-11.0893
▁luxembourg	-11.0893
▁sanskrit	-11.0893
▁könig	-11.0893
▁progressiv	-11.0893
▁vellykke	-11.0893
▁annonsert	-11.0893
▁gjøvik	-11.0893
▁kommandør	-11.0893
▁angivelig	-11.0893
▁vertikal	-11.0893
▁kommentar	-11.0893
▁tolkning	-11.0893
▁statsborger	-11.0893
▁church	-11.0893
▁erobring	-11.0893
▁grekerne	-11.0893
betennelse	-11.0893
▁karakterisere	-11.0893
▁fengsle	-11.0893
▁republikansk	-11.0894
▁snorre	-11.0894
▁wessel	-11.0894
▁innvandrer	-11.0894
▁oppheve	-11.0895
▁tempo	-11.0895
▁tirol	-11.0895
▁campbell	-11.0896
▁relasjon	-11.0897
▁micro	-11.0898
▁tørke	-11.0898
▁godkjenne	-11.09
▁hawk	-11.0904
▁presentere	-11.0914
▁rifle	-11.0921
trikk	-11.0929
▁markedsføre	-11.0942
dekorasjon	-11.0944
▁studert	-11.0962
▁stevn	-11.1016
dynastiet	-11.1078
▁usikker	-11.1132
øvd	-11.1207
▁kenya	-11.1212
komite	-11.1235
kirche	-11.1238
konsentrasjon	-11.1262
kommanderende	-11.1263
▁antwerpen	-11.1263
▁fremtredende	-11.1263
▁reflektere	-11.1263
▁shakespeare	-11.1263
▁særskilt	-11.1263
▁elektrisitet	-11.1263
▁konsentrert	-11.1263
▁krydder	-11.1263
▁omdøpt	-11.1263
▁pyramide	-11.1263
▁avslutning	-11.1263
▁elefant	-11.1263
▁joachim	-11.1263
skribent	-11.1263
▁abraham	-11.1263
▁arrangør	-11.1263
▁litauisk	-11.1263
▁minoritet	-11.1263
▁ustabil	-11.1263
▁høvding	-11.1263
▁svovel	-11.1263
▁fantasy	-11.1263
▁haugesund	-11.1263
▁kristus	-11.1263
▁sandefjord	-11.1264
▁skjebne	-11.1264
▁søvn	-11.1264
▁muhamm	-11.1264
▁tønne	-11.1264
▁suppl	-11.1265
▁særeg	-11.1266
▁osmansk	-11.1266
▁database	-11.1267
▁bløt	-11.1267
▁conrad	-11.1267
ordnede	-11.1267
▁fasade	-11.127
▁andorra	-11.127
dolph	-11.1273
▁salomo	-11.1273
embetet	-11.1293
▁genetisk	-11.1294
▁astrid	-11.1302
▁statistikk	-11.1364
▁america	-11.1439
drevne	-11.1451
advokat	-11.1462
kvalitet	-11.1463
soldater	-11.1463
sesongen	-11.1464
vennlig	-11.1483
▁krønike	-11.1487
▁inspirasjon	-11.1642
ttoregistertonn	-11.1648
▁bulgarsk	-11.1648
▁integrert	-11.1648
▁matematiker	-11.1648
▁mountain	-11.1648
▁sichuan	-11.1648
▁sørafrikansk	-11.1648
▁uruguay	-11.1648
▁væpne	-11.1648
▁evolusjon	-11.1648
▁gælisk	-11.1648
▁kapittel	-11.1648
▁selvbiografi	-11.1648
▁hiphop	-11.1648
▁opprettholde	-11.1648
▁frogner	-11.1648
▁primitiv	-11.1648
▁dedikert	-11.1648
▁baptist	-11.1648
▁diskutert	-11.1648
▁amundsen	-11.1648
▁preussen	-11.1648
sponsor	-11.1648
▁people	-11.1648
▁referert	-11.1648
▁luthersk	-11.1648
▁henrettelse	-11.1648
▁veksle	-11.1648
▁serbia	-11.1648
▁abdul	-11.1648
▁energy	-11.1648
▁konverter	-11.1649
▁africa	-11.1649
▁russerne	-11.1649
▁aspekt	-11.1649
▁venezia	-11.1649
▁tjener	-11.1649
▁dåp	-11.1649
▁fantasi	-11.165
ã	-11.2021
0	-12.0543
