<unk>	0
<s>	0
</s>	0
.	-3.29608
▁i	-3.45891
e	-3.68253
s	-3.73144
▁og	-3.83247
▁	-4.12979
t	-4.19731
en	-4.27471
▁av	-4.27776
er	-4.33531
▁som	-4.44926
▁en	-4.46161
▁er	-4.57899
▁til	-4.5897
r	-4.59635
▁for	-4.66701
▁på	-4.68571
▁den	-4.88077
▁ble	-4.88796
▁med	-4.91883
▁det	-4.92853
n	-5.01441
▁var	-5.0195
▁de	-5.06374
et	-5.09988
▁han	-5.15539
▁å	-5.24043
▁fra	-5.32306
▁et	-5.43988
▁har	-5.48918
▁at	-5.58285
ene	-5.58892
a	-5.70473
ne	-5.8885
▁etter	-5.92834
▁ved	-5.9562
▁om	-5.99344
▁også	-6.02192
i	-6.0696
▁men	-6.07121
▁seg	-6.15482
k	-6.18711
▁under	-6.19356
▁ut	-6.1949
d	-6.19879
l	-6.21546
▁ikke	-6.28197
▁hadde	-6.29632
▁da	-6.30854
o	-6.31686
m	-6.33354
▁over	-6.3611
te	-6.36638
g	-6.38302
▁to	-6.38653
y	-6.38702
▁eller	-6.44601
▁inn	-6.45216
▁kan	-6.4591
▁opp	-6.46124
de	-6.49056
re	-6.50683
▁andre	-6.55761
p	-6.5666
▁første	-6.59125
▁sin	-6.60453
f	-6.61455
▁mot	-6.62331
▁hun	-6.64564
ing	-6.66859
▁dette	-6.67454
▁år	-6.7111
▁be	-6.71809
v	-6.73398
in	-6.75214
▁1	-6.75329
▁s	-6.81385
▁ha	-6.8165
▁mellom	-6.83377
▁født	-6.83485
u	-6.83718
h	-6.86265
▁hans	-6.86579
us	-6.88511
c	-6.89628
▁a	-6.89824
▁tre	-6.90761
le	-6.90788
▁kom	-6.93184
▁denne	-6.93497
▁f	-6.93921
▁18	-6.93925
▁fikk	-6.94176
sk	-6.94432
es	-6.94443
▁der	-6.96289
b	-6.96484
▁flere	-7.00726
▁hvor	-7.01545
an	-7.05032
ri	-7.05187
▁man	-7.05692
▁nord	-7.07534
na	-7.0946
▁2	-7.09976
▁sammen	-7.10219
z	-7.11191
ende	-7.12719
al	-7.12929
nde	-7.13542
on	-7.14086
blant	-7.15396
▁del	-7.15519
ia	-7.17009
▁så	-7.17147
sen	-7.1867
di	-7.19007
▁før	-7.20074
ar	-7.20645
▁tallet	-7.2077
▁the	-7.2081
▁mange	-7.21135
▁ligger	-7.23891
▁selv	-7.25159
▁senere	-7.25817
▁norge	-7.26032
▁nå	-7.2607
▁la	-7.26371
▁noen	-7.27121
ter	-7.27648
▁u	-7.28734
▁død	-7.29016
▁stor	-7.29043
▁alle	-7.2927
▁m	-7.29512
▁c	-7.30562
la	-7.31017
▁3	-7.32154
▁byen	-7.32514
▁k	-7.32716
▁mer	-7.32728
ra	-7.33359
ere	-7.33991
▁ca	-7.34218
land	-7.35429
▁siden	-7.35469
▁re	-7.35868
▁b	-7.36778
lig	-7.37171
vis	-7.37816
li	-7.37953
blitt	-7.38366
▁norsk	-7.38895
▁være	-7.38958
▁4	-7.39276
j	-7.39692
▁gjennom	-7.40529
▁sitt	-7.40841
▁tidligere	-7.41211
w	-7.41594
ning	-7.41819
▁blir	-7.41836
ch	-7.42438
um	-7.42484
be	-7.42563
ver	-7.42759
▁17	-7.43098
▁land	-7.43232
▁kr	-7.43495
▁vært	-7.44047
▁ro	-7.4411
ske	-7.44122
▁disse	-7.4414
▁sør	-7.4428
ur	-7.44413
▁ol	-7.44995
▁annet	-7.454
▁se	-7.45668
▁5	-7.4593
▁samme	-7.46056
▁st	-7.46636
▁noe	-7.47181
ke	-7.47386
▁vi	-7.48422
▁kommune	-7.48913
ens	-7.49116
il	-7.4923
▁grunn	-7.49433
as	-7.49612
ng	-7.49942
▁kjent	-7.50044
iske	-7.50298
▁ny	-7.50499
or	-7.50718
▁store	-7.51325
▁tid	-7.52117
is	-7.53814
x	-7.546
▁dag	-7.54895
▁of	-7.54953
▁d	-7.55298
ste	-7.55767
▁an	-7.55893
▁rundt	-7.56004
▁gikk	-7.56163
▁16	-7.56755
▁her	-7.57183
lo	-7.57298
▁p	-7.57364
é	-7.5747
ig	-7.57837
▁10	-7.58205
ta	-7.58566
▁sa	-7.59346
▁vest	-7.5996
▁15	-7.60067
▁ned	-7.60247
▁vant	-7.60363
▁slik	-7.60521
▁ga	-7.60869
▁bo	-7.61185
▁frem	-7.61428
kt	-7.61673
▁mens	-7.6218
▁o	-7.62746
ma	-7.63467
øy	-7.63482
▁skulle	-7.63809
▁ra	-7.64202
isk	-7.64587
▁ham	-7.6467
ul	-7.64688
▁kunne	-7.65034
ler	-7.6517
▁ta	-7.65366
▁al	-7.65926
▁mest	-7.66136
ck	-7.66138
at	-7.66204
▁sine	-7.66274
mo	-7.66631
▁nye	-7.67241
it	-7.67252
▁både	-7.67932
▁by	-7.68004
▁enn	-7.68029
for	-7.68062
ut	-7.68305
▁hver	-7.6889
ro	-7.69446
▁bli	-7.6954
▁6	-7.69937
da	-7.70197
▁gang	-7.70398
▁bare	-7.70704
tt	-7.70961
▁meter	-7.71024
▁tilbake	-7.71808
▁sk	-7.71955
erne	-7.72576
el	-7.72583
om	-7.7295
▁vil	-7.73325
ner	-7.73567
ve	-7.73757
▁øst	-7.74118
▁dem	-7.74431
▁navnet	-7.74491
▁g	-7.74639
gen	-7.74655
▁norske	-7.75521
▁fram	-7.75907
nes	-7.76119
ff	-7.76238
▁km	-7.7642
ad	-7.76521
ton	-7.77196
mi	-7.77679
der	-7.77689
▁oslo	-7.77788
▁h	-7.77932
▁tok	-7.78012
ger	-7.79385
ga	-7.79461
▁fire	-7.79746
▁hele	-7.79813
▁navn	-7.79908
sa	-7.80116
den	-7.8017
het	-7.805
▁8	-7.80568
si	-7.80867
nd	-7.80891
▁skal	-7.80934
kk	-7.81343
▁ho	-7.81789
▁usa	-7.82049
▁deltok	-7.82097
▁få	-7.82256
os	-7.82645
bo	-7.83205
▁august	-7.83313
▁januar	-7.83313
me	-7.83344
▁finnes	-7.83413
▁mars	-7.83455
ka	-7.83686
th	-7.83758
ell	-7.83818
▁pi	-7.83851
▁siste	-7.84606
▁lag	-7.84943
▁li	-7.85038
ert	-7.85111
▁7	-7.85165
ø	-7.85227
asjon	-7.8545
▁mai	-7.85777
▁hoved	-7.86485
ll	-7.86506
▁si	-7.86511
▁ofte	-7.86815
to	-7.86815
skap	-7.86953
▁le	-7.87025
▁juli	-7.87073
ti	-7.87335
lige	-7.87733
▁di	-7.87818
▁mo	-7.87963
ist	-7.88213
mann	-7.88916
mer	-7.88986
▁største	-7.89333
▁12	-7.89402
▁ti	-7.89678
▁000	-7.89871
son	-7.90677
▁ni	-7.90756
▁na	-7.90757
ha	-7.90936
ge	-7.91427
stad	-7.91543
ven	-7.92591
vi	-7.92787
▁14	-7.93581
▁he	-7.93872
▁9	-7.94361
ry	-7.94987
▁laget	-7.95335
sjon	-7.95699
▁ba	-7.9616
je	-7.97335
▁l	-7.97529
else	-7.97656
▁t	-7.9766
▁går	-7.97881
▁området	-7.98172
ku	-7.98261
ment	-7.98385
var	-7.98736
▁do	-7.98763
▁far	-7.9897
▁fri	-7.99412
▁11	-7.99816
mp	-8.0007
ko	-8.00088
erte	-8.00479
ba	-8.00593
pp	-8.01437
▁februar	-8.01497
▁april	-8.01688
▁rekke	-8.01743
▁kon	-8.01827
▁20	-8.01896
▁po	-8.0203
gi	-8.02123
▁juni	-8.02797
dal	-8.02947
man	-8.03293
▁2008	-8.03617
▁gi	-8.03669
▁videre	-8.03823
▁lang	-8.03906
▁per	-8.03989
▁først	-8.04028
▁plass	-8.04481
▁landet	-8.04793
ol	-8.05397
▁utgitt	-8.05836
▁samt	-8.06103
▁årene	-8.06326
▁ei	-8.06657
▁n	-8.06834
▁13	-8.06893
▁september	-8.07163
ær	-8.07189
▁igjen	-8.0756
▁v	-8.07924
▁su	-8.08445
▁oktober	-8.08784
▁bak	-8.0882
ster	-8.08839
rett	-8.08864
av	-8.08998
ling	-8.09112
▁w	-8.09194
▁mar	-8.09218
▁begynte	-8.09471
▁du	-8.09847
ring	-8.09852
▁desember	-8.10432
ør	-8.11048
▁lo	-8.11068
▁tillegg	-8.12104
ja	-8.12134
co	-8.12139
▁mål	-8.12405
▁co	-8.12427
▁kirke	-8.12628
▁spilte	-8.12689
▁2007	-8.12747
by	-8.13018
gang	-8.13492
▁europa	-8.14029
ikk	-8.14132
ang	-8.1422
▁deres	-8.14473
▁2010	-8.14682
▁pro	-8.15011
▁vann	-8.15422
ker	-8.15612
bi	-8.15751
▁fly	-8.15766
▁vanlig	-8.15791
▁helt	-8.15852
▁november	-8.15983
pe	-8.16019
▁fa	-8.16117
▁mindre	-8.16435
▁like	-8.17153
im	-8.17314
▁brukt	-8.17446
go	-8.17466
ion	-8.1783
▁j	-8.17844
op	-8.18059
▁pe	-8.18109
tter	-8.18119
▁døde	-8.18137
▁kun	-8.18151
▁ka	-8.18197
ant	-8.18233
▁egen	-8.18711
ce	-8.18888
▁tv	-8.19129
▁sp	-8.19204
▁skole	-8.19255
ks	-8.19408
▁2006	-8.19566
po	-8.19645
am	-8.19664
do	-8.19784
▁olympisk	-8.19787
▁beste	-8.19821
inn	-8.19892
▁musikk	-8.20091
å	-8.20252
▁ver	-8.20266
æ	-8.20287
år	-8.20605
▁30	-8.20621
▁0	-8.20737
▁fem	-8.20835
va	-8.20958
▁tiden	-8.21303
▁gjorde	-8.21319
▁ri	-8.21772
▁par	-8.21836
▁ville	-8.21857
▁eksempel	-8.2186
▁or	-8.21952
▁hos	-8.22127
▁as	-8.22177
▁tro	-8.22272
▁bu	-8.22441
▁ma	-8.22449
▁kalt	-8.22518
▁bi	-8.22825
un	-8.23059
▁gu	-8.23085
▁leder	-8.23312
id	-8.23505
midlertid	-8.23744
ina	-8.24445
▁større	-8.2448
▁året	-8.24833
▁2005	-8.24909
elle	-8.24957
▁uten	-8.25017
▁ar	-8.25269
ni	-8.2554
3	-8.25707
▁so	-8.26161
ns	-8.26661
▁lov	-8.26721
▁bruk	-8.27173
▁gjen	-8.27181
▁tyskland	-8.27215
▁2009	-8.27621
ho	-8.27719
▁bestå	-8.27728
▁medlem	-8.28169
berg	-8.28299
▁no	-8.28319
ö	-8.28539
bu	-8.28844
▁må	-8.28944
▁kong	-8.28975
▁parti	-8.29002
ic	-8.29079
ed	-8.29192
men	-8.29214
ok	-8.29312
ingen	-8.29366
▁rett	-8.29894
▁pa	-8.29904
▁mye	-8.29942
ik	-8.30105
▁tyske	-8.30212
sh	-8.30328
▁brukes	-8.30622
▁nær	-8.30699
▁mi	-8.31324
▁sverige	-8.3138
ca	-8.31492
som	-8.31774
▁form	-8.32446
▁film	-8.32534
tor	-8.32579
sel	-8.3276
▁samtidig	-8.32947
▁spiller	-8.33134
▁gamle	-8.3345
ie	-8.33578
▁derfor	-8.33911
▁svær	-8.34063
▁new	-8.34251
dan	-8.34293
opp	-8.3446
▁fleste	-8.3457
tak	-8.34684
▁x	-8.34905
▁fi	-8.35382
pa	-8.35413
▁am	-8.35541
▁el	-8.35804
▁skrevet	-8.36051
gg	-8.36082
▁øy	-8.36191
kke	-8.36503
tur	-8.36888
▁em	-8.36964
▁kina	-8.37063
ningen	-8.37068
sta	-8.37292
▁deretter	-8.37469
rmed	-8.37561
▁tatt	-8.37822
▁særlig	-8.38015
▁filmen	-8.38128
▁folke	-8.38187
▁hus	-8.38494
▁startet	-8.38577
▁mat	-8.386
▁sønn	-8.38671
▁ulike	-8.38715
ber	-8.3875
fa	-8.38843
▁eks	-8.39479
▁deler	-8.39641
▁begge	-8.39934
▁måtte	-8.3995
▁satt	-8.40045
▁and	-8.40079
▁sol	-8.40238
au	-8.40239
▁ingen	-8.40311
▁ak	-8.40686
▁sett	-8.40689
▁innen	-8.40852
▁ge	-8.40872
siden	-8.40884
▁kultur	-8.40953
▁fast	-8.41006
ä	-8.4106
▁y	-8.41105
ru	-8.41123
▁barn	-8.41469
▁lu	-8.4148
▁perioden	-8.41587
vik	-8.4164
ering	-8.41664
▁tor	-8.41695
ag	-8.41804
▁langs	-8.42228
▁alt	-8.42241
á	-8.42566
▁ko	-8.42575
▁hennes	-8.42644
▁frankrike	-8.4276
▁jo	-8.42891
vin	-8.42963
io	-8.43039
kker	-8.43222
stand	-8.43229
▁kort	-8.43552
jø	-8.43629
▁england	-8.43632
▁små	-8.43677
sp	-8.43736
▁språk	-8.43801
ak	-8.43807
nk	-8.43952
▁gitt	-8.44044
dag	-8.44241
▁arbeidet	-8.44439
▁nest	-8.44682
lse	-8.44775
od	-8.44804
▁sommer	-8.4495
sted	-8.45015
ard	-8.45125
▁kommer	-8.45223
no	-8.45566
▁bar	-8.4566
rø	-8.45683
▁bandet	-8.45734
ting	-8.45765
▁kinesisk	-8.45966
ek	-8.45979
1	-8.46086
▁amerikansk	-8.46112
▁2011	-8.46269
ord	-8.46273
▁sch	-8.46449
▁løpet	-8.4662
itet	-8.46776
▁2004	-8.46871
pi	-8.47231
ir	-8.4754
▁verdenskrig	-8.47792
ot	-8.47851
▁bygget	-8.47942
▁grad	-8.48057
dre	-8.48187
▁lever	-8.48281
ron	-8.48315
▁london	-8.48365
▁stat	-8.48381
▁ju	-8.48419
▁annen	-8.486
▁liv	-8.49004
▁høy	-8.49086
ier	-8.49156
tid	-8.49247
ans	-8.49376
▁albumet	-8.49637
▁pu	-8.49648
▁amerikanske	-8.49751
over	-8.49884
ü	-8.49894
▁bergen	-8.49913
▁25	-8.49962
▁te	-8.50013
lin	-8.50027
▁kunst	-8.50068
▁100	-8.50544
▁gull	-8.50817
▁seks	-8.50962
▁ganger	-8.51064
vel	-8.51232
▁sted	-8.51263
ld	-8.51523
▁viktig	-8.51966
▁mor	-8.51996
ede	-8.52221
▁engelsk	-8.52456
▁ru	-8.52469
▁klubben	-8.52674
▁verdens	-8.52779
tra	-8.52924
▁krigen	-8.53002
satt	-8.53101
▁innbyggere	-8.53343
▁go	-8.53385
▁sv	-8.53429
itt	-8.5348
▁vm	-8.53705
lag	-8.53715
▁lå	-8.53817
kon	-8.53971
ft	-8.54059
ny	-8.54242
▁skrev	-8.543
▁kirken	-8.54381
▁mulig	-8.54412
ty	-8.54497
▁nasjonal	-8.54625
▁plan	-8.54635
ius	-8.54952
▁kongen	-8.55047
▁wi	-8.55068
vo	-8.55107
▁dagen	-8.5537
▁god	-8.55446
tre	-8.55906
▁norges	-8.55974
inger	-8.55984
▁ad	-8.56022
dd	-8.56252
ci	-8.56258
tiv	-8.56554
ium	-8.56638
▁provinsen	-8.56639
▁gir	-8.56647
▁sesongen	-8.56677
verk	-8.56756
▁2000	-8.56928
iv	-8.5693
▁millioner	-8.57105
skole	-8.57452
slag	-8.57549
▁etablert	-8.57578
▁ab	-8.57603
▁stedet	-8.57829
▁verden	-8.57857
▁lys	-8.57862
▁stein	-8.57885
▁2003	-8.57928
▁fjell	-8.58004
▁21	-8.58012
ige	-8.58033
▁fotball	-8.58116
▁1990	-8.58251
▁nytt	-8.58345
▁president	-8.58407
▁tysk	-8.58419
▁john	-8.58548
▁ski	-8.58563
uk	-8.5896
▁vei	-8.58973
per	-8.59045
bar	-8.59116
▁slutten	-8.59145
▁kjente	-8.59347
00	-8.594
▁gammel	-8.59596
stein	-8.5972
▁vel	-8.5976
▁historie	-8.59897
gu	-8.59959
ighet	-8.59975
▁britiske	-8.60316
▁russisk	-8.60629
▁nor	-8.60694
ian	-8.60823
▁fransk	-8.61574
▁tra	-8.6162
▁gruppen	-8.61822
ken	-8.62062
rik	-8.62201
▁wa	-8.62326
▁sto	-8.62516
▁ki	-8.62643
ly	-8.62712
and	-8.63126
sten	-8.63235
▁me	-8.63255
▁konge	-8.63342
▁familie	-8.63387
ran	-8.63725
▁23	-8.64252
▁sjø	-8.64414
so	-8.64491
▁forskjellige	-8.64873
▁spor	-8.64908
▁2001	-8.65195
▁sam	-8.65306
tok	-8.65351
▁bl	-8.65464
ov	-8.65489
▁gresk	-8.65565
▁øya	-8.65641
▁selskapet	-8.65648
▁franske	-8.6566
tu	-8.65772
▁førte	-8.65827
▁hel	-8.66072
mme	-8.66107
▁bra	-8.66111
len	-8.66158
▁sendt	-8.66284
▁spille	-8.66293
▁hu	-8.66312
▁all	-8.66347
▁delen	-8.66479
▁delstaten	-8.66604
til	-8.66661
les	-8.6677
▁pr	-8.66825
▁ord	-8.66829
▁2002	-8.67002
▁stort	-8.67155
▁ty	-8.67214
hold	-8.67338
hu	-8.67441
▁sentral	-8.6747
▁art	-8.67577
▁langt	-8.68071
▁grav	-8.68122
dalen	-8.68148
▁ja	-8.68365
▁forbindelse	-8.68476
▁r	-8.68513
▁tri	-8.68585
▁syn	-8.69016
▁spilt	-8.69309
▁tidlig	-8.69656
sett	-8.69706
▁bok	-8.69784
tal	-8.70046
em	-8.70108
▁22	-8.70378
▁san	-8.70409
ære	-8.70634
ow	-8.70674
▁side	-8.70936
▁bort	-8.70968
▁serien	-8.70971
lot	-8.7113
▁vise	-8.71252
▁eneste	-8.71266
▁mann	-8.71477
▁hy	-8.71596
▁slutt	-8.72
▁allerede	-8.72257
▁moderne	-8.72334
▁fortsatt	-8.72438
▁19	-8.72569
▁danmark	-8.72638
▁1980	-8.73028
▁flyttet	-8.73073
▁lite	-8.73166
kant	-8.73272
▁gud	-8.73375
▁hi	-8.73439
▁nok	-8.73526
min	-8.7363
stre	-8.73645
▁24	-8.73682
wa	-8.73784
bl	-8.73833
mmer	-8.73877
▁militær	-8.7413
▁basert	-8.74179
elsen	-8.7419
▁storbritannia	-8.74192
ud	-8.74198
▁støtte	-8.74421
▁mal	-8.74525
▁vo	-8.74534
isme	-8.74561
▁bety	-8.74763
tiske	-8.74852
▁spesielt	-8.74981
ator	-8.75059
▁va	-8.75093
▁arbeid	-8.7514
▁holdt	-8.75323
▁familien	-8.75335
gn	-8.75403
▁lokal	-8.75441
tiden	-8.75503
hus	-8.75532
▁dr	-8.75644
▁hatt	-8.75711
ju	-8.75879
est	-8.75899
▁ser	-8.75944
▁pl	-8.76134
▁1999	-8.76177
▁gjort	-8.7629
▁opprinnelig	-8.76455
▁min	-8.76513
lu	-8.76561
▁50	-8.76571
del	-8.76651
fe	-8.76695
▁paris	-8.7674
▁tredje	-8.76857
▁produksjon	-8.76892
▁står	-8.76911
▁italia	-8.76987
▁godt	-8.77096
lsen	-8.77256
und	-8.77324
▁general	-8.7739
▁rolle	-8.77606
ninger	-8.77686
▁lands	-8.77989
▁fred	-8.78094
▁omkring	-8.78202
leg	-8.78416
▁partiet	-8.78521
▁sangen	-8.78599
▁kommunen	-8.78608
▁1970	-8.78618
▁gift	-8.78654
▁universitetet	-8.78785
▁fo	-8.78989
spill	-8.79001
ister	-8.79011
▁knytte	-8.79023
tan	-8.79067
▁hol	-8.79085
▁con	-8.79374
▁kalles	-8.79449
▁hen	-8.79547
kel	-8.79917
▁mennesker	-8.79959
▁gå	-8.79995
▁lav	-8.80049
▁ur	-8.80181
▁utenfor	-8.80357
▁26	-8.80448
▁tar	-8.80537
tro	-8.80674
▁arbeider	-8.80755
▁krig	-8.8076
▁cha	-8.80866
bruk	-8.80972
▁én	-8.81142
art	-8.81246
▁ledet	-8.81444
▁28	-8.81554
▁lett	-8.81745
▁liten	-8.81891
▁mil	-8.82132
▁rø	-8.82145
ki	-8.82231
▁bor	-8.82429
▁svenske	-8.82496
▁kar	-8.82509
ley	-8.82568
▁midt	-8.82609
▁svensk	-8.82702
▁utnevnt	-8.82804
▁bil	-8.82848
▁dikt	-8.82954
▁viser	-8.83024
ska	-8.83169
▁reise	-8.83215
▁bygge	-8.83299
▁gjern	-8.83433
▁fant	-8.83614
ine	-8.83709
▁halv	-8.83765
▁folk	-8.83813
if	-8.8385
▁funnet	-8.83886
ble	-8.84201
ou	-8.84384
▁verk	-8.84608
elig	-8.8461
▁forfatter	-8.84663
▁utviklet	-8.84864
bb	-8.849
ide	-8.84906
tisk	-8.84952
ong	-8.85019
▁henne	-8.85078
burg	-8.85125
▁fått	-8.85159
▁gjøre	-8.85211
▁betydning	-8.85408
▁pre	-8.85483
▁gruppe	-8.85493
▁ren	-8.85518
mar	-8.85563
tte	-8.8573
▁forhold	-8.85756
mm	-8.85981
▁th	-8.86095
ph	-8.86181
▁opprettet	-8.8623
2	-8.86267
▁russland	-8.86292
val	-8.86293
mål	-8.86308
▁serie	-8.86327
▁innehold	-8.86329
iet	-8.86706
▁1994	-8.8674
he	-8.86799
▁31	-8.87016
▁jord	-8.87388
føring	-8.87401
kor	-8.87424
▁tjeneste	-8.87435
▁com	-8.8799
ham	-8.88113
▁os	-8.88117
5	-8.88226
met	-8.88405
▁we	-8.88444
jo	-8.88564
lan	-8.88638
▁enkelte	-8.88748
▁divisjon	-8.88781
løp	-8.88832
▁gl	-8.89013
ys	-8.89148
let	-8.89299
í	-8.89444
du	-8.89465
pu	-8.89489
▁internasjonale	-8.89534
▁egne	-8.89619
che	-8.89706
plass	-8.89776
gående	-8.89878
▁luft	-8.89936
▁sta	-8.89952
▁ben	-8.9006
lek	-8.90103
isering	-8.90112
▁økonomisk	-8.9021
▁forsøk	-8.90269
▁kvinne	-8.90284
▁produsert	-8.90364
stil	-8.90378
▁aktiv	-8.9038
▁elven	-8.90407
▁innenfor	-8.90447
mor	-8.9056
▁valgt	-8.90644
▁slag	-8.90814
▁bruker	-8.91011
▁paul	-8.91024
▁kor	-8.91131
sj	-8.91225
▁mon	-8.91494
▁2012	-8.91773
▁får	-8.91842
▁my	-8.91848
dom	-8.91869
▁park	-8.92163
▁gjør	-8.92165
heten	-8.9217
form	-8.92212
▁bro	-8.92229
▁brasil	-8.92231
▁berg	-8.92306
▁sy	-8.9241
▁mu	-8.92645
▁neste	-8.92679
▁drept	-8.92706
ket	-8.92756
øya	-8.9284
▁kje	-8.92974
su	-8.93517
▁hav	-8.93517
▁gul	-8.93539
▁york	-8.9365
▁solgt	-8.93662
▁karl	-8.9374
▁nett	-8.93844
lands	-8.9388
▁skolen	-8.93969
▁car	-8.94057
▁anti	-8.94131
▁åpnet	-8.94332
za	-8.94347
▁radio	-8.9458
▁kilometer	-8.94609
▁begynnelsen	-8.94614
▁minst	-8.9479
▁fu	-8.94896
▁direkte	-8.95092
▁1996	-8.95097
▁felles	-8.95118
▁romersk	-8.95118
pper	-8.95205
fl	-8.95325
sch	-8.95384
▁menn	-8.95386
leder	-8.95419
hi	-8.95509
▁berlin	-8.95543
▁skade	-8.95557
▁1992	-8.95584
▁åtte	-8.95649
▁regjeringen	-8.95687
det	-8.95721
▁keiser	-8.95741
▁høyre	-8.95925
▁nummer	-8.96022
▁amerika	-8.96052
▁1960	-8.96072
▁meste	-8.96081
borg	-8.96175
▁veien	-8.96187
▁sand	-8.96216
▁ifølge	-8.96281
▁kamp	-8.96282
▁kur	-8.96343
sson	-8.96457
▁antall	-8.96461
▁kv	-8.96506
▁henhold	-8.96577
▁sl	-8.96601
▁stil	-8.96607
▁rom	-8.96612
▁hva	-8.96656
▁mag	-8.96804
▁bygd	-8.96871
▁høyde	-8.96889
sto	-8.96984
▁india	-8.97103
▁afrika	-8.97223
▁motor	-8.97254
my	-8.97359
▁periode	-8.97373
▁valg	-8.97435
▁historisk	-8.9748
▁lik	-8.97627
▁fl	-8.97661
nske	-8.97769
ds	-8.97797
▁sen	-8.97831
▁lagt	-8.97855
fly	-8.97879
▁1998	-8.98047
▁lange	-8.98055
olog	-8.98061
året	-8.98155
▁arter	-8.98189
▁sentrum	-8.98241
▁mel	-8.98371
fra	-8.98409
▁full	-8.98528
▁erstatte	-8.98567
▁ed	-8.98654
gel	-8.98671
▁ferdig	-8.98691
sti	-8.98702
▁stats	-8.98759
▁datter	-8.98782
▁politiske	-8.98873
▁gav	-8.99018
▁bestemt	-8.99106
▁staten	-8.99168
▁bre	-8.9918
bil	-8.99205
▁27	-8.99297
▁danne	-8.99347
▁hjem	-8.99381
▁tap	-8.99509
▁hverandre	-8.99549
▁1988	-8.99554
▁sosial	-8.99673
▁fag	-8.99674
▁29	-8.99708
heim	-8.99914
▁col	-8.99929
▁natur	-8.9995
bygg	-9.00001
▁val	-9.00492
skje	-9.00503
føre	-9.00508
stat	-9.00664
kken	-9.00723
▁person	-9.00806
▁hal	-9.00867
▁slaget	-9.00897
ac	-9.01072
bygd	-9.01118
ah	-9.01124
▁hjemme	-9.01289
▁40	-9.01352
iker	-9.01444
▁aldri	-9.01605
▁følge	-9.01649
yd	-9.01756
ica	-9.01995
▁universitet	-9.02089
▁topp	-9.02215
▁tross	-9.02232
▁leker	-9.02247
▁biskop	-9.02287
▁litt	-9.02448
tall	-9.0246
▁teater	-9.02498
▁venstre	-9.02643
▁tur	-9.02643
▁kl	-9.02645
plan	-9.02668
ving	-9.02863
▁prest	-9.03023
yn	-9.03128
▁au	-9.03131
film	-9.03133
▁inkludert	-9.03157
zi	-9.03162
▁orden	-9.03174
▁medlemmer	-9.03244
▁driv	-9.03252
anske	-9.03404
▁von	-9.03533
▁skuespiller	-9.03619
▁farge	-9.03656
▁dannet	-9.03676
far	-9.03681
▁såkalt	-9.03687
▁riks	-9.0379
▁200	-9.03801
▁barne	-9.03839
tsj	-9.03959
▁arbeids	-9.03965
bre	-9.04008
ung	-9.04051
ale	-9.0413
▁hovedsakelig	-9.04219
båt	-9.04228
nder	-9.04385
▁ch	-9.04436
dy	-9.04458
lik	-9.04469
tz	-9.04584
fo	-9.0461
▁delt	-9.04704
▁vanskelig	-9.04747
▁foran	-9.04844
laget	-9.04917
spiller	-9.05063
▁roman	-9.05126
▁gate	-9.05172
▁betydelig	-9.0528
mat	-9.05372
han	-9.05508
asje	-9.05572
▁personer	-9.05615
▁ett	-9.05777
▁elva	-9.05873
sky	-9.06017
▁sogn	-9.0609
▁system	-9.06101
▁vinter	-9.06119
▁ø	-9.06122
▁angrep	-9.0627
dyr	-9.06294
råd	-9.06336
▁1993	-9.06362
ya	-9.0637
syk	-9.06435
▁representert	-9.06901
▁omtrent	-9.06901
▁kontroll	-9.06903
regionen	-9.06933
▁endt	-9.07082
▁eget	-9.0714
▁viktigst	-9.07375
▁hø	-9.07382
▁gre	-9.07415
▁jan	-9.07442
ologi	-9.07598
▁bror	-9.07623
▁ly	-9.07642
ding	-9.07662
▁band	-9.07695
lene	-9.07804
▁suksess	-9.07997
og	-9.08416
▁1920	-9.08563
▁tildelt	-9.08671
▁politisk	-9.08685
▁politiker	-9.08724
▁dansk	-9.08745
▁best	-9.08762
▁fremst	-9.0879
ach	-9.08935
lle	-9.08985
bok	-9.08993
ford	-9.09038
▁regionen	-9.09054
▁1995	-9.09113
red	-9.09259
▁befolkningen	-9.09264
dde	-9.09324
▁mark	-9.09342
▁kvinner	-9.09351
mark	-9.09568
▁album	-9.09628
▁dessut	-9.09665
▁samarbeid	-9.09667
punkt	-9.09709
▁regnes	-9.09787
▁dager	-9.09981
stående	-9.10035
tar	-9.10139
▁holde	-9.10153
▁spe	-9.10225
▁2013	-9.10238
▁ten	-9.10319
▁komme	-9.10329
▁hjelp	-9.10382
▁danske	-9.1044
stilling	-9.10534
ó	-9.10665
landet	-9.10688
▁jeg	-9.10691
▁tom	-9.1087
gh	-9.10954
bel	-9.11292
▁århundre	-9.11359
▁1991	-9.11365
▁ku	-9.11394
fjorden	-9.11452
▁fortsatte	-9.11672
▁bas	-9.11843
par	-9.11876
▁pave	-9.1188
▁elv	-9.11881
▁dra	-9.11957
▁fe	-9.12191
▁slo	-9.122
▁steder	-9.12271
▁handels	-9.12377
▁van	-9.12402
forening	-9.12432
▁arrangert	-9.12505
▁skille	-9.12536
▁opprør	-9.12599
▁skog	-9.12603
▁dis	-9.1262
▁start	-9.12889
bane	-9.12913
ation	-9.12936
ros	-9.12999
▁tekst	-9.13158
ika	-9.13172
▁sang	-9.13245
lys	-9.13336
▁hvis	-9.1334
▁z	-9.13432
▁red	-9.13486
gitt	-9.13628
ab	-9.13649
vann	-9.13654
▁1989	-9.13671
▁1997	-9.13674
ug	-9.13701
▁resultat	-9.13751
system	-9.13755
▁dom	-9.13755
mu	-9.13782
▁1800	-9.13797
▁herre	-9.13896
ald	-9.13974
full	-9.13979
▁offentlig	-9.14016
▁kraft	-9.14153
▁høyeste	-9.14207
▁sølv	-9.14248
▁eu	-9.14522
▁peter	-9.14548
▁enkelt	-9.14595
sjøen	-9.14605
▁fre	-9.14622
handling	-9.14682
late	-9.14756
▁via	-9.14773
▁kla	-9.14816
▁william	-9.14837
▁tittelen	-9.14943
7	-9.1502
50	-9.15039
▁rød	-9.15194
▁gj	-9.15359
▁trondheim	-9.15432
▁1984	-9.15436
ey	-9.15459
▁sak	-9.15459
▁robert	-9.15471
▁slått	-9.15509
▁sanger	-9.15513
▁verdi	-9.15525
▁styre	-9.15529
▁resten	-9.15578
▁følgende	-9.15767
▁roma	-9.15876
▁skje	-9.15891
▁lokale	-9.15914
▁brun	-9.15949
▁lyd	-9.15973
▁1968	-9.16031
▁eldre	-9.16073
ons	-9.16316
we	-9.16348
▁tilhører	-9.16465
fall	-9.16479
▁industri	-9.16677
▁liste	-9.16757
▁ry	-9.16766
res	-9.16808
ater	-9.16811
▁kal	-9.16821
setning	-9.1684
tes	-9.16929
▁vekt	-9.16929
▁asia	-9.16945
▁mari	-9.16954
▁indre	-9.16982
løs	-9.16995
▁fylke	-9.17005
▁pris	-9.17014
område	-9.17077
▁eldste	-9.17226
▁sørøst	-9.17246
▁post	-9.17255
▁br	-9.17418
liggende	-9.17421
▁pan	-9.17431
▁organ	-9.17541
syn	-9.17612
nor	-9.17634
anger	-9.17735
▁interesse	-9.1784
▁1900	-9.17861
▁bedre	-9.17953
ive	-9.18058
▁turn	-9.18289
ført	-9.18482
sjonen	-9.18501
loven	-9.18556
mel	-9.18577
▁fall	-9.18625
▁ter	-9.18651
▁flo	-9.18749
isert	-9.1878
isere	-9.18799
▁japan	-9.18866
▁engelske	-9.18928
ris	-9.19005
akt	-9.19051
▁skip	-9.19114
▁kron	-9.19129
øl	-9.19136
▁tak	-9.19178
▁inter	-9.19193
▁boken	-9.19286
▁grunnlagt	-9.19391
▁møte	-9.19424
▁styrke	-9.19472
lla	-9.19548
gikk	-9.19574
fi	-9.19597
▁christian	-9.19611
istiske	-9.20227
▁sm	-9.20254
▁studert	-9.20297
▁britisk	-9.20319
departementet	-9.20413
▁bri	-9.2047
kan	-9.20484
▁likeve	-9.20621
▁seier	-9.20866
▁university	-9.20951
▁makt	-9.20975
▁benyttet	-9.2111
▁finalen	-9.21139
▁sørlige	-9.21152
а	-9.21542
▁1945	-9.21554
▁1950	-9.21564
▁60	-9.2163
▁område	-9.21646
pen	-9.21697
▁områder	-9.21864
▁helse	-9.21958
vei	-9.22005
banen	-9.22078
vet	-9.22079
elt	-9.22176
▁hvilke	-9.22181
get	-9.22184
▁professor	-9.22289
ay	-9.22297
ill	-9.22353
▁møtte	-9.22407
▁legge	-9.22502
▁høyere	-9.22504
▁bred	-9.22536
ps	-9.22544
ismen	-9.22556
▁samle	-9.22559
▁sal	-9.22585
▁ønsket	-9.22754
▁plassert	-9.22846
▁lei	-9.22991
▁opera	-9.23087
▁krigs	-9.231
ai	-9.23176
området	-9.23177
▁meget	-9.23189
▁stra	-9.23273
veien	-9.23282
▁kroppen	-9.23461
▁tu	-9.23633
▁linje	-9.23647
heng	-9.23736
ana	-9.23797
▁vin	-9.24009
▁prosent	-9.24121
▁nordlig	-9.24126
▁fot	-9.24187
aksjon	-9.24204
▁alder	-9.24365
▁iii	-9.24716
▁forut	-9.24887
▁wal	-9.24954
▁satte	-9.24975
▁on	-9.2512
▁valgte	-9.25368
▁klar	-9.25424
▁krav	-9.2561
▁mont	-9.2565
▁våpen	-9.25661
▁sha	-9.25699
▁høsten	-9.25789
kter	-9.258
grad	-9.25862
▁hånd	-9.25979
skog	-9.26042
▁1981	-9.26064
▁voksne	-9.26064
gar	-9.26064
▁2015	-9.26075
▁ber	-9.26212
▁henrik	-9.26224
▁overtok	-9.26392
▁carl	-9.26431
▁fin	-9.26433
drift	-9.26443
drag	-9.26544
▁finner	-9.26594
▁livet	-9.26667
▁stockholm	-9.26726
vil	-9.26786
9	-9.26821
idae	-9.26824
fri	-9.26847
kast	-9.26929
bin	-9.2715
▁cla	-9.27184
▁johan	-9.27268
festival	-9.27394
stilt	-9.27396
▁1986	-9.27404
▁rock	-9.27465
20	-9.27536
▁utgjør	-9.27597
styre	-9.27637
30	-9.27659
▁drift	-9.27676
▁kraftig	-9.27676
▁europeiske	-9.27795
▁stasjon	-9.27843
▁ordet	-9.27991
nntil	-9.28007
▁klarte	-9.28015
▁gifte	-9.28026
▁poeng	-9.28082
▁xi	-9.28224
▁cor	-9.28262
▁løp	-9.28371
▁stre	-9.28413
▁hæren	-9.28434
▁sesong	-9.28556
navn	-9.28646
gjør	-9.28679
▁raskt	-9.28714
▁dårlig	-9.2874
dømme	-9.28754
▁grensen	-9.28784
▁rike	-9.28823
pre	-9.28966
▁ve	-9.28977
▁utvikling	-9.29165
▁gro	-9.29243
▁bank	-9.29306
bryte	-9.29365
mester	-9.29388
▁viss	-9.29395
▁je	-9.2948
lighet	-9.29483
▁energi	-9.29485
▁lille	-9.29514
▁lege	-9.29578
▁regjering	-9.29613
▁måte	-9.29636
int	-9.29648
sak	-9.2977
▁skrive	-9.2986
▁los	-9.30012
▁københavn	-9.30105
▁1940	-9.30121
▁koloni	-9.30179
▁fange	-9.30238
▁nu	-9.30263
▁midten	-9.30323
pro	-9.30365
metode	-9.30386
ori	-9.30419
skip	-9.30453
vern	-9.30483
▁havet	-9.30486
▁finne	-9.3049
bro	-9.30555
rus	-9.30565
▁seil	-9.30599
▁ky	-9.30646
40	-9.3065
▁ul	-9.30674
q	-9.3069
▁blad	-9.30747
▁standard	-9.30812
xi	-9.30823
▁samlet	-9.30842
▁eid	-9.30856
▁stod	-9.30966
▁omfatter	-9.3107
▁viste	-9.3112
▁funksjon	-9.31151
▁avdeling	-9.31212
▁natt	-9.31342
messig	-9.31492
▁1987	-9.31496
▁1972	-9.31499
▁kamper	-9.31542
kal	-9.31587
▁blå	-9.31762
▁lenger	-9.31876
▁ledelse	-9.31979
▁stjerne	-9.31992
▁1948	-9.32203
vær	-9.32283
▁tru	-9.32317
▁erik	-9.32402
▁sig	-9.32502
▁års	-9.32504
▁500	-9.32567
lett	-9.32598
▁lenge	-9.32649
▁svarte	-9.32722
▁slekt	-9.32846
▁bruke	-9.3289
▁uttrykk	-9.33076
▁olav	-9.33106
ano	-9.3312
▁litteratur	-9.3321
▁dyp	-9.33449
▁kul	-9.33498
▁gra	-9.33516
selskap	-9.33615
▁sammenheng	-9.33694
ita	-9.33732
▁christ	-9.33736
tel	-9.33836
▁brukte	-9.33837
▁dyr	-9.3385
▁bur	-9.33928
▁slekten	-9.33949
▁jobb	-9.34044
gan	-9.34117
▁arten	-9.34152
▁2014	-9.34326
▁befolkning	-9.34328
rio	-9.34354
▁syd	-9.34374
▁høre	-9.34377
▁dy	-9.34441
▁minne	-9.34554
▁jernbane	-9.34589
▁strøm	-9.34613
stasjon	-9.34647
brudd	-9.34662
▁pat	-9.34725
ida	-9.34743
ari	-9.34749
lagt	-9.34831
▁sterkt	-9.3492
▁regn	-9.34921
▁ring	-9.34922
stra	-9.34948
▁1975	-9.35045
old	-9.35048
▁endret	-9.35079
▁marine	-9.35106
▁tett	-9.35123
eres	-9.35144
▁katolske	-9.35243
▁nordøst	-9.35247
▁havn	-9.3526
▁island	-9.35311
▁tapte	-9.35335
▁omfatte	-9.35412
▁arm	-9.35433
▁samling	-9.35486
▁areal	-9.35486
søk	-9.35583
▁hvit	-9.35691
▁mente	-9.35705
▁versjon	-9.35743
▁fjerde	-9.3576
▁spania	-9.35761
▁1985	-9.3577
▁city	-9.35813
stan	-9.35874
samling	-9.35899
▁grand	-9.35944
▁forsvar	-9.3597
▁grupper	-9.35979
▁dersom	-9.36065
kar	-9.36196
▁hevde	-9.36213
▁olje	-9.36223
▁stiftet	-9.3626
▁fiske	-9.36296
gruppen	-9.36312
▁retning	-9.36368
up	-9.36456
▁1971	-9.36501
▁1964	-9.36502
▁gran	-9.36546
▁regel	-9.3659
▁syv	-9.36597
▁finland	-9.3665
▁bal	-9.36704
hø	-9.36767
ledes	-9.36905
istisk	-9.36908
▁råd	-9.36914
gård	-9.36988
▁gal	-9.37141
fjord	-9.37211
▁dro	-9.37245
▁johannes	-9.37367
▁data	-9.37505
▁sky	-9.3751
▁viktige	-9.37587
ås	-9.37597
ringen	-9.37673
▁hopp	-9.37811
all	-9.37815
▁egypt	-9.379
▁sannsynlig	-9.37966
▁canada	-9.37971
▁bøker	-9.37978
▁vår	-9.38074
▁80	-9.38109
rud	-9.38162
▁kle	-9.38302
▁transport	-9.38417
nis	-9.38531
▁tanke	-9.38576
▁lærer	-9.38635
▁gård	-9.38738
fabrikk	-9.389
▁bill	-9.39028
lis	-9.39112
▁miste	-9.39117
▁reiste	-9.39122
iner	-9.3917
▁bør	-9.39174
4	-9.39203
arbeid	-9.39252
▁politi	-9.3929
▁jon	-9.39368
styrke	-9.3939
▁australia	-9.39464
▁thomas	-9.39464
▁1982	-9.39472
▁stadig	-9.39523
▁hvite	-9.39544
▁tr	-9.3975
don	-9.39767
▁klasse	-9.39787
tør	-9.3979
▁formann	-9.39839
rom	-9.3984
▁unge	-9.39938
▁personlig	-9.40035
▁styrker	-9.40107
▁økonomi	-9.40192
ben	-9.40196
▁1976	-9.40232
▁lengde	-9.40239
▁kors	-9.40247
så	-9.40279
roll	-9.40287
sund	-9.40427
▁tall	-9.40475
▁plante	-9.40556
▁ag	-9.40631
▁pal	-9.40653
minister	-9.40665
▁utdanne	-9.40697
van	-9.4071
▁mac	-9.40722
▁eier	-9.40776
senter	-9.40793
lov	-9.40829
▁nivå	-9.40976
▁1978	-9.40994
▁1967	-9.40996
▁statsminister	-9.40998
ji	-9.41001
▁moh	-9.41039
▁miljø	-9.41039
▁svart	-9.41041
▁militære	-9.41107
fer	-9.4117
▁oppdaget	-9.41272
dels	-9.41289
▁ledd	-9.4132
park	-9.41328
anlegg	-9.41438
▁heller	-9.41507
enes	-9.41601
lser	-9.41618
gne	-9.41619
▁artene	-9.41648
huset	-9.41715
▁skjer	-9.41731
▁mis	-9.41744
▁fortsette	-9.4178
▁fotballspiller	-9.41782
▁mester	-9.4182
▁trakk	-9.41847
▁bjørn	-9.41908
▁fjorden	-9.41962
fag	-9.41975
ino	-9.42027
▁sc	-9.4221
ice	-9.42324
▁mus	-9.42336
▁hall	-9.42366
▁motstand	-9.42495
▁bru	-9.42518
▁sovjetunionen	-9.42529
и	-9.4253
▁stortinget	-9.42533
▁1974	-9.42543
▁trans	-9.42655
▁drev	-9.42658
▁union	-9.42681
▁tradisjonell	-9.42846
▁sju	-9.42865
familien	-9.42891
▁gode	-9.42899
handler	-9.43073
▁ytterligere	-9.43311
▁grense	-9.43321
▁qu	-9.43653
▁port	-9.43712
▁uni	-9.43826
▁mur	-9.43844
▁stavanger	-9.44104
▁lengre	-9.44106
▁1930	-9.44117
ille	-9.44173
▁nrk	-9.44288
grense	-9.44329
way	-9.44334
55	-9.4436
▁leve	-9.44409
▁gården	-9.44494
▁historien	-9.44509
▁studie	-9.44555
▁kampen	-9.44583
▁hær	-9.44634
trykk	-9.44685
▁ke	-9.44739
▁400	-9.44743
▁faren	-9.44887
▁tilsvarende	-9.44892
▁1983	-9.449
▁kh	-9.44949
▁utga	-9.45
▁hit	-9.4506
48	-9.45083
lev	-9.45089
alder	-9.45129
▁super	-9.45265
▁op	-9.45363
▁formel	-9.45387
▁sentrale	-9.45452
▁munn	-9.45458
▁ev	-9.45583
▁punkt	-9.45589
ap	-9.45637
menn	-9.45671
styr	-9.4569
▁enhet	-9.45692
▁vokste	-9.45693
tion	-9.45694
sjef	-9.4572
▁kunstner	-9.45911
▁vestlige	-9.45947
▁nådd	-9.45961
▁vik	-9.45967
linje	-9.45986
høy	-9.46006
▁enten	-9.46043
▁adel	-9.46169
▁ex	-9.46191
ini	-9.46199
nivå	-9.46217
havet	-9.46224
▁israel	-9.46231
▁skrift	-9.46352
dra	-9.46447
sekretær	-9.46498
▁dronning	-9.46502
▁soldater	-9.46518
ritt	-9.4655
tjeneste	-9.46586
▁david	-9.46665
blad	-9.46685
▁tegn	-9.46693
▁polen	-9.46724
zo	-9.46725
▁ek	-9.46811
▁maria	-9.46871
age	-9.47025
▁region	-9.47088
▁debutert	-9.47221
gre	-9.47295
▁trøndelag	-9.47311
▁skjedde	-9.47328
▁fulgte	-9.47332
▁virksomhet	-9.47421
▁skipet	-9.47442
▁merke	-9.47502
▁japansk	-9.47574
standen	-9.47713
felt	-9.47858
ple	-9.47906
of	-9.48035
kraft	-9.4804
▁gen	-9.48062
▁gru	-9.48137
▁ytre	-9.48203
ib	-9.48205
▁variant	-9.4821
▁sterk	-9.48239
▁båt	-9.48339
folk	-9.48381
▁hertug	-9.48388
▁jern	-9.48445
▁redaktør	-9.48461
ski	-9.48579
▁nederland	-9.48803
▁skatt	-9.4882
▁forsker	-9.48908
▁ep	-9.48946
▁martin	-9.49034
▁sommeren	-9.49045
▁feil	-9.4906
gift	-9.49132
▁70	-9.49134
▁bilde	-9.49155
▁ung	-9.49232
▁grenser	-9.4925
▁høyt	-9.49276
▁ære	-9.493
▁gar	-9.4934
▁lars	-9.49587
▁latin	-9.4962
▁museum	-9.49686
▁friidrett	-9.49789
rå	-9.49849
zhou	-9.49927
bra	-9.5002
▁grå	-9.50075
her	-9.5014
nett	-9.5024
▁fer	-9.50245
▁prøve	-9.5034
byen	-9.50377
kl	-9.50412
dt	-9.50535
fon	-9.50548
▁prosess	-9.50621
▁kardinal	-9.50631
▁relativ	-9.50631
▁oppkalt	-9.50634
▁1965	-9.50642
▁skyld	-9.50659
kjell	-9.50962
▁ii	-9.51017
▁flat	-9.51104
▁fla	-9.51107
▁fører	-9.51302
▁nasjonale	-9.51344
port	-9.51384
▁bakgrunn	-9.51509
▁kat	-9.51525
▁sivil	-9.51536
grunn	-9.51551
▁lin	-9.51674
▁not	-9.51708
▁ang	-9.51985
▁skape	-9.52032
områder	-9.5216
▁ac	-9.52232
nter	-9.52272
▁kart	-9.52321
▁individ	-9.52333
▁1969	-9.52344
cy	-9.52371
▁blod	-9.52395
▁bodde	-9.52417
▁bygningen	-9.52424
▁q	-9.52491
▁sende	-9.52516
wi	-9.52523
skapet	-9.52537
jer	-9.52666
▁nordvest	-9.52713
▁za	-9.52738
▁forsøkt	-9.52771
▁gren	-9.52806
▁ci	-9.52831
▁sub	-9.52844
▁besto	-9.53025
sal	-9.53034
▁middelalderen	-9.53109
▁tal	-9.53163
▁modell	-9.53167
midler	-9.53175
▁tilgjengelig	-9.53195
▁sikre	-9.53202
▁totalt	-9.53315
organisasjon	-9.53318
ografi	-9.53325
▁figur	-9.53412
gra	-9.53445
▁utført	-9.53488
tegn	-9.53599
delt	-9.53608
rådet	-9.5368
▁sil	-9.53687
skolen	-9.53743
▁salt	-9.53746
▁folket	-9.53759
ød	-9.53927
▁hår	-9.5401
▁fengsel	-9.54065
▁klassisk	-9.54066
▁1979	-9.54077
▁1936	-9.54079
▁1956	-9.54081
▁2016	-9.54082
▁derimo	-9.54085
rin	-9.54175
strøm	-9.54199
▁drama	-9.54273
▁utviklingen	-9.5428
▁journalist	-9.543
rid	-9.54353
▁presse	-9.54434
▁preget	-9.54437
▁problem	-9.5448
bygging	-9.54518
ider	-9.54536
▁ska	-9.54678
▁air	-9.54679
▁distriktet	-9.54716
▁anders	-9.54747
tatt	-9.54836
о	-9.54939
▁1928	-9.54951
▁1932	-9.54952
▁1973	-9.54953
▁2017	-9.54955
▁egentlig	-9.54973
▁bomb	-9.54976
▁profesjonell	-9.54993
▁sykdom	-9.54995
▁lau	-9.54996
ara	-9.55077
▁rus	-9.55083
skrift	-9.55095
▁dal	-9.55116
▁spesial	-9.55124
10	-9.55248
▁italienske	-9.55252
▁distrikt	-9.55258
▁politikk	-9.55297
▁ball	-9.55328
mun	-9.55363
▁skapt	-9.55377
▁regi	-9.5545
bert	-9.55538
▁bind	-9.55581
är	-9.55644
▁besøk	-9.55689
▁uavhengig	-9.55765
è	-9.55773
▁etterhvert	-9.55827
▁bla	-9.55839
▁grunnlegge	-9.55973
win	-9.55986
rygg	-9.5599
▁kroner	-9.56044
liv	-9.56065
lia	-9.56169
pris	-9.56346
80	-9.56465
▁fal	-9.56501
mannen	-9.56516
▁utvikle	-9.56529
▁cup	-9.5667
▁stykke	-9.56687
▁slå	-9.56694
ð	-9.5672
▁informasjon	-9.56729
▁femte	-9.56792
▁plassering	-9.56861
legge	-9.56898
kin	-9.56902
▁revolusjon	-9.56925
▁løs	-9.57037
elige	-9.57095
▁offiser	-9.57153
▁falt	-9.57239
▁sent	-9.57345
▁stemme	-9.57361
tek	-9.57389
lv	-9.57398
cc	-9.57446
ansk	-9.57503
bor	-9.5752
▁daglig	-9.57536
▁george	-9.57591
▁bronse	-9.57618
▁sørvest	-9.57622
▁bevis	-9.57655
56	-9.5771
soldat	-9.57726
pel	-9.57759
70	-9.57762
▁grønn	-9.57793
produksjon	-9.57821
▁oppdrag	-9.57836
ola	-9.57942
holdt	-9.57998
▁sø	-9.58115
▁kyst	-9.58163
▁stilling	-9.58191
ferd	-9.58314
▁ara	-9.5833
▁regnet	-9.58443
▁nevnt	-9.5853
▁ekteskap	-9.58531
▁1946	-9.58543
▁ordfører	-9.58545
abel	-9.58592
▁velge	-9.58603
▁vinner	-9.58607
▁konsert	-9.58629
▁test	-9.5863
iz	-9.58653
▁motsetning	-9.58734
▁fil	-9.5875
trekk	-9.58795
bud	-9.58811
retning	-9.58837
▁begrepet	-9.5891
▁hell	-9.58918
▁avis	-9.58953
▁selskap	-9.59055
▁pop	-9.59066
▁karriere	-9.59229
chi	-9.59329
▁røde	-9.59342
▁privat	-9.59376
▁opprinnelse	-9.59447
▁design	-9.59452
▁you	-9.5946
▁1966	-9.59462
▁1962	-9.59463
løse	-9.59475
parti	-9.5951
▁vol	-9.59524
▁størrelse	-9.59599
vid	-9.59748
▁måneder	-9.59783
▁situasjon	-9.59787
▁stand	-9.5979
▁spørsmål	-9.59802
▁sluttet	-9.60098
▁bolig	-9.60113
▁posisjon	-9.6012
▁karakter	-9.60135
nik	-9.60157
valg	-9.60168
korps	-9.60251
▁300	-9.60263
▁offisiell	-9.60373
▁kontakt	-9.60378
virkning	-9.60388
▁øyene	-9.60405
▁les	-9.60411
▁spre	-9.60423
krigen	-9.60463
▁ting	-9.605
▁pass	-9.6063
side	-9.607
las	-9.60722
▁mm	-9.60769
oni	-9.60797
▁gjelder	-9.60835
▁west	-9.60865
▁felt	-9.60873
▁øke	-9.60875
▁kysten	-9.60966
▁ph	-9.61031
▁fro	-9.61039
makt	-9.6106
▁90	-9.61097
mal	-9.61211
▁pen	-9.61304
▁konflikt	-9.61308
▁publisert	-9.61308
▁united	-9.61309
▁1977	-9.61318
▁fylkesvei	-9.61324
▁mc	-9.61353
▁led	-9.61359
▁fordel	-9.61408
▁sterke	-9.61414
42	-9.61443
▁bosatt	-9.61459
▁fugl	-9.61544
▁smal	-9.61559
▁hjelpe	-9.6159
▁af	-9.61636
▁kol	-9.61751
▁nabo	-9.61764
▁haug	-9.6183
▁hundre	-9.61846
▁pol	-9.61942
▁utover	-9.61958
38	-9.61988
utgave	-9.62047
▁årlig	-9.62092
bri	-9.62188
▁nærmest	-9.62253
▁bevart	-9.62275
▁østlig	-9.62282
▁lær	-9.62327
hy	-9.62366
▁renner	-9.62396
▁prisen	-9.62406
▁athen	-9.62449
▁hodet	-9.6247
stu	-9.62487
▁innført	-9.62498
▁sir	-9.62527
▁stift	-9.62555
▁forteller	-9.62589
▁naturlig	-9.62589
▁borger	-9.62614
▁opphav	-9.62673
74	-9.62682
▁vist	-9.62694
▁områdene	-9.62794
gler	-9.62831
▁180	-9.6286
verket	-9.62979
▁produsent	-9.62989
▁shi	-9.63201
med	-9.63202
ú	-9.63204
е	-9.63204
▁hei	-9.63205
▁uke	-9.63206
▁flagg	-9.63234
▁prins	-9.63236
▁sund	-9.63252
hr	-9.63271
▁gjennomført	-9.63299
61	-9.63302
▁bad	-9.6331
kamp	-9.63355
▁republikken	-9.63369
▁menneske	-9.63402
▁stille	-9.63503
af	-9.63513
kunst	-9.63522
▁liga	-9.63538
▁mad	-9.63631
elser	-9.63657
rop	-9.63785
kning	-9.63818
▁prosjekt	-9.63864
ark	-9.63867
▁kaste	-9.63933
▁ungdoms	-9.6401
▁sveits	-9.64045
bilde	-9.64117
gruppe	-9.6416
▁elektrisk	-9.64165
р	-9.64165
▁james	-9.64169
▁sommerfugl	-9.64178
▁nes	-9.64431
ologisk	-9.64433
62	-9.64472
▁elev	-9.64599
▁ordenen	-9.64623
▁brann	-9.64657
nyin	-9.64713
▁tung	-9.64716
har	-9.64834
▁son	-9.64859
bus	-9.64868
holm	-9.64906
dagen	-9.64953
▁cm	-9.65009
▁tale	-9.65088
▁ji	-9.65109
▁melodi	-9.65139
▁1952	-9.65152
▁skilt	-9.65174
▁can	-9.65192
▁musiker	-9.65196
mid	-9.65213
merke	-9.65227
ula	-9.65416
▁dam	-9.65416
▁administrasjon	-9.65429
▁hest	-9.65615
▁reform	-9.65661
bank	-9.65674
36	-9.65755
ath	-9.65768
▁måned	-9.65779
▁egg	-9.6578
stedet	-9.65822
bunn	-9.65838
arbeider	-9.65847
ani	-9.65865
▁direktør	-9.65896
▁don	-9.65942
▁national	-9.66116
▁bokstav	-9.66118
▁mulighet	-9.66128
▁fremdeles	-9.66152
▁stammer	-9.66188
▁sh	-9.66217
organ	-9.66259
▁bane	-9.66276
▁real	-9.66314
▁konkurransen	-9.66337
▁ekspedisjon	-9.66398
▁trolig	-9.66444
▁trykk	-9.66461
86	-9.66497
virke	-9.66528
19	-9.66574
▁høye	-9.66587
▁epi	-9.66638
▁total	-9.66649
▁bern	-9.66657
▁filosofi	-9.66668
64	-9.66703
▁idretts	-9.66709
▁plat	-9.66825
ama	-9.66867
▁spanske	-9.66941
▁rot	-9.66955
▁kro	-9.6697
▁ube	-9.67007
39	-9.67071
▁følger	-9.67081
▁komponist	-9.67106
språk	-9.67107
▁1958	-9.67122
▁filmer	-9.67358
▁oppført	-9.67363
stid	-9.67388
▁chi	-9.67419
▁aktivitet	-9.67503
▁anlegget	-9.67527
▁utdanning	-9.67556
▁effekt	-9.6756
svis	-9.67605
▁begynner	-9.67674
rad	-9.67784
▁valget	-9.67813
▁vind	-9.67828
▁harald	-9.67841
▁klart	-9.67863
▁holm	-9.67939
▁gitar	-9.6798
els	-9.67981
97	-9.67983
▁arkitekt	-9.68045
▁holder	-9.68082
▁anne	-9.68098
ā	-9.68106
▁skottland	-9.68106
▁religion	-9.68107
▁østerrike	-9.68108
▁oversikt	-9.68108
▁snakke	-9.6812
▁charles	-9.6812
▁1961	-9.68124
▁rev	-9.68291
08	-9.68294
gul	-9.68369
▁para	-9.68406
▁operasjon	-9.68435
▁klubb	-9.68583
▁student	-9.6879
kirke	-9.68817
▁gutt	-9.68869
▁produkt	-9.6889
▁kvinnelig	-9.68908
▁byer	-9.69084
▁behandling	-9.69121
▁kristne	-9.69123
▁1924	-9.69127
▁sikkerhet	-9.69161
field	-9.69168
gå	-9.69183
▁varme	-9.69184
▁angeles	-9.69191
▁eiendom	-9.69289
▁rute	-9.69327
▁studenter	-9.69446
gal	-9.6947
52	-9.69487
▁45	-9.69565
▁fylkes	-9.6958
pol	-9.69621
selskapet	-9.69646
stikk	-9.69662
dals	-9.69684
▁mw	-9.69865
90	-9.69908
▁nærings	-9.69915
▁rose	-9.69963
▁runde	-9.69978
63	-9.70019
rør	-9.70053
oc	-9.70054
▁representere	-9.70137
▁tilknytning	-9.70137
kapasitet	-9.70139
▁1949	-9.70152
▁1944	-9.70152
▁1939	-9.70154
▁alltid	-9.70197
▁kost	-9.70216
▁wo	-9.70232
parten	-9.7032
gren	-9.70339
66	-9.70371
▁mø	-9.70385
▁spi	-9.70386
ich	-9.70485
ette	-9.70612
58	-9.70616
▁irland	-9.7062
lang	-9.70722
haug	-9.70745
tis	-9.70821
▁hage	-9.70869
bær	-9.70929
▁konkurranse	-9.70958
▁bon	-9.70995
▁sier	-9.71047
gangen	-9.71048
stoff	-9.71048
▁heter	-9.71056
▁mengde	-9.71081
▁organisasjonen	-9.71147
▁symbol	-9.71168
▁richard	-9.71168
▁andreplass	-9.7117
▁sette	-9.71192
tropp	-9.71207
▁fyr	-9.71216
ney	-9.71227
▁likhet	-9.71301
▁myr	-9.71362
stol	-9.71375
▁passer	-9.71375
gon	-9.71379
▁tele	-9.71608
shire	-9.71611
mund	-9.71734
systemet	-9.71744
▁ansatt	-9.71751
▁zh	-9.71851
▁forekomme	-9.71852
▁sønnen	-9.71881
▁type	-9.71908
▁delvis	-9.72011
41	-9.72014
▁korea	-9.72017
bø	-9.72066
folkerepublikken	-9.7221
▁berømt	-9.7221
▁yngre	-9.72211
▁løv	-9.72216
▁omtalt	-9.72231
▁lengst	-9.72236
▁bel	-9.72265
▁vanlige	-9.72322
eid	-9.72338
voll	-9.72372
▁rollen	-9.72551
▁mak	-9.72552
nst	-9.72574
later	-9.72723
lend	-9.72735
ål	-9.72855
án	-9.72915
▁åpne	-9.73025
band	-9.73041
▁original	-9.73262
▁mexico	-9.73262
▁lansert	-9.73265
▁flertall	-9.73271
medalje	-9.73285
▁altså	-9.73297
gram	-9.73308
▁hoff	-9.73559
navnet	-9.73595
jern	-9.73602
▁venn	-9.73627
ther	-9.7368
sberg	-9.73732
▁retts	-9.73765
▁kanon	-9.73802
▁borg	-9.73814
▁betegnelsen	-9.73896
▁delta	-9.73917
stø	-9.73984
▁grunnlag	-9.74092
formen	-9.74123
▁ask	-9.74146
▁lind	-9.74167
shi	-9.74177
▁ob	-9.742
▁kraftverk	-9.742
slutning	-9.74202
fjell	-9.74224
▁flu	-9.74265
▁frank	-9.74266
våg	-9.74289
▁rapport	-9.74326
▁typisk	-9.74329
▁1947	-9.74342
▁gri	-9.74344
▁1942	-9.74344
▁enda	-9.74361
▁ramme	-9.74453
▁1600	-9.74491
ish	-9.74569
fart	-9.74579
fest	-9.74607
rat	-9.74635
▁opprinnelige	-9.74654
▁linjen	-9.74696
▁kris	-9.74702
▁korte	-9.74746
▁tema	-9.74822
▁endelig	-9.74828
▁35	-9.74946
▁italiensk	-9.75022
på	-9.75032
leng	-9.75074
klubb	-9.75075
▁aust	-9.75075
lingen	-9.75123
ien	-9.75214
▁program	-9.75271
▁avisen	-9.75288
▁vannet	-9.75298
▁nødvendig	-9.75401
▁jødisk	-9.75402
▁vis	-9.75413
▁kg	-9.75443
▁lære	-9.75456
▁gjenopp	-9.75494
▁effektiv	-9.75519
vert	-9.75642
▁sel	-9.75701
▁hovedstaden	-9.75701
grav	-9.75738
▁rase	-9.75884
well	-9.75915
▁thor	-9.75924
▁rekord	-9.75956
industri	-9.7597
▁hor	-9.76025
plasser	-9.76054
44	-9.76084
▁bol	-9.76093
▁mørk	-9.76144
▁forskning	-9.76229
værende	-9.76247
bru	-9.76305
▁virke	-9.76406
▁bir	-9.7644
▁praksis	-9.76488
▁betrakte	-9.76489
▁arabisk	-9.76491
▁sjelden	-9.76501
▁teori	-9.7653
▁arve	-9.76566
▁trekk	-9.76609
▁vitenskapelig	-9.76628
▁organisert	-9.76634
hund	-9.76649
king	-9.76769
▁virkelig	-9.76788
mennene	-9.7685
▁rep	-9.76863
kla	-9.76941
istene	-9.76997
71	-9.77016
▁saken	-9.77051
▁plate	-9.77337
ction	-9.7735
fører	-9.77481
▁spill	-9.77529
▁etterfulgt	-9.77587
▁vunnet	-9.77587
▁øvre	-9.77588
▁fattig	-9.77588
▁1963	-9.77605
▁jordbruk	-9.77624
▁bosetning	-9.77681
▁kongelige	-9.7775
▁strid	-9.77792
▁tusen	-9.77799
▁time	-9.77804
▁mes	-9.77806
kreft	-9.7782
▁finans	-9.7782
ial	-9.7783
▁gått	-9.77922
▁fjellet	-9.77934
▁løper	-9.77948
mil	-9.77983
▁offentlige	-9.78028
▁teksten	-9.78032
▁internasjonal	-9.78078
▁huset	-9.7817
▁vold	-9.78309
▁jens	-9.78314
▁stu	-9.78338
con	-9.78356
▁33	-9.78428
49	-9.78428
▁studier	-9.78687
▁league	-9.78698
▁1959	-9.78714
▁musikkalbum	-9.78719
▁stasjonen	-9.78735
▁søster	-9.78741
▁song	-9.78791
▁lage	-9.78971
▁kunnskap	-9.78983
kler	-9.78988
▁veg	-9.79026
12	-9.79032
▁junior	-9.79034
iller	-9.79093
▁forsvars	-9.79114
aks	-9.79143
▁maskin	-9.79153
▁jobbet	-9.79187
sis	-9.79202
dor	-9.79307
▁ført	-9.79368
47	-9.79371
▁tour	-9.79397
serien	-9.79409
fil	-9.79452
finn	-9.7949
▁utvidet	-9.79572
▁beskytte	-9.7966
46	-9.79674
▁problemer	-9.79815
▁1943	-9.79822
▁hurtig	-9.79822
▁utbredt	-9.79822
▁norrøn	-9.79826
▁landsbyen	-9.79828
▁nåværende	-9.79895
▁ven	-9.79992
▁war	-9.80025
▁lund	-9.80093
▁hovedstad	-9.8018
nev	-9.80354
▁kjøpe	-9.80371
delen	-9.80419
▁demokratisk	-9.80438
historie	-9.80493
medlem	-9.80508
▁styrkene	-9.80519
under	-9.8053
følgende	-9.80563
▁krysse	-9.80579
▁georg	-9.80654
79	-9.80697
formet	-9.80732
mand	-9.80733
▁bø	-9.80855
ire	-9.80865
▁innflytelse	-9.80955
▁california	-9.80958
▁snart	-9.80961
▁ukjent	-9.81008
itz	-9.81011
ville	-9.81021
▁åpning	-9.8107
▁jesu	-9.8109
handlinger	-9.81098
skriv	-9.81173
▁sul	-9.81195
aktig	-9.8122
ance	-9.81282
▁dyre	-9.81318
▁klima	-9.81343
kkel	-9.81359
person	-9.81404
dekke	-9.81408
▁teknologi	-9.81436
gress	-9.8147
54	-9.81492
nc	-9.81579
verdig	-9.81585
▁motiv	-9.81601
jiang	-9.81602
trinn	-9.81621
vig	-9.8163
▁ansatte	-9.81658
▁benytte	-9.81659
▁dan	-9.81665
maskin	-9.81721
▁mas	-9.81772
▁institutt	-9.81792
72	-9.81851
ved	-9.8192
fisk	-9.82044
▁beijing	-9.82108
▁passasjer	-9.82108
▁belgia	-9.82108
▁world	-9.82108
▁allierte	-9.82108
▁innsats	-9.82109
▁bronsemedalje	-9.82115
▁1918	-9.82121
▁gjennomsnitt	-9.82155
76	-9.822
▁tilfelle	-9.8226
▁riksvei	-9.82271
▁språket	-9.82406
▁irak	-9.8244
▁ze	-9.8249
▁bass	-9.82518
▁trafikk	-9.82535
▁strand	-9.82619
▁dømt	-9.82669
95	-9.82688
▁buss	-9.827
▁metal	-9.82701
▁opphold	-9.82702
▁omtale	-9.82732
▁helge	-9.82753
vitenskap	-9.82824
trafikk	-9.82827
prosjekt	-9.82827
våpen	-9.8283
▁fest	-9.82867
que	-9.82923
rute	-9.82942
▁bygg	-9.82991
kysten	-9.83006
krig	-9.83009
▁sider	-9.83017
hov	-9.83023
▁gass	-9.83029
▁samfunn	-9.83083
senteret	-9.83102
▁kontor	-9.83111
rike	-9.83116
▁rad	-9.83156
▁vær	-9.83265
▁ban	-9.8327
▁fullstendig	-9.8327
▁publikum	-9.8327
▁jazz	-9.83271
▁invasjon	-9.83271
▁sjef	-9.83275
ingeniør	-9.83281
▁1933	-9.83281
▁protest	-9.83283
▁1941	-9.83289
▁blue	-9.83293
▁hentet	-9.83307
▁straffe	-9.83307
ali	-9.83517
▁støttet	-9.83531
▁vid	-9.83544
▁spa	-9.8356
▁spillet	-9.83564
ova	-9.83567
ograf	-9.83586
▁mørke	-9.83657
▁kilde	-9.83663
elva	-9.83776
▁odd	-9.83813
qu	-9.83845
vesen	-9.83896
▁normalt	-9.83953
▁mod	-9.83992
gata	-9.84125
konge	-9.8417
▁fyrst	-9.84218
øyene	-9.84225
▁masse	-9.84258
valget	-9.84321
▁kam	-9.84322
▁ran	-9.84337
▁kjøre	-9.84365
▁spredt	-9.84471
▁kristen	-9.8448
ub	-9.84499
67	-9.84538
▁vå	-9.8461
75	-9.84639
▁søke	-9.84647
▁kommet	-9.84687
▁dia	-9.8473
fjellet	-9.84738
▁singel	-9.84885
linjen	-9.84897
6	-9.84898
vekt	-9.85014
skifte	-9.85017
▁tradisjon	-9.85023
▁polsk	-9.85051
▁rå	-9.8507
59	-9.85088
▁uker	-9.85108
▁programmet	-9.85172
▁avtale	-9.85188
▁meg	-9.85293
▁tårn	-9.85302
maleri	-9.85469
▁south	-9.85548
▁600	-9.85581
à	-9.85637
▁michael	-9.85637
▁teknisk	-9.85638
▁louis	-9.85638
▁faktisk	-9.85641
▁tydelig	-9.85641
▁us	-9.85657
60	-9.85664
trukket	-9.85684
ledning	-9.85687
▁bydel	-9.85791
▁het	-9.85874
▁est	-9.85885
▁livs	-9.85935
▁kreve	-9.85975
▁historiker	-9.8602
▁gall	-9.86049
▁forstå	-9.8606
▁sur	-9.86091
▁bygde	-9.86127
▁ram	-9.86244
jev	-9.86282
▁kontrakt	-9.86296
▁tittel	-9.86357
lund	-9.86461
▁samfunns	-9.86542
▁hard	-9.86553
▁systemet	-9.8656
▁temperatur	-9.86572
▁listen	-9.86661
kjempe	-9.86663
fang	-9.8674
▁våren	-9.86784
turnering	-9.86799
▁antagelig	-9.86842
▁ungarn	-9.86843
▁fokus	-9.86846
cha	-9.86849
▁1951	-9.86857
▁unntak	-9.86862
▁forholdsvis	-9.86864
▁nærheten	-9.86909
høgskole	-9.86912
▁anta	-9.86932
▁ledende	-9.86955
▁innsjøen	-9.86958
▁ansvar	-9.87014
▁undersøkelse	-9.87014
▁antatt	-9.87018
▁innsjø	-9.87071
▁sports	-9.87106
▁jevn	-9.87158
iserte	-9.87211
gården	-9.87213
▁just	-9.87288
▁sær	-9.87319
▁tids	-9.87426
kjøp	-9.87449
▁tang	-9.87464
▁kull	-9.87493
kje	-9.87504
▁sja	-9.87548
fin	-9.87606
møte	-9.87703
▁forfatteren	-9.87703
▁avgjøre	-9.87733
▁heng	-9.87766
▁trener	-9.87809
▁skips	-9.87862
tallet	-9.87868
▁last	-9.87938
gna	-9.87944
▁kjøpte	-9.87989
35	-9.88016
▁guvernør	-9.88062
▁utgangspunkt	-9.88062
▁generelt	-9.88062
▁stadion	-9.88065
▁1957	-9.88078
▁kap	-9.88086
▁albert	-9.88141
kamper	-9.8816
▁kjøl	-9.88174
▁henry	-9.88177
▁kommuner	-9.88245
qui	-9.8827
▁tolv	-9.88299
▁fisk	-9.88326
vatnet	-9.88334
▁ap	-9.8835
ora	-9.88405
▁instrument	-9.88414
renn	-9.88429
▁spesielle	-9.88448
▁viking	-9.88473
▁utstilling	-9.88513
▁synes	-9.88758
kjede	-9.88762
▁jakt	-9.888
press	-9.88875
▁penger	-9.88905
85	-9.88936
▁jul	-9.89082
veg	-9.89113
evne	-9.8913
ada	-9.89203
▁lot	-9.89249
▁1917	-9.89305
▁video	-9.89312
▁1908	-9.89316
▁1919	-9.89317
▁fredrik	-9.89321
▁jarl	-9.89335
▁snø	-9.89345
▁tredjeplass	-9.8938
▁gangen	-9.89392
strekning	-9.89403
▁øverste	-9.89493
▁nærmer	-9.89524
tale	-9.89567
▁live	-9.89604
▁leir	-9.89671
▁ansvarlig	-9.89705
▁gard	-9.89789
▁alvorlig	-9.89809
▁kone	-9.89852
▁harry	-9.89888
post	-9.9004
▁pin	-9.90074
gjort	-9.90075
nu	-9.90112
lly	-9.90207
vekst	-9.90216
09	-9.9025
▁populære	-9.90342
stamme	-9.90397
▁tilknytte	-9.90546
▁krevde	-9.90546
▁ødelagt	-9.90547
▁sist	-9.90567
▁skotsk	-9.90578
25	-9.90606
legg	-9.90633
▁ungdom	-9.90635
▁nedlagt	-9.90639
▁avhengig	-9.90684
▁stoppe	-9.90689
▁hud	-9.9069
▁middel	-9.90822
65	-9.90965
▁fantes	-9.91092
▁overgang	-9.91315
▁klassen	-9.91343
▁nils	-9.91461
▁båten	-9.91501
bia	-9.91536
byr	-9.91568
▁jorden	-9.9157
▁tegnet	-9.91579
▁stilt	-9.91698
▁mid	-9.91702
▁arne	-9.91742
▁beseiret	-9.91812
▁joseph	-9.91812
▁sistnevnte	-9.91812
▁sportsutøver	-9.91813
▁royal	-9.91815
▁1925	-9.91829
▁1912	-9.91831
▁bygninger	-9.91833
▁1938	-9.91834
▁larvene	-9.91844
cia	-9.91888
▁materiale	-9.91908
▁tel	-9.9191
▁funn	-9.91924
▁ark	-9.91943
▁kommunal	-9.91949
▁behov	-9.91952
57	-9.92054
▁sort	-9.92071
▁jean	-9.9212
bakk	-9.92145
▁overført	-9.92175
tog	-9.92235
▁bidrag	-9.92292
misjon	-9.92513
figur	-9.92775
krets	-9.92818
ommen	-9.92849
klar	-9.9285
▁rein	-9.92853
fu	-9.92858
rommet	-9.92858
▁ankom	-9.92889
ira	-9.92905
▁toppen	-9.92908
▁tidlige	-9.93035
▁vokal	-9.93067
н	-9.93084
▁økt	-9.9309
bevegelsen	-9.93096
▁frederik	-9.93099
▁lufthavn	-9.93104
▁1934	-9.93106
musikk	-9.93107
▁1913	-9.93109
▁1955	-9.9312
▁regjerings	-9.93278
▁front	-9.93308
sport	-9.93373
følge	-9.93422
▁nm	-9.93427
▁minutter	-9.93472
▁sko	-9.93476
▁vedtatt	-9.93481
▁sete	-9.93591
▁religiøse	-9.93602
tic	-9.93677
wood	-9.93759
▁behandle	-9.93775
arkiv	-9.93787
▁medisin	-9.93792
▁fløy	-9.93861
øvelse	-9.93925
▁vinne	-9.93937
▁stoff	-9.93976
▁res	-9.94049
▁stemmer	-9.94057
▁danse	-9.94078
▁fjord	-9.94112
▁mill	-9.94168
▁kir	-9.94241
▁moskva	-9.94393
▁school	-9.94393
▁veldig	-9.94399
▁sølvmedalje	-9.94406
51	-9.94415
▁1910	-9.94417
▁high	-9.94446
▁bibel	-9.94459
bare	-9.94462
▁kjøpt	-9.94499
▁økte	-9.94544
▁primær	-9.94544
▁1500	-9.94589
feltet	-9.94605
løst	-9.9461
▁1700	-9.94624
▁fc	-9.94634
▁kaptein	-9.94661
▁objekt	-9.94704
▁status	-9.9485
▁eva	-9.94852
former	-9.94912
▁anton	-9.94952
▁normal	-9.94972
▁regional	-9.94976
gaard	-9.95045
tun	-9.95059
steder	-9.9516
04	-9.95166
elli	-9.95293
løpet	-9.95422
▁bevege	-9.95429
▁gruve	-9.95432
▁fordelt	-9.95463
▁che	-9.95496
▁tilfeller	-9.95547
▁selvstendig	-9.95578
▁fan	-9.95597
▁lån	-9.95603
▁kanal	-9.95636
▁knut	-9.95703
▁kritikk	-9.95709
▁sykehus	-9.95709
▁håp	-9.9571
▁premier	-9.95713
▁bispedømme	-9.95714
fylt	-9.95718
tta	-9.9574
▁administrativ	-9.95755
69	-9.95787
▁hitler	-9.95798
▁angrepet	-9.95989
▁innlede	-9.96031
▁ansett	-9.9604
▁bestemme	-9.96043
▁lavere	-9.96058
▁dog	-9.96081
▁indisk	-9.96179
▁ishockey	-9.96209
stått	-9.96312
▁solo	-9.96359
▁oversatt	-9.96442
▁samfunnet	-9.96461
▁styret	-9.96493
farge	-9.96687
▁bygning	-9.96719
lad	-9.96736
▁whi	-9.96769
bjørn	-9.96775
turbin	-9.96836
▁brev	-9.96955
▁betegne	-9.96958
oli	-9.96988
▁nordisk	-9.97012
▁kvalifisering	-9.97042
▁erklært	-9.97042
▁international	-9.97042
▁introdusert	-9.97042
▁pasient	-9.97042
▁magnus	-9.97045
▁medlemmene	-9.97051
▁smith	-9.97053
▁1931	-9.97054
▁internett	-9.97059
▁1954	-9.97061
▁diplomat	-9.97072
ordenen	-9.97077
▁lyn	-9.97152
▁festning	-9.97156
▁dekket	-9.97158
▁tørr	-9.97186
▁bay	-9.97238
▁kampene	-9.97246
▁formål	-9.9726
plassen	-9.97367
73	-9.97399
▁studio	-9.97424
▁verket	-9.97427
▁provins	-9.97538
▁fremme	-9.97572
klassen	-9.97643
▁max	-9.97643
▁hum	-9.97651
livet	-9.97708
▁struktur	-9.97736
▁hind	-9.97738
▁markeds	-9.97753
▁krets	-9.97766
ammen	-9.97848
ith	-9.98158
▁sau	-9.98176
arter	-9.98234
▁grev	-9.98252
▁bonde	-9.98348
institusjon	-9.98372
84	-9.98386
▁fødsel	-9.98393
▁vulkan	-9.98393
▁1953	-9.98393
▁jacob	-9.98394
▁referere	-9.98394
▁hustru	-9.98395
▁college	-9.98396
▁brøt	-9.98399
▁edvard	-9.98402
komité	-9.98407
▁nordland	-9.98412
▁kjønn	-9.98459
▁gjeste	-9.98472
98	-9.9852
▁tog	-9.98523
▁1000	-9.98555
▁timer	-9.98621
▁vitenskap	-9.9874
▁svak	-9.98813
partiet	-9.98888
▁camp	-9.98935
▁overfor	-9.98975
▁gruppa	-9.99008
▁ris	-9.9901
endring	-9.99052
▁larven	-9.99092
▁strekke	-9.99102
▁bredde	-9.99115
68	-9.99182
deles	-9.99257
▁bidra	-9.99349
▁atom	-9.99408
▁dukke	-9.99424
skudd	-9.99533
92	-9.99611
▁app	-9.9971
▁flyplass	-9.99756
▁eksempler	-9.99763
▁positiv	-9.99763
▁nevnes	-9.99765
▁myndighetene	-9.99769
▁mytologi	-9.99774
▁1929	-9.99776
▁deriblant	-9.99777
▁medaljer	-9.99785
▁signert	-9.99786
komst	-9.99806
leir	-9.99854
▁populær	-9.99855
▁benyttes	-9.99893
▁kalte	-9.999
sket	-9.99927
▁hellige	-9.99948
▁morgen	-9.99975
▁inkluderer	-9.99983
dikt	-10.0003
▁utøver	-10.0008
▁metall	-10.0013
arbeidet	-10.0015
▁maur	-10.0016
signal	-10.002
▁wil	-10.0021
▁svar	-10.0026
▁scene	-10.003
▁stav	-10.0035
▁north	-10.0035
▁foss	-10.0036
▁dynastiet	-10.0047
▁turist	-10.0048
▁bølge	-10.0058
▁salg	-10.0058
▁ønsker	-10.0061
▁teologi	-10.0072
78	-10.0076
▁banen	-10.0077
zy	-10.0078
▁trekke	-10.009
middel	-10.0097
samfunn	-10.0098
▁handel	-10.0104
▁forskjell	-10.0112
saker	-10.0112
hn	-10.0113
▁records	-10.0115
▁tilhørte	-10.0115
▁kategori	-10.0115
▁hjerte	-10.0115
▁dør	-10.0121
▁otto	-10.0121
▁glo	-10.0122
▁150	-10.0129
▁unngå	-10.0132
45	-10.0145
ón	-10.0146
▁oppnådd	-10.0147
enberg	-10.0149
stripe	-10.0149
ctor	-10.0154
▁insekter	-10.0154
▁antallet	-10.0168
rup	-10.0176
▁ok	-10.0177
▁tettstedet	-10.0178
▁rund	-10.0184
▁streng	-10.019
▁avsluttet	-10.0202
▁forbund	-10.0204
alitet	-10.021
svik	-10.0217
▁tradisjonel	-10.0222
mesterskapet	-10.0225
gått	-10.0227
91	-10.0231
virksomhet	-10.0237
spor	-10.0242
▁120	-10.0242
traktaten	-10.0256
konferanse	-10.0256
▁oscar	-10.0256
▁800	-10.0259
▁planlagt	-10.026
▁frykt	-10.0261
▁bach	-10.0262
▁black	-10.0264
jö	-10.0265
▁private	-10.0267
18	-10.0268
▁ekstra	-10.0269
kol	-10.0269
▁oftest	-10.0288
ical	-10.0289
▁forslag	-10.0302
▁sim	-10.0311
▁storm	-10.0312
▁hydro	-10.0316
▁bydelen	-10.0318
ios	-10.0324
▁former	-10.0327
▁utdannelse	-10.0329
▁stig	-10.0333
▁vinteren	-10.0344
▁lignende	-10.0345
samisk	-10.0346
▁elever	-10.035
▁oppgave	-10.0351
politikk	-10.0355
▁star	-10.036
▁forlag	-10.036
▁fartøy	-10.0366
▁75	-10.0368
pet	-10.0372
▁len	-10.0381
▁fjerne	-10.0393
▁alternativ	-10.0399
▁installert	-10.0399
▁registrert	-10.0399
▁oppfatte	-10.0399
▁major	-10.0399
strand	-10.0399
▁liberal	-10.0399
▁ridder	-10.04
forvaltning	-10.04
kamera	-10.0402
▁vendt	-10.0403
▁øvrige	-10.0407
▁bekrefte	-10.0407
▁kjerne	-10.0408
jønn	-10.0409
▁omfattet	-10.0411
kirken	-10.0411
▁press	-10.0416
▁landene	-10.0418
89	-10.0421
▁graf	-10.0426
▁sørover	-10.0427
grupper	-10.0436
▁spansk	-10.0437
▁forsknings	-10.0437
▁utføre	-10.0442
town	-10.0443
iver	-10.0448
forbundet	-10.0448
▁vekk	-10.047
▁tonn	-10.0472
06	-10.0479
▁frihet	-10.051
▁kanalen	-10.0511
▁typer	-10.0513
ky	-10.0513
32	-10.0514
strid	-10.0515
pass	-10.0516
veis	-10.0521
album	-10.0526
listen	-10.0528
▁aller	-10.0529
distrikt	-10.0529
ative	-10.0532
hjem	-10.0534
gard	-10.0534
▁inspirert	-10.0544
▁award	-10.0544
▁hendelser	-10.0544
▁uttalte	-10.0544
▁fysisk	-10.0544
▁1921	-10.0545
▁kai	-10.0546
givelse	-10.0552
▁king	-10.0552
▁eli	-10.0558
aria	-10.0563
▁bevegelse	-10.0566
▁møter	-10.0575
▁zo	-10.0579
▁lø	-10.058
▁hunnen	-10.0587
▁score	-10.0594
▁representant	-10.0595
områdene	-10.0601
atet	-10.0604
▁hul	-10.0607
forbund	-10.0612
▁cd	-10.0615
hild	-10.0619
▁bibliotek	-10.0627
ais	-10.0627
▁museet	-10.063
▁lese	-10.0635
▁fry	-10.064
kh	-10.0646
▁modellen	-10.0648
13	-10.0652
▁gau	-10.0656
▁unn	-10.0668
▁anna	-10.0669
▁oppnå	-10.067
▁johann	-10.0672
rich	-10.0674
▁vg	-10.0675
▁planen	-10.0676
▁kilder	-10.0677
▁sovjet	-10.068
pan	-10.0684
kraftverk	-10.0689
▁finnmark	-10.0691
▁anerkjent	-10.0691
▁innspilling	-10.0692
▁1914	-10.0692
▁hemmelig	-10.0692
▁islam	-10.0694
kjenne	-10.0694
▁hed	-10.0695
▁forretnings	-10.0696
▁hersker	-10.0697
▁bredt	-10.0699
▁reserve	-10.0704
▁saint	-10.0705
▁music	-10.0705
▁team	-10.0708
▁spiss	-10.0711
▁bilen	-10.0723
▁kvart	-10.0731
▁char	-10.0744
▁erobret	-10.075
▁32	-10.0751
jan	-10.0757
▁single	-10.076
▁snu	-10.0766
▁nan	-10.0769
▁blokk	-10.0773
▁moren	-10.0775
ball	-10.0779
▁kil	-10.0779
ept	-10.0783
dam	-10.0785
▁uttale	-10.0785
88	-10.0786
reise	-10.0791
aya	-10.0793
▁tettsted	-10.0796
ick	-10.08
skipet	-10.0805
pin	-10.082
▁steve	-10.083
▁starten	-10.0836
▁arrestert	-10.084
▁eventyr	-10.084
▁offisielt	-10.084
▁svalbard	-10.084
▁umiddelbar	-10.084
▁dialekt	-10.084
▁1937	-10.0841
▁drap	-10.0845
▁grunnla	-10.0849
▁landskapet	-10.0851
snitt	-10.0858
▁kim	-10.0864
▁minister	-10.0866
riket	-10.0869
▁ferd	-10.0879
sam	-10.0891
stemt	-10.0904
▁andreas	-10.0907
mond	-10.0913
▁wh	-10.0914
syre	-10.0917
redning	-10.0918
▁slett	-10.0919
hopp	-10.0921
83	-10.0933
komiteen	-10.0934
hel	-10.0938
prisen	-10.0948
bygning	-10.0953
▁medisinsk	-10.0968
bakken	-10.0969
▁bakken	-10.097
vind	-10.0974
▁forsvaret	-10.0977
▁organisasjon	-10.0988
▁erkebiskop	-10.0992
▁stafett	-10.0992
▁regissert	-10.0992
▁bidro	-10.0992
▁redusert	-10.0992
▁praktisk	-10.0992
▁1904	-10.0994
▁erfaring	-10.0994
▁fullført	-10.0995
▁nr	-10.0998
▁pensjon	-10.1001
forhold	-10.1003
hem	-10.101
▁tvang	-10.1015
▁fortalt	-10.1015
▁bord	-10.1021
bytte	-10.1022
▁hund	-10.1024
▁hardt	-10.1029
▁selge	-10.1038
▁internasjonalt	-10.1047
▁log	-10.1047
▁kalk	-10.1052
▁ya	-10.1053
▁riket	-10.1056
▁utenriks	-10.1065
▁mynt	-10.1069
▁kandidat	-10.1073
▁esp	-10.1079
▁hode	-10.1087
▁ger	-10.1093
▁sørge	-10.1101
▁institut	-10.1105
▁gor	-10.1109
▁forbundet	-10.1116
▁akse	-10.1122
▁kapp	-10.1127
▁boka	-10.1131
litt	-10.1135
dommer	-10.1141
kultur	-10.1141
▁tromsø	-10.1144
▁håkon	-10.1146
▁cirka	-10.1146
▁nedbør	-10.1146
▁mikro	-10.1146
▁doktorgrad	-10.1146
▁1927	-10.1147
▁1922	-10.1147
▁arbeiderpartiet	-10.1147
▁skaffe	-10.1147
▁byttet	-10.1149
slått	-10.1152
▁hovedsak	-10.1153
▁agder	-10.1156
▁flekk	-10.1157
kapital	-10.1158
▁kommunestyre	-10.1161
mod	-10.1163
mont	-10.1163
77	-10.1166
motor	-10.1171
▁arrangement	-10.1177
▁tone	-10.118
▁she	-10.1181
87	-10.1181
▁latinsk	-10.1188
▁verker	-10.1192
▁kommando	-10.1198
▁santa	-10.1203
▁kommunene	-10.1214
▁gla	-10.1218
ity	-10.122
▁ulik	-10.1233
▁may	-10.1233
▁vegg	-10.1234
▁frø	-10.1236
▁betale	-10.1247
▁begrep	-10.1249
vold	-10.1256
▁klokke	-10.1256
▁teknikk	-10.1259
▁vente	-10.1263
▁vill	-10.1264
▁verdensmester	-10.1276
24	-10.1279
▁sovjetiske	-10.128
konkurranse	-10.1298
▁1905	-10.1302
▁nominert	-10.1302
▁dollar	-10.1302
miljø	-10.1302
▁undervisning	-10.1303
ata	-10.1304
▁dvs	-10.1306
▁tronen	-10.131
▁deltaker	-10.1311
94	-10.1313
▁resultatet	-10.1321
ugh	-10.1321
wan	-10.1323
forsvar	-10.1327
▁samarbeidet	-10.133
angrep	-10.1333
▁unna	-10.134
foss	-10.1342
distanse	-10.1343
▁vekst	-10.1347
▁pra	-10.136
▁fon	-10.1361
▁dobbelt	-10.1365
▁anse	-10.1365
grep	-10.1365
▁oppstå	-10.1369
strømmen	-10.1374
▁utvalg	-10.1382
rim	-10.1384
▁kalde	-10.1385
▁mini	-10.1398
▁kloster	-10.1398
kov	-10.1399
▁wolf	-10.1418
▁senter	-10.1419
▁arn	-10.1421
brand	-10.1426
▁hamar	-10.1438
▁utgivelsen	-10.1447
▁cu	-10.1454
▁anlegg	-10.1458
forfatter	-10.1459
hånd	-10.146
▁edward	-10.146
▁initiativ	-10.146
▁ludvig	-10.146
▁vesentlig	-10.1461
▁brødre	-10.1461
▁begrenset	-10.1461
▁kjærlighet	-10.1461
▁tidsskrift	-10.1462
▁1923	-10.1462
▁nasjonalpark	-10.1465
▁france	-10.1468
▁føde	-10.1469
▁måten	-10.1473
▁rask	-10.1473
fugl	-10.148
halvøya	-10.148
▁beholdt	-10.1483
hall	-10.1484
▁debut	-10.1486
▁eksemplarer	-10.1494
▁tilhøre	-10.1506
▁hindre	-10.1506
▁stillingen	-10.1508
▁glass	-10.151
▁wei	-10.1522
▁green	-10.1528
hev	-10.1533
▁forholdet	-10.1542
▁finsk	-10.1554
▁tunnel	-10.1557
▁paven	-10.1563
mur	-10.1572
dannelse	-10.1576
26	-10.1586
jord	-10.1586
kle	-10.1599
▁sønner	-10.1601
▁hull	-10.1605
▁penge	-10.161
▁landsby	-10.161
▁jag	-10.1612
▁kjempet	-10.1617
kjent	-10.162
kilden	-10.1621
▁aleksander	-10.1622
▁konkurrere	-10.1622
▁nøyaktig	-10.1622
▁ødelegge	-10.1622
▁fungerte	-10.1622
▁himmel	-10.1622
▁rykket	-10.1622
▁oppleve	-10.1622
▁hotell	-10.1623
▁1926	-10.1623
prosess	-10.1624
magasin	-10.1624
trådte	-10.1624
▁endringer	-10.1624
▁monark	-10.1625
▁gullmedalje	-10.1625
▁beslutte	-10.1626
▁sagt	-10.1627
bøker	-10.1629
cus	-10.1634
▁hellas	-10.1637
82	-10.1648
▁vet	-10.165
▁gö	-10.1652
start	-10.1655
jon	-10.1671
▁preg	-10.1674
▁hastighet	-10.1679
▁redde	-10.1695
▁human	-10.1698
▁yu	-10.1701
▁bob	-10.1701
▁planter	-10.1705
▁elementer	-10.1705
▁fortelling	-10.171
▁opptre	-10.1729
▁moder	-10.1732
▁verv	-10.1743
▁rang	-10.1744
svarer	-10.1761
▁styrte	-10.1766
▁reist	-10.177
sfjorden	-10.1779
▁akershus	-10.1786
▁milliarder	-10.1786
▁1903	-10.1786
▁innbyggerne	-10.1786
▁arrangere	-10.1786
▁nektet	-10.1786
▁jakob	-10.1786
▁forbedre	-10.1786
▁konsul	-10.1787
faktor	-10.1789
▁luther	-10.179
kompani	-10.179
avdeling	-10.1791
finalen	-10.1791
▁leo	-10.1792
11	-10.1814
▁kino	-10.1816
▁dato	-10.1819
▁olsen	-10.182
▁tegning	-10.1829
▁tekster	-10.184
▁py	-10.1863
▁ønske	-10.1871
▁blomster	-10.1877
foreningen	-10.1894
▁motstander	-10.1896
23	-10.1899
▁evne	-10.1911
16	-10.1934
mba	-10.194
▁havnet	-10.1943
uth	-10.1945
▁elektro	-10.195
▁østerriksk	-10.1952
▁artikkel	-10.1952
kompleks	-10.1953
▁kropps	-10.1953
▁anklage	-10.1954
▁filip	-10.1954
▁alfred	-10.1957
▁alpin	-10.1959
▁700	-10.1959
▁anledning	-10.196
forbindelse	-10.196
▁etappe	-10.1961
forskning	-10.1961
▁spise	-10.1962
▁kommunist	-10.1962
▁nam	-10.1963
▁spenning	-10.1988
▁formen	-10.1996
stykke	-10.2
28	-10.2002
▁makten	-10.2003
▁bull	-10.2013
musik	-10.2013
▁beskrevet	-10.2014
▁varierer	-10.2022
▁skriver	-10.2027
▁bud	-10.2042
▁etnisk	-10.2051
▁keiseren	-10.2073
▁avtalen	-10.2084
▁åpent	-10.2091
▁cho	-10.2093
kampen	-10.2106
ois	-10.211
в	-10.2121
løytnant	-10.2122
▁eksperiment	-10.2122
▁fjernsyn	-10.2122
▁helsingfors	-10.2122
▁alexander	-10.2122
▁referanse	-10.2122
▁lagkonkurransen	-10.2122
▁frivillig	-10.2122
▁redusere	-10.2122
▁golf	-10.2122
▁65	-10.2122
low	-10.2123
▁1935	-10.2124
kampanje	-10.2124
▁papir	-10.2126
program	-10.2128
▁turneringen	-10.2129
kommune	-10.2132
somme	-10.2135
96	-10.2135
gav	-10.2138
▁sammenlagt	-10.2142
drevet	-10.2143
▁deltatt	-10.2149
▁mottatt	-10.2155
▁ennå	-10.2162
firma	-10.2163
▁utbygging	-10.2163
yang	-10.2169
▁fjellene	-10.2174
▁typen	-10.218
▁imot	-10.2187
▁nedre	-10.219
▁mesterskapet	-10.2193
▁idrettslag	-10.2194
▁dun	-10.2202
▁ferge	-10.2222
årig	-10.2224
▁fn	-10.2225
slaget	-10.2232
▁klo	-10.2242
▁finske	-10.2246
herre	-10.2254
▁republikk	-10.2264
▁romanen	-10.2269
▁malt	-10.2277
▁nederlandske	-10.2278
▁organisasjoner	-10.2278
myndighet	-10.2291
▁ali	-10.2293
▁1907	-10.2294
▁bakkropp	-10.2294
▁wilhelm	-10.2294
▁dokumenter	-10.2294
▁respekt	-10.2294
▁hensikt	-10.2294
▁uvanlig	-10.2294
▁prix	-10.2294
▁generasjon	-10.2294
▁brensel	-10.2294
▁beregne	-10.2295
▁deles	-10.2295
▁blanding	-10.2295
▁hovedrollen	-10.2295
▁kveld	-10.2295
▁1911	-10.2296
tage	-10.2296
▁påvirket	-10.2297
▁kristiania	-10.23
▁kapell	-10.2302
▁fjernet	-10.2303
▁mah	-10.2306
▁1890	-10.2311
sending	-10.2312
▁munk	-10.2312
▁reaksjon	-10.2313
skij	-10.2319
▁ost	-10.2333
▁horn	-10.2346
▁samtid	-10.2347
▁damp	-10.2347
▁ordre	-10.2348
▁kode	-10.2354
bury	-10.2357
▁gy	-10.2357
▁vitne	-10.2358
▁opprette	-10.236
▁edderkopp	-10.2362
▁beskrivelse	-10.2363
▁poly	-10.2363
▁tjenestegjor	-10.2366
▁produsere	-10.2367
▁venner	-10.237
▁mannskap	-10.2375
▁oppdag	-10.2383
▁utsatt	-10.2409
29	-10.2414
▁prosjektet	-10.2415
forsamlingen	-10.2418
▁vinge	-10.2433
▁jente	-10.2436
▁hill	-10.2444
bry	-10.2446
8	-10.2451
▁politiet	-10.2457
▁halvpart	-10.247
▁amsterdam	-10.247
▁barcelona	-10.247
▁katedral	-10.247
▁kristiansand	-10.247
▁sjette	-10.247
▁konsept	-10.247
▁usikker	-10.247
▁vokser	-10.247
▁utseende	-10.247
friidrettsutøver	-10.247
▁oversettelse	-10.247
▁1916	-10.2471
▁programleder	-10.2472
▁hjal	-10.2474
▁hjerne	-10.2475
▁stabil	-10.248
bebyggelse	-10.2486
33	-10.2489
▁kommunistisk	-10.2491
havn	-10.2491
▁euro	-10.2504
▁foreningen	-10.2506
▁dommer	-10.2507
▁kno	-10.2507
▁utgivelse	-10.251
▁markert	-10.2516
▁debatt	-10.252
▁involvert	-10.2521
▁begynne	-10.2545
▁advokat	-10.2547
▁innhold	-10.2547
▁verdenscupen	-10.2548
vinner	-10.2555
▁fylket	-10.2562
▁hjul	-10.2565
▁ulykke	-10.2568
34	-10.257
▁cre	-10.2573
▁konservative	-10.2574
▁skjær	-10.2579
▁auto	-10.2579
▁bilder	-10.2581
rød	-10.2591
▁stol	-10.2599
▁bevegelsen	-10.2599
▁eg	-10.2604
▁akademi	-10.2606
▁stå	-10.2613
▁cro	-10.2626
øst	-10.2642
▁münchen	-10.2648
▁skjønt	-10.2648
▁argument	-10.2648
▁radikal	-10.2648
▁kombinert	-10.2648
▁myndigheter	-10.2651
▁1909	-10.2651
▁studere	-10.2651
▁gravlagt	-10.2653
▁mary	-10.2658
▁1896	-10.2659
▁arkitektur	-10.2659
▁beskrive	-10.2659
serie	-10.266
▁utgjorde	-10.2664
▁1880	-10.2668
▁cal	-10.267
▁petter	-10.2675
▁adam	-10.2678
▁skudd	-10.2681
nummer	-10.2684
▁halvdel	-10.2685
▁vakt	-10.2687
▁enkle	-10.2688
vannet	-10.2691
komedie	-10.2699
▁kvalitet	-10.2705
slå	-10.2707
▁besøkt	-10.2707
22	-10.2715
▁hevder	-10.272
▁sho	-10.272
▁will	-10.2733
▁konserter	-10.2735
byrå	-10.2752
▁elite	-10.2758
▁religiøs	-10.2758
kilde	-10.2759
31	-10.2759
klubben	-10.2777
gate	-10.2781
▁foreldre	-10.2784
▁underlag	-10.2796
▁vogn	-10.2812
▁alkohol	-10.283
▁portugal	-10.283
▁pakistan	-10.283
▁rogaland	-10.283
▁geografisk	-10.283
▁län	-10.283
▁troms	-10.2836
▁stam	-10.2838
▁aksje	-10.2839
▁byggingen	-10.2839
dorf	-10.284
bånd	-10.2852
museum	-10.2853
utvikling	-10.2854
historisk	-10.2854
ito	-10.2856
▁romania	-10.2857
▁sankt	-10.2858
▁ull	-10.2858
▁tyskerne	-10.2862
feld	-10.2862
▁hannen	-10.2865
språklig	-10.2865
▁lagene	-10.2868
▁versjonen	-10.2873
maker	-10.2876
kasse	-10.2882
▁flytte	-10.2884
▁parlamentet	-10.289
▁kjempe	-10.2903
▁mangler	-10.2915
▁plateselskap	-10.2916
▁bakke	-10.2918
▁grov	-10.2945
masse	-10.2953
▁oppgaver	-10.2962
▁bånd	-10.2992
▁flåten	-10.2998
▁nø	-10.3011
▁myk	-10.3012
jal	-10.3015
▁ambassadør	-10.3015
▁engasjert	-10.3015
▁oppmerksomhet	-10.3015
▁science	-10.3015
▁tyrkia	-10.3015
▁definert	-10.3016
▁levde	-10.3016
▁utnytte	-10.3016
▁skutt	-10.3016
▁konsekvens	-10.3017
▁konstant	-10.3018
▁sparta	-10.302
▁hensyn	-10.302
▁nederlag	-10.3028
▁landslaget	-10.3028
▁armé	-10.3029
▁anlagt	-10.303
▁250	-10.303
▁økende	-10.3032
▁skyte	-10.3043
▁gold	-10.3044
født	-10.3044
▁tilbud	-10.3046
typen	-10.3052
▁åpen	-10.3054
▁besetning	-10.3055
cul	-10.3057
▁slaver	-10.3064
▁cur	-10.3067
▁barb	-10.307
▁sco	-10.3073
luk	-10.3078
▁analyse	-10.3079
▁tråd	-10.3086
▁frukt	-10.309
▁utmerkelse	-10.3092
▁skøyter	-10.3094
▁motsatt	-10.3096
▁irsk	-10.3102
▁pund	-10.3104
▁virket	-10.3117
▁smak	-10.3124
▁nasjoner	-10.3124
setting	-10.3143
▁rh	-10.3178
▁37	-10.3187
▁astronom	-10.3204
▁friedrich	-10.3204
budsjett	-10.3204
▁eventuel	-10.3204
▁lyktes	-10.3204
▁søndag	-10.3204
▁terror	-10.3205
▁håndball	-10.3205
▁1915	-10.3206
▁manager	-10.3206
▁romsdal	-10.3206
▁årsaken	-10.3206
▁drammen	-10.3207
▁angripe	-10.3207
▁molde	-10.3207
▁voksen	-10.3207
▁drikke	-10.3209
▁brygge	-10.321
▁kongress	-10.3211
bombe	-10.3221
▁begrave	-10.3222
▁populært	-10.3222
▁regjer	-10.3232
▁prim	-10.3234
politisk	-10.3236
hallen	-10.3236
▁gradvis	-10.3245
▁sunn	-10.3245
▁bevisst	-10.3247
▁motta	-10.3247
▁slottet	-10.3254
▁nød	-10.3269
▁vingene	-10.3278
▁mobil	-10.328
roman	-10.3281
overflaten	-10.3284
▁east	-10.329
right	-10.329
alistisk	-10.3299
klasse	-10.3308
▁trær	-10.332
▁spesiell	-10.3335
21	-10.334
▁bærer	-10.334
▁kaller	-10.336
▁hval	-10.337
bukta	-10.3375
▁konst	-10.338
▁representanter	-10.3381
▁utvide	-10.3394
▁vietnam	-10.3396
▁utelukke	-10.3396
▁definisjon	-10.3396
▁innbyggertall	-10.3396
▁skulptur	-10.3396
▁ansikt	-10.3396
▁bodø	-10.3396
▁eksisterer	-10.3396
stipend	-10.3396
▁dominert	-10.3397
▁belgisk	-10.3397
▁riktig	-10.3397
▁allianse	-10.3397
vandring	-10.3398
▁import	-10.3398
▁kjenner	-10.3399
mønster	-10.3399
▁skiftet	-10.34
▁artist	-10.3405
▁meldt	-10.3406
▁show	-10.3407
light	-10.3408
eksamen	-10.3411
▁estland	-10.3413
▁aur	-10.3419
▁niels	-10.3421
runde	-10.3426
▁fritt	-10.3427
▁talent	-10.3429
▁muligheten	-10.3431
▁søkt	-10.3441
▁tallrik	-10.3448
▁gyl	-10.3461
▁satse	-10.3464
kha	-10.3468
bygningen	-10.347
▁moral	-10.3474
▁krim	-10.3487
▁kongedømmet	-10.3497
▁ansvaret	-10.3501
▁dj	-10.3505
verden	-10.3521
tain	-10.3526
forsyning	-10.3526
▁mannlig	-10.3531
▁bou	-10.3532
▁skjold	-10.3539
▁korn	-10.3542
▁tau	-10.3548
▁jud	-10.3548
▁utstyrt	-10.3551
løft	-10.3563
▁fett	-10.3567
▁kontinent	-10.3577
▁34	-10.3582
▁stab	-10.3586
▁american	-10.3592
▁football	-10.3592
▁regissør	-10.3592
▁erobring	-10.3592
▁returnert	-10.3592
▁utbredelse	-10.3592
▁texas	-10.3592
opplæring	-10.3592
▁henrettet	-10.3592
▁hvem	-10.3593
▁flyktning	-10.3593
▁fjær	-10.3593
▁jøder	-10.3593
ов	-10.3593
▁tilskuer	-10.3594
▁dominerende	-10.3597
▁feire	-10.3598
▁german	-10.3601
37	-10.3608
▁alf	-10.3611
▁beslutning	-10.3615
alisme	-10.3616
▁sveitsisk	-10.3617
skrevet	-10.3618
▁befinne	-10.3619
▁festningen	-10.362
plate	-10.3623
regiment	-10.3636
▁oppsto	-10.3641
▁dø	-10.3641
▁tilpasse	-10.3643
▁markedet	-10.3648
▁utbrudd	-10.365
▁kommunikasjon	-10.3653
▁river	-10.3654
▁svømmer	-10.3669
▁musikalsk	-10.3673
▁paus	-10.3676
▁long	-10.3676
kanal	-10.3678
▁fortellingen	-10.3684
▁arkeologisk	-10.3702
▁stål	-10.3706
▁produserer	-10.3708
▁overleve	-10.3713
forsker	-10.3722
▁parlament	-10.3727
familie	-10.3729
▁katolsk	-10.3734
▁artister	-10.374
▁tiår	-10.3742
▁revet	-10.3747
▁flest	-10.3749
▁folketellingen	-10.375
▁tradisjonen	-10.3752
▁bell	-10.3753
▁løsning	-10.3781
▁thi	-10.3781
▁antwerpen	-10.3792
▁argentina	-10.3792
▁jerusalem	-10.3792
▁1901	-10.3792
▁etablere	-10.3792
▁artikler	-10.3792
▁county	-10.3792
▁avdøde	-10.3792
▁kritisert	-10.3792
▁detaljer	-10.3793
▁bøkene	-10.3793
▁flyktet	-10.3793
▁bryst	-10.3793
▁borgerkrigen	-10.3794
▁definere	-10.3794
▁rektor	-10.3795
▁house	-10.3796
▁utenlandske	-10.3797
▁muslim	-10.3801
▁bah	-10.3801
▁vokalist	-10.3802
▁1898	-10.3807
▁enorm	-10.381
▁simon	-10.3813
▁oppløst	-10.3818
▁lord	-10.3821
hard	-10.3823
▁platen	-10.3831
▁gitarist	-10.3833
fant	-10.3845
▁løfte	-10.3854
▁legen	-10.3871
▁dyktig	-10.3872
▁luc	-10.3912
▁programmer	-10.3917
15	-10.3917
prest	-10.3929
▁personen	-10.393
▁trykket	-10.393
▁rykte	-10.3936
▁levende	-10.3951
trener	-10.3957
vald	-10.3975
perioden	-10.3983
▁rand	-10.3983
▁handle	-10.3988
▁innlemmet	-10.3996
▁okkupasjon	-10.3996
▁kombinasjon	-10.3996
▁manchester	-10.3996
▁vilhelm	-10.3996
▁gustav	-10.3996
▁foregår	-10.3997
▁rettigheter	-10.3997
▁artilleri	-10.3997
▁separat	-10.3997
▁tegneserie	-10.3997
gymnas	-10.3997
▁kjemisk	-10.3997
sluppe	-10.3998
konvensjon	-10.4
▁landbruks	-10.4002
▁formula	-10.4003
▁tvunge	-10.4003
kjøretøy	-10.4011
▁rek	-10.4011
▁900	-10.4011
▁bygda	-10.4013
▁cri	-10.4016
▁romerne	-10.4018
▁forvingen	-10.4019
▁monument	-10.4021
▁beskyttelse	-10.4026
▁cuba	-10.4031
wald	-10.4031
temperatur	-10.4043
direktør	-10.4043
produkt	-10.4043
produsent	-10.4043
▁polar	-10.4045
tittel	-10.4047
▁andel	-10.4053
sosialistisk	-10.4054
tunnelen	-10.407
▁fungerer	-10.4079
ledd	-10.4081
▁klosteret	-10.4082
▁utstyr	-10.4086
▁sammenligne	-10.4091
▁lønn	-10.4094
periode	-10.4103
▁1200	-10.4104
stemme	-10.4108
vakt	-10.4114
hul	-10.4118
▁qui	-10.4121
åk	-10.4131
▁mangle	-10.4131
▁bære	-10.4148
▁europe	-10.4198
▁lake	-10.4203
▁betegnelse	-10.4203
▁karrieren	-10.4204
▁byprefekturet	-10.4205
▁frekvens	-10.4205
▁kollektiv	-10.4205
▁kritiker	-10.4205
▁vestfold	-10.4205
▁sachsen	-10.4205
▁multi	-10.4205
▁følelse	-10.4205
▁ungarsk	-10.4205
▁ombord	-10.4205
▁oberst	-10.4205
▁opposisjon	-10.4206
▁innebære	-10.4206
▁cou	-10.4206
▁telefon	-10.4207
▁ligner	-10.4207
▁godkjent	-10.4207
▁svekke	-10.4207
▁britene	-10.4207
▁foreslått	-10.4208
folket	-10.421
▁medaljen	-10.4212
▁scott	-10.4214
▁portrett	-10.4214
kommisjonen	-10.4215
▁uavhengighet	-10.4219
▁rulle	-10.4221
▁tverr	-10.4224
▁tynn	-10.4227
▁middelalder	-10.4227
plattform	-10.4238
base	-10.4245
▁barna	-10.4246
karriere	-10.4256
▁nederlandsk	-10.4267
▁nato	-10.427
▁buk	-10.427
festet	-10.4278
▁tun	-10.428
fyr	-10.4282
typer	-10.4289
▁meta	-10.429
låt	-10.4293
rence	-10.43
illa	-10.4317
▁beskriver	-10.4325
▁beskrev	-10.4352
▁opptrådt	-10.4358
▁nettverk	-10.4362
▁angel	-10.4386
▁villa	-10.4387
▁1902	-10.4418
▁lillehammer	-10.4418
▁prøvd	-10.4418
▁hordaland	-10.4418
▁ovenfor	-10.4418
▁novelle	-10.4418
▁1906	-10.442
▁butikk	-10.442
▁trenger	-10.4423
▁forbudt	-10.4423
▁idé	-10.443
▁grønland	-10.4433
▁drepe	-10.4433
chang	-10.4438
møll	-10.4442
▁alba	-10.4446
▁lista	-10.4452
▁semifinalen	-10.4456
inntekt	-10.4459
▁pap	-10.4462
▁nylig	-10.4465
▁ef	-10.4467
▁konstruksjon	-10.4483
ische	-10.4488
▁cra	-10.4489
93	-10.4495
fartøy	-10.45
▁fremmed	-10.4515
▁administrere	-10.4517
▁hekk	-10.4522
▁synge	-10.4536
▁øverst	-10.46
▁intens	-10.4608
tekst	-10.4628
slutt	-10.4631
▁fargen	-10.4632
svømming	-10.4635
▁heidelberg	-10.4635
▁konkurrert	-10.4635
▁rådgiver	-10.4635
▁øyeblikk	-10.4635
▁etablering	-10.4635
▁intervju	-10.4635
▁service	-10.4635
▁oblast	-10.4635
▁uansett	-10.4635
▁hebraisk	-10.4635
▁preussen	-10.4635
▁ekstrem	-10.4635
▁reklame	-10.4635
▁fru	-10.4636
▁forklaring	-10.4636
▁nedenfor	-10.4636
▁felttog	-10.4636
▁forlatt	-10.4638
▁vannkraftverk	-10.4639
vang	-10.4641
▁1878	-10.465
▁billed	-10.4658
qi	-10.4661
▁1850	-10.4671
▁johansen	-10.4672
polis	-10.4674
▁neu	-10.4678
▁kvalifisert	-10.4684
posisjon	-10.4685
skjold	-10.4694
teknikk	-10.4695
▁tempel	-10.4696
▁låter	-10.47
▁ligge	-10.4702
▁trond	-10.4707
▁israelsk	-10.4708
kontor	-10.471
▁unik	-10.4719
▁kara	-10.4721
▁ytterst	-10.4738
▁steg	-10.4743
formede	-10.4751
speil	-10.4753
kortet	-10.4757
formann	-10.4758
vard	-10.4766
handel	-10.4782
registre	-10.4809
▁scenen	-10.4817
▁frakte	-10.483
▁160	-10.4831
▁forskjellig	-10.4837
▁kunde	-10.484
tårn	-10.4844
▁company	-10.4857
▁elisabeth	-10.4857
▁orkester	-10.4857
▁permanent	-10.4857
▁digital	-10.4857
▁antarktis	-10.4857
▁alexandr	-10.4857
▁mektig	-10.4857
▁kommersiell	-10.4857
▁hendelsen	-10.4858
▁debutalbum	-10.4858
▁arendal	-10.4858
▁seinere	-10.4858
▁etterfølger	-10.4858
▁mineral	-10.4858
▁yngst	-10.4858
▁dverg	-10.4859
▁operatør	-10.486
▁elleve	-10.4861
▁åpenbar	-10.4861
▁cross	-10.4866
▁holdning	-10.4866
▁skytter	-10.4867
▁mandat	-10.4867
▁trodde	-10.4869
▁1885	-10.4875
▁gjennombrudd	-10.4876
▁brenne	-10.4879
spinner	-10.4881
▁nei	-10.4893
▁bratt	-10.4901
▁karakteristisk	-10.4916
▁rester	-10.4956
▁grevskap	-10.4968
▁koll	-10.497
blom	-10.4998
▁stammen	-10.5001
▁bio	-10.5006
▁finale	-10.5009
▁stund	-10.5021
▁chile	-10.5028
▁larve	-10.5033
søn	-10.5038
wick	-10.505
▁tykk	-10.506
▁angelsaksisk	-10.5084
▁maksimal	-10.5084
▁mislykke	-10.5084
▁færøyene	-10.5084
▁manuskript	-10.5084
▁alfabet	-10.5084
▁negativ	-10.5084
▁terreng	-10.5085
▁autonom	-10.5085
▁nikola	-10.5085
pedagog	-10.5085
▁sprint	-10.5085
▁beordre	-10.5085
▁forårsake	-10.5085
kjøring	-10.5085
▁prinsesse	-10.5086
stråling	-10.5086
▁opplevd	-10.5087
▁telemark	-10.5087
givende	-10.5089
▁2018	-10.509
▁arena	-10.5092
▁fastlandet	-10.5094
▁strekningen	-10.5095
▁rune	-10.5105
▁palm	-10.5105
▁malm	-10.5106
▁1300	-10.5106
kall	-10.511
▁sikker	-10.5112
▁synlig	-10.5114
▁eurovis	-10.512
▁antennene	-10.512
▁vestover	-10.5123
teater	-10.5129
▁overtatt	-10.5131
▁gjennomføre	-10.5138
▁mjø	-10.5143
▁mei	-10.5146
▁nordover	-10.515
▁wales	-10.5154
▁forklare	-10.5169
▁opplag	-10.5174
▁kulturell	-10.5181
▁million	-10.5188
▁salme	-10.5192
▁menneskene	-10.5204
▁sideelv	-10.5231
17	-10.525
ordnet	-10.5259
formasjon	-10.5265
inndeling	-10.5289
fronten	-10.5298
▁nasjon	-10.5299
batt	-10.5301
▁europeisk	-10.5304
▁chicago	-10.5317
▁minoritet	-10.5317
▁tyrkisk	-10.5317
▁victoria	-10.5317
▁tabellen	-10.5317
▁club	-10.5317
ström	-10.5317
orientert	-10.5317
▁bbc	-10.5318
▁sekunder	-10.5319
▁midlertidig	-10.532
▁litterær	-10.532
▁kritisk	-10.532
▁daniel	-10.5326
▁1884	-10.5334
▁1860	-10.5336
lock	-10.5341
27	-10.5348
▁queen	-10.535
▁isteden	-10.5356
▁brem	-10.5363
▁little	-10.5365
▁tidspunktet	-10.5368
▁foreldrene	-10.5377
▁marked	-10.5391
▁gw	-10.5394
▁gjennomgå	-10.5399
▁fotballklubb	-10.5402
stjerne	-10.541
brev	-10.5411
seier	-10.5424
▁afrikansk	-10.5471
levende	-10.5475
▁skall	-10.548
▁avvist	-10.5486
▁innerst	-10.5487
vall	-10.5488
▁kalle	-10.5497
næring	-10.5506
▁utmerke	-10.5513
▁troll	-10.5525
gjorde	-10.5525
demokrat	-10.5534
▁øvrig	-10.5542
▁kristian	-10.5546
slalåm	-10.5555
▁nowiki	-10.5555
▁washington	-10.5555
prinsippet	-10.5555
▁australsk	-10.5555
▁observato	-10.5555
▁østfold	-10.5555
▁etterkommer	-10.5555
kompetanse	-10.5555
▁parallell	-10.5555
▁risiko	-10.5555
▁kobber	-10.5555
▁stengt	-10.5555
▁trengte	-10.5556
▁syria	-10.5556
▁unntatt	-10.5556
▁rolf	-10.5557
▁føderal	-10.5557
▁sykkel	-10.5559
▁betalt	-10.5559
sekund	-10.5561
▁bispe	-10.5562
▁allmenn	-10.5562
▁eksport	-10.5563
▁sverd	-10.5564
▁høyesterett	-10.5568
▁1883	-10.5571
▁1889	-10.5571
▁barndom	-10.5576
▁forvente	-10.5577
▁1866	-10.5578
wich	-10.5587
▁silke	-10.5587
▁seire	-10.5594
▁opptatt	-10.5599
▁with	-10.5602
▁delstat	-10.5612
▁stemmene	-10.5635
▁anerkjenne	-10.564
▁utlandet	-10.5648
mengde	-10.5648
måte	-10.5649
rock	-10.5666
avtale	-10.567
▁110	-10.5672
▁from	-10.568
▁kirkelig	-10.5684
▁skøyte	-10.5697
▁avslutte	-10.5716
▁psyko	-10.5729
▁mord	-10.5732
▁trent	-10.5732
▁ess	-10.574
thon	-10.5743
14	-10.5751
▁antenne	-10.5763
statue	-10.5779
▁cand	-10.5786
▁fulgt	-10.5793
▁fakultet	-10.5799
▁forhindre	-10.5799
▁innendørs	-10.5799
▁kjørte	-10.5799
▁okkupert	-10.5799
▁påbegynt	-10.5799
▁shanghai	-10.5799
▁virginia	-10.5799
▁1899	-10.5799
▁akseptert	-10.5799
▁kjennetegn	-10.5799
▁sjeldne	-10.5799
▁frigjøring	-10.5799
▁avskaffe	-10.5799
▁selvmord	-10.5799
▁bærum	-10.5799
▁naturreservat	-10.58
▁studioalbum	-10.58
▁innvalgt	-10.58
▁magasinet	-10.5801
▁slippe	-10.5801
▁jackson	-10.5803
▁generell	-10.5803
▁michel	-10.5804
▁donau	-10.5807
▁kok	-10.5813
▁young	-10.5814
▁piano	-10.5815
▁britis	-10.5816
▁metro	-10.5817
▁østlandet	-10.5819
▁1400	-10.5825
▁johnson	-10.5828
▁christiania	-10.583
avisen	-10.5849
▁folketelling	-10.5852
▁helhet	-10.5858
fred	-10.5874
▁kommun	-10.5909
▁kontrollert	-10.5911
behandling	-10.5914
▁blomst	-10.5914
samband	-10.5927
▁kortere	-10.5929
kommende	-10.5943
▁zu	-10.5946
odden	-10.5956
▁dynasti	-10.5984
▁mesterskap	-10.5991
▁saga	-10.5994
▁slott	-10.6016
▁francis	-10.6046
▁skikk	-10.6047
▁identifisert	-10.6049
▁liverpool	-10.6049
▁konstitusjon	-10.6049
▁kvadrat	-10.6049
▁ressurs	-10.6049
▁koalisjon	-10.6049
▁church	-10.6049
▁konklave	-10.6049
renessanse	-10.6049
▁adolf	-10.6049
▁forsvant	-10.6049
▁fiolin	-10.6049
▁arthur	-10.6049
▁inngår	-10.605
▁isolert	-10.605
▁utforming	-10.605
▁overraske	-10.605
▁kriminal	-10.605
▁antyde	-10.6052
bridge	-10.6052
▁kreert	-10.6057
▁1893	-10.606
▁oppstod	-10.6075
▁slektning	-10.6079
▁styrt	-10.6089
▁variert	-10.6112
▁sikte	-10.6112
horn	-10.6116
▁næringsliv	-10.6118
legging	-10.613
▁vass	-10.6131
økonomi	-10.6144
fylke	-10.6144
kurat	-10.6151
gjennom	-10.6152
modell	-10.6153
vogn	-10.6161
▁ulv	-10.6165
▁strategisk	-10.6165
basert	-10.6179
kansler	-10.6183
talende	-10.6188
▁fungere	-10.6203
▁høst	-10.6212
cup	-10.6213
▁ytter	-10.6216
kryss	-10.6229
▁grøn	-10.6238
▁jim	-10.6246
flokk	-10.6255
lignende	-10.6293
▁afghanistan	-10.6305
▁annonsert	-10.6305
▁oksygen	-10.6305
▁utslipp	-10.6305
▁kommandant	-10.6305
▁litauen	-10.6305
▁heinrich	-10.6305
▁identitet	-10.6305
▁jørgen	-10.6305
▁tømmer	-10.6305
▁jødene	-10.6306
▁ektemann	-10.6306
▁protestantisk	-10.6306
▁contest	-10.6306
▁psykologi	-10.6306
▁massiv	-10.6307
▁hovedkvarter	-10.6308
▁overlevd	-10.6308
▁fuktig	-10.6308
▁tropisk	-10.6308
▁senatet	-10.6309
▁rhod	-10.631
▁skarp	-10.631
▁fredrikstad	-10.6313
▁øvelsen	-10.6314
▁undertegne	-10.6329
▁utenlands	-10.633
▁angi	-10.6336
▁qing	-10.6345
ique	-10.6347
▁geir	-10.635
▁hä	-10.635
▁utarbeide	-10.6352
▁vennskap	-10.6357
▁brutt	-10.637
▁proto	-10.6385
yuan	-10.6385
▁statsråd	-10.6386
akademi	-10.6406
skjær	-10.6406
bakterie	-10.6415
▁urban	-10.6415
areal	-10.642
table	-10.6425
▁element	-10.6434
▁omkom	-10.6455
drive	-10.6458
forestilling	-10.646
aux	-10.6466
▁filosof	-10.6475
▁møtt	-10.6496
▁slave	-10.6507
revolusjonen	-10.6508
bour	-10.6514
▁akademisk	-10.6529
bød	-10.6538
▁vindu	-10.6555
▁opplysning	-10.6566
▁luxembourg	-10.6569
▁låtskriver	-10.6569
▁patriark	-10.6569
▁portugisisk	-10.6569
▁resultert	-10.6569
▁vålerenga	-10.6569
▁episoden	-10.6569
▁naturgass	-10.6569
▁könig	-10.6569
▁oppfatning	-10.6569
▁yrkes	-10.6569
▁josef	-10.6569
▁grekerne	-10.6569
vassdraget	-10.6569
▁fjordane	-10.6569
▁avledet	-10.657
▁innviet	-10.657
▁power	-10.6571
▁opprettelsen	-10.6571
▁enhver	-10.6572
▁hovedkontor	-10.6573
▁komposisjon	-10.6581
▁kupp	-10.6588
variable	-10.6593
▁årsaker	-10.6594
▁skrå	-10.6595
▁håndverk	-10.6598
▁datert	-10.66
▁jack	-10.6601
▁nerve	-10.6606
▁vende	-10.6608
▁østover	-10.6608
cca	-10.661
▁spring	-10.6613
lidelse	-10.6613
embete	-10.662
▁sørsiden	-10.6625
brua	-10.6634
falt	-10.6665
▁170	-10.6667
▁utvidelse	-10.6669
▁variere	-10.667
transport	-10.6677
programmet	-10.6679
▁henri	-10.6679
celler	-10.668
▁lokaliser	-10.6691
▁gjeld	-10.6699
▁administr	-10.67
▁grim	-10.6708
▁flåte	-10.6711
▁strategi	-10.6714
▁moss	-10.6717
kledd	-10.6741
▁nordmenn	-10.6758
▁utløp	-10.6762
▁carol	-10.6782
ierende	-10.6794
▁helst	-10.6796
▁basis	-10.6821
ifikasjon	-10.6823
▁dyrke	-10.6829
▁kontrovers	-10.6839
▁ambassade	-10.6839
▁columbia	-10.6839
▁episoder	-10.6839
▁hjørne	-10.6839
▁kristendommen	-10.6839
▁napoleon	-10.6839
▁sarpsborg	-10.6839
veksling	-10.6839
▁brigade	-10.6839
▁narvik	-10.6839
▁batteri	-10.684
▁beskjed	-10.684
▁klippe	-10.684
romerriket	-10.684
▁gregor	-10.6841
▁døgn	-10.6842
head	-10.6843
▁tibet	-10.6844
▁tsar	-10.6845
▁profil	-10.6846
▁wilson	-10.6847
▁1814	-10.685
▁avansert	-10.6853
▁menneskelig	-10.6853
▁1887	-10.6856
▁ibsen	-10.6857
▁trygg	-10.6857
▁1891	-10.6858
▁trommer	-10.6859
▁1851	-10.6859
▁good	-10.6859
▁fase	-10.686
▁morten	-10.6862
▁great	-10.6866
▁sandnes	-10.6868
▁1870	-10.6869
oksid	-10.6872
▁tillit	-10.6885
▁høyest	-10.6887
▁hevn	-10.6891
▁hender	-10.6894
▁master	-10.6903
▁lenin	-10.6904
lyd	-10.6912
▁georgia	-10.6921
funn	-10.6949
bølge	-10.6957
konsert	-10.6957
viklet	-10.6959
burn	-10.6961
prøve	-10.6963
▁thu	-10.698
▁tenke	-10.6992
hjelp	-10.6992
slapp	-10.6996
stopp	-10.7005
trenge	-10.7036
▁oppdagelse	-10.7042
manuel	-10.7091
▁term	-10.7111
▁fundament	-10.7117
▁bataljon	-10.7117
▁elizabeth	-10.7117
▁invitert	-10.7117
▁jordskjelv	-10.7117
▁prøyssisk	-10.7117
▁restaurant	-10.7117
▁særskilt	-10.7117
▁ukraina	-10.7117
▁vurdert	-10.7117
▁automatisk	-10.7117
▁buskerud	-10.7117
førsel	-10.7117
molekyl	-10.7117
▁kjøtt	-10.7117
▁søndre	-10.7117
▁betydningsfull	-10.7117
▁presentert	-10.7117
▁ålesund	-10.7117
▁larvik	-10.7117
▁elektronisk	-10.7118
▁hjelm	-10.7118
worth	-10.7118
▁fangst	-10.7118
▁bayern	-10.7119
▁brown	-10.7119
▁gjenværende	-10.7123
▁onkel	-10.7125
▁biologisk	-10.7125
▁takket	-10.7126
▁biografi	-10.7126
▁kunstløp	-10.7129
▁1815	-10.713
▁straks	-10.7132
▁1882	-10.7134
▁tolke	-10.7134
▁prestasjon	-10.7144
▁størst	-10.7147
▁hamburg	-10.7148
▁skuespill	-10.7151
▁jury	-10.7152
▁persisk	-10.7164
balanse	-10.7236
▁låten	-10.7236
bibliotek	-10.724
materiale	-10.724
museet	-10.724
effekt	-10.7243
programmer	-10.7247
ittisk	-10.7284
▁palass	-10.7288
▁fortelle	-10.7324
strakte	-10.735
▁kirkegård	-10.7353
trær	-10.7365
disiplin	-10.7402
▁plutselig	-10.7402
▁asteroide	-10.7402
▁kommandør	-10.7402
▁regulering	-10.7402
▁konstruert	-10.7402
▁unesco	-10.7402
▁arsenal	-10.7402
▁tjener	-10.7402
▁canadisk	-10.7403
▁langvarig	-10.7403
▁sektor	-10.7403
▁sosialdemokrat	-10.7404
▁verdensrekord	-10.7404
hertugdømmet	-10.7405
▁einar	-10.7405
▁gratis	-10.7406
▁kongeriket	-10.7406
▁regimet	-10.7407
▁antikken	-10.7411
▁skygge	-10.7411
▁eiendommen	-10.7413
▁pistol	-10.7414
måne	-10.7415
▁1894	-10.742
▁kent	-10.7421
▁1892	-10.7423
▁fremført	-10.7426
▁1895	-10.7427
▁koble	-10.7429
alisert	-10.7447
▁undervist	-10.7448
kalender	-10.7454
tanke	-10.7463
▁tredjedel	-10.7473
kontrakt	-10.7534
divisjon	-10.7535
blokk	-10.7538
ulykke	-10.7545
▁kongedømme	-10.7552
▁aero	-10.7594
▁lill	-10.7614
vatn	-10.7646
cheng	-10.7675
▁infanteri	-10.7696
▁jomfru	-10.7696
▁kronprins	-10.7696
▁matematikk	-10.7696
▁observasjon	-10.7696
▁tsjekkoslovakia	-10.7696
▁uttrykt	-10.7696
▁1881	-10.7696
▁eksisterende	-10.7696
▁embeds	-10.7696
▁gunnar	-10.7696
▁göteborg	-10.7696
▁latvia	-10.7696
▁philip	-10.7696
▁xiàn	-10.7696
▁fenomen	-10.7697
▁juridisk	-10.7697
▁korrekt	-10.7697
▁lørdag	-10.7697
▁nicola	-10.7697
▁dagbladet	-10.7697
▁bøndene	-10.7697
▁oldtiden	-10.7697
▁tjent	-10.7697
▁betjene	-10.7697
▁skildre	-10.7697
▁tilbrakt	-10.7697
▁night	-10.7697
▁beleiring	-10.7697
▁utsikt	-10.7697
▁oppfordre	-10.7697
▁dvd	-10.7697
▁adresse	-10.7697
▁maritim	-10.7697
▁karbon	-10.7697
forsikring	-10.7697
syklus	-10.7697
▁bakvingen	-10.7697
▁nøkkel	-10.7697
▁jurist	-10.7698
▁osmansk	-10.7698
▁philo	-10.7698
▁ekspert	-10.7698
▁tjue	-10.7698
▁røyk	-10.7699
▁francisco	-10.77
▁tillatt	-10.77
▁leid	-10.77
▁gjenopprette	-10.77
apparat	-10.7701
slavisk	-10.7702
▁styreleder	-10.7703
▁langrenn	-10.7705
næs	-10.7706
▁bruce	-10.771
▁amfi	-10.771
▁forsterke	-10.7715
▁1877	-10.7715
▁1888	-10.7716
▁wol	-10.7717
▁1868	-10.7718
nemlig	-10.7718
▁kontinental	-10.772
▁personell	-10.7722
▁brent	-10.7725
gudinne	-10.7738
▁tann	-10.7802
▁industriell	-10.7812
▁ferie	-10.7818
▁vev	-10.7827
kandidat	-10.7837
provins	-10.7838
hjul	-10.7838
studie	-10.7863
▁nordøstlig	-10.7924
▁tidspunkt	-10.7937
▁muslimsk	-10.7987
▁pavelig	-10.7993
▁admiral	-10.7999
▁aftenposten	-10.7999
▁assosiert	-10.7999
▁beliggenhet	-10.7999
▁landkreis	-10.7999
▁trommeslager	-10.7999
▁anmelder	-10.7999
▁forveksle	-10.7999
▁katolikk	-10.7999
▁academ	-10.8
▁sigurd	-10.8
▁diameter	-10.8
▁statsborger	-10.8
▁dialog	-10.8
▁fremtidig	-10.8
▁reformasjonen	-10.8
protokoll	-10.8
▁andré	-10.8
▁väst	-10.8001
▁middelhavet	-10.8001
▁hedmark	-10.8002
▁styremedlem	-10.8002
▁samuel	-10.8003
▁bønder	-10.8003
▁elsker	-10.8004
▁økning	-10.8004
▁serbia	-10.8004
▁institusjoner	-10.8004
▁avskjed	-10.8006
▁svein	-10.8007
▁opptreden	-10.8009
▁egil	-10.801
▁franz	-10.8013
▁1837	-10.8015
▁rytter	-10.8017
▁ddr	-10.8021
▁tilsyne	-10.8021
▁jeff	-10.8022
▁heart	-10.8029
▁stortings	-10.8048
▁åndelig	-10.8057
▁sovjetisk	-10.8065
▁rangert	-10.8085
▁lamb	-10.8099
▁inneha	-10.8119
▁chris	-10.8133
struktur	-10.815
funksjon	-10.815
slekten	-10.8151
▁opti	-10.8182
botn	-10.8192
register	-10.8218
▁utforme	-10.8227
stigning	-10.8238
▁sjakk	-10.8286
▁kunstnerisk	-10.83
▁borgerlig	-10.8308
▁seremoni	-10.8312
▁alminnelig	-10.8312
▁association	-10.8312
▁basketball	-10.8312
▁douglas	-10.8312
▁engasjement	-10.8312
▁invadert	-10.8312
▁omdøpt	-10.8312
▁symfoni	-10.8312
▁tilstrekkelig	-10.8312
▁væpne	-10.8312
▁hønefoss	-10.8312
▁abraham	-10.8312
▁stridsvogn	-10.8312
▁taiwan	-10.8312
▁diskusjon	-10.8312
▁zealand	-10.8312
▁beatles	-10.8312
▁evangeli	-10.8312
▁underholdning	-10.8312
▁valuta	-10.8312
▁færre	-10.8312
▁skjebne	-10.8312
▁betaling	-10.8312
▁hyppig	-10.8313
▁tokyo	-10.8313
▁kopier	-10.8313
▁innflytelsesrik	-10.8313
▁fylkeskommune	-10.8313
▁slank	-10.8315
▁bronsealder	-10.8315
reglene	-10.8315
▁kryp	-10.8316
▁tilsammen	-10.8318
▁kostnad	-10.8321
▁bønn	-10.8322
▁gjeldende	-10.8322
sidig	-10.8323
▁stalin	-10.833
ière	-10.8331
▁selvstendighet	-10.8343
hampton	-10.8346
titler	-10.8376
▁dramatisk	-10.8393
▁ørn	-10.8413
▁tidligst	-10.8417
utenriksminister	-10.842
basseng	-10.8436
ssex	-10.8437
rekord	-10.8466
▁material	-10.8469
europeiske	-10.8473
regjering	-10.8473
bonne	-10.848
▁nordvestlig	-10.8493
▁verdenscup	-10.8494
▁alvor	-10.8501
▁rådhus	-10.8526
▁universit	-10.855
▁flyge	-10.856
▁utkom	-10.8583
▁kjær	-10.863
▁babylon	-10.8635
▁bulgaria	-10.8635
▁country	-10.8635
▁forgjenger	-10.8635
▁forvandling	-10.8635
▁forøvrig	-10.8635
▁genève	-10.8635
▁komplisert	-10.8635
▁middelsstor	-10.8635
▁popularitet	-10.8635
▁vancouver	-10.8635
▁vedlikehold	-10.8635
▁komponert	-10.8635
▁konkurs	-10.8635
▁regulert	-10.8635
▁amatør	-10.8635
▁global	-10.8635
▁nevner	-10.8635
▁ordinær	-10.8635
katalog	-10.8636
▁carolina	-10.8638
▁inntekter	-10.8638
▁nyhets	-10.8639
▁variasjon	-10.8639
▁keltisk	-10.864
▁sirkel	-10.864
▁praha	-10.8643
▁rednings	-10.8644
▁rederi	-10.865
▁deltager	-10.8653
▁arving	-10.8654
▁panser	-10.8656
▁egyptisk	-10.8664
▁spesialisert	-10.8668
▁lunge	-10.8677
▁knap	-10.873
president	-10.8805
dømt	-10.8806
offiser	-10.8806
brann	-10.881
tempelet	-10.8874
volum	-10.8879
tavle	-10.8899
departement	-10.8903
▁inneba	-10.8931
▁dominere	-10.8966
inspektør	-10.8968
▁atlanterhavet	-10.8968
▁fengslet	-10.8968
▁fremtredende	-10.8968
▁innspilt	-10.8968
▁makedonia	-10.8968
▁taylor	-10.8968
▁ukrainsk	-10.8968
▁ferdinand	-10.8968
▁nominasjon	-10.8968
▁vladimir	-10.8968
▁høvding	-10.8968
▁isabella	-10.8968
▁bosnia	-10.8968
▁midtøsten	-10.8968
▁eksistens	-10.8968
▁noensinne	-10.8968
▁kommentar	-10.8968
▁trussel	-10.8968
▁tillatelse	-10.8968
▁lennon	-10.8968
▁knud	-10.8969
▁social	-10.8969
▁skjøt	-10.8969
aceae	-10.8969
▁forandring	-10.8969
▁temple	-10.8969
▁firmaet	-10.897
▁flytende	-10.897
▁spirit	-10.8971
▁disney	-10.8972
▁group	-10.8972
▁smelte	-10.8973
▁programvare	-10.8974
▁organisere	-10.8974
▁operere	-10.8975
▁øygruppen	-10.8979
▁plikt	-10.8982
▁klatre	-10.8984
▁kaffe	-10.8988
dåp	-10.8989
kjennelse	-10.8994
▁fagforening	-10.9002
▁beholde	-10.9005
▁krigsskip	-10.9008
▁hytte	-10.9027
▁skikkelse	-10.9057
▁stevn	-10.9068
holt	-10.9075
institutt	-10.9151
problemer	-10.9151
kledt	-10.9162
▁moderat	-10.9167
støtte	-10.9198
▁vanligst	-10.9294
fellesskap	-10.9298
▁inspirasjon	-10.9312
▁absolutt	-10.9313
▁fasettøyne	-10.9313
▁identifisere	-10.9313
▁integrert	-10.9313
▁katastrofe	-10.9313
▁konsentrert	-10.9313
▁libanon	-10.9313
▁prefektur	-10.9313
▁society	-10.9313
▁venezia	-10.9313
▁windows	-10.9313
▁adskilt	-10.9313
▁selvbiografi	-10.9313
▁utgravninger	-10.9313
▁central	-10.9313
▁konsonant	-10.9313
▁prince	-10.9313
▁dresden	-10.9313
▁følte	-10.9313
▁sammenslåing	-10.9313
▁tolkning	-10.9313
ensemble	-10.9313
▁normannisk	-10.9313
▁seoul	-10.9313
▁vilkår	-10.9313
▁russerne	-10.9313
▁systematisk	-10.9313
▁forbinde	-10.9314
▁søsken	-10.9314
▁stryke	-10.9314
▁barokk	-10.9314
▁fragment	-10.9314
▁bedriften	-10.9315
▁sannhet	-10.9315
▁omstridt	-10.9315
▁tørke	-10.9315
на	-10.9315
▁alpene	-10.9316
▁borgermester	-10.9316
▁styring	-10.9316
mekanisme	-10.9316
▁medvirket	-10.9317
▁folkemusikk	-10.9319
▁seksjon	-10.932
▁hjemlandet	-10.9321
▁kunngjor	-10.9324
▁misjons	-10.9325
▁forrige	-10.9326
▁tilfeldig	-10.9331
▁galleri	-10.9336
theatre	-10.9339
▁forløper	-10.934
▁republikansk	-10.9348
▁spenn	-10.9357
utvikle	-10.9359
aften	-10.9365
▁forhandle	-10.9377
føtte	-10.9389
▁agent	-10.9392
▁datterselskap	-10.9453
▁voldsom	-10.9492
kontroll	-10.9497
misbruk	-10.9504
▁demokrati	-10.9504
gruppa	-10.9508
litteratur	-10.9508
utdanning	-10.9508
tradisjon	-10.9508
▁hospital	-10.9532
hockeyspiller	-10.9534
kirk	-10.9563
▁støt	-10.9575
belteasteroide	-10.967
▁britannia	-10.967
▁colombia	-10.967
▁frilufts	-10.967
▁illustrert	-10.967
▁interessant	-10.967
▁jugoslavia	-10.967
▁keramikk	-10.967
▁leipzig	-10.967
▁lokomotiv	-10.967
▁resolusjon	-10.967
▁satellitt	-10.967
▁tilnærming	-10.967
▁tsjekkia	-10.967
▁warszawa	-10.967
▁avslørt	-10.967
▁orientering	-10.967
▁petroleum	-10.967
▁symptom	-10.967
▁ferskvann	-10.967
▁oxford	-10.967
▁statistikk	-10.967
▁support	-10.967
▁nobelpris	-10.967
▁beregning	-10.967
▁embets	-10.967
▁testamente	-10.967
▁utspring	-10.967
▁trykt	-10.967
▁referert	-10.967
▁opphevet	-10.967
▁sosiologi	-10.967
▁senior	-10.967
▁lewis	-10.967
▁døpt	-10.9671
▁tendens	-10.9672
▁utfordre	-10.9672
▁hardanger	-10.9674
▁center	-10.9676
▁forestillingen	-10.9682
▁befal	-10.9722
komite	-10.9738
dyrking	-10.979
▁presis	-10.9806
▁arkeologi	-10.9835
▁klage	-10.9868
betegnelse	-10.9878
advokat	-10.9878
flåten	-10.9878
▁musikal	-10.9888
lønn	-10.9898
pierre	-10.9955
sekvens	-11.0037
▁ødela	-11.004
▁billboard	-11.004
▁konstantinopel	-11.004
▁meksikansk	-11.004
▁offensiv	-11.004
▁stjørdal	-11.004
▁assistent	-11.004
▁keyboard	-11.004
▁besittelse	-11.004
▁nidaros	-11.004
▁vurdere	-11.004
▁stephen	-11.004
▁jamaica	-11.004
▁deutsche	-11.004
▁aktuell	-11.004
▁frimurer	-11.004
▁henrettelse	-11.0041
▁syklist	-11.0041
▁arkitektonisk	-11.0041
▁vakre	-11.0041
▁bemerket	-11.0041
▁sibir	-11.0041
▁stadium	-11.0041
konsernet	-11.0042
▁anvende	-11.0042
▁planlegging	-11.0043
▁kristin	-11.0044
▁betong	-11.0044
modifiser	-11.0045
▁jernbanestasjon	-11.0045
▁circ	-11.0045
▁døtre	-11.0046
▁ladning	-11.0049
▁søyle	-11.0057
▁ytelse	-11.0058
▁raskest	-11.006
kommunistpartiet	-11.0107
gripe	-11.0196
hjel	-11.0248
teknologi	-11.0263
▁undersøke	-11.0417
skvadron	-11.0425
▁bulgarsk	-11.0425
▁bysantinsk	-11.0425
▁forfremmet	-11.0425
▁frankfurt	-11.0425
▁indonesia	-11.0425
▁inskripsjon	-11.0425
▁komponent	-11.0425
▁larvestadiet	-11.0425
▁mccartney	-11.0425
▁observert	-11.0425
▁oppvarming	-11.0425
▁tønsberg	-11.0425
▁vingespenn	-11.0425
▁westfalen	-11.0425
▁olympia	-11.0425
▁teoretisk	-11.0425
▁undergrunnsbane	-11.0425
▁matematisk	-11.0425
▁arbeidsgiver	-11.0425
▁bystatus	-11.0425
▁foreløpig	-11.0425
▁materiell	-11.0425
▁division	-11.0425
▁anonym	-11.0425
▁omsorg	-11.0425
▁rugby	-11.0425
▁florida	-11.0425
▁cecil	-11.0425
▁kontrast	-11.0425
▁mekanisk	-11.0425
▁stefan	-11.0425
▁sandefjord	-11.0425
teatret	-11.0425
▁deltagelse	-11.0425
▁walisisk	-11.0425
▁erstatning	-11.0425
▁stråle	-11.0425
▁tverrbånd	-11.0425
▁libya	-11.0426
▁kroatisk	-11.0426
▁uenighet	-11.0426
▁kristiansund	-11.0426
▁vincen	-11.0426
▁salmebok	-11.0427
▁visepresident	-11.0427
▁rittet	-11.0432
▁smitte	-11.0432
▁clark	-11.0432
metabol	-11.0433
▁alex	-11.0434
kobling	-11.0435
▁sjel	-11.0436
▁vinterleke	-11.0441
▁forenkle	-11.0469
▁middelhavs	-11.0487
▁sokn	-11.0499
redaktør	-11.0663
sentrum	-11.0663
▁erobre	-11.0664
gjel	-11.073
bukten	-11.075
▁forsvinne	-11.0773
▁diagnos	-11.0782
direktoratet	-11.0825
publikasjon	-11.0825
▁atmosfæren	-11.0825
▁begivenhet	-11.0825
▁corporation	-11.0825
▁demonstrasjon	-11.0825
▁færøysk	-11.0825
▁hollywood	-11.0825
▁ludwig	-11.0825
▁mangfold	-11.0825
▁michigan	-11.0825
▁mislyktes	-11.0825
▁prestegjeld	-11.0825
▁puppestadi	-11.0825
▁venezuela	-11.0825
▁eksplosjon	-11.0825
▁kosovo	-11.0825
▁musikkvideo	-11.0825
▁opprettholde	-11.0825
▁shakespeare	-11.0825
▁sivilisasjon	-11.0825
▁vurdering	-11.0825
▁ekspansjon	-11.0825
▁geometri	-11.0825
jylland	-11.0825
▁fysikk	-11.0825
▁apollo	-11.0825
▁angivelig	-11.0825
▁finansiering	-11.0825
grunnsstasjon	-11.0825
▁vegetasjon	-11.0825
▁komplett	-11.0825
skildring	-11.0825
løkka	-11.0825
▁uklart	-11.0825
▁brussel	-11.0825
▁psykisk	-11.0825
▁mikael	-11.0826
▁bedrifter	-11.0826
▁gerhard	-11.0826
▁senterpartiet	-11.0826
▁serbisk	-11.0826
▁mastergrad	-11.0826
▁dekorert	-11.0827
▁sunget	-11.0827
▁stedsnavn	-11.0835
▁hvile	-11.0839
▁reager	-11.084
sprang	-11.0847
▁spesifik	-11.0849
▁støv	-11.0849
tempo	-11.085
▁sjanse	-11.0853
▁bakerst	-11.0861
flytting	-11.0874
horax	-11.0877
▁stortingsvalg	-11.0888
▁koreansk	-11.0922
▁trappe	-11.0955
▁ideologi	-11.0956
▁utøve	-11.0995
edderkopp	-11.1079
spørsmål	-11.108
dyktig	-11.1081
kvarter	-11.1143
knapp	-11.1149
fabrik	-11.1192
▁elektrisitet	-11.1242
▁folkeavstemning	-11.1242
▁massachusetts	-11.1242
▁metamorfose	-11.1242
▁millimeter	-11.1242
▁mountain	-11.1242
▁napoléon	-11.1242
▁palestina	-11.1242
▁pennsylvania	-11.1242
▁pronotum	-11.1242
▁pyramide	-11.1242
▁reservoar	-11.1242
▁slovakia	-11.1242
▁spitsbergen	-11.1242
▁tsjekkisk	-11.1242
▁fiendtlig	-11.1242
▁kongsvinger	-11.1242
▁konkluder	-11.1242
▁thailand	-11.1242
▁utnevnelse	-11.1242
▁rasmus	-11.1242
▁annerledes	-11.1242
▁nepal	-11.1242
▁terminal	-11.1242
▁fornuft	-11.1242
▁steinkjer	-11.1242
▁ringerike	-11.1242
▁haugesund	-11.1242
▁seminar	-11.1242
▁oppgradert	-11.1242
▁heavy	-11.1242
▁charlotte	-11.1242
▁parlamentarisk	-11.1242
▁elefant	-11.1242
▁nedtegnet	-11.1242
▁frogner	-11.1242
▁nevø	-11.1242
▁petersburg	-11.1242
leverandør	-11.1242
▁theodor	-11.1242
▁hovedpersonen	-11.1242
▁halvkule	-11.1242
forstyrrelse	-11.1242
▁navy	-11.1242
▁seksuell	-11.1242
▁depresjon	-11.1242
▁ørken	-11.1242
▁mistenkt	-11.1242
▁betingelse	-11.1243
bjørg	-11.1243
▁dødsfall	-11.1243
▁gabriel	-11.1243
▁saturn	-11.1243
▁indikere	-11.1243
▁sviger	-11.1244
▁overhode	-11.1245
▁poesi	-11.1248
▁ivareta	-11.1249
▁operert	-11.125
▁plast	-11.1257
▁hedensk	-11.1257
▁down	-11.1258
▁statuen	-11.1263
▁identisk	-11.1267
▁benevn	-11.1268
bundet	-11.128
nærmet	-11.1281
▁nederst	-11.1281
▁godkjenn	-11.1329
prakt	-11.1361
palasset	-11.1413
▁konservativ	-11.1419
▁utforske	-11.1496
medisin	-11.1514
hovedstad	-11.1514
situasjon	-11.1514
gruve	-11.1531
lokale	-11.1554
▁republika	-11.1632
konsentrasjon	-11.1675
kommanderende	-11.1676
pningsseremonien	-11.1676
▁brandenburg	-11.1676
▁cæsar	-11.1676
▁erkebispedømme	-11.1676
▁etiopia	-11.1676
▁fjorten	-11.1676
▁giovanni	-11.1676
▁hongkong	-11.1676
▁illinois	-11.1676
▁korrupsjon	-11.1676
▁lincoln	-11.1676
▁mongolia	-11.1676
▁montenegro	-11.1676
▁palestinsk	-11.1676
▁ptolemaios	-11.1676
▁varaordfører	-11.1676
▁illustrasjon	-11.1676
installasjon	-11.1676
köping	-11.1676
▁jersey	-11.1676
▁hjort	-11.1676
▁innstifte	-11.1676
▁forkropp	-11.1676
▁gunstig	-11.1676
▁autoritet	-11.1676
▁vannpolo	-11.1676
▁anatoli	-11.1676
▁valencia	-11.1676
▁hamilton	-11.1676
▁leonard	-11.1676
▁oppfunnet	-11.1676
▁albania	-11.1676
▁guinea	-11.1676
▁opprykk	-11.1676
▁fiktiv	-11.1677
▁misjonær	-11.1677
▁vietnamesisk	-11.1677
▁fylle	-11.1677
betjent	-11.1677
▁forandret	-11.1677
▁innrømme	-11.1677
▁finansiert	-11.1677
▁oppfølger	-11.1677
▁nigeria	-11.1677
populasjon	-11.1677
▁magnetisk	-11.1677
▁kristus	-11.1677
▁dybde	-11.1678
▁dream	-11.1678
▁grieg	-11.1678
▁forfølgelse	-11.1679
▁hvileperiode	-11.1679
▁herjet	-11.168
ttendeplass	-11.168
▁håndtere	-11.1683
▁work	-11.1684
▁pumpe	-11.1697
▁visuel	-11.1699
▁rasisme	-11.17
▁napoli	-11.1704
▁harmoni	-11.1707
bevegelse	-11.1852
krevende	-11.1874
snegl	-11.1904
hastighet	-11.1968
frukt	-11.1969
aktivitet	-11.1969
▁minutt	-11.1997
▁doktor	-11.213
psykiatri	-11.2131
▁arrangør	-11.2131
▁bekymring	-11.2131
▁intelligen	-11.2131
▁kasakhstan	-11.2131
▁meteorologi	-11.2131
▁narkotika	-11.2131
▁oppvokst	-11.2131
▁perspektiv	-11.2131
▁restaurering	-11.2131
▁sparebank	-11.2131
▁territorium	-11.2131
▁utendørs	-11.2131
infeksjon	-11.2131
▁anbefalt	-11.2131
▁bryllup	-11.2131
▁innvilget	-11.2131
▁jacque	-11.2131
▁kulturminner	-11.2131
▁pseudo	-11.2131
▁uavgjort	-11.2131
▁kroatia	-11.2131
▁perfekt	-11.2131
▁ustabil	-11.2131
▁anvendt	-11.2131
▁firenze	-11.2131
▁sebasti	-11.2131
▁sympati	-11.2131
▁dimensjon	-11.2131
▁rovdyr	-11.2131
▁people	-11.2131
▁baseball	-11.2131
▁blood	-11.2131
▁söder	-11.2131
▁impuls	-11.2131
▁margaret	-11.2131
kostning	-11.2131
▁forsterkning	-11.2131
▁domstolen	-11.2131
▁kavaleri	-11.2131
▁regulere	-11.2131
▁utpekt	-11.2131
▁styrmann	-11.2131
▁revidert	-11.2131
▁fascist	-11.2131
▁drømme	-11.2131
▁sahara	-11.2131
▁valdres	-11.2131
▁barnehage	-11.2132
▁umulig	-11.2132
▁snorre	-11.2134
▁akutt	-11.2134
▁gyldig	-11.2135
▁armensk	-11.215
ingsrepresentant	-11.2197
kommando	-11.2445
biskop	-11.2445
klima	-11.2447
analyse	-11.2456
▁insekt	-11.2472
▁støp	-11.2602
▁aluminium	-11.2607
▁ammunisjon	-11.2607
▁begrensninger	-11.2607
▁dekkvingene	-11.2607
▁ekteparet	-11.2607
▁habsburg	-11.2607
▁infrastruktur	-11.2607
▁köln	-11.2607
▁normandie	-11.2607
▁novgorod	-11.2607
▁ordenstegnet	-11.2607
▁parallelt	-11.2607
▁tanzania	-11.2607
▁skjult	-11.2607
▁wergeland	-11.2607
▁gerilja	-11.2607
▁praktisere	-11.2607
▁sicilia	-11.2607
▁gjenforent	-11.2607
▁reaktor	-11.2607
▁skihopper	-11.2607
▁leopard	-11.2607
▁minnesmerke	-11.2607
▁paraná	-11.2607
▁rockeband	-11.2607
▁nedrykk	-11.2607
▁husholdning	-11.2607
▁castle	-11.2607
▁ulovlig	-11.2607
▁gudstjeneste	-11.2607
▁ntnu	-11.2607
▁rhinen	-11.2608
eksamin	-11.2608
▁charlie	-11.2608
▁skåne	-11.2608
▁onsdag	-11.2608
▁stemning	-11.2608
▁bjerk	-11.2608
▁hvelv	-11.2608
marskalk	-11.2609
▁flyvning	-11.2609
belønnet	-11.2613
▁kjæreste	-11.2614
▁fasade	-11.2614
▁levninge	-11.2624
årskrigen	-11.2626
▁rytme	-11.2633
▁federa	-11.2647
satsing	-11.2675
▁kallenavne	-11.2687
gjerning	-11.2826
▁dobbel	-11.2904
historiker	-11.2945
flyttet	-11.2946
ground	-11.3037
seilte	-11.3102
▁kringkasting	-11.3107
▁investerings	-11.3107
▁konklusjon	-11.3107
▁business	-11.3107
▁diskutert	-11.3107
▁distribusjon	-11.3107
▁forfulgt	-11.3107
▁guangdong	-11.3107
0	-11.837
