<unk>	0
<s>	0
</s>	0
.	-3.18763
s	-3.36409
e	-3.53336
▁i	-3.90656
▁	-3.917
▁og	-4.05288
en	-4.06078
t	-4.06276
er	-4.07489
r	-4.48709
▁er	-4.57603
▁av	-4.64486
n	-4.84178
▁en	-4.86772
et	-4.90021
▁for	-4.99125
▁som	-5.00667
▁til	-5.05954
a	-5.06314
▁på	-5.13429
▁med	-5.15286
▁den	-5.42235
▁var	-5.4812
▁de	-5.50914
▁ble	-5.52645
i	-5.54781
k	-5.54847
▁fra	-5.58571
ene	-5.65029
d	-5.65399
▁det	-5.66676
▁har	-5.71062
o	-5.7381
ne	-5.76545
▁et	-5.77629
y	-5.88495
▁han	-5.93618
g	-5.97819
te	-6.01516
▁å	-6.02881
m	-6.07313
▁ved	-6.17881
p	-6.20147
l	-6.24249
de	-6.24763
▁også	-6.27752
re	-6.29441
f	-6.34099
h	-6.3783
in	-6.40552
▁ut	-6.43147
▁s	-6.43214
▁under	-6.43824
▁at	-6.43906
▁eller	-6.4421
▁om	-6.44369
ing	-6.47066
c	-6.4951
▁etter	-6.49642
us	-6.52753
▁kan	-6.5341
▁opp	-6.54138
u	-6.54467
b	-6.55794
al	-6.5625
▁to	-6.56353
▁a	-6.56589
v	-6.59339
▁be	-6.60937
an	-6.64236
ter	-6.6478
▁over	-6.66743
na	-6.71883
▁inn	-6.73963
▁18	-6.74879
▁da	-6.76281
sk	-6.76293
is	-6.78415
▁the	-6.80172
le	-6.8432
on	-6.86439
▁m	-6.86816
▁men	-6.88828
ia	-6.89943
▁andre	-6.90332
▁f	-6.9087
ende	-6.91522
ar	-6.9558
▁seg	-6.95817
w	-6.96424
▁hadde	-6.96585
el	-6.98634
z	-6.98895
▁sin	-6.99091
▁mellom	-6.99576
▁re	-6.99603
▁mot	-7.00629
ke	-7.01346
▁se	-7.01969
la	-7.03772
ri	-7.05031
▁g	-7.05824
▁b	-7.07163
um	-7.073
ch	-7.07529
▁tre	-7.07744
ur	-7.08104
▁ligger	-7.08683
x	-7.08806
▁u	-7.09113
land	-7.09192
▁ikke	-7.09805
▁ha	-7.10036
ens	-7.11572
▁la	-7.12235
▁hans	-7.12404
▁k	-7.13078
j	-7.13169
ng	-7.13358
▁d	-7.13413
ma	-7.14696
▁p	-7.15184
▁1	-7.15302
li	-7.16628
ta	-7.17167
▁c	-7.18027
or	-7.18861
▁født	-7.18958
da	-7.20871
ra	-7.21744
▁ca	-7.21775
▁blant	-7.21942
il	-7.22614
isk	-7.25931
ck	-7.26708
▁man	-7.27321
be	-7.27371
nde	-7.27472
▁dette	-7.27682
▁an	-7.28457
▁nord	-7.28625
▁gjennom	-7.28911
▁al	-7.29301
▁h	-7.2964
ske	-7.29999
ning	-7.30649
▁hun	-7.3128
▁pi	-7.31537
▁of	-7.31797
nes	-7.32197
iske	-7.32672
ver	-7.32697
lig	-7.33295
▁le	-7.34017
▁første	-7.35111
ø	-7.35552
▁her	-7.36027
ga	-7.36107
▁sammen	-7.36716
2	-7.37481
▁t	-7.3773
ka	-7.38762
ut	-7.39828
ger	-7.39884
to	-7.39899
▁flere	-7.40062
é	-7.40081
▁der	-7.4041
▁17	-7.40728
ler	-7.40869
pp	-7.4204
▁fikk	-7.42577
ce	-7.43174
ul	-7.44018
der	-7.44426
▁denne	-7.44484
øy	-7.4489
▁kom	-7.45148
for	-7.46095
▁bo	-7.46274
▁2	-7.463
kk	-7.4677
ff	-7.48539
it	-7.49646
lo	-7.50042
▁stor	-7.50042
os	-7.50158
stad	-7.50353
as	-7.51091
▁ny	-7.5141
▁16	-7.51698
son	-7.51789
ge	-7.52286
bo	-7.5255
ry	-7.52766
ic	-7.53523
at	-7.53837
å	-7.53847
th	-7.5396
mo	-7.54102
▁l	-7.54254
▁in	-7.54581
▁v	-7.55271
▁co	-7.55288
di	-7.55692
▁vi	-7.56328
▁alle	-7.5634
ja	-7.56636
ad	-7.56716
ig	-7.5683
id	-7.56844
▁ra	-7.57165
tt	-7.57272
ro	-7.58077
▁sp	-7.58427
▁sa	-7.59018
ton	-7.59095
ve	-7.59439
man	-7.59944
▁hvor	-7.60864
▁15	-7.60865
▁pa	-7.60942
▁5	-7.61473
▁blir	-7.63286
▁st	-7.6355
▁kommune	-7.63566
▁ga	-7.63775
▁hoved	-7.63798
ol	-7.63914
▁annet	-7.64062
▁tidligere	-7.64217
den	-7.64394
ner	-7.6474
▁and	-7.6561
▁3	-7.65986
▁ro	-7.66002
ist	-7.6608
▁by	-7.66522
ik	-7.67026
kt	-7.67842
▁ta	-7.68129
▁n	-7.68515
▁sør	-7.68908
▁mer	-7.69412
ha	-7.69678
▁li	-7.6968
ti	-7.70077
vis	-7.70124
co	-7.70278
▁as	-7.70407
pe	-7.70491
▁o	-7.70523
▁di	-7.70556
mann	-7.70807
ker	-7.72134
by	-7.72242
mi	-7.72688
▁del	-7.72827
ni	-7.73117
ir	-7.73308
▁norsk	-7.73576
berg	-7.73683
lige	-7.73715
▁år	-7.73959
vi	-7.74495
dal	-7.75159
▁na	-7.75364
▁disse	-7.75561
var	-7.75729
▁før	-7.75818
▁kon	-7.75867
ør	-7.75882
▁he	-7.75906
gen	-7.77003
▁j	-7.77167
▁ni	-7.77206
▁mange	-7.77518
ko	-7.77768
ba	-7.77913
▁du	-7.77929
▁kinesisk	-7.78191
▁mens	-7.78208
▁ti	-7.79455
ling	-7.79673
▁no	-7.79893
▁ar	-7.80136
▁vest	-7.80291
bi	-7.80409
va	-7.80417
▁do	-7.80501
▁per	-7.81277
æ	-7.81556
▁død	-7.81675
▁si	-7.81883
▁ned	-7.82006
▁ba	-7.82134
▁byen	-7.82139
▁går	-7.8222
▁4	-7.82235
▁ma	-7.827
▁10	-7.8294
▁så	-7.84327
ell	-7.84565
▁mo	-7.84565
▁sitt	-7.84884
me	-7.84913
do	-7.85332
ed	-7.85687
▁pro	-7.85737
▁r	-7.86574
▁po	-7.87053
▁mest	-7.87307
erte	-7.87325
▁su	-7.8782
▁store	-7.87918
▁ho	-7.88
▁ofte	-7.88585
á	-7.88662
het	-7.8882
▁navnet	-7.89112
▁bar	-7.89112
▁øst	-7.89142
▁kina	-7.89406
▁mar	-7.8956
▁lo	-7.89569
asjon	-7.89723
▁samt	-7.89734
▁senere	-7.89861
im	-7.90364
▁me	-7.90576
▁noen	-7.90622
skap	-7.90811
mer	-7.91218
rett	-7.91324
▁7	-7.91391
gg	-7.91433
▁el	-7.91892
av	-7.92198
ang	-7.92437
▁navn	-7.9263
▁fri	-7.92645
▁bi	-7.92888
ring	-7.93342
io	-7.93364
▁w	-7.93615
3	-7.93757
▁mi	-7.93996
else	-7.94135
ö	-7.94193
je	-7.94489
▁fa	-7.95034
▁kalt	-7.95379
▁lu	-7.95687
ov	-7.95833
▁ka	-7.95894
▁land	-7.96301
5	-7.9634
sh	-7.9648
gi	-7.9672
om	-7.96787
men	-7.96796
ven	-7.97055
▁6	-7.97343
▁tid	-7.97873
▁8	-7.981
si	-7.98309
▁ru	-7.98755
▁finnes	-7.99128
les	-7.99133
▁mor	-7.99257
bu	-7.99354
▁kjent	-7.99377
sjon	-7.99521
ie	-7.99599
go	-7.9969
erne	-7.99792
▁ri	-7.99862
▁være	-7.99993
au	-8.00278
ok	-8.00475
ot	-8.00534
▁bu	-8.00622
▁skal	-8.00955
lin	-8.01249
vik	-8.0129
▁frem	-8.01518
▁y	-8.01557
po	-8.01879
▁12	-8.01882
▁siden	-8.02245
▁or	-8.02254
▁13	-8.02258
ster	-8.02317
▁bak	-8.0244
▁grunn	-8.0247
▁fire	-8.02546
am	-8.02601
▁bestå	-8.03007
del	-8.03232
▁lag	-8.03644
▁vil	-8.03777
ll	-8.03856
▁far	-8.03982
▁gu	-8.04281
per	-8.04413
▁gi	-8.04415
ikk	-8.04543
ær	-8.04679
un	-8.04938
▁sch	-8.05869
ard	-8.06351
▁selv	-8.06577
ion	-8.06711
opp	-8.06932
▁rundt	-8.07104
mp	-8.07167
pa	-8.07479
sta	-8.07519
sel	-8.07746
▁sol	-8.08051
▁dag	-8.08344
op	-8.08389
ment	-8.08511
ste	-8.0857
gu	-8.09381
▁både	-8.09667
ho	-8.10091
ant	-8.10114
▁hos	-8.10326
▁ham	-8.10332
tal	-8.10396
▁9	-8.10482
over	-8.10682
▁11	-8.11027
▁sine	-8.113
itt	-8.11347
ering	-8.11849
ly	-8.11982
ns	-8.12277
▁so	-8.13243
▁am	-8.13698
ord	-8.13973
▁nå	-8.14019
od	-8.14368
vin	-8.15371
ian	-8.16206
gang	-8.16324
▁fi	-8.16584
▁fly	-8.16623
▁jo	-8.16637
▁film	-8.16928
iv	-8.17169
elle	-8.17676
ü	-8.1795
▁tor	-8.18002
▁mål	-8.18566
min	-8.18611
hu	-8.187
▁lang	-8.18785
ud	-8.19077
▁ei	-8.1932
no	-8.19468
4	-8.19541
▁skole	-8.19608
lag	-8.19879
tra	-8.20029
ow	-8.20037
ag	-8.20293
år	-8.20699
▁14	-8.20804
ny	-8.20832
▁kr	-8.2105
▁te	-8.21104
1	-8.21107
▁con	-8.21254
▁ol	-8.21314
ber	-8.21381
hold	-8.21585
ede	-8.21636
▁ko	-8.21775
▁mai	-8.21892
▁nor	-8.22006
▁norske	-8.23043
▁ab	-8.23055
▁fram	-8.23057
ina	-8.23136
▁største	-8.23152
bar	-8.23311
▁car	-8.23355
mb	-8.23592
lu	-8.23707
ru	-8.23935
▁tra	-8.2415
yl	-8.24359
▁wa	-8.24508
▁tri	-8.24547
▁sam	-8.24548
▁vann	-8.24714
▁russisk	-8.24758
▁kirke	-8.24816
ty	-8.24845
ca	-8.24878
▁kalles	-8.24977
▁john	-8.25308
dag	-8.25328
▁sønn	-8.25395
▁0	-8.25776
stand	-8.25854
▁vant	-8.2599
ong	-8.2633
í	-8.26463
▁eks	-8.26538
▁norge	-8.26611
▁pre	-8.26658
▁høy	-8.26766
▁ad	-8.26865
▁pe	-8.27152
▁hu	-8.27171
ron	-8.27377
▁når	-8.27723
▁engelsk	-8.28024
▁musikk	-8.28356
▁vært	-8.2865
ningen	-8.28661
▁km	-8.28681
siden	-8.28692
ingen	-8.28764
▁innen	-8.29048
▁par	-8.29477
▁bra	-8.2978
sted	-8.29827
▁samme	-8.30074
▁20	-8.30379
▁san	-8.3047
hus	-8.30636
▁go	-8.30649
6	-8.30834
ft	-8.31103
▁x	-8.31139
▁ne	-8.31326
▁provinsen	-8.31419
▁små	-8.31453
ley	-8.31502
▁fjell	-8.31567
▁fem	-8.31731
▁tro	-8.31732
▁august	-8.3183
tro	-8.32016
ium	-8.32021
und	-8.32177
▁all	-8.32671
▁alt	-8.32815
em	-8.32871
ci	-8.32872
▁må	-8.32894
▁enn	-8.32951
▁ja	-8.3301
▁hel	-8.33047
▁mars	-8.33372
▁tallet	-8.33599
▁området	-8.3376
▁nær	-8.34022
hi	-8.34038
ting	-8.34217
ation	-8.34281
▁slik	-8.34525
ld	-8.34641
tur	-8.34676
▁langs	-8.34858
▁juli	-8.35147
▁kunne	-8.356
ier	-8.35619
stein	-8.36359
▁laget	-8.36478
nyin	-8.36484
▁øy	-8.36489
▁gjen	-8.36635
▁leder	-8.37087
art	-8.37103
est	-8.37173
dan	-8.37217
▁my	-8.37453
▁kunst	-8.37483
ill	-8.37588
ninger	-8.37846
▁lever	-8.37894
len	-8.38407
00	-8.38705
mar	-8.38815
▁tok	-8.38829
▁nye	-8.38842
ius	-8.38938
ung	-8.3922
▁ak	-8.39221
▁like	-8.3931
verk	-8.39365
▁gift	-8.40335
▁utgitt	-8.40469
7	-8.40581
▁gikk	-8.40795
tisk	-8.41156
▁hele	-8.413
▁ge	-8.41457
tak	-8.41619
▁spiller	-8.41657
▁kn	-8.41745
este	-8.41818
ó	-8.4192
▁bro	-8.42004
kom	-8.42301
▁bok	-8.42364
▁ski	-8.42406
▁fast	-8.4243
▁kultur	-8.42569
▁min	-8.42578
tid	-8.42604
▁blit	-8.42714
▁oslo	-8.4281
▁bare	-8.43064
▁ju	-8.43091
ki	-8.43293
▁tilhører	-8.43501
fa	-8.43681
ä	-8.43786
▁gir	-8.43919
ip	-8.44062
inger	-8.44362
▁januar	-8.44461
ku	-8.44673
nd	-8.44757
vo	-8.4477
▁tv	-8.44782
tor	-8.4498
▁syn	-8.44985
ica	-8.45181
▁gruppen	-8.45219
▁wi	-8.45929
satt	-8.45939
mon	-8.45982
sson	-8.4661
dd	-8.46778
burg	-8.4691
ak	-8.46919
gel	-8.46952
▁folke	-8.46958
▁spilte	-8.46998
▁skulle	-8.47196
▁noe	-8.4731
▁bli	-8.47375
▁videre	-8.47464
▁rekke	-8.47503
pi	-8.47691
▁kl	-8.47769
▁innenfor	-8.47771
ou	-8.47882
▁brukes	-8.47882
▁form	-8.48008
▁ben	-8.48251
ine	-8.48309
▁sand	-8.48326
▁hus	-8.48341
bel	-8.48646
▁ed	-8.4878
tre	-8.49024
▁ki	-8.4936
inn	-8.49466
▁tysk	-8.49671
▁rett	-8.49766
▁mel	-8.49884
▁konge	-8.49901
ham	-8.5014
▁kommer	-8.50231
▁2010	-8.50271
til	-8.50499
▁eksempel	-8.50516
▁meter	-8.50707
▁fo	-8.50807
kker	-8.50851
jo	-8.51072
▁em	-8.51237
tten	-8.5131
ans	-8.5135
▁deres	-8.51459
isme	-8.51612
idae	-8.51764
▁kjente	-8.52033
▁parti	-8.52093
ek	-8.52184
▁new	-8.52198
kon	-8.52268
my	-8.52282
ige	-8.52533
ph	-8.52585
du	-8.52837
▁sjø	-8.52838
▁ty	-8.5288
▁tillegg	-8.53005
▁skrev	-8.53178
▁we	-8.5327
8	-8.53296
ju	-8.53329
▁midt	-8.53487
▁ste	-8.53524
▁kong	-8.53554
▁dem	-8.53726
▁pu	-8.53876
▁dr	-8.53906
borg	-8.54012
▁kal	-8.54032
▁tilbake	-8.54232
chi	-8.54358
sp	-8.54715
følge	-8.54874
res	-8.55139
▁ch	-8.55204
jø	-8.55264
▁april	-8.55311
mål	-8.55395
tin	-8.55567
▁jord	-8.5559
tar	-8.55719
▁berg	-8.55843
▁begge	-8.56143
br	-8.56479
anske	-8.56677
▁ulike	-8.56678
kle	-8.56822
▁val	-8.57157
lse	-8.57209
▁stein	-8.57452
▁hennes	-8.57502
bb	-8.57524
ble	-8.57705
tiv	-8.57872
▁fransk	-8.58141
nn	-8.58208
▁halv	-8.58211
▁sk	-8.58284
mme	-8.58388
▁kar	-8.58405
▁gul	-8.58475
tes	-8.58489
ac	-8.58495
▁kort	-8.58506
▁lå	-8.58528
▁brun	-8.58669
nings	-8.58761
mor	-8.5878
▁z	-8.58803
tan	-8.58817
dre	-8.58994
▁usa	-8.59093
▁ur	-8.59118
▁opprinnelig	-8.59205
ken	-8.59401
and	-8.59539
ug	-8.59559
▁egen	-8.59608
▁mat	-8.59831
fe	-8.59855
tte	-8.59967
▁vel	-8.60342
▁språk	-8.60564
▁2006	-8.60644
▁folkerepublikk	-8.60922
▁2008	-8.61061
▁sv	-8.61082
▁juni	-8.6119
▁liv	-8.61305
▁uten	-8.61334
▁ku	-8.61352
slag	-8.61661
stre	-8.61883
ologi	-8.61911
tiske	-8.61942
▁vei	-8.62494
▁februar	-8.62669
itet	-8.62675
▁hen	-8.62766
▁2009	-8.6297
kel	-8.62979
ving	-8.63025
▁omfatter	-8.6307
ska	-8.63175
▁mindre	-8.63282
▁vise	-8.63414
▁seks	-8.63526
▁verk	-8.63568
▁ver	-8.6358
ich	-8.63615
▁landet	-8.63716
sten	-8.63757
fi	-8.63782
▁gud	-8.64028
enes	-8.64088
familien	-8.64187
ran	-8.64301
▁000	-8.64326
▁inneholde	-8.64455
▁vin	-8.64456
▁sett	-8.64468
▁30	-8.64479
log	-8.64524
▁art	-8.64639
▁oktober	-8.64746
▁filmen	-8.64831
9	-8.6505
par	-8.65212
▁on	-8.65215
▁verdens	-8.65244
▁va	-8.65305
lands	-8.65336
▁desember	-8.65347
▁bas	-8.65362
▁hver	-8.65394
▁kor	-8.65608
▁bor	-8.65791
dalen	-8.65833
▁2007	-8.65962
heim	-8.66187
▁kun	-8.66195
ding	-8.6624
▁skrevet	-8.6625
▁særlig	-8.66286
▁bil	-8.66468
fly	-8.66602
▁sta	-8.6661
ya	-8.66719
uk	-8.66837
▁gang	-8.66911
▁hol	-8.67132
▁betyr	-8.67177
if	-8.67349
dy	-8.67393
vel	-8.67417
tz	-8.67644
▁plan	-8.67668
▁fl	-8.67793
▁lov	-8.67807
▁president	-8.67829
▁25	-8.67885
▁rød	-8.67919
ator	-8.67941
elsen	-8.68011
▁siste	-8.68028
▁cha	-8.68293
ab	-8.68327
let	-8.68355
▁chi	-8.68409
▁gamle	-8.68412
nk	-8.68516
lan	-8.6855
▁bru	-8.69051
▁hav	-8.69235
▁selskapet	-8.69342
▁stra	-8.69363
▁familien	-8.69483
wa	-8.69559
▁sj	-8.69598
rik	-8.69625
kor	-8.69659
▁roman	-8.6975
▁pan	-8.69766
bil	-8.69961
▁ag	-8.70019
▁mu	-8.70044
▁ord	-8.70192
▁kommunen	-8.70223
tiden	-8.70287
▁igjen	-8.70308
▁først	-8.70322
▁sal	-8.70493
▁bandet	-8.70651
▁god	-8.70664
▁anti	-8.70739
▁derfor	-8.70851
eres	-8.71135
▁ke	-8.71159
dig	-8.71316
▁fag	-8.71389
▁nasjonal	-8.71402
ide	-8.71405
så	-8.71406
far	-8.71594
ct	-8.71611
ris	-8.71703
lå	-8.71705
▁op	-8.71856
▁mag	-8.7188
nder	-8.71979
fra	-8.71999
▁rom	-8.72096
▁innbyggere	-8.72538
▁tur	-8.72639
▁grav	-8.73128
bok	-8.73131
▁september	-8.73188
▁os	-8.73348
za	-8.73362
▁lokal	-8.73417
▁sentral	-8.73477
øya	-8.73542
▁beste	-8.73713
▁styre	-8.73724
▁bruker	-8.73927
vei	-8.74113
▁bruk	-8.7416
и	-8.74217
lys	-8.74721
▁gl	-8.74833
jer	-8.7516
spill	-8.75183
sto	-8.7543
▁står	-8.75475
▁november	-8.75499
▁imidlertid	-8.75499
▁2005	-8.75515
pen	-8.75625
▁van	-8.7563
zi	-8.7574
▁kv	-8.75751
form	-8.75757
▁gjerne	-8.75917
▁skog	-8.75946
▁tar	-8.76048
▁valg	-8.76261
ari	-8.76423
he	-8.76531
▁få	-8.76699
▁com	-8.76887
ah	-8.77028
mmer	-8.77195
▁sen	-8.77406
▁mari	-8.77461
tel	-8.77498
bruk	-8.77538
▁norges	-8.77594
о	-8.7787
▁ingen	-8.77916
▁sak	-8.77935
▁br	-8.78001
mat	-8.78081
dom	-8.78241
▁fu	-8.78385
rede	-8.7849
▁general	-8.78563
▁lys	-8.78634
▁følgende	-8.78707
cu	-8.78891
stilling	-8.78915
▁bl	-8.7898
ā	-8.78998
og	-8.79081
▁peter	-8.79271
▁von	-8.79273
▁deretter	-8.79309
▁mark	-8.79439
met	-8.79473
stasjon	-8.7949
▁stil	-8.79732
▁industri	-8.79757
▁helt	-8.79864
up	-8.79869
ks	-8.79939
bl	-8.79954
fjorden	-8.80099
leder	-8.80116
kar	-8.80234
bro	-8.8037
ap	-8.80449
ida	-8.80627
▁gri	-8.80699
▁gull	-8.80924
val	-8.81143
▁barn	-8.81308
▁ber	-8.81388
▁hy	-8.82009
▁ren	-8.82047
50	-8.82146
▁mil	-8.82201
▁tekst	-8.82261
▁natur	-8.82261
▁tu	-8.82307
▁gen	-8.82335
▁mont	-8.82524
▁dikt	-8.82597
▁blå	-8.8262
▁større	-8.82669
ji	-8.8271
tig	-8.82735
▁gresk	-8.8277
▁svært	-8.82773
sett	-8.82776
а	-8.82785
ister	-8.82916
▁eu	-8.82946
▁bur	-8.83006
ai	-8.83007
▁fiske	-8.83013
е	-8.83084
▁etablert	-8.83128
yn	-8.83303
▁moh	-8.83349
dyr	-8.8344
▁via	-8.83496
▁ex	-8.83561
ski	-8.83598
skole	-8.83668
ino	-8.83817
▁fre	-8.84143
▁brukt	-8.84316
▁22	-8.84584
tatt	-8.84746
▁dagen	-8.85098
▁gre	-8.8513
▁motor	-8.85159
▁mc	-8.85386
▁bre	-8.85413
▁paul	-8.85446
van	-8.85477
▁fotball	-8.85582
▁nest	-8.85602
sch	-8.85798
▁lav	-8.85925
▁sig	-8.8595
rom	-8.8599
banen	-8.86079
▁don	-8.86147
▁barne	-8.86327
н	-8.86395
▁kj	-8.86395
▁begynte	-8.86425
▁side	-8.86436
▁au	-8.86485
mel	-8.8649
▁col	-8.86583
▁øya	-8.86694
▁nett	-8.86724
mark	-8.86725
▁mac	-8.86798
▁dermed	-8.86853
▁jan	-8.86928
▁basert	-8.86973
▁lands	-8.87031
film	-8.87096
sj	-8.87171
▁nu	-8.87272
▁af	-8.87429
som	-8.87436
▁svensk	-8.87437
▁slekt	-8.87511
lev	-8.87626
sund	-8.87635
▁gjorde	-8.87894
▁lange	-8.87924
▁2002	-8.87958
q	-8.8797
tri	-8.88053
▁sl	-8.88062
▁cor	-8.88205
▁vis	-8.88515
▁startet	-8.88549
▁mye	-8.88558
vet	-8.88576
▁park	-8.88738
▁luft	-8.8876
▁året	-8.88784
▁un	-8.8882
▁døde	-8.89022
▁person	-8.89024
ð	-8.89067
isering	-8.89224
▁sto	-8.89335
▁mm	-8.89411
skog	-8.89488
▁pol	-8.89505
▁bill	-8.89545
▁lett	-8.89587
anlegg	-8.89758
bygg	-8.89939
▁hal	-8.90179
▁orden	-8.90194
▁band	-8.90199
▁fylkesvei	-8.90232
▁you	-8.90257
▁21	-8.90319
▁dann	-8.90351
▁elven	-8.90406
▁fin	-8.90432
▁pr	-8.90453
▁stat	-8.90614
▁tidlig	-8.90695
landet	-8.90782
▁sang	-8.90874
ita	-8.90975
▁vo	-8.90998
leg	-8.91041
ps	-8.91174
▁sommer	-8.91226
inne	-8.91274
▁farge	-8.91276
▁medlem	-8.91288
▁dia	-8.91468
▁ska	-8.91515
▁klar	-8.9158
lle	-8.91623
elig	-8.917
ach	-8.91729
laget	-8.91755
akt	-8.91838
fjord	-8.91973
▁amerikansk	-8.92005
▁ve	-8.92048
▁sc	-8.92093
ds	-8.92115
tu	-8.92133
gar	-8.92334
▁rø	-8.92443
▁satt	-8.92455
veien	-8.92464
▁fylke	-8.92629
▁arm	-8.92657
▁tyske	-8.92756
▁ac	-8.92758
▁mal	-8.92901
▁vanligvis	-8.92994
▁post	-8.93168
▁tom	-8.9318
hy	-8.93243
ana	-8.93245
▁sm	-8.93255
▁arbeids	-8.93272
▁dis	-8.93368
ale	-8.93398
▁sommerfugl	-8.93417
▁19	-8.93515
▁datter	-8.93616
ini	-8.93652
▁can	-8.93692
▁sh	-8.9387
system	-8.93884
▁erik	-8.93929
▁sverige	-8.94167
▁mon	-8.94234
▁fant	-8.94246
▁gy	-8.94267
▁liste	-8.94471
▁carl	-8.94491
ika	-8.94493
▁såkalt	-8.94571
▁karl	-8.94689
ford	-8.94808
ze	-8.94816
▁får	-8.94886
▁radio	-8.95035
før	-8.95154
▁christian	-8.95228
▁je	-8.95436
▁vol	-8.95443
▁sangen	-8.95529
su	-8.95696
▁gammel	-8.9579
▁lyd	-8.95881
che	-8.95971
tion	-8.96068
▁forskjellige	-8.96092
▁støtte	-8.96144
istiske	-8.96171
▁albumet	-8.96365
han	-8.96444
▁ten	-8.96593
▁helse	-8.96903
ight	-8.96961
▁årene	-8.97001
▁samtidig	-8.97024
▁forfatter	-8.97116
syn	-8.97167
▁familie	-8.97216
▁24	-8.9726
▁pl	-8.97266
▁hi	-8.97354
gan	-8.97368
pro	-8.97385
▁spesielt	-8.97438
fin	-8.97441
▁europa	-8.9746
stra	-8.97635
lær	-8.97715
vær	-8.97766
▁historie	-8.981
xi	-8.98179
samling	-8.98463
▁tak	-8.98554
▁versjon	-8.98565
istisk	-8.98578
р	-8.98649
▁topp	-8.9868
bre	-8.98744
ola	-8.98769
▁samarbeid	-8.98811
▁hø	-8.99003
▁28	-8.99502
ære	-8.99529
ket	-8.99536
▁serien	-8.99541
▁bygget	-8.99564
▁jeg	-8.99619
▁tr	-8.99886
pris	-8.99935
vern	-8.99972
▁arbeider	-8.99997
▁para	-9.0003
ive	-9.00068
arbeid	-9.00385
ves	-9.00473
▁sil	-9.00584
jen	-9.00674
▁litt	-9.00822
▁omkring	-9.00823
▁za	-9.00959
way	-9.01126
▁besto	-9.01127
mm	-9.0124
▁gar	-9.01268
mu	-9.01344
▁lin	-9.01375
▁lik	-9.01478
▁mann	-9.0154
ay	-9.01588
▁gra	-9.01688
▁ul	-9.0183
rak	-9.01856
bygd	-9.01867
mester	-9.01878
▁gate	-9.01882
▁ly	-9.01905
▁stats	-9.01909
är	-9.02051
▁rock	-9.02071
▁foran	-9.02106
▁keiser	-9.02131
10	-9.02147
▁dy	-9.02184
gh	-9.02237
▁johan	-9.02492
forening	-9.02507
ú	-9.02557
ī	-9.02557
lene	-9.02601
ev	-9.02633
legg	-9.02654
▁jernbane	-9.02743
▁vinter	-9.02809
▁ser	-9.02866
kjøp	-9.02944
▁viser	-9.0312
▁annen	-9.03179
▁xi	-9.03393
kan	-9.03586
▁mod	-9.03638
▁blad	-9.03781
iz	-9.03838
pl	-9.03856
▁2011	-9.0389
▁måtte	-9.03931
▁ry	-9.03958
▁bror	-9.04385
mand	-9.04578
vann	-9.04633
▁tredje	-9.0475
▁bergen	-9.04793
▁kla	-9.048
▁gro	-9.04816
▁hei	-9.04853
▁rev	-9.04866
ros	-9.04918
▁klubben	-9.05002
▁sha	-9.05004
▁bal	-9.05074
▁egne	-9.05354
▁teater	-9.05377
▁ci	-9.05415
▁minne	-9.05428
с	-9.05442
ther	-9.05547
▁italiensk	-9.05668
▁dessuten	-9.05668
rud	-9.057
▁fil	-9.05755
sak	-9.05757
navnet	-9.05762
▁2004	-9.05762
▁utenfor	-9.05773
løp	-9.05841
▁sosial	-9.05955
▁amerikanske	-9.05962
dde	-9.06012
▁full	-9.06016
føring	-9.06071
▁slag	-9.06141
▁kra	-9.06223
ij	-9.06264
▁serie	-9.0628
20	-9.06363
mal	-9.06416
▁grad	-9.06418
▁hår	-9.06449
▁opera	-9.06495
▁ap	-9.06496
▁plass	-9.06501
spiller	-9.06724
har	-9.06755
▁mos	-9.06799
▁produsert	-9.06823
anger	-9.06865
▁fred	-9.06963
▁inkludert	-9.07032
▁representert	-9.07032
▁william	-9.07032
▁fla	-9.07042
liv	-9.07053
▁fleste	-9.07069
isert	-9.07187
▁liten	-9.07307
kje	-9.07323
age	-9.07375
▁gav	-9.07459
▁system	-9.07488
▁ville	-9.07527
med	-9.07745
▁dekk	-9.07808
▁lille	-9.07985
jel	-9.07991
▁høyeste	-9.08006
stilt	-9.08044
▁skuespiller	-9.08216
port	-9.08233
è	-9.08354
asjonen	-9.08448
fall	-9.0847
ighet	-9.08507
kul	-9.08559
▁kur	-9.08568
▁bø	-9.08878
gård	-9.0897
all	-9.0916
ssen	-9.09189
▁fv	-9.09197
▁skr	-9.09202
klass	-9.09435
▁svart	-9.09462
mus	-9.09473
▁latin	-9.09483
▁utgjør	-9.09502
▁stemme	-9.09519
▁spilt	-9.09714
40	-9.09791
▁kyst	-9.09872
▁robert	-9.09894
▁ras	-9.09898
▁sted	-9.10153
ib	-9.10277
▁ør	-9.10338
▁pat	-9.1058
spi	-9.10644
▁betydning	-9.10761
▁utviklet	-9.10787
bert	-9.10814
bygging	-9.1089
▁distrikt	-9.10976
bø	-9.10993
▁26	-9.11022
old	-9.11104
▁kro	-9.11225
bane	-9.11238
området	-9.11285
bus	-9.11295
▁bygge	-9.11303
▁sø	-9.1139
rus	-9.11451
▁bjørn	-9.11569
lie	-9.11588
don	-9.11664
▁grå	-9.11912
selskap	-9.1202
▁2000	-9.12042
▁maria	-9.12059
ata	-9.12112
▁viktigste	-9.12239
▁gruppe	-9.12248
▁skolen	-9.12357
▁bør	-9.12543
▁modell	-9.12633
vil	-9.12724
ind	-9.12774
dra	-9.12826
▁west	-9.1283
▁ob	-9.12881
råd	-9.12886
forbund	-9.12902
▁start	-9.13037
sjøen	-9.13157
rin	-9.13199
▁100	-9.13212
valg	-9.13302
ire	-9.13307
punkt	-9.13373
ish	-9.13387
▁heter	-9.13399
▁stjerne	-9.13456
▁spor	-9.13476
▁deler	-9.1349
byen	-9.13684
▁herre	-9.13728
▁lars	-9.13899
▁student	-9.13915
▁utvikling	-9.13942
▁dan	-9.13961
▁bort	-9.14009
▁ledet	-9.14025
▁eid	-9.14157
asjoner	-9.14208
▁olav	-9.14251
iet	-9.14343
bas	-9.14355
▁arbeidet	-9.14369
ild	-9.14482
ette	-9.14512
cy	-9.14574
senter	-9.146
▁hovedsakelig	-9.14643
▁red	-9.14781
båt	-9.14785
▁kraft	-9.14799
lat	-9.1482
gjør	-9.15079
▁gjør	-9.1519
▁40	-9.15206
▁regn	-9.15257
▁eier	-9.15319
kken	-9.15336
30	-9.15345
las	-9.15452
▁hvert	-9.15533
▁23	-9.15545
hall	-9.15546
ges	-9.15634
ytter	-9.15751
minister	-9.15819
prosess	-9.15822
aksjon	-9.1583
lagt	-9.15851
▁hvit	-9.15968
α	-9.16129
▁standard	-9.1613
ath	-9.1631
▁sky	-9.1634
▁delstaten	-9.16422
ano	-9.16543
à	-9.16631
▁viktig	-9.16662
▁2001	-9.16667
side	-9.16716
▁handels	-9.16717
plass	-9.16728
▁martin	-9.16738
▁plante	-9.16824
ål	-9.16851
▁lind	-9.16992
ix	-9.17146
▁aktiv	-9.17151
tic	-9.17158
▁trans	-9.17178
▁menneske	-9.17199
▁david	-9.17234
▁følger	-9.17367
▁bank	-9.17381
bor	-9.17491
gruppen	-9.17667
ara	-9.17924
▁pri	-9.17942
▁tyskland	-9.17985
▁ring	-9.18026
kin	-9.18074
▁tittelen	-9.18109
▁finner	-9.18231
▁miljø	-9.18433
rev	-9.18444
▁arter	-9.18535
øv	-9.18546
▁produsere	-9.18667
øl	-9.18671
▁russland	-9.18672
▁cla	-9.18693
▁grunnlagt	-9.18705
▁moderne	-9.18705
▁stort	-9.18852
▁åtte	-9.18862
▁best	-9.18863
▁arkitekt	-9.18901
nom	-9.18923
▁godt	-9.18941
▁stre	-9.18961
▁war	-9.18997
▁tall	-9.19016
▁slutt	-9.19059
skip	-9.19107
hl	-9.19139
▁overtok	-9.19293
the	-9.19326
▁sub	-9.19328
▁mur	-9.19348
▁pla	-9.19376
▁led	-9.1947
grad	-9.19617
▁kre	-9.19634
ies	-9.19674
▁stedet	-9.19849
▁militær	-9.19909
▁års	-9.19946
stående	-9.20044
loven	-9.20048
▁tiden	-9.2008
fjell	-9.20154
kant	-9.20188
heten	-9.2026
fu	-9.20419
▁hånd	-9.20487
lia	-9.20619
kal	-9.20638
▁gran	-9.20714
▁thomas	-9.20772
▁deltok	-9.20815
lighet	-9.20831
liggende	-9.20834
▁internasjonale	-9.20886
produksjon	-9.20913
navn	-9.20921
eks	-9.20921
▁folk	-9.20952
▁hjelp	-9.21119
ão	-9.21296
▁les	-9.21682
dømme	-9.2174
kov	-9.21767
▁oppkalt	-9.21804
▁inter	-9.21817
▁kirken	-9.21867
▁dyr	-9.21937
pu	-9.2194
▁ek	-9.22032
itz	-9.22076
▁mus	-9.22084
▁bilde	-9.22091
▁kamp	-9.22284
▁ganger	-9.22377
zz	-9.22442
sjef	-9.22525
▁29	-9.2267
gren	-9.22679
misjon	-9.22764
▁port	-9.228
▁opprettet	-9.22871
▁krigs	-9.22902
▁riksvei	-9.22923
▁organ	-9.2293
aktig	-9.22957
▁våpen	-9.23028
ved	-9.23135
etter	-9.23143
▁es	-9.2323
▁31	-9.2326
tegn	-9.23282
skje	-9.23284
ferd	-9.23305
styre	-9.23428
menn	-9.2344
▁ordenen	-9.23574
37	-9.23596
hal	-9.23626
tale	-9.23693
▁hatt	-9.23701
▁blod	-9.2386
heng	-9.23871
▁prest	-9.24035
lsen	-9.24035
plan	-9.24051
án	-9.24076
▁vas	-9.2414
▁thor	-9.24147
▁gitt	-9.2424
▁fe	-9.24312
mannen	-9.24332
lik	-9.24406
▁fredrik	-9.24512
▁2003	-9.24516
ater	-9.24588
▁ø	-9.24613
▁ji	-9.24616
65	-9.24796
▁fortsatt	-9.24858
▁tal	-9.24933
lot	-9.24984
▁syd	-9.25024
д	-9.25035
▁tru	-9.2506
▁george	-9.25066
kast	-9.25086
søk	-9.25179
▁én	-9.25216
rum	-9.25237
▁q	-9.25368
▁svarte	-9.25429
▁olje	-9.25451
▁kongen	-9.25471
▁produksjon	-9.25474
▁nok	-9.25481
л	-9.25552
▁2012	-9.25602
ologisk	-9.25636
sky	-9.25775
▁energi	-9.25784
▁27	-9.25799
zo	-9.25863
▁tildelt	-9.25911
▁forhold	-9.25922
▁regnes	-9.25928
▁egg	-9.25929
▁representere	-9.26137
▁direkte	-9.26137
▁båt	-9.26145
▁felles	-9.26178
▁høyre	-9.26215
▁hall	-9.26233
▁sanger	-9.2627
▁super	-9.26295
get	-9.26387
rop	-9.26391
▁mulig	-9.2649
▁enkelte	-9.266
fag	-9.26678
▁sølv	-9.26695
rad	-9.26725
▁regi	-9.26817
stedet	-9.269
fest	-9.26978
▁uni	-9.26978
▁tele	-9.27043
fisk	-9.27154
ismen	-9.27186
cha	-9.27188
▁shi	-9.27205
område	-9.27236
▁universitet	-9.27295
▁hor	-9.27301
elser	-9.27366
▁vekt	-9.27372
sje	-9.27397
rike	-9.27428
▁nils	-9.27456
▁politi	-9.27586
▁arbeid	-9.27669
▁kilde	-9.27782
▁imp	-9.27834
ider	-9.28015
press	-9.28016
▁riks	-9.28137
fal	-9.28171
▁antall	-9.28196
ction	-9.28208
fri	-9.28232
▁type	-9.28282
▁rus	-9.28297
mun	-9.28435
gul	-9.28437
områder	-9.28462
▁vår	-9.285
▁partiet	-9.28648
▁internasjonal	-9.28794
▁50	-9.2896
▁angrep	-9.28993
▁strøm	-9.29006
fon	-9.29036
▁grønn	-9.29188
▁sel	-9.29216
▁yu	-9.2928
▁bom	-9.29335
retning	-9.29464
huset	-9.29646
▁lege	-9.29668
▁hjemme	-9.29685
rat	-9.29785
▁album	-9.29961
▁mis	-9.30054
▁slekten	-9.30073
▁1989	-9.30102
▁1990	-9.30103
▁dannet	-9.3015
dri	-9.30156
▁japansk	-9.30247
▁bygd	-9.30418
▁inkluderer	-9.3067
▁spesial	-9.30673
ub	-9.30862
oll	-9.30874
lett	-9.30891
▁kul	-9.30926
▁kvinne	-9.30943
▁felt	-9.30964
▁fall	-9.31067
ød	-9.31139
▁svenske	-9.31178
fl	-9.31183
oc	-9.313
sal	-9.31435
▁kunstner	-9.31449
48	-9.31494
lling	-9.31589
▁fer	-9.31626
cc	-9.31736
60	-9.31806
▁2013	-9.31848
▁gal	-9.31882
▁stasjon	-9.32014
▁ban	-9.32176
nu	-9.32212
rek	-9.32311
brudd	-9.32322
▁bred	-9.32334
▁dansk	-9.32337
▁wh	-9.32382
▁london	-9.32425
▁sendt	-9.32488
▁skrift	-9.32547
▁kjøpt	-9.32604
▁karakter	-9.32631
gitt	-9.3272
organ	-9.32738
▁cu	-9.32751
▁pris	-9.32772
▁air	-9.32841
▁reise	-9.32863
tus	-9.32901
▁jens	-9.32919
▁jon	-9.32995
▁hard	-9.33183
▁len	-9.33191
kamp	-9.33193
of	-9.33215
▁åpnet	-9.3329
ula	-9.33291
▁berlin	-9.3339
▁not	-9.33406
deling	-9.33481
▁havn	-9.33538
▁studie	-9.33583
▁design	-9.33679
▁wo	-9.33729
▁island	-9.33782
▁zh	-9.33964
▁informasjon	-9.33979
86	-9.34004
▁kol	-9.34014
▁mennesker	-9.34145
▁punkt	-9.34184
▁folketelling	-9.34211
▁politiker	-9.34268
▁lokale	-9.34286
ani	-9.34303
▁ph	-9.34378
iserte	-9.34464
ora	-9.34608
bygning	-9.34624
skrift	-9.34688
▁son	-9.34688
▁eg	-9.34725
▁veien	-9.34735
▁samle	-9.34765
▁dra	-9.34776
lus	-9.34804
stu	-9.34834
▁eldre	-9.34857
▁lite	-9.34906
▁enkelt	-9.34961
▁flo	-9.35055
▁tett	-9.35059
▁kontroll	-9.35059
▁georg	-9.3512
▁ter	-9.35205
▁elev	-9.35275
▁hjem	-9.35291
ull	-9.35303
▁utgav	-9.35329
▁gla	-9.35402
oli	-9.35456
åk	-9.35481
▁britiske	-9.35562
lla	-9.35668
rich	-9.35783
bær	-9.35806
▁kh	-9.359
dis	-9.36054
▁historisk	-9.36077
we	-9.36139
95	-9.36179
▁knut	-9.36196
▁uttrykk	-9.36232
drag	-9.36255
▁flytte	-9.36365
bank	-9.36372
▁ev	-9.36378
▁mak	-9.36388
full	-9.36426
▁selskap	-9.36492
▁regionen	-9.36556
▁medlemmer	-9.36597
mes	-9.36607
▁ole	-9.36674
▁renner	-9.36776
▁henrik	-9.36858
trykk	-9.3701
bra	-9.37041
fo	-9.37057
cia	-9.37333
64	-9.37396
kh	-9.37531
øk	-9.37546
ringen	-9.37559
red	-9.3756
▁nytt	-9.37694
▁frank	-9.37749
▁delt	-9.37777
klubb	-9.37788
▁trekk	-9.37802
▁omtrent	-9.37881
▁egentlig	-9.37908
qui	-9.3791
fer	-9.38009
▁smal	-9.38045
▁drev	-9.38119
▁bon	-9.38128
▁die	-9.38129
▁elva	-9.38228
к	-9.38279
▁ordet	-9.3832
▁forbindelse	-9.38352
▁india	-9.38377
kommune	-9.3848
ky	-9.38507
ille	-9.38518
mis	-9.38535
▁perioden	-9.38651
bru	-9.3866
ming	-9.38685
▁region	-9.38691
▁anders	-9.38743
▁skje	-9.38832
▁varme	-9.38833
ance	-9.3893
lis	-9.38999
▁mid	-9.39027
stil	-9.39031
▁viktige	-9.39059
sion	-9.39073
kunst	-9.39107
▁rund	-9.39145
▁1980	-9.39148
▁dom	-9.39224
57	-9.39295
ite	-9.39321
▁bri	-9.39329
▁driver	-9.3938
▁mill	-9.39472
tall	-9.39502
▁verden	-9.39587
▁holm	-9.39592
▁ang	-9.396
▁arne	-9.39701
grunn	-9.39705
tør	-9.3973
▁stu	-9.39772
78	-9.39783
▁venstre	-9.39789
▁økonomisk	-9.39866
▁ep	-9.39897
▁just	-9.39933
▁ran	-9.39967
▁kors	-9.39968
98	-9.39984
året	-9.39989
▁trykk	-9.40015
▁johannes	-9.40032
øst	-9.40063
tsj	-9.40169
▁sy	-9.40245
š	-9.40405
70	-9.40492
▁linje	-9.40519
▁kron	-9.40528
grense	-9.40574
▁råd	-9.40706
lar	-9.40752
▁spar	-9.40765
trekk	-9.40913
▁gje	-9.40914
▁resultat	-9.4093
▁ze	-9.4095
dar	-9.40985
▁middelsstor	-9.41046
▁kristian	-9.4108
musikk	-9.41166
arm	-9.41177
haug	-9.41204
▁und	-9.41265
▁staten	-9.41384
▁verdi	-9.41545
▁gjøre	-9.41547
93	-9.41638
▁she	-9.41649
▁spe	-9.41656
▁rolle	-9.41726
▁borger	-9.41737
▁nordøst	-9.41766
▁flat	-9.41785
zhou	-9.4189
dals	-9.41932
vinne	-9.41938
▁langt	-9.42004
▁ind	-9.42063
▁mas	-9.42063
39	-9.42073
formet	-9.42073
samisk	-9.42088
▁lek	-9.42098
vid	-9.4213
80	-9.42132
▁distriktet	-9.42139
85	-9.42161
▁salt	-9.42229
▁betydelig	-9.4234
▁problem	-9.42343
▁pave	-9.42343
▁grand	-9.42363
kra	-9.42457
ez	-9.4247
▁dal	-9.42492
▁fått	-9.42495
▁win	-9.42546
▁hovedstad	-9.42573
ban	-9.42705
▁hvis	-9.42766
▁app	-9.43045
▁minst	-9.43056
▁james	-9.43105
▁ferdig	-9.43107
▁time	-9.43133
▁figur	-9.43167
▁sund	-9.4319
kraft	-9.43238
▁lund	-9.43303
vig	-9.43314
▁syk	-9.43432
elva	-9.43433
▁neste	-9.43476
▁indre	-9.43636
▁mottok	-9.43753
▁avdeling	-9.4385
▁finsk	-9.43931
hn	-9.43971
▁mun	-9.43983
▁sentrum	-9.43998
▁ok	-9.44014
▁legge	-9.44103
▁eli	-9.44263
▁studert	-9.44326
▁1998	-9.44328
gata	-9.4437
▁thi	-9.44413
▁nærings	-9.44495
▁cal	-9.44605
gaard	-9.44734
nivå	-9.44783
uc	-9.44836
gne	-9.44852
▁samling	-9.44861
▁gitar	-9.44875
▁millioner	-9.44981
▁israel	-9.44981
▁york	-9.44985
band	-9.45014
gje	-9.45093
farge	-9.45111
▁holdt	-9.45111
▁høyde	-9.45198
▁veg	-9.45245
stan	-9.45268
▁munn	-9.45292
erende	-9.4535
jev	-9.45351
nik	-9.45413
96	-9.45465
▁stiftet	-9.45474
jö	-9.45519
▁mad	-9.45578
▁sir	-9.45586
▁tap	-9.45602
▁sag	-9.45633
▁frankrike	-9.45662
▁1992	-9.45665
▁het	-9.45698
systemet	-9.45701
▁vanlig	-9.45725
▁bad	-9.45848
▁myr	-9.45855
▁kir	-9.45907
▁ana	-9.45954
▁sterkt	-9.45959
pel	-9.46042
ffer	-9.46164
▁old	-9.4617
tok	-9.46171
▁forsknings	-9.46277
▁steder	-9.46278
▁frukt	-9.46286
▁michael	-9.46327
▁1987	-9.46339
▁1986	-9.46343
▁metall	-9.4635
▁skade	-9.46443
▁60	-9.46453
senteret	-9.46505
▁tegn	-9.4654
shire	-9.4657
▁middel	-9.46593
▁løper	-9.46671
▁pen	-9.46879
lov	-9.46893
92	-9.46896
▁alb	-9.46985
▁1994	-9.47008
▁world	-9.47008
▁1999	-9.47022
▁england	-9.47053
grav	-9.47065
▁romersk	-9.47068
▁søster	-9.47069
▁konsert	-9.47142
krets	-9.47175
47	-9.47236
dor	-9.47246
▁effekt	-9.47277
▁sogn	-9.47287
▁lib	-9.47305
oni	-9.47324
▁sau	-9.47389
lek	-9.47411
low	-9.47548
ua	-9.47563
alis	-9.47663
▁byprefekturet	-9.47692
departementet	-9.47725
midler	-9.47735
▁tilby	-9.47747
messig	-9.47751
▁grense	-9.47795
▁bind	-9.47829
▁besøk	-9.47872
gli	-9.47883
▁hell	-9.47909
▁love	-9.4791
▁che	-9.47975
▁eget	-9.47979
▁makt	-9.48081
▁rot	-9.481
▁elv	-9.48103
gikk	-9.48229
skudd	-9.48314
77	-9.48351
▁1984	-9.48391
▁2015	-9.48408
▁fjern	-9.48408
▁harald	-9.48418
utdanning	-9.4847
▁lau	-9.48505
▁vid	-9.48593
▁sesongen	-9.48688
▁korte	-9.48772
på	-9.48847
▁dam	-9.48992
▁sur	-9.49044
sser	-9.49062
▁skjer	-9.49069
▁richard	-9.49078
▁university	-9.49081
▁1996	-9.4909
▁spansk	-9.49109
løse	-9.49222
hel	-9.49266
▁plat	-9.49292
▁løs	-9.49305
tti	-9.49324
felt	-9.49334
▁tung	-9.4935
ick	-9.49357
▁nar	-9.49392
▁hvite	-9.49411
▁fylkes	-9.49411
▁mørk	-9.4944
▁gren	-9.49487
88	-9.49488
lund	-9.49516
▁funksjon	-9.4953
stikk	-9.49606
▁slo	-9.49635
▁ky	-9.49648
99	-9.49687
vert	-9.49787
▁operatør	-9.4979
▁danmark	-9.498
kjede	-9.49801
90	-9.49819
▁klasse	-9.49874
▁data	-9.49893
▁drift	-9.49894
itu	-9.4995
våg	-9.49971
stor	-9.49986
▁økt	-9.49993
▁universitetet	-9.50075
innen	-9.50361
▁sten	-9.50397
▁retts	-9.50398
nett	-9.50399
▁hovedstaden	-9.5042
unt	-9.50477
▁anne	-9.50479
▁national	-9.50481
▁1995	-9.50495
▁2014	-9.50504
▁privat	-9.50573
gy	-9.50706
▁pra	-9.50733
▁fest	-9.50746
ische	-9.50774
▁ungdoms	-9.50862
▁gall	-9.50928
akademi	-9.50993
tta	-9.51047
▁årlig	-9.51096
в	-9.51097
▁produkt	-9.51198
▁krist	-9.51334
aks	-9.51397
▁personer	-9.51527
▁boken	-9.51546
▁lø	-9.51549
ins	-9.51627
tøy	-9.51744
▁passer	-9.51751
blad	-9.5176
hav	-9.51769
▁cap	-9.51845
▁sivil	-9.51975
68	-9.51998
▁christ	-9.52005
bilde	-9.52022
manns	-9.5203
▁venn	-9.52077
▁gård	-9.52085
led	-9.52132
san	-9.5215
strøm	-9.52179
67	-9.5224
voks	-9.52305
▁natt	-9.52432
▁tha	-9.52437
▁kraftverk	-9.52472
▁flu	-9.52551
stall	-9.52561
▁litteratur	-9.52564
т	-9.52599
▁lev	-9.52625
▁sørvest	-9.52626
▁typisk	-9.52629
▁1991	-9.52635
▁jern	-9.52644
▁grenser	-9.52665
spor	-9.52677
gler	-9.52692
▁drama	-9.52694
44	-9.52744
▁jesu	-9.52785
bud	-9.52794
riket	-9.5284
bjørn	-9.52859
▁seil	-9.52892
▁fordi	-9.52939
one	-9.52955
▁rh	-9.52972
▁virke	-9.53035
gal	-9.53076
▁rein	-9.5312
lø	-9.53161
▁dyre	-9.5319
▁fro	-9.53221
shi	-9.53236
▁museum	-9.53269
▁bygde	-9.5327
▁høsten	-9.53343
▁kilometer	-9.53348
▁likevel	-9.53403
▁black	-9.53416
▁kart	-9.53447
▁lær	-9.53479
veg	-9.53504
▁ram	-9.5359
gle	-9.5361
▁sla	-9.53685
syre	-9.53742
mund	-9.53765
▁thr	-9.53795
▁artist	-9.53826
▁turn	-9.53836
▁200	-9.53844
▁80	-9.53898
▁ven	-9.53981
▁kull	-9.54011
▁ledd	-9.54075
▁xiàn	-9.54078
▁1988	-9.54092
mper	-9.54164
selskapet	-9.54197
▁danske	-9.54225
▁stod	-9.54298
eller	-9.54327
▁gass	-9.54379
▁løv	-9.54388
dia	-9.54436
▁zo	-9.54474
▁sju	-9.54488
ativ	-9.54587
▁betegne	-9.54611
ial	-9.54729
у	-9.54813
virkning	-9.54816
▁meget	-9.54824
▁sentrale	-9.54824
▁1970	-9.54829
gift	-9.54976
▁slike	-9.55007
que	-9.55126
ney	-9.55158
01	-9.5517
▁fjorden	-9.55209
▁henne	-9.55319
hard	-9.55326
▁lærer	-9.55327
▁gru	-9.55439
gna	-9.55509
gående	-9.55525
løst	-9.55529
▁storbritannia	-9.55554
▁louis	-9.55555
▁1997	-9.55564
▁hjerte	-9.55593
▁lengde	-9.55624
parti	-9.55715
folk	-9.55856
▁tank	-9.55996
elli	-9.56018
alder	-9.56038
▁odd	-9.56049
▁larvene	-9.56139
ras	-9.56165
dorf	-9.56175
▁ball	-9.56194
arbeider	-9.56213
66	-9.56221
▁eldste	-9.56301
førte	-9.56332
af	-9.56332
▁sku	-9.56351
▁dato	-9.56548
▁kroppen	-9.56568
non	-9.56625
lem	-9.56787
delen	-9.56814
ama	-9.56897
ram	-9.56924
▁star	-9.57001
▁benyttet	-9.57019
belteasteroide	-9.57052
▁international	-9.57052
▁arabisk	-9.57054
▁egypt	-9.57056
▁lufthavn	-9.57059
ben	-9.5711
▁oppført	-9.57117
▁plate	-9.57126
▁nan	-9.57204
▁delta	-9.57296
▁vit	-9.57351
▁och	-9.57385
▁møte	-9.57388
ón	-9.57439
strand	-9.57471
gruppe	-9.57478
▁nabo	-9.57494
▁mol	-9.5753
▁redaktør	-9.57538
▁finland	-9.57572
▁produsent	-9.57588
▁japan	-9.57633
▁180	-9.57654
▁unge	-9.57735
kjær	-9.57769
▁øverst	-9.57811
▁nordvest	-9.57813
▁bakvingen	-9.57815
▁nåværende	-9.57836
vekst	-9.57839
▁hed	-9.5793
▁wei	-9.58006
25	-9.58164
jan	-9.58284
▁utnevnt	-9.58333
▁bel	-9.5841
az	-9.58412
▁res	-9.58475
mid	-9.58508
▁kropp	-9.5853
▁brukte	-9.58559
▁por	-9.58574
▁prosent	-9.5858
det	-9.58594
▁enhet	-9.58609
▁administrasjons	-9.58613
▁ken	-9.58644
35	-9.58733
▁poly	-9.58881
▁merke	-9.589
ort	-9.58943
industri	-9.58968
▁32	-9.5898
▁ris	-9.59005
skolen	-9.59007
▁dyp	-9.59011
▁tun	-9.59012
▁hon	-9.59015
▁cre	-9.59019
blant	-9.59035
▁ara	-9.5913
▁musiker	-9.59161
lser	-9.59255
▁arten	-9.59329
б	-9.59342
▁bla	-9.59344
74	-9.59347
▁1985	-9.59358
saker	-9.59395
▁eiendom	-9.59457
▁pass	-9.59463
graf	-9.5955
medalj	-9.59576
løs	-9.59585
▁gjort	-9.59585
▁north	-9.59587
lon	-9.59607
▁bern	-9.59629
▁tverr	-9.59746
org	-9.59843
▁kam	-9.59872
▁hellig	-9.59908
▁sort	-9.59928
rådet	-9.59942
▁borg	-9.59964
ati	-9.60069
▁høyt	-9.60117
▁1972	-9.60117
▁1983	-9.60117
▁syv	-9.60131
skapet	-9.60132
▁brasil	-9.6014
fører	-9.60194
▁qu	-9.60218
▁mø	-9.60292
▁haug	-9.60421
pol	-9.60507
▁symbol	-9.60538
▁anna	-9.60565
▁grunnla	-9.60578
ritt	-9.60676
▁us	-9.6068
▁politisk	-9.60746
▁vokal	-9.60779
▁tang	-9.60808
89	-9.60881
▁ett	-9.60894
▁italia	-9.60935
▁strand	-9.61007
▁maler	-9.61013
kur	-9.6103
ias	-9.6104
orm	-9.61072
91	-9.61087
lang	-9.61172
▁char	-9.61189
well	-9.61229
▁områder	-9.61272
▁spille	-9.61312
▁sommeren	-9.61414
▁johann	-9.61418
▁sko	-9.61479
▁jag	-9.61499
▁nev	-9.6158
▁will	-9.61633
▁komponist	-9.61686
skjold	-9.61687
▁1979	-9.61697
än	-9.61703
43	-9.61763
▁stø	-9.61802
field	-9.61821
rup	-9.61863
▁foss	-9.61868
havet	-9.61921
snitt	-9.62031
partiet	-9.62033
fart	-9.62036
nsk	-9.62107
▁king	-9.62124
verket	-9.62203
sjoner	-9.62237
lly	-9.6232
▁adel	-9.62463
slav	-9.62464
ι	-9.62479
▁offisiell	-9.62479
magasin	-9.62492
▁snø	-9.62552
▁jø	-9.62554
▁hør	-9.62611
▁grupper	-9.62627
▁helge	-9.62651
▁cy	-9.62685
▁operasjon	-9.62692
▁ein	-9.62767
▁rute	-9.62808
vatnet	-9.62893
ough	-9.62952
språk	-9.62995
▁up	-9.63004
stoff	-9.63075
hjul	-9.63137
ball	-9.63159
19	-9.63177
▁fjord	-9.63264
sekretær	-9.63279
▁norrøn	-9.6328
▁middelalder	-9.63288
▁stavanger	-9.63291
▁1960	-9.63298
▁delen	-9.63342
18	-9.63362
kirke	-9.63383
▁spiss	-9.63413
▁wal	-9.6349
▁iii	-9.63497
▁rik	-9.63545
▁fortsatte	-9.63577
organisasjon	-9.63594
rød	-9.63634
jær	-9.63703
51	-9.63751
▁landsbyen	-9.6376
▁edderkopp	-9.638
plassen	-9.63809
▁kval	-9.63819
▁paris	-9.63845
tun	-9.63884
32	-9.63953
uf	-9.63992
87	-9.64008
▁nummer	-9.64028
▁1981	-9.64086
▁wilhelm	-9.64086
aceae	-9.64112
▁kloster	-9.64125
voll	-9.64135
▁sho	-9.64165
▁rygg	-9.64188
eier	-9.64271
▁hud	-9.64294
feld	-9.64336
▁bol	-9.64405
mengde	-9.64412
▁pal	-9.64458
krigen	-9.64475
▁nrk	-9.64534
▁biskop	-9.64546
76	-9.6459
▁hit	-9.6461
▁ce	-9.64671
ammen	-9.64829
▁maskin	-9.64845
▁max	-9.64894
▁1993	-9.64916
▁betegnelsen	-9.64925
▁los	-9.64934
▁klassisk	-9.64943
▁nes	-9.64963
her	-9.64966
▁løp	-9.65034
▁holde	-9.65107
▁koloni	-9.65118
ér	-9.6513
▁tatt	-9.65148
▁professor	-9.65149
▁fører	-9.6518
▁ya	-9.65184
later	-9.65192
nor	-9.65195
46	-9.65331
▁bedre	-9.65342
▁temperatur	-9.65425
▁stamme	-9.65498
14	-9.65565
▁åpen	-9.65693
ç	-9.65719
▁musikkalbum	-9.65741
на	-9.65751
▁nevnes	-9.658
▁slått	-9.6581
▁hører	-9.65973
elige	-9.65978
arter	-9.66011
linjen	-9.66014
▁motstand	-9.66094
▁kristen	-9.66164
prisen	-9.66232
▁ansvar	-9.66237
▁komme	-9.66246
▁gard	-9.66272
▁omfatte	-9.66273
ledd	-9.66287
middel	-9.66305
ico	-9.6633
▁program	-9.6634
▁utført	-9.66435
▁skapt	-9.66442
yang	-9.66467
▁gården	-9.66478
▁fulgte	-9.66481
enhet	-9.66491
▁eksempler	-9.66545
▁kardinal	-9.66545
▁stockholm	-9.66545
værende	-9.66559
▁forsøk	-9.66639
▁glo	-9.66684
korps	-9.66743
▁arn	-9.668
61	-9.66871
aya	-9.66938
▁luc	-9.67006
69	-9.67039
▁real	-9.67117
ansk	-9.67136
▁stilling	-9.67175
63	-9.67216
nntil	-9.67238
▁total	-9.67288
▁fot	-9.67332
still	-9.67335
▁dårlig	-9.67382
▁charles	-9.6742
▁lyse	-9.67485
▁hum	-9.67491
atet	-9.67503
▁klokke	-9.67534
▁danse	-9.67541
▁larven	-9.67548
▁skip	-9.67613
win	-9.67631
kammer	-9.67706
▁vä	-9.67737
▁tradisjon	-9.67796
▁skrive	-9.67888
brun	-9.67937
våpen	-9.67959
yo	-9.67995
▁kontor	-9.68141
▁politiske	-9.68158
▁vinge	-9.68163
▁kraftig	-9.68172
mur	-9.68188
gard	-9.68188
▁1982	-9.68219
ob	-9.68228
▁anlegget	-9.68254
▁krigen	-9.68288
▁pin	-9.68349
▁hå	-9.68372
▁nam	-9.68423
▁albert	-9.68506
▁daglig	-9.68527
mod	-9.68601
▁dø	-9.68667
▁populær	-9.68682
▁følge	-9.68698
▁organisasjon	-9.68802
virksomhet	-9.68826
skij	-9.68904
spekt	-9.6901
ρ	-9.69066
pningsseremonien	-9.69066
ì	-9.69066
ence	-9.69079
▁organisasjonen	-9.69122
▁totalt	-9.69133
▁kri	-9.69156
sang	-9.69206
▁city	-9.69211
▁gram	-9.69226
▁personlig	-9.69259
itter	-9.69321
▁brit	-9.69349
▁direktør	-9.69351
con	-9.69389
▁delvis	-9.69411
feltet	-9.69428
ith	-9.69438
▁fugle	-9.69464
qu	-9.69482
41	-9.69488
▁klo	-9.69535
▁sul	-9.69567
▁ali	-9.6966
▁lan	-9.69661
▁il	-9.69689
figur	-9.69701
▁kvinner	-9.6987
▁brenselkilden	-9.69921
ade	-9.69923
▁foreldre	-9.69924
teknikk	-9.69925
merket	-9.69928
▁statsminister	-9.69943
festivalen	-9.69982
▁cro	-9.70012
▁slott	-9.70062
▁bygg	-9.7009
utvalg	-9.7011
▁feil	-9.70129
▁indisk	-9.70151
▁ger	-9.70191
sberg	-9.70239
▁tradisjonell	-9.70473
hol	-9.70577
cal	-9.70583
ity	-9.70674
ō	-9.70691
ū	-9.70773
▁amerika	-9.70776
foss	-9.7086
▁finn	-9.70875
are	-9.70931
▁mester	-9.70952
▁behandling	-9.7097
mil	-9.70971
virke	-9.70973
ios	-9.71026
▁kost	-9.71031
▁kry	-9.71052
▁meg	-9.71233
▁bøker	-9.71239
▁song	-9.71304
handel	-9.71306
ova	-9.71366
▁drive	-9.71385
▁styrke	-9.71424
ary	-9.71465
bladet	-9.71568
blomst	-9.71594
▁vingespenn	-9.71653
▁flaggbærer	-9.71653
▁kategori	-9.71653
▁religion	-9.71653
wer	-9.71675
▁hom	-9.7169
▁sykdom	-9.71699
vendt	-9.71762
12	-9.7177
kanal	-9.71791
fjellet	-9.71893
stat	-9.71972
▁od	-9.71974
▁jos	-9.72013
▁rå	-9.72084
▁sim	-9.72143
▁fabrikk	-9.72157
▁sjef	-9.72223
▁kampen	-9.72267
▁provins	-9.72327
▁polsk	-9.72341
bånd	-9.72372
lid	-9.72431
kraftverk	-9.72435
▁uavhengig	-9.72447
▁gor	-9.72465
▁fjellet	-9.72476
▁olympisk	-9.7253
▁joseph	-9.7253
▁club	-9.72531
øyene	-9.72536
▁trondheim	-9.72539
▁1976	-9.72544
▁pop	-9.72548
▁daniel	-9.72608
ella	-9.72633
trær	-9.72652
▁deri	-9.72769
▁spill	-9.72994
▁bio	-9.72995
21	-9.72997
▁stav	-9.73141
tori	-9.73151
eksjon	-9.73212
▁holder	-9.73222
▁sterke	-9.73247
▁horn	-9.73261
▁last	-9.73303
kultur	-9.73331
▁1971	-9.73415
▁relativ	-9.73416
▁tydelig	-9.73423
▁stoff	-9.7346
▁sports	-9.7346
▁vær	-9.73468
grep	-9.73515
▁hodet	-9.73548
▁bygningen	-9.73553
▁bestemt	-9.73575
▁benytte	-9.73589
jiang	-9.73658
▁inngå	-9.73671
▁union	-9.73676
▁typer	-9.73712
last	-9.7372
▁epi	-9.73801
▁jean	-9.73817
08	-9.7382
ifisert	-9.73836
▁maur	-9.73837
▁fel	-9.73845
▁dør	-9.7392
qua	-9.73933
▁heste	-9.7394
▁knyttet	-9.73971
▁mini	-9.74025
▁gode	-9.7406
drift	-9.74076
din	-9.74107
▁aust	-9.74116
54	-9.74145
former	-9.74195
ografi	-9.74234
▁trøndelag	-9.74307
ν	-9.74308
▁transport	-9.74309
▁bolig	-9.74316
▁1974	-9.74323
▁befolkningen	-9.74326
▁måned	-9.74345
▁zu	-9.74354
▁element	-9.74356
▁sørøst	-9.74375
▁instrument	-9.74395
ordenen	-9.74414
▁aldri	-9.7449
fang	-9.74503
▁valgte	-9.7453
cher	-9.74589
▁off	-9.74591
▁ekspedisjon	-9.74672
▁hoff	-9.74716
holm	-9.74795
▁artikkel	-9.74988
▁interesse	-9.75014
▁erstattet	-9.75024
distrikt	-9.75031
can	-9.75046
▁livet	-9.75099
▁roma	-9.75111
▁benyttes	-9.75111
dam	-9.75138
▁blo	-9.75138
festival	-9.75152
kop	-9.75193
fartøy	-9.75203
▁københavn	-9.75208
▁dronning	-9.75213
▁opprør	-9.75221
▁ann	-9.75255
▁lære	-9.75281
▁tilsvarende	-9.75297
post	-9.75362
▁90	-9.7537
hund	-9.75382
hov	-9.75393
metode	-9.75429
byrå	-9.75476
▁dor	-9.75545
▁tjeneste	-9.75582
▁ant	-9.75597
▁måte	-9.75671
tha	-9.757
▁vind	-9.75734
lom	-9.75754
▁scene	-9.75775
fond	-9.75902
ledning	-9.75935
▁500	-9.75943
dagen	-9.75964
▁neu	-9.75981
11	-9.76067
▁1975	-9.76118
kommunikasjon	-9.76119
▁cra	-9.76134
▁soldat	-9.76148
▁møtte	-9.7615
▁video	-9.7617
▁markeds	-9.76192
▁jobb	-9.76338
▁rob	-9.76357
▁høyere	-9.76367
▁single	-9.76385
55	-9.76408
parten	-9.76435
▁cam	-9.76488
wan	-9.76499
meter	-9.76555
▁viste	-9.766
▁fyrst	-9.7662
▁æ	-9.76645
▁dog	-9.76661
ān	-9.76789
olo	-9.76847
▁åpning	-9.7685
▁rosen	-9.76973
27	-9.77018
́	-9.77035
▁elektrisk	-9.77035
▁skips	-9.77042
ømme	-9.77052
▁2017	-9.77057
▁jazz	-9.7708
49	-9.77089
▁solo	-9.77091
▁krets	-9.77106
▁tim	-9.77136
fugl	-9.77143
sport	-9.77154
▁ting	-9.7717
▁forsvars	-9.77176
cul	-9.77177
cho	-9.7723
vit	-9.77424
▁grensen	-9.77444
aria	-9.77453
▁kanon	-9.77467
▁spilles	-9.77479
▁gil	-9.77484
gon	-9.77494
▁tittel	-9.77502
▁sesong	-9.77574
▁dj	-9.77575
▁flor	-9.77603
▁turist	-9.77734
▁andreas	-9.77742
▁representant	-9.77776
▁karriere	-9.7778
▁metal	-9.77823
kanten	-9.77832
vold	-9.77854
▁divisjon	-9.77886
oppgave	-9.77891
▁heng	-9.77905
▁univers	-9.77942
м	-9.77946
ο	-9.77957
▁hverandre	-9.77961
▁derimot	-9.77962
lokk	-9.78019
gress	-9.78033
▁hill	-9.78064
▁posisjon	-9.78071
▁gun	-9.78181
▁avis	-9.78203
▁virksomhet	-9.78224
▁vold	-9.78254
▁stammer	-9.78391
artikler	-9.78416
▁pala	-9.78421
▁kat	-9.78467
jar	-9.78593
▁70	-9.78619
bare	-9.78688
▁funnet	-9.78721
▁regjering	-9.78753
▁manus	-9.78813
▁valgt	-9.78816
tis	-9.78818
album	-9.78832
▁britisk	-9.78887
▁hertug	-9.78894
▁innbyggertall	-9.78895
▁saint	-9.78939
▁prosjekt	-9.78952
▁nederlandsk	-9.79053
▁forvingen	-9.79064
▁idretts	-9.79074
▁finans	-9.79113
▁æres	-9.79119
▁livs	-9.79147
▁log	-9.79191
plasser	-9.79211
cheng	-9.79245
lum	-9.79247
▁grev	-9.79387
15	-9.79433
▁bay	-9.79447
▁stig	-9.79497
▁bob	-9.79514
▁tsj	-9.79515
79	-9.79562
▁krig	-9.79568
grupper	-9.79668
én	-9.79674
▁aktivitet	-9.79708
ept	-9.79757
produkt	-9.79831
▁friedrich	-9.79839
▁opprinnelse	-9.79839
▁sovjetunionen	-9.79839
▁1978	-9.79859
▁drept	-9.79862
▁frø	-9.79869
▁1950	-9.79874
▁stasjonen	-9.7988
▁fal	-9.79989
▁faren	-9.79998
landskap	-9.80007
▁petter	-9.80031
▁regjerings	-9.80059
▁35	-9.8011
▁bass	-9.8011
kryss	-9.80116
▁damp	-9.80226
car	-9.80232
▁olsen	-9.8025
formen	-9.80288
▁ettersom	-9.80323
▁lignende	-9.8035
▁røde	-9.80402
▁storm	-9.80526
▁blomster	-9.80577
▁omtale	-9.806
pur	-9.80607
▁regjeringen	-9.80665
flu	-9.80681
marked	-9.80718
▁material	-9.80772
23	-9.80789
▁tilhørte	-9.80793
▁1968	-9.80809
▁2016	-9.80816
ville	-9.80829
▁high	-9.8084
▁kjerne	-9.80887
▁kjell	-9.8092
▁camp	-9.80926
▁bryst	-9.80978
▁uke	-9.80983
ili	-9.81025
gro	-9.81048
▁vinner	-9.81109
vald	-9.81123
lad	-9.81141
▁fyr	-9.81168
▁green	-9.81283
▁fat	-9.81284
▁retning	-9.81324
oma	-9.81338
tjenester	-9.81339
pin	-9.81405
▁musik	-9.81456
vekt	-9.81491
▁hunnen	-9.81517
samfunn	-9.81642
▁vers	-9.81693
medlem	-9.81739
▁1973	-9.81753
▁utdannet	-9.81753
й	-9.81753
▁é	-9.81762
▁fø	-9.81772
▁heller	-9.81772
▁gjelder	-9.8182
▁våren	-9.81838
mond	-9.81856
▁størrelse	-9.8189
▁foruten	-9.81896
motor	-9.81994
▁selve	-9.82132
▁ramme	-9.82172
▁dialekt	-9.82186
▁vanlige	-9.82209
▁forfatteren	-9.82291
typen	-9.82314
45	-9.82401
▁ask	-9.82461
bein	-9.82561
nan	-9.82681
ł	-9.82714
▁tilgjengelig	-9.82724
▁teknisk	-9.82724
▁århundre	-9.82724
▁fjerde	-9.82724
▁regissert	-9.82725
▁passasjer	-9.82727
▁øvre	-9.82733
programmer	-9.82783
▁publisert	-9.82801
36	-9.82843
▁slaget	-9.82863
▁nasjonale	-9.829
16	-9.82934
▁anton	-9.8294
▁atom	-9.82945
▁bølge	-9.83021
▁with	-9.83042
stemt	-9.83044
▁regel	-9.831
▁jakt	-9.83126
▁skape	-9.83132
▁formel	-9.83143
▁adam	-9.83166
ori	-9.83167
▁bud	-9.83183
▁kommunene	-9.83192
▁funn	-9.83307
▁naturlig	-9.83384
▁påvirke	-9.83393
▁kai	-9.83425
zh	-9.83517
▁ube	-9.83536
▁dager	-9.83541
▁seier	-9.83548
▁forskning	-9.83559
97	-9.83566
▁tema	-9.83577
▁enten	-9.83577
▁programmet	-9.83608
▁hotell	-9.83639
▁beskytte	-9.83644
ulf	-9.83679
п	-9.83704
▁alkohol	-9.83704
▁1977	-9.83723
plate	-9.83782
▁music	-9.83788
▁award	-9.83806
stykke	-9.83868
▁hva	-9.83993
24	-9.84013
▁glass	-9.84033
▁artene	-9.84103
▁prim	-9.8417
▁hage	-9.84208
▁resten	-9.84233
▁journalist	-9.84295
▁cm	-9.84299
▁rep	-9.84353
▁kjempe	-9.84421
▁kast	-9.84474
illa	-9.84487
hode	-9.84533
formede	-9.84591
▁vik	-9.84607
▁amt	-9.84667
▁lenger	-9.84688
isten	-9.84701
▁malt	-9.84709
enberg	-9.84714
▁leve	-9.84716
▁poeng	-9.84755
▁gjenopp	-9.84836
▁festning	-9.84839
sam	-9.84855
historiker	-9.84978
▁rike	-9.8506
basert	-9.85092
▁ref	-9.85093
▁gå	-9.85106
▁teori	-9.85108
▁tettsted	-9.85115
▁hjelpe	-9.85196
▁oversatt	-9.85213
▁motta	-9.85224
▁stille	-9.85225
▁skå	-9.85245
com	-9.85269
kilde	-9.85478
▁villa	-9.85481
dikt	-9.85496
▁kroner	-9.85634
▁long	-9.85686
▁original	-9.8569
▁teknologi	-9.85693
▁administrativ	-9.85694
▁etterhvert	-9.85695
▁arrangere	-9.85695
ført	-9.85697
▁kontakt	-9.85703
▁referere	-9.85713
▁nr	-9.85729
prosjekt	-9.85767
▁ö	-9.85769
▁flagg	-9.85788
▁øyene	-9.85862
▁comp	-9.85926
gjorde	-9.85991
▁øke	-9.86018
able	-9.86071
skyld	-9.86233
▁presse	-9.86249
▁hannen	-9.86279
▁harry	-9.86287
▁nordlige	-9.86295
▁bit	-9.86314
osa	-9.86328
▁fler	-9.86334
▁bruke	-9.86365
▁forkorte	-9.86381
fekt	-9.86404
▁hær	-9.86492
▁irsk	-9.86506
fot	-9.86516
▁geo	-9.86521
løsning	-9.86567
▁blei	-9.86613
▁fisk	-9.86637
▁eie	-9.86688
▁profesjonell	-9.86704
▁est	-9.86705
▁oppdaget	-9.8671
▁ordfører	-9.86728
▁jordbruk	-9.86762
maskin	-9.86816
▁brann	-9.86848
▁elve	-9.8687
somme	-9.86891
klubben	-9.86999
▁euro	-9.87015
▁penge	-9.87139
▁begrepet	-9.87167
trinn	-9.87169
zy	-9.87217
▁syr	-9.87219
▁cri	-9.87276
▁rør	-9.87278
oid	-9.87289
ernes	-9.8734
▁jur	-9.87391
▁hunde	-9.87392
▁bou	-9.87414
▁hode	-9.87451
▁tone	-9.87474
variant	-9.87509
▁may	-9.87518
▁mente	-9.8756
▁que	-9.87564
▁bane	-9.87569
▁ull	-9.87584
ona	-9.87632
â	-9.87718
▁religiøs	-9.87725
▁nærmest	-9.87734
▁för	-9.87735
▁lengst	-9.87735
▁oblast	-9.87738
bol	-9.87748
▁gutt	-9.8776
▁samfunns	-9.87826
▁landbruk	-9.87836
linjer	-9.87845
museum	-9.87848
▁buss	-9.87871
▁tegnet	-9.87937
pan	-9.87962
▁ledelse	-9.87977
nummer	-9.87978
▁zi	-9.88031
▁institut	-9.88094
▁py	-9.88103
▁ønske	-9.88114
fyll	-9.88147
▁tradisjonelle	-9.88179
▁parlament	-9.88203
▁løpet	-9.88212
firma	-9.88297
▁stopp	-9.88316
stripe	-9.88324
program	-9.88339
tog	-9.88363
skipet	-9.88395
▁overgang	-9.8845
▁huset	-9.8849
84	-9.88541
▁teksten	-9.88596
▁300	-9.88655
▁bord	-9.88731
▁afrika	-9.8874
▁ytterligere	-9.88756
▁fremdeles	-9.88756
kandidat	-9.88762
tunnelen	-9.88764
▁melodi	-9.88766
▁1967	-9.88775
▁leir	-9.88827
▁45	-9.88838
▁wu	-9.88855
ledes	-9.88907
▁flertall	-9.88926
▁mørke	-9.8898
dro	-9.89078
▁krav	-9.89107
г	-9.8914
dekk	-9.8915
▁stol	-9.89199
holmen	-9.89208
▁roll	-9.8922
mf	-9.89273
▁stål	-9.8931
▁170	-9.89356
▁fremme	-9.8936
▁senter	-9.89391
zar	-9.89412
▁innsjøen	-9.8942
trolig	-9.89458
▁bevegelse	-9.89619
▁familiegruppe	-9.89687
▁celle	-9.89723
λ	-9.89797
▁suksess	-9.89797
▁service	-9.89797
▁hvilke	-9.89799
ima	-9.89814
▁1963	-9.89814
▁blue	-9.89824
head	-9.89907
▁alltid	-9.89911
historie	-9.89961
▁streng	-9.8999
bakk	-9.9
▁gjeste	-9.9002
møte	-9.90075
äl	-9.90139
▁bry	-9.90144
▁kil	-9.90146
utgivelse	-9.90186
▁santa	-9.90218
ikere	-9.90258
▁kop	-9.90275
▁vestlig	-9.90325
wald	-9.90427
▁lyst	-9.90519
▁prisen	-9.90562
svik	-9.90627
▁økonomi	-9.9065
▁tettstedet	-9.90654
verdig	-9.90659
▁samlet	-9.90768
▁jacob	-9.90784
▁kode	-9.90801
▁studio	-9.90846
č	-9.9085
▁beijing	-9.9085
▁1940	-9.9088
▁slank	-9.90925
▁primær	-9.90972
17	-9.91025
▁verdenskrig	-9.91046
▁henry	-9.91072
▁klima	-9.91083
▁div	-9.91126
▁endret	-9.91159
▁gold	-9.91226
shan	-9.91282
vikler	-9.91289
▁sykehus	-9.9134
▁400	-9.91406
▁marine	-9.91463
▁vakt	-9.91472
▁mikro	-9.91546
war	-9.91606
vor	-9.9165
bon	-9.91671
▁byer	-9.91696
▁hil	-9.91699
gått	-9.91791
maleri	-9.91799
▁periode	-9.91816
institusjon	-9.91914
▁arrangert	-9.91914
kapasitet	-9.91914
▁kok	-9.91929
▁tilsvar	-9.91968
38	-9.91981
ín	-9.92059
▁jule	-9.92063
rakte	-9.92141
lich	-9.9216
▁sun	-9.92179
sso	-9.92185
kirken	-9.92187
fugler	-9.92243
varer	-9.92253
▁sunn	-9.92403
▁populære	-9.92422
steder	-9.92451
▁stan	-9.92468
▁mary	-9.92653
▁bærer	-9.92668
onia	-9.92684
herre	-9.92743
▁eva	-9.92779
awa	-9.92813
▁private	-9.92851
▁intern	-9.9294
▁din	-9.92949
▁pasient	-9.92989
▁mongol	-9.92995
▁vokste	-9.92998
▁kjønn	-9.9301
▁nådd	-9.9315
▁deles	-9.93186
▁hopp	-9.9322
▁mobil	-9.93375
▁bonde	-9.93402
▁normalt	-9.93405
▁slutten	-9.93422
▁mulighet	-9.93429
▁sammenlign	-9.93517
▁vm	-9.93561
▁forsvar	-9.9359
▁test	-9.93624
▁qua	-9.93641
▁dro	-9.93649
lé	-9.93684
oper	-9.93866
▁flyplass	-9.94003
ß	-9.94067
▁hals	-9.94074
τ	-9.94076
▁spesiell	-9.94077
▁begynnelsen	-9.94079
▁lengre	-9.9408
▁college	-9.94082
▁magnus	-9.94083
▁autonom	-9.94086
hør	-9.94087
▁33	-9.94089
ов	-9.9409
▁bronse	-9.94094
▁uttale	-9.941
▁1965	-9.94102
bedrift	-9.94125
▁stift	-9.94237
levende	-9.94275
▁kata	-9.94276
▁organisert	-9.94277
regionen	-9.94332
forfatter	-9.94333
▁lot	-9.94391
snes	-9.94404
▁sær	-9.9452
▁kalte	-9.94686
▁innført	-9.94764
▁trafikk	-9.94824
▁gjennomført	-9.94846
▁human	-9.9489
▁tilhøre	-9.949
▁leon	-9.94941
▁cho	-9.94973
▁regional	-9.94995
ania	-9.95014
▁ec	-9.95045
▁verb	-9.95099
inae	-9.9511
▁stykke	-9.95158
ô	-9.95175
▁tilknyttet	-9.95175
advokat	-9.95175
▁1956	-9.95175
▁school	-9.95176
▁fokus	-9.95182
▁naturgass	-9.95185
▁1964	-9.95198
▁150	-9.95235
▁michel	-9.95241
▁stadig	-9.95265
▁tilfelle	-9.95283
▁offentlig	-9.95287
▁lam	-9.95294
▁eik	-9.95319
▁fan	-9.95324
▁nasjonalpark	-9.95393
iva	-9.95455
forskning	-9.95467
halvøya	-9.95559
▁inge	-9.95564
▁sørlige	-9.95619
▁overfor	-9.95629
▁from	-9.95674
▁jarl	-9.95679
▁miste	-9.95684
hei	-9.95725
▁område	-9.9573
gin	-9.95776
▁dun	-9.95946
▁hente	-9.95972
øvelse	-9.9604
merke	-9.96056
ön	-9.96112
▁qui	-9.96119
pass	-9.9612
▁troll	-9.96152
løpet	-9.96166
cker	-9.96272
▁alternativ	-9.96286
▁inspirert	-9.96286
▁alexander	-9.96286
▁tidsskrift	-9.96288
▁stortinget	-9.96291
▁canada	-9.96297
▁vanskelig	-9.96311
▁lansert	-9.96322
▁utføre	-9.96323
▁bakgrunn	-9.96345
▁slett	-9.96352
åsen	-9.96374
▁jevn	-9.96377
ical	-9.96446
zon	-9.96468
▁tørr	-9.96475
▁bydel	-9.96491
spenning	-9.96513
▁class	-9.96578
▁34	-9.96586
▁forekommer	-9.966
▁whi	-9.96661
28	-9.96685
▁plassert	-9.96779
hand	-9.96791
mennene	-9.96805
rolle	-9.9689
31	-9.96915
▁utgi	-9.96936
ordning	-9.97065
▁vill	-9.9725
▁produksjons	-9.97275
▁skriver	-9.97332
я	-9.9741
▁qū	-9.97422
▁mytologi	-9.97431
▁1920	-9.97443
▁otto	-9.97453
▁1900	-9.97474
ici	-9.97487
gården	-9.97618
▁ytre	-9.97621
gor	-9.97696
kjempe	-9.97705
▁graf	-9.9773
produsent	-9.97739
kontor	-9.97796
tjeneste	-9.97808
▁fange	-9.97832
▁svak	-9.97851
▁ves	-9.97852
put	-9.9786
▁brev	-9.97933
▁hj	-9.98027
▁pap	-9.98039
slaget	-9.98047
parken	-9.9806
▁aur	-9.98071
▁operer	-9.9812
handler	-9.98133
▁orkester	-9.98185
▁stri	-9.98382
▁skipet	-9.98407
myndighet	-9.98501
▁nowiki	-9.98546
▁kaptein	-9.98546
frekvens	-9.98547
▁royal	-9.98554
▁stadion	-9.98554
▁voksne	-9.98558
▁edward	-9.98562
▁1966	-9.98567
▁smith	-9.98567
▁forteller	-9.98569
▁snart	-9.98575
bridge	-9.98599
▁tog	-9.98616
▁andersen	-9.98634
▁are	-9.98636
▁formann	-9.98638
▁kg	-9.98677
▁sammenheng	-9.98682
qi	-9.98701
▁sna	-9.98705
serien	-9.98783
▁prakt	-9.98811
▁begynner	-9.98972
▁rand	-9.98999
▁nettverk	-9.99002
▁matt	-9.99008
bevegelsen	-9.99019
▁raskt	-9.99043
▁forretnings	-9.99139
▁dommer	-9.99148
▁kara	-9.99277
tsch	-9.99303
olje	-9.9934
▁strid	-9.99434
▁handling	-9.99501
▁kreft	-9.9952
kysten	-9.99524
park	-9.99524
▁wall	-9.99541
▁sønnen	-9.99592
kall	-9.99623
▁lån	-9.99677
▁prefektur	-9.99695
ù	-9.99695
▁innflytelse	-9.99695
▁hurtig	-9.99697
▁østerrike	-9.99698
▁grunnlegger	-9.99716
linje	-9.99742
▁domin	-9.99747
roman	-9.99775
▁motiv	-9.99866
▁korea	-9.9991
▁areal	-9.9991
hof	-9.99973
▁utstyr	-9.99977
▁kyr	-10.0002
avdeling	-10.0016
ative	-10.0018
debut	-10.002
▁klassen	-10.0022
politikk	-10.0025
▁folket	-10.0035
▁militære	-10.0039
▁disk	-10.0052
▁nedre	-10.0059
▁masse	-10.0062
▁romanen	-10.0071
▁ånd	-10.0071
opol	-10.0078
▁auto	-10.0079
▁bibliotek	-10.0086
▁yngre	-10.0086
▁jim	-10.0087
▁islam	-10.0087
▁1945	-10.0087
leir	-10.0089
▁fungere	-10.009
▁dynastiet	-10.0091
▁kvinnelig	-10.0096
ique	-10.0109
▁team	-10.0112
bit	-10.0116
▁coll	-10.0118
▁kvart	-10.0119
funksjon	-10.0127
34	-10.013
▁verd	-10.0134
holdsvis	-10.0135
atur	-10.0136
▁sti	-10.0139
▁1800	-10.0145
▁hammer	-10.0145
▁kristne	-10.0147
▁forsker	-10.0149
▁finne	-10.0154
▁menn	-10.0155
▁blokk	-10.0155
▁varierer	-10.0157
▁kurs	-10.0163
▁åpne	-10.0167
bak	-10.0168
▁papir	-10.0172
▁nav	-10.0174
ping	-10.0175
fyr	-10.0182
▁rollen	-10.019
▁beskriver	-10.0194
▁tale	-10.0197
▁his	-10.0201
▁australia	-10.0203
▁millimeter	-10.0203
▁1961	-10.0205
forskjell	-10.0206
▁yo	-10.0206
▁mono	-10.0207
▁omtalt	-10.0208
▁inndelt	-10.0217
▁skille	-10.0221
▁vent	-10.0224
▁hug	-10.0226
▁debuter	-10.0235
▁begrens	-10.0242
trafikk	-10.0247
forbindelse	-10.0248
▁revolusjon	-10.0248
▁asia	-10.0253
▁støttet	-10.0257
kjør	-10.0259
▁hovedrollene	-10.0259
▁hin	-10.0265
▁hæren	-10.0297
▁nederland	-10.0305
▁vitenskapelig	-10.0311
▁kapit	-10.0318
▁avslutte	-10.032
▁dobbelt	-10.0323
▁offisielt	-10.0323
▁digital	-10.0323
▁hustru	-10.0323
▁multi	-10.0323
▁republikken	-10.0325
rey	-10.0325
▁behandle	-10.0328
▁bydistrikt	-10.0329
▁hjerne	-10.033
▁kari	-10.0333
plikt	-10.0337
stav	-10.034
▁former	-10.0348
▁sier	-10.0348
▁sterk	-10.035
fysik	-10.0353
▁esp	-10.036
▁statlig	-10.0366
norsk	-10.0367
▁opphav	-10.0367
effekt	-10.0371
▁ark	-10.0372
▁ansatte	-10.0386
▁beat	-10.0388
▁arve	-10.0389
jä	-10.0392
▁ekstra	-10.0404
▁irland	-10.0406
▁planter	-10.0413
sikkerhet	-10.0422
jon	-10.0432
▁ansvarlig	-10.0433
▁prøve	-10.0437
▁hov	-10.0438
▁introdusert	-10.0443
▁ishockey	-10.0443
▁vulkan	-10.0443
▁forenklet	-10.0443
▁muslim	-10.0443
▁united	-10.0443
▁frederik	-10.0443
▁medlemmene	-10.0444
▁front	-10.0444
▁bevart	-10.0449
▁phil	-10.0454
▁wil	-10.0459
▁bodde	-10.0462
▁reaksjon	-10.0467
▁show	-10.0467
▁listen	-10.047
▁fol	-10.0471
▁skatte	-10.0472
▁viking	-10.0475
▁torg	-10.0477
foreningen	-10.0482
analyse	-10.0485
utvikling	-10.0493
▁kin	-10.0495
▁simon	-10.0502
▁alder	-10.0506
▁mangler	-10.0529
▁medisin	-10.0532
▁poet	-10.0533
▁skinn	-10.0539
▁polar	-10.0557
pone	-10.0558
europeisk	-10.0559
▁anta	-10.0562
hastighet	-10.0565
▁south	-10.0567
▁skotsk	-10.0567
▁1948	-10.0568
▁konstant	-10.0569
▁inf	-10.057
▁solgte	-10.0571
psykologi	-10.0584
▁selge	-10.0589
▁kraftige	-10.059
▁effektiv	-10.0591
29	-10.0595
lement	-10.0596
▁rad	-10.06
▁salg	-10.06
▁furu	-10.06
▁nø	-10.0603
▁fylket	-10.0607
▁niels	-10.061
▁vannet	-10.0612
▁sum	-10.0617
konkurranse	-10.0617
hånd	-10.0618
▁sof	-10.0621
▁befolkning	-10.0625
▁rose	-10.0635
▁boy	-10.0645
▁beina	-10.0647
istene	-10.0649
forhold	-10.0655
▁prins	-10.0656
▁struktur	-10.0671
▁lagt	-10.0674
▁forlag	-10.0674
▁spise	-10.0675
▁sven	-10.0675
▁møll	-10.0686
fabrikk	-10.0686
▁company	-10.0688
▁1955	-10.069
▁web	-10.0692
▁således	-10.0693
▁mah	-10.0693
▁finalen	-10.0695
▁avisen	-10.0702
▁eksistere	-10.0703
▁fjær	-10.0705
▁bibel	-10.0708
visning	-10.0711
▁mw	-10.0716
▁kommuner	-10.0719
▁havet	-10.0722
▁reform	-10.0723
▁konkurranse	-10.0725
alitet	-10.0727
▁elektron	-10.0737
▁saga	-10.0741
wood	-10.0744
▁markert	-10.0749
chester	-10.0758
årig	-10.0763
vika	-10.0772
vogn	-10.0775
▁sæ	-10.0781
tikken	-10.0783
▁føde	-10.0784
▁kha	-10.08
mont	-10.08
▁historien	-10.0805
elv	-10.0805
ς	-10.0813
▁etterfulgt	-10.0813
▁kjærlighet	-10.0813
▁inneholdt	-10.0813
friidrettsutøver	-10.0814
▁liberal	-10.082
▁power	-10.0822
▁latinsk	-10.0829
▁cup	-10.0829
▁linjen	-10.0835
gud	-10.0843
▁morgen	-10.0854
enden	-10.0855
bach	-10.0857
▁math	-10.0859
▁museet	-10.0859
▁endt	-10.0862
fatte	-10.0873
▁innhold	-10.0891
▁that	-10.0896
modell	-10.0902
▁buk	-10.0908
hed	-10.0909
▁språket	-10.0914
sfjorden	-10.0916
▁sider	-10.0917
dannelse	-10.0918
slekten	-10.0936
▁but	-10.0937
▁cur	-10.0937
komité	-10.0941
▁shan	-10.0942
▁oscar	-10.0943
rettigheter	-10.0943
ifisering	-10.0947
▁politikk	-10.0949
tallet	-10.0954
▁nordland	-10.0955
▁ligne	-10.0958
▁verket	-10.0963
▁sikkerhets	-10.0963
▁fc	-10.0968
▁sar	-10.0972
▁nordisk	-10.0977
▁trener	-10.0978
▁skifte	-10.0979
ко	-10.0983
▁sovjetisk	-10.0992
▁sikre	-10.0994
▁klubb	-10.1003
▁institutt	-10.1008
▁utga	-10.1009
▁kvalitet	-10.1009
▁meta	-10.1011
▁chang	-10.1014
▁pur	-10.1015
▁sca	-10.1028
▁jam	-10.1032
▁beskrive	-10.1034
▁vitenskap	-10.1035
▁kamper	-10.1035
▁koll	-10.1037
hagen	-10.1047
strid	-10.105
▁dru	-10.1052
▁øvrige	-10.1055
▁aar	-10.1055
staten	-10.1056
▁femte	-10.1063
▁redusert	-10.1068
vunnet	-10.1068
▁bosetning	-10.1069
ström	-10.1069
▁1969	-10.107
▁henholdsvis	-10.107
▁stortings	-10.1071
materiale	-10.1071
▁svein	-10.1072
▁nicol	-10.1073
▁ført	-10.1073
▁preget	-10.1076
▁trommer	-10.1078
▁overflate	-10.1081
▁hval	-10.1082
▁sikte	-10.1082
delt	-10.1083
▁undersøkelse	-10.1084
▁aksje	-10.1088
▁bydelen	-10.1093
▁hydro	-10.1098
dik	-10.1098
▁katolske	-10.1106
▁snu	-10.1119
cio	-10.1119
▁hem	-10.112
▁forlot	-10.1122
stjerne	-10.1123
▁tam	-10.1125
miljø	-10.1137
født	-10.1137
▁dominere	-10.1141
forsker	-10.1143
0	-10.1144
ctor	-10.1144
▁filosofi	-10.1149
▁snakke	-10.1155
▁moren	-10.1155
stemme	-10.116
▁ost	-10.1169
▁myk	-10.1178
▁bach	-10.1179
administrasjon	-10.1191
▁1958	-10.1198
▁mexico	-10.1198
▁sjelden	-10.1198
kasse	-10.1198
▁tradisjonelt	-10.1198
▁1946	-10.12
▁finnmark	-10.12
▁bredt	-10.1201
▁berømte	-10.1204
▁brenn	-10.1205
▁sverd	-10.1206
▁dvs	-10.1208
cle	-10.1209
▁kjøre	-10.1211
▁tårn	-10.1215
sundet	-10.1217
lignende	-10.1224
▁internett	-10.1226
▁menighet	-10.1228
▁hundre	-10.1231
masse	-10.1233
▁sankt	-10.1234
jord	-10.1235
leie	-10.1247
▁75	-10.1251
▁cd	-10.1258
▁systemet	-10.1281
▁offentlige	-10.1285
▁pil	-10.129
▁final	-10.1303
▁bell	-10.1318
▁politiet	-10.1323
ál	-10.1329
▁publikum	-10.133
▁positiv	-10.133
▁1962	-10.133
▁kunnskap	-10.133
▁nærmere	-10.133
▁für	-10.133
▁1954	-10.1332
fil	-10.1332
oksid	-10.1333
▁vokser	-10.1336
▁drikke	-10.1337
plante	-10.1337
legging	-10.1338
▁landskapet	-10.1338
▁east	-10.1339
▁portrett	-10.134
▁omfattende	-10.1341
▁luther	-10.1342
▁grøn	-10.1342
kapital	-10.1348
▁bånd	-10.1354
▁lavere	-10.1354
▁fotballklubb	-10.1363
▁junior	-10.1366
sats	-10.1366
fre	-10.1375
▁36	-10.1377
▁francis	-10.1378
▁tour	-10.1383
▁vet	-10.1385
politisk	-10.1386
flekk	-10.1393
▁pul	-10.1398
komedie	-10.1398
runde	-10.1399
▁tau	-10.1399
13	-10.14
▁out	-10.1404
folket	-10.1413
▁gress	-10.1416
▁lim	-10.1423
▁gruve	-10.1424
▁antenne	-10.1429
▁bull	-10.143
▁landsby	-10.1436
▁søke	-10.1443
▁alp	-10.1444
▁jobbet	-10.1446
▁foreningen	-10.1446
mesterskapet	-10.1447
gra	-10.1449
▁dannes	-10.145
▁nivå	-10.1451
▁town	-10.1453
▁sistnevnte	-10.1463
▁erkebiskop	-10.1463
▁kjemisk	-10.1463
▁geometri	-10.1463
▁arthur	-10.1463
▁skjedde	-10.1466
26	-10.1467
chu	-10.1476
▁fremste	-10.1476
forestilling	-10.1476
▁utdannelse	-10.148
fotograf	-10.1481
setting	-10.1487
▁dio	-10.1487
▁kab	-10.1489
▁underlag	-10.1489
▁bunn	-10.149
▁styrker	-10.1506
dømt	-10.1506
▁kim	-10.1509
▁server	-10.1515
sluttet	-10.1522
▁innspilling	-10.1526
▁akt	-10.1526
▁wolf	-10.1528
▁endelig	-10.1533
▁cel	-10.1533
▁chan	-10.1538
▁dalen	-10.1541
▁frihet	-10.1541
hjem	-10.1548
▁korn	-10.1548
▁gruppa	-10.155
▁fordelt	-10.1551
▁vogn	-10.1568
▁42	-10.1581
▁bakkroppen	-10.1582
▁az	-10.1585
▁thu	-10.1587
▁butikk	-10.159
▁bjør	-10.1597
▁installert	-10.1598
▁selvstendig	-10.1598
▁generelt	-10.1598
▁moskva	-10.1598
▁insekt	-10.1598
▁tolv	-10.16
▁term	-10.1603
▁spania	-10.1605
▁kapp	-10.1605
▁kapell	-10.1605
▁ridder	-10.1606
anda	-10.1607
▁steve	-10.1608
situasjon	-10.161
flate	-10.1613
▁län	-10.1614
▁nød	-10.1617
▁ulv	-10.1623
assi	-10.1641
bury	-10.1665
▁tann	-10.1666
▁ingeniør	-10.1675
▁krim	-10.1676
avtale	-10.168
tittel	-10.1682
33	-10.1683
▁spørsmål	-10.1683
▁spre	-10.1691
hopp	-10.1693
bøker	-10.1695
▁hevdet	-10.1695
▁orient	-10.1702
kontroll	-10.1712
stokk	-10.1715
▁filosof	-10.1719
▁platen	-10.1722
rommet	-10.1723
▁eventyr	-10.1735
▁1959	-10.1735
▁debutalbum	-10.1735
▁55	-10.1737
▁adresse	-10.1737
▁1951	-10.1737
▁bygda	-10.1738
▁1930	-10.1739
▁gustav	-10.1739
▁europeiske	-10.1741
kritiker	-10.1744
▁rask	-10.1747
▁fløy	-10.1753
▁vokalist	-10.1761
▁tonn	-10.1762
▁skall	-10.1762
språklig	-10.1765
▁strekk	-10.1768
▁ferge	-10.1772
▁kaller	-10.1775
▁jack	-10.1777
▁alf	-10.1794
▁play	-10.18
▁cru	-10.1811
▁qi	-10.182
strøk	-10.1821
▁handler	-10.1835
▁ferr	-10.1836
duk	-10.1851
▁utvikler	-10.186
▁skiller	-10.1872
arrangement	-10.1874
▁administrere	-10.1874
▁association	-10.1874
▁ekteskap	-10.1874
▁betjene	-10.1875
▁kjenne	-10.1875
mønster	-10.1876
▁1949	-10.1876
▁nattfly	-10.1877
▁sik	-10.1879
▁oversettelse	-10.1883
▁brown	-10.1886
▁endre	-10.1906
▁øker	-10.1915
næring	-10.1917
▁billed	-10.1922
▁kalk	-10.1926
iana	-10.1928
blikk	-10.1934
▁beskrev	-10.1935
▁gon	-10.1941
▁møter	-10.1943
▁idrettslag	-10.1948
▁stam	-10.1948
merker	-10.1951
▁emil	-10.1957
havn	-10.1959
▁38	-10.1961
teori	-10.1979
▁sab	-10.198
måte	-10.1985
▁inntekt	-10.1993
▁prosjektet	-10.1996
følgende	-10.2001
▁brede	-10.2005
tjenesten	-10.2013
ч	-10.2015
▁yrkes	-10.2015
▁alvorlig	-10.2015
▁fysisk	-10.2015
▁redusere	-10.2015
▁grov	-10.2016
▁dverg	-10.2017
▁group	-10.202
lista	-10.202
▁alfred	-10.2021
serie	-10.2041
▁likhet	-10.2043
▁osv	-10.2043
▁nm	-10.205
▁gjer	-10.2056
▁lenge	-10.2061
▁foto	-10.2062
▁slave	-10.2067
bad	-10.2069
▁verne	-10.2087
▁khan	-10.2096
▁minutter	-10.2102
alisme	-10.2103
versjon	-10.2106
▁sport	-10.211
▁aas	-10.2111
ligste	-10.2113
oftest	-10.2121
bakken	-10.2125
▁våg	-10.2126
▁undervisning	-10.2126
ва	-10.2129
▁kjøl	-10.2129
▁hai	-10.2132
organisasjonen	-10.2137
▁angel	-10.2138
▁vig	-10.2142
trådte	-10.2142
familie	-10.2151
▁falt	-10.2154
▁solgt	-10.2155
▁republik	-10.2155
▁kombinert	-10.2158
▁shanghai	-10.2158
▁fengsel	-10.2158
▁sigurd	-10.2158
▁kommando	-10.2158
▁musikalsk	-10.2158
▁registrert	-10.2158
▁gunnar	-10.2158
▁sekund	-10.2158
▁giovan	-10.2158
▁himmel	-10.2159
kort	-10.2175
▁nevnt	-10.2175
▁sveits	-10.2179
sey	-10.2182
hild	-10.2184
speil	-10.2192
▁utstyrt	-10.2195
ев	-10.2203
cca	-10.2207
▁vor	-10.2209
▁120	-10.2211
biller	-10.2214
betegnelse	-10.2219
redning	-10.2221
vannet	-10.2224
▁lønn	-10.2225
▁petr	-10.223
▁chu	-10.2231
▁herman	-10.2251
direktør	-10.2254
▁lyn	-10.2276
dahl	-10.2282
▁tykk	-10.2283
isch	-10.2285
strup	-10.2287
slekt	-10.2294
▁liga	-10.23
▁vanligst	-10.2302
▁american	-10.2303
▁kulturminner	-10.2303
▁skottland	-10.2303
▁motsetning	-10.2303
molekyl	-10.2303
▁rolf	-10.2303
▁golf	-10.2303
▁forårsake	-10.2304
▁hul	-10.2312
▁stabil	-10.2312
▁dokumenter	-10.2313
▁eksport	-10.2313
▁down	-10.2319
verdi	-10.2323
▁studier	-10.2324
▁raf	-10.2324
▁sats	-10.2325
plattform	-10.2331
▁wel	-10.2335
▁franc	-10.2335
▁oppdrag	-10.2338
▁rod	-10.2343
▁brand	-10.235
▁forbundet	-10.2353
tekst	-10.2362
▁athen	-10.2375
dommer	-10.2382
gjort	-10.2385
▁master	-10.2388
▁dahl	-10.2393
▁kontrakt	-10.2394
▁utenriks	-10.24
▁drag	-10.2409
museet	-10.2411
▁utover	-10.2442
▁arkiv	-10.2448
▁komponert	-10.245
▁mekanisk	-10.245
▁strategi	-10.245
▁skildre	-10.245
▁betrakte	-10.245
▁scott	-10.245
▁rekord	-10.2451
▁1918	-10.2452
▁1932	-10.2452
▁josef	-10.2454
▁skarp	-10.2455
høgskole	-10.2459
▁jud	-10.246
▁grunnlegge	-10.2464
▁modern	-10.2468
▁hovedsak	-10.248
▁fullført	-10.2492
forbundet	-10.2494
▁ungdom	-10.2498
▁ulik	-10.25
verv	-10.2511
▁fortsetter	-10.2511
▁objekt	-10.2513
lock	-10.2516
hem	-10.2525
▁kjøtt	-10.2525
▁oppleve	-10.2527
▁mala	-10.2531
▁smak	-10.2534
▁larve	-10.255
▁konst	-10.255
▁fritt	-10.2554
▁vegg	-10.2558
bølge	-10.2558
politi	-10.256
yuan	-10.256
öl	-10.2577
▁sønd	-10.2588
liste	-10.2589
▁1952	-10.2599
▁utmerkelse	-10.2599
▁negativ	-10.2599
▁premier	-10.26
▁studioalbum	-10.26
▁jødisk	-10.26
▁cle	-10.2601
▁1928	-10.2601
▁beholdt	-10.2601
▁håndball	-10.2601
▁signert	-10.2604
bestemmelse	-10.2604
▁palm	-10.2604
▁tildele	-10.2604
apparat	-10.2605
lønn	-10.2606
▁histori	-10.2615
▁avhengig	-10.2616
▁magnet	-10.2627
▁walter	-10.263
▁ou	-10.2636
▁game	-10.2639
▁gitarist	-10.2644
plei	-10.2646
▁bly	-10.2648
▁peder	-10.2651
▁brem	-10.2653
▁tynn	-10.2659
abell	-10.2664
feng	-10.2679
▁beskrevet	-10.2685
▁slå	-10.2687
▁wood	-10.2691
▁swi	-10.2692
styrt	-10.27
▁nyere	-10.27
teater	-10.271
▁arv	-10.2721
løft	-10.2723
▁fett	-10.2728
dokument	-10.274
forvaltning	-10.2745
horn	-10.2745
▁bulgarsk	-10.275
▁ødelegge	-10.275
▁konflikt	-10.2751
▁jørgen	-10.2751
▁jakob	-10.2751
▁cirka	-10.2751
praksis	-10.2751
ovitsj	-10.2752
▁1933	-10.2752
▁etterfølger	-10.2752
▁bakteri	-10.2753
strekning	-10.2754
▁landslag	-10.2754
▁videregående	-10.2755
faktor	-10.2756
▁pedersen	-10.2757
▁kritikk	-10.2761
kjøn	-10.2769
lä	-10.2778
▁forsøkt	-10.2779
ambi	-10.2782
▁kommunal	-10.2787
▁morten	-10.279
gram	-10.2791
▁birk	-10.2795
▁white	-10.2799
bryter	-10.2802
▁yan	-10.2806
▁tross	-10.281
drakt	-10.2821
▁tusen	-10.2826
▁bære	-10.2832
▁områdene	-10.2837
ward	-10.2842
▁signal	-10.2857
▁ross	-10.2877
▁bakken	-10.2882
▁vingene	-10.289
▁california	-10.2904
▁ukjent	-10.2904
▁ekstrem	-10.2904
▁fiktiv	-10.2904
▁flåte	-10.2906
▁1944	-10.2907
▁fjernsyn	-10.2907
▁1957	-10.2908
vandring	-10.2908
▁håkon	-10.2908
▁fotballspiller	-10.2909
▁bevis	-10.291
stråle	-10.2912
støt	-10.2915
▁deltaker	-10.2921
toppen	-10.293
▁arkitektur	-10.293
skatt	-10.2931
▁rid	-10.2932
▁hotel	-10.2937
▁ungdomsskole	-10.2937
rekke	-10.2949
perioden	-10.2951
▁smerte	-10.2951
stemning	-10.2952
▁munk	-10.2955
områdene	-10.2959
▁skylde	-10.297
▁spillet	-10.297
▁status	-10.2972
▁paus	-10.2975
▁river	-10.2979
vatn	-10.2981
botn	-10.2987
▁ankom	-10.2988
endring	-10.2989
▁øl	-10.2991
polis	-10.2996
▁utvidet	-10.2999
▁utøver	-10.3
▁teolog	-10.3001
▁innsjø	-10.3001
▁ønsket	-10.3004
komiteen	-10.3004
▁normal	-10.3013
▁energiselskape	-10.3023
utstyr	-10.3029
▁troms	-10.3031
▁heg	-10.3033
▁kommun	-10.3037
▁virkelig	-10.3039
wick	-10.3042
planter	-10.3045
▁lyng	-10.3047
time	-10.305
bukk	-10.3057
sending	-10.3058
▁medisinsk	-10.306
▁fullstendig	-10.3061
▁1953	-10.3061
▁county	-10.3061
▁christoph	-10.3061
▁hebraisk	-10.3061
▁terreng	-10.3061
▁nominert	-10.3061
▁nedenfor	-10.3062
worth	-10.3062
▁anvende	-10.3062
▁1938	-10.3063
▁1908	-10.3063
▁mineral	-10.3063
▁1939	-10.3064
▁protest	-10.3065
▁flekker	-10.3065
▁krysser	-10.3068
krig	-10.3069
▁skilt	-10.3073
▁henhold	-10.3076
▁sukker	-10.3085
▁vii	-10.3088
▁bang	-10.3091
hunder	-10.3101
▁bøy	-10.3109
▁tell	-10.3114
ulykke	-10.3117
▁bau	-10.3119
▁bispedømme	-10.3122
bekk	-10.3135
phy	-10.3147
komst	-10.3157
▁fremført	-10.3157
fabrik	-10.3159
▁sender	-10.3169
format	-10.3176
▁offiser	-10.3185
amerikanske	-10.3186
hjelp	-10.3186
grå	-10.3189
▁xu	-10.319
skifte	-10.3194
▁psyko	-10.3195
▁opplag	-10.3199
▁back	-10.3212
konstruksjon	-10.3219
▁league	-10.3219
▁science	-10.3219
▁dokumentar	-10.3219
▁rektor	-10.322
▁tegneserie	-10.322
ль	-10.322
▁hemmelig	-10.3221
▁big	-10.3222
▁befinne	-10.3223
▁drammen	-10.3223
vass	-10.323
▁nerv	-10.3231
▁utnytte	-10.3232
kostnad	-10.3235
bebyggelse	-10.3237
profil	-10.3241
▁marg	-10.3244
▁geir	-10.3256
▁eb	-10.3262
▁kanalen	-10.3262
▁konkurransen	-10.3265
▁katt	-10.3287
ello	-10.3289
fylt	-10.3291
maker	-10.3292
000	-10.33
▁tråd	-10.3303
▁roger	-10.3317
strømmen	-10.3331
graph	-10.3344
bukta	-10.3347
▁thom	-10.3366
▁gjeng	-10.3371
▁gjeld	-10.3377
▁fremst	-10.3377
▁1942	-10.3381
▁guvernør	-10.3381
▁records	-10.3381
▁tømmer	-10.3381
▁andré	-10.3382
▁kveld	-10.3382
▁hjort	-10.3382
▁1936	-10.3383
▁feire	-10.3394
▁nedlagt	-10.3395
▁gradvis	-10.3398
▁krever	-10.3405
▁utvikle	-10.3414
▁malm	-10.3422
stone	-10.3423
▁terri	-10.3427
▁tropp	-10.3443
▁beskrivelse	-10.3443
▁christi	-10.3444
▁drei	-10.3452
▁tapte	-10.3453
▁road	-10.3462
▁160	-10.3462
▁trond	-10.3464
vakt	-10.3471
▁major	-10.3471
▁inneha	-10.3478
▁wang	-10.35
▁forsvaret	-10.3503
næs	-10.3505
bregne	-10.3507
▁nasjon	-10.3509
▁drap	-10.3513
typer	-10.3515
konsert	-10.3517
▁sveitsisk	-10.3521
▁metro	-10.3526
personell	-10.3527
▁clo	-10.353
rapport	-10.3531
▁østerriksk	-10.3544
stråling	-10.3545
▁individ	-10.3545
▁vietnam	-10.3545
samband	-10.3545
▁utbredt	-10.3545
▁bøkene	-10.3546
▁1919	-10.3547
▁1935	-10.3547
▁mannskapet	-10.3548
▁bekrefte	-10.3548
ла	-10.3549
▁2018	-10.355
▁franz	-10.3556
▁score	-10.3562
eksamen	-10.3566
▁shu	-10.3569
▁tilpasse	-10.3578
▁800	-10.3578
gass	-10.3579
▁pensjon	-10.3582
dyktig	-10.3592
▁medaljen	-10.3599
▁qing	-10.3603
▁spring	-10.3612
▁forbinde	-10.3612
bind	-10.3646
▁cand	-10.3649
tjern	-10.3649
rsom	-10.3655
tilbud	-10.3672
styrken	-10.3675
spesifik	-10.3677
▁fru	-10.3679
tain	-10.3683
▁elektro	-10.3686
▁tempel	-10.3699
regn	-10.3699
áng	-10.3708
▁katedral	-10.3711
▁nødvendig	-10.3711
▁utgangspunkt	-10.3711
forstyrre	-10.3711
▁global	-10.3711
▁brødrene	-10.3712
▁originaltittel	-10.3712
▁belgisk	-10.3712
▁fargen	-10.3713
▁1929	-10.3713
▁1912	-10.3714
▁opptrer	-10.3714
givende	-10.3714
▁spredt	-10.3715
ōng	-10.3729
▁telemark	-10.3733
fortelling	-10.3733
▁mitt	-10.3733
▁piano	-10.3735
▁brød	-10.3736
▁einar	-10.3736
▁rulle	-10.3741
distanse	-10.3741
▁overført	-10.3743
▁agder	-10.3749
▁audi	-10.3751
▁1700	-10.3755
▁oh	-10.3764
sidig	-10.3797
▁mangle	-10.3801
rock	-10.3821
▁synd	-10.3859
president	-10.386
▁rosa	-10.386
▁medalje	-10.3869
▁1907	-10.3881
▁anerkjent	-10.3881
▁konkurrere	-10.3881
▁1906	-10.3881
▁dekkvingene	-10.3881
▁ungarsk	-10.3881
▁monument	-10.3881
▁oversikt	-10.3881
▁kobber	-10.3881
▁vindu	-10.3882
▁novell	-10.3883
▁generasjon	-10.3883
▁firmaet	-10.3883
▁stiftelsen	-10.3883
▁svømme	-10.3884
kompani	-10.3885
▁utløp	-10.3887
▁forsterke	-10.3889
▁veldig	-10.3892
▁uttalt	-10.3893
▁bryn	-10.3896
▁innsats	-10.3897
▁kjel	-10.39
▁reserve	-10.3902
▁oppnådd	-10.3906
styrke	-10.3909
▁sara	-10.3917
▁dukke	-10.3936
▁skjær	-10.3938
bod	-10.3941
sentre	-10.3945
iansk	-10.3953
listen	-10.3955
mä	-10.3982
▁svar	-10.3986
stått	-10.3997
vitenskap	-10.4015
▁600	-10.4022
▁regjer	-10.4025
posisjon	-10.4025
▁overleve	-10.4029
ypt	-10.4034
wei	-10.404
▁bevege	-10.4045
▁lapp	-10.4047
▁walk	-10.4053
▁ukrainsk	-10.4053
▁eventuel	-10.4053
▁antarktis	-10.4053
▁frykt	-10.4053
▁deutsche	-10.4053
pedagog	-10.4053
▁edvard	-10.4053
▁nepal	-10.4054
▁1934	-10.4055
▁debatt	-10.4055
▁1924	-10.4055
▁1947	-10.4057
▁lokalisert	-10.4062
tårn	-10.4077
▁jonas	-10.4082
▁isteden	-10.4084
▁german	-10.4099
▁bidrag	-10.4105
seth	-10.4106
▁falk	-10.4137
▁stå	-10.4138
▁fed	-10.4143
▁sideelv	-10.415
▁laks	-10.4158
▁kriminal	-10.4166
▁prosessen	-10.417
forsyning	-10.417
▁bakke	-10.4172
▁begrep	-10.4176
▁lomme	-10.4179
konsern	-10.4201
▁lord	-10.4205
instrument	-10.4211
behandling	-10.4211
historisk	-10.4212
design	-10.4213
▁kap	-10.4217
▁initiativ	-10.4228
▁country	-10.4229
▁færøyene	-10.4229
▁1922	-10.4229
▁thailand	-10.4229
▁adolf	-10.4229
▁nedbør	-10.4229
▁forklare	-10.4229
▁oberst	-10.4229
▁fuktig	-10.423
▁avledet	-10.4231
▁1914	-10.4231
▁samfunnet	-10.4231
▁søndag	-10.4232
▁sannsynligvis	-10.4233
▁center	-10.4236
▁1910	-10.4239
▁demningen	-10.4247
▁spin	-10.4253
▁utenom	-10.4257
regime	-10.4259
▁young	-10.427
ship	-10.4273
lukke	-10.4286
▁great	-10.4288
▁visse	-10.4301
økonom	-10.4342
støtte	-10.4361
vall	-10.4364
▁pels	-10.4366
vang	-10.4386
▁flø	-10.4397
forsvar	-10.4397
▁kau	-10.4397
з	-10.4406
▁elisabeth	-10.4407
▁kompleks	-10.4407
▁gabriel	-10.4407
▁krevde	-10.4407
▁ansikt	-10.4407
rådgiver	-10.4407
lengde	-10.4408
▁byttet	-10.4409
▁1921	-10.441
ка	-10.4411
▁generell	-10.4412
▁hydrogen	-10.4414
▁wilson	-10.4416
▁skytter	-10.4417
▁skjell	-10.4423
▁diesel	-10.4425
▁johansen	-10.4433
▁1500	-10.4438
▁hull	-10.4461
▁antennene	-10.4467
▁biografi	-10.4469
▁bratt	-10.4469
▁kamera	-10.4473
vík	-10.4482
ehr	-10.4502
▁pont	-10.4527
spiss	-10.4542
▁kommunistisk	-10.4548
idrett	-10.4551
▁rau	-10.4557
▁skuespill	-10.4562
rykket	-10.4571
type	-10.4581
turnering	-10.4582
āng	-10.4583
investering	-10.4586
▁fødsel	-10.4589
løytnant	-10.4589
vassdraget	-10.4589
▁www	-10.4589
▁erklært	-10.4589
▁angripe	-10.459
▁blanding	-10.459
▁krystall	-10.4591
▁salme	-10.4591
▁geografisk	-10.4591
trukket	-10.4592
▁vannkraftverk	-10.4594
▁import	-10.4595
studie	-10.4601
▁blank	-10.4602
▁invest	-10.4602
tempelet	-10.4603
følelse	-10.4606
cast	-10.461
▁him	-10.4614
▁panser	-10.4628
hvit	-10.4632
▁hä	-10.4633
▁tromsø	-10.4633
▁johnson	-10.4642
▁little	-10.4643
▁fab	-10.4653
▁small	-10.4653
▁hekk	-10.4656
kjenne	-10.4662
einrich	-10.4664
▁sørge	-10.4689
ologen	-10.4691
ttle	-10.4695
høyskole	-10.4699
regning	-10.4715
▁life	-10.4722
▁utkom	-10.4728
▁plast	-10.4735
ер	-10.4738
▁bidra	-10.4745
champ	-10.4754
▁hende	-10.4761
▁wol	-10.4769
▁dirigent	-10.4774
▁orchestra	-10.4774
▁restaurant	-10.4774
▁styrmann	-10.4774
▁kombinasjon	-10.4774
▁reklame	-10.4774
▁pakistan	-10.4774
▁sachsen	-10.4774
▁frivillig	-10.4774
▁dollar	-10.4775
▁http	-10.4775
▁bodø	-10.4775
▁terror	-10.4775
konvensjon	-10.4776
▁arendal	-10.4776
▁1931	-10.4776
▁gråbrun	-10.4777
▁manager	-10.4777
domstol	-10.4778
▁1937	-10.4779
▁varianter	-10.4781
▁marin	-10.4785
▁allmenn	-10.4787
spinner	-10.4789
▁alex	-10.4791
▁good	-10.4803
▁behov	-10.4804
▁nobel	-10.4806
trener	-10.4811
▁victor	-10.4838
bring	-10.4847
gran	-10.4857
▁statue	-10.4865
▁evne	-10.4866
▁kvit	-10.4881
tysk	-10.4886
▁vall	-10.4886
▁mau	-10.4886
▁arena	-10.4915
reise	-10.4945
▁aleksander	-10.4963
▁kristiansand	-10.4963
▁tabellen	-10.4963
▁valuta	-10.4963
▁definert	-10.4964
▁skjønn	-10.4964
▁stefan	-10.4964
batteri	-10.4966
▁1901	-10.4966
▁røyk	-10.4969
ни	-10.4971
▁høst	-10.4974
▁antonio	-10.4977
▁hitler	-10.4979
▁forvalte	-10.4982
▁niko	-10.4982
▁orgel	-10.4991
▁sving	-10.4995
▁ernst	-10.5001
▁østover	-10.5004
▁persisk	-10.5006
syklus	-10.5026
edderkopper	-10.503
kjøring	-10.5038
snegl	-10.5043
▁georgia	-10.5055
fred	-10.5056
ра	-10.506
▁henri	-10.5079
▁plateselskap	-10.5093
▁ansatt	-10.5109
trø	-10.5125
▁karbon	-10.5125
▁angi	-10.5142
skjerm	-10.5148
register	-10.5149
ович	-10.5155
▁1905	-10.5155
▁konstruert	-10.5155
▁foregår	-10.5155
▁ludvig	-10.5155
bibliotek	-10.5155
admiral	-10.5155
teknologi	-10.5156
▁senior	-10.5156
veps	-10.5157
▁templ	-10.5158
▁telefon	-10.5159
▁sverre	-10.516
▁sykkel	-10.5161
▁kongsberg	-10.5161
▁beregne	-10.5161
▁komposisjon	-10.5162
▁jackson	-10.5163
▁utenlandske	-10.5163
▁forvaltnings	-10.5164
▁pierre	-10.5165
▁bygninger	-10.5166
▁lill	-10.517
▁56	-10.5171
styring	-10.5176
▁plassering	-10.5177
vesenet	-10.5177
skab	-10.5181
▁vennskap	-10.5192
▁automatisk	-10.5193
prest	-10.5196
▁lykke	-10.5197
▁markere	-10.52
▁kunde	-10.5208
▁swe	-10.5209
▁østlige	-10.5219
▁redd	-10.5223
▁klippe	-10.5238
høyden	-10.525
tropisk	-10.5255
▁hytte	-10.5269
pati	-10.5303
aften	-10.5304
hest	-10.5333
▁eksperiment	-10.5351
▁afghanistan	-10.5351
▁australsk	-10.5351
▁godkjent	-10.5351
▁oppmerksomhet	-10.5351
▁windows	-10.5351
kompetanse	-10.5351
▁regissør	-10.5351
▁oppstår	-10.5351
▁ovenfor	-10.5351
▁rogaland	-10.5351
▁væske	-10.5351
▁egenskaper	-10.5352
▁forbedre	-10.5352
▁barnehage	-10.5352
▁brøt	-10.5352
▁separat	-10.5353
▁1943	-10.5355
▁næringsliv	-10.5355
▁hindre	-10.5355
transport	-10.5356
provins	-10.5356
▁formula	-10.5361
▁frp	-10.5361
▁nova	-10.5363
▁beskyttelse	-10.5365
▁hersker	-10.5366
▁filip	-10.537
demokrati	-10.5372
▁popul	-10.5372
▁kino	-10.5374
▁oppfatte	-10.5374
▁bygnings	-10.5378
▁sound	-10.5379
▁hovedrollen	-10.5457
brev	-10.546
▁tho	-10.5476
▁aksel	-10.5479
settelse	-10.5486
▁elektronisk	-10.5504
▁wild	-10.5513
bred	-10.5516
asjer	-10.5529
▁beseiret	-10.5551
▁sanskrit	-10.5551
▁erobret	-10.5551
▁vesentlig	-10.5551
▁parallell	-10.5551
veksling	-10.5551
▁kommersiell	-10.5551
▁church	-10.5551
ifisere	-10.5552
mekanisme	-10.5554
▁1925	-10.5555
terapi	-10.5555
▁hindu	-10.5556
▁kritiser	-10.556
▁skygge	-10.556
▁barndom	-10.556
▁alpinist	-10.5561
▁variere	-10.5566
front	-10.5567
▁vad	-10.5568
▁rapporter	-10.557
brigade	-10.557
▁skrå	-10.5577
kjerne	-10.5596
▁styrte	-10.5601
▁estland	-10.5604
▁trakk	-10.5612
▁verdensmester	-10.5627
økonomi	-10.5632
fast	-10.5642
istan	-10.5649
▁kath	-10.5661
▁philipp	-10.5669
fallende	-10.5695
givelse	-10.5706
start	-10.5719
▁radi	-10.5729
▁alpin	-10.573
▁sannsynlig	-10.575
▁kollektiv	-10.5755
▁maksimal	-10.5755
▁asteroide	-10.5755
▁innbyggerne	-10.5755
▁tyrkisk	-10.5755
presentasjon	-10.5755
▁texas	-10.5755
▁ungarn	-10.5755
▁komplett	-10.5755
▁fenomen	-10.5755
ος	-10.5756
▁litterær	-10.5757
▁1927	-10.5758
▁avgjørelse	-10.5759
▁ytterst	-10.5759
▁definere	-10.576
stipend	-10.5761
▁beslekte	-10.5762
episode	-10.5763
▁olaf	-10.5766
arkiv	-10.5771
syssel	-10.5772
▁puppe	-10.5776
▁chris	-10.5779
schaft	-10.5796
▁blind	-10.5802
bunn	-10.5805
▁sørover	-10.581
▁mørkere	-10.5815
▁lod	-10.582
▁stang	-10.5823
brand	-10.5827
▁brei	-10.5838
▁støv	-10.5841
▁brian	-10.5848
ст	-10.5859
alisert	-10.5874
katalog	-10.5875
▁700	-10.5923
▁keyboard	-10.5964
▁symptom	-10.5964
▁trommeslager	-10.5964
▁hovedperson	-10.5964
▁nemlig	-10.5964
materiell	-10.5965
▁hendelsen	-10.5965
▁grevskapet	-10.5965
▁faktisk	-10.5965
▁1923	-10.5967
▁søvn	-10.5967
▁1911	-10.5967
terminal	-10.5967
▁energy	-10.5968
▁erfaring	-10.5968
▁turneringen	-10.597
▁programvare	-10.5971
▁planlagt	-10.5972
▁muskel	-10.5972
▁nærheten	-10.5974
▁samuel	-10.5974
▁bedriften	-10.5978
divisjon	-10.5981
litteratur	-10.5981
grønn	-10.5982
▁anlagt	-10.5995
▁1890	-10.5999
▁bassist	-10.6003
▁tvang	-10.6008
bevisst	-10.6011
nevnte	-10.6013
▁bosatt	-10.6014
▁drepe	-10.604
▁synlig	-10.6055
▁jeff	-10.606
та	-10.6076
▁etasje	-10.6077
▁flyge	-10.6083
▁grø	-10.6117
▁estisk	-10.6129
▁integr	-10.6132
▁geologi	-10.6135
▁intens	-10.6141
▁involvert	-10.6176
▁skulptur	-10.6176
▁1902	-10.6176
▁antagelig	-10.6176
▁ukraina	-10.6176
▁hjørne	-10.6176
▁hyppig	-10.6176
▁bærum	-10.6177
▁massiv	-10.6179
▁skøyte	-10.6179
▁1917	-10.6179
▁1941	-10.618
▁bidro	-10.6185
kampanje	-10.6185
▁diplomat	-10.6188
▁viklere	-10.6189
▁social	-10.619
▁angeles	-10.6192
frukt	-10.6197
▁tolke	-10.6197
▁ordnet	-10.6198
institutt	-10.62
sentral	-10.6202
ografisk	-10.6209
▁grønland	-10.6214
▁kaffe	-10.6225
▁1600	-10.6227
▁aero	-10.6257
▁erstatte	-10.6258
▁delstat	-10.6287
periode	-10.63
▁trekant	-10.6329
registr	-10.6362
▁departement	-10.6383
ь	-10.6393
▁atmosfære	-10.6394
▁byfylke	-10.6394
▁elizabeth	-10.6394
▁hollywood	-10.6394
▁midlertidig	-10.6394
▁portugisisk	-10.6394
▁varaordfører	-10.6394
▁akershus	-10.6394
▁embeds	-10.6394
▁umiddelbar	-10.6394
▁østfold	-10.6394
▁permanent	-10.6394
▁unntak	-10.6394
▁belgia	-10.6394
▁demokrat	-10.6394
▁ombord	-10.6394
▁1926	-10.6396
▁nyhets	-10.6398
▁gregor	-10.6398
▁trenger	-10.6401
▁studere	-10.6409
▁håndverk	-10.6411
programmet	-10.6424
▁cross	-10.6429
▁hellas	-10.6435
▁oval	-10.6441
▁statsråd	-10.6466
▁brent	-10.6482
▁grund	-10.6484
▁philip	-10.6491
▁dramatisk	-10.6493
▁datterselskap	-10.6495
handlinger	-10.6511
utgave	-10.6524
▁løfte	-10.6528
▁urban	-10.6538
▁arkeologisk	-10.6542
▁moll	-10.6577
bredden	-10.6606
▁bokstavelig	-10.6616
▁doktorgrad	-10.6616
▁symfoni	-10.6616
▁tortricidae	-10.6616
▁tsjekkisk	-10.6616
▁sjeldne	-10.6616
▁ødelagt	-10.6616
▁abraham	-10.6616
grunnsstasjon	-10.6616
▁fiolin	-10.6616
▁trondhjem	-10.6616
▁sprint	-10.6617
▁noctu	-10.6617
▁stadium	-10.6617
▁partner	-10.6617
▁pistol	-10.6618
▁1913	-10.6618
▁poesi	-10.6619
▁svekke	-10.6619
▁arbeiderpartiet	-10.662
opptreden	-10.662
▁programleder	-10.662
kobling	-10.6621
▁antyde	-10.6624
▁koreansk	-10.6624
▁sjanger	-10.6625
▁indiker	-10.6626
▁utgivelsen	-10.663
▁jacobsen	-10.6631
▁organisk	-10.6632
▁respekt	-10.6642
▁hyper	-10.6642
▁1897	-10.6643
stift	-10.6645
ière	-10.6645
struktur	-10.6647
størrelse	-10.6648
flik	-10.6648
▁right	-10.665
blomsterflue	-10.6675
bæk	-10.6676
interesser	-10.668
▁variert	-10.6681
▁verneområde	-10.6725
▁låten	-10.6729
recht	-10.6742
▁etnisk	-10.6765
▁avvist	-10.6771
▁katolsk	-10.6777
▁utarbeide	-10.6796
høyde	-10.6799
▁prinsipp	-10.6808
▁oppnå	-10.6839
bjørk	-10.6842
døgnflue	-10.6843
▁bulgaria	-10.6843
▁corporation	-10.6843
▁eksemplarer	-10.6843
▁frankfurt	-10.6843
▁hovedkvarter	-10.6843
▁infanteri	-10.6843
▁society	-10.6843
▁tønsberg	-10.6843
▁könig	-10.6843
▁1904	-10.6843
▁buddhist	-10.6843
▁european	-10.6843
▁evangeli	-10.6843
diagnose	-10.6843
▁dream	-10.6845
▁kjøretøy	-10.6845
▁oppdagelse	-10.6845
statistikk	-10.6845
▁prinsesse	-10.6845
▁radikal	-10.6845
▁1916	-10.6846
▁hovedkontor	-10.6853
▁onkel	-10.686
▁divers	-10.6862
▁anledning	-10.6862
▁nevner	-10.6863
▁klatre	-10.6864
▁kjørt	-10.6873
▁light	-10.6876
▁indianer	-10.6878
inntekt	-10.688
▁evig	-10.6912
hausen	-10.6914
sosialistisk	-10.6914
balanse	-10.6916
tveit	-10.6935
løpere	-10.6935
▁kommunist	-10.6957
foretak	-10.6968
▁frakte	-10.698
town	-10.6987
prinsippet	-10.7
▁automat	-10.7037
▁demokratisk	-10.7039
syklist	-10.7041
aktivitet	-10.7074
▁electric	-10.7076
▁færøysk	-10.7076
▁leipzig	-10.7076
▁research	-10.7076
▁vladimir	-10.7076
▁1909	-10.7076
▁reference	-10.7076
▁ressurs	-10.7076
▁utspring	-10.7076
▁referanse	-10.7076
▁embets	-10.7076
▁patrick	-10.7076
▁stimul	-10.7076
▁allierte	-10.7076
▁seksuell	-10.7076
▁kjennetegne	-10.7076
▁slippe	-10.7077
▁bayern	-10.7078
▁våt	-10.7081
▁oppgaver	-10.7082
ли	-10.7083
▁strekningen	-10.7085
▁öster	-10.7086
▁rednings	-10.7098
▁gjenstand	-10.7103
svermer	-10.7109
▁viktor	-10.7111
▁talent	-10.7118
resultat	-10.7118
medlemmer	-10.7129
▁omdanne	-10.7154
▁lunge	-10.7155
▁kirkegård	-10.7191
assa	-10.7237
▁innlede	-10.7285
▁jente	-10.7297
▁kill	-10.7303
▁helikopter	-10.7314
▁gælisk	-10.7314
▁göteborg	-10.7314
▁ludwig	-10.7314
▁vedlikehold	-10.7314
▁artilleri	-10.7314
▁zealand	-10.7314
▁walisisk	-10.7314
▁flyktet	-10.7314
▁utelukke	-10.7315
▁prosessor	-10.7315
▁protein	-10.7315
▁mektig	-10.7315
▁føderal	-10.7316
assistent	-10.7318
▁hedmark	-10.7319
▁howard	-10.732
▁bundes	-10.7322
▁hindi	-10.7326
▁utenlands	-10.7327
▁nigeria	-10.7328
▁zhang	-10.733
▁idrettsforening	-10.7331
▁vandre	-10.7331
▁klein	-10.7332
nettverk	-10.7334
tillatelse	-10.7337
betaling	-10.7339
▁rytter	-10.7348
formasjonen	-10.7361
▁ballett	-10.7361
▁ballad	-10.7361
representant	-10.7362
▁integrert	-10.7365
karriere	-10.7365
▁kreert	-10.7379
▁hevde	-10.7398
▁ove	-10.7404
▁konsul	-10.7414
hytta	-10.7429
▁dominert	-10.7459
eiro	-10.746
▁victoria	-10.7485
ри	-10.7506
bahn	-10.7509
▁jomfru	-10.7558
▁naturreservat	-10.7558
▁favoritt	-10.7558
▁hordaland	-10.7558
▁risiko	-10.7558
▁kommentar	-10.7558
▁alexandr	-10.7558
▁forsvant	-10.7558
▁konsept	-10.7558
▁margaret	-10.7558
▁symbolisere	-10.7559
▁herunder	-10.7559
gjald	-10.7561
▁kronologisk	-10.7562
▁afrikansk	-10.7562
▁friidrett	-10.7563
▁year	-10.7563
▁gravlagt	-10.7566
▁tegninger	-10.7567
▁meyer	-10.7567
▁turbin	-10.7569
▁rifle	-10.757
▁lisens	-10.7572
bransjen	-10.7573
▁ørken	-10.7574
▁idé	-10.7581
▁lauren	-10.7584
offiser	-10.7611
regjering	-10.7612
nathan	-10.7615
▁avtalen	-10.7623
vitenskapelig	-10.7632
kreft	-10.7636
fried	-10.7649
▁anerkjenne	-10.7709
▁overføre	-10.7722
kamerat	-10.7724
blom	-10.7733
▁meso	-10.7756
▁forløper	-10.7787
▁foreslått	-10.7808
▁jerusalem	-10.7808
▁intelligen	-10.7808
▁svalbard	-10.7808
▁argument	-10.7808
▁kvadrat	-10.7808
▁sammenslåing	-10.7808
▁hybrid	-10.7808
▁vestfold	-10.7808
bataljon	-10.7808
▁øyvind	-10.7808
▁juridisk	-10.7808
▁stephen	-10.7808
▁petersburg	-10.7808
▁haakon	-10.7808
▁seinere	-10.7808
▁monark	-10.7809
▁snorre	-10.7809
▁legend	-10.7809
▁werner	-10.7812
▁konsekvens	-10.7812
▁myndigheter	-10.7815
▁bryggeri	-10.7816
▁forlenge	-10.7817
▁bernard	-10.7819
▁holdning	-10.7827
▁bispe	-10.7829
▁uavhengighet	-10.7832
hovedstad	-10.7836
▁hvile	-10.7838
▁variasjon	-10.7843
▁messi	-10.7865
dynastiet	-10.7868
orientert	-10.7872
▁pall	-10.789
▁skive	-10.7896
lokale	-10.79
artikkel	-10.7957
▁kosm	-10.8029
krem	-10.8032
▁publiser	-10.8044
▁tilsynelaten	-10.8064
▁undergrunnsbane	-10.8064
▁football	-10.8064
▁oksygen	-10.8064
▁buskerud	-10.8064
▁engasjert	-10.8064
▁nøyaktig	-10.8064
▁nøkkel	-10.8064
▁colombia	-10.8064
▁taylor	-10.8064
▁interiør	-10.8064
▁heavy	-10.8064
▁tidspunkt	-10.8065
▁systematisk	-10.8065
▁bmw	-10.8065
▁marcus	-10.8066
▁tennis	-10.8066
▁centre	-10.8066
▁larvik	-10.8066
▁datamaskin	-10.8066
straße	-10.8066
▁innebære	-10.8067
▁opposisjon	-10.8067
▁konservative	-10.8068
▁speider	-10.807
▁endringer	-10.807
▁smelte	-10.8071
▁boeing	-10.8078
▁forbruker	-10.8078
▁ltd	-10.8095
infeksjon	-10.8105
▁nevro	-10.8106
▁øks	-10.8117
▁inneba	-10.8133
leigh	-10.8221
го	-10.8229
sekvens	-10.8324
▁kronprins	-10.8327
▁mountain	-10.8327
▁renessanse	-10.8327
▁central	-10.8327
▁systematikken	-10.8327
protokoll	-10.8327
▁venezia	-10.8328
▁ålesund	-10.8328
▁opplæring	-10.8328
▁theodor	-10.8328
▁vegetasjon	-10.8328
▁utfordre	-10.8329
▁besetning	-10.8329
▁tjener	-10.8329
за	-10.8329
▁søsken	-10.833
▁oppfølger	-10.8331
▁work	-10.8333
▁betong	-10.8333
▁disney	-10.8334
▁riktig	-10.8334
▁sultan	-10.8335
▁døtre	-10.8337
▁tredjeplass	-10.8339
▁bird	-10.8346
▁gjennomføre	-10.8347
▁bakkropp	-10.836
▁undervist	-10.836
▁plantefamilie	-10.8362
panel	-10.8385
▁innerst	-10.8388
▁barokk	-10.8389
▁domkirke	-10.84
finalen	-10.8404
åpning	-10.8419
▁hjemmebane	-10.8422
musiker	-10.8438
urbin	-10.8441
▁ligge	-10.8457
▁forkortelse	-10.8475
▁fortsette	-10.8486
butikk	-10.8491
konsulent	-10.8493
▁omhandle	-10.8513
møll	-10.8517
▁konsentrasjon	-10.8538
kirch	-10.8595
▁aleksandr	-10.8598
▁argentina	-10.8598
▁fakultet	-10.8598
▁microsoft	-10.8598
▁patriark	-10.8598
▁psykisk	-10.8598
▁forveksle	-10.8598
▁kommandant	-10.8598
▁chicago	-10.8598
▁minoritet	-10.8598
▁1881	-10.8598
▁pattedyr	-10.8598
▁vilhelm	-10.8598
traktaten	-10.8598
▁yngste	-10.8598
▁kombinere	-10.8598
▁gustaf	-10.8598
▁prince	-10.8598
▁serbisk	-10.8598
▁utforming	-10.8598
▁skjønt	-10.8599
betjent	-10.8601
▁bjarn	-10.8601
▁gullmedalje	-10.8601
▁samtids	-10.8602
▁clark	-10.8603
▁gratis	-10.8604
▁tørke	-10.8604
▁nkp	-10.8604
▁episoden	-10.8604
▁romsdal	-10.8607
▁lidelse	-10.8611
▁ekstern	-10.8623
hvelv	-10.8627
▁manuel	-10.8642
▁søyle	-10.8644
▁hjelm	-10.8652
evitsj	-10.8672
medisin	-10.8679
▁twi	-10.8685
▁knytte	-10.87
▁arkeolog	-10.8701
▁messe	-10.8703
▁kjeve	-10.8722
▁nettside	-10.8724
sykdommer	-10.8753
▁inkl	-10.8787
kjennelse	-10.8792
▁dynasti	-10.8795
bukten	-10.8834
▁bransje	-10.8859
▁berømt	-10.8862
▁bryllup	-10.8875
▁generalmajor	-10.8875
▁ortodoks	-10.8875
▁rudolf	-10.8875
▁særskilt	-10.8875
▁trygve	-10.8875
▁schwarz	-10.8875
▁løpebiller	-10.8875
▁1875	-10.8875
▁fungerte	-10.8875
▁unngå	-10.8876
▁barnebarn	-10.8876
▁lørdag	-10.8876
▁invasjon	-10.8877
▁finskspråklig	-10.8877
samfund	-10.8877
▁bjerk	-10.8877
▁parodi	-10.8878
▁røtter	-10.8878
▁myndighetene	-10.8878
▁riksvåpen	-10.8879
▁opprettelse	-10.888
▁bedrifter	-10.8885
▁etappe	-10.8886
▁presentere	-10.8889
▁ytelse	-10.8896
▁rederi	-10.8898
▁fortellingen	-10.8901
provinshovedstad	-10.8911
knapp	-10.8917
▁nøtte	-10.8924
orkester	-10.8965
papir	-10.8966
▁utvide	-10.8977
▁blanc	-10.8986
▁minutt	-10.8987
▁varemerke	-10.9015
▁frå	-10.9026
forekomst	-10.9034
▁sjakk	-10.9046
bevegelse	-10.9147
▁arrangør	-10.9161
▁basketball	-10.9161
▁hiphop	-10.9161
▁musikkvideo	-10.9161
▁münchen	-10.9161
▁norwegian	-10.9161
▁observert	-10.9161
▁prestegjeld	-10.9161
▁definisjon	-10.9161
▁tyrkia	-10.9161
▁hospital	-10.9161
▁portugal	-10.9161
symmetri	-10.9161
▁unntatt	-10.9161
▁kavaleri	-10.9161
▁gjennomsnittlig	-10.9161
▁etterkommer	-10.9161
▁fantasy	-10.9161
▁trygg	-10.9161
inspektør	-10.9161
▁ektemann	-10.9161
▁amatør	-10.9161
▁lewis	-10.9162
▁konkurs	-10.9162
▁hendelser	-10.9162
▁nikolaj	-10.9162
▁monroe	-10.9162
▁pepper	-10.9163
▁francesc	-10.9164
▁flytende	-10.9164
▁1915	-10.9165
▁space	-10.9166
▁anklage	-10.9166
▁forbudt	-10.917
▁innstifte	-10.9171
▁foreslo	-10.9171
▁cruise	-10.9172
▁stengt	-10.9172
▁marcel	-10.9175
dolph	-10.9183
▁særeg	-10.9187
nemnd	-10.9188
▁meldt	-10.9197
▁forvente	-10.92
▁first	-10.9217
ifikasjon	-10.9221
vennlig	-10.9241
▁bekke	-10.9261
signal	-10.9266
kjøl	-10.9295
kansler	-10.9331
ribbe	-10.9386
▁konferanse	-10.9389
shaw	-10.9443
tavle	-10.9444
fellesskap	-10.9454
direktoratet	-10.9455
▁aftenposten	-10.9455
▁distribuer	-10.9455
▁ektefelle	-10.9455
▁forøvrig	-10.9455
▁fyringsolje	-10.9455
▁inskripsjon	-10.9455
▁substantiv	-10.9455
▁laborator	-10.9455
▁matematisk	-10.9455
▁arbeidsgiver	-10.9455
▁pseudonym	-10.9455
▁regulering	-10.9455
▁forklaring	-10.9455
▁teoretisk	-10.9455
▁kjønnsmod	-10.9455
▁horisont	-10.9455
▁testament	-10.9455
▁linux	-10.9455
▁opphørte	-10.9455
▁skihopper	-10.9455
▁ronald	-10.9455
▁bokstaven	-10.9456
▁verdensarv	-10.9456
betennelse	-10.9456
▁nektet	-10.9456
▁presentert	-10.9456
▁donald	-10.9456
▁handlet	-10.9457
▁kallenavn	-10.9457
▁regelmessig	-10.9458
▁techn	-10.946
ма	-10.946
▁krabbe	-10.946
▁axel	-10.9462
▁størst	-10.9462
▁metoder	-10.9463
▁hawk	-10.9465
▁fremstille	-10.9467
▁ibsen	-10.9472
▁moderat	-10.9476
▁nederst	-10.9482
▁visuel	-10.9485
oppdrett	-10.9492
▁maritim	-10.9515
▁forstå	-10.9515
gruppa	-10.9518
▁sokn	-10.9555
undervisning	-10.9562
redaktør	-10.9563
temperatur	-10.9563
▁beslutte	-10.9584
▁begynne	-10.9643
galakse	-10.9702
▁brygge	-10.9756
▁illustrert	-10.9758
▁konkurrent	-10.9758
▁luxembourg	-10.9758
▁petroleum	-10.9758
▁publikasjon	-10.9758
▁venezuela	-10.9758
▁washington	-10.9758
▁1903	-10.9758
▁douglas	-10.9758
▁joachim	-10.9758
▁tibetansk	-10.9758
kommanderende	-10.9758
▁litauisk	-10.9758
▁management	-10.9758
▁annonsert	-10.9758
▁forsikring	-10.9758
▁diskusjon	-10.9758
▁kristoffer	-10.9758
▁taiwan	-10.9758
▁google	-10.9758
▁utnevne	-10.9758
▁svovel	-10.9758
▁regulert	-10.9758
▁ralph	-10.9758
▁charlotte	-10.9758
▁ingrid	-10.9758
▁ragnar	-10.9759
▁essay	-10.9759
teatret	-10.9759
▁hvem	-10.9759
▁innlemme	-10.9759
▁etablere	-10.9759
▁fernand	-10.9759
▁skikkelse	-10.9759
▁dekorert	-10.976
oransje	-10.976
▁fangst	-10.976
▁undersøke	-10.976
▁stryke	-10.9761
▁kalender	-10.9762
mouth	-10.9763
▁koreograf	-10.9766
palasset	-10.9769
▁avansert	-10.9772
vilkår	-10.9775
▁gör	-10.9777
▁söd	-10.9791
▁utvidelse	-10.9801
▁ideologi	-10.9815
kontrakt	-10.9874
spørsmål	-10.9874
arkitekt	-10.9875
▁sovjet	-10.9942
▁tjenestegjor	-10.9977
▁slange	-11.0039
bragt	-11.0068
▁aserbajdsjan	-11.0071
▁barcelona	-11.0071
▁drivstoff	-11.0071
▁fasettøynene	-11.0071
▁ferdinand	-11.0071
▁filippinene	-11.0071
▁helsingfors	-11.0071
▁illustrasjon	-11.0071
▁interessant	-11.0071
▁komponent	-11.0071
▁kontinuerlig	-11.0071
▁plutselig	-11.0071
▁pronotum	-11.0071
▁tilknytning	-11.0071
gjødsel	-11.0071
observasjon	-11.0071
▁benjamin	-11.0071
▁jacque	-11.0071
▁utdødd	-11.0071
▁stridsvogn	-11.0071
vurdering	-11.0071
▁komplisert	-11.0071
budsjett	-11.0071
▁people	-11.0071
astronomi	-11.0071
▁betydningsfull	-11.0071
▁legendarisk	-11.0071
▁grün	-11.0071
▁uvanlig	-11.0071
▁isotop	-11.0071
▁skipsreder	-11.0071
▁avgjørende	-11.0071
▁valentin	-11.0071
▁castle	-11.0072
▁corneli	-11.0072
▁katolik	-11.0072
▁tilskuer	-11.0072
▁detroit	-11.0072
▁overraske	-11.0073
▁rettferdig	-11.0073
▁beskjed	-11.0073
▁claude	-11.0073
▁missil	-11.0073
▁database	-11.0075
▁blomstre	-11.008
▁hovedsete	-11.0083
▁stevn	-11.0084
▁spyd	-11.0088
kollega	-11.0092
▁fulgt	-11.0095
partei	-11.0103
▁nøytr	-11.0112
asiatisk	-11.018
skutt	-11.0188
utøver	-11.0198
klipp	-11.0279
okkupasjon	-11.0393
▁absolut	-11.0393
▁dynamisk	-11.0393
▁forhindre	-11.0393
▁liverpool	-11.0393
▁uttrykt	-11.0393
▁brønn	-11.0393
▁innendørs	-11.0393
▁mislykk	-11.0393
▁satellitt	-11.0393
▁sichuan	-11.0393
▁hockey	-11.0393
▁lillehammer	-11.0393
▁vurdert	-11.0393
▁låtskriver	-11.0393
▁sophie	-11.0393
▁frigjøring	-11.0393
▁kenneth	-11.0393
▁dresden	-11.0394
▁fødselsår	-11.0394
▁vitamin	-11.0394
köping	-11.0394
▁konsesjon	-11.0394
▁forandring	-11.0394
▁kalsium	-11.0394
▁utseende	-11.0394
▁contest	-11.0395
▁erobring	-11.0395
mønstre	-11.0395
▁vakre	-11.0395
hertugdømmet	-11.0396
▁tempo	-11.0396
▁dvd	-11.0396
▁micro	-11.0397
▁enzym	-11.0401
▁sosialdemokrat	-11.0402
▁prosti	-11.042
sammensetning	-11.0422
▁øvrig	-11.0428
▁skjøt	-11.0454
tradisjon	-11.0532
väg	-11.0543
kniv	-11.0588
▁assosiert	-11.0727
▁meksikansk	-11.0727
▁omdøpt	-11.0727
▁eurovision	-11.0727
▁fremtidige	-11.0727
▁pilegrim	-11.0727
▁skjult	-11.0727
▁resultert	-11.0727
▁returnert	-11.0727
fundament	-11.0727
▁carolina	-11.0727
▁alfabet	-11.0727
▁erkebispedømme	-11.0727
▁hensikt	-11.0727
▁dimensjon	-11.0727
▁tvilling	-11.0727
▁mikael	-11.0727
▁selvmord	-11.0727
▁kontrast	-11.0727
▁uklar	-11.0727
attraksjon	-11.0727
▁guinea	-11.0727
▁rumensk	-11.0727
▁fusjonert	-11.0728
▁oppheve	-11.0728
▁finansiert	-11.0728
▁variable	-11.0728
▁bronsemedalje	-11.0729
▁campbell	-11.073
▁oliver	-11.073
▁claudi	-11.0731
▁verdslig	-11.0737
▁rytme	-11.0752
▁hekse	-11.0846
▁skaffe	-11.0849
mottak	-11.0864
ingeniør	-11.0876
biskop	-11.0879
prøve	-11.0881
fløyte	-11.0926
konservativ	-11.1066
landeveissyklist	-11.1071
▁aluminium	-11.1071
▁amsterdam	-11.1071
▁angelsaksisk	-11.1071
▁beslutning	-11.1071
▁brenselstype	-11.1071
▁entertainment	-11.1071
▁matematiker	-11.1071
▁network	-11.1071
▁propaganda	-11.1071
▁rekrutter	-11.1071
▁shakespeare	-11.1071
▁tusenårssted	-11.1071
▁vellykke	-11.1071
▁verdensrekord	-11.1071
▁avslutning	-11.1071
▁babylon	-11.1071
▁individuelle	-11.1071
▁pyramide	-11.1071
▁velkjent	-11.1071
▁aktuelle	-11.1071
▁identitet	-11.1071
▁innspilt	-11.1071
▁bachelor	-11.1072
▁kennedy	-11.1072
▁anmelder	-11.1072
▁apotek	-11.1072
▁1883	-11.1072
▁tilnærme	-11.1072
leksikon	-11.1072
▁jersey	-11.1072
leverandør	-11.1072
▁henrettet	-11.1072
▁reglene	-11.1072
▁wagner	-11.1072
forurensning	-11.1072
▁kvante	-11.1073
skriving	-11.1074
sław	-11.1075
▁lojal	-11.1093
▁utskil	-11.1111
▁direct	-11.1117
utstillinger	-11.1151
flyvning	-11.1154
utenriksminister	-11.1191
symbol	-11.1233
produsert	-11.1233
▁journal	-11.133
følsom	-11.1365
konservator	-11.1379
hefte	-11.1428
▁academy	-11.1429
▁ambassadør	-11.1429
▁council	-11.1429
▁hviterussisk	-11.1429
▁konkurrert	-11.1429
▁napoleon	-11.1429
▁påbegynt	-11.1429
▁sjokolade	-11.1429
▁slovakia	-11.1429
▁territorium	-11.1429
▁valgdeltakelse	-11.1429
▁maskingevær	-11.1429
▁wergeland	-11.1429
▁intervju	-11.1429
▁kjøkken	-11.1429
▁bystatus	-11.1429
▁sogneprest	-11.1429
▁1894	-11.1429
▁natrium	-11.1429
▁søknad	-11.1429
▁operativsystem	-11.1429
▁1873	-11.1429
▁latvia	-11.1429
▁tønne	-11.1429
▁torpedo	-11.1429
▁1882	-11.1429
▁frederick	-11.1429
ã	-11.7795
