<unk>	0
<s>	0
</s>	0
.	-3.25978
e	-3.56249
s	-3.59142
▁i	-3.62427
▁og	-3.91507
t	-4.09587
▁	-4.13033
er	-4.18647
en	-4.22454
▁av	-4.40787
▁er	-4.57465
▁en	-4.60164
r	-4.60522
▁som	-4.6493
▁for	-4.74741
▁til	-4.77274
▁på	-4.86631
n	-4.94585
et	-4.97571
▁med	-5.0103
▁den	-5.07952
▁ble	-5.12331
▁var	-5.2037
▁det	-5.24214
▁de	-5.30006
a	-5.41264
▁fra	-5.41837
▁han	-5.51538
▁å	-5.52614
▁har	-5.55595
▁et	-5.58262
ene	-5.644
k	-5.83314
ne	-5.85003
d	-5.8501
▁at	-5.92537
▁ved	-5.94888
i	-5.96377
o	-6.07666
▁om	-6.12739
g	-6.14417
▁etter	-6.14686
▁også	-6.1608
y	-6.17251
l	-6.21535
de	-6.25272
te	-6.26627
▁under	-6.28958
▁ut	-6.31835
▁men	-6.33037
f	-6.36819
re	-6.37979
m	-6.38562
▁over	-6.40418
b	-6.42605
▁s	-6.42688
▁eller	-6.44887
p	-6.45378
▁to	-6.47388
v	-6.50782
▁hadde	-6.5102
▁opp	-6.51122
▁seg	-6.51635
▁kan	-6.52582
▁inn	-6.55131
▁da	-6.55273
▁ikke	-6.59521
ing	-6.59644
in	-6.61088
h	-6.62795
▁a	-6.65305
▁18	-6.65439
▁be	-6.67786
es	-6.68084
▁andre	-6.70723
▁sin	-6.71745
▁mot	-6.73648
us	-6.77314
▁f	-6.79021
▁født	-6.79627
sk	-6.82478
▁1	-6.8256
an	-6.82865
na	-6.83545
le	-6.8482
▁mellom	-6.86103
c	-6.88442
▁første	-6.88564
▁ha	-6.89043
ende	-6.91511
▁hun	-6.92504
u	-6.93383
▁dette	-6.93696
▁hans	-6.95115
▁g	-6.95197
is	-6.97603
▁the	-6.98233
al	-6.99863
▁tre	-7.03265
on	-7.03888
ar	-7.05056
▁der	-7.05742
ia	-7.05969
▁år	-7.0944
▁blant	-7.09734
ter	-7.09895
▁re	-7.10271
▁la	-7.11578
▁sammen	-7.1189
▁m	-7.12142
▁man	-7.12517
▁fikk	-7.12793
z	-7.13514
▁u	-7.14076
▁nord	-7.14117
▁2	-7.14415
▁c	-7.15791
▁denne	-7.17414
▁k	-7.17449
▁ligger	-7.17453
▁hvor	-7.18112
▁kom	-7.18372
▁flere	-7.18668
w	-7.21047
ri	-7.21048
la	-7.22424
ning	-7.25607
sen	-7.26877
di	-7.2724
li	-7.2768
be	-7.28198
▁del	-7.29713
iske	-7.29762
▁gjennom	-7.3038
▁st	-7.30914
land	-7.31585
um	-7.32389
▁d	-7.32633
▁stor	-7.33844
▁ca	-7.34743
ch	-7.35074
▁3	-7.35956
ens	-7.36075
▁før	-7.36091
ra	-7.36149
ke	-7.37038
▁se	-7.37069
▁b	-7.3746
ta	-7.37567
j	-7.3797
▁død	-7.38264
▁an	-7.39414
ma	-7.39724
or	-7.4002
▁p	-7.4016
ler	-7.40612
▁norsk	-7.40695
▁tidligere	-7.40941
ur	-7.40984
isk	-7.41874
▁blir	-7.4247
ut	-7.42717
▁her	-7.43049
▁alle	-7.44241
ere	-7.44247
ske	-7.44371
ck	-7.45389
▁mer	-7.45813
der	-7.4657
▁al	-7.46761
il	-7.46781
▁annet	-7.46945
▁kommune	-7.47303
▁byen	-7.48178
▁mange	-7.48212
os	-7.48374
▁5	-7.48493
▁så	-7.48858
ng	-7.48868
▁17	-7.48997
øy	-7.49202
▁land	-7.49217
nde	-7.49823
▁siden	-7.49829
▁of	-7.4993
as	-7.50301
for	-7.50559
x	-7.50724
é	-7.50726
lig	-7.51278
▁sør	-7.51898
el	-7.52367
▁ra	-7.53056
▁h	-7.53327
da	-7.53646
ry	-7.54305
▁sitt	-7.55549
ig	-7.56461
ør	-7.56589
▁vi	-7.56667
ver	-7.56944
vis	-7.57183
▁senere	-7.57566
▁15	-7.5804
lo	-7.5805
▁disse	-7.58111
▁by	-7.58237
▁4	-7.58986
ve	-7.59328
▁ny	-7.59864
ha	-7.60156
▁l	-7.60302
ad	-7.60698
▁selv	-7.60864
▁16	-7.61252
å	-7.6151
ger	-7.61877
▁være	-7.62088
id	-7.62482
▁tallet	-7.62538
ton	-7.63046
lige	-7.64452
▁kjent	-7.64562
ka	-7.64795
ba	-7.65289
kk	-7.65538
▁le	-7.6568
▁noen	-7.65777
bo	-7.65825
▁mens	-7.66212
▁store	-7.66622
ge	-7.67852
▁sa	-7.68194
bi	-7.68412
mann	-7.68873
ø	-7.69074
▁ro	-7.69219
dal	-7.69665
▁ned	-7.69787
▁rundt	-7.70208
▁bo	-7.70252
ste	-7.71349
nes	-7.71389
▁norge	-7.72014
▁vest	-7.72262
▁10	-7.72752
▁blitt	-7.73043
ul	-7.7313
th	-7.73347
▁sine	-7.73779
▁li	-7.73812
ell	-7.7389
den	-7.73957
▁6	-7.74803
▁pi	-7.74928
ga	-7.7517
▁slik	-7.75199
son	-7.75422
▁7	-7.75549
▁km	-7.7562
▁mest	-7.76069
▁si	-7.76303
▁sp	-7.76388
ner	-7.76394
▁spilt	-7.76508
▁vært	-7.77191
▁ol	-7.77217
var	-7.77662
▁hoved	-7.77698
▁vil	-7.78006
▁ofte	-7.78092
▁ga	-7.78275
ic	-7.784
ff	-7.78989
▁samme	-7.79136
▁ba	-7.79274
man	-7.79639
▁tid	-7.80057
gen	-7.80158
▁ti	-7.80352
▁ta	-7.80465
▁he	-7.80566
▁navnet	-7.8061
▁n	-7.808
si	-7.80869
asjon	-7.81215
stad	-7.81383
▁kr	-7.8143
▁skal	-7.81731
it	-7.81851
▁enn	-7.8198
▁v	-7.83208
1	-7.83452
▁o	-7.83536
▁bu	-7.83714
▁12	-7.83863
▁øst	-7.84056
me	-7.84928
un	-7.84997
je	-7.85003
▁na	-7.85103
▁8	-7.85777
ja	-7.8603
men	-7.8608
skap	-7.86331
ist	-7.86448
to	-7.8657
▁frem	-7.8658
▁dag	-7.86669
▁kon	-7.86695
mi	-7.86742
mo	-7.8705
▁w	-7.87267
erte	-7.87537
ang	-7.87762
▁både	-7.87843
▁ni	-7.88328
▁navn	-7.88381
mp	-7.88402
at	-7.88508
▁vant	-7.88677
▁hver	-7.88736
▁kunne	-7.88993
▁fri	-7.89123
▁lag	-7.89175
▁noe	-7.89183
▁ham	-7.89219
▁in	-7.89229
▁amerikansk	-7.89234
▁per	-7.89701
by	-7.89884
▁mo	-7.9024
▁grunn	-7.90313
▁ho	-7.90619
▁kalt	-7.91025
▁gikk	-7.91156
▁finnes	-7.91212
ro	-7.91298
▁po	-7.91328
▁fram	-7.91533
tter	-7.92171
▁skull	-7.92482
het	-7.92546
vi	-7.92806
mer	-7.92827
va	-7.93297
▁mai	-7.93323
▁går	-7.93795
ker	-7.94542
▁samt	-7.94756
▁j	-7.95051
berg	-7.95458
▁ma	-7.95674
av	-7.95796
ven	-7.95973
▁co	-7.96092
▁august	-7.96188
▁mars	-7.96231
▁fly	-7.96314
▁fire	-7.96382
pp	-7.96446
▁pro	-7.96801
▁ar	-7.96871
▁fa	-7.97106
▁nye	-7.97155
ling	-7.97752
ö	-7.97785
æ	-7.97856
sa	-7.9818
▁oslo	-7.98245
erne	-7.98353
▁t	-7.98992
▁mar	-7.99014
▁tok	-7.99745
▁hele	-8.00263
▁største	-8.00309
op	-8.00516
im	-8.00585
▁nå	-8.00712
▁14	-8.00861
co	-8.00969
tre	-8.01143
▁norske	-8.01469
▁lo	-8.01513
else	-8.01585
▁far	-8.02016
▁meter	-8.02019
bu	-8.02078
▁hos	-8.02103
▁juli	-8.02195
▁bak	-8.02218
▁januar	-8.02224
tt	-8.0229
▁di	-8.02364
rett	-8.02456
▁9	-8.03597
ce	-8.03729
ment	-8.04138
do	-8.04418
ir	-8.04684
▁lang	-8.04684
gi	-8.04735
▁gang	-8.04755
▁do	-8.05159
▁no	-8.0528
del	-8.05299
år	-8.05433
▁000	-8.05492
▁11	-8.05504
▁usa	-8.05905
▁as	-8.0603
▁du	-8.06358
tor	-8.06457
▁bare	-8.07318
lin	-8.07372
ikk	-8.07397
▁bi	-8.0761
ion	-8.08451
▁rett	-8.08491
iv	-8.09116
am	-8.09306
▁13	-8.09364
ä	-8.09492
au	-8.09674
ol	-8.09984
ru	-8.10153
ed	-8.1071
▁siste	-8.10745
▁når	-8.10954
▁mål	-8.11445
lag	-8.11665
om	-8.11777
▁ri	-8.11955
▁and	-8.12357
som	-8.12967
no	-8.13359
▁utgitt	-8.13372
ik	-8.13531
▁kirke	-8.13588
ring	-8.13799
ant	-8.13964
▁gu	-8.14021
vik	-8.14124
▁ka	-8.14327
sel	-8.14363
ty	-8.1462
ov	-8.14628
▁bli	-8.14703
▁dem	-8.14712
▁so	-8.14752
ko	-8.14833
opp	-8.15158
dd	-8.15177
▁bar	-8.15445
▁tilbake	-8.15721
▁vann	-8.1582
lu	-8.15953
ns	-8.161
po	-8.16224
▁el	-8.16538
pe	-8.16631
▁mor	-8.16932
▁bestå	-8.17179
sh	-8.17295
▁pa	-8.17375
▁20	-8.17459
▁deres	-8.17484
▁sk	-8.17701
á	-8.17781
▁juni	-8.17945
▁film	-8.1797
ster	-8.18336
▁oktober	-8.18397
▁april	-8.18398
▁2008	-8.18824
ni	-8.18849
gang	-8.19035
▁lu	-8.19211
▁2010	-8.19456
ings	-8.19463
ina	-8.19485
▁ei	-8.19587
ho	-8.19626
▁pe	-8.19898
ti	-8.20237
▁gi	-8.20663
▁høy	-8.21442
tok	-8.21616
over	-8.21657
▁rekke	-8.22266
▁desember	-8.22449
vin	-8.22643
gu	-8.22875
▁r	-8.23434
▁ru	-8.23678
ard	-8.23923
▁leder	-8.24038
▁like	-8.24228
▁y	-8.24322
▁september	-8.24649
kt	-8.24724
sta	-8.24836
▁kun	-8.24924
▁su	-8.24952
▁engelsk	-8.25324
▁jo	-8.25429
▁ju	-8.25538
mm	-8.25587
▁or	-8.25614
▁musikk	-8.25977
▁området	-8.26022
sjon	-8.26076
▁kultur	-8.26176
▁kunst	-8.26253
▁først	-8.26366
▁fransk	-8.26381
▁nasjonal	-8.26485
▁2007	-8.2668
▁egen	-8.26709
ingen	-8.27011
▁gjen	-8.27026
▁go	-8.27231
ll	-8.273
▁sam	-8.27451
▁februar	-8.27584
inn	-8.28059
ag	-8.28073
▁bruk	-8.2829
▁nær	-8.28326
tur	-8.28488
fa	-8.28609
▁laget	-8.28757
▁john	-8.28976
▁eksempel	-8.29201
▁ja	-8.29302
▁mindre	-8.29453
▁innen	-8.29637
▁folke	-8.29719
▁mi	-8.29793
▁am	-8.30102
▁sønn	-8.30218
▁må	-8.30224
▁lys	-8.30441
▁tor	-8.30447
▁tillegg	-8.30511
▁uten	-8.30758
od	-8.30834
▁kinesisk	-8.30844
midlertid	-8.30845
▁få	-8.30859
att	-8.30896
▁lå	-8.31135
gg	-8.31293
▁små	-8.3135
▁november	-8.31795
▁skole	-8.31863
▁sett	-8.31987
▁2009	-8.32038
▁par	-8.32175
▁ko	-8.32385
sted	-8.326
▁me	-8.32632
▁tv	-8.32879
ks	-8.32936
ok	-8.32968
▁sol	-8.33369
ca	-8.33414
▁new	-8.33595
▁te	-8.33771
▁hennes	-8.33889
▁fi	-8.34135
sett	-8.34242
▁fem	-8.34386
▁landet	-8.34552
ud	-8.34624
ly	-8.34838
ier	-8.35089
▁gift	-8.35284
sp	-8.3532
len	-8.35631
▁begynte	-8.35693
▁eks	-8.35717
go	-8.35753
▁spiller	-8.36136
▁øy	-8.36148
io	-8.36165
per	-8.36611
dre	-8.36835
ede	-8.37057
ran	-8.37818
▁langs	-8.37933
▁0	-8.38089
hold	-8.38632
▁hus	-8.38832
▁lov	-8.39224
▁ad	-8.39302
ot	-8.3938
▁videre	-8.39521
ige	-8.39588
slag	-8.39807
▁helt	-8.39828
▁form	-8.39843
▁30	-8.39915
▁ab	-8.39923
▁brukt	-8.40049
elle	-8.40069
▁pu	-8.40447
▁igjen	-8.40526
▁gjorde	-8.40937
▁filmen	-8.40962
ær	-8.41316
tra	-8.41414
▁san	-8.41514
▁kal	-8.41793
ie	-8.41986
ken	-8.42043
nd	-8.42142
▁kong	-8.42252
tal	-8.42613
▁x	-8.42859
▁va	-8.4305
▁deretter	-8.43192
▁kort	-8.43227
ft	-8.43442
▁brukes	-8.43449
siden	-8.4373
▁tiden	-8.43747
▁større	-8.43938
ering	-8.44313
▁parti	-8.44452
bruk	-8.44489
3	-8.44803
▁ge	-8.45005
▁sch	-8.45005
▁2006	-8.45075
ek	-8.45168
▁ski	-8.45257
▁liv	-8.45296
▁con	-8.4554
burg	-8.45696
▁ulike	-8.45782
▁2005	-8.45896
hu	-8.46012
hus	-8.46133
▁russisk	-8.46723
▁gamle	-8.46743
▁året	-8.46792
wa	-8.46908
vel	-8.46946
ans	-8.47008
▁beste	-8.47112
▁medlem	-8.47117
lse	-8.4712
les	-8.47192
ord	-8.47199
ku	-8.47351
▁tro	-8.47409
▁bra	-8.4773
tak	-8.47739
▁gir	-8.48069
▁innbyggere	-8.4811
▁årene	-8.48209
▁hu	-8.48385
▁deltok	-8.48497
dig	-8.48706
▁president	-8.48807
ningen	-8.48913
and	-8.49059
00	-8.49114
▁bil	-8.49132
▁tri	-8.492
▁all	-8.49201
ci	-8.49264
dan	-8.49412
verk	-8.49614
▁tyske	-8.49689
ting	-8.49697
ny	-8.49727
min	-8.50074
▁skrevet	-8.50136
▁tra	-8.50313
tid	-8.50367
▁barn	-8.50421
▁lever	-8.50442
stein	-8.50453
▁startet	-8.5054
mb	-8.50902
2	-8.50981
▁mye	-8.51373
▁alt	-8.51401
▁ville	-8.51456
ong	-8.51516
tiske	-8.51696
▁ne	-8.52403
ber	-8.52409
▁mat	-8.52487
▁car	-8.52543
▁verdens	-8.52609
▁hel	-8.52614
▁kommer	-8.52717
ou	-8.52772
▁bandet	-8.52993
▁særlig	-8.53034
▁dermed	-8.53053
pa	-8.53233
▁provinsen	-8.53249
art	-8.53497
▁språk	-8.53652
til	-8.5402
▁europa	-8.54202
▁min	-8.5443
tu	-8.54449
▁pre	-8.54463
ab	-8.55002
▁bok	-8.55136
▁norges	-8.55332
itet	-8.55388
ium	-8.5545
ius	-8.55612
▁derfor	-8.55671
stand	-8.55833
kor	-8.55846
▁2011	-8.56017
▁begge	-8.56377
log	-8.56548
mar	-8.56931
yl	-8.56975
▁vei	-8.5714
ian	-8.57282
▁svær	-8.57392
▁25	-8.57464
▁syn	-8.57514
▁sjø	-8.5765
▁skrev	-8.57742
ph	-8.57757
▁gud	-8.57782
stilling	-8.57826
▁samtidig	-8.57853
▁hi	-8.57986
bar	-8.58174
▁tysk	-8.58556
▁døde	-8.5865
▁mon	-8.58828
▁ingen	-8.58972
løp	-8.58992
▁my	-8.59033
ü	-8.59099
lands	-8.59167
ak	-8.5918
ham	-8.59422
▁ord	-8.59502
mon	-8.5954
▁ty	-8.59852
▁øya	-8.60045
tten	-8.60148
pi	-8.60183
▁sand	-8.60229
inger	-8.6023
▁sverige	-8.60365
▁vel	-8.60444
ron	-8.6066
ley	-8.60994
▁kjente	-8.61108
▁gruppen	-8.61156
tro	-8.61449
itt	-8.61497
▁seks	-8.61527
▁styre	-8.61598
▁ak	-8.61618
ld	-8.61699
▁fjell	-8.61951
▁tidlig	-8.61983
▁val	-8.62048
met	-8.62253
▁forskjellig	-8.62527
▁kalles	-8.62621
▁ganger	-8.62869
ow	-8.62884
▁ku	-8.63107
▁tyskland	-8.63145
▁dagen	-8.63212
▁nytt	-8.63372
▁kor	-8.63494
bel	-8.63523
▁kina	-8.63795
kon	-8.64073
vo	-8.641
▁com	-8.64316
dag	-8.64449
▁lokal	-8.64493
▁innenfor	-8.65004
▁2004	-8.65265
í	-8.65558
▁måtte	-8.65616
▁klubben	-8.65666
▁mel	-8.65684
▁perioden	-8.66122
dalen	-8.66152
▁støtte	-8.66174
ninger	-8.66248
▁ur	-8.66375
▁sommer	-8.66609
let	-8.66757
▁fotball	-8.66779
▁stein	-8.6678
sj	-8.66794
▁etablert	-8.66935
▁olympisk	-8.67089
▁plan	-8.67133
▁gresk	-8.67229
▁tredje	-8.67239
▁selskapet	-8.67472
▁plass	-8.67521
tte	-8.67579
▁gitt	-8.67667
ip	-8.67693
▁arbeidet	-8.677
▁svensk	-8.67714
anske	-8.68209
▁fo	-8.68412
jø	-8.68458
isme	-8.68766
▁hen	-8.68796
▁fast	-8.68841
▁pan	-8.68871
▁bygget	-8.68923
▁albumet	-8.68947
dom	-8.6906
ble	-8.69151
fly	-8.69158
ine	-8.69163
▁god	-8.69295
nk	-8.69299
tisk	-8.69424
borg	-8.69429
▁gjern	-8.69438
bre	-8.69626
▁opprinnelig	-8.69629
▁ed	-8.69666
▁berg	-8.69772
fi	-8.69826
lat	-8.69846
▁2000	-8.69987
und	-8.70093
▁side	-8.70094
▁2002	-8.70399
▁wa	-8.70409
elsen	-8.70521
▁grad	-8.70567
▁24	-8.70634
▁bl	-8.7069
ac	-8.70844
▁roman	-8.70889
▁em	-8.70929
▁hol	-8.70951
▁utenfor	-8.71187
▁19	-8.71196
hi	-8.714
stil	-8.71407
▁bergen	-8.71447
▁mulig	-8.71788
▁tar	-8.71829
▁fu	-8.7186
ding	-8.7187
za	-8.71874
▁barne	-8.72013
▁kommunen	-8.72086
sch	-8.72105
▁gull	-8.72169
▁annen	-8.72201
ki	-8.72458
form	-8.72671
▁lands	-8.7273
tall	-8.72852
skole	-8.7286
▁stat	-8.73118
dy	-8.73163
▁fag	-8.73225
bil	-8.73286
▁basert	-8.73346
▁nor	-8.73483
▁halv	-8.73583
ighet	-8.73605
ill	-8.73892
sson	-8.73941
▁ki	-8.74212
elig	-8.74259
▁sted	-8.74307
▁satt	-8.74677
▁sta	-8.74712
ys	-8.74712
landet	-8.74862
uk	-8.74966
▁bor	-8.75035
leg	-8.75188
▁familien	-8.75301
▁gra	-8.75397
▁gammel	-8.75449
▁fleste	-8.75531
gel	-8.75724
▁je	-8.75787
▁sv	-8.76076
▁rød	-8.76417
▁sl	-8.76437
▁wi	-8.76445
▁fant	-8.76465
▁stort	-8.76647
▁bro	-8.7673
▁jord	-8.76751
sse	-8.76867
▁ber	-8.7695
▁ser	-8.76974
▁tur	-8.77198
▁slutt	-8.77359
▁holde	-8.77479
mor	-8.77559
▁liten	-8.77563
▁person	-8.77676
▁sal	-8.77771
▁bygge	-8.77917
▁21	-8.77958
▁lett	-8.78233
ive	-8.78504
▁deler	-8.7866
fjorden	-8.78775
▁farge	-8.78776
tar	-8.78792
øya	-8.79253
kker	-8.79277
▁dikt	-8.79387
du	-8.79463
▁fred	-8.79467
van	-8.79585
▁meg	-8.79632
▁sto	-8.79759
▁fr	-8.79877
bok	-8.80103
▁viktig	-8.80202
▁stats	-8.80306
▁mil	-8.8034
▁serien	-8.80491
▁konge	-8.80494
▁utviklet	-8.80498
▁sentral	-8.8068
ator	-8.80803
▁100	-8.80978
▁we	-8.80984
▁spor	-8.81241
▁motor	-8.81346
vann	-8.81407
pen	-8.81455
mål	-8.81468
▁os	-8.81478
▁stedet	-8.8171
▁full	-8.81719
▁hatt	-8.81959
mark	-8.81988
tiden	-8.8213
▁fortsatt	-8.82248
est	-8.82358
▁gul	-8.8244
▁mark	-8.82663
▁midt	-8.8277
▁vise	-8.8279
so	-8.82812
▁ch	-8.82838
▁dr	-8.83054
▁album	-8.83191
her	-8.83237
▁forfatter	-8.83303
yn	-8.83316
▁arbeider	-8.83403
▁von	-8.83667
red	-8.8367
▁ben	-8.83694
tz	-8.83779
ó	-8.83937
▁skuespiller	-8.84119
sti	-8.8414
mmer	-8.84481
▁qu	-8.84615
▁skog	-8.84665
▁delstaten	-8.84752
▁natur	-8.84927
▁band	-8.85066
▁frankrike	-8.85137
veien	-8.85173
▁ifølge	-8.85433
vei	-8.85579
▁mag	-8.85594
plan	-8.8568
skje	-8.85725
tan	-8.8578
▁millioner	-8.85866
▁keiser	-8.85957
ologi	-8.86085
ps	-8.86121
▁mus	-8.86193
far	-8.86231
▁omkring	-8.86364
▁grav	-8.86392
▁historie	-8.86443
ung	-8.86481
▁danne	-8.86521
jo	-8.86758
▁2003	-8.86788
ica	-8.86821
▁løpet	-8.86908
▁mari	-8.87151
leder	-8.87175
▁london	-8.87191
▁art	-8.87243
su	-8.87295
▁eneste	-8.87376
▁22	-8.87422
ation	-8.87439
▁års	-8.87481
▁kn	-8.87679
▁lav	-8.87695
rik	-8.87709
kel	-8.87769
▁50	-8.87808
▁rom	-8.87924
▁sesongen	-8.88102
elt	-8.88112
▁nesten	-8.88175
ien	-8.88189
rak	-8.88237
▁tatt	-8.88333
▁mann	-8.88443
▁viser	-8.8847
▁luft	-8.88494
▁sangen	-8.88612
▁radio	-8.88647
▁industri	-8.88695
▁elven	-8.88705
kul	-8.88713
▁park	-8.88828
▁økonomisk	-8.88963
▁general	-8.88977
▁kur	-8.89027
▁kv	-8.89126
spill	-8.89133
▁lange	-8.89213
▁2001	-8.89315
▁vinter	-8.89398
▁z	-8.89403
if	-8.89407
▁van	-8.89632
▁antall	-8.89808
em	-8.90005
iet	-8.90031
ach	-8.90049
▁ren	-8.9025
▁kar	-8.90318
▁gruppe	-8.90422
▁britiske	-8.90424
føring	-8.90705
▁rolle	-8.90748
bygg	-8.90911
sten	-8.91042
▁bru	-8.91071
øk	-8.91331
▁spesielt	-8.91438
▁best	-8.91742
bane	-8.9178
▁betyr	-8.91876
▁jan	-8.9201
▁23	-8.92048
▁foran	-8.92133
▁orden	-8.92429
▁stil	-8.92453
sjoner	-8.92633
che	-8.92673
▁verdenskrig	-8.92792
▁datter	-8.92864
▁tu	-8.93081
heim	-8.9334
▁står	-8.93354
▁ledet	-8.93391
sund	-8.93469
forening	-8.93499
q	-8.93546
и	-8.93627
а	-8.93679
▁viktigste	-8.9369
▁karl	-8.93694
vet	-8.9372
ya	-8.93898
▁via	-8.93902
▁riks	-8.93916
▁chi	-8.93984
▁bre	-8.94074
▁verden	-8.94123
▁valg	-8.94155
menn	-8.94213
kan	-8.943
▁vanlig	-8.94542
▁krigen	-8.94561
val	-8.94637
▁27	-8.9483
▁hav	-8.9494
▁følgende	-8.94954
system	-8.94957
▁england	-8.94991
fall	-8.94999
▁tilhører	-8.95055
▁rock	-8.95083
▁får	-8.95126
▁førte	-8.95289
▁26	-8.9531
▁egne	-8.95326
▁gre	-8.95335
▁1999	-8.95428
▁vanligvis	-8.95474
▁verk	-8.95491
▁th	-8.95569
asjonen	-8.95704
▁kirken	-8.95726
laget	-8.95858
▁hjem	-8.95969
▁inneholder	-8.95972
lan	-8.96002
fra	-8.9613
▁opprettet	-8.96214
▁slutten	-8.96286
▁2012	-8.9634
▁kl	-8.96344
▁sendt	-8.96362
▁partiet	-8.96552
▁1990	-8.96792
▁vol	-8.96825
▁arbeid	-8.96924
▁historisk	-8.96942
kar	-8.97007
▁prest	-8.97114
▁godt	-8.97127
▁dom	-8.97173
▁gav	-8.97246
▁1980	-8.97253
ferd	-8.97294
50	-8.97975
gra	-8.98029
he	-8.9816
▁inkludert	-8.98167
▁energi	-8.98216
▁holdt	-8.98233
▁produsert	-8.98332
▁brun	-8.98402
▁nett	-8.98472
▁pr	-8.98762
før	-8.98771
4	-8.98771
eg	-8.98772
▁sentrum	-8.98824
▁rø	-8.98843
▁familie	-8.98846
▁slekt	-8.98973
ide	-8.99046
▁hal	-8.9917
▁hy	-8.99201
vern	-8.99223
6	-8.99261
▁don	-8.99347
▁1998	-8.99577
▁bruker	-8.99596
mester	-8.9968
kamp	-8.99693
▁sang	-8.99717
vær	-8.99825
zi	-8.99943
▁italiensk	-9.0004
▁blå	-9.00113
▁pris	-9.00125
▁lite	-9.00234
ska	-9.00364
▁krigs	-9.0043
▁aktiv	-9.00606
ini	-9.00623
▁menneske	-9.00666
▁28	-9.00795
▁ap	-9.00807
spiller	-9.00836
tel	-9.00914
▁bror	-9.00922
▁start	-9.00973
▁politiker	-9.01022
ju	-9.01026
▁allere	-9.01133
▁gjort	-9.01165
▁india	-9.01211
lsen	-9.01294
▁langt	-9.01328
▁vo	-9.01663
▁ver	-9.01672
fe	-9.01722
▁ev	-9.01777
dyr	-9.01802
▁hjemme	-9.01849
▁christian	-9.01877
lø	-9.01896
ida	-9.0191
▁svenske	-9.01995
▁vin	-9.02093
▁op	-9.02196
▁gjør	-9.02237
▁slag	-9.02239
bro	-9.02244
▁lyd	-9.02265
▁møte	-9.02265
lene	-9.0243
▁russland	-9.02435
▁spille	-9.02456
▁eu	-9.02508
▁indre	-9.02641
▁kongen	-9.02691
▁arbeids	-9.02753
ap	-9.02766
drift	-9.02856
sto	-9.02859
▁sen	-9.0286
▁ry	-9.02877
idae	-9.0288
▁betydning	-9.02918
▁york	-9.02919
han	-9.02982
▁cha	-9.02983
▁serie	-9.03039
▁bur	-9.0307
rus	-9.03113
ich	-9.03131
ski	-9.03169
▁våpen	-9.03292
▁utnevnt	-9.03406
▁anti	-9.03416
▁paul	-9.03608
fer	-9.03625
▁én	-9.03632
▁sj	-9.03726
løs	-9.0373
▁versjon	-9.03755
▁militær	-9.03849
rø	-9.03896
▁såkalt	-9.03899
▁danmark	-9.0391
▁skolen	-9.03943
▁plante	-9.03953
▁forbindelse	-9.04005
▁åpnet	-9.04177
▁representert	-9.04389
isert	-9.04456
▁internasjonale	-9.0447
setning	-9.04562
▁tru	-9.04635
minister	-9.04722
▁red	-9.05368
kla	-9.05373
▁omtrent	-9.05382
▁moderne	-9.05537
▁samarbeid	-9.05757
plass	-9.05769
▁forhold	-9.05854
jen	-9.05941
▁tjeneste	-9.06018
nor	-9.06179
råd	-9.06306
▁delen	-9.06376
▁rev	-9.06423
film	-9.0643
▁organ	-9.06465
▁enkelte	-9.06479
▁staten	-9.06539
selskap	-9.06727
▁bort	-9.06751
▁veien	-9.06768
▁ag	-9.06784
▁elva	-9.06834
ister	-9.0684
▁reise	-9.06855
stående	-9.07019
▁vist	-9.07048
▁tal	-9.07059
og	-9.07067
▁måte	-9.07068
30	-9.07145
▁makt	-9.07171
lær	-9.0721
▁40	-9.07339
▁flyttet	-9.07444
▁hjelp	-9.07468
gård	-9.07519
▁omfatter	-9.07525
året	-9.07596
▁blad	-9.0771
rud	-9.07789
▁1970	-9.07915
heten	-9.07954
tale	-9.07968
kken	-9.08031
stykke	-9.08316
ls	-9.08386
▁hovedsakelig	-9.08426
rom	-9.08451
▁you	-9.08509
inne	-9.08794
▁regne	-9.08854
▁fall	-9.08862
▁olje	-9.08893
▁1996	-9.08942
▁kamp	-9.08942
båt	-9.09032
▁bø	-9.09044
▁gro	-9.09198
lekt	-9.09297
▁sanger	-9.09329
▁teater	-9.09353
▁stasjon	-9.09357
▁venstre	-9.09454
▁fylke	-9.09458
▁dannet	-9.09476
▁bjørn	-9.09767
▁mal	-9.1006
▁stra	-9.10092
familien	-9.10326
ssen	-9.10363
▁folk	-9.10376
▁jeg	-9.10422
hy	-9.10427
ug	-9.10437
▁bri	-9.10468
▁1994	-9.10506
▁valgt	-9.10515
mot	-9.10532
▁medlemmer	-9.10574
liggende	-9.10585
▁sig	-9.10637
banen	-9.10651
ct	-9.10757
fo	-9.1079
akt	-9.10824
enes	-9.10896
lev	-9.10943
р	-9.11024
▁italia	-9.11033
▁29	-9.11083
ris	-9.1115
ana	-9.11187
▁carl	-9.11239
▁felles	-9.11392
▁ly	-9.11451
▁fylkesvei	-9.11576
pris	-9.11645
▁skade	-9.11668
stasjon	-9.11762
▁ob	-9.11764
▁peter	-9.12017
о	-9.1208
▁2013	-9.12097
get	-9.12142
▁stemme	-9.1221
▁post	-9.12332
▁utgjør	-9.12347
fri	-9.12351
▁venn	-9.12363
▁plate	-9.12584
▁q	-9.12637
▁mac	-9.12697
▁fått	-9.12756
▁bill	-9.12786
▁kje	-9.12846
legg	-9.12879
▁liste	-9.1288
▁helse	-9.12923
▁vekt	-9.12935
styre	-9.12951
▁minst	-9.13124
▁legge	-9.13185
stat	-9.13247
▁råd	-9.13286
fjord	-9.13353
itu	-9.13354
▁johan	-9.13368
ath	-9.13399
▁sub	-9.13638
▁william	-9.13698
▁knytte	-9.137
▁tildelt	-9.13752
rat	-9.1389
▁fiske	-9.13894
▁minne	-9.13932
▁31	-9.13953
▁ter	-9.1397
▁berlin	-9.13988
▁spe	-9.14126
we	-9.14214
▁åtte	-9.14215
▁1993	-9.14249
▁mennesker	-9.14254
▁ett	-9.1438
lett	-9.14688
▁trekk	-9.14715
▁solgt	-9.14811
▁robert	-9.14844
▁hø	-9.1487
▁mont	-9.14916
istisk	-9.14917
ah	-9.15064
pro	-9.15139
▁80	-9.15202
mel	-9.15203
▁modell	-9.15355
▁verdi	-9.15451
▁on	-9.15469
▁ke	-9.1561
▁konsert	-9.15657
▁slaget	-9.15671
rid	-9.15689
tri	-9.15724
▁havn	-9.15787
▁mu	-9.15849
brudd	-9.15892
▁1997	-9.15897
▁lik	-9.15899
▁romersk	-9.15923
▁kroppen	-9.15964
▁bygd	-9.16036
▁universitetet	-9.16039
▁vår	-9.16052
▁kunstner	-9.16058
stra	-9.16063
iker	-9.16111
lå	-9.16128
▁ex	-9.16219
komm	-9.16251
▁sak	-9.16305
▁grunnlagt	-9.16397
vil	-9.16443
▁bal	-9.16536
lys	-9.16646
▁pave	-9.16667
▁lege	-9.16811
▁lei	-9.16959
▁1995	-9.17014
▁1989	-9.17015
▁eget	-9.17015
gar	-9.17086
▁kors	-9.17158
▁ten	-9.17183
sky	-9.17228
▁sh	-9.17256
▁para	-9.17415
▁politiske	-9.17453
age	-9.17552
ino	-9.17566
▁1984	-9.17578
▁maria	-9.17634
▁eldre	-9.17635
skog	-9.17647
gruppen	-9.17771
bygging	-9.17775
▁ordet	-9.1781
▁hvit	-9.17848
port	-9.17911
jer	-9.17915
▁can	-9.17916
▁ky	-9.17916
samling	-9.18036
up	-9.18071
▁mm	-9.18147
mus	-9.18171
▁virke	-9.18241
kast	-9.18301
▁olav	-9.18314
▁tap	-9.18336
▁regionen	-9.18342
net	-9.18347
anlegg	-9.18413
eres	-9.18482
stan	-9.1867
▁dessuten	-9.18699
▁personer	-9.18752
▁paris	-9.18854
mal	-9.19001
ai	-9.19046
bygd	-9.19116
▁eier	-9.19156
forbund	-9.19171
▁hånd	-9.1922
øl	-9.19263
▁enkelt	-9.19263
▁dyr	-9.19294
▁nok	-9.19305
▁system	-9.19321
▁tak	-9.19326
▁miljø	-9.19415
våg	-9.19447
▁tr	-9.19545
chi	-9.19608
▁sc	-9.19611
▁aldri	-9.19934
kal	-9.19975
▁tekst	-9.20135
▁sil	-9.20285
▁smal	-9.20303
pl	-9.20414
▁prosent	-9.20443
ika	-9.20476
▁turn	-9.20487
▁jernbane	-9.20599
20	-9.20638
way	-9.20654
▁finner	-9.20665
▁topp	-9.20712
▁sosial	-9.20725
bud	-9.2086
▁bør	-9.2087
▁litt	-9.20911
▁samling	-9.20948
▁thomas	-9.21004
▁au	-9.21076
▁les	-9.21079
ald	-9.21086
▁ferdig	-9.21116
ider	-9.21202
ey	-9.21259
▁strøm	-9.21305
5	-9.21353
aksjon	-9.21404
▁sterkt	-9.21421
▁renn	-9.21431
mun	-9.21433
▁dansk	-9.21479
gh	-9.21564
▁universitet	-9.21576
ze	-9.21733
▁seil	-9.21784
▁funnet	-9.21875
▁af	-9.21914
▁gjøre	-9.22003
ay	-9.2203
▁benyttet	-9.22042
▁lokale	-9.22079
▁forsøk	-9.22116
е	-9.22172
havet	-9.22191
▁bestemt	-9.22258
området	-9.22303
▁motstand	-9.22376
lot	-9.22391
▁lin	-9.224
tjeneste	-9.22426
res	-9.22439
▁høyre	-9.22595
▁ø	-9.2262
arbeid	-9.22625
н	-9.22756
▁1991	-9.22778
▁1988	-9.22779
▁cor	-9.22886
▁vm	-9.22955
mat	-9.22972
▁nummer	-9.23057
▁skip	-9.23189
▁dis	-9.23271
ativ	-9.2329
▁kilometer	-9.23364
▁høyeste	-9.23365
▁2014	-9.23373
▁lille	-9.23455
▁sky	-9.2351
▁kontroll	-9.23529
▁mod	-9.23816
▁fla	-9.23841
▁delt	-9.23859
par	-9.23963
festival	-9.23965
▁drept	-9.23972
▁1992	-9.23973
▁regi	-9.23989
istiske	-9.24009
▁za	-9.2408
nyin	-9.24162
▁skrive	-9.24454
nntil	-9.24468
▁gran	-9.24798
▁dy	-9.2498
tes	-9.25046
mannen	-9.25074
ale	-9.25141
cu	-9.25275
▁gar	-9.25326
▁kyst	-9.25395
▁port	-9.25437
▁politisk	-9.25442
▁løs	-9.25519
navn	-9.25657
alt	-9.25689
▁angrep	-9.25692
ark	-9.25714
▁arm	-9.25716
▁sølv	-9.25775
▁tilsvarende	-9.25782
pol	-9.25796
▁henrik	-9.25809
under	-9.25814
▁fortsatte	-9.25904
▁kra	-9.25904
▁handels	-9.25938
ita	-9.25945
▁tom	-9.26008
▁syk	-9.26017
▁henne	-9.26094
senter	-9.26157
ild	-9.26297
▁mur	-9.26355
▁finsk	-9.26367
isering	-9.26418
don	-9.26497
old	-9.26574
dt	-9.26662
lis	-9.26701
lik	-9.26779
ket	-9.26821
område	-9.26882
▁fremst	-9.26955
skip	-9.26963
▁hva	-9.26981
▁betydelig	-9.27012
▁storbritannia	-9.27012
▁slått	-9.27029
▁kvinne	-9.27032
grad	-9.27051
▁spi	-9.2712
ford	-9.27129
▁ledelse	-9.27144
ismen	-9.27161
▁bas	-9.27228
▁gate	-9.27255
kant	-9.2726
▁tittelen	-9.27292
▁hvis	-9.27328
▁britisk	-9.27385
▁kampen	-9.27419
▁grå	-9.27443
▁besto	-9.27444
elser	-9.27466
iner	-9.27467
kom	-9.27583
▁ring	-9.27599
▁university	-9.27636
gle	-9.27798
produksjon	-9.27954
▁sir	-9.27968
▁nu	-9.28013
lia	-9.28019
blad	-9.28076
▁kraft	-9.28101
tene	-9.28127
▁hall	-9.28139
ktiv	-9.28195
sjøen	-9.28233
▁stockholm	-9.28258
▁arter	-9.28306
▁jon	-9.28429
▁klar	-9.28446
▁politi	-9.28485
selskapet	-9.28504
60	-9.28628
▁afrika	-9.28639
ater	-9.28681
9	-9.28703
▁viss	-9.28734
kraft	-9.28776
▁kla	-9.2882
▁bred	-9.28857
▁biskop	-9.28888
▁david	-9.28891
▁1987	-9.28898
▁lagt	-9.29031
▁ære	-9.29044
huset	-9.291
ice	-9.29166
▁trykk	-9.29167
▁kvinner	-9.29226
▁mos	-9.29329
▁områder	-9.29344
▁dan	-9.2939
ola	-9.29448
sjef	-9.29558
▁pl	-9.29562
▁dal	-9.29567
trykk	-9.29735
lie	-9.29787
▁island	-9.29848
pper	-9.29854
▁menn	-9.29953
lei	-9.29996
▁ger	-9.30031
▁studerte	-9.30127
▁dro	-9.30147
ub	-9.30172
▁natt	-9.30331
ons	-9.30366
bert	-9.30604
▁boken	-9.3061
▁franc	-9.3066
▁krig	-9.30772
▁brasil	-9.30805
▁fin	-9.30821
▁super	-9.30973
▁gje	-9.31103
iz	-9.31118
▁stiftet	-9.31124
ære	-9.31183
gri	-9.31299
▁karriere	-9.31303
▁xi	-9.31308
▁suksess	-9.31443
▁direkte	-9.31444
løse	-9.31449
▁sha	-9.31484
▁kjøpt	-9.31513
▁ball	-9.31559
▁japan	-9.31606
▁moh	-9.31681
▁dager	-9.31752
▁col	-9.31758
▁george	-9.31803
▁kron	-9.31867
fag	-9.31886
▁data	-9.31985
▁danske	-9.32083
ð	-9.32093
▁bank	-9.32175
▁hår	-9.32178
dra	-9.32217
▁ji	-9.32249
▁60	-9.32265
sak	-9.32298
gitt	-9.32326
▁borger	-9.32525
retning	-9.32573
▁mc	-9.32725
bø	-9.32729
▁begynnelsen	-9.32751
▁1985	-9.32761
▁1960	-9.32764
65	-9.32767
▁fal	-9.32976
▁steder	-9.32994
▁felt	-9.33029
▁gal	-9.33069
▁seier	-9.33118
metode	-9.33251
heng	-9.33407
▁brukte	-9.33435
▁sørøst	-9.33437
▁nordøst	-9.33452
ført	-9.33527
▁erik	-9.33736
▁utgav	-9.33845
tsj	-9.33894
▁svart	-9.33979
▁standard	-9.34082
tion	-9.34109
vig	-9.34113
55	-9.34217
▁linje	-9.34271
▁nest	-9.34435
grunn	-9.34541
▁dia	-9.34612
ight	-9.34648
39	-9.34758
ller	-9.3477
hl	-9.34908
områder	-9.3493
▁inter	-9.3495
▁arkitekt	-9.34952
▁professor	-9.34961
isten	-9.35009
▁figur	-9.35045
fest	-9.3516
▁tj	-9.35282
▁høsten	-9.35291
▁gode	-9.35322
▁herre	-9.35353
▁regjeringen	-9.35364
▁2015	-9.35425
▁ci	-9.35429
krigen	-9.35503
▁fe	-9.35518
▁følge	-9.35556
▁interesse	-9.35591
lagt	-9.3569
rum	-9.35778
liv	-9.3582
gående	-9.35853
medalje	-9.35854
▁privat	-9.35905
▁neste	-9.35969
▁anders	-9.36039
▁arrangert	-9.3608
▁skrift	-9.36121
messig	-9.36128
bilde	-9.36247
▁lind	-9.36248
10	-9.36266
▁uttrykk	-9.36276
anger	-9.36281
hr	-9.36515
organ	-9.36644
navnet	-9.36668
▁oppkalt	-9.36764
med	-9.36781
▁james	-9.36787
▁drift	-9.36872
▁dra	-9.36903
zhou	-9.36914
▁tegn	-9.37032
parti	-9.37041
mu	-9.37164
▁lær	-9.3727
▁klasse	-9.37427
▁israel	-9.37446
kter	-9.37493
▁blod	-9.37511
▁rik	-9.37523
▁br	-9.37582
ör	-9.37593
64	-9.37657
sal	-9.37877
▁plassert	-9.37906
▁amerika	-9.37917
ros	-9.37969
oc	-9.37978
▁varme	-9.3801
iti	-9.38091
▁1986	-9.3815
▁selskap	-9.38154
▁ve	-9.38179
▁lars	-9.38281
tegn	-9.38318
folkerepublikken	-9.38383
▁rike	-9.385
▁design	-9.38537
dø	-9.38568
▁vis	-9.38637
▁slo	-9.38726
▁ii	-9.38731
▁relativ	-9.3883
▁trondheim	-9.38832
▁1975	-9.38842
▁sogn	-9.38861
▁1900	-9.3887
lus	-9.38891
▁bedre	-9.3891
kro	-9.38988
▁ven	-9.39038
▁pla	-9.39108
▁500	-9.39383
handler	-9.39414
loven	-9.39448
kte	-9.39465
merke	-9.39484
▁pas	-9.39522
▁hvilke	-9.3953
nske	-9.39551
▁kraftig	-9.39567
ib	-9.39661
▁gru	-9.39676
▁air	-9.39707
byen	-9.39734
är	-9.39747
elva	-9.39889
▁kle	-9.39914
▁følger	-9.39959
▁funksjon	-9.40057
▁ul	-9.40078
▁befolkningen	-9.40165
▁eldste	-9.40233
aks	-9.40331
▁årlig	-9.40337
cia	-9.4036
▁opera	-9.40408
▁regjering	-9.40412
▁ang	-9.40447
ins	-9.40624
itz	-9.40666
▁høyere	-9.40709
▁fle	-9.40728
ji	-9.40735
roll	-9.40742
▁europeisk	-9.40753
side	-9.40831
▁sag	-9.40871
dri	-9.40877
park	-9.40927
▁sommerfugl	-9.40954
▁led	-9.41021
▁sun	-9.41046
▁kull	-9.41134
▁litteratur	-9.41308
▁fest	-9.41313
handling	-9.41334
syn	-9.41376
с	-9.4155
kraftverk	-9.41559
nivå	-9.4158
66	-9.41582
▁nordvest	-9.41657
▁1945	-9.41668
▁latin	-9.41773
▁grev	-9.41811
fisk	-9.41841
xi	-9.4197
ringer	-9.42005
▁bolig	-9.42039
▁bygning	-9.421
organisasjon	-9.42215
▁livet	-9.42227
▁stø	-9.42325
▁prosess	-9.42403
ritt	-9.42417
▁zh	-9.42544
▁ban	-9.42568
valg	-9.42569
lem	-9.42797
dor	-9.42853
bær	-9.43004
▁møtte	-9.43024
▁1979	-9.43112
▁statsminister	-9.43123
ix	-9.43253
▁bass	-9.43299
▁samlet	-9.43303
▁område	-9.43376
lle	-9.43413
▁nrk	-9.43427
▁egg	-9.43448
▁unge	-9.43653
periode	-9.43765
▁sø	-9.43771
л	-9.4383
▁1976	-9.4383
▁fjerde	-9.43832
▁poeng	-9.43861
▁martin	-9.43874
▁tradisjonell	-9.44004
85	-9.44047
▁raskt	-9.44059
full	-9.44103
▁gren	-9.44108
▁region	-9.44146
kin	-9.44174
ari	-9.44287
▁mis	-9.44335
36	-9.44348
▁trans	-9.44374
gruppe	-9.44388
▁lærer	-9.44476
▁bilde	-9.44498
▁århundre	-9.44566
all	-9.4457
▁anne	-9.44577
▁merke	-9.44698
▁200	-9.44824
▁utdanne	-9.44921
mit	-9.44985
▁mulighet	-9.45069
▁divisjon	-9.45086
▁stu	-9.45091
▁stjerne	-9.45111
▁syd	-9.45131
▁frank	-9.45167
▁rad	-9.45264
cy	-9.45313
▁1982	-9.45319
▁egentlig	-9.45336
▁bern	-9.45408
▁tross	-9.45552
▁not	-9.45611
▁skjer	-9.45661
▁kol	-9.4568
▁ledd	-9.45721
▁slekten	-9.45805
▁nordlige	-9.45811
86	-9.46023
▁svarte	-9.46029
▁heter	-9.46036
▁sannsynlig	-9.46052
▁1978	-9.46068
▁ep	-9.46076
▁flagg	-9.46105
▁christ	-9.46128
▁kro	-9.46156
▁resten	-9.4626
▁70	-9.46266
▁penge	-9.46272
▁gla	-9.4633
gan	-9.46346
atet	-9.46386
▁sommeren	-9.46441
▁kanon	-9.46462
bor	-9.46491
last	-9.46581
▁likeve	-9.466
▁museum	-9.46775
▁københavn	-9.46804
▁stavanger	-9.46811
▁1983	-9.46818
▁lengde	-9.46823
▁johannes	-9.47042
▁finland	-9.47068
▁høyde	-9.47074
▁west	-9.4709
▁plat	-9.47294
▁cm	-9.47327
wi	-9.47365
80	-9.47423
virkning	-9.47486
▁samle	-9.47505
skrift	-9.47511
regionen	-9.4753
▁1981	-9.47574
▁1977	-9.47577
▁1964	-9.4758
tun	-9.47588
værende	-9.47622
ugh	-9.47627
▁variant	-9.47657
▁snar	-9.47698
▁stilling	-9.47743
▁grensen	-9.47781
spekt	-9.47795
▁fange	-9.47846
asj	-9.47872
▁begrepet	-9.47953
▁tele	-9.47956
▁tett	-9.4803
vit	-9.48078
40	-9.48143
lighet	-9.48203
punkt	-9.48234
ød	-9.48243
▁flo	-9.48259
skolen	-9.48292
▁krav	-9.48311
▁lau	-9.48318
▁hest	-9.48331
▁1972	-9.4834
▁rot	-9.48384
sc	-9.48401
af	-9.48441
▁styrke	-9.485
▁symbol	-9.48512
lla	-9.4856
▁iii	-9.48593
▁roma	-9.4886
▁musiker	-9.48889
▁dyp	-9.48968
my	-9.48995
ille	-9.49047
▁uni	-9.4907
▁komme	-9.49072
▁australia	-9.49095
▁national	-9.49095
▁rus	-9.49117
▁1950	-9.49123
▁søster	-9.49131
▁arten	-9.49137
▁city	-9.49192
▁nivå	-9.49223
mand	-9.49272
▁pal	-9.49291
lang	-9.49315
▁pri	-9.494
▁veg	-9.49483
felt	-9.49544
▁mad	-9.49679
▁sy	-9.49792
cc	-9.49817
▁korea	-9.49837
▁los	-9.49843
▁hverandre	-9.4987
▁dronning	-9.49875
hel	-9.49983
▁heller	-9.50019
▁styrker	-9.50122
▁båt	-9.5018
ved	-9.50229
▁lære	-9.50365
84	-9.50446
▁sende	-9.50478
▁mester	-9.50482
▁areal	-9.50506
▁punkt	-9.50608
▁distrikt	-9.50614
▁canada	-9.50653
▁voksne	-9.50655
▁opprør	-9.50767
▁grense	-9.50782
▁jens	-9.50798
▁regel	-9.50839
ming	-9.50906
▁koloni	-9.50959
▁periode	-9.51047
▁representant	-9.51212
▁mørke	-9.51242
kh	-9.51251
ano	-9.51313
à	-9.51438
ú	-9.51438
▁1966	-9.51457
▁daglig	-9.51538
stoff	-9.51556
▁skje	-9.5165
▁fil	-9.51658
▁die	-9.51666
▁kamper	-9.51671
▁viktige	-9.51715
▁stod	-9.51761
fører	-9.51784
▁pol	-9.51897
▁direktør	-9.52009
▁erstattet	-9.52017
▁kraftverk	-9.52082
▁sund	-9.52325
▁feil	-9.5233
▁eid	-9.52433
57	-9.52437
▁nådd	-9.52442
ire	-9.52478
▁øke	-9.52505
holm	-9.52548
stripe	-9.5266
▁jern	-9.52737
▁vold	-9.52739
ence	-9.52818
bru	-9.52857
▁høyt	-9.52859
▁organisasjon	-9.52876
44	-9.52907
▁kir	-9.52944
rev	-9.53006
▁spania	-9.53033
▁1974	-9.53047
▁stille	-9.53056
▁klubb	-9.53074
ente	-9.53166
snitt	-9.53266
▁produksjons	-9.53268
▁pat	-9.5327
rin	-9.53286
▁sju	-9.53385
▁middel	-9.53402
▁transport	-9.53433
korps	-9.53469
▁skapt	-9.53475
ringen	-9.53479
▁røde	-9.53542
▁type	-9.53608
▁fjorden	-9.53728
▁lenge	-9.53737
ani	-9.53752
▁gård	-9.53824
sam	-9.5384
▁syv	-9.53867
ata	-9.5408
▁enhet	-9.54109
▁sjef	-9.54211
▁resultat	-9.54216
valget	-9.54245
deling	-9.54281
▁pen	-9.54371
verket	-9.54409
røy	-9.54447
har	-9.54532
▁hopp	-9.54547
los	-9.54634
bra	-9.54647
▁sørvest	-9.54653
▁dårlig	-9.54655
▁vanskelig	-9.5466
▁eg	-9.54664
▁konst	-9.54719
▁sivil	-9.54726
▁sammenheng	-9.54753
▁studie	-9.54838
▁grønn	-9.54847
▁scene	-9.54849
▁offentlig	-9.54949
▁mid	-9.54971
▁løv	-9.55001
egnet	-9.55105
▁grand	-9.55136
så	-9.55149
folk	-9.55157
▁holm	-9.55167
▁fører	-9.55171
è	-9.55418
▁gå	-9.55427
gren	-9.55444
tog	-9.55484
▁1963	-9.55486
▁altså	-9.55498
▁1930	-9.55498
▁hud	-9.55508
▁tradisjon	-9.55545
▁fulgte	-9.55553
▁bygde	-9.55556
▁nederlandsk	-9.55565
ull	-9.55567
ara	-9.55585
47	-9.55614
▁forsker	-9.55634
▁marine	-9.5566
▁hit	-9.55694
cha	-9.55791
▁katolske	-9.55795
jev	-9.55822
▁gass	-9.55838
▁eli	-9.55843
▁operasjon	-9.55857
▁retning	-9.55863
▁vestlig	-9.55915
▁effekt	-9.55944
▁hvite	-9.55952
▁delvis	-9.55995
▁reist	-9.56028
▁ark	-9.56034
▁produksjon	-9.56127
spiss	-9.56129
ras	-9.56139
▁hor	-9.56147
skapet	-9.56158
▁sur	-9.56199
▁fot	-9.56221
▁velge	-9.56225
▁est	-9.56265
▁sykdom	-9.56273
▁informasjon	-9.56298
▁musikkalbum	-9.56312
68	-9.56367
▁produkt	-9.56448
▁ytre	-9.56455
▁tall	-9.56457
ance	-9.56462
▁nev	-9.56511
tta	-9.56559
▁hell	-9.56634
▁cup	-9.56667
▁anlegget	-9.56702
78	-9.56735
sser	-9.56762
kirke	-9.56813
systemet	-9.56857
42	-9.57016
▁gen	-9.57052
oth	-9.571
▁brann	-9.57155
mengde	-9.57224
alder	-9.57315
89	-9.57458
▁shi	-9.57537
kammer	-9.5756
▁tema	-9.57585
▁aktivitet	-9.57597
qui	-9.57654
▁son	-9.57712
▁finalen	-9.57713
▁finne	-9.57718
▁bane	-9.57738
▁gården	-9.57848
▁sterke	-9.57856
α	-9.57971
▁militære	-9.58053
▁hær	-9.58074
musikk	-9.58083
industri	-9.5812
▁handling	-9.58123
49	-9.58123
▁danse	-9.58155
▁fv	-9.58161
▁bad	-9.5827
▁skips	-9.58298
shire	-9.58313
▁oppdaget	-9.58327
gge	-9.58343
▁1800	-9.58354
que	-9.58407
▁nabo	-9.585
▁ska	-9.5853
hard	-9.5857
▁avdeling	-9.58654
▁flat	-9.58677
▁sel	-9.5871
▁posisjon	-9.5873
▁nærings	-9.58741
▁artene	-9.58746
▁distriktet	-9.58782
▁tilgjengelig	-9.58819
▁gjelder	-9.58819
▁klassisk	-9.5882
▁1973	-9.58833
▁landsbyen	-9.58922
▁slott	-9.58927
▁jorden	-9.58952
▁trolig	-9.58993
▁phil	-9.59025
▁bind	-9.59309
▁het	-9.59321
▁delta	-9.59485
tus	-9.59487
▁kjerne	-9.59491
▁len	-9.595
nett	-9.59503
drag	-9.59505
omfattende	-9.59578
mes	-9.59692
▁2016	-9.59695
▁1920	-9.59706
▁hovedstad	-9.59763
king	-9.59816
▁fro	-9.59844
▁ac	-9.59849
qu	-9.59868
▁miste	-9.59907
vogn	-9.59942
▁jean	-9.60013
▁lund	-9.60075
▁munn	-9.60099
▁adel	-9.60111
▁hører	-9.60126
stø	-9.60154
aktig	-9.60182
77	-9.60189
▁grenser	-9.60192
iserte	-9.6027
▁ordenen	-9.6029
▁japansk	-9.60349
▁hundre	-9.60353
▁senter	-9.60381
rio	-9.60415
sjonen	-9.60422
klubb	-9.60426
▁hente	-9.60441
08	-9.60469
grav	-9.60476
▁1965	-9.60557
▁saint	-9.60564
▁bakgrunn	-9.60578
▁knut	-9.6061
▁gjennomført	-9.60631
▁nes	-9.60643
▁verne	-9.60686
▁kart	-9.60726
▁virksomhet	-9.60813
▁salt	-9.60915
▁ran	-9.60937
▁forsvar	-9.60956
▁kam	-9.6099
▁nils	-9.60998
eier	-9.6101
▁student	-9.61042
62	-9.61051
▁fylkes	-9.61199
org	-9.61216
▁vik	-9.61255
ama	-9.6126
språk	-9.61294
▁kjempe	-9.61352
án	-9.61368
75	-9.61375
▁sovjetunionen	-9.61405
▁journalist	-9.61408
▁soldater	-9.61418
▁1948	-9.61422
▁løp	-9.61431
▁stre	-9.6146
▁eiendom	-9.6149
▁hæren	-9.61506
midler	-9.61538
▁sørlig	-9.61547
historie	-9.61601
våpen	-9.61609
▁utført	-9.61662
▁lenger	-9.61708
gul	-9.61777
▁regn	-9.61841
formet	-9.61846
▁vid	-9.61904
▁formel	-9.61955
▁sau	-9.61958
▁ønsket	-9.61973
▁bruke	-9.62018
ben	-9.62051
trop	-9.62066
▁fyr	-9.62123
▁ungdoms	-9.62135
▁hovedstaden	-9.62176
▁påvirke	-9.62181
▁satte	-9.62214
▁uavhengig	-9.62229
▁lengre	-9.62286
▁1968	-9.623
56	-9.62321
▁tverr	-9.6235
▁buss	-9.62421
48	-9.62436
▁tung	-9.62581
haug	-9.62604
▁cap	-9.62626
▁vær	-9.62635
72	-9.62649
standen	-9.62675
lund	-9.62696
▁valgte	-9.6287
ås	-9.62885
ktig	-9.63078
▁teori	-9.63095
pan	-9.63149
▁hjerte	-9.63168
▁melodi	-9.63176
▁bronse	-9.63177
▁bodde	-9.63178
▁trafikk	-9.632
partiet	-9.63234
▁skifte	-9.63248
▁produsent	-9.63255
▁bøker	-9.63268
74	-9.63297
of	-9.63428
▁maskin	-9.63465
the	-9.63574
▁alder	-9.63649
▁søk	-9.63692
▁prisen	-9.63746
▁totalt	-9.63807
▁sku	-9.63909
brun	-9.63928
▁beskrive	-9.63957
▁ram	-9.63988
delen	-9.6405
▁1971	-9.6406
▁religiøs	-9.6406
▁world	-9.6406
▁nærmest	-9.64063
▁stortinget	-9.64064
ão	-9.64078
▁alltid	-9.64127
▁rygg	-9.64288
▁py	-9.64303
▁pass	-9.64326
▁bio	-9.64363
▁just	-9.64391
hund	-9.64416
▁endret	-9.64493
vor	-9.64553
▁hodet	-9.64595
▁teksten	-9.64647
▁tha	-9.64709
spor	-9.64716
▁fjern	-9.64725
ij	-9.64848
▁forfatteren	-9.64869
och	-9.64879
kur	-9.64908
instrument	-9.64957
▁trøndelag	-9.64961
▁norrøn	-9.64963
▁ask	-9.64971
▁profesjonell	-9.65026
15	-9.65049
jær	-9.65251
low	-9.65319
▁metall	-9.65424
▁klarte	-9.65563
▁dynastiet	-9.65633
58	-9.65649
ora	-9.65689
ula	-9.6573
▁ph	-9.65862
▁opprinnelse	-9.6587
▁charles	-9.65892
▁stadig	-9.65976
fon	-9.66013
cla	-9.66021
▁jøde	-9.66063
vesen	-9.66108
▁georg	-9.66168
win	-9.6622
grense	-9.66232
▁ting	-9.66321
19	-9.66345
▁gutt	-9.66375
▁bomb	-9.66377
▁mun	-9.66396
▁personlig	-9.66449
motor	-9.66449
▁tanke	-9.66502
ria	-9.66581
▁sesong	-9.66632
fart	-9.66661
▁metal	-9.66709
ο	-9.66787
▁international	-9.66788
dagen	-9.66805
▁sykehus	-9.66806
07	-9.66815
ografi	-9.66889
63	-9.66894
▁un	-9.669
well	-9.66948
▁egypt	-9.66987
▁asia	-9.67002
▁representerer	-9.67027
▁300	-9.67069
▁elve	-9.6714
gata	-9.67158
sberg	-9.67183
▁prøve	-9.67191
▁borg	-9.67229
▁utviklingen	-9.67248
▁størrelse	-9.67287
▁win	-9.67442
46	-9.67449
▁provins	-9.67464
▁mik	-9.67512
▁stammer	-9.67512
▁offisielle	-9.67698
▁kardinal	-9.67714
▁selvstendig	-9.67714
▁fokus	-9.67716
▁vokste	-9.67717
▁1959	-9.67729
▁black	-9.67758
▁forsvars	-9.67813
▁grupper	-9.67826
▁faren	-9.67827
▁us	-9.67873
akademi	-9.67909
nom	-9.6793
▁økonomi	-9.67957
▁benytte	-9.67977
▁meste	-9.6804
▁90	-9.6806
▁arne	-9.68084
▁grunnlag	-9.68086
▁idretts	-9.68098
lapp	-9.68202
▁befolkning	-9.68269
▁naturlig	-9.68353
▁ung	-9.68371
ā	-9.685
▁krets	-9.68537
▁war	-9.68553
slaget	-9.68578
gangen	-9.68589
az	-9.68622
▁innflytelse	-9.68644
▁styrt	-9.6865
▁sikre	-9.6866
▁1969	-9.68662
▁1967	-9.68663
▁fotballspiller	-9.68683
høgskole	-9.68698
bein	-9.68825
ish	-9.68883
▁sort	-9.68912
hn	-9.68913
bånd	-9.68987
83	-9.68996
82	-9.69022
krets	-9.69026
▁organisasjonen	-9.69041
95	-9.69043
▁endt	-9.69043
departementet	-9.6918
arbeidet	-9.69185
▁skipet	-9.69243
▁kg	-9.69283
lov	-9.69341
ction	-9.69502
▁korte	-9.69605
▁bevart	-9.69626
▁lot	-9.69645
lav	-9.69689
▁ö	-9.69711
▁kropp	-9.69721
▁øyene	-9.69765
▁por	-9.69787
gard	-9.69888
medlem	-9.69913
▁fugle	-9.69913
▁problem	-9.69946
press	-9.69976
ux	-9.70004
person	-9.7002
▁huset	-9.70065
hin	-9.70071
▁kroner	-9.70077
vendt	-9.70127
▁begynner	-9.70138
▁dam	-9.70169
▁bon	-9.70315
makt	-9.70434
▁komponist	-9.70544
▁wilhelm	-9.70544
▁etterhvert	-9.70544
▁jazz	-9.70544
▁publisert	-9.70557
▁fremdeles	-9.70578
▁mw	-9.70591
▁bel	-9.70642
54	-9.70662
▁enten	-9.70664
trekk	-9.70846
møte	-9.7094
arbeider	-9.70988
serien	-9.71313
▁thor	-9.71351
▁dar	-9.71464
▁alternativ	-9.71505
▁arabisk	-9.71509
▁2017	-9.71529
▁magnus	-9.71614
▁gjenopp	-9.71616
one	-9.71635
mond	-9.71639
▁fremme	-9.71687
▁studier	-9.71707
▁elv	-9.71741
98	-9.71803
linje	-9.71805
▁kristne	-9.71816
▁ekspedisjon	-9.71835
25	-9.7187
bjørn	-9.71891
arm	-9.71941
▁mas	-9.71944
komst	-9.72
▁sterk	-9.72045
▁avis	-9.72176
▁last	-9.72235
ky	-9.72378
▁leve	-9.72385
fu	-9.72435
▁drev	-9.72456
▁original	-9.72473
▁teknisk	-9.72476
ram	-9.72483
ella	-9.72517
▁landskapet	-9.72556
87	-9.72614
shi	-9.72617
▁tegnet	-9.7265
▁kontor	-9.72681
ato	-9.72703
▁oppført	-9.72708
▁total	-9.72741
mul	-9.72758
▁sul	-9.72782
▁pra	-9.72829
▁wal	-9.72849
▁forskning	-9.72867
følge	-9.72904
sko	-9.7292
▁kinas	-9.72952
riket	-9.72996
▁slå	-9.73002
merket	-9.73039
▁anna	-9.73055
tti	-9.73063
▁epi	-9.73092
▁skan	-9.73147
▁formann	-9.7319
▁masse	-9.73357
59	-9.7337
▁måneder	-9.73395
▁behandling	-9.73417
▁religion	-9.73457
▁louis	-9.73457
▁klima	-9.73479
52	-9.73488
▁hei	-9.73493
▁jevn	-9.73637
▁sports	-9.73684
foss	-9.73703
▁nordisk	-9.73742
iter	-9.73765
▁ønske	-9.73825
ledning	-9.73876
ms	-9.7391
nu	-9.73994
▁lage	-9.74028
plasser	-9.74147
▁forsknings	-9.74149
▁larvene	-9.74156
lon	-9.74181
▁spill	-9.74256
▁gitar	-9.74289
▁folketelling	-9.74447
▁richard	-9.74447
▁stadion	-9.74451
▁forteller	-9.74453
▁ordfører	-9.74471
▁nevnt	-9.74477
▁rute	-9.74487
▁time	-9.74491
▁nåværende	-9.74491
70	-9.74508
kket	-9.74539
▁jarl	-9.74629
▁riksvei	-9.74634
gjorde	-9.74649
73	-9.74657
stikk	-9.74713
▁forskjell	-9.74723
▁bord	-9.74955
▁offentlige	-9.7498
part	-9.75177
▁pin	-9.75196
▁hed	-9.75291
▁besøk	-9.7544
▁øvrig	-9.75447
79	-9.75469
▁helge	-9.75517
▁livs	-9.75613
81	-9.75627
farge	-9.75678
▁tonn	-9.75735
ammen	-9.75761
88	-9.75823
▁temperatur	-9.75869
▁spesial	-9.75998
kes	-9.76124
▁leir	-9.76139
fin	-9.76171
samisk	-9.76211
▁midten	-9.76218
ori	-9.76225
pu	-9.76248
wood	-9.76292
verdi	-9.76334
▁drama	-9.76356
▁hoff	-9.76377
ova	-9.7638
ith	-9.76389
▁rollen	-9.76398
voks	-9.76404
▁utvikling	-9.76406
т	-9.76457
▁inspirert	-9.76457
▁michael	-9.76457
▁char	-9.76457
▁spesiell	-9.76457
minne	-9.76458
▁jacob	-9.76458
hastighet	-9.76462
▁1952	-9.76474
fugl	-9.76501
▁bry	-9.7651
▁fordelt	-9.76526
▁od	-9.76617
▁betegne	-9.76633
lad	-9.76695
▁cal	-9.76842
gården	-9.76902
ledd	-9.7696
kunst	-9.76964
mund	-9.76995
oni	-9.77019
▁odd	-9.7709
erende	-9.77323
skriv	-9.77421
sekretær	-9.77463
▁haug	-9.77472
▁fredrik	-9.77477
▁fengsel	-9.77478
▁kunnskap	-9.77479
▁markeds	-9.77481
▁kontakt	-9.77483
▁video	-9.77494
▁1944	-9.77498
▁reform	-9.77516
▁star	-9.77534
▁off	-9.77577
gruppa	-9.77605
▁ekteskap	-9.77643
▁opprinnelige	-9.77652
plikt	-9.77677
▁dø	-9.77681
▁will	-9.77696
▁mørk	-9.77739
nis	-9.7782
▁tittel	-9.77904
▁polsk	-9.77963
saker	-9.77973
▁ube	-9.7799
strøm	-9.77992
▁hund	-9.7804
▁forlot	-9.78099
▁offiser	-9.78113
voll	-9.78173
ain	-9.78274
▁stå	-9.78292
▁karakter	-9.78298
▁wo	-9.7832
▁fordel	-9.78326
ball	-9.78327
skyld	-9.78386
▁ze	-9.7839
▁fisk	-9.78414
▁selve	-9.78418
▁våren	-9.78449
▁hertug	-9.78513
▁1912	-9.78523
byr	-9.78537
kop	-9.78588
▁she	-9.78612
field	-9.78614
▁inkluderer	-9.7864
▁ek	-9.78643
▁bevis	-9.78674
▁innført	-9.7875
rimot	-9.78752
▁lavere	-9.78804
▁normalt	-9.78943
▁che	-9.78988
klubben	-9.79013
program	-9.79022
▁kjøp	-9.79038
▁oppgave	-9.79055
▁utdanning	-9.79077
▁dyre	-9.79123
▁kilde	-9.79129
kkel	-9.79169
▁svak	-9.79175
▁kast	-9.79176
90	-9.79204
nik	-9.79205
ér	-9.79238
lokk	-9.79306
▁hom	-9.79332
▁klart	-9.79423
▁180	-9.79444
▁omtale	-9.79482
jan	-9.795
ón	-9.79502
enberg	-9.79523
▁celle	-9.7954
▁hovedrollen	-9.79555
▁1954	-9.79568
▁1940	-9.79573
▁arn	-9.79574
▁historien	-9.79581
kirken	-9.79604
45	-9.79636
alitet	-9.79637
møll	-9.79884
▁åpning	-9.79969
▁tapte	-9.79988
▁polen	-9.80007
▁redaktør	-9.8009
▁pop	-9.80092
▁åpne	-9.80163
▁may	-9.80215
lid	-9.80321
vende	-9.80399
▁35	-9.80457
eringen	-9.80461
ische	-9.80581
▁trener	-9.80581
▁foreldre	-9.80605
▁lansert	-9.80609
▁college	-9.80615
▁kjemisk	-9.80619
▁forkorte	-9.80664
▁king	-9.80682
▁skille	-9.80738
gikk	-9.80807
▁arv	-9.80849
▁internasjonal	-9.80893
▁ånd	-9.81001
▁kap	-9.8119
▁strand	-9.81207
▁test	-9.8124
nummer	-9.81295
gal	-9.81315
▁wil	-9.81374
øyene	-9.81393
▁wh	-9.8141
▁toppen	-9.81442
ick	-9.81512
rike	-9.81526
▁beskytte	-9.8154
▁400	-9.81589
▁sn	-9.81618
vert	-9.8162
▁saken	-9.81638
▁nødvendig	-9.81666
ō	-9.81666
▁øvre	-9.81667
▁royal	-9.81668
▁ridder	-9.81674
▁lufthavn	-9.81678
▁omtalt	-9.817
▁cy	-9.81809
▁sentrale	-9.81849
skjold	-9.81853
band	-9.81909
cell	-9.81924
▁motsetning	-9.81928
▁union	-9.81959
▁bygningen	-9.82
▁tettsted	-9.82028
senteret	-9.82045
▁passer	-9.82052
▁stasjonen	-9.82056
▁nan	-9.82091
▁beskrevet	-9.82113
gon	-9.82165
figur	-9.82245
bul	-9.82253
▁havet	-9.82258
▁jakt	-9.82422
feltet	-9.82558
pal	-9.82571
▁trak	-9.82595
vekt	-9.8271
99	-9.8271
▁ytterligere	-9.82742
▁flertall	-9.82742
▁typisk	-9.82747
▁1946	-9.82761
▁1949	-9.82763
92	-9.82781
▁preget	-9.82788
▁front	-9.82802
▁jordbruk	-9.82804
analyse	-9.82847
▁likhet	-9.82905
94	-9.82926
▁oppdrag	-9.82932
▁ok	-9.82944
67	-9.82959
▁åpen	-9.83
▁marc	-9.83067
▁athen	-9.8307
▁fabrikk	-9.83091
▁disk	-9.83105
37	-9.83127
vatnet	-9.8313
▁aust	-9.83257
▁hode	-9.83286
▁opphav	-9.83295
▁viking	-9.8334
middel	-9.83366
▁spansk	-9.83455
sdag	-9.83489
kanten	-9.83497
▁flu	-9.83682
▁ce	-9.83683
▁up	-9.83798
deles	-9.83826
▁1953	-9.83829
▁1937	-9.83845
▁finans	-9.83878
▁tilhørt	-9.83893
snes	-9.83957
sket	-9.83967
levende	-9.83976
gaard	-9.84061
▁glass	-9.84158
alis	-9.84202
93	-9.84204
linjen	-9.84236
▁avisen	-9.84302
▁spørsmål	-9.84323
mennene	-9.84357
▁vitenskapelig	-9.84396
▁programmet	-9.84412
▁fjellet	-9.84421
lyn	-9.84447
arter	-9.84462
▁anton	-9.84499
formen	-9.84514
kommune	-9.84574
▁kristen	-9.84577
utgivelse	-9.84635
▁hill	-9.84642
▁innsjøen	-9.84675
visning	-9.84698
▁stav	-9.84764
rich	-9.84778
hm	-9.84783
mesterskapet	-9.84845
iblant	-9.84931
▁tydelig	-9.84931
▁nærmere	-9.84934
▁1938	-9.84943
ette	-9.84971
▁myr	-9.84984
▁avhengig	-9.84998
▁markert	-9.85048
dekke	-9.85061
43	-9.8511
▁presse	-9.8514
▁høye	-9.85196
▁kategori	-9.85199
hal	-9.85223
▁status	-9.85308
ity	-9.85356
▁lek	-9.85361
hall	-9.85386
▁rein	-9.85425
▁nasjon	-9.85491
▁prosjekt	-9.85531
▁skj	-9.85573
▁teknologi	-9.85603
kultur	-9.8567
post	-9.85689
▁betegnelsen	-9.85697
▁nr	-9.857
trådte	-9.85732
05	-9.85751
▁hjelpe	-9.85761
▁runde	-9.85765
▁song	-9.85779
løpet	-9.85795
øve	-9.85833
▁hurtig	-9.85838
kysten	-9.85919
virke	-9.85957
▁sluttet	-9.86004
к	-9.86019
▁fullstendig	-9.86039
▁1951	-9.86039
▁kaptein	-9.86041
▁magn	-9.86053
▁henhold	-9.86116
▁aksje	-9.86132
▁regnet	-9.86149
mod	-9.86244
▁systemet	-9.86257
bakken	-9.86293
skij	-9.86348
▁oppstå	-9.86492
zo	-9.865
sol	-9.86526
▁samfunns	-9.86547
rek	-9.8658
▁atom	-9.86588
▁dør	-9.86595
91	-9.86652
gate	-9.86683
▁valget	-9.86735
grupper	-9.8674
skudd	-9.86742
trinn	-9.86748
▁auto	-9.86832
▁verd	-9.86876
rådet	-9.86903
cal	-9.86953
▁larven	-9.86998
▁nederland	-9.87053
landskap	-9.87093
plassen	-9.87108
▁yngre	-9.87163
▁østerrike	-9.87164
▁united	-9.87164
▁element	-9.87196
▁vet	-9.87256
▁administrasjons	-9.87269
▁ind	-9.87294
fre	-9.87316
▁forsøkt	-9.87343
18	-9.87424
pet	-9.87467
▁ya	-9.87508
▁tusen	-9.87571
gjort	-9.87585
06	-9.87604
▁republikken	-9.87633
▁stol	-9.87656
▁strid	-9.87659
ios	-9.87709
▁ansatte	-9.87743
▁liga	-9.87758
▁brev	-9.87783
øst	-9.87785
▁flykte	-9.87851
forfatter	-9.8788
trafikk	-9.87884
▁lignende	-9.8789
▁lam	-9.87916
somme	-9.87935
▁base	-9.88001
skift	-9.88025
▁tids	-9.8804
▁ole	-9.8825
▁former	-9.88253
▁univers	-9.88277
▁løper	-9.88297
▁studio	-9.88298
▁1941	-9.88299
▁beijing	-9.88299
teknikk	-9.88299
▁forholdsvis	-9.88302
forvaltning	-9.88303
▁south	-9.88308
tempel	-9.88308
▁jobbet	-9.88312
▁1943	-9.88316
▁1919	-9.88319
▁1958	-9.88319
▁1936	-9.88324
kilden	-9.88379
▁prins	-9.8841
▁gam	-9.88434
▁32	-9.88446
stedet	-9.88448
▁johann	-9.88465
▁maler	-9.8855
▁kysten	-9.88606
▁vers	-9.88608
▁program	-9.88787
▁lyn	-9.8884
anter	-9.88861
san	-9.88923
▁dekker	-9.88925
▁byer	-9.88978
oph	-9.8899
▁ara	-9.89109
ordenen	-9.89191
▁old	-9.89222
▁sider	-9.89254
tis	-9.89322
▁oversatt	-9.89339
▁institutt	-9.89339
▁benyttes	-9.89411
▁rør	-9.89434
ν	-9.89448
▁utgangspunkt	-9.89448
▁lengst	-9.8947
▁snakke	-9.8948
▁vitenskap	-9.8952
▁albert	-9.89568
35	-9.89569
38	-9.89621
▁motiv	-9.89673
▁sten	-9.89683
bare	-9.89694
kov	-9.89702
▁gitarist	-9.89733
▁edderkopp	-9.89835
strand	-9.89838
▁bidrag	-9.89847
▁bevegelse	-9.89862
liste	-9.899
▁rund	-9.89939
16	-9.89945
▁krist	-9.90048
69	-9.90125
▁real	-9.90161
▁rekord	-9.90214
▁sho	-9.90317
17	-9.90407
sport	-9.90411
▁600	-9.90421
skipet	-9.90462
▁vokal	-9.90487
7	-9.90561
в	-9.9059
▁vunnet	-9.90611
▁jødisk	-9.90612
▁fysisk	-9.90616
▁videregående	-9.9065
▁blue	-9.90652
▁tunnel	-9.90663
▁damp	-9.90807
▁organisert	-9.90829
▁tog	-9.90841
▁north	-9.90898
▁vinner	-9.90899
▁skriver	-9.90973
▁horn	-9.91118
fil	-9.91119
kamera	-9.91125
▁kontrakt	-9.9114
▁irland	-9.91232
12	-9.91233
▁ansatt	-9.91252
bevegelsen	-9.913
▁bydel	-9.91309
chu	-9.91319
én	-9.91347
virksomhet	-9.91409
maskin	-9.91413
▁camp	-9.91433
▁koll	-9.91528
mmy	-9.9159
▁endre	-9.9162
▁kvinnelig	-9.91673
▁støttet	-9.91686
▁revolusjon	-9.91753
▁vanlige	-9.91757
▁sveits	-9.91772
kommunikasjon	-9.91787
▁etterfulgt	-9.91787
▁1961	-9.91787
▁nominert	-9.91787
▁regissert	-9.91788
▁innspilling	-9.91792
▁erobre	-9.91796
▁generelt	-9.91801
▁1962	-9.91809
▁nærheten	-9.91849
fabrikk	-9.91897
▁luc	-9.91959
rør	-9.91997
▁cro	-9.92084
ago	-9.92188
▁grunnla	-9.92204
car	-9.92231
21	-9.92298
▁dømt	-9.92309
▁stoppe	-9.92378
▁hevdet	-9.92401
strek	-9.92525
▁tettstedet	-9.92621
▁utvidet	-9.92701
▁hage	-9.92736
▁føl	-9.9276
▁utover	-9.928
▁kjøre	-9.92805
▁plassering	-9.92814
32	-9.92863
blomst	-9.92954
м	-9.92978
▁elektrisk	-9.92978
▁sjelden	-9.92978
▁brensel	-9.92979
▁ris	-9.9298
magasin	-9.92988
▁oscar	-9.92996
▁1956	-9.92998
▁1700	-9.93003
▁skilt	-9.93031
ologisk	-9.93035
▁dvs	-9.93037
▁nevnes	-9.93054
hode	-9.93081
ville	-9.9309
▁sier	-9.93204
▁tropp	-9.93234
▁overført	-9.93295
▁undersøkelse	-9.93329
søkte	-9.93383
▁sent	-9.93577
▁filmer	-9.93578
▁kil	-9.93641
▁regjerings	-9.93662
enhet	-9.93689
▁falt	-9.93699
▁lev	-9.93804
▁politikk	-9.93819
politikk	-9.9386
▁solo	-9.93868
▁bj	-9.93916
▁spise	-9.93919
▁handel	-9.93952
ary	-9.93994
▁dato	-9.93999
fjell	-9.94001
▁bay	-9.94027
▁femte	-9.94121
▁administrativ	-9.94182
▁offisielt	-9.94182
▁konflikt	-9.94183
▁episode	-9.94185
▁premier	-9.94193
▁tidsskrift	-9.94193
▁1918	-9.94201
▁tørr	-9.94236
hol	-9.94255
▁reaksjon	-9.94362
▁kongedømme	-9.94373
▁ranger	-9.94429
strid	-9.94504
gin	-9.94528
gress	-9.9456
staten	-9.94627
▁sosiale	-9.94633
▁salg	-9.94669
ept	-9.94684
▁frukt	-9.94695
▁endelig	-9.94717
▁kjøl	-9.94753
▁innsjø	-9.94754
▁anta	-9.94775
ati	-9.94796
▁kat	-9.94909
11	-9.94919
▁overgang	-9.94984
▁harald	-9.95035
turnering	-9.95039
▁æ	-9.95049
▁ramme	-9.95126
▁leker	-9.95141
▁kommuner	-9.95145
jiang	-9.95189
▁maur	-9.95235
▁liberal	-9.95285
▁ishockey	-9.95402
▁league	-9.95402
▁redusert	-9.95404
▁invest	-9.95409
▁tolv	-9.95412
▁1932	-9.95419
stid	-9.95424
klassen	-9.95431
▁fullført	-9.95432
▁1955	-9.95432
▁gall	-9.95444
▁streng	-9.95493
▁stoff	-9.95563
▁metro	-9.95667
▁konkurranse	-9.95679
▁gold	-9.95751
uch	-9.95764
▁overflate	-9.95784
▁typer	-9.95827
13	-9.95837
▁strekk	-9.95872
97	-9.95935
stemt	-9.9594
▁vind	-9.95961
04	-9.95977
▁vii	-9.96023
▁slave	-9.96052
▁innhold	-9.96098
▁tå	-9.96118
▁spillet	-9.96144
rommet	-9.96232
▁utvikle	-9.96255
▁rose	-9.96301
▁økte	-9.96397
dorf	-9.96399
▁stig	-9.96408
▁konkurransen	-9.96463
▁tromsø	-9.96475
▁uke	-9.96489
▁kost	-9.96493
▁indisk	-9.96536
▁uttale	-9.96549
▁bakken	-9.96579
▁skatte	-9.9658
▁gustav	-9.96638
▁hustru	-9.96639
▁skotsk	-9.9664
sler	-9.96648
▁1924	-9.96651
▁1928	-9.96652
▁1957	-9.96662
▁veldig	-9.96722
▁oppnå	-9.9675
▁fjord	-9.968
▁utfor	-9.96833
▁kjøpe	-9.96883
row	-9.96975
▁foreningen	-9.97013
▁river	-9.97023
▁historiker	-9.9706
▁linjen	-9.97119
▁malt	-9.97143
com	-9.97219
▁sim	-9.97326
prisen	-9.97424
▁bånd	-9.97435
▁bla	-9.97443
zy	-9.97532
▁rep	-9.97539
▁vannet	-9.97544
ping	-9.97554
▁bidra	-9.97573
havn	-9.97684
gger	-9.97771
▁bilder	-9.97773
vol	-9.97803
sanger	-9.97821
fang	-9.97868
▁kritikk	-9.97887
▁alvorlig	-9.97888
▁län	-9.9789
▁utnytte	-9.97894
▁unntak	-9.97908
▁forretnings	-9.97951
▁atlant	-9.97998
▁stortings	-9.98008
▁kok	-9.98026
▁dor	-9.98172
▁wei	-9.98175
ulykke	-9.98241
fjellet	-9.98362
▁eik	-9.98365
▁bosatt	-9.98378
▁omfattet	-9.98529
▁bit	-9.98556
▁rå	-9.98573
fylt	-9.98582
▁snø	-9.98627
▁folket	-9.9864
▁bibliotek	-9.98657
▁struktur	-9.98717
▁bydelen	-9.98847
prosjekt	-9.98864
▁avsluttet	-9.9892
▁publi	-9.98936
▁syr	-9.98956
▁hunnen	-9.98966
▁debutert	-9.99023
ł	-9.99152
▁således	-9.99152
▁mytologi	-9.99167
▁kjønn	-9.9918
▁prof	-9.9918
▁nasjonalpark	-9.99196
▁straffe	-9.99207
eksamen	-9.99268
▁stabil	-9.9928
▁agder	-9.99322
▁foruten	-9.99339
halvøya	-9.99391
▁arve	-9.99414
▁objekt	-9.99492
▁økt	-9.99575
endring	-9.99633
vinger	-9.99645
▁stand	-9.9972
▁styrkene	-9.99743
svik	-9.99803
▁gjeste	-9.99848
▁alf	-9.99938
▁geo	-9.99965
anda	-9.99985
▁tø	-10.0002
con	-10.0006
cus	-10.0013
miljø	-10.0017
▁listen	-10.002
▁drive	-10.0022
avdeling	-10.0023
ernes	-10.0024
syre	-10.0025
▁materiale	-10.0043
▁individ	-10.0043
▁mexico	-10.0043
▁erklært	-10.0043
▁henholdsvis	-10.0044
▁oversikt	-10.0044
▁frederik	-10.0044
▁1926	-10.0045
▁innsats	-10.0055
stol	-10.0057
▁bibel	-10.0057
ulf	-10.0058
▁ledende	-10.0062
▁angeles	-10.0063
▁stab	-10.0066
▁problemer	-10.007
▁rapport	-10.0084
distanse	-10.0084
▁master	-10.0086
satte	-10.0097
96	-10.0099
▁troll	-10.0099
▁kh	-10.0107
▁filosofi	-10.011
jobb	-10.011
pur	-10.0113
mur	-10.0119
▁klo	-10.0119
▁rase	-10.0121
fond	-10.0122
▁utdannelse	-10.0124
▁festning	-10.0126
formede	-10.0136
▁turist	-10.0139
▁mill	-10.0146
▁pala	-10.0146
▁gil	-10.0146
▁snu	-10.015
produkt	-10.015
samfunn	-10.0152
▁driver	-10.0155
▁fan	-10.0166
▁tårn	-10.0171
▁illustr	-10.0173
▁moskva	-10.0173
▁skjedde	-10.0174
▁tegneserie	-10.0174
▁1933	-10.0175
▁skaffe	-10.0176
▁daniel	-10.0177
▁uttalt	-10.018
styrke	-10.0187
▁henry	-10.0195
plattform	-10.0196
▁utgi	-10.0201
▁bol	-10.0202
▁tidspunkt	-10.0203
blanding	-10.0207
▁private	-10.0207
▁150	-10.0212
▁virkelig	-10.0219
ima	-10.0219
▁områdene	-10.022
eppe	-10.0229
språklig	-10.0231
▁rask	-10.0236
▁gyl	-10.0238
▁bølge	-10.024
▁gard	-10.0245
▁stilte	-10.0247
▁fel	-10.0247
▁nedre	-10.0256
▁rand	-10.0258
▁ungdom	-10.027
▁zo	-10.027
jord	-10.0271
▁arts	-10.0273
▁800	-10.0275
svarer	-10.0282
gjør	-10.0287
▁aur	-10.0296
istene	-10.0302
д	-10.0305
▁california	-10.0305
▁service	-10.0305
▁kommunal	-10.0305
fortelling	-10.0305
▁bokstav	-10.0305
▁1935	-10.0307
▁1905	-10.0307
▁papir	-10.0308
▁tam	-10.0314
▁blokk	-10.0314
▁eksistere	-10.0315
▁ekstra	-10.032
▁grønland	-10.032
▁vokalist	-10.0322
▁mangler	-10.0323
▁cri	-10.0324
▁unn	-10.0328
▁nordland	-10.0332
▁dommer	-10.0332
familie	-10.0333
▁angrepet	-10.0335
▁music	-10.0336
▁heng	-10.0336
▁kvart	-10.0336
▁brand	-10.0337
28	-10.0344
▁adam	-10.0345
stille	-10.0345
▁østlig	-10.0353
uc	-10.0368
▁verket	-10.0379
can	-10.0385
▁rosen	-10.0388
bol	-10.0396
▁vakt	-10.0404
▁log	-10.0405
house	-10.0412
▁utvalg	-10.0415
▁tan	-10.0416
▁kreft	-10.0417
forbindelse	-10.0417
▁populære	-10.042
▁patri	-10.0427
▁skottland	-10.0438
▁tilknyttet	-10.0438
▁artikkel	-10.0438
▁inneholdt	-10.0438
▁club	-10.0438
▁spredt	-10.0439
▁himmel	-10.044
▁1939	-10.0442
▁vokser	-10.0442
bakk	-10.0445
▁middelalderen	-10.0449
▁bryst	-10.0449
▁dekk	-10.0453
▁mikro	-10.0457
▁beg	-10.046
▁kanalen	-10.0464
▁flyplass	-10.0468
▁angel	-10.0474
▁overfor	-10.0481
fjellene	-10.0482
▁mol	-10.049
34	-10.0503
▁språket	-10.0509
▁internasjonalt	-10.0514
▁kari	-10.0519
▁forvingen	-10.0521
ppel	-10.0524
▁kanal	-10.0528
▁mini	-10.0532
▁museet	-10.0543
▁flor	-10.0552
▁kjenne	-10.0562
yang	-10.0567
▁eide	-10.0568
▁dokumenter	-10.0573
▁alkohol	-10.0573
▁publikum	-10.0573
▁betrakte	-10.0573
▁oversettelse	-10.0574
▁islam	-10.0574
▁medlemmene	-10.0574
▁kin	-10.0576
▁bidro	-10.0577
▁kilder	-10.0578
basert	-10.0583
▁svar	-10.0585
fyr	-10.059
▁vekst	-10.0592
▁gått	-10.0598
▁kas	-10.062
▁gener	-10.0626
▁romanen	-10.063
plate	-10.0632
▁kongelige	-10.0637
rup	-10.064
dro	-10.0643
▁minutter	-10.0652
▁sovjetisk	-10.0652
▁normal	-10.0658
vinner	-10.0672
▁cu	-10.0683
utvikling	-10.0692
vekst	-10.0695
▁alexander	-10.071
▁arrangere	-10.071
▁foregår	-10.071
▁ødelagt	-10.0711
▁skiller	-10.0711
▁1917	-10.0712
▁protest	-10.0712
▁1947	-10.0713
▁kvalitet	-10.0714
▁high	-10.0715
illa	-10.0716
▁hovedsak	-10.0718
▁anledning	-10.0719
▁nedlagt	-10.0721
▁føde	-10.0721
▁meldt	-10.0723
▁bosetning	-10.0723
▁kai	-10.0724
▁tredjeplass	-10.0725
▁sær	-10.0728
bank	-10.0729
på	-10.0735
gor	-10.0749
høyde	-10.0752
▁junior	-10.0754
▁øverste	-10.0761
▁teolog	-10.0762
▁score	-10.0764
▁ingeniør	-10.0765
▁kommunene	-10.0769
▁fc	-10.0769
▁hannen	-10.0772
gjøre	-10.0777
▁kåre	-10.0778
▁poly	-10.0779
▁ansvarlig	-10.0782
kritisk	-10.0789
▁37	-10.0789
leir	-10.0797
▁irsk	-10.0797
▁ull	-10.0799
▁harry	-10.0799
▁berømte	-10.0823
▁dobbelt	-10.0826
▁foss	-10.0834
stasjonen	-10.0848
▁antagelig	-10.0849
▁passasjer	-10.0849
▁tyrkisk	-10.0849
▁school	-10.0849
▁major	-10.0849
▁sistnevnte	-10.085
▁byprefektur	-10.085
▁1922	-10.0851
▁håkon	-10.0851
komiteen	-10.0851
▁1925	-10.0852
▁planlagt	-10.0853
▁thi	-10.0857
▁elev	-10.0857
ito	-10.0857
▁gor	-10.0861
▁avholdt	-10.0861
▁kata	-10.0862
▁award	-10.0863
ward	-10.0865
▁dekket	-10.0869
forbundet	-10.0873
▁løsning	-10.0875
▁sete	-10.0876
▁banen	-10.0879
▁finn	-10.0896
▁orkester	-10.0913
▁spanske	-10.0915
▁stål	-10.0919
gått	-10.092
27	-10.0924
bell	-10.0929
fekt	-10.0933
▁jule	-10.0934
▁dog	-10.0935
kommisjon	-10.0939
▁sønnen	-10.0944
▁ein	-10.0944
▁pet	-10.0945
onym	-10.0956
onia	-10.0968
▁utstyr	-10.0968
sikkerhet	-10.0969
vitenskap	-10.0971
produsent	-10.0976
cent	-10.0977
▁stamme	-10.0984
▁free	-10.0988
▁eksempler	-10.099
▁middelsstor	-10.099
▁records	-10.099
▁artikler	-10.099
▁cirka	-10.099
▁grunnlegger	-10.099
▁bronsemedalje	-10.0991
▁blomster	-10.0993
▁1910	-10.0994
▁brenn	-10.0995
▁primær	-10.0997
faktor	-10.0997
▁ukjent	-10.0998
▁kraftige	-10.1
▁nød	-10.1
▁ug	-10.1008
24	-10.1011
▁zu	-10.1013
spinner	-10.1019
▁intern	-10.1021
off	-10.1021
▁dyrke	-10.1024
▁bob	-10.1028
▁plasser	-10.1051
vold	-10.1052
▁regional	-10.1053
▁max	-10.1061
▁hevd	-10.1064
aria	-10.1066
▁maleri	-10.1068
▁long	-10.1069
▁paus	-10.1071
bandet	-10.1078
▁kandidat	-10.1082
▁korn	-10.1088
▁utviklings	-10.1088
▁utføre	-10.1088
barn	-10.1095
▁ligne	-10.1099
▁utøver	-10.11
vakt	-10.1112
gro	-10.1113
konkurranse	-10.1121
listen	-10.1121
angrep	-10.1122
myndighet	-10.113
▁kombinasjon	-10.1133
▁kombinert	-10.1133
▁regissør	-10.1133
▁ungarn	-10.1133
▁skjær	-10.1133
vulkan	-10.1133
▁edward	-10.1135
▁sølvmedalje	-10.1135
▁behandle	-10.1137
▁dj	-10.1138
drevet	-10.1145
polit	-10.1147
forsker	-10.1149
▁sankt	-10.1151
▁dalen	-10.1152
forhold	-10.1153
▁coll	-10.1165
▁formål	-10.1166
▁met	-10.1168
▁amt	-10.1169
▁nettverk	-10.1175
▁produsere	-10.1176
▁vingene	-10.1181
lock	-10.1191
▁drag	-10.1192
byrå	-10.1194
▁driv	-10.12
▁aker	-10.12
spar	-10.1202
▁begrep	-10.1203
▁ost	-10.1205
type	-10.1206
krig	-10.121
bygget	-10.1212
▁inndel	-10.1216
▁green	-10.1223
▁landsby	-10.1223
▁utstyrt	-10.1224
▁neu	-10.1228
▁bell	-10.1229
▁cho	-10.1229
▁sven	-10.1237
vingen	-10.1238
folket	-10.1256
litt	-10.1258
hånd	-10.1268
▁bredt	-10.1269
forskning	-10.1271
▁kald	-10.1273
kjemi	-10.1277
▁1600	-10.1278
▁sachsen	-10.1278
▁scott	-10.1284
▁lese	-10.1299
▁stam	-10.1305
▁dun	-10.1336
▁33	-10.1341
uz	-10.1349
former	-10.1349
▁tradisjonel	-10.135
▁stift	-10.135
▁menighet	-10.1351
▁gy	-10.1358
▁bakkroppen	-10.1361
kjent	-10.138
▁und	-10.1385
▁solen	-10.1388
leng	-10.1395
album	-10.1415
▁olsen	-10.1415
stjerne	-10.142
ç	-10.1425
▁installert	-10.1425
▁østerriksk	-10.1425
▁forekommer	-10.1425
▁1923	-10.1426
▁rykket	-10.1427
▁drammen	-10.1427
rød	-10.1428
foreningen	-10.1429
▁hersker	-10.1433
26	-10.1435
▁motsatt	-10.1449
▁alli	-10.1453
▁skape	-10.1462
▁tilhør	-10.1465
▁ansvar	-10.1468
31	-10.1471
▁singel	-10.1478
later	-10.1478
▁fyrst	-10.1489
▁34	-10.1497
▁institusjon	-10.1499
▁single	-10.15
fant	-10.1503
▁hammer	-10.1503
passet	-10.1509
givelse	-10.1524
▁45	-10.1524
▁bonde	-10.153
▁mary	-10.1532
▁cur	-10.1535
gram	-10.1541
light	-10.1541
▁demokratisk	-10.1546
serie	-10.1553
▁grunnlov	-10.1555
administrasjon	-10.156
▁rob	-10.1563
dommer	-10.1564
kapasitet	-10.1568
prosess	-10.1569
▁kapp	-10.157
pass	-10.1571
▁gau	-10.1573
▁fødsel	-10.1574
▁erkebiskop	-10.1574
▁positiv	-10.1574
▁ludvig	-10.1574
▁utbredt	-10.1574
▁digital	-10.1574
▁forårsake	-10.1575
▁fløy	-10.1575
▁finnmark	-10.1576
▁1906	-10.1576
▁dialekt	-10.1577
▁1942	-10.1577
▁east	-10.1579
bøker	-10.158
flekk	-10.1591
29	-10.1611
▁nyere	-10.1626
▁bygda	-10.1629
▁vill	-10.1634
punktet	-10.1644
▁insekter	-10.1647
▁skudd	-10.1649
▁samarbeidet	-10.1653
▁cra	-10.1655
▁hellige	-10.1656
▁prinsipp	-10.1657
▁opphold	-10.1663
▁båten	-10.1667
▁institut	-10.1668
▁utga	-10.1672
▁nam	-10.1677
vall	-10.1683
▁fartøy	-10.1685
▁bach	-10.1692
koll	-10.1712
kjønn	-10.1723
▁moren	-10.1723
front	-10.1725
▁250	-10.1725
▁milliarder	-10.1726
▁county	-10.1726
▁definert	-10.1726
▁datamaskin	-10.1727
▁1904	-10.1728
▁jackson	-10.173
▁programmer	-10.1732
▁1000	-10.1733
▁populær	-10.1733
▁tau	-10.1733
▁reserve	-10.1734
▁storm	-10.1736
▁antatt	-10.1745
▁rod	-10.1752
▁cd	-10.1752
▁team	-10.1753
▁hem	-10.1754
▁din	-10.1766
▁timer	-10.1772
jon	-10.1778
elv	-10.1791
▁forble	-10.1798
▁tilbud	-10.18
hallen	-10.181
▁selge	-10.1814
▁salme	-10.1814
handel	-10.1815
▁andreas	-10.1817
▁play	-10.1833
▁produserer	-10.1833
horn	-10.1834
▁bunn	-10.1837
bury	-10.1842
olje	-10.1846
▁studenter	-10.1847
put	-10.1861
teri	-10.1867
▁yu	-10.1869
▁arrangement	-10.188
▁færøyene	-10.188
▁hendelser	-10.188
▁utenlandske	-10.188
▁operatør	-10.188
▁frykt	-10.188
▁nektet	-10.188
▁fattig	-10.188
hopp	-10.188
▁faktisk	-10.1881
hjem	-10.1881
▁håndball	-10.1881
▁signert	-10.1883
▁yrke	-10.1883
▁pil	-10.1883
▁internett	-10.1884
▁web	-10.1886
▁kapell	-10.1888
▁rulle	-10.1901
▁uker	-10.1901
▁nm	-10.1904
▁etterfølger	-10.1906
▁fylket	-10.1907
▁beskrivelse	-10.1914
▁funn	-10.1923
▁alene	-10.1942
▁gruve	-10.1946
▁unna	-10.1958
▁makten	-10.196
▁hval	-10.1961
ifisert	-10.1965
gol	-10.1968
▁idrettslag	-10.1974
▁fyll	-10.1975
▁prosjektet	-10.1986
▁hum	-10.199
▁vegg	-10.1991
bygningen	-10.1998
tagelse	-10.2001
kongress	-10.2004
▁forsvaret	-10.2015
bestemmelse	-10.202
▁latinsk	-10.2026
▁beseiret	-10.2036
▁elisabeth	-10.2036
▁hordaland	-10.2036
▁arthur	-10.2036
▁nedbør	-10.2036
▁brøt	-10.2036
▁romsdal	-10.2037
bukta	-10.2042
▁tromme	-10.2043
typen	-10.2044
▁diplomat	-10.2048
opplysning	-10.2049
kontor	-10.2051
▁elever	-10.2055
strøk	-10.2055
▁jag	-10.2066
åsen	-10.2071
isjon	-10.2078
▁simon	-10.2079
lipp	-10.2079
kryp	-10.2081
ifisering	-10.2089
galleri	-10.2097
▁tråd	-10.21
▁vitne	-10.2108
▁bispedømme	-10.2109
▁klosteret	-10.211
▁vert	-10.2112
trener	-10.2114
▁ansvaret	-10.2115
▁fantes	-10.2124
▁tilfeller	-10.2125
▁flytte	-10.2133
▁prim	-10.2142
▁fritt	-10.2152
dam	-10.216
▁statlig	-10.2161
myr	-10.2161
▁term	-10.2166
▁street	-10.2174
▁tang	-10.2176
▁formen	-10.2183
▁sekund	-10.2185
▁europe	-10.2191
høy	-10.2193
løytnant	-10.2195
▁kristiansand	-10.2195
▁ekstrem	-10.2195
ressurs	-10.2195
▁inngår	-10.2195
▁debutalbum	-10.2195
▁1929	-10.2196
▁1934	-10.2197
▁michel	-10.2199
livet	-10.2203
▁drikke	-10.2203
▁kloster	-10.2206
▁hvile	-10.2206
måte	-10.2207
▁38	-10.221
▁samfunn	-10.221
▁bakke	-10.2211
komedie	-10.2214
ligste	-10.2214
▁forbundet	-10.2216
ān	-10.222
▁debut	-10.222
33	-10.2228
▁politiet	-10.2229
23	-10.2232
aya	-10.2233
▁120	-10.2234
▁sørge	-10.2234
▁malm	-10.2235
▁petter	-10.2239
▁underlagt	-10.2242
▁tykk	-10.2246
▁anlegg	-10.2253
▁musikalsk	-10.2257
▁unngå	-10.2258
▁cou	-10.226
▁sats	-10.2262
▁produksjonen	-10.2262
22	-10.227
▁verker	-10.2273
domstol	-10.2276
▁hamar	-10.2294
▁tekster	-10.23
▁levert	-10.2304
▁tour	-10.2306
▁santa	-10.2308
▁bull	-10.2309
▁enorm	-10.2311
▁filosof	-10.2315
politisk	-10.232
▁medisin	-10.2338
kasse	-10.2351
▁gli	-10.2355
▁initiativ	-10.2356
▁kjærlighet	-10.2356
▁vingespenn	-10.2356
▁krevde	-10.2356
▁byttet	-10.2357
▁1927	-10.2358
▁oblast	-10.2358
▁kode	-10.2361
▁otto	-10.2361
▁flekker	-10.2362
▁riktig	-10.2362
▁varierer	-10.2362
fatning	-10.2363
▁feire	-10.2363
museum	-10.2364
masse	-10.2364
kostnad	-10.2367
▁utvikler	-10.2367
▁hellas	-10.2371
▁hotell	-10.2371
▁show	-10.2373
tårn	-10.2373
▁grov	-10.2376
▁birk	-10.238
▁generasjon	-10.238
▁75	-10.2386
klasse	-10.2397
▁typen	-10.2399
▁cam	-10.24
▁næringsliv	-10.2402
▁andreplass	-10.2419
▁rh	-10.2422
▁kommet	-10.2422
▁sammenligne	-10.2424
▁170	-10.2427
base	-10.2429
▁evne	-10.2433
▁samfunnet	-10.2434
ical	-10.2449
▁mah	-10.245
▁kommunist	-10.2458
▁boy	-10.2461
vika	-10.2475
vikler	-10.2476
hem	-10.2477
▁utsatt	-10.2483
styrken	-10.2501
hild	-10.2505
▁skaper	-10.2506
▁friedrich	-10.252
▁konkurrere	-10.252
▁guvernør	-10.252
▁joseph	-10.252
▁praksis	-10.252
▁lønn	-10.252
▁litterær	-10.2521
▁1914	-10.2521
▁adresse	-10.2521
▁mottatt	-10.2521
▁1915	-10.2523
▁allierte	-10.2525
▁bekrefte	-10.2525
▁kapasitet	-10.2526
▁bakterie	-10.2527
▁sverd	-10.253
feld	-10.253
▁deltaker	-10.2532
▁måned	-10.2532
▁steve	-10.2537
næring	-10.2541
▁1500	-10.255
ordning	-10.2562
▁hindre	-10.2563
▁boka	-10.2565
▁press	-10.2567
roman	-10.2571
▁signal	-10.258
▁nordover	-10.2581
▁hå	-10.2582
▁hon	-10.2585
strup	-10.2591
▁mei	-10.2594
bryter	-10.2604
▁lake	-10.2607
▁forholdet	-10.2607
trukket	-10.2611
▁butikk	-10.2614
jern	-10.2615
▁sara	-10.2616
▁beina	-10.2623
kilde	-10.2658
takelse	-10.2661
▁eventyr	-10.2686
▁company	-10.2686
▁smith	-10.2687
▁registrert	-10.2687
▁arendal	-10.2687
komité	-10.2688
▁alfred	-10.2689
▁1921	-10.2689
▁1908	-10.269
▁hemmelig	-10.269
vandring	-10.2691
▁artister	-10.2692
kompani	-10.2693
▁fremført	-10.2697
▁tell	-10.2704
vning	-10.2704
modell	-10.2708
▁avtalen	-10.2713
ique	-10.272
orm	-10.2726
▁effektiv	-10.2727
pat	-10.2735
▁esp	-10.2735
sats	-10.2736
▁niels	-10.2738
bygning	-10.2741
▁kommando	-10.2741
forsvar	-10.2742
▁final	-10.2747
▁dukke	-10.2752
▁krim	-10.2756
▁ari	-10.2759
▁kval	-10.2762
▁bærer	-10.2764
speil	-10.2765
områdene	-10.2784
▁skylde	-10.2784
▁tvil	-10.2787
▁klassen	-10.2793
▁departementet	-10.2797
▁ankom	-10.2803
▁gaten	-10.2806
▁khan	-10.2824
▁fjernet	-10.2825
▁act	-10.2826
▁trær	-10.2828
▁australsk	-10.2856
▁argument	-10.2856
▁verdenscup	-10.2856
▁dollar	-10.2856
▁vesentlig	-10.2856
▁operativ	-10.2857
gymnas	-10.2858
▁antikken	-10.286
▁erfaring	-10.2861
▁tilhenger	-10.2863
distrikt	-10.2866
▁håndverk	-10.2867
firma	-10.2868
▁lokalisert	-10.2868
▁gjenstand	-10.2886
skjær	-10.2893
▁jack	-10.2895
soldat	-10.2897
▁bære	-10.2901
▁frakte	-10.2902
▁kjell	-10.2917
▁prakt	-10.2928
▁inntekt	-10.2931
▁zi	-10.2937
▁besøkt	-10.2938
▁vinge	-10.2945
▁41	-10.2956
▁vg	-10.2957
▁villa	-10.2957
▁fusjon	-10.2978
▁festningen	-10.298
▁trening	-10.299
akademiet	-10.2992
▁hil	-10.3019
▁eksemplar	-10.3028
▁konkurrert	-10.3028
▁oksygen	-10.3028
mønster	-10.3028
▁friidrett	-10.3028
▁geografisk	-10.3028
▁anerkjent	-10.3028
▁hendelsen	-10.3028
▁edvard	-10.3028
pedagog	-10.3029
ов	-10.3029
▁begrenset	-10.3029
▁power	-10.303
▁1911	-10.3031
▁dyktig	-10.3031
aceae	-10.3031
▁øvelse	-10.3032
▁telemark	-10.3032
▁rektor	-10.3032
▁vedtatt	-10.3032
▁vannkraftverk	-10.3035
posisjon	-10.3039
rekke	-10.3043
▁arkitektur	-10.3044
hjelp	-10.3047
trål	-10.3047
vitsj	-10.3051
▁kopi	-10.3056
runde	-10.3057
▁undervisning	-10.3058
▁tynn	-10.3065
▁emil	-10.3067
▁hve	-10.3082
▁stjerner	-10.3088
▁begynne	-10.3101
▁fotballklubb	-10.3103
forsamlingen	-10.3111
grensen	-10.3112
▁krever	-10.3117
▁jones	-10.3127
▁ulik	-10.3128
▁utløp	-10.3136
slått	-10.3136
▁skall	-10.3137
▁saga	-10.3138
▁flåte	-10.3139
▁handle	-10.3141
▁shan	-10.3152
▁human	-10.3152
▁demon	-10.3156
▁antenne	-10.3168
▁krysser	-10.3174
brakt	-10.318
▁resultatet	-10.319
verv	-10.3199
▁1909	-10.3204
▁tilknytning	-10.3204
eksperiment	-10.3204
▁sigurd	-10.3204
▁antarktis	-10.3204
▁kommersiell	-10.3204
▁frivillig	-10.3204
▁fjernsyn	-10.3205
▁1931	-10.3206
▁sveitsisk	-10.3206
▁søndag	-10.3206
▁center	-10.3211
avgift	-10.3218
▁populært	-10.3219
▁sikkerhets	-10.3221
▁dahl	-10.3222
▁befinne	-10.3223
▁fremmed	-10.3228
▁tyskerne	-10.323
▁inge	-10.3234
▁isteden	-10.3235
følgende	-10.3236
▁estland	-10.324
▁ray	-10.3276
▁server	-10.3279
▁tilfelle	-10.3283
▁fortsetter	-10.3285
▁oppdag	-10.3288
stokk	-10.3289
løk	-10.3291
▁kara	-10.3301
▁skar	-10.3309
bak	-10.3325
▁hjul	-10.3327
▁strak	-10.3337
▁medisinsk	-10.3339
vegg	-10.3343
teori	-10.3344
▁slett	-10.3344
▁regjer	-10.3355
▁fotograf	-10.3363
▁700	-10.3366
▁republikk	-10.3374
▁sist	-10.3381
▁skulptur	-10.3382
▁1901	-10.3382
▁halvparten	-10.3382
▁juridisk	-10.3382
▁reklame	-10.3383
ström	-10.3383
▁behov	-10.3383
▁fungert	-10.3383
▁manager	-10.3384
▁turneringen	-10.3389
▁armé	-10.3399
historisk	-10.3408
▁morten	-10.3408
▁oppstod	-10.341
▁cel	-10.341
tittel	-10.3411
ledet	-10.3415
▁karakteristisk	-10.342
▁lord	-10.3423
▁mjø	-10.3427
▁sørover	-10.3428
▁kompleks	-10.3435
▁statue	-10.3436
urbin	-10.3457
▁mobil	-10.3457
▁synlig	-10.3473
hof	-10.3478
col	-10.3478
wald	-10.3493
▁betegnelse	-10.3499
maker	-10.3517
drakt	-10.3521
lement	-10.3524
▁mess	-10.3532
gudinne	-10.3536
oksid	-10.3543
mmel	-10.3543
▁middelalder	-10.3552
struksjon	-10.356
svømme	-10.3561
▁doktorgrad	-10.3564
▁involvert	-10.3564
▁portugal	-10.3564
▁windows	-10.3564
▁tønsberg	-10.3564
▁jørgen	-10.3564
▁ødelegge	-10.3564
▁belgia	-10.3564
▁akershus	-10.3564
▁canadisk	-10.3564
kjøring	-10.3565
▁autonom	-10.3565
▁slank	-10.3566
duksjon	-10.3567
▁jobber	-10.3568
▁midlertidig	-10.3568
▁endringer	-10.3568
▁debatt	-10.3572
▁rek	-10.3573
▁grøn	-10.3576
▁markere	-10.3577
▁kjøtt	-10.3581
▁enkle	-10.3599
▁høst	-10.3601
▁persisk	-10.3602
▁morgen	-10.3606
▁bestemme	-10.3608
▁statsråd	-10.3619
kall	-10.362
▁synge	-10.3627
▁betale	-10.3635
▁skarp	-10.3636
▁parlamentet	-10.3638
▁krysse	-10.365
kritiker	-10.3658
cio	-10.3662
▁town	-10.3663
finn	-10.3666
▁klokken	-10.3666
hei	-10.3669
▁parlament	-10.3674
løft	-10.3678
▁kha	-10.3688
pil	-10.369
▁overleve	-10.3706
▁redde	-10.3706
0	-10.3711
tavle	-10.3723
avisen	-10.3724
▁frihet	-10.373
▁vente	-10.3734
▁bryte	-10.3743
▁lyng	-10.3744
▁advokat	-10.3749
▁afghanistan	-10.3749
▁arrestert	-10.3749
▁utelukke	-10.3749
▁washington	-10.3749
▁beslutte	-10.3749
▁gunnar	-10.3749
▁konsept	-10.375
konferanse	-10.375
▁redusere	-10.375
▁angripe	-10.375
▁utslipp	-10.375
▁studioalbum	-10.375
▁eksistert	-10.375
▁dverg	-10.3751
▁oppløst	-10.3751
▁generalsekretær	-10.3752
▁1916	-10.3752
▁1907	-10.3753
▁legen	-10.3754
▁formula	-10.3756
▁portrett	-10.376
kapital	-10.3763
▁kru	-10.3768
▁elektron	-10.3775
▁white	-10.3775
▁1895	-10.3775
bebyggelse	-10.3776
kjøretøy	-10.3777
kreft	-10.3778
▁tvang	-10.3778
▁fjær	-10.3779
▁drepe	-10.378
▁troms	-10.3782
▁levde	-10.3783
▁oppsto	-10.3785
▁polar	-10.3803
syke	-10.3807
▁great	-10.3811
▁fett	-10.3815
▁østre	-10.3815
▁hul	-10.3829
▁american	-10.383
▁filip	-10.3835
14	-10.3841
▁colo	-10.3849
misjon	-10.385
brød	-10.3855
▁praktisk	-10.3872
▁tann	-10.3878
regime	-10.3891
▁bou	-10.3893
botn	-10.3904
tunnelen	-10.393
▁innbyggerne	-10.3938
▁ungarsk	-10.3938
▁referere	-10.3938
▁utseende	-10.3939
▁terror	-10.3939
▁dominert	-10.3939
▁belgisk	-10.3939
▁luther	-10.3939
▁jesus	-10.394
▁prinsesse	-10.3941
▁wan	-10.3942
▁brown	-10.3944
▁hjerne	-10.3946
▁eksport	-10.3947
stemning	-10.3949
▁norman	-10.3951
vík	-10.3954
▁kommunistisk	-10.3959
▁rival	-10.3963
tradisjon	-10.3975
renn	-10.3976
▁johansen	-10.3978
▁pap	-10.398
maleri	-10.3984
▁tsje	-10.3984
effekt	-10.3989
▁vinne	-10.4
dahl	-10.4005
▁etasje	-10.4023
▁elektronisk	-10.4027
nntatt	-10.403
alisme	-10.4031
▁katedral	-10.4031
dannelse	-10.4043
▁sving	-10.4061
buss	-10.4065
forsyning	-10.4068
▁menneskelig	-10.407
▁fed	-10.4073
▁klokke	-10.4077
▁kvit	-10.408
▁900	-10.4085
▁synes	-10.4092
▁skatt	-10.4126
belteasteroide	-10.413
friidrettsutøver	-10.413
▁pakistan	-10.413
▁naturgass	-10.413
▁evangeli	-10.413
kompetanse	-10.413
▁terreng	-10.413
▁oppnådde	-10.4131
▁utmerkelse	-10.4131
▁rolf	-10.4131
▁avdøde	-10.4131
▁myndighetene	-10.4131
▁invasjon	-10.4132
▁magasinet	-10.4132
▁kjennetegn	-10.4132
▁godkjent	-10.4133
▁tømmer	-10.4133
▁komposisjon	-10.4139
▁røyk	-10.414
▁spenning	-10.4145
▁sammenlagt	-10.4156
▁etterpå	-10.4162
født	-10.4173
▁million	-10.4176
personlighet	-10.4177
head	-10.4179
▁skikk	-10.4181
▁frekvens	-10.4181
▁andel	-10.4182
▁fungerer	-10.4199
▁munk	-10.421
trær	-10.4211
▁rester	-10.4227
▁frø	-10.4228
▁kim	-10.4238
areal	-10.4242
▁detalj	-10.4259
konsern	-10.4268
▁ross	-10.4269
▁spesialiser	-10.4301
sdatter	-10.4302
▁angi	-10.4309
▁hull	-10.4317
▁kristian	-10.432
▁administrere	-10.4326
▁dokumentar	-10.4326
▁elizabeth	-10.4326
▁innbyggertall	-10.4326
▁oppmerksomhet	-10.4326
▁umiddelbar	-10.4326
▁vedlikehold	-10.4326
▁vestfold	-10.4326
▁science	-10.4326
▁artilleri	-10.4326
▁fenomen	-10.4326
▁separat	-10.4327
▁døgn	-10.4327
stipend	-10.4327
▁nedenfor	-10.4328
▁britis	-10.4328
▁mineral	-10.4328
▁1913	-10.4329
▁alex	-10.4331
konvensjon	-10.4332
▁høyesterett	-10.4337
▁forestilling	-10.4342
gjørelse	-10.4346
▁humor	-10.4347
▁beskyttelse	-10.435
rock	-10.4351
▁väst	-10.4353
cca	-10.4356
▁with	-10.4364
reise	-10.4365
materiale	-10.4369
▁frei	-10.4369
kontroll	-10.437
▁kvinnen	-10.4377
▁seire	-10.4379
▁peder	-10.4379
▁molde	-10.4383
8	-10.4387
behandling	-10.439
brenning	-10.4393
karriere	-10.4397
▁katt	-10.4413
▁160	-10.4414
▁nazi	-10.4453
▁etnisk	-10.446
▁jente	-10.4463
▁innlede	-10.4469
▁brutt	-10.4481
▁egyptisk	-10.4483
▁ulv	-10.4493
▁bevege	-10.4507
▁symfoni	-10.4526
▁asteroide	-10.4526
veksling	-10.4526
▁hensikt	-10.4526
▁monument	-10.4527
▁bærum	-10.4527
traktaten	-10.4527
▁firmaet	-10.4528
▁overraske	-10.4528
▁programvare	-10.4531
▁gravlagt	-10.4531
▁mengder	-10.4531
ruten	-10.4533
▁tolke	-10.4535
▁nederlag	-10.4538
▁uavhengighet	-10.4539
▁einar	-10.4542
▁klatre	-10.4542
▁hitler	-10.4543
▁för	-10.4564
▁avslutte	-10.4564
kjøp	-10.4565
skade	-10.4575
▁sever	-10.4585
▁mesterskap	-10.4596
▁ansett	-10.4603
▁roger	-10.4611
▁eb	-10.463
▁schi	-10.4633
▁euro	-10.4637
▁katolsk	-10.465
▁kreve	-10.4655
▁helst	-10.4659
▁sco	-10.4665
▁bredde	-10.4672
zon	-10.4674
skyting	-10.4679
▁out	-10.4691
▁jim	-10.4693
▁whi	-10.4704
▁meta	-10.4704
kryss	-10.4708
▁skuespill	-10.4708
▁münchen	-10.473
▁portugisisk	-10.473
▁atmosfære	-10.473
▁alfabet	-10.4731
▁philipp	-10.4731
▁individuell	-10.4731
▁clark	-10.4731
▁kommentar	-10.4731
▁myndigheter	-10.4734
▁mangle	-10.4738
▁sukker	-10.4746
teater	-10.4749
▁hindu	-10.4749
▁sparta	-10.4751
▁vanligste	-10.4756
▁skyte	-10.476
▁høre	-10.4771
▁gjennomføre	-10.4779
odden	-10.4782
funksjon	-10.4782
eparten	-10.4788
▁utøve	-10.483
vidd	-10.4839
▁øverst	-10.4862
▁beskrev	-10.4864
▁ec	-10.487
kjerne	-10.4881
▁ordre	-10.4882
oide	-10.4904
wick	-10.4925
▁introdusert	-10.4939
▁liverpool	-10.4939
▁restaurant	-10.4939
▁symptom	-10.4939
▁komponert	-10.4939
▁kronprins	-10.4939
▁kritisert	-10.4939
▁uansett	-10.4939
▁zealand	-10.4939
apparat	-10.4939
▁visepresident	-10.494
▁betjene	-10.494
▁stengt	-10.4941
▁antyde	-10.4942
▁samuel	-10.4942
▁wolf	-10.4942
▁group	-10.4943
regning	-10.4946
▁biografi	-10.4946
▁studere	-10.4948
▁blind	-10.4952
▁piano	-10.4952
▁bodø	-10.4953
▁oppleve	-10.4953
▁nederst	-10.4954
▁etappe	-10.4956
vassdraget	-10.4957
▁ibsen	-10.4959
▁ektemann	-10.4962
▁aksel	-10.4968
▁split	-10.4969
▁drap	-10.4973
skrevet	-10.4983
▁book	-10.4983
▁fortalt	-10.4988
▁sønd	-10.499
▁demokrat	-10.4991
▁verb	-10.4992
bach	-10.4993
amerikansk	-10.4995
funn	-10.4996
▁heav	-10.5003
▁toll	-10.5005
▁tiår	-10.5008
flåten	-10.5017
▁pensjon	-10.5026
▁lykke	-10.503
▁løfte	-10.5035
▁bratt	-10.5061
▁rosa	-10.5069
▁steg	-10.5103
▁wall	-10.5109
▁dru	-10.5134
▁from	-10.5146
▁1903	-10.5152
▁pasienten	-10.5152
▁dekkvingene	-10.5152
▁heinrich	-10.5152
▁kjørt	-10.5152
▁xiàn	-10.5152
▁rogaland	-10.5152
▁radikal	-10.5152
▁nicola	-10.5152
▁haakon	-10.5152
▁partner	-10.5153
▁fjellkjede	-10.5153
▁kino	-10.5153
▁beholdt	-10.5154
▁etterkommer	-10.5155
alistisk	-10.5155
▁møre	-10.5156
▁victoria	-10.5158
▁tsar	-10.516
▁fj	-10.5164
▁økende	-10.5169
▁foto	-10.5172
▁mynt	-10.5175
▁demningen	-10.5176
▁brødrene	-10.5183
▁skjell	-10.5186
▁nylig	-10.5194
▁antennene	-10.5198
▁besetning	-10.5208
polis	-10.521
opter	-10.521
direktør	-10.5212
museet	-10.5222
▁bow	-10.5226
▁dramatisk	-10.5228
start	-10.5228
▁generell	-10.5229
snegl	-10.5238
▁byggingen	-10.5263
▁thu	-10.5264
▁ferr	-10.5269
støtte	-10.528
emble	-10.5305
lyd	-10.5329
▁liber	-10.5336
▁kongelig	-10.5341
▁schw	-10.5344
dikt	-10.5354
redskap	-10.5364
verden	-10.5369
▁vietnam	-10.5369
▁beslutning	-10.5369
▁millimeter	-10.5369
▁ortodoks	-10.5369
▁shanghai	-10.5369
jubileum	-10.5369
▁sammenslåing	-10.5369
▁nøyaktig	-10.5369
▁risiko	-10.5369
▁ansikt	-10.5369
▁henrettet	-10.5369
▁rettigheter	-10.5369
▁automatisk	-10.5369
▁kobber	-10.537
▁forbedre	-10.537
▁oberst	-10.537
▁kveld	-10.5371
mekanisme	-10.5371
▁stiftelsen	-10.5372
▁programleder	-10.5372
▁alpinist	-10.5382
tekst	-10.54
▁life	-10.5401
▁georgia	-10.5403
▁utenom	-10.5403
▁intens	-10.5409
vatn	-10.5413
▁kult	-10.5424
representant	-10.5432
divisjon	-10.5435
europeisk	-10.5435
musiker	-10.5439
▁furu	-10.5456
▁sikte	-10.5461
fartøy	-10.5463
▁opprette	-10.5474
brand	-10.5477
▁vev	-10.5482
▁fortsette	-10.5503
▁avvist	-10.5504
blå	-10.5507
▁medaljer	-10.551
▁oppfatte	-10.5514
pakke	-10.5542
▁utkom	-10.5562
sosialistisk	-10.5591
▁aleksander	-10.5591
▁hovedkvarter	-10.5591
▁1902	-10.5591
▁referanse	-10.5591
▁regulering	-10.5591
▁church	-10.5591
▁kollektiv	-10.5591
▁valuta	-10.5592
▁sprint	-10.5592
▁alpene	-10.5594
▁opptrer	-10.5595
▁borgermester	-10.5596
▁konstruksjon	-10.5596
▁bakvingen	-10.5596
▁tilsammen	-10.5597
næs	-10.5598
▁onkel	-10.5598
▁lidelse	-10.5599
▁night	-10.561
▁cuba	-10.561
▁vä	-10.5616
▁vennskap	-10.5616
▁walter	-10.5617
▁1894	-10.5618
▁1890	-10.5619
▁orient	-10.562
▁gradvis	-10.5626
▁audi	-10.5631
▁ferge	-10.5656
▁emne	-10.5659
hovedstad	-10.5661
hjul	-10.5662
▁erstatte	-10.5678
▁hellig	-10.5692
▁hind	-10.5703
▁sideelv	-10.5718
▁larve	-10.5768
▁modern	-10.5778
ка	-10.5789
yuan	-10.5806
▁etablering	-10.5818
▁nowiki	-10.5818
▁psykisk	-10.5818
▁hjørne	-10.5818
▁embeds	-10.5818
▁rekrutt	-10.5819
▁smelte	-10.582
▁forenkle	-10.582
▁divers	-10.5821
▁forklare	-10.5822
▁sverre	-10.5822
▁utgivelsen	-10.5823
▁familiegruppen	-10.5824
▁grunnleggen	-10.5827
▁fiktiv	-10.5828
▁ekte	-10.5831
legging	-10.5841
▁anlagt	-10.5842
▁1897	-10.5843
▁anse	-10.5846
▁oval	-10.585
▁1100	-10.5856
▁lunge	-10.5858
▁astronomi	-10.587
▁strategisk	-10.5872
▁takke	-10.5882
pierre	-10.5907
▁mannlig	-10.5909
▁afrikansk	-10.591
▁voksen	-10.5911
alisering	-10.5914
▁sikker	-10.5931
▁olympi	-10.5945
▁anerkjenne	-10.5952
▁utenriks	-10.5979
hed	-10.5996
▁ond	-10.5997
▁arkeologisk	-10.6006
▁ove	-10.6014
feng	-10.6036
register	-10.6044
▁barcelona	-10.6051
▁global	-10.6051
▁maksimal	-10.6051
▁ukrainsk	-10.6051
▁nøkkel	-10.6051
▁eventuel	-10.6051
▁vilhelm	-10.6051
▁christopher	-10.6051
▁negativ	-10.6051
▁forhindre	-10.6051
▁jakob	-10.6051
▁ovenfor	-10.6051
▁opplæring	-10.6051
▁uvanlig	-10.6051
▁regulere	-10.6051
▁bøkene	-10.6052
▁hørte	-10.6052
▁kongeriket	-10.6055
▁sjette	-10.6055
▁mannskapet	-10.6056
round	-10.6056
на	-10.6056
▁biologisk	-10.6058
▁tropisk	-10.6058
▁sykkel	-10.6058
▁mektig	-10.6058
▁down	-10.6061
▁utvide	-10.6062
▁tronen	-10.6063
▁pedersen	-10.6064
følelse	-10.6065
▁knud	-10.6066
▁fortellingen	-10.6067
verktøy	-10.6067
▁tjue	-10.6069
▁variasjon	-10.6072
▁1896	-10.6075
▁1899	-10.6079
▁kule	-10.6085
▁billed	-10.609
▁christiania	-10.6093
▁kontrollere	-10.6094
▁little	-10.6097
▁utvidelse	-10.6101
▁chang	-10.6105
▁arkeolog	-10.611
▁wales	-10.6118
▁verdensmester	-10.6123
▁skjerm	-10.6128
fattet	-10.6131
struktur	-10.6132
▁plei	-10.6147
▁wang	-10.6175
gods	-10.6185
kål	-10.6196
▁kirkegård	-10.6245
▁tilsyne	-10.6269
▁psykolog	-10.6274
▁alpin	-10.6278
▁kristin	-10.6284
▁amsterdam	-10.6289
▁fakultet	-10.6289
▁jomfru	-10.6289
▁engasjert	-10.6289
▁rådgiver	-10.6289
▁nikola	-10.6289
▁fiolin	-10.6289
▁bridge	-10.6289
▁ombord	-10.629
▁utsikt	-10.629
▁skrå	-10.629
▁andré	-10.629
▁beskjed	-10.629
▁tallrike	-10.6291
▁våt	-10.6292
▁betong	-10.6292
▁opplevd	-10.6293
▁dominerende	-10.6293
▁svein	-10.6294
▁gratis	-10.6294
▁2018	-10.6295
▁bjerk	-10.6296
▁tvunge	-10.6299
▁kristiania	-10.63
▁fastlandet	-10.6301
▁sosialdemokrat	-10.6303
kampanje	-10.6308
▁cross	-10.6308
▁1892	-10.6318
bredden	-10.6324
▁class	-10.6339
nemlig	-10.6357
▁rhod	-10.636
lassi	-10.6364
▁brem	-10.6368
▁håp	-10.637
kandidat	-10.6376
rekord	-10.6382
bunn	-10.6391
▁forlenge	-10.6393
▁anima	-10.6401
brook	-10.6424
▁ligge	-10.6429
▁inneba	-10.6433
▁bryllup	-10.6533
▁heidelberg	-10.6533
▁låtskriver	-10.6533
▁øyeblikk	-10.6533
▁hospital	-10.6533
▁innspilt	-10.6533
▁jersey	-10.6533
▁aktuell	-10.6533
▁preussen	-10.6533
▁selvmord	-10.6533
▁semifinale	-10.6533
▁kontrast	-10.6533
▁hyppig	-10.6533
teatret	-10.6533
▁skildre	-10.6533
▁josé	-10.6535
▁telefon	-10.6535
▁foreslått	-10.6537
▁hedmark	-10.6537
▁arbeiderpartiet	-10.6537
▁kaffe	-10.6537
▁sjanger	-10.6538
palasset	-10.6539
▁eurovis	-10.6541
▁manchester	-10.6541
▁alban	-10.6542
▁fredrikstad	-10.6543
▁strekningen	-10.655
▁østover	-10.6579
▁brent	-10.6594
▁trygg	-10.6598
▁spring	-10.663
▁sovjet	-10.6638
chester	-10.6664
zzo	-10.667
▁kulturell	-10.6686
▁tryg	-10.6718
bombe	-10.6729
foretak	-10.6756
kvinne	-10.6759
▁inspirasjon	-10.6775
▁akseptert	-10.6783
▁frankfurt	-10.6783
▁manuskript	-10.6783
▁svalbard	-10.6783
▁westfalen	-10.6783
▁infanteri	-10.6783
▁intervju	-10.6783
▁prøvd	-10.6783
hertugdømme	-10.6783
▁østfold	-10.6783
▁konstruert	-10.6783
▁komplisert	-10.6783
▁assistent	-10.6783
▁stefan	-10.6783
▁belønn	-10.6783
▁geometri	-10.6783
▁sydney	-10.6783
▁bjørk	-10.6783
▁ytterst	-10.6783
▁avgjørende	-10.6783
▁beordre	-10.6784
▁für	-10.6784
▁tilskuer	-10.6784
▁konsekvens	-10.6786
▁enhver	-10.6787
▁kongsberg	-10.679
▁pistol	-10.6792
▁fossil	-10.6795
▁anvende	-10.6801
▁orgel	-10.6803
▁bruce	-10.6805
▁foster	-10.6807
▁balanse	-10.681
▁deltatt	-10.6813
▁skygge	-10.6813
▁romerne	-10.6814
▁1870	-10.6816
ск	-10.6821
gifte	-10.6827
andro	-10.6831
tetthet	-10.6837
▁agent	-10.685
medisin	-10.6882
bibliotek	-10.6882
offiser	-10.6883
teknologi	-10.6883
regjering	-10.6883
▁ørn	-10.6934
utgave	-10.6948
▁dynasti	-10.6965
grå	-10.6987
▁qi	-10.7003
▁størst	-10.7007
▁flest	-10.701
▁fulgt	-10.7014
▁vassdrag	-10.7017
▁okkupasjon	-10.7038
▁angelsaksisk	-10.7039
▁brønn	-10.7039
▁færøysk	-10.7039
▁jerusalem	-10.7039
▁kapittel	-10.7039
▁society	-10.7039
▁ukraina	-10.7039
▁åpningsseremoni	-10.7039
kommanderende	-10.7039
▁kvadrat	-10.7039
▁jupiter	-10.7039
köping	-10.7039
▁misjonær	-10.7039
▁permanent	-10.704
▁komplett	-10.704
▁diskusjon	-10.704
▁mekanisk	-10.704
▁tabellen	-10.704
▁fjordane	-10.704
▁soldatene	-10.704
▁multi	-10.704
▁annonsert	-10.7042
▁grevskapet	-10.7042
▁overtatt	-10.7043
▁benevn	-10.7043
lignende	-10.7045
mission	-10.7049
▁misjons	-10.705
▁spesifik	-10.7051
▁mandat	-10.7053
▁navngitt	-10.7055
▁hyper	-10.7055
skrekk	-10.7061
▁kommunestyre	-10.7067
▁1867	-10.7071
relatert	-10.708
▁beholde	-10.7087
▁ungdomsskole	-10.7098
▁pont	-10.7126
▁detaljert	-10.7141
kanalen	-10.7147
sykdom	-10.7149
▁hydro	-10.7164
▁vekk	-10.7165
▁urban	-10.7218
orientert	-10.7272
▁dreie	-10.7275
▁göteborg	-10.7303
▁lillehammer	-10.7303
▁prøyssisk	-10.7303
▁skjønt	-10.7303
▁virginia	-10.7303
▁chicago	-10.7303
▁kommandør	-10.7303
▁stridsvogn	-10.7303
▁thailand	-10.7303
▁josef	-10.7303
▁elleve	-10.7304
worth	-10.7305
ев	-10.7305
▁import	-10.7305
▁bensin	-10.7306
▁hydrogen	-10.7307
▁gullmedalje	-10.7309
▁svekke	-10.7309
▁hovedkontor	-10.731
▁senator	-10.7314
▁holdning	-10.7315
▁barndom	-10.7319
▁klippe	-10.7321
▁eirik	-10.7322
▁franz	-10.7322
▁foreslo	-10.7325
▁prix	-10.7327
▁undervist	-10.7336
▁akku	-10.7338
▁greker	-10.734
▁hylle	-10.7383
▁kontrollert	-10.7389
gjerd	-10.7402
problemer	-10.7416
finalen	-10.7417
design	-10.7417
▁minutt	-10.7421
fyll	-10.7427
▁tenke	-10.7439
fabrik	-10.7463
prest	-10.7478
konsulent	-10.748
kjel	-10.7508
▁forbinde	-10.7559
journal	-10.7572
lokomotiv	-10.7573
▁ferdinand	-10.7573
▁gjaldt	-10.7573
▁sportsutøver	-10.7573
▁admiral	-10.7573
▁kavaleri	-10.7573
▁venezia	-10.7573
▁texas	-10.7573
▁erobring	-10.7573
▁gjennomsnittlig	-10.7573
▁prince	-10.7573
▁axel	-10.7573
▁ålesund	-10.7573
▁originaltittel	-10.7574
▁golf	-10.7574
anmelder	-10.7574
kobling	-10.7574
▁samlealbum	-10.7574
▁opprettelsen	-10.7575
▁opposisjon	-10.7575
▁konservative	-10.7575
▁oldtiden	-10.7577
▁rifle	-10.7577
▁imperi	-10.7577
▁svømmer	-10.7578
▁brå	-10.7579
▁hensyn	-10.758
▁britene	-10.7583
▁histori	-10.7588
▁lisens	-10.7589
▁moderat	-10.759
▁1814	-10.7592
▁rytter	-10.7597
▁ddr	-10.7615
▁jernbanestasjon	-10.7619
butikk	-10.7694
konsert	-10.7695
tind	-10.7717
▁musikal	-10.7742
▁ideologi	-10.776
▁nettsted	-10.7776
tveit	-10.7803
▁øko	-10.7819
▁absolut	-10.7851
▁ambassadør	-10.7851
▁evolusjon	-10.7851
▁jesuitt	-10.7851
▁mongolia	-10.7851
▁muslimsk	-10.7851
▁okkupert	-10.7851
▁sarpsborg	-10.7851
▁sjeldne	-10.7851
▁central	-10.7851
▁forveksle	-10.7851
▁identitet	-10.7851
▁opprettholde	-10.7851
▁landkreis	-10.7851
▁parallell	-10.7851
▁amatør	-10.7851
▁embets	-10.7851
▁adolf	-10.7851
▁dagbladet	-10.7851
▁charlotte	-10.7851
▁stråling	-10.7851
▁presentert	-10.7851
▁brigade	-10.7851
▁forklaring	-10.7851
▁kredit	-10.7852
▁innvalgt	-10.7852
▁rednings	-10.7852
▁ekspert	-10.7852
▁lyktes	-10.7852
▁nymfe	-10.7852
▁definere	-10.7852
betjent	-10.7853
▁forgjenger	-10.7853
▁sentralbank	-10.7854
▁poesi	-10.7854
▁tennis	-10.7854
▁jurist	-10.7855
▁sophi	-10.7856
▁seksjon	-10.7859
▁bydistrikt	-10.7859
▁avansert	-10.7862
førsel	-10.787
sfære	-10.7877
▁vindue	-10.7896
▁koreansk	-10.7899
svarte	-10.7905
nettverk	-10.7907
▁tenkt	-10.7926
▁forståelse	-10.7926
▁konsul	-10.7951
embete	-10.7965
prinsipp	-10.7979
utdanning	-10.7979
utstyr	-10.7992
automat	-10.8016
▁fungere	-10.804
bragt	-10.8047
▁usikker	-10.805
▁forstå	-10.8086
▁brødre	-10.8095
▁chris	-10.8118
sekvens	-10.8133
▁antwerpen	-10.8136
▁indonesia	-10.8136
▁research	-10.8136
▁tyrkia	-10.8136
▁bachelor	-10.8136
▁petroleum	-10.8136
▁renessanse	-10.8136
presentasjon	-10.8136
▁1861	-10.8136
▁etablere	-10.8136
▁regulert	-10.8136
▁testament	-10.8136
▁betydningsfull	-10.8136
▁katolik	-10.8137
▁spreng	-10.8137
▁hovedpersonen	-10.8137
▁kvalifisert	-10.8137
▁corneli	-10.8137
forsikring	-10.8137
▁oppheve	-10.8137
▁naturreservat	-10.8137
schaft	-10.8138
▁seinere	-10.8138
ови	-10.8139
▁verdensrekord	-10.8139
▁bayern	-10.8139
▁massiv	-10.814
▁opptatt	-10.814
▁spyd	-10.8141
▁offisiell	-10.8141
▁trenger	-10.8142
▁igjennom	-10.8144
▁tegninger	-10.8146
▁medførte	-10.8146
▁forbudt	-10.8147
▁wilson	-10.8149
vilkår	-10.8161
▁bakerst	-10.8162
▁talent	-10.8168
▁søyle	-10.8174
▁trond	-10.8191
lokale	-10.826
dyrking	-10.8264
institutt	-10.8274
provins	-10.8275
kjede	-10.8276
▁lukke	-10.8292
▁datterselskap	-10.8327
edderkopper	-10.8331
▁rapportert	-10.8338
gjeng	-10.8347
▁material	-10.8368
▁harmoni	-10.8389
vennlig	-10.8424
▁palme	-10.8427
skvadron	-10.843
▁football	-10.843
▁generalmajor	-10.843
▁luxembourg	-10.843
▁napoleon	-10.843
▁observert	-10.843
▁sluppet	-10.843
▁wergeland	-10.843
▁colombia	-10.843
▁definisjon	-10.843
▁buddhist	-10.843
▁litauen	-10.843
▁1871	-10.8431
▁grün	-10.8431
▁beatles	-10.8431
▁lørdag	-10.8431
▁republikansk	-10.8431
▁ulovlig	-10.8431
▁seksuell	-10.8431
▁snorre	-10.8431
▁sektor	-10.8431
▁contest	-10.8431
▁fangst	-10.8431
▁narvik	-10.8431
▁organisere	-10.8431
▁batteri	-10.8432
▁rettferdig	-10.8432
▁tørke	-10.8433
▁social	-10.8433
▁forberede	-10.8433
▁utforming	-10.8434
▁nyhets	-10.8434
rettighetene	-10.8435
▁langrenn	-10.8436
▁tilfeldig	-10.844
▁studert	-10.8445
▁skuld	-10.8454
▁klage	-10.8457
▁kreis	-10.8459
▁variert	-10.8497
utenriksminister	-10.8523
▁elektro	-10.8551
trekningen	-10.8552
stigning	-10.8576
redaktør	-10.8576
aktivitet	-10.8577
litteratur	-10.8577
kloster	-10.8578
programmet	-10.8582
▁anslå	-10.8585
relasjon	-10.8594
▁avsatt	-10.8612
overflaten	-10.8639
▁nevro	-10.8717
ifikasjon	-10.872
stua	-10.8723
▁budsjett	-10.8734
▁helsingfors	-10.8734
▁inskripsjon	-10.8734
▁keyboard	-10.8734
▁konkurrent	-10.8734
▁molekyl	-10.8734
▁popularitet	-10.8734
▁shakespeare	-10.8734
▁særskilt	-10.8734
▁jacque	-10.8734
▁mislykke	-10.8734
▁avslørt	-10.8734
▁hockey	-10.8734
▁returnert	-10.8734
▁taylor	-10.8734
▁innvandre	-10.8734
▁kjønnsmod	-10.8734
bataljon	-10.8734
▁hebraisk	-10.8734
▁opptreden	-10.8734
▁verdensarv	-10.8734
leverandør	-10.8734
▁senior	-10.8734
▁stadium	-10.8734
▁skjøt	-10.8734
▁systematisk	-10.8734
▁vakre	-10.8734
▁kallenavn	-10.8735
▁føderal	-10.8735
▁døpt	-10.8735
▁bedriften	-10.8736
▁jernalder	-10.8736
▁reformasjonen	-10.8738
▁øynene	-10.8738
▁blank	-10.8745
▁åpenbar	-10.8745
▁datert	-10.8755
forstyrrelse	-10.8768
rhein	-10.8786
▁tjenestegjor	-10.8833
town	-10.887
institusjon	-10.8889
befolkning	-10.8889
oppgave	-10.8891
bølge	-10.8895
rettssak	-10.8909
▁oppdagelse	-10.8931
interesser	-10.8975
▁psyko	-10.9044
direktoratet	-10.9046
▁bulgaria	-10.9046
▁corporation	-10.9046
▁country	-10.9046
▁omdøpt	-10.9046
▁opphørte	-10.9046
▁parallelt	-10.9046
▁utbredelse	-10.9046
katastrofe	-10.9046
▁progressiv	-10.9046
▁systematikk	-10.9046
▁materiell	-10.9046
▁yngste	-10.9046
▁eidsvoll	-10.9046
▁tsjekkisk	-10.9046
▁flyktning	-10.9046
▁rudol	-10.9047
▁skjebne	-10.9047
▁bbc	-10.9047
blom	-10.9047
▁søstre	-10.9047
▁varierende	-10.9047
▁ørken	-10.9047
▁temple	-10.9048
▁titler	-10.9048
▁gjenopprette	-10.905
▁kreert	-10.9051
▁foregikk	-10.9053
▁ødela	-10.9058
▁lojal	-10.9059
▁ytelse	-10.9064
▁sekundær	-10.9068
▁slippe	-10.9069
kledt	-10.907
▁høydepunkt	-10.9077
▁manuel	-10.9079
hvelv	-10.9091
▁dobbel	-10.9098
bevegelse	-10.9102
▁hevn	-10.9106
▁innerst	-10.914
planlegging	-10.9141
økonomi	-10.9153
transport	-10.9182
▁rykte	-10.9187
▁insekt	-10.9212
vitenskapelig	-10.9223
bregne	-10.9223
▁tidligst	-10.923
▁kriminal	-10.9279
astronom	-10.9296
▁satellitt	-10.9369
▁aluminium	-10.9369
▁ferskvann	-10.9369
▁forøvrig	-10.9369
▁jordskjelv	-10.9369
▁mangfold	-10.9369
▁sørafrikansk	-10.9369
▁carolina	-10.9369
▁invadert	-10.9369
▁selvbiografi	-10.9369
▁tsjekkia	-10.9369
▁uttrykt	-10.9369
▁meteorolog	-10.9369
▁angivelig	-10.9369
▁hjort	-10.9369
▁umulig	-10.9369
▁ringerike	-10.9369
▁haugesund	-10.9369
▁ordinær	-10.9369
▁nelson	-10.9369
▁trykt	-10.9369
hjelm	-10.9369
▁dimensjon	-10.9369
▁finansiert	-10.9369
▁utpekt	-10.9369
▁forsvant	-10.9369
▁ronald	-10.9369
▁sjakk	-10.9369
▁karbon	-10.9369
▁frimurer	-10.937
▁protein	-10.9371
▁fremstilt	-10.9371
▁kristiansund	-10.9371
▁serbisk	-10.9371
▁kronologisk	-10.9371
▁squa	-10.9373
▁gregor	-10.9375
▁barokk	-10.9377
▁presis	-10.9378
revolusjonen	-10.9378
▁stevn	-10.9384
▁operere	-10.9388
hausen	-10.9395
▁opplevelse	-10.9421
tilsynet	-10.9427
▁kritikere	-10.9503
▁bakkropp	-10.9511
president	-10.9543
bispedømme	-10.9546
▁treffe	-10.959
▁sammensatt	-10.9599
departement	-10.9627
demokrati	-10.9661
▁victor	-10.9692
▁nerve	-10.9696
potensial	-10.9702
▁alexandria	-10.9702
▁bulgarsk	-10.9702
▁columbia	-10.9702
▁elektrisitet	-10.9702
▁favoritt	-10.9702
▁guddommelig	-10.9702
▁integrert	-10.9702
▁konkluder	-10.9702
▁ludwig	-10.9702
▁singapore	-10.9702
▁begivenhet	-10.9702
▁innlemmet	-10.9702
▁pattedyr	-10.9702
▁minoritet	-10.9702
infeksjon	-10.9702
▁bosnia	-10.9702
▁bolivia	-10.9702
▁spredning	-10.9702
▁deutsche	-10.9702
▁drømme	-10.9702
erklæring	-10.9702
▁http	-10.9702
▁erstatning	-10.9702
▁alminnelig	-10.9703
▁utfordring	-10.9703
▁oppfordre	-10.9703
▁reidar	-10.9703
▁oppfølger	-10.9703
▁tempo	-10.9703
▁brother	-10.9703
▁smør	-10.9703
statistikk	-10.9703
▁vegetasjon	-10.9703
▁instrumental	-10.9703
▁dvd	-10.9704
▁dekorert	-10.9704
▁fylkeskommune	-10.9704
▁ivareta	-10.9705
▁bløt	-10.9705
marskalk	-10.9707
▁western	-10.9707
▁indikere	-10.9707
▁smak	-10.971
▁work	-10.9711
▁bringe	-10.9787
kommunistpartiet	-10.9791
▁dømme	-10.9804
orkester	-10.989
kontrakt	-10.989
spørsmål	-10.989
dynastiet	-10.989
▁argentina	-11.0047
▁cambridge	-11.0047
▁dirigent	-11.0047
▁fremtredende	-11.0047
▁langrennsløper	-11.0047
▁melbourne	-11.0047
▁reservoar	-11.0047
▁svømming	-11.0047
▁vellykket	-11.0047
▁gjeldende	-11.0047
▁identifisert	-11.0047
▁intelligen	-11.0047
▁kennedy	-11.0047
▁koalisjon	-11.0047
▁könig	-11.0047
▁apollon	-11.0047
▁abraham	-11.0047
▁kroatia	-11.0047
▁torpedo	-11.0047
▁stephen	-11.0047
vurdering	-11.0047
▁baptist	-11.0047
▁frigjøring	-11.0047
▁gustaf	-11.0047
▁vertikal	-11.0047
▁skøyter	-11.0047
▁unesco	-11.0047
protokoll	-11.0047
▁ferdigstilt	-11.0047
▁kongsvinger	-11.0047
▁utgravning	-11.0047
▁referert	-11.0047
▁theodor	-11.0047
▁seoul	-11.0047
▁feiring	-11.0047
▁harrison	-11.0048
▁dominere	-11.0049
▁innviet	-11.0049
▁patriark	-11.005
▁fiender	-11.005
▁rakett	-11.005
▁grind	-11.0053
▁keltisk	-11.0055
▁skån	-11.0057
nemnd	-11.0059
▁smerte	-11.0068
ière	-11.0069
▁stavkirke	-11.0076
▁ferie	-11.0082
kjemper	-11.0089
gjest	-11.0104
løype	-11.0114
▁berømt	-11.0114
▁avskjed	-11.0136
bourg	-11.0145
▁allianse	-11.0209
dømt	-11.0251
▁kosmo	-11.0269
▁undersøke	-11.0383
▁kontinental	-11.0404
mønstre	-11.0404
▁championship	-11.0404
▁distribusjon	-11.0404
▁hjalp	-11.0404
▁interessant	-11.0404
▁konsentrert	-11.0404
▁påbegynt	-11.0404
▁restaurering	-11.0404
▁sanskrit	-11.0404
▁venezuela	-11.0404
▁hønefoss	-11.0404
▁gabriel	-11.0404
▁oxford	-11.0404
▁stafett	-11.0404
lovgivning	-11.0404
▁essay	-11.0404
▁skihopper	-11.0404
▁utspring	-11.0404
▁invitert	-11.0404
▁anklaget	-11.0404
▁firenze	-11.0404
▁cappelen	-11.0404
▁castle	-11.0404
grunnsstasjon	-11.0404
▁langvarig	-11.0404
▁færre	-11.0404
▁avviklet	-11.0404
▁trondhjem	-11.0404
▁ntnu	-11.0404
▁skjult	-11.0405
▁veksle	-11.0405
▁gjentatt	-11.0405
▁efter	-11.0405
▁nyheter	-11.0406
▁søsken	-11.0407
▁lineær	-11.0409
▁regent	-11.0411
ordnede	-11.0411
▁farao	-11.0413
bjelke	-11.0416
▁operert	-11.0417
▁syklist	-11.0418
psykologi	-11.043
▁kunngjor	-11.0434
▁håndtere	-11.0439
▁ligning	-11.0446
▁omdanne	-11.0457
oppdrett	-11.0457
▁stanse	-11.0492
▁utforme	-11.0599
▁america	-11.0615
temperatur	-11.0617
arkitekt	-11.0617
frukt	-11.0617
grønn	-11.0618
inntekt	-11.0618
prøve	-11.0627
▁overføre	-11.0701
ngshan	-11.0709
landeveissyklist	-11.0774
▁buddhisme	-11.0774
▁innstiftet	-11.0774
▁konstantinopel	-11.0774
▁leipzig	-11.0774
▁mobiltelefon	-11.0774
▁musikkvideo	-11.0774
▁potensiel	-11.0774
▁prestegjeld	-11.0774
▁restaurert	-11.0774
▁skandinavia	-11.0774
▁videreutvikle	-11.0774
▁benjamin	-11.0774
▁vladimir	-11.0774
▁besittelse	-11.0774
▁sicilia	-11.0774
▁ustabil	-11.0774
▁prøysen	-11.0774
▁trommeslager	-11.0774
▁svovel	-11.0774
▁wagner	-11.0774
▁forfremme	-11.0774
▁kombinere	-11.0775
▁margaret	-11.0775
▁gjennomgår	-11.0775
▁triumf	-11.0775
▁sandefjord	-11.0775
▁vietnamesisk	-11.0775
▁stanley	-11.0775
▁frilufts	-11.0775
▁liknende	-11.0775
▁prefekturet	-11.0775
▁lingvist	-11.0775
▁betingelse	-11.0775
▁lennon	-11.0775
▁noensinne	-11.0775
▁søknad	-11.0775
▁betaling	-11.0776
mouth	-11.0776
▁christensen	-11.0776
▁theatre	-11.0776
▁nøtte	-11.0776
▁redigert	-11.0776
reservat	-11.0776
▁knapp	-11.0776
▁myrdet	-11.0776
järvi	-11.0777
▁suveren	-11.0779
sendinger	-11.0786
▁stedsnavn	-11.0786
kjøl	-11.0798
▁suppl	-11.0832
emmelig	-11.0919
drevne	-11.099
sentrum	-11.1004
▁representere	-11.1058
▁diplom	-11.1129
▁fengslet	-11.1159
▁fundament	-11.1159
▁meksikansk	-11.1159
▁skribent	-11.1159
▁tórshavn	-11.1159
▁vancouver	-11.1159
▁adskilt	-11.1159
▁babylon	-11.1159
▁basketball	-11.1159
▁bekjempe	-11.1159
▁helikopter	-11.1159
▁innehaver	-11.1159
▁krønike	-11.1159
▁taiwan	-11.1159
▁tibetansk	-11.1159
▁depresjon	-11.1159
▁innendørs	-11.1159
▁kristoffer	-11.1159
▁styrmann	-11.1159
▁høvding	-11.1159
▁nidaros	-11.1159
▁fjorten	-11.1159
▁tolkning	-11.1159
▁maritime	-11.1159
▁dramatiker	-11.1159
▁latvia	-11.1159
▁amundsen	-11.1159
▁doctor	-11.1159
▁frederick	-11.1159
▁benedikt	-11.1159
▁diameter	-11.1159
▁avskaffe	-11.1159
▁grieg	-11.1159
▁henrettelse	-11.1159
▁tillatelse	-11.116
▁symbolisere	-11.116
▁rumensk	-11.116
▁giovan	-11.116
▁gummi	-11.116
▁dåp	-11.116
thorax	-11.1162
syndrom	-11.1162
arctic	-11.117
▁lomme	-11.1173
reglene	-11.1176
smedlemmer	-11.1181
▁utskil	-11.1181
ingeniør	-11.1212
▁omfatte	-11.1334
indeks	-11.1345
skuespiller	-11.1402
størrelse	-11.1402
resultat	-11.1402
studier	-11.1402
ledelse	-11.146
▁trappe	-11.1488
▁annerledes	-11.1559
▁disiplin	-11.1559
▁fortjenstorden	-11.1559
▁forvandling	-11.1559
▁ingebrigtsen	-11.1559
▁matematikk	-11.1559
▁plutselig	-11.1559
▁universität	-11.1559
▁billboard	-11.1559
▁diagnose	-11.1559
▁folkeavstemning	-11.1559
▁pyramide	-11.1559
▁tilstrekkelig	-11.1559
▁varaordfører	-11.1559
▁vurdert	-11.1559
▁jamaica	-11.1559
▁autoritet	-11.1559
▁bjarne	-11.1559
▁knapt	-11.1559
▁parlamentarisk	-11.1559
▁bøndene	-11.1559
▁registrere	-11.156
plikasjon	-11.156
▁uenighet	-11.156
▁pianist	-11.156
▁navy	-11.156
▁uklar	-11.1561
▁osmansk	-11.1561
▁tokyo	-11.1561
terapi	-11.1564
▁fasade	-11.1569
bjørg	-11.1575
▁østersjø	-11.1576
▁møtt	-11.1602
▁fastsatt	-11.1628
spesialist	-11.18
student	-11.1819
fotograf	-11.1822
radio	-11.1943
▁profesjon	-11.1946
▁pseudo	-11.1975
▁aftenposten	-11.1976
▁anthony	-11.1976
▁association	-11.1976
▁cæsar	-11.1976
▁engasjement	-11.1976
▁horisontal	-11.1976
▁köln	-11.1976
▁norwegian	-11.1976
▁vålerenga	-11.1976
▁warszawa	-11.1976
▁1876	-11.1976
▁kjøkken	-11.1976
▁konstitusjon	-11.1976
▁utendørs	-11.1976
▁claude	-11.1976
▁kjæreste	-11.1976
▁kosovo	-11.1976
▁lincoln	-11.1976
▁ragnar	-11.1976
▁ektefelle	-11.1976
▁claudi	-11.1976
▁hamilton	-11.1976
▁empire	-11.1976
▁fornuft	-11.1976
▁veksel	-11.1976
▁forandringer	-11.1976
leksikon	-11.1976
ã	-12.2117
š	-12.6485
