<unk>	0
<s>	0
</s>	0
.	-3.26271
e	-3.59486
s	-3.60538
▁i	-3.61441
▁og	-3.9118
t	-3.93576
▁	-4.16098
er	-4.18692
en	-4.22029
▁av	-4.40028
r	-4.53846
▁er	-4.57588
▁en	-4.6
▁som	-4.65077
▁for	-4.74765
▁til	-4.77217
▁på	-4.859
n	-4.9804
▁med	-4.99296
et	-5.0001
▁den	-5.05634
▁ble	-5.13572
▁var	-5.20543
▁det	-5.24284
▁de	-5.25965
▁fra	-5.41778
a	-5.43243
▁å	-5.47804
▁han	-5.51026
▁et	-5.55011
▁har	-5.6038
ene	-5.63563
ne	-5.8422
i	-5.84946
d	-5.85069
▁at	-5.91285
k	-5.99549
o	-6.0027
▁ved	-6.01009
▁om	-6.13658
▁også	-6.13946
te	-6.19518
▁etter	-6.20149
g	-6.20984
y	-6.23081
▁ut	-6.28601
m	-6.31109
▁under	-6.3249
▁men	-6.32914
l	-6.34638
de	-6.35695
▁eller	-6.44119
▁da	-6.47735
▁opp	-6.48906
f	-6.4923
▁to	-6.4972
▁over	-6.50037
▁kan	-6.50472
▁hadde	-6.50642
▁seg	-6.51066
▁inn	-6.51091
p	-6.52674
v	-6.5872
re	-6.63415
▁ikke	-6.63754
us	-6.64422
▁be	-6.65101
ing	-6.66117
▁a	-6.696
in	-6.69766
▁sin	-6.7008
▁mot	-6.71868
▁18	-6.73333
▁andre	-6.73431
▁s	-6.77078
b	-6.78494
al	-6.79673
es	-6.81812
c	-6.81983
▁mellom	-6.82661
h	-6.84026
▁født	-6.8506
▁første	-6.86734
ter	-6.87238
is	-6.87408
an	-6.87489
▁tre	-6.89946
▁dette	-6.8997
▁hun	-6.90881
▁f	-6.92664
▁ha	-6.93447
u	-6.95335
on	-6.95341
ia	-6.95837
le	-6.96739
na	-6.97438
▁1	-6.98469
▁the	-6.98982
▁hans	-6.99354
sk	-7.00659
▁bli	-7.05973
ri	-7.06229
lig	-7.07736
▁der	-7.07969
la	-7.08504
▁re	-7.08754
▁blan	-7.09358
▁u	-7.09466
▁fikk	-7.10341
▁sammen	-7.11236
▁år	-7.11276
▁man	-7.13094
▁ligger	-7.14682
▁m	-7.15019
▁denne	-7.15129
ta	-7.16576
ende	-7.16859
di	-7.17566
▁2	-7.18183
ke	-7.19498
▁alle	-7.19742
z	-7.19902
▁flere	-7.20151
nde	-7.20904
um	-7.21219
▁la	-7.22533
der	-7.23337
w	-7.24291
▁kom	-7.24429
ar	-7.24677
land	-7.25047
sen	-7.2565
il	-7.27245
▁nord	-7.27867
▁ca	-7.28852
li	-7.3184
vis	-7.31897
ens	-7.32067
iske	-7.32149
▁se	-7.32241
j	-7.34252
or	-7.34604
▁hvor	-7.35103
▁al	-7.35789
ma	-7.36238
ere	-7.36649
el	-7.36818
ra	-7.37083
▁før	-7.37313
be	-7.3752
▁del	-7.37547
▁stor	-7.37803
▁c	-7.38
øy	-7.3873
▁her	-7.3877
ver	-7.39106
isk	-7.39212
nes	-7.39878
▁gjennom	-7.39999
▁død	-7.40017
ro	-7.41002
▁så	-7.41141
▁k	-7.41697
▁3	-7.41721
▁mange	-7.41764
▁tidligere	-7.42212
▁17	-7.42513
▁b	-7.43372
ge	-7.43988
▁d	-7.44121
ck	-7.44308
x	-7.4432
▁kommune	-7.44383
é	-7.44524
▁an	-7.4476
▁ny	-7.45205
ch	-7.45338
▁of	-7.45574
▁mer	-7.45922
▁norsk	-7.46421
at	-7.47276
▁annet	-7.48438
as	-7.48467
▁sør	-7.48893
ga	-7.49062
▁g	-7.49235
ff	-7.49531
▁byen	-7.49813
▁senere	-7.49912
os	-7.50484
ig	-7.50788
▁5	-7.51004
ske	-7.51385
ut	-7.51849
bo	-7.52031
▁sitt	-7.53271
▁disse	-7.5472
▁he	-7.54949
den	-7.55564
▁tallet	-7.55621
▁siden	-7.55799
▁t	-7.56887
da	-7.56898
▁p	-7.56962
stad	-7.572
▁ro	-7.57428
ur	-7.57489
lo	-7.57498
lige	-7.58029
kt	-7.5835
▁bo	-7.5972
ry	-7.60011
▁15	-7.60045
ning	-7.6013
▁4	-7.6021
for	-7.60435
▁noen	-7.60895
▁være	-7.62402
▁land	-7.62747
ka	-7.63024
▁16	-7.63304
ton	-7.63369
ger	-7.6342
▁selv	-7.63527
ng	-7.64255
▁store	-7.64322
▁vest	-7.64945
▁ga	-7.65728
▁kr	-7.65833
▁frem	-7.65852
kk	-7.65908
▁sa	-7.66267
ve	-7.66393
het	-7.66657
▁vi	-7.66701
▁ma	-7.672
it	-7.67954
▁h	-7.68132
vi	-7.68514
▁pi	-7.68674
▁rundt	-7.6877
▁hoved	-7.69028
id	-7.69084
▁kjent	-7.6941
ist	-7.6943
nd	-7.69761
▁10	-7.6977
to	-7.69841
ste	-7.70365
▁ned	-7.70737
å	-7.70792
me	-7.70989
▁by	-7.71793
skap	-7.71892
ul	-7.71942
ell	-7.72758
son	-7.72976
▁mens	-7.73173
▁norge	-7.73407
ner	-7.73517
▁sp	-7.74518
man	-7.74535
▁blitt	-7.74828
▁st	-7.75267
ha	-7.76313
si	-7.76404
▁si	-7.76474
▁sine	-7.76572
▁n	-7.76806
ler	-7.77352
▁vært	-7.77679
▁ta	-7.78266
▁ofte	-7.78378
▁øst	-7.78553
▁6	-7.78668
▁grunn	-7.7875
▁samme	-7.78755
▁dag	-7.79107
mer	-7.79475
ad	-7.79867
ø	-7.79928
erne	-7.79944
ja	-7.80529
▁li	-7.80865
▁w	-7.81073
▁navnet	-7.82013
▁ol	-7.82072
▁enn	-7.82115
by	-7.82119
▁km	-7.82367
berg	-7.82526
erte	-7.82857
mann	-7.8291
▁mest	-7.83292
▁skal	-7.83641
▁tid	-7.83678
▁ba	-7.83731
gen	-7.84192
▁ko	-7.84289
bu	-7.84712
▁di	-7.84968
je	-7.85124
▁vil	-7.85169
asjon	-7.85614
ring	-7.85775
▁både	-7.85865
▁kunne	-7.86074
▁l	-7.86246
▁kon	-7.86348
▁finnes	-7.87049
▁o	-7.87729
ling	-7.87763
▁noe	-7.87904
ør	-7.88412
ker	-7.88441
ba	-7.8852
op	-7.88541
▁amerikansk	-7.88924
▁skulle	-7.89101
dal	-7.89349
ce	-7.89498
▁v	-7.89515
▁co	-7.89532
th	-7.89556
▁navn	-7.89819
▁lag	-7.89998
▁ka	-7.9003
bi	-7.90075
▁ni	-7.9024
▁norske	-7.90455
▁nå	-7.90913
▁ham	-7.90919
▁mai	-7.91111
▁j	-7.91323
opp	-7.91545
▁7	-7.91699
▁vant	-7.92164
▁8	-7.92309
ko	-7.9245
mo	-7.92933
▁gikk	-7.93166
else	-7.9324
ti	-7.93351
▁14	-7.93523
▁ti	-7.93732
▁per	-7.93804
▁går	-7.94225
▁du	-7.94243
co	-7.94289
▁as	-7.94438
▁le	-7.94633
▁lo	-7.95391
▁fram	-7.95478
▁pa	-7.96025
pp	-7.96109
▁na	-7.96183
▁pro	-7.96253
ion	-7.96503
▁samt	-7.96678
æ	-7.96758
▁in	-7.97293
▁hos	-7.97813
▁kalt	-7.9787
▁mars	-7.98039
om	-7.98239
▁fire	-7.98418
▁9	-7.98586
▁tok	-7.98781
▁folke	-7.98868
▁bak	-7.99084
▁12	-7.99129
▁august	-7.99251
im	-7.99355
3	-7.9961
kke	-8.00298
▁største	-8.00561
1	-8.00985
mp	-8.01152
▁fri	-8.01222
gi	-8.01481
ic	-8.01756
▁vanlig	-8.01776
va	-8.01961
▁lang	-8.02212
ær	-8.02396
ok	-8.02528
ster	-8.02586
▁bare	-8.03097
po	-8.03135
▁hele	-8.03253
▁ru	-8.03277
ment	-8.04171
▁nye	-8.04909
▁bi	-8.04911
▁fa	-8.04938
▁meter	-8.04955
rett	-8.05176
▁mor	-8.05762
un	-8.05831
pe	-8.05894
▁slik	-8.06385
sa	-8.06439
▁el	-8.06583
▁ra	-8.06782
▁usa	-8.06811
▁tilbake	-8.06962
▁bu	-8.06984
▁mål	-8.07101
▁0	-8.07178
▁gang	-8.07183
▁13	-8.07243
▁januar	-8.07522
▁fly	-8.07561
▁r	-8.07698
▁juli	-8.07812
▁su	-8.07887
bar	-8.07932
▁11	-8.07956
▁so	-8.08983
ie	-8.09266
▁po	-8.0939
ll	-8.0954
▁far	-8.09661
▁ri	-8.09677
▁kirke	-8.09799
▁siste	-8.09898
▁når	-8.09989
ö	-8.10035
ho	-8.10163
▁oslo	-8.10214
pa	-8.10264
▁and	-8.10557
ca	-8.10578
ns	-8.10605
ik	-8.11007
men	-8.11087
▁ei	-8.11466
ed	-8.11515
▁000	-8.11858
ol	-8.11906
▁rett	-8.12179
▁gi	-8.12679
ir	-8.12721
go	-8.12845
▁bar	-8.12858
▁mo	-8.13035
ingen	-8.13094
▁mar	-8.13115
var	-8.13135
▁y	-8.13401
▁få	-8.13408
lin	-8.13494
ant	-8.13862
år	-8.14157
▁tra	-8.14193
▁juni	-8.14233
per	-8.14593
▁rekke	-8.14771
gang	-8.14849
▁utgitt	-8.15384
ering	-8.1548
▁eks	-8.15482
▁no	-8.15578
▁dem	-8.15969
ings	-8.16108
á	-8.1639
▁or	-8.16947
▁20	-8.16978
▁tillegg	-8.18319
▁september	-8.18611
av	-8.18613
sel	-8.18701
▁kunst	-8.18788
ly	-8.19177
del	-8.19348
▁april	-8.19453
▁ar	-8.19525
▁ho	-8.19551
▁sol	-8.1959
les	-8.20378
tur	-8.20571
▁vann	-8.20592
▁lu	-8.2071
▁jo	-8.20863
▁bestå	-8.2092
▁området	-8.20936
2	-8.20961
mi	-8.2144
▁november	-8.21803
▁kong	-8.21995
▁sk	-8.22016
▁ju	-8.22021
▁skole	-8.22127
▁am	-8.22185
▁mindre	-8.22252
▁tro	-8.22368
dag	-8.22419
▁z	-8.22465
gg	-8.22746
ku	-8.22874
▁nær	-8.23389
vik	-8.2362
▁deres	-8.23645
▁fem	-8.23734
▁igjen	-8.23785
▁mi	-8.238
▁musikk	-8.23838
▁oktober	-8.23989
▁tv	-8.24732
sjon	-8.25301
▁2008	-8.25331
do	-8.26211
hold	-8.2653
ni	-8.26616
▁laget	-8.2665
sta	-8.26784
met	-8.26841
▁pe	-8.26923
▁gjen	-8.27068
▁2007	-8.27138
sp	-8.27336
▁bruk	-8.27456
sted	-8.28161
▁kultur	-8.28321
ang	-8.28429
ven	-8.28547
▁ki	-8.28678
▁mat	-8.28713
▁kun	-8.28821
▁like	-8.28844
▁kinesisk	-8.28973
over	-8.29311
▁innen	-8.29357
gu	-8.29373
ken	-8.29451
▁ne	-8.29666
sh	-8.2984
▁gift	-8.29849
▁februar	-8.30141
ard	-8.30379
▁2010	-8.3086
ov	-8.30946
und	-8.31005
▁sønn	-8.31295
he	-8.31396
vo	-8.314
tor	-8.31403
▁te	-8.31426
au	-8.31577
▁desember	-8.318
▁bl	-8.31805
iv	-8.31822
▁landet	-8.32001
▁spilte	-8.32094
ikk	-8.32783
lse	-8.32796
ina	-8.32984
▁do	-8.33003
▁langs	-8.33008
▁leder	-8.33117
▁x	-8.33157
lu	-8.33361
ak	-8.33576
▁høy	-8.33588
▁språk	-8.33946
▁først	-8.34075
▁spiller	-8.34105
pi	-8.34139
▁30	-8.3418
▁fi	-8.34647
elle	-8.34657
midlertid	-8.34957
tak	-8.35523
▁ulike	-8.35578
▁john	-8.35708
▁new	-8.35872
▁go	-8.36062
min	-8.36152
▁årene	-8.36273
▁videre	-8.36471
▁va	-8.36637
▁eksempel	-8.36697
lag	-8.36707
▁helt	-8.36764
▁begynte	-8.3713
ä	-8.373
▁større	-8.37475
mb	-8.37494
▁film	-8.37611
ian	-8.37724
ige	-8.38171
▁hu	-8.38317
▁barn	-8.38328
ks	-8.38393
▁fast	-8.38844
am	-8.38913
▁britisk	-8.38932
ord	-8.38967
▁hver	-8.39023
▁bra	-8.39044
▁kommer	-8.39197
▁2006	-8.39248
ron	-8.39435
ans	-8.39497
▁russisk	-8.39947
ci	-8.40101
stre	-8.4022
▁uten	-8.40269
▁små	-8.40396
ny	-8.40479
▁sam	-8.40693
▁me	-8.40727
▁egen	-8.40867
itet	-8.41021
▁hennes	-8.41168
▁brukes	-8.41345
▁em	-8.4141
hu	-8.41552
▁2009	-8.41851
ium	-8.41872
▁ville	-8.42024
▁ad	-8.42346
▁gamle	-8.42909
ber	-8.43103
mmer	-8.43136
▁plass	-8.43216
▁filmen	-8.43355
▁hus	-8.43445
ty	-8.43649
▁tysk	-8.43899
▁form	-8.44008
▁ski	-8.44071
▁tor	-8.44163
ley	-8.44201
ld	-8.44295
inger	-8.44426
▁ge	-8.4446
▁brukt	-8.44899
▁deretter	-8.45111
▁vel	-8.45133
siden	-8.45199
kom	-8.45261
▁kina	-8.45269
følge	-8.45403
▁min	-8.45429
ier	-8.45454
▁parti	-8.45465
tra	-8.45465
▁særlig	-8.45636
▁gir	-8.45878
gel	-8.46138
▁tri	-8.46192
rede	-8.46223
verk	-8.46765
▁ak	-8.46966
▁lå	-8.47085
▁sch	-8.47096
▁startet	-8.47192
fa	-8.47272
tte	-8.47668
▁gjorde	-8.47724
od	-8.4803
ek	-8.48068
▁ab	-8.48069
ong	-8.48075
▁deltok	-8.48191
▁europa	-8.48347
kker	-8.48404
▁internasjonal	-8.48679
vin	-8.48689
hus	-8.48869
stein	-8.48881
▁døde	-8.48933
▁engelsk	-8.49184
▁dermed	-8.49278
til	-8.49725
▁begge	-8.49823
▁tyske	-8.50267
tal	-8.50403
▁ja	-8.50496
▁skrev	-8.50538
▁mye	-8.50676
▁derfor	-8.50701
tid	-8.50773
▁øy	-8.50855
ow	-8.51055
ningen	-8.51056
▁tiden	-8.51122
nn	-8.51216
▁satt	-8.5151
▁nasjonal	-8.51578
▁lov	-8.51676
▁vei	-8.51809
ph	-8.51953
▁alt	-8.5208
▁all	-8.52136
len	-8.52248
if	-8.52289
▁må	-8.52402
ius	-8.52645
du	-8.52781
▁beste	-8.52888
io	-8.53098
▁ver	-8.53239
▁par	-8.53266
ru	-8.53289
▁syn	-8.53309
▁provinsen	-8.5335
▁gu	-8.5341
dalen	-8.53645
▁bre	-8.53828
▁2005	-8.53913
ede	-8.53957
▁kort	-8.53974
▁con	-8.5418
▁innbyggere	-8.54204
▁gruppen	-8.54591
uk	-8.54594
▁liv	-8.54655
ot	-8.55122
▁året	-8.55525
▁måtte	-8.55736
ud	-8.56194
ü	-8.56317
▁kjente	-8.56486
▁bro	-8.56594
kan	-8.56674
▁medlem	-8.5696
tiden	-8.57142
▁sentral	-8.57441
dre	-8.57662
dd	-8.58122
▁stein	-8.58516
tok	-8.58563
▁ingen	-8.58574
▁politisk	-8.58594
inn	-8.58758
▁etablert	-8.58792
tu	-8.59
▁verdens	-8.59152
▁selskapet	-8.59185
▁ganger	-8.59263
▁bandet	-8.59297
bb	-8.59542
ham	-8.59556
▁ty	-8.59679
▁fjell	-8.59727
▁grad	-8.59817
▁bil	-8.5989
▁pu	-8.6012
▁25	-8.60152
jø	-8.60182
▁sand	-8.60237
hi	-8.60393
▁seks	-8.6042
7	-8.60477
▁svær	-8.60481
no	-8.60562
let	-8.60674
▁skrevet	-8.60762
sett	-8.60809
▁mann	-8.60832
par	-8.60832
elsen	-8.60907
▁samtidig	-8.61035
yl	-8.61061
4	-8.61145
▁sjø	-8.61216
mar	-8.61229
▁san	-8.61528
▁hel	-8.61565
mål	-8.62123
▁ch	-8.62318
▁lys	-8.62336
▁albumet	-8.62438
▁perioden	-8.62482
▁stort	-8.62885
▁hi	-8.63227
▁2000	-8.63563
løp	-8.6358
í	-8.63595
▁val	-8.63832
▁norges	-8.63866
▁gjern	-8.64053
▁familien	-8.64165
tten	-8.64178
▁lever	-8.64208
▁nor	-8.64241
▁gl	-8.64404
ket	-8.6448
▁grav	-8.64649
▁ur	-8.64724
▁kalles	-8.64758
tre	-8.64955
▁os	-8.65048
▁cha	-8.65087
slag	-8.65468
▁ren	-8.65572
ft	-8.65603
isme	-8.6583
▁person	-8.65848
▁bru	-8.65954
sten	-8.66035
lot	-8.66119
nk	-8.66231
▁forskjellige	-8.66274
▁rom	-8.66301
▁dagen	-8.66406
▁sto	-8.66569
▁gud	-8.66674
burg	-8.67176
▁verk	-8.67409
▁bygget	-8.67475
sj	-8.67888
▁forhold	-8.67949
5	-8.68118
▁tredje	-8.68259
▁bok	-8.6833
em	-8.68449
▁sett	-8.68765
ki	-8.68797
syn	-8.68942
▁gitt	-8.68961
▁innehold	-8.69005
▁innenfor	-8.69079
▁president	-8.692
▁arbeidet	-8.69216
▁god	-8.69379
▁100	-8.69394
▁ste	-8.69595
▁bergen	-8.69765
▁24	-8.69853
▁natur	-8.70012
mme	-8.70173
▁tyskland	-8.70284
▁ord	-8.70377
▁sta	-8.70629
▁2011	-8.70755
sson	-8.70774
fi	-8.70842
▁gull	-8.70858
ran	-8.70923
▁kar	-8.70999
▁22	-8.71095
ill	-8.7149
ine	-8.71663
▁sverige	-8.7181
▁2004	-8.7182
far	-8.71944
borg	-8.72193
ska	-8.72417
▁deler	-8.72424
▁kommunen	-8.72427
dy	-8.72587
ou	-8.72657
▁my	-8.72714
▁sted	-8.72718
▁art	-8.72744
ris	-8.73096
▁19	-8.73174
▁kor	-8.73184
sti	-8.73365
bruk	-8.734
øya	-8.736
dig	-8.73605
my	-8.73651
▁utenfor	-8.73687
elig	-8.73718
▁fransk	-8.73784
tar	-8.73875
art	-8.7401
fe	-8.74028
lands	-8.74218
▁21	-8.74273
▁fotball	-8.74326
▁wa	-8.74332
▁je	-8.74339
dra	-8.74409
▁basert	-8.74469
kel	-8.74484
▁øya	-8.7451
▁plan	-8.74684
и	-8.747
▁side	-8.74801
▁hvert	-8.74926
▁ben	-8.75045
▁forfatter	-8.75161
▁tar	-8.753
▁styre	-8.75354
ologi	-8.75533
kor	-8.75583
▁nytt	-8.75901
▁sommer	-8.75939
▁2001	-8.76048
▁annen	-8.76128
▁london	-8.76183
▁england	-8.76197
ac	-8.76294
▁valgt	-8.76317
su	-8.76349
▁hav	-8.76457
forening	-8.76484
▁2003	-8.76574
▁står	-8.76575
▁viktig	-8.76575
▁slutt	-8.76625
▁delstaten	-8.76655
ya	-8.76718
▁halv	-8.76726
sch	-8.76846
▁car	-8.76911
est	-8.76921
▁bas	-8.76942
▁2002	-8.76946
▁luft	-8.76965
▁stedet	-8.77242
dom	-8.77258
▁omkring	-8.77307
▁fo	-8.77391
▁støtte	-8.77541
▁von	-8.77583
mor	-8.77736
▁fleste	-8.77747
▁pla	-8.77768
▁stat	-8.77913
rik	-8.77925
▁pre	-8.78111
▁23	-8.78216
▁spilt	-8.78359
▁lite	-8.78424
▁olympisk	-8.78578
▁svensk	-8.78643
ting	-8.78673
▁bort	-8.78827
▁christian	-8.78838
▁mel	-8.78968
ó	-8.78974
vel	-8.79019
▁dr	-8.79118
▁ed	-8.79158
▁regne	-8.79337
ninger	-8.7943
▁bor	-8.79609
▁sosial	-8.79833
▁fag	-8.79842
▁mil	-8.79879
ica	-8.80035
ag	-8.80039
▁th	-8.80081
værende	-8.8019
▁tur	-8.80818
▁nett	-8.80829
▁utviklet	-8.80863
rø	-8.81064
▁klubben	-8.81214
ju	-8.81366
▁hol	-8.81456
▁mu	-8.8146
▁ledet	-8.81911
and	-8.81929
▁midt	-8.81955
▁opprinnelig	-8.8234
za	-8.82395
▁bruker	-8.82625
isert	-8.82632
▁antall	-8.8264
ip	-8.82739
▁fe	-8.83111
▁prest	-8.83121
▁lokal	-8.83276
bro	-8.83403
▁sen	-8.83549
▁kur	-8.83551
▁mag	-8.83562
▁mark	-8.83582
▁tidlig	-8.83616
før	-8.83763
ister	-8.83809
▁dikt	-8.84064
▁spille	-8.84135
idae	-8.84222
▁fu	-8.84321
▁farge	-8.84546
▁frankrike	-8.84735
ys	-8.84802
tall	-8.84827
lle	-8.84958
▁jord	-8.8538
itt	-8.85464
▁serien	-8.85515
▁arbeider	-8.85599
▁mulig	-8.85623
▁general	-8.85674
ation	-8.85928
ab	-8.85951
▁26	-8.86025
landet	-8.86376
▁historie	-8.86463
▁berg	-8.86522
che	-8.8667
ller	-8.86745
▁egne	-8.86884
bre	-8.87018
▁hatt	-8.87127
▁betydning	-8.87195
▁gammel	-8.87211
▁bygge	-8.87381
tz	-8.87442
▁kongen	-8.87515
▁datter	-8.87614
▁ført	-8.87749
iker	-8.87752
▁tatt	-8.87764
fly	-8.87853
gre	-8.88029
▁tu	-8.88052
mon	-8.88155
▁elven	-8.88219
bud	-8.88373
▁kn	-8.88547
kon	-8.88672
▁sang	-8.88706
▁karl	-8.88713
▁hør	-8.89117
▁brun	-8.89361
▁gruppe	-8.89525
▁fortsatt	-8.89536
▁on	-8.89542
tiske	-8.89583
▁radio	-8.89698
ppe	-8.89712
▁stil	-8.89753
▁ke	-8.89835
▁50	-8.89837
▁paul	-8.89902
▁skog	-8.89971
▁foran	-8.90042
▁peter	-8.90045
bok	-8.90193
▁eneste	-8.90336
▁lett	-8.90441
▁sangen	-8.9055
▁op	-8.90565
е	-8.90578
▁arbeid	-8.90774
▁anti	-8.90854
50	-8.91011
▁betyr	-8.91012
spill	-8.91015
▁holde	-8.91139
▁arbeids	-8.91158
▁wi	-8.91169
▁vis	-8.91192
senter	-8.91258
▁hal	-8.91288
▁familie	-8.91389
plan	-8.91406
▁liten	-8.91442
stilling	-8.91476
▁forbindelse	-8.91482
cu	-8.91543
bl	-8.91654
tikk	-8.91757
ung	-8.91918
isering	-8.92145
sto	-8.92303
▁bri	-8.92305
▁spesielt	-8.92314
▁dyr	-8.92366
anske	-8.92476
▁eu	-8.92479
▁vise	-8.92485
▁post	-8.92525
pro	-8.9255
enes	-8.92702
▁makt	-8.92712
▁italiensk	-8.92752
ator	-8.92772
▁moderne	-8.92785
▁hy	-8.9279
▁full	-8.9279
ika	-8.92845
▁millioner	-8.93025
▁enkelte	-8.93176
skole	-8.93199
fjorden	-8.93227
▁com	-8.93258
▁lange	-8.93551
▁1990	-8.93643
▁au	-8.93819
▁hen	-8.94098
▁lands	-8.94109
ach	-8.94229
jo	-8.94235
tan	-8.94299
▁rød	-8.9448
▁hjem	-8.94522
▁såkalt	-8.94531
ighet	-8.9455
leder	-8.94611
▁militær	-8.9465
▁godt	-8.94656
heten	-8.94665
▁motor	-8.94697
▁kje	-8.94712
▁lav	-8.94717
▁fred	-8.94726
▁industri	-8.94868
jer	-8.95057
veien	-8.95198
sund	-8.95422
▁1980	-8.95433
▁28	-8.95441
▁løpet	-8.95559
9	-8.95607
øl	-8.95812
stol	-8.95839
▁viser	-8.95841
▁sha	-8.9603
▁konge	-8.9608
nings	-8.96119
▁våpen	-8.96182
▁ry	-8.96256
▁vin	-8.96285
▁gjør	-8.96708
▁kal	-8.96794
tisk	-8.96806
▁spe	-8.96923
▁barne	-8.9698
dde	-8.97016
▁mon	-8.97159
▁ve	-8.97219
▁slekt	-8.97239
▁følgende	-8.9737
kal	-8.97394
▁mus	-8.97487
nske	-8.97701
▁slutten	-8.97704
føring	-8.97728
vei	-8.97729
▁dia	-8.97823
▁band	-8.97828
iet	-8.97935
▁nok	-8.97968
kar	-8.97978
▁opprettet	-8.98099
▁valg	-8.98161
▁kirken	-8.98235
stra	-8.98242
00	-8.98259
▁nesten	-8.98387
▁gav	-8.98443
▁versjon	-8.98537
▁riks	-8.98622
▁produsert	-8.98636
▁langt	-8.98657
eres	-8.98659
spiller	-8.9878
▁gul	-8.98876
fjord	-8.98997
satt	-8.99022
▁verden	-8.99122
▁høyeste	-8.99136
▁holdt	-8.99175
skip	-8.99205
lys	-8.99296
▁tak	-8.99361
▁mont	-8.99372
▁får	-8.99396
▁rø	-8.99399
▁we	-8.99427
▁via	-8.99471
▁sl	-8.99479
▁bur	-8.99523
istiske	-8.99539
bil	-8.9969
▁fiske	-8.99696
tes	-8.99834
▁29	-8.99925
res	-8.99939
▁1999	-9.00053
▁medlemmer	-9.00116
▁øk	-9.0021
▁arm	-9.00317
▁fylke	-9.00414
▁bror	-9.00414
▁sal	-9.00544
▁gjort	-9.00751
ds	-9.00805
dan	-9.00807
▁åpnet	-9.0088
ekt	-9.01186
yn	-9.01242
▁tilhører	-9.01354
ct	-9.01373
pen	-9.01401
▁kvinne	-9.01433
▁roman	-9.01447
som	-9.0153
▁ferdig	-9.01561
▁jan	-9.01569
wa	-9.01598
а	-9.0164
▁tekst	-9.01659
ps	-9.0189
▁spor	-9.02057
▁sesongen	-9.0206
mat	-9.02086
▁ser	-9.02125
▁jeg	-9.02315
▁delen	-9.02364
▁danmark	-9.02447
▁skolen	-9.02527
▁fant	-9.02701
▁angrep	-9.02763
▁sm	-9.02763
▁serie	-9.02788
▁31	-9.02816
▁omtrent	-9.02923
▁flyttet	-9.02924
▁knytte	-9.0293
stående	-9.03028
ford	-9.03044
don	-9.03076
▁gro	-9.03096
▁kl	-9.03299
▁sj	-9.03436
▁tru	-9.0346
▁én	-9.0346
▁energi	-9.03465
▁russland	-9.03468
▁india	-9.03571
lan	-9.03646
▁aktiv	-9.03665
▁økonomisk	-9.03709
sjoner	-9.03752
zi	-9.03757
laget	-9.03849
▁krigs	-9.03858
▁york	-9.03901
▁ras	-9.03924
mark	-9.04001
▁pan	-9.04095
setning	-9.04105
ding	-9.04192
▁gre	-9.04247
▁bygd	-9.04302
▁br	-9.04308
▁krigen	-9.04361
▁ul	-9.04362
heim	-9.04392
ich	-9.04407
▁romersk	-9.04428
▁robert	-9.04433
merke	-9.04449
▁partiet	-9.04549
mester	-9.04649
medalje	-9.04704
fra	-9.04781
▁2012	-9.04901
lene	-9.04979
▁minne	-9.05004
van	-9.05016
ide	-9.05161
familien	-9.05167
▁organ	-9.05203
▁hjelp	-9.05325
▁stu	-9.05346
▁van	-9.05353
▁inkludert	-9.05386
▁chi	-9.05394
log	-9.05402
▁viktigste	-9.05455
▁dannet	-9.05481
▁handels	-9.05581
▁keiser	-9.05775
▁vol	-9.05994
▁komme	-9.06091
▁27	-9.06245
▁teater	-9.0628
ble	-9.0631
bel	-9.06352
ug	-9.06427
▁åtte	-9.06495
sjøen	-9.06538
nom	-9.06621
▁skuespiller	-9.06633
ino	-9.06798
▁litt	-9.06817
film	-9.06837
▁park	-9.06848
tiv	-9.06898
▁1970	-9.06904
▁historisk	-9.07032
▁album	-9.07101
▁tittelen	-9.07109
chi	-9.07197
▁les	-9.07404
dyr	-9.07577
bin	-9.07595
▁pave	-9.07629
▁ter	-9.07679
lsen	-9.07711
▁ber	-9.07741
q	-9.07755
▁slag	-9.07781
ah	-9.07855
▁william	-9.07911
▁venstre	-9.0793
▁staten	-9.08081
▁franske	-9.08233
red	-9.08271
▁blad	-9.08272
▁pris	-9.08286
▁bill	-9.08593
▁omfatter	-9.08895
▁40	-9.0891
▁1989	-9.08947
▁italia	-9.0895
▁elva	-9.08955
▁ros	-9.08955
▁sig	-9.08967
stand	-9.08975
▁bal	-9.09002
ive	-9.09095
leg	-9.09206
▁henne	-9.09248
▁nu	-9.09329
bygd	-9.09381
▁best	-9.09398
▁sendt	-9.09494
▁fin	-9.09699
▁høyre	-9.09957
▁rolle	-9.09973
▁sak	-9.10001
▁politiker	-9.10015
rak	-9.10109
▁ku	-9.10129
anlegg	-9.10262
▁indre	-9.10385
▁utnevnt	-9.10502
▁sørøst	-9.10527
▁jernbane	-9.106
▁fått	-9.10603
fl	-9.10744
bra	-9.1083
søk	-9.1093
skog	-9.10982
legg	-9.11024
▁drept	-9.11029
banen	-9.11121
▁båt	-9.1125
lær	-9.11257
▁mm	-9.11298
under	-9.11328
▁universitet	-9.11363
gh	-9.1137
▁universitetet	-9.11388
▁grunnlagt	-9.11497
▁1998	-9.11567
▁ag	-9.11591
▁høyde	-9.11656
▁lyd	-9.11676
mal	-9.11706
▁biskop	-9.11774
▁paris	-9.11777
lla	-9.11865
▁flo	-9.11934
▁dom	-9.12076
nte	-9.12109
▁reise	-9.12168
stil	-9.12273
▁veien	-9.12317
▁menneske	-9.12324
▁funnet	-9.12334
▁rock	-9.12341
▁fortsatte	-9.12352
olog	-9.12433
▁folk	-9.12574
▁direkte	-9.12624
▁minst	-9.12642
▁gresk	-9.12651
▁pr	-9.1276
▁kraft	-9.12868
▁olje	-9.12885
▁personer	-9.12954
ski	-9.13028
▁tildelt	-9.13059
▁fylkesvei	-9.13171
▁lik	-9.13188
fall	-9.13218
tel	-9.13244
▁pol	-9.13368
▁herre	-9.13383
▁strøm	-9.13409
mel	-9.13436
▁svenske	-9.13583
▁moh	-9.13584
the	-9.13585
▁1960	-9.13714
▁eget	-9.13735
▁regionen	-9.13735
▁hø	-9.13751
vern	-9.14006
vær	-9.14028
styre	-9.14155
anger	-9.14418
råd	-9.14453
▁fre	-9.14535
qu	-9.14587
▁you	-9.14616
lå	-9.14647
ice	-9.14713
▁berlin	-9.14753
▁verdenskrig	-9.14843
▁meg	-9.14867
▁system	-9.14955
▁fil	-9.15054
området	-9.15251
huset	-9.1531
▁hånd	-9.15335
▁blå	-9.15425
▁tom	-9.15428
svis	-9.15447
▁kron	-9.15529
val	-9.15534
skje	-9.15714
▁stats	-9.15827
▁gar	-9.1592
▁sentrum	-9.16136
ji	-9.16137
▁mac	-9.16211
tegn	-9.16231
fyl	-9.16304
stilt	-9.16388
gul	-9.16399
▁dessut	-9.16452
▁2013	-9.16461
▁eldre	-9.1651
▁hva	-9.16548
▁lokale	-9.16613
▁tjeneste	-9.16674
▁cl	-9.167
▁bred	-9.16704
▁ettersom	-9.1673
▁hard	-9.16848
ze	-9.16971
ana	-9.17009
▁skade	-9.17089
▁liste	-9.17167
▁besøk	-9.17279
▁hall	-9.17318
▁1988	-9.17579
▁gjeld	-9.17592
▁regjeringen	-9.17596
sky	-9.17605
han	-9.1775
elser	-9.17754
mm	-9.17897
▁opera	-9.17942
▁helse	-9.18021
plass	-9.18111
▁sanger	-9.18133
kje	-9.18181
ves	-9.18252
elt	-9.18263
ringen	-9.18301
▁kunstner	-9.18328
ale	-9.18399
▁overtok	-9.18425
område	-9.18429
▁hovedsake	-9.18457
▁sh	-9.18499
bø	-9.1858
ære	-9.18643
р	-9.18694
▁brasil	-9.18709
istisk	-9.18876
▁johan	-9.18973
▁ex	-9.19014
fri	-9.19057
lett	-9.19184
▁forsøk	-9.1919
▁studerte	-9.19275
rom	-9.19316
system	-9.1934
form	-9.19342
▁lars	-9.19375
▁ordet	-9.19389
▁ly	-9.19585
▁ska	-9.1964
▁fremst	-9.19644
▁havn	-9.19655
▁ett	-9.19784
▁kul	-9.19826
▁1996	-9.19857
▁nordøst	-9.19882
▁mennesker	-9.1995
▁vo	-9.19991
asjonen	-9.19997
▁drev	-9.20013
▁gård	-9.20086
▁fl	-9.20193
▁carl	-9.20212
hy	-9.20331
full	-9.20338
stu	-9.20371
▁kampen	-9.20473
▁fall	-9.2048
fo	-9.20537
▁mos	-9.20586
▁enkelt	-9.20587
republikken	-9.20656
▁resultat	-9.20691
gård	-9.20753
▁wal	-9.2087
nyin	-9.20875
▁lin	-9.20981
▁erstatte	-9.21023
vann	-9.21048
▁aldri	-9.21065
hr	-9.21183
▁hvit	-9.21208
rud	-9.21213
▁kla	-9.21241
menn	-9.21246
gan	-9.21253
▁gjøre	-9.21258
selskap	-9.21282
ald	-9.214
ider	-9.21546
▁topp	-9.21597
▁red	-9.21717
ight	-9.21751
liggende	-9.2182
▁maria	-9.22013
▁1993	-9.22192
▁råd	-9.22256
punkt	-9.22383
hl	-9.22436
▁gran	-9.22452
ano	-9.22461
yd	-9.22489
ör	-9.2255
▁air	-9.22558
▁regi	-9.22589
▁vinter	-9.22646
▁verdi	-9.22654
rat	-9.22655
▁180	-9.22655
▁ci	-9.22736
▁storbritannia	-9.22774
▁dansk	-9.22799
▁gri	-9.22803
ismen	-9.2282
▁miljø	-9.22875
gj	-9.22909
▁lei	-9.22961
▁port	-9.2298
▁utgjør	-9.2307
▁bør	-9.23302
▁virke	-9.23316
▁kra	-9.23341
▁1992	-9.23369
▁representert	-9.23369
rus	-9.23433
vet	-9.23529
▁kro	-9.23555
hen	-9.23567
▁lær	-9.23718
lik	-9.23793
stan	-9.23836
▁rev	-9.23838
samling	-9.23924
gruppen	-9.23951
▁sc	-9.2396
up	-9.24006
10	-9.24061
▁hjemme	-9.24264
fon	-9.24277
▁bjørn	-9.24291
▁sølv	-9.2456
▁suksess	-9.2457
▁1994	-9.24577
▁1984	-9.2458
▁1985	-9.24583
▁kamp	-9.24661
20	-9.24668
▁gal	-9.24713
▁legge	-9.24774
▁xi	-9.25031
6	-9.25096
og	-9.25152
▁kilometer	-9.25176
▁trondheim	-9.25181
▁oppkalt	-9.25181
▁1995	-9.25184
▁grensen	-9.25273
bygg	-9.25312
о	-9.25339
▁følge	-9.25361
▁col	-9.25385
▁afrika	-9.25412
▁bank	-9.25442
stro	-9.25503
▁møte	-9.25513
▁finner	-9.25584
iner	-9.25617
▁sannsynlig	-9.25786
▁university	-9.25786
alt	-9.2589
pris	-9.25979
▁anders	-9.25988
▁bedre	-9.26056
ida	-9.26197
kant	-9.26249
▁60	-9.26385
▁1987	-9.26411
▁nest	-9.26542
▁sil	-9.26596
gar	-9.26605
xi	-9.26672
dømme	-9.26682
all	-9.26754
ari	-9.26756
▁felles	-9.26765
ført	-9.26851
navn	-9.26905
▁arter	-9.26981
▁relativ	-9.27017
▁syd	-9.27173
▁stra	-9.27306
ap	-9.27359
året	-9.27481
figur	-9.2757
▁periode	-9.27614
▁gra	-9.2771
▁lille	-9.27714
▁stjerne	-9.27723
så	-9.27729
ål	-9.27802
▁skrift	-9.27861
gitt	-9.27934
ark	-9.2794
get	-9.27951
▁ring	-9.28013
▁sub	-9.28048
▁delt	-9.28075
▁konsert	-9.28114
▁orden	-9.28253
rin	-9.28261
▁eldste	-9.28264
felt	-9.28264
▁1986	-9.28278
▁kle	-9.28562
▁likevel	-9.28598
▁hvis	-9.28615
områder	-9.28618
▁bj	-9.28628
▁mur	-9.28694
▁produsere	-9.28892
løs	-9.28975
▁mari	-9.2903
ving	-9.29272
40	-9.29455
we	-9.29498
▁thomas	-9.29525
▁dis	-9.29624
▁len	-9.29713
▁para	-9.29928
▁militære	-9.29985
▁politi	-9.30064
▁natt	-9.3016
▁pal	-9.30169
▁slått	-9.30221
▁don	-9.30236
▁stasjon	-9.30287
▁skip	-9.30298
▁mod	-9.30338
alder	-9.30405
grad	-9.30421
30	-9.30457
▁george	-9.30484
▁slike	-9.30764
▁2014	-9.30803
▁betydelig	-9.30803
sak	-9.30848
mu	-9.30879
▁hvordan	-9.30894
mot	-9.30944
cc	-9.3102
▁trans	-9.31131
▁kontroll	-9.31155
ama	-9.31185
▁sogn	-9.31238
▁vm	-9.31286
▁cor	-9.31295
way	-9.31296
▁plante	-9.31301
tsj	-9.31437
▁københavn	-9.31448
▁stiftet	-9.31457
▁samarbeid	-9.31487
▁blod	-9.31524
▁slaget	-9.31548
▁felt	-9.31618
ola	-9.31661
bane	-9.31698
▁super	-9.3172
▁af	-9.31727
fer	-9.31751
▁lind	-9.31814
mannen	-9.31872
▁kv	-9.31895
navnet	-9.31945
л	-9.32097
▁henhold	-9.32138
▁can	-9.32343
▁linje	-9.32363
parti	-9.32374
▁begynnelse	-9.32421
trykk	-9.32458
▁son	-9.32528
66	-9.32655
rå	-9.32668
▁karriere	-9.32689
sjef	-9.32697
▁kroppen	-9.32756
messig	-9.32758
▁standard	-9.32766
▁ap	-9.32886
▁sø	-9.33025
▁dager	-9.33069
gna	-9.33179
▁vekt	-9.33245
▁benyttet	-9.33275
▁eid	-9.33328
▁samling	-9.33397
▁poeng	-9.33451
▁fange	-9.33476
▁menn	-9.33549
▁professor	-9.33555
▁egg	-9.3363
▁gje	-9.33654
▁ball	-9.33739
▁gå	-9.33764
▁område	-9.33769
abel	-9.33771
▁punkt	-9.3378
▁svart	-9.33951
▁david	-9.34077
▁stemme	-9.34143
ara	-9.34146
▁sn	-9.3415
▁venn	-9.3419
▁kvinner	-9.34233
▁trykk	-9.34275
▁kors	-9.34291
▁stø	-9.34325
ologisk	-9.34329
▁kyst	-9.34371
kin	-9.34435
86	-9.34489
▁reist	-9.34592
▁dal	-9.34593
▁200	-9.34703
▁sv	-9.34711
▁populær	-9.34716
▁latin	-9.3473
▁tap	-9.34742
▁vår	-9.34755
fil	-9.34762
ay	-9.34875
▁amerika	-9.35154
▁dy	-9.35174
▁høsten	-9.35232
▁skrive	-9.35386
▁1991	-9.35416
▁kjøpt	-9.3546
▁jern	-9.35521
▁olav	-9.35558
▁pat	-9.35637
loven	-9.35667
ros	-9.35677
▁krig	-9.357
king	-9.35702
▁dan	-9.35738
▁selskap	-9.35749
▁grand	-9.35751
▁styrke	-9.35927
▁smal	-9.35929
des	-9.35936
▁borger	-9.35988
blad	-9.36063
▁lege	-9.36076
▁1997	-9.36084
▁data	-9.36095
ien	-9.36105
▁trekk	-9.36127
retning	-9.3613
elva	-9.36198
▁uttrykk	-9.36281
▁litteratur	-9.36287
▁seil	-9.36303
shire	-9.36327
▁årlig	-9.36353
▁fer	-9.36372
▁funksjon	-9.36463
▁samle	-9.36522
ater	-9.36597
▁viktige	-9.36651
▁områder	-9.36768
▁syk	-9.36808
▁års	-9.36894
▁tett	-9.36957
▁tegn	-9.37049
iserte	-9.3708
▁not	-9.37087
▁merke	-9.37102
▁løp	-9.37105
▁roma	-9.37242
byen	-9.37279
kraft	-9.3729
▁danske	-9.37314
▁nummer	-9.37406
▁ob	-9.37441
▁skjer	-9.37496
bilde	-9.37566
▁utgav	-9.37677
ledes	-9.37718
▁gren	-9.37769
▁gass	-9.37917
▁ten	-9.37932
middel	-9.38062
▁stavanger	-9.38146
▁følger	-9.38164
skudd	-9.38174
▁island	-9.3823
▁løs	-9.38233
▁cm	-9.38255
▁måte	-9.38321
det	-9.38324
havet	-9.38366
bru	-9.38378
mmen	-9.38432
▁finsk	-9.38437
ath	-9.38501
▁skje	-9.38577
▁distrikt	-9.38659
ograf	-9.38682
minister	-9.38779
▁hvilke	-9.38834
▁nordvest	-9.38841
kning	-9.38847
▁2015	-9.38852
▁ac	-9.38987
itz	-9.39018
▁slo	-9.39147
▁nordlig	-9.39193
gikk	-9.39202
▁ø	-9.39231
trekk	-9.3932
▁erik	-9.39342
dals	-9.39425
▁boken	-9.39454
▁za	-9.39757
selskapet	-9.39791
▁eier	-9.39847
▁dyp	-9.39893
65	-9.3993
ance	-9.39992
▁gen	-9.40007
fag	-9.40126
▁500	-9.40205
▁stockholm	-9.40237
▁1983	-9.40249
▁1900	-9.40261
iz	-9.40339
▁henrik	-9.40368
stasjon	-9.40442
▁arkitekt	-9.40448
old	-9.40468
85	-9.40519
▁drift	-9.40538
▁q	-9.40583
▁hår	-9.40693
▁effekt	-9.40856
▁neste	-9.40969
utdanning	-9.41006
▁west	-9.41149
▁bern	-9.41256
▁80	-9.41362
▁spansk	-9.41383
▁syv	-9.41487
fest	-9.41537
▁festning	-9.41677
▁egentlig	-9.41696
▁ledelse	-9.41812
37	-9.4186
är	-9.41884
▁part	-9.41915
ini	-9.41995
▁dra	-9.42075
kamp	-9.42076
▁tapt	-9.42132
▁auto	-9.4229
grunn	-9.42302
ås	-9.42312
produksjon	-9.42322
▁sterkt	-9.42401
kast	-9.42402
55	-9.42467
▁svarte	-9.42513
▁georg	-9.42517
▁brukte	-9.42562
▁finland	-9.42602
▁europeisk	-9.42621
gra	-9.42669
▁regjering	-9.42741
▁seier	-9.42752
▁organisasjon	-9.42829
▁christ	-9.4286
ms	-9.42889
è	-9.43021
brudd	-9.4311
▁modell	-9.43118
▁1974	-9.43119
▁informasjon	-9.43127
▁fla	-9.4319
port	-9.43219
▁lenger	-9.43338
ial	-9.43483
mun	-9.43524
▁ven	-9.4355
▁gate	-9.43584
▁steder	-9.43591
tjeneste	-9.43595
bert	-9.43611
▁klar	-9.43658
▁ønsket	-9.43685
▁kat	-9.43791
▁lagt	-9.43855
vir	-9.43925
▁engelske	-9.43999
akk	-9.44143
36	-9.44153
▁tal	-9.44182
led	-9.44213
▁dro	-9.44251
▁vold	-9.44275
▁skapt	-9.44381
▁sammenheng	-9.44748
▁ev	-9.44754
ansk	-9.44761
▁stod	-9.4477
▁johannes	-9.44812
▁holm	-9.44895
sal	-9.4492
▁spesial	-9.44974
▁lengde	-9.45111
▁klasse	-9.45326
▁møtte	-9.45334
▁prosent	-9.4535
▁mc	-9.45355
inne	-9.45392
▁viste	-9.45398
▁faren	-9.45412
▁flat	-9.4546
▁produksjon	-9.45588
▁beskrive	-9.45662
▁70	-9.45688
tion	-9.45882
▁samlet	-9.46021
▁tilsvarende	-9.46057
▁vanskelig	-9.46062
▁james	-9.46064
ix	-9.46076
språk	-9.46081
zz	-9.46113
hav	-9.46187
▁leg	-9.46226
▁sørlige	-9.46442
▁eg	-9.46472
▁hei	-9.46535
▁pop	-9.46576
▁varme	-9.46667
▁war	-9.46762
▁lærer	-9.46767
▁oppdaget	-9.46813
▁statsminister	-9.46821
▁1979	-9.46824
▁1950	-9.46838
▁grev	-9.46856
▁munn	-9.4686
nntil	-9.46867
▁sag	-9.46922
▁fest	-9.46928
▁forskjell	-9.47025
▁ledd	-9.47029
fører	-9.47035
▁gården	-9.47035
▁resten	-9.4704
▁gru	-9.47058
▁bilde	-9.47095
▁høyere	-9.47276
ød	-9.47283
▁ger	-9.47309
▁vind	-9.47336
arbeid	-9.47351
▁pass	-9.47364
▁krav	-9.4739
hel	-9.47429
▁sky	-9.47436
▁hit	-9.4744
ved	-9.47485
organisasjon	-9.47569
virkning	-9.47589
akt	-9.47658
▁mid	-9.47688
▁renner	-9.47787
▁hvite	-9.47788
▁iii	-9.47798
▁bad	-9.47821
▁fører	-9.47836
▁sund	-9.47857
▁japansk	-9.4786
oc	-9.47924
▁sentrale	-9.48127
▁sørvest	-9.48335
▁1945	-9.4834
▁los	-9.48412
▁sommeren	-9.48423
side	-9.48456
styrke	-9.48502
▁cla	-9.48573
gler	-9.48655
gle	-9.48773
▁grense	-9.4879
rio	-9.48798
▁mis	-9.48944
▁vik	-9.48961
gne	-9.49001
▁hverandre	-9.49099
▁1972	-9.49113
▁2016	-9.49117
▁veg	-9.49121
▁sau	-9.49195
verket	-9.49295
▁geo	-9.49299
ins	-9.49376
▁transport	-9.49505
▁nådd	-9.49563
▁finne	-9.49695
▁produkt	-9.49852
kra	-9.49862
ð	-9.49874
▁befolkningen	-9.49897
▁fylkes	-9.49944
▁mal	-9.49975
▁opprør	-9.50016
handler	-9.50059
ferd	-9.5006
systemet	-9.50143
▁tross	-9.5016
▁enten	-9.50178
▁rh	-9.50195
roll	-9.50206
rike	-9.50231
departementet	-9.50292
nivå	-9.50317
▁raskt	-9.5035
▁finalen	-9.50352
linje	-9.50425
bank	-9.50486
▁århundre	-9.50656
▁dronning	-9.5066
zhou	-9.50677
▁city	-9.50738
70	-9.50845
▁frank	-9.50851
lang	-9.50885
gruppe	-9.50897
▁artist	-9.50916
fisk	-9.50936
60	-9.50987
79	-9.50996
ita	-9.51018
▁wo	-9.51079
her	-9.511
▁ære	-9.5113
▁hor	-9.51162
erende	-9.512
▁betegne	-9.51229
▁cent	-9.51359
▁arrangert	-9.51443
▁national	-9.51443
▁1971	-9.51455
ritt	-9.51513
rek	-9.51612
▁alder	-9.51666
liv	-9.51719
68	-9.51835
tør	-9.51995
▁ep	-9.51998
skolen	-9.52102
▁fry	-9.52205
nett	-9.5225
▁1940	-9.52257
▁museum	-9.52302
▁miste	-9.52335
program	-9.52359
▁elektrisk	-9.52389
gående	-9.52447
н	-9.52536
▁forfatteren	-9.52537
▁retning	-9.52542
▁type	-9.52586
hn	-9.52611
▁offentlig	-9.52629
▁musiker	-9.52844
▁nærings	-9.52939
▁pri	-9.52972
ekspedisjon	-9.53036
▁dårlig	-9.53038
▁kraftverk	-9.53064
grense	-9.53097
77	-9.53131
bygning	-9.53144
▁asia	-9.53172
▁1800	-9.5324
▁fjorden	-9.53278
ction	-9.53312
▁høyt	-9.53351
rum	-9.53385
▁japan	-9.53549
▁ky	-9.53558
▁grå	-9.53611
▁hell	-9.53745
gren	-9.53764
ata	-9.53766
▁1973	-9.53843
▁fjerde	-9.53843
▁1978	-9.53854
▁1975	-9.53857
▁mol	-9.53873
▁mester	-9.53877
▁jon	-9.53882
▁mørke	-9.54004
▁uni	-9.54008
▁hest	-9.54051
▁hær	-9.5421
▁gode	-9.54224
løse	-9.54298
que	-9.54323
lagt	-9.54349
pol	-9.54365
hov	-9.54377
▁sku	-9.54384
▁lau	-9.54399
▁kamper	-9.54408
▁plassert	-9.54525
▁opprinnelse	-9.54656
▁spesiell	-9.54657
▁ii	-9.54659
▁kristen	-9.54696
▁arten	-9.54714
our	-9.54763
▁rute	-9.54774
stift	-9.54794
ob	-9.54796
▁mangle	-9.54827
▁jens	-9.54897
snitt	-9.54905
▁formel	-9.54918
vent	-9.54956
▁thor	-9.54975
klasse	-9.54979
▁nrk	-9.54997
lia	-9.54997
▁fulgte	-9.5508
▁grønn	-9.55101
▁ek	-9.5511
▁nils	-9.55151
▁bind	-9.55249
▁sti	-9.55277
mit	-9.55375
▁verne	-9.55385
rapport	-9.55479
▁1948	-9.55492
▁areal	-9.55494
▁spania	-9.55499
▁åpen	-9.55527
fu	-9.55627
▁lø	-9.55637
▁bruke	-9.55756
▁studie	-9.55769
ky	-9.55773
▁leve	-9.55837
▁marine	-9.55844
▁kraftig	-9.55914
▁real	-9.55916
▁skjedd	-9.5597
▁korea	-9.55993
▁brann	-9.56033
ish	-9.56129
▁lund	-9.5617
dommen	-9.56287
▁enhet	-9.563
▁charles	-9.5632
▁slott	-9.56392
▁heter	-9.56547
formet	-9.56548
tti	-9.56556
are	-9.56568
med	-9.56726
ssen	-9.56733
47	-9.56831
ull	-9.56948
lis	-9.57008
▁ram	-9.57102
▁komponist	-9.57135
▁sommerfugl	-9.5715
▁1976	-9.5715
▁fremdeles	-9.57167
grupper	-9.57214
lev	-9.57224
▁endte	-9.57242
▁union	-9.57272
▁inter	-9.57334
▁regel	-9.57392
arter	-9.57403
organ	-9.57405
folk	-9.57463
▁behandling	-9.57578
▁grenser	-9.57582
wi	-9.57597
▁sikre	-9.57656
▁utdanne	-9.57664
▁karakter	-9.57699
vare	-9.57914
▁skyld	-9.58014
▁fortsette	-9.58039
sberg	-9.58129
regionen	-9.58164
industri	-9.58174
midler	-9.58357
▁maskin	-9.58366
ativ	-9.58434
ban	-9.58551
▁danse	-9.58622
87	-9.58632
▁tha	-9.58771
▁hoff	-9.5878
74	-9.58789
tog	-9.58813
▁flertall	-9.58828
▁sivil	-9.5883
▁1981	-9.58833
▁pen	-9.5884
▁1920	-9.58846
mus	-9.58863
▁bolig	-9.58913
▁meste	-9.58944
▁virksomhet	-9.58955
▁skipet	-9.5896
ula	-9.59042
▁shi	-9.59055
48	-9.59115
46	-9.59172
▁bomb	-9.59189
▁unge	-9.59224
▁song	-9.59246
▁stilling	-9.59287
ira	-9.59381
▁divisjon	-9.5939
▁elve	-9.5939
båt	-9.5943
▁representant	-9.59438
krigen	-9.59485
gata	-9.59507
▁mørk	-9.59524
▁krets	-9.59637
▁borg	-9.59665
▁international	-9.59678
▁folketelling	-9.59678
slutning	-9.59682
▁1982	-9.59691
lon	-9.59692
▁distriktet	-9.59724
▁ungdoms	-9.59731
farge	-9.59734
lund	-9.59734
stid	-9.59804
forbund	-9.59841
▁avdeling	-9.59891
kommune	-9.59926
▁tall	-9.60081
▁scene	-9.60354
nik	-9.60355
▁direktør	-9.60356
▁skips	-9.60511
▁kardinal	-9.6054
▁religiøs	-9.6054
▁trøndelag	-9.6054
teknikk	-9.6054
▁1956	-9.60555
▁1968	-9.60557
▁handling	-9.60575
▁fredrik	-9.60576
stø	-9.60607
▁app	-9.60634
eier	-9.60693
▁finans	-9.60905
▁korte	-9.60963
▁eiendom	-9.61013
holm	-9.61034
72	-9.61076
▁forskning	-9.61085
69	-9.61193
98	-9.61234
cy	-9.61237
▁produsent	-9.61371
▁drama	-9.6139
▁undersøkelse	-9.61412
▁vokste	-9.61414
▁soldater	-9.6142
▁1930	-9.61432
▁black	-9.61448
win	-9.61476
▁stadig	-9.61495
▁ung	-9.61496
▁totalt	-9.61657
▁utført	-9.61695
▁israel	-9.61779
▁danner	-9.61789
yo	-9.61826
▁sir	-9.61883
▁rike	-9.61928
▁plate	-9.61944
ias	-9.61981
▁dam	-9.6206
▁ok	-9.62082
▁opphav	-9.62087
våg	-9.62174
evne	-9.62177
▁prisen	-9.62259
▁ytterligere	-9.62287
▁nærmest	-9.62289
▁1962	-9.62302
magasin	-9.62303
▁lengre	-9.62311
▁eli	-9.6233
▁old	-9.6237
▁gjennomført	-9.62382
kh	-9.6241
stedet	-9.62461
▁larven	-9.62513
▁heller	-9.62525
strøm	-9.62547
▁led	-9.62685
67	-9.62747
rød	-9.62776
▁kol	-9.62892
mand	-9.62915
▁posisjon	-9.62917
án	-9.62927
▁slekten	-9.62938
▁strand	-9.62962
▁lenge	-9.63121
▁skatt	-9.63158
▁endret	-9.63161
▁richard	-9.63172
▁fokus	-9.63175
age	-9.63177
kro	-9.63178
▁1969	-9.63188
▁alltid	-9.63236
kler	-9.63341
▁symbol	-9.63381
▁jakt	-9.63414
▁provins	-9.63434
zo	-9.63435
▁rygg	-9.63469
valg	-9.63478
▁organisasjonen	-9.63507
▁rot	-9.63556
arbeider	-9.63572
bedrift	-9.63655
ij	-9.63656
rådet	-9.6368
▁mø	-9.63705
▁kreve	-9.63762
qui	-9.63765
49	-9.63782
jon	-9.6381
93	-9.6384
senteret	-9.6385
▁tradisjon	-9.63888
▁ing	-9.63891
▁midten	-9.63907
▁interesse	-9.63912
▁opprinnelige	-9.64033
myndighet	-9.64058
▁publisert	-9.64065
▁lufthavn	-9.64073
▁bakgrunn	-9.64107
▁kam	-9.64111
▁derimo	-9.64126
▁rang	-9.6414
▁ytre	-9.6417
ledning	-9.64209
▁ekteskap	-9.64241
52	-9.64249
▁klarte	-9.64313
jen	-9.64322
krets	-9.64395
vinger	-9.64409
▁motstand	-9.64411
▁grupper	-9.6442
▁størrelse	-9.64446
▁dyre	-9.64452
▁temperatur	-9.64484
▁metal	-9.6449
▁huset	-9.64558
bær	-9.64606
▁styrker	-9.64618
▁rollen	-9.64656
ben	-9.64719
▁hellig	-9.64746
slekt	-9.64802
▁foreldre	-9.64968
▁altså	-9.65002
▁ji	-9.65044
▁un	-9.65122
▁kart	-9.65184
hund	-9.65191
▁femte	-9.65237
▁win	-9.65264
skapet	-9.65267
våpen	-9.65278
samisk	-9.65288
satte	-9.6538
pre	-9.65387
voks	-9.65481
▁domin	-9.65565
▁bane	-9.65568
ori	-9.65617
lem	-9.65632
▁forsøkt	-9.65717
rute	-9.65782
hall	-9.65805
42	-9.65809
▁bygningen	-9.65812
▁studio	-9.65873
▁louis	-9.65875
▁musikkalbum	-9.65888
▁2017	-9.65893
mis	-9.65908
▁fot	-9.65928
▁kontor	-9.65998
kop	-9.66081
▁zo	-9.661
kka	-9.66111
gangen	-9.66119
▁vinner	-9.66251
76	-9.66269
museet	-9.66276
gift	-9.66336
▁star	-9.66452
nor	-9.66502
▁jorden	-9.6658
▁bass	-9.66601
▁prosess	-9.66634
▁stan	-9.66642
san	-9.66648
arm	-9.66663
▁world	-9.66792
▁voksne	-9.66797
▁1959	-9.66808
▁1966	-9.66815
▁martin	-9.66821
field	-9.66893
56	-9.66896
fjell	-9.66931
gaard	-9.6699
▁forsvars	-9.67034
partiet	-9.67044
с	-9.67066
veg	-9.67076
▁sort	-9.67132
▁danne	-9.67143
▁journalist	-9.67144
▁che	-9.67213
▁begrepet	-9.67284
▁pl	-9.67489
rør	-9.67491
ische	-9.6751
▁sende	-9.67576
▁historien	-9.67585
▁klo	-9.67687
▁etterhvert	-9.67718
▁region	-9.67719
▁lansert	-9.67739
▁forsker	-9.67779
▁est	-9.67816
▁albert	-9.67817
▁bøker	-9.67863
▁utvikling	-9.67866
vatnet	-9.6799
fugl	-9.68034
ence	-9.68068
▁økonomi	-9.68091
▁kongelig	-9.68118
62	-9.68186
▁stykke	-9.68192
▁sur	-9.68233
в	-9.68278
gjorde	-9.68306
haug	-9.68401
▁hæren	-9.6853
▁tanke	-9.68532
▁daglig	-9.68567
byr	-9.68596
▁løv	-9.68597
ú	-9.68653
▁1961	-9.68653
š	-9.68653
▁bygde	-9.68653
▁norrøn	-9.68655
▁hertug	-9.68656
▁rekord	-9.68659
▁1944	-9.68668
▁1952	-9.6867
▁1947	-9.68671
▁fotballspiller	-9.68685
bygging	-9.68711
59	-9.68715
▁metall	-9.68729
▁bodde	-9.68767
▁fyr	-9.68784
ntin	-9.68787
57	-9.68828
øk	-9.68895
sler	-9.68907
▁sul	-9.68963
▁adel	-9.6897
strand	-9.69049
vendt	-9.69057
▁elv	-9.69096
▁idretts	-9.69123
▁livet	-9.69128
teri	-9.69145
▁mulighet	-9.69162
▁kanon	-9.69194
stat	-9.69227
▁kost	-9.69245
▁ramme	-9.69289
stoff	-9.69451
▁anne	-9.69458
▁bø	-9.69573
▁michael	-9.69596
▁profesjonell	-9.69596
▁sovjetunionen	-9.69596
kapasitet	-9.69669
63	-9.6968
klubb	-9.69686
▁lan	-9.69688
ric	-9.69721
▁røde	-9.69726
75	-9.69743
ub	-9.69753
klar	-9.69781
▁greske	-9.69845
▁she	-9.69867
nst	-9.69888
kle	-9.6991
▁jean	-9.69936
▁fjellet	-9.69995
▁hovedstaden	-9.70048
▁tema	-9.70063
▁linjen	-9.70073
kirke	-9.70114
of	-9.70124
▁fugle	-9.70151
▁sykdom	-9.7017
▁gutt	-9.70172
▁egypt	-9.70193
▁sel	-9.70214
▁masse	-9.70255
▁tele	-9.70262
▁bygg	-9.70285
▁materiale	-9.7039
▁bel	-9.70482
▁kinas	-9.70541
▁nevnt	-9.70549
▁klassisk	-9.7055
▁klima	-9.7055
▁melodi	-9.70556
▁katolske	-9.70603
▁søster	-9.70604
▁middel	-9.70714
▁het	-9.70731
▁spiss	-9.7074
ā	-9.70775
▁feil	-9.70779
▁ya	-9.70845
▁jevn	-9.70858
rich	-9.7096
har	-9.70963
mul	-9.71032
90	-9.71058
▁fv	-9.71084
litt	-9.71102
grav	-9.71224
▁cap	-9.71268
▁produksjons	-9.71285
cia	-9.71409
▁jule	-9.71416
ssa	-9.71462
▁original	-9.71507
à	-9.7151
▁alternativ	-9.7151
▁selvstendig	-9.7151
▁ordfører	-9.71533
las	-9.71557
▁jarl	-9.71558
▁benyttes	-9.7162
▁kilde	-9.71633
▁variant	-9.71637
▁høye	-9.71664
▁koloni	-9.71678
rick	-9.71685
lingen	-9.71725
▁mw	-9.71759
lighet	-9.7176
▁representerer	-9.71862
▁privat	-9.71864
▁kjempe	-9.71873
▁avisen	-9.71893
▁rik	-9.71899
▁indisk	-9.71909
eng	-9.72068
▁prosjekt	-9.72082
prisen	-9.72086
▁total	-9.72115
plasser	-9.72128
vitenskap	-9.7214
pu	-9.72211
▁utviklingen	-9.72217
▁cup	-9.72235
pet	-9.72286
▁hill	-9.723
mund	-9.7235
mid	-9.72389
▁90	-9.72391
▁slå	-9.72464
▁tilgjengelig	-9.72481
▁påvirke	-9.72497
▁1977	-9.725
▁bevart	-9.72508
▁heng	-9.72511
▁nederlandsk	-9.72515
▁kh	-9.72539
▁yu	-9.72547
▁flyplass	-9.72612
skrift	-9.7264
▁kysten	-9.72704
▁sju	-9.72753
80	-9.72817
▁befolkning	-9.72819
▁student	-9.72894
historie	-9.72936
periode	-9.72949
▁kjerne	-9.73067
▁klubb	-9.73094
▁lot	-9.73112
▁sterke	-9.73131
▁harald	-9.7319
motor	-9.73207
▁sesong	-9.73258
99	-9.73297
▁max	-9.73301
fart	-9.73334
44	-9.73372
▁test	-9.73397
84	-9.73407
▁personlig	-9.73425
▁1964	-9.73473
nis	-9.73486
saker	-9.73495
▁markeds	-9.73514
▁politikk	-9.73544
▁lage	-9.73569
▁brev	-9.73593
▁forsvar	-9.73594
▁anna	-9.73601
▁ole	-9.73606
▁just	-9.73619
▁snar	-9.73656
▁jøde	-9.73694
▁naturlig	-9.73713
▁myr	-9.73714
skjold	-9.73731
▁hopp	-9.73749
▁tung	-9.73792
▁nabo	-9.73797
▁livs	-9.73829
▁redaktør	-9.73831
gjø	-9.73963
bjørn	-9.73997
▁aktivitet	-9.74029
58	-9.74057
ón	-9.74061
▁regn	-9.74065
▁helge	-9.74091
linjen	-9.74138
▁fordel	-9.74154
▁polsk	-9.74441
▁inspirert	-9.74451
▁forteller	-9.74461
▁sterk	-9.74522
▁ting	-9.74531
fang	-9.74555
▁knut	-9.74567
etter	-9.74585
zh	-9.7459
ova	-9.74661
51	-9.74688
▁oppført	-9.74709
▁reform	-9.74846
▁gjeste	-9.74851
ura	-9.74913
▁nasjonale	-9.74937
▁elev	-9.74947
cha	-9.75015
klo	-9.75081
▁35	-9.75133
▁sy	-9.75273
▁akademi	-9.75307
▁kry	-9.75319
▁pasient	-9.75451
▁situasjon	-9.75452
▁kunnskap	-9.75453
▁fremme	-9.75461
▁formann	-9.75493
▁gau	-9.75516
▁omfattende	-9.75518
iti	-9.75567
83	-9.75633
ningene	-9.75659
▁mad	-9.75843
▁teksten	-9.75881
gjort	-9.75912
tale	-9.75916
▁hin	-9.75941
sol	-9.75953
▁gyl	-9.76004
▁mege	-9.76105
▁teori	-9.76161
zon	-9.76254
▁delta	-9.76308
▁selve	-9.76334
▁opptre	-9.76365
▁nivå	-9.76387
▁ana	-9.76425
tjen	-9.76447
т	-9.76455
▁bronse	-9.76455
▁australia	-9.76461
▁arabisk	-9.76464
▁oppdrag	-9.76464
▁typisk	-9.76466
▁1939	-9.7647
▁1963	-9.76479
gno	-9.76562
pel	-9.76569
▁prøve	-9.76578
▁front	-9.76586
▁kap	-9.76641
▁hodet	-9.76746
feltet	-9.76747
vekt	-9.76815
pass	-9.76857
well	-9.76941
▁vitenskap	-9.76977
▁ris	-9.77033
▁odd	-9.77034
▁kommunene	-9.77095
82	-9.77106
▁stille	-9.77118
▁passer	-9.77121
▁fro	-9.77123
▁sten	-9.77197
formen	-9.77216
▁delvis	-9.77226
nner	-9.77241
▁program	-9.77262
▁grunnlag	-9.77265
▁utover	-9.77312
gon	-9.77314
▁uavhengig	-9.77349
▁stav	-9.77431
ō	-9.77482
▁hente	-9.77483
ild	-9.77515
▁fordelt	-9.77565
▁inkluderer	-9.77666
▁sønnen	-9.7773
▁sw	-9.77741
low	-9.77751
stykke	-9.77763
▁begynner	-9.77817
25	-9.77877
medlem	-9.78083
alis	-9.7809
rev	-9.78093
▁lære	-9.78142
▁turn	-9.78175
stille	-9.78205
▁forsknings	-9.78218
▁lev	-9.7824
▁artene	-9.7832
shi	-9.78499
▁stamme	-9.78502
▁episode	-9.78514
▁østerrike	-9.78515
▁canada	-9.78522
▁ube	-9.78581
▁kull	-9.78735
▁tradisjonelle	-9.78779
▁stoppe	-9.78822
dor	-9.78855
▁nan	-9.78912
▁ansatte	-9.78943
trinn	-9.78996
▁trolig	-9.79001
och	-9.79096
▁maur	-9.79103
21	-9.79152
▁aust	-9.79161
▁leker	-9.7921
ordenen	-9.79215
plassen	-9.79332
▁utvidet	-9.79347
▁ban	-9.79352
▁instrument	-9.79381
jiang	-9.79385
gal	-9.79443
▁hovedstad	-9.79484
▁fjerne	-9.7955
▁parlament	-9.79554
▁passasjer	-9.79554
▁kontakt	-9.79561
▁antenne	-9.7957
▁1954	-9.79571
▁bon	-9.79642
▁stammer	-9.79661
▁kg	-9.79735
▁arne	-9.79795
▁sjef	-9.79884
▁hundre	-9.79922
vind	-9.80044
oli	-9.80049
▁dekk	-9.80073
▁folket	-9.80156
prosess	-9.80172
løsning	-9.80203
▁offisielle	-9.80256
▁landsbyen	-9.80275
slav	-9.80316
▁rå	-9.80352
▁hjelpe	-9.80398
▁will	-9.80406
atisk	-9.80419
▁endre	-9.80447
▁trener	-9.80486
▁jen	-9.80495
▁tids	-9.80501
▁normalt	-9.80529
▁jødisk	-9.80608
▁bokstav	-9.80609
▁betegnelsen	-9.80623
delen	-9.80668
▁debutert	-9.80668
spor	-9.80711
▁cro	-9.80721
▁måneder	-9.80775
▁avhengig	-9.80843
▁tittel	-9.80929
▁våren	-9.80955
pla	-9.80972
dagen	-9.81051
▁dog	-9.81073
▁hage	-9.81124
▁utdannelse	-9.81145
▁bit	-9.81182
▁vå	-9.8131
sport	-9.81311
▁velge	-9.81415
▁tog	-9.81437
▁flekk	-9.81509
54	-9.81528
▁preget	-9.81649
▁nederland	-9.8165
offisielt	-9.81671
▁tilknyttet	-9.81671
▁yngre	-9.81672
▁royal	-9.81674
▁1967	-9.81691
▁1936	-9.81694
▁falt	-9.81709
▁vitenskapelig	-9.81719
▁stortinget	-9.81722
▁start	-9.81791
▁henry	-9.81807
▁rad	-9.81844
▁ordenen	-9.81911
ram	-9.81913
▁organisert	-9.81926
▁gun	-9.82001
press	-9.82014
▁teknisk	-9.8204
71	-9.82089
▁sovjetisk	-9.82111
▁listen	-9.82117
▁vestlige	-9.82143
aktiv	-9.82149
▁sette	-9.82184
▁spill	-9.8222
▁besto	-9.82234
▁svak	-9.82287
▁tettstedet	-9.82388
møte	-9.82426
▁anta	-9.82448
▁gram	-9.82477
▁mill	-9.82485
▁konkurransen	-9.82499
▁trafikk	-9.825
▁samfunns	-9.82531
▁øyene	-9.82585
▁nasjon	-9.82591
fabrikk	-9.82596
▁kristian	-9.82651
kov	-9.82682
drift	-9.82701
▁1953	-9.82746
▁papir	-9.82779
▁300	-9.82805
▁qui	-9.82861
▁riksvei	-9.82864
▁foruten	-9.82881
▁temp	-9.82903
▁vid	-9.82948
▁kva	-9.82954
plikt	-9.8307
ther	-9.8318
▁nr	-9.83193
▁edderkopp	-9.83205
▁fc	-9.83243
▁frukt	-9.83252
▁py	-9.83334
▁historiker	-9.83359
▁teknologi	-9.83369
▁institusjon	-9.83385
trekning	-9.83419
maskin	-9.83442
▁brand	-9.83567
▁kode	-9.8362
sang	-9.83729
▁fal	-9.83748
▁introdusert	-9.83833
▁wilhelm	-9.83833
▁county	-9.83833
▁hovedrollen	-9.83838
▁fyrst	-9.83857
▁programmet	-9.83862
▁populære	-9.83868
høgskole	-9.83888
▁johann	-9.83889
▁gjenopp	-9.83996
flue	-9.84011
▁landslag	-9.84058
▁republikken	-9.84129
35	-9.84188
▁strid	-9.84219
▁offiser	-9.84313
▁leir	-9.84334
88	-9.84375
▁bytte	-9.84389
fin	-9.84402
mesterskapet	-9.84562
▁koll	-9.84606
sjonen	-9.84665
svik	-9.84717
43	-9.84718
▁skape	-9.84766
▁kroner	-9.84838
▁motiv	-9.84863
▁ou	-9.84886
▁foss	-9.849
ł	-9.84932
▁records	-9.84932
▁frederik	-9.84938
▁rosen	-9.8497
▁mas	-9.85034
marked	-9.85106
▁tale	-9.85107
▁oppgave	-9.85108
▁flu	-9.85201
foss	-9.8524
▁havet	-9.85304
▁tettsted	-9.85353
▁åpne	-9.85371
▁gy	-9.85471
hm	-9.8549
▁sports	-9.85507
øyene	-9.85516
prosjekt	-9.85648
nu	-9.8581
▁ask	-9.85881
ios	-9.85884
▁dor	-9.85906
slaget	-9.85937
▁salt	-9.85966
▁presse	-9.85997
▁hunnen	-9.86011
▁up	-9.86027
gården	-9.86029
▁berømt	-9.86044
▁hustru	-9.86045
▁1965	-9.86068
▁jordbruk	-9.86088
▁400	-9.86107
▁veldig	-9.86113
▁bonde	-9.86114
▁sun	-9.86281
gard	-9.86284
▁innført	-9.86334
▁endelig	-9.86419
▁ph	-9.86422
▁fabrikk	-9.86493
▁polen	-9.86594
▁vet	-9.86605
▁skj	-9.86653
▁nordisk	-9.86834
kraftverk	-9.86855
▁32	-9.86874
▁cu	-9.86981
ala	-9.86997
▁skriver	-9.87053
pur	-9.87066
▁bestemte	-9.87075
lapp	-9.87164
д	-9.87167
▁school	-9.87167
▁hurtig	-9.87167
▁religion	-9.87167
▁oversikt	-9.87168
iblan	-9.87177
▁1928	-9.87179
elv	-9.87182
▁1958	-9.87185
ledende	-9.87196
▁bibel	-9.87244
▁innsjø	-9.87387
▁lek	-9.87431
makt	-9.87441
riket	-9.8746
valget	-9.8747
▁king	-9.8755
▁harry	-9.8756
▁wil	-9.87575
▁lee	-9.87623
▁østlig	-9.87709
▁overfor	-9.87733
▁kaste	-9.87787
▁bygning	-9.87796
▁behold	-9.87823
mennene	-9.87959
▁tang	-9.87959
aktig	-9.87992
12	-9.88021
▁rein	-9.88033
ity	-9.88164
sfjorden	-9.88228
▁valget	-9.88236
somme	-9.88267
м	-9.88303
▁mexico	-9.88303
▁vunnet	-9.88303
▁1946	-9.88324
▁straffe	-9.88335
▁omtalt	-9.88353
▁normal	-9.88432
08	-9.88451
▁stasjonen	-9.88462
▁solo	-9.88473
▁likhet	-9.88478
stripe	-9.88494
blomst	-9.88552
forhold	-9.88563
▁gard	-9.88621
▁problem	-9.88724
▁beskytte	-9.88766
▁master	-9.88807
32	-9.88808
▁minutter	-9.88817
▁pra	-9.88826
▁larvene	-9.88851
▁styrkene	-9.88928
▁studenter	-9.88969
▁stand	-9.88998
▁fle	-9.89089
▁rør	-9.89114
musikk	-9.89161
06	-9.89232
▁athen	-9.89236
▁atom	-9.89242
▁nordland	-9.89268
▁lyse	-9.89348
▁que	-9.89362
▁bygging	-9.894
к	-9.89407
▁lengst	-9.89472
▁fengsel	-9.89473
▁1949	-9.89473
▁blomster	-9.89476
▁mytologi	-9.89492
▁snakke	-9.89493
▁nam	-9.89502
strid	-9.89579
kirken	-9.89672
ple	-9.89705
▁150	-9.89794
▁tusen	-9.89853
mond	-9.89921
▁off	-9.89954
▁runde	-9.89969
▁filosofi	-9.89989
▁bay	-9.90088
▁rand	-9.90104
▁vist	-9.90148
cell	-9.90157
▁solgt	-9.902
▁single	-9.90244
▁avsluttet	-9.90258
▁tron	-9.90307
▁omfatte	-9.90323
▁frø	-9.90324
▁hannen	-9.90355
▁lignende	-9.90356
▁33	-9.90437
mil	-9.90513
ο	-9.90615
▁etterfulgt	-9.90615
▁installert	-9.90615
▁club	-9.90629
▁1918	-9.90631
▁unntak	-9.90634
▁oscar	-9.90637
▁åpning	-9.90714
visning	-9.90758
halvøya	-9.90803
▁keiseren	-9.90883
▁uke	-9.90925
▁kvinnelig	-9.90985
▁klart	-9.91002
svarer	-9.91022
▁buss	-9.91035
lov	-9.91066
kysten	-9.91099
▁north	-9.91106
▁45	-9.91116
brun	-9.91127
▁operasjon	-9.91242
▁prins	-9.91272
forskning	-9.91471
ney	-9.91485
▁strekke	-9.91488
▁landsby	-9.91506
ough	-9.91513
▁snø	-9.91556
ball	-9.91562
▁sport	-9.91636
aksjon	-9.91685
sekretær	-9.91778
con	-9.91782
▁eksempler	-9.91792
▁ishockey	-9.91792
▁nødvendig	-9.91792
▁tydelig	-9.91797
▁kristne	-9.91799
▁1938	-9.91806
▁1912	-9.91809
▁institutt	-9.91819
▁administrasjons	-9.91821
▁län	-9.91825
▁high	-9.91835
45	-9.91875
stasjonen	-9.91968
▁agder	-9.91971
▁nasjonalpark	-9.9199
jern	-9.91993
hol	-9.92
▁regjerings	-9.92033
▁bestod	-9.92155
▁blei	-9.92235
▁vannet	-9.92348
▁andreas	-9.92369
▁beskrevet	-9.92376
▁spørsmål	-9.92383
▁kha	-9.92423
▁time	-9.92482
18	-9.92634
▁ansatt	-9.9272
gli	-9.92756
▁byer	-9.9282
▁middelalderen	-9.92901
▁bol	-9.92957
standen	-9.92975
▁innflytelse	-9.92979
▁moskva	-9.92983
▁00	-9.93001
▁avgjøre	-9.93041
▁festival	-9.93092
▁avstand	-9.93094
elli	-9.93142
▁ansvar	-9.93147
▁tegnet	-9.93155
▁timer	-9.93165
▁gil	-9.93206
park	-9.9324
▁arn	-9.93261
▁hud	-9.93272
▁sank	-9.93394
▁hevdet	-9.93397
▁villa	-9.93421
▁gla	-9.93452
▁design	-9.93457
▁typer	-9.93513
▁mary	-9.93562
▁økt	-9.93568
▁jobbet	-9.9357
▁områdene	-9.93626
voll	-9.93654
▁løper	-9.93659
leir	-9.93718
▁poly	-9.93749
89	-9.93779
▁kreft	-9.93791
▁bosatt	-9.9381
▁russ	-9.93843
bein	-9.93859
▁music	-9.93882
▁stoff	-9.93898
▁ara	-9.93917
rey	-9.94007
▁haug	-9.94023
verdig	-9.94096
analyse	-9.94106
jan	-9.94166
▁kategori	-9.94187
konflikt	-9.94187
▁jacob	-9.94188
▁united	-9.94189
▁1924	-9.94203
▁1957	-9.94208
▁1955	-9.94214
cker	-9.94219
▁daniel	-9.94223
▁hj	-9.9424
vig	-9.94294
▁syr	-9.94302
78	-9.94345
▁team	-9.94353
▁landbruk	-9.94356
univers	-9.94384
band	-9.94394
strømmen	-9.94514
▁sho	-9.94633
24	-9.94635
▁årsak	-9.9471
▁viking	-9.9474
▁revolusjon	-9.94759
▁offentlige	-9.94805
▁hovedsak	-9.9481
▁omtale	-9.94829
▁bredt	-9.94835
tunnelen	-9.94888
▁kris	-9.94898
ville	-9.94958
bas	-9.95022
▁forsvaret	-9.95094
▁sete	-9.95099
kultur	-9.95129
▁bry	-9.95172
delt	-9.95244
▁bydel	-9.95254
96	-9.95268
▁turist	-9.95286
dekke	-9.95304
▁1600	-9.95371
ī	-9.95407
▁administrativ	-9.95407
▁nærmere	-9.95414
▁håkon	-9.95421
▁1932	-9.95424
▁anlegget	-9.95433
▁nedlagt	-9.95482
95	-9.95527
▁innsjøen	-9.95545
▁effektiv	-9.95545
▁fylket	-9.95575
ulykk	-9.95609
▁driver	-9.95671
▁gor	-9.95732
distanse	-9.95745
gjøre	-9.95755
kilden	-9.95779
▁solgte	-9.95869
kampen	-9.95883
▁sli	-9.95917
▁malt	-9.95924
mur	-9.95952
klubben	-9.96005
rommet	-9.96049
▁eva	-9.96119
vold	-9.96138
▁met	-9.9623
mod	-9.96296
able	-9.96299
▁bidra	-9.96343
plate	-9.96344
hjem	-9.96441
▁behandle	-9.96504
▁utvalg	-9.96618
▁alvorlig	-9.96641
▁betrakte	-9.96641
▁øvre	-9.96642
▁alexander	-9.96643
▁brensel	-9.96643
▁innsats	-9.96644
▁college	-9.96646
▁streng	-9.96649
▁tidsskrift	-9.96652
▁referere	-9.96656
▁irsk	-9.96657
▁vokser	-9.96674
▁kjenne	-9.96772
jev	-9.9679
sam	-9.96852
▁graf	-9.96938
gger	-9.96939
▁systemet	-9.96953
kjøp	-9.96959
▁virkelig	-9.96966
mini	-9.97054
▁hydro	-9.97124
▁utstilling	-9.97186
▁sve	-9.97215
rsom	-9.97226
▁dj	-9.97228
▁samfunnet	-9.97266
▁od	-9.97286
▁cre	-9.97317
▁kjemisk	-9.97347
levende	-9.97373
▁tromsø	-9.9744
▁ref	-9.97445
hode	-9.97464
▁kjøpe	-9.97489
▁moren	-9.97521
▁arve	-9.9763
▁kall	-9.97648
rup	-9.97756
▁bevegelse	-9.97779
itter	-9.97797
▁tonn	-9.97801
▁sier	-9.97803
▁miss	-9.97857
▁elektro	-9.97886
▁kaptein	-9.97892
▁bispedømme	-9.97899
din	-9.97908
▁1942	-9.97913
▁protest	-9.97915
▁flagg	-9.9797
▁saken	-9.97992
▁tørr	-9.98013
▁mess	-9.98024
▁horn	-9.98025
▁1700	-9.9805
▁samarbeidet	-9.9807
▁die	-9.98084
▁ran	-9.9811
▁romanen	-9.98124
▁nevnes	-9.98171
bukta	-9.98194
▁bevis	-9.98336
▁ari	-9.9834
▁fø	-9.98379
chu	-9.98434
▁dobbelt	-9.98534
ith	-9.98556
▁liberal	-9.98592
galleri	-9.98668
15	-9.98765
▁bibliotek	-9.988
▁vä	-9.98813
lam	-9.98867
angrep	-9.98934
▁hå	-9.98938
klær	-9.99024
▁søke	-9.99095
▁tradisjonell	-9.99133
staten	-9.99143
▁objekt	-9.99157
▁utbredt	-9.99157
▁1941	-9.99157
▁beijing	-9.99157
▁arrangere	-9.99157
▁regissert	-9.99158
▁kalte	-9.99168
▁hode	-9.99174
▁por	-9.99215
▁tilhørt	-9.99226
▁otto	-9.99237
▁iv	-9.99245
▁verket	-9.99389
▁vakt	-9.99423
former	-9.99492
kanten	-9.99495
skift	-9.9952
▁problemer	-9.9962
▁kapell	-9.99628
▁ull	-9.99629
▁overgang	-9.99653
▁medlemmene	-9.99664
dorf	-9.99736
istene	-9.99789
▁lis	-9.99878
▁øverste	-9.99887
krit	-9.99887
▁irland	-9.99897
uch	-10.0008
▁gui	-10.0017
▁fisk	-10.0018
yang	-10.002
▁økte	-10.0026
person	-10.0027
hør	-10.0028
ani	-10.0029
zy	-10.003
ager	-10.0032
kunst	-10.0034
ér	-10.0036
▁kim	-10.0036
feld	-10.0043
komedie	-10.0044
▁1914	-10.0044
▁publikum	-10.0044
▁kritikk	-10.0044
▁magnus	-10.0044
▁1919	-10.0046
løpet	-10.0046
▁bekrefte	-10.0048
▁primær	-10.0049
utgivelse	-10.0052
deles	-10.0056
▁bosetning	-10.0057
▁bryst	-10.006
▁vekst	-10.0061
▁freds	-10.0061
øst	-10.0069
▁sykehus	-10.0079
▁skille	-10.0085
hai	-10.0092
▁kvalitet	-10.0096
64	-10.0098
11	-10.01
▁camp	-10.0103
kurs	-10.0107
vinner	-10.0119
▁bredd	-10.012
▁kari	-10.0123
▁leon	-10.0132
virksomhet	-10.0154
▁olsen	-10.0158
▁aur	-10.016
19	-10.017
▁california	-10.0174
▁erkebiskop	-10.0174
▁ungarn	-10.0174
▁skotsk	-10.0176
▁1910	-10.0177
▁gitarist	-10.0182
språklig	-10.0185
▁kjøre	-10.0188
▁dør	-10.0194
town	-10.0202
▁damp	-10.0208
▁dynastiet	-10.0218
▁status	-10.0219
▁stå	-10.0221
stab	-10.0231
forestilling	-10.0234
hand	-10.0235
gende	-10.0247
▁final	-10.0251
last	-10.0265
tun	-10.0281
▁måne	-10.029
▁banen	-10.0295
▁sider	-10.0303
▁dialekt	-10.0305
kompleks	-10.0305
▁ødelagt	-10.0306
▁jazz	-10.0309
▁grov	-10.031
▁alfred	-10.031
▁gitar	-10.031
▁landskapet	-10.0313
▁award	-10.0314
▁butikk	-10.0316
▁vii	-10.0319
31	-10.0323
▁nar	-10.0324
følgende	-10.0325
▁salg	-10.0326
▁rund	-10.0327
▁jack	-10.0329
▁spillet	-10.033
▁utøver	-10.033
▁phil	-10.033
▁motsetning	-10.0338
▁arv	-10.0349
▁jag	-10.035
▁vær	-10.0355
slutt	-10.0357
▁menighet	-10.0359
27	-10.0364
▁toppen	-10.0365
ada	-10.0369
▁kloster	-10.0371
grafi	-10.0377
▁sats	-10.0381
▁pin	-10.0396
trafikk	-10.0397
▁rask	-10.04
pan	-10.0418
konkurranse	-10.0422
avdeling	-10.0423
miljø	-10.0425
vekst	-10.0425
▁marc	-10.0434
friidrettsutøver	-10.0439
▁fødsel	-10.0439
▁vulkan	-10.0439
▁1951	-10.0441
▁mikro	-10.0443
▁skul	-10.0445
▁uttalt	-10.0446
avtale	-10.0446
▁hersker	-10.0447
▁deltaker	-10.0448
▁islam	-10.0448
▁enda	-10.0449
▁press	-10.045
▁tidlige	-10.0453
▁64	-10.0456
▁studier	-10.0458
▁intern	-10.046
▁mobil	-10.0463
▁spise	-10.0466
tallet	-10.0468
▁ekstra	-10.0472
oma	-10.048
▁fjord	-10.049
▁tau	-10.0502
øm	-10.0505
▁maleri	-10.0509
ping	-10.0524
▁stilt	-10.0533
▁grunnlegger	-10.054
▁cou	-10.0553
▁bunn	-10.0557
▁handel	-10.0558
▁oversatt	-10.0558
utvikling	-10.0559
båter	-10.0563
▁katolsk	-10.0566
festivalen	-10.0568
bøker	-10.057
kommando	-10.0574
▁innbyggertall	-10.0574
▁nowiki	-10.0574
▁sistnevnte	-10.0574
▁skottland	-10.0574
▁utgangspunkt	-10.0574
▁flåte	-10.0575
▁håndball	-10.0575
▁smith	-10.0575
▁1937	-10.0577
▁videregående	-10.0578
roman	-10.058
▁sveits	-10.0587
▁gått	-10.0592
▁fru	-10.0595
▁dun	-10.0614
ual	-10.0615
▁gener	-10.0619
▁bidrag	-10.062
▁lavere	-10.062
turnering	-10.0627
▁fantes	-10.0628
▁ungdom	-10.063
▁cal	-10.063
fant	-10.0635
▁driv	-10.0635
wan	-10.0638
▁riket	-10.064
▁vestre	-10.0652
com	-10.0662
kret	-10.0664
arten	-10.0664
dannelse	-10.0666
fjellet	-10.0667
▁finn	-10.0673
▁dato	-10.0675
▁akt	-10.0675
aria	-10.0676
▁plateselskap	-10.0676
▁turner	-10.0683
▁begrep	-10.0685
▁tour	-10.0692
war	-10.0697
forbindelse	-10.0698
stjerne	-10.0707
▁fullstendig	-10.0711
▁sjelden	-10.0711
▁antagelig	-10.0711
▁svømme	-10.0711
▁cirka	-10.0711
▁skjøn	-10.0711
høyde	-10.0711
▁tolv	-10.0712
komité	-10.0712
▁1922	-10.0712
▁hotell	-10.0712
▁video	-10.0712
▁signal	-10.0712
▁internett	-10.0713
▁alpin	-10.0713
▁utgivelsen	-10.0714
13	-10.0714
▁hemmelig	-10.0716
▁stabil	-10.0716
typen	-10.0719
org	-10.0724
▁fjern	-10.0724
▁undervisning	-10.0733
▁vinge	-10.0738
høyskole	-10.0745
▁overført	-10.0746
34	-10.076
▁us	-10.0763
▁gruppa	-10.0767
▁cy	-10.0768
38	-10.0769
▁storm	-10.0786
skytter	-10.0794
▁ordens	-10.0794
mba	-10.0795
▁marie	-10.0795
▁kraftige	-10.0796
8	-10.08
▁160	-10.0811
▁fartøy	-10.0824
▁lån	-10.0825
▁mala	-10.0827
▁wel	-10.0832
▁skiller	-10.0837
samfunn	-10.0838
museum	-10.0839
▁neu	-10.0839
født	-10.0841
▁eie	-10.0841
▁eventyr	-10.085
▁vietnam	-10.085
▁verdenscup	-10.085
▁fattig	-10.085
▁redusert	-10.085
▁inngår	-10.085
▁mottatt	-10.085
▁byprefekture	-10.0851
▁power	-10.0851
▁planlagt	-10.0853
▁tryg	-10.0854
▁hjerte	-10.0857
▁bob	-10.0858
spenning	-10.0861
klipp	-10.0864
▁angeles	-10.0865
▁wien	-10.0867
gav	-10.0868
fyr	-10.0872
▁behov	-10.0873
▁lam	-10.0874
▁støttet	-10.0875
▁marg	-10.0879
▁utviklings	-10.0881
▁filmer	-10.0881
▁bla	-10.0883
konge	-10.0886
▁uker	-10.0889
▁stri	-10.0895
gått	-10.0898
▁bydelen	-10.0905
leng	-10.0906
lend	-10.0907
▁utenlandsk	-10.0919
▁slett	-10.0923
▁kontrakt	-10.0924
▁måned	-10.0928
▁blokk	-10.0928
▁musikalsk	-10.093
ander	-10.0932
rekke	-10.0934
▁dø	-10.0936
▁epi	-10.0938
▁plu	-10.0945
▁vekk	-10.0945
reise	-10.0946
nettverk	-10.0947
▁utgi	-10.0948
▁kjell	-10.0952
▁føde	-10.0957
kort	-10.0973
korps	-10.0978
▁vokal	-10.0984
front	-10.0985
▁kjærlighet	-10.0991
▁kjønn	-10.0991
▁ridder	-10.0991
▁edvard	-10.0992
aceae	-10.0992
▁1913	-10.0993
▁premier	-10.0993
▁kongedømme	-10.0994
▁feire	-10.0995
▁grunnla	-10.0996
▁ukjent	-10.0998
▁dommer	-10.1002
▁presidenten	-10.1002
▁rep	-10.101
16	-10.101
bestemmelse	-10.1015
kasse	-10.1016
▁may	-10.1027
▁nordover	-10.1034
▁utføre	-10.105
områdene	-10.106
renn	-10.1067
parken	-10.1067
▁nes	-10.1068
▁ot	-10.1072
▁utenriks	-10.1078
▁private	-10.1081
▁lønn	-10.1082
▁starter	-10.109
28	-10.1096
forbundet	-10.1103
▁gall	-10.1114
▁utga	-10.1117
▁south	-10.1123
▁sluttet	-10.1128
▁1909	-10.1133
▁service	-10.1133
▁krevde	-10.1133
▁nedbør	-10.1134
▁nektet	-10.1134
▁tegneserie	-10.1134
▁terror	-10.1134
▁etterfølger	-10.1135
▁sverd	-10.1138
herr	-10.1141
▁forretnings	-10.1142
▁markert	-10.1145
▁bestemt	-10.1147
▁plassering	-10.1157
▁tunnel	-10.1165
▁korn	-10.1167
stri	-10.1171
▁tilpasse	-10.1171
▁human	-10.1173
▁120	-10.1183
faktor	-10.1186
mont	-10.1192
▁unna	-10.1194
lj	-10.1197
▁orkester	-10.1205
▁øyne	-10.1211
▁maler	-10.1217
cul	-10.1217
▁sof	-10.1219
▁eik	-10.1219
▁600	-10.1219
bakken	-10.123
▁sko	-10.1235
▁hevde	-10.1238
cl	-10.1244
tinget	-10.1244
17	-10.1246
kilde	-10.1248
▁kalk	-10.1251
▁former	-10.1253
▁skjær	-10.1256
▁klassen	-10.1257
▁skilt	-10.127
hånd	-10.1274
▁kil	-10.1275
▁involvert	-10.1278
▁joseph	-10.1278
▁ødelegge	-10.1278
▁geografisk	-10.1278
▁kombinasjon	-10.1278
▁registrert	-10.1278
▁anerkjent	-10.1278
▁stadion	-10.1279
▁finnmark	-10.128
▁generelt	-10.128
▁1933	-10.128
▁1917	-10.128
▁1927	-10.128
▁himmel	-10.128
▁1935	-10.1281
▁bispe	-10.1281
▁forbundet	-10.1288
▁anledning	-10.1288
▁arkitektur	-10.1289
▁hellas	-10.1295
næs	-10.1295
▁kilder	-10.1305
▁forekommer	-10.1306
▁troll	-10.1307
▁magne	-10.1326
▁spir	-10.1331
familie	-10.1337
mmel	-10.1342
▁nm	-10.1352
▁angrepet	-10.1354
▁bølge	-10.1361
81	-10.1371
styrt	-10.1372
▁erobret	-10.1374
▁forvingen	-10.1375
▁laste	-10.1381
▁forble	-10.1388
▁lord	-10.139
▁uttale	-10.1394
▁filosof	-10.1405
▁char	-10.1408
▁tilhøre	-10.141
▁meta	-10.1415
vingen	-10.1421
▁bell	-10.1422
▁bånd	-10.1422
▁bud	-10.1422
▁samfunn	-10.1423
prinsipp	-10.1424
bring	-10.1425
▁praksis	-10.1425
▁asteroide	-10.1425
▁league	-10.1425
▁bidro	-10.1426
▁gustav	-10.1426
▁mongol	-10.1426
▁brøt	-10.1426
▁litterær	-10.1427
▁bronsemedalje	-10.1427
▁tidspunkt	-10.1427
▁1931	-10.1427
▁1908	-10.1427
▁saint	-10.1429
▁erfaring	-10.143
byrå	-10.143
▁varierer	-10.1431
kryss	-10.1433
▁nærheten	-10.1435
eksamen	-10.1436
94	-10.1442
▁enkle	-10.1443
▁oversettelse	-10.1449
ory	-10.1455
▁blanding	-10.1456
vannet	-10.1462
handel	-10.147
▁sikte	-10.1471
▁loven	-10.1482
element	-10.1484
▁euro	-10.1488
▁insekter	-10.1492
metode	-10.1493
▁34	-10.1496
hof	-10.1497
▁stemmer	-10.1498
▁frihet	-10.1506
▁jobb	-10.1509
ordning	-10.151
▁dukke	-10.1516
▁møter	-10.1518
▁unngå	-10.1524
▁struktur	-10.1525
orp	-10.1533
▁levert	-10.1536
skij	-10.1551
pho	-10.1553
▁bou	-10.1554
▁niels	-10.1557
serien	-10.1566
91	-10.1568
jord	-10.1574
▁administrere	-10.1575
▁friedrich	-10.1575
▁alkohol	-10.1575
▁hensikt	-10.1575
▁blues	-10.1575
▁doktorgrad	-10.1575
▁faktisk	-10.1575
▁kveld	-10.1576
▁myndighetene	-10.1576
▁operatør	-10.1577
▁stillingen	-10.1577
▁1925	-10.1577
politikk	-10.1579
▁debut	-10.1581
forsker	-10.1581
▁hitler	-10.1584
▁aksje	-10.1584
▁bygda	-10.1587
▁malm	-10.1596
▁politiet	-10.1598
▁tårn	-10.1598
▁hve	-10.1599
døgn	-10.1603
▁ekte	-10.1603
▁diplomat	-10.1605
▁underlagt	-10.1611
kjent	-10.162
▁75	-10.1621
▁hul	-10.1623
▁konkurranse	-10.1628
ico	-10.1634
basert	-10.1643
departement	-10.1653
▁wei	-10.1661
▁alfa	-10.1667
▁elever	-10.1672
oth	-10.168
000	-10.1682
dem	-10.1683
regn	-10.1688
▁qua	-10.1699
▁dio	-10.17
▁svi	-10.1703
cal	-10.1704
▁kenn	-10.1707
▁drap	-10.1708
▁boy	-10.1712
sending	-10.1715
øvrig	-10.1722
▁konkurrere	-10.1726
▁tilknytning	-10.1726
▁ludvig	-10.1726
▁tilhenger	-10.1726
stråling	-10.1727
▁strak	-10.1727
▁1929	-10.1728
▁1911	-10.1728
slått	-10.1728
▁modellen	-10.1729
▁sølvmedalje	-10.1729
effekt	-10.1729
▁krysser	-10.173
▁bord	-10.1738
▁sim	-10.1738
▁sammenligne	-10.1738
øvelse	-10.1738
▁utnytte	-10.1742
hild	-10.175
▁kapp	-10.1752
▁vinne	-10.1754
bygget	-10.1754
▁svar	-10.1754
▁levde	-10.1755
▁cru	-10.1756
spis	-10.1771
▁emil	-10.1779
søn	-10.1793
fjellene	-10.1797
▁cho	-10.1799
formede	-10.1799
▁fløy	-10.18
▁utstyrt	-10.1805
▁dømt	-10.1806
▁vinteren	-10.1807
▁anton	-10.1807
▁verd	-10.1817
▁sær	-10.1819
▁kai	-10.1821
ulf	-10.1824
▁glass	-10.1824
komiteen	-10.1829
▁vill	-10.1853
livet	-10.1859
▁sco	-10.1859
▁hil	-10.1861
▁skinn	-10.1866
▁slave	-10.1876
▁selge	-10.1879
wald	-10.1879
▁initiativ	-10.188
▁oppmerksomhet	-10.188
▁pakistan	-10.188
▁invasjon	-10.1881
plattform	-10.1881
▁cra	-10.1882
bånd	-10.1884
▁philip	-10.1885
▁turneringen	-10.1888
▁latinsk	-10.1892
▁nyere	-10.1904
▁oppnådd	-10.1905
▁sea	-10.191
▁bryte	-10.1915
▁akseptert	-10.1921
▁ansett	-10.1922
▁skaper	-10.1934
▁tann	-10.1941
▁vg	-10.1943
▁utvikle	-10.1943
▁salme	-10.1945
▁buk	-10.1945
▁måten	-10.1951
▁fotograf	-10.1953
▁unn	-10.1954
▁drag	-10.1954
▁ingeniør	-10.1958
▁cur	-10.1961
▁score	-10.1964
▁bakkroppen	-10.1969
skipet	-10.1973
▁orient	-10.1974
hopp	-10.1979
▁fett	-10.1981
▁hammer	-10.1983
drakt	-10.1987
▁hastighet	-10.1994
kontor	-10.2004
▁wood	-10.2006
▁regional	-10.2018
▁departementet	-10.2027
▁nordre	-10.2028
▁ligne	-10.2032
▁jakob	-10.2036
▁begrenset	-10.2037
▁belgisk	-10.2037
▁fysisk	-10.2037
på	-10.2037
artilleri	-10.2037
▁edward	-10.2037
▁friidrett	-10.2039
▁bakvingen	-10.204
produkt	-10.2041
▁scott	-10.2042
produsent	-10.2043
▁fan	-10.2045
▁1500	-10.2053
▁tekster	-10.2064
▁knap	-10.2065
▁arrangement	-10.2074
dyktig	-10.2082
22	-10.2086
▁fotballklubb	-10.2089
▁nedre	-10.209
▁utløp	-10.2093
▁inntekt	-10.21
▁benytter	-10.2106
▁nav	-10.2112
▁institut	-10.2114
▁låten	-10.2119
▁lyn	-10.2121
▁prosessen	-10.2129
▁planter	-10.2131
tag	-10.2133
▁funn	-10.2144
▁800	-10.215
▁medisin	-10.2152
▁sunn	-10.2156
▁trond	-10.2161
ado	-10.2168
▁utvikler	-10.2176
folket	-10.2184
▁drei	-10.2188
▁produksjonen	-10.2189
▁digital	-10.2195
▁allierte	-10.2195
▁dollar	-10.2195
▁forkortet	-10.2196
▁1934	-10.2197
▁wolf	-10.2198
mønster	-10.2198
▁france	-10.2199
▁konstant	-10.2199
▁øvrige	-10.2199
▁formula	-10.22
▁automat	-10.2201
▁jobber	-10.2201
nntatt	-10.2202
▁bærer	-10.2206
▁petter	-10.2208
trukket	-10.2209
▁vogn	-10.2216
▁gold	-10.2226
krig	-10.2231
▁ansvarlig	-10.2237
dikt	-10.2239
rill	-10.224
▁sikker	-10.2241
▁river	-10.2252
▁bygninger	-10.2258
▁dokument	-10.2262
▁troms	-10.2263
skriften	-10.2271
serie	-10.2274
▁demokratisk	-10.2289
▁ray	-10.2295
▁vingene	-10.2298
ordnet	-10.2302
▁motstander	-10.2302
▁starten	-10.2303
▁bach	-10.2318
▁arkeolog	-10.233
finn	-10.2336
gass	-10.234
▁skiftet	-10.2341
traktaten	-10.2356
▁nominert	-10.2356
▁strategi	-10.2356
▁ekstrem	-10.2356
pedagog	-10.2357
▁spredt	-10.2357
▁multi	-10.2357
▁oblast	-10.2357
▁signert	-10.236
givelse	-10.2362
▁dvs	-10.2363
▁dol	-10.2368
▁hjerne	-10.2372
▁1000	-10.2373
▁whi	-10.2374
datter	-10.2374
▁tverr	-10.2375
▁mynt	-10.2381
▁preg	-10.2384
▁forholdet	-10.2385
arbeidet	-10.2391
sikkerhet	-10.2398
skilt	-10.2399
gods	-10.24
egnet	-10.2402
lid	-10.2404
▁fjellene	-10.2408
▁grunnlegge	-10.2411
spinner	-10.2415
syre	-10.242
▁iso	-10.242
▁anim	-10.2439
▁tim	-10.244
än	-10.2442
▁hon	-10.2449
▁bratt	-10.2455
▁bilder	-10.247
0	-10.2471
▁ost	-10.2475
misjon	-10.248
masse	-10.2482
▁tam	-10.2494
vang	-10.2494
▁rulle	-10.2506
▁oppnå	-10.251
hø	-10.2514
board	-10.2515
▁petr	-10.2515
tekst	-10.2517
▁pul	-10.2519
▁guvernør	-10.252
▁akershus	-10.252
▁sigurd	-10.252
▁belgia	-10.252
▁nikola	-10.252
vandring	-10.2521
▁godkjent	-10.2522
▁telemark	-10.2522
▁sørge	-10.2522
▁1943	-10.2523
▁avtalen	-10.2525
▁søndag	-10.2526
rettigheter	-10.2527
▁generasjon	-10.2532
▁reaksjon	-10.2533
strøk	-10.2539
▁simon	-10.255
▁angel	-10.2557
▁cand	-10.2558
▁minister	-10.2558
▁foreningen	-10.2571
▁gaten	-10.2572
▁tilfelle	-10.258
▁bære	-10.2586
▁parken	-10.2588
versjon	-10.2588
▁38	-10.2594
▁torg	-10.26
botn	-10.2601
▁bakken	-10.2603
▁junior	-10.2604
▁schw	-10.2604
havn	-10.2606
▁long	-10.2609
▁tradisjonel	-10.2609
▁liga	-10.2614
▁beskrivelse	-10.262
▁ansvaret	-10.2622
liste	-10.2623
▁opphold	-10.2633
hard	-10.2645
▁dekket	-10.2663
vakt	-10.2672
vard	-10.2678
chan	-10.2685
▁christopher	-10.2687
▁positiv	-10.2687
▁antarktis	-10.2687
▁kombinert	-10.2687
▁bodø	-10.2687
▁debutalbum	-10.2687
▁studioalbum	-10.2687
▁anklage	-10.2689
▁reserve	-10.2689
▁1916	-10.2689
▁drammen	-10.2689
▁arkiv	-10.2691
▁sikkerhets	-10.2692
▁studere	-10.2695
▁portrett	-10.2697
nnspilling	-10.2697
▁vokalist	-10.2698
▁planen	-10.2703
▁kanalen	-10.2705
▁korps	-10.2706
modell	-10.2709
▁tredjeplass	-10.2711
karriere	-10.2716
▁avtale	-10.2718
nummer	-10.272
▁demningen	-10.272
▁utbygging	-10.2722
▁fortalt	-10.2727
▁brygge	-10.273
vogn	-10.2732
29	-10.2733
▁sven	-10.2734
▁tun	-10.274
▁visse	-10.2741
▁vindu	-10.2742
▁feng	-10.2749
▁comp	-10.2763
▁kåret	-10.2765
▁roger	-10.2767
tind	-10.2769
▁praktisk	-10.2771
▁motsatt	-10.2772
▁beskrev	-10.2783
▁santa	-10.2785
illa	-10.2786
▁myk	-10.2799
▁prosjektet	-10.2816
▁anse	-10.282
dommer	-10.2842
▁din	-10.2842
26	-10.2844
▁dokumenter	-10.285
▁grei	-10.2851
administrasjon	-10.2852
▁konsept	-10.2856
▁skulptur	-10.2856
▁østerriksk	-10.2856
▁nøyaktig	-10.2856
▁resulter	-10.2856
▁fenomen	-10.2857
▁definert	-10.2857
▁definere	-10.2858
▁programleder	-10.2859
▁strekningen	-10.286
kapital	-10.286
▁skaffe	-10.2861
ania	-10.2862
kompani	-10.2863
kampanje	-10.2865
▁1895	-10.2873
▁show	-10.2874
rock	-10.2874
▁with	-10.2884
▁styrte	-10.2892
▁morgen	-10.2897
▁chang	-10.2901
▁stam	-10.2911
▁klokken	-10.2931
verdi	-10.2939
kommisjon	-10.294
▁idrettslag	-10.2947
33	-10.2948
▁hjul	-10.2957
▁skall	-10.2958
▁trær	-10.2958
norsk	-10.2958
▁utstyr	-10.297
grensen	-10.2973
▁synlig	-10.299
▁39	-10.3
hagen	-10.3002
▁sveitsisk	-10.3012
▁ferd	-10.3014
prest	-10.3022
▁australsk	-10.3029
▁science	-10.3029
▁kritiker	-10.3029
▁rogaland	-10.3029
▁riktig	-10.303
▁fjernsyn	-10.3031
▁sykkel	-10.3033
▁antatt	-10.3048
skrive	-10.3048
▁befinne	-10.305
▁munk	-10.3051
akademi	-10.3054
▁kval	-10.3055
▁great	-10.3057
vitsj	-10.3058
▁interesser	-10.3066
▁kino	-10.3069
▁boka	-10.3075
▁beregne	-10.3082
▁vor	-10.3083
▁overleve	-10.3084
▁herman	-10.3099
gruve	-10.3103
bevegelsen	-10.3103
ferdig	-10.3105
▁house	-10.3113
▁løfte	-10.312
▁kandidat	-10.3138
▁sideelv	-10.3139
ledd	-10.3143
▁700	-10.3168
▁opplag	-10.3177
▁1905	-10.3204
▁middelsstor	-10.3204
▁verdensrekord	-10.3204
▁artikkel	-10.3204
▁hendelser	-10.3204
▁arthur	-10.3204
▁golf	-10.3204
▁redusere	-10.3205
▁naturreservat	-10.3205
▁1921	-10.3207
▁luther	-10.321
registre	-10.3212
▁programmer	-10.3213
▁håndverk	-10.3217
▁kulturell	-10.3221
sey	-10.3229
album	-10.3229
▁kommunal	-10.3233
▁from	-10.3237
▁sørover	-10.3248
▁cel	-10.3255
▁øverst	-10.328
odo	-10.3285
▁bevegelsen	-10.3286
▁størst	-10.3286
▁klosteret	-10.3302
▁tilfeller	-10.332
formasjon	-10.3321
samband	-10.3322
▁medisinsk	-10.3325
▁pap	-10.3328
▁celle	-10.3361
skill	-10.3366
▁evne	-10.337
itch	-10.3374
▁barcelona	-10.3383
▁forhindre	-10.3383
▁symptom	-10.3383
▁washington	-10.3383
ström	-10.3383
▁global	-10.3383
▁hordaland	-10.3383
▁vesentlig	-10.3383
▁company	-10.3383
▁kristiansand	-10.3383
▁evangeli	-10.3383
▁einar	-10.3385
▁vannkraftverk	-10.3387
▁drikke	-10.3387
▁tilstand	-10.3389
▁vente	-10.3396
▁avlede	-10.3398
bebyggelse	-10.34
▁mei	-10.3403
▁armé	-10.3406
▁enorm	-10.3406
▁steve	-10.341
▁drives	-10.341
instrument	-10.3413
materiale	-10.3413
▁sist	-10.342
▁liber	-10.3424
▁gymnas	-10.3431
▁gress	-10.3441
tjenesten	-10.3442
fattet	-10.3448
▁oppstår	-10.3449
▁kommun	-10.3452
▁konstruksjon	-10.3462
trådte	-10.3464
▁typen	-10.347
▁fulgt	-10.347
▁larve	-10.3471
▁wu	-10.3477
▁hum	-10.3503
▁ulik	-10.3512
▁synes	-10.3516
▁coll	-10.3519
▁luc	-10.3526
▁platen	-10.3533
▁ey	-10.354
39	-10.3548
▁step	-10.3552
▁penge	-10.3557
▁bakke	-10.356
▁advokat	-10.3565
▁american	-10.3565
▁individ	-10.3565
▁1902	-10.3565
▁kommersiell	-10.3565
▁utmerkelse	-10.3565
▁sprint	-10.3565
▁group	-10.3568
trener	-10.3571
▁spin	-10.3571
▁vig	-10.3581
▁kjøl	-10.3581
▁fritt	-10.3582
▁bull	-10.3583
▁rosa	-10.3587
▁svein	-10.3587
▁dahl	-10.3591
▁morten	-10.3602
idrett	-10.3603
måte	-10.3608
▁kommunikasjon	-10.3608
wick	-10.3616
▁karakteristisk	-10.3625
▁170	-10.3635
cheng	-10.3639
awa	-10.3641
stokk	-10.3642
utvalg	-10.365
▁utsatt	-10.3654
forsvar	-10.3656
▁bio	-10.3661
listen	-10.3664
konsul	-10.3673
▁designet	-10.3677
kost	-10.3682
▁stig	-10.3685
▁penger	-10.3687
▁møll	-10.3688
▁cri	-10.3693
løft	-10.3702
▁lokaliser	-10.3717
▁kno	-10.3718
dahl	-10.3726
▁intens	-10.3749
belteasteroide	-10.375
▁arrestert	-10.375
▁infanteri	-10.375
▁sportsutøver	-10.375
▁xiàn	-10.375
▁ytterst	-10.375
frekvens	-10.375
▁grønland	-10.375
▁uvanlig	-10.375
▁mektig	-10.375
▁følelse	-10.375
▁hvile	-10.3751
▁kritisk	-10.3753
▁michel	-10.3755
▁komposisjon	-10.3756
▁eksport	-10.3759
▁130	-10.3759
distrikt	-10.3782
▁adam	-10.3782
▁samtid	-10.3786
▁walter	-10.3794
ов	-10.3818
▁fungerer	-10.3818
▁andreplass	-10.3819
▁bau	-10.3822
▁road	-10.3826
▁pil	-10.3844
▁saga	-10.3848
▁firmaet	-10.3848
politi	-10.3863
▁sara	-10.3877
▁psykolog	-10.3886
fred	-10.3891
ān	-10.3893
▁snu	-10.3894
на	-10.391
▁jim	-10.3935
▁ankom	-10.3936
▁definisjon	-10.3938
▁1907	-10.3938
admiral	-10.3938
▁tabellen	-10.3939
▁forbedre	-10.3939
▁bøkene	-10.3939
▁seinere	-10.3939
▁forårsake	-10.394
▁slank	-10.3941
▁brown	-10.3941
▁hindre	-10.3942
▁franz	-10.3946
setting	-10.3949
▁street	-10.3949
▁erklært	-10.395
▁fremført	-10.3954
▁1880	-10.3962
stråle	-10.3965
▁østover	-10.3974
▁pensjon	-10.3976
vald	-10.3977
skjær	-10.3979
direktør	-10.3979
▁statsråd	-10.3979
▁inneha	-10.3983
▁øre	-10.3995
økende	-10.3999
ikanske	-10.4
brev	-10.4003
▁esp	-10.4003
▁generell	-10.4011
fartøy	-10.4012
kongress	-10.4012
▁ønsker	-10.4022
▁rau	-10.4024
format	-10.4035
▁toll	-10.4045
▁inndel	-10.4054
▁stål	-10.4055
▁tråd	-10.4059
dam	-10.4065
▁falk	-10.4067
▁forstå	-10.4069
forsamlingen	-10.4075
▁skuespill	-10.4079
ical	-10.4093
▁thi	-10.4108
▁1200	-10.4112
▁beseiret	-10.4131
▁identifiser	-10.4131
▁ressurs	-10.4131
▁avdøde	-10.4131
konferanse	-10.4131
▁major	-10.4131
▁rektor	-10.4131
▁rykket	-10.4131
▁brigade	-10.4131
▁krysset	-10.4132
▁1926	-10.4133
▁1906	-10.4133
▁gravlagt	-10.4135
▁bevege	-10.4143
▁lake	-10.4146
▁ufor	-10.4146
stigning	-10.4149
▁1889	-10.415
soldat	-10.4163
▁gradvis	-10.4173
wood	-10.4175
korset	-10.4175
▁flytte	-10.4203
▁egyptisk	-10.4203
▁sønd	-10.4204
sosialistisk	-10.4205
▁vegg	-10.4208
▁gjennomføre	-10.421
▁vitne	-10.4214
▁polar	-10.4219
▁kyr	-10.4223
▁prakt	-10.4242
komst	-10.4261
▁kontrollere	-10.4267
▁hamar	-10.4289
▁paus	-10.429
▁pels	-10.4303
nytt	-10.4307
▁brenne	-10.4321
▁anbefal	-10.4327
▁göteborg	-10.4327
▁juridisk	-10.4327
▁anmelder	-10.4327
▁kjørt	-10.4327
▁stiftelsen	-10.4327
▁terreng	-10.4327
▁gunnar	-10.4327
rådgiver	-10.4327
▁nedenfor	-10.4328
▁sverre	-10.4329
▁elementer	-10.433
▁forvaltnings	-10.4332
▁claud	-10.4333
▁east	-10.4334
▁hensyn	-10.4335
▁kommunistisk	-10.434
▁nød	-10.4342
▁prix	-10.4344
▁humor	-10.4348
▁ark	-10.4349
▁europe	-10.4358
spreng	-10.4359
tagelse	-10.4362
▁estland	-10.4364
regjering	-10.4377
oksid	-10.4379
polis	-10.4407
olje	-10.4409
▁sæ	-10.442
yuan	-10.4475
▁tenn	-10.4477
troppen	-10.4517
prefektur	-10.4525
duksjon	-10.4525
▁1923	-10.4527
▁fjellkjede	-10.4527
▁utseende	-10.4527
▁kredit	-10.4528
▁sjette	-10.4528
▁1915	-10.4529
▁betong	-10.453
▁trenger	-10.4531
▁fullført	-10.4532
▁2018	-10.4532
▁klatre	-10.4537
▁drøm	-10.4544
▁puppe	-10.4544
▁ferge	-10.4547
▁sammenlagt	-10.4549
biller	-10.4554
flo	-10.4554
nemlig	-10.4556
▁white	-10.4565
▁statlig	-10.4576
▁handle	-10.4578
konsert	-10.458
▁grø	-10.4586
talende	-10.459
gram	-10.4592
▁søkt	-10.4593
▁sva	-10.4597
seth	-10.4618
publi	-10.4619
overflaten	-10.4635
▁håp	-10.4637
▁kjemi	-10.4637
▁beina	-10.4644
▁israelsk	-10.4644
▁verb	-10.4657
tank	-10.4666
aux	-10.4684
▁skyte	-10.4699
pumpe	-10.4722
▁redde	-10.4723
▁oppfatte	-10.4725
▁verdensmester	-10.4729
▁kår	-10.473
turbin	-10.4731
▁symfoni	-10.4731
▁1904	-10.4731
▁aleksander	-10.4731
▁kriminal	-10.4731
▁svalbard	-10.4731
▁zealand	-10.4731
▁overtatt	-10.4731
▁opptatt	-10.4731
▁overraske	-10.4731
▁rolf	-10.4732
▁naturgass	-10.4733
▁romsdal	-10.4734
▁arbeiderpartiet	-10.4734
teater	-10.4737
▁1896	-10.4751
mengden	-10.4754
▁avholdt	-10.4756
▁1890	-10.4757
▁personlighet	-10.4757
▁nerve	-10.4762
▁grunnlov	-10.4768
▁arkeologisk	-10.4777
hastighet	-10.4787
problem	-10.4787
historisk	-10.4788
representant	-10.4789
bibliotek	-10.4789
musiker	-10.4792
lignende	-10.4792
tittel	-10.4794
▁wales	-10.4813
▁mesterskap	-10.4819
gudinne	-10.4827
▁laks	-10.483
▁zu	-10.4897
▁sving	-10.4908
▁foto	-10.491
▁låtskriver	-10.4939
▁münchen	-10.4939
▁vingespenn	-10.4939
▁tyrkisk	-10.4939
▁referanse	-10.4939
▁oppstod	-10.494
▁vedtatt	-10.494
▁karbon	-10.494
▁artikler	-10.494
▁elektronisk	-10.494
▁import	-10.4941
▁datamaskin	-10.4941
▁oppløst	-10.4942
relatert	-10.4942
▁foreslått	-10.4943
stipend	-10.4943
apparat	-10.4944
▁nederlag	-10.4948
▁nobel	-10.4952
work	-10.4953
▁middelalder	-10.4956
▁1899	-10.4965
▁1870	-10.4972
▁victoria	-10.4975
▁tvang	-10.4975
alisme	-10.498
▁nevro	-10.4983
bød	-10.4984
skrevet	-10.4988
posisjon	-10.4992
▁besetning	-10.4996
light	-10.5025
▁palm	-10.5042
▁overflate	-10.5047
▁forklare	-10.5054
▁angi	-10.5059
▁gli	-10.5061
▁ordre	-10.5065
statue	-10.5066
ан	-10.5104
▁betale	-10.5121
løv	-10.5125
▁histori	-10.5126
ique	-10.5148
▁oksygen	-10.5152
▁portugisisk	-10.5152
▁sjeldne	-10.5152
▁1901	-10.5152
▁argument	-10.5152
▁innebærer	-10.5152
▁utelukke	-10.5152
▁semifinale	-10.5152
▁sachsen	-10.5152
▁etablere	-10.5152
▁adresse	-10.5153
▁tilskuer	-10.5153
▁anvende	-10.5153
▁stryk	-10.5154
▁arendal	-10.5154
buss	-10.5155
▁høst	-10.5157
▁imperi	-10.5157
sjö	-10.5161
▁pedersen	-10.5164
▁web	-10.5164
▁tolke	-10.5165
▁meldt	-10.5165
▁900	-10.5168
▁1881	-10.517
▁kristiania	-10.5171
▁talent	-10.5173
▁homo	-10.5189
▁alban	-10.5191
▁furu	-10.5195
▁tyskerne	-10.5198
▁nordsiden	-10.5207
▁indo	-10.5209
▁billed	-10.5214
▁romania	-10.5215
▁vanligste	-10.5216
▁peder	-10.5218
▁carol	-10.5225
ætt	-10.5232
▁anerkjenne	-10.5258
jøl	-10.529
▁dynasti	-10.5296
▁cover	-10.5305
isse	-10.5315
strup	-10.5318
lengde	-10.5335
politisk	-10.5353
harmoni	-10.5353
▁dverg	-10.5359
▁skifte	-10.5361
▁dru	-10.5363
forvaltning	-10.5365
▁kontinental	-10.5369
▁milliarder	-10.5369
▁territorie	-10.5369
▁komponert	-10.5369
▁regissør	-10.5369
komponent	-10.5369
▁foregår	-10.5369
▁stafett	-10.5369
▁reklame	-10.5369
▁monument	-10.537
▁fjær	-10.537
▁ørken	-10.537
▁føderal	-10.537
worth	-10.5371
▁mineral	-10.5371
▁debatt	-10.5372
▁chile	-10.5373
▁thu	-10.5374
ward	-10.5375
▁vende	-10.5377
▁onkel	-10.5379
▁manager	-10.5386
▁lykke	-10.5391
▁busk	-10.5398
▁helst	-10.5401
▁life	-10.5403
bord	-10.5405
▁kommunist	-10.5408
▁tidligst	-10.5411
▁møre	-10.5412
▁figuren	-10.5414
▁persisk	-10.5421
▁tynn	-10.5429
▁næringsliv	-10.5431
psykologi	-10.5431
▁radi	-10.5436
hjelp	-10.544
legging	-10.5442
▁georgia	-10.5443
bury	-10.5451
▁pund	-10.5454
▁raf	-10.5456
▁water	-10.547
bunn	-10.548
forekomst	-10.5491
▁urban	-10.5503
▁hop	-10.5509
pleie	-10.5515
maker	-10.5525
▁fol	-10.5545
▁victor	-10.5554
▁nevne	-10.5561
▁delstat	-10.5562
▁qi	-10.5567
ittisk	-10.5568
▁bang	-10.5578
direktoratet	-10.5592
▁elisabeth	-10.5592
▁frivillig	-10.5592
▁jomfru	-10.5592
▁kronprins	-10.5592
▁society	-10.5592
▁respekt	-10.5592
▁sammenslåing	-10.5592
▁fungerte	-10.5592
▁risiko	-10.5592
▁autoritet	-10.5592
▁hedmark	-10.5592
▁josef	-10.5592
▁presentert	-10.5592
▁innlemme	-10.5592
▁tropper	-10.5592
▁embeds	-10.5593
▁invest	-10.5593
▁antikken	-10.5593
▁konsekvens	-10.5594
▁birke	-10.5598
▁hovedkontor	-10.5598
▁tegninger	-10.56
▁eurovis	-10.5603
▁mandat	-10.5603
▁operere	-10.5606
lock	-10.5607
head	-10.5613
▁good	-10.5614
▁ombord	-10.5614
▁kommunestyre	-10.5616
▁etterpå	-10.5622
▁uavhengighet	-10.5624
jørn	-10.5626
▁utenom	-10.5629
▁bevisst	-10.5632
▁little	-10.5637
▁bestemme	-10.5642
▁seire	-10.5647
kreft	-10.5662
president	-10.5666
struktur	-10.5667
divisjon	-10.5668
katt	-10.567
▁palass	-10.567
▁konst	-10.5675
▁menneskelig	-10.5683
▁angl	-10.5684
▁andel	-10.5688
▁halvdel	-10.5692
▁mcc	-10.572
teori	-10.5721
fallende	-10.5722
▁ulv	-10.5729
dokumentar	-10.5732
▁etnisk	-10.5732
▁grim	-10.5741
▁tempel	-10.5742
▁plast	-10.5792
▁smak	-10.5803
▁disp	-10.5804
▁blind	-10.581
▁afghanistan	-10.5819
▁1903	-10.5819
▁engasjert	-10.5819
▁færøyene	-10.5819
▁vestfold	-10.5819
▁buskerud	-10.5819
▁thailand	-10.5819
▁tilsammen	-10.5819
▁hyppig	-10.5819
▁flyktet	-10.5819
▁døpt	-10.582
▁novelle	-10.582
▁oppheve	-10.582
▁kullkraftverk	-10.582
▁francisco	-10.5822
▁prinsesse	-10.5822
▁skarp	-10.5822
▁etappe	-10.5823
▁mannskapet	-10.5824
ва	-10.5825
▁down	-10.5827
▁arena	-10.5833
blå	-10.5834
▁tennis	-10.5835
▁opptrådte	-10.5838
▁schu	-10.5841
▁forenkle	-10.5845
aire	-10.5847
kamerat	-10.5863
▁derfra	-10.5863
▁teologi	-10.5863
▁variert	-10.5886
▁ligge	-10.589
▁spring	-10.5896
▁borgerkrig	-10.59
orientert	-10.5913
vassdraget	-10.5922
▁legende	-10.593
tysk	-10.5942
▁gjenstand	-10.5942
▁opprette	-10.5952
▁tykke	-10.5963
etasje	-10.5967
▁dominert	-10.5979
▁brutt	-10.5989
▁forlate	-10.5996
register	-10.6001
▁brent	-10.6026
▁forgjenger	-10.6051
▁eksemplarer	-10.6051
▁elizabeth	-10.6051
▁katedral	-10.6051
▁klassifiser	-10.6051
▁manuskript	-10.6051
▁ortodoks	-10.6051
▁shanghai	-10.6051
▁istedenfor	-10.6051
▁jørgen	-10.6052
▁kjøtt	-10.6052
▁florida	-10.6052
▁uansett	-10.6052
▁canadisk	-10.6052
▁selvmord	-10.6052
▁ålesund	-10.6052
▁kobber	-10.6052
▁contest	-10.6052
▁visepresident	-10.6053
▁opposisjon	-10.6053
▁oppfølger	-10.6053
▁bayern	-10.6054
▁markedet	-10.6054
▁kongeriket	-10.6055
▁howard	-10.6055
▁elsker	-10.6056
▁fortellingen	-10.6058
▁betalt	-10.606
▁bakterie	-10.6064
▁rav	-10.6065
▁filip	-10.6066
▁kub	-10.6066
▁forbunds	-10.6066
▁moderat	-10.6068
▁panser	-10.6075
▁1888	-10.6077
▁1860	-10.6088
▁frei	-10.6097
▁klokke	-10.6099
kledd	-10.61
▁qing	-10.6102
tavle	-10.6103
born	-10.6111
▁home	-10.6144
maleri	-10.6152
▁mitt	-10.6153
tykk	-10.6182
tårnet	-10.6191
▁afrikansk	-10.6198
sirkel	-10.6231
ç	-10.629
▁association	-10.629
▁astronomi	-10.629
▁atmosfære	-10.629
▁basketball	-10.629
▁halvparten	-10.629
▁jordskjelv	-10.629
▁konkurrert	-10.629
▁liverpool	-10.629
▁maksimal	-10.629
▁psykisk	-10.629
▁renessanse	-10.629
▁tyrkia	-10.629
▁konstruert	-10.629
▁utslipp	-10.629
▁1897	-10.629
▁abraham	-10.629
▁yrkes	-10.629
▁vilhelm	-10.629
▁british	-10.629
▁gjøvik	-10.629
▁ansikt	-10.629
grunnsstasjon	-10.629
▁lørdag	-10.629
▁valuta	-10.629
mouth	-10.629
▁beordre	-10.629
▁larvik	-10.629
▁kjernekraftverk	-10.6291
▁telefon	-10.6292
▁hovedkvarter	-10.6293
▁sjanger	-10.6295
▁monark	-10.6295
▁jackson	-10.6298
▁beslutte	-10.6299
▁donau	-10.6301
▁biologisk	-10.6302
▁sparta	-10.6314
▁rykte	-10.6316
▁johansen	-10.6338
▁server	-10.634
▁henri	-10.6353
▁lista	-10.6354
▁inneba	-10.6371
ко	-10.6372
▁voksen	-10.6376
kandidat	-10.6381
forfatter	-10.6381
▁ferje	-10.6384
hvit	-10.6391
tveit	-10.6406
▁benytte	-10.6449
ск	-10.6459
▁ønske	-10.6481
toppen	-10.6496
scene	-10.6517
▁flest	-10.6527
scar	-10.6527
▁inskripsjon	-10.6533
▁mesteparten	-10.6533
▁prøyssisk	-10.6533
▁trommeslager	-10.6533
observasjon	-10.6533
▁kommandør	-10.6533
▁tømmer	-10.6534
presentasjon	-10.6534
▁separat	-10.6534
▁testamente	-10.6534
▁utspring	-10.6534
▁gjennomsnittlig	-10.6534
kvalifisert	-10.6534
▁ungarsk	-10.6534
▁skildre	-10.6534
▁egenskaper	-10.6534
▁tropisk	-10.6536
▁stengt	-10.6538
▁folkemusikk	-10.6541
▁gullmedalje	-10.6541
▁holdning	-10.6544
▁forrige	-10.6545
▁anlagt	-10.6554
▁gjennombrudd	-10.6555
▁piano	-10.6556
▁1878	-10.6558
▁jonas	-10.6559
runde	-10.6563
▁kupp	-10.6573
▁heart	-10.6573
▁who	-10.6601
▁blandet	-10.662
økonomi	-10.6632
▁million	-10.6636
bryter	-10.6637
▁oversette	-10.6637
▁usikker	-10.6681
skyting	-10.6695
▁lyng	-10.6708
▁hull	-10.6709
▁nova	-10.6739
▁kamera	-10.6746
▁innerst	-10.6747
▁jurist	-10.6749
▁utvide	-10.6775
pningsseremonien	-10.6783
▁angelsaksisk	-10.6783
▁returnert	-10.6783
▁heinrich	-10.6783
▁landkreis	-10.6783
▁negativ	-10.6784
▁antyder	-10.6784
▁hendelsen	-10.6784
▁ordinær	-10.6784
▁hebraisk	-10.6784
▁haakon	-10.6784
▁hjelm	-10.6784
▁kvadrat	-10.6784
▁kostnad	-10.6784
▁andré	-10.6784
forsikring	-10.6785
▁grevskapet	-10.6786
▁opplevd	-10.6786
▁skøyte	-10.679
▁tjue	-10.679
▁norway	-10.6791
flat	-10.6792
▁1300	-10.6801
▁fossil	-10.6801
føtt	-10.6801
▁bedriften	-10.6803
▁1894	-10.6804
▁patent	-10.6804
▁metro	-10.6807
▁ektemann	-10.6819
▁betjene	-10.6819
vervet	-10.683
▁utvidelse	-10.6848
▁vennskap	-10.685
styring	-10.6852
utenriksminister	-10.6882
institusjon	-10.6888
▁luci	-10.6893
vatn	-10.6894
▁forvente	-10.6908
trær	-10.6954
kirch	-10.6984
drive	-10.6986
▁argentina	-10.704
▁brødrene	-10.704
▁kompetanse	-10.704
▁lillehammer	-10.704
▁millimeter	-10.704
▁nøkkel	-10.704
▁okkupasjon	-10.704
▁chicago	-10.704
▁molekyl	-10.704
▁portugal	-10.704
▁ukraina	-10.704
▁flaggbærer	-10.704
▁innbyggerne	-10.704
▁embets	-10.704
▁komplett	-10.704
ifikasjon	-10.704
▁amatør	-10.704
▁erstatning	-10.7041
▁gerhard	-10.7041
▁røtter	-10.7042
▁frogn	-10.7042
▁forklaring	-10.7042
▁divers	-10.7043
▁investering	-10.7045
▁senator	-10.7051
▁benevn	-10.7053
▁skuespillerinne	-10.7053
▁vandre	-10.7053
▁innspillingen	-10.7055
▁ibsen	-10.7059
▁1891	-10.7061
▁spyd	-10.7066
▁hamburg	-10.7068
▁sukker	-10.707
▁oppleve	-10.7072
▁normann	-10.7073
▁titan	-10.7078
▁akku	-10.7082
utgave	-10.7084
▁europavei	-10.7091
▁allmenn	-10.7091
▁utøve	-10.7101
▁sjakk	-10.7119
▁kirk	-10.7136
▁verksted	-10.7147
▁musikal	-10.7151
tradisjon	-10.7152
teknologi	-10.7153
▁cuba	-10.7174
▁hou	-10.7183
▁motorvei	-10.7204
▁tjenestegjor	-10.7234
▁aftenposten	-10.7303
▁avslørt	-10.7303
▁omdøpt	-10.7303
▁vedlikehold	-10.7303
▁windows	-10.7303
▁operativsystem	-10.7303
▁stridsvogn	-10.7303
▁invitert	-10.7303
▁taiwan	-10.7303
▁ovenfor	-10.7303
▁texas	-10.7303
▁preussen	-10.7303
▁forsvant	-10.7303
▁eksisterer	-10.7303
▁mekanisk	-10.7303
▁margaret	-10.7303
▁serbisk	-10.7304
▁elleve	-10.7304
▁etasjer	-10.7305
▁fortellinger	-10.7305
▁disney	-10.7306
▁konservative	-10.7306
▁angripe	-10.7307
▁poesi	-10.7308
hemme	-10.7309
▁frp	-10.7312
▁deltatt	-10.7314
▁wilson	-10.7314
▁kreert	-10.7315
▁forsterke	-10.7318
▁tjener	-10.7318
▁skrå	-10.7323
▁omdanne	-10.7325
▁kaffe	-10.7326
arafa	-10.733
amerikansk	-10.734
▁agent	-10.7341
betaling	-10.7362
▁dramatisk	-10.7385
▁republikk	-10.7388
▁tallrik	-10.7391
veps	-10.7396
tårn	-10.7407
utvikle	-10.7422
funksjon	-10.7422
bølge	-10.7425
prøve	-10.7425
premie	-10.7427
▁kirkegård	-10.7448
▁evig	-10.7455
støtte	-10.7478
▁frakte	-10.7487
vall	-10.7493
▁slange	-10.7542
▁klage	-10.7559
festival	-10.756
aften	-10.7564
▁rab	-10.7567
▁colombia	-10.7573
▁etiopia	-10.7573
▁ferdinand	-10.7573
▁football	-10.7573
▁shakespeare	-10.7573
▁ukrainsk	-10.7573
▁undergrunnsbane	-10.7573
▁øyeblikk	-10.7573
▁utbredelse	-10.7573
▁1892	-10.7573
▁dekkvingene	-10.7573
▁adolf	-10.7573
veksling	-10.7573
▁kommentar	-10.7573
▁alexandr	-10.7574
▁beslektet	-10.7574
▁vilkår	-10.7574
▁für	-10.7574
▁hjørne	-10.7575
mekanisme	-10.7575
▁overlevd	-10.7575
▁gregor	-10.7576
▁dominerende	-10.7576
▁biografi	-10.7576
▁midlertidig	-10.7579
▁bydistrikt	-10.758
▁britene	-10.7581
▁lidelse	-10.7582
▁avansert	-10.7588
▁identisk	-10.7591
▁opplevelse	-10.7592
▁young	-10.7599
▁svekke	-10.7599
▁foster	-10.7601
▁oval	-10.7605
brenning	-10.7654
historiker	-10.7699
hjul	-10.77
blokk	-10.7702
kjerne	-10.7706
▁utarbeide	-10.7708
▁kvit	-10.7717
▁pont	-10.7721
▁romantisk	-10.7741
▁fusjon	-10.7777
▁kollektiv	-10.782
▁skru	-10.784
▁francis	-10.7848
fortelling	-10.7848
▁fakultet	-10.7851
▁færøysk	-10.7851
▁observert	-10.7851
▁restaurant	-10.7851
▁satellitt	-10.7851
▁terningkast	-10.7851
▁tønsberg	-10.7851
kommanderende	-10.7851
▁manchester	-10.7851
▁østfold	-10.7851
▁diskusjon	-10.7851
▁permanent	-10.7851
▁lyktes	-10.7851
▁parallelt	-10.7851
▁aspekt	-10.7851
▁statsborger	-10.7851
▁castle	-10.7851
▁fiolin	-10.7851
▁central	-10.7852
▁utfordre	-10.7853
▁stefan	-10.7853
▁erobring	-10.7853
▁olaf	-10.7854
▁fuktig	-10.7854
▁alpene	-10.7856
▁rednings	-10.7859
▁tvunge	-10.786
▁ødela	-10.7864
▁bjerk	-10.7875
▁beskyttelse	-10.7892
▁drepe	-10.7892
▁jernbanestasjon	-10.7896
▁nazi	-10.7909
▁domkirke	-10.7915
▁prim	-10.792
ekspert	-10.7947
▁forståelse	-10.7957
behandling	-10.7979
kontrakt	-10.7985
aktivitet	-10.7991
utstyr	-10.8016
▁hjemmebane	-10.8064
avisen	-10.8071
▁hytte	-10.8095
▁amsterdam	-10.8137
▁bulgaria	-10.8137
▁illustrert	-10.8137
▁progressiv	-10.8137
▁sparebank	-10.8137
▁könig	-10.8137
▁pseudo	-10.8137
▁fantasy	-10.8137
▁dagbladet	-10.8137
▁deutsche	-10.8137
▁fiktiv	-10.8137
▁senior	-10.8137
▁fangst	-10.8138
opplysninger	-10.8138
▁theodor	-10.8138
▁opprettelsen	-10.8138
▁massiv	-10.8138
▁pastor	-10.8139
▁grønt	-10.8139
▁ambassadør	-10.814
▁regelmessig	-10.814
▁gjenopprette	-10.814
▁rettssak	-10.8141
▁profet	-10.8141
▁antonio	-10.8143
▁slippe	-10.8145
ault	-10.8146
▁diesel	-10.8147
▁boeing	-10.8148
▁misjons	-10.8148
▁genetisk	-10.8148
schaft	-10.8156
▁skygge	-10.8158
▁rifle	-10.8161
▁kontrollert	-10.8206
▁ankomst	-10.8223
▁demokrati	-10.8259
institutt	-10.8279
grønn	-10.8279
størrelse	-10.8279
transport	-10.8279
dømt	-10.8283
måne	-10.8283
inndeling	-10.832
▁strek	-10.8322
▁representere	-10.8323
▁fungere	-10.8328
▁oppstå	-10.8351
▁avslutte	-10.8361
▁presis	-10.8366
▁bulgarsk	-10.8431
▁country	-10.8431
▁dirigent	-10.8431
▁eksperimenter	-10.8431
▁eventuelt	-10.8431
▁grün	-10.8431
▁intelligen	-10.8431
▁köln	-10.8431
▁nøytral	-10.8431
▁patriark	-10.8431
▁styrmann	-10.8431
▁vurdert	-10.8431
▁frigjøring	-10.8431
▁innvandre	-10.8431
▁medvirket	-10.8431
▁tillatelse	-10.8431
▁langvarig	-10.8431
▁betydningsfull	-10.8431
▁barnebarn	-10.8431
▁charlie	-10.8431
høvding	-10.8431
▁seoul	-10.8431
▁innledet	-10.8431
▁trengte	-10.8432
▁fjordane	-10.8432
▁samlealbum	-10.8432
▁oberst	-10.8433
ови	-10.8433
▁sydney	-10.8434
▁metoder	-10.8434
▁generalsekretær	-10.8435
▁nyhets	-10.8435
▁døtre	-10.8436
ор	-10.8436
▁donald	-10.8436
▁smelte	-10.8437
▁tibet	-10.8437
▁brother	-10.8437
kollen	-10.8438
▁langrenn	-10.8439
▁kristin	-10.8439
syklus	-10.845
▁søyle	-10.8452
sprang	-10.849
▁ungdomsskole	-10.8491
▁hylle	-10.8524
▁erobre	-10.8549
jalp	-10.8561
▁familiegrupp	-10.8565
ingeniør	-10.8582
orkester	-10.8582
spørsmål	-10.8582
preget	-10.8587
kryp	-10.8625
▁olympi	-10.8625
palasset	-10.8629
▁ideologi	-10.8695
kjører	-10.87
▁psyko	-10.8733
▁antwerpen	-10.8734
▁bataljon	-10.8734
▁helsingfors	-10.8734
▁kommandant	-10.8734
▁leipzig	-10.8734
▁rekrutter	-10.8734
▁rudolf	-10.8734
▁tsjekkisk	-10.8734
▁vladimir	-10.8734
▁invadert	-10.8734
▁jacque	-10.8734
▁vertikal	-10.8734
▁etterkommere	-10.8734
▁church	-10.8734
▁eidsvoll	-10.8734
▁nicola	-10.8734
▁zhang	-10.8734
▁begravet	-10.8734
▁tønne	-10.8734
▁etablering	-10.8734
teatret	-10.8734
▁skjult	-10.8735
▁bønder	-10.8735
▁utforming	-10.8735
▁tverrbånd	-10.8735
▁pianist	-10.8735
kjøring	-10.8735
▁efter	-10.8735
▁dvd	-10.8735
▁forkortelse	-10.8735
▁gråbrun	-10.8736
▁referert	-10.8737
▁sannhet	-10.8737
▁flytende	-10.8737
▁turbiner	-10.8738
▁meyer	-10.8738
▁programvare	-10.8739
terapi	-10.8741
▁variasjon	-10.8749
vesenet	-10.8752
▁ddr	-10.8761
▁undervist	-10.8774
▁bønn	-10.8787
bevegelse	-10.8803
kontroll	-10.8895
redaksjon	-10.89
bukten	-10.8998
▁fundament	-10.9046
▁kristoffer	-10.9046
▁annonsert	-10.9046
▁columbia	-10.9046
▁françois	-10.9046
▁generalmajor	-10.9046
▁guatemala	-10.9046
▁hongkong	-10.9046
▁individuelle	-10.9046
▁interessant	-10.9046
▁jerusalem	-10.9046
▁nedbryt	-10.9046
▁sluppet	-10.9046
▁sosialdemokrat	-10.9046
▁alminnelig	-10.9046
▁indikerer	-10.9046
▁offensiv	-10.9046
▁vurdere	-10.9046
▁angivelig	-10.9046
▁yngste	-10.9046
▁jesuitt	-10.9046
köping	-10.9047
▁opphørte	-10.9047
▁forkropp	-10.9047
▁frimurer	-10.9047
▁bærum	-10.9047
▁avhandling	-10.9047
▁stemte	-10.9047
▁forandring	-10.9047
▁kjøretøy	-10.9047
▁fantasi	-10.9047
▁kristus	-10.9047
▁hjort	-10.9047
▁varierende	-10.9048
▁social	-10.9048
▁gratis	-10.9048
▁planlegging	-10.9049
▁forlatt	-10.9049
seminar	-10.905
metriske	-10.9051
▁røyk	-10.9053
▁pierre	-10.9053
tolkning	-10.9053
▁spurt	-10.9056
svarte	-10.9084
▁manuel	-10.91
▁magnetisk	-10.9128
temperatur	-10.9217
europeisk	-10.9217
likevel	-10.9218
bragt	-10.9278
▁konkurrent	-10.9369
▁bryllup	-10.9369
▁matematikk	-10.9369
▁muslimske	-10.9369
▁popularitet	-10.9369
▁prøvde	-10.9369
▁selvbiografi	-10.9369
▁tilstrekkelig	-10.9369
▁virginia	-10.9369
▁ytterkant	-10.9369
▁primitiv	-10.9369
▁systematikk	-10.9369
▁business	-10.9369
▁kontrast	-10.9369
▁firenze	-10.9369
▁frilufts	-10.9369
leverandør	-10.9369
▁http	-10.9369
▁tilbrakt	-10.9369
▁regulere	-10.937
▁noensinne	-10.937
▁skikkelse	-10.937
▁beskjed	-10.937
▁monroe	-10.9371
▁allianse	-10.9371
▁barokk	-10.9371
▁year	-10.9373
skildring	-10.9373
▁facto	-10.9373
▁bbc	-10.9375
▁western	-10.9375
▁metoden	-10.938
▁alex	-10.9397
▁söd	-10.94
nathan	-10.9404
▁valgdelta	-10.9408
▁begynne	-10.9427
spektr	-10.9446
grund	-10.9499
kjemper	-10.9501
tempelet	-10.9505
resultat	-10.955
lønn	-10.9571
konservativ	-10.9698
▁cambridge	-10.9702
▁frankfurt	-10.9702
▁jugoslavia	-10.9702
▁legendarisk	-10.9702
▁matematiker	-10.9702
▁oppfunnet	-10.9702
▁forfremme	-10.9702
▁mangfold	-10.9702
▁minoritet	-10.9702
▁oxford	-10.9702
▁teoretisk	-10.9702
▁kjønnsmod	-10.9702
infeksjon	-10.9702
▁katalog	-10.9702
vurdering	-10.9702
▁gjald	-10.9703
▁heavy	-10.9703
▁jersey	-10.9703
▁gjennomgår	-10.9703
▁avviklet	-10.9703
▁kristelig	-10.9703
▁utsikt	-10.9703
▁kritisert	-10.9703
▁vakre	-10.9703
▁originaltittel	-10.9703
▁søsken	-10.9704
▁vegetasjon	-10.9704
▁drivstoff	-10.9704
▁uefa	-10.9705
▁moore	-10.9707
▁tillatt	-10.9708
▁tørke	-10.9711
▁syklist	-10.9718
▁tsar	-10.9719
▁avskjed	-10.9736
ière	-10.9741
▁bakkropp	-10.9849
▁vassdrag	-10.9892
▁minutt	-10.9893
▁insekt	-10.9893
konstruksjon	-10.9895
offiser	-10.9895
sentrum	-10.9897
house	-10.9913
▁bøye	-10.9915
fabrik	-10.9961
▁firma	-10.9975
▁fasettøyne	-11.0047
▁hollywood	-11.0047
▁ludwig	-11.0047
▁observato	-11.0047
▁propaganda	-11.0047
▁påbegynt	-11.0047
▁tsjekkoslovakia	-11.0047
▁gabriel	-11.0047
▁afghansk	-11.0047
▁matematisk	-11.0047
▁1861	-11.0047
▁midtøsten	-11.0047
kirurgi	-11.0047
▁haugesund	-11.0047
▁eksistens	-11.0047
▁spredning	-11.0047
▁henrettet	-11.0047
▁protestantisk	-11.0047
▁avskaffe	-11.0048
▁færre	-11.0048
▁bmw	-11.0048
▁utpekt	-11.0048
▁kjøpmann	-11.0048
▁micro	-11.0048
▁serbia	-11.0048
▁underholdning	-11.0048
▁dybde	-11.0048
▁soldatene	-11.0049
terminal	-11.0049
▁innvalgt	-11.0049
▁kjennetegne	-11.0049
▁campbell	-11.0049
▁universal	-11.0049
▁rakett	-11.005
▁fienden	-11.0051
▁potter	-11.0053
▁utløst	-11.0055
reglene	-11.0059
▁tildeling	-11.0064
▁smitte	-11.0064
kobling	-11.0072
▁nederst	-11.0077
hydr	-11.0117
omsorg	-11.0129
muligheter	-11.0166
hvelv	-11.0186
frukt	-11.0251
studier	-11.0253
provins	-11.0254
lokale	-11.0302
▁aksept	-11.0309
komite	-11.0344
▁ambassad	-11.04
▁absolutt	-11.0404
▁academy	-11.0404
▁britannia	-11.0404
▁bysantinsk	-11.0404
▁distribusjon	-11.0404
▁integrert	-11.0404
▁kapittel	-11.0404
▁musikkvideo	-11.0404
▁pronotum	-11.0404
▁varaordfører	-11.0404
▁evolusjon	-11.0404
▁innendørs	-11.0404
▁napoleon	-11.0404
▁seremoni	-11.0404
▁uttrykt	-11.0404
▁apotek	-11.0404
▁babylon	-11.0404
▁muslimer	-11.0404
▁identitet	-11.0404
▁1873	-11.0404
▁svovel	-11.0404
▁charlotte	-11.0404
▁bolivia	-11.0405
bransjen	-11.0405
▁oppgradert	-11.0405
▁madrid	-11.0405
▁syssel	-11.0405
▁aktuell	-11.0405
▁corneli	-11.0405
▁wessel	-11.0405
▁særskilt	-11.0405
▁christensen	-11.0406
▁embete	-11.0406
syndrom	-11.0406
▁nymfe	-11.0406
eksisterende	-11.0406
▁vinterleke	-11.0406
ст	-11.0407
▁immun	-11.0408
▁relasjon	-11.0408
▁fraksjon	-11.0423
vokter	-11.044
flyvning	-11.0484
kvarter	-11.0517
fellesskap	-11.056
gruppa	-11.0613
biskop	-11.0624
finalen	-11.0624
166	-11.0732
inspektør	-11.0775
▁corporation	-11.0775
▁filippinene	-11.0775
▁kjøkken	-11.0775
▁konstitusjon	-11.0775
▁narkotika	-11.0775
▁newcastle	-11.0775
▁rasmussen	-11.0775
▁reservoar	-11.0775
▁salvador	-11.0775
▁aluminium	-11.0775
▁bachelor	-11.0775
▁hønefoss	-11.0775
▁sylinder	-11.0775
▁ensemble	-11.0775
▁ferskvann	-11.0775
▁forveksle	-11.0775
▁heidelberg	-11.0775
▁hypotese	-11.0775
▁bystatus	-11.0775
▁libanon	-11.0775
▁robinson	-11.0775
▁taylor	-11.0775
▁interiør	-11.0775
▁latvia	-11.0775
▁halvorsen	-11.0775
▁perfekt	-11.0775
▁landskamper	-11.0775
konvensjonen	-11.0775
▁snorre	-11.0775
▁bøndene	-11.0775
▁ntnu	-11.0775
▁rumensk	-11.0775
▁hovedpersonen	-11.0775
▁organisere	-11.0776
▁konsernet	-11.0776
monopol	-11.0776
▁walisisk	-11.0776
▁nepal	-11.0777
▁mount	-11.0777
▁titler	-11.0777
▁dekorert	-11.0777
▁navnedag	-11.0781
▁skrekk	-11.0785
▁øvelsen	-11.0786
▁særeg	-11.0801
konsern	-11.0806
▁barnehage	-11.0814
▁lunge	-11.0832
kvinne	-11.088
▁begynt	-11.088
▁bearbeide	-11.0911
spesialist	-11.0948
kvalitet	-11.1007
inntekt	-11.1008
medlemmene	-11.1008
sentral	-11.101
kjennelse	-11.1074
▁inspirasjon	-11.1153
▁argentinsk	-11.1159
▁assosiert	-11.1159
▁douglas	-11.1159
▁infrastruktur	-11.1159
▁kontinuerlig	-11.1159
▁lincoln	-11.1159
▁microsoft	-11.1159
▁okkupert	-11.1159
▁publikasjon	-11.1159
▁republikaner	-11.1159
▁republikansk	-11.1159
▁sarpsborg	-11.1159
▁skandinavisk	-11.1159
▁spesifikk	-11.1159
▁uruguay	-11.1159
▁jubileum	-11.1159
▁koalisjon	-11.1159
▁leopold	-11.1159
▁respons	-11.1159
▁hockey	-11.1159
▁hospital	-11.1159
▁opprettholde	-11.1159
▁venezia	-11.1159
▁fysikk	-11.1159
▁litauen	-11.1159
▁sjøforsvaret	-11.1159
▁support	-11.1159
▁meksikansk	-11.1159
▁gustaf	-11.1159
▁linux	-11.1159
▁foredrag	-11.1159
▁rockeband	-11.1159
▁dublin	-11.1159
▁prince	-11.1159
▁selevk	-11.116
▁moderniser	-11.116
▁grekerne	-11.116
▁lovgive	-11.116
▁bjørg	-11.116
▁finansiell	-11.116
▁skjøt	-11.1161
▁again	-11.1162
rettighetene	-11.1163
▁samuel	-11.1164
▁nkp	-11.1164
▁regjere	-11.1165
vík	-11.1165
▁axel	-11.1167
▁keltisk	-11.1167
▁isolert	-11.1168
▁mannsnavn	-11.1169
▁presentere	-11.117
metabol	-11.1177
▁stedsnavn	-11.1179
▁planlegge	-11.1185
gripe	-11.121
▁veitunnel	-11.1242
▁kenya	-11.1245
▁sovjet	-11.1386
medisin	-11.1407
redaktør	-11.1407
arkitekt	-11.1408
befolkningen	-11.1408
basseng	-11.1411
radio	-11.1442
asiatisk	-11.1443
▁ivareta	-11.1491
sekvens	-11.1556
skrittspartiet	-11.1559
▁ammunisjon	-11.1559
▁demonstrasjon	-11.1559
▁epigynet	-11.1559
▁forvandling	-11.1559
▁langrennsløper	-11.1559
▁novgorod	-11.1559
▁omstendighet	-11.1559
▁oppnevnt	-11.1559
▁orchestra	-11.1559
▁pedipalpene	-11.1559
▁sekretariat	-11.1559
▁venezuela	-11.1559
▁gælisk	-11.1559
▁plutselig	-11.1559
▁mislykke	-11.1559
▁sichuan	-11.1559
▁elektrisitet	-11.1559
▁1853	-11.1559
▁sivilisasjon	-11.1559
▁stortingsvalge	-11.1559
▁dramatiker	-11.1559
▁steinkjer	-11.156
▁ritual	-11.156
▁nelson	-11.156
▁begravelse	-11.156
▁parallell	-11.156
▁konsesjon	-11.156
▁patriot	-11.156
▁kreativ	-11.156
▁lewis	-11.156
▁munch	-11.156
▁innflytelsesrik	-11.1561
▁revisjon	-11.1561
▁kalender	-11.1562
▁umulig	-11.1562
▁blomstre	-11.1565
▁verdslig	-11.1566
reservat	-11.1567
▁mystisk	-11.1571
▁streike	-11.1573
revolusjonen	-11.1574
▁kunngjor	-11.1594
▁ballade	-11.1598
▁bekjempe	-11.1672
▁offisiell	-11.1696
vennlig	-11.174
edderkopper	-11.1774
▁doktor	-11.1975
▁privilegi	-11.1976
▁beliggenhet	-11.1976
▁ekspansjon	-11.1976
▁elektromagnet	-11.1976
▁fiendtlige	-11.1976
▁fremtredende	-11.1976
▁inklusiv	-11.1976
▁katastrofe	-11.1976
▁keramikk	-11.1976
▁kontroversiell	-11.1976
▁korrupsjon	-11.1976
▁palestina	-11.1976
▁substantiv	-11.1976
▁terrengsyklist	-11.1976
▁uppsala	-11.1976
▁anonym	-11.1976
▁genitalie	-11.1976
▁intervju	-11.1976
▁keyboard	-11.1976
lovgivning	-11.1976
▁garnison	-11.1976
▁indonesia	-11.1976
▁statistikk	-11.1976
