<unk>	0
<s>	0
</s>	0
.	-3.27908
▁i	-3.51922
e	-3.61318
s	-3.67529
▁og	-3.86831
▁	-4.10099
t	-4.19773
er	-4.24115
en	-4.24532
▁av	-4.30197
▁en	-4.51823
▁som	-4.52789
▁er	-4.58197
▁til	-4.65197
r	-4.68644
▁for	-4.71988
▁på	-4.77564
▁den	-4.93677
▁med	-4.95364
▁ble	-4.96568
▁det	-5.04737
n	-5.05283
et	-5.05612
▁var	-5.10972
▁de	-5.13742
▁han	-5.28561
▁å	-5.33554
▁fra	-5.35035
▁et	-5.48502
a	-5.53681
▁har	-5.54104
ene	-5.62382
▁at	-5.73414
ne	-5.8619
▁ved	-5.93972
i	-5.95962
▁etter	-6.0389
▁også	-6.03955
▁om	-6.04709
k	-6.05156
d	-6.1003
▁men	-6.18982
▁ut	-6.1914
o	-6.20981
te	-6.21485
▁under	-6.26983
▁seg	-6.30913
y	-6.32847
g	-6.3323
▁hadde	-6.36141
re	-6.38483
▁over	-6.38664
▁ikke	-6.38959
▁eller	-6.40367
▁da	-6.413
▁to	-6.42163
p	-6.42688
de	-6.43525
▁kan	-6.47447
m	-6.48216
f	-6.48364
▁opp	-6.50399
l	-6.54118
▁s	-6.55122
▁inn	-6.55287
▁sin	-6.59621
▁andre	-6.67191
▁mot	-6.68295
es	-6.68886
v	-6.70254
h	-6.72414
▁første	-6.7253
ing	-6.76426
▁a	-6.77366
▁hun	-6.77588
▁dette	-6.79139
▁1	-6.8044
▁be	-6.82484
▁mellom	-6.83328
in	-6.83843
▁hans	-6.84466
▁år	-6.84775
▁født	-6.85163
▁18	-6.86798
▁der	-6.87977
▁ha	-6.88931
us	-6.89824
▁f	-6.91898
al	-6.92416
c	-6.93126
b	-6.95138
u	-6.95764
▁tre	-7.00954
ende	-7.01831
an	-7.01926
▁fikk	-7.0218
▁denne	-7.02797
sk	-7.0311
▁flere	-7.04603
na	-7.05699
▁kom	-7.05926
▁hvor	-7.06388
ia	-7.08206
▁man	-7.09122
le	-7.11618
▁alle	-7.1191
▁blant	-7.12053
▁the	-7.12541
on	-7.14852
ter	-7.15146
lig	-7.15575
▁2	-7.15902
ri	-7.15932
▁sammen	-7.16143
la	-7.16242
▁nord	-7.18336
▁før	-7.2137
▁m	-7.21454
▁ligger	-7.21547
▁så	-7.21603
ta	-7.23666
▁del	-7.23768
sen	-7.24677
▁re	-7.26409
▁u	-7.27173
▁c	-7.2863
is	-7.29259
▁la	-7.29294
ar	-7.30097
j	-7.30132
z	-7.30846
for	-7.30871
▁an	-7.30928
▁mange	-7.31852
der	-7.32241
▁senere	-7.32849
▁tallet	-7.33458
▁død	-7.33799
▁her	-7.3385
▁17	-7.34331
ur	-7.34744
nde	-7.35111
land	-7.35399
▁gjennom	-7.3565
▁3	-7.35674
w	-7.36083
▁stor	-7.36162
▁ca	-7.36704
um	-7.3674
ke	-7.3747
▁mer	-7.37658
▁byen	-7.387
▁kommune	-7.38967
ra	-7.39057
▁blir	-7.39568
▁være	-7.39837
ma	-7.40246
▁d	-7.41108
▁norsk	-7.412
▁g	-7.4137
ere	-7.41446
▁ro	-7.4164
▁siden	-7.42042
iske	-7.42421
▁ny	-7.43462
▁tidligere	-7.43738
▁disse	-7.45011
▁norge	-7.45062
ch	-7.45105
▁selv	-7.45553
▁noen	-7.45558
▁sitt	-7.46124
▁annet	-7.46408
lo	-7.46546
vis	-7.47096
ens	-7.484
ske	-7.48487
▁4	-7.49609
▁5	-7.49665
▁b	-7.49991
▁sør	-7.50264
da	-7.50436
øy	-7.50487
▁al	-7.50642
os	-7.50649
ver	-7.51255
isk	-7.51268
▁of	-7.52186
▁blitt	-7.52277
ning	-7.52803
li	-7.53678
be	-7.53867
ng	-7.54773
▁se	-7.55058
ut	-7.55272
▁kjent	-7.55298
as	-7.55534
▁noe	-7.55544
▁ra	-7.55674
▁16	-7.562
ø	-7.56939
▁store	-7.57227
ner	-7.5726
ig	-7.57316
▁vi	-7.57538
it	-7.5834
▁k	-7.5862
▁kr	-7.59287
ck	-7.59318
▁samme	-7.60166
il	-7.60312
▁vært	-7.60464
▁land	-7.60717
ff	-7.60987
▁15	-7.61041
x	-7.61296
▁rundt	-7.62299
▁ta	-7.63393
si	-7.64155
at	-7.64164
dal	-7.64566
▁p	-7.64737
or	-7.64882
▁sa	-7.65048
▁kunne	-7.65614
kk	-7.65798
▁tid	-7.66579
ist	-7.66982
▁sine	-7.67693
▁ned	-7.68117
▁10	-7.68171
▁ol	-7.6821
bo	-7.6835
ro	-7.68631
ste	-7.68774
▁vest	-7.68838
▁t	-7.6892
é	-7.69032
▁frem	-7.69052
mer	-7.69062
▁l	-7.69195
▁gikk	-7.69389
▁dag	-7.69527
▁grunn	-7.69745
ul	-7.69878
ge	-7.69918
▁h	-7.70009
skulle	-7.70072
▁lag	-7.70339
ry	-7.70511
el	-7.70598
nes	-7.70806
▁li	-7.7109
▁vant	-7.7171
▁mens	-7.71721
▁by	-7.72844
▁ga	-7.72905
▁pi	-7.73277
ga	-7.73509
▁øst	-7.7363
▁mest	-7.73664
den	-7.73808
▁båd	-7.74046
lige	-7.74153
▁enn	-7.74358
th	-7.74426
▁vil	-7.74432
ol	-7.74591
id	-7.75483
▁st	-7.7556
▁bo	-7.75572
me	-7.76267
▁le	-7.7686
▁kon	-7.77564
tt	-7.77814
▁km	-7.77956
mo	-7.77994
▁o	-7.78236
ær	-7.78912
▁ka	-7.78986
▁navnet	-7.79008
ad	-7.79062
▁tilbake	-7.7922
ton	-7.79225
▁bli	-7.79583
ør	-7.79818
▁12	-7.8013
ka	-7.80165
▁hoved	-7.80209
▁ham	-7.80231
▁6	-7.80319
ba	-7.80517
▁oslo	-7.80736
erne	-7.81297
▁fram	-7.81323
▁nye	-7.817
▁mo	-7.81758
▁nå	-7.81773
▁ofte	-7.81777
je	-7.82092
▁navn	-7.82541
▁innen	-7.82548
di	-7.82622
sa	-7.83271
▁si	-7.83283
▁bare	-7.83335
▁ba	-7.83378
ger	-7.83613
man	-7.8365
▁norske	-7.84374
ic	-7.84497
▁mars	-7.84995
gi	-7.85005
å	-7.85008
un	-7.85016
stad	-7.85146
▁7	-7.85167
ker	-7.85754
▁8	-7.86315
nd	-7.86531
▁mai	-7.86564
▁finnes	-7.86788
ce	-7.87229
son	-7.87611
▁di	-7.87724
▁august	-7.87847
▁skal	-7.88064
ll	-7.88297
ik	-7.88621
▁co	-7.88656
▁slik	-7.88914
▁fire	-7.88988
gang	-7.8917
▁tok	-7.89306
erte	-7.89482
vi	-7.89794
▁sp	-7.89813
ve	-7.90774
ell	-7.90828
▁ni	-7.91007
var	-7.91027
▁meter	-7.9158
▁januar	-7.91618
sjon	-7.91946
to	-7.9208
mi	-7.92283
▁usa	-7.92396
▁du	-7.92978
▁pa	-7.93397
▁største	-7.93661
▁ar	-7.93726
▁ti	-7.94489
▁he	-7.94626
▁hele	-7.94776
▁gang	-7.94977
by	-7.95005
ang	-7.9521
▁v	-7.95414
▁ho	-7.95421
ler	-7.95676
▁9	-7.96132
▁få	-7.96882
om	-7.96912
▁n	-7.97055
▁mar	-7.97149
het	-7.97319
▁14	-7.97486
▁000	-7.97532
▁dem	-7.97849
▁samt	-7.97962
ling	-7.98337
▁juni	-7.98858
▁lang	-7.99145
som	-7.9958
▁per	-7.99879
ja	-8.00166
▁11	-8.00706
ert	-8.0079
▁går	-8.01411
▁kalt	-8.0169
co	-8.01809
▁gi	-8.02087
▁juli	-8.0212
▁bu	-8.02274
ment	-8.02492
▁fri	-8.02572
▁me	-8.02653
skap	-8.0308
else	-8.03336
▁hos	-8.03481
▁mål	-8.03825
▁mor	-8.03876
▁su	-8.03928
▁bi	-8.04289
▁bak	-8.04559
▁rekke	-8.04788
▁når	-8.04871
▁ri	-8.05415
▁siste	-8.05685
▁tro	-8.06128
▁området	-8.06207
▁september	-8.07326
▁pro	-8.07699
ven	-8.07898
ikk	-8.08009
ant	-8.08034
ingen	-8.08039
▁landet	-8.08315
ster	-8.08649
▁as	-8.0906
del	-8.09161
va	-8.09538
asjon	-8.0974
▁begynte	-8.10065
▁igjen	-8.10104
▁laget	-8.10488
▁fa	-8.10895
▁2008	-8.10913
▁deltok	-8.10961
ti	-8.11363
ha	-8.11498
▁far	-8.1156
▁kirke	-8.11725
▁sk	-8.11768
mann	-8.11816
▁tillegg	-8.11995
gen	-8.12092
▁in	-8.12225
▁fly	-8.12508
tter	-8.12846
▁13	-8.12937
▁oktober	-8.1337
▁ma	-8.13999
▁20	-8.14342
ed	-8.14473
pe	-8.14487
bi	-8.15133
▁2010	-8.15264
▁vanlig	-8.15594
▁musikk	-8.15688
▁eks	-8.16015
▁2007	-8.16539
▁februar	-8.16749
opp	-8.16823
▁j	-8.16945
mp	-8.17034
sted	-8.17393
▁uten	-8.17648
▁ko	-8.17743
▁først	-8.17802
▁skole	-8.17852
▁utgitt	-8.17904
ks	-8.17974
▁mindre	-8.18274
▁y	-8.18658
▁gjen	-8.18667
▁satt	-8.19052
op	-8.19104
av	-8.19609
▁spilte	-8.19648
▁po	-8.1972
pp	-8.19724
1	-8.19766
▁deres	-8.20238
▁desember	-8.20247
▁30	-8.20639
ä	-8.20819
▁april	-8.21141
▁ei	-8.21266
▁bruk	-8.21432
▁videre	-8.21811
▁na	-8.22017
do	-8.22302
▁no	-8.22831
ko	-8.22973
▁bar	-8.2299
år	-8.2308
▁vann	-8.23525
sh	-8.24372
▁pe	-8.24406
ni	-8.2489
▁døde	-8.24936
▁brukt	-8.24938
tor	-8.24966
tal	-8.25174
berg	-8.25441
▁sønn	-8.25469
gg	-8.25524
▁tv	-8.25546
▁lo	-8.25552
▁like	-8.25562
ho	-8.25564
▁do	-8.25953
▁w	-8.25972
▁eksempel	-8.26205
lu	-8.26209
▁årene	-8.26282
tak	-8.26317
bu	-8.26609
▁mi	-8.26691
▁mat	-8.26751
▁2009	-8.26925
▁and	-8.26942
▁or	-8.27078
tre	-8.27083
ir	-8.27379
men	-8.27464
▁ville	-8.27779
ier	-8.27936
▁høy	-8.28302
midlertid	-8.28352
▁kun	-8.28462
▁film	-8.28739
pa	-8.28876
ring	-8.29262
po	-8.29338
▁medlem	-8.2955
▁november	-8.29811
▁sol	-8.3012
▁lu	-8.30127
▁2006	-8.30215
▁rett	-8.30292
▁mye	-8.30296
kker	-8.30489
ans	-8.30589
▁bestå	-8.3082
rett	-8.31234
▁gjorde	-8.31248
▁par	-8.31381
▁so	-8.31437
▁helt	-8.31827
▁kong	-8.31882
rede	-8.32034
▁derfor	-8.32094
no	-8.32101
á	-8.32485
▁nær	-8.32964
▁større	-8.33138
ion	-8.33203
▁form	-8.33422
▁new	-8.33437
▁leder	-8.33503
2	-8.33608
▁fem	-8.34058
▁parti	-8.34088
▁europa	-8.34171
ok	-8.34281
go	-8.34397
ag	-8.34492
▁sam	-8.34657
im	-8.34661
▁gift	-8.34766
▁tiden	-8.34791
les	-8.34821
▁sch	-8.3484
▁spiller	-8.34841
▁0	-8.34985
▁barn	-8.35212
▁brukes	-8.3522
▁kunst	-8.35421
dd	-8.35633
▁deretter	-8.35656
itt	-8.35862
▁kina	-8.35996
▁språk	-8.36131
nt	-8.36135
▁te	-8.36333
au	-8.364
æ	-8.36675
tur	-8.36714
▁ulike	-8.36735
▁el	-8.36807
▁kultur	-8.36896
▁jo	-8.36989
▁em	-8.37148
ö	-8.37237
▁r	-8.3732
▁året	-8.3736
▁kommer	-8.37492
▁kort	-8.37793
▁forhold	-8.37834
▁politisk	-8.38111
ige	-8.38124
▁må	-8.3814
inn	-8.38217
ering	-8.38312
▁hver	-8.38357
▁beste	-8.38383
▁liv	-8.38438
ek	-8.38485
▁filmen	-8.38988
▁olympisk	-8.39427
elle	-8.39435
▁hennes	-8.39582
▁startet	-8.39587
vik	-8.39688
min	-8.39705
▁ge	-8.39843
dan	-8.39896
▁tyske	-8.40178
▁go	-8.40425
tu	-8.40447
sel	-8.40455
▁ru	-8.40657
▁kinesisk	-8.40934
ina	-8.41084
▁sverige	-8.41208
▁lov	-8.41305
▁2011	-8.41488
am	-8.41579
ca	-8.41775
▁gamle	-8.41776
und	-8.41926
art	-8.4193
▁ab	-8.41937
▁særlig	-8.4206
▁små	-8.42133
▁2005	-8.42321
▁skrevet	-8.4242
▁måtte	-8.42889
▁lå	-8.43113
▁lys	-8.43385
fa	-8.43529
▁egen	-8.43675
ran	-8.44153
▁sommer	-8.44391
od	-8.44432
▁skrev	-8.44459
▁svær	-8.44665
▁x	-8.44718
ningen	-8.44766
nk	-8.44786
▁etablert	-8.44841
stil	-8.4495
▁fleste	-8.4499
▁am	-8.45059
▁john	-8.45092
▁bok	-8.45158
▁ju	-8.45293
▁fjell	-8.45561
ft	-8.45611
▁tor	-8.45668
▁kl	-8.45706
▁tysk	-8.45816
▁vei	-8.45871
▁russisk	-8.45985
▁sett	-8.46125
▁amerikansk	-8.46149
sp	-8.46227
ings	-8.46409
▁2004	-8.46571
hold	-8.46679
▁perioden	-8.46726
▁engelsk	-8.46787
▁alt	-8.47597
▁ingen	-8.4765
ium	-8.47762
▁pu	-8.47773
ov	-8.47781
▁president	-8.47865
▁san	-8.47971
ard	-8.48013
▁ganger	-8.48256
tid	-8.48481
▁hus	-8.4852
ow	-8.48661
vo	-8.48787
verk	-8.48928
tra	-8.49136
ak	-8.49203
▁tatt	-8.49379
lin	-8.49417
ud	-8.49546
▁25	-8.49561
▁konge	-8.49569
▁plass	-8.49574
lag	-8.49733
per	-8.49996
mb	-8.50026
▁innbyggere	-8.50096
▁hel	-8.50169
over	-8.50383
▁langs	-8.50442
ie	-8.50492
mm	-8.50542
ian	-8.5066
▁begge	-8.50702
mmer	-8.50825
ns	-8.5084
sta	-8.50877
▁folke	-8.50901
▁provinsen	-8.51013
▁tyskland	-8.51181
▁hvert	-8.51209
▁øy	-8.51243
▁hen	-8.51622
ret	-8.51736
met	-8.51967
▁va	-8.52335
▁2000	-8.5246
▁norges	-8.52571
ny	-8.52776
ot	-8.52837
▁arbeidet	-8.52838
6	-8.52975
▁fast	-8.52999
lse	-8.53093
bar	-8.53301
▁plan	-8.53711
▁tra	-8.53731
ber	-8.53885
▁bil	-8.53943
▁min	-8.54102
▁tri	-8.54165
▁deler	-8.5438
stand	-8.54489
▁bra	-8.54566
▁fi	-8.54596
siden	-8.5477
▁nasjonal	-8.54901
▁amerikanske	-8.55316
kom	-8.55369
▁seks	-8.55437
io	-8.55454
▁gitt	-8.5551
yl	-8.55565
▁samtidig	-8.55645
gel	-8.55696
▁bandet	-8.55734
▁gull	-8.55884
▁england	-8.55973
▁con	-8.56014
sto	-8.5613
▁ak	-8.5619
▁albumet	-8.56314
▁z	-8.56414
▁grad	-8.56518
dag	-8.56522
▁london	-8.566
▁sted	-8.5712
▁ad	-8.57188
▁tredje	-8.57214
▁ski	-8.57575
ede	-8.57821
itet	-8.57993
ord	-8.58186
▁gud	-8.58262
▁gruppen	-8.58298
▁ki	-8.58678
▁frankrike	-8.58868
▁sentral	-8.58947
▁lever	-8.59039
▁mulig	-8.59232
vin	-8.59403
følge	-8.59407
rmed	-8.59589
▁gammel	-8.59865
▁all	-8.59927
▁klubben	-8.59986
▁gresk	-8.6037
▁løpet	-8.60384
tten	-8.60525
▁verdens	-8.60552
▁god	-8.60613
bb	-8.60627
ci	-8.60635
▁ne	-8.60717
til	-8.60869
▁sesongen	-8.60934
00	-8.61209
▁bergen	-8.61212
mar	-8.61376
▁val	-8.61646
▁gir	-8.61691
em	-8.61868
par	-8.61947
løp	-8.62036
dig	-8.6209
▁bygget	-8.62191
iser	-8.62231
tiske	-8.62252
▁millioner	-8.62357
▁fotball	-8.624
▁vel	-8.62529
lands	-8.62537
▁sjø	-8.62753
▁nytt	-8.63087
sti	-8.63107
slag	-8.63164
ku	-8.63194
ü	-8.63213
▁21	-8.63366
mon	-8.63466
▁annen	-8.63541
▁selskapet	-8.63549
val	-8.63709
he	-8.63729
if	-8.6375
ble	-8.63764
▁støtte	-8.63804
tok	-8.64544
▁ført	-8.64684
gu	-8.64697
▁fant	-8.64862
▁stedet	-8.64923
▁utviklet	-8.65384
▁bl	-8.65401
▁fred	-8.65402
elsen	-8.65455
▁grav	-8.65529
▁24	-8.65553
▁kongen	-8.65706
▁opprinnelig	-8.65717
inger	-8.65755
tan	-8.65938
elig	-8.66041
▁fylke	-8.66313
▁mann	-8.66447
▁tidlig	-8.66492
▁ja	-8.66515
tar	-8.66754
hi	-8.67091
bre	-8.67243
▁gruppe	-8.67281
▁fo	-8.67523
▁19	-8.67566
▁flyttet	-8.67746
sch	-8.67787
ong	-8.67908
▁gjern	-8.67929
▁nor	-8.68171
ys	-8.68243
est	-8.68328
▁stat	-8.6844
tte	-8.68476
▁spille	-8.68541
▁kjente	-8.68639
ley	-8.68648
▁øya	-8.6897
stat	-8.69102
▁side	-8.69203
▁serien	-8.693
í	-8.69539
▁wa	-8.70152
▁syn	-8.70191
ting	-8.70192
▁kn	-8.70206
▁viktig	-8.70335
▁krigen	-8.70947
▁ty	-8.71083
bin	-8.71089
▁sto	-8.71312
▁fordi	-8.71416
▁sendt	-8.7142
▁bety	-8.71625
ken	-8.71768
▁general	-8.71777
▁2003	-8.71785
stein	-8.71834
▁ku	-8.71853
▁spilt	-8.72039
ius	-8.72433
pi	-8.72461
ninger	-8.72506
▁ch	-8.72716
▁forfatter	-8.72733
▁midt	-8.72782
fly	-8.72902
hus	-8.72914
▁keiser	-8.72919
tri	-8.72998
▁forskjellige	-8.7301
▁hu	-8.7301
▁historie	-8.73096
lot	-8.7312
▁verden	-8.73441
▁basert	-8.73565
and	-8.73605
▁fransk	-8.73625
uk	-8.73646
▁1990	-8.73661
▁vo	-8.73743
▁pla	-8.73972
▁gu	-8.73999
▁ord	-8.74148
▁komme	-8.74232
▁innehold	-8.74431
isme	-8.74478
jen	-8.74496
▁fu	-8.74557
iv	-8.74634
▁2001	-8.74819
▁kalles	-8.74976
▁22	-8.75011
rik	-8.75361
▁meg	-8.75375
anske	-8.7545
▁verdenskrig	-8.75622
▁art	-8.75717
ator	-8.75724
▁slutten	-8.75798
sten	-8.75839
▁ur	-8.75843
▁sangen	-8.75878
ham	-8.75924
▁dikt	-8.76221
ya	-8.763
isering	-8.76469
▁tar	-8.76624
▁britiske	-8.76667
▁person	-8.76681
▁viser	-8.76983
▁farge	-8.77189
mål	-8.77279
▁23	-8.77437
bel	-8.77457
ron	-8.77493
▁luft	-8.7756
▁stein	-8.77578
▁spesielt	-8.77919
▁får	-8.77938
▁aktiv	-8.77946
▁fortsatt	-8.77984
▁dr	-8.78078
ou	-8.7836
▁tur	-8.78478
▁my	-8.78613
fi	-8.78739
▁rolle	-8.7885
▁bru	-8.78921
▁2002	-8.79131
▁fag	-8.79171
▁jord	-8.79248
▁utenfor	-8.79253
▁ste	-8.79274
kul	-8.79282
▁kv	-8.79505
▁lokal	-8.79523
▁kla	-8.79774
▁1999	-8.79927
▁hi	-8.80126
▁mag	-8.80158
▁mil	-8.80173
▁slutt	-8.80281
▁familie	-8.80313
▁egne	-8.80601
leg	-8.8066
▁danmark	-8.80736
▁godt	-8.80853
værende	-8.81159
▁sosial	-8.81308
▁spor	-8.81337
▁motor	-8.81346
jer	-8.81506
▁stort	-8.81569
▁forbindelse	-8.81627
legg	-8.81678
hu	-8.81743
▁pre	-8.81747
▁opprettet	-8.81764
▁natur	-8.81848
3	-8.81854
▁holdt	-8.81999
forening	-8.82024
fe	-8.82259
mor	-8.82329
▁hatt	-8.82732
▁offentlig	-8.82788
▁betydning	-8.8279
ab	-8.82797
▁26	-8.82827
▁gjort	-8.83014
▁bro	-8.83041
tiden	-8.83063
▁antall	-8.83066
▁gl	-8.8317
▁1980	-8.83212
ister	-8.83272
▁27	-8.83471
plan	-8.83579
▁car	-8.83616
kon	-8.83698
▁arbeid	-8.83734
▁os	-8.83844
▁1970	-8.84052
bruk	-8.84069
▁nok	-8.84082
▁vm	-8.84201
▁eneste	-8.84236
elt	-8.84407
skole	-8.84449
ung	-8.84685
stilling	-8.84796
▁delen	-8.84803
▁bygge	-8.8516
▁lite	-8.85266
let	-8.8533
dalen	-8.85405
▁lett	-8.8547
▁kommunen	-8.85473
red	-8.85606
▁skuespiller	-8.85649
form	-8.85718
▁liten	-8.86029
▁valg	-8.86035
isert	-8.86074
vel	-8.86093
▁står	-8.86093
▁halv	-8.8614
▁omkring	-8.86172
ac	-8.86198
▁medlemmer	-8.86259
kor	-8.86542
▁elven	-8.86562
▁delstaten	-8.86604
len	-8.86716
▁felles	-8.87041
▁italia	-8.87045
▁henne	-8.87103
▁sang	-8.87105
ighet	-8.87298
▁pave	-8.87347
▁gjør	-8.87442
za	-8.8747
▁ben	-8.87507
▁lange	-8.87513
far	-8.87648
▁foran	-8.87754
▁vise	-8.87778
▁christian	-8.87917
▁kirken	-8.87992
▁partiet	-8.88223
▁litt	-8.88288
▁radio	-8.88289
▁italiensk	-8.88345
▁1996	-8.8835
▁familien	-8.88445
ica	-8.88473
▁sand	-8.88524
▁personer	-8.88683
▁folk	-8.88732
wa	-8.88784
▁via	-8.88804
▁mennesker	-8.889
ving	-8.89163
borg	-8.89324
ller	-8.89331
ine	-8.89367
▁50	-8.89464
uten	-8.89529
▁arbeider	-8.89539
▁orden	-8.89565
▁datter	-8.896
▁verk	-8.89672
▁én	-8.89708
▁militær	-8.89779
ly	-8.89793
▁universitetet	-8.89802
▁funnet	-8.89854
▁franske	-8.90117
▁100	-8.90142
kal	-8.90165
▁kamp	-8.90196
vet	-8.90246
kan	-8.90257
▁karl	-8.90321
satt	-8.90409
▁stil	-8.90421
▁2012	-8.90576
kte	-8.90606
▁india	-8.90617
▁svensk	-8.90702
▁tu	-8.90763
▁28	-8.90822
iet	-8.90976
▁skog	-8.91029
▁th	-8.91084
▁stats	-8.91214
▁ter	-8.91304
▁gjøre	-8.914
du	-8.91641
▁skolen	-8.91697
▁ed	-8.91828
spill	-8.92217
ris	-8.92222
▁rom	-8.92311
▁veien	-8.92361
burg	-8.92513
fl	-8.9261
ill	-8.92723
tin	-8.92739
▁prest	-8.9311
▁bruker	-8.93137
kamp	-8.93193
▁minst	-8.93246
▁ledet	-8.93264
tz	-8.93292
fra	-8.93387
▁langt	-8.93444
stående	-8.93583
▁mark	-8.93726
my	-8.93742
▁jeg	-8.93756
▁slag	-8.93793
▁pr	-8.93801
ph	-8.93816
tisk	-8.93948
ater	-8.94046
▁paris	-8.94174
▁dagens	-8.9442
▁danne	-8.94669
dre	-8.94708
▁kar	-8.9472
ki	-8.94791
heim	-8.94814
▁hav	-8.9483
▁hol	-8.95043
▁lands	-8.95192
▁paul	-8.95419
▁full	-8.95487
▁grunnlagt	-8.95648
▁hva	-8.95703
▁lav	-8.95712
▁gav	-8.95805
ty	-8.95886
ju	-8.95952
kel	-8.95982
▁york	-8.96112
akt	-8.96241
▁moderne	-8.96292
▁br	-8.96405
▁rød	-8.96408
▁mon	-8.96501
▁storbritannia	-8.96588
▁enkelte	-8.96595
landet	-8.96631
▁produsert	-8.96727
▁arbeids	-8.96766
føre	-8.96861
tion	-8.96875
dy	-8.96878
▁valgt	-8.96932
ug	-8.97057
ó	-8.97085
▁riks	-8.97159
▁kur	-8.97159
▁nett	-8.97482
▁sal	-8.97538
▁kron	-8.97542
▁russland	-8.97547
ska	-8.97578
▁fått	-8.97724
50	-8.98125
ru	-8.98159
▁fe	-8.98165
lan	-8.98218
anger	-8.9832
istisk	-8.98419
▁berg	-8.98444
▁40	-8.98522
vei	-8.98539
▁ren	-8.98825
øya	-8.98888
▁slaget	-8.98946
▁best	-8.98971
▁bor	-8.99146
▁kal	-8.99233
bud	-8.99302
▁kontroll	-8.99456
▁direkte	-8.99494
▁hjem	-8.99657
so	-8.99667
8	-8.99667
▁nesten	-8.99753
▁1992	-8.99986
figur	-9.00018
heng	-9.00098
jo	-9.00212
plass	-9.00297
▁krig	-9.00298
båt	-9.00358
▁fall	-9.00388
che	-9.00456
▁utnevnt	-9.00482
bok	-9.00713
▁ver	-9.00896
▁fin	-9.00927
zi	-9.0104
ding	-9.01245
▁åpnet	-9.01268
spiller	-9.01322
skje	-9.01327
▁havn	-9.01346
▁mel	-9.01569
▁berlin	-9.01571
▁anti	-9.01679
ien	-9.01781
▁pal	-9.02311
▁internasjonale	-9.02331
▁je	-9.02525
yd	-9.02568
▁von	-9.02598
lsen	-9.02645
▁gul	-9.02646
bygning	-9.0272
pper	-9.02741
gn	-9.02785
▁forsøk	-9.03006
▁henhold	-9.03031
skapet	-9.03099
▁afrika	-9.03224
▁ser	-9.03307
ah	-9.0351
▁båt	-9.03672
enes	-9.03688
▁bror	-9.03704
▁økonomisk	-9.03741
▁mari	-9.03826
q	-9.03843
dyr	-9.03845
▁serie	-9.03963
▁op	-9.04001
▁såkalt	-9.04023
▁gate	-9.04062
ologi	-9.04112
tall	-9.04292
▁barne	-9.04413
ach	-9.04437
▁samarbeid	-9.04458
med	-9.04476
▁knytte	-9.04533
▁1994	-9.04539
▁enkelt	-9.04556
▁hy	-9.04556
▁krigs	-9.04602
▁historisk	-9.04639
▁styre	-9.04658
▁åtte	-9.04764
▁31	-9.04892
pen	-9.04911
▁holde	-9.04932
▁angrep	-9.04986
▁ordet	-9.04987
ket	-9.05031
▁menn	-9.05052
▁lik	-9.0513
ps	-9.05236
fall	-9.0525
▁industri	-9.05327
sson	-9.05465
▁fremst	-9.05493
▁helse	-9.05531
▁2014	-9.0558
▁we	-9.05583
▁svenske	-9.05614
▁sen	-9.05732
▁hjelp	-9.05741
▁kor	-9.05898
su	-9.05943
kken	-9.05954
▁sanger	-9.06092
▁1993	-9.06101
▁universitet	-9.06109
▁meste	-9.0618
▁kj	-9.06309
▁hvis	-9.06334
heten	-9.06566
▁suksess	-9.06622
▁q	-9.06631
▁com	-9.06843
råd	-9.06886
ført	-9.06891
bil	-9.07001
▁skip	-9.07001
▁wi	-9.07032
føring	-9.0708
▁pan	-9.07169
▁følgende	-9.07212
ip	-9.07329
▁råd	-9.07336
▁regjeringen	-9.07414
mat	-9.0757
▁william	-9.07683
▁jan	-9.07758
▁viktigst	-9.07767
▁periode	-9.0785
▁ett	-9.07865
ismen	-9.07973
▁sv	-9.07975
▁tom	-9.07995
▁sc	-9.08047
▁rø	-9.0822
▁sentrum	-9.08221
▁1991	-9.08224
▁romersk	-9.08249
▁dansk	-9.08377
▁van	-9.08499
vende	-9.08548
▁handels	-9.08663
rev	-9.08744
▁omfatter	-9.08755
▁biskop	-9.08756
▁høyre	-9.0881
▁sl	-9.0882
▁reise	-9.08848
▁slekt	-9.09081
▁fortsatte	-9.09231
mel	-9.09275
▁inkludert	-9.09295
område	-9.09313
▁cha	-9.09328
▁on	-9.09397
▁regnes	-9.09453
▁band	-9.09494
▁ferdig	-9.09583
▁1997	-9.09847
▁1960	-9.09849
▁teater	-9.09874
▁organ	-9.09911
▁johan	-9.09922
banen	-9.10013
▁roman	-9.10074
ation	-9.10167
▁gå	-9.10348
mu	-9.10499
▁bal	-9.10567
kle	-9.10865
▁høyeste	-9.10934
▁eldste	-9.10935
▁aldri	-9.10945
▁borger	-9.10995
gar	-9.10998
sj	-9.11046
▁liste	-9.11182
ale	-9.11372
▁sy	-9.11502
▁nummer	-9.11547
menn	-9.11555
stasjon	-9.11604
▁brun	-9.11633
svis	-9.11638
mester	-9.11701
styre	-9.11753
han	-9.11848
dde	-9.11887
ive	-9.11887
øl	-9.11963
▁tilhører	-9.12043
▁brasil	-9.12045
▁1998	-9.1205
▁staten	-9.12057
▁slått	-9.12074
film	-9.12098
▁minne	-9.12153
cu	-9.12294
pro	-9.12306
ana	-9.1239
▁våpen	-9.12504
▁bort	-9.12554
▁1989	-9.12609
▁2013	-9.12612
dom	-9.12632
▁tildelt	-9.1265
▁dess	-9.12774
▁qu	-9.12914
lene	-9.12968
▁hal	-9.13048
▁29	-9.13083
ika	-9.13084
▁omtrent	-9.13164
▁eu	-9.13177
▁delt	-9.13242
▁fiske	-9.13366
30	-9.13618
bl	-9.13675
minister	-9.13696
▁hverandre	-9.13728
▁sta	-9.1373
▁1988	-9.13735
ons	-9.13752
▁system	-9.13987
▁likevel	-9.14014
veien	-9.14072
▁skade	-9.14092
ct	-9.14102
get	-9.14264
leder	-9.14296
▁betydelig	-9.14298
▁begynnelsen	-9.14301
▁studert	-9.14304
løs	-9.14444
▁arter	-9.14446
▁tittelen	-9.14573
▁ke	-9.1461
▁fre	-9.14976
▁ly	-9.15023
▁rock	-9.15161
▁vinter	-9.15237
▁nest	-9.15259
▁200	-9.15264
mal	-9.15315
▁eget	-9.15331
▁europeisk	-9.15576
▁park	-9.15701
bygd	-9.15763
fer	-9.15775
merke	-9.15846
▁drept	-9.16021
▁viss	-9.16025
▁benyttet	-9.16073
▁vin	-9.16088
sjef	-9.16205
7	-9.1633
ori	-9.16502
▁mm	-9.16509
▁områder	-9.16553
▁1995	-9.16611
nings	-9.16651
istiske	-9.16681
▁politiker	-9.16848
▁befolkningen	-9.16855
▁jernbane	-9.16872
▁bre	-9.16882
▁menneske	-9.16922
▁60	-9.1693
▁spe	-9.16954
▁slo	-9.1702
bro	-9.17026
sund	-9.17072
bra	-9.1716
▁regionen	-9.17288
sky	-9.17439
▁tap	-9.17469
mark	-9.17504
bane	-9.17566
▁natt	-9.17775
▁sølv	-9.17776
▁trondheim	-9.17778
▁flo	-9.17865
zo	-9.17941
nor	-9.1798
ial	-9.1815
ight	-9.18196
▁col	-9.18325
▁arm	-9.18519
▁følge	-9.18521
rus	-9.18526
laget	-9.18539
folk	-9.1857
fri	-9.18667
ds	-9.18748
▁bygd	-9.18762
▁svart	-9.18855
▁university	-9.18964
▁ten	-9.19028
40	-9.19052
▁skrift	-9.19057
hl	-9.19176
▁blå	-9.19221
▁tjeneste	-9.19255
▁kraftig	-9.19265
▁års	-9.19416
▁kraft	-9.19458
▁steder	-9.19493
omme	-9.1955
и	-9.19561
▁lærer	-9.1967
kant	-9.19742
lagt	-9.19972
▁gro	-9.20104
▁dronning	-9.20167
rid	-9.20176
inne	-9.203
▁gal	-9.20383
▁bred	-9.20397
gitt	-9.20409
vil	-9.20428
▁valgte	-9.20504
▁pri	-9.206
skip	-9.2061
▁ac	-9.20627
fjord	-9.20645
kar	-9.20648
syn	-9.20684
fjorden	-9.20747
res	-9.20839
▁tapt	-9.20874
▁bri	-9.20889
▁tegn	-9.2089
▁dannet	-9.20913
▁høyere	-9.21149
▁nordøst	-9.21379
vær	-9.21383
▁poeng	-9.21394
▁hovedsake	-9.21441
▁hø	-9.21456
▁sig	-9.21528
rom	-9.21562
ld	-9.21585
▁tross	-9.21587
▁litteratur	-9.21609
▁versjon	-9.21635
▁danske	-9.21643
lser	-9.21728
▁finne	-9.21746
▁konsert	-9.21766
▁gen	-9.21826
▁mont	-9.2189
yn	-9.21944
messig	-9.21995
▁1984	-9.22003
ino	-9.22056
▁1800	-9.22114
system	-9.22147
ille	-9.22155
selskap	-9.2224
▁lagt	-9.22375
▁finner	-9.22388
▁utvikling	-9.22425
▁rev	-9.22502
chi	-9.22512
ey	-9.2252
▁1986	-9.2262
▁erstatte	-9.22643
▁island	-9.22688
▁energi	-9.22692
▁album	-9.22741
▁sørlig	-9.22749
▁bank	-9.22833
øn	-9.22865
vern	-9.22945
asjonen	-9.22983
kla	-9.23002
sal	-9.23022
departementet	-9.23231
▁1940	-9.23249
▁1900	-9.23263
▁post	-9.23264
▁henrik	-9.23266
▁opprør	-9.23351
▁roma	-9.23579
▁område	-9.23599
▁dro	-9.23619
▁ul	-9.2367
▁lyd	-9.23672
kast	-9.23737
▁eldre	-9.23889
▁kvinne	-9.23937
ari	-9.23984
▁engelske	-9.23997
▁nu	-9.2401
▁ag	-9.24056
søk	-9.24072
▁tak	-9.2414
▁kvinner	-9.24662
king	-9.24732
we	-9.24776
liggende	-9.24778
▁peter	-9.24862
▁olje	-9.24932
▁varme	-9.24955
▁japan	-9.25017
▁sterkt	-9.25031
▁møte	-9.25148
▁turn	-9.25321
▁jon	-9.2534
fo	-9.25371
9	-9.25402
valg	-9.25519
way	-9.25578
nske	-9.25656
▁brukte	-9.2575
▁1945	-9.25762
ara	-9.25846
▁resultat	-9.2593
▁carl	-9.26012
▁finalen	-9.26149
stan	-9.26259
▁bill	-9.26272
iserte	-9.26293
ativ	-9.26318
▁para	-9.26331
▁ring	-9.26381
lis	-9.26384
▁sak	-9.26426
▁lille	-9.26504
året	-9.26787
ath	-9.26796
▁drift	-9.26815
side	-9.26825
lle	-9.26938
▁moh	-9.2696
▁dra	-9.27005
▁bedre	-9.27026
▁1950	-9.27064
ologisk	-9.27127
ice	-9.27178
▁ky	-9.27185
▁olav	-9.27202
▁500	-9.27277
setning	-9.27279
▁sm	-9.27281
pu	-9.27411
området	-9.27411
▁utgav	-9.27521
▁stjerne	-9.276
▁ci	-9.27656
▁stilling	-9.27663
▁us	-9.27681
▁miljø	-9.27729
▁dal	-9.27765
20	-9.27786
sak	-9.27944
ral	-9.27948
▁divisjon	-9.2799
▁makt	-9.28022
▁virke	-9.28087
▁thomas	-9.28344
▁voksne	-9.28344
log	-9.28355
▁1948	-9.28357
▁indre	-9.28438
byen	-9.28579
▁finland	-9.28601
▁nordlig	-9.28712
cia	-9.28738
krigen	-9.28766
▁gri	-9.28816
bert	-9.2887
aksjon	-9.28965
▁mur	-9.28982
▁professor	-9.29002
▁oppkalt	-9.29006
▁statsminister	-9.29018
▁los	-9.29019
▁kjøpt	-9.29068
▁start	-9.2914
▁len	-9.29158
▁lenger	-9.29238
▁plate	-9.29242
▁pris	-9.29288
▁mis	-9.2929
▁måte	-9.293
▁seier	-9.29329
xi	-9.29331
vann	-9.2942
▁seil	-9.29431
tro	-9.29477
sjøen	-9.29513
▁høsten	-9.29513
▁venstre	-9.29665
▁mu	-9.29666
▁møtte	-9.29677
▁linje	-9.29804
▁hjemme	-9.29894
van	-9.30006
ai	-9.30055
stra	-9.30111
▁vinge	-9.30201
▁hånd	-9.30238
▁kilometer	-9.30331
▁1987	-9.30339
▁sir	-9.30401
▁stemme	-9.30429
▁høyde	-9.30671
ich	-9.30775
gikk	-9.30835
▁bør	-9.30852
▁utvikle	-9.30894
idae	-9.30994
▁lokale	-9.31009
▁eier	-9.31039
▁cor	-9.31103
ledes	-9.31258
▁heller	-9.31321
▁dyr	-9.31374
produksjon	-9.31386
▁spesial	-9.31678
▁1981	-9.31684
▁pol	-9.31692
hr	-9.31737
områder	-9.3187
gått	-9.31877
▁west	-9.31878
▁verdi	-9.32012
skog	-9.32227
▁skjer	-9.32332
lå	-9.32334
▁stockholm	-9.32358
▁sørøst	-9.32358
▁kroppen	-9.32474
▁neste	-9.32555
▁skrive	-9.32556
så	-9.32578
ringer	-9.3264
▁samle	-9.32662
▁motstand	-9.32733
▁selskap	-9.32822
▁koloni	-9.32857
asjoner	-9.32944
▁strøm	-9.3296
▁bur	-9.32967
▁dårlig	-9.33044
▁2015	-9.33059
▁robert	-9.33109
▁ii	-9.3314
lik	-9.33215
▁vekt	-9.3322
▁sogn	-9.33377
▁mester	-9.33475
▁amerika	-9.33679
▁arrangert	-9.33732
▁standard	-9.33747
port	-9.33769
▁maria	-9.33859
▁sil	-9.33875
og	-9.33877
▁fulgte	-9.33941
▁stasjon	-9.33952
ap	-9.34011
▁vestlig	-9.34025
▁forsøkt	-9.34026
▁bruke	-9.34034
▁retning	-9.34046
jel	-9.34064
▁region	-9.34155
▁gre	-9.34202
▁ev	-9.34347
▁klar	-9.34359
▁løp	-9.34397
▁århundre	-9.34428
▁snakk	-9.34439
▁1985	-9.3444
▁1972	-9.34441
arbeid	-9.34489
las	-9.34616
samling	-9.34647
gan	-9.34676
iz	-9.34824
▁viste	-9.34858
▁ven	-9.34899
navn	-9.34908
▁bilde	-9.34939
fal	-9.34942
▁viktige	-9.34947
det	-9.34984
▁politi	-9.35094
middel	-9.35098
full	-9.35102
▁offisiell	-9.35126
▁1979	-9.35138
▁1920	-9.35145
65	-9.35154
▁delta	-9.35166
▁lei	-9.35182
▁fot	-9.35183
kje	-9.35202
▁populær	-9.35209
▁blod	-9.35256
▁ve	-9.35389
organ	-9.3549
retning	-9.35559
▁kors	-9.35609
▁svarte	-9.35646
bygg	-9.35666
tjeneste	-9.35697
ski	-9.35701
▁vold	-9.35717
olog	-9.35736
▁topp	-9.35752
▁prosent	-9.35851
givelse	-9.35854
▁legge	-9.35874
nntil	-9.35892
▁latin	-9.35907
kjenne	-9.35984
▁styrker	-9.36028
▁gården	-9.36087
▁kamper	-9.36134
▁gren	-9.36155
▁red	-9.36191
▁katolske	-9.36209
▁skipet	-9.3624
huset	-9.36335
▁slike	-9.36365
▁eid	-9.36482
lekt	-9.36511
all	-9.36689
asj	-9.36807
navnet	-9.36981
▁stiftet	-9.37113
▁blad	-9.37221
▁københavn	-9.37254
▁vanskelig	-9.37256
▁1969	-9.37266
▁hall	-9.37391
▁david	-9.37404
brudd	-9.37449
ano	-9.37459
▁vol	-9.37526
ms	-9.37719
▁boken	-9.37733
▁oppdaget	-9.37817
▁hvilke	-9.37974
▁vind	-9.37993
▁sha	-9.38012
tør	-9.38073
▁kam	-9.38085
▁xi	-9.38094
▁dy	-9.38153
▁wo	-9.38202
▁mac	-9.38225
▁britisk	-9.38243
▁ledd	-9.38392
▁gård	-9.38582
▁relativ	-9.38698
▁merke	-9.38712
▁fylkesvei	-9.38721
▁gra	-9.38787
37	-9.38799
▁sentrale	-9.38858
tårn	-9.38859
▁avdeling	-9.3886
▁martin	-9.38896
▁super	-9.38964
▁mus	-9.38977
rop	-9.39038
nyin	-9.39049
▁samling	-9.39054
▁ska	-9.39069
▁trak	-9.39085
55	-9.39132
▁syv	-9.39199
▁cup	-9.39229
the	-9.39257
▁finsk	-9.39317
▁kraftverk	-9.39331
▁ø	-9.39416
▁bronse	-9.39433
ör	-9.3946
▁grå	-9.39478
▁fil	-9.39491
▁iii	-9.39514
els	-9.39528
▁dager	-9.39567
66	-9.39684
▁sun	-9.39692
familien	-9.39697
▁transport	-9.39724
▁styrke	-9.39742
▁lære	-9.39758
ix	-9.39815
imot	-9.39862
▁tru	-9.39925
språk	-9.39991
regionen	-9.39998
▁årlig	-9.40005
ktiv	-9.40016
tyr	-9.40072
▁ære	-9.40074
▁tekst	-9.40078
▁grensen	-9.40199
cc	-9.40299
▁resten	-9.40326
▁mente	-9.40371
▁tanke	-9.40385
▁politikk	-9.40511
▁funksjon	-9.40601
▁livet	-9.40602
▁slekten	-9.4066
▁endt	-9.40724
▁militære	-9.40727
▁mulighet	-9.40742
holm	-9.40788
▁stod	-9.40848
tel	-9.40885
▁stadig	-9.40963
▁elva	-9.41138
▁tele	-9.4117
▁hopp	-9.41187
fag	-9.41217
ast	-9.41286
tiv	-9.41301
▁hæren	-9.41315
▁gar	-9.41324
▁fange	-9.41333
ple	-9.41394
▁marine	-9.41397
rad	-9.414
kter	-9.41431
▁mc	-9.41481
ferd	-9.41504
▁af	-9.41558
▁national	-9.4165
▁anders	-9.41685
▁stu	-9.41697
▁sesong	-9.41733
▁data	-9.41781
▁plassert	-9.41813
▁sky	-9.41911
▁nrk	-9.41964
mannen	-9.41996
havet	-9.42
gård	-9.4205
▁ønsket	-9.4212
abel	-9.42196
▁bolig	-9.42248
reis	-9.42319
▁trans	-9.42396
▁2016	-9.42418
▁egentlig	-9.42423
▁endret	-9.42435
▁enten	-9.4256
old	-9.42616
pol	-9.42674
▁interesse	-9.4278
lø	-9.42819
stikk	-9.42933
løse	-9.43005
skrift	-9.43032
skolen	-9.43047
▁tall	-9.43048
bygging	-9.43084
fører	-9.43119
▁kardinal	-9.4316
forbund	-9.43217
under	-9.43262
iner	-9.43269
rin	-9.43321
▁union	-9.43344
▁klasse	-9.43356
▁cla	-9.43366
styrke	-9.43546
▁regjering	-9.4366
felt	-9.43707
▁kra	-9.43716
▁uavhengig	-9.43763
▁sj	-9.43764
fin	-9.43802
▁mas	-9.43804
▁lenge	-9.43824
▁stra	-9.43826
▁fest	-9.43858
gh	-9.43882
▁type	-9.43918
▁1978	-9.43923
virkning	-9.43925
▁1964	-9.43938
▁dis	-9.43968
▁tradisjon	-9.43977
▁handling	-9.44003
▁japansk	-9.44059
▁studie	-9.44081
▁not	-9.44253
▁pass	-9.44371
▁ry	-9.4439
▁nev	-9.44481
▁karakter	-9.44483
ita	-9.44551
▁ber	-9.4457
▁krav	-9.44602
rat	-9.4464
pris	-9.44658
▁religiøs	-9.44692
▁skjedde	-9.44704
▁1968	-9.44705
eres	-9.44748
ay	-9.44753
ros	-9.4485
▁innført	-9.44903
▁athen	-9.44909
▁utført	-9.44995
▁rik	-9.45039
▁kyst	-9.45059
▁brann	-9.45079
▁syd	-9.45236
▁kunstner	-9.45264
eid	-9.45314
▁chi	-9.45366
▁sovjetunionen	-9.45467
▁1973	-9.45481
ald	-9.45497
▁bad	-9.4552
5	-9.4566
ze	-9.45738
▁opera	-9.45806
▁arten	-9.45826
▁ex	-9.4588
▁lege	-9.45901
handling	-9.45996
▁sjef	-9.46119
▁syk	-9.46202
▁befolkning	-9.46224
▁opprinnelse	-9.46249
р	-9.46249
▁tilsvarende	-9.46287
▁city	-9.46303
ola	-9.46343
▁feil	-9.46356
▁fjorden	-9.46362
rike	-9.46504
gruppen	-9.46567
▁bj	-9.46668
▁drev	-9.46699
▁posisjon	-9.46741
▁rike	-9.46796
▁opprinnelige	-9.46855
nu	-9.46865
bus	-9.46912
▁prisen	-9.46928
partiet	-9.46956
▁havet	-9.46957
▁canada	-9.47042
▁uni	-9.47043
ford	-9.47058
▁løs	-9.47082
har	-9.47126
▁gjennomført	-9.47132
▁nederlandsk	-9.47214
▁samlet	-9.47235
▁oppført	-9.47262
▁felt	-9.47269
pass	-9.47286
▁vår	-9.47301
▁ap	-9.47305
musikk	-9.47341
▁leg	-9.47351
tale	-9.47368
▁begrepet	-9.47397
rud	-9.47423
nom	-9.47449
▁hær	-9.4765
▁ledelse	-9.47668
▁midten	-9.47725
▁asia	-9.47734
▁1930	-9.47854
▁sivil	-9.47889
▁beskrive	-9.48001
▁sommeren	-9.48065
▁kol	-9.48098
▁erik	-9.48135
▁areal	-9.48242
▁lin	-9.4826
kler	-9.48293
▁plante	-9.48388
▁stø	-9.48391
▁port	-9.4841
ød	-9.48477
▁forsvar	-9.48539
▁gran	-9.48575
lev	-9.48576
▁hvit	-9.48582
organisasjon	-9.48593
▁cu	-9.4861
▁fjerde	-9.4863
▁1983	-9.48637
▁1975	-9.48639
▁lengde	-9.48655
gress	-9.48672
▁musiker	-9.48674
▁alltid	-9.48683
▁unge	-9.48687
dor	-9.48734
▁bygningen	-9.48757
▁produksjon	-9.48771
mper	-9.48817
▁johannes	-9.48838
of	-9.48876
kjø	-9.48887
▁grupper	-9.48909
utdannet	-9.48939
▁arkitekt	-9.48947
rum	-9.48969
▁skape	-9.49008
▁cent	-9.49019
▁smal	-9.49068
▁leker	-9.49134
▁utgjør	-9.49231
▁miste	-9.49288
lem	-9.49292
▁sterk	-9.49344
▁au	-9.49436
ú	-9.49436
dømme	-9.49444
▁1952	-9.49448
▁sikre	-9.49456
▁direktør	-9.49498
▁hår	-9.495
▁kost	-9.49534
zhou	-9.49561
▁produsere	-9.49619
ther	-9.49656
▁sammenheng	-9.49782
▁bjørn	-9.49785
54	-9.4986
▁påvirke	-9.50047
trekk	-9.50051
▁regn	-9.50056
▁vis	-9.50079
stid	-9.50085
ins	-9.50107
▁artene	-9.50175
▁bø	-9.50187
▁george	-9.50209
▁egypt	-9.50217
е	-9.50249
▁1982	-9.50259
hund	-9.50278
▁venn	-9.50329
▁dom	-9.50351
▁veg	-9.50376
eksjon	-9.50477
anlegg	-9.50501
38	-9.50579
▁eli	-9.50599
▁overtok	-9.50662
▁hovedstaden	-9.50722
▁het	-9.50736
▁dyp	-9.5077
skudd	-9.50816
▁totalt	-9.50827
▁gode	-9.509
49	-9.50948
vid	-9.50961
▁karriere	-9.50981
▁stille	-9.51091
▁you	-9.51095
systemet	-9.51145
▁tett	-9.51149
ringen	-9.51389
▁70	-9.51512
▁hvite	-9.51519
sette	-9.51581
ji	-9.51616
øk	-9.51696
elige	-9.5171
saker	-9.51724
70	-9.51757
vek	-9.5188
▁australia	-9.51895
folkerepublikken	-9.51905
▁1976	-9.5191
▁vokste	-9.51917
▁fotballspiller	-9.51926
kin	-9.51992
▁ban	-9.52031
48	-9.5204
vinne	-9.521
72	-9.52104
▁sørvest	-9.52213
rør	-9.52304
ansk	-9.52338
▁privat	-9.52342
▁skje	-9.52581
▁israel	-9.5261
о	-9.52723
▁ordfører	-9.52747
47	-9.52876
▁formann	-9.52884
▁180	-9.52893
fabrikk	-9.52914
▁don	-9.52977
selskapet	-9.52988
standen	-9.53083
▁skapt	-9.53141
▁mw	-9.53156
▁metall	-9.53165
satte	-9.53268
bor	-9.53271
▁museum	-9.53382
bø	-9.53398
▁fordel	-9.53416
▁folket	-9.5342
mesterskapet	-9.53453
▁alder	-9.53477
liv	-9.53481
▁lars	-9.53525
▁stykke	-9.53548
sekretær	-9.53569
▁lengre	-9.53572
▁james	-9.53573
vitenskap	-9.53626
▁kropp	-9.53669
senter	-9.53674
dekke	-9.53724
▁stift	-9.53765
fon	-9.53784
▁ph	-9.53817
▁za	-9.53861
▁klarte	-9.53924
▁sel	-9.53931
bladet	-9.53942
▁besøk	-9.53949
▁elv	-9.54008
▁jobbe	-9.54097
formet	-9.54144
heter	-9.54181
▁bane	-9.54215
▁prosess	-9.54218
▁soldater	-9.5425
nett	-9.54309
▁produkt	-9.54344
а	-9.54396
▁sju	-9.54409
▁komponist	-9.54416
▁omfattende	-9.54416
▁1974	-9.5443
▁skyld	-9.54443
▁black	-9.54459
gren	-9.54525
▁grenser	-9.54592
▁grev	-9.54659
▁kart	-9.54684
▁gutt	-9.54759
▁80	-9.5477
▁flagg	-9.54803
tis	-9.54826
▁organisasjon	-9.5489
ob	-9.54934
lett	-9.55106
korps	-9.5521
▁hundre	-9.55236
▁hertug	-9.55274
▁kontakt	-9.55277
▁1977	-9.55287
▁1947	-9.55289
rene	-9.55403
▁oppgave	-9.5541
4	-9.55431
shire	-9.55433
▁nabo	-9.55455
▁regel	-9.55472
klubb	-9.55475
fjell	-9.55551
▁sti	-9.55596
▁grand	-9.55683
lys	-9.55865
▁ordenen	-9.55877
▁dokument	-9.55911
▁can	-9.55958
39	-9.56053
ula	-9.56093
▁etterhvert	-9.56133
44	-9.56164
kunst	-9.56248
▁enhet	-9.56338
▁mal	-9.56356
▁hodet	-9.56369
▁faren	-9.56539
▁kro	-9.56584
▁økonomi	-9.56626
▁korea	-9.56718
▁tema	-9.5674
▁oppdag	-9.56775
▁lind	-9.56839
hav	-9.56867
don	-9.56891
▁aktivitet	-9.5692
▁air	-9.56924
10	-9.56974
ð	-9.57003
▁elektrisk	-9.57003
loven	-9.57067
▁variant	-9.57076
våg	-9.57093
formen	-9.57132
▁reform	-9.57133
gående	-9.57156
bilde	-9.57162
bank	-9.57224
▁tettsted	-9.57228
▁tung	-9.57283
lia	-9.57351
▁klima	-9.57385
▁preget	-9.57413
sol	-9.57414
▁naturlig	-9.57444
▁hit	-9.57605
øve	-9.57693
mmen	-9.57716
64	-9.57739
▁grense	-9.57757
sberg	-9.57874
▁trøndelag	-9.5788
▁pra	-9.57891
▁søster	-9.57909
periode	-9.57989
▁raskt	-9.58041
▁virksomhet	-9.58123
nivå	-9.58132
▁egg	-9.58308
▁jern	-9.5832
▁inne	-9.5849
▁hest	-9.58527
46	-9.58527
▁dyre	-9.58613
▁renner	-9.58705
▁fordelt	-9.58763
▁1971	-9.58774
▁1967	-9.58782
▁betegnelsen	-9.58786
34	-9.58825
▁kroner	-9.58869
eier	-9.58875
▁eiendom	-9.58996
▁kampen	-9.59105
▁ekteskap	-9.59106
▁flat	-9.59179
▁base	-9.592
▁følger	-9.59305
▁time	-9.59486
gne	-9.59521
▁cm	-9.59522
▁son	-9.59566
67	-9.5958
▁symbol	-9.59658
▁foreldre	-9.59659
▁stortinget	-9.59661
▁stavanger	-9.59668
▁bakgrunn	-9.59683
▁fremdeles	-9.59687
▁teksten	-9.59722
▁senter	-9.59729
våpen	-9.59821
▁fører	-9.59853
grense	-9.59956
▁student	-9.59964
▁ken	-9.60018
ora	-9.6002
▁effekt	-9.60091
sens	-9.60107
▁tale	-9.60151
på	-9.60203
▁distrikt	-9.60209
punkt	-9.60303
graf	-9.60339
▁nivå	-9.60431
▁profesjonell	-9.60559
▁operasjon	-9.60609
▁falt	-9.60622
rådet	-9.60634
▁bodde	-9.60635
77	-9.6064
▁bel	-9.60664
lang	-9.61025
hn	-9.61171
ben	-9.61201
tog	-9.6133
▁eg	-9.61339
▁grønn	-9.61356
▁sund	-9.61445
▁spania	-9.61469
teknikk	-9.61471
wi	-9.61507
atet	-9.61544
gram	-9.61582
ografi	-9.61627
▁real	-9.61712
▁punkt	-9.61892
▁skips	-9.61901
▁øke	-9.62042
▁stoppe	-9.62051
▁ep	-9.62075
fest	-9.6212
oc	-9.62227
▁regnet	-9.62257
42	-9.62356
fart	-9.62381
▁øvrig	-9.62385
▁informasjon	-9.62404
▁teori	-9.6243
▁festning	-9.62433
ub	-9.62467
kraft	-9.62505
▁total	-9.62581
▁she	-9.62608
▁pop	-9.62625
lov	-9.62698
▁adel	-9.62698
▁nordvest	-9.62706
▁sur	-9.62912
dagen	-9.62942
▁bind	-9.62966
up	-9.62994
▁led	-9.63001
▁runde	-9.63033
rolle	-9.63046
▁reiste	-9.6309
drag	-9.63213
▁fortsette	-9.63254
▁moder	-9.6327
que	-9.63272
etter	-9.63327
▁kat	-9.63354
▁solgt	-9.63381
grad	-9.6343
verket	-9.63501
▁lar	-9.63508
møte	-9.6361
▁anne	-9.63665
▁tusen	-9.63669
▁design	-9.63711
stedet	-9.63729
85	-9.63762
▁uttrykk	-9.63765
kjøp	-9.63784
▁dia	-9.63822
▁kanon	-9.6388
gle	-9.63903
stru	-9.63995
▁mad	-9.63999
gy	-9.64017
▁mod	-9.64061
sport	-9.64206
▁musikkalbum	-9.64267
fartøy	-9.64288
▁polen	-9.6433
▁dan	-9.64331
tegn	-9.64363
▁røde	-9.64385
▁munn	-9.64479
▁hevdet	-9.64507
▁gru	-9.64533
▁utviklingen	-9.64583
▁maskin	-9.64645
voll	-9.64742
dra	-9.64782
hal	-9.6479
ott	-9.6481
gon	-9.64815
▁størrelse	-9.64846
▁forsvars	-9.64873
99	-9.64928
▁war	-9.64951
▁øyene	-9.65126
▁fengsel	-9.65189
▁østerrike	-9.65191
▁1918	-9.65199
▁finans	-9.65276
bri	-9.65305
▁vitenskapelig	-9.65355
▁kull	-9.65394
è	-9.65614
tropp	-9.65631
▁400	-9.65701
arter	-9.65712
gruppe	-9.65758
76	-9.65787
▁åpne	-9.65876
az	-9.65878
▁lev	-9.65944
akk	-9.65982
▁bygg	-9.66
▁forskning	-9.66071
▁vunnet	-9.66141
▁lengst	-9.66158
▁1966	-9.66164
▁omtalt	-9.66168
▁hovedstad	-9.6617
▁drive	-9.66197
trykk	-9.66297
▁slott	-9.6633
▁undersøkelse	-9.66335
▁produksjons	-9.66339
ida	-9.66349
▁måneder	-9.66363
sett	-9.66367
ål	-9.66393
program	-9.66407
nis	-9.66445
▁høyt	-9.66459
hov	-9.6647
▁historien	-9.66492
▁spørsmål	-9.66502
stått	-9.66543
▁sende	-9.66583
▁90	-9.66669
▁prosjekt	-9.66776
orm	-9.66781
itz	-9.66802
▁gass	-9.66814
ban	-9.66888
aktig	-9.6697
▁løv	-9.67002
▁nærings	-9.67028
▁rang	-9.6706
▁sub	-9.67082
▁christ	-9.67087
▁kristne	-9.67104
▁richard	-9.67105
vatnet	-9.67107
magasin	-9.67117
▁bøker	-9.67132
lling	-9.67202
84	-9.67219
ato	-9.67235
▁ytre	-9.67242
lighet	-9.67254
mennene	-9.67265
skjold	-9.67317
herre	-9.67333
qui	-9.67384
▁dagen	-9.67548
▁temperatur	-9.67597
elva	-9.67637
▁femte	-9.67662
60	-9.67669
▁ball	-9.67685
▁huset	-9.67776
▁sh	-9.67791
▁vanlige	-9.67791
▁rollen	-9.68003
▁beskytte	-9.68055
▁nødvendig	-9.68074
▁klassisk	-9.68075
▁typisk	-9.68077
▁jarl	-9.68088
▁nevnt	-9.68125
▁strid	-9.68165
int	-9.68204
▁rh	-9.68229
▁shi	-9.68241
lie	-9.68257
▁fremme	-9.68293
▁tonn	-9.68305
linje	-9.68311
▁hoff	-9.68358
▁støttet	-9.68403
vesen	-9.68403
pel	-9.68569
▁leve	-9.68576
▁byer	-9.6875
▁klubb	-9.6882
▁borg	-9.68889
▁hei	-9.68924
43	-9.68937
æl	-9.69034
▁world	-9.69054
▁spredt	-9.69068
▁sommerfugl	-9.69071
▁1963	-9.69071
▁bevart	-9.69078
kirke	-9.69091
▁markeds	-9.69106
▁trykk	-9.69109
▁bern	-9.69135
▁leir	-9.69165
ull	-9.69165
▁åpen	-9.69209
▁områdene	-9.69327
ås	-9.69473
tus	-9.69491
▁mørke	-9.695
▁hor	-9.69537
▁journalist	-9.69587
haug	-9.69594
ib	-9.69613
▁irland	-9.69618
▁personlig	-9.69622
▁utdanning	-9.69676
▁offiser	-9.69724
▁kir	-9.69783
drift	-9.69813
▁jens	-9.69885
▁rute	-9.69975
ram	-9.7
▁betrakte	-9.70045
▁louis	-9.70045
▁tydelig	-9.70047
▁prøve	-9.70062
▁verne	-9.70065
senteret	-9.70127
▁odd	-9.70153
▁lø	-9.70169
visning	-9.70181
gården	-9.70368
veg	-9.70387
iteten	-9.70425
mand	-9.70428
▁hører	-9.70503
▁organisasjonen	-9.70534
▁nr	-9.70558
▁skilt	-9.70666
trolig	-9.70689
▁delvis	-9.70743
80	-9.70756
73	-9.70788
▁thor	-9.70815
▁lau	-9.70875
▁knut	-9.71019
elli	-9.71024
с	-9.71045
▁kh	-9.71049
arbeider	-9.71051
▁1946	-9.71064
▁fylkes	-9.7109
79	-9.71118
▁passer	-9.71163
▁formel	-9.71204
park	-9.71234
án	-9.7127
▁høye	-9.71283
69	-9.71367
▁dam	-9.71369
▁jakt	-9.7137
▁avisen	-9.71379
strøm	-9.71402
56	-9.71565
▁lot	-9.71577
smann	-9.71605
▁ting	-9.71646
rykket	-9.71666
▁hard	-9.71712
▁nasjonale	-9.7173
63	-9.71769
▁idretts	-9.71795
▁valget	-9.71801
▁sau	-9.71831
57	-9.71918
bas	-9.71953
økonom	-9.72025
jiang	-9.72027
▁studio	-9.7205
▁spesiell	-9.72055
▁fokus	-9.72057
▁harry	-9.7206
▁1936	-9.72066
▁1944	-9.72075
ball	-9.72221
sam	-9.72224
▁danse	-9.72319
▁cro	-9.7239
▁redaktør	-9.72403
▁samfunns	-9.72513
▁test	-9.7257
ria	-9.72773
▁debuter	-9.728
appe	-9.72815
musik	-9.72899
▁rygg	-9.7294
▁populære	-9.72954
▁vist	-9.73013
▁sø	-9.73063
▁1961	-9.73075
▁jazz	-9.73075
▁hurtig	-9.73076
▁1928	-9.73085
▁fredrik	-9.73087
▁1941	-9.73091
▁1962	-9.73091
▁1965	-9.73099
gift	-9.73221
mund	-9.73238
▁korte	-9.73272
▁ung	-9.73336
68	-9.73343
▁prins	-9.73356
▁300	-9.73404
▁inter	-9.73434
ves	-9.73551
▁forfatteren	-9.73556
▁sette	-9.73754
▁kjøpe	-9.73765
▁toppen	-9.73783
▁elev	-9.73834
▁representerte	-9.73936
løpet	-9.74077
▁atom	-9.74093
▁øvre	-9.74106
▁1939	-9.74126
▁spi	-9.74135
makt	-9.74138
▁nærheten	-9.74156
▁ukjent	-9.74164
ini	-9.7422
plassen	-9.74255
vert	-9.74281
blo	-9.74306
▁tittel	-9.74324
nik	-9.74328
▁presse	-9.74375
ani	-9.74381
▁bla	-9.7447
▁opphav	-9.74507
▁liga	-9.7454
▁ansatt	-9.7461
▁zh	-9.74687
▁flekk	-9.74748
later	-9.74798
▁utover	-9.74846
▁fro	-9.74957
▁bevegelse	-9.74976
▁stammer	-9.75044
▁selvstendig	-9.75147
▁religion	-9.75148
▁school	-9.75148
▁bokstav	-9.75149
▁nærmere	-9.75154
▁sekund	-9.75156
▁drama	-9.7516
▁altså	-9.75185
▁forsknings	-9.75262
▁frank	-9.75411
▁35	-9.75464
▁fon	-9.75523
▁likhet	-9.7553
90	-9.75562
▁endelig	-9.7562
▁regjerings	-9.75638
▁anlegget	-9.75677
▁forskjell	-9.75689
▁skatte	-9.75862
▁krets	-9.7588
▁programmet	-9.7588
innen	-9.75973
▁fla	-9.76034
sler	-9.7605
▁slave	-9.76053
åpning	-9.76106
brun	-9.76114
▁jorden	-9.76148
one	-9.7619
▁forteller	-9.76208
▁1949	-9.76222
▁streng	-9.76236
▁polsk	-9.76334
▁avhengig	-9.7635
ā	-9.76376
farge	-9.76388
▁mengde	-9.76451
▁oftest	-9.76471
prisen	-9.76506
gjort	-9.76595
▁mø	-9.7663
kkel	-9.76655
▁daglig	-9.76769
▁vitenskap	-9.76819
▁gard	-9.76862
▁trekk	-9.76863
▁poly	-9.7687
▁klart	-9.76899
▁middelalderen	-9.77084
62	-9.77102
ér	-9.77102
▁økt	-9.77115
grav	-9.77165
ick	-9.77224
▁innflytelse	-9.7726
▁inspirert	-9.77264
▁offisielt	-9.77264
▁1932	-9.77274
▁1958	-9.7728
▁1953	-9.7728
▁1956	-9.77282
▁historiker	-9.77285
▁euro	-9.77285
▁riket	-9.77316
tch	-9.77439
ritt	-9.77442
▁kongelige	-9.77467
▁kaptein	-9.77506
▁lign	-9.77543
tsj	-9.77554
ort	-9.77555
org	-9.77619
▁wal	-9.77691
▁landskapet	-9.77713
▁stand	-9.77761
historie	-9.77773
▁harald	-9.77839
lly	-9.7784
▁rot	-9.77892
gra	-9.77907
▁hud	-9.77914
▁solo	-9.78066
▁fjellet	-9.78089
▁metal	-9.78112
▁buss	-9.78144
tunnelen	-9.78151
▁00	-9.78278
▁hed	-9.78324
▁international	-9.78339
▁tilgjengelig	-9.78339
▁nærmest	-9.78341
▁melodi	-9.7835
▁1957	-9.78358
▁1955	-9.78364
dis	-9.78456
cy	-9.7849
▁kalle	-9.78523
▁mid	-9.78549
▁sve	-9.78559
▁bon	-9.78565
▁nådd	-9.78661
▁betegne	-9.78668
gata	-9.78734
▁ob	-9.78786
kop	-9.78828
▁north	-9.78857
▁nils	-9.78904
▁aust	-9.79014
▁livs	-9.79152
▁behandling	-9.79153
lek	-9.79175
▁nederland	-9.79198
41	-9.792
kos	-9.79315
klasse	-9.7936
▁primær	-9.79426
▁allierte	-9.79427
▁edvard	-9.79434
▁charles	-9.7945
ire	-9.79498
rich	-9.7952
▁brev	-9.79558
▁festival	-9.79566
øyene	-9.79733
86	-9.79773
▁ekspedisjon	-9.79801
▁sykehus	-9.79855
▁gall	-9.7986
▁app	-9.79935
▁star	-9.80018
▁mørk	-9.80039
är	-9.80123
▁program	-9.80131
▁foss	-9.80135
▁heter	-9.80155
trekning	-9.80158
35	-9.80231
▁ansatte	-9.80252
▁omtale	-9.80313
▁kg	-9.80388
midler	-9.80418
spekt	-9.8044
parti	-9.80467
▁georg	-9.80519
▁bronsemedalje	-9.80525
▁california	-9.80525
▁installert	-9.80525
▁beijing	-9.80525
▁kysten	-9.8053
▁1924	-9.80539
▁2017	-9.8055
plasser	-9.80552
▁gjelder	-9.80569
▁vinner	-9.80582
ney	-9.80665
▁holder	-9.80681
▁jesu	-9.80686
mil	-9.80766
▁sports	-9.80805
▁problemer	-9.80861
▁beskrevet	-9.80977
stoff	-9.81002
rekk	-9.81079
kommune	-9.81108
▁wh	-9.81118
▁hill	-9.81125
▁arve	-9.81189
▁stamme	-9.81201
jev	-9.81234
▁selve	-9.81309
lund	-9.81343
74	-9.81349
oli	-9.81373
▁distriktet	-9.81374
н	-9.81424
▁stasjonen	-9.81472
▁univers	-9.81625
▁fullstendig	-9.81636
▁utbredt	-9.81636
▁ytterligere	-9.81636
▁skottland	-9.81636
▁teknisk	-9.81636
▁arabisk	-9.81637
▁frederik	-9.81641
▁snart	-9.81642
▁1500	-9.817
gna	-9.81732
▁epi	-9.8174
▁45	-9.8176
ville	-9.81791
▁øverste	-9.81851
▁ram	-9.81886
▁kontor	-9.81899
▁un	-9.8215
hall	-9.82229
former	-9.82245
enberg	-9.82256
kultur	-9.82319
▁rekord	-9.8238
hel	-9.82391
▁instrument	-9.82433
grupper	-9.82501
akademi	-9.82543
virke	-9.82605
dene	-9.8263
press	-9.82684
▁ungdoms	-9.82688
▁michael	-9.8276
▁1959	-9.8276
▁norrøn	-9.8276
▁college	-9.82768
▁republikken	-9.82792
post	-9.82798
▁jordbruk	-9.82801
▁stav	-9.82804
▁auto	-9.82852
wood	-9.82951
▁nordland	-9.82956
▁trafikk	-9.82961
spor	-9.82972
▁jean	-9.83023
bær	-9.83028
▁pl	-9.83067
ish	-9.83089
▁spanske	-9.83094
▁bord	-9.83108
san	-9.83112
53	-9.83138
klo	-9.83171
▁ran	-9.83258
▁est	-9.83298
▁rose	-9.83333
▁ya	-9.83407
▁problem	-9.83514
ordenen	-9.83522
▁just	-9.83645
▁lek	-9.83648
▁salg	-9.8378
▁che	-9.83855
95	-9.83883
▁1951	-9.83896
▁etterfulgt	-9.83896
▁konflikt	-9.83896
▁generelt	-9.83897
▁ji	-9.83897
▁elve	-9.83913
▁grunnlegge	-9.83944
▁tørr	-9.8402
▁søke	-9.84037
▁sul	-9.84062
▁oppdrag	-9.84083
▁bryte	-9.84181
ios	-9.84276
bru	-9.84278
▁flyplass	-9.84283
▁bygde	-9.84291
jan	-9.84401
▁holm	-9.84533
▁besto	-9.84558
manns	-9.84568
▁bonde	-9.84614
her	-9.84631
krets	-9.84706
driv	-9.84724
feltet	-9.8478
▁sykdom	-9.84804
▁rad	-9.84873
endring	-9.84973
car	-9.84991
58	-9.84996
▁600	-9.85035
▁kategori	-9.85046
▁redusert	-9.85046
▁län	-9.85048
▁fungere	-9.85054
▁1912	-9.85058
▁wil	-9.85066
kur	-9.85067
▁lund	-9.85086
field	-9.85108
▁tids	-9.85114
▁spill	-9.85177
▁skj	-9.85191
▁kvinnelig	-9.85245
ordning	-9.85302
gjøre	-9.8538
▁myr	-9.85501
▁private	-9.85583
levende	-9.85583
▁innsats	-9.85633
▁filosofi	-9.85662
▁kontrakt	-9.85676
mur	-9.85688
maskin	-9.85729
bjørn	-9.85769
▁retts	-9.85843
fisk	-9.85861
▁tettstedet	-9.85959
▁ånd	-9.86015
▁nar	-9.86017
verdig	-9.86045
▁ungdom	-9.86077
linjen	-9.86129
в	-9.86201
▁kristen	-9.86218
▁1954	-9.86233
▁blokk	-9.86272
▁kalte	-9.86344
▁gy	-9.86348
▁kilde	-9.86365
▁produsent	-9.86417
▁hund	-9.86471
▁status	-9.86576
97	-9.86658
▁studier	-9.8672
▁styrkene	-9.8673
serien	-9.86747
▁bærer	-9.86809
▁normal	-9.8683
arbeidet	-9.86847
grunn	-9.86886
▁pat	-9.86911
delen	-9.86995
parten	-9.87069
▁hevde	-9.87104
ij	-9.87143
▁regi	-9.87181
forhold	-9.87191
л	-9.87378
▁yngre	-9.87385
▁anerkjent	-9.87386
▁1943	-9.87406
▁overgang	-9.87442
▁anna	-9.876
leir	-9.87603
▁fugle	-9.87641
blad	-9.87726
distanse	-9.87742
52	-9.87745
▁mill	-9.87804
ved	-9.87834
▁behold	-9.87838
fjellet	-9.87855
win	-9.8786
▁bol	-9.87946
▁teknologi	-9.8795
▁utstilling	-9.87967
▁nasjon	-9.88072
▁hell	-9.88097
▁larven	-9.88105
prosjekt	-9.88123
distrikt	-9.88124
▁begynner	-9.88124
front	-9.88131
åk	-9.8814
▁music	-9.88295
samisk	-9.8831
▁måned	-9.88313
▁ger	-9.88478
▁vokal	-9.88532
▁sølvmedalje	-9.88575
▁club	-9.88576
▁unntak	-9.88595
▁high	-9.88611
▁gitar	-9.88641
▁aksje	-9.88669
▁angeles	-9.88677
gjør	-9.88727
shi	-9.88732
▁utdannelse	-9.88733
▁sønnen	-9.88755
▁char	-9.88809
▁motsetning	-9.88811
▁tromsø	-9.88908
ira	-9.88985
▁horn	-9.88999
▁fotballklubb	-9.89011
gul	-9.89032
vand	-9.89103
alis	-9.89174
▁forskere	-9.89251
▁slå	-9.89281
trafikk	-9.89345
▁lyn	-9.89349
▁bidra	-9.89358
▁mak	-9.89402
▁struktur	-9.89471
▁celle	-9.89604
can	-9.89637
sfjorden	-9.897
ledning	-9.89721
▁hovedsak	-9.89741
▁150	-9.89763
▁østerriksk	-9.8978
▁oversikt	-9.89781
▁dialekt	-9.89792
▁1921	-9.89794
▁friidrett	-9.898
▁ok	-9.89807
▁fullført	-9.8981
▁blue	-9.89812
fil	-9.89825
▁veldig	-9.89847
▁jevn	-9.89851
▁konkurranse	-9.89985
▁tegnet	-9.89989
25	-9.9009
▁sterke	-9.90192
▁medlemmene	-9.9024
15	-9.90258
▁spre	-9.90485
▁bølge	-9.90509
gin	-9.9058
▁studenter	-9.90583
▁od	-9.90591
▁bestemt	-9.90708
▁materiale	-9.90728
▁vær	-9.90796
▁banen	-9.90847
▁markert	-9.90888
ón	-9.90951
à	-9.91
▁erkebiskop	-9.91
▁ishockey	-9.91
▁mexico	-9.91
▁kunnskap	-9.91001
▁royal	-9.91003
▁objekt	-9.91003
▁stadion	-9.91003
▁south	-9.91007
▁hustru	-9.91022
▁1938	-9.91025
mod	-9.91031
ild	-9.91058
▁internasjonal	-9.91095
▁økte	-9.91253
▁akt	-9.91407
marked	-9.91413
▁kommando	-9.91504
town	-9.91509
29	-9.91708
▁avsluttet	-9.91727
well	-9.91732
▁bosatt	-9.91769
▁nordisk	-9.91808
album	-9.9181
▁may	-9.91924
▁fyr	-9.91968
▁jule	-9.92017
▁utføre	-9.92023
▁spansk	-9.92041
▁konkurransen	-9.9206
▁old	-9.9208
▁enda	-9.92082
snes	-9.92162
▁bakkropp	-9.92234
▁passasjer	-9.92234
motor	-9.92241
▁invest	-9.92249
▁1919	-9.92251
band	-9.92267
▁damp	-9.92297
grep	-9.92302
▁flertall	-9.92311
▁islam	-9.92313
▁bibel	-9.92338
kirken	-9.92378
▁inkluderer	-9.92391
▁sent	-9.92439
▁morgen	-9.92454
▁internasjonalt	-9.9252
▁haug	-9.92523
▁rein	-9.92538
ugh	-9.92592
▁hellige	-9.92666
▁indisk	-9.92677
▁sort	-9.92725
▁minutter	-9.92746
▁win	-9.9281
▁zo	-9.92837
▁ref	-9.93094
hode	-9.93097
▁vä	-9.93229
kjent	-9.9325
▁benyttes	-9.93288
enden	-9.93311
▁virkelig	-9.93436
foss	-9.93446
▁1906	-9.93484
▁tilknytning	-9.93484
▁publisert	-9.93484
▁moskva	-9.93484
▁tempel	-9.93485
▁united	-9.93486
▁hovedrollen	-9.93486
kritiker	-9.93488
▁vannet	-9.9349
▁king	-9.93506
▁strekker	-9.93507
▁produksjonen	-9.93544
▁erklært	-9.93545
▁bosetning	-9.9357
▁song	-9.93627
▁egenskap	-9.93633
▁ube	-9.93633
▁driver	-9.93664
▁riksvei	-9.93717
komst	-9.93736
▁ari	-9.93832
▁hjelpe	-9.93842
▁løper	-9.93869
▁gangen	-9.93978
▁timer	-9.94008
fang	-9.9402
▁cap	-9.94027
▁stål	-9.94114
▁kandidat	-9.94128
bakken	-9.94158
byr	-9.94169
▁språket	-9.94275
din	-9.94286
▁hunnen	-9.94302
▁trekke	-9.94323
▁sluttet	-9.94351
▁prosjektet	-9.9439
▁tour	-9.9442
tti	-9.94463
▁listen	-9.94504
ark	-9.9475
▁1908	-9.9475
▁forekommer	-9.9475
▁publikum	-9.9475
▁dato	-9.94781
▁videregående	-9.9479
pan	-9.9482
dro	-9.94831
▁hydro	-9.9484
▁disk	-9.94875
plikt	-9.94877
▁sko	-9.94883
▁tog	-9.94953
▁organisert	-9.95049
kro	-9.95064
▁avtalen	-9.95158
▁overført	-9.9516
▁turist	-9.95171
▁representant	-9.95218
▁larvene	-9.95305
▁erobret	-9.95308
▁inntekt	-9.9533
▁administrasjons	-9.95348
▁malt	-9.95362
▁strand	-9.95371
▁kjøl	-9.95393
▁din	-9.95486
▁penger	-9.95506
retten	-9.95606
kh	-9.95676
▁fn	-9.9568
betegnelse	-9.95734
ada	-9.95758
▁salt	-9.95797
skipet	-9.95817
▁tidlige	-9.95928
▁league	-9.96032
▁kampene	-9.96033
▁kombinert	-9.96033
▁lufthavn	-9.96046
▁pensjon	-9.96078
▁py	-9.96105
høgskole	-9.96105
▁sten	-9.96113
▁show	-9.96158
▁gjenopp	-9.96165
▁undervisning	-9.96288
▁tsj	-9.96381
▁viking	-9.96446
▁maur	-9.96456
vind	-9.96459
▁østlige	-9.9646
▁verket	-9.96468
▁johann	-9.96544
▁verker	-9.96566
skiftet	-9.96599
arm	-9.96729
▁stig	-9.96742
▁utvidet	-9.96873
▁svak	-9.96891
▁dog	-9.96954
forsker	-9.96957
klubben	-9.96965
▁gam	-9.97023
uf	-9.97034
kraftverk	-9.97034
medlem	-9.97041
pla	-9.97046
▁rask	-9.97083
▁våren	-9.97112
▁kilder	-9.97144
▁whi	-9.97145
▁nan	-9.9715
▁provins	-9.972
19	-9.97204
▁nam	-9.97242
17	-9.97299
▁dobbelt	-9.97331
▁records	-9.97331
▁utgangspunkt	-9.97331
▁tilhørt	-9.97332
▁jødisk	-9.97334
▁invasjon	-9.97335
▁ridder	-9.97342
▁1904	-9.97347
▁bob	-9.97421
▁cal	-9.97423
▁lån	-9.97467
▁deltaker	-9.97468
bein	-9.97523
▁kap	-9.9758
▁systemet	-9.97602
type	-9.97648
▁por	-9.97653
▁representerer	-9.97705
▁buk	-9.97731
▁uke	-9.97751
▁skille	-9.97833
▁sider	-9.97837
▁pen	-9.97876
▁grunnla	-9.97892
går	-9.97958
▁vik	-9.97998
▁stoff	-9.98144
▁maler	-9.98175
▁fisk	-9.98215
person	-9.98225
▁motiv	-9.98257
▁tradisjonelle	-9.98273
▁sikkerhets	-9.9832
qua	-9.98376
▁selge	-9.98391
▁mun	-9.98414
▁lignende	-9.98416
chu	-9.98426
gol	-9.98448
▁sist	-9.98567
▁sovjet	-9.98585
▁arne	-9.98587
▁administrativ	-9.98647
▁cirka	-9.98647
▁ødelagt	-9.98647
kommunikasjon	-9.98648
▁liberal	-9.98648
▁premier	-9.9865
▁tolv	-9.98656
▁antenne	-9.98658
▁1937	-9.98678
▁bidro	-9.98682
svømme	-9.98708
▁kjøre	-9.98721
▁dekket	-9.98729
▁avholdt	-9.98752
▁forretnings	-9.9879
▁saken	-9.9885
pin	-9.98884
▁spiss	-9.98903
▁sær	-9.98904
▁modell	-9.98956
▁lavere	-9.98965
▁bestemte	-9.98977
▁junior	-9.99045
▁handel	-9.99075
lend	-9.99159
98	-9.99197
hag	-9.99203
▁ole	-9.9924
▁inngå	-9.99291
▁elever	-9.99296
89	-9.99391
fugl	-9.99399
turnering	-9.9945
▁nes	-9.99459
33	-9.99471
▁plassering	-9.99642
▁forsvaret	-9.9979
strand	-9.99895
▁vekst	-9.99912
▁sveits	-9.99972
▁alvorlig	-9.9998
▁kjærlighet	-9.9998
▁praksis	-9.9998
▁sistnevnte	-9.9998
▁episode	-9.99982
▁fysisk	-9.99984
▁blomster	-9.99999
▁plasser	-10.0002
▁amt	-10.0006
▁score	-10.0007
▁albert	-10.0011
05	-10.0019
▁levde	-10.0021
▁filmer	-10.0022
gard	-10.0022
▁kjell	-10.0023
▁tha	-10.0027
▁møter	-10.0032
▁magne	-10.0032
▁kil	-10.0037
▁innsjøen	-10.0037
▁insekter	-10.0039
▁parken	-10.0044
▁landsbyen	-10.0049
ance	-10.005
yang	-10.0065
09	-10.007
▁roll	-10.007
▁oversatt	-10.0072
▁stilte	-10.0072
▁ekte	-10.0076
virksomhet	-10.0105
▁pin	-10.0108
bryte	-10.0108
leng	-10.0126
▁alternativ	-10.0133
▁kombinasjon	-10.0133
▁lansert	-10.0134
▁tekster	-10.0135
▁protest	-10.0135
▁skaffe	-10.0136
04	-10.0138
▁vid	-10.0138
▁hentet	-10.0139
▁bombe	-10.0142
▁latinsk	-10.0145
▁maleri	-10.0145
▁kommunal	-10.015
▁camp	-10.0177
▁avtale	-10.0193
▁vakt	-10.0197
31	-10.0204
▁mala	-10.0207
gl	-10.0212
▁medisin	-10.0213
con	-10.0214
krig	-10.0217
▁kommunene	-10.0227
▁krysse	-10.0233
▁up	-10.0238
forbindelse	-10.0244
hjem	-10.0246
▁bevis	-10.0246
vig	-10.0249
▁rå	-10.0252
▁joseph	-10.027
▁frykt	-10.027
▁hemmelig	-10.0271
komité	-10.0271
▁butikk	-10.0272
▁referere	-10.0272
prinsipp	-10.0274
▁mytologi	-10.0274
▁bygninger	-10.0277
▁alpin	-10.0277
▁nevnes	-10.028
▁benytte	-10.0281
▁nedlagt	-10.0281
▁1000	-10.0281
▁olsen	-10.0284
▁kjerne	-10.0284
▁metode	-10.029
24	-10.0293
▁skifte	-10.0293
▁andreplass	-10.0293
tunnel	-10.0295
▁sar	-10.0303
gate	-10.0308
▁yu	-10.0309
▁river	-10.0313
▁single	-10.0319
▁spise	-10.0322
vision	-10.0329
kommisjon	-10.0333
▁anton	-10.0337
▁normalt	-10.034
gende	-10.0342
▁blei	-10.0349
▁institutt	-10.0355
▁anlegg	-10.0366
klær	-10.0368
▁arn	-10.0368
bygget	-10.0379
kapasitet	-10.0384
produsent	-10.0384
▁800	-10.0388
vendt	-10.0394
▁rand	-10.0398
blant	-10.0399
▁gjeld	-10.0404
▁original	-10.0409
▁gjennomsnitt	-10.0409
▁kontinent	-10.0409
▁brøt	-10.0409
▁magnus	-10.0409
▁faktisk	-10.0409
▁1933	-10.0411
▁oscar	-10.0411
istene	-10.0412
▁masse	-10.0412
▁ferd	-10.0413
▁hotell	-10.0413
▁overfor	-10.0417
▁tredjeplass	-10.0421
▁ekstra	-10.0424
▁behov	-10.0426
▁oppnådd	-10.043
к	-10.0433
▁politiet	-10.0441
gli	-10.0449
mus	-10.0455
fyll	-10.0459
▁romanen	-10.046
væ	-10.0466
vold	-10.047
▁front	-10.047
▁dør	-10.0471
▁dynastiet	-10.0472
75	-10.0484
▁handler	-10.0487
▁last	-10.0496
▁linjen	-10.0503
▁stol	-10.0508
88	-10.0514
▁bunn	-10.0518
▁europe	-10.0522
▁will	-10.0522
▁stemmer	-10.0527
87	-10.0532
▁pet	-10.0548
▁sportsutøver	-10.055
▁musikalsk	-10.055
▁nedbør	-10.055
▁jacob	-10.055
▁sørge	-10.0551
▁folketelling	-10.0551
▁himmel	-10.0551
▁1909	-10.0552
▁1905	-10.0552
▁endringer	-10.0553
kysten	-10.0558
▁resultatet	-10.0559
▁hellas	-10.0563
bevegelsen	-10.0574
syre	-10.0581
16	-10.0589
▁typer	-10.0591
45	-10.0592
▁domin	-10.0594
▁120	-10.0597
svik	-10.0599
alderen	-10.0609
▁kanal	-10.0613
▁fyrst	-10.0614
plate	-10.0621
▁opphold	-10.0624
▁final	-10.0637
▁bibliotek	-10.0639
low	-10.0641
▁loven	-10.0642
▁rapport	-10.0647
politikk	-10.0655
avdeling	-10.0672
født	-10.0675
styrt	-10.0678
▁forbundet	-10.068
▁poet	-10.0682
91	-10.0683
▁solgte	-10.0684
angrep	-10.0692
▁antagelig	-10.0693
▁beseiret	-10.0693
▁eksempler	-10.0693
▁guvernør	-10.0693
▁hensikt	-10.0693
▁tyrkisk	-10.0693
▁fødsel	-10.0693
▁sjelden	-10.0693
▁arrangere	-10.0693
▁antatt	-10.0693
▁vedtatt	-10.0693
▁1922	-10.0694
▁innsjø	-10.0695
▁1942	-10.0695
▁jag	-10.0711
skatt	-10.072
▁bestod	-10.0728
▁uker	-10.0731
wan	-10.0732
▁angrepet	-10.0739
deles	-10.074
▁jobb	-10.0741
▁klassen	-10.0741
▁inndel	-10.0744
82	-10.0747
▁landsby	-10.0747
▁bidrag	-10.0753
▁brenn	-10.0754
▁institusjon	-10.0771
kov	-10.0773
ual	-10.0773
▁fø	-10.0779
havn	-10.0805
▁vet	-10.0806
ping	-10.081
▁spillet	-10.0811
▁leo	-10.0812
▁straffe	-10.0816
festival	-10.0819
94	-10.0821
▁county	-10.0838
▁wilhelm	-10.0838
▁regissert	-10.0838
▁kritikk	-10.0838
och	-10.0839
▁papir	-10.0841
▁trener	-10.0842
rettigheter	-10.0843
▁gla	-10.0843
▁stabil	-10.0844
▁varierer	-10.0844
▁arkitektur	-10.0849
▁typen	-10.085
▁utgjorde	-10.0853
▁velge	-10.0863
▁føde	-10.0865
▁sørover	-10.0865
▁thi	-10.0869
▁log	-10.087
ky	-10.0879
▁gjeste	-10.088
36	-10.0881
cl	-10.0884
valget	-10.0896
▁manus	-10.0901
▁rund	-10.0913
▁imot	-10.092
▁tilbud	-10.0926
▁orkester	-10.0927
▁synes	-10.0929
▁revolusjon	-10.0941
▁besøkt	-10.0945
stro	-10.0947
▁32	-10.0968
▁dor	-10.0973
riket	-10.0981
▁1917	-10.0987
iger	-10.0987
▁skotsk	-10.0987
gav	-10.0988
strøk	-10.0988
fyr	-10.099
▁video	-10.0992
▁gitarist	-10.0993
▁lønn	-10.0994
▁flykte	-10.0997
▁adam	-10.0997
▁ark	-10.1001
▁nm	-10.1002
▁agder	-10.1003
▁effektiv	-10.1003
▁representert	-10.1009
▁vendt	-10.1013
serie	-10.1015
republikk	-10.1021
▁fjernet	-10.1025
▁underlagt	-10.1033
▁debut	-10.1033
11	-10.1034
▁starten	-10.1035
▁betale	-10.1035
▁andreas	-10.1038
▁begynne	-10.1039
▁tryg	-10.1047
ova	-10.1059
rute	-10.106
▁nav	-10.1061
▁overleve	-10.1066
▁tilfeller	-10.1069
▁begrep	-10.1079
▁sim	-10.1081
halvøya	-10.1099
▁stå	-10.1111
samfunn	-10.1122
▁gruve	-10.1133
▁initiativ	-10.1134
▁involvert	-10.1134
▁vulkan	-10.1134
▁1931	-10.1136
▁1929	-10.1136
trukket	-10.1136
▁otto	-10.1137
▁fløy	-10.1137
faktor	-10.114
▁sovjetiske	-10.1141
eksamen	-10.1144
opptatt	-10.1149
▁hind	-10.115
ux	-10.115
lam	-10.1156
slaget	-10.116
▁irak	-10.1162
▁samfunn	-10.1164
▁cho	-10.1166
▁modellen	-10.1168
feld	-10.1174
▁utstyrt	-10.1176
▁formål	-10.1182
▁spar	-10.1184
kjede	-10.119
▁statue	-10.1196
▁max	-10.1202
▁kode	-10.1218
▁parlamentet	-10.1223
eppe	-10.1226
kasse	-10.123
▁sammenligne	-10.1234
▁endre	-10.1236
åring	-10.1239
▁bit	-10.1242
rykk	-10.1247
▁skiller	-10.1249
▁utsatt	-10.1252
handler	-10.1266
▁intern	-10.1266
industrien	-10.1272
scen	-10.1272
direktør	-10.1274
nummer	-10.1285
▁eksperiment	-10.1285
▁artikkel	-10.1285
▁brensel	-10.1286
▁bispedømme	-10.1286
▁verdenscup	-10.1287
▁1914	-10.1287
▁1923	-10.1287
▁1911	-10.1287
▁signert	-10.1288
▁1910	-10.1288
▁snø	-10.1292
prest	-10.1294
gaard	-10.1299
▁reaksjon	-10.1302
▁mynt	-10.1304
eringen	-10.1305
▁ild	-10.1311
21	-10.1315
▁cre	-10.1321
▁foreningen	-10.1324
lyst	-10.1325
▁teologi	-10.1337
▁polar	-10.1344
▁formen	-10.1362
▁160	-10.1375
▁bass	-10.1376
23	-10.1379
bakke	-10.139
▁kjønn	-10.1407
▁motstander	-10.1417
▁ankom	-10.1418
utvikling	-10.143
miljø	-10.143
▁vers	-10.1438
▁1907	-10.1439
▁global	-10.1439
▁dollar	-10.1439
▁nominert	-10.1439
▁bryst	-10.144
▁rør	-10.1441
▁sverd	-10.1443
▁diplomat	-10.1444
melding	-10.1445
▁preg	-10.1447
▁oppfatte	-10.1448
skjell	-10.1449
opplysning	-10.1451
▁overflate	-10.1457
▁opptre	-10.1461
▁henry	-10.1464
▁gold	-10.1465
bul	-10.1465
dorf	-10.1475
odi	-10.1476
▁33	-10.1476
▁tykk	-10.1486
punktet	-10.1487
▁sho	-10.1488
bomb	-10.1502
▁bakken	-10.1503
slav	-10.1503
▁press	-10.1509
▁hode	-10.1509
▁170	-10.151
mont	-10.1515
13	-10.1516
▁plu	-10.1522
▁dømt	-10.1527
▁kva	-10.153
▁kald	-10.153
▁trær	-10.1543
▁reist	-10.1572
hard	-10.1578
93	-10.1586
gning	-10.1591
▁1926	-10.1596
▁byprefektur	-10.1596
▁umiddelbar	-10.1596
▁digital	-10.1596
modell	-10.1596
kontor	-10.1596
▁utnytte	-10.1596
▁myndighetene	-10.1596
▁anklage	-10.1597
▁luc	-10.1598
▁bull	-10.1599
▁nedre	-10.16
▁demokratisk	-10.16
ulf	-10.1602
kompani	-10.1603
▁glass	-10.1604
firma	-10.1604
▁forestilling	-10.1605
▁award	-10.1606
▁dommer	-10.1613
ledet	-10.1614
dannelse	-10.1615
▁tronen	-10.1617
▁foruten	-10.162
kha	-10.162
▁flytte	-10.1624
▁utga	-10.1637
18	-10.1637
element	-10.1638
▁samarbeidet	-10.1649
▁hindre	-10.1656
▁bay	-10.166
▁verd	-10.1668
▁regional	-10.1681
▁esp	-10.1683
slutt	-10.169
tekst	-10.1705
▁hellig	-10.171
▁skjær	-10.1711
ledd	-10.1712
▁gun	-10.1728
▁uttale	-10.173
ico	-10.174
▁grunnlag	-10.1742
▁løsning	-10.1749
konkurranse	-10.175
forfatter	-10.175
▁evne	-10.1751
rommet	-10.1751
▁tilknyttet	-10.1754
▁unntatt	-10.1754
▁vesentlig	-10.1754
▁alkohol	-10.1754
▁fattig	-10.1754
▁vokser	-10.1755
▁begrenset	-10.1755
▁scene	-10.1755
▁venner	-10.1755
▁oppløst	-10.1755
▁romsdal	-10.1756
▁1935	-10.1757
▁1934	-10.1757
▁nederlag	-10.1761
rød	-10.1765
▁prix	-10.177
▁billed	-10.1772
▁tverr	-10.1776
▁styrte	-10.1784
▁beregne	-10.179
▁cri	-10.1794
▁idrettslag	-10.18
▁advokat	-10.1807
kilden	-10.1807
masse	-10.1818
▁ansvar	-10.182
▁kvalitet	-10.1823
zy	-10.1824
sjø	-10.1829
▁menighet	-10.1832
▁kloster	-10.1847
96	-10.1859
▁bach	-10.187
▁svar	-10.1885
12	-10.1893
71	-10.1896
▁kreft	-10.1905
▁sannsynlig	-10.191
arrangement	-10.1916
▁positiv	-10.1916
▁vietnam	-10.1916
▁kongedømmet	-10.1916
▁major	-10.1916
▁nektet	-10.1916
konferanse	-10.1916
▁hjerte	-10.1916
▁konstant	-10.1916
▁terror	-10.1917
▁alfred	-10.1917
mønster	-10.1917
▁fv	-10.1917
▁1913	-10.1917
▁medaljer	-10.1918
▁etterfølger	-10.1918
vannet	-10.1919
▁mikro	-10.1919
▁bekrefte	-10.1921
▁alene	-10.1922
▁drikke	-10.1923
▁anledning	-10.1925
▁måten	-10.1925
▁vogn	-10.1926
▁kåre	-10.1927
▁250	-10.1929
▁deltatt	-10.1931
▁storm	-10.1935
▁team	-10.1936
▁bevegelsen	-10.1937
▁håp	-10.1938
▁fjerne	-10.1945
mmel	-10.1956
▁villa	-10.1964
▁skikk	-10.1969
▁slett	-10.1981
jord	-10.1983
▁tilfelle	-10.1988
▁ingeniør	-10.1991
▁berømte	-10.201
komiteen	-10.2011
▁cra	-10.202
▁ansett	-10.2021
▁unn	-10.2028
▁bilder	-10.2041
hem	-10.2046
▁hage	-10.2061
▁gui	-10.2061
elv	-10.2066
▁comp	-10.2068
▁sete	-10.2072
▁hardt	-10.2076
▁styret	-10.2078
▁eksemplar	-10.208
▁introdusert	-10.208
▁tilhørende	-10.208
▁hordaland	-10.208
▁eventyr	-10.208
bånd	-10.208
forskning	-10.2081
▁scott	-10.2082
politisk	-10.2082
▁arbeiderpartiet	-10.2082
▁sankt	-10.2083
▁france	-10.2083
▁wien	-10.2089
▁1600	-10.2092
▁with	-10.2096
▁ansvarlig	-10.2109
▁vekk	-10.2128
▁fjord	-10.2134
▁bratt	-10.2153
▁bredt	-10.216
hallen	-10.216
▁tradisjonell	-10.2161
▁kim	-10.2162
▁hil	-10.2167
▁vinteren	-10.2167
▁krever	-10.2174
▁beskrev	-10.2178
1700	-10.2178
▁tang	-10.2182
▁hastighet	-10.2187
klokke	-10.2189
▁bytte	-10.2197
▁lam	-10.2201
ordnet	-10.2204
illa	-10.221
▁bortset	-10.2211
▁ask	-10.2224
▁landene	-10.2224
▁fotograf	-10.223
myndighet	-10.2243
▁bånd	-10.2246
▁fle	-10.2246
friidrettsutøver	-10.2246
klassifiser	-10.2246
▁innbyggertall	-10.2246
▁washington	-10.2246
▁1901	-10.2246
▁utenlandske	-10.2246
▁ekstrem	-10.2246
▁alexander	-10.2246
▁kari	-10.2247
▁1916	-10.2248
▁jackson	-10.225
▁ulykke	-10.2251
▁beslutte	-10.2252
forsvar	-10.2253
▁kapell	-10.2253
følelse	-10.2257
bøker	-10.2259
▁bydelen	-10.2261
▁fc	-10.2262
▁kreve	-10.2262
▁gau	-10.2263
▁omfattet	-10.2265
▁bydel	-10.2277
slått	-10.2282
avtale	-10.2283
▁former	-10.2295
liste	-10.2297
▁funn	-10.2304
dikt	-10.2307
▁mesterskap	-10.2313
▁36	-10.2315
▁innspilling	-10.2316
▁gruppa	-10.2316
familie	-10.2319
▁synge	-10.2328
språklig	-10.2345
ity	-10.2363
▁fli	-10.2364
▁penge	-10.237
▁uttrykket	-10.2371
▁kjempet	-10.2381
▁behandle	-10.2384
ön	-10.2399
▁friedrich	-10.2416
▁belgia	-10.2416
stykke	-10.2416
▁registrert	-10.2416
▁firmaet	-10.2417
situasjon	-10.2417
▁sannsynligvis	-10.2422
▁mottatt	-10.2424
▁økende	-10.2429
▁armé	-10.2429
▁oversettelse	-10.2431
▁arkeolog	-10.2434
▁ledende	-10.2434
▁wu	-10.2435
vogn	-10.2435
ische	-10.244
▁makten	-10.2443
▁asker	-10.2445
▁levert	-10.2453
▁fortalt	-10.2456
▁dyrke	-10.2464
▁cand	-10.2466
▁drag	-10.2469
▁green	-10.2469
wald	-10.2471
▁fru	-10.2472
▁kjemi	-10.2484
ander	-10.2494
▁samfunnet	-10.2495
temp	-10.2508
▁troll	-10.2515
barn	-10.2515
▁skinn	-10.2528
▁fler	-10.2533
▁hem	-10.2535
▁tvil	-10.2535
dommer	-10.2548
gler	-10.2561
drevet	-10.2572
▁oppnå	-10.2572
▁byttet	-10.2573
▁synlig	-10.2574
uz	-10.2583
▁inge	-10.2584
løytnant	-10.2588
▁portugisisk	-10.2588
▁avdøde	-10.2588
▁gustav	-10.2588
▁ungarn	-10.2588
▁ungarsk	-10.2588
▁frivillig	-10.2588
▁godkjent	-10.2591
▁tjue	-10.2592
vokst	-10.2593
▁formula	-10.2594
▁sagt	-10.2594
psykologi	-10.2597
▁byggingen	-10.26
▁saint	-10.26
bebyggelse	-10.2603
▁sikker	-10.261
▁semi	-10.2617
▁tau	-10.2618
▁gradvis	-10.262
▁hendelser	-10.2622
▁drei	-10.263
▁tidspunkt	-10.263
▁analyse	-10.2645
handel	-10.2647
▁versjonen	-10.2653
▁ønsker	-10.2655
▁vitne	-10.2662
81	-10.2667
▁fritt	-10.2674
▁innhold	-10.2676
▁skriver	-10.2676
▁akse	-10.2687
▁kjemisk	-10.2694
bestemmelse	-10.2704
▁skyte	-10.2706
▁mobil	-10.271
▁75	-10.2712
▁verv	-10.2714
14	-10.2717
▁hum	-10.272
▁frø	-10.2724
▁koll	-10.2725
vekst	-10.2735
▁plateselskap	-10.2739
▁vinne	-10.2748
▁stortings	-10.2751
▁wei	-10.2754
manuskript	-10.2764
▁administrere	-10.2764
▁oblast	-10.2764
▁smith	-10.2764
▁praktisk	-10.2764
32	-10.2764
▁håkon	-10.2765
▁utøver	-10.2765
▁1925	-10.2766
▁nasjonalpark	-10.2767
▁bispe	-10.2769
▁planlagt	-10.277
▁hannen	-10.2771
kreft	-10.2773
▁vu	-10.2776
hånd	-10.2777
▁hendelsen	-10.2779
byrå	-10.2783
lokk	-10.2784
▁grunnlegger	-10.2784
datert	-10.2785
▁jack	-10.2786
misjon	-10.2787
hui	-10.2789
efinner	-10.2796
▁tradisjonel	-10.2799
▁petter	-10.2813
uell	-10.2815
▁mary	-10.2821
▁sving	-10.2826
▁orient	-10.2828
dommen	-10.2828
spreng	-10.2835
▁etasje	-10.284
▁salme	-10.2845
▁hjul	-10.2858
lé	-10.2868
åsen	-10.2884
28	-10.2884
ois	-10.2884
▁ferr	-10.2888
▁dj	-10.289
▁redde	-10.2899
▁rammet	-10.29
tallet	-10.2904
livet	-10.2908
▁tjenestegjor	-10.2912
▁hamar	-10.2913
▁utstyr	-10.2924
83	-10.2929
▁akershus	-10.2942
▁barcelona	-10.2942
▁milliarder	-10.2942
▁ludvig	-10.2942
▁pakistan	-10.2942
▁company	-10.2942
▁krevde	-10.2942
▁valuta	-10.2942
▁landbruks	-10.2943
▁programleder	-10.2944
▁1915	-10.2945
▁alf	-10.2949
▁portrett	-10.2949
▁nød	-10.2954
produkt	-10.2958
27	-10.2963
▁velger	-10.2966
nemlig	-10.297
▁representanter	-10.2971
▁dokumenter	-10.2988
▁run	-10.2991
▁phil	-10.2998
▁aur	-10.2998
typen	-10.3005
kanal	-10.301
▁urban	-10.3014
▁bou	-10.3024
▁katolsk	-10.3026
egnet	-10.3031
▁forlenge	-10.3036
▁flest	-10.3039
▁vig	-10.3043
▁angi	-10.3045
▁planter	-10.3046
▁kapp	-10.3052
▁artist	-10.3053
▁vg	-10.3061
skij	-10.3069
▁regime	-10.3071
▁administrasjon	-10.3083
▁grunnlov	-10.3089
▁bevege	-10.3092
▁artister	-10.3097
sats	-10.3098
rup	-10.3117
forbundet	-10.3121
▁sven	-10.3122
lyn	-10.3124
▁service	-10.3124
▁kjennetegn	-10.3124
▁jørgen	-10.3124
▁rogaland	-10.3124
▁kobber	-10.3124
▁særskilt	-10.3124
▁frakte	-10.3125
▁utgivelsen	-10.3125
▁opplevd	-10.3126
▁klokken	-10.3126
▁telemark	-10.3127
dyktig	-10.3127
▁kastet	-10.3128
▁angripe	-10.3128
▁victoria	-10.313
▁hensyn	-10.313
▁reserve	-10.3131
▁hersker	-10.3134
▁irsk	-10.3134
▁bell	-10.314
▁ombord	-10.3142
kampanje	-10.3142
▁1880	-10.3143
▁1860	-10.3144
▁wall	-10.3146
▁forvingen	-10.3149
▁cy	-10.3152
▁rasen	-10.3156
▁kapasitet	-10.3157
palass	-10.3162
▁strak	-10.3163
▁motta	-10.3165
▁gö	-10.317
fysikk	-10.3171
oph	-10.3176
▁human	-10.3178
▁tråd	-10.3182
▁flu	-10.3185
tank	-10.3197
spis	-10.3204
▁museet	-10.322
▁eik	-10.3224
▁intens	-10.3227
øvelse	-10.3239
▁kanalen	-10.324
▁modeller	-10.324
hild	-10.3242
▁søkt	-10.3245
▁etnisk	-10.3256
▁brem	-10.3268
▁kara	-10.3282
▁renn	-10.3286
▁bredde	-10.3298
▁arrestert	-10.3309
▁münchen	-10.3309
▁regissør	-10.3309
▁færøyene	-10.3309
opplæring	-10.3309
▁klipp	-10.331
▁bakvingen	-10.331
kapital	-10.3311
▁søndag	-10.3311
▁situasjonen	-10.3312
▁brygge	-10.3312
▁takket	-10.3314
▁vegg	-10.3319
jal	-10.3321
▁1898	-10.3324
▁1897	-10.3326
▁1890	-10.3328
▁grønland	-10.333
▁persisk	-10.3337
▁østover	-10.3337
▁hul	-10.3338
flukt	-10.3338
▁møre	-10.3348
▁elektron	-10.3349
awa	-10.336
▁unna	-10.3373
løsning	-10.3374
hai	-10.3378
▁oppsto	-10.3379
forsamlingen	-10.338
▁street	-10.338
▁roger	-10.339
arki	-10.3395
listen	-10.3395
bukta	-10.3401
▁kvinnen	-10.3409
vika	-10.3409
ulert	-10.341
skyting	-10.3412
▁jente	-10.3422
trådte	-10.343
rydde	-10.3433
▁opplag	-10.3461
▁vente	-10.3488
▁tegneserie	-10.3496
▁bestemme	-10.3498
▁definisjon	-10.3498
▁shanghai	-10.3498
▁zealand	-10.3498
▁utelukke	-10.3498
▁påfølgende	-10.3498
▁bøkene	-10.3498
▁debutalbum	-10.3498
forsyning	-10.35
▁britene	-10.35
▁enhver	-10.35
▁riktig	-10.3501
▁frihet	-10.3504
▁kommunist	-10.3507
▁flåten	-10.3509
blomst	-10.3512
▁metro	-10.3514
▁kommunestyre	-10.3519
▁jobber	-10.352
stjerne	-10.3527
▁stre	-10.3532
▁forstå	-10.3535
▁gjenstand	-10.3537
iansk	-10.3538
▁skulptur	-10.3541
høyde	-10.3545
▁krysser	-10.355
▁eva	-10.3554
▁master	-10.3561
▁blanding	-10.3571
▁ansvaret	-10.3579
▁700	-10.3581
▁grøn	-10.3586
▁rulle	-10.3592
▁drap	-10.3598
bedrift	-10.3599
gua	-10.3611
▁sparta	-10.3629
krit	-10.3629
▁gjer	-10.3634
▁halvpart	-10.3651
ical	-10.3659
kongen	-10.3667
▁vill	-10.3682
▁okkupasjon	-10.3688
▁individ	-10.369
▁intervju	-10.369
▁1902	-10.369
▁konkurrere	-10.369
▁sammenslåing	-10.369
▁gymnas	-10.369
▁fiolin	-10.369
▁alexandr	-10.369
▁dominerende	-10.369
▁undergrunns	-10.3691
▁håndball	-10.3692
▁drammen	-10.3692
▁innebære	-10.3693
▁elementer	-10.3693
▁midlertidig	-10.3694
▁høst	-10.3695
▁antikken	-10.3695
formede	-10.3695
▁fett	-10.3696
ward	-10.3696
▁house	-10.3698
▁eksport	-10.3698
▁hitler	-10.3699
▁santa	-10.3699
▁programmer	-10.37
▁skrå	-10.37
▁mandat	-10.3701
▁uttalt	-10.3702
▁piano	-10.3703
▁drepe	-10.3706
▁falk	-10.3706
▁bom	-10.3707
▁tilsvar	-10.3709
▁oppstod	-10.3714
▁oberst	-10.3719
karriere	-10.3721
▁uavhengighet	-10.3731
▁næringsliv	-10.3733
▁andel	-10.3736
▁statsråd	-10.3737
▁innlede	-10.3738
verdi	-10.374
▁wel	-10.3745
settelse	-10.3756
rsdag	-10.3758
▁luther	-10.3769
▁homo	-10.379
▁grunnlaget	-10.3791
▁hug	-10.3795
▁lake	-10.3796
▁fjern	-10.38
▁parlament	-10.3818
▁sikte	-10.382
▁nettverk	-10.3827
▁tell	-10.3827
▁korn	-10.3828
ique	-10.383
▁trykket	-10.3842
▁lykke	-10.385
løft	-10.3854
▁beskrivelse	-10.3854
▁jø	-10.3858
▁verb	-10.3865
▁astronom	-10.3886
belteasteroide	-10.3886
▁american	-10.3886
▁antwerpen	-10.3886
▁gullmedalje	-10.3886
▁konsept	-10.3886
▁lillehammer	-10.3886
▁finnmark	-10.3886
▁geografisk	-10.3886
▁ytterst	-10.3886
▁eksisterer	-10.3886
▁forårsake	-10.3887
▁hørte	-10.3887
▁fjernsyn	-10.3887
▁edward	-10.3888
▁oldtiden	-10.3889
▁foreslått	-10.3889
▁wolf	-10.389
▁hjal	-10.3892
▁debatt	-10.3892
▁meldt	-10.3894
▁egyptisk	-10.3894
▁respekt	-10.3899
▁detalj	-10.39
▁boy	-10.3912
▁birk	-10.3914
▁tyskerne	-10.3923
▁isteden	-10.3928
▁halvdel	-10.3941
gjorde	-10.3944
▁artikler	-10.3956
▁verdensmester	-10.3959
setting	-10.3971
▁myk	-10.3973
idrett	-10.3974
næring	-10.3974
▁konstruksjon	-10.3975
▁dominert	-10.3975
▁munk	-10.3995
▁utvalg	-10.4013
▁handle	-10.4028
22	-10.4042
ān	-10.4053
bury	-10.4065
▁karrieren	-10.4076
▁lukke	-10.4086
▁1903	-10.4086
▁aleksander	-10.4086
▁forhindre	-10.4086
▁infanteri	-10.4086
offensiv	-10.4086
▁engasjert	-10.4086
▁kompleks	-10.4086
▁kristiansand	-10.4086
førsel	-10.4086
▁juridisk	-10.4086
▁fenomen	-10.4086
▁etterkommer	-10.4086
▁arthur	-10.4086
▁bodø	-10.4086
▁yrkes	-10.4087
▁belgisk	-10.4087
traktaten	-10.4087
▁studioalbum	-10.4087
▁bbc	-10.4087
▁molde	-10.4088
▁autonom	-10.4088
▁philip	-10.4088
▁kongeriket	-10.4089
▁generell	-10.4089
▁daniel	-10.4092
▁tolke	-10.4092
▁dvs	-10.4093
rygg	-10.4093
prosessen	-10.4094
▁1896	-10.4099
▁humor	-10.4101
▁forbunds	-10.4102
▁sammenlagt	-10.4113
hopp	-10.4114
gud	-10.4118
▁simon	-10.4129
▁kjempe	-10.413
problem	-10.4135
beck	-10.4141
▁utbygging	-10.4143
kall	-10.4176
duk	-10.4178
kilde	-10.4179
speil	-10.419
vang	-10.4201
▁pap	-10.4206
sosialistisk	-10.4206
▁kortere	-10.4207
▁seine	-10.4213
▁katedral	-10.422
▁tw	-10.4222
▁mannlig	-10.423
lærer	-10.4231
▁malm	-10.4238
▁ramme	-10.4245
▁ulik	-10.4259
gjørelse	-10.4282
▁elizabeth	-10.429
▁argument	-10.429
▁permanent	-10.429
▁skøyter	-10.429
▁terreng	-10.429
▁gunnar	-10.429
▁redusere	-10.4291
▁hjerne	-10.4291
▁overtatt	-10.4291
ström	-10.4291
▁kveld	-10.4291
ов	-10.4292
▁operatør	-10.4293
▁antyde	-10.4293
▁ull	-10.4294
▁filip	-10.4295
▁fortellingen	-10.4296
▁sykkel	-10.4296
▁hvile	-10.4296
▁unngå	-10.4297
erminal	-10.4308
▁east	-10.4309
▁anlagt	-10.4315
▁motsatt	-10.4315
skrive	-10.4329
runde	-10.4331
▁jin	-10.4336
▁mangler	-10.4339
▁johansen	-10.4339
måte	-10.4342
lock	-10.4346
▁steve	-10.4347
▁tidsskriftet	-10.4351
▁platen	-10.4359
kjønn	-10.436
▁landslaget	-10.4369
▁flåte	-10.437
grensen	-10.4375
▁klosteret	-10.4378
avgift	-10.4383
▁ødelegge	-10.4385
alisme	-10.4397
▁lim	-10.4402
▁skall	-10.4424
▁moss	-10.4428
▁fulgt	-10.4435
▁hull	-10.4439
områdene	-10.4449
formann	-10.4452
▁bygda	-10.4465
▁vanligst	-10.4484
▁kristian	-10.4489
▁tiår	-10.4494
▁shan	-10.4495
▁afghanistan	-10.4499
▁jerusalem	-10.4499
▁eksisterende	-10.4499
▁observer	-10.4499
▁oppfatning	-10.4499
▁australsk	-10.4499
frekvens	-10.4499
▁henrettet	-10.4499
▁jakob	-10.4499
▁litterær	-10.4499
▁anerkjenne	-10.4499
▁innlemme	-10.4499
▁signal	-10.4499
▁novell	-10.45
▁forberede	-10.45
▁overlevd	-10.45
▁sveitsisk	-10.45
▁føderal	-10.4501
▁2018	-10.4503
▁vestfold	-10.4503
▁trinn	-10.4504
▁lokalisert	-10.4506
▁antas	-10.4506
▁kristiania	-10.4507
▁anse	-10.4524
▁israelsk	-10.4529
▁johnson	-10.4529
materiale	-10.4546
museum	-10.4546
▁wales	-10.4552
▁nordover	-10.4554
bevisst	-10.4555
▁karakteristisk	-10.4557
▁hagen	-10.4557
▁from	-10.4562
▁ennå	-10.4568
redskap	-10.457
▁løfte	-10.4574
▁nazi	-10.4576
▁russe	-10.4578
▁ost	-10.4583
▁rester	-10.4584
vard	-10.4591
▁oliv	-10.4597
▁kommun	-10.4616
▁monark	-10.4625
▁out	-10.4629
▁neu	-10.4633
▁filosof	-10.4646
▁scenen	-10.4655
▁gjennomføre	-10.4661
strømmen	-10.4662
▁forskjellig	-10.4664
iverse	-10.4666
▁mangel	-10.4675
▁utløp	-10.4677
stell	-10.4683
▁78	-10.4684
▁landslag	-10.4687
vald	-10.4688
▁bære	-10.4689
▁landskap	-10.4702
▁konkurrert	-10.4711
▁kvalifisering	-10.4711
▁napoleon	-10.4711
▁ortodoks	-10.4711
▁svalbard	-10.4711
▁xiàn	-10.4711
▁kriminal	-10.4711
▁skjønt	-10.4711
▁hvem	-10.4711
▁kommersiell	-10.4712
▁doktorgrad	-10.4712
▁reklame	-10.4712
▁medaljen	-10.4712
▁sjette	-10.4712
▁kryp	-10.4713
▁generasjon	-10.4713
▁stengt	-10.4713
▁telefon	-10.4714
▁etablere	-10.4715
▁misjons	-10.4717
▁turneringen	-10.4718
▁høre	-10.4719
▁vokalist	-10.4728
▁georgia	-10.4728
▁1100	-10.4733
▁brødrene	-10.4737
▁undervist	-10.474
▁rednings	-10.4745
▁queen	-10.4748
▁stam	-10.4759
▁seire	-10.476
▁furu	-10.479
▁hå	-10.4807
▁dukket	-10.4816
▁anim	-10.4823
▁rykte	-10.4824
▁afrikansk	-10.483
▁ordre	-10.4835
snegl	-10.4839
brød	-10.4843
▁muslimsk	-10.4846
▁play	-10.4854
▁bau	-10.4863
▁medisinsk	-10.4906
fattet	-10.4911
▁middelsstor	-10.4929
▁tønsberg	-10.4929
▁evangeli	-10.4929
▁eventuel	-10.4929
▁mekanisk	-10.4929
▁utseende	-10.4929
▁kjøretøy	-10.4929
▁opposisjon	-10.493
▁osmansk	-10.493
▁power	-10.493
aceae	-10.4931
▁britis	-10.4931
▁forklare	-10.4931
▁bakteri	-10.4932
▁spesifik	-10.4933
▁hovedkontor	-10.4935
▁regler	-10.4939
▁allmenn	-10.4939
▁sjanse	-10.4944
▁1888	-10.4945
▁vannkraftverk	-10.495
▁smak	-10.4953
▁helgen	-10.4956
▁demningen	-10.4958
▁tynn	-10.496
▁tidligste	-10.4961
▁nak	-10.4964
▁kino	-10.4969
▁nerve	-10.4973
møll	-10.4982
ittisk	-10.4982
struktur	-10.4985
▁server	-10.4992
aria	-10.4993
▁sideelv	-10.5032
▁khan	-10.5048
▁fed	-10.5059
polis	-10.5089
lignende	-10.5097
▁grov	-10.5106
▁ulv	-10.5113
▁fau	-10.5124
drakt	-10.5142
bekk	-10.5143
▁mangle	-10.5149
▁forgjenger	-10.5151
▁portugal	-10.5151
▁akseptert	-10.5151
▁nøyaktig	-10.5151
▁vilhelm	-10.5151
▁vurdert	-10.5151
▁fungerte	-10.5151
▁kollektiv	-10.5151
▁yngste	-10.5151
stråling	-10.5151
▁individuell	-10.5151
▁1927	-10.5153
▁konsern	-10.5153
▁myndigheter	-10.5154
▁skarp	-10.5154
▁brown	-10.5155
▁michel	-10.5155
▁åpenbar	-10.5156
▁900	-10.5158
▁gyld	-10.516
▁kommunistisk	-10.5162
▁arena	-10.5165
▁young	-10.5166
▁fremført	-10.5171
▁gjennombrudd	-10.5171
▁sandnes	-10.5179
▁middelalder	-10.5189
▁1300	-10.5192
strek	-10.5194
historisk	-10.5213
▁tipp	-10.5214
▁brakt	-10.5217
▁kule	-10.5231
▁dahl	-10.5235
▁ligge	-10.5237
▁kult	-10.524
stamme	-10.525
▁angel	-10.5255
ère	-10.5276
vakt	-10.5283
cup	-10.5286
▁utenriks	-10.5288
head	-10.5329
▁øverst	-10.5334
botn	-10.5366
▁arkeologisk	-10.5366
overflaten	-10.5366
▁døgn	-10.5378
▁göteborg	-10.5378
▁jomfru	-10.5378
▁kvalifisert	-10.5378
▁okkupert	-10.5378
▁oppmerksomhet	-10.5378
▁prefektur	-10.5378
kompetanse	-10.5378
▁ressurs	-10.5378
▁antarktis	-10.5378
▁innbyggerne	-10.5378
▁preussen	-10.5378
▁uvanlig	-10.5378
▁nicola	-10.5378
seremoni	-10.5378
▁selvmord	-10.5378
▁bærum	-10.5378
▁forbedre	-10.5379
▁avgjørende	-10.5379
▁overraske	-10.5379
▁strekningen	-10.5379
▁fortellinger	-10.538
▁rolf	-10.538
▁felttog	-10.538
▁årsaken	-10.538
▁manager	-10.538
▁foregår	-10.5383
▁beskyttelse	-10.5383
▁styreleder	-10.5383
sikring	-10.5384
▁feire	-10.5389
▁studere	-10.5389
▁ric	-10.539
basert	-10.5393
▁forsterke	-10.5393
▁hamburg	-10.5399
▁streik	-10.54
▁håndverk	-10.5401
støt	-10.5401
▁variasjon	-10.5402
kamerat	-10.5405
▁trekant	-10.5415
▁brent	-10.5422
funn	-10.544
instrument	-10.5445
bunn	-10.5455
▁krim	-10.5456
versjon	-10.5461
▁long	-10.549
manuel	-10.5502
▁saga	-10.5506
▁henge	-10.5527
▁slu	-10.5537
▁innslag	-10.5538
samband	-10.5542
▁tidsskrift	-10.5544
▁troms	-10.5561
▁asteroide	-10.5611
▁dekkvingene	-10.5611
▁hovedkvarter	-10.5611
▁institute	-10.5611
▁negativ	-10.5611
▁frigjøring	-10.5611
▁monument	-10.5611
▁risiko	-10.5611
▁sachsen	-10.5611
veksling	-10.5611
▁karbon	-10.5611
▁betjene	-10.5612
▁betong	-10.5613
▁fylt	-10.5614
lære	-10.5614
▁einar	-10.5614
▁antonio	-10.5615
▁syria	-10.5616
bill	-10.5616
▁pierre	-10.5616
▁erfaring	-10.5616
stråle	-10.5618
▁wilson	-10.5619
▁jøder	-10.562
▁arkiv	-10.562
▁fastlandet	-10.5621
telling	-10.5626
vassdraget	-10.5629
▁rettssak	-10.5629
stemning	-10.5634
▁allianse	-10.5659
utenriksminister	-10.5676
start	-10.5683
skjær	-10.5683
tittel	-10.5687
▁niko	-10.5729
cio	-10.5735
oksid	-10.5738
industri	-10.5743
▁opprettelse	-10.575
▁luthersk	-10.576
▁observato	-10.5765
bød	-10.5772
▁glad	-10.5812
strup	-10.5815
▁flyte	-10.5843
▁amsterdam	-10.5849
▁chicago	-10.5849
▁gjaldt	-10.5849
▁liverpool	-10.5849
▁windows	-10.5849
▁beslektet	-10.5849
▁1892	-10.5849
▁texas	-10.5849
innspilt	-10.5849
▁oppstår	-10.5849
▁utgravning	-10.5849
▁definert	-10.585
▁arendal	-10.585
▁golf	-10.5851
▁ønske	-10.5851
▁mineral	-10.5851
▁internett	-10.5853
▁trenger	-10.5853
▁dverg	-10.5856
▁tegninger	-10.5857
▁stemt	-10.5857
▁forvente	-10.5862
▁idé	-10.5862
▁1893	-10.5865
▁kupp	-10.5872
▁romerne	-10.5875
▁soldatene	-10.5878
▁svein	-10.588
▁planeten	-10.5882
▁histori	-10.5883
▁petro	-10.5889
▁geir	-10.5893
▁statlig	-10.59
▁menneskelig	-10.59
▁straff	-10.5903
▁burde	-10.591
▁dramatisk	-10.5927
offiser	-10.5927
programmet	-10.5933
aktivitet	-10.5933
▁sjakk	-10.5976
▁kali	-10.5999
fold	-10.6004
▁regjer	-10.6061
▁størst	-10.6067
bataljon	-10.6093
▁konstitusjon	-10.6093
▁uttrykt	-10.6093
▁tømmer	-10.6093
▁uansett	-10.6093
▁lagkonkurransen	-10.6093
▁radikal	-10.6093
▁amatør	-10.6093
▁canadisk	-10.6093
▁utsikt	-10.6093
▁kritisert	-10.6093
▁stadium	-10.6093
▁fjordane	-10.6093
givning	-10.6094
▁nedenfor	-10.6095
▁tropisk	-10.6095
▁markedet	-10.6095
▁group	-10.6096
▁sverre	-10.6096
▁kritisk	-10.6097
▁frukt	-10.61
▁interessert	-10.6101
▁tvunge	-10.6102
▁tildeling	-10.6105
▁brei	-10.6108
▁høyesterett	-10.6108
▁1889	-10.6112
viklet	-10.6114
▁1895	-10.6116
▁utvide	-10.6122
▁rust	-10.6131
▁ungdomsskole	-10.6165
▁trond	-10.6169
skift	-10.6177
▁knap	-10.6178
formasjon	-10.6181
rekord	-10.6182
▁kulturell	-10.6229
bord	-10.6232
trær	-10.6239
▁forkorte	-10.6247
▁trenings	-10.6256
næs	-10.6262
▁blande	-10.6289
▁mitt	-10.6308
▁vannkraft	-10.6331
edderkopp	-10.6331
▁fase	-10.6338
▁admiral	-10.6343
▁ambassadør	-10.6343
▁annonsert	-10.6343
▁prøvd	-10.6343
▁science	-10.6343
▁virginia	-10.6343
jubileum	-10.6343
▁midtøsten	-10.6343
▁utslipp	-10.6343
▁sparebank	-10.6343
▁stafett	-10.6343
▁separat	-10.6343
▁sigurd	-10.6343
▁adolf	-10.6343
▁forsvant	-10.6343
▁rektor	-10.6343
▁presentert	-10.6343
▁multi	-10.6343
▁underholdning	-10.6343
spirasjon	-10.6343
▁brigade	-10.6343
▁etablering	-10.6343
▁tilskuer	-10.6344
▁bayern	-10.6344
brønn	-10.6345
▁elleve	-10.6347
domstol	-10.6347
▁larvik	-10.635
▁fiktiv	-10.635
▁komposisjon	-10.6351
▁fredrikstad	-10.6353
verg	-10.6356
▁audi	-10.6362
▁1875	-10.6362
▁sønd	-10.6366
▁tilsyne	-10.6369
▁great	-10.6378
▁ektemann	-10.6381
▁lord	-10.6384
▁innerst	-10.6393
revolusjonen	-10.6416
hastighet	-10.6433
▁elektronisk	-10.6439
▁stang	-10.645
▁chile	-10.6456
▁rettferdig	-10.6463
▁spring	-10.6487
brutt	-10.6508
▁110	-10.6509
tveit	-10.6516
▁avslutte	-10.6539
matisk	-10.6559
▁helst	-10.6563
▁assistent	-10.6599
▁ferdinand	-10.6599
▁geometri	-10.6599
▁helsingfors	-10.6599
▁konservative	-10.6599
▁observasjon	-10.6599
▁påbegynt	-10.6599
▁1859	-10.6599
▁kommandør	-10.6599
▁senior	-10.6599
▁kjøtt	-10.66
▁trengte	-10.66
▁automatisk	-10.66
▁gregor	-10.66
▁adresse	-10.66
▁erobring	-10.66
▁forklaring	-10.6601
▁erstatning	-10.6601
▁kopier	-10.6601
▁virkeligheten	-10.6602
▁tennis	-10.6603
▁østfold	-10.6604
▁røyk	-10.6604
▁biografi	-10.6608
▁franz	-10.6608
▁fabrikken	-10.6614
▁stab	-10.6615
▁good	-10.6622
▁1885	-10.6629
▁greid	-10.6636
▁life	-10.6637
▁shu	-10.6655
▁ørn	-10.6663
▁pels	-10.6669
skade	-10.6682
posisjon	-10.6687
bibliotek	-10.6696
utdanning	-10.6697
▁ferge	-10.6701
▁demokrati	-10.6708
aften	-10.6727
▁cuba	-10.6728
▁vennskap	-10.6738
orientert	-10.6771
støtte	-10.681
▁cambridge	-10.6862
▁fiendtlig	-10.6862
▁hollywood	-10.6862
▁innendørs	-10.6862
▁maksimal	-10.6862
▁psykisk	-10.6862
▁sarpsborg	-10.6862
▁vedlikehold	-10.6862
▁hjort	-10.6862
▁testamente	-10.6862
▁taiwan	-10.6862
▁referanse	-10.6862
▁rosenborg	-10.6862
▁deutsche	-10.6862
▁fjær	-10.6862
▁semifinalen	-10.6863
▁haakon	-10.6863
▁sprint	-10.6863
▁josef	-10.6863
▁batteri	-10.6863
▁utmerkelse	-10.6863
▁dekorert	-10.6864
▁katolik	-10.6864
▁partner	-10.6864
▁kjørt	-10.6864
▁referert	-10.6864
rettighetene	-10.6865
▁import	-10.6865
▁konsekvens	-10.6865
▁slank	-10.6865
▁skihopp	-10.6865
▁definere	-10.6865
▁web	-10.6866
▁smitte	-10.6868
▁viktor	-10.6869
▁bedriften	-10.6874
▁holdning	-10.6875
▁brook	-10.6879
▁øre	-10.6888
▁ernst	-10.689
▁potter	-10.6901
▁morten	-10.6903
▁agent	-10.6903
▁chang	-10.6916
▁variert	-10.6932
laten	-10.6943
▁pund	-10.6963
orkester	-10.6967
institutt	-10.6967
hjelp	-10.6968
konsert	-10.6969
studie	-10.6969
behandling	-10.699
effekt	-10.699
▁hjemmebane	-10.6995
▁mino	-10.7005
▁olympi	-10.701
▁kunstnerisk	-10.7014
▁konsul	-10.7016
utgave	-10.7039
wich	-10.7053
cast	-10.7062
korset	-10.7069
▁romantisk	-10.709
▁naturgass	-10.71
▁victor	-10.7124
forvaltning	-10.7131
▁omdøpt	-10.7133
▁shakespeare	-10.7133
▁komponert	-10.7133
▁flyktning	-10.7133
▁regulert	-10.7133
▁embets	-10.7133
▁lørdag	-10.7133
▁systematisk	-10.7133
▁uklar	-10.7133
▁kristendommen	-10.7133
▁visepresident	-10.7134
▁datamaskin	-10.7135
▁hjørne	-10.7135
▁bedrifter	-10.7137
▁borgermester	-10.7138
▁holstein	-10.7142
▁1883	-10.7149
▁1814	-10.7149
▁1881	-10.7149
▁champ	-10.715
▁plast	-10.7152
▁tekstil	-10.7152
▁1894	-10.7152
▁1887	-10.7153
utvalget	-10.7154
▁walter	-10.7159
▁stanse	-10.7173
tilbud	-10.7173
▁hylle	-10.7186
skilt	-10.7196
bæk	-10.721
registr	-10.7217
wick	-10.7224
abler	-10.7233
▁ideologi	-10.7233
funksjon	-10.7245
bølge	-10.7247
maleri	-10.7257
teatret	-10.7277
lyd	-10.7296
▁rapportert	-10.7307
▁kontrollert	-10.7317
burn	-10.7318
kontroll	-10.7324
▁08	-10.7336
ка	-10.7362
evolusjon	-10.7404
▁frankfurt	-10.741
▁nowiki	-10.741
▁resultert	-10.741
▁returnerte	-10.741
▁sjeldne	-10.741
▁tsjekkoslovakia	-10.741
▁diskusjon	-10.741
▁integrer	-10.741
▁døtre	-10.741
▁misjonær	-10.7411
▁ansikt	-10.7411
▁protestantisk	-10.7411
▁castle	-10.7411
▁hyppig	-10.7411
▁væske	-10.7411
regulering	-10.7411
▁prinsesse	-10.7412
▁beskjed	-10.7412
▁beordre	-10.7412
▁sydney	-10.7413
▁slippe	-10.7413
▁hedmark	-10.7413
▁tvangs	-10.7413
▁tallrike	-10.7414
▁lært	-10.7417
tillatelse	-10.7417
▁sykdommen	-10.7419
▁opptreden	-10.7421
▁stalin	-10.7423
▁formell	-10.7423
▁biologisk	-10.7425
▁falsk	-10.7425
▁talent	-10.7427
▁1871	-10.7429
▁1882	-10.7431
▁1891	-10.7431
grø	-10.7438
tagelse	-10.7445
▁estland	-10.7468
▁skuespill	-10.7472
▁lunge	-10.7478
▁kommunistparti	-10.75
▁sikkerhet	-10.7501
▁trapp	-10.7511
▁hou	-10.7518
▁barndom	-10.7551
sjö	-10.7569
pakke	-10.7606
recht	-10.7648
▁rådhus	-10.7655
▁nordsid	-10.768
▁francis	-10.7693
▁association	-10.7696
▁bysantinsk	-10.7696
▁football	-10.7696
▁ludwig	-10.7696
▁oksygen	-10.7696
▁symfoni	-10.7696
▁tyrkia	-10.7696
protokoll	-10.7696
▁invadert	-10.7696
▁opprettholde	-10.7696
▁skribent	-10.7696
▁belønne	-10.7696
▁church	-10.7696
▁mektig	-10.7696
▁unesco	-10.7696
▁forkropp	-10.7696
▁umulig	-10.7696
▁hebraisk	-10.7696
bransjen	-10.7696
▁tilsammen	-10.7696
▁bmw	-10.7696
▁skildre	-10.7696
høvding	-10.7696
▁germansk	-10.7697
▁naturreservat	-10.7697
▁varierende	-10.7697
sluppet	-10.7697
▁gerhard	-10.7697
▁jødene	-10.7698
▁skutt	-10.7698
▁innviet	-10.7698
▁leilighet	-10.7699
▁donald	-10.7699
▁bundes	-10.77
▁sjanger	-10.7701
▁contest	-10.7702
▁skån	-10.7702
▁drøm	-10.7702
sendinger	-10.7703
▁vinkel	-10.7703
▁donau	-10.7707
▁skytter	-10.7709
time	-10.771
▁opprette	-10.772
▁maritim	-10.7726
bevegelse	-10.7726
▁kirkegård	-10.7733
▁forbli	-10.7741
▁smerte	-10.7745
▁låten	-10.7767
forståelse	-10.7772
▁satse	-10.7788
avisen	-10.7795
▁muslim	-10.7807
dømt	-10.7824
▁anslå	-10.7937
▁sosialdemokrat	-10.799
▁babylon	-10.799
▁beslutning	-10.799
▁bulgaria	-10.799
▁fakultet	-10.799
▁renessanse	-10.799
▁society	-10.799
▁trommeslager	-10.799
▁vingespenn	-10.799
▁symptom	-10.799
▁taylor	-10.799
patrulje	-10.799
▁ringerike	-10.799
▁begravelse	-10.799
▁serbia	-10.799
▁ålesund	-10.7991
▁lyktes	-10.7991
▁ørken	-10.7991
▁barnehage	-10.7992
köping	-10.7992
▁samuel	-10.7994
▁smelte	-10.7995
▁tillatt	-10.7995
▁jernbanestasjon	-10.7996
▁onkel	-10.7999
▁revolusjonær	-10.7999
▁first	-10.8
vitsj	-10.8007
▁panser	-10.8014
▁nederst	-10.8022
▁høydepunkt	-10.8054
▁strategisk	-10.8061
▁opptrådt	-10.8098
▁coll	-10.8124
institusjon	-10.8127
kontrakt	-10.8127
finalen	-10.8128
▁million	-10.8152
▁styremedlem	-10.8206
stemme	-10.8208
▁dynasti	-10.8225
alliansen	-10.8232
ladning	-10.8291
svømming	-10.8293
▁elisabeth	-10.8293
▁prøyssisk	-10.8293
▁varaordfører	-10.8293
▁øyeblikk	-10.8293
▁innstifte	-10.8293
▁nøkkel	-10.8293
▁stridsvogn	-10.8293
▁atmosfæren	-10.8293
▁tabellen	-10.8293
▁bridge	-10.8293
▁fuktig	-10.8293
▁petersburg	-10.8293
▁sektor	-10.8293
▁mislykke	-10.8294
▁skrog	-10.8295
▁utforming	-10.8295
▁verktøy	-10.8296
▁reformasjonen	-10.8297
▁øvelsen	-10.8299
▁basil	-10.8299
▁kreert	-10.8301
▁profil	-10.8302
▁fagforening	-10.8305
jørn	-10.8306
▁edderkoppen	-10.8307
syklus	-10.8312
▁ballett	-10.8313
register	-10.8315
vík	-10.8315
▁bassist	-10.8315
gripe	-10.8333
▁barneskole	-10.8351
kurat	-10.8353
▁folkeparti	-10.8397
representant	-10.844
hjul	-10.8441
interesse	-10.8441
▁personlighet	-10.8466
flate	-10.8486
stigning	-10.8545
amerikanske	-10.8567
▁brødre	-10.8568
▁country	-10.8606
▁demonstrasjon	-10.8606
▁dirigent	-10.8606
▁engasjement	-10.8606
▁kronprins	-10.8606
▁pasienten	-10.8606
▁alminnelig	-10.8606
▁buskerud	-10.8606
▁kavaleri	-10.8606
▁materiell	-10.8606
▁tolkning	-10.8606
▁patrick	-10.8606
▁middelhavet	-10.8606
▁indikere	-10.8606
▁hypote	-10.8606
▁tjente	-10.8606
▁betydningsfull	-10.8606
▁skjebne	-10.8606
▁andré	-10.8606
▁russerne	-10.8607
▁besetningen	-10.8607
на	-10.8607
▁fiender	-10.8608
▁folketallet	-10.861
yuan	-10.8614
▁down	-10.8615
▁genetisk	-10.8618
▁rederi	-10.8621
▁tsar	-10.8632
▁ibsen	-10.8635
kjøring	-10.8658
ан	-10.8665
muligheter	-10.8692
▁domkirke	-10.8714
▁forkortelse	-10.8735
konsulent	-10.8748
fried	-10.8757
kandidat	-10.8762
temperatur	-10.8763
krisen	-10.8832
▁representere	-10.8835
▁oppleve	-10.891
messe	-10.8921
distribusjon	-10.8928
skvadron	-10.8928
▁angelsaksisk	-10.8928
▁columbia	-10.8928
▁corporation	-10.8928
▁elektrisitet	-10.8928
▁favoritt	-10.8928
▁ferskvann	-10.8928
▁komponent	-10.8928
▁nøytral	-10.8928
▁venezia	-10.8928
▁jacque	-10.8928
▁manchester	-10.8928
▁ytterkant	-10.8928
▁heinrich	-10.8928
▁utspring	-10.8928
▁beatles	-10.8928
▁prototyp	-10.8928
▁kristelig	-10.8928
▁langvarig	-10.8929
▁regulere	-10.8929
▁pianist	-10.8929
▁langrenn	-10.8929
▁trussel	-10.8929
▁bjørk	-10.8929
▁utfordring	-10.8929
▁pistol	-10.8929
▁jurist	-10.893
▁søvn	-10.893
▁fangst	-10.893
▁kristiansund	-10.893
▁verdensrekord	-10.8931
▁gjenopprette	-10.8931
▁nyhets	-10.8931
▁francisco	-10.8932
▁alpene	-10.8932
▁seksuell	-10.8933
▁gratis	-10.8933
▁slapp	-10.8933
▁muskel	-10.8936
▁alex	-10.8937
▁hevn	-10.8939
▁lidelse	-10.8941
▁tilfeldig	-10.8945
bjelke	-10.895
▁rifle	-10.8952
▁bakerst	-10.8955
tetthet	-10.8962
▁begynt	-10.8986
▁utforske	-10.9009
areal	-10.907
regjering	-10.9096
museet	-10.91
utstyr	-10.9112
▁republik	-10.9112
horn	-10.9114
gjest	-10.9191
▁psyko	-10.9244
▁identifisert	-10.9262
▁låtskriver	-10.9262
▁matematikk	-10.9262
▁primitiv	-10.9262
▁douglas	-10.9262
▁komplisert	-10.9262
▁kommandant	-10.9262
▁jersey	-10.9262
▁konstruert	-10.9262
▁styrmann	-10.9262
▁thailand	-10.9262
▁vurdere	-10.9262
mønstre	-10.9262
▁konklave	-10.9262
▁florida	-10.9262
▁normannisk	-10.9262
▁dåp	-10.9262
▁tverrbånd	-10.9262
mouth	-10.9263
▁titler	-10.9263
▁innflytelsesrik	-10.9263
ла	-10.9264
syndrom	-10.9264
betjent	-10.9264
▁stryk	-10.9264
mengden	-10.9264
▁elsker	-10.9267
▁akademisk	-10.9268
▁forvaltnings	-10.9268
▁hjemmekamp	-10.9269
▁organisere	-10.927
mission	-10.9271
stevne	-10.9303
▁opplevelse	-10.934
▁pumpe	-10.9361
▁utvidelse	-10.9367
president	-10.9439
arkitekt	-10.9441
tradisjon	-10.9441
teknologi	-10.9445
brann	-10.9447
▁barokk	-10.9455
hvit	-10.9458
lykke	-10.946
▁erobre	-10.9466
sammenhengende	-10.9513
▁omhandle	-10.9558
▁undersøke	-10.9578
▁aftenposten	-10.9606
▁brandenburg	-10.9606
▁fasettøyne	-10.9606
▁lokomotiv	-10.9606
▁popularitet	-10.9606
▁prestegjeld	-10.9606
▁pronotum	-10.9606
▁vålerenga	-10.9606
▁bryllup	-10.9607
▁synonym	-10.9607
▁sediment	-10.9607
▁bekjempe	-10.9607
▁romerriket	-10.9607
▁forvandling	-10.9607
▁haugesund	-10.9607
▁identitet	-10.9607
▁forenklet	-10.9607
▁sicilia	-10.9607
▁stephen	-10.9607
▁kvadrat	-10.9607
▁foretatt	-10.9607
▁alfabetet	-10.9607
▁vakre	-10.9607
▁mastergrad	-10.9608
osfæren	-10.9608
▁laveste	-10.9608
▁linux	-10.9609
▁massiv	-10.9609
▁fruktbar	-10.961
▁forurens	-10.961
terapi	-10.961
▁mjø	-10.9612
▁ytelse	-10.9612
▁stripe	-10.9612
▁programvare	-10.9615
▁grafisk	-10.9616
▁temple	-10.9616
▁amerikanere	-10.9628
hvelv	-10.9636
▁adskil	-10.9678
▁øygrupp	-10.9692
ingeniør	-10.9798
medisin	-10.9798
divisjon	-10.9798
▁ødeleggelse	-10.9799
koloni	-10.98
▁minutt	-10.9816
sentral	-10.9829
▁strategi	-10.9879
▁bringe	-10.9886
▁konsentrasjon	-10.9917
▁omdanne	-10.9943
▁argentina	-10.9964
▁disiplin	-10.9964
▁joachim	-10.9964
▁jordskjelv	-10.9964
▁kontinuerlig	-10.9964
▁perspektiv	-10.9964
▁restaurert	-10.9964
▁ukraina	-10.9964
kringkasting	-10.9964
▁1878	-10.9964
▁arrangør	-10.9964
▁fjorten	-10.9964
▁oxford	-10.9964
▁pedagog	-10.9964
▁teoretisk	-10.9964
▁tilstrekkelig	-10.9964
▁selvbiografi	-10.9964
▁angivelig	-10.9964
▁ovenfor	-10.9964
▁eksistens	-10.9964
▁kontrast	-10.9964
▁prince	-10.9964
▁følte	-10.9964
▁korrekt	-10.9964
▁fremtidig	-10.9964
▁konkurs	-10.9964
▁verdensarv	-10.9964
▁bønder	-10.9964
▁axel	-10.9964
▁meteor	-10.9965
▁sibir	-10.9965
worth	-10.9965
▁skjøt	-10.9966
▁økning	-10.9966
▁relasjon	-10.9967
▁poesi	-10.997
vilkår	-10.9988
metoden	-11.0003
stredet	-11.0003
nærmet	-11.0007
▁stortingsvalge	-11.0017
▁avskjed	-11.0026
▁harmoni	-11.0104
▁elektro	-11.0112
▁soldat	-11.0143
0	-11.0167
konstruksjon	-11.0168
vestover	-11.0168
flåten	-11.0168
likevel	-11.0169
inntekt	-11.017
grønn	-11.0172
forsvarsminister	-11.022
▁anbefalt	-11.0334
▁championship	-11.0334
▁ekspansjon	-11.0334
▁generalmajor	-11.0334
▁massachusetts	-11.0334
▁millimeter	-11.0334
▁skandinavisk	-11.0334
▁ukrainsk	-11.0334
▁uppsala	-11.0334
▁britannia	-11.0334
▁channel	-11.0334
▁cæsar	-11.0334
▁middelhavs	-11.0334
▁missouri	-11.0334
▁representasjon	-11.0334
▁restaurant	-11.0334
▁tsjekkisk	-11.0334
▁avslørt	-11.0334
▁kjæreste	-11.0334
▁christopher	-11.0334
▁litauen	-11.0334
▁pattedyr	-11.0334
▁landkreis	-11.0334
▁forveksle	-11.0334
▁parallell	-11.0334
▁amundsen	-11.0334
▁ohio	-11.0334
▁begravet	-11.0334
▁sandefjord	-11.0334
▁beleiring	-11.0334
▁dybde	-11.0335
▁gabriel	-11.0335
▁kjøpmann	-11.0335
▁monroe	-11.0335
▁oppfordre	-11.0335
▁veteran	-11.0335
▁vincen	-11.0336
▁tokyo	-11.0336
▁gasskraftverk	-11.0336
▁fraksjon	-11.0337
▁forlatt	-11.0338
marskalk	-11.0339
▁blomstre	-11.0339
▁keltisk	-11.034
▁vinterleke	-11.0342
▁isolert	-11.0344
søstre	-11.0352
hausen	-11.0359
▁republikansk	-11.0395
▁konvensjon	-11.0417
▁bøye	-11.0451
▁demokrat	-11.0547
kvalitet	-11.0553
klima	-11.0554
flagg	-11.0556
design	-11.0562
ifikasjon	-11.0711
direktoratet	-11.0719
▁ambassade	-11.0719
▁basketball	-11.0719
▁guangdong	-11.0719
▁guddommelig	-11.0719
▁jugoslavia	-11.0719
▁konkurrent	-11.0719
▁mongolia	-11.0719
▁musikkvideo	-11.0719
▁napoléon	-11.0719
▁omstendighete	-11.0719
▁patriark	-11.0719
▁schleswig	-11.0719
▁spanjol	-11.0719
▁tsjekkia	-11.0719
▁utnevnelse	-11.0719
▁vancouver	-11.0719
▁vladimir	-11.0719
kommanderende	-11.0719
▁invitert	-11.0719
▁progressiv	-11.0719
▁utbredelse	-11.0719
▁innvandrer	-11.0719
▁kjønnsmod	-11.0719
▁embeds	-11.0719
▁fiction	-11.0719
▁halvorsen	-11.0719
▁autoritet	-11.0719
▁leonard	-11.0719
▁diameter	-11.0719
▁frimurer	-11.0719
▁arsenal	-11.0719
▁veksel	-11.0719
▁stanley	-11.0719
▁skjult	-11.0719
▁originaltittel	-11.0719
▁gjentatt	-11.0719
▁vegetasjon	-11.0719
▁avanserte	-11.072
▁oppfølger	-11.0721
▁embete	-11.0722
galleriet	-11.0722
▁profet	-11.0722
wright	-11.0725
▁spurt	-11.0726
▁betalt	-11.0729
▁oppfylle	-11.0746
kledt	-11.0749
overføring	-11.0775
▁sokn	-11.0787
gruppa	-11.0843
forfølgelse	-11.0856
innspilling	-11.0953
kommando	-11.0953
befolkningen	-11.0953
soldater	-11.0954
helikoptre	-11.1119
nskripsjon	-11.1119
rekrutter	-11.1119
▁academy	-11.1119
▁begivenhet	-11.1119
▁forfremme	-11.1119
▁forøvrig	-11.1119
▁jurisdiksjon	-11.1119
▁korrupsjon	-11.1119
▁lincoln	-11.1119
▁metamorfose	-11.1119
▁oppmuntre	-11.1119
▁pennsylvania	-11.1119
▁research	-11.1119
▁spellemannpris	-11.1119
▁spitsbergen	-11.1119
katastrofe	-11.1119
▁heidelberg	-11.1119
▁leipzig	-11.1119
▁resolusjon	-11.1119
▁satellitt	-11.1119
▁døpt	-11.1119
▁kosovo	-11.1119
▁libanon	-11.1119
▁operativsystem	-11.1119
▁utkjempe	-11.1119
▁forsiktig	-11.1119
▁dimensjon	-11.1119
▁vellykket	-11.1119
▁dedikert	-11.1119
▁horisont	-11.1119
▁hybrid	-11.1119
▁gravitasjon	-11.1119
▁matematisk	-11.1119
kostnadene	-11.1119
▁kristus	-11.1119
▁triumf	-11.1119
▁tyngde	-11.1119
spennende	-11.112
▁für	-11.112
▁noensinne	-11.112
▁bemerket	-11.112
▁undertegnet	-11.112
▁dødsfall	-11.112
▁innvalgt	-11.112
▁claudi	-11.1121
jylland	-11.1121
▁rakett	-11.1121
▁utfordre	-11.1121
▁tilbrakt	-11.1121
▁tendens	-11.1121
▁smykke	-11.1122
apparat	-11.1127
kollega	-11.1131
▁mannsnavn	-11.1133
avsnitt	-11.1138
ministre	-11.114
▁operere	-11.1146
komite	-11.1151
basseng	-11.1153
▁identisk	-11.1153
ballade	-11.1159
utdanne	-11.123
▁plei	-11.1251
▁koreansk	-11.1288
sykdom	-11.1354
transport	-11.1371
fotograf	-11.1377
fabrik	-11.1443
patron	-11.1464
lykt	-11.1535
▁aluminium	-11.1535
▁avskaffet	-11.1535
▁canterbury	-11.1535
▁intellektuell	-11.1535
▁könig	-11.1535
▁opphørte	-11.1535
▁publikasjon	-11.1535
▁restaurering	-11.1535
▁benjamin	-11.1535
▁oppvarming	-11.1535
▁sophie	-11.1535
▁jimmy	-11.1535
▁torpedo	-11.1535
▁bosnia	-11.1535
▁bystatus	-11.1535
▁interiør	-11.1535
▁porsgrunn	-11.1535
▁ordinær	-11.1535
▁reaktor	-11.1535
▁rovdyr	-11.1535
▁foreløpig	-11.1535
▁fjellkjeden	-11.1535
sylindre	-11.1535
▁ukentlig	-11.1535
▁gjær	-11.1535
▁utstrakt	-11.1535
▁dresden	-11.1535
▁gordon	-11.1535
▁charlotte	-11.1536
▁komplett	-11.1536
▁benedikt	-11.1536
leverandør	-11.1536
▁statsborger	-11.1536
▁rasmus	-11.1536
krystall	-11.1536
▁reidar	-11.1536
▁hovedpersonen	-11.1536
borough	-11.1536
▁bebodd	-11.1536
▁fangenskap	-11.1536
▁ruinene	-11.1536
▁utpekt	-11.1536
▁ødela	-11.1536
▁dream	-11.1536
▁gummi	-11.1537
▁dispone	-11.1537
▁muhamm	-11.1537
▁adrian	-11.1537
▁facto	-11.1538
▁tempo	-11.1538
▁bløt	-11.1539
▁clark	-11.1539
▁farao	-11.1541
▁ekstern	-11.1573
flyvning	-11.1614
gjelle	-11.1634
▁ivareta	-11.1697
nøtt	-11.1709
▁hospital	-11.1724
sykehus	-11.1804
spørsmål	-11.1804
litteratur	-11.1805
blanding	-11.1806
medlemmene	-11.1937
▁doktor	-11.197
▁argentinsk	-11.197
▁bulgarsk	-11.197
▁edinburgh	-11.197
▁electric	-11.197
▁etiopia	-11.197
▁fengslet	-11.197
▁indonesia	-11.197
▁langrennsløper	-11.197
▁michigan	-11.197
▁normandie	-11.197
▁stjørdal	-11.197
▁warszawa	-11.197
afylki	-11.197
▁dramatiker	-11.197
▁parallelt	-11.197
▁yunnan	-11.197
▁depresjon	-11.197
▁plutselig	-11.197
▁forbedring	-11.197
▁nanjing	-11.197
▁sympati	-11.197
▁1861	-11.197
▁aktuelle	-11.197
▁mikael	-11.197
▁nominasjon	-11.197
▁rockeband	-11.197
▁skjønnhet	-11.197
▁diskutert	-11.197
▁trondhjems	-11.197
▁ulovlig	-11.197
▁manifest	-11.197
▁hjelm	-11.197
▁henrettelse	-11.197
▁theodor	-11.197
▁cecil	-11.197
▁ragnar	-11.1971
▁seoul	-11.1971
▁guinea	-11.1971
▁spredning	-11.1971
thriller	-11.1971
▁ntnu	-11.1971
▁søsken	-11.1971
▁lagtinget	-11.1971
▁dvd	-11.1971
thorax	-11.1972
▁mistenkt	-11.1972
▁harrison	-11.1974
▁forvandle	-11.1977
▁tørke	-11.198
▁mystisk	-11.198
▁forhandle	-11.1983
▁flanke	-11.1997
sfære	-11.2003
politiker	-11.2259
sesongen	-11.226
spalte	-11.227
leigh	-11.2283
personligheter	-11.2297
▁journal	-11.231
▁bearbeide	-11.2329
pningsseremonien	-11.2425
▁anonym	-11.2425
▁fremtredende	-11.2425
▁frilufts	-11.2425
▁helikopter	-11.2425
▁hongkong	-11.2425
▁illustrasjon	-11.2425
▁indirekte	-11.2425
▁instruksjon	-11.2425
▁kasakhstan	-11.2425
▁keramikk	-11.2425
▁konsentrert	-11.2425
▁köln	-11.2425
▁molekyl	-11.2425
▁narkotika	-11.2425
▁obligatorisk	-11.2425
▁oppnevnt	-11.2425
▁orchestra	-11.2425
▁propaganda	-11.2425
▁sjælland	-11.2425
▁supporter	-11.2425
▁tilnærming	-11.2425
▁uteksaminer	-11.2425
▁wergeland	-11.2425
▁anbefale	-11.2425
▁diagnose	-11.2425
▁evakuert	-11.2425
▁kongsvinger	-11.2425
▁afghansk	-11.2425
▁relieff	-11.2425
▁albania	-11.2425
▁jupiter	-11.2425
▁kroatia	-11.2425
▁drivstoff	-11.2425
▁krønike	-11.2425
▁legitim	-11.2425
▁mangfold	-11.2425
▁colombia	-11.2425
▁hamilton	-11.2425
▁vannpolo	-11.2425
metabol	-11.2425
▁fredsavtale	-11.2425
▁sagbruk	-11.2425
▁parlamentarisk	-11.2425
▁firenze	-11.2425
▁kypros	-11.2425
▁oppgradert	-11.2425
▁nedtegnet	-11.2425
▁kommentar	-11.2425
▁kriteri	-11.2425
▁bøndene	-11.2425
