<unk>	0
<s>	0
</s>	0
.	-3.03582
s	-3.23612
e	-3.59736
▁	-3.61385
t	-4.00082
en	-4.12098
er	-4.12215
▁og	-4.35117
▁i	-4.47285
r	-4.60981
▁er	-4.66313
n	-4.698
a	-4.77974
et	-5.0021
i	-5.20493
▁av	-5.21017
o	-5.31226
d	-5.40728
▁for	-5.41136
k	-5.42619
▁en	-5.54291
y	-5.59647
▁var	-5.65088
▁på	-5.67294
▁som	-5.69986
▁til	-5.70221
te	-5.71497
▁med	-5.74419
g	-5.74917
▁de	-5.7596
ne	-5.76884
m	-5.79746
ene	-5.82509
▁har	-5.98774
l	-6.04311
h	-6.05225
c	-6.07544
▁fra	-6.07968
p	-6.09102
▁den	-6.09231
f	-6.09596
de	-6.10196
in	-6.19371
u	-6.19965
v	-6.23922
es	-6.28044
▁a	-6.28045
b	-6.28756
ing	-6.2968
re	-6.30636
▁ble	-6.30795
an	-6.32928
us	-6.32962
le	-6.36504
al	-6.37968
▁s	-6.38205
▁et	-6.41278
▁be	-6.4373
▁det	-6.44717
z	-6.46232
na	-6.47301
▁han	-6.55798
ar	-6.56023
on	-6.58264
▁the	-6.58897
▁m	-6.58937
▁ved	-6.63083
is	-6.63941
▁eller	-6.64788
▁ut	-6.6581
▁også	-6.67781
w	-6.68556
ter	-6.7
um	-6.70105
▁under	-6.71087
▁to	-6.73379
x	-6.7344
j	-6.73726
▁kan	-6.7389
ia	-6.74163
▁d	-6.76606
ta	-6.77097
sk	-6.79116
▁å	-6.79155
ra	-6.79295
6	-6.79869
ma	-6.81955
▁f	-6.8198
3	-6.84032
ke	-6.85245
ch	-6.85512
▁p	-6.86468
or	-6.87327
▁over	-6.87372
5	-6.8741
▁b	-6.89615
8	-6.90008
▁k	-6.90615
4	-6.91397
li	-6.92236
1	-6.93548
ka	-6.94529
▁al	-6.94896
el	-6.95183
▁se	-6.9631
7	-6.96632
▁om	-6.97189
9	-6.97208
ri	-6.97469
▁in	-6.97754
la	-6.9858
ens	-6.98615
▁l	-6.9891
▁g	-6.99246
▁c	-6.99611
▁opp	-7.01008
2	-7.01747
ck	-7.01962
▁an	-7.02013
▁h	-7.02897
der	-7.03453
il	-7.0348
▁la	-7.03645
▁18	-7.03829
ng	-7.04341
▁u	-7.04824
land	-7.05221
ga	-7.07138
▁inn	-7.08191
da	-7.08497
ur	-7.08616
▁andre	-7.09069
▁etter	-7.09709
▁di	-7.10051
di	-7.1326
at	-7.13303
0	-7.13599
nes	-7.13774
▁re	-7.15519
▁ha	-7.15744
ende	-7.16449
ro	-7.17116
ja	-7.17321
é	-7.1791
▁ligger	-7.19358
▁of	-7.19659
▁n	-7.19854
ge	-7.20315
▁and	-7.20858
ba	-7.21638
ver	-7.23022
ler	-7.23198
▁da	-7.23363
ger	-7.23707
kk	-7.23905
be	-7.24137
isk	-7.24953
lo	-7.2651
øy	-7.26544
lig	-7.26731
▁co	-7.28301
to	-7.28992
▁bo	-7.29154
ed	-7.29639
▁j	-7.29902
as	-7.30005
ul	-7.30152
▁ro	-7.302
▁tre	-7.31644
stad	-7.32457
▁v	-7.33218
▁le	-7.33777
▁no	-7.33925
ve	-7.34005
bo	-7.35194
▁her	-7.35669
ha	-7.35686
den	-7.36596
▁mo	-7.36707
ff	-7.37185
▁he	-7.37632
ig	-7.37768
th	-7.37773
kt	-7.38818
dal	-7.38942
▁ca	-7.39
ol	-7.39125
▁st	-7.39729
man	-7.40089
▁na	-7.40384
▁at	-7.40793
si	-7.40801
▁hoved	-7.40836
ner	-7.41197
son	-7.41985
▁w	-7.42051
▁sa	-7.42355
ning	-7.4244
ko	-7.42746
▁t	-7.43005
nde	-7.43378
ic	-7.43563
▁o	-7.43668
ton	-7.44761
ut	-7.45193
ad	-7.45295
id	-7.45437
▁nord	-7.45685
berg	-7.46285
▁ma	-7.46524
ik	-7.4669
▁pa	-7.46821
ør	-7.47604
▁vi	-7.47606
ti	-7.47705
▁ra	-7.48916
▁man	-7.48968
me	-7.49406
▁blant	-7.49411
mo	-7.49496
▁men	-7.49649
▁r	-7.49686
▁do	-7.5055
co	-7.5141
ske	-7.51673
mi	-7.51781
▁hans	-7.52004
▁sp	-7.52148
ry	-7.52639
▁ni	-7.53786
am	-7.54432
▁so	-7.54499
á	-7.54545
je	-7.54962
gen	-7.55658
iske	-7.55859
▁ri	-7.55933
va	-7.55999
bi	-7.5602
▁ka	-7.56374
▁kon	-7.56942
ce	-7.57724
▁li	-7.58106
ina	-7.58192
▁si	-7.58281
▁ta	-7.58412
ir	-7.58605
▁mot	-7.59079
het	-7.59114
it	-7.59554
vi	-7.59676
▁per	-7.59792
▁pi	-7.6021
▁du	-7.60308
ling	-7.60541
▁sin	-7.61091
▁gjennom	-7.61205
for	-7.61638
os	-7.62481
▁mar	-7.62529
bu	-7.63184
▁hadde	-7.63821
by	-7.63905
▁stor	-7.63914
▁kalles	-7.64409
pe	-7.64426
▁sch	-7.64611
æ	-7.64726
ly	-7.65334
▁lo	-7.65413
▁kinesisk	-7.65866
ker	-7.65888
lige	-7.66248
▁as	-7.67567
ø	-7.67621
▁bar	-7.67781
erte	-7.68099
▁po	-7.68176
▁el	-7.68677
▁pro	-7.69024
do	-7.6975
▁tor	-7.70739
▁ti	-7.70822
no	-7.70839
om	-7.72215
▁by	-7.72368
▁mellom	-7.7241
ell	-7.72502
í	-7.73656
▁me	-7.73736
ist	-7.73782
▁dette	-7.74231
▁su	-7.74771
ci	-7.74912
ö	-7.75033
▁ho	-7.75693
▁fa	-7.75806
▁ba	-7.75813
▁or	-7.76233
▁ny	-7.76236
▁1	-7.76246
▁seg	-7.76272
ov	-7.76376
å	-7.76897
vik	-7.76923
▁jo	-7.77999
▁ko	-7.7852
▁lu	-7.7866
▁der	-7.78841
▁ga	-7.79683
▁am	-7.80269
else	-7.82199
mann	-7.82276
pa	-7.82425
▁2	-7.82838
ca	-7.83212
ven	-7.83823
po	-7.84153
skap	-7.84462
au	-7.84496
io	-7.8532
tt	-7.85755
▁min	-7.85893
un	-7.8606
▁pe	-7.86516
ster	-7.8657
▁denne	-7.86793
▁flere	-7.8735
▁z	-7.88013
asjon	-7.88043
▁mor	-7.88064
go	-7.88103
▁ja	-7.88388
▁ikke	-7.88444
sh	-7.8915
ste	-7.89635
sel	-7.90017
men	-7.90029
▁ru	-7.90093
mer	-7.90546
▁con	-7.90786
im	-7.90804
▁15	-7.90815
▁fri	-7.90951
var	-7.91188
▁land	-7.91316
▁hun	-7.9144
▁disse	-7.92004
ie	-7.92495
▁te	-7.93136
▁16	-7.93379
ll	-7.93474
ment	-7.93936
vis	-7.94221
▁car	-7.94545
ær	-7.94623
op	-7.94639
gu	-7.95102
ho	-7.95107
tra	-7.95299
▁hu	-7.95851
▁bu	-7.96198
▁sør	-7.96285
ä	-7.9634
▁født	-7.96444
ica	-7.96656
vin	-7.96658
ung	-7.96818
ac	-7.97265
▁sol	-7.97563
ki	-7.97631
▁gu	-7.97709
lag	-7.9776
▁x	-7.97812
ation	-7.97993
▁tilhører	-7.98395
▁fikk	-7.98523
gi	-7.98554
ard	-7.99023
▁ei	-7.99134
ant	-7.99173
iv	-7.99196
ian	-7.99532
▁del	-8.00013
▁sam	-8.00077
▁gi	-8.00674
od	-8.00804
▁første	-8.01196
▁bi	-8.01431
▁sammen	-8.0145
lin	-8.01606
ord	-8.02375
▁ju	-8.02608
ok	-8.02704
år	-8.02901
rett	-8.03358
▁blir	-8.03449
tter	-8.03645
em	-8.03749
ber	-8.03964
▁ch	-8.04005
tal	-8.04325
per	-8.04417
ow	-8.04551
ni	-8.04677
av	-8.05367
▁kjent	-8.05808
and	-8.05906
▁øst	-8.05914
hu	-8.06367
▁lag	-8.06522
▁fi	-8.06596
▁go	-8.06615
▁kom	-8.0664
ring	-8.06885
ü	-8.06888
ó	-8.07387
▁samt	-8.07387
sta	-8.07962
erne	-8.08181
▁tra	-8.08456
ud	-8.09013
hold	-8.09019
▁vest	-8.09567
elle	-8.09672
▁tidligere	-8.09721
sjon	-8.09916
▁mi	-8.10242
▁hel	-8.10622
▁navn	-8.1084
za	-8.11038
▁bestå	-8.11332
▁bak	-8.11364
▁finnes	-8.11857
▁ak	-8.12132
ot	-8.12318
▁ab	-8.12392
tu	-8.1259
del	-8.12712
▁mer	-8.12849
yl	-8.12897
idae	-8.13013
▁alle	-8.13234
▁all	-8.13632
und	-8.13646
▁far	-8.13679
▁y	-8.13805
▁san	-8.14025
min	-8.14066
ā	-8.14222
itt	-8.14277
pi	-8.14408
ong	-8.14424
▁ki	-8.14459
lu	-8.15147
▁ge	-8.15225
▁kommune	-8.15706
▁ne	-8.16113
▁navnet	-8.16121
ine	-8.1624
▁par	-8.16303
ang	-8.164
▁så	-8.16465
▁kalt	-8.16602
nd	-8.16663
ion	-8.16764
ou	-8.16766
▁ad	-8.16819
hi	-8.17377
▁annet	-8.17725
ld	-8.18073
▁omfatter	-8.18139
▁fly	-8.18719
dag	-8.18727
fa	-8.18798
▁byen	-8.18945
▁kar	-8.19067
tor	-8.19164
sted	-8.19167
du	-8.19186
sten	-8.19629
hus	-8.20245
▁my	-8.20475
ium	-8.2055
ron	-8.20584
les	-8.20931
over	-8.21095
▁19	-8.21129
▁ski	-8.21197
▁russisk	-8.21334
sp	-8.21916
▁ar	-8.21993
00	-8.22057
gg	-8.22515
tan	-8.22606
▁ned	-8.22943
▁nor	-8.23003
▁nå	-8.23279
tur	-8.23299
ny	-8.23359
▁ku	-8.23429
ak	-8.23491
▁3	-8.2366
е	-8.2378
▁dag	-8.23782
ek	-8.23859
stein	-8.23959
kel	-8.24148
▁bra	-8.24282
▁tri	-8.2461
mp	-8.24833
tar	-8.24958
▁ver	-8.25217
▁tu	-8.25399
▁jan	-8.25421
▁we	-8.26139
▁heter	-8.26183
ering	-8.26947
tri	-8.26952
bb	-8.27099
tre	-8.2718
ku	-8.27611
▁mal	-8.2774
ru	-8.27785
zi	-8.29115
▁wi	-8.29311
▁tro	-8.30156
ting	-8.30209
▁bro	-8.3031
▁fo	-8.30393
▁ben	-8.30485
▁pre	-8.3077
▁pu	-8.30992
▁pinyin	-8.30996
▁eks	-8.31014
▁fire	-8.31164
mar	-8.31222
ya	-8.31353
opp	-8.31417
▁john	-8.31441
wa	-8.31506
▁ag	-8.31907
heim	-8.32099
▁cha	-8.32101
▁følgende	-8.3216
ag	-8.32161
gang	-8.32206
▁lang	-8.32263
▁norsk	-8.32326
▁kirke	-8.32559
▁sta	-8.32581
ede	-8.32592
▁vann	-8.32774
▁betyr	-8.32812
tin	-8.32826
▁berg	-8.32866
art	-8.32898
▁kor	-8.33367
ab	-8.33689
▁frem	-8.34424
he	-8.34551
ley	-8.34767
▁mag	-8.35001
ju	-8.3503
▁mange	-8.35373
▁største	-8.35493
ier	-8.35571
mb	-8.35635
▁vil	-8.35685
▁sal	-8.35924
är	-8.36293
и	-8.36423
▁syn	-8.36609
▁rød	-8.36742
bar	-8.36868
ty	-8.37049
jo	-8.3716
▁vel	-8.37213
mor	-8.37347
▁on	-8.37382
ham	-8.37486
chi	-8.37522
▁mu	-8.37595
▁være	-8.38007
▁br	-8.38094
sson	-8.38168
▁før	-8.38201
familien	-8.38214
▁com	-8.38232
▁mens	-8.38352
▁ofte	-8.38365
ikk	-8.38572
▁fu	-8.38817
▁val	-8.38825
lands	-8.39166
ú	-8.39233
▁op	-8.39312
▁ur	-8.39676
▁skal	-8.39685
▁høy	-8.39851
▁2002	-8.40085
est	-8.40088
ska	-8.40138
fe	-8.40174
▁lever	-8.40517
▁sand	-8.40542
dalen	-8.40928
ari	-8.41061
dd	-8.41153
▁col	-8.41189
▁va	-8.41293
▁liste	-8.4131
sti	-8.41394
▁stein	-8.41401
pp	-8.41543
▁och	-8.42121
bruk	-8.42337
▁bru	-8.42386
▁operatør	-8.42586
▁fe	-8.42636
q	-8.43123
▁folketelling	-8.43512
▁4	-8.4353
▁ex	-8.44181
▁sk	-8.44522
ius	-8.44745
▁går	-8.44778
о	-8.44848
ding	-8.44917
inn	-8.45186
▁mål	-8.45298
ris	-8.45358
▁bre	-8.45613
▁wa	-8.45693
▁ke	-8.45839
▁vo	-8.45839
ans	-8.46012
▁tid	-8.46081
ken	-8.46098
▁fem	-8.46239
▁hus	-8.46356
▁år	-8.46382
ji	-8.46494
verk	-8.46817
▁pr	-8.46894
inger	-8.47111
▁mel	-8.47158
tte	-8.47236
▁nu	-8.47339
kker	-8.47397
▁mat	-8.47543
▁sh	-8.47575
▁moh	-8.47808
▁5	-8.47842
▁leder	-8.48118
vo	-8.48141
jø	-8.48605
▁skrev	-8.48821
ft	-8.49219
kar	-8.49256
mon	-8.49367
ill	-8.49454
mmer	-8.4954
sch	-8.49629
▁parti	-8.49807
▁sitt	-8.49943
vet	-8.49989
▁pan	-8.4999
▁ø	-8.50202
▁brun	-8.50291
▁ste	-8.50483
▁sc	-8.50551
tid	-8.50571
▁sj	-8.50602
▁familien	-8.50974
▁store	-8.51185
▁flaggbærer	-8.5147
til	-8.51553
ingen	-8.51644
▁små	-8.51716
pningsseremonien	-8.51945
ze	-8.51983
▁hos	-8.52551
▁af	-8.52615
br	-8.52968
▁dan	-8.53288
▁new	-8.53477
dy	-8.53579
nings	-8.53623
▁død	-8.53698
yn	-8.53802
▁vant	-8.53831
▁noen	-8.53845
ator	-8.53881
▁nær	-8.54065
ologi	-8.54082
▁kommunen	-8.54157
ana	-8.54274
par	-8.54371
▁film	-8.54517
borg	-8.54668
▁innen	-8.55104
che	-8.55224
▁chi	-8.55516
bro	-8.5554
▁gra	-8.55706
▁au	-8.55852
▁mest	-8.55925
▁senere	-8.56404
▁laget	-8.57049
▁engelsk	-8.57071
dre	-8.57072
▁inneholder	-8.57154
kon	-8.57206
len	-8.57272
tten	-8.57276
▁can	-8.57301
▁langs	-8.57369
▁za	-8.57413
lan	-8.57424
tisk	-8.57434
▁20	-8.57528
а	-8.57585
form	-8.57623
▁ed	-8.58059
▁ci	-8.58311
if	-8.58335
▁gir	-8.58662
▁art	-8.58665
▁bor	-8.58835
ach	-8.58901
ningen	-8.59028
▁hen	-8.59415
bel	-8.59444
stre	-8.59508
ino	-8.59876
▁spiller	-8.59923
н	-8.60108
ap	-8.60406
mme	-8.60645
▁musikk	-8.60685
▁spe	-8.60966
folkerepublikken	-8.61157
▁verdens	-8.61275
▁folke	-8.61285
veien	-8.61437
dyr	-8.61513
itet	-8.61624
▁ham	-8.61629
▁skole	-8.61655
▁gud	-8.61659
▁gen	-8.61742
rø	-8.61882
▁kra	-8.6199
▁ve	-8.62086
kom	-8.62422
tz	-8.62489
ep	-8.62558
val	-8.62597
satt	-8.62613
▁sen	-8.62645
▁fjell	-8.62675
▁jord	-8.62722
ran	-8.6288
▁gar	-8.62983
met	-8.63001
▁lå	-8.63036
▁hol	-8.63178
siden	-8.63184
ight	-8.63265
▁ol	-8.63466
▁div	-8.63472
▁fag	-8.63562
bil	-8.63659
▁hal	-8.63663
elsen	-8.63707
▁kl	-8.63877
gel	-8.64013
▁7	-8.6407
ps	-8.6415
▁bil	-8.64158
▁gjen	-8.64179
▁paul	-8.64185
hr	-8.64462
uk	-8.6454
lø	-8.64705
far	-8.64734
fi	-8.64761
kor	-8.64934
▁rundt	-8.65027
▁fram	-8.65082
fra	-8.65087
▁kunst	-8.65364
▁god	-8.65382
fly	-8.65598
▁hy	-8.65657
we	-8.65687
sse	-8.66213
▁bas	-8.6622
fjorden	-8.66325
tak	-8.66327
▁kinas	-8.66458
▁liv	-8.66614
▁sønn	-8.66822
▁fin	-8.67015
▁10	-8.67055
øya	-8.67197
▁grunn	-8.67202
ug	-8.67395
han	-8.67486
stand	-8.67504
▁kultur	-8.67606
▁må	-8.67784
ive	-8.67896
ita	-8.67908
ð	-8.6807
vel	-8.68113
▁inkluderer	-8.68176
▁selv	-8.68347
ini	-8.68366
▁6	-8.68395
▁van	-8.68497
▁språk	-8.68521
bok	-8.68714
▁shi	-8.68899
dra	-8.69043
▁ul	-8.69107
▁gul	-8.69256
dan	-8.69264
▁ry	-8.70259
▁juli	-8.70289
▁mon	-8.7031
▁roman	-8.70317
án	-8.70421
klubb	-8.70464
▁you	-8.70539
ah	-8.70587
øn	-8.70599
▁kun	-8.70885
ppe	-8.70963
▁bal	-8.71064
ula	-8.71401
gar	-8.71474
sund	-8.71776
▁em	-8.71943
rik	-8.71988
▁ord	-8.72069
fisk	-8.72088
▁fiske	-8.72256
▁ap	-8.72303
ī	-8.72385
▁bjørn	-8.7244
▁vin	-8.72603
ub	-8.72756
cu	-8.7286
▁12	-8.72973
▁tur	-8.72995
▁ska	-8.73169
▁rø	-8.73172
д	-8.73528
▁hvor	-8.73658
▁8	-8.73772
▁tar	-8.73773
fon	-8.73798
tiske	-8.73956
kan	-8.74054
pper	-8.74059
▁bok	-8.74122
ola	-8.74222
▁innbyggertall	-8.74229
▁bur	-8.74319
▁peter	-8.74438
▁ob	-8.74444
eres	-8.74557
▁kur	-8.7463
▁kommer	-8.75111
š	-8.75125
▁red	-8.75283
▁skog	-8.75315
▁inter	-8.75352
este	-8.75367
è	-8.75374
fjord	-8.75379
kj	-8.75443
og	-8.75506
bre	-8.7552
р	-8.75549
▁lav	-8.75693
bl	-8.75696
▁kv	-8.76345
▁sig	-8.76403
▁står	-8.76483
ice	-8.76672
ida	-8.76705
let	-8.76814
▁von	-8.76915
▁fr	-8.76935
age	-8.77195
▁un	-8.77303
▁sv	-8.77372
mel	-8.7741
vann	-8.77488
▁para	-8.77556
▁lind	-8.77583
▁fast	-8.77715
lia	-8.77843
à	-8.77857
▁videre	-8.77896
ighet	-8.77926
pu	-8.77947
▁fer	-8.7807
skog	-8.78129
▁christian	-8.78204
▁ten	-8.78305
mm	-8.78376
stan	-8.78379
red	-8.7838
▁tom	-8.78436
mark	-8.78531
▁representerte	-8.78803
▁0	-8.78928
ød	-8.78947
rin	-8.79032
ano	-8.79342
▁sø	-8.79418
vær	-8.79487
ör	-8.79549
▁kina	-8.79553
▁thor	-8.79579
ara	-8.79602
▁alt	-8.79822
▁grav	-8.79865
nk	-8.79867
▁dr	-8.80009
▁august	-8.80042
▁anti	-8.80076
▁området	-8.80091
▁plan	-8.80116
▁norge	-8.80256
lå	-8.80289
shi	-8.80327
mu	-8.80342
▁hei	-8.80431
my	-8.8053
▁mai	-8.80652
ther	-8.80717
rud	-8.80727
▁innenfor	-8.80743
▁ty	-8.80748
ip	-8.80791
øl	-8.80987
anlegg	-8.80988
α	-8.80991
▁tal	-8.81064
▁like	-8.81125
▁motor	-8.81146
ani	-8.8128
▁kla	-8.81297
▁tv	-8.81704
sto	-8.82002
▁9	-8.82029
gre	-8.82087
ij	-8.82134
tro	-8.82252
gh	-8.82317
▁und	-8.82379
▁selskapet	-8.82383
hl	-8.82404
▁post	-8.82469
▁not	-8.82498
▁lokal	-8.82553
lev	-8.82664
▁robert	-8.82673
▁gran	-8.82719
▁km	-8.82948
▁mas	-8.82969
▁gift	-8.83053
gård	-8.83078
slag	-8.8325
mat	-8.83411
▁opprinnelig	-8.83568
que	-8.83573
ull	-8.83669
▁ya	-8.83679
▁vol	-8.83957
▁hi	-8.84032
▁sjø	-8.84035
▁bruker	-8.84055
mål	-8.84074
▁kort	-8.84126
lik	-8.84143
м	-8.84199
ksjon	-8.84221
▁både	-8.84223
ova	-8.84324
▁ji	-8.84376
▁gal	-8.844
tsj	-8.84508
mester	-8.84572
senter	-8.8467
▁cas	-8.84678
▁sha	-8.84741
▁fl	-8.84829
▁ren	-8.84906
ale	-8.84931
▁ly	-8.84962
▁vei	-8.84974
setning	-8.84984
▁valg	-8.85007
ich	-8.8504
▁vis	-8.85081
▁verk	-8.85207
isme	-8.85412
▁gre	-8.85487
xi	-8.85527
▁sub	-8.85556
▁gruppen	-8.8559
▁hovedstad	-8.85747
burg	-8.85786
dom	-8.85831
bø	-8.85885
▁mark	-8.85949
▁mars	-8.86052
lse	-8.86098
▁slik	-8.86138
▁radio	-8.86215
▁via	-8.86234
▁vår	-8.8638
▁gull	-8.86389
ssen	-8.86401
bær	-8.86416
▁dy	-8.86455
ū	-8.86548
eg	-8.86582
lle	-8.86633
stil	-8.87008
▁oslo	-8.87008
▁hav	-8.87143
▁plante	-8.87217
ph	-8.87223
▁rom	-8.87274
pre	-8.87439
ski	-8.87445
▁nasjonal	-8.87446
ros	-8.87508
ving	-8.87527
▁halv	-8.87598
▁je	-8.87645
▁natur	-8.87655
pris	-8.87818
▁norske	-8.88016
ika	-8.8822
▁2006	-8.88265
▁martin	-8.88359
▁pra	-8.8841
▁band	-8.88424
van	-8.88445
▁sentral	-8.88597
▁sil	-8.88597
huset	-8.88624
fer	-8.88641
▁ang	-8.88656
▁fred	-8.88864
ford	-8.88879
▁sm	-8.88948
▁brukes	-8.89161
к	-8.89202
don	-8.89229
gikk	-8.89295
▁sine	-8.89373
▁cu	-8.89466
▁kri	-8.89548
у	-8.8962
▁kr	-8.89646
▁form	-8.89661
pan	-8.8988
wi	-8.89956
▁mac	-8.90108
vei	-8.90351
▁blå	-8.90595
alis	-8.90684
▁ber	-8.907
▁lys	-8.9076
gan	-8.908
▁class	-8.91028
▁die	-8.91268
som	-8.91274
▁politi	-8.91288
ath	-8.91288
▁west	-8.9144
sky	-8.91458
ay	-8.91498
▁pat	-8.91591
▁cl	-8.91623
cc	-8.91755
system	-8.91774
fin	-8.91912
anger	-8.91993
▁jeg	-8.92048
ata	-8.92067
▁mod	-8.92068
т	-8.92138
▁øy	-8.92197
up	-8.92238
▁gresk	-8.92255
oc	-8.9234
rings	-8.92447
fo	-8.92732
▁dem	-8.92772
▁luft	-8.92832
▁siden	-8.92848
▁cor	-8.92856
▁för	-8.92933
▁hell	-8.9306
▁kong	-8.93082
cy	-8.93123
port	-8.93127
▁ifølge	-8.93247
▁farge	-8.93258
elser	-8.93279
▁port	-8.9335
område	-8.93381
▁pol	-8.93411
▁erik	-8.93416
▁bill	-8.93489
hn	-8.93552
▁tradisjonell	-8.93666
▁ban	-8.93715
ble	-8.93724
▁mil	-8.93931
▁yu	-8.9395
nu	-8.94035
▁q	-8.94046
▁lin	-8.94047
res	-8.94198
ære	-8.94258
▁vise	-8.9431
▁tele	-8.94322
ninger	-8.9458
kh	-8.9463
områder	-8.94736
▁stats	-8.94931
▁trans	-8.95026
lie	-8.95071
▁arm	-8.95189
▁gro	-8.95363
▁seks	-8.95369
▁dom	-8.95398
vern	-8.95422
▁rett	-8.9545
våg	-8.9545
▁distriktet	-8.95673
ect	-8.95686
isten	-8.95779
lett	-8.9581
isert	-8.95992
▁fil	-8.96028
▁barne	-8.961
▁hennes	-8.96106
▁30	-8.96167
▁gri	-8.96541
rom	-8.96576
forening	-8.9668
▁het	-8.96898
mal	-8.96908
tic	-8.96918
ket	-8.96924
▁lyd	-8.96995
▁tysk	-8.97011
▁tak	-8.97018
bus	-8.97106
▁fla	-8.97189
▁gjerne	-8.9736
▁os	-8.97376
▁fransk	-8.97388
▁mak	-8.97413
▁tekst	-8.97549
10	-8.97622
▁distrikt	-8.97653
▁ole	-8.97947
gge	-8.9797
▁president	-8.98058
elli	-8.98062
hy	-8.98101
bin	-8.98123
▁når	-8.98137
▁data	-8.98295
▁sommer	-8.98359
▁side	-8.98578
▁organ	-8.98658
ister	-8.98749
▁karl	-8.98801
▁administrasjons	-8.99041
tel	-8.99178
organisasjon	-8.99373
▁kn	-8.99506
lus	-8.99538
▁21	-8.99629
▁hele	-8.9975
▁http	-8.99831
kal	-8.99883
kle	-8.99972
▁spilte	-8.99974
ind	-9.00243
rat	-9.00341
▁georg	-9.00406
▁begge	-9.0043
▁ky	-9.00431
leder	-9.00442
▁kir	-9.00457
bert	-9.00485
gren	-9.00515
▁war	-9.00525
▁sommerfugl	-9.00645
▁følger	-9.00646
▁small	-9.00661
lys	-9.00669
mus	-9.0078
ves	-9.00799
▁stra	-9.00817
▁norges	-9.00928
ky	-9.00942
giv	-9.01252
laget	-9.0136
▁vir	-9.01447
all	-9.01469
▁mad	-9.01486
▁bare	-9.01489
▁tru	-9.0152
▁thomas	-9.01524
uc	-9.0153
▁tok	-9.01532
▁dal	-9.01633
▁will	-9.01706
▁mus	-9.01761
ō	-9.02069
dig	-9.02092
▁william	-9.0216
bor	-9.022
ige	-9.02212
на	-9.02216
▁david	-9.0222
ella	-9.02256
▁ein	-9.02279
▁pri	-9.0251
▁carl	-9.02522
▁stre	-9.02598
ction	-9.02611
ban	-9.02656
fall	-9.02757
kken	-9.02801
▁dra	-9.02811
▁are	-9.02847
▁sel	-9.02916
▁barn	-9.03006
navn	-9.03063
▁støtte	-9.03106
с	-9.03119
▁samme	-9.03209
▁bø	-9.03284
pl	-9.03373
▁kol	-9.03425
▁stu	-9.03602
▁uten	-9.03889
▁ac	-9.03993
enes	-9.04058
▁25	-9.04211
▁hvit	-9.04212
yd	-9.04255
ym	-9.04305
▁maria	-9.04352
▁midt	-9.045
bygg	-9.04501
▁vært	-9.04573
än	-9.04801
▁ring	-9.04826
heten	-9.04847
▁bl	-9.05072
cia	-9.05098
har	-9.05112
senteret	-9.05133
▁skr	-9.05203
▁dikt	-9.05218
jev	-9.05354
▁landets	-9.05542
▁nye	-9.05716
zhou	-9.0577
▁topp	-9.05796
su	-9.05801
▁mc	-9.05901
▁sur	-9.05943
▁rekke	-9.05979
press	-9.05996
tiden	-9.06003
stoff	-9.06099
▁eksempel	-9.06129
▁sang	-9.06161
▁jon	-9.06326
sjef	-9.0635
elva	-9.06461
cht	-9.06487
▁borg	-9.06551
itz	-9.06619
▁eu	-9.06641
lis	-9.0669
olog	-9.06749
gna	-9.06899
ai	-9.06906
dde	-9.06912
▁23	-9.06966
▁japansk	-9.06971
▁reference	-9.06989
▁2010	-9.07011
▁kyst	-9.07131
stu	-9.07409
▁2008	-9.07427
▁wo	-9.07647
▁grå	-9.0768
ct	-9.07762
▁viktigste	-9.07841
▁ser	-9.07909
▁che	-9.07963
▁bli	-9.07975
nis	-9.08066
▁xi	-9.0807
▁hovedstaden	-9.08152
▁egen	-9.08207
kin	-9.08233
our	-9.08353
▁bri	-9.08389
▁100	-9.08473
mund	-9.08773
tion	-9.08774
▁ingen	-9.08833
zo	-9.08842
▁kron	-9.08903
▁24	-9.0898
rop	-9.09135
isering	-9.09322
fri	-9.09423
old	-9.09445
rum	-9.0958
▁bør	-9.09724
gle	-9.09778
ura	-9.09901
▁eksempler	-9.09918
navnet	-9.09982
▁mur	-9.10019
▁28	-9.10077
▁vas	-9.10081
spill	-9.10114
▁she	-9.10348
▁ulike	-9.10352
▁gr	-9.10363
▁johan	-9.1054
▁sak	-9.10556
qui	-9.10577
gaard	-9.10679
ν	-9.10771
stra	-9.10821
▁th	-9.10863
tta	-9.1087
▁13	-9.1098
▁anne	-9.11035
▁eier	-9.11055
▁cap	-9.11091
▁frank	-9.11091
ater	-9.11115
▁foran	-9.11189
▁2007	-9.11224
banen	-9.1127
▁les	-9.11569
▁qu	-9.11641
las	-9.11641
sj	-9.1168
▁knut	-9.11716
▁sky	-9.11818
▁johannes	-9.11821
ssa	-9.11823
▁that	-9.11825
▁christ	-9.11828
▁air	-9.11831
pla	-9.11887
rus	-9.11996
▁gamle	-9.12067
ure	-9.12175
pro	-9.12216
▁hall	-9.12316
eks	-9.12381
▁tha	-9.12415
▁eng	-9.12428
▁person	-9.12433
aks	-9.12454
qu	-9.12478
▁beste	-9.12494
▁militær	-9.12499
▁arne	-9.12564
▁lars	-9.12566
lla	-9.12587
ort	-9.12596
▁latin	-9.12681
▁anders	-9.12683
▁14	-9.12696
ora	-9.12754
dor	-9.12961
▁provinsen	-9.13006
vit	-9.13075
ologisk	-9.13159
eri	-9.13225
stor	-9.13307
gon	-9.13334
▁ek	-9.1348
kant	-9.13506
▁derfor	-9.13603
▁bred	-9.13657
▁es	-9.13706
▁spilles	-9.13706
▁grenser	-9.13783
▁arabisk	-9.13816
▁general	-9.13827
lene	-9.13832
tis	-9.13864
▁ven	-9.13881
▁enn	-9.13983
syre	-9.14005
▁jag	-9.14036
sjøen	-9.14143
zz	-9.14149
ish	-9.14166
graf	-9.14215
▁lille	-9.14394
ugh	-9.14414
▁cal	-9.14549
bjørn	-9.14679
ult	-9.14728
nik	-9.14775
ori	-9.14778
▁litt	-9.14778
are	-9.14832
båt	-9.14837
▁ter	-9.1485
▁ram	-9.15045
dar	-9.15139
▁produsere	-9.15148
▁kh	-9.15165
▁2009	-9.15199
ial	-9.15242
landet	-9.15356
▁svensk	-9.15444
▁us	-9.15542
▁www	-9.15597
området	-9.15653
▁dar	-9.15653
punkt	-9.15663
▁lev	-9.15702
▁31	-9.15712
asjoner	-9.15728
▁with	-9.15846
▁industri	-9.16107
asjonen	-9.16108
side	-9.16113
tus	-9.16115
▁døde	-9.16161
▁egg	-9.16335
▁herre	-9.16352
▁mis	-9.16359
▁riks	-9.16378
▁bygde	-9.16395
hal	-9.16449
ι	-9.165
ance	-9.16753
▁mann	-9.16774
▁est	-9.16814
fabrikk	-9.16828
▁gje	-9.1691
▁17	-9.16994
▁deretter	-9.17017
▁mol	-9.17039
▁22	-9.17054
▁mari	-9.17086
▁blad	-9.17121
vil	-9.17206
▁kat	-9.17218
▁ball	-9.17239
spiller	-9.17374
▁svart	-9.17411
fører	-9.1743
▁utgjør	-9.17495
pol	-9.17549
▁sto	-9.17612
rå	-9.17628
med	-9.17677
rak	-9.17817
▁forsvar	-9.17975
bra	-9.18067
▁viktige	-9.18189
▁att	-9.18255
▁camp	-9.18256
systemet	-9.18356
mannen	-9.18557
▁dis	-9.18557
ming	-9.18576
ild	-9.18597
▁gla	-9.18626
▁sn	-9.18698
▁1989	-9.18793
▁forskjellig	-9.18798
kov	-9.18807
▁tittelen	-9.1884
▁skolen	-9.1886
virke	-9.19011
stro	-9.19129
bygd	-9.19146
lighet	-9.19238
gul	-9.19376
▁eg	-9.19381
ala	-9.19428
ity	-9.19518
▁stil	-9.19713
råd	-9.19718
▁jens	-9.19732
log	-9.19739
▁regi	-9.19791
▁pass	-9.19826
ativ	-9.19852
▁uni	-9.19886
uch	-9.1991
legg	-9.1992
lagt	-9.19993
skip	-9.19998
ima	-9.20072
ås	-9.20136
20	-9.20188
▁imidlertid	-9.20195
sal	-9.202
▁nærings	-9.20255
▁tj	-9.20396
▁2005	-9.20696
в	-9.20736
▁arbeids	-9.20805
▁ind	-9.2082
äl	-9.20844
▁bj	-9.20867
▁komp	-9.20879
▁gy	-9.20946
▁george	-9.20973
▁bon	-9.20977
▁odd	-9.21063
jan	-9.21134
▁student	-9.21145
liv	-9.21284
▁kam	-9.21324
▁lov	-9.21327
stru	-9.2138
syn	-9.21536
cha	-9.21578
▁bel	-9.21594
ati	-9.216
sak	-9.21649
ål	-9.21783
yk	-9.21857
elig	-9.22024
lund	-9.22093
▁dessut	-9.22099
▁gammel	-9.22117
ith	-9.2222
dro	-9.22301
▁usa	-9.22403
▁medlem	-9.22532
▁mindre	-9.22659
ben	-9.2267
▁win	-9.22694
▁arter	-9.22919
▁start	-9.22958
ann	-9.22997
č	-9.23059
▁nils	-9.23059
▁bruk	-9.23112
▁regn	-9.23291
▁finn	-9.23331
ão	-9.23335
get	-9.23398
mand	-9.23438
ved	-9.23489
byen	-9.23508
skole	-9.2354
nor	-9.23551
▁viser	-9.23552
▁son	-9.2358
▁26	-9.23588
▁bass	-9.2359
alt	-9.23631
rad	-9.23676
arter	-9.23682
▁fyr	-9.23703
▁anna	-9.2371
lov	-9.23914
▁system	-9.23981
tti	-9.23987
lekt	-9.24023
▁blod	-9.24083
▁hor	-9.24245
▁familie	-9.24402
ix	-9.24416
inne	-9.24426
pur	-9.2446
▁samtidig	-9.24524
▁fredrik	-9.24549
▁nett	-9.24559
tall	-9.24581
▁styre	-9.24588
▁arkitekt	-9.24591
samling	-9.24598
▁spill	-9.24642
▁park	-9.24805
tatt	-9.25013
qua	-9.25059
sett	-9.25108
▁just	-9.25127
▁kunne	-9.25136
▁amerikansk	-9.25163
slav	-9.25176
stø	-9.25182
▁lund	-9.25222
lang	-9.25231
voll	-9.25241
ledd	-9.25251
▁poly	-9.25252
stilling	-9.25293
selskap	-9.25298
▁full	-9.25301
farge	-9.25324
stasjon	-9.25343
▁180	-9.25362
▁fotball	-9.25364
▁tillegg	-9.25379
krets	-9.2539
the	-9.25428
tha	-9.25453
arbeid	-9.2557
▁rev	-9.25584
▁bank	-9.25713
▁rock	-9.25799
▁energiselskape	-9.258
▁11	-9.25811
ón	-9.25825
føre	-9.25853
dia	-9.25902
ria	-9.25959
▁mannskapet	-9.26019
iet	-9.26081
følge	-9.26095
▁bad	-9.26103
▁hver	-9.26124
▁ras	-9.26148
søk	-9.26159
kl	-9.26162
▁zu	-9.26231
▁pen	-9.26236
ies	-9.26238
▁spesial	-9.26253
▁får	-9.26289
rig	-9.263
▁arten	-9.26333
▁orden	-9.26335
bru	-9.26339
▁cy	-9.26564
▁sy	-9.26596
▁kal	-9.26596
ib	-9.26623
▁dam	-9.2665
▁cho	-9.26678
▁don	-9.26689
▁lik	-9.2673
kropp	-9.26787
▁dagen	-9.26877
fl	-9.2688
gruppen	-9.26897
▁historie	-9.26943
fugl	-9.27
я	-9.2701
▁hånd	-9.27242
▁reg	-9.27259
pen	-9.2736
cho	-9.27399
▁miljø	-9.27445
oid	-9.27488
л	-9.27516
▁innbyggere	-9.27516
▁kilde	-9.27517
kur	-9.27527
▁2011	-9.27528
aceae	-9.27542
▁lands	-9.27571
lat	-9.27587
ias	-9.27765
hund	-9.279
▁kamp	-9.27915
▁michael	-9.28023
▁filmen	-9.28086
stat	-9.28136
▁skulle	-9.28144
▁ph	-9.28183
▁gitar	-9.28193
▁region	-9.28227
▁bergen	-9.28232
▁mik	-9.28307
way	-9.28483
▁lett	-9.285
▁deres	-9.28509
▁nr	-9.28659
▁lar	-9.28667
▁grønn	-9.28667
▁jernbane	-9.28758
▁sw	-9.2884
▁000	-9.28906
▁kulturminner	-9.29046
▁forenkle	-9.29069
▁stat	-9.2929
mma	-9.29517
maskin	-9.29535
▁klubben	-9.29539
▁februar	-9.29561
▁svært	-9.29571
oni	-9.29588
▁ce	-9.29693
▁tap	-9.29728
▁konge	-9.29759
▁studie	-9.2979
værende	-9.29809
▁fal	-9.29816
▁thi	-9.29933
▁wal	-9.29992
▁blei	-9.30009
▁sten	-9.30022
▁vanligvis	-9.30106
ografi	-9.30209
vid	-9.30368
▁fre	-9.30378
fu	-9.30522
▁kje	-9.30523
▁pl	-9.30549
skrift	-9.30569
▁inkludert	-9.306
▁representerer	-9.30612
grad	-9.3064
г	-9.30648
▁elven	-9.30654
▁minne	-9.30876
▁versjon	-9.30881
løp	-9.30974
bane	-9.3099
▁kj	-9.30998
tun	-9.31021
▁stjerne	-9.31079
lar	-9.31142
▁kristian	-9.3115
blad	-9.31193
lsen	-9.31301
ffer	-9.31418
vers	-9.31495
ence	-9.31589
ider	-9.31644
▁world	-9.31651
▁standard	-9.31652
minister	-9.31661
▁sau	-9.31767
ical	-9.3179
▁sve	-9.31849
▁rei	-9.31919
▁holm	-9.32042
▁str	-9.32092
▁27	-9.32097
▁pot	-9.32106
løse	-9.3215
jer	-9.32191
loven	-9.3224
ick	-9.32395
illa	-9.32411
ette	-9.32415
strand	-9.32422
▁vokal	-9.32498
▁sul	-9.3256
ische	-9.32669
▁nowiki	-9.32711
▁inge	-9.32801
▁særlig	-9.32826
tale	-9.32848
skje	-9.32854
én	-9.32902
▁james	-9.32947
pel	-9.33022
uf	-9.33056
▁siste	-9.33135
▁hår	-9.33234
▁hon	-9.33239
▁international	-9.33246
▁italiensk	-9.33246
▁eli	-9.33273
▁flo	-9.33281
▁pin	-9.33283
▁harald	-9.33285
▁slag	-9.33332
▁mont	-9.33359
▁sir	-9.33373
film	-9.33432
valg	-9.33434
drag	-9.33467
▁helse	-9.33644
elt	-9.33779
▁sølv	-9.33793
▁sho	-9.33809
▁skrift	-9.33815
bia	-9.3385
hall	-9.3399
▁grand	-9.34127
▁kunstner	-9.34172
▁web	-9.34221
▁blo	-9.34234
́	-9.34324
hol	-9.34364
▁bio	-9.34489
fyl	-9.34514
▁kas	-9.3456
▁olje	-9.34608
▁europa	-9.34718
roll	-9.34803
▁char	-9.3484
▁liten	-9.34898
wer	-9.34899
heng	-9.3499
ì	-9.35065
▁gav	-9.35086
▁mill	-9.35107
▁fle	-9.35149
formet	-9.35214
yo	-9.3525
manns	-9.35409
▁ør	-9.35446
▁sund	-9.35461
▁rh	-9.35485
rich	-9.35957
ira	-9.3596
▁brenselkilde	-9.35964
▁hovedsakelig	-9.35964
▁ze	-9.36053
▁kre	-9.36118
▁besto	-9.36131
▁29	-9.36162
▁ana	-9.36205
▁finner	-9.36322
asj	-9.36374
din	-9.36412
▁175	-9.36424
▁forfatter	-9.36453
kast	-9.36466
▁richard	-9.36517
▁serie	-9.36518
▁gor	-9.36605
▁wei	-9.36605
▁opera	-9.36612
▁overtok	-9.36614
▁andreas	-9.36677
▁driver	-9.3669
▁up	-9.3671
▁kin	-9.36754
able	-9.36803
▁plat	-9.36849
▁end	-9.36921
band	-9.36923
▁kull	-9.37006
ferd	-9.37025
king	-9.37045
▁stemme	-9.37059
ł	-9.37068
belteasteroide	-9.37072
ы	-9.37072
▁venstre	-9.37103
▁2004	-9.37142
▁angel	-9.37146
skrevet	-9.37235
▁tang	-9.37248
erende	-9.37332
▁super	-9.37441
ram	-9.37442
▁but	-9.37641
tegn	-9.37675
▁power	-9.377
й	-9.37703
kraftverk	-9.37763
cheng	-9.37945
▁ok	-9.37947
▁rik	-9.38055
▁tilby	-9.38215
▁imp	-9.38241
▁artikkel	-9.38334
▁renner	-9.38347
gard	-9.3841
▁nan	-9.3844
▁ara	-9.38505
▁din	-9.38652
▁len	-9.38728
▁juni	-9.3875
ο	-9.38751
ρ	-9.38757
▁januar	-9.38758
▁tilbake	-9.38761
▁blit	-9.3889
iserte	-9.3893
▁skjer	-9.38957
▁arn	-9.38974
▁mun	-9.39039
▁glo	-9.39115
▁slutt	-9.39126
ade	-9.39271
yang	-9.39334
▁høyeste	-9.39343
▁sl	-9.39354
vold	-9.39419
▁lam	-9.39504
can	-9.39505
▁whi	-9.39552
▁ungdoms	-9.39589
▁venn	-9.39609
▁redaktør	-9.39676
klubben	-9.39693
▁året	-9.39708
▁179	-9.39736
▁im	-9.39747
▁vä	-9.39752
holm	-9.39859
▁ger	-9.39896
▁unn	-9.39933
▁produsent	-9.39942
▁dermed	-9.3996
▁lege	-9.39981
plan	-9.39989
▁datter	-9.40009
▁hansen	-9.40117
50	-9.4012
yu	-9.40198
cus	-9.4023
blomst	-9.40276
vatnet	-9.40306
▁cre	-9.40314
fag	-9.40354
▁kode	-9.40498
▁åtte	-9.40614
▁tegn	-9.40621
organ	-9.40635
▁bern	-9.4066
▁gruppe	-9.40732
skapet	-9.40791
▁laur	-9.40809
ama	-9.40842
menn	-9.40912
▁kle	-9.40914
▁nar	-9.40916
gata	-9.41039
▁tr	-9.41077
føring	-9.4113
ç	-9.41135
ney	-9.41161
▁basert	-9.41191
ary	-9.41206
▁alf	-9.41232
ras	-9.41299
▁energi	-9.41335
▁større	-9.41364
car	-9.41369
▁modell	-9.41394
▁kraft	-9.41409
▁cra	-9.41424
▁rein	-9.41453
▁skuespiller	-9.41482
full	-9.41546
40	-9.41627
▁beskrive	-9.41698
▁oppført	-9.41717
▁haug	-9.41832
gy	-9.41845
▁strøm	-9.42151
cal	-9.42256
iti	-9.42271
▁hjerte	-9.42276
cio	-9.42285
field	-9.42319
▁177	-9.4234
iner	-9.42358
ose	-9.42365
under	-9.42456
skij	-9.42484
ekte	-9.42513
▁fylke	-9.42522
osa	-9.42545
eller	-9.42595
verket	-9.42709
▁bay	-9.42768
bank	-9.42778
kamp	-9.42781
▁sverige	-9.42806
▁pla	-9.42807
els	-9.42824
▁lei	-9.42834
mod	-9.42837
ön	-9.42875
▁bærer	-9.42909
▁dre	-9.42932
▁res	-9.43222
▁cam	-9.43277
az	-9.43297
▁nes	-9.43308
haug	-9.43338
hov	-9.43452
▁vinge	-9.43458
aya	-9.43465
▁gang	-9.43473
con	-9.43505
▁comp	-9.4352
▁utgitt	-9.43606
grav	-9.43617
▁startet	-9.43688
▁ton	-9.43704
aktig	-9.43726
strøm	-9.43734
▁klasse	-9.43887
merke	-9.4396
▁punkt	-9.4397
з	-9.4399
▁nam	-9.43999
ín	-9.44004
▁slekt	-9.44022
▁flat	-9.4404
▁2000	-9.44084
▁fant	-9.4409
hai	-9.44093
▁star	-9.44205
▁løv	-9.44316
shan	-9.4434
▁long	-9.44418
olo	-9.44469
▁kvinne	-9.44552
ppen	-9.44558
ansk	-9.44574
▁serien	-9.44587
▁aust	-9.44631
ér	-9.4471
▁ep	-9.44724
▁fall	-9.44743
bit	-9.44884
led	-9.44886
▁polsk	-9.44918
phi	-9.44969
zy	-9.44982
▁50	-9.45006
▁lan	-9.4501
vist	-9.45199
lot	-9.45207
af	-9.45286
▁type	-9.45292
▁stav	-9.45373
ån	-9.45421
▁albert	-9.45429
▁meg	-9.45506
produksjon	-9.45579
▁bror	-9.45605
▁zo	-9.45656
▁isbn	-9.45809
▁grense	-9.45835
▁bygg	-9.45839
▁helge	-9.4585
feld	-9.45875
▁oc	-9.45976
▁strand	-9.46077
stykke	-9.46085
yan	-9.46097
▁esp	-9.4617
kjøp	-9.46213
leg	-9.46276
▁stri	-9.46298
▁først	-9.46299
zu	-9.46322
▁felles	-9.46383
21	-9.46393
▁keiser	-9.46419
nivå	-9.46481
▁utenfor	-9.46498
▁cro	-9.46506
▁kommunene	-9.46534
▁hø	-9.46555
▁vinner	-9.46615
▁slekten	-9.4662
gli	-9.46648
▁bir	-9.4666
▁india	-9.46792
trykk	-9.46814
▁myr	-9.46831
vinger	-9.46881
▁sosial	-9.46948
amp	-9.47018
ù	-9.47021
▁april	-9.47024
▁island	-9.47077
▁tam	-9.47138
▁bort	-9.47169
of	-9.47208
▁danner	-9.47239
▁henrik	-9.47292
▁vinter	-9.47385
vig	-9.47432
com	-9.47442
gress	-9.47451
fot	-9.47538
▁såkalt	-9.47643
▁may	-9.47659
oks	-9.47745
nummer	-9.47768
departementet	-9.47793
▁80	-9.47839
▁plass	-9.47867
▁lær	-9.47938
▁prosjekt	-9.47989
lignende	-9.48007
gor	-9.48025
▁nest	-9.48028
▁bla	-9.48043
skytter	-9.4809
stå	-9.4815
fest	-9.4826
ström	-9.48261
agn	-9.48296
▁vit	-9.48355
▁bandet	-9.48377
▁eid	-9.48398
nia	-9.48417
▁mørk	-9.48485
æl	-9.48515
dahl	-9.48529
▁syd	-9.48589
øst	-9.48619
rip	-9.48732
▁il	-9.48751
▁35	-9.48754
los	-9.48818
▁modern	-9.48823
liga	-9.48896
▁nevnes	-9.48976
gitt	-9.48979
▁daniel	-9.48983
▁grad	-9.49172
▁gil	-9.49204
▁hovedrollene	-9.49253
▁dansk	-9.4926
last	-9.49316
ici	-9.49347
▁60	-9.49475
her	-9.49502
▁2003	-9.49554
▁178	-9.49657
gruppe	-9.49658
orm	-9.49659
aksjon	-9.49781
▁års	-9.49842
▁tidlig	-9.49851
språk	-9.49887
gua	-9.49929
▁lange	-9.50011
▁jean	-9.50024
30	-9.50053
kommune	-9.50053
▁veg	-9.50097
ē	-9.50147
▁november	-9.50147
▁omkring	-9.50148
▁bakvingen	-9.50149
bånd	-9.50165
▁turn	-9.5036
pin	-9.50607
plass	-9.50615
▁gun	-9.50627
▁cer	-9.50635
tyr	-9.50705
▁teater	-9.50719
vogn	-9.5074
▁gunnar	-9.50787
▁bekrefte	-9.50798
▁sim	-9.50829
mun	-9.50838
▁sett	-9.50839
▁øya	-9.50878
mot	-9.50889
midler	-9.50939
▁antall	-9.50944
mid	-9.50953
nett	-9.50975
▁gate	-9.50984
ført	-9.51085
▁horn	-9.51209
▁temp	-9.51262
bur	-9.51315
▁was	-9.51331
▁uk	-9.51354
ott	-9.51372
τ	-9.51425
▁louis	-9.51427
▁lufthavn	-9.51435
▁hjemme	-9.5144
▁meter	-9.51569
▁hin	-9.51591
ost	-9.51689
ball	-9.51723
▁vill	-9.51792
▁с	-9.51793
grense	-9.51854
bygning	-9.51859
▁40	-9.51915
forbindelse	-9.51923
tikk	-9.51931
▁råd	-9.52045
felt	-9.52073
вич	-9.52073
lon	-9.5216
▁bol	-9.52293
▁mottok	-9.52299
▁rot	-9.52301
liste	-9.52304
ān	-9.5232
samisk	-9.52321
▁32	-9.52332
tsu	-9.52418
rike	-9.52485
▁avis	-9.52535
▁aktiv	-9.52596
gå	-9.52611
▁tim	-9.5265
ique	-9.52651
ez	-9.5268
ž	-9.52719
ios	-9.52812
▁erstatte	-9.52828
foss	-9.5287
▁flor	-9.52902
▁left	-9.52972
evne	-9.52982
▁hest	-9.53006
▁gård	-9.53019
▁artist	-9.53029
fors	-9.53057
havet	-9.53086
▁foss	-9.53095
partiet	-9.5314
▁samarbeid	-9.53243
rup	-9.53286
▁larvene	-9.53342
▁has	-9.53362
▁kategori	-9.53373
▁national	-9.53376
▁gjør	-9.53378
▁181	-9.53456
▁hode	-9.53458
▁kul	-9.53471
oli	-9.53485
▁russland	-9.53535
▁sag	-9.53605
▁internasjonale	-9.53628
istisk	-9.53668
▁ye	-9.53676
▁høyre	-9.53678
▁benytte	-9.5368
jen	-9.53681
▁160	-9.53797
▁ordet	-9.53844
▁sted	-9.53927
ali	-9.53972
alder	-9.54001
ß	-9.54025
▁hed	-9.54028
▁ukrainsk	-9.54031
▁olav	-9.54057
▁black	-9.5413
pet	-9.54164
regjering	-9.5424
▁tan	-9.54369
▁sort	-9.54487
nic	-9.54596
▁from	-9.54606
▁dyre	-9.54675
κ	-9.54693
ping	-9.54705
▁py	-9.5471
▁sangen	-9.54768
▁neu	-9.54884
hua	-9.54905
chu	-9.54919
▁mand	-9.54936
▁tallet	-9.55007
▁155	-9.55056
▁dj	-9.55083
mes	-9.5512
▁kors	-9.55205
▁dato	-9.5522
una	-9.5528
▁por	-9.55316
jord	-9.55377
▁2001	-9.55439
ada	-9.5546
dri	-9.55523
▁monte	-9.55532
▁smal	-9.55538
▁dor	-9.55542
▁våpen	-9.55558
▁dun	-9.55617
▁finland	-9.55626
vekst	-9.5567
bol	-9.55721
▁mes	-9.55736
▁lek	-9.55794
gger	-9.55833
døm	-9.5593
▁ledet	-9.56004
gående	-9.56013
hei	-9.56022
▁spor	-9.56026
plassen	-9.56029
▁tredje	-9.56033
▁charles	-9.56075
▁flu	-9.5618
▁politisk	-9.56252
▁ordenen	-9.56275
▁epi	-9.56511
forbund	-9.5656
▁ö	-9.56625
▁pal	-9.56633
▁maur	-9.56684
ч	-9.56703
ges	-9.56745
▁helt	-9.56758
flu	-9.56761
bakken	-9.56885
▁mulig	-9.5689
▁fylkes	-9.56933
▁app	-9.56974
▁wil	-9.57018
▁yo	-9.57089
▁45	-9.57118
▁ask	-9.57157
fjell	-9.57172
▁que	-9.57173
▁frukt	-9.57174
▁gau	-9.572
▁ant	-9.572
sser	-9.57233
▁landsbyen	-9.57286
▁samle	-9.57323
▁sun	-9.57361
tok	-9.57429
unt	-9.57457
▁old	-9.57459
б	-9.57465
▁arbeider	-9.57473
▁regnes	-9.57473
▁finsk	-9.57484
rit	-9.5749
▁berlin	-9.5749
▁jer	-9.5753
▁kontroll	-9.57536
▁natt	-9.57548
▁bolig	-9.57555
▁gui	-9.57626
▁olsen	-9.57688
▁qui	-9.5781
ár	-9.5782
arm	-9.5786
ов	-9.57891
▁metall	-9.57902
unn	-9.57994
▁original	-9.58072
▁handels	-9.58193
kjempe	-9.58203
▁menneske	-9.58283
▁nummer	-9.58317
one	-9.58319
etter	-9.58376
▁kraftig	-9.58404
▁fugle	-9.58431
▁sab	-9.58441
sberg	-9.5848
vert	-9.58699
▁spar	-9.58709
▁hj	-9.58735
lings	-9.58735
▁wilhelm	-9.58761
arafa	-9.58767
▁2012	-9.58777
▁japan	-9.58889
ante	-9.58918
aria	-9.59086
gno	-9.59099
▁have	-9.59174
gin	-9.59194
kanalen	-9.59226
low	-9.59355
posisjon	-9.59445
ε	-9.59456
λ	-9.59456
▁begynt	-9.59456
ensis	-9.59462
▁elve	-9.59465
▁merke	-9.59479
gne	-9.59507
▁elv	-9.59511
ро	-9.59577
stående	-9.5961
▁gua	-9.59614
▁nev	-9.59624
▁henry	-9.59635
▁sports	-9.59686
kontor	-9.59699
ille	-9.59744
formen	-9.59866
▁zi	-9.59872
▁qua	-9.59873
▁bilde	-9.59929
ico	-9.59935
▁167	-9.59956
▁174	-9.59997
bein	-9.6001
dorf	-9.60021
▁design	-9.60138
▁desember	-9.60155
▁privat	-9.60164
▁dommer	-9.60225
▁ev	-9.60231
grunn	-9.60307
kla	-9.60313
▁bis	-9.60351
fjellet	-9.60357
▁hører	-9.60424
win	-9.6044
war	-9.60465
▁time	-9.6051
bran	-9.60572
▁anton	-9.60769
museet	-9.60771
▁vekt	-9.60771
▁sven	-9.60789
▁hør	-9.60828
▁spi	-9.60842
▁kro	-9.60846
▁tsj	-9.60872
mit	-9.6089
▁kalte	-9.6089
▁riksvei	-9.6092
▁salt	-9.60938
▁pris	-9.60941
▁sla	-9.60961
sha	-9.611
▁villa	-9.61138
poli	-9.61142
▁gl	-9.61173
▁trykk	-9.61231
ato	-9.61247
▁wu	-9.61256
▁171	-9.6153
▁hem	-9.61617
▁hud	-9.6166
sko	-9.61663
produkter	-9.61763
▁bind	-9.61851
▁ken	-9.61876
▁regionen	-9.61928
▁egne	-9.61947
▁gard	-9.6197
▁mø	-9.61979
spor	-9.6206
lid	-9.62136
▁wen	-9.62171
▁sko	-9.62172
▁156	-9.62174
ado	-9.6218
motor	-9.62195
sjoner	-9.62206
▁albumet	-9.62222
ringen	-9.62256
▁oktober	-9.62283
▁spesielt	-9.62283
▁utviklet	-9.62318
▁løper	-9.6237
istiske	-9.62437
▁gjer	-9.62453
rang	-9.62466
hin	-9.62493
▁math	-9.62502
▁noe	-9.6254
▁klo	-9.62549
▁folk	-9.62598
22	-9.62601
bladet	-9.62616
▁serv	-9.62708
▁hå	-9.62755
mos	-9.62781
▁styrke	-9.62876
▁log	-9.62917
▁jern	-9.62958
▁tilhørte	-9.63002
σ	-9.63002
▁176	-9.63006
▁linje	-9.63023
▁club	-9.63039
forbundet	-9.63061
▁gren	-9.63069
і	-9.63138
anda	-9.6317
▁vind	-9.63305
▁rå	-9.63313
▁max	-9.63328
▁real	-9.63342
▁hil	-9.63343
rør	-9.6348
▁north	-9.63484
hode	-9.63592
eid	-9.63739
▁pap	-9.63747
▁medlemmer	-9.63793
▁steve	-9.63812
60	-9.6382
▁forsknings	-9.6383
kere	-9.64007
jiang	-9.64199
rim	-9.64216
▁russ	-9.64244
▁leg	-9.643
▁hjelp	-9.64376
28	-9.64404
ă	-9.64457
▁musik	-9.64468
utdanning	-9.64499
▁middel	-9.64558
▁enkelt	-9.64592
▁173	-9.64675
▁krigs	-9.64684
▁kjell	-9.64689
▁tildelt	-9.64731
▁stasjon	-9.64757
medaljen	-9.64775
▁funksjon	-9.64793
oth	-9.64798
▁out	-9.64814
▁170	-9.64899
▁song	-9.64922
kre	-9.65001
gården	-9.65074
syke	-9.65094
lønn	-9.65097
▁his	-9.65197
▁auto	-9.65212
▁verdi	-9.65232
arbeider	-9.65264
▁nova	-9.65275
skjold	-9.65359
jö	-9.65366
ifiser	-9.65369
▁netto	-9.6538
▁maskin	-9.65433
▁jim	-9.65622
▁vid	-9.65694
korps	-9.65695
▁ec	-9.65715
▁tall	-9.65727
gal	-9.6579
25	-9.65802
dis	-9.65809
fold	-9.65826
▁elev	-9.65856
▁pop	-9.6588
mba	-9.65975
brun	-9.66003
â	-9.66248
medisin	-9.66256
▁gass	-9.6626
hav	-9.66336
hel	-9.66367
▁mir	-9.66385
▁cur	-9.66398
▁vor	-9.664
ritt	-9.6644
▁kara	-9.66444
▁hydro	-9.66471
▁70	-9.66533
sette	-9.66534
▁jen	-9.66538
▁mm	-9.66553
ǎ	-9.66557
ра	-9.66559
▁sju	-9.66594
ulf	-9.66605
▁edderkopp	-9.66679
struktur	-9.66679
▁autonom	-9.66681
▁oppkalt	-9.66685
▁typisk	-9.66686
▁33	-9.66699
▁vanlig	-9.66752
klasse	-9.66759
▁brukte	-9.6685
▁slike	-9.66864
parti	-9.66867
awa	-9.66877
▁grev	-9.66942
mond	-9.67253
dige	-9.67275
ismen	-9.67298
23	-9.67328
svik	-9.67378
▁varaordfører	-9.67431
▁service	-9.6745
gir	-9.67472
▁36	-9.67531
▁larven	-9.67547
▁brann	-9.6764
cell	-9.67673
▁cell	-9.67682
året	-9.67723
▁hard	-9.67769
▁stedet	-9.6781
▁drama	-9.67811
▁sit	-9.67812
museum	-9.67826
ла	-9.67883
▁årlig	-9.67897
▁informasjon	-9.68033
▁dol	-9.68034
▁få	-9.68052
▁litteratur	-9.68099
seth	-9.68101
▁jacob	-9.68116
områdene	-9.68139
▁september	-9.68188
▁utvikling	-9.6819
hjul	-9.68281
▁iso	-9.68367
klar	-9.68381
ark	-9.68477
▁utgav	-9.68571
▁bygge	-9.68575
lé	-9.68691
▁tå	-9.68705
varer	-9.68739
▁king	-9.68762
ë	-9.68952
musikk	-9.68967
kilde	-9.69
▁utgi	-9.69022
▁larsen	-9.69031
▁mig	-9.69033
▁dø	-9.69057
▁partiet	-9.69079
24	-9.69086
sion	-9.69171
cher	-9.69204
løper	-9.69285
▁rund	-9.693
hen	-9.69356
▁sær	-9.69414
lei	-9.6944
bilde	-9.69455
▁annen	-9.69462
▁rygg	-9.69516
innen	-9.69516
ville	-9.69516
jon	-9.69529
iva	-9.69551
zhi	-9.69579
▁150	-9.69585
▁bob	-9.69602
eier	-9.69686
▁univers	-9.69714
ô	-9.69721
▁trondheim	-9.69745
enberg	-9.69763
▁søster	-9.69839
▁mester	-9.6988
▁ud	-9.69897
▁ett	-9.69912
▁museum	-9.70106
▁einar	-9.7011
selskapet	-9.70218
▁franc	-9.70344
skolen	-9.70355
▁æ	-9.70441
▁etablert	-9.70496
messig	-9.7053
kirke	-9.70534
oksid	-9.70614
rådet	-9.70674
ré	-9.7072
▁test	-9.70756
forskning	-9.7076
▁kari	-9.70766
skudd	-9.70791
ous	-9.70878
trekk	-9.70897
▁01	-9.70914
sang	-9.70937
▁indisk	-9.70989
▁institut	-9.71043
▁lærer	-9.71071
▁fjern	-9.71087
▁sav	-9.71187
▁marine	-9.71206
▁sæ	-9.71263
▁klar	-9.71264
▁bry	-9.71276
▁1999	-9.71278
vor	-9.71291
▁avdeling	-9.71331
▁universitet	-9.71356
▁andersen	-9.71383
▁nasjonale	-9.71385
▁idretts	-9.71397
▁aas	-9.71426
▁gru	-9.71464
yuan	-9.71472
wan	-9.71476
▁trond	-9.71483
sjø	-9.71486
▁hul	-9.7149
▁rolf	-9.71515
▁qi	-9.71543
før	-9.71589
▁matt	-9.71616
▁elva	-9.71657
▁krist	-9.71671
▁tai	-9.71726
▁internasjonal	-9.71758
uri	-9.7176
▁brit	-9.71797
ire	-9.71805
hed	-9.7181
▁who	-9.71907
uni	-9.72003
▁byer	-9.72022
▁rosen	-9.72049
ò	-9.72065
teknikk	-9.72065
▁direkte	-9.72066
▁hum	-9.72084
▁rektor	-9.72092
▁leir	-9.72141
▁music	-9.72272
folk	-9.72293
veg	-9.72373
▁fj	-9.724
▁formel	-9.72461
istene	-9.7252
19	-9.72542
huang	-9.72545
▁38	-9.72566
på	-9.72614
holmen	-9.72653
lich	-9.72656
▁ris	-9.72663
feltet	-9.72781
▁sykl	-9.72797
havn	-9.72824
ς	-9.7285
ê	-9.72858
zon	-9.72878
cker	-9.72895
▁studert	-9.72903
hor	-9.72929
▁båt	-9.72967
▁mah	-9.73068
▁dyp	-9.73136
▁lad	-9.7317
▁34	-9.73199
onia	-9.73318
▁ves	-9.73321
▁press	-9.73354
▁off	-9.73371
▁fro	-9.73381
våpen	-9.7342
▁hær	-9.7347
ка	-9.736
liggende	-9.7367
krigen	-9.73694
▁naturgass	-9.73706
virkning	-9.73706
▁album	-9.73782
▁grunnla	-9.73789
▁nabo	-9.73812
▁direktør	-9.7383
oma	-9.73852
kirken	-9.73972
▁transport	-9.73991
▁tett	-9.73994
▁82	-9.73998
▁politiker	-9.74008
▁mid	-9.74031
▁tittel	-9.74037
▁omfattet	-9.74124
brudd	-9.74146
▁boken	-9.74161
▁omtale	-9.74189
▁fjord	-9.74232
eide	-9.74301
▁kai	-9.74376
▁tung	-9.7438
ward	-9.74459
▁middelsstor	-9.74466
▁landsforening	-9.74491
▁kata	-9.74511
rie	-9.74557
▁hopp	-9.74702
▁fry	-9.74718
top	-9.74718
▁trekk	-9.74745
▁skj	-9.74755
▁seil	-9.74759
lad	-9.74862
▁arbeid	-9.74904
▁90	-9.74961
▁spilt	-9.74999
▁pil	-9.75002
rygg	-9.75012
▁mørke	-9.75038
plasser	-9.75066
▁frø	-9.75079
delen	-9.75079
▁sek	-9.75085
ва	-9.75176
dam	-9.7519
litt	-9.75195
kjede	-9.75199
styrke	-9.75208
bakk	-9.75283
▁canada	-9.7531
▁sanger	-9.7535
stall	-9.75391
stedet	-9.75408
▁lengde	-9.75412
▁146	-9.7542
▁hov	-9.75427
▁this	-9.75438
▁vanlige	-9.75457
teori	-9.75592
ctor	-9.75619
▁buk	-9.75688
skipet	-9.75705
▁selskap	-9.75708
snitt	-9.75749
▁emil	-9.7576
▁osv	-9.75764
▁oliv	-9.75819
distrikt	-9.75875
▁skips	-9.75949
▁brukt	-9.75955
▁uttale	-9.7599
▁skje	-9.76101
▁energy	-9.76109
▁magnus	-9.76109
▁egentlig	-9.7612
▁group	-9.7613
lop	-9.76138
▁lau	-9.76163
▁snø	-9.7628
▁river	-9.76326
90	-9.76335
basert	-9.76379
tempelet	-9.76413
▁arbeidet	-9.76416
formede	-9.76453
itiv	-9.7655
disk	-9.76561
▁rør	-9.76565
blom	-9.76716
historie	-9.76768
▁б	-9.76828
▁bronse	-9.7695
▁style	-9.76955
▁stan	-9.76983
▁igjen	-9.77021
gram	-9.77022
typen	-9.77101
ст	-9.77126
▁mobil	-9.77145
▁geo	-9.77216
mbo	-9.77297
▁felt	-9.77321
▁gli	-9.77347
▁gram	-9.77359
▁hom	-9.77371
mper	-9.77371
fla	-9.77387
bud	-9.77447
hild	-9.77477
▁prosess	-9.77516
▁fortsatt	-9.77532
fart	-9.77576
▁172	-9.77664
sport	-9.77683
hop	-9.77708
11	-9.77723
▁blomster	-9.77731
vitenskap	-9.7775
▁stig	-9.77755
ś	-9.77757
▁blue	-9.77803
▁jazz	-9.77836
▁ville	-9.77847
▁skul	-9.77884
▁hatt	-9.77891
▁uttrykk	-9.77938
▁thu	-9.77939
sey	-9.77945
▁hjem	-9.77991
gra	-9.78049
krig	-9.78085
▁ivar	-9.78108
tråd	-9.78169
handler	-9.78254
handel	-9.78301
rekord	-9.78318
park	-9.78341
bunn	-9.78374
mil	-9.78448
industri	-9.78488
▁kirken	-9.78503
▁kloster	-9.78509
øyene	-9.7855
ledning	-9.78588
х	-9.78598
▁bin	-9.78622
▁nytt	-9.78664
▁innsjøen	-9.78678
medalje	-9.78695
▁endre	-9.787
▁love	-9.78713
▁pic	-9.78873
vas	-9.78946
▁multi	-9.79025
▁symbol	-9.79059
bedrift	-9.7915
▁rest	-9.7915
arten	-9.79165
oner	-9.79166
anske	-9.79186
horn	-9.79209
▁met	-9.79391
middel	-9.79403
bach	-9.7944
▁foreldre	-9.79447
▁tverr	-9.79452
▁hit	-9.79523
utgivelse	-9.79581
▁forkorte	-9.79634
stol	-9.79666
ander	-9.79669
▁syv	-9.79723
▁mikro	-9.79739
▁kristin	-9.79751
▁42	-9.79833
hard	-9.79936
▁sentrum	-9.79949
▁64	-9.80081
▁lib	-9.80177
▁enkelte	-9.80205
produsent	-9.80232
▁mediebedriften	-9.803
▁joseph	-9.803
▁2013	-9.80301
pal	-9.80359
▁für	-9.80408
plante	-9.80431
▁johansen	-9.80437
orum	-9.80439
stille	-9.80488
uru	-9.80511
▁glass	-9.806
▁city	-9.80602
▁svarte	-9.80622
▁tank	-9.80635
bell	-9.80652
hallen	-9.80658
▁dahl	-9.80716
▁samling	-9.80838
iller	-9.80851
▁hill	-9.80864
▁stasjonen	-9.80883
ito	-9.80932
▁mye	-9.80933
barn	-9.80954
▁168	-9.80962
▁wall	-9.81023
▁hunde	-9.8104
bal	-9.81075
▁opplagstall	-9.81162
▁nærmest	-9.81172
sjonen	-9.81173
tjeneste	-9.81185
well	-9.81203
▁sesong	-9.81218
▁johann	-9.81253
▁sar	-9.81261
▁ganske	-9.81279
▁shan	-9.81294
jia	-9.81336
▁ran	-9.81345
næs	-9.81375
fjellene	-9.81383
▁alpin	-9.81383
fir	-9.81386
person	-9.81405
▁kalk	-9.81448
▁morten	-9.8146
▁kha	-9.81487
demokrat	-9.81563
lingen	-9.81612
▁120	-9.81615
▁då	-9.81669
shire	-9.81689
▁fest	-9.81724
▁drift	-9.81735
▁hage	-9.8177
▁brand	-9.81805
▁eget	-9.81877
▁163	-9.81923
▁spin	-9.81979
▁reise	-9.82011
μ	-9.82032
▁øverst	-9.82038
▁university	-9.82044
▁harry	-9.82094
▁mart	-9.82116
▁betydning	-9.82131
▁markeds	-9.82171
grupper	-9.8224
løst	-9.82322
▁bou	-9.82361
hand	-9.82376
ite	-9.82401
▁oh	-9.82448
▁skrive	-9.82473
zer	-9.82475
▁sterk	-9.82476
▁ple	-9.82485
line	-9.82523
sku	-9.82604
lement	-9.82639
nie	-9.82664
▁bonde	-9.82693
▁tyskland	-9.82701
▁aar	-9.82711
▁mei	-9.82751
spinner	-9.82754
former	-9.82762
snegl	-9.82782
12	-9.82883
medlem	-9.82909
▁jørgen	-9.82909
▁2014	-9.82909
utvikling	-9.8291
▁2016	-9.8291
avdeling	-9.82912
▁york	-9.82921
▁flyplass	-9.82925
ál	-9.83013
prisen	-9.83047
▁lim	-9.8311
butikk	-9.83173
▁sjef	-9.83301
▁spiss	-9.83302
▁green	-9.8346
▁produkt	-9.83481
▁cru	-9.83519
▁kil	-9.83544
hof	-9.83546
▁kok	-9.83608
▁virksomhet	-9.83626
▁75	-9.83646
wald	-9.8366
▁tilhøre	-9.83665
▁finans	-9.8368
▁tilsvarende	-9.83794
▁1994	-9.83794
▁middelalder	-9.83803
▁2017	-9.83811
▁grunnlagt	-9.83836
▁betegnelsen	-9.83849
▁britisk	-9.83871
▁stammer	-9.83905
eira	-9.83936
▁drag	-9.84013
▁geir	-9.8415
elv	-9.84247
vall	-9.84307
▁indre	-9.84322
▁paa	-9.84333
▁rask	-9.8436
▁israel	-9.84375
ally	-9.84412
▁slo	-9.84472
town	-9.84536
ар	-9.84668
rød	-9.84674
sekretær	-9.84676
▁stockholm	-9.84686
▁2015	-9.84688
▁delstaten	-9.84688
▁1990	-9.84718
▁victor	-9.84753
ona	-9.84763
▁mono	-9.84785
▁161	-9.84858
▁provins	-9.84868
▁saa	-9.84877
▁back	-9.84909
bul	-9.84973
▁alb	-9.8501
mur	-9.85019
▁sykdom	-9.85022
▁elektro	-9.85042
slekten	-9.85072
▁chu	-9.85073
▁petter	-9.85094
▁jesu	-9.8511
▁mit	-9.85128
program	-9.85161
pha	-9.85214
▁wan	-9.85301
▁marg	-9.8535
▁kau	-9.85389
▁inc	-9.85391
papir	-9.85394
forhold	-9.85429
▁bestod	-9.85453
dokument	-9.85497
▁rep	-9.85535
▁1998	-9.85588
kultur	-9.85672
▁primær	-9.85702
▁italia	-9.85715
nam	-9.85725
▁kroppen	-9.85732
▁wolf	-9.85741
lære	-9.85749
▁pala	-9.85819
▁ferdig	-9.85829
▁styr	-9.85845
▁74	-9.85856
▁coll	-9.85869
▁drive	-9.85965
▁rose	-9.85974
fre	-9.85991
▁én	-9.86009
marked	-9.86076
▁wang	-9.86081
▁staten	-9.86101
spir	-9.86115
ór	-9.86222
▁bevegelse	-9.86223
▁olavs	-9.86244
▁arve	-9.86305
▁betegne	-9.86369
post	-9.8639
åsen	-9.86408
gruppa	-9.86441
aki	-9.86444
▁bat	-9.86457
▁gustav	-9.86499
▁mangler	-9.86506
▁od	-9.86583
▁cath	-9.86665
trekning	-9.86693
▁stopp	-9.86748
▁kjær	-9.86759
▁right	-9.86792
▁gjorde	-9.86918
zj	-9.86963
▁grøn	-9.86963
ан	-9.87028
masse	-9.87042
▁act	-9.87072
fang	-9.87119
▁simon	-9.87137
▁asp	-9.87142
later	-9.87151
▁157	-9.8717
▁mått	-9.87206
▁kim	-9.87218
merket	-9.87237
▁fjær	-9.87314
dekke	-9.87314
▁kongen	-9.87346
▁administrativ	-9.87414
▁betydelig	-9.87416
▁inngår	-9.87418
▁forlag	-9.87476
▁sum	-9.87508
▁ledes	-9.87517
▁marie	-9.87526
▁sivil	-9.87553
hjem	-9.87579
▁kru	-9.87612
bibliotek	-9.87619
▁ting	-9.87743
▁los	-9.87812
ã	-9.87813
▁00	-9.87826
▁gö	-9.87876
▁jam	-9.8795
kamera	-9.87982
bekk	-9.87995
▁front	-9.88007
▁rand	-9.88031
▁nilsen	-9.88089
brød	-9.88144
lak	-9.88157
ко	-9.88192
▁skade	-9.88279
ě	-9.8834
ingeniør	-9.88356
▁ref	-9.88365
gro	-9.8839
▁antonio	-9.88405
▁bety	-9.88426
▁figur	-9.88446
▁otto	-9.88464
lege	-9.88466
▁fot	-9.88488
▁varme	-9.88536
▁deler	-9.88567
tog	-9.88603
▁viktig	-9.88609
▁ever	-9.88678
▁fan	-9.88761
▁musiker	-9.88792
▁herman	-9.88797
▁gold	-9.88805
▁hammer	-9.88833
foreningen	-9.88849
cca	-9.88892
ić	-9.88898
▁vold	-9.89008
▁fang	-9.89017
▁plate	-9.89037
▁mitt	-9.89041
▁troll	-9.89049
pass	-9.89088
▁thr	-9.89104
▁luk	-9.89141
gri	-9.89253
▁1996	-9.89275
▁oblast	-9.893
▁løp	-9.89312
vang	-9.89316
▁klima	-9.89332
kop	-9.89345
▁п	-9.89365
▁brenn	-9.89395
bygging	-9.89414
haugen	-9.89448
virksomhet	-9.89452
▁ost	-9.89526
lä	-9.8954
stjerne	-9.89586
▁ita	-9.89732
▁154	-9.89785
aktiv	-9.89809
løpet	-9.89818
olje	-9.89889
▁tema	-9.89918
▁rang	-9.90037
▁ah	-9.90141
▁instrument	-9.90164
▁utdype	-9.9022
▁try	-9.90222
▁dverg	-9.90241
▁smith	-9.9025
▁turist	-9.90267
▁dannet	-9.90271
▁angrep	-9.90296
▁aur	-9.90311
▁trommer	-9.90343
▁steder	-9.9047
▁samfunns	-9.90488
botn	-9.90552
▁till	-9.90719
▁37	-9.90779
tjenester	-9.90821
▁line	-9.90837
flo	-9.90895
▁rune	-9.90909
▁luc	-9.90964
▁bom	-9.9104
▁nesten	-9.91074
▁jar	-9.91105
▁adam	-9.91128
driv	-9.91152
▁hannen	-9.91163
ñ	-9.9117
▁omtrent	-9.9117
▁lite	-9.91304
▁led	-9.91323
iano	-9.91363
▁bach	-9.91364
tom	-9.91373
▁147	-9.91379
align	-9.91419
▁ordens	-9.9144
▁lokale	-9.91491
▁buss	-9.91492
▁godt	-9.91493
▁tel	-9.91606
▁tyske	-9.9165
levende	-9.91708
kler	-9.91737
▁rod	-9.9176
linjen	-9.91764
▁verden	-9.91772
cz	-9.91794
landskap	-9.91796
▁delta	-9.91895
hopp	-9.91917
atus	-9.91919
fil	-9.91921
løsning	-9.92036
▁ross	-9.92093
politikk	-9.92126
▁tilknytte	-9.92132
▁deutsch	-9.92134
fugler	-9.92136
avisen	-9.92137
▁55	-9.92152
▁øvre	-9.92155
▁pedersen	-9.92196
▁antenne	-9.92265
areal	-9.92414
▁tann	-9.9242
▁org	-9.9242
▁127	-9.92448
▁tau	-9.92458
▁hö	-9.92492
▁daglig	-9.92559
koll	-9.92568
▁sle	-9.92729
forsker	-9.92754
▁feil	-9.92762
▁165	-9.92771
qi	-9.92777
▁kost	-9.92815
vre	-9.92836
styre	-9.92837
▁chang	-9.92918
eringen	-9.93055
▁munn	-9.93093
▁trafikk	-9.93099
▁1988	-9.93103
▁nikola	-9.93106
▁tydelig	-9.93106
▁høyde	-9.93133
▁styrmann	-9.9315
▁52	-9.93188
▁nicol	-9.93208
▁fleste	-9.93261
ür	-9.93304
▁trener	-9.93329
▁pul	-9.93332
▁award	-9.93363
▁104	-9.93388
prosess	-9.93396
▁meta	-9.93468
▁retts	-9.93482
▁æres	-9.93488
▁oversatt	-9.93496
planter	-9.93517
▁historisk	-9.93539
▁hir	-9.93545
▁gh	-9.93555
▁svein	-9.93574
stikk	-9.93576
trær	-9.93577
▁sign	-9.93633
▁gitt	-9.93761
breen	-9.93839
▁110	-9.93893
▁best	-9.93932
▁oss	-9.93941
▁lære	-9.94016
▁dur	-9.94042
advokat	-9.94083
▁fed	-9.94111
utvikle	-9.94139
▁personlig	-9.94151
▁wade	-9.94156
▁kjerne	-9.94202
▁fylket	-9.94214
▁selve	-9.94215
▁tho	-9.94229
ello	-9.9424
17	-9.94257
ль	-9.94272
▁pont	-9.94313
▁hjemmeside	-9.94341
▁betjener	-9.94376
retning	-9.94468
▁live	-9.94479
▁jun	-9.94534
▁eiendom	-9.94565
vald	-9.94644
lend	-9.94654
slaget	-9.9475
▁koll	-9.94753
head	-9.94852
ь	-9.94883
▁unge	-9.94915
▁143	-9.94954
▁spp	-9.94972
▁bran	-9.95005
▁nrk	-9.95021
▁dong	-9.95041
π	-9.95073
▁inneholdt	-9.95074
myndighet	-9.95074
▁dialekt	-9.95076
▁offisielle	-9.95078
▁veien	-9.951
▁varierer	-9.95114
▁produksjon	-9.9512
▁philip	-9.95122
rev	-9.95129
▁boy	-9.95132
▁behandling	-9.95153
drift	-9.95205
▁eva	-9.95206
▁hä	-9.95231
▁konsert	-9.95234
▁vik	-9.95347
amin	-9.95387
▁leon	-9.95389
▁mary	-9.95432
▁professor	-9.95548
▁lit	-9.95567
▁bai	-9.95639
skilt	-9.95682
▁cle	-9.95728
vá	-9.95743
▁tjeneste	-9.95755
▁adel	-9.95755
byrå	-9.95782
riket	-9.95833
▁xu	-9.95979
▁alm	-9.96041
▁1993	-9.96074
▁dronning	-9.96078
▁orkester	-9.96099
▁himmel	-9.96102
▁had	-9.96127
▁play	-9.96166
økonomi	-9.96168
bare	-9.96178
▁rem	-9.96181
▁foruten	-9.96187
▁cri	-9.96193
▁sukker	-9.96282
▁stål	-9.96293
▁ola	-9.96329
▁149	-9.96343
▁produksjons	-9.96388
spillet	-9.96397
nettverk	-9.96405
▁ey	-9.96443
hui	-9.96485
prøve	-9.96552
▁program	-9.96626
▁dog	-9.96653
hem	-9.96667
▁vær	-9.96753
▁140	-9.96754
▁egil	-9.96791
▁påvirke	-9.96836
parken	-9.96845
stig	-9.96875
▁kart	-9.96889
ii	-9.96902
flekk	-9.96906
▁cd	-9.96992
▁lyn	-9.97045
▁introduser	-9.97083
▁gjelder	-9.97085
▁tolkien	-9.97093
▁sverre	-9.97112
▁ordfører	-9.97124
▁knytte	-9.97143
▁anlegget	-9.97145
mont	-9.97153
olin	-9.97211
▁sterkt	-9.97215
▁är	-9.97218
▁chan	-9.9726
ät	-9.97277
▁fører	-9.97417
▁bølge	-9.97455
▁rub	-9.97499
▁lot	-9.97533
gjen	-9.97554
vision	-9.97622
harmoni	-9.97642
iya	-9.97685
▁rek	-9.9772
▁bit	-9.97745
▁bygget	-9.97804
ative	-9.97826
utstilling	-9.9786
▁prest	-9.97864
uz	-9.97947
▁svi	-9.97971
ltså	-9.97991
▁lyst	-9.98059
▁123	-9.98102
▁prefektur	-9.98104
analyse	-9.98108
▁festival	-9.98138
64	-9.98146
▁drev	-9.98158
▁sea	-9.98173
▁tørr	-9.98194
▁prim	-9.98264
opter	-9.9828
▁føde	-9.98348
brev	-9.98353
▁sentrale	-9.98368
▁tettsted	-9.98444
ux	-9.98452
▁ash	-9.9847
ington	-9.98529
prosjekt	-9.98551
▁44	-9.98566
▁neg	-9.98572
tittel	-9.98588
wei	-9.98614
▁satt	-9.98624
▁danse	-9.98676
▁still	-9.98691
▁sideelv	-9.98705
▁jevn	-9.98713
▁dyr	-9.98729
▁damp	-9.98769
ни	-9.98807
▁jack	-9.98844
pleie	-9.98938
▁lyse	-9.99
befolkning	-9.99102
δ	-9.99135
▁komponist	-9.99137
utdannet	-9.99137
▁eldste	-9.99137
maleri	-9.9915
▁frankrike	-9.99154
▁familiegruppen	-9.99155
ovitsj	-9.99162
▁mongol	-9.99166
▁human	-9.9922
▁motta	-9.99292
▁high	-9.99315
▁rol	-9.99497
▁107	-9.99498
▁128	-9.99561
▁verne	-9.99601
▁sara	-9.9962
gav	-9.99686
▁az	-9.9972
▁preste	-9.99739
▁54	-9.99758
▁kaller	-9.99775
▁team	-9.99787
kraft	-9.99854
verdig	-9.99988
▁hvert	-10
stillingen	-10
sdatter	-10.0006
▁fett	-10.0008
▁benyttes	-10.0016
▁153	-10.0016
η	-10.0018
firmaet	-10.0018
▁scott	-10.0022
▁michel	-10.0029
▁markere	-10.003
▁stamme	-10.0031
▁disk	-10.0032
▁organisasjonen	-10.0039
▁eldre	-10.004
▁hoff	-10.0042
karriere	-10.0044
▁dynastiet	-10.0045
▁akademi	-10.0048
▁108	-10.0057
▁sing	-10.0061
▁57	-10.0067
▁47	-10.0069
phy	-10.0078
▁delt	-10.0082
gran	-10.0085
inus	-10.0089
▁totalt	-10.0092
▁shu	-10.0092
▁typer	-10.0101
▁pur	-10.0105
▁personer	-10.0109
stone	-10.0112
▁besøk	-10.0123
friidrettsutøver	-10.0123
▁kardinal	-10.0123
▁1992	-10.0123
▁1995	-10.0123
▁beijing	-10.0123
▁tabellen	-10.0124
▁bord	-10.0127
festivalen	-10.013
▁danmark	-10.013
▁nordøst	-10.0133
▁iii	-10.0135
utøver	-10.0136
▁henne	-10.0142
▁nasjonalpark	-10.0144
▁gress	-10.0145
▁fler	-10.0151
▁krysser	-10.0153
styret	-10.0153
tsch	-10.0153
▁operasjon	-10.0156
▁43	-10.0158
▁åpen	-10.0158
▁65	-10.0164
▁mul	-10.0177
▁skå	-10.0184
▁streng	-10.019
▁if	-10.019
▁holde	-10.0196
vika	-10.0197
stab	-10.0212
▁slu	-10.0214
vatn	-10.0217
▁skatte	-10.0226
ер	-10.0227
klær	-10.0229
bispedømme	-10.0229
γ	-10.0229
▁shanghai	-10.0229
▁1986	-10.0229
▁1997	-10.0229
▁tidsskrift	-10.0229
▁company	-10.0229
▁nav	-10.023
▁ala	-10.023
idrett	-10.0235
▁fylkesvei	-10.0236
▁høsten	-10.0245
mmel	-10.0253
bon	-10.0258
▁nø	-10.0258
▁prisen	-10.0259
▁underlagt	-10.026
▁bygningen	-10.0261
betegnelse	-10.0268
ischen	-10.0274
▁åpne	-10.0275
vendt	-10.0281
▁center	-10.0284
funksjon	-10.0288
arbeidet	-10.0297
mul	-10.0299
▁spansk	-10.0299
▁karakter	-10.0308
vard	-10.0309
▁carol	-10.031
gjorde	-10.0311
house	-10.0321
▁dig	-10.0324
▁resultat	-10.033
▁konkurranse	-10.0334
▁yng	-10.0336
ǔ	-10.0337
▁friedrich	-10.0337
▁1983	-10.0337
▁tone	-10.0338
▁offentlig	-10.0343
bridge	-10.0345
▁dru	-10.0349
komite	-10.0356
▁furu	-10.0362
īn	-10.0364
▁46	-10.0372
▁oftest	-10.0376
▁pave	-10.0377
høy	-10.0395
▁total	-10.0396
▁metro	-10.04
▁faren	-10.0404
ор	-10.0404
hyll	-10.0408
▁syr	-10.0408
åpning	-10.0424
møte	-10.0426
saker	-10.0427
måte	-10.0428
▁chris	-10.0431
▁betydninger	-10.0433
iserer	-10.0439
▁115	-10.044
▁fulgte	-10.0446
▁south	-10.0448
▁text	-10.0449
▁hvite	-10.0456
▁kontor	-10.046
bord	-10.0462
▁bomb	-10.0474
▁rad	-10.0476
isch	-10.0483
▁stift	-10.0486
▁polar	-10.0487
29	-10.0488
insk	-10.049
▁hunnen	-10.0492
▁stol	-10.0493
▁mala	-10.0503
▁stod	-10.0504
wood	-10.0511
kunst	-10.0512
▁carlo	-10.0515
▁svenske	-10.0525
▁gjeste	-10.053
▁wel	-10.0535
▁vent	-10.0538
vekt	-10.054
gjort	-10.0543
▁løs	-10.0545
▁asia	-10.0549
utstyr	-10.055
▁sigurd	-10.0556
kommando	-10.0557
▁minst	-10.0558
▁fru	-10.0562
▁sogne	-10.0564
▁hjerne	-10.0564
▁bland	-10.0565
tunnelen	-10.0567
▁roger	-10.0569
▁forretnings	-10.0571
strup	-10.0575
periode	-10.0581
▁bryst	-10.0586
āng	-10.0589
▁134	-10.0598
▁begrepet	-10.0598
▁bydelen	-10.0608
▁vokser	-10.0609
▁union	-10.061
hagen	-10.061
beskytte	-10.0614
▁phil	-10.0615
bakterie	-10.0623
president	-10.0628
tveit	-10.0631
delt	-10.0635
skjær	-10.0636
▁lid	-10.0638
beck	-10.064
▁peder	-10.0648
▁idrettslag	-10.065
▁voks	-10.065
▁105	-10.065
omi	-10.0651
fond	-10.0654
▁kali	-10.0654
cula	-10.0655
elius	-10.0655
tallet	-10.0657
enburg	-10.0665
▁byprefekturet	-10.0666
▁alternativ	-10.0667
▁1982	-10.0667
▁1991	-10.0667
▁digital	-10.0667
▁hurtig	-10.0668
▁sykehus	-10.0669
▁kjemisk	-10.0669
▁statsminister	-10.0669
▁oscar	-10.067
▁filip	-10.0675
verdi	-10.0675
▁dominere	-10.0675
▁naturlig	-10.0676
avgift	-10.0676
▁ivan	-10.0677
pil	-10.0688
▁even	-10.0693
▁enten	-10.0693
iana	-10.07
linjer	-10.0702
▁ganger	-10.0705
▁97	-10.0706
▁в	-10.0717
▁wol	-10.0717
▁lenge	-10.0719
stasjonen	-10.072
▁storm	-10.0721
▁41	-10.0723
serien	-10.0727
▁tog	-10.0727
▁51	-10.0731
▁gå	-10.074
region	-10.0742
▁festning	-10.0743
▁ark	-10.0744
arv	-10.0753
▁kval	-10.0755
fred	-10.0756
ernes	-10.0759
azar	-10.0773
▁publisert	-10.0779
▁unicode	-10.0779
▁religion	-10.0779
▁nordvest	-10.0781
ordenen	-10.0782
medlemmene	-10.0793
▁alfred	-10.0793
klin	-10.0794
chester	-10.0794
▁deles	-10.0795
▁palm	-10.0795
▁east	-10.0797
▁aldri	-10.0805
▁fab	-10.0807
▁sport	-10.0811
▁lie	-10.0816
▁tiden	-10.0816
▁upp	-10.0817
programmer	-10.0826
▁kjøpt	-10.0833
▁wood	-10.0836
▁dekker	-10.084
▁omfatte	-10.0842
fell	-10.085
▁verb	-10.0852
▁sid	-10.0874
▁brei	-10.0875
▁gaten	-10.0881
▁histori	-10.0891
▁bert	-10.0892
ш	-10.0892
▁christoph	-10.0893
▁jakob	-10.0893
▁biskop	-10.0894
▁rob	-10.0894
tilstand	-10.0897
▁republikken	-10.0899
▁passerer	-10.0899
▁verneområde	-10.0914
▁terje	-10.0915
▁vu	-10.0918
▁feli	-10.0924
▁tun	-10.0931
▁nok	-10.0933
▁skriver	-10.0939
▁verd	-10.0942
leir	-10.0945
assi	-10.0947
п	-10.0956
▁call	-10.096
▁selge	-10.0966
bryter	-10.0972
amerikansk	-10.0974
▁one	-10.0975
▁havne	-10.0987
▁kjøtt	-10.0991
▁svømme	-10.0994
▁solo	-10.1
▁hviterussisk	-10.1007
▁temperatur	-10.101
▁handling	-10.1011
▁85	-10.1016
▁saint	-10.1019
▁årene	-10.1021
▁liber	-10.1021
▁gården	-10.1022
▁major	-10.1022
kort	-10.1024
▁signal	-10.1031
▁forekommer	-10.1034
ли	-10.1041
▁øyene	-10.1043
▁moren	-10.1051
▁53	-10.1056
▁intern	-10.1057
trinn	-10.1058
vegg	-10.1059
▁life	-10.1063
linje	-10.1075
▁blokk	-10.1092
flik	-10.1093
▁jule	-10.1094
▁magasin	-10.1095
kvalitet	-10.1095
hemme	-10.1102
▁gile	-10.1109
▁foto	-10.1111
▁afrika	-10.1124
đ	-10.1124
▁1980	-10.1124
▁sørvest	-10.1124
▁sveits	-10.1124
kandidat	-10.1125
▁college	-10.1128
▁utstyr	-10.1131
vakt	-10.1133
▁ron	-10.1134
▁kap	-10.1134
▁andré	-10.1137
▁slett	-10.1142
▁nak	-10.1149
▁117	-10.1152
▁produsert	-10.1162
▁ånd	-10.1172
▁136	-10.1177
▁stam	-10.1177
▁116	-10.1178
stell	-10.1185
▁sku	-10.1188
representant	-10.1189
▁500	-10.1192
▁day	-10.1199
▁linjen	-10.1199
▁ung	-10.1215
▁normalt	-10.1215
fartøy	-10.1216
▁holder	-10.1216
▁cent	-10.1222
▁ull	-10.1232
▁vig	-10.1232
hydr	-10.1237
▁olymp	-10.1241
▁nedenfor	-10.1242
objekt	-10.1242
▁02	-10.1243
▁referere	-10.1243
bukta	-10.1245
slutning	-10.1245
▁omtalt	-10.1247
▁pun	-10.1249
ми	-10.125
▁hypo	-10.1264
▁137	-10.1268
▁folket	-10.1269
▁bang	-10.1271
cent	-10.1295
kveld	-10.1297
▁öst	-10.1298
samfunn	-10.13
tikken	-10.1308
kontroll	-10.1312
▁fremst	-10.1317
▁åpnet	-10.1327
▁teknologi	-10.1331
▁kristen	-10.1333
direktør	-10.1335
forfatter	-10.1335
▁svak	-10.1336
▁illustr	-10.1337
▁prof	-10.1354
▁there	-10.1357
ý	-10.136
ί	-10.136
▁sovjetunionen	-10.136
υ	-10.136
▁gabriel	-10.136
▁teknisk	-10.136
▁kop	-10.1361
▁frederik	-10.1362
ος	-10.1362
▁programleder	-10.1362
▁stavanger	-10.1363
hjørne	-10.1364
terapi	-10.1366
▁brown	-10.1368
ppa	-10.137
▁foreningen	-10.1372
▁adresse	-10.1373
▁master	-10.1381
▁bakke	-10.1382
▁utført	-10.1387
ōng	-10.1388
▁jobbe	-10.1391
▁programmet	-10.1392
gift	-10.1392
▁normal	-10.1398
undervisning	-10.1401
▁jonas	-10.1402
▁single	-10.1405
▁mcc	-10.1422
tropp	-10.1423
herre	-10.1433
▁santa	-10.1449
áng	-10.1452
▁grunnlegger	-10.1453
øvelse	-10.1453
▁båten	-10.1459
▁skinn	-10.146
▁arc	-10.1463
▁kath	-10.1463
pri	-10.1468
▁kanon	-10.1468
▁makt	-10.1469
▁bell	-10.147
▁landsby	-10.1478
▁corp	-10.1479
forskjell	-10.1481
▁hebraisk	-10.1481
▁bøker	-10.1481
▁alexander	-10.1481
▁norrøn	-10.1482
▁møtte	-10.1486
▁portrett	-10.1494
▁eide	-10.1496
blå	-10.15
▁kall	-10.15
▁wid	-10.1504
▁lill	-10.1518
myr	-10.1523
▁grim	-10.1527
▁rute	-10.1534
▁svar	-10.1535
▁dannes	-10.1536
▁jarl	-10.1538
▁stad	-10.1544
asso	-10.1549
▁fv	-10.1551
▁þ	-10.1552
▁europeisk	-10.1554
▁øvrige	-10.1558
▁henri	-10.1559
konsern	-10.1568
▁represent	-10.1578
▁our	-10.1594
▁klokke	-10.1599
▁kvar	-10.1603
▁tran	-10.1603
skille	-10.1607
▁pettersen	-10.1612
▁135	-10.1621
komst	-10.1624
▁clo	-10.1628
▁run	-10.1632
▁kapp	-10.1632
▁39	-10.1636
▁fortsatte	-10.164
▁top	-10.164
▁walter	-10.1641
▁parken	-10.1644
▁teksten	-10.1649
▁bod	-10.1661
▁lyng	-10.1662
▁roma	-10.1662
▁corn	-10.1666
meter	-10.1676
▁09	-10.1677
▁kaptein	-10.1678
▁ramm	-10.1678
▁leif	-10.1692
▁sogn	-10.1692
▁størrelse	-10.1696
▁bjørk	-10.1702
▁populær	-10.1702
▁sider	-10.171
lj	-10.1715
dikt	-10.1723
ekspedisjon	-10.1726
▁1979	-10.1726
▁school	-10.1727
▁nattfly	-10.173
▁hotell	-10.173
▁deltok	-10.1738
▁fått	-10.1738
▁kjøl	-10.1741
▁behandle	-10.1746
▁persisk	-10.1746
▁piano	-10.1765
▁økonomisk	-10.1772
▁økt	-10.1776
bygningen	-10.178
▁vitenskapelig	-10.1783
▁aktivitet	-10.1787
▁kåre	-10.1788
▁73	-10.179
▁nielsen	-10.1793
▁iran	-10.1795
ovo	-10.1807
▁fløy	-10.1808
▁frei	-10.1811
▁silke	-10.1816
▁benyttet	-10.1824
▁løk	-10.1835
▁kampen	-10.1836
figur	-10.1839
▁grupper	-10.184
▁big	-10.1851
▁arrangerer	-10.1851
▁deriblant	-10.1851
▁electric	-10.1851
▁elisabeth	-10.1851
artikler	-10.1851
▁berømt	-10.1851
▁derimot	-10.1851
▁arthur	-10.1852
▁opprettet	-10.1852
▁tilsvarer	-10.1854
▁føl	-10.1856
▁mineral	-10.1858
▁likevel	-10.1858
▁uavhengig	-10.1859
▁social	-10.186
grep	-10.186
▁malm	-10.1866
▁106	-10.1873
▁free	-10.1873
▁heng	-10.1876
▁motstand	-10.1876
▁populære	-10.1881
ship	-10.1885
▁sendt	-10.1886
spenning	-10.1888
▁tyr	-10.1888
▁forfatteren	-10.1892
materiale	-10.1893
▁beskrev	-10.1897
▁ansvarlig	-10.1897
▁produserte	-10.1898
▁sound	-10.1902
▁formann	-10.1903
ск	-10.1906
aire	-10.1912
▁sikte	-10.1913
▁48	-10.1918
▁144	-10.1924
▁ledelse	-10.1924
somme	-10.1933
pone	-10.1935
▁mennesker	-10.194
▁qing	-10.1943
kjent	-10.1945
▁raf	-10.1945
▁myk	-10.1947
▁kreve	-10.1951
folket	-10.1953
ça	-10.1959
dynastiet	-10.1968
behandling	-10.1968
▁regional	-10.1969
▁hvis	-10.1974
▁dør	-10.1977
▁dirigent	-10.1978
▁millioner	-10.1978
▁nabokommunen	-10.1978
▁video	-10.198
fortelling	-10.1989
▁øyvin	-10.1996
icus	-10.2003
▁cm	-10.2013
▁meget	-10.2015
▁bud	-10.202
galleri	-10.2026
▁beat	-10.2034
▁fjellet	-10.2041
eiro	-10.2061
▁material	-10.2064
▁effekt	-10.2067
▁bag	-10.2071
▁way	-10.2073
bjørg	-10.2076
sentre	-10.2092
▁khan	-10.2093
▁56	-10.2099
▁norman	-10.2101
▁parlament	-10.2106
▁1987	-10.2106
▁islam	-10.2107
▁kjønn	-10.2109
▁josé	-10.211
▁hjort	-10.211
fattig	-10.2113
▁disc	-10.213
modell	-10.2138
kjøn	-10.2144
▁orient	-10.2146
▁bow	-10.2158
▁rau	-10.2168
▁clar	-10.2169
▁skjær	-10.217
▁jeff	-10.2172
rente	-10.2173
alisme	-10.2187
▁fur	-10.2187
alitet	-10.2188
▁yi	-10.2196
eneste	-10.2197
▁plassert	-10.2198
konge	-10.2202
▁tempel	-10.221
▁him	-10.221
▁verket	-10.2226
interesse	-10.2227
▁retning	-10.223
▁nederland	-10.2231
▁stok	-10.2233
orkester	-10.2234
ц	-10.2236
▁studio	-10.2236
▁popul	-10.2236
▁forårsake	-10.2236
▁efter	-10.2237
▁dro	-10.224
▁shar	-10.2241
▁atlant	-10.2242
rico	-10.2248
▁møte	-10.2253
▁142	-10.2258
▁dvs	-10.2263
▁motiv	-10.227
▁penge	-10.2272
▁scene	-10.2273
▁høg	-10.2275
▁olaf	-10.2275
kvart	-10.2276
▁bog	-10.2279
▁87	-10.2285
▁finale	-10.2286
▁jud	-10.2287
▁divisjon	-10.2289
støl	-10.2296
▁intel	-10.2297
▁birk	-10.2314
▁dobbelt	-10.2315
zel	-10.2318
▁acc	-10.2323
wick	-10.2332
▁rap	-10.2333
▁marit	-10.2343
▁ube	-10.2346
roman	-10.235
journal	-10.2365
kall	-10.2367
▁american	-10.2368
▁sjelden	-10.2368
▁work	-10.2372
▁fond	-10.2373
▁befolkningen	-10.2374
▁soldat	-10.2374
ddy	-10.2375
▁flertall	-10.2376
▁invest	-10.2377
та	-10.2379
cast	-10.238
▁alltid	-10.2386
søkte	-10.2386
inntekt	-10.2388
▁junior	-10.2393
ario	-10.2395
▁84	-10.2401
▁grov	-10.2402
▁maj	-10.2403
næring	-10.2405
long	-10.2406
▁bull	-10.2411
mara	-10.242
го	-10.2421
▁nedre	-10.2422
▁problem	-10.2427
typer	-10.243
▁126	-10.2432
▁morgen	-10.2432
phon	-10.2436
▁korea	-10.2439
▁provinshovedsta	-10.244
▁112	-10.2442
▁139	-10.2443
äm	-10.2446
▁jakt	-10.2455
tysk	-10.2455
▁arkiv	-10.2459
▁utga	-10.2461
▁trø	-10.2473
▁mé	-10.2478
▁bydel	-10.2489
▁historiker	-10.2494
▁bygda	-10.2495
▁irsk	-10.2496
▁debutalbum	-10.2501
▁1972	-10.2501
worth	-10.2504
▁edward	-10.2504
imi	-10.2505
konkurranse	-10.2505
design	-10.2506
▁sørøst	-10.2509
▁well	-10.251
møll	-10.2519
▁atom	-10.2519
plattform	-10.252
▁skyldes	-10.2526
▁pad	-10.2527
gni	-10.2528
familie	-10.253
▁audi	-10.2532
ional	-10.255
chel	-10.255
▁hjemmebane	-10.2551
▁49	-10.2553
▁125	-10.2559
▁trolig	-10.2567
▁show	-10.2568
▁hva	-10.2569
tilbud	-10.257
back	-10.2576
skaja	-10.2582
но	-10.2585
▁marin	-10.2592
▁130	-10.2596
▁gjenopp	-10.2602
▁raj	-10.2616
▁cup	-10.2618
▁saf	-10.2619
løft	-10.2625
▁113	-10.2626
nagar	-10.2627
ев	-10.2633
forkortelse	-10.2636
▁1984	-10.2636
▁fremdeles	-10.2636
ópolis	-10.2636
▁tibetansk	-10.264
▁what	-10.264
undersøkelse	-10.2641
instrument	-10.2644
kjører	-10.2644
▁seier	-10.2647
▁hou	-10.2649
▁count	-10.265
▁røyk	-10.2651
lock	-10.2657
▁aksje	-10.2658
▁straffe	-10.2659
▁ltd	-10.2659
▁reserve	-10.2659
▁tradisjon	-10.266
▁amfi	-10.2662
format	-10.2673
ated	-10.2677
▁frode	-10.2678
kryp	-10.2679
▁forbinde	-10.2681
mennene	-10.2686
▁400	-10.2688
▁slott	-10.27
▁jin	-10.2706
ordning	-10.271
fyr	-10.2727
illo	-10.2728
ular	-10.2728
▁kvinner	-10.2735
▁121	-10.2739
▁term	-10.2739
▁bedre	-10.2743
▁sex	-10.2754
▁kald	-10.2756
variant	-10.2758
kål	-10.2758
▁perioden	-10.2764
▁vak	-10.2765
▁kjenn	-10.2768
stripe	-10.277
▁132	-10.277
politisk	-10.2771
▁tø	-10.2772
▁paris	-10.2772
▁bulgarsk	-10.2773
▁opprinnelse	-10.2773
▁egypt	-10.2773
▁1981	-10.2773
▁tyrkisk	-10.2773
▁klassisk	-10.2774
▁tolv	-10.2777
▁melodi	-10.2777
pati	-10.2784
album	-10.279
▁hyper	-10.2793
▁sørlig	-10.2805
▁ekstra	-10.2806
▁kreft	-10.2806
▁øker	-10.2807
▁mach	-10.2817
▁johnson	-10.282
finner	-10.2822
▁young	-10.2824
▁tegnet	-10.2825
▁glad	-10.2825
▁län	-10.2825
kjemi	-10.2828
▁pho	-10.2838
▁rollen	-10.284
▁lapp	-10.284
▁møter	-10.2842
parten	-10.2843
▁game	-10.2844
▁arg	-10.2845
▁lom	-10.2845
▁tab	-10.285
▁kvit	-10.2853
▁vall	-10.2857
kredit	-10.2862
▁rosa	-10.2869
pensjon	-10.2876
▁thom	-10.2891
▁sunn	-10.2897
▁ulv	-10.2899
▁euro	-10.2904
▁86	-10.2905
lung	-10.2907
institusjon	-10.2912
frekvens	-10.2912
▁london	-10.2912
▁regissert	-10.2912
▁episode	-10.2912
▁midgard	-10.2914
▁journalist	-10.2914
▁spise	-10.2914
slutt	-10.2917
▁metod	-10.2918
lista	-10.2918
já	-10.2922
lapp	-10.2925
psykologi	-10.2926
egnet	-10.2927
▁samuel	-10.2927
hjelp	-10.2928
evitsj	-10.2933
skift	-10.2938
▁innsjø	-10.2944
▁manus	-10.2951
gjøre	-10.2951
▁delvis	-10.2952
▁77	-10.2969
▁68	-10.2973
▁foregå	-10.2976
▁95	-10.2977
øve	-10.2978
stemme	-10.2978
▁sankt	-10.2984
▁gruve	-10.2988
▁kommunikasjon	-10.3006
▁tettstedet	-10.3012
isse	-10.3014
▁62	-10.3016
▁emb	-10.3022
▁vakt	-10.303
arrangement	-10.3053
▁orchestra	-10.3053
▁rapport	-10.3054
▁allerede	-10.3054
▁prosent	-10.3055
▁royal	-10.3055
▁håkon	-10.3057
▁franz	-10.3071
serie	-10.3084
våk	-10.3087
skrive	-10.3087
maker	-10.3088
▁legge	-10.3095
mission	-10.3095
bøker	-10.3096
▁trenings	-10.3099
ður	-10.3106
ittisk	-10.3112
ledet	-10.3122
▁109	-10.3123
▁opphav	-10.3126
▁omhandle	-10.3128
▁regel	-10.3132
▁reform	-10.3132
▁93	-10.3142
▁vad	-10.3143
offiser	-10.3147
▁kommun	-10.317
▁svan	-10.317
▁psyko	-10.3183
▁amerika	-10.3195
▁arrangeres	-10.3196
▁australia	-10.3196
▁1975	-10.3196
▁science	-10.3196
▁pasient	-10.3196
▁relativ	-10.3196
▁kjærlighet	-10.3197
▁insekt	-10.3197
▁golf	-10.3197
▁global	-10.3197
▁tømmer	-10.3198
▁present	-10.3202
▁kryss	-10.3204
▁63	-10.3205
▁krok	-10.3205
▁uttalt	-10.3206
▁ernst	-10.3215
legger	-10.3216
ân	-10.3216
▁bibel	-10.3216
▁141	-10.3219
▁glu	-10.3225
▁måne	-10.3233
▁07	-10.3245
▁grund	-10.3246
▁08	-10.3248
▁høyere	-10.3253
▁petr	-10.3259
▁billed	-10.3261
▁vokalist	-10.3265
▁kw	-10.3277
▁ove	-10.3278
kerne	-10.3289
▁stiftet	-10.3291
kapit	-10.3297
▁qa	-10.3302
▁prege	-10.3322
▁fader	-10.3335
grå	-10.3336
endring	-10.3339
▁begynner	-10.3341
▁sannsynlig	-10.3341
▁pseudo	-10.3341
konstruksjon	-10.3341
▁yrkes	-10.3341
▁yizhi	-10.3341
▁premier	-10.3342
▁stortings	-10.3342
▁ishockey	-10.3344
▁techn	-10.3346
prest	-10.3348
▁vanligste	-10.3351
kommer	-10.3353
▁blank	-10.3354
▁sikkerhets	-10.3354
▁china	-10.3356
▁hval	-10.3358
▁regjeringen	-10.3358
▁gyld	-10.336
▁luther	-10.3362
språklig	-10.3366
miljø	-10.3373
gutt	-10.3374
▁99	-10.3379
▁kvin	-10.338
▁main	-10.3384
▁bau	-10.3387
▁kammer	-10.339
▁saga	-10.3403
bury	-10.342
▁tykk	-10.3439
tjenesten	-10.344
▁101	-10.3449
▁ful	-10.3452
▁niels	-10.3461
▁05	-10.3463
graph	-10.3463
▁frp	-10.3464
ugle	-10.347
▁ungdom	-10.3479
▁brasil	-10.3481
▁vladimir	-10.3488
løytnant	-10.3488
▁etterfulgt	-10.3488
▁sanskrit	-10.3488
▁vulkan	-10.3488
stipend	-10.3489
▁ønske	-10.3492
▁munk	-10.3493
▁skarp	-10.3494
▁internett	-10.3494
▁demningen	-10.3497
▁jacobsen	-10.3502
kontrakt	-10.3507
▁103	-10.3507
bygda	-10.3509
xiang	-10.3514
▁float	-10.3519
effekt	-10.352
trafikk	-10.352
▁komme	-10.3525
▁fotballklubb	-10.3532
ovic	-10.3543
▁night	-10.3545
drakt	-10.355
vík	-10.3553
dommen	-10.3553
▁76	-10.3555
▁viking	-10.3559
▁rag	-10.356
▁smak	-10.3561
fabrik	-10.3562
▁baby	-10.3573
▁great	-10.3573
avhengig	-10.3578
▁300	-10.3579
iansk	-10.3582
▁04	-10.3608
▁most	-10.3615
▁universitetet	-10.3626
▁profesjonell	-10.3637
▁tusenårssted	-10.3637
▁fødsel	-10.3637
▁public	-10.3637
▁noctu	-10.3638
▁koreansk	-10.3639
▁dårlig	-10.364
terminal	-10.364
▁fiolin	-10.3642
▁stadion	-10.3643
▁høst	-10.3646
▁sverd	-10.3647
▁element	-10.3651
teater	-10.3656
ligner	-10.3657
▁bjerk	-10.3658
▁72	-10.3658
▁german	-10.3666
guan	-10.3666
magasin	-10.3674
teknologi	-10.3674
▁elektrisk	-10.3685
▁cel	-10.3686
▁ørn	-10.3696
▁holdt	-10.37
▁thy	-10.3726
▁nevro	-10.3741
rekke	-10.3749
▁nick	-10.3749
▁filosof	-10.3751
profil	-10.3775
versjon	-10.3788
restaurant	-10.3788
▁katedral	-10.3788
▁lasse	-10.3788
▁1968	-10.3788
▁1973	-10.3788
▁1974	-10.3788
▁1985	-10.3788
▁kristoffer	-10.3788
▁katolsk	-10.3789
skulptur	-10.3789
kompleks	-10.3789
▁innskriften	-10.3789
▁eventyr	-10.3789
▁hustru	-10.38
▁eksempelvis	-10.3803
▁lansert	-10.3804
nøtt	-10.381
▁snakke	-10.3812
▁brian	-10.3816
▁oppgave	-10.3816
▁118	-10.382
type	-10.382
▁daw	-10.3821
▁avslutte	-10.3821
▁bryn	-10.3823
▁tradisjonel	-10.3825
▁good	-10.3831
odden	-10.3831
▁skifte	-10.3839
ле	-10.3841
▁98	-10.3846
▁88	-10.385
▁fotograf	-10.3853
dition	-10.3853
▁plo	-10.3865
▁slå	-10.3874
▁92	-10.3875
▁skall	-10.3877
▁129	-10.3891
dommer	-10.3901
visning	-10.3902
egler	-10.3917
▁krf	-10.392
cchi	-10.392
▁1970	-10.3942
▁1977	-10.3942
betennelse	-10.3942
▁oversettelse	-10.3942
▁østerrike	-10.3942
▁serbisk	-10.3943
▁fjerde	-10.3943
▁linux	-10.3945
▁forteller	-10.3945
halvøya	-10.3946
▁drept	-10.3948
▁utkom	-10.3951
▁norway	-10.3951
døgn	-10.3964
▁opprør	-10.3964
▁gross	-10.3966
▁102	-10.3968
▁foll	-10.3969
▁148	-10.3979
▁ytre	-10.3982
bevegelse	-10.3989
prakt	-10.3992
▁59	-10.3994
▁crist	-10.3995
▁vokste	-10.3999
funnet	-10.4003
▁zhu	-10.4006
▁pels	-10.4011
valget	-10.4017
▁wild	-10.402
▁demokrati	-10.4025
▁nerve	-10.4033
▁skjel	-10.4038
åker	-10.4042
aux	-10.4062
▁laks	-10.4064
løv	-10.4066
zzo	-10.4067
media	-10.4071
▁gitarist	-10.4083
▁61	-10.4097
ская	-10.4098
spørsmål	-10.4098
▁1978	-10.4099
▁1965	-10.4099
▁giovann	-10.4099
ensemble	-10.4099
▁church	-10.4099
▁naturreservat	-10.4099
▁united	-10.4099
abili	-10.41
ulær	-10.4101
▁ansatte	-10.4102
▁1964	-10.4103
▁119	-10.4105
▁pistol	-10.4108
▁eksport	-10.4112
▁poeng	-10.4113
▁plast	-10.4121
utdannelse	-10.4127
▁sä	-10.4129
▁138	-10.4136
tvedt	-10.4147
hindi	-10.415
grønn	-10.4156
▁little	-10.4169
▁koloni	-10.4179
▁prins	-10.4203
biologi	-10.4207
logi	-10.421
▁sammenlign	-10.4215
▁arch	-10.4218
▁radi	-10.4222
årig	-10.4227
▁england	-10.4235
▁nød	-10.4237
▁anta	-10.4237
▁hekk	-10.4246
▁fyll	-10.4253
▁symptom	-10.4257
▁heinrich	-10.4257
▁1961	-10.4257
▁sykkel	-10.4257
kapasitet	-10.4257
▁1966	-10.4257
▁ungarsk	-10.4257
ressurs	-10.4259
▁support	-10.4259
▁stefan	-10.426
▁66	-10.426
administrasjon	-10.4267
▁forvaltnings	-10.4267
▁131	-10.427
▁pha	-10.4271
▁inndelt	-10.4272
▁flagg	-10.428
▁susan	-10.428
▁supp	-10.428
▁alex	-10.4282
▁oppdrag	-10.4285
▁bakover	-10.4287
▁lunge	-10.43
▁domini	-10.4301
face	-10.4302
▁panser	-10.4306
▁cul	-10.4321
gjennom	-10.4321
▁67	-10.4322
▁78	-10.4327
cup	-10.4334
▁hauk	-10.4336
turnering	-10.437
▁milan	-10.4371
▁tell	-10.4372
abad	-10.438
biblioteket	-10.4382
drevet	-10.4383
▁bodde	-10.4384
▁gott	-10.4388
▁ej	-10.4392
chang	-10.4392
▁francis	-10.4393
metode	-10.4401
sikkerhet	-10.4405
▁water	-10.4405
regiment	-10.4411
▁96	-10.4412
▁trip	-10.4416
▁falk	-10.4417
▁københavn	-10.4418
▁ukraina	-10.4418
▁regissør	-10.4418
▁trygve	-10.4418
▁2018	-10.4419
▁jacque	-10.4419
▁drammen	-10.4419
▁fiktiv	-10.4419
▁valuta	-10.4419
▁central	-10.4419
▁integr	-10.4419
▁kontakt	-10.442
kommisjon	-10.4421
▁padding	-10.4422
▁møller	-10.4424
▁1960	-10.4425
pping	-10.443
▁forvingen	-10.4431
▁kyrk	-10.4436
▁oppnå	-10.444
▁hersker	-10.4446
▁latinsk	-10.445
bregne	-10.4457
▁klein	-10.4459
bæk	-10.4463
institutt	-10.4467
▁orgel	-10.4468
▁heart	-10.4479
redaktør	-10.4481
frukt	-10.4481
▁jury	-10.4485
▁slått	-10.4488
▁robin	-10.4497
matisk	-10.4497
arkiv	-10.4503
▁tony	-10.4506
▁geit	-10.4507
▁indo	-10.4512
▁motto	-10.4514
høgskole	-10.4514
▁davis	-10.4518
fast	-10.4525
▁homo	-10.4527
studier	-10.4528
▁hente	-10.4532
radio	-10.4539
▁luci	-10.4545
urdu	-10.4563
▁liberal	-10.4565
▁dyrke	-10.4578
▁114	-10.4581
▁astronom	-10.4582
▁brenselstype	-10.4582
▁offisielt	-10.4582
▁rudolf	-10.4582
▁således	-10.4582
▁passasjer	-10.4582
▁søndag	-10.4583
hospital	-10.4583
▁petersburg	-10.4583
zhong	-10.4587
palasset	-10.4587
▁stadium	-10.4588
▁bakgrunn	-10.459
▁skiller	-10.4592
▁nepal	-10.4593
▁sylv	-10.4593
spesifik	-10.4594
▁klatre	-10.4601
▁forbunds	-10.4611
▁down	-10.4613
utvalget	-10.4622
▁identifi	-10.4626
▁forbl	-10.4626
▁nobel	-10.4628
quist	-10.463
▁funn	-10.4632
▁kontra	-10.4635
▁søke	-10.4636
▁otta	-10.4641
ал	-10.4648
sentrum	-10.4651
bukk	-10.466
▁olga	-10.4662
▁novo	-10.4675
▁kho	-10.4689
▁111	-10.4695
▁bratt	-10.4702
▁utløp	-10.4705
▁71	-10.4716
nytt	-10.4724
ruter	-10.4729
wang	-10.4731
▁legend	-10.4735
▁høi	-10.4738
▁markert	-10.4741
▁storbritannia	-10.4749
▁kilometer	-10.4749
▁bakkroppen	-10.4749
▁diplom	-10.4749
▁mekanisk	-10.4749
▁systematikk	-10.475
▁busk	-10.4752
▁edvard	-10.4753
▁bundes	-10.4753
▁telemark	-10.4756
▁francesc	-10.4757
▁mytologi	-10.4758
▁import	-10.476
▁allmenn	-10.4763
samband	-10.4764
▁donau	-10.477
▁karakteristisk	-10.4771
▁avgjør	-10.4775
näs	-10.4783
▁bære	-10.4792
▁begrense	-10.4793
▁hugo	-10.4799
nntil	-10.4807
▁melke	-10.4808
▁bly	-10.4813
▁dà	-10.482
▁nådd	-10.4822
hovedstaden	-10.4826
▁ibn	-10.4835
▁mario	-10.4841
spiss	-10.4864
▁200	-10.4884
▁toll	-10.489
▁tunnel	-10.4902
▁ferge	-10.4904
▁skyld	-10.4904
▁91	-10.4909
▁dekkvingene	-10.4919
▁1976	-10.4919
▁symfoni	-10.4919
▁tegneserie	-10.4919
sammenheng	-10.4919
ński	-10.492
▁henholdsvis	-10.492
væske	-10.4924
faktor	-10.4927
sidig	-10.4947
▁fritz	-10.4956
▁kommunal	-10.4972
▁gong	-10.5001
▁58	-10.5006
▁oberst	-10.5035
▁elias	-10.5036
▁tusen	-10.5048
▁81	-10.505
▁utenriks	-10.5059
ве	-10.509
▁washington	-10.5091
▁łód	-10.5091
▁alkohol	-10.5091
▁1967	-10.5091
▁1969	-10.5091
▁people	-10.5091
▁ingrid	-10.5091
▁terreng	-10.5092
▁komponert	-10.5092
▁regulere	-10.5092
▁redusere	-10.5093
▁josef	-10.5093
mønster	-10.5094
▁nettside	-10.5096
kritiker	-10.5096
▁utvikler	-10.5097
▁1930	-10.5099
▁hendelse	-10.51
▁tommy	-10.5101
▁arild	-10.5104
▁aksel	-10.511
database	-10.511
▁asbjørn	-10.5113
▁lengst	-10.512
▁which	-10.5125
▁69	-10.5127
ruten	-10.5137
▁centre	-10.514
▁bush	-10.5163
domstol	-10.5174
▁sym	-10.5181
front	-10.5184
time	-10.5192
▁flø	-10.52
▁administrere	-10.5215
▁departement	-10.5222
▁swa	-10.5225
▁ansvar	-10.5236
▁133	-10.5236
ий	-10.5243
▁måned	-10.5246
▁rö	-10.5247
kså	-10.5252
▁individ	-10.5266
▁initiativ	-10.5266
opplæring	-10.5266
bataljon	-10.5267
▁brønn	-10.5267
▁kristiansand	-10.5267
▁skjedde	-10.5269
▁kallenavn	-10.5272
apparat	-10.5272
▁komposisjon	-10.5275
▁moore	-10.5276
▁micro	-10.5276
▁drikke	-10.528
▁spring	-10.5282
älven	-10.5283
▁manuel	-10.5291
▁innført	-10.5292
▁automatisk	-10.5297
▁yngre	-10.5302
▁diesel	-10.5307
▁hundre	-10.5307
▁castel	-10.5311
▁mengde	-10.5324
▁kaffe	-10.5325
▁hong	-10.5328
▁sving	-10.533
ди	-10.5332
stamme	-10.5347
▁symbolisere	-10.5348
▁place	-10.5351
hånd	-10.536
della	-10.5362
sponsor	-10.5367
▁krog	-10.5376
owski	-10.5376
▁petro	-10.5386
▁metal	-10.5388
blanding	-10.541
forvaltning	-10.5434
▁clark	-10.5442
forstyrrelse	-10.5445
▁tilgjengelig	-10.5445
▁etterhvert	-10.5445
▁patrick	-10.5445
▁bjarne	-10.5445
▁moskva	-10.5445
▁adolf	-10.5445
▁etterfølger	-10.5445
assistent	-10.5446
▁generalsekretær	-10.5447
▁godkjent	-10.5447
hastighet	-10.5448
▁bodø	-10.5453
▁1940	-10.5454
▁jackson	-10.5457
▁øystein	-10.5461
▁ungdomsskole	-10.5468
▁eirik	-10.5468
▁utenom	-10.547
▁johnny	-10.5474
▁eriksen	-10.5479
▁snu	-10.5483
▁other	-10.5503
pierre	-10.5506
▁statlig	-10.5513
▁apple	-10.5541
aktivitet	-10.5547
vitenskapelig	-10.555
▁galle	-10.5558
opptak	-10.5559
jì	-10.5561
▁first	-10.5575
▁nordisk	-10.558
▁kongelig	-10.5585
▁blind	-10.5586
▁fritt	-10.5597
▁sistnevnte	-10.5627
▁arrangør	-10.5627
▁ytterligere	-10.5627
▁hverandre	-10.5627
▁1945	-10.5627
tårnet	-10.5628
▁tibet	-10.5633
kommen	-10.5635
▁novell	-10.5635
▁ukjent	-10.564
▁muskel	-10.5642
kostnad	-10.5644
strøk	-10.5647
▁isteden	-10.5649
▁hovedbyen	-10.5652
▁kritikk	-10.5665
▁medisinsk	-10.5681
си	-10.5685
▁organisert	-10.5686
▁child	-10.5688
▁maxim	-10.5689
▁miste	-10.569
▁singel	-10.569
▁blanc	-10.5693
▁89	-10.571
▁vidar	-10.5725
derav	-10.5742
▁fish	-10.5749
sykdommer	-10.575
torium	-10.5769
▁serra	-10.578
kompani	-10.5782
▁tildele	-10.5783
▁aero	-10.581
▁publikum	-10.5812
▁krystall	-10.5812
▁fengsel	-10.5812
▁1963	-10.5812
▁fortsetter	-10.5812
▁kommentar	-10.5812
▁evangel	-10.5812
▁bitumen	-10.5812
pedagog	-10.5813
komité	-10.5813
artilleri	-10.5818
▁finnmark	-10.5818
motiv	-10.5819
▁miao	-10.5821
▁nederlandsk	-10.5824
stemning	-10.5836
ло	-10.5845
▁feire	-10.5852
▁fuji	-10.5862
krev	-10.5862
▁johnsen	-10.5875
▁bokser	-10.5919
▁jøde	-10.5922
problem	-10.5924
divisjon	-10.5924
kunstner	-10.5941
setting	-10.5944
▁reich	-10.5951
▁begrep	-10.5953
festival	-10.5982
▁overflate	-10.6
▁association	-10.6001
▁norwegian	-10.6001
▁litauisk	-10.6001
▁pattedyr	-10.6001
▁kenneth	-10.6001
▁fjeld	-10.6001
▁flerårig	-10.6001
▁alexandr	-10.6001
▁kobber	-10.6002
▁slanke	-10.6002
mouth	-10.6003
▁xiàn	-10.6004
▁tørke	-10.6005
▁stiftelsen	-10.6006
▁bydistrikt	-10.6011
▁meyer	-10.6013
▁bidrag	-10.6013
▁canadi	-10.6023
▁ytter	-10.6023
▁træ	-10.6023
▁eugen	-10.6034
▁kevin	-10.604
fallende	-10.6062
по	-10.6068
distanse	-10.6081
▁republik	-10.6087
transport	-10.6121
ulykke	-10.6138
▁nettsted	-10.614
guó	-10.6142
▁sandvik	-10.6164
dress	-10.6171
hockey	-10.6189
▁vindu	-10.6193
▁religiøs	-10.6193
▁ovenfor	-10.6193
▁zhang	-10.6193
▁thailand	-10.6194
▁skildre	-10.6194
▁regelmessig	-10.6194
▁redusert	-10.6194
▁batteri	-10.6195
▁fokus	-10.6195
▁archive	-10.6195
▁protein	-10.6196
schaft	-10.62
▁viktor	-10.6202
▁barnehage	-10.6204
▁salix	-10.6204
politi	-10.6205
▁ørken	-10.6206
kirch	-10.6208
▁gjennomført	-10.621
title	-10.6213
▁slange	-10.6215
▁122	-10.6219
▁tilpasse	-10.6221
▁bedriften	-10.6221
verktøy	-10.6224
foretak	-10.6229
▁145	-10.6236
▁rulle	-10.624
▁registrert	-10.624
▁kreert	-10.6258
▁anni	-10.6262
▁skaper	-10.6305
▁sovjet	-10.6308
fordeling	-10.6315
bølge	-10.633
▁aleksandr	-10.6389
▁eksperiment	-10.6389
▁guvernør	-10.6389
▁millimeter	-10.6389
▁pradesh	-10.6389
▁1959	-10.6389
▁1955	-10.6389
▁1962	-10.6389
▁1956	-10.6389
veksling	-10.639
▁prinsesse	-10.6391
▁cooper	-10.6391
rettigheter	-10.6392
▁bløt	-10.6393
▁disney	-10.6395
▁varianter	-10.6396
▁lengre	-10.6397
▁nkp	-10.6398
▁llc	-10.64
▁1920	-10.6401
▁sammenlagt	-10.6404
produkt	-10.6405
bebyggelse	-10.6405
▁point	-10.6408
▁know	-10.6408
▁knud	-10.6409
▁utnytte	-10.6409
▁dokumenter	-10.641
▁forvalte	-10.6411
▁eksistere	-10.6412
▁bønn	-10.6415
▁reaksjon	-10.6417
▁when	-10.6421
▁arkitektur	-10.6424
ggio	-10.6435
fysikk	-10.6445
▁grunnlegge	-10.6449
▁innbyggern	-10.6455
▁intens	-10.6462
▁revers	-10.6465
▁stadig	-10.6469
tjern	-10.648
republikk	-10.6485
nevner	-10.649
støtte	-10.6496
▁regjer	-10.6512
arkitekt	-10.6525
provins	-10.6526
▁edel	-10.6534
høyskole	-10.658
kreps	-10.6582
toft	-10.6584
▁forøvrig	-10.6589
▁portugisisk	-10.6589
▁vedlikehold	-10.6589
▁ludvig	-10.6589
▁1944	-10.6589
▁1938	-10.6589
▁inspirert	-10.6589
▁generelt	-10.6589
▁ålesund	-10.6589
▁theodor	-10.659
▁ragnar	-10.659
▁brigade	-10.659
holdsvis	-10.6591
▁foretrekke	-10.6595
▁håndball	-10.6595
▁revolusjon	-10.6597
▁hormon	-10.6599
vytsj	-10.66
▁hamburg	-10.6601
▁biografi	-10.6603
▁rednings	-10.6605
▁hitler	-10.6609
▁sikre	-10.6614
▁ellen	-10.6614
▁alban	-10.6618
dersom	-10.6622
▁smør	-10.6624
filosofi	-10.6639
▁tynn	-10.664
▁cross	-10.6669
▁sept	-10.6672
▁hovedrollen	-10.6673
▁kommunist	-10.6698
▁skjell	-10.6719
▁klippe	-10.672
klipp	-10.6722
størrelse	-10.6733
akademi	-10.6734
sentral	-10.6739
▁bekke	-10.676
stiftelse	-10.6784
▁fullstendig	-10.6793
vassdraget	-10.6793
▁tilskuere	-10.6793
▁1939	-10.6793
▁airlines	-10.6793
konferanse	-10.6793
▁stephen	-10.6793
▁innspilling	-10.6793
▁donald	-10.6794
kjøring	-10.6794
▁ytterkant	-10.6794
▁solgte	-10.6795
▁gråbrun	-10.6796
▁akutt	-10.6797
▁terror	-10.6797
▁nyhets	-10.6798
▁romersk	-10.6807
skjerm	-10.6811
▁ledende	-10.6815
tromme	-10.6816
▁dream	-10.6817
▁sosialistisk	-10.6821
katalog	-10.6851
▁direct	-10.6858
▁vannkraft	-10.6861
▁karbon	-10.6869
knapp	-10.6877
▁europe	-10.6878
▁pall	-10.6895
laug	-10.6917
▁bulgaria	-10.7001
▁elizabeth	-10.7001
▁infanteri	-10.7001
▁ludwig	-10.7001
▁tønsberg	-10.7001
▁asteroide	-10.7002
▁utmerkelse	-10.7002
▁vunnet	-10.7002
▁special	-10.7002
▁alvorlig	-10.7002
▁innsats	-10.7002
▁ansikt	-10.7002
▁hvilke	-10.7002
▁kriminal	-10.7002
▁spania	-10.7003
▁opptrer	-10.7004
▁communi	-10.7004
▁control	-10.7004
▁tropisk	-10.7008
▁francisco	-10.7009
▁gregor	-10.7009
▁arvid	-10.7015
rommet	-10.7016
▁veldig	-10.7022
▁european	-10.7023
funnstedet	-10.7027
artikkel	-10.7032
forsyning	-10.7043
▁kapell	-10.7094
те	-10.7107
öll	-10.713
døgnfluer	-10.7153
historisk	-10.7163
programmet	-10.7169
lukke	-10.7196
grønland	-10.7201
▁douglas	-10.7214
▁kjøkken	-10.7214
▁oksygen	-10.7214
▁bryggeri	-10.7214
▁1949	-10.7214
▁1952	-10.7214
▁1971	-10.7214
▁natrium	-10.7214
▁1936	-10.7214
▁flyttet	-10.7216
▁arbeiderpartiet	-10.7217
gericht	-10.7218
▁embets	-10.7219
▁styreleder	-10.722
▁flyselskap	-10.7221
▁xiao	-10.7226
▁høyesterett	-10.7227
▁snart	-10.723
▁birgit	-10.7231
▁kvinnelige	-10.7232
▁effektiv	-10.7233
▁forsterke	-10.7244
▁slektning	-10.7248
▁ytterst	-10.7253
reise	-10.7256
▁midtbane	-10.7261
pølse	-10.7262
tavle	-10.7289
▁sovjetisk	-10.7303
▁bedrifts	-10.7312
▁marcel	-10.7334
wich	-10.7354
▁kommunistisk	-10.7394
gymnas	-10.743
skilpadde	-10.7432
▁færøysk	-10.7432
▁inskripsjon	-10.7432
▁keyboard	-10.7432
sentralbanksjef	-10.7432
▁buddhist	-10.7432
▁pakistan	-10.7432
▁1954	-10.7432
▁1957	-10.7432
▁vietnamesisk	-10.7432
▁risiko	-10.7432
▁skjønn	-10.7433
straße	-10.7433
▁lewis	-10.7434
▁programvare	-10.7436
▁werner	-10.7439
▁leonard	-10.7441
▁1950	-10.7443
▁kjetil	-10.7444
▁hvordan	-10.7446
▁bevart	-10.7451
▁vandre	-10.7454
▁rifle	-10.7456
▁fremstille	-10.7489
▁earl	-10.7495
lândia	-10.7527
dannelse	-10.7563
strømmen	-10.7569
▁kill	-10.7571
▁deltaker	-10.7573
ribbe	-10.7589
kreft	-10.762
tekst	-10.7622
gått	-10.7624
▁evig	-10.7634
volusjon	-10.7645
ń	-10.7652
▁mountain	-10.7654
▁münchen	-10.7654
▁philadelphia	-10.7654
▁sebastian	-10.7654
▁windows	-10.7654
▁krydder	-10.7654
▁suksess	-10.7654
▁kennedy	-10.7654
▁oppdatert	-10.7654
▁abraham	-10.7654
▁arrangert	-10.7654
▁1948	-10.7654
▁1958	-10.7654
▁tyrkia	-10.7654
seremoni	-10.7654
▁eivind	-10.7654
▁avhandling	-10.7654
▁söder	-10.7654
▁hvem	-10.7655
▁project	-10.7655
▁nærmere	-10.7656
▁vanskelig	-10.7657
▁two	-10.7657
▁inndelingen	-10.7659
▁registrering	-10.766
egenskaper	-10.7663
dimensjon	-10.7664
reservat	-10.7666
▁nevnt	-10.7669
▁arkeolog	-10.7673
▁landskapet	-10.7674
▁frigjør	-10.7674
▁icao	-10.7687
▁1900	-10.7689
lilje	-10.769
terrier	-10.7691
bokstav	-10.7693
eksamen	-10.7697
▁observa	-10.7708
▁slave	-10.7711
▁beregne	-10.7729
forretning	-10.7731
▁brent	-10.7758
▁lykke	-10.7789
▁salme	-10.7809
ansvarlig	-10.7845
jernbane	-10.7847
▁strateg	-10.7867
finalen	-10.7867
▁utgangspunkt	-10.7881
kommanderende	-10.7881
▁mercedes	-10.7881
▁vilhelm	-10.7881
▁1942	-10.7881
▁1941	-10.7881
▁betrakte	-10.7881
▁fenomen	-10.7881
▁tvilling	-10.7881
protokoll	-10.7881
▁trompet	-10.7881
▁stortinget	-10.7882
▁studioalbum	-10.7882
▁bøkene	-10.7883
▁definert	-10.7883
▁bmw	-10.7883
▁hertug	-10.7883
▁kristelig	-10.7886
▁kapital	-10.7887
▁hovedartikkel	-10.7888
▁fremført	-10.789
▁partileder	-10.7894
▁bokstaven	-10.7896
vandring	-10.7897
▁negativ	-10.7902
føtt	-10.7929
▁folkeparti	-10.7944
▁administrerend	-10.7948
office	-10.796
▁tilfelle	-10.7966
▁maritim	-10.7971
▁tolk	-10.7984
▁plateselskap	-10.7989
gudinnen	-10.8015
lengde	-10.8017
konsert	-10.8087
▁jomfru	-10.8114
▁kjøretøy	-10.8114
▁lawrence	-10.8114
▁society	-10.8114
▁vennskapsbyer	-10.8114
▁petroleum	-10.8114
▁benedict	-10.8114
▁cappelen	-10.8114
▁1937	-10.8114
▁amundsen	-10.8114
▁hovedkvarter	-10.8114
▁monument	-10.8114
▁opplysning	-10.8114
▁capital	-10.8114
▁frivillig	-10.8114
▁fysisk	-10.8114
▁muslim	-10.8114
▁wagner	-10.8114
▁margaret	-10.8115
▁where	-10.8115
▁håvard	-10.8115
järvi	-10.8117
▁beholdt	-10.8118
▁nasjonalsang	-10.8119
bestemmelse	-10.8119
▁romsdal	-10.8119
▁spirit	-10.8121
▁monark	-10.8122
▁stanley	-10.8122
▁1924	-10.8122
▁country	-10.8124
▁vestfold	-10.8125
▁lisens	-10.8136
▁kjennetegne	-10.8154
▁løfte	-10.8166
▁barneskole	-10.8197
▁registr	-10.8202
ground	-10.8208
▁årsak	-10.8239
▁statisti	-10.8264
▁bestemt	-10.8333
styring	-10.8343
sjön	-10.8348
kansler	-10.835
▁ferdinand	-10.8352
▁microsoft	-10.8352
▁research	-10.8352
▁utelukkende	-10.8352
▁færøyene	-10.8352
▁ragnhild	-10.8352
▁zhōng	-10.8352
▁juridisk	-10.8352
sylindre	-10.8352
▁kongedømme	-10.8352
konsulent	-10.8352
▁geometri	-10.8352
köping	-10.8352
▁syndrom	-10.8352
▁claudi	-10.8352
▁kombinert	-10.8352
▁ralph	-10.8352
▁uigur	-10.8352
grunnsstasjon	-10.8352
▁opererer	-10.8352
▁stephan	-10.8353
▁jødisk	-10.8353
▁bærum	-10.8354
▁elektronisk	-10.8354
▁diverse	-10.8355
▁skotsk	-10.8356
▁kongsberg	-10.8358
▁1911	-10.836
abilitet	-10.836
høyden	-10.8369
vegetasjon	-10.8374
▁volks	-10.8374
blomsterflue	-10.8378
forsamlingen	-10.8391
ière	-10.8393
▁nøtte	-10.8442
børste	-10.8447
▁automat	-10.8562
▁definisjon	-10.8596
▁vingespenn	-10.8596
▁köln	-10.8596
▁umiddelbar	-10.8596
▁management	-10.8596
▁chicago	-10.8596
▁definerer	-10.8596
▁kapittel	-10.8596
▁colombia	-10.8596
▁geografisk	-10.8596
▁parallell	-10.8596
▁oppstår	-10.8596
▁utvidet	-10.8596
▁nemlig	-10.8596
▁embeds	-10.8596
▁ødelegge	-10.8596
▁essay	-10.8596
▁senior	-10.8597
▁redigert	-10.8597
▁über	-10.8597
betjent	-10.8598
▁gerhard	-10.8599
▁våt	-10.8602
▁abdul	-10.8602
▁1929	-10.8602
▁ekteskap	-10.8604
▁1919	-10.8605
▁detalj	-10.8605
liknende	-10.8608
▁xinjian	-10.8615
▁salgs	-10.8618
▁idrettsforening	-10.8621
statistikk	-10.8639
hvelv	-10.8654
▁datterselskap	-10.8688
▁tallrik	-10.8692
tropi	-10.8813
▁stikke	-10.8816
▁period	-10.8817
▁favoritt	-10.8846
▁manuskript	-10.8846
▁trommeslager	-10.8846
▁sjeldne	-10.8846
disiplin	-10.8846
▁høyhastighets	-10.8846
▁1933	-10.8846
▁1946	-10.8846
▁fjernsyns	-10.8846
leverandør	-10.8846
▁grün	-10.8847
▁valentin	-10.8847
▁finskspråklig	-10.8847
trukket	-10.8849
▁kelly	-10.885
▁viklere	-10.8851
▁gutte	-10.8851
▁fotballspiller	-10.8851
▁armensk	-10.8852
sekvens	-10.8853
▁endringer	-10.8854
cephal	-10.8854
▁representanter	-10.8855
▁forbruker	-10.8859
▁varianten	-10.8868
▁stryk	-10.8871
qiao	-10.8875
svermer	-10.8878
kalender	-10.8888
relatert	-10.8896
dyktig	-10.8897
▁hvile	-10.8903
▁score	-10.8903
mottak	-10.8943
▁respons	-10.8956
iàn	-10.8993
balanse	-10.9003
▁inneha	-10.9007
ifikasjon	-10.902
europeisk	-10.9097
temperatur	-10.9097
entreprenør	-10.9102
▁sjokolade	-10.9102
▁aksepter	-10.9102
▁technology	-10.9102
▁tsjekkisk	-10.9102
▁øivind	-10.9102
skapsvernområde	-10.9102
▁through	-10.9102
▁synonym	-10.9102
▁tilføyd	-10.9102
▁brødrene	-10.9102
budsjett	-10.9102
▁anvendes	-10.9102
▁html	-10.9102
▁erobret	-10.9102
▁overlevde	-10.9102
▁amatør	-10.9102
▁would	-10.9102
▁litauen	-10.9102
▁ekstrem	-10.9103
▁1896	-10.9103
▁jelena	-10.9103
▁kombinere	-10.9103
▁situasjon	-10.9103
▁beslekte	-10.9103
▁luigi	-10.9103
▁ronald	-10.9104
sław	-10.9104
▁arendal	-10.9104
▁vincent	-10.9106
▁1917	-10.9109
▁operation	-10.911
▁anatol	-10.911
▁pakke	-10.9112
▁giuli	-10.9121
▁faust	-10.9123
stjert	-10.9128
inndeling	-10.9129
fatning	-10.9131
vesenet	-10.9143
brakte	-10.9184
▁skei	-10.919
snipe	-10.9245
prinsippet	-10.9324
▁aftenposten	-10.9365
▁fakultet	-10.9365
▁françois	-10.9365
▁sarpsborg	-10.9365
▁vietnam	-10.9365
▁ferskvann	-10.9365
▁hongkong	-10.9365
▁hybrid	-10.9365
▁skottland	-10.9365
▁1947	-10.9365
▁1935	-10.9365
▁veksel	-10.9366
høvding	-10.9366
▁symphon	-10.9366
flaggermus	-10.9366
infeksjon	-10.9366
▁hovedpersonen	-10.9366
▁axel	-10.9367
▁taiwan	-10.9368
jīng	-10.9369
▁fullført	-10.937
▁sergej	-10.937
▁enzym	-10.937
▁1912	-10.9374
▁aristo	-10.9374
▁betong	-10.9375
▁myhre	-10.9376
▁hawk	-10.9377
▁glenn	-10.9384
fellesskap	-10.9389
▁krevd	-10.9405
▁støv	-10.9412
▁varemerke	-10.9419
renge	-10.9449
▁fasci	-10.9455
søyle	-10.9582
▁offisiell	-10.9634
▁admiral	-10.9635
▁afghanistan	-10.9635
▁aluminium	-10.9635
▁aserbajdsjan	-10.9635
▁california	-10.9635
▁helikopter	-10.9635
▁kollektiv	-10.9635
▁network	-10.9635
konservativ	-10.9636
publikasjon	-10.9636
reservoar	-10.9636
▁corporation	-10.9636
▁inspirasjon	-10.9636
▁wergeland	-10.9636
øyenstikker	-10.9636
▁benjamin	-10.9636
▁utbredt	-10.9636
▁referanse	-10.9636
▁taylor	-10.9636
▁frederick	-10.9636
▁1951	-10.9636
▁senterpartiet	-10.9636
▁borgermester	-10.9636
▁vesentlig	-10.9636
▁selvmord	-10.9636
▁anerkjent	-10.9636
▁rumensk	-10.9636
ский	-10.9636
▁ungarn	-10.9636
▁prince	-10.9636
▁eventuel	-10.9636
▁haakon	-10.9636
fosfat	-10.9637
▁storkommunen	-10.9637
stråling	-10.9638
▁føderal	-10.964
▁radikal	-10.964
▁again	-10.9641
▁fuktig	-10.9643
▁kråke	-10.9661
га	-10.9776
stemte	-10.9801
følelse	-10.9853
▁kringkasting	-10.9913
inspektør	-10.9913
▁development	-10.9913
▁erkebiskop	-10.9913
▁frankfurt	-10.9913
▁utnevnt	-10.9913
▁absolut	-10.9913
▁business	-10.9913
▁champion	-10.9913
▁elefant	-10.9913
▁tromsø	-10.9913
▁league	-10.9913
▁bokstavelig	-10.9913
▁mexico	-10.9913
▁halvorsen	-10.9913
▁nøkkel	-10.9913
▁claude	-10.9913
▁buddha	-10.9913
▁1953	-10.9913
▁svovel	-10.9913
▁nedbør	-10.9914
renessanse	-10.9914
▁charlotte	-10.9914
▁reklame	-10.9914
▁kalsium	-10.9914
▁doktorgrad	-10.9914
stimulere	-10.9914
▁hjelm	-10.9914
▁afrikansk	-10.9915
▁oppfatte	-10.9915
▁fremstilt	-10.9915
▁fritids	-10.9915
▁seinere	-10.9916
▁bernhard	-10.9916
▁monroe	-10.9917
▁medvirkend	-10.9918
▁trenger	-10.9923
▁nederst	-10.9924
▁koreograf	-10.9926
▁hovedsete	-10.9926
gjerd	-10.9927
kritisk	-10.9932
strategi	-10.9936
▁sofie	-11.0026
basseng	-11.0028
▁økonom	-11.0067
vokst	-11.0079
slottet	-11.0099
▁prinsipp	-11.01
▁døgnflue	-11.0106
orientert	-11.0118
ві	-11.0145
▁tortricidae	-11.0199
▁valgdeltakelse	-11.0199
▁aleksander	-11.0199
▁anthony	-11.0199
▁democrat	-11.0199
▁østerriksk	-11.0199
▁utdødd	-11.0199
▁jonathan	-11.0199
▁respekt	-11.0199
▁selvstendig	-11.0199
▁waldemar	-11.0199
tekniker	-11.0199
▁lørdag	-11.0199
▁konsonant	-11.0199
▁baptist	-11.0199
▁1908	-11.0199
▁1915	-11.0199
▁marilyn	-11.0199
▁forbedre	-11.0199
▁utvidelse	-11.02
▁valutakode	-11.02
▁lorenz	-11.02
▁about	-11.0201
▁steffen	-11.0201
▁jørn	-11.0202
▁flytende	-11.0202
konvensjon	-11.0203
▁tønne	-11.0204
▁cruise	-11.023
▁karakterisere	-11.024
▁etasje	-11.0277
karbonat	-11.0395
▁innlede	-11.0432
psykiatri	-11.0493
▁argentina	-11.0493
▁giuseppe	-11.0493
▁innbefatte	-11.0493
▁kontinental	-11.0493
▁müller	-11.0493
▁tsjekkoslovakia	-11.0493
▁joachim	-11.0493
geschicht	-11.0493
▁kvadrat	-11.0493
▁oppretthold	-11.0493
▁1907	-11.0493
▁1918	-11.0493
▁1906	-11.0493
leksikon	-11.0493
▁1934	-11.0493
▁texas	-11.0493
▁kroatisk	-11.0494
▁fellow	-11.0494
▁1844	-11.0494
▁grunnkretsen	-11.0494
▁blomsterfluene	-11.0494
▁oppdaget	-11.0494
▁zealand	-11.0495
▁second	-11.0495
▁muhamm	-11.0495
▁belgisk	-11.0495
omsorg	-11.0495
▁tegl	-11.0496
▁return	-11.0497
▁missil	-11.0498
▁spredt	-11.0498
▁søndr	-11.0503
bevisst	-11.0505
▁smelte	-11.0508
▁arrest	-11.0513
svømme	-11.0528
litteratur	-11.0528
utenriksminister	-11.0549
klokke	-11.0577
bukten	-11.0621
▁inneholde	-11.0692
▁anerkjenne	-11.0796
▁frilufts	-11.0796
▁generalmajor	-11.0796
▁stridsvogn	-11.0796
▁patriark	-11.0796
▁trøndelag	-11.0796
▁lillehammer	-11.0796
▁frazioni	-11.0796
▁århundre	-11.0796
▁kombinasjon	-11.0796
▁oxford	-11.0796
▁publisere	-11.0796
▁anmelder	-11.0796
▁history	-11.0796
▁simpson	-11.0796
▁nynorsk	-11.0796
▁1932	-11.0796
traktaten	-11.0796
▁1891	-11.0797
brück	-11.0797
▁1898	-11.0797
▁heavy	-11.0797
▁1883	-11.0797
▁kommersiell	-11.0797
▁delstats	-11.0797
rgesmesterskapet	-11.0798
▁slovensk	-11.0798
▁søvn	-11.0798
▁christensen	-11.0798
▁buffa	-11.0799
▁barokk	-11.08
▁claus	-11.0801
▁bibli	-11.0802
▁generell	-11.0803
▁natali	-11.0807
siktig	-11.0812
▁trebukke	-11.082
kampanje	-11.0821
musiker	-11.0844
tradisjon	-11.0845
ć	-11.092
þ	-11.4659
