<unk>	0
<s>	0
</s>	0
.	-3.23
s	-3.5024
e	-3.51391
▁i	-3.75082
▁	-3.96441
▁og	-3.97339
er	-4.09226
en	-4.14647
t	-4.18063
▁av	-4.48548
▁er	-4.59026
r	-4.63892
▁en	-4.72035
▁som	-4.79484
▁for	-4.82647
▁til	-4.88422
et	-4.89053
n	-4.91907
▁på	-4.98456
▁med	-5.09615
▁den	-5.21561
▁ble	-5.29648
▁var	-5.3244
a	-5.35056
▁de	-5.35831
▁det	-5.43258
▁fra	-5.49518
ene	-5.61875
▁har	-5.64662
▁et	-5.66822
i	-5.69746
▁å	-5.70641
▁han	-5.72177
ne	-5.75077
d	-5.78955
o	-5.84407
k	-5.91875
y	-5.96761
▁ved	-6.01402
▁at	-6.12003
g	-6.12566
▁også	-6.18674
▁om	-6.21659
m	-6.22502
▁etter	-6.25783
te	-6.26296
▁ut	-6.29528
f	-6.30433
▁s	-6.32837
▁under	-6.36043
l	-6.36366
de	-6.37799
re	-6.40247
p	-6.40585
▁eller	-6.42765
ing	-6.45328
h	-6.46989
▁over	-6.47909
▁opp	-6.53725
▁kan	-6.54373
▁to	-6.55647
▁men	-6.56353
v	-6.60838
al	-6.61493
c	-6.62688
▁da	-6.64036
b	-6.64563
an	-6.66988
in	-6.67013
u	-6.67843
▁be	-6.67913
▁hadde	-6.70458
▁inn	-6.70836
▁seg	-6.71032
▁a	-6.71792
us	-6.73928
sk	-6.78684
▁ikke	-6.81296
▁mot	-6.817
on	-6.81776
▁andre	-6.82772
▁sin	-6.84968
▁f	-6.85027
z	-6.85386
▁18	-6.86683
le	-6.86769
is	-6.90251
ter	-6.91053
na	-6.92345
ri	-6.924
▁the	-6.94471
ende	-6.95054
▁mellom	-6.95979
▁født	-6.96461
▁m	-6.97174
j	-6.97581
la	-6.97885
▁ha	-7.0097
▁tre	-7.01103
▁1	-7.01381
▁dette	-7.02314
st	-7.04767
ia	-7.07564
▁hans	-7.08075
▁hun	-7.08806
▁første	-7.09002
▁ligger	-7.11306
ta	-7.11481
um	-7.12429
lig	-7.12713
ens	-7.12861
▁la	-7.14187
▁u	-7.14507
sen	-7.15124
ar	-7.15902
land	-7.16333
w	-7.16809
ke	-7.17171
▁blant	-7.17423
▁d	-7.17638
ur	-7.17717
li	-7.17974
▁ca	-7.19362
or	-7.21552
ch	-7.22427
▁re	-7.22637
▁se	-7.23283
▁nord	-7.23318
▁sammen	-7.23979
▁c	-7.24147
▁p	-7.24661
x	-7.24722
▁man	-7.25356
vis	-7.2579
▁flere	-7.27033
▁denne	-7.27238
▁an	-7.28222
▁fikk	-7.28857
ø	-7.29216
ck	-7.29326
▁g	-7.30275
▁b	-7.3029
da	-7.30358
▁al	-7.30416
▁der	-7.30643
▁gjennom	-7.31653
het	-7.31969
be	-7.32376
nes	-7.32944
ra	-7.33737
iske	-7.3389
▁k	-7.33918
øy	-7.34379
il	-7.34491
el	-7.3474
nde	-7.35782
ma	-7.35972
▁alle	-7.36752
ske	-7.37165
ng	-7.37496
der	-7.37651
▁17	-7.37977
▁stor	-7.38538
▁år	-7.38933
▁her	-7.39711
ver	-7.39905
▁2	-7.39957
id	-7.40035
isk	-7.40264
os	-7.4039
é	-7.40671
▁ro	-7.41224
▁del	-7.43269
▁pi	-7.43487
ro	-7.446
▁5	-7.44641
▁blir	-7.44902
lo	-7.4711
ger	-7.47257
ig	-7.47258
▁n	-7.47335
▁of	-7.47916
▁3	-7.48471
▁li	-7.489
ler	-7.49222
ge	-7.49287
ning	-7.51179
▁før	-7.5178
▁død	-7.5185
▁kom	-7.52438
ut	-7.52486
for	-7.53919
tt	-7.54204
▁h	-7.54928
▁tidligere	-7.54999
ul	-7.55089
▁by	-7.55899
bo	-7.56367
▁hvor	-7.56559
▁le	-7.56674
ka	-7.57126
▁bo	-7.57275
▁kommune	-7.5756
▁norsk	-7.57684
▁mange	-7.58132
▁l	-7.58753
th	-7.59234
▁ny	-7.59611
ry	-7.59823
▁4	-7.59976
▁hoved	-7.60128
ner	-7.60252
at	-7.60306
▁så	-7.60722
it	-7.60859
▁v	-7.60994
ør	-7.61347
▁di	-7.61478
as	-7.61566
▁co	-7.62142
mo	-7.6222
den	-7.62581
▁st	-7.6291
▁disse	-7.63084
▁mer	-7.63191
ve	-7.63242
▁t	-7.63253
mi	-7.63262
to	-7.63657
▁annet	-7.63957
ga	-7.64267
▁vi	-7.64368
▁mens	-7.65012
▁byen	-7.65296
▁sa	-7.6548
▁15	-7.65514
▁in	-7.66051
▁16	-7.66074
ba	-7.67215
ic	-7.67351
▁sør	-7.67589
ja	-7.67819
▁ti	-7.68524
kt	-7.68978
pp	-7.69432
▁he	-7.69535
si	-7.69757
▁sitt	-7.70018
else	-7.70298
son	-7.70549
lige	-7.71017
▁noen	-7.71029
▁senere	-7.71149
▁si	-7.71173
▁kon	-7.71575
stad	-7.7175
▁ofte	-7.72934
di	-7.73235
mann	-7.73259
ha	-7.73429
man	-7.73503
▁ned	-7.73561
erte	-7.73863
ton	-7.74744
▁navnet	-7.75327
▁10	-7.76274
ker	-7.76292
▁land	-7.76442
▁siden	-7.76449
2	-7.76678
▁ra	-7.76786
ff	-7.76794
1	-7.7683
▁j	-7.76941
▁ta	-7.77048
ad	-7.77601
▁store	-7.77721
ling	-7.77947
▁være	-7.78422
▁vil	-7.79562
ist	-7.80137
▁w	-7.80272
▁kjent	-7.80575
▁selv	-7.80814
▁sk	-7.80972
▁vest	-7.8135
▁fly	-7.81806
▁folke	-7.82118
▁ka	-7.8295
▁ma	-7.83103
ell	-7.84176
by	-7.84516
▁rundt	-7.84703
▁per	-7.84709
asjon	-7.84769
ær	-7.85159
▁ga	-7.85668
▁frem	-7.85918
gen	-7.86054
▁går	-7.86513
▁7	-7.87233
▁nå	-7.87244
me	-7.87458
▁sp	-7.87589
▁o	-7.876
▁sine	-7.8777
ce	-7.8784
▁ho	-7.87921
ster	-7.88335
▁na	-7.88352
mp	-7.88849
bi	-7.88922
▁pa	-7.89031
▁øst	-7.89268
▁ni	-7.89355
▁du	-7.89839
▁12	-7.89979
▁as	-7.90372
bu	-7.90381
▁lo	-7.90393
▁både	-7.9069
kk	-7.90908
dal	-7.91199
▁ol	-7.91258
ko	-7.91267
mer	-7.91354
skap	-7.91663
▁6	-7.91757
▁mest	-7.91759
ol	-7.91802
pe	-7.91936
ven	-7.92247
sa	-7.92552
▁fa	-7.9271
▁fri	-7.92738
▁norge	-7.92781
ste	-7.92825
▁slik	-7.92928
var	-7.92986
▁bu	-7.93046
▁mar	-7.93083
▁hos	-7.93275
tal	-7.93626
▁and	-7.93782
▁dag	-7.93792
▁enn	-7.93953
▁blitt	-7.93988
ment	-7.9417
▁vært	-7.94352
▁navn	-7.94657
▁skal	-7.94681
▁ar	-7.9474
av	-7.9479
▁kalt	-7.94862
▁tallet	-7.95348
▁me	-7.95512
▁14	-7.95515
▁ba	-7.95542
▁ru	-7.95902
op	-7.96566
berg	-7.96737
▁samt	-7.97419
▁samme	-7.9749
å	-7.97796
del	-7.97864
do	-7.98221
ikk	-7.98282
á	-7.98421
▁no	-7.98427
ca	-7.9873
am	-7.99103
gi	-7.99129
ä	-7.99258
co	-7.99466
kke	-7.9977
▁mi	-7.9998
▁norske	-8.00202
▁amerikansk	-8.00287
sh	-8.00476
▁finnes	-8.00591
▁8	-8.00602
▁r	-8.00896
opp	-8.0103
va	-8.01328
ant	-8.01342
▁or	-8.0152
▁11	-8.02002
im	-8.02155
▁ei	-8.02216
iv	-8.02631
▁fire	-8.02659
erne	-8.02859
ll	-8.02895
æ	-8.0295
▁lag	-8.0298
▁vant	-8.03255
ard	-8.03403
▁mars	-8.03756
▁grunn	-8.03913
▁mo	-8.04022
ed	-8.04044
ly	-8.04395
ok	-8.04432
▁far	-8.04682
▁tid	-8.05263
▁gikk	-8.05298
▁kinesisk	-8.05314
vi	-8.05335
▁9	-8.05466
▁do	-8.05608
▁bak	-8.05653
▁su	-8.05767
je	-8.06234
vik	-8.06543
▁største	-8.0674
▁kunne	-8.06976
▁km	-8.07941
▁ko	-8.08028
tter	-8.08276
▁bestå	-8.08324
▁ham	-8.08442
▁gi	-8.08545
rett	-8.08716
▁bare	-8.0893
ring	-8.0937
▁sch	-8.09624
men	-8.10034
▁kirke	-8.10399
au	-8.10461
▁oslo	-8.10556
▁kr	-8.10817
ty	-8.10987
▁13	-8.11009
over	-8.11204
▁mål	-8.11312
lin	-8.11432
▁mai	-8.11551
ion	-8.11572
▁noe	-8.11833
▁fi	-8.11891
▁mor	-8.11909
▁skulle	-8.12383
les	-8.12576
pa	-8.12979
4	-8.13142
yl	-8.14045
elle	-8.14059
go	-8.14084
un	-8.1466
ov	-8.14663
▁film	-8.14669
nd	-8.14675
▁jo	-8.14796
ik	-8.15189
tor	-8.15284
od	-8.1541
▁august	-8.15433
▁20	-8.15454
▁so	-8.15782
▁tok	-8.15868
▁nye	-8.16228
år	-8.16311
▁gu	-8.16353
▁juli	-8.16356
▁te	-8.16419
om	-8.1648
▁vann	-8.16576
▁lang	-8.16767
▁bar	-8.16961
▁tor	-8.16962
sel	-8.17188
▁pro	-8.17214
▁fram	-8.18192
ti	-8.18566
▁hu	-8.18596
ot	-8.18874
▁alt	-8.18966
▁va	-8.19404
▁området	-8.19842
▁am	-8.19874
▁skole	-8.19921
▁0	-8.20165
▁januar	-8.20191
lag	-8.20475
▁bli	-8.2089
po	-8.21015
sta	-8.21034
▁hele	-8.21071
▁videre	-8.21434
▁når	-8.2266
▁bi	-8.22896
5	-8.22905
▁lu	-8.23172
ering	-8.23181
ang	-8.23304
gg	-8.23338
▁y	-8.23758
ir	-8.23796
▁tilbake	-8.23915
ina	-8.23922
▁juni	-8.24678
▁el	-8.24732
gang	-8.24924
▁meter	-8.25237
sjon	-8.25402
▁ab	-8.25468
ho	-8.25641
ier	-8.25682
▁kultur	-8.25751
▁ak	-8.25885
▁tra	-8.26233
▁ad	-8.26533
▁sol	-8.26551
min	-8.2675
▁leder	-8.2707
▁dem	-8.27222
6	-8.27415
ord	-8.2747
hu	-8.27819
gre	-8.28088
▁tillegg	-8.28118
▁kunst	-8.28242
mb	-8.28541
▁musikk	-8.28576
sp	-8.28594
no	-8.28598
▁vanlig	-8.28643
ede	-8.28775
ni	-8.28934
ü	-8.29103
▁000	-8.29593
▁sønn	-8.2983
pi	-8.30054
ie	-8.30282
▁po	-8.30284
▁ge	-8.30466
▁san	-8.30834
tid	-8.31136
▁sam	-8.31482
▁eks	-8.31546
▁bra	-8.31563
▁usa	-8.31684
dy	-8.31877
▁fl	-8.32162
▁lys	-8.32198
▁min	-8.3234
▁ja	-8.32527
ingen	-8.32533
let	-8.32543
ö	-8.32662
▁2008	-8.3273
▁pe	-8.32943
siden	-8.32983
ber	-8.33234
▁russisk	-8.33415
▁små	-8.3351
▁siste	-8.33545
ns	-8.33641
▁innen	-8.33919
▁hel	-8.34042
ow	-8.34085
3	-8.34109
▁ju	-8.34287
▁car	-8.3447
▁gjen	-8.3454
▁deres	-8.34611
▁ri	-8.34743
▁rekke	-8.34851
tre	-8.34863
hus	-8.34976
▁nær	-8.35023
▁kalles	-8.3505
▁ski	-8.35159
▁con	-8.35295
▁gang	-8.35442
▁tri	-8.35557
▁september	-8.35758
▁tro	-8.35852
▁2007	-8.35852
ak	-8.35864
▁kommer	-8.36031
ian	-8.36065
▁par	-8.36296
▁wa	-8.36619
io	-8.3678
▁utgitt	-8.36815
itt	-8.36897
▁oktober	-8.36952
bar	-8.36973
som	-8.37104
dag	-8.37148
▁først	-8.37148
▁april	-8.37193
nt	-8.37458
▁langs	-8.37488
ium	-8.37684
len	-8.37846
▁form	-8.37959
ag	-8.37998
▁provinsen	-8.38128
ken	-8.38161
ft	-8.38249
ting	-8.38442
▁laget	-8.38723
tra	-8.38762
▁høy	-8.38797
mon	-8.3918
ci	-8.39229
per	-8.39332
▁tv	-8.39471
▁pu	-8.395
ans	-8.3954
▁like	-8.39747
▁john	-8.40085
▁brukes	-8.40562
tu	-8.40776
stein	-8.40854
▁desember	-8.40869
ningen	-8.4104
bre	-8.41041
▁x	-8.41045
▁skrevet	-8.41076
▁mindre	-8.4114
til	-8.41157
ius	-8.41335
art	-8.41504
dd	-8.4152
▁kong	-8.41544
fa	-8.41595
▁eksempel	-8.41621
hold	-8.42236
▁30	-8.42288
▁kun	-8.42324
▁februar	-8.42632
verk	-8.42916
▁ulike	-8.42922
▁2010	-8.43155
▁fast	-8.43254
lat	-8.43449
met	-8.43605
▁språk	-8.4387
▁spilte	-8.4387
▁november	-8.43911
▁em	-8.44049
▁fem	-8.44125
sted	-8.44145
▁z	-8.44159
▁opprinnelig	-8.44427
▁uten	-8.44534
and	-8.44602
▁innehold	-8.44697
▁go	-8.44821
▁må	-8.44856
ud	-8.4488
tale	-8.44991
▁hen	-8.45058
▁spiller	-8.45108
mar	-8.45749
▁lå	-8.46039
▁new	-8.46081
▁hus	-8.46112
sj	-8.46348
▁vel	-8.46453
ong	-8.46577
ou	-8.46643
kker	-8.46778
▁dr	-8.46852
▁hennes	-8.47116
▁kjente	-8.47299
▁all	-8.47409
▁få	-8.47421
▁hi	-8.47496
▁bok	-8.47534
▁nor	-8.47764
form	-8.481
▁igjen	-8.48128
ks	-8.48149
9	-8.4831
▁gir	-8.4868
▁mat	-8.48825
stand	-8.4908
vin	-8.49131
satt	-8.49393
▁kor	-8.495
▁egen	-8.49661
▁imidlertid	-8.49741
▁bro	-8.49743
vel	-8.49834
▁bl	-8.4998
ron	-8.50061
▁kina	-8.50597
▁landet	-8.5064
▁25	-8.50935
▁engelsk	-8.51169
▁kl	-8.51384
ph	-8.5141
mm	-8.51563
▁satt	-8.5161
▁parti	-8.52014
▁helt	-8.52031
bb	-8.52287
ran	-8.52618
▁syn	-8.52629
▁gift	-8.52674
▁døde	-8.52716
stilling	-8.5312
▁konge	-8.53192
▁norges	-8.53236
tisk	-8.53373
▁skrev	-8.53405
▁gamle	-8.53664
▁svær	-8.53826
he	-8.53878
▁ki	-8.53914
▁begynte	-8.53919
▁fjell	-8.53954
▁fo	-8.54024
▁øy	-8.54204
▁gruppen	-8.54258
pre	-8.5451
▁større	-8.54577
▁særlig	-8.55065
tes	-8.55123
▁gud	-8.55256
▁lov	-8.55306
kel	-8.55411
▁filmen	-8.55486
tok	-8.55559
▁rett	-8.55846
▁sjø	-8.55852
▁2006	-8.5594
▁liv	-8.5603
ley	-8.56216
▁ur	-8.56216
▁verdens	-8.56327
▁nasjonal	-8.56497
▁brukt	-8.5652
▁plass	-8.56559
løp	-8.56656
▁medlem	-8.56766
inn	-8.56785
ac	-8.56837
▁val	-8.56866
ó	-8.56941
▁president	-8.57
▁sett	-8.57024
tiden	-8.57108
følge	-8.5736
▁2005	-8.57402
sch	-8.57484
gel	-8.57485
▁barn	-8.57559
tte	-8.57567
▁derfor	-8.57604
▁hver	-8.57709
▁mal	-8.57762
ki	-8.57942
▁bru	-8.57957
▁bruk	-8.5838
vo	-8.58512
▁årene	-8.58954
tak	-8.59009
slag	-8.59173
▁god	-8.5926
ham	-8.59285
▁com	-8.59545
gu	-8.59628
▁deretter	-8.59801
za	-8.59803
ill	-8.5999
▁stein	-8.60001
▁sand	-8.60003
isme	-8.60114
▁wi	-8.60118
ninger	-8.60146
▁tysk	-8.60205
▁ty	-8.60206
▁beste	-8.60275
▁kar	-8.60398
▁gresk	-8.60715
tiv	-8.60753
rede	-8.60776
▁2009	-8.60822
▁selskapet	-8.61026
▁dermed	-8.61039
tan	-8.61174
▁bandet	-8.61265
fi	-8.61271
▁samtidig	-8.61298
bruk	-8.61539
lu	-8.61749
▁my	-8.6183
sti	-8.62014
sett	-8.62166
tiske	-8.62182
▁sh	-8.62198
tur	-8.6233
ige	-8.62408
▁au	-8.62415
▁kort	-8.62492
▁lever	-8.62895
▁innenfor	-8.62918
▁gjern	-8.63839
ator	-8.6391
▁startet	-8.63937
borg	-8.64036
▁ver	-8.64107
í	-8.64149
eres	-8.64409
▁ord	-8.64509
burg	-8.64584
▁vei	-8.64591
▁året	-8.64631
sson	-8.64681
▁innbyggere	-8.64726
▁gul	-8.64738
▁halv	-8.65047
▁ingen	-8.65226
dre	-8.65427
ps	-8.65508
▁mus	-8.6565
wa	-8.65927
ung	-8.65988
ica	-8.6604
▁etablert	-8.66322
▁gjorde	-8.66332
ation	-8.66388
ug	-8.6651
q	-8.67154
sten	-8.6721
▁2004	-8.67304
nder	-8.67363
▁berg	-8.67498
▁seks	-8.67703
elsen	-8.67893
øya	-8.67934
ju	-8.68044
kom	-8.68088
mme	-8.68181
▁politisk	-8.68429
ny	-8.68466
▁ag	-8.68545
dig	-8.68558
▁begge	-8.68632
lot	-8.6872
▁ste	-8.68992
и	-8.69263
▁ben	-8.69494
00	-8.69502
▁q	-8.6965
ru	-8.69764
▁midt	-8.69877
itet	-8.70139
▁sommer	-8.70307
kon	-8.70354
▁2011	-8.70608
ald	-8.70659
lands	-8.70662
stre	-8.70668
▁slutt	-8.7106
▁kv	-8.71152
▁dan	-8.71196
em	-8.71296
▁natur	-8.71382
▁ed	-8.71394
ab	-8.71412
ære	-8.71418
▁on	-8.71625
inger	-8.71767
▁tiden	-8.72008
kan	-8.72231
▁19	-8.72289
hi	-8.7229
▁betyr	-8.72297
rå	-8.72301
▁verk	-8.72387
▁motor	-8.72425
7	-8.72927
▁hav	-8.72984
▁bas	-8.73018
kor	-8.73149
punkt	-8.73199
kul	-8.73255
ku	-8.73426
fe	-8.736
▁bor	-8.73678
▁jord	-8.73765
▁tar	-8.73825
så	-8.73945
organisasjon	-8.73956
bok	-8.74093
▁hol	-8.74134
▁plan	-8.74222
▁bruker	-8.74391
▁britisk	-8.74581
ologi	-8.7472
▁forskjellige	-8.74979
enes	-8.75146
▁mye	-8.75393
ino	-8.75422
▁str	-8.75461
ach	-8.75498
▁general	-8.75769
▁stat	-8.75819
▁os	-8.75979
bil	-8.76032
mål	-8.76207
ys	-8.76285
isering	-8.76289
ding	-8.76315
▁rom	-8.76464
iker	-8.76568
gh	-8.76968
▁gull	-8.77041
ek	-8.77154
▁roman	-8.77247
▁ville	-8.77259
▁side	-8.77265
▁ch	-8.77322
und	-8.77399
▁farge	-8.7745
heim	-8.77743
▁pan	-8.77779
nyin	-8.77806
▁basert	-8.77921
stra	-8.78074
dalen	-8.78101
▁svensk	-8.78113
▁støtte	-8.78225
ski	-8.78372
jo	-8.78544
▁mil	-8.78547
far	-8.78573
▁lange	-8.78801
▁dikt	-8.79258
fly	-8.79416
nk	-8.79693
▁2002	-8.79762
▁pre	-8.79918
▁øya	-8.79956
▁tilhører	-8.80101
▁th	-8.80164
▁deltok	-8.80213
tro	-8.80462
▁kommunen	-8.80485
▁fotball	-8.80732
▁col	-8.80747
▁meg	-8.80768
▁mel	-8.80797
▁skog	-8.81108
▁bergen	-8.81129
iet	-8.81166
▁brun	-8.81232
▁ren	-8.81261
sto	-8.81286
▁lokal	-8.81404
▁arbeidet	-8.8141
▁tyske	-8.81416
▁styre	-8.81419
▁ledet	-8.81505
ine	-8.81506
▁grav	-8.81612
▁van	-8.81638
▁radio	-8.81694
dan	-8.81801
su	-8.81817
▁ser	-8.8185
if	-8.82055
▁fin	-8.82155
▁hø	-8.82158
▁nett	-8.82254
spill	-8.82331
▁utenfor	-8.82445
▁tu	-8.82482
tz	-8.82507
tatt	-8.8252
▁familien	-8.82572
▁får	-8.82617
▁fu	-8.82636
▁datter	-8.82657
▁forfatter	-8.82664
▁hvert	-8.82844
landet	-8.8286
▁orden	-8.8287
▁person	-8.8299
▁2003	-8.83126
▁gammel	-8.83129
bel	-8.83146
ya	-8.83255
▁cor	-8.83467
▁fag	-8.835
rik	-8.8352
▁valgt	-8.83542
res	-8.83726
lse	-8.83757
▁står	-8.83788
▁mått	-8.8389
▁industri	-8.83934
est	-8.83981
▁fransk	-8.84043
▁bred	-8.84067
▁rød	-8.84128
▁jan	-8.84235
▁sverige	-8.84265
▁omfatter	-8.84355
uk	-8.84454
▁klubben	-8.84522
▁rø	-8.84653
du	-8.84755
▁bil	-8.84954
▁tur	-8.85057
▁vinter	-8.85174
skole	-8.85253
▁grad	-8.85258
mor	-8.85291
ana	-8.85427
han	-8.85461
▁viser	-8.85478
▁spesielt	-8.85818
nings	-8.85818
▁utviklet	-8.8583
mun	-8.85862
vei	-8.85867
vet	-8.85935
føre	-8.85938
▁ku	-8.85957
ble	-8.86032
lik	-8.86363
▁22	-8.86403
▁vin	-8.86461
▁mu	-8.86475
yn	-8.865
▁forhold	-8.86519
ip	-8.86706
▁ganger	-8.86802
dyr	-8.8704
▁luft	-8.87047
mmer	-8.87147
▁hal	-8.87178
▁fylke	-8.87188
▁von	-8.87309
bud	-8.87363
▁anti	-8.87385
lø	-8.87428
lene	-8.87442
▁2000	-8.87446
kar	-8.87544
▁cha	-8.87641
rak	-8.87937
▁gav	-8.88083
ay	-8.88101
che	-8.88136
ller	-8.88211
dom	-8.88284
а	-8.88567
idae	-8.88716
▁følgende	-8.8872
▁we	-8.88745
▁via	-8.89113
▁bill	-8.89158
sund	-8.89192
forening	-8.89315
▁serien	-8.8932
▁lav	-8.89421
▁antall	-8.8947
▁bygget	-8.89528
▁sted	-8.89618
▁gate	-8.89779
ld	-8.90338
republikken	-8.90374
anlegg	-8.90502
kken	-8.90525
log	-8.90559
▁lands	-8.90611
familien	-8.90622
▁stort	-8.9068
ska	-8.9081
▁slag	-8.90827
▁full	-8.90993
▁litt	-8.91102
kl	-8.91143
tar	-8.91295
▁hjelp	-8.91339
▁paul	-8.91358
kje	-8.91425
▁elven	-8.91455
▁karl	-8.91483
▁kur	-8.91582
▁park	-8.91598
ket	-8.91654
▁sm	-8.91673
gar	-8.91748
▁tredje	-8.91829
▁24	-8.91854
øl	-8.91905
leder	-8.9195
▁op	-8.91953
▁post	-8.91965
▁ø	-8.92075
værende	-8.92216
▁je	-8.92272
merke	-8.92293
▁fleste	-8.92309
▁riks	-8.92428
▁opera	-8.92453
vær	-8.92554
▁menneske	-8.9265
elt	-8.92662
▁annen	-8.92754
▁23	-8.92819
▁deler	-8.92903
▁26	-8.93074
▁art	-8.93093
▁100	-8.93163
▁mont	-8.93214
▁port	-8.93227
▁sta	-8.93354
ide	-8.93514
▁omkring	-8.93547
▁sangen	-8.93566
▁vise	-8.93643
▁blå	-8.93725
▁gitt	-8.93776
▁såkalt	-8.93972
▁sen	-8.94136
gje	-8.94215
ah	-8.9432
fjord	-8.94346
bro	-8.94378
ris	-8.94419
▁tyskland	-8.94632
▁ten	-8.94862
ari	-8.94981
▁kongen	-8.94988
▁mag	-8.95044
ola	-8.95061
lær	-8.95151
▁gjør	-8.95157
▁liten	-8.95159
▁inkludert	-8.95251
selskap	-8.95258
▁mon	-8.95298
▁nytt	-8.95563
▁cl	-8.95638
▁sto	-8.95775
▁band	-8.95888
▁gar	-8.95944
▁én	-8.96049
veien	-8.96206
sser	-8.96297
▁slekt	-8.96308
▁stedet	-8.96337
isert	-8.96397
▁mulig	-8.96408
▁christian	-8.96541
▁spilt	-8.96625
▁gro	-8.9676
▁albumet	-8.96779
▁vo	-8.96877
▁historie	-8.96933
▁lett	-8.96963
▁barne	-8.96998
arbeid	-8.97096
▁peter	-8.97549
film	-8.97659
fra	-8.97673
▁sv	-8.98002
о	-8.98117
▁lyd	-8.98179
▁europa	-8.98287
▁felles	-8.9833
▁best	-8.98465
▁pl	-8.98548
mus	-8.98573
zi	-8.98592
mark	-8.98671
elig	-8.98791
▁energi	-8.98825
▁stil	-8.98891
▁millioner	-8.99081
ub	-8.99089
▁red	-8.99152
▁jeg	-8.99158
▁sal	-8.99164
van	-8.99174
▁stats	-8.99282
lan	-8.99476
ight	-8.99674
▁foran	-8.99712
▁skolen	-8.99816
▁opprettet	-8.99882
▁gri	-8.99948
▁fred	-8.99993
▁ke	-8.99994
ssen	-8.99994
▁liste	-9.00008
▁1999	-9.00105
xi	-9.0023
fjorden	-9.00343
mu	-9.00367
vann	-9.00413
▁tidlig	-9.00529
▁27	-9.00689
▁moh	-9.00795
råd	-9.01001
▁bri	-9.01029
▁prest	-9.01191
▁grunnlagt	-9.01314
ani	-9.01346
▁italiensk	-9.01462
▁kra	-9.01479
▁åtte	-9.01579
minister	-9.0164
▁perioden	-9.01682
▁pr	-9.01715
▁sang	-9.01842
▁tak	-9.01848
▁familie	-9.02053
▁mari	-9.02098
▁franske	-9.02158
syn	-9.02196
▁fylkesvei	-9.02402
plass	-9.02495
bert	-9.02546
▁arbeids	-9.0255
bl	-9.02619
lev	-9.02666
▁mm	-9.02728
laget	-9.02777
val	-9.02804
ros	-9.0295
▁minne	-9.03022
▁produsert	-9.03045
▁versjon	-9.03112
▁2001	-9.03332
forbund	-9.03408
▁egne	-9.0341
ale	-9.0352
ika	-9.03521
▁skuespiller	-9.03524
▁hy	-9.0356
ind	-9.03594
▁viktig	-9.03688
▁betydning	-9.03776
▁eneste	-9.03851
▁21	-9.03894
▁ul	-9.03957
▁ordet	-9.04104
▁sentral	-9.04138
▁arbeider	-9.04236
▁kla	-9.04255
▁28	-9.04269
▁vis	-9.04326
▁pri	-9.04389
▁kn	-9.04428
leg	-9.0444
her	-9.04506
▁fordi	-9.0451
▁50	-9.04553
istisk	-9.04571
▁gran	-9.04672
rom	-9.04766
system	-9.0489
▁ber	-9.04919
gruppen	-9.05041
▁india	-9.05135
gle	-9.05273
▁gra	-9.05277
▁sel	-9.05406
mat	-9.05464
▁russland	-9.05668
old	-9.05679
▁sosial	-9.05834
▁dagens	-9.06043
▁bre	-9.06131
▁sø	-9.06219
vern	-9.06317
ister	-9.06568
▁tom	-9.06596
▁para	-9.06605
sjoner	-9.06845
ice	-9.06894
▁lite	-9.06944
chi	-9.07078
▁mark	-9.07085
kamp	-9.0713
inne	-9.07235
navnet	-9.07249
asjonen	-9.07301
▁johan	-9.0735
lser	-9.07358
▁arter	-9.07412
▁les	-9.07419
▁elva	-9.07453
▁enkelte	-9.07558
bane	-9.07662
▁don	-9.07755
▁militær	-9.07788
my	-9.07971
ologisk	-9.08008
▁gruppe	-9.08082
▁robert	-9.08165
port	-9.08321
▁mann	-9.08334
bygd	-9.08405
fall	-9.0841
menn	-9.08451
▁moderne	-9.0851
▁hatt	-9.08664
med	-9.08672
▁aktiv	-9.08911
▁fr	-9.08992
▁serie	-9.09063
▁1990	-9.09076
mal	-9.0919
båt	-9.09222
skog	-9.09236
▁godt	-9.09301
▁pris	-9.09339
▁medlemmer	-9.09366
30	-9.0944
▁kvinne	-9.09461
▁ring	-9.09505
▁eu	-9.09554
е	-9.09556
▁frankrike	-9.09568
▁råd	-9.09574
▁internasjonale	-9.09616
▁ac	-9.09694
▁spor	-9.09718
kant	-9.09756
▁eid	-9.0982
▁rolle	-9.09837
ringen	-9.09852
▁london	-9.10059
▁krigs	-9.10062
asje	-9.10139
▁ve	-9.10163
▁system	-9.10235
▁bur	-9.10327
eri	-9.10327
▁keiser	-9.10383
▁can	-9.10465
ive	-9.10552
▁1980	-9.1057
▁veien	-9.10585
▁grå	-9.10673
▁spe	-9.1069
▁nesten	-9.10809
▁herre	-9.10882
▁sig	-9.111
ds	-9.11107
ini	-9.11156
rus	-9.11248
▁tekst	-9.11256
▁bygge	-9.11287
50	-9.11427
banen	-9.11484
ze	-9.11533
ater	-9.1162
р	-9.11643
▁enkelt	-9.11652
tegn	-9.11731
▁af	-9.11734
▁nu	-9.11875
gård	-9.1193
stykke	-9.11937
område	-9.11947
stil	-9.11979
▁gjort	-9.12031
▁william	-9.12074
kal	-9.1211
anske	-9.1226
▁lik	-9.12264
▁makt	-9.12267
ara	-9.12365
king	-9.1245
▁carl	-9.12485
▁nok	-9.12542
istiske	-9.1262
▁sak	-9.12699
bin	-9.12708
▁erik	-9.12768
styre	-9.12774
nsk	-9.12801
▁arkitekt	-9.12856
▁ska	-9.12968
▁29	-9.13002
▁tru	-9.13057
kast	-9.13068
ð	-9.13097
rø	-9.13164
▁valg	-9.13193
fri	-9.13221
▁fant	-9.13336
▁anders	-9.13442
▁bror	-9.13503
oli	-9.13519
▁bal	-9.13544
▁olympisk	-9.13613
▁viktigste	-9.13665
▁bjørn	-9.13798
▁tatt	-9.13955
▁benytte	-9.13979
▁handels	-9.14037
▁tjeneste	-9.14039
skip	-9.14166
▁tildelt	-9.14176
este	-9.14184
▁martin	-9.1419
▁kraft	-9.14288
▁you	-9.14382
▁lei	-9.14383
lå	-9.14407
▁olje	-9.14496
▁ji	-9.14553
▁universitet	-9.14681
▁england	-9.14684
▁politi	-9.14904
▁res	-9.14968
▁samarbeid	-9.15018
sjef	-9.15063
▁tittelen	-9.15142
▁hovedsakelig	-9.15181
▁1994	-9.15183
▁helse	-9.1526
gitt	-9.15381
▁xi	-9.15423
▁direkte	-9.15702
▁1998	-9.15712
▁danmark	-9.15723
lia	-9.15743
▁album	-9.15838
▁kal	-9.15856
anger	-9.16179
▁rev	-9.1621
▁omtrent	-9.16232
▁partiet	-9.16268
hr	-9.16295
▁folk	-9.16429
ving	-9.16496
▁svenske	-9.16612
▁fall	-9.16712
▁teater	-9.16737
▁thomas	-9.16781
▁delstaten	-9.1679
olog	-9.16864
▁organ	-9.16917
gående	-9.16948
pu	-9.16962
stående	-9.17062
▁sanger	-9.17084
rud	-9.17114
spiller	-9.17139
▁fe	-9.17192
sjøen	-9.17244
▁kirken	-9.17257
tion	-9.17275
liggende	-9.17358
ford	-9.17676
▁hjemme	-9.17717
▁standard	-9.17836
▁start	-9.17938
▁indre	-9.1797
dt	-9.17996
▁chi	-9.17996
full	-9.18015
▁fiske	-9.18086
ich	-9.18099
▁smal	-9.18158
ap	-9.18474
tall	-9.18486
ath	-9.18633
▁arm	-9.18679
▁blad	-9.18746
▁rock	-9.18776
▁ex	-9.18874
▁dansk	-9.18892
stat	-9.18966
systemet	-9.1902
pl	-9.19166
▁overtok	-9.19221
▁fortsatt	-9.19234
skje	-9.19282
liv	-9.19313
ct	-9.19332
vil	-9.19427
▁representert	-9.19465
▁west	-9.19487
▁besto	-9.19552
▁olav	-9.19652
▁trans	-9.19654
▁ob	-9.1969
▁hjem	-9.19741
▁stemme	-9.1977
ance	-9.19781
grad	-9.19799
▁syd	-9.19865
20	-9.19874
▁arbeid	-9.19965
▁høyeste	-9.20011
dra	-9.20057
▁verden	-9.20099
▁egg	-9.20111
pris	-9.20122
▁hvit	-9.20207
▁dia	-9.20227
▁utgjør	-9.20289
pen	-9.2029
▁veg	-9.20317
stilt	-9.20321
▁kat	-9.20347
40	-9.2041
mel	-9.20434
▁staten	-9.20442
all	-9.20515
▁bank	-9.20616
▁knytte	-9.20671
fer	-9.20823
án	-9.21002
up	-9.21087
▁david	-9.21126
▁oppkalt	-9.21126
▁funksjon	-9.21172
▁kje	-9.21182
senter	-9.21217
zo	-9.21219
cc	-9.21243
▁uni	-9.21271
pro	-9.21309
mester	-9.21315
legg	-9.21451
området	-9.21561
▁båt	-9.21586
▁mis	-9.21634
▁1996	-9.21692
▁ført	-9.21709
har	-9.2188
pol	-9.21954
rich	-9.21957
▁sesongen	-9.21971
jel	-9.21977
▁kri	-9.22022
▁hvis	-9.22088
10	-9.22122
byen	-9.22204
▁maria	-9.22227
tunnel	-9.22257
▁langt	-9.22271
▁stjerne	-9.22273
▁fjern	-9.22313
▁gal	-9.22492
▁uk	-9.22528
ji	-9.22528
ges	-9.22533
▁kraftig	-9.22536
▁gen	-9.22537
nor	-9.22613
▁pal	-9.22726
▁angrep	-9.22751
lav	-9.22825
▁produksjon	-9.2283
▁mod	-9.22856
▁høyre	-9.22864
è	-9.22888
▁data	-9.23037
ssa	-9.23069
▁jon	-9.23164
▁års	-9.23171
grunn	-9.23171
tert	-9.23216
▁air	-9.23221
holm	-9.23303
▁spi	-9.23336
▁latin	-9.23369
▁kroppen	-9.23423
▁stasjon	-9.23551
▁linje	-9.23577
fisk	-9.23589
▁bygd	-9.23673
▁brø	-9.23868
plan	-9.23937
▁2012	-9.23961
▁italia	-9.23971
▁kinas	-9.23972
▁historisk	-9.23992
▁ci	-9.24046
▁våpen	-9.24098
▁hånd	-9.24151
▁georg	-9.24224
▁za	-9.24232
▁vol	-9.24245
▁hard	-9.24378
par	-9.24392
kre	-9.24448
▁dessuten	-9.24522
▁reise	-9.24704
▁cm	-9.24795
▁merke	-9.24891
ati	-9.24922
▁mac	-9.24951
▁ør	-9.24989
▁ferdig	-9.25143
mannen	-9.25188
▁blod	-9.25213
heng	-9.25271
▁kunstner	-9.25295
▁høyde	-9.25396
▁heter	-9.25423
graf	-9.25431
ille	-9.25534
▁lege	-9.25571
likevel	-9.25613
sak	-9.25674
▁sommerfugl	-9.2569
tel	-9.25812
▁verdi	-9.25973
▁samle	-9.26137
▁eier	-9.2623
▁lille	-9.26264
▁1995	-9.26277
way	-9.26334
▁mennesker	-9.26352
handler	-9.26516
▁lin	-9.26517
▁biskop	-9.2658
▁komme	-9.26658
▁finner	-9.26696
ativ	-9.26816
ú	-9.26855
▁1988	-9.26864
▁regionen	-9.26868
lek	-9.26966
føring	-9.26992
▁trekk	-9.27023
▁bern	-9.27032
▁strøm	-9.27074
kla	-9.271
▁kul	-9.27157
▁sj	-9.27211
▁lærer	-9.27234
▁sentrum	-9.27252
▁ry	-9.2727
▁komp	-9.27288
▁kj	-9.27377
▁venstre	-9.27462
▁kron	-9.27471
▁ett	-9.27492
▁politiker	-9.27503
▁ras	-9.27511
▁turn	-9.27596
▁forbindelse	-9.27731
▁tal	-9.27927
▁mur	-9.27957
▁kjøpt	-9.27982
og	-9.28038
▁betydelig	-9.28042
året	-9.28075
▁brukte	-9.28076
▁40	-9.28092
ild	-9.28095
▁len	-9.28111
▁pave	-9.28142
▁kre	-9.28163
kle	-9.28214
▁31	-9.28299
▁sterkt	-9.28344
▁personer	-9.28352
kropp	-9.28397
▁bø	-9.28448
fest	-9.28482
ria	-9.28686
rop	-9.28698
▁minst	-9.28721
▁regnes	-9.28749
rat	-9.28759
søk	-9.28796
aksjon	-9.28848
ā	-9.28851
ismen	-9.2886
bor	-9.28878
kin	-9.28935
departementet	-9.2897
▁produkt	-9.29031
▁klo	-9.29067
▁thor	-9.29225
▁sha	-9.2923
▁eldre	-9.29346
▁åpnet	-9.29546
▁sun	-9.29571
hall	-9.29632
н	-9.29714
▁svart	-9.29794
ial	-9.29798
▁1992	-9.29849
▁shi	-9.29865
rike	-9.29914
▁trykk	-9.29953
▁modell	-9.29953
våg	-9.29978
forsker	-9.30061
▁henne	-9.30091
▁christ	-9.30118
▁ev	-9.30158
tin	-9.30164
▁lar	-9.30166
lsen	-9.30382
▁york	-9.30461
▁danske	-9.30504
▁vekt	-9.30542
▁aldri	-9.30552
musikk	-9.30769
▁sc	-9.30841
lei	-9.30878
▁nummer	-9.30897
rit	-9.30978
▁samling	-9.31043
▁2014	-9.31089
▁dannet	-9.31094
▁hall	-9.3113
▁not	-9.31246
▁wal	-9.3128
▁regn	-9.3132
▁sogn	-9.31352
ano	-9.31401
don	-9.31424
▁slekten	-9.31454
▁miljø	-9.31483
kning	-9.31489
bia	-9.31535
▁ly	-9.3155
▁hår	-9.3156
▁ap	-9.31641
▁drift	-9.31687
▁1989	-9.31703
▁egentlig	-9.31711
▁sivil	-9.3175
▁nev	-9.31843
områder	-9.31866
▁berlin	-9.31874
▁tett	-9.31941
▁kjøp	-9.31951
klubb	-9.32029
▁litteratur	-9.3209
86	-9.32092
▁kyst	-9.32141
dri	-9.32234
▁topp	-9.32421
▁bry	-9.32511
▁uttrykk	-9.32534
vit	-9.32735
60	-9.32775
ör	-9.32809
produksjon	-9.32928
▁spesial	-9.32937
qui	-9.33086
lighet	-9.331
▁stu	-9.33125
▁møte	-9.33165
jev	-9.33204
▁gy	-9.33278
▁george	-9.33289
▁pol	-9.33382
retning	-9.33407
▁plat	-9.33428
▁skade	-9.33484
▁benyttet	-9.33538
▁1984	-9.33574
▁delt	-9.33606
▁spansk	-9.3366
mot	-9.33717
gna	-9.33776
▁enhet	-9.33785
▁gård	-9.33835
ød	-9.33849
▁resultat	-9.33912
▁lær	-9.33924
navn	-9.33958
itz	-9.33981
▁eget	-9.33981
lem	-9.34003
ferd	-9.34037
▁bedre	-9.34051
løse	-9.34109
▁war	-9.34141
ida	-9.34182
▁flyttet	-9.34202
magasin	-9.34206
▁mc	-9.34256
nik	-9.34294
erende	-9.34329
gangen	-9.34411
▁krigen	-9.34448
▁inntil	-9.34542
▁finsk	-9.34569
▁høsten	-9.34754
we	-9.34756
▁mad	-9.34772
parti	-9.34799
bø	-9.34806
▁gl	-9.34827
▁1982	-9.34846
tus	-9.34927
▁viktige	-9.34939
▁tids	-9.34943
▁fil	-9.35011
ai	-9.35031
▁seil	-9.35059
fin	-9.35071
▁ph	-9.35163
huset	-9.35173
mper	-9.35215
fon	-9.35233
▁180	-9.35273
▁inter	-9.35285
▁1997	-9.35484
▁1970	-9.35489
▁flat	-9.35491
ire	-9.35531
▁br	-9.35558
▁reg	-9.3561
mes	-9.35616
▁kors	-9.35704
▁munn	-9.35737
▁tank	-9.3583
▁ball	-9.35901
▁kamp	-9.35911
▁skrift	-9.35918
drag	-9.35949
▁forsøk	-9.35958
pel	-9.35968
dals	-9.36065
ban	-9.36073
▁bort	-9.36104
ført	-9.36119
л	-9.36121
▁katolsk	-9.36122
▁gansk	-9.36151
▁gren	-9.36159
▁holdt	-9.36225
▁dyr	-9.36301
▁områder	-9.36306
lys	-9.36334
▁lokale	-9.36389
36	-9.3639
▁fla	-9.36396
deling	-9.36462
▁transport	-9.36528
▁super	-9.36641
ita	-9.36656
skapet	-9.36685
akt	-9.36704
dde	-9.36722
fag	-9.3676
ås	-9.36766
▁trondheim	-9.36776
▁2013	-9.36784
▁tegn	-9.36798
▁ang	-9.36883
▁hor	-9.36885
det	-9.36929
of	-9.36943
▁kol	-9.3704
▁studie	-9.37041
nett	-9.37055
▁punkt	-9.37083
▁henrik	-9.37089
havet	-9.37095
▁universitetet	-9.37119
▁varme	-9.37136
▁utgav	-9.37345
▁jernbane	-9.37392
▁venn	-9.3745
▁type	-9.37499
lis	-9.37737
fang	-9.3793
ktig	-9.3793
gra	-9.37944
folk	-9.38066
selskapet	-9.38083
▁dårlig	-9.38083
haug	-9.38305
cia	-9.38311
▁sten	-9.38314
▁skille	-9.38343
organ	-9.38377
▁delen	-9.3844
ette	-9.38537
▁gjøre	-9.38626
bru	-9.38702
sal	-9.38724
språk	-9.38748
▁slått	-9.38818
▁selskap	-9.38903
▁fått	-9.38933
gan	-9.38941
abel	-9.38983
ua	-9.39062
▁dis	-9.39115
formet	-9.3924
▁årlig	-9.39318
▁1979	-9.39424
▁1986	-9.39428
▁nest	-9.39512
▁son	-9.39538
oc	-9.39556
nivå	-9.39579
stan	-9.39607
▁mos	-9.3965
▁skje	-9.39875
ringer	-9.39888
▁rot	-9.3995
▁nordlig	-9.39956
virkning	-9.40103
▁80	-9.40166
iner	-9.40166
▁natt	-9.40247
sol	-9.40321
▁plante	-9.40322
▁klar	-9.40344
▁fortsatte	-9.40397
▁kampen	-9.40522
▁grense	-9.40564
▁bygning	-9.40674
vare	-9.4069
▁kilometer	-9.40757
▁1985	-9.40774
▁riksvei	-9.40843
kraft	-9.40848
▁ep	-9.4091
▁fylkes	-9.41173
85	-9.41185
felt	-9.41427
ã	-9.41438
▁1960	-9.41456
lv	-9.41506
▁distrikt	-9.41545
▁ram	-9.41571
iz	-9.41715
▁dal	-9.41721
ence	-9.41811
▁bir	-9.41843
▁camp	-9.41856
side	-9.4194
elva	-9.41985
▁ban	-9.42053
▁vår	-9.4207
samling	-9.42142
gruppe	-9.4217
▁slaget	-9.42303
▁spille	-9.42341
▁måte	-9.42364
dor	-9.4237
brudd	-9.42415
▁nabo	-9.42432
▁pla	-9.42455
ies	-9.42506
▁fot	-9.42573
red	-9.42585
skyld	-9.4265
▁design	-9.4266
cy	-9.42725
▁kryss	-9.42759
▁virke	-9.42802
▁1991	-9.42812
▁tele	-9.4312
▁høyt	-9.43182
des	-9.43255
▁skjer	-9.43288
iserte	-9.43292
rin	-9.43349
▁nederlandsk	-9.43468
▁utnevnt	-9.43507
▁hverandre	-9.43507
▁sund	-9.43649
▁hva	-9.4368
trykk	-9.43853
▁tap	-9.43858
▁konsert	-9.44095
messig	-9.44212
▁steder	-9.44218
▁grand	-9.44247
▁paris	-9.44266
valg	-9.44416
skrift	-9.44417
program	-9.44447
▁elv	-9.44545
▁lau	-9.44556
▁jens	-9.44695
▁neste	-9.4484
▁løpet	-9.44917
▁1978	-9.44924
▁dra	-9.44954
age	-9.45129
stoff	-9.45133
▁figur	-9.45167
▁lind	-9.45174
▁beskrive	-9.45181
▁cap	-9.4523
▁syk	-9.4524
▁pres	-9.45267
▁retts	-9.45286
▁divisjon	-9.45299
ull	-9.453
bra	-9.45326
▁lagt	-9.45418
bilde	-9.45455
▁populær	-9.45467
▁drama	-9.45508
▁60	-9.45513
▁funnet	-9.4561
▁international	-9.45619
vinger	-9.45678
eksjon	-9.45702
67	-9.45736
▁kvinner	-9.45813
tjeneste	-9.45902
sky	-9.45904
▁følger	-9.4591
midler	-9.45938
▁lek	-9.46043
▁boken	-9.46057
▁syv	-9.46088
▁grønn	-9.46188
▁student	-9.46325
▁informasjon	-9.46334
hy	-9.46346
▁verdenskrig	-9.46367
▁fange	-9.46392
▁museum	-9.465
▁holm	-9.46509
▁kontroll	-9.4656
ori	-9.46632
▁bilde	-9.46808
ls	-9.46815
▁pop	-9.46887
rimot	-9.46959
hel	-9.46988
▁skrive	-9.47011
samfunn	-9.47054
zhou	-9.4708
ekte	-9.47242
▁johannes	-9.47276
delen	-9.47301
bjørn	-9.4737
▁kalle	-9.47456
▁brann	-9.4756
▁periode	-9.476
▁effekt	-9.47622
▁che	-9.4763
▁prosess	-9.47642
▁representant	-9.47778
▁nan	-9.47845
▁regi	-9.47942
gren	-9.48027
▁skip	-9.48057
▁totalt	-9.48121
lagt	-9.48151
▁delta	-9.4823
▁stiftet	-9.48327
▁regjeringen	-9.48399
▁ky	-9.48412
▁ledelse	-9.48433
▁win	-9.48495
à	-9.48508
▁storbritannia	-9.48508
▁dronning	-9.48512
▁1981	-9.4852
▁1987	-9.48523
▁island	-9.48604
▁svarte	-9.48638
▁fest	-9.48658
▁virksomhet	-9.48673
▁symbol	-9.48834
rum	-9.48837
ain	-9.48842
▁fro	-9.48896
▁ledd	-9.48995
elige	-9.49122
▁sørøst	-9.49285
led	-9.49402
▁tj	-9.4942
▁union	-9.49427
▁tan	-9.49429
▁kap	-9.49475
orm	-9.49503
ella	-9.49537
▁gass	-9.49679
▁befolkningen	-9.497
ama	-9.4994
fo	-9.50015
dige	-9.50016
▁søster	-9.50056
stasjon	-9.50131
▁nils	-9.50251
eier	-9.5026
▁fjorden	-9.50348
▁gå	-9.50365
▁dager	-9.50375
▁metal	-9.50474
▁holde	-9.5049
▁finland	-9.50508
kh	-9.50679
▁afrika	-9.50707
▁amerika	-9.50711
▁stockholm	-9.5073
▁james	-9.50767
▁nordøst	-9.50798
▁knut	-9.50827
▁wil	-9.50834
▁direktør	-9.50883
jer	-9.50885
▁arten	-9.50913
ata	-9.50939
vatnet	-9.51025
47	-9.51149
▁sy	-9.51277
▁europeisk	-9.51286
▁studerte	-9.51367
▁eldste	-9.51483
▁sørvest	-9.51486
▁1976	-9.51496
▁nærings	-9.51559
▁rik	-9.51578
marked	-9.5166
▁salt	-9.51702
▁flo	-9.51708
▁fører	-9.51723
▁bør	-9.51752
▁sju	-9.51831
historie	-9.51867
▁unge	-9.52036
▁viste	-9.5204
ark	-9.52051
ves	-9.52065
▁bay	-9.52118
mand	-9.52124
▁real	-9.5213
▁bon	-9.52176
▁sir	-9.52188
▁national	-9.5224
▁drept	-9.5224
▁sommeren	-9.5225
▁offentlig	-9.52289
▁bolig	-9.52297
▁bygde	-9.52334
▁slott	-9.52347
▁løs	-9.52363
▁oppført	-9.52411
senteret	-9.52456
que	-9.5263
▁sentrale	-9.52679
▁utdanne	-9.52805
stall	-9.5281
dia	-9.52824
mas	-9.52932
hand	-9.52954
bygg	-9.52956
▁world	-9.53003
89	-9.53082
org	-9.53133
▁dersom	-9.5325
▁pass	-9.53348
80	-9.53384
styrke	-9.53423
▁stammer	-9.53457
komme	-9.53471
▁fv	-9.53516
vir	-9.53551
▁slutten	-9.53607
uc	-9.53622
▁sky	-9.53708
▁komponist	-9.53773
▁metall	-9.53775
▁slo	-9.53776
arbeider	-9.5378
▁1977	-9.53787
▁university	-9.53807
▁følge	-9.53816
▁sur	-9.53847
▁menn	-9.53924
gift	-9.53972
62	-9.53994
evne	-9.54023
▁hit	-9.54025
▁japansk	-9.54057
▁hå	-9.54133
pet	-9.54139
68	-9.54144
fører	-9.54154
▁bad	-9.54211
stedet	-9.54234
▁tall	-9.54256
standen	-9.54301
ij	-9.54383
▁1972	-9.54547
▁offisiell	-9.54547
▁1983	-9.54561
▁sølv	-9.54566
▁2015	-9.54567
the	-9.5464
ffer	-9.5474
gard	-9.54779
▁avdeling	-9.54798
▁anne	-9.54808
fre	-9.54821
tog	-9.5488
▁old	-9.54895
64	-9.54927
▁tradisjon	-9.54996
ben	-9.55036
▁stav	-9.55046
kommune	-9.5505
▁frank	-9.55074
▁erstattet	-9.55099
▁cy	-9.55131
▁poly	-9.55138
lund	-9.55192
hører	-9.55194
verket	-9.55199
▁forsvar	-9.55216
▁suksess	-9.55329
slutning	-9.5533
▁hvilke	-9.5533
▁prosent	-9.55338
48	-9.55395
▁retning	-9.55428
▁brit	-9.55552
▁sub	-9.55558
ish	-9.55665
▁høyere	-9.55669
▁operasjon	-9.55676
jiang	-9.55682
▁off	-9.55713
▁ungdoms	-9.55841
▁hest	-9.55855
▁mester	-9.55856
▁marine	-9.55981
hn	-9.5613
57	-9.56143
tun	-9.56166
▁dyp	-9.56179
oper	-9.5619
▁char	-9.5631
▁nasjonale	-9.56319
▁un	-9.56374
ins	-9.56387
element	-9.56391
tha	-9.56393
▁utstyr	-9.5647
las	-9.56533
gon	-9.56563
arter	-9.56591
ction	-9.56611
▁roma	-9.56619
▁us	-9.56648
▁bygningen	-9.567
▁artist	-9.5674
▁borg	-9.56745
▁passer	-9.56754
wood	-9.56784
87	-9.56802
▁naturlig	-9.56814
98	-9.56917
mund	-9.56955
▁lengre	-9.56955
▁finans	-9.57009
▁lund	-9.57014
mul	-9.57039
▁endret	-9.57059
▁vanlige	-9.57088
▁prisen	-9.57106
leng	-9.57124
▁styrker	-9.57143
▁enten	-9.57163
well	-9.57225
lar	-9.57232
▁eiendom	-9.57298
fart	-9.5731
▁time	-9.57378
▁sjef	-9.57403
▁sau	-9.57424
figur	-9.57424
uf	-9.57485
▁hell	-9.57493
▁los	-9.57515
aktig	-9.57524
spon	-9.5762
▁løv	-9.57648
▁sil	-9.577
▁meste	-9.57743
▁musiker	-9.57753
hjul	-9.57802
▁inkluderer	-9.57824
▁stan	-9.57929
▁stod	-9.57952
▁korte	-9.57964
linjen	-9.58038
▁und	-9.58073
▁jean	-9.58129
▁produsent	-9.58138
▁cro	-9.5817
▁anna	-9.58179
▁mas	-9.58222
▁legge	-9.58355
krets	-9.58367
dis	-9.58447
▁jobb	-9.58457
▁stavanger	-9.58528
▁lengde	-9.58553
▁black	-9.58573
▁faren	-9.58614
▁plate	-9.58626
▁danner	-9.58686
skolen	-9.58776
nis	-9.58788
▁odd	-9.58793
▁rad	-9.58806
▁professor	-9.58821
▁hj	-9.58885
mid	-9.58989
▁sti	-9.59106
▁felt	-9.59156
gata	-9.59175
kka	-9.59182
typen	-9.59202
▁dro	-9.5921
▁michael	-9.59329
▁møtte	-9.5933
▁oppdaget	-9.59333
▁poeng	-9.5935
▁1950	-9.59356
▁israel	-9.59406
▁hud	-9.59435
▁hvordan	-9.59449
▁bol	-9.59458
▁sag	-9.59476
▁stadig	-9.5951
▁jern	-9.59612
able	-9.59618
bladet	-9.59654
▁cent	-9.59699
bakken	-9.59763
▁klasse	-9.59872
08	-9.59956
▁vik	-9.59986
70	-9.60073
▁selve	-9.6011
hund	-9.60117
▁krav	-9.60134
▁fjerde	-9.60149
▁jazz	-9.60149
▁klassisk	-9.6015
▁nordvest	-9.60156
▁1993	-9.6016
▁statsminister	-9.60172
riket	-9.60184
linje	-9.60266
▁ek	-9.603
▁utført	-9.60388
▁magn	-9.60399
▁dom	-9.60434
▁foss	-9.60588
ón	-9.60591
loven	-9.60609
tis	-9.60613
▁behandling	-9.60665
spor	-9.60666
▁gitar	-9.60681
ob	-9.60732
▁ken	-9.60763
middel	-9.60784
▁seier	-9.60796
arm	-9.60798
brun	-9.60803
▁sykdom	-9.60805
▁engelske	-9.60815
▁samlet	-9.60821
▁tha	-9.6089
▁kh	-9.60916
▁temperatur	-9.60969
▁arrangert	-9.60975
▁fulgte	-9.60977
▁1968	-9.60993
▁pen	-9.6102
▁sul	-9.61046
▁lenger	-9.6105
▁variant	-9.61052
lang	-9.61149
▁spill	-9.61178
teori	-9.61194
▁led	-9.61195
▁bomb	-9.61202
▁privat	-9.61225
▁resten	-9.61327
▁ole	-9.61446
▁skapt	-9.61495
▁ordenen	-9.61515
ér	-9.61548
våpen	-9.61601
gikk	-9.617
▁daglig	-9.61712
▁inne	-9.61797
▁tilsvarende	-9.61809
▁1945	-9.61825
dels	-9.61828
▁stasjonen	-9.61831
▁krig	-9.61839
ity	-9.61855
vesen	-9.61874
yang	-9.61885
▁tittel	-9.61889
shire	-9.61897
bet	-9.61906
▁renner	-9.6197
serien	-9.61986
к	-9.62154
spiss	-9.62172
▁løper	-9.62174
▁sendt	-9.62221
vig	-9.62246
54	-9.62291
▁arne	-9.62313
bær	-9.6234
▁ask	-9.62358
58	-9.62428
cus	-9.62447
▁bygg	-9.62473
▁dyre	-9.62609
gå	-9.6262
▁tapt	-9.62662
▁rep	-9.62674
▁instrument	-9.62675
▁snakk	-9.62677
▁harald	-9.62725
nu	-9.62774
▁organisasjonen	-9.62802
oni	-9.62813
▁lars	-9.62915
▁hed	-9.62973
foss	-9.63023
69	-9.63151
atet	-9.63223
sar	-9.63245
▁hvite	-9.63286
virksomhet	-9.63305
rek	-9.63318
ova	-9.6332
lus	-9.63397
▁forsvars	-9.63413
veg	-9.63453
▁kir	-9.63488
α	-9.63496
▁handling	-9.63504
▁1973	-9.6351
▁ordfører	-9.63517
96	-9.63521
79	-9.63529
▁kam	-9.63558
shi	-9.63604
45	-9.63612
▁vold	-9.63648
▁opprør	-9.63653
▁hovedstad	-9.6374
▁voksne	-9.63758
▁wo	-9.63811
▁pra	-9.63824
▁region	-9.63872
▁grupper	-9.63875
▁glo	-9.63907
▁forut	-9.63946
stru	-9.63956
▁miste	-9.63997
ick	-9.64007
▁karakter	-9.64108
kunst	-9.64193
ms	-9.64201
isten	-9.64274
▁religiøs	-9.64351
▁parlament	-9.64351
▁kategori	-9.64351
▁religion	-9.64351
▁vanskelig	-9.64356
▁1975	-9.64367
▁1920	-9.64377
person	-9.64406
field	-9.64406
▁200	-9.64466
▁størrelse	-9.64479
▁grev	-9.64497
▁innført	-9.64515
byr	-9.64549
▁grensen	-9.64591
rad	-9.647
▁bøker	-9.64796
dagen	-9.64886
farge	-9.64971
dorf	-9.64982
▁drive	-9.6506
partiet	-9.65107
77	-9.6511
▁iii	-9.65128
▁folket	-9.65151
▁riv	-9.6517
▁stille	-9.6521
ō	-9.65213
▁øvre	-9.65214
▁melodi	-9.65217
▁1974	-9.65229
▁2016	-9.65235
▁fremme	-9.65272
▁kristen	-9.65279
▁bind	-9.65284
▁stoff	-9.65366
▁front	-9.6538
rør	-9.65382
▁sørlige	-9.6556
76	-9.65589
last	-9.65651
▁kart	-9.65652
▁begrepet	-9.65707
▁kloster	-9.6572
78	-9.65759
▁star	-9.6579
▁krets	-9.65804
kov	-9.65808
fat	-9.65809
▁fabrikk	-9.65831
▁journalist	-9.65935
plasser	-9.65946
▁bruke	-9.66026
▁pot	-9.66057
▁alder	-9.66069
▁københavn	-9.66083
▁tilgjengelig	-9.66083
▁hovedrollen	-9.66086
▁akademi	-9.66099
▁1969	-9.661
▁bakgrunn	-9.66132
▁fortsette	-9.66134
▁hjerte	-9.66151
▁materiale	-9.66212
▁besøk	-9.66266
▁adel	-9.66296
▁tegnet	-9.66309
plassen	-9.66349
▁hoff	-9.66367
▁danse	-9.66383
øst	-9.66419
low	-9.66493
▁forsknings	-9.66595
wan	-9.66656
▁japan	-9.66667
ula	-9.66788
63	-9.66825
industri	-9.66833
alis	-9.66887
tti	-9.6689
▁ris	-9.66914
▁vm	-9.66931
▁idretts	-9.66946
▁school	-9.6696
▁louis	-9.66961
▁typisk	-9.66964
▁leir	-9.66972
band	-9.66984
▁anlegget	-9.66993
▁areal	-9.66997
▁omtalt	-9.67001
▁ven	-9.67003
▁gjelder	-9.67049
▁die	-9.67052
▁glass	-9.6707
▁oppgave	-9.67094
90	-9.67199
▁dam	-9.6721
▁jakt	-9.67251
▁ekspedisjon	-9.67292
▁app	-9.67359
▁røde	-9.674
▁maskin	-9.67445
▁rh	-9.67566
▁karriere	-9.67622
lad	-9.67622
▁temp	-9.67629
▁betegne	-9.67639
▁alf	-9.67745
▁bane	-9.67783
▁interesse	-9.67841
▁folketelling	-9.67845
▁århundre	-9.67845
▁skipet	-9.6786
▁1967	-9.67865
▁elektrisk	-9.67999
▁rike	-9.6811
▁lyn	-9.68122
▁edderkopp	-9.68159
▁korea	-9.6817
с	-9.68192
▁nrk	-9.68238
82	-9.68324
▁hodet	-9.68336
ias	-9.68469
▁utvikling	-9.68483
lim	-9.68495
ville	-9.68495
▁kontor	-9.68559
rådet	-9.68568
part	-9.68706
46	-9.68712
▁sannsynlig	-9.68738
▁norrøn	-9.6874
▁lufthavn	-9.68749
▁jarl	-9.68789
tag	-9.68824
ordenen	-9.68831
ras	-9.6885
▁mid	-9.68853
på	-9.68931
41	-9.68937
▁oppdrag	-9.68941
elli	-9.68946
▁gode	-9.6897
▁ze	-9.69148
ische	-9.69188
▁grenser	-9.69222
55	-9.69285
bevegelsen	-9.69332
▁bj	-9.69356
▁vid	-9.69422
▁pat	-9.69439
vogn	-9.69629
▁vær	-9.69633
▁kardinal	-9.69639
▁joseph	-9.69639
▁richard	-9.6964
▁nærmest	-9.69643
grav	-9.69645
▁1948	-9.69658
▁klima	-9.69665
43	-9.69691
▁løp	-9.69728
75	-9.69769
▁35	-9.69771
kilden	-9.69826
▁dar	-9.69828
strand	-9.69842
løs	-9.69867
ytter	-9.69875
samisk	-9.69907
win	-9.69918
▁lot	-9.69932
▁ran	-9.69957
æl	-9.70061
▁innsjøen	-9.70079
egn	-9.70142
▁heller	-9.70174
ott	-9.70217
83	-9.70227
▁32	-9.70269
wi	-9.70422
sang	-9.70441
bånd	-9.70478
▁bel	-9.70522
▁bass	-9.70569
37	-9.70571
▁betegnelsen	-9.70572
▁charles	-9.70586
dar	-9.70602
▁gall	-9.70614
▁elev	-9.70622
▁kanon	-9.70669
▁hage	-9.70724
▁representerer	-9.70732
▁gru	-9.7076
cha	-9.70794
▁arabisk	-9.70838
ritt	-9.70887
redning	-9.70887
sberg	-9.70892
innen	-9.7094
▁reform	-9.70996
vert	-9.71001
66	-9.71136
løpet	-9.71144
gul	-9.7116
vind	-9.71207
lov	-9.71209
74	-9.71252
▁500	-9.71268
▁hæren	-9.71307
▁kanal	-9.71364
▁kroner	-9.71372
strøm	-9.714
rup	-9.71421
pan	-9.71447
ū	-9.71465
▁relativ	-9.71466
▁brasil	-9.71474
▁fengsel	-9.71483
▁musikkalbum	-9.71487
▁bevart	-9.71495
isjon	-9.71581
▁polsk	-9.71591
zh	-9.71624
▁mørk	-9.7171
snitt	-9.7176
▁teksten	-9.71769
▁markeds	-9.71812
stol	-9.71832
▁mak	-9.71996
▁hær	-9.72003
▁program	-9.72007
hol	-9.7203
▁scene	-9.7211
▁romerske	-9.72155
ada	-9.72188
▁test	-9.72238
lon	-9.72276
▁strid	-9.72307
gjorde	-9.72308
ima	-9.72363
т	-9.72385
▁fremdeles	-9.72392
▁spesiell	-9.72392
▁tydelig	-9.72394
▁lignende	-9.72395
▁festning	-9.72397
▁antenne	-9.72402
▁omfattende	-9.72406
▁1964	-9.72411
▁mytologi	-9.72415
▁fyr	-9.72457
▁sammenheng	-9.72507
▁bestemt	-9.72531
ura	-9.7265
▁kull	-9.7273
pin	-9.72738
▁middel	-9.72769
blomst	-9.7277
▁formel	-9.72778
▁stopp	-9.72814
bygging	-9.72844
▁stig	-9.72927
flu	-9.72948
▁landsbyen	-9.7302
▁lære	-9.7306
▁ube	-9.73142
▁larven	-9.73213
▁aktivitet	-9.73215
35	-9.73226
▁just	-9.73391
kost	-9.73396
▁sikre	-9.73411
▁mobil	-9.73421
▁feil	-9.73492
▁livet	-9.73519
ora	-9.73551
manns	-9.73611
smann	-9.73639
▁mol	-9.73655
19	-9.73657
mengde	-9.7368
▁up	-9.73701
▁område	-9.73745
▁wei	-9.73848
▁redaktør	-9.73861
▁forsøkt	-9.73885
▁maur	-9.73934
▁frukt	-9.73934
▁fal	-9.74028
▁vinner	-9.74063
▁ok	-9.74073
bach	-9.74141
▁forskning	-9.74223
▁pin	-9.74246
dømmet	-9.74248
▁sve	-9.74252
▁fredrik	-9.74261
95	-9.74262
▁1956	-9.74269
▁blue	-9.74289
▁administrasjons	-9.7431
drift	-9.74393
▁høye	-9.74445
▁samfunns	-9.74469
▁ønsket	-9.74501
▁plassert	-9.7454
▁regel	-9.74629
ign	-9.74701
▁lev	-9.74701
▁livs	-9.7474
mma	-9.74743
▁ung	-9.74938
▁ya	-9.74979
▁nr	-9.75035
▁cu	-9.7508
krigen	-9.75093
gate	-9.75139
▁elektro	-9.75151
▁sende	-9.75166
▁prosjekt	-9.75192
▁opprinnelse	-9.75221
▁profesjonell	-9.75221
▁wilhelm	-9.75221
▁canada	-9.75236
▁arn	-9.75237
▁nådd	-9.75252
▁sønnen	-9.75287
▁tverr	-9.753
▁city	-9.7537
▁distriktet	-9.75396
▁larvene	-9.75407
vekt	-9.7541
dømme	-9.75421
▁north	-9.75427
▁gun	-9.75477
▁het	-9.75588
▁aller	-9.75711
81	-9.75734
▁hellig	-9.75745
▁styrke	-9.75835
▁historiker	-9.75879
▁king	-9.75954
▁delvis	-9.75976
▁marc	-9.76031
▁kilde	-9.76063
fjell	-9.76139
▁alternativ	-9.76183
▁deriblant	-9.76183
▁middelsstor	-9.76183
▁johann	-9.76185
▁bokstav	-9.76197
▁2017	-9.76204
25	-9.7626
▁alltid	-9.76278
anser	-9.76294
▁hundre	-9.76484
▁andreas	-9.7652
klasse	-9.76606
ram	-9.76635
▁tung	-9.76648
▁flyplass	-9.76671
▁raskt	-9.76708
▁typer	-9.76844
▁bevis	-9.76845
trolig	-9.76922
▁trafikk	-9.7694
▁sesong	-9.7705
▁trøndelag	-9.77154
▁sekund	-9.7716
▁tidsskrift	-9.77167
▁spar	-9.77169
høgskole	-9.77188
▁hovedstaden	-9.77242
▁grunnlag	-9.77269
▁albert	-9.77315
▁nes	-9.77348
▁zo	-9.77353
levende	-9.77369
vand	-9.77414
▁1800	-9.77465
▁havet	-9.77505
▁cup	-9.77559
▁leg	-9.7766
jan	-9.77816
▁kil	-9.77854
plante	-9.7792
▁vind	-9.77949
▁asia	-9.77977
▁kjerne	-9.77995
bein	-9.78024
▁original	-9.78131
institusjon	-9.78134
ī	-9.78134
▁offisielt	-9.78134
▁service	-9.78134
▁yngre	-9.78137
gjort	-9.78142
▁high	-9.78202
feltet	-9.78263
▁dø	-9.78269
▁hopp	-9.78316
vendt	-9.78342
grense	-9.78415
▁begynner	-9.78467
▁vokste	-9.78472
▁sort	-9.78661
▁auto	-9.7874
▁hill	-9.78779
▁undersøkelse	-9.78794
illa	-9.78804
▁opphav	-9.78812
din	-9.78821
▁bit	-9.78831
unn	-9.78863
mond	-9.78951
▁fylket	-9.78998
▁provins	-9.79001
▁havne	-9.7902
▁syr	-9.79066
▁hyp	-9.79096
korps	-9.79098
ux	-9.79103
sekretær	-9.79108
м	-9.79124
▁lansert	-9.79133
▁och	-9.79141
▁1930	-9.79157
▁flor	-9.79162
▁sterke	-9.79183
vitenskap	-9.79223
▁gla	-9.79238
▁kreft	-9.7925
▁rygg	-9.79253
qua	-9.79344
grupper	-9.79386
в	-9.79665
møte	-9.79667
dekk	-9.79746
enberg	-9.79794
▁gau	-9.79844
▁finne	-9.79848
▁utdanning	-9.79868
▁påvirke	-9.79899
▁hei	-9.80014
▁vokal	-9.80033
▁skips	-9.80061
▁fre	-9.80085
ved	-9.80115
š	-9.80124
▁1971	-9.80124
▁united	-9.80127
skjold	-9.80127
▁1955	-9.80143
▁militære	-9.80163
▁eksistere	-9.80215
▁aust	-9.80219
▁vitenskapelig	-9.80267
tek	-9.80295
▁gor	-9.80356
trær	-9.80497
▁øyene	-9.80577
handel	-9.80642
hode	-9.8071
▁ana	-9.80807
kirken	-9.80849
▁myr	-9.80857
eks	-9.80877
▁gram	-9.80903
▁økonomi	-9.80957
▁bla	-9.81059
▁debutert	-9.8112
▁eksempler	-9.81134
▁1944	-9.81134
▁xiàn	-9.81135
▁etterhvert	-9.81137
▁begynnelsen	-9.81137
▁gården	-9.81148
▁1962	-9.81156
former	-9.81187
▁jøde	-9.81231
løst	-9.81342
▁kjempe	-9.81343
retten	-9.81351
99	-9.81364
▁bevegelse	-9.81493
▁befolkning	-9.81524
mø	-9.81601
▁rute	-9.81711
▁fjellet	-9.81766
▁historien	-9.81772
skipet	-9.81843
▁åpne	-9.81871
▁hunnen	-9.81872
gutt	-9.81896
plate	-9.8193
feld	-9.81945
sport	-9.82082
▁beskytte	-9.82093
▁motstand	-9.82116
▁inspirert	-9.82155
▁byprefekturet	-9.82155
▁teknisk	-9.82155
▁regissert	-9.82156
▁1963	-9.82174
vunnet	-9.82175
ppen	-9.82182
kår	-9.82225
▁bydel	-9.82264
▁horn	-9.82278
▁elve	-9.82412
rog	-9.82431
▁personlig	-9.82441
▁master	-9.82685
▁shan	-9.82765
▁celle	-9.8277
▁sterk	-9.82808
øyene	-9.82871
38	-9.82905
▁forfatteren	-9.82916
▁turist	-9.82921
73	-9.82945
▁tema	-9.82954
▁åpning	-9.82954
▁skatte	-9.83014
▁nivå	-9.83042
blad	-9.83055
ico	-9.8314
▁innflytelse	-9.83186
▁sovjetunionen	-9.83186
▁1961	-9.83186
▁brensel	-9.83187
▁kontakt	-9.83193
▁himmel	-9.83199
▁skjedde	-9.83201
▁1966	-9.83204
▁spania	-9.83215
prosjekt	-9.8337
▁nasjonalpark	-9.83381
▁tross	-9.83435
▁gil	-9.83437
▁driver	-9.83452
saker	-9.83488
ib	-9.83541
ming	-9.83594
▁atom	-9.8361
artikler	-9.83705
▁økt	-9.8377
▁mente	-9.838
▁epi	-9.84013
▁nar	-9.84063
▁borger	-9.84114
vå	-9.84142
▁lage	-9.84147
▁offentlige	-9.84159
mennene	-9.84214
gården	-9.84216
rettigheter	-9.84227
д	-9.84227
▁primær	-9.84228
▁menighet	-9.84228
▁frederik	-9.84234
▁saint	-9.84264
vor	-9.84274
▁45	-9.84304
▁gjennomført	-9.84336
▁sw	-9.84354
verdig	-9.84372
▁endt	-9.84373
ios	-9.84388
▁dor	-9.84588
▁slå	-9.84658
under	-9.84668
▁ramme	-9.84673
svik	-9.84729
▁rå	-9.84733
▁rein	-9.84743
▁masse	-9.84784
▁vinge	-9.84852
herre	-9.84858
▁holder	-9.84897
▁tettstedet	-9.84964
▁nam	-9.85063
dommen	-9.85073
▁70	-9.8512
▁innsjø	-9.85125
▁dekker	-9.85202
bare	-9.85261
▁australia	-9.8528
▁hurtig	-9.8528
▁flertall	-9.85281
con	-9.85285
▁forteller	-9.85288
▁1965	-9.85295
▁normal	-9.85302
fjellet	-9.85307
▁fotballspiller	-9.85311
▁systemet	-9.85388
▁artene	-9.85401
album	-9.85494
▁mw	-9.85523
▁jevn	-9.85566
▁stift	-9.85574
dam	-9.85583
▁brev	-9.85599
▁avslutte	-9.85627
tom	-9.85641
ky	-9.85647
trekk	-9.85674
kur	-9.85723
▁total	-9.85731
ов	-9.85754
▁klarte	-9.85771
▁dagen	-9.85776
legger	-9.85844
gaard	-9.85871
▁sendte	-9.85883
▁sho	-9.85897
14	-9.85919
▁anton	-9.85958
▁sæ	-9.85972
▁fan	-9.86028
▁koloni	-9.86069
▁festival	-9.86128
▁zu	-9.86189
koll	-9.86204
gli	-9.86246
▁selvstendig	-9.86344
▁royal	-9.86349
▁1949	-9.8636
▁programmet	-9.86372
▁streng	-9.86421
▁fordelt	-9.86449
▁scor	-9.86584
vol	-9.86653
▁femte	-9.86706
▁dør	-9.86719
▁vers	-9.86726
ön	-9.86766
▁rask	-9.8682
▁kjell	-9.86847
▁intel	-9.86912
än	-9.86962
▁nevnes	-9.86978
▁presse	-9.87064
vika	-9.87107
klubben	-9.87221
ledd	-9.87235
▁hente	-9.87292
syre	-9.87294
▁uavhengig	-9.87351
ο	-9.87419
▁ytterligere	-9.87419
▁passasjer	-9.87419
▁straff	-9.87425
▁publisert	-9.87434
▁150	-9.8747
▁snø	-9.87484
slaget	-9.8752
▁rollen	-9.87587
▁prøve	-9.8764
18	-9.87664
kanten	-9.87776
▁roll	-9.87785
▁90	-9.87791
▁østlig	-9.87808
rød	-9.87817
▁sko	-9.87865
▁henhold	-9.87943
▁egypt	-9.8799
bygger	-9.88088
▁åpen	-9.88258
▁pala	-9.88274
stro	-9.88282
parken	-9.88321
▁south	-9.88382
chang	-9.88382
rent	-9.88391
▁cal	-9.88427
▁midten	-9.88441
▁qu	-9.88455
▁blei	-9.88469
▁vingespenn	-9.88506
́	-9.88506
▁insekt	-9.88511
▁studio	-9.88518
▁1928	-9.88519
▁que	-9.88523
▁skotsk	-9.88529
▁normalt	-9.88541
▁gjeste	-9.88575
konge	-9.88637
▁skifte	-9.88661
▁ytre	-9.88674
▁strand	-9.88688
lett	-9.88693
▁thi	-9.88759
▁finn	-9.88867
parten	-9.88894
fu	-9.88896
88	-9.88958
▁gam	-9.89001
stripe	-9.89071
▁forholdsvis	-9.89083
▁listen	-9.89186
trinn	-9.8921
▁flagg	-9.89224
▁ger	-9.89265
lokk	-9.89277
▁fisk	-9.89357
ernes	-9.89419
▁senter	-9.89547
▁eventyr	-9.89605
й	-9.89605
▁pasient	-9.89605
▁sjelden	-9.89605
▁overflate	-9.89606
▁unntak	-9.89622
▁kha	-9.89641
▁forretnings	-9.89689
dømt	-9.89789
ona	-9.89818
▁henry	-9.89842
▁qui	-9.89843
▁buss	-9.89875
▁bibliotek	-9.89897
▁lenge	-9.8993
atur	-9.89939
dannelse	-9.89996
▁kari	-9.90112
ney	-9.90148
▁stol	-9.90191
49	-9.90281
▁kjenne	-9.90299
▁landskapet	-9.90312
▁leve	-9.90343
▁teknologi	-9.90344
▁jorden	-9.90363
formen	-9.9039
fyr	-9.90429
fabrikk	-9.9049
én	-9.90499
ledning	-9.90514
▁nettverk	-9.90595
prøv	-9.90689
▁episode	-9.90718
▁tegneserie	-9.90724
▁nærmere	-9.90726
yan	-9.90727
▁ekteskap	-9.90729
▁islam	-9.90734
▁1940	-9.90749
▁varierer	-9.9077
▁sports	-9.90799
▁song	-9.90822
plikt	-9.90838
▁huset	-9.90933
▁haug	-9.90965
94	-9.90985
nummer	-9.91041
regionen	-9.9107
inntekt	-9.91071
wald	-9.91114
▁preget	-9.91121
▁vannet	-9.91123
stemt	-9.91127
fjellene	-9.91134
▁bærer	-9.91158
roll	-9.91204
▁problem	-9.91229
kop	-9.91247
▁sider	-9.91249
▁økonomisk	-9.91273
ulykke	-9.91276
bank	-9.91329
▁may	-9.91406
skij	-9.91511
▁ansatte	-9.91552
▁tang	-9.91555
▁kysten	-9.91572
▁blomster	-9.91623
▁posisjon	-9.91639
▁sup	-9.91793
▁amt	-9.91812
ordning	-9.91816
▁records	-9.9184
▁sistnevnte	-9.9184
▁tilhørte	-9.9184
▁motiv	-9.91842
▁konstant	-9.91844
▁tw	-9.91849
▁1946	-9.91861
▁otto	-9.91889
kysten	-9.91905
havn	-9.91971
kirke	-9.91976
ough	-9.92008
ball	-9.92013
▁skilt	-9.92041
16	-9.92053
▁grø	-9.92062
▁dj	-9.92069
▁latinsk	-9.92091
▁arts	-9.92149
miljø	-9.92218
voll	-9.92237
ith	-9.92246
▁kommuner	-9.9228
▁våren	-9.92286
▁kry	-9.92341
▁dog	-9.92402
▁mørke	-9.9242
▁beskrevet	-9.92426
▁internasjonal	-9.92447
▁falt	-9.92613
▁franc	-9.9268
▁økonomiske	-9.92689
▁regjerings	-9.92712
▁eva	-9.92721
motor	-9.92732
▁kamper	-9.92763
▁yu	-9.92804
▁kjønn	-9.9282
▁dynastiet	-9.92828
▁drev	-9.92831
▁sveits	-9.92859
▁kristian	-9.92877
post	-9.92882
▁behandl	-9.92962
▁nødvendig	-9.92976
▁tilknyttet	-9.92976
▁redusere	-9.9298
sjø	-9.92997
▁jordbruk	-9.93037
▁gjenopp	-9.93123
▁klubb	-9.93125
▁fel	-9.93143
▁bodde	-9.93212
▁bonde	-9.93264
firma	-9.93292
produkt	-9.93382
ical	-9.9348
ledende	-9.93509
makt	-9.93541
▁artikkel	-9.93549
▁tog	-9.93562
▁nedre	-9.93615
▁fremste	-9.93639
▁rør	-9.93678
hof	-9.9369
▁solo	-9.93711
▁wu	-9.93724
fond	-9.93764
▁single	-9.93853
▁politikk	-9.94042
ønne	-9.94061
▁finalen	-9.94117
hastighet	-9.94125
у	-9.94125
▁operatør	-9.94128
kommisjon	-9.94134
▁club	-9.94161
▁medalje	-9.94208
65	-9.94234
▁award	-9.94247
bakk	-9.94346
føringen	-9.94361
▁bob	-9.94407
▁formål	-9.94441
trafikk	-9.94557
▁kaptein	-9.94562
▁singel	-9.9459
▁tettsted	-9.94636
kraftverk	-9.94643
▁viking	-9.94652
32	-9.94717
▁overfor	-9.94858
▁kara	-9.9493
15	-9.94943
▁kommunene	-9.9499
▁vitenskap	-9.95007
▁prins	-9.95051
ł	-9.95288
▁administrativ	-9.95288
▁installert	-9.95288
▁fokus	-9.95292
medalj	-9.95316
▁erobre	-9.95319
▁pet	-9.95362
▁blokk	-9.95379
hor	-9.95414
▁føde	-9.95487
vold	-9.95495
▁fjord	-9.95537
▁populære	-9.9554
▁voks	-9.95555
▁ull	-9.95557
mesterskapet	-9.95559
33	-9.95628
▁tå	-9.95732
skudd	-9.95749
komite	-9.95768
somme	-9.95787
▁vekst	-9.95807
kultur	-9.95821
▁helge	-9.95842
▁tidlige	-9.9587
▁stål	-9.95885
▁vakt	-9.95917
▁tusen	-9.95966
▁kvar	-9.95982
forhold	-9.96
liste	-9.96062
▁long	-9.96118
▁timer	-9.96214
▁fyrst	-9.96282
▁400	-9.96294
▁grunnlegge	-9.96342
▁kjøre	-9.96408
myndighet	-9.96422
▁konflikt	-9.96465
belteasteroide	-9.96465
▁etterfulgt	-9.96465
▁utgangspunkt	-9.96465
▁1953	-9.96465
▁arrangere	-9.96465
kapasitet	-9.96467
▁avhengig	-9.96468
▁hannen	-9.96496
▁stadion	-9.96501
▁daniel	-9.96517
▁valget	-9.96573
ygg	-9.96607
▁akt	-9.96646
▁will	-9.96714
forsamling	-9.96728
▁trener	-9.9679
▁måneder	-9.96839
▁mill	-9.96904
▁bio	-9.96933
hav	-9.96975
arkiv	-9.97009
▁indisk	-9.97055
▁tradisjonell	-9.97097
▁esp	-9.97112
▁human	-9.97126
▁160	-9.9713
▁forvingen	-9.97197
84	-9.97345
analyse	-9.97355
passet	-9.97483
kamera	-9.97489
▁dato	-9.97518
cul	-9.97548
▁olsen	-9.97636
utgivelse	-9.97643
▁1959	-9.97655
▁alkohol	-9.97655
▁østerrike	-9.97659
▁definert	-9.97659
▁1933	-9.97672
vinner	-9.97689
▁est	-9.97785
svarer	-9.97817
ctor	-9.97823
▁effektiv	-9.97843
▁mulighet	-9.97873
▁regjering	-9.97897
▁freds	-9.97941
▁sim	-9.97949
pass	-9.98016
ulf	-9.98063
▁santa	-9.9807
▁harry	-9.98096
▁kalte	-9.98151
utvikling	-9.9817
▁frø	-9.98192
▁cre	-9.98196
jord	-9.98214
hai	-9.98262
støt	-9.98265
vald	-9.98278
▁dobbelt	-9.98319
pur	-9.98374
21	-9.98395
▁web	-9.98405
▁rang	-9.9847
gue	-9.98478
▁utvide	-9.98479
▁orkester	-9.9848
aktiv	-9.98536
visning	-9.98597
▁tsj	-9.98615
trekning	-9.98744
▁oppstå	-9.98744
▁arve	-9.98758
▁levert	-9.98811
▁1952	-9.9886
kontrakt	-9.98866
▁bakke	-9.98873
▁1947	-9.98887
▁video	-9.98887
kompleks	-9.98889
▁1936	-9.98891
▁hustru	-9.98903
▁forsvaret	-9.98904
kort	-9.98906
▁ting	-9.98924
▁kritikk	-9.98969
undervisning	-9.99015
▁søke	-9.9908
▁æres	-9.99086
▁organisert	-9.99131
▁bidrag	-9.99162
▁fugle	-9.99169
▁fc	-9.99234
▁stad	-9.9926
forfatter	-9.99409
▁phil	-9.9942
turnering	-9.9944
kontor	-9.99477
studi	-9.99481
▁marie	-9.99491
måte	-9.99511
▁snart	-9.99528
▁tonn	-9.99589
▁produksjons	-9.99595
▁oc	-9.9962
▁salg	-9.99714
93	-9.99731
▁nasjon	-9.99738
strid	-9.99775
iteten	-9.99844
assi	-9.9985
cal	-9.99879
▁saken	-9.9988
▁bidra	-9.99893
▁avisen	-9.99921
maler	-10.0006
▁beijing	-10.0008
▁generelt	-10.0008
▁gunnar	-10.0008
▁kraftverk	-10.0009
▁bord	-10.0009
▁1941	-10.001
▁bakvingen	-10.0011
▁utover	-10.0012
▁1900	-10.0014
▁län	-10.0016
▁veldig	-10.0019
løft	-10.002
celle	-10.0028
▁cirk	-10.0036
▁max	-10.0039
▁petter	-10.0043
▁green	-10.0048
legging	-10.005
▁toppen	-10.0053
▁løsning	-10.006
▁por	-10.0061
produsent	-10.0066
▁planet	-10.0069
▁inge	-10.0071
▁spørsmål	-10.0076
12	-10.0081
▁republikken	-10.0081
maskin	-10.0083
▁lån	-10.0085
▁hon	-10.009
▁spilles	-10.0096
▁ønske	-10.0106
▁jag	-10.0106
▁utvikler	-10.0108
▁33	-10.0108
▁hertug	-10.011
▁kru	-10.011
▁verne	-10.0118
▁irsk	-10.0127
▁innbyggertall	-10.0131
▁kvalifiser	-10.0131
▁nikola	-10.0132
▁oscar	-10.0132
▁1957	-10.0134
gjøre	-10.0136
▁cri	-10.014
▁kongelige	-10.0157
▁simon	-10.0168
97	-10.0181
▁terr	-10.0182
▁minutter	-10.0189
▁villa	-10.0189
amerikansk	-10.0193
▁nordland	-10.0196
▁disk	-10.0198
istene	-10.0198
▁hode	-10.0199
avdeling	-10.02
▁møter	-10.02
▁ankom	-10.0213
taker	-10.0219
▁produserer	-10.0222
▁tron	-10.0225
▁polen	-10.0225
▁cra	-10.0226
▁gruve	-10.0229
11	-10.0237
▁klart	-10.0239
▁filosof	-10.0242
staten	-10.0251
aya	-10.0256
▁fullstendig	-10.0256
▁ishockey	-10.0256
▁1942	-10.0256
▁ekstrem	-10.0257
▁oblast	-10.0258
▁sykehus	-10.0258
▁smith	-10.0258
▁300	-10.026
▁nederland	-10.0265
valget	-10.0266
22	-10.0269
▁reaksjon	-10.0273
jern	-10.0274
områdene	-10.0274
▁38	-10.0277
▁fantes	-10.0282
ward	-10.0286
▁støttet	-10.0289
wer	-10.0291
34	-10.0294
▁bryst	-10.0295
løsning	-10.0296
▁log	-10.0297
▁legend	-10.0304
▁utgi	-10.0319
39	-10.032
▁vent	-10.033
▁eli	-10.0342
▁kapp	-10.0356
festivalen	-10.0362
hver	-10.0363
▁prosjektet	-10.0364
gler	-10.0367
▁soldater	-10.0376
▁runde	-10.0377
ì	-10.0383
▁forekommer	-10.0383
▁situasjon	-10.0383
▁dialekt	-10.0383
▁lengst	-10.0386
▁eg	-10.0388
▁ukjent	-10.0391
osa	-10.0393
▁dokumenter	-10.0394
▁jule	-10.0396
▁ekstra	-10.04
▁arkitektur	-10.0402
▁gui	-10.0414
fysikk	-10.0417
▁utføre	-10.0424
▁75	-10.0426
gud	-10.0437
▁drag	-10.0443
▁endelig	-10.046
hov	-10.0461
oksid	-10.0462
▁grunnla	-10.0466
27	-10.0471
jon	-10.048
tårn	-10.0489
head	-10.049
▁sven	-10.0493
▁cho	-10.0496
▁territori	-10.0511
▁vulkan	-10.0511
▁digital	-10.0511
▁innsats	-10.0511
▁årsak	-10.0512
▁nedenfor	-10.0512
▁ark	-10.0515
▁nevnt	-10.0521
▁bølge	-10.0524
▁likhet	-10.0529
fylt	-10.0532
▁grunnlegger	-10.054
▁kald	-10.0553
▁middelalderen	-10.0554
▁utvidet	-10.0555
gått	-10.0562
▁innhold	-10.0575
gjør	-10.0577
▁buk	-10.0588
fugl	-10.0595
ān	-10.0595
▁american	-10.0596
▁ein	-10.0597
▁din	-10.0601
29	-10.0602
▁nyere	-10.0602
▁solgt	-10.0604
styrt	-10.0604
▁kok	-10.0607
rommet	-10.0614
com	-10.0617
▁utviklingen	-10.0619
lé	-10.062
steder	-10.0621
▁områdene	-10.0626
▁rekord	-10.0626
▁company	-10.0641
▁mexico	-10.0641
▁alexander	-10.0641
▁innspilling	-10.0641
▁golf	-10.0642
▁1917	-10.0643
▁firmaet	-10.0643
▁maler	-10.0646
▁forbundet	-10.0646
▁former	-10.0648
ín	-10.0653
sida	-10.0656
kasse	-10.0658
▁plassering	-10.0661
▁65	-10.0663
▁damp	-10.0668
bol	-10.0672
rykket	-10.0674
skjell	-10.0675
▁mono	-10.0681
stasjoner	-10.0686
verdi	-10.0689
▁free	-10.0692
▁gard	-10.0704
▁problemer	-10.0712
▁utenriks	-10.0712
▁regne	-10.0713
aria	-10.0717
vekst	-10.0719
▁brenn	-10.0724
bøker	-10.0725
cio	-10.0727
fil	-10.0733
▁kandidat	-10.0739
▁konkurransen	-10.0743
bedrift	-10.075
▁metode	-10.0756
▁markert	-10.0765
▁california	-10.0773
▁kjærlighet	-10.0773
▁jakob	-10.0773
▁redusert	-10.0773
▁litterær	-10.0775
▁hotell	-10.0776
▁sikkerhets	-10.078
▁tørr	-10.078
kjent	-10.0782
▁gjennomsnitt	-10.0782
▁fremst	-10.0785
▁drikke	-10.0786
▁vokalist	-10.0789
▁aksje	-10.079
▁banen	-10.079
▁struktur	-10.0792
▁bosatt	-10.0798
▁nei	-10.08
24	-10.0802
▁ost	-10.0807
rute	-10.081
▁dun	-10.0811
▁internasjonalt	-10.082
▁studier	-10.0824
▁trakk	-10.0825
kritiker	-10.0826
▁fn	-10.0837
▁kvalitet	-10.0837
▁sent	-10.0844
▁sovjetisk	-10.0847
▁unn	-10.0855
▁prof	-10.086
▁town	-10.0862
▁signal	-10.0862
▁got	-10.0865
▁aas	-10.0867
gir	-10.0867
politikk	-10.0868
time	-10.0875
roman	-10.0879
▁fløy	-10.0881
forsvar	-10.0889
▁hein	-10.089
13	-10.0892
▁astronom	-10.0906
▁individ	-10.0906
▁fattig	-10.0906
▁1918	-10.0908
▁landbruks	-10.0909
▁cru	-10.0909
▁havn	-10.0909
gor	-10.0924
leir	-10.0926
▁magnus	-10.0927
28	-10.0929
galleri	-10.0932
▁tolv	-10.0937
▁gold	-10.0938
▁produsere	-10.0943
▁vestlige	-10.0953
17	-10.0954
jö	-10.0957
▁studenter	-10.0958
▁endre	-10.0959
betegnelse	-10.0962
▁angi	-10.0969
▁måned	-10.0975
▁cur	-10.0978
▁bispedømme	-10.0982
▁komedie	-10.0982
▁konkurranse	-10.0983
▁irland	-10.0987
▁salme	-10.0989
▁svak	-10.0992
foreningen	-10.0993
▁bydelen	-10.0996
▁måne	-10.0999
▁private	-10.1
demokrat	-10.1011
basert	-10.1012
▁mah	-10.1013
▁qua	-10.1019
▁rob	-10.102
park	-10.1024
на	-10.1027
г	-10.1041
▁introdusert	-10.1041
▁betrakte	-10.1041
▁jødisk	-10.1041
▁autonom	-10.1042
▁etterfølger	-10.1043
▁skriver	-10.1043
▁1958	-10.1044
▁1954	-10.1044
▁multi	-10.1044
▁sykkel	-10.1045
▁bronse	-10.1047
dommer	-10.1051
▁bånd	-10.1052
▁beg	-10.107
▁domin	-10.1087
▁kg	-10.1089
fot	-10.1094
▁meta	-10.1099
▁øverste	-10.1101
▁frihet	-10.1102
▁øvrige	-10.1105
▁strekk	-10.1109
hild	-10.1111
▁utga	-10.1115
ello	-10.1115
▁planter	-10.1119
ary	-10.1124
hånd	-10.1126
hed	-10.113
▁geo	-10.1132
23	-10.1153
▁laste	-10.1159
▁kåre	-10.1162
dokument	-10.1166
prisen	-10.1167
cup	-10.117
▁hevdet	-10.1177
▁skulptur	-10.1178
▁skottland	-10.1178
▁kombinert	-10.1178
▁erkebiskop	-10.1178
▁kunnskap	-10.1178
▁oversikt	-10.1178
▁vist	-10.1178
▁mikro	-10.1179
▁nærheten	-10.1179
▁1939	-10.118
politisk	-10.118
aceae	-10.1181
▁utviklings	-10.1182
▁philip	-10.1183
▁angeles	-10.1187
▁kalk	-10.1188
sfjorden	-10.1194
byrå	-10.1195
▁museet	-10.1201
▁white	-10.1203
▁matt	-10.1205
▁zi	-10.1205
▁team	-10.121
▁underlagt	-10.1213
▁hval	-10.1213
31	-10.1215
▁cel	-10.1217
▁sist	-10.1218
▁solgte	-10.122
▁sentralt	-10.1223
kjemi	-10.1233
▁pap	-10.1236
▁regional	-10.1239
▁hum	-10.1242
▁hammer	-10.1245
mur	-10.1245
▁politiet	-10.1256
▁økte	-10.1257
▁rund	-10.1268
▁spise	-10.127
arisk	-10.1276
▁niels	-10.1279
▁musikalsk	-10.1286
stin	-10.1291
▁myk	-10.1292
▁linjen	-10.1302
lyst	-10.1308
administrasjon	-10.1311
virket	-10.1317
▁vietnam	-10.1317
▁liberal	-10.1317
▁bosetning	-10.1317
▁begrenset	-10.1317
▁fysisk	-10.1318
▁beregne	-10.1318
▁1912	-10.1319
eppe	-10.1319
▁1908	-10.132
cho	-10.132
▁liga	-10.132
▁skape	-10.1326
▁nedlagt	-10.1326
▁mangler	-10.1327
▁ulik	-10.1341
▁hov	-10.1341
▁jobbe	-10.1343
▁overført	-10.1351
▁morgen	-10.1351
▁hem	-10.1357
skjær	-10.1363
▁polar	-10.1371
▁kode	-10.1372
▁fugl	-10.1381
awa	-10.1384
▁bou	-10.1387
▁ref	-10.1389
▁tradisjonelle	-10.1395
fyll	-10.1398
▁00	-10.14
distrikt	-10.1404
konkurranse	-10.1409
▁cham	-10.1411
sammen	-10.1418
▁landskap	-10.1419
▁offiser	-10.1425
▁endringer	-10.1426
▁barb	-10.1437
▁vii	-10.1438
▁begrep	-10.1445
▁kin	-10.1446
▁stam	-10.1452
▁flu	-10.1453
▁regissør	-10.1458
▁således	-10.1458
polis	-10.1458
▁nedbør	-10.1458
▁inngår	-10.1458
▁luther	-10.1459
▁1924	-10.146
▁scott	-10.146
▁kjemisk	-10.1461
▁fru	-10.1463
▁college	-10.1464
▁publi	-10.1467
▁42	-10.1469
▁nordisk	-10.1473
▁behov	-10.1473
▁ansvarlig	-10.1483
▁rulle	-10.1486
▁moren	-10.1486
▁gitarist	-10.1486
bygningen	-10.1495
▁angel	-10.1498
masse	-10.1503
▁sete	-10.1504
una	-10.1508
▁55	-10.1509
alitet	-10.151
▁tekster	-10.1515
▁od	-10.153
▁dommer	-10.1534
▁600	-10.1539
▁oversatt	-10.154
▁patri	-10.1544
▁az	-10.1548
▁brand	-10.1549
kjøp	-10.1555
bakterie	-10.1557
▁landslag	-10.156
▁bredde	-10.156
▁deles	-10.1573
▁maleri	-10.1575
▁iso	-10.1576
▁jacob	-10.1588
kjær	-10.159
▁medisin	-10.1591
▁kammer	-10.1598
▁fødsel	-10.1601
ryd	-10.1601
ç	-10.1601
▁strategi	-10.1601
▁jørgen	-10.1601
gymnas	-10.1601
▁motsetning	-10.1601
▁studioalbum	-10.1601
▁finnmark	-10.1602
▁referere	-10.1603
▁reiste	-10.1604
næring	-10.1607
▁kai	-10.1609
▁spillet	-10.1611
▁uttalt	-10.1611
▁ild	-10.1612
▁indi	-10.1613
▁tau	-10.1617
kron	-10.162
▁histo	-10.1622
▁tone	-10.1624
▁storm	-10.1625
▁ferd	-10.1627
gram	-10.1627
▁bygda	-10.1633
bund	-10.1645
bal	-10.1648
tikken	-10.166
äl	-10.166
formede	-10.1663
▁vor	-10.1666
▁medlemmene	-10.1669
onia	-10.1673
cle	-10.1679
▁skudd	-10.1691
▁foreldre	-10.1694
▁ulv	-10.1697
▁foreningen	-10.1702
forbindelse	-10.1702
▁internett	-10.1706
drev	-10.1708
▁34	-10.171
▁bilder	-10.171
lid	-10.1715
▁sport	-10.173
▁bunn	-10.1744
▁vegg	-10.1744
▁objekt	-10.1746
▁1951	-10.1746
▁akershus	-10.1746
▁positiv	-10.1746
▁moskva	-10.1746
▁kristne	-10.1746
▁stortinget	-10.1746
▁kriminal	-10.1747
▁1938	-10.1748
▁1919	-10.1748
▁yo	-10.1751
trukket	-10.1753
▁whi	-10.1753
▁dvs	-10.1755
▁elever	-10.1762
familie	-10.1765
para	-10.1765
▁metro	-10.1771
▁butikk	-10.1776
▁dol	-10.1778
▁sankt	-10.1782
ique	-10.1785
▁kim	-10.1791
▁larsen	-10.1793
▁intern	-10.1794
▁jud	-10.1796
▁verd	-10.1799
▁troll	-10.1809
öl	-10.1814
▁frakt	-10.1815
▁samarbeidet	-10.1823
▁sammenligne	-10.1836
▁romanen	-10.184
▁tell	-10.1844
▁drevet	-10.1851
▁fritt	-10.1855
gni	-10.1875
▁oppnå	-10.1883
▁atmosfære	-10.1893
vassdraget	-10.1893
▁krevde	-10.1893
▁anerkjent	-10.1893
▁doktorgrad	-10.1893
▁blanding	-10.1894
▁dollar	-10.1894
▁1911	-10.1895
▁landsby	-10.1896
▁psyko	-10.1897
▁michel	-10.1898
▁tilhenger	-10.19
speil	-10.1903
bygning	-10.1914
▁lavere	-10.1918
prosessen	-10.1921
▁emil	-10.1945
▁mannskap	-10.1946
▁keiseren	-10.1947
katt	-10.1948
luk	-10.1956
▁vokser	-10.1961
setting	-10.1962
slett	-10.197
▁poet	-10.1975
▁opphold	-10.1979
ania	-10.198
▁out	-10.1986
▁beina	-10.1989
▁advokat	-10.1989
▁tam	-10.1996
bibliotek	-10.2002
bygget	-10.2007
▁dukke	-10.2017
▁berømte	-10.2033
▁friedrich	-10.2042
▁konkurrere	-10.2042
▁tilhørende	-10.2042
▁antagelig	-10.2042
▁drammen	-10.2042
▁ridder	-10.2043
▁alfred	-10.2044
▁gö	-10.2046
▁bekrefte	-10.2049
▁anledning	-10.2052
▁franz	-10.2053
▁ungdom	-10.2055
▁kilder	-10.2057
▁ec	-10.2057
▁utvikle	-10.2061
▁neu	-10.2061
▁bilen	-10.2074
▁hydro	-10.2089
▁kyr	-10.2095
▁rand	-10.2097
▁institutt	-10.2101
▁styrte	-10.2105
▁ric	-10.2121
runde	-10.2121
▁ef	-10.2128
ografi	-10.214
▁wel	-10.2141
syke	-10.2142
slekten	-10.2144
▁kommando	-10.2146
teknikk	-10.2157
hunder	-10.2163
stasjonen	-10.2165
▁luc	-10.2173
rapport	-10.2175
▁torg	-10.2175
▁fotograf	-10.2178
▁stab	-10.2178
folket	-10.2188
▁administrere	-10.2193
▁initiativ	-10.2193
▁ovenfor	-10.2193
▁arthur	-10.2194
▁håndball	-10.2195
▁slank	-10.2195
▁protest	-10.2196
▁edward	-10.2196
▁klokken	-10.2197
▁sverd	-10.2199
▁detalj	-10.2201
▁eksport	-10.2202
▁hovedsak	-10.2206
kjøretøy	-10.2207
▁skyte	-10.2214
▁befinne	-10.2217
▁tynn	-10.2233
▁ansvar	-10.2242
▁dalen	-10.2248
▁adam	-10.2258
▁omfattet	-10.2264
▁37	-10.2273
▁skjær	-10.2273
▁gått	-10.228
▁utvalg	-10.2288
▁bull	-10.2288
▁utøve	-10.229
▁euro	-10.2294
▁tempel	-10.2303
▁ferr	-10.231
▁bah	-10.2313
▁handle	-10.2313
museum	-10.2314
▁prop	-10.2319
▁verket	-10.2329
vingen	-10.2331
▁gjeld	-10.2332
▁anta	-10.2335
▁170	-10.2339
▁øke	-10.2339
▁tromsø	-10.2342
▁europe	-10.2346
ß	-10.2347
▁1909	-10.2347
følgende	-10.2348
▁forårsake	-10.2348
▁besøkt	-10.2348
▁elektronisk	-10.2348
konferanse	-10.2349
▁jesus	-10.2349
drakt	-10.2351
stipend	-10.2352
▁power	-10.2352
▁hevde	-10.2357
listen	-10.2358
▁east	-10.2358
▁bibel	-10.2359
holdsvis	-10.2361
brakt	-10.2361
periode	-10.2362
eksamen	-10.2366
▁nød	-10.2366
tjenesten	-10.2366
pha	-10.237
▁kvi	-10.2399
▁athen	-10.2408
▁39	-10.2412
▁arrangement	-10.2415
vannet	-10.2424
komst	-10.2429
▁sats	-10.2441
▁ray	-10.2449
▁vekk	-10.2452
▁funn	-10.2468
direktør	-10.2471
regiment	-10.2472
født	-10.2475
▁vig	-10.2475
▁rio	-10.2485
høyde	-10.2492
▁færøyene	-10.2504
▁eventuel	-10.2504
▁brødrene	-10.2504
▁league	-10.2504
▁bidro	-10.2505
▁forbinde	-10.2505
▁naturgass	-10.2505
▁geografisk	-10.2506
▁håkon	-10.2507
lj	-10.2508
▁familiegruppen	-10.2508
▁lokalisert	-10.2509
▁kjøl	-10.2512
▁donau	-10.2515
▁einar	-10.2516
▁enkle	-10.2517
▁demningen	-10.2522
▁rapporter	-10.2523
▁brem	-10.2527
▁isteden	-10.2529
▁oppnådd	-10.2529
▁teknikk	-10.2543
▁tour	-10.2547
▁ferge	-10.2565
▁math	-10.2566
▁virkelig	-10.2578
▁kno	-10.2584
▁evne	-10.2595
▁motstander	-10.2601
▁penge	-10.2603
▁kapell	-10.2605
kontroll	-10.2608
dikt	-10.2619
▁bakkroppen	-10.2623
tropp	-10.2631
behandling	-10.2633
▁1905	-10.2662
▁portugisisk	-10.2662
▁utbredt	-10.2662
▁registrert	-10.2662
▁foregår	-10.2662
▁sigurd	-10.2662
▁dverg	-10.2664
▁hemmelig	-10.2664
▁forklare	-10.2665
▁gress	-10.2668
øvelse	-10.2673
▁hitler	-10.2675
bytte	-10.2688
▁statlig	-10.2689
▁skinn	-10.2697
▁with	-10.2701
▁sørover	-10.2704
▁peder	-10.2705
▁jack	-10.2708
▁bag	-10.2709
▁snu	-10.271
▁fungerer	-10.2722
▁feng	-10.2722
▁status	-10.2724
▁vill	-10.2737
▁forskjell	-10.2754
▁manus	-10.2758
▁arv	-10.2765
▁middelalder	-10.277
▁debut	-10.2781
▁øker	-10.2784
duk	-10.2792
▁tykk	-10.2792
▁beat	-10.28
▁nova	-10.2811
skiftet	-10.282
▁praksis	-10.2824
▁friidrett	-10.2824
▁forbedre	-10.2824
▁utmerkelse	-10.2824
▁bronsemedalje	-10.2824
forsikring	-10.2824
▁generasjon	-10.2825
▁1921	-10.2826
▁1932	-10.2826
▁byttet	-10.2828
kilde	-10.2829
▁stortings	-10.2829
▁bydistrikt	-10.283
▁gjer	-10.2831
▁dahl	-10.2833
▁kvinnelige	-10.2839
▁grov	-10.2842
▁sikte	-10.2844
▁skaffe	-10.2848
▁utnytte	-10.2849
bad	-10.2853
▁levde	-10.2856
▁vanligste	-10.2857
▁walter	-10.2858
▁fett	-10.2862
▁foto	-10.2862
istan	-10.2875
▁hull	-10.2877
forskning	-10.2879
▁utdannelse	-10.2894
▁idrettslag	-10.2898
slutt	-10.2906
▁proto	-10.2906
rekke	-10.291
kongress	-10.2913
▁hul	-10.2915
▁800	-10.2925
ahl	-10.2925
tårnet	-10.2926
▁mei	-10.2927
gnos	-10.2932
kjennelse	-10.2937
▁krever	-10.2939
▁medisinsk	-10.295
zu	-10.2958
▁klassen	-10.2962
struktur	-10.2963
finn	-10.2963
materiale	-10.2963
▁lill	-10.2964
▁arch	-10.2972
halvøya	-10.2973
▁fartøy	-10.2981
▁publikum	-10.2988
▁nominert	-10.2988
▁alvorlig	-10.2988
pedagog	-10.2988
▁great	-10.299
▁mineral	-10.299
▁tradisjonelt	-10.2991
▁mongol	-10.2991
▁samfunnet	-10.2992
▁turneringen	-10.2996
vakt	-10.3008
plattform	-10.3016
▁oversettelse	-10.3018
▁för	-10.3018
▁musikal	-10.3025
▁mottatt	-10.3037
▁modern	-10.3037
kling	-10.3038
▁elske	-10.3041
air	-10.3044
bukta	-10.3046
zon	-10.3047
kanalen	-10.3061
▁steve	-10.3061
▁tilfeller	-10.307
▁papir	-10.307
▁gruppa	-10.307
▁120	-10.3086
▁øyne	-10.3096
▁roger	-10.3106
▁sønd	-10.3107
gav	-10.3109
▁dyrke	-10.3125
▁synes	-10.3128
formula	-10.3129
institut	-10.313
▁falk	-10.3136
▁sideelv	-10.3138
▁kreve	-10.3144
▁lønn	-10.3154
▁millimeter	-10.3154
▁shanghai	-10.3154
▁åpningsseremoni	-10.3154
▁ludvig	-10.3154
▁science	-10.3154
▁fenomen	-10.3154
▁erklært	-10.3154
▁1904	-10.3154
▁geometri	-10.3154
regulering	-10.3155
▁premier	-10.3155
kjøring	-10.3155
▁faktisk	-10.3155
▁global	-10.3155
komité	-10.3155
▁anvende	-10.3156
▁1922	-10.3156
▁telefon	-10.3156
▁1910	-10.3159
▁feire	-10.3165
▁sørge	-10.3171
▁toll	-10.3176
cheng	-10.3176
reise	-10.3189
wick	-10.3195
▁chu	-10.3197
skilt	-10.3197
▁johansen	-10.32
▁fotballklubb	-10.3208
▁tø	-10.3215
spinner	-10.323
▁dominere	-10.323
▁konstruksjon	-10.3234
▁music	-10.3237
chin	-10.3241
zel	-10.3253
ía	-10.3256
forsyning	-10.326
maker	-10.3264
▁stilt	-10.3275
sikkerhet	-10.3293
▁kaste	-10.3295
skjerm	-10.3306
takelse	-10.3312
▁australsk	-10.3324
▁guvernør	-10.3324
▁county	-10.3324
▁mekanisk	-10.3324
▁egenskaper	-10.3324
▁spredt	-10.3324
kompetanse	-10.3324
▁1927	-10.3326
▁fullført	-10.3327
▁komposisjon	-10.3328
apparat	-10.3329
▁eik	-10.3333
bebyggelse	-10.3334
▁hersker	-10.3336
typer	-10.334
kall	-10.3341
▁mary	-10.3364
friidrettsutøver	-10.3366
▁romersk	-10.3369
vandring	-10.337
▁forskjellig	-10.3375
▁sikker	-10.3383
▁pels	-10.3384
▁christi	-10.3404
▁malte	-10.3409
vikler	-10.3412
▁vet	-10.3413
▁ansatt	-10.3414
▁verb	-10.3418
▁inc	-10.3434
8	-10.344
▁anker	-10.3441
▁utsatt	-10.3444
▁ingeniør	-10.3465
▁eb	-10.3477
funksjon	-10.3481
bølge	-10.3484
▁vingene	-10.349
museet	-10.349
▁bang	-10.3492
▁barcelona	-10.3496
▁nowiki	-10.3496
førsel	-10.3496
▁edvard	-10.3496
▁allierte	-10.3496
▁grønland	-10.3496
▁major	-10.3496
▁bodø	-10.3496
▁gustav	-10.3499
▁angripe	-10.35
▁ligner	-10.35
hei	-10.3501
▁utenlandske	-10.3502
▁trommer	-10.3507
▁tildele	-10.3507
▁ey	-10.3507
wall	-10.3509
▁1897	-10.3511
▁skaper	-10.3513
olje	-10.3513
▁skjønn	-10.3515
▁følelse	-10.3518
▁victoria	-10.3524
▁allmenn	-10.3524
▁bestemme	-10.3527
versjon	-10.3531
000	-10.3546
▁spring	-10.355
▁sav	-10.3551
▁frekvens	-10.3555
sider	-10.3556
stått	-10.3573
▁bow	-10.3581
ск	-10.3601
▁urban	-10.3611
▁karbon	-10.3616
myr	-10.3618
▁demokratisk	-10.3624
samband	-10.3639
▁paus	-10.3647
stav	-10.3649
▁israelsk	-10.3655
historisk	-10.3659
front	-10.3664
svømme	-10.3666
kreft	-10.367
▁beseiret	-10.3672
▁restaurant	-10.3672
▁østerriksk	-10.3672
▁fungerte	-10.3672
▁hil	-10.3672
▁døgn	-10.3672
ström	-10.3672
▁für	-10.3672
▁tømmer	-10.3673
▁1913	-10.3674
▁1914	-10.3674
▁ytterst	-10.3674
▁1925	-10.3675
▁brown	-10.3675
▁1935	-10.3675
▁group	-10.3676
▁mengder	-10.3676
▁planlagt	-10.3676
▁hotel	-10.3682
▁terror	-10.3684
▁spenning	-10.3684
ington	-10.3684
trener	-10.3687
seth	-10.3687
▁hamburg	-10.3689
▁sukker	-10.3694
▁hjerne	-10.3695
▁gjenstand	-10.37
▁saga	-10.3704
mmel	-10.3705
▁gradvis	-10.3705
▁1700	-10.3705
▁mynt	-10.3705
▁lunge	-10.3708
▁show	-10.371
▁telemark	-10.371
▁krim	-10.3712
støtte	-10.3714
▁trø	-10.3719
ittisk	-10.3731
▁østre	-10.3736
fabrik	-10.3748
▁drei	-10.375
▁vestre	-10.3754
▁intens	-10.376
ytelse	-10.3767
▁beskrev	-10.377
▁unna	-10.3781
▁sca	-10.3791
▁lake	-10.3798
skyting	-10.3799
strømmen	-10.3801
▁term	-10.3824
hem	-10.3835
ifikasjon	-10.3839
modell	-10.3844
▁fed	-10.3846
stemme	-10.3849
bryter	-10.3849
▁asteroide	-10.385
▁dekkvingene	-10.385
▁symfoni	-10.385
▁windows	-10.385
▁pakistan	-10.385
▁kombinasjon	-10.385
▁radikal	-10.385
▁nicola	-10.385
▁utseende	-10.3851
▁kobber	-10.3851
▁vindu	-10.3851
▁rolf	-10.3851
▁batteri	-10.3851
konvensjon	-10.3852
▁play	-10.3853
mission	-10.386
▁soldat	-10.3861
▁diplomat	-10.3862
▁kristiania	-10.3866
▁1600	-10.3869
▁deltaker	-10.3876
▁inngikk	-10.3877
▁trond	-10.3885
▁pensjon	-10.3885
▁agder	-10.389
serie	-10.3899
▁kjøtt	-10.3905
▁konsept	-10.3908
bury	-10.3917
▁boy	-10.3927
▁junior	-10.3943
▁aar	-10.3965
▁kraftverket	-10.3974
lock	-10.3982
0	-10.3987
▁penger	-10.399
▁raf	-10.4014
instrument	-10.4026
akademi	-10.4029
▁washington	-10.4032
▁1906	-10.4032
▁nøyaktig	-10.4032
▁nemlig	-10.4032
▁kommunal	-10.4032
▁kristiansand	-10.4032
tittel	-10.4033
▁sara	-10.4033
▁beholdt	-10.4034
ressurs	-10.4034
▁arbeiderpartiet	-10.4035
▁programleder	-10.4035
▁romsdal	-10.4036
▁trenger	-10.4037
▁tegninger	-10.4038
▁filip	-10.4039
▁hovedkontor	-10.4039
▁programmer	-10.4043
▁føl	-10.4044
▁antikken	-10.4048
▁lisens	-10.405
▁anlagt	-10.4051
▁munk	-10.4066
▁inndeling	-10.4069
strup	-10.4076
▁elite	-10.4103
▁bell	-10.411
▁utøvere	-10.4118
▁road	-10.4123
▁ansvaret	-10.4129
▁styrkene	-10.4129
▁etnisk	-10.4139
▁stamme	-10.4145
perioden	-10.4156
botn	-10.4165
▁rosa	-10.4191
skrevet	-10.4202
▁wolf	-10.4203
▁bau	-10.4206
kommunikasjon	-10.4208
▁dub	-10.421
forvaltning	-10.4212
ruten	-10.4214
▁elisabeth	-10.4217
▁involvert	-10.4217
▁maksimal	-10.4217
▁tilknytning	-10.4217
▁flaggbærer	-10.4217
▁vesentlig	-10.4217
mønster	-10.4217
▁belgia	-10.4217
▁rogaland	-10.4217
▁ansikt	-10.4217
▁komponert	-10.4217
▁rektor	-10.4218
▁ombord	-10.4218
▁valuta	-10.4218
▁dokumentar	-10.4218
▁sølvmedalje	-10.4218
▁andré	-10.4218
▁skjul	-10.4218
▁serbisk	-10.4218
▁arendal	-10.4219
▁1934	-10.422
▁1916	-10.422
▁anklage	-10.422
▁divers	-10.422
▁1943	-10.4221
hjem	-10.4222
▁class	-10.4227
relatert	-10.4228
▁våt	-10.423
▁avholdt	-10.4231
▁dekket	-10.4234
▁revolusjon	-10.4235
stjerne	-10.4238
▁1000	-10.4239
▁good	-10.4241
▁street	-10.4242
▁1500	-10.4244
▁tvang	-10.4245
flåten	-10.425
▁elect	-10.4254
ifisert	-10.4261
areal	-10.4261
▁gli	-10.4267
▁unngå	-10.4276
▁praktisk	-10.4283
▁mcc	-10.429
▁nordover	-10.4293
bestemmelse	-10.4294
lignende	-10.4297
▁bære	-10.4304
▁innlede	-10.4319
sønn	-10.433
utgave	-10.4332
▁øygrupp	-10.4334
▁stabil	-10.4339
▁home	-10.435
▁henri	-10.4352
bringe	-10.4357
ollen	-10.4366
▁skuespill	-10.4378
▁molde	-10.4388
▁drap	-10.4392
▁frivillig	-10.4406
▁sachsen	-10.4406
▁nektet	-10.4406
▁debutalbum	-10.4406
▁strekningen	-10.4407
▁føderal	-10.4407
▁terreng	-10.4407
problem	-10.4407
temperatur	-10.4407
slått	-10.4408
kup	-10.4408
▁social	-10.4408
▁1929	-10.4408
▁konservative	-10.4408
▁1937	-10.4409
▁monark	-10.441
▁signert	-10.441
▁hensyn	-10.4416
jå	-10.4419
▁hve	-10.4421
▁kommunestyre	-10.4425
hydr	-10.4428
bukk	-10.4431
verv	-10.4445
▁stone	-10.4446
▁furu	-10.4448
▁persisk	-10.445
▁ernst	-10.4454
▁rau	-10.4487
tekst	-10.4487
▁medaljen	-10.4494
▁egyptisk	-10.4496
gass	-10.4503
amba	-10.4522
horn	-10.4525
▁islandsk	-10.4529
▁visse	-10.4534
lich	-10.4539
▁big	-10.4541
▁biografi	-10.4558
▁betale	-10.4564
▁mitt	-10.4592
▁oppmerksomhet	-10.4598
▁symptom	-10.4598
▁1926	-10.4598
▁tønsberg	-10.4598
▁vestfold	-10.4598
▁konstruert	-10.4598
▁yrkes	-10.4598
▁semifinale	-10.4598
▁kommersiell	-10.4598
▁betjene	-10.4598
▁bøkene	-10.4599
▁prinsesse	-10.46
▁unntatt	-10.46
▁foreslått	-10.4601
▁sjanger	-10.4602
▁sverre	-10.4602
hovedstad	-10.4603
▁røyk	-10.4605
▁fortellingen	-10.4608
utstyr	-10.4609
▁fremført	-10.461
▁brei	-10.461
▁sammenlagt	-10.4619
▁thom	-10.4628
besetning	-10.4629
▁arena	-10.4646
▁arab	-10.4648
ан	-10.4662
▁skall	-10.4682
burn	-10.4686
start	-10.4702
▁høst	-10.4705
▁spin	-10.4707
vokst	-10.475
▁tråd	-10.4771
zhi	-10.4778
▁grunnlov	-10.4782
▁bispe	-10.4784
stell	-10.4794
▁manuskript	-10.4794
▁midlertidig	-10.4794
▁münchen	-10.4794
▁observato	-10.4794
▁umiddelbar	-10.4794
▁argument	-10.4794
▁country	-10.4794
▁deutsche	-10.4794
▁monument	-10.4794
▁uvanlig	-10.4794
▁presentert	-10.4794
▁sentralbank	-10.4796
▁søndag	-10.4797
▁bensin	-10.4798
▁stiftelsen	-10.4798
▁jackson	-10.48
▁erfaring	-10.4801
skrive	-10.4803
wei	-10.4804
▁troms	-10.4813
▁armé	-10.482
▁billed	-10.4823
▁oppløst	-10.4824
▁johnson	-10.4833
▁baron	-10.4835
▁lykke	-10.4847
▁rig	-10.485
▁karakteristisk	-10.4851
▁stammen	-10.4858
festival	-10.4867
kredi	-10.487
▁statue	-10.4872
▁fiskeri	-10.4881
▁ess	-10.4885
dahl	-10.4896
▁tilfelle	-10.4919
▁plast	-10.4928
effekt	-10.4932
▁life	-10.4933
▁opplag	-10.4936
snegl	-10.4965
ografisk	-10.498
▁aleksander	-10.4994
▁hensikt	-10.4994
▁permanent	-10.4994
▁øyeblikk	-10.4994
▁antarktis	-10.4994
▁kvadrat	-10.4994
▁assistent	-10.4994
▁opplysning	-10.4995
▁embets	-10.4995
▁central	-10.4995
▁eksistert	-10.4995
▁forkortet	-10.4995
▁1923	-10.4997
▁tallrike	-10.4997
▁næringsliv	-10.4997
▁debatt	-10.4997
▁utgivelsen	-10.5002
▁skygge	-10.5002
▁knud	-10.5004
tavle	-10.5007
▁beskyttelse	-10.5007
▁stå	-10.5009
▁hellas	-10.502
fartøy	-10.5051
▁antatt	-10.5055
▁vennskap	-10.5065
▁gjø	-10.507
profil	-10.5074
▁chile	-10.5075
▁mesterskap	-10.508
▁rav	-10.5092
▁oppfatte	-10.5097
▁kommunistisk	-10.5101
▁øvrig	-10.5102
▁mannlig	-10.5107
▁kino	-10.5109
verden	-10.5141
seil	-10.5151
vatn	-10.5162
▁hamar	-10.5172
▁svalbard	-10.5198
▁artilleri	-10.5198
▁igjennom	-10.5198
▁hindu	-10.5198
▁separat	-10.5199
ев	-10.5201
▁disney	-10.5201
▁samuel	-10.5201
▁programvare	-10.5203
▁myndigheter	-10.5204
▁turbin	-10.5205
▁riktig	-10.5208
▁fredrikstad	-10.5208
▁beslutte	-10.5209
▁spesifik	-10.5211
▁german	-10.5214
▁jacobsen	-10.5217
▁xu	-10.5218
▁fagforening	-10.5218
▁høyesterett	-10.522
▁puppe	-10.5229
støp	-10.5237
▁utbygging	-10.524
▁synlig	-10.5242
▁audi	-10.5243
▁etterpå	-10.5243
▁nevne	-10.5252
lidelse	-10.5262
møll	-10.5272
▁foreldrene	-10.5272
▁jeff	-10.5279
▁from	-10.5282
lønn	-10.5303
▁øverst	-10.5315
fell	-10.5319
▁lukke	-10.5321
▁hop	-10.5323
odden	-10.5323
▁kali	-10.5342
harmoni	-10.5361
▁opptrådt	-10.5395
løytnant	-10.5407
▁forhindre	-10.5407
▁jerusalem	-10.5407
▁lørdag	-10.5407
▁giovann	-10.5407
▁hebraisk	-10.5407
▁utspring	-10.5407
▁tvilling	-10.5407
▁adolf	-10.5407
▁church	-10.5407
▁ungarn	-10.5407
▁reklame	-10.5407
▁ungarsk	-10.5407
▁negativ	-10.5407
▁partner	-10.5408
▁stefan	-10.5408
▁tropisk	-10.5409
▁inndelt	-10.541
▁jurist	-10.541
▁republikk	-10.5412
▁forvaltnings	-10.5414
▁skarp	-10.5415
▁antonio	-10.5415
grensen	-10.5416
▁kommunikasjons	-10.5417
▁house	-10.5418
fasade	-10.5419
▁uavhengighet	-10.542
▁bedriften	-10.542
▁tolke	-10.5423
▁sveitsisk	-10.5429
angrep	-10.5431
▁prix	-10.5439
▁solberg	-10.5441
styring	-10.5448
▁mørkere	-10.5456
krystall	-10.5463
anses	-10.5465
▁kommunist	-10.5471
▁silke	-10.5488
▁vev	-10.5498
▁katedral	-10.5505
▁laks	-10.5524
bød	-10.5546
▁colle	-10.5548
▁finale	-10.556
bæk	-10.556
▁nerv	-10.5572
yuan	-10.5579
▁kub	-10.5582
næs	-10.5595
▁cuba	-10.5602
▁900	-10.5606
▁bevege	-10.5607
kledd	-10.5609
▁infanteri	-10.5619
▁milliarder	-10.5619
▁anmelder	-10.5619
▁risiko	-10.5619
▁individuell	-10.5619
veksling	-10.5619
▁fjernsyns	-10.562
▁skildre	-10.562
▁patriark	-10.5621
▁kristin	-10.5622
▁overgangs	-10.5627
▁åpenbar	-10.5629
▁økende	-10.5629
▁skytter	-10.564
▁piano	-10.5642
▁young	-10.5649
teater	-10.565
▁svein	-10.5653
rekord	-10.5654
▁tyskerne	-10.5659
gods	-10.5666
trådte	-10.5696
▁evig	-10.5699
▁strak	-10.5718
▁erstatte	-10.5729
tilstand	-10.5748
lä	-10.5754
▁innerst	-10.5763
▁700	-10.5816
▁250	-10.5821
▁eksemplar	-10.5837
▁naturreservat	-10.5837
▁engasjert	-10.5837
▁juridisk	-10.5837
▁kollektiv	-10.5837
traktaten	-10.5837
▁tabellen	-10.5837
bataljon	-10.5837
▁fiktiv	-10.5837
▁hyppig	-10.5837
▁forkortelse	-10.5838
▁hedmark	-10.584
▁generell	-10.584
kampanje	-10.5841
▁fuktig	-10.5842
▁tropper	-10.5842
▁skøyte	-10.5846
kjønn	-10.5848
liknende	-10.5851
▁pedersen	-10.5855
kvad	-10.5856
▁gjennombrudd	-10.5858
▁talent	-10.586
▁håndverk	-10.586
filosofi	-10.5861
▁utenom	-10.5865
▁herfra	-10.5869
▁søyle	-10.5869
brigade	-10.5871
▁aksel	-10.5873
▁slette	-10.5882
▁estland	-10.5886
▁samtlige	-10.5903
▁endring	-10.5907
▁arkeolog	-10.5913
▁dominert	-10.5935
▁dramatisk	-10.596
▁vitne	-10.5963
registre	-10.5979
nytt	-10.598
▁verdensmester	-10.5993
utvikle	-10.5998
▁1902	-10.6059
▁1903	-10.6059
▁ødelagt	-10.6059
▁utslipp	-10.6059
▁vilhelm	-10.6059
▁frykt	-10.6059
▁referanse	-10.6059
▁fjellkjede	-10.6059
▁seinere	-10.606
tveit	-10.6061
▁konsekvens	-10.6061
▁godkjent	-10.6062
vang	-10.6067
itsj	-10.6072
▁personlighet	-10.6079
▁1899	-10.6082
vík	-10.6087
▁operere	-10.609
▁oval	-10.6091
▁morten	-10.6094
utvalget	-10.6095
▁preg	-10.61
▁statsråd	-10.6101
▁1850	-10.6106
▁christiania	-10.6107
▁ideal	-10.6109
▁velger	-10.6117
syklus	-10.612
▁wales	-10.6125
automatisk	-10.6125
bunn	-10.6137
▁glad	-10.6139
▁reserve	-10.6145
pakk	-10.6155
▁oversette	-10.6157
▁kortere	-10.6159
▁departement	-10.6161
▁barokk	-10.6163
▁nazi	-10.6165
fattet	-10.6174
▁bjørk	-10.618
▁oppleve	-10.6193
▁server	-10.6207
løv	-10.6209
▁svan	-10.6211
▁beskrivelse	-10.6214
▁wol	-10.6245
kammer	-10.6261
gjørelse	-10.6284
▁elizabeth	-10.6286
▁færøysk	-10.6286
▁hovedkvarter	-10.6286
▁ukrainsk	-10.6286
▁konstitusjon	-10.6286
▁renessanse	-10.6286
▁1901	-10.6286
▁tyrkisk	-10.6286
▁sophie	-10.6286
▁evangeli	-10.6286
▁innbyggerne	-10.6286
▁forenklet	-10.6286
▁fiolin	-10.6287
▁opposisjon	-10.6288
▁oppdagelse	-10.6288
nnebærer	-10.6288
▁opplevd	-10.629
vurder	-10.6292
▁kunstnerisk	-10.6292
▁2018	-10.6292
▁regjere	-10.6296
skade	-10.6296
▁invest	-10.6301
▁byggingen	-10.6301
▁forandre	-10.6302
▁klatre	-10.6305
fallende	-10.6305
konsert	-10.6309
▁institute	-10.6311
▁1890	-10.6314
▁1880	-10.6318
posisjon	-10.6322
▁romerne	-10.6325
ingeniør	-10.6327
regjering	-10.6328
sosialist	-10.633
▁action	-10.633
▁who	-10.635
▁million	-10.6353
lokale	-10.6361
brand	-10.6372
▁variert	-10.6378
utenriksminister	-10.6393
▁dys	-10.6405
▁frei	-10.6406
▁parallell	-10.6424
▁heid	-10.6433
edderkopper	-10.6436
▁jente	-10.6454
▁idrett	-10.6463
slekt	-10.6464
▁call	-10.6484
▁bratt	-10.6492
investering	-10.651
▁favoritt	-10.6519
▁progressiv	-10.6519
▁trommeslager	-10.6519
▁definisjon	-10.6519
▁preussen	-10.6519
▁hendelser	-10.6519
▁prince	-10.6519
▁trygg	-10.6519
▁canadisk	-10.6519
▁slippe	-10.6519
▁nymfe	-10.6519
▁hendelsen	-10.6519
▁hindre	-10.6519
▁innlemme	-10.652
▁utforming	-10.652
▁christensen	-10.652
▁overraske	-10.652
materiell	-10.6521
▁hjørne	-10.6521
▁flytende	-10.6522
▁tørke	-10.6522
▁betong	-10.6522
▁fremstille	-10.6524
▁kongsberg	-10.6526
▁pierre	-10.6528
schaft	-10.6531
▁sound	-10.6538
▁hvile	-10.6538
▁kolle	-10.6541
▁1894	-10.6541
betaling	-10.6543
▁1895	-10.6545
▁1870	-10.6549
kritisk	-10.6551
▁jernbanestasjon	-10.6551
▁grund	-10.6565
økonomi	-10.6567
▁brent	-10.6586
melding	-10.6608
▁demokrati	-10.6632
▁wang	-10.6647
register	-10.6666
utstillingen	-10.6671
▁utarbeide	-10.6699
forståelse	-10.6701
sirkel	-10.6735
stokk	-10.6738
ко	-10.6753
▁afghanistan	-10.6757
▁association	-10.6757
▁corporation	-10.6757
▁orchestra	-10.6757
▁kostnad	-10.6757
▁okkupasjon	-10.6757
▁hordaland	-10.6757
▁utbredelse	-10.6757
▁stråling	-10.6757
▁østfold	-10.6757
▁1892	-10.6757
▁unesco	-10.6757
▁avhandling	-10.6757
▁thailand	-10.6757
orientert	-10.6757
▁kjørt	-10.6758
▁opptrer	-10.676
▁gravlagt	-10.6762
▁stadium	-10.6763
▁hydrogen	-10.6764
▁møre	-10.6765
▁bortsett	-10.6766
▁alpin	-10.6768
▁mektig	-10.6771
▁mandat	-10.6772
▁nederlag	-10.6772
▁alpinist	-10.6774
▁1893	-10.6778
▁tredjeplass	-10.678
▁1888	-10.678
▁chris	-10.6782
▁forvalte	-10.6783
▁eugen	-10.6783
▁etappe	-10.6786
▁ddr	-10.6792
fløy	-10.6811
▁egil	-10.6812
▁panser	-10.6813
aktivitet	-10.6822
▁sovjet	-10.6864
▁kunde	-10.6888
▁kirkegård	-10.6952
regning	-10.6959
▁markere	-10.6979
▁arrestert	-10.7001
▁society	-10.7001
▁matematikk	-10.7001
▁manchester	-10.7001
▁respekt	-10.7001
▁komponent	-10.7001
▁1891	-10.7001
▁margaret	-10.7001
presentasjon	-10.7001
▁eksistens	-10.7001
▁senior	-10.7001
høvding	-10.7001
▁bærum	-10.7001
▁regulere	-10.7002
▁josé	-10.7003
▁1931	-10.7004
▁gullmedalje	-10.7004
▁møller	-10.7005
▁smelte	-10.7008
▁vakre	-10.7013
▁bjerk	-10.7015
▁diesel	-10.7016
▁onkel	-10.7018
▁1884	-10.7023
▁light	-10.7032
domstol	-10.705
offiser	-10.7059
design	-10.7066
sykdom	-10.7067
▁fortalt	-10.7077
▁beholde	-10.7083
arafa	-10.7086
▁søkt	-10.7092
▁francis	-10.7109
▁fusjon	-10.7129
gitar	-10.7144
▁prakt	-10.7171
▁arkeologisk	-10.7177
politi	-10.7193
ра	-10.7213
fortelling	-10.724
▁forøvrig	-10.7251
▁keyboard	-10.7251
▁lillehammer	-10.7251
▁gabriel	-10.7251
disiplin	-10.7251
▁amatør	-10.7251
▁verdensarv	-10.7251
▁sprint	-10.7251
▁oberst	-10.7252
▁invasjon	-10.7252
ст	-10.7253
▁hørte	-10.7253
worth	-10.7253
▁import	-10.7254
▁francisco	-10.7254
▁avledet	-10.7255
▁gratis	-10.7256
▁nyhets	-10.7257
▁ferje	-10.7266
▁rykte	-10.727
▁studere	-10.7274
▁1865	-10.7274
▁utenlands	-10.7276
▁meteor	-10.7286
metoden	-10.7292
karriere	-10.7313
kandidat	-10.7316
utdanning	-10.7316
provins	-10.7317
▁smak	-10.732
grønn	-10.7329
▁verksted	-10.7336
▁pont	-10.735
▁sosialistisk	-10.7368
▁journal	-10.74
▁neg	-10.7403
kjerne	-10.7408
▁prinsipp	-10.7413
▁flåte	-10.7463
▁victor	-10.7477
▁bøye	-10.7487
▁estisk	-10.7499
redaksjon	-10.7504
givende	-10.7505
▁kronprins	-10.7507
▁angelsaksisk	-10.7507
▁dirigent	-10.7507
▁jomfru	-10.7507
▁opphørte	-10.7507
▁varaordfører	-10.7507
▁virginia	-10.7507
▁forveksle	-10.7507
▁portugal	-10.7507
▁frigjøring	-10.7507
▁lyktes	-10.7507
▁cappelen	-10.7507
nøytral	-10.7507
▁faktor	-10.7507
teatret	-10.7508
▁halvpart	-10.7508
▁fjordane	-10.7509
▁skutt	-10.7509
▁myndighetene	-10.751
▁poesi	-10.7512
▁tennis	-10.7513
▁vannkraftverk	-10.7514
▁afrikansk	-10.7516
▁ordnet	-10.7516
▁holdning	-10.752
▁betalt	-10.752
kvinne	-10.7527
▁tilsyne	-10.7533
▁koble	-10.7545
vall	-10.7566
▁benevn	-10.7568
hjelp	-10.7581
kurat	-10.7581
hvelv	-10.7597
▁børste	-10.7632
▁klippe	-10.7646
▁bjør	-10.7647
rennet	-10.7661
▁fungere	-10.7683
▁forstå	-10.7693
ière	-10.7733
ault	-10.7747
▁undersøke	-10.775
rettighetene	-10.777
▁hongkong	-10.777
▁inspirasjon	-10.777
▁ludwig	-10.777
▁tyrkia	-10.777
▁vedlikehold	-10.777
budsjett	-10.777
lokomotiv	-10.777
▁utelukke	-10.777
▁gregor	-10.7771
▁heavy	-10.7771
▁henrettet	-10.7771
▁systematikk	-10.7771
▁lewis	-10.7771
▁moderat	-10.7771
▁belgisk	-10.7771
▁beordre	-10.7772
▁avdød	-10.7772
▁dream	-10.7772
▁forberede	-10.7773
▁grevskapet	-10.7773
▁etterkommer	-10.7773
▁leilighet	-10.7775
▁bedrifter	-10.7778
▁kontrollert	-10.7781
▁alex	-10.7786
▁skjøt	-10.7801
▁humor	-10.7807
▁drepe	-10.7825
europeisk	-10.785
åpning	-10.7856
nnom	-10.7918
tempelet	-10.792
foretak	-10.796
▁størst	-10.8016
▁colombia	-10.8041
▁kjønnsmodn	-10.8041
▁låtskriver	-10.8041
▁napoleon	-10.8041
▁oksygen	-10.8041
▁sjeldne	-10.8041
▁chicago	-10.8041
▁taylor	-10.8041
▁baptist	-10.8041
▁opptreden	-10.8041
▁selvmord	-10.8041
▁theodor	-10.8041
▁utsikt	-10.8041
▁splitt	-10.8041
▁flyktning	-10.8041
▁oppbevar	-10.8041
▁ytterkant	-10.8042
▁døpt	-10.8042
▁regelmessig	-10.8043
▁massiv	-10.8043
▁manager	-10.8044
▁generalsekretær	-10.8045
▁elleve	-10.8048
tolkning	-10.805
▁distanse	-10.805
▁flukt	-10.8051
oidea	-10.8057
knapp	-10.806
▁tjent	-10.8084
blikk	-10.8114
▁bakkropp	-10.8123
▁domkirke	-10.8124
kommando	-10.8127
orkester	-10.8127
historiker	-10.8127
arkitekt	-10.8128
tradisjon	-10.8129
sentral	-10.8132
▁aero	-10.8137
▁kaffe	-10.8138
radio	-10.815
▁organisme	-10.815
aften	-10.817
▁automat	-10.824
▁luci	-10.824
▁hjemmebane	-10.8251
blom	-10.8252
▁argentina	-10.8318
▁etiopia	-10.8318
▁1907	-10.8318
▁alminnelig	-10.8318
▁admiral	-10.8318
▁embeds	-10.8318
▁særskilt	-10.8318
▁stafett	-10.8318
▁identitet	-10.8318
▁testament	-10.8318
▁nynorsk	-10.8319
▁betydningsfull	-10.8319
▁invitert	-10.8319
▁kontinental	-10.8319
▁snorre	-10.8319
▁http	-10.8319
▁originaltittel	-10.8319
▁kritisert	-10.832
▁visepresident	-10.832
▁innviet	-10.832
▁senterpartiet	-10.832
mouth	-10.832
▁borgermester	-10.8321
katalog	-10.8322
▁sjette	-10.8325
▁nattfly	-10.8325
palasset	-10.8325
▁beslekte	-10.8325
▁trodde	-10.833
▁meldt	-10.8342
▁teorien	-10.8344
▁skuespillerinne	-10.8346
bjørg	-10.8393
president	-10.8413
teknologi	-10.8413
forstyrrelse	-10.8414
sentrum	-10.8415
debut	-10.8421
glans	-10.8437
signal	-10.8463
ramme	-10.8501
kål	-10.8508
▁kontrollere	-10.8556
▁frankfurt	-10.8604
▁pronotum	-10.8604
▁psykisk	-10.8604
▁basketball	-10.8604
▁könig	-10.8604
▁wergeland	-10.8604
▁buskerud	-10.8604
▁forgjenger	-10.8604
▁hospital	-10.8604
bransjen	-10.8604
▁tilskuere	-10.8604
▁overlevde	-10.8604
▁zealand	-10.8604
▁arsenal	-10.8604
▁ålesund	-10.8604
▁avgjørende	-10.8605
▁dåp	-10.8605
▁opprettelsen	-10.8605
▁forestillingen	-10.8605
▁organisere	-10.8605
▁stråle	-10.8605
▁kullkraftverk	-10.8606
▁datamaskin	-10.8606
▁verdensrekord	-10.8607
▁plateselskapet	-10.8607
▁1915	-10.8608
terapi	-10.8609
▁fylle	-10.8611
▁medførte	-10.8612
▁work	-10.8613
▁svømmer	-10.8614
▁reager	-10.8615
▁blank	-10.8618
▁europavei	-10.8628
ovitsj	-10.8635
▁patent	-10.8648
▁forvente	-10.8652
▁manuel	-10.8652
▁styremedlem	-10.866
▁ødelegge	-10.8668
▁ungdomsskole	-10.8669
advokat	-10.8707
litteratur	-10.8707
brann	-10.8713
▁snar	-10.8798
▁ligge	-10.8817
prefektur	-10.8897
▁fulgt	-10.8898
▁ambassadør	-10.8898
▁bryggeri	-10.8898
▁helsingfors	-10.8898
▁hollywood	-10.8898
▁indonesia	-10.8898
▁innstiftet	-10.8898
▁ortodoks	-10.8898
▁restaurering	-10.8898
▁babylon	-10.8898
▁buddhist	-10.8898
▁intervju	-10.8898
▁jesuitt	-10.8898
▁resultert	-10.8898
▁ukraina	-10.8898
▁yngste	-10.8898
ław	-10.8898
▁kavaleri	-10.8898
▁barnebarn	-10.8898
▁frimurer	-10.8898
▁forsvant	-10.8899
▁seksuell	-10.8899
▁energy	-10.8899
▁slapp	-10.8899
▁etablere	-10.8899
ensemble	-10.8899
▁utfordre	-10.8899
▁lingvist	-10.89
▁forklaring	-10.89
▁pianist	-10.89
▁business	-10.89
mekanisme	-10.8901
▁fortellinger	-10.8902
▁opprette	-10.8902
▁valgdelta	-10.8904
▁mannsnavn	-10.8907
▁interessert	-10.8907
▁smitte	-10.8911
cture	-10.8915
dekorasjon	-10.8916
▁ballett	-10.8924
▁tillatt	-10.8935
▁ligning	-10.8978
jørn	-10.8998
▁otta	-10.9021
instituttet	-10.9027
town	-10.9072
▁begynne	-10.9097
▁dynasti	-10.9121
▁sjakk	-10.9136
▁fundament	-10.9201
direktoratet	-10.9201
▁eurovision	-10.9201
▁fakultet	-10.9201
▁football	-10.9201
▁research	-10.9201
▁skihopper	-10.9201
▁uttrykt	-10.9201
▁venezia	-10.9201
▁benjamin	-10.9201
▁göteborg	-10.9201
▁propaganda	-10.9201
▁anslås	-10.9201
▁diskusjon	-10.9201
▁katolikk	-10.9201
betjent	-10.9202
▁aktuell	-10.9202
▁haakon	-10.9202
▁sosialdemokrat	-10.9204
kobling	-10.9205
▁komplett	-10.9205
▁presentere	-10.9208
▁advent	-10.9208
hampton	-10.9245
▁borgerkrig	-10.9245
▁medici	-10.929
dynastiet	-10.9323
frukt	-10.9323
transport	-10.9323
flagg	-10.9326
▁rangert	-10.9332
▁konsentrasjon	-10.947
eiro	-10.9479
krav	-10.9487
▁annonsert	-10.9514
▁bryllup	-10.9514
▁luxembourg	-10.9514
▁observasjon	-10.9514
▁rudolf	-10.9514
▁sluppet	-10.9514
▁sportsutøver	-10.9514
▁kapittel	-10.9514
▁sanskrit	-10.9514
▁gerhard	-10.9514
▁bronsealder	-10.9514
▁texas	-10.9514
▁rockeband	-10.9514
▁charlotte	-10.9514
▁kristelig	-10.9514
▁firenze	-10.9514
▁langrenn	-10.9514
▁bebodd	-10.9514
▁trondhjem	-10.9514
▁sektor	-10.9514
▁nepal	-10.9514
▁guinea	-10.9514
▁ntnu	-10.9515
▁mountain	-10.9515
▁trengte	-10.9515
▁innvalgt	-10.9515
▁veteran	-10.9515
▁kjennetegne	-10.9515
▁veksle	-10.9515
▁reichs	-10.9515
▁erstatning	-10.9516
▁what	-10.9516
▁titler	-10.9516
klarinett	-10.9516
▁essay	-10.9516
▁linux	-10.9517
▁nkp	-10.952
▁rifle	-10.9522
▁vurdert	-10.9525
▁variasjon	-10.9528
▁berømt	-10.9532
▁domstolen	-10.9533
seminar	-10.9536
kansler	-10.9536
▁drøm	-10.9537
▁nedtegne	-10.9538
▁ekstern	-10.9543
▁hylle	-10.9554
▁forbli	-10.959
▁slange	-10.9615
finalen	-10.9646
spektr	-10.9688
opplevelse	-10.9754
▁doktor	-10.9836
▁narkotika	-10.9836
▁petroleum	-10.9836
▁bulgarsk	-10.9836
▁françois	-10.9836
▁identifisert	-10.9836
▁liverpool	-10.9836
▁nøkkel	-10.9836
▁omdøpt	-10.9836
▁prestegjeld	-10.9836
▁satellitt	-10.9836
▁sogneprest	-10.9836
▁kommandør	-10.9836
▁ferdinand	-10.9836
▁jacque	-10.9836
▁jupiter	-10.9836
▁1872	-10.9836
▁gustaf	-10.9836
▁kommentar	-10.9837
▁benedikt	-10.9837
sammenslåing	-10.9837
▁bøndene	-10.9837
▁alexandr	-10.9837
▁josef	-10.9837
▁kalender	-10.9838
▁referert	-10.9839
▁claus	-10.9839
▁dvd	-10.9839
▁bbc	-10.984
▁bløt	-10.9842
▁genetisk	-10.985
enzym	-10.985
▁grep	-10.9885
ekspert	-10.9907
basseng	-10.9966
▁setning	-10.9978
medisin	-10.9978
redaktør	-10.9979
fogd	-11.0001
▁forstyrre	-11.0055
▁verneområde	-11.0067
▁ivareta	-11.0128
flokkurin	-11.017
▁douglas	-11.017
▁fremtredende	-11.017
▁illustrasjon	-11.017
▁konkurrert	-11.017
▁kroatia	-11.017
▁microsoft	-11.017
▁sarpsborg	-11.017
▁tusenårssted	-11.017
▁ferskvann	-11.017
▁innendørs	-11.017
▁stjørdal	-11.017
▁universal	-11.017
▁cæsar	-11.017
▁heidelberg	-11.017
▁invadert	-11.017
▁subjekt	-11.017
▁apotek	-11.017
▁1871	-11.017
▁bekjempe	-11.017
▁jamaica	-11.017
▁mount	-11.017
▁cecil	-11.017
▁petersburg	-11.017
▁fremtidig	-11.017
potensial	-11.017
▁bmw	-11.017
▁contest	-11.0171
▁respons	-11.0171
▁virtu	-11.0171
▁beskjed	-11.0171
▁prefekturet	-11.0171
konsernet	-11.0172
▁søvn	-11.0172
▁sosiologi	-11.0172
▁saturn	-11.0173
▁point	-11.0174
▁streik	-11.0178
▁spurt	-11.0182
forestillinger	-11.0186
syssel	-11.0206
bregne	-11.0222
bevegelse	-11.0237
▁america	-11.0287
bukten	-11.0291
revolusjonen	-11.0307
spørsmål	-11.0323
resultat	-11.0324
divisjon	-11.0324
komedie	-11.0324
kryss	-11.0339
misbruk	-11.05
inskripsjon	-11.0514
köping	-11.0514
▁arrangør	-11.0514
▁buddhisme	-11.0514
▁elefant	-11.0514
▁kontinuerlig	-11.0514
▁plutselig	-11.0514
▁skjønt	-11.0514
▁tsjekkoslovakia	-11.0514
▁aluminium	-11.0514
▁ammunisjon	-11.0514
kommanderende	-11.0515
▁koalisjon	-11.0515
▁division	-11.0515
▁innehaver	-11.0515
▁dresden	-11.0515
kontinent	-11.0515
grunnsstasjon	-11.0515
▁svekket	-11.0515
▁apollo	-11.0515
▁tilfeldig	-11.0515
▁grafikk	-11.0515
▁hovedpersonen	-11.0515
▁overordne	-11.0516
selskab	-11.0517
▁klinisk	-11.0518
▁oppfølger	-11.0518
▁space	-11.0519
▁tidevann	-11.0522
▁øvelsen	-11.0527
▁rytme	-11.0531
▁manglen	-11.0536
▁studert	-11.0569
nskspråklig	-11.057
▁ideologi	-11.0576
▁hekse	-11.0583
blomsterflue	-11.0594
▁hevn	-11.0612
fragment	-11.0617
▁omdanne	-11.0625
▁parallel	-11.0658
▁balanse	-11.0675
biskop	-11.0682
hertugdømmet	-11.0707
kirche	-11.0726
landeveissyklist	-11.0872
▁aftenposten	-11.0872
▁cambridge	-11.0872
▁distribusjon	-11.0872
▁konsentrert	-11.0872
▁lincoln	-11.0872
▁musikkvideo	-11.0872
▁pseudonym	-11.0872
▁resolusjon	-11.0872
▁salvador	-11.0872
▁sebastian	-11.0872
▁terrengsyklist	-11.0872
▁aleksandr	-11.0872
▁anbefale	-11.0872
▁kommandant	-11.0872
▁tilstrekkelig	-11.0872
▁universet	-11.0872
▁arbeidsgiver	-11.0872
▁universität	-11.0872
▁katarina	-11.0872
mønstre	-11.0872
▁avstemning	-11.0872
▁nanjing	-11.0872
▁muslimsk	-11.0872
▁people	-11.0872
▁grün	-11.0872
▁mikael	-11.0872
▁krydder	-11.0872
▁kontrast	-11.0872
▁zhang	-11.0872
▁konsesjon	-11.0872
▁utfordring	-11.0872
▁registrering	-11.0872
begrensning	-11.0872
▁fantasi	-11.0873
▁protein	-11.0873
▁finansiert	-11.0873
▁osmansk	-11.0873
▁støv	-11.0874
▁utpekt	-11.0875
▁adrian	-11.0875
▁verdslig	-11.0879
elektronikk	-11.0879
▁spyd	-11.0882
▁earl	-11.0893
lovgivning	-11.0929
onomi	-11.0947
margin	-11.0983
kloster	-11.1053
klipp	-11.1066
▁minutt	-11.1071
▁academy	-11.1242
▁aserbajdsjan	-11.1242
▁beliggenhet	-11.1242
▁bulgaria	-11.1242
▁foundation	-11.1242
▁identifisere	-11.1242
▁interessant	-11.1242
▁memorial	-11.1242
▁observert	-11.1242
▁påbegynt	-11.1242
▁technology	-11.1242
▁vellykket	-11.1242
ingsrepresentant	-11.1242
▁guddommelig	-11.1242
▁sykepleier	-11.1242
▁utendørs	-11.1242
▁primitiv	-11.1242
▁rasmussen	-11.1242
▁utdødd	-11.1242
▁vertikal	-11.1242
▁gælisk	-11.1242
▁psykologisk	-11.1242
▁syndrom	-11.1242
▁litauen	-11.1242
▁miguel	-11.1242
▁bystatus	-11.1242
▁hamilton	-11.1242
▁haugesund	-11.1242
konservator	-11.1242
▁føydal	-11.1242
▁köln	-11.1242
▁protestantisk	-11.1242
▁indikerer	-11.1242
▁autoritet	-11.1242
▁fødselsår	-11.1242
anmeldelse	-11.1242
▁ohio	-11.1242
▁gyllen	-11.1243
▁skåne	-11.1243
▁skjebne	-11.1243
▁hjelm	-11.1243
▁underholdning	-11.1243
▁tyngde	-11.1243
▁castle	-11.1244
▁monroe	-11.1244
▁befal	-11.1249
▁hawk	-11.1255
▁tvunge	-11.1257
▁haiti	-11.1268
▁åndelig	-11.1273
hytta	-11.1274
artikkel	-11.1294
gruppa	-11.1316
abilitet	-11.1415
revolusjonære	-11.1432
fotograf	-11.1451
▁pleie	-11.1464
▁skanse	-11.1541
bispedømme	-11.1546
asiatisk	-11.1565
kapell	-11.1569
▁akseptert	-11.1627
▁antwerpen	-11.1627
▁argentinsk	-11.1627
▁assosiert	-11.1627
▁guangdong	-11.1627
▁illustrert	-11.1627
▁innspilt	-11.1627
▁langrennsløper	-11.1627
▁løpebiller	-11.1627
▁massachusetts	-11.1627
▁mccartney	-11.1627
▁skandinavisk	-11.1627
▁vladimir	-11.1627
▁matthew	-11.1627
▁oransje	-11.1627
▁billboard	-11.1627
▁nitrogen	-11.1627
▁pattedyr	-11.1627
▁abraham	-11.1627
▁misjonær	-11.1627
▁nobelpris	-11.1627
▁foreløpig	-11.1627
▁vitamin	-11.1627
▁kristoffer	-11.1627
▁diskutert	-11.1627
▁forvandling	-11.1627
▁regulert	-11.1627
▁terminal	-11.1627
▁skrekk	-11.1627
▁lokalavis	-11.1627
▁begravet	-11.1627
leverandør	-11.1627
▁sandefjord	-11.1627
▁utgravning	-11.1627
▁skikkelse	-11.1627
▁bård	-11.1628
▁walisisk	-11.1628
▁diamant	-11.1628
▁anatol	-11.1629
▁korrekt	-11.1629
▁nigeria	-11.163
▁axel	-11.1631
▁rakett	-11.1631
nominasjon	-11.1632
kirurg	-11.1665
pølse	-11.1679
funnet	-11.174
count	-11.1757
bourg	-11.179
modus	-11.1822
konstruksjon	-11.1835
papir	-11.1836
begrep	-11.1836
kvalitet	-11.1837
▁kronologi	-11.1947
medlemmer	-11.1987
medlemmene	-11.2017
konservativ	-11.2021
