<unk>	0
<s>	0
</s>	0
.	-3.18688
s	-3.39471
e	-3.54502
▁	-3.83406
▁i	-3.89194
t	-4.0265
▁og	-4.04913
er	-4.07533
en	-4.09466
r	-4.56495
▁er	-4.5775
▁av	-4.63896
n	-4.79668
▁en	-4.90323
▁for	-4.93423
et	-4.95754
▁som	-4.99621
▁til	-5.05239
a	-5.13649
▁på	-5.15098
▁med	-5.17234
▁den	-5.41156
▁var	-5.457
▁de	-5.50937
▁ble	-5.53931
i	-5.60637
ene	-5.61579
▁fra	-5.6216
▁det	-5.67983
d	-5.68004
▁har	-5.70643
o	-5.71942
k	-5.77355
▁et	-5.7904
ne	-5.81656
g	-5.87612
y	-5.90146
▁han	-5.93411
▁å	-5.98797
m	-6.02961
l	-6.11034
de	-6.125
▁ved	-6.13139
te	-6.14295
▁også	-6.28241
re	-6.28935
f	-6.29829
p	-6.35854
ing	-6.36396
▁om	-6.38371
c	-6.40451
in	-6.41325
▁ut	-6.41954
▁s	-6.41993
▁at	-6.42069
▁eller	-6.42578
v	-6.45294
▁under	-6.45709
b	-6.4796
▁etter	-6.48712
u	-6.5159
h	-6.55098
▁kan	-6.55387
es	-6.56129
▁be	-6.57585
▁to	-6.58317
us	-6.60417
an	-6.62536
▁over	-6.63233
le	-6.63989
▁18	-6.663
▁opp	-6.66702
▁a	-6.66998
is	-6.72162
▁inn	-6.74277
na	-6.75206
al	-6.75626
ter	-6.78682
sk	-6.80043
on	-6.81025
▁men	-6.81098
▁the	-6.81293
▁da	-6.81895
ar	-6.81918
ia	-6.86428
▁m	-6.88789
z	-6.88838
▁f	-6.88874
la	-6.8985
▁andre	-6.91555
▁hadde	-6.92037
▁seg	-6.93775
ende	-6.98831
w	-6.99354
or	-7.00361
▁mellom	-7.00385
▁ha	-7.00454
ri	-7.02767
j	-7.04376
▁mot	-7.04595
ur	-7.04894
ta	-7.05275
▁d	-7.05508
ke	-7.05982
▁sin	-7.0599
▁u	-7.06887
▁ikke	-7.07012
▁ligger	-7.07051
▁la	-7.07442
lig	-7.07744
um	-7.07822
land	-7.08021
▁tre	-7.0841
ch	-7.09416
ma	-7.09558
▁b	-7.10306
ng	-7.11715
as	-7.12225
▁p	-7.12327
▁født	-7.1375
el	-7.1458
li	-7.14978
▁re	-7.16558
ens	-7.16734
▁hans	-7.16745
▁1	-7.18369
▁se	-7.2124
▁blant	-7.21881
▁k	-7.21943
x	-7.21989
▁an	-7.22897
ø	-7.23053
▁man	-7.24159
▁pi	-7.2512
▁h	-7.26264
isk	-7.26733
é	-7.26853
den	-7.27601
ck	-7.27704
▁dette	-7.2816
▁gjennom	-7.28982
da	-7.30384
▁of	-7.30455
ske	-7.30921
▁g	-7.30922
ler	-7.32022
di	-7.32229
ver	-7.32545
▁sammen	-7.33331
▁første	-7.33775
ra	-7.34358
▁hun	-7.345
il	-7.34646
nde	-7.35494
▁her	-7.35962
▁der	-7.36048
▁nord	-7.36378
▁sa	-7.37341
▁ca	-7.3854
▁flere	-7.38872
iske	-7.39029
kk	-7.3908
▁al	-7.39564
▁2	-7.40265
▁le	-7.41415
id	-7.41569
bo	-7.41607
ro	-7.41974
▁17	-7.42771
ning	-7.43603
▁fikk	-7.43992
der	-7.44243
ka	-7.44723
▁c	-7.44835
os	-7.45001
for	-7.45181
nes	-7.45597
ul	-7.45744
▁denne	-7.45962
lo	-7.46776
ig	-7.47331
▁hoved	-7.47427
ger	-7.48176
pp	-7.48199
ner	-7.50506
▁bo	-7.5064
▁kom	-7.51057
▁ro	-7.5108
dal	-7.51083
be	-7.51793
ad	-7.5202
▁16	-7.52471
▁stor	-7.52662
▁3	-7.53374
ut	-7.53549
▁in	-7.53662
ol	-7.53702
▁l	-7.53883
ga	-7.54255
th	-7.55125
ton	-7.55194
son	-7.55201
▁li	-7.55799
stad	-7.56127
it	-7.56881
ge	-7.57141
ce	-7.57173
▁he	-7.57455
▁w	-7.57635
▁by	-7.57673
me	-7.57787
je	-7.58257
▁blir	-7.58377
ic	-7.58392
▁tidligere	-7.58808
ja	-7.59253
▁hvor	-7.59531
▁n	-7.59685
▁del	-7.59718
▁ny	-7.6045
▁kommune	-7.60804
ve	-7.60932
▁vi	-7.61303
at	-7.61618
▁ra	-7.61655
▁ni	-7.62226
▁alle	-7.63054
▁v	-7.633
ker	-7.63335
to	-7.63452
▁kon	-7.64415
▁år	-7.64778
▁co	-7.64809
▁ka	-7.65058
▁t	-7.65801
va	-7.65813
▁di	-7.6656
om	-7.66577
pe	-7.6681
gen	-7.66973
ha	-7.67298
▁na	-7.6781
▁disse	-7.6805
kt	-7.69826
▁mo	-7.70625
▁annet	-7.70881
go	-7.71453
mi	-7.7166
▁and	-7.7166
▁ar	-7.71712
ell	-7.71832
▁st	-7.71941
▁sør	-7.72325
erte	-7.72763
ik	-7.72843
▁r	-7.72867
▁5	-7.72868
ba	-7.72977
mo	-7.72992
mann	-7.73058
ist	-7.73179
▁si	-7.73286
▁mer	-7.73373
vis	-7.73438
▁j	-7.73758
▁15	-7.7385
▁norsk	-7.73975
skap	-7.74254
▁du	-7.74542
▁kinesisk	-7.74913
▁per	-7.74931
man	-7.75021
erne	-7.75096
lige	-7.75351
▁ga	-7.75982
by	-7.76593
▁før	-7.76706
mp	-7.76753
▁4	-7.76805
ment	-7.76806
si	-7.7682
▁død	-7.77283
▁ti	-7.77794
vi	-7.78244
▁mens	-7.7833
å	-7.7878
▁byen	-7.78791
▁ho	-7.78945
ed	-7.7923
▁pa	-7.79635
ko	-7.80327
▁så	-7.80406
ff	-7.80981
▁ofte	-7.81088
ste	-7.81435
ry	-7.81452
▁ta	-7.81595
▁no	-7.82255
▁sitt	-7.82357
▁mange	-7.8242
else	-7.82754
▁sp	-7.83263
▁10	-7.83322
▁fri	-7.83373
▁7	-7.83555
mer	-7.8356
▁navnet	-7.83684
▁bu	-7.8375
ling	-7.8388
▁fa	-7.84051
▁samt	-7.84112
▁ba	-7.84639
▁ned	-7.84685
▁land	-7.84982
berg	-7.85019
av	-7.85107
▁senere	-7.8512
var	-7.85793
▁vest	-7.86013
øy	-7.86071
▁el	-7.86271
▁ma	-7.86625
▁do	-7.86823
am	-7.871
ll	-7.8751
co	-7.88065
▁ri	-7.88904
▁bar	-7.89273
▁noen	-7.89331
▁12	-7.89419
▁være	-7.89604
▁går	-7.89985
▁lo	-7.90357
▁mar	-7.90712
do	-7.91287
del	-7.91316
á	-7.91357
▁o	-7.91395
▁kalt	-7.9189
▁øst	-7.92283
▁frem	-7.92872
▁navn	-7.93012
ering	-7.93626
▁as	-7.93642
▁or	-7.93759
ør	-7.94037
▁kjent	-7.94178
▁su	-7.94194
▁store	-7.94297
▁mest	-7.9444
▁vil	-7.94583
sjon	-7.94761
▁lag	-7.95076
op	-7.95257
▁fly	-7.95345
ie	-7.95425
æ	-7.95758
het	-7.95847
ster	-7.95854
ov	-7.95935
ant	-7.97261
im	-7.98412
ring	-7.98632
io	-7.98702
▁ei	-7.98703
▁bi	-7.98794
▁nå	-7.99561
nd	-7.99582
▁siden	-7.99754
2	-7.99835
▁finnes	-7.99856
tter	-7.99907
▁y	-8.00115
3	-8.00528
▁rundt	-8.00832
gi	-8.01006
ti	-8.01044
▁ko	-8.01325
bi	-8.01358
▁pro	-8.01429
od	-8.02064
lin	-8.02076
▁ham	-8.02267
ir	-8.02326
▁jo	-8.02328
▁kr	-8.02623
asjon	-8.03028
▁skal	-8.03091
▁po	-8.03259
ær	-8.03494
▁kirke	-8.04068
▁mor	-8.04223
▁sine	-8.04393
▁gi	-8.04467
bu	-8.04586
▁hos	-8.04836
▁bestå	-8.05086
no	-8.0566
itt	-8.05749
au	-8.05881
▁te	-8.05951
▁lu	-8.06239
▁me	-8.06242
opp	-8.06357
ö	-8.06766
▁6	-8.06906
▁båd	-8.06943
ly	-8.0696
▁selv	-8.0708
sh	-8.07461
ni	-8.0749
▁kl	-8.07517
over	-8.07857
per	-8.08018
rett	-8.08107
pa	-8.0821
les	-8.08331
▁dag	-8.08716
gu	-8.08762
▁8	-8.08875
▁14	-8.09166
un	-8.09339
▁far	-8.10028
▁11	-8.10087
ci	-8.10101
ion	-8.10225
▁am	-8.10258
ang	-8.10477
▁so	-8.10748
ca	-8.10882
men	-8.11211
▁tid	-8.11437
po	-8.1158
ok	-8.11692
▁sch	-8.11722
▁grunn	-8.12162
▁bak	-8.12307
ven	-8.12542
ek	-8.13188
ü	-8.1337
gang	-8.13525
▁hver	-8.1363
tor	-8.13896
ho	-8.14133
▁hu	-8.14655
ina	-8.14915
dd	-8.1499
hold	-8.15079
▁tor	-8.15141
▁fram	-8.15214
vik	-8.15342
▁min	-8.15555
år	-8.15766
▁9	-8.15966
▁vann	-8.15977
▁ju	-8.16843
▁ol	-8.17251
▁13	-8.1727
▁største	-8.17371
▁fire	-8.17376
lag	-8.1741
▁kalles	-8.18164
lu	-8.18394
▁ab	-8.18819
▁gjen	-8.19179
▁con	-8.19585
ium	-8.19673
▁sam	-8.19685
ag	-8.19733
▁samme	-8.19901
▁car	-8.19904
▁john	-8.20049
▁san	-8.20401
ä	-8.2052
▁norge	-8.20756
ber	-8.20788
▁wa	-8.20856
1	-8.21023
sta	-8.21992
ard	-8.2227
itet	-8.22388
▁lang	-8.22458
bar	-8.22549
sted	-8.22667
mb	-8.22838
tra	-8.23342
kel	-8.23971
elle	-8.24053
dre	-8.24129
yl	-8.24447
▁pe	-8.24704
▁film	-8.24707
▁sønn	-8.2499
▁norske	-8.24995
ud	-8.25225
▁kina	-8.25391
▁russisk	-8.25393
ak	-8.25401
▁ru	-8.25556
ron	-8.25662
ot	-8.25857
▁bra	-8.25874
▁ja	-8.26007
▁km	-8.26031
▁musikk	-8.2625
▁par	-8.26283
▁vært	-8.26366
▁provinsen	-8.2641
▁mål	-8.26514
▁ad	-8.26578
▁vant	-8.27055
▁tri	-8.27133
stand	-8.27177
▁mai	-8.27466
▁0	-8.28272
gg	-8.28517
ans	-8.28549
▁tallet	-8.28571
ong	-8.28707
▁sol	-8.28721
ier	-8.28803
▁fo	-8.289
▁slik	-8.28987
▁gu	-8.29286
ft	-8.29544
mme	-8.29681
▁langs	-8.30084
iv	-8.30154
sel	-8.30328
▁enn	-8.30339
▁skulle	-8.30376
min	-8.30415
▁blitt	-8.30639
▁tra	-8.30705
í	-8.30993
▁skole	-8.30993
▁nye	-8.31067
tak	-8.31149
siden	-8.31183
▁nær	-8.3125
▁innen	-8.31438
nyin	-8.31464
▁20	-8.3196
len	-8.32011
▁mi	-8.32401
▁mars	-8.32447
ow	-8.32605
hu	-8.32668
▁fi	-8.3271
▁juli	-8.32717
ou	-8.33072
ting	-8.33132
▁lever	-8.33282
met	-8.33287
▁august	-8.33399
▁når	-8.33628
00	-8.34098
▁bare	-8.34117
ikk	-8.34299
▁ski	-8.3437
pi	-8.34376
ord	-8.34448
▁eks	-8.3446
5	-8.3461
▁kunne	-8.34792
6	-8.3488
sj	-8.34908
mar	-8.3534
▁ge	-8.35408
ningen	-8.35426
ingen	-8.35482
▁like	-8.35849
▁oslo	-8.35897
▁engelsk	-8.36073
▁gikk	-8.36135
▁folke	-8.36243
▁kunst	-8.36283
▁ne	-8.36508
ius	-8.36668
hus	-8.37436
▁hel	-8.37615
▁hele	-8.37785
▁ste	-8.37797
sch	-8.37922
▁gift	-8.37975
tre	-8.38016
vin	-8.38053
ian	-8.38488
▁my	-8.38611
ac	-8.38956
nder	-8.38994
▁ki	-8.39033
elsen	-8.39265
▁th	-8.39272
▁x	-8.39461
stein	-8.39504
▁ch	-8.39709
▁videre	-8.39996
kon	-8.40168
▁små	-8.40367
▁lys	-8.40418
▁pr	-8.40502
7	-8.40707
▁fjell	-8.40737
▁pu	-8.40813
▁leder	-8.40836
▁sk	-8.41182
▁nor	-8.41368
til	-8.41404
hi	-8.41453
kte	-8.41585
▁laget	-8.41654
ley	-8.41668
▁området	-8.41684
▁tok	-8.41897
he	-8.42031
ham	-8.42034
ó	-8.42045
▁kommer	-8.42229
ki	-8.42262
dalen	-8.42402
idae	-8.42771
▁gir	-8.42844
▁form	-8.42931
4	-8.42979
ken	-8.43067
ku	-8.43098
dan	-8.43322
tal	-8.43384
følge	-8.43417
▁hi	-8.43446
tan	-8.43454
▁all	-8.43459
ica	-8.43528
▁spiller	-8.43756
▁øy	-8.43873
▁bl	-8.43882
stre	-8.43978
tiske	-8.44252
▁fl	-8.44279
▁bruk	-8.444
▁kultur	-8.44406
jo	-8.44552
kker	-8.4493
▁va	-8.45212
art	-8.45384
mor	-8.45429
bel	-8.45597
▁brukes	-8.45763
tu	-8.45864
ran	-8.46037
ru	-8.4611
▁noe	-8.4614
▁mat	-8.46266
ks	-8.46372
ation	-8.46455
▁ty	-8.46582
▁sand	-8.46666
▁dem	-8.46911
▁spilte	-8.46957
burg	-8.47661
▁bro	-8.47707
ine	-8.47945
ede	-8.47972
▁tillegg	-8.4821
▁må	-8.48566
▁hus	-8.48635
if	-8.48641
▁ak	-8.48688
ator	-8.48864
ya	-8.48921
▁fem	-8.48992
▁høy	-8.49044
▁new	-8.4906
ung	-8.49379
▁parti	-8.49473
▁jord	-8.49512
▁kun	-8.49558
▁tilhører	-8.49567
▁em	-8.49716
▁egen	-8.49822
▁kar	-8.5006
ble	-8.50388
mmer	-8.50881
lands	-8.5095
▁rekke	-8.51065
▁bety	-8.51135
verk	-8.51261
▁verdens	-8.51332
▁je	-8.51345
sten	-8.51579
tur	-8.51612
▁meter	-8.51757
tar	-8.52167
▁skrev	-8.52522
▁uten	-8.52633
▁språk	-8.52884
tten	-8.52962
▁februar	-8.52979
▁fast	-8.53163
▁berg	-8.53228
▁tv	-8.53307
sp	-8.53331
mål	-8.53483
▁kong	-8.53675
em	-8.53697
inn	-8.53904
tz	-8.54031
▁gruppen	-8.54184
▁cha	-8.54233
▁midt	-8.54259
▁sal	-8.54282
ny	-8.54436
dag	-8.54502
▁tro	-8.54623
▁bli	-8.54841
▁bru	-8.54855
▁kn	-8.55079
inger	-8.55084
isme	-8.55222
▁utgitt	-8.55232
▁ulike	-8.5536
▁rød	-8.55389
▁go	-8.55477
kken	-8.55655
▁2010	-8.557
sson	-8.55731
▁gang	-8.56069
bl	-8.56116
▁op	-8.5618
▁vel	-8.5652
▁rett	-8.56544
▁mag	-8.56705
▁skrevet	-8.57035
ph	-8.57234
▁2007	-8.5736
ju	-8.57417
▁tysk	-8.57443
▁januar	-8.57625
▁tilbake	-8.5763
▁vei	-8.57874
uk	-8.57907
▁wi	-8.58108
dig	-8.58265
ige	-8.58271
▁2008	-8.58324
▁gresk	-8.58387
ninger	-8.58466
▁syn	-8.58567
▁kjente	-8.58632
let	-8.58709
▁vin	-8.58769
▁sjø	-8.58906
▁hennes	-8.59041
▁bil	-8.59075
folkerepublikken	-8.5932
▁30	-8.59422
▁juni	-8.59565
▁val	-8.59672
ill	-8.59768
za	-8.59793
ug	-8.59911
▁on	-8.60451
▁september	-8.60462
▁stein	-8.60473
▁ord	-8.6051
▁gr	-8.60524
▁ag	-8.60915
▁fag	-8.61059
▁pre	-8.61125
▁sen	-8.61197
▁deres	-8.61246
▁alt	-8.61293
tri	-8.61445
▁art	-8.61588
▁særlig	-8.6165
fi	-8.61782
▁god	-8.61782
tid	-8.62175
▁april	-8.62204
▁ver	-8.62353
ty	-8.62419
▁opprinnelig	-8.63086
▁usa	-8.63183
▁landet	-8.63207
borg	-8.63257
vel	-8.63439
▁først	-8.63607
▁mon	-8.63613
▁bok	-8.63768
ska	-8.63873
▁nasjonal	-8.63959
bil	-8.64118
tisk	-8.64132
▁000	-8.64199
midlertid	-8.64278
bruk	-8.64525
▁rom	-8.64528
▁ku	-8.64547
▁følgende	-8.64653
▁ren	-8.64699
▁gud	-8.6477
▁lå	-8.65019
▁liv	-8.65063
und	-8.65173
fa	-8.65587
ski	-8.65649
▁selskapet	-8.65714
▁begge	-8.65884
par	-8.65952
▁eksempel	-8.66039
q	-8.66128
▁z	-8.66219
▁mal	-8.66396
▁inneholder	-8.66471
▁siste	-8.66529
▁au	-8.66664
far	-8.66714
▁familien	-8.66808
▁2002	-8.67015
laget	-8.672
bro	-8.6754
▁filmen	-8.67628
est	-8.67638
▁ke	-8.67689
slag	-8.67695
bre	-8.67725
▁ur	-8.67732
▁sto	-8.67799
▁bor	-8.67834
mm	-8.6784
ach	-8.67875
▁von	-8.67917
▁kv	-8.67947
yn	-8.6807
løp	-8.68126
▁mindre	-8.68284
dyr	-8.68458
▁gul	-8.68497
▁chi	-8.68525
▁mu	-8.6862
▁innenfor	-8.68642
ida	-8.68654
▁november	-8.68862
▁desember	-8.69176
▁omfatter	-8.69176
▁barn	-8.69179
▁ben	-8.6925
tin	-8.69319
▁os	-8.69406
sett	-8.6947
▁pan	-8.69472
▁motor	-8.69649
heim	-8.69878
▁ed	-8.69974
mon	-8.70201
▁we	-8.70555
▁2009	-8.71089
form	-8.7164
tes	-8.71729
▁2006	-8.71771
▁deretter	-8.71777
▁ingen	-8.71867
ab	-8.71871
lse	-8.72081
▁luft	-8.72097
▁halv	-8.72106
vo	-8.7225
▁dr	-8.72367
nings	-8.72394
▁igjen	-8.72679
dy	-8.72739
▁hol	-8.72893
▁datter	-8.72931
kan	-8.73073
▁hal	-8.73179
▁kort	-8.73217
tiv	-8.73303
▁døde	-8.73606
▁brun	-8.73616
▁sta	-8.73784
ari	-8.74325
fra	-8.74385
8	-8.74507
▁2005	-8.74671
▁dikt	-8.74714
enes	-8.74913
▁moh	-8.74993
▁tar	-8.75051
ris	-8.75318
▁via	-8.7536
ld	-8.75364
sund	-8.7538
isert	-8.75448
▁fu	-8.75467
▁svær	-8.75916
spill	-8.76041
▁kommunen	-8.76117
skole	-8.76157
▁få	-8.76434
▁seks	-8.76484
su	-8.7652
tatt	-8.76556
utt	-8.76593
▁president	-8.76672
wa	-8.76738
øya	-8.76801
▁større	-8.7685
▁norges	-8.76893
ale	-8.76944
▁begynte	-8.7701
▁gamle	-8.77073
jer	-8.77245
▁mari	-8.7727
fe	-8.77282
stilling	-8.77288
▁van	-8.77301
▁bruker	-8.77342
▁mil	-8.7757
ds	-8.7759
▁rø	-8.77728
mel	-8.77849
kom	-8.77894
▁anti	-8.77936
elig	-8.78038
che	-8.78138
▁lokal	-8.78155
▁medlem	-8.78342
▁kor	-8.78361
bb	-8.78382
а	-8.78448
▁sak	-8.78458
lek	-8.78469
▁tekst	-8.78473
▁dagen	-8.78737
▁bandet	-8.78774
▁fe	-8.78913
derfor	-8.78915
▁startet	-8.78955
▁hen	-8.78975
▁oktober	-8.79068
▁står	-8.79176
ps	-8.79262
▁elven	-8.7932
▁kje	-8.79384
▁gl	-8.79456
▁jan	-8.79475
vann	-8.79568
kar	-8.79821
▁skog	-8.80157
▁kur	-8.80293
du	-8.80303
▁stat	-8.80401
▁vise	-8.8051
▁roman	-8.80561
lei	-8.80564
▁året	-8.80678
▁forhold	-8.80693
lik	-8.80715
▁amerikansk	-8.80741
nk	-8.80775
▁brukt	-8.80782
▁ten	-8.80795
▁innbyggere	-8.80817
ding	-8.81216
▁utenfor	-8.81259
vet	-8.81303
▁etablert	-8.81525
▁helt	-8.81659
▁natur	-8.81699
▁fylke	-8.81732
50	-8.8178
▁samtidig	-8.81881
▁dermed	-8.81933
▁får	-8.81945
▁side	-8.82142
ino	-8.82222
▁dan	-8.82284
▁sig	-8.82332
▁25	-8.82381
▁para	-8.8262
jø	-8.82741
▁sett	-8.8277
fly	-8.82771
▁ev	-8.8279
▁hav	-8.82828
▁band	-8.82954
gel	-8.83044
▁lov	-8.83156
isering	-8.83209
▁ry	-8.83474
bok	-8.83701
▁tu	-8.8387
ære	-8.83878
▁forskjellige	-8.83898
han	-8.83937
▁orden	-8.84032
▁2011	-8.84054
rå	-8.8413
▁tidlig	-8.84241
val	-8.8444
ap	-8.84476
elt	-8.84494
▁sv	-8.84496
▁mel	-8.84545
▁stats	-8.84652
vær	-8.84659
▁tak	-8.84746
gar	-8.84752
▁gjerne	-8.84872
▁tur	-8.84882
ini	-8.84944
▁general	-8.8514
ologi	-8.85228
▁person	-8.8531
familien	-8.85404
▁verk	-8.85437
▁blå	-8.85449
▁kal	-8.85533
▁cor	-8.85563
gh	-8.8562
tiden	-8.85795
chi	-8.85819
mu	-8.86082
tte	-8.86217
▁lange	-8.8624
▁2004	-8.86263
и	-8.86426
▁ø	-8.86428
▁gra	-8.86464
▁fotball	-8.86505
▁paul	-8.86603
▁lav	-8.86626
zi	-8.86659
plan	-8.86761
pen	-8.86793
ze	-8.86873
lot	-8.87017
▁peter	-8.87099
▁basert	-8.87166
my	-8.87237
▁samarbeid	-8.87418
port	-8.87558
▁sommer	-8.87777
▁bred	-8.88038
▁sc	-8.88128
lsen	-8.88144
▁gull	-8.88159
▁produksjon	-8.8823
mal	-8.88376
е	-8.88601
▁park	-8.88683
ola	-8.89218
▁liste	-8.89333
▁fiske	-8.8944
banen	-8.89454
leder	-8.89578
▁kol	-8.8959
van	-8.89642
▁inkludert	-8.89662
figur	-8.89705
net	-8.89764
rik	-8.8998
▁slekt	-8.90072
▁lin	-8.90173
▁jeg	-8.90232
veien	-8.90265
▁barne	-8.90347
▁omkring	-8.90437
▁albumet	-8.90529
ket	-8.90571
satt	-8.90711
▁hy	-8.90838
▁svensk	-8.90877
fri	-8.9089
▁slutt	-8.91042
we	-8.91085
▁pla	-8.91092
råd	-8.91212
▁sverige	-8.91217
rang	-8.91246
fjorden	-8.91275
▁lands	-8.91348
ā	-8.91358
▁can	-8.91378
tion	-8.91421
▁fred	-8.91445
▁beste	-8.91491
▁arbeids	-8.91564
ai	-8.91619
▁ska	-8.91641
▁foran	-8.91847
▁lett	-8.91887
lær	-8.92006
▁europa	-8.92019
▁ganger	-8.92263
▁22	-8.9233
▁sel	-8.92362
är	-8.9241
kje	-8.92413
▁industri	-8.92691
▁organ	-8.92813
о	-8.92886
▁sh	-8.93157
▁såkalt	-8.93195
tro	-8.93205
▁vanligvis	-8.93226
▁carl	-8.93307
▁bergen	-8.93392
mus	-8.93413
ana	-8.93454
lle	-8.93495
▁gammel	-8.936
▁ber	-8.93676
kul	-8.93723
▁plass	-8.93815
▁gen	-8.93891
▁sentral	-8.93907
gård	-8.9412
▁gar	-8.94356
à	-8.94397
rom	-8.94557
▁vis	-8.94679
sti	-8.94829
▁litt	-8.94862
xi	-8.94909
▁mye	-8.9494
▁grav	-8.95111
▁ex	-8.95225
▁ly	-8.95391
▁28	-8.95436
vil	-8.95527
▁nu	-8.95582
▁sangen	-8.95603
▁christian	-8.95637
up	-8.95822
▁plan	-8.95885
fjord	-8.95912
▁af	-8.96027
▁sosial	-8.96027
▁eu	-8.96065
▁konge	-8.96085
bin	-8.96097
▁mus	-8.96173
forening	-8.96193
▁gro	-8.96277
▁gjorde	-8.96467
▁sang	-8.96467
▁mac	-8.96526
▁politisk	-8.96882
sjef	-8.96994
gan	-8.9711
▁sha	-8.97153
▁studie	-8.97171
værende	-8.97174
▁fylkesvei	-8.97279
▁fransk	-8.97313
▁ring	-8.97446
▁dy	-8.97488
ay	-8.97514
▁kinas	-8.97526
ark	-8.97562
è	-8.97643
ighet	-8.9788
▁bur	-8.97996
bygg	-8.98001
ita	-8.98045
▁fer	-8.98057
▁sommerfugl	-8.98576
▁viser	-8.98625
▁prest	-8.98655
▁pl	-8.98857
▁spesielt	-8.98943
▁william	-8.98943
▁serien	-8.9911
hr	-8.99167
▁ville	-8.99216
▁fin	-8.9946
▁bjørn	-8.99494
▁amerikanske	-8.9952
selskap	-8.99645
ip	-8.99721
▁familie	-8.99898
▁jon	-9.00074
▁klubben	-9.00274
▁spilt	-9.00334
▁bør	-9.00367
▁støtte	-9.00435
▁dis	-9.00469
▁kra	-9.00545
ī	-9.00649
cia	-9.00839
▁karl	-9.0085
▁liten	-9.0097
▁data	-9.01005
▁betydning	-9.01084
▁don	-9.01167
lå	-9.01182
▁24	-9.01207
▁bre	-9.01344
▁xi	-9.01399
▁tom	-9.0144
gjør	-9.01454
mannen	-9.0154
cc	-9.01684
film	-9.01698
▁mark	-9.01704
▁spor	-9.01761
▁tredje	-9.0188
rak	-9.01917
▁23	-9.01928
lev	-9.01969
▁sø	-9.01989
pris	-9.02045
▁hatt	-9.02159
▁system	-9.02292
▁com	-9.02318
▁tru	-9.02462
▁sil	-9.0248
bygd	-9.02495
lan	-9.02608
tel	-9.02616
▁vo	-9.02711
ving	-9.02741
ú	-9.02823
▁italiensk	-9.02823
▁inter	-9.02897
▁post	-9.02947
olog	-9.02972
lene	-9.02991
▁øya	-9.03088
ros	-9.03109
▁19	-9.0315
▁bill	-9.032
▁folketelling	-9.03263
kla	-9.03288
▁plante	-9.03346
itz	-9.03433
▁vol	-9.03482
▁ji	-9.03493
▁mm	-9.03538
▁minne	-9.03582
▁mann	-9.03594
▁antall	-9.03596
▁erik	-9.03606
▁gav	-9.0365
ji	-9.03691
▁utviklet	-9.03713
▁radio	-9.03737
vei	-9.03791
age	-9.03827
båt	-9.03887
▁arm	-9.03949
og	-9.03988
▁russland	-9.04155
ika	-9.04165
skip	-9.0427
▁za	-9.04531
▁lik	-9.04758
kal	-9.04771
som	-9.0478
grense	-9.04862
▁årene	-9.04924
▁valg	-9.04957
ive	-9.05103
▁bal	-9.05277
stilt	-9.05325
▁lyd	-9.05397
▁start	-9.05516
sky	-9.0556
ys	-9.05619
asjoner	-9.05646
▁fr	-9.05718
▁ky	-9.05935
▁viktigste	-9.0599
▁fleste	-9.06084
▁ac	-9.06127
ologisk	-9.06229
vern	-9.06346
▁historie	-9.0641
ich	-9.06557
fon	-9.06586
▁bygget	-9.06619
▁port	-9.06737
minister	-9.06961
spiller	-9.0702
▁utgjør	-9.07035
▁ledet	-9.07047
▁bror	-9.07066
▁sted	-9.07085
ah	-9.07108
bra	-9.07307
▁satt	-9.07512
▁21	-9.07545
rus	-9.07547
▁ven	-9.07618
system	-9.07704
▁keiser	-9.07817
▁slag	-9.07895
▁sir	-9.0792
pl	-9.07971
▁trans	-9.08016
▁vinter	-9.08034
ob	-9.08072
▁heter	-9.08076
mester	-9.08315
press	-9.08344
▁blad	-9.08383
▁kron	-9.08397
▁arbeider	-9.08495
▁dia	-9.08677
▁forfatter	-9.08688
ford	-9.08831
▁mont	-9.08886
▁latin	-9.09163
▁gruppe	-9.09195
landet	-9.09205
heten	-9.09207
log	-9.09305
mark	-9.09374
20	-9.094
skog	-9.0945
▁ph	-9.09457
dom	-9.09511
senter	-9.09525
▁bø	-9.09549
mat	-9.09618
▁fre	-9.09618
pro	-9.09719
▁thor	-9.09725
▁tyske	-9.09729
▁versjon	-9.09751
40	-9.09929
▁svart	-9.09943
ish	-9.0999
▁2000	-9.10075
virke	-9.1045
istisk	-9.10636
▁fil	-9.10791
▁rock	-9.10977
alder	-9.11006
▁pri	-9.1107
res	-9.11071
▁styre	-9.11172
▁helse	-9.1124
▁kunstner	-9.11243
pu	-9.11404
▁grad	-9.11416
▁br	-9.11513
▁serie	-9.11582
р	-9.11735
▁west	-9.11747
▁menneske	-9.11958
▁arter	-9.12035
▁stedet	-9.12058
▁distrikt	-9.12149
▁annen	-9.12195
▁bas	-9.12265
gruppen	-9.12269
ano	-9.12285
skje	-9.12363
▁bank	-9.12365
ild	-9.12462
▁thomas	-9.12527
▁dannet	-9.12542
▁tittelen	-9.12599
▁robert	-9.13069
don	-9.13115
▁grå	-9.13178
før	-9.13179
ther	-9.13278
▁spe	-9.13353
plass	-9.13431
lia	-9.13716
▁godt	-9.13866
▁full	-9.13975
▁2003	-9.13992
kle	-9.14002
ör	-9.141
▁skuespiller	-9.14107
hl	-9.14161
lett	-9.14207
▁lind	-9.14241
▁åtte	-9.14248
rud	-9.14262
▁kraft	-9.14266
▁sm	-9.14287
regn	-9.14311
▁johan	-9.1433
▁ob	-9.1434
▁egne	-9.14461
ð	-9.14464
ider	-9.14505
▁kyst	-9.14507
anlegg	-9.14561
▁tradisjonell	-9.14583
asjonen	-9.14641
ula	-9.14646
byen	-9.14649
rin	-9.14791
▁wal	-9.14828
▁ordet	-9.14834
▁gjør	-9.1487
10	-9.14974
kning	-9.14992
kast	-9.15023
▁riks	-9.15107
stift	-9.15234
▁29	-9.15244
▁str	-9.15248
л	-9.15328
▁opera	-9.15348
▁oppkalt	-9.1546
stående	-9.15465
fall	-9.15566
isere	-9.15697
▁klar	-9.15734
ferd	-9.15892
▁gran	-9.15901
side	-9.15925
▁hø	-9.15934
▁100	-9.1594
▁representert	-9.15956
▁maria	-9.15961
▁ul	-9.15975
▁arbeidet	-9.16007
▁syd	-9.16101
ight	-9.16104
bert	-9.16106
▁26	-9.16161
▁ap	-9.16216
▁én	-9.16277
deling	-9.16421
▁bort	-9.16479
området	-9.16523
get	-9.16568
▁fall	-9.16613
▁finner	-9.16622
▁farge	-9.16635
iet	-9.16686
med	-9.16955
sak	-9.17037
bø	-9.1709
▁arbeid	-9.17115
fer	-9.17116
▁shi	-9.17145
fisk	-9.1717
▁regi	-9.17196
ney	-9.17248
▁georg	-9.17329
alt	-9.17329
▁kirken	-9.1738
ister	-9.17445
the	-9.17474
navn	-9.17478
▁høyeste	-9.17504
loven	-9.1752
▁delta	-9.1754
sto	-9.17615
iserte	-9.17696
▁res	-9.178
▁stjerne	-9.17825
▁regn	-9.17827
▁sj	-9.17848
▁reg	-9.17893
ath	-9.18003
▁måtte	-9.1802
aks	-9.18023
wi	-9.18041
gge	-9.18043
▁ras	-9.18052
bær	-9.18079
▁hall	-9.18126
lighet	-9.18152
rum	-9.18154
sikt	-9.18257
▁nesten	-9.18265
▁not	-9.18278
▁hvit	-9.18288
▁dom	-9.18319
qui	-9.18388
dra	-9.1839
ο	-9.18495
jen	-9.18513
▁høyre	-9.18557
kor	-9.18707
huset	-9.18713
▁angrep	-9.18713
rad	-9.18797
▁bygge	-9.18808
▁hår	-9.18867
▁tiden	-9.18917
anger	-9.19003
▁27	-9.19011
▁2001	-9.19028
oc	-9.19063
▁fla	-9.19368
▁un	-9.19522
▁dessut	-9.19531
▁student	-9.19531
▁sy	-9.19555
ata	-9.19595
▁selskap	-9.19796
cu	-9.19821
▁mad	-9.19835
este	-9.19903
30	-9.19948
▁50	-9.1999
α	-9.20049
vitenskap	-9.20059
organisasjon	-9.20067
gren	-9.20079
▁finsk	-9.20141
ani	-9.20161
ismen	-9.20173
tikk	-9.20185
▁olje	-9.20193
nis	-9.20289
▁våpen	-9.20302
ater	-9.20338
ald	-9.204
stasjon	-9.20436
▁krigs	-9.20445
hy	-9.20453
▁arkitekt	-9.20483
▁medlemmer	-9.20547
▁privat	-9.20575
▁1989	-9.20581
føring	-9.20643
▁kjøpt	-9.20647
▁felles	-9.20654
▁overtok	-9.2071
▁ser	-9.20756
modell	-9.20862
zz	-9.20879
menn	-9.21094
▁ve	-9.21325
▁gre	-9.214
▁skolen	-9.21407
and	-9.21441
way	-9.21444
rat	-9.21469
▁båt	-9.215
▁vanlig	-9.21502
que	-9.21563
▁nytt	-9.21625
▁ball	-9.21702
sjøen	-9.21803
▁egg	-9.21814
els	-9.21832
▁jernbane	-9.21868
løse	-9.21904
▁les	-9.22191
▁pop	-9.2222
▁dra	-9.22366
▁hovedsake	-9.22596
▁skjer	-9.22612
eres	-9.2274
▁stemme	-9.22746
ssen	-9.22795
▁es	-9.22843
▁skr	-9.2289
ire	-9.22905
tall	-9.2294
stykke	-9.22951
▁type	-9.23038
trekk	-9.23052
gul	-9.23062
hal	-9.23108
▁viktig	-9.23152
▁31	-9.23209
▁vind	-9.23209
▁fant	-9.2328
bus	-9.23295
▁deltok	-9.23314
▁hell	-9.23389
sol	-9.23491
all	-9.23512
▁staten	-9.23513
arbeid	-9.23529
▁red	-9.23583
▁sanger	-9.2362
▁col	-9.23644
▁tyskland	-9.23686
▁you	-9.237
stra	-9.23716
▁dal	-9.2376
▁standard	-9.23775
▁eget	-9.23893
ix	-9.24026
▁cu	-9.24063
с	-9.24078
▁stra	-9.24081
▁gal	-9.24112
▁partiet	-9.24129
istiske	-9.24194
tegn	-9.24245
ssa	-9.24332
vid	-9.24333
▁handels	-9.24396
▁ci	-9.24439
▁rus	-9.24458
▁christ	-9.24469
leg	-9.24571
▁års	-9.24593
syn	-9.24719
▁est	-9.24773
▁40	-9.24775
▁sky	-9.24784
▁island	-9.24787
▁cla	-9.24794
▁klo	-9.24887
▁tildelt	-9.24916
▁fv	-9.24939
▁eier	-9.24949
▁sub	-9.25006
tok	-9.25116
ativ	-9.25166
▁virke	-9.25166
▁langt	-9.25214
▁stil	-9.25316
▁militær	-9.25319
▁eid	-9.25356
gitt	-9.25435
så	-9.25446
ara	-9.25476
▁super	-9.25527
▁herre	-9.25573
▁rev	-9.25648
▁mulig	-9.25705
kere	-9.25706
navnet	-9.25715
▁bilde	-9.25764
▁enkelt	-9.2583
▁gitt	-9.25831
vert	-9.25849
án	-9.26005
▁hei	-9.26007
stil	-9.26053
maskin	-9.26093
ati	-9.26228
▁air	-9.26265
▁fal	-9.26285
bas	-9.26379
▁kontroll	-9.26393
▁eneste	-9.26498
▁deler	-9.26511
▁direkte	-9.26521
kin	-9.26544
▁kongen	-9.26597
▁martin	-9.26631
elva	-9.26653
▁nett	-9.26667
zhou	-9.2671
▁ram	-9.2679
▁hånd	-9.26808
▁kir	-9.26916
departementet	-9.26995
▁folk	-9.27039
▁national	-9.27079
▁1999	-9.27089
▁delstaten	-9.271
▁bri	-9.27174
▁gate	-9.27224
▁følger	-9.2726
inne	-9.27285
▁teater	-9.2732
▁elva	-9.27405
▁mod	-9.27433
ons	-9.27598
▁omtrent	-9.27641
liggende	-9.27647
▁rolle	-9.27657
▁riksvei	-9.27677
ria	-9.27709
pre	-9.27714
her	-9.27741
▁mur	-9.27745
▁che	-9.27864
▁flytte	-9.27881
nu	-9.27934
bane	-9.27969
▁bel	-9.27992
drag	-9.28063
område	-9.28125
ull	-9.28228
våg	-9.28673
søk	-9.28721
ban	-9.28722
oll	-9.2881
▁david	-9.28896
▁driver	-9.28906
lla	-9.28927
▁hjelp	-9.29
▁tele	-9.29096
graf	-9.29125
▁aktiv	-9.29159
mot	-9.29162
▁meget	-9.29368
▁japansk	-9.29374
cy	-9.29386
iz	-9.29416
ved	-9.29675
erende	-9.29684
▁lille	-9.29743
▁reise	-9.29886
▁vekt	-9.29916
▁ganske	-9.29988
kjenn	-9.30016
of	-9.30054
▁strøm	-9.3017
▁stø	-9.30363
nett	-9.30472
▁fortsatt	-9.30514
▁fro	-9.30515
▁pris	-9.30671
▁kamp	-9.30711
ial	-9.30728
▁sund	-9.30741
ført	-9.30756
▁nev	-9.3086
isten	-9.30895
▁ban	-9.30945
gle	-9.3098
▁2012	-9.31101
▁ole	-9.31111
▁gass	-9.31157
▁internasjonale	-9.31174
▁spi	-9.31297
▁stort	-9.31314
▁lite	-9.31462
▁spansk	-9.31505
kh	-9.31512
▁turn	-9.31544
rike	-9.31557
80	-9.31557
fo	-9.31631
ves	-9.31642
▁kul	-9.31652
vent	-9.31688
fal	-9.31851
▁energi	-9.31854
▁len	-9.31866
▁sur	-9.31927
king	-9.32098
▁topp	-9.32177
eri	-9.32217
▁venstre	-9.32287
▁nok	-9.32329
▁inkluderer	-9.32362
▁zh	-9.32493
pass	-9.32537
▁elev	-9.32601
85	-9.32639
▁kvinne	-9.32793
▁betydelig	-9.32848
ura	-9.32882
sal	-9.32942
felle	-9.32967
▁universitet	-9.32998
▁gru	-9.33017
zo	-9.33139
▁styrke	-9.33218
▁britiske	-9.33279
▁nils	-9.33309
kamp	-9.33333
▁flo	-9.33341
▁tal	-9.3336
myndighet	-9.3344
▁egentlig	-9.33465
▁politiker	-9.3352
▁tjeneste	-9.33634
stat	-9.33714
▁svenske	-9.33832
▁berlin	-9.33905
▁kilde	-9.33913
š	-9.34038
▁fått	-9.34095
dring	-9.34186
fjell	-9.34249
elser	-9.34294
tale	-9.3449
dia	-9.34509
formet	-9.34524
▁millioner	-9.34641
▁vår	-9.34689
bygning	-9.34717
øl	-9.34776
produksjon	-9.34934
▁gje	-9.34991
kommun	-9.35006
▁ya	-9.35089
nor	-9.35135
▁moderne	-9.35222
65	-9.35244
ō	-9.35245
▁london	-9.35248
▁johannes	-9.35261
▁1990	-9.35261
▁kristian	-9.35261
▁hjem	-9.35304
ora	-9.35331
gra	-9.35437
hall	-9.35543
tyr	-9.35595
områder	-9.35709
▁son	-9.35919
systemet	-9.35954
▁blod	-9.35968
▁james	-9.35973
▁bad	-9.36066
▁motstand	-9.36118
▁enkelte	-9.36139
▁ør	-9.36174
▁uni	-9.36191
▁ordenen	-9.36338
▁bj	-9.36381
▁skje	-9.36441
▁mis	-9.36459
ς	-9.3647
▁cas	-9.3647
▁nordøst	-9.36473
▁het	-9.36509
▁regionen	-9.36509
▁kre	-9.36716
vatnet	-9.36789
▁sentrum	-9.36815
▁veg	-9.3684
▁mc	-9.36863
lus	-9.36936
▁spesial	-9.36992
▁album	-9.37019
▁innbyggertall	-9.37087
▁1988	-9.37097
▁sag	-9.37202
▁åpnet	-9.37437
fest	-9.37453
▁tj	-9.37488
▁miljø	-9.37489
▁forbindelse	-9.37582
vig	-9.37758
▁stu	-9.37817
org	-9.37864
kov	-9.37948
39	-9.37964
▁hovedstaden	-9.38038
▁klasse	-9.38101
valg	-9.38105
▁hjemme	-9.38174
т	-9.38324
lede	-9.38347
▁franske	-9.38352
▁fredrik	-9.38357
60	-9.384
gården	-9.38414
▁eli	-9.38424
▁knut	-9.38471
ori	-9.38493
▁wo	-9.38525
▁makt	-9.38544
▁skade	-9.38547
90	-9.38572
stå	-9.38599
gruppe	-9.38669
▁utgav	-9.3874
▁bygd	-9.38783
midler	-9.38814
ι	-9.38962
▁studert	-9.38974
▁1980	-9.38976
▁knytte	-9.38978
fu	-9.38983
▁opprettet	-9.39054
▁mottok	-9.39073
▁stasjon	-9.39118
stoff	-9.39204
samling	-9.3922
98	-9.39222
lys	-9.39245
▁brukte	-9.39283
bjørn	-9.39407
▁transport	-9.39561
full	-9.39562
mund	-9.39591
▁1998	-9.39608
▁2013	-9.39608
▁mø	-9.39622
▁seil	-9.3983
▁tap	-9.39848
kilden	-9.39901
kra	-9.39921
▁grunnlagt	-9.39929
tic	-9.40069
▁war	-9.40078
▁hor	-9.40154
▁pen	-9.40183
▁slekten	-9.40185
ische	-9.40234
86	-9.40248
▁tegn	-9.40269
▁delt	-9.40403
▁munn	-9.40464
klubb	-9.4051
▁politi	-9.4051
▁økonomisk	-9.40565
▁ett	-9.40567
▁skrift	-9.4078
selskapet	-9.4078
▁dyp	-9.40824
▁ang	-9.40858
74	-9.40859
▁byprefekturet	-9.40874
▁verden	-9.40876
▁olav	-9.40881
tun	-9.40924
▁viktige	-9.4093
▁utstyr	-9.40945
▁sogn	-9.40977
▁pave	-9.41022
stedet	-9.4103
▁hard	-9.41036
34	-9.411
▁hest	-9.41159
ij	-9.41182
ammen	-9.41331
ira	-9.41481
organ	-9.41498
▁jø	-9.41499
▁kroppen	-9.41608
mengde	-9.4163
52	-9.41671
67	-9.41776
▁ara	-9.41908
▁funksjon	-9.42152
▁university	-9.42173
▁lege	-9.42196
pol	-9.42348
▁george	-9.424
▁pot	-9.42438
▁region	-9.4246
▁frank	-9.42528
gata	-9.42546
samfunn	-9.4258
▁mak	-9.42663
aktig	-9.42689
fin	-9.42707
▁grønn	-9.42712
gift	-9.42715
havet	-9.42719
hel	-9.42721
ordenen	-9.42796
▁lær	-9.42799
well	-9.42803
▁1991	-9.4283
▁she	-9.42869
▁win	-9.42872
cha	-9.42892
dri	-9.42902
▁cent	-9.42954
▁ferdig	-9.42986
senteret	-9.43032
▁pat	-9.43057
gaard	-9.43066
lund	-9.4307
samisk	-9.43089
▁ungdoms	-9.43131
▁kull	-9.43156
hen	-9.43161
band	-9.43201
▁imp	-9.43224
▁prosess	-9.43277
trykk	-9.43358
55	-9.43386
oli	-9.43483
▁2014	-9.43497
▁stiftet	-9.435
▁venn	-9.43573
▁eldre	-9.43612
jan	-9.43636
▁lengde	-9.43643
▁besøk	-9.43645
▁bind	-9.43763
mand	-9.43797
brudd	-9.43811
▁lokale	-9.43826
▁hvis	-9.43912
tjeneste	-9.43914
hn	-9.43927
▁høyde	-9.43935
bud	-9.4402
37	-9.44087
▁odd	-9.44141
м	-9.44142
▁mennesker	-9.44142
▁marine	-9.44203
▁løv	-9.44257
▁vit	-9.44288
evne	-9.44311
▁fordi	-9.44355
liv	-9.44369
▁indre	-9.44381
12	-9.44484
▁beskrive	-9.44538
▁bern	-9.44579
▁mid	-9.446
▁gård	-9.44616
▁elv	-9.44625
lang	-9.44629
gard	-9.44658
oni	-9.4471
korps	-9.44726
retning	-9.44776
elli	-9.44776
▁international	-9.44808
messig	-9.44809
▁råd	-9.44815
▁jens	-9.44823
▁italia	-9.44825
▁kro	-9.44846
▁punkt	-9.44856
▁solgt	-9.44864
48	-9.44872
ance	-9.44874
musikk	-9.44877
gående	-9.44982
70	-9.45102
oph	-9.45111
▁smal	-9.45133
▁gy	-9.45152
▁utvikling	-9.45166
▁best	-9.4518
▁drift	-9.45197
ky	-9.45308
▁grense	-9.45344
shi	-9.45384
rådet	-9.45422
har	-9.45436
в	-9.45469
▁høyt	-9.45476
▁1996	-9.45491
▁rot	-9.45508
▁likevel	-9.45535
▁sten	-9.45574
▁sesongen	-9.45601
▁arten	-9.45635
57	-9.45661
▁førte	-9.45662
høy	-9.45696
blad	-9.45733
▁varme	-9.45788
året	-9.45804
▁dansk	-9.45842
▁linje	-9.45861
▁unn	-9.4588
▁mol	-9.45934
▁drev	-9.45964
vol	-9.45996
vogn	-9.46004
▁flat	-9.46012
renner	-9.46025
▁lærer	-9.46126
▁veien	-9.46159
▁1992	-9.46167
36	-9.46208
▁sko	-9.46233
▁pol	-9.46247
bru	-9.46274
parti	-9.4637
ås	-9.46403
ram	-9.46427
unt	-9.46432
▁hovedstad	-9.46525
politikk	-9.46648
jev	-9.46655
▁internasjonal	-9.46725
virkning	-9.46848
yk	-9.46857
▁lan	-9.4689
grad	-9.46945
ova	-9.46983
▁samle	-9.47006
▁konsert	-9.47014
ón	-9.47018
▁cap	-9.47027
ball	-9.4709
▁nest	-9.47229
handling	-9.47269
▁dyre	-9.47276
blomst	-9.47332
92	-9.47403
▁brensel	-9.47504
д	-9.4752
▁kilometer	-9.4752
▁rik	-9.47525
tog	-9.47542
▁anders	-9.4755
farge	-9.4757
▁dam	-9.47572
▁danner	-9.47661
skapet	-9.47689
komme	-9.4792
▁larvene	-9.47983
▁harald	-9.47998
ette	-9.48
lov	-9.48002
66	-9.48052
▁slo	-9.48102
▁nan	-9.48215
▁cro	-9.4826
fører	-9.48286
64	-9.48295
felt	-9.48313
▁und	-9.48387
arter	-9.48419
▁tett	-9.48451
▁sl	-9.48618
iller	-9.48692
▁kat	-9.48765
our	-9.48825
▁mill	-9.48874
▁trondheim	-9.48911
▁1993	-9.48913
▁informasjon	-9.48939
▁bir	-9.48959
▁tilby	-9.48966
▁rund	-9.48999
brun	-9.49046
▁henne	-9.49129
▁produsert	-9.49132
▁møte	-9.49161
anske	-9.49274
▁verdi	-9.4931
▁regnes	-9.49346
poli	-9.49355
99	-9.49426
▁foss	-9.49429
▁80	-9.4946
festival	-9.49555
▁representere	-9.49604
▁world	-9.49604
▁york	-9.49608
▁vold	-9.49663
▁sau	-9.49678
▁daglig	-9.49797
punkt	-9.49837
▁stasjonen	-9.49839
stikk	-9.49932
▁trekk	-9.50002
▁myr	-9.5001
▁åpen	-9.50203
▁middelsstor	-9.50308
▁biskop	-9.50312
cell	-9.50317
▁arne	-9.50391
▁nevnes	-9.50392
lagt	-9.50466
lokk	-9.50506
▁bit	-9.50541
bilde	-9.5057
▁tung	-9.50571
97	-9.50586
▁cy	-9.5064
feld	-9.50682
▁nasjonale	-9.50827
▁gitar	-9.50831
▁personer	-9.50844
▁søk	-9.51034
shire	-9.5106
field	-9.51064
▁trykk	-9.51164
▁bygg	-9.51219
atur	-9.51231
▁lø	-9.51233
▁ok	-9.51246
▁old	-9.51359
forbund	-9.51461
▁sommeren	-9.51491
▁gjort	-9.51527
68	-9.51536
skudd	-9.51568
grunn	-9.51734
▁1995	-9.51743
▁1997	-9.51744
ub	-9.51811
▁oppført	-9.51897
▁nar	-9.51915
▁sentrale	-9.51922
▁eg	-9.51939
▁bomb	-9.51994
96	-9.52013
ér	-9.5203
▁dekk	-9.52067
▁ass	-9.52096
▁qu	-9.52124
pla	-9.5224
▁auto	-9.52244
▁grenser	-9.52285
skij	-9.52331
▁effekt	-9.52334
rør	-9.52339
▁ze	-9.52349
▁produsent	-9.52352
▁die	-9.52411
▁slike	-9.52413
▁poly	-9.52439
belteasteroide	-9.52451
▁problem	-9.52454
▁dyr	-9.52459
▁frankrike	-9.52462
▁black	-9.52509
▁ledd	-9.52535
slutt	-9.52594
▁johann	-9.52607
ød	-9.52698
ala	-9.52728
æl	-9.5274
▁professor	-9.52786
▁star	-9.52898
82	-9.53053
▁natt	-9.53105
▁north	-9.53119
▁avdeling	-9.53152
▁israel	-9.53176
▁arabisk	-9.53178
▁stavanger	-9.53186
▁resultat	-9.53193
▁bolig	-9.53214
▁nummer	-9.53223
▁virksomhet	-9.53295
▁lars	-9.53322
manns	-9.53346
merke	-9.5339
▁uttrykk	-9.53421
▁sim	-9.53423
▁spar	-9.5346
mod	-9.53493
▁legge	-9.53501
▁60	-9.53695
▁løper	-9.53731
satte	-9.53772
▁rå	-9.53891
ν	-9.53905
▁michael	-9.53906
▁anna	-9.53912
▁operatør	-9.53915
▁interesse	-9.53947
win	-9.53955
dor	-9.53956
hjul	-9.53975
▁aldri	-9.5398
▁jern	-9.54005
▁up	-9.54066
sser	-9.54078
kop	-9.54141
▁mun	-9.54164
snitt	-9.54167
wood	-9.54175
kant	-9.54177
▁anne	-9.54315
▁korte	-9.54341
verket	-9.54439
▁fugle	-9.54479
▁och	-9.54515
tus	-9.54516
▁kall	-9.54524
dt	-9.54525
cul	-9.5463
▁gren	-9.5463
н	-9.54639
skjold	-9.54642
▁danmark	-9.54664
▁lund	-9.54672
skrift	-9.54714
▁ære	-9.54741
nst	-9.54833
heng	-9.54894
hav	-9.54916
▁pin	-9.5499
▁svarte	-9.55135
pin	-9.55138
▁mas	-9.55165
▁jean	-9.55172
etter	-9.55332
skolen	-9.55363
▁offentlig	-9.55367
▁komponist	-9.55381
▁fortsatte	-9.55398
▁søster	-9.55451
▁stav	-9.55484
▁vid	-9.55541
▁holdt	-9.55573
38	-9.55617
▁sju	-9.55652
47	-9.55658
sjonen	-9.55682
gli	-9.55724
▁leg	-9.55731
▁fot	-9.55734
holm	-9.5591
ringen	-9.55913
▁thi	-9.55963
▁pass	-9.56015
vekt	-9.56037
▁produkt	-9.56108
▁offisiell	-9.56128
▁vik	-9.56237
▁løs	-9.5626
▁spille	-9.56281
87	-9.56286
▁populær	-9.56308
▁us	-9.56341
95	-9.56368
qu	-9.56375
▁forsknings	-9.56378
▁romersk	-9.56396
▁ce	-9.5644
▁gå	-9.5649
flekk	-9.56496
rop	-9.56497
▁måte	-9.56569
▁grand	-9.56595
▁max	-9.56607
hø	-9.56652
▁middel	-9.56655
▁ep	-9.5672
41	-9.56766
forsker	-9.56804
▁sølv	-9.56824
44	-9.56836
▁skyld	-9.56836
▁tilsvarende	-9.5688
heter	-9.56973
person	-9.57097
▁just	-9.57281
▁distriktet	-9.57321
ming	-9.57357
▁yu	-9.57362
▁ek	-9.57395
▁bedre	-9.57419
▁q	-9.57562
low	-9.57586
▁benyttet	-9.57589
▁brann	-9.57671
kos	-9.57672
▁tall	-9.57702
▁grev	-9.57919
linjen	-9.58007
ios	-9.5805
▁krigen	-9.58065
▁samling	-9.58071
▁nabo	-9.58076
uch	-9.58118
▁sku	-9.58167
▁sterkt	-9.58219
fabrikk	-9.58261
▁time	-9.5827
az	-9.58302
▁årlig	-9.58312
▁bygde	-9.58323
▁bry	-9.58391
▁profesjonell	-9.58402
▁administrasjons	-9.5842
▁skapt	-9.58445
voll	-9.58509
strøm	-9.58568
▁england	-9.58585
▁totalt	-9.58595
industri	-9.58598
43	-9.58618
ign	-9.58636
stø	-9.5864
haug	-9.58717
vinger	-9.58777
▁mester	-9.58854
strand	-9.58866
▁holde	-9.58907
▁boken	-9.58923
▁presse	-9.58964
ali	-9.59121
▁meg	-9.59147
▁delen	-9.59161
ρ	-9.5917
▁xiàn	-9.5917
▁sørøst	-9.59173
▁møtte	-9.59196
▁love	-9.59201
äl	-9.59212
vind	-9.59256
▁sivil	-9.59267
hin	-9.59317
gna	-9.59318
riket	-9.59338
▁henrik	-9.59426
folk	-9.59471
▁uke	-9.59515
▁dar	-9.59553
tig	-9.5959
ansk	-9.59636
pan	-9.59724
▁karakter	-9.59744
stro	-9.5978
89	-9.5985
▁lufthavn	-9.59954
▁edderkopp	-9.59958
▁hør	-9.59973
▁direktør	-9.60064
kraft	-9.60113
con	-9.60114
delen	-9.6013
partiet	-9.60147
uf	-9.60163
løs	-9.60278
plasser	-9.60311
62	-9.60378
rich	-9.60394
▁kors	-9.60395
▁plate	-9.60403
▁200	-9.60428
▁danske	-9.60475
yang	-9.60482
ille	-9.60492
▁museum	-9.60658
▁hud	-9.60711
▁hjerte	-9.60729
▁gjøre	-9.60757
59	-9.60762
▁allerede	-9.60768
▁tverr	-9.60856
vekst	-9.60874
gal	-9.60884
▁høsten	-9.60897
88	-9.60922
▁los	-9.61
▁hvite	-9.61108
mun	-9.61132
▁merke	-9.61137
bare	-9.61147
stol	-9.61342
▁kam	-9.61427
▁180	-9.61433
▁nærings	-9.61475
▁tittel	-9.61521
▁drept	-9.61532
old	-9.61557
▁lek	-9.61644
middel	-9.61791
▁epi	-9.61863
ico	-9.61896
▁syv	-9.61902
▁faren	-9.61949
▁perioden	-9.61992
▁pet	-9.62044
elige	-9.62071
▁total	-9.62074
54	-9.62112
▁test	-9.62117
▁brit	-9.62144
▁maskin	-9.62172
72	-9.62204
▁cal	-9.62279
bibliotek	-9.62307
▁1985	-9.62323
▁2015	-9.6233
▁zi	-9.62394
▁minst	-9.62421
▁stan	-9.6258
prisen	-9.62585
aksjon	-9.62601
▁32	-9.62616
▁sort	-9.62695
▁behandling	-9.62783
▁fører	-9.62975
▁organisasjon	-9.63083
▁adel	-9.63084
ов	-9.63103
▁1970	-9.63122
syre	-9.63142
istene	-9.63236
▁strand	-9.63249
▁landsbyen	-9.6325
iner	-9.63285
▁utført	-9.6335
▁steder	-9.63372
språk	-9.63436
58	-9.63464
▁nordlig	-9.63474
▁real	-9.63485
▁tatt	-9.63636
ledning	-9.63646
▁maur	-9.63647
61	-9.63765
svis	-9.63775
▁blei	-9.63816
▁nes	-9.63862
▁eksempler	-9.63914
▁norrøn	-9.63914
▁louis	-9.63915
kommunikasjon	-9.63919
▁1984	-9.63924
▁1994	-9.63925
▁1987	-9.63927
▁rygg	-9.63977
rekord	-9.64097
på	-9.64124
sberg	-9.64189
lem	-9.64229
▁hører	-9.6423
▁delvis	-9.64274
kunst	-9.64293
▁bon	-9.64354
▁finland	-9.6439
ence	-9.6439
bia	-9.64461
▁litteratur	-9.64465
▁hit	-9.64488
76	-9.64543
▁skipet	-9.64545
▁frukt	-9.6455
▁drama	-9.64553
▁holder	-9.64585
ben	-9.6461
09	-9.64612
eier	-9.64676
▁sul	-9.64709
▁euro	-9.64717
▁statsminister	-9.64753
▁prosent	-9.64759
▁altså	-9.64761
▁award	-9.64809
iti	-9.6486
78	-9.64876
klubben	-9.65052
gikk	-9.65103
jiang	-9.65176
øyene	-9.65194
klasse	-9.6526
▁anlegget	-9.65275
one	-9.65285
ity	-9.65297
▁idretts	-9.65302
feltet	-9.65305
▁fjorden	-9.65339
fang	-9.65411
sdag	-9.65416
▁erstattet	-9.65519
▁københavn	-9.65546
▁eldste	-9.65548
▁fir	-9.65548
▁tydelig	-9.65551
▁funnet	-9.65571
▁metod	-9.65571
▁finans	-9.65615
▁betegne	-9.65719
ffer	-9.65758
bakken	-9.6576
aktiv	-9.65796
▁paris	-9.65798
▁brø	-9.65868
11	-9.65915
part	-9.65929
bånd	-9.65939
▁ein	-9.65981
drift	-9.65986
ept	-9.66036
▁rein	-9.66045
▁plassert	-9.66318
▁rad	-9.66333
kysten	-9.66344
▁richard	-9.66374
▁bakvingen	-9.66376
ernes	-9.66407
mple	-9.66427
▁borg	-9.66441
▁flagg	-9.6648
▁hå	-9.66527
▁salt	-9.66534
▁økt	-9.66596
▁bevegelse	-9.66614
levende	-9.66679
bbe	-9.66775
▁haug	-9.66795
nik	-9.66808
▁drive	-9.66813
fart	-9.66835
ary	-9.67043
ū	-9.67199
ella	-9.67222
dommer	-9.67232
▁1950	-9.67234
▁reform	-9.67339
▁villa	-9.67342
▁mørk	-9.6739
▁borger	-9.67399
fag	-9.67415
▁zo	-9.67418
▁raskt	-9.67455
▁sports	-9.67474
▁gården	-9.67484
▁bay	-9.67506
ade	-9.67561
din	-9.67591
stall	-9.67609
ax	-9.67615
än	-9.67621
nivå	-9.67633
▁mes	-9.67642
▁felt	-9.67672
▁prisen	-9.67724
▁program	-9.67818
▁krig	-9.67885
▁dynastiet	-9.67994
▁elve	-9.68001
▁lære	-9.68033
▁kategori	-9.68046
▁1978	-9.68059
analyse	-9.68064
▁will	-9.68082
ão	-9.68135
styrt	-9.68192
▁fulgte	-9.68237
▁skips	-9.68247
▁with	-9.6838
▁besto	-9.68405
tti	-9.6844
mil	-9.68486
46	-9.68487
▁skrive	-9.68504
▁nr	-9.68532
▁lagt	-9.68553
▁metal	-9.68596
▁forsvars	-9.68611
▁indi	-9.68732
▁sho	-9.68838
▁tradisjon	-9.68902
▁nordvest	-9.68907
▁1982	-9.68908
rev	-9.6893
aceae	-9.68945
▁handling	-9.68964
kirke	-9.69032
▁got	-9.69047
gy	-9.69159
▁fylkes	-9.69225
▁leir	-9.69242
▁høyere	-9.69268
▁70	-9.69316
våpen	-9.69356
32	-9.69367
ugh	-9.69368
▁app	-9.69387
com	-9.69425
ledd	-9.69436
▁ansvar	-9.69444
▁enhet	-9.69461
▁livs	-9.6947
røy	-9.69585
motor	-9.69721
▁måned	-9.69723
г	-9.69749
▁suksess	-9.69749
▁1976	-9.69761
▁1986	-9.69765
▁sli	-9.69773
eide	-9.6978
fortelling	-9.69817
▁øvrig	-9.69825
▁slott	-9.6984
▁instrument	-9.6988
▁camp	-9.6995
▁ung	-9.69972
▁kjerne	-9.70002
▁design	-9.70009
sport	-9.70064
bein	-9.70143
▁iii	-9.70148
valget	-9.70167
▁bol	-9.70263
kultur	-9.70281
stor	-9.70321
▁åpning	-9.70335
▁passer	-9.7035
ical	-9.70427
lon	-9.70429
▁univers	-9.70582
▁sti	-9.70601
▁saint	-9.7066
voks	-9.70662
▁snø	-9.70684
▁helge	-9.70708
91	-9.70752
atet	-9.7077
dagen	-9.70811
qua	-9.70887
▁cm	-9.70938
▁bestod	-9.71006
▁gam	-9.71016
ografi	-9.71115
▁fest	-9.71195
foss	-9.7135
alis	-9.71373
▁metall	-9.71413
▁hvilke	-9.71482
▁ris	-9.71483
▁typisk	-9.71486
18	-9.7156
ua	-9.71583
▁för	-9.71674
ott	-9.71715
▁kraftverk	-9.71736
mis	-9.71781
▁spill	-9.71815
▁regjeringen	-9.71834
▁utnevnt	-9.71859
71	-9.71859
▁try	-9.71912
▁områder	-9.71929
ith	-9.71973
15	-9.72102
▁rute	-9.72122
▁fjord	-9.72205
vesen	-9.72227
can	-9.72328
▁kost	-9.72335
ε	-9.72357
▁gjelder	-9.7237
▁antenne	-9.72373
▁1960	-9.72375
▁lau	-9.72396
14	-9.724
▁front	-9.72416
former	-9.72442
▁ger	-9.72567
▁universitetet	-9.72604
trær	-9.7268
museet	-9.72703
bul	-9.72728
▁tank	-9.72735
79	-9.72736
19	-9.72782
к	-9.72886
bet	-9.72907
▁90	-9.7292
▁roll	-9.72966
▁fun	-9.7299
▁trafikk	-9.73035
▁py	-9.73148
bank	-9.7316
bakk	-9.73184
▁ana	-9.73207
▁stockholm	-9.73242
▁1973	-9.73242
▁løp	-9.73246
▁1979	-9.73255
bit	-9.73261
▁klima	-9.73274
▁hevde	-9.73278
▁larven	-9.73296
arbeider	-9.73333
▁skip	-9.73346
komst	-9.73369
én	-9.73385
kka	-9.73424
▁kh	-9.73448
▁finn	-9.73478
▁bla	-9.73516
▁pal	-9.73579
syke	-9.73622
▁ran	-9.73627
kj	-9.73672
▁gor	-9.73688
▁spre	-9.73716
plassen	-9.73766
▁temperatur	-9.73906
styrke	-9.73911
▁karriere	-9.73911
▁sykdom	-9.73984
▁beskytte	-9.74006
innen	-9.74055
▁vokal	-9.74101
▁1977	-9.74135
▁kardinal	-9.74135
ekspedisjon	-9.74135
▁1972	-9.74149
24	-9.74167
▁charles	-9.74171
▁ting	-9.74202
▁bærer	-9.74212
formen	-9.74222
slav	-9.74222
løsning	-9.74231
▁hydro	-9.74252
▁hær	-9.74411
▁marg	-9.74444
▁lor	-9.74473
sjø	-9.74643
▁indisk	-9.74654
▁zu	-9.74657
▁viste	-9.74711
▁tang	-9.748
▁variant	-9.74809
▁ö	-9.74849
▁naturlig	-9.74862
▁dato	-9.74904
bedrift	-9.74915
osa	-9.75005
▁japan	-9.75029
▁forsøk	-9.75031
▁organisasjonen	-9.75035
ì	-9.75036
▁1956	-9.75036
▁storbritannia	-9.75036
eringen	-9.75057
▁2016	-9.75063
▁jazz	-9.75084
▁blue	-9.75087
▁musiker	-9.75126
sam	-9.75147
▁city	-9.75153
▁foruten	-9.75155
▁gjenopp	-9.75189
flu	-9.75204
▁that	-9.75251
lly	-9.75285
rup	-9.75294
▁gun	-9.75296
16	-9.75352
▁od	-9.75462
▁slaget	-9.7548
trop	-9.75488
▁nrk	-9.75505
▁fyr	-9.75612
▁ube	-9.75633
ön	-9.75654
▁selve	-9.75694
løy	-9.75706
ritt	-9.75789
▁festning	-9.75814
▁neste	-9.75818
fil	-9.75839
94	-9.75861
▁vinner	-9.75886
▁may	-9.7589
inae	-9.75894
grupper	-9.75896
▁forfatteren	-9.75916
▁service	-9.75945
▁etterhvert	-9.75946
▁klassisk	-9.75946
▁øvre	-9.75946
▁multi	-9.75955
▁1983	-9.75956
▁video	-9.75969
▁betegnelsen	-9.75979
▁fjellet	-9.76021
under	-9.76077
▁skatte	-9.76136
zy	-9.7625
dorf	-9.76266
▁union	-9.76278
▁tha	-9.76325
▁hage	-9.76379
▁benytte	-9.76407
tom	-9.7648
▁begrepet	-9.76508
øm	-9.7651
▁redaktør	-9.76647
▁tog	-9.76659
▁kvinner	-9.76702
trolig	-9.76775
▁turist	-9.76821
▁nederlandsk	-9.76826
▁afrika	-9.76853
medisin	-9.76878
▁1968	-9.76879
▁krav	-9.76886
▁led	-9.76932
▁kloster	-9.76933
▁krist	-9.76954
nntil	-9.7698
▁stammer	-9.76984
▁bygningen	-9.77048
▁tettsted	-9.77063
pet	-9.7707
▁rør	-9.77085
▁størrelse	-9.77206
oppgave	-9.77224
▁hill	-9.77233
▁buk	-9.77253
car	-9.77278
▁mørke	-9.7734
▁normalt	-9.7736
49	-9.77391
parken	-9.7746
25	-9.77471
▁benyttes	-9.77476
historie	-9.77538
krets	-9.77575
▁valgte	-9.77577
møte	-9.77606
▁stoff	-9.77619
▁din	-9.77643
▁rike	-9.77654
▁il	-9.77655
lser	-9.77683
▁wil	-9.77701
84	-9.77703
б	-9.77789
▁opprinnelse	-9.77789
▁åpningsseremoni	-9.77789
▁regissert	-9.77789
▁1969	-9.778
▁stål	-9.77819
▁endret	-9.77858
▁alltid	-9.77864
▁ken	-9.77894
▁mik	-9.77904
gger	-9.77951
▁wei	-9.77973
▁gau	-9.77974
▁andreas	-9.77988
fat	-9.78008
▁sankt	-9.78063
bei	-9.78116
▁polsk	-9.78271
▁menn	-9.78308
verdig	-9.7831
saker	-9.78312
handler	-9.78319
bach	-9.78419
▁dø	-9.78455
▁gil	-9.78465
▁kode	-9.78481
▁luc	-9.78501
▁hode	-9.78502
ville	-9.78528
▁frø	-9.7857
63	-9.78574
▁por	-9.78605
ān	-9.78665
språklig	-9.78675
▁bakke	-9.78693
▁olympisk	-9.78723
▁artikkel	-9.78723
▁flaggbærer	-9.78723
▁nærmest	-9.78728
forvaltning	-9.7873
▁representant	-9.78735
hov	-9.78737
▁kjempe	-9.7878
gram	-9.78803
▁sjef	-9.78812
▁vær	-9.7887
▁fange	-9.78871
▁albert	-9.78923
▁kongelig	-9.78927
ato	-9.78956
▁operasjon	-9.7897
▁retning	-9.79057
▁bord	-9.79077
▁king	-9.79079
▁jag	-9.79126
93	-9.79212
▁hva	-9.79233
▁sven	-9.79336
▁fabrikk	-9.79453
▁unge	-9.79532
▁mini	-9.79612
▁tilhørt	-9.79668
▁kil	-9.79672
▁ledelse	-9.79673
▁south	-9.79678
gått	-9.79682
▁35	-9.79705
sats	-9.79822
bevegelsen	-9.80108
▁single	-9.80113
vendt	-9.80146
trinn	-9.80232
▁grensen	-9.8025
tek	-9.80276
later	-9.80369
▁melk	-9.80441
▁anton	-9.8046
▁vå	-9.8053
▁kampen	-9.80598
▁tema	-9.80602
ł	-9.8061
spor	-9.80614
â	-9.80619
▁dårlig	-9.80622
▁kart	-9.80653
pal	-9.80725
▁glass	-9.80749
▁gall	-9.80756
ører	-9.8076
▁buss	-9.80797
▁høye	-9.80876
▁gode	-9.80881
▁char	-9.80952
▁gla	-9.8097
snes	-9.80972
tør	-9.81053
51	-9.81123
▁tau	-9.81147
▁provins	-9.81252
ár	-9.81253
▁omtale	-9.81259
sang	-9.81265
jar	-9.81321
▁kjøpe	-9.81339
▁feil	-9.81339
▁stod	-9.81443
▁finne	-9.8145
misjon	-9.81461
▁innsjøen	-9.81491
▁linjen	-9.81536
kirken	-9.81579
▁1981	-9.8158
λ	-9.81581
▁fjerde	-9.81581
▁hurtig	-9.81583
▁referere	-9.816
▁bydistrikt	-9.81625
▁aktivitet	-9.81628
▁tan	-9.81646
undersøkelse	-9.81656
▁long	-9.81694
▁500	-9.81749
▁gold	-9.81764
▁arve	-9.81798
fugl	-9.8181
stans	-9.81848
▁ref	-9.81851
▁ramm	-9.81864
enberg	-9.81932
byrå	-9.81943
▁teori	-9.81992
▁ettersom	-9.81995
▁bøker	-9.82009
ique	-9.82016
holmen	-9.82112
▁aust	-9.82134
▁regjerings	-9.82137
▁grunnla	-9.82164
▁holm	-9.82164
17	-9.82178
▁cre	-9.82213
▁hon	-9.82227
produkter	-9.82268
▁retts	-9.82269
▁avis	-9.82299
▁horn	-9.82313
medaljen	-9.82348
dro	-9.8236
▁300	-9.82367
virksomhet	-9.82391
type	-9.82418
kraftverk	-9.82494
45	-9.82503
▁ala	-9.82533
▁dor	-9.82542
▁mah	-9.82543
ß	-9.82546
▁valgt	-9.82551
▁innflytelse	-9.82551
▁wilhelm	-9.82551
▁utdannet	-9.82551
▁forteller	-9.82556
▁dronning	-9.82557
▁qū	-9.8256
▁kontakt	-9.8256
▁kjønn	-9.82578
▁streng	-9.82622
svik	-9.82644
hard	-9.82647
▁cho	-9.8272
▁kj	-9.82726
kamera	-9.82734
▁følge	-9.82816
▁bølge	-9.82943
▁gui	-9.82967
▁grupper	-9.83008
▁petter	-9.83066
▁song	-9.83111
firma	-9.8314
tjenester	-9.8315
▁bio	-9.8321
somme	-9.8321
▁enten	-9.83234
▁scene	-9.83367
▁dj	-9.8345
▁kraftig	-9.83474
▁spiss	-9.83495
krit	-9.83502
́	-9.83532
▁hverandre	-9.83532
▁1975	-9.83532
▁autonom	-9.83533
▁dro	-9.83593
▁gutt	-9.83669
fot	-9.83729
▁fyrst	-9.83736
▁are	-9.83837
bol	-9.8385
▁slutten	-9.83878
▁kontor	-9.83895
▁stamme	-9.83929
21	-9.8393
olo	-9.83975
▁nivå	-9.84036
69	-9.84091
▁jur	-9.8411
▁fc	-9.84143
▁phil	-9.84158
▁kommunene	-9.84396
ric	-9.84404
č	-9.84522
▁vingespenn	-9.84522
▁dialekt	-9.84524
▁sørvest	-9.84528
▁naturgass	-9.8453
▁1940	-9.84548
krigen	-9.84598
fre	-9.84631
▁primær	-9.84634
▁cam	-9.84647
▁masse	-9.84714
▁opprør	-9.84719
▁bryst	-9.84742
▁ull	-9.84918
▁wu	-9.84995
▁kjell	-9.85054
bladet	-9.85064
hei	-9.85069
▁hansen	-9.85111
▁lot	-9.85135
▁nam	-9.85135
▁material	-9.8516
▁folket	-9.85163
▁havet	-9.85178
22	-9.85191
▁slått	-9.8526
▁seier	-9.85319
▁orkester	-9.85395
▁journalist	-9.8542
07	-9.85472
strid	-9.8549
merket	-9.85498
я	-9.85522
▁administrativ	-9.85522
▁parlament	-9.85522
hastighet	-9.85524
▁united	-9.85525
▁oppdaget	-9.85526
▁college	-9.85535
▁brasil	-9.85536
▁ordfører	-9.8555
▁hed	-9.85584
▁derimo	-9.8561
▁militære	-9.85693
stille	-9.85709
▁sønnen	-9.85729
▁areal	-9.85768
▁eng	-9.85768
▁underlagt	-9.85768
▁opptre	-9.85794
▁opphav	-9.85806
vold	-9.85869
▁gard	-9.85897
▁150	-9.85916
▁india	-9.8594
møll	-9.86089
▁sun	-9.86094
rim	-9.86126
▁qui	-9.86135
▁jule	-9.86186
▁luk	-9.86203
▁vakt	-9.86243
▁heller	-9.8628
mond	-9.86364
▁music	-9.86393
▁dog	-9.86401
▁run	-9.86519
▁religion	-9.86532
▁relativ	-9.86533
kontor	-9.86535
▁bane	-9.86535
▁liga	-9.86543
▁melodi	-9.86543
▁bokstav	-9.86545
nie	-9.8655
▁omtalt	-9.86565
▁oversatt	-9.86588
▁ud	-9.86596
▁verdenskrig	-9.86623
▁gjeste	-9.86657
▁kara	-9.86721
▁svak	-9.86831
stid	-9.86846
▁ask	-9.86879
▁jevn	-9.86982
gjorde	-9.87062
▁nettverk	-9.87072
▁roma	-9.87168
▁bakkroppen	-9.87234
formede	-9.87395
▁programmet	-9.87434
veg	-9.8745
▁hellig	-9.87456
▁ter	-9.87459
pur	-9.87467
▁uttale	-9.87476
▁lar	-9.87479
album	-9.87483
studi	-9.87544
prefektur	-9.87552
у	-9.87552
▁tilgjengelig	-9.87552
▁århundre	-9.87553
▁sikre	-9.87578
▁2017	-9.87579
▁poeng	-9.87613
▁tam	-9.87659
▁high	-9.87696
▁symbol	-9.87807
liste	-9.87854
▁hund	-9.87907
flat	-9.88074
dahl	-9.88078
▁kalte	-9.88087
▁jobb	-9.88103
▁område	-9.88141
▁mono	-9.88145
▁kalk	-9.88335
hode	-9.88354
▁personlig	-9.884
gue	-9.8841
▁santa	-9.8846
▁teknologi	-9.88497
prosjekt	-9.88544
hund	-9.88578
▁rapport	-9.88584
▁school	-9.88584
▁fremdeles	-9.88584
▁hil	-9.88604
▁varierer	-9.88631
▁livet	-9.8865
▁svi	-9.88674
▁kanal	-9.8869
▁län	-9.88693
▁hodet	-9.8873
▁eiendom	-9.88762
▁penge	-9.88785
▁dun	-9.888
▁hul	-9.88832
▁spilles	-9.88834
dannelse	-9.88884
▁prosjekt	-9.88885
▁bass	-9.8892
▁vanlige	-9.89045
▁befolkningen	-9.89118
post	-9.89135
▁mulighet	-9.8924
ada	-9.8927
▁sterk	-9.89274
skatt	-9.89292
▁uavhengig	-9.89539
▁jacob	-9.8956
trafikk	-9.89618
▁sannsynlig	-9.89625
▁religiøs	-9.89625
▁berømt	-9.89626
høgskole	-9.8968
▁dekker	-9.89688
▁jordbruk	-9.89698
svømme	-9.89703
▁utdanning	-9.89722
nummer	-9.89766
▁korea	-9.89796
skifte	-9.89957
▁stab	-9.89959
lid	-9.89997
▁periode	-9.90076
gate	-9.9012
cent	-9.90364
▁pel	-9.90472
▁fremme	-9.90492
28	-9.90547
▁sykl	-9.90595
utvikling	-9.90613
▁ark	-9.90679
▁kjøre	-9.90705
▁sja	-9.90715
▁artene	-9.90736
avdeling	-9.90778
ån	-9.90879
slekten	-9.90967
orden	-9.90987
▁huset	-9.90996
▁gua	-9.91
dommen	-9.91041
▁kapp	-9.91125
▁hoff	-9.9116
▁olsen	-9.9117
▁forsvar	-9.9119
assi	-9.91213
▁ost	-9.91315
duk	-9.91317
handel	-9.91341
▁prøve	-9.91361
▁asia	-9.91369
ín	-9.91532
typen	-9.91558
▁geo	-9.91571
▁sesong	-9.91573
▁papir	-9.91611
institusjon	-9.91743
▁hustru	-9.91744
▁fokus	-9.91749
▁adresse	-9.91753
▁1971	-9.91756
▁institut	-9.91792
▁45	-9.91797
lar	-9.918
▁markert	-9.91809
▁comp	-9.91816
▁coll	-9.91835
▁forretnings	-9.91841
▁hannen	-9.91873
wan	-9.91883
▁henry	-9.91901
▁mobil	-9.91916
▁las	-9.91927
▁senter	-9.91931
familie	-9.91972
▁neu	-9.92041
83	-9.92052
▁morgen	-9.92102
▁ønske	-9.92114
▁hente	-9.92125
▁damp	-9.92172
▁solo	-9.92189
▁mente	-9.922
▁glo	-9.92239
▁stopp	-9.92274
▁bat	-9.92311
▁bestemt	-9.92347
▁marie	-9.92359
▁publisert	-9.92518
▁flor	-9.92642
▁sider	-9.92763
▁syr	-9.92767
▁hjelpe	-9.92785
▁elektro	-9.92798
sekretær	-9.92802
▁objekt	-9.92817
▁magnus	-9.92824
▁smith	-9.92833
▁1965	-9.92839
▁esp	-9.92859
skaffe	-9.92862
▁tørr	-9.92925
▁forvingen	-9.92961
▁daniel	-9.92964
▁dersom	-9.93013
▁bud	-9.93015
▁innført	-9.93056
▁sla	-9.93121
ping	-9.93176
▁nådd	-9.93184
▁miste	-9.93201
▁tim	-9.93256
▁regel	-9.93259
vit	-9.93325
▁hopp	-9.93357
▁dager	-9.93423
vand	-9.93428
▁kanon	-9.93473
▁lignende	-9.93518
▁sco	-9.93533
dam	-9.93637
▁troll	-9.93659
▁que	-9.93712
kjøn	-9.93772
31	-9.93852
▁kai	-9.93858
ô	-9.93904
▁deriblant	-9.93904
▁elektrisk	-9.93904
▁omfattende	-9.93904
▁records	-9.93904
▁oblast	-9.93904
▁forekommer	-9.93904
▁arrangert	-9.93904
▁stadion	-9.93912
▁lengst	-9.93921
▁power	-9.93923
▁1967	-9.93925
▁1974	-9.93925
▁atom	-9.93925
▁offentlige	-9.93925
▁1900	-9.93963
styret	-9.93984
forfatter	-9.93985
▁intern	-9.93989
▁sammenheng	-9.94005
▁utgi	-9.9404
cker	-9.94056
▁eksempelvis	-9.94068
▁koloni	-9.9419
anda	-9.94231
▁tsj	-9.94262
awa	-9.94282
▁strid	-9.94307
▁kok	-9.94365
▁bydel	-9.94406
klar	-9.94427
mont	-9.94453
▁eva	-9.9458
illa	-9.9465
▁vm	-9.94653
▁out	-9.9471
▁tå	-9.94724
▁az	-9.94743
▁havne	-9.94805
▁rollen	-9.94895
▁inspirert	-9.95003
▁ridder	-9.95012
▁celle	-9.9502
▁skotsk	-9.95034
▁produsere	-9.9506
funksjon	-9.95109
museum	-9.95113
shan	-9.95169
drakt	-9.95176
▁beat	-9.95307
▁fn	-9.95315
▁400	-9.95349
▁velge	-9.95374
▁samfunns	-9.95411
▁kunnskap	-9.95423
▁akt	-9.95442
hunder	-9.95482
▁britisk	-9.95567
▁jarl	-9.956
søy	-9.95608
▁ali	-9.95737
▁hunnen	-9.95771
yuan	-9.95822
▁populære	-9.95846
▁mir	-9.95856
zu	-9.9586
rolle	-9.95899
▁divisjon	-9.95902
▁hovedrollene	-9.95937
▁alf	-9.96025
konstruksjon	-9.96114
κ	-9.96114
▁alternativ	-9.96114
▁spesiell	-9.96115
▁jakob	-9.96115
▁1945	-9.96128
▁hotell	-9.96129
▁1964	-9.96133
rede	-9.96213
▁omfattet	-9.96233
legg	-9.96301
▁avisen	-9.96345
▁tegnet	-9.9636
▁whi	-9.96386
▁vannet	-9.96392
▁boy	-9.96412
fold	-9.9642
▁flyplass	-9.96443
▁akademi	-9.96456
▁organisert	-9.96491
lege	-9.96498
mennene	-9.96513
materiale	-9.9652
▁tonn	-9.96566
▁otto	-9.96604
føl	-9.96624
▁danse	-9.96674
elv	-9.96712
house	-9.96721
▁resten	-9.96732
▁human	-9.96807
▁verd	-9.96861
bygging	-9.96931
▁bevis	-9.96942
▁posisjon	-9.9695
oma	-9.96975
▁løpet	-9.96979
▁33	-9.97024
▁blomster	-9.97052
rygg	-9.97121
▁nordisk	-9.97163
oid	-9.97179
▁fylket	-9.97226
▁bob	-9.97229
▁ytterligere	-9.97237
▁beijing	-9.97238
kapasitet	-9.97239
▁vokste	-9.97245
▁musikkalbum	-9.97266
▁arkiv	-9.97289
▁vor	-9.97317
produsent	-9.97392
utgivelse	-9.9748
bry	-9.97508
vegg	-9.9758
▁heng	-9.97591
▁amt	-9.97652
▁pul	-9.97662
▁drag	-9.9768
dekke	-9.97752
▁rose	-9.97784
▁dol	-9.97863
▁krets	-9.97918
▁laste	-9.97944
tøy	-9.9796
▁overfor	-9.97986
rute	-9.97988
varer	-9.98015
basert	-9.98017
▁samlet	-9.98057
legge	-9.98107
▁landskap	-9.98136
skipet	-9.98214
vald	-9.98238
▁stille	-9.98253
▁steve	-9.98262
cus	-9.98315
▁historiske	-9.98366
▁trøndelag	-9.98374
▁digital	-9.98374
▁debutalbum	-9.98378
▁invest	-9.98409
▁sikkerhets	-9.98474
distrikt	-9.98503
▁vet	-9.98542
regionen	-9.98556
runde	-9.98574
▁hæren	-9.98592
ima	-9.98672
wald	-9.98689
kjøp	-9.98726
▁åpne	-9.98738
29	-9.98784
▁oppsto	-9.98786
øvelse	-9.98787
fjellet	-9.98804
▁befolkning	-9.98836
park	-9.9886
▁bytte	-9.98861
▁forskning	-9.9888
hopp	-9.98889
serien	-9.98941
27	-9.98984
rød	-9.99055
▁ønsket	-9.99129
▁kast	-9.99143
▁forkorte	-9.99151
vikler	-9.99197
▁styrker	-9.9925
vor	-9.99257
▁regjering	-9.99272
35	-9.9931
▁ansatte	-9.99314
program	-9.99361
▁off	-9.99388
▁arn	-9.99462
▁australia	-9.99523
▁teknisk	-9.99524
▁inngår	-9.99525
▁lengre	-9.99527
▁vanskelig	-9.99529
▁kin	-9.99562
▁drikke	-9.99615
kors	-9.99643
▁former	-9.99722
▁lån	-9.99765
løpet	-9.99836
▁menighet	-9.99842
time	-9.9999
skriv	-10.0006
▁jakt	-10.0008
▁river	-10.0014
ulf	-10.0015
▁nø	-10.0028
▁back	-10.0042
▁nordland	-10.0045
▁idrettslag	-10.0049
hed	-10.0059
▁støttet	-10.0062
▁original	-10.0068
ē	-10.0069
▁episode	-10.0069
▁1961	-10.007
▁1948	-10.0071
kommando	-10.0071
▁bekrefte	-10.0073
▁vokser	-10.0074
▁snakke	-10.0075
▁økonomi	-10.0075
▁stadig	-10.0079
▁fan	-10.0081
hua	-10.009
▁kald	-10.0098
▁historien	-10.01
stasjonen	-10.0105
ordning	-10.0107
▁team	-10.0107
▁lim	-10.0115
▁inf	-10.0116
▁konkurranse	-10.0118
ск	-10.0118
▁begynner	-10.0119
aria	-10.0119
▁kha	-10.0153
grave	-10.0167
▁alv	-10.0171
▁teksten	-10.018
▁qua	-10.0181
▁signal	-10.0181
▁ey	-10.0185
▁alkohol	-10.0186
▁introdusert	-10.0186
▁club	-10.0186
ström	-10.0187
▁sykehus	-10.0187
▁1962	-10.0188
▁mytologi	-10.0188
▁1920	-10.0189
▁verket	-10.0192
sterk	-10.0199
hjem	-10.0206
▁mary	-10.0206
▁kraftige	-10.0212
versjon	-10.0228
▁sørlige	-10.0232
plate	-10.024
▁fritt	-10.0242
kontroll	-10.0242
▁vinge	-10.0244
kanalen	-10.0246
kort	-10.0249
kasse	-10.0255
▁maler	-10.0268
▁tårn	-10.027
▁mw	-10.0273
åsen	-10.0276
▁andersen	-10.028
▁anlegg	-10.0287
▁brenn	-10.0288
▁bronse	-10.029
war	-10.029
▁cup	-10.0295
▁produserer	-10.0299
▁passasjer	-10.0305
▁fødsel	-10.0305
▁selvstendig	-10.0305
▁joseph	-10.0305
▁eventyr	-10.0305
▁nikola	-10.0305
▁insekt	-10.0306
▁vitenskapelig	-10.0306
▁flertall	-10.0306
▁bydelen	-10.0306
▁familiegruppen	-10.0308
▁mala	-10.0309
▁studio	-10.031
▁alfred	-10.031
▁gjennomført	-10.0321
fugler	-10.0321
▁sukker	-10.0324
▁utøver	-10.0332
cal	-10.0334
▁base	-10.034
▁stam	-10.0342
▁kjø	-10.035
kjent	-10.0352
▁behandle	-10.0358
▁kaptein	-10.0358
løst	-10.0362
hof	-10.0365
▁prim	-10.0372
▁grunnlag	-10.0376
▁log	-10.0379
mur	-10.0383
▁historiker	-10.0387
▁kim	-10.0392
▁pap	-10.0402
▁våren	-10.0407
▁markeds	-10.0418
▁himmel	-10.0426
▁royal	-10.0426
▁dverg	-10.0427
▁bodde	-10.0428
▁dominere	-10.0433
hørende	-10.0443
▁rosen	-10.0451
▁leve	-10.0453
linjer	-10.0456
▁morten	-10.0456
▁forsøkt	-10.046
▁ekte	-10.0468
▁lenge	-10.0473
▁brev	-10.0473
▁komme	-10.0483
vision	-10.0488
▁lyst	-10.049
oksid	-10.0491
fyr	-10.0496
▁1800	-10.0496
sanger	-10.0498
forhold	-10.0499
▁prins	-10.0528
tilbud	-10.053
▁utover	-10.0545
▁sistnevnte	-10.0548
▁1942	-10.0548
▁fengsel	-10.0548
▁tilknytte	-10.0548
▁skjedde	-10.0548
makt	-10.0548
▁1963	-10.0549
bur	-10.0559
▁overflate	-10.056
▁demningen	-10.0561
▁gjer	-10.0565
▁straffe	-10.0567
▁øke	-10.0573
gjort	-10.0574
▁tai	-10.0575
hai	-10.0586
▁jack	-10.0587
▁moren	-10.0593
▁cer	-10.0594
▁170	-10.0596
domstol	-10.0599
▁chang	-10.0607
▁latinsk	-10.0608
▁begrep	-10.0609
▁slå	-10.0609
▁terr	-10.0617
▁krever	-10.0621
▁div	-10.0634
stell	-10.0648
▁kroner	-10.065
finn	-10.0651
▁ungdom	-10.0658
▁amerika	-10.0659
▁medlemmene	-10.0672
▁kropps	-10.0673
▁1930	-10.0674
▁sverd	-10.0675
foreningen	-10.0676
▁produserte	-10.0694
bad	-10.0694
▁polen	-10.0697
▁struktur	-10.0699
opter	-10.0705
prosess	-10.071
forskning	-10.0711
stjerne	-10.0711
▁nasjonalpark	-10.0712
▁qi	-10.0716
ksjoner	-10.072
▁tapte	-10.0724
▁lev	-10.0729
▁vers	-10.0731
▁sea	-10.0733
▁utstilling	-10.0735
och	-10.0737
▁hum	-10.0737
magasinet	-10.0743
visning	-10.0745
▁skriver	-10.0748
▁angel	-10.0755
▁sideelv	-10.0756
▁landskapet	-10.0762
rekke	-10.0771
hild	-10.0777
▁grov	-10.078
vang	-10.0781
▁toppen	-10.0787
▁hertug	-10.0791
▁matt	-10.0793
▁alvorlig	-10.0796
▁sunn	-10.0797
▁1951	-10.0798
▁1949	-10.0798
▁1946	-10.0798
▁canada	-10.0798
▁1957	-10.0798
tårn	-10.08
▁bevart	-10.0802
▁listen	-10.0806
▁ligne	-10.0808
▁rov	-10.0808
▁kari	-10.0809
▁kamper	-10.0809
13	-10.0812
▁europeiske	-10.0812
▁liberal	-10.0821
▁gruve	-10.0828
▁sit	-10.0838
▁østlig	-10.0842
▁fjerne	-10.0847
▁ray	-10.0847
▁meta	-10.085
▁master	-10.086
lich	-10.0862
▁utviklings	-10.0863
▁sær	-10.0869
byggingen	-10.0869
▁irsk	-10.0872
▁øverst	-10.0886
▁alb	-10.0888
▁forsvaret	-10.0889
▁tone	-10.089
▁nedre	-10.089
▁akk	-10.0891
▁romanen	-10.0893
▁kval	-10.0899
yu	-10.0901
26	-10.0902
▁cru	-10.0904
▁aas	-10.091
▁bell	-10.0911
▁lyn	-10.0915
▁mei	-10.0916
▁foreningen	-10.0919
linje	-10.092
τ	-10.0922
▁sovjetunionen	-10.0923
▁american	-10.0923
▁publikum	-10.0923
▁generelt	-10.0923
▁yngre	-10.0923
▁sendte	-10.0923
▁nærmere	-10.0924
▁1958	-10.0925
▁1959	-10.0925
▁tale	-10.0926
▁hov	-10.0926
ania	-10.0928
bell	-10.0928
▁slank	-10.0929
▁bou	-10.093
▁lenger	-10.0932
▁salg	-10.0932
▁brand	-10.0933
▁rand	-10.0935
▁fremste	-10.0935
▁utvalg	-10.0939
▁aksje	-10.0946
bridge	-10.0948
ander	-10.0952
able	-10.0953
▁olavs	-10.0956
▁utga	-10.0956
▁eie	-10.0958
▁øverste	-10.096
▁kjøl	-10.096
▁tolk	-10.0965
▁vestlige	-10.0966
forsvar	-10.0971
▁trener	-10.0975
bryter	-10.0977
rige	-10.0986
▁simon	-10.0993
▁foreldre	-10.0995
maker	-10.1002
cheng	-10.1004
veis	-10.1006
▁innhold	-10.1006
bour	-10.1007
▁vill	-10.101
sfjorden	-10.1018
▁jim	-10.1022
▁kristen	-10.1027
traff	-10.1031
legger	-10.1035
masse	-10.1038
▁fløy	-10.1051
▁utgangspunkt	-10.1051
▁pasient	-10.1051
▁inneholdt	-10.1051
▁1966	-10.1053
ppel	-10.1054
▁bakgrunn	-10.1056
▁michel	-10.1059
▁liber	-10.1063
▁typer	-10.1068
speil	-10.1068
▁bunn	-10.1069
▁yi	-10.107
▁grøn	-10.1076
▁butikk	-10.1078
▁qing	-10.1092
▁dahl	-10.1094
▁adam	-10.11
▁gitarist	-10.1104
▁normal	-10.112
sdatter	-10.1132
▁bonde	-10.1133
▁bidra	-10.1134
▁sterke	-10.114
▁web	-10.1145
▁utføre	-10.1146
▁tettstedet	-10.1159
kil	-10.1169
fant	-10.1173
▁rob	-10.1175
▁sete	-10.1179
▁etterfulgt	-10.1181
▁cirka	-10.1181
▁fiolin	-10.1181
▁alexander	-10.1181
▁fysisk	-10.1181
▁frederik	-10.1182
▁islam	-10.1183
▁1939	-10.1183
▁oscar	-10.1184
▁egypt	-10.1186
▁internett	-10.1186
▁nærheten	-10.1188
▁hval	-10.119
ikasjon	-10.1197
▁blokk	-10.1199
▁ah	-10.1201
redning	-10.1202
▁stig	-10.1205
▁kryss	-10.1211
▁prakt	-10.1218
▁kreft	-10.122
▁fotballklubb	-10.1221
▁wolf	-10.1221
▁peder	-10.1224
folket	-10.1227
forbindelse	-10.1233
hånd	-10.1233
miljø	-10.1235
komedie	-10.1237
▁cle	-10.1238
gjennom	-10.124
magasin	-10.124
▁statlig	-10.1241
▁viking	-10.1242
▁bidrag	-10.1246
▁bispedømme	-10.1258
zon	-10.1267
sentre	-10.1268
▁klubb	-10.1278
▁cra	-10.129
▁sno	-10.1292
▁75	-10.1293
▁yo	-10.1294
ан	-10.1302
▁programmer	-10.1308
grep	-10.1312
▁offisielt	-10.1312
▁forenklet	-10.1312
▁kapell	-10.1313
▁1943	-10.1315
▁gustav	-10.1315
▁comm	-10.1319
▁mineral	-10.132
▁trommer	-10.1323
▁00	-10.1324
▁bull	-10.1328
lignende	-10.133
▁musik	-10.133
orp	-10.1331
▁brygge	-10.1341
dømt	-10.1351
styre	-10.1352
▁metro	-10.1354
▁beg	-10.1355
▁verne	-10.1357
strømmen	-10.1362
33	-10.1364
▁teknikk	-10.137
▁skjær	-10.1373
▁spillet	-10.1377
▁artist	-10.1382
una	-10.1385
▁motta	-10.1385
▁polar	-10.1386
▁snu	-10.1397
arbeidet	-10.1398
▁larsen	-10.14
▁regional	-10.1402
botn	-10.1404
▁myk	-10.1406
▁platen	-10.1406
▁dobbelt	-10.1408
▁sovjetisk	-10.1409
▁cur	-10.1413
▁enkle	-10.1418
на	-10.1421
▁storm	-10.1422
▁tråd	-10.144
▁offiser	-10.1441
vinner	-10.1443
▁1953	-10.1446
▁musikalsk	-10.1446
▁gunnar	-10.1446
▁innspilling	-10.1446
▁belgisk	-10.1447
▁betjene	-10.1447
▁1928	-10.1447
▁1947	-10.1448
ев	-10.1449
▁philip	-10.145
▁videregående	-10.145
▁lansert	-10.1453
situasjon	-10.1453
▁eksport	-10.1456
▁german	-10.1458
gress	-10.1463
▁piano	-10.1468
ici	-10.1471
bred	-10.1473
▁systemet	-10.1474
▁tell	-10.1483
vinne	-10.1484
tunnelen	-10.1485
▁singel	-10.1487
▁politiet	-10.149
mesterskapet	-10.1492
▁ekteskap	-10.1496
▁torg	-10.1497
▁revolusjon	-10.1525
▁rau	-10.1529
løk	-10.153
slått	-10.1539
▁verb	-10.1547
▁term	-10.1551
▁kvart	-10.1554
våk	-10.1554
▁irland	-10.1564
områdene	-10.1578
▁skulptur	-10.1581
▁administrere	-10.1581
▁science	-10.1581
▁kjærlighet	-10.1582
▁tegneserie	-10.1582
▁fjernsyn	-10.1582
▁nedenfor	-10.1582
▁telefon	-10.1584
▁republikken	-10.1586
▁detalj	-10.1588
▁dvs	-10.1594
zhi	-10.1594
rettigheter	-10.1604
▁måne	-10.1606
stemning	-10.1607
lyst	-10.161
kryp	-10.161
▁planter	-10.1612
▁cri	-10.1623
▁forskjell	-10.1629
phy	-10.1629
▁lønn	-10.163
▁ansvarlig	-10.1632
zj	-10.1634
▁middelalderen	-10.1636
▁dru	-10.1636
olje	-10.1641
ulykke	-10.1642
▁stol	-10.1645
▁fett	-10.1652
▁bånd	-10.1653
chu	-10.1655
▁malm	-10.1656
måte	-10.166
▁krysser	-10.1661
krig	-10.1677
▁jobbet	-10.1682
tysk	-10.1692
▁katolske	-10.1697
▁motiv	-10.1707
▁sjelden	-10.1718
▁rolf	-10.1719
▁stortings	-10.1721
▁palass	-10.173
▁stabil	-10.1735
▁dukke	-10.1746
▁ytre	-10.1746
▁class	-10.175
▁chu	-10.1755
stått	-10.1757
▁kulturminner	-10.1766
▁falt	-10.1768
▁cd	-10.1769
▁furu	-10.1771
▁artister	-10.1773
▁finalen	-10.1776
høyskole	-10.1781
konkurranse	-10.1784
vard	-10.1787
▁forbundet	-10.1788
▁preget	-10.1799
▁øyene	-10.1801
▁shan	-10.1804
vakt	-10.1807
herre	-10.1811
jö	-10.1815
▁prosjektet	-10.1821
legging	-10.1824
stone	-10.1825
▁kg	-10.1825
havn	-10.1828
norsk	-10.1836
▁proto	-10.1836
▁grunnlegger	-10.1837
▁spørsmål	-10.1851
σ	-10.1856
▁fullstendig	-10.1857
▁sigurd	-10.1857
▁anerkjent	-10.1857
plattform	-10.1858
▁etterfølger	-10.1858
▁voksne	-10.1858
▁undervisning	-10.1858
▁kjemisk	-10.1858
▁snart	-10.1858
rommet	-10.1862
▁soldater	-10.1862
▁dokumenter	-10.1863
▁scott	-10.1864
▁green	-10.1869
▁johansen	-10.1874
▁mikro	-10.1885
▁magnet	-10.1891
▁tusen	-10.1893
▁jam	-10.1902
▁tradisjonel	-10.1914
▁vig	-10.1921
▁vunnet	-10.1928
▁skinn	-10.1929
født	-10.193
▁gon	-10.1932
▁800	-10.196
▁anta	-10.1972
▁sæ	-10.1973
▁utvikler	-10.1992
▁skottland	-10.1998
▁forårsake	-10.1999
▁1941	-10.2
▁firmaet	-10.2
▁1936	-10.2
▁1952	-10.2
▁drammen	-10.2002
▁fotballspiller	-10.2002
▁avhengig	-10.2003
▁nederland	-10.2007
▁major	-10.2008
▁east	-10.2013
▁skjell	-10.2014
▁ledende	-10.2014
▁innsats	-10.2016
jå	-10.2016
▁møter	-10.2019
▁debutert	-10.2021
ward	-10.2025
kjøretøy	-10.2027
▁saga	-10.2043
▁dans	-10.2057
▁preg	-10.2059
▁gaten	-10.2066
forbundet	-10.2078
▁tun	-10.2081
āng	-10.2097
▁korn	-10.2102
▁herman	-10.2104
▁kandidat	-10.2107
▁slett	-10.2113
▁debut	-10.2126
▁institutt	-10.2129
▁oc	-10.2133
▁california	-10.214
▁millimeter	-10.214
▁vulkan	-10.214
▁installert	-10.214
▁jørgen	-10.2141
stråling	-10.2141
▁1954	-10.2143
▁medisinsk	-10.2145
strekning	-10.2146
▁kjøtt	-10.2146
bak	-10.2159
▁hersker	-10.2159
▁planet	-10.2168
▁høst	-10.2178
▁opplag	-10.2189
▁dør	-10.2199
sand	-10.2204
▁femte	-10.222
skjær	-10.2223
▁legend	-10.2234
punktet	-10.2235
▁ankom	-10.2235
▁oliv	-10.2242
▁tunnel	-10.2244
▁spp	-10.2256
▁harry	-10.2256
avtale	-10.2259
▁handler	-10.2268
▁filosofi	-10.2281
betegnelse	-10.2282
▁ludvig	-10.2285
hospital	-10.2286
▁redusere	-10.2286
▁mangler	-10.2286
▁edward	-10.2287
▁individ	-10.2287
▁1955	-10.2288
▁spania	-10.229
opplysning	-10.2295
ál	-10.2297
▁cel	-10.2298
▁reaksjon	-10.2301
▁fordelt	-10.2302
▁mau	-10.232
demokrat	-10.2321
ç	-10.2322
▁oversikt	-10.2324
▁tropp	-10.2325
næs	-10.2335
▁skille	-10.2346
efinner	-10.2348
▁innsjø	-10.2353
▁hin	-10.2358
▁krim	-10.2359
▁foto	-10.2362
dge	-10.2365
teknikk	-10.2369
▁hem	-10.2369
▁frekvens	-10.2369
▁fjern	-10.2375
▁kvalitet	-10.2379
kanten	-10.2381
▁roger	-10.2382
▁stilte	-10.2382
▁anse	-10.2383
▁utløp	-10.2385
▁intel	-10.2394
▁kvinnelig	-10.2395
▁inntekt	-10.24
kål	-10.2405
cast	-10.2408
▁beina	-10.2409
▁tann	-10.241
staten	-10.2423
administrasjon	-10.2429
hem	-10.243
▁utenlandsk	-10.243
friidrettsutøver	-10.2432
▁pakistan	-10.2432
▁foregår	-10.2432
▁kritikk	-10.2433
▁bosetning	-10.2433
▁blanding	-10.2433
▁kommunal	-10.2434
▁kveld	-10.2435
▁mannskapet	-10.2436
▁håkon	-10.2437
▁historisk	-10.2438
▁atlant	-10.244
▁vii	-10.2441
▁sendt	-10.2443
▁mcc	-10.2443
ington	-10.2446
cio	-10.2448
bukta	-10.246
▁vokalist	-10.2468
▁spise	-10.2468
▁svar	-10.2495
lock	-10.2497
reise	-10.2498
▁farger	-10.2503
▁frihet	-10.2516
spir	-10.2517
▁utvikle	-10.2519
▁ekstra	-10.2521
▁kontrakt	-10.2521
▁hundre	-10.2526
hon	-10.2526
▁fru	-10.2545
▁final	-10.2552
stitu	-10.2562
▁bratt	-10.2564
formasjon	-10.2565
▁ingeniør	-10.2566
▁netto	-10.2569
▁disk	-10.2569
▁portugisisk	-10.2582
▁mexico	-10.2582
▁nicola	-10.2582
▁konstant	-10.2582
▁motsetning	-10.2582
▁østerrike	-10.2582
▁redusert	-10.2582
▁hjerne	-10.2582
▁landbruks	-10.2582
▁begynnelsen	-10.2583
▁komponert	-10.2585
▁gress	-10.2586
rykket	-10.2586
tidsskrift	-10.2587
vatn	-10.2587
strøk	-10.259
tallet	-10.2596
▁town	-10.2602
▁fartøy	-10.2602
▁arkitektur	-10.2607
▁modellen	-10.261
pil	-10.2615
▁osv	-10.2624
▁indian	-10.2625
▁patri	-10.2631
▁retur	-10.2634
turneringen	-10.2642
▁beskrev	-10.2657
ин	-10.266
bølge	-10.2677
▁arch	-10.2678
▁sof	-10.268
behandling	-10.2687
▁overgang	-10.2696
▁nevnt	-10.2703
▁områdene	-10.2715
▁abb	-10.273
▁erkebiskop	-10.2733
▁restaurant	-10.2733
▁dekkvingene	-10.2733
▁hjort	-10.2733
▁league	-10.2733
▁kombinert	-10.2733
▁bjørk	-10.2733
▁ekstrem	-10.2733
pedagog	-10.2733
▁arthur	-10.2733
▁utbredt	-10.2734
molekyl	-10.2734
ич	-10.2734
▁1935	-10.2735
light	-10.2735
▁generasjon	-10.2736
▁øker	-10.2736
mønster	-10.2737
▁yrkes	-10.2737
eksamen	-10.2749
▁håndverk	-10.2751
▁oversettelse	-10.2761
▁lavere	-10.2761
▁rulle	-10.2763
▁slave	-10.2767
▁ott	-10.2772
▁hovedsak	-10.2781
ittisk	-10.2785
iansk	-10.2786
▁tildele	-10.2816
▁inneha	-10.282
▁your	-10.2826
kilde	-10.2828
ful	-10.283
hjelp	-10.283
▁havn	-10.2841
jord	-10.2845
spiss	-10.2846
angrep	-10.2849
bury	-10.2854
horn	-10.2857
▁semi	-10.286
▁gruppa	-10.2865
▁42	-10.2868
▁designet	-10.287
halvøya	-10.2878
▁artikler	-10.2879
▁bow	-10.2879
▁ishockey	-10.2887
▁tyrkisk	-10.2887
▁krevde	-10.2887
▁geometr	-10.2888
▁1933	-10.2888
▁edvard	-10.2889
▁1944	-10.289
▁1937	-10.289
▁tilsvarer	-10.289
▁skarp	-10.2892
▁landsby	-10.2893
forestilling	-10.2894
▁filip	-10.2894
▁fremført	-10.2897
▁luther	-10.2899
▁fyll	-10.2899
▁portrett	-10.2899
▁effektiv	-10.2907
▁modern	-10.2917
▁bygda	-10.292
▁kristin	-10.2921
áng	-10.2923
▁overført	-10.2924
▁kammer	-10.2927
▁boka	-10.2931
turbin	-10.2938
dikt	-10.2942
blå	-10.2953
▁vä	-10.2956
▁medalje	-10.2978
▁opprette	-10.298
▁rask	-10.2997
▁fargen	-10.3006
▁120	-10.3011
livet	-10.3021
teater	-10.3027
▁psyko	-10.3033
▁aar	-10.3038
▁føde	-10.3042
▁nowiki	-10.3043
▁shanghai	-10.3043
rådgiver	-10.3044
▁from	-10.3044
worth	-10.3045
▁bakterie	-10.3046
▁nattfly	-10.3047
▁reiste	-10.3048
▁1000	-10.3051
▁uttalt	-10.3051
▁utnytte	-10.3056
lidelse	-10.3056
kostnad	-10.3061
▁asp	-10.3063
kapit	-10.3065
▁mitt	-10.3068
▁hovedrollen	-10.3068
▁pil	-10.3073
ordnet	-10.3078
▁oppdrag	-10.3079
logi	-10.308
▁karakteristisk	-10.3084
utstyr	-10.3097
▁emil	-10.3105
▁tron	-10.3106
▁klarte	-10.3109
▁fantes	-10.3119
trakk	-10.3123
▁feire	-10.3125
▁beskrevet	-10.3134
▁sikte	-10.3153
serie	-10.3157
komiteen	-10.3164
▁utvidet	-10.3166
▁munk	-10.3166
bøker	-10.3167
▁athen	-10.3168
strup	-10.3169
▁overleve	-10.317
▁wang	-10.317
▁kata	-10.3179
rick	-10.319
fotograf	-10.3195
▁skall	-10.3196
konservativ	-10.3202
▁friedrich	-10.3202
▁østerriksk	-10.3202
▁company	-10.3202
▁fjær	-10.3202
▁angripe	-10.3203
0	-10.3203
▁jødisk	-10.3204
▁novell	-10.3205
▁sverre	-10.3205
▁unntak	-10.3208
▁lyng	-10.3221
▁bibel	-10.3225
▁utdannelse	-10.3228
snegl	-10.3231
▁isteden	-10.3233
▁vall	-10.3239
forsamling	-10.3251
▁markere	-10.3264
▁filosof	-10.3264
fattet	-10.3264
▁maleri	-10.3266
▁fortsetter	-10.3271
▁status	-10.3274
▁wall	-10.3276
▁advokat	-10.3284
vandring	-10.3285
teori	-10.3285
ætt	-10.3289
ww	-10.3289
▁ulik	-10.3293
vika	-10.33
akademi	-10.3314
▁brem	-10.3319
▁skiller	-10.3325
tind	-10.3338
▁homo	-10.3341
løft	-10.3342
▁konflikt	-10.3363
▁ødelegge	-10.3363
▁utmerkelse	-10.3364
▁kobber	-10.3364
flåten	-10.3364
▁für	-10.3364
▁registrert	-10.3365
stav	-10.3365
▁anvende	-10.3365
▁fullført	-10.3367
▁import	-10.3367
▁tegninger	-10.3369
▁såled	-10.3373
sending	-10.3374
▁ukjent	-10.3375
▁diplomat	-10.3376
brigade	-10.3381
bebyggelse	-10.3387
▁katolsk	-10.3388
▁endte	-10.339
▁grønland	-10.3396
▁wel	-10.3397
▁spring	-10.3411
▁spenning	-10.3416
▁schw	-10.3435
bund	-10.3438
næring	-10.344
markedet	-10.3443
9	-10.3465
▁redd	-10.3466
▁tross	-10.3467
▁hammer	-10.347
medlem	-10.3479
▁kraftverket	-10.3512
▁eventuel	-10.3527
▁moskva	-10.3527
▁deutsche	-10.3527
▁rektor	-10.3528
▁elektronisk	-10.3529
▁litterær	-10.353
▁protest	-10.353
▁1912	-10.353
▁telemark	-10.3531
▁svein	-10.3531
▁bispe	-10.3534
▁palm	-10.3536
agon	-10.3538
▁operere	-10.3547
▁raf	-10.3551
▁behov	-10.3554
▁utenom	-10.3562
istan	-10.3562
ition	-10.3563
▁sveits	-10.3566
▁skrå	-10.3571
▁likhet	-10.3573
▁vass	-10.3583
▁fremst	-10.3584
renn	-10.3591
▁gramm	-10.3593
hår	-10.3597
▁blande	-10.3611
▁inge	-10.3625
▁middelalder	-10.3629
politi	-10.3635
fatning	-10.3659
seth	-10.3663
ка	-10.3676
▁endelig	-10.368
sikkerhet	-10.3681
▁oh	-10.3687
▁soldat	-10.369
▁konkurrere	-10.3694
▁asteroide	-10.3694
▁erklært	-10.3694
▁thailand	-10.3694
▁adolf	-10.3694
▁fiktiv	-10.3694
▁nedbør	-10.3694
▁stortinget	-10.3695
komité	-10.3695
▁henri	-10.3697
▁festivalen	-10.3706
▁franz	-10.3707
ко	-10.3708
brand	-10.3708
fred	-10.3709
▁lokalisert	-10.3711
▁konkurransen	-10.3711
graph	-10.3712
▁salme	-10.3716
▁street	-10.3716
▁down	-10.3718
setting	-10.3731
▁grunnlegge	-10.3733
▁toll	-10.3738
▁frei	-10.374
perioden	-10.3753
▁khan	-10.3753
▁xu	-10.3755
▁gry	-10.3763
▁mathi	-10.3782
marked	-10.3802
▁pad	-10.3805
▁ferge	-10.3805
▁angi	-10.3817
konsert	-10.3833
kreft	-10.3836
▁elementer	-10.3863
▁http	-10.3864
▁ungarsk	-10.3864
▁muslim	-10.3864
▁studioalbum	-10.3864
▁1927	-10.3865
▁1925	-10.3866
▁1932	-10.3866
▁josé	-10.3866
▁gjeld	-10.3866
▁røyk	-10.3889
▁tvang	-10.3895
▁billed	-10.3904
▁bredd	-10.3907
▁sovjet	-10.3911
▁fry	-10.3914
▁geir	-10.3916
▁drei	-10.3923
▁hou	-10.3925
▁server	-10.3932
fabrik	-10.3936
▁underfamilien	-10.3937
▁larve	-10.3939
▁synlig	-10.3965
registr	-10.3965
grøn	-10.3997
struktur	-10.3998
sønn	-10.4
politisk	-10.4
lengde	-10.4011
dokument	-10.4028
▁trond	-10.4033
▁electric	-10.4036
▁elisabeth	-10.4036
▁praksis	-10.4036
▁regissør	-10.4036
▁styrmann	-10.4036
▁kontinent	-10.4036
▁nominert	-10.4036
vassdraget	-10.4036
▁tabellen	-10.4036
▁fattig	-10.4036
▁haakon	-10.4036
▁finnmark	-10.4038
▁håndball	-10.4038
▁riktig	-10.404
▁skiftet	-10.4042
▁brown	-10.4046
▁veldig	-10.4049
▁anledning	-10.4052
▁agder	-10.4077
▁lunge	-10.4084
▁walter	-10.4086
▁pala	-10.4087
forsyning	-10.4094
▁junior	-10.4094
harmoni	-10.4095
▁fungerer	-10.4105
▁ansatt	-10.412
givelse	-10.413
tittel	-10.4186
lønn	-10.4197
▁verdensmester	-10.4205
▁arrangeres	-10.4211
▁elizabeth	-10.4211
▁hovedkvarter	-10.4211
▁guvernør	-10.4211
budsjett	-10.4211
▁church	-10.4211
▁originaltittel	-10.4212
▁utseende	-10.4212
▁andré	-10.4213
ий	-10.4213
▁tolv	-10.4213
▁1911	-10.4214
▁kapital	-10.4214
▁hemmelig	-10.4215
▁kongsberg	-10.4217
følgende	-10.4226
stigning	-10.4247
▁shu	-10.425
▁white	-10.4257
pakke	-10.426
▁play	-10.4266
▁dyrke	-10.4268
▁verksted	-10.4271
▁book	-10.4274
▁kåre	-10.4285
▁pont	-10.4289
zel	-10.4292
▁henhold	-10.4307
▁bestemme	-10.4308
▁henholdsv	-10.4309
▁qa	-10.4314
lä	-10.4323
▁ash	-10.4351
▁laks	-10.4357
finalen	-10.436
design	-10.4373
▁bang	-10.4376
▁fei	-10.4385
▁aleksander	-10.439
▁positiv	-10.439
▁betrakte	-10.439
▁bodø	-10.439
▁inndelt	-10.4393
▁endringer	-10.4394
▁cover	-10.4394
▁premier	-10.4394
stipend	-10.4394
▁oppnådd	-10.4394
▁group	-10.4396
▁frykt	-10.4402
▁hitler	-10.4407
▁arc	-10.4415
▁republi	-10.4418
▁synes	-10.4419
▁teologi	-10.4421
▁jente	-10.4424
kjerne	-10.4425
▁life	-10.443
▁show	-10.4432
tempelet	-10.4432
▁plassering	-10.4433
▁pierr	-10.4441
vík	-10.4442
▁who	-10.4444
▁mottatt	-10.4445
▁motsatt	-10.4446
▁tynn	-10.4447
▁audi	-10.4447
alisme	-10.4459
▁reserve	-10.4468
presjon	-10.4478
▁beskrivelse	-10.4487
trener	-10.4489
▁fed	-10.4495
▁forkortelse	-10.4496
ор	-10.4515
▁utenriks	-10.4517
ça	-10.4525
▁forskjellig	-10.453
▁plateselskap	-10.4535
instrument	-10.4544
direktør	-10.4544
▁hjemmebane	-10.4557
▁sekund	-10.4561
▁forbinde	-10.4568
й	-10.457
▁nødvendig	-10.4572
▁utelukke	-10.4572
▁beseiret	-10.4572
▁christopher	-10.4572
▁county	-10.4572
▁fenomen	-10.4572
▁parallell	-10.4572
▁nemlig	-10.4572
▁doktorgrad	-10.4572
▁frivillig	-10.4572
▁protein	-10.4573
▁1924	-10.4574
▁beholdt	-10.4574
▁godkjent	-10.4574
▁1934	-10.4575
▁bidro	-10.4579
▁pedersen	-10.458
▁norman	-10.4582
▁aff	-10.4586
▁160	-10.4586
▁smak	-10.4589
▁talent	-10.4593
▁oppløst	-10.4593
hausen	-10.4595
amerikanske	-10.4597
▁erstatte	-10.4615
▁brei	-10.4624
rough	-10.4629
▁sammenligne	-10.4632
▁grim	-10.4637
fallende	-10.4642
▁kristne	-10.4647
▁sara	-10.4647
▁blind	-10.4661
▁alban	-10.4665
gass	-10.4666
prest	-10.4675
▁road	-10.4691
▁handle	-10.4693
▁vingene	-10.4713
▁flø	-10.4713
kroppen	-10.4729
butikk	-10.4746
tveit	-10.4749
▁bulgarsk	-10.4757
▁rogaland	-10.4757
▁skildre	-10.4757
▁forbedre	-10.4757
wick	-10.4757
fysikk	-10.4757
ovitsj	-10.4757
▁kristiansand	-10.4758
konvensjon	-10.4759
▁brønn	-10.4759
▁terreng	-10.4759
▁1919	-10.4759
▁sentralbank	-10.476
▁midlertidig	-10.476
▁1938	-10.476
▁sjanger	-10.4761
faktor	-10.4763
▁jackson	-10.4766
kampanje	-10.4768
▁nedlagt	-10.4769
tagelse	-10.4769
▁bygninger	-10.477
▁bønn	-10.4774
▁basis	-10.4776
▁angeles	-10.4793
▁borgerkrig	-10.4802
▁sørge	-10.4802
▁glad	-10.4805
▁rub	-10.4812
▁mørkere	-10.4812
▁låten	-10.4818
statue	-10.4824
▁kvit	-10.4828
▁rosa	-10.4846
▁aero	-10.4856
▁silke	-10.4859
▁kommunistisk	-10.4861
automat	-10.4872
▁stri	-10.4877
▁arkeologisk	-10.4881
▁histo	-10.4896
republikk	-10.4907
▁gyld	-10.4913
▁naz	-10.4932
roman	-10.4941
▁francis	-10.4942
▁kub	-10.4944
▁symfoni	-10.4946
løytnant	-10.4946
▁association	-10.4946
▁byfylke	-10.4946
▁kjennetegne	-10.4946
▁gabriel	-10.4946
▁tømmer	-10.4946
▁kombinasjon	-10.4946
▁ytterst	-10.4946
▁konsept	-10.4946
▁automatisk	-10.4947
▁arendal	-10.4947
▁faktisk	-10.4947
▁oberst	-10.4948
▁1918	-10.4948
▁definere	-10.4948
ст	-10.4948
▁visse	-10.4952
▁bosatt	-10.4953
▁kino	-10.4955
▁etasje	-10.4956
psykologi	-10.4956
førsel	-10.4957
▁pensjon	-10.4959
▁vanligste	-10.4964
▁sound	-10.4966
▁vannkraftverk	-10.4972
▁vasa	-10.4973
▁good	-10.4973
▁nordover	-10.5017
▁cli	-10.5017
ар	-10.5071
nettverk	-10.5082
fast	-10.5084
kompleks	-10.5097
bestemmelse	-10.5115
▁mose	-10.5117
øvrig	-10.5121
utdanning	-10.5121
▁oppmerksomhet	-10.5138
▁svalbard	-10.5138
▁1906	-10.5138
▁utspring	-10.5138
▁hebraisk	-10.5138
▁væske	-10.5138
▁selvmord	-10.5138
▁mekanisk	-10.5138
▁alpin	-10.5138
▁partner	-10.514
▁strekker	-10.514
traktat	-10.5141
lista	-10.5143
▁avledet	-10.5144
▁signert	-10.5145
▁hovedkontor	-10.5149
▁skilt	-10.515
svarte	-10.5152
▁donau	-10.5156
▁orgel	-10.5161
▁night	-10.5166
▁terror	-10.5167
▁vennskap	-10.5168
atus	-10.5178
kansler	-10.5189
melding	-10.5199
aux	-10.52
town	-10.5204
▁vekk	-10.523
verktøy	-10.5238
▁løfte	-10.5247
pleie	-10.5265
▁nød	-10.5271
▁skuespill	-10.528
ен	-10.5284
▁vev	-10.5285
sentral	-10.5325
▁1908	-10.5334
▁giovanni	-10.5334
▁windows	-10.5334
▁færøyene	-10.5334
admiral	-10.5334
▁brødrene	-10.5334
▁negativ	-10.5334
veksling	-10.5334
▁ovenfor	-10.5334
▁monument	-10.5334
▁margaret	-10.5334
▁innlemme	-10.5335
▁bærum	-10.5335
▁definert	-10.5335
▁golf	-10.5335
▁risiko	-10.5335
▁stefan	-10.5336
▁1922	-10.5336
▁stripe	-10.5337
skyting	-10.5337
▁sving	-10.5338
▁hindre	-10.5339
▁klokken	-10.5342
bød	-10.5344
▁blank	-10.5345
brev	-10.5345
▁høyesterett	-10.5346
kredi	-10.5346
▁gradvis	-10.5353
▁terje	-10.5353
schaft	-10.5358
fartøy	-10.5363
relatert	-10.5364
▁einar	-10.5366
▁kjær	-10.5372
profil	-10.5374
▁føle	-10.5374
sfære	-10.5376
blomsterflue	-10.5377
▁small	-10.5383
areal	-10.5392
produkt	-10.5398
utvalget	-10.5414
▁hytte	-10.5424
▁ledes	-10.5431
▁kho	-10.5443
▁maj	-10.5453
▁klippe	-10.5456
▁plast	-10.551
skrevet	-10.5511
økonomi	-10.5524
▁ulv	-10.5531
▁eksperiment	-10.5534
▁frankfurt	-10.5534
▁münchen	-10.5534
▁hjørne	-10.5534
▁renessanse	-10.5534
▁innebærer	-10.5534
▁kritiker	-10.5534
▁søndag	-10.5534
▁charlotte	-10.5534
▁reklame	-10.5534
▁1904	-10.5534
teatret	-10.5534
▁ødelagt	-10.5534
▁central	-10.5535
▁programvare	-10.5537
▁1909	-10.5537
apparat	-10.5541
▁strekningen	-10.5543
▁eirik	-10.5553
▁alpinist	-10.5556
nøtt	-10.5558
▁forbunds	-10.5561
▁forvalte	-10.5563
▁geit	-10.5565
▁nobel	-10.5568
▁reich	-10.5572
kjøring	-10.5573
▁levde	-10.5575
tekst	-10.5584
▁victoria	-10.5597
▁bassist	-10.5599
▁landslags	-10.5611
▁driv	-10.5615
▁strak	-10.5619
▁biografi	-10.5621
▁foreldrene	-10.5623
▁hyper	-10.5634
▁hypo	-10.565
▁brian	-10.5652
▁font	-10.5661
ship	-10.5673
historisk	-10.5733
resultat	-10.5733
representant	-10.5735
▁forgjenger	-10.5738
▁trommeslager	-10.5738
▁observer	-10.5738
▁eksisterer	-10.5738
▁artilleri	-10.5738
▁theodor	-10.5738
forsikring	-10.5739
straße	-10.5739
materiell	-10.5739
▁1926	-10.574
▁tidsskriftet	-10.574
▁gråbrun	-10.5741
knapp	-10.5743
▁romsdal	-10.5743
▁krok	-10.5746
▁eiendommen	-10.5746
▁colo	-10.5748
bunn	-10.5751
▁skytter	-10.5752
▁allmenn	-10.5753
fyll	-10.5753
betaling	-10.5754
▁oppnå	-10.5757
▁jernbanestasjon	-10.576
▁viklere	-10.5765
utstilling	-10.5768
▁past	-10.5772
▁leif	-10.5794
▁vad	-10.5819
regiment	-10.582
▁trekant	-10.5874
utgave	-10.5878
▁victor	-10.5881
▁kath	-10.5884
▁tempel	-10.5898
▁bevege	-10.5928
▁ove	-10.5941
ч	-10.5945
sosialistisk	-10.5945
▁maksimal	-10.5946
▁ukrainsk	-10.5946
▁varaordfører	-10.5946
bataljon	-10.5946
▁jacque	-10.5946
▁antagelig	-10.5946
▁sykkel	-10.5946
grunnsstasjon	-10.5946
▁kommentar	-10.5946
▁radikal	-10.5947
▁global	-10.5947
▁josef	-10.5947
▁geografisk	-10.5947
▁prinsesse	-10.5948
▁1929	-10.5949
▁1917	-10.5949
▁programleder	-10.595
▁antonio	-10.5956
▁ørken	-10.5957
▁puppe	-10.5968
▁avholdt	-10.5968
▁inngikk	-10.5978
▁opptrådt	-10.5983
▁solberg	-10.5987
▁karbon	-10.5987
tsje	-10.5988
hvit	-10.5989
▁great	-10.6
▁1700	-10.6004
grafisk	-10.601
▁nerve	-10.6053
bransjen	-10.606
▁oversette	-10.6064
▁jeff	-10.6073
▁bygnings	-10.6081
brød	-10.6088
▁grei	-10.6088
▁energiselskape	-10.6113
samband	-10.6137
▁demokratisk	-10.6146
▁døgn	-10.6148
▁egyptisk	-10.6151
▁dirigent	-10.6159
▁vladimir	-10.6159
▁1905	-10.6159
▁heinrich	-10.6159
konsulent	-10.6159
▁infanteri	-10.6159
orientert	-10.6159
▁hendelsen	-10.6159
▁walisisk	-10.616
▁oppstår	-10.616
▁nektet	-10.616
▁fuktig	-10.6161
betjent	-10.6161
▁flytende	-10.6162
▁1916	-10.6162
▁tropisk	-10.6166
▁studere	-10.6169
signal	-10.617
▁lill	-10.617
▁samuel	-10.6172
▁tjener	-10.6177
▁sammenlagt	-10.6181
▁onkel	-10.6183
gudinne	-10.6183
▁innlede	-10.6184
▁pall	-10.6189
▁enorm	-10.6195
▁young	-10.6197
▁panser	-10.6203
▁ungdomsskole	-10.6207
▁heart	-10.621
▁kaffe	-10.6217
▁gratis	-10.622
▁aksel	-10.6265
▁sandvik	-10.6317
effekt	-10.633
▁600	-10.6336
▁swa	-10.6354
▁nasa	-10.6363
veps	-10.637
▁konstruert	-10.6376
▁tortricidae	-10.6376
▁kollektiv	-10.6376
kompetanse	-10.6376
▁embets	-10.6377
▁valuta	-10.6377
▁apollo	-10.6377
▁skjønn	-10.6378
▁separat	-10.6379
▁1921	-10.6379
▁tallrike	-10.6379
▁arbeiderpartiet	-10.638
▁nyhets	-10.638
trukket	-10.6381
▁debatt	-10.6382
spørsmål	-10.6385
offiser	-10.6385
institutt	-10.6385
▁formula	-10.6389
infeksjon	-10.6389
front	-10.6392
▁johnny	-10.6402
▁alex	-10.6405
▁armé	-10.6412
▁1500	-10.6421
▁humor	-10.6421
kommende	-10.6423
▁avtalen	-10.643
ра	-10.6433
bevegelse	-10.6479
▁oppleve	-10.6489
▁verneområde	-10.6519
artist	-10.652
▁sveitsisk	-10.6546
artikler	-10.6588
strategi	-10.6597
▁aluminium	-10.6599
▁eksemplar	-10.6599
▁favoritt	-10.6599
▁naturreservat	-10.6599
▁oksygen	-10.6599
▁ukraina	-10.6599
▁jesuitt	-10.6599
komponent	-10.6599
▁halvparten	-10.6599
▁evangeli	-10.6599
▁sanskrit	-10.6599
▁nymfe	-10.6599
▁noctu	-10.66
▁lewis	-10.66
▁redaksjon	-10.6602
▁søvn	-10.6602
terapi	-10.6603
▁smelte	-10.6604
▁generell	-10.6604
▁tromsø	-10.6605
▁lisens	-10.6611
dynastiet	-10.6613
▁defen	-10.6617
ière	-10.662
▁smør	-10.662
▁flue	-10.6622
▁katedral	-10.6629
▁beskyttelse	-10.6632
▁departement	-10.6632
▁kreve	-10.6635
▁voksen	-10.6703
redskap	-10.6717
recht	-10.6728
▁idrett	-10.6735
▁egil	-10.6765
middag	-10.6772
▁initiativ	-10.6826
▁jomfru	-10.6826
▁ortodoks	-10.6826
▁sjeldne	-10.6826
▁særskilt	-10.6826
▁akershus	-10.6826
▁country	-10.6826
▁spesifik	-10.6826
▁referanse	-10.6826
▁lørdag	-10.6826
▁uvanlig	-10.6826
leverandør	-10.6826
mekanisme	-10.6828
▁1931	-10.6829
▁1907	-10.6829
▁komposisjon	-10.6831
▁nkp	-10.6831
▁susan	-10.6839
ifisere	-10.6841
▁tibet	-10.6844
▁bjerk	-10.6845
befolkning	-10.6845
transport	-10.6846
teknologi	-10.6849
▁right	-10.6858
▁ektemann	-10.6869
ла	-10.6886
smykke	-10.6895
▁drepe	-10.6915
stadie	-10.6928
▁wol	-10.6935
▁lykke	-10.6936
▁urban	-10.6962
faglig	-10.6964
▁barokk	-10.7
hydr	-10.7023
▁flest	-10.7024
▁lukke	-10.7029
krem	-10.7035
edderkopper	-10.7054
▁vietnam	-10.7058
▁afghanistan	-10.7059
▁australsk	-10.7059
▁undergrunnsbane	-10.7059
▁gymnas	-10.7059
▁wergeland	-10.7059
▁vesentlig	-10.7059
▁hendelser	-10.7059
▁linux	-10.7059
▁texas	-10.7059
▁ingrid	-10.7059
▁ungarn	-10.7059
▁regulere	-10.7059
▁besetning	-10.706
mouth	-10.706
▁monroe	-10.7061
▁generalsekretær	-10.7062
▁planlagt	-10.7064
▁spredt	-10.7065
▁styreleder	-10.7066
▁action	-10.7066
▁nepal	-10.7068
▁diesel	-10.7071
▁avansert	-10.7072
▁jacobsen	-10.7074
▁sekundær	-10.7075
▁command	-10.7075
▁nordsamisk	-10.7081
ingeniør	-10.7083
størrelse	-10.7083
▁formelt	-10.7085
programmer	-10.7092
bahn	-10.7095
sjön	-10.7097
forståelse	-10.7102
skyld	-10.7112
maleri	-10.7112
▁oval	-10.7118
ferdighet	-10.7122
▁kommunist	-10.714
▁dramatisk	-10.7182
▁domkirke	-10.7194
▁klage	-10.7195
hatt	-10.7211
▁praktisk	-10.7231
▁unngå	-10.7241
▁fulgt	-10.7242
bjørg	-10.7261
▁bryllup	-10.7297
reservoar	-10.7297
▁aleksandr	-10.7297
▁tønsberg	-10.7297
▁vertikal	-10.7297
▁nøkkel	-10.7297
▁matematikk	-10.7297
▁syndrom	-10.7297
▁antarktis	-10.7297
▁juridisk	-10.7297
▁verdensarv	-10.7297
▁barnehage	-10.7297
▁petersburg	-10.7297
▁christensen	-10.7298
skildring	-10.7298
▁eksistert	-10.7298
▁gerhard	-10.7299
▁what	-10.7299
▁hindu	-10.73
▁søndr	-10.7302
▁dagbladet	-10.7304
▁patrick	-10.7309
foretak	-10.7309
▁utgivelsen	-10.7311
▁wilson	-10.7312
▁bedriften	-10.7314
▁tsar	-10.7314
▁chris	-10.7314
hytta	-10.7319
▁amerikaner	-10.7319
▁rednings	-10.732
▁pumpe	-10.7325
▁ltd	-10.7325
orkester	-10.7328
undervisning	-10.7328
kledt	-10.7351
lokale	-10.7365
▁kommunestyre	-10.7377
krysset	-10.7386
▁begynne	-10.7434
▁forklare	-10.7435
bevisst	-10.7438
▁fortsette	-10.7445
▁intens	-10.7469
register	-10.7529
▁barcelona	-10.7541
▁definisjon	-10.7541
▁football	-10.7541
▁guangdong	-10.7541
▁helsingfors	-10.7541
▁vedlikehold	-10.7541
kommanderende	-10.7541
laboratori	-10.7541
▁respekt	-10.7541
ressurser	-10.7541
▁vilhelm	-10.7541
▁assistent	-10.7541
▁sachsen	-10.7541
utslipp	-10.7541
▁stephen	-10.7541
▁skjøt	-10.7541
▁dominert	-10.7542
▁stadium	-10.7542
▁afrikansk	-10.7543
▁1914	-10.7544
kobling	-10.7544
▁opplevd	-10.7545
evitsj	-10.7547
▁tilhenger	-10.7548
▁trenger	-10.7548
kommisjonen	-10.7549
▁hensikt	-10.7549
▁split	-10.7553
▁moderat	-10.7553
▁slapp	-10.7554
▁divers	-10.7559
▁uavhengighet	-10.7561
ould	-10.7568
▁nevø	-10.757
gruppa	-10.7577
▁fremstille	-10.7582
programmet	-10.7583
biologi	-10.7594
▁brent	-10.762
bestand	-10.7626
▁call	-10.7633
▁kongress	-10.7662
sykdom	-10.7691
▁etnisk	-10.7701
aften	-10.7702
▁prinsipp	-10.7711
▁spenn	-10.7734
▁demokrati	-10.7742
▁väst	-10.7758
▁galleri	-10.7764
▁vannkraft	-10.7773
▁kronprins	-10.7791
▁langrennsløper	-10.7791
▁microsoft	-10.7791
▁washington	-10.7791
▁seremoni	-10.7791
▁tsjekkisk	-10.7791
▁1923	-10.7791
▁sichuan	-10.7791
▁gjald	-10.7791
▁forhindre	-10.7791
▁support	-10.7791
▁leonard	-10.7791
▁testament	-10.7791
▁alexandr	-10.7791
▁belgia	-10.7791
▁utbredelse	-10.7791
▁kommersiell	-10.7791
▁seksuell	-10.7791
▁senior	-10.7791
▁oppdagelse	-10.7792
alfabet	-10.7793
▁dollar	-10.7793
▁elleve	-10.7793
messe	-10.7795
▁fungert	-10.7795
▁gravlagt	-10.7796
▁hensyn	-10.7799
▁hindi	-10.7804
▁stemt	-10.7814
trådte	-10.7816
▁variasjon	-10.782
▁landsforening	-10.7828
▁nettside	-10.7833
▁næringsliv	-10.7833
utviklet	-10.7834
▁personlighet	-10.7847
seminar	-10.785
▁persisk	-10.7864
▁arkeolog	-10.7889
løve	-10.7932
▁oppfatte	-10.7934
nytt	-10.7971
medlemmer	-10.7989
▁europeisk	-10.8015
opplevelse	-10.8015
landeveissyklist	-10.8047
▁luxembourg	-10.8047
▁tilknytning	-10.8047
▁tilsynelatende	-10.8047
▁1901	-10.8047
▁tvilling	-10.8047
▁kavaleri	-10.8047
▁ombord	-10.8047
▁dokumentar	-10.8047
▁serbisk	-10.8048
▁anerkjenne	-10.8048
▁kritisert	-10.8048
▁fangst	-10.8049
▁patriark	-10.8049
elektronikk	-10.805
▁1913	-10.805
▁massiv	-10.805
▁social	-10.8052
▁francisco	-10.8052
▁oppgaver	-10.8053
▁betong	-10.8054
▁2018	-10.8054
▁anklage	-10.8056
▁kritisk	-10.8056
▁marcus	-10.8057
▁vestfold	-10.8057
▁sykdommen	-10.8059
▁mandat	-10.8064
▁prost	-10.8064
svermer	-10.808
syssel	-10.8082
▁utvide	-10.8092
divisjon	-10.8097
papir	-10.8097
▁komplekse	-10.8102
▁innerst	-10.8111
kjøl	-10.8143
▁hevn	-10.8167
forstyrrelse	-10.819
kirch	-10.82
▁fungere	-10.8237
støtte	-10.8247
▁anslå	-10.8253
▁presis	-10.8256
hawk	-10.8291
▁aserbajdsjan	-10.831
▁angelsaksisk	-10.831
▁corporation	-10.831
▁færøysk	-10.831
▁narkotika	-10.831
▁orchestra	-10.831
▁ferskvann	-10.831
▁abraham	-10.831
▁taylor	-10.831
▁veksel	-10.831
▁amatør	-10.831
▁leilighet	-10.831
skjelettet	-10.8311
▁drømme	-10.8311
▁presentert	-10.8311
▁klatre	-10.8312
▁opposisjon	-10.8312
▁skøyte	-10.8313
▁1915	-10.8314
spinnere	-10.8315
▁energy	-10.8315
terminal	-10.8316
▁1910	-10.8317
▁skrog	-10.8319
▁larvik	-10.832
▁rifle	-10.8322
provinshovedstad	-10.8327
▁gjennomføre	-10.8327
▁benevn	-10.8346
▁bronsemedalje	-10.8348
▁hvile	-10.8361
▁fortalt	-10.8374
▁variert	-10.8405
fedre	-10.8412
▁astronomi	-10.8419
krys	-10.8479
periode	-10.8479
▁gill	-10.8502
▁symboliser	-10.8513
drevne	-10.8517
kollen	-10.8528
▁bulgaria	-10.858
▁hongkong	-10.858
▁mobiltelefon	-10.858
▁arrestert	-10.858
▁mesteparten	-10.858
▁øyeblikk	-10.858
▁arrangør	-10.858
▁invadert	-10.858
▁hordaland	-10.858
köping	-10.858
▁svovel	-10.858
▁tilnærme	-10.858
diagnose	-10.8581
▁individuell	-10.8581
▁krystall	-10.8581
▁canadisk	-10.8581
▁etablere	-10.8581
tillatelse	-10.8581
▁seinere	-10.8582
▁arnold	-10.8582
▁gregor	-10.8582
▁døpt	-10.8582
▁two	-10.8583
▁hvelv	-10.8583
▁troms	-10.8584
▁hedmark	-10.8584
▁langrenn	-10.8585
▁tillatt	-10.8589
▁isabel	-10.8589
▁tommy	-10.859
▁etappe	-10.859
▁manglen	-10.8593
døgnflue	-10.8595
▁spyd	-10.8597
overføring	-10.86
▁særeg	-10.8605
sperre	-10.8607
oidea	-10.8611
▁akse	-10.8612
partei	-10.8617
▁varemerke	-10.8621
syklus	-10.8622
▁tredjeplass	-10.8624
kandidat	-10.8644
redaktør	-10.8645
inntekt	-10.8645
regjering	-10.8646
▁glatt	-10.8661
▁fotografi	-10.87
pryd	-10.8839
direktoratet	-10.8858
▁assosiert	-10.8858
▁omdøpt	-10.8858
▁vurdering	-10.8858
▁kommandant	-10.8858
▁psykisk	-10.8858
▁nøyaktig	-10.8858
▁portugal	-10.8858
▁tyrkia	-10.8858
▁european	-10.8858
▁friidrett	-10.8858
▁francesc	-10.8858
▁gælisk	-10.8858
▁hyppig	-10.8858
▁people	-10.8858
▁regulert	-10.8859
▁ordinær	-10.8859
▁prince	-10.8859
▁redigert	-10.8859
▁kongedømmet	-10.8859
ponert	-10.8859
▁kullkraftverk	-10.886
▁utpekt	-10.8861
▁innbyggern	-10.8861
mønstre	-10.8861
▁oppfølger	-10.8861
▁dream	-10.8861
▁borgermester	-10.8862
▁micro	-10.8862
▁koreansk	-10.8864
▁fylt	-10.8864
▁bensin	-10.8865
▁kjæreste	-10.8866
protokoll	-10.8867
mission	-10.8872
▁elsker	-10.8872
▁slippe	-10.8877
▁nederst	-10.888
▁flanke	-10.8884
ladning	-10.8896
▁manuel	-10.8905
temperatur	-10.893
frukt	-10.8931
provins	-10.8931
posisjon	-10.8932
missil	-10.8935
karriere	-10.8939
▁styremedlem	-10.8983
▁kriminal	-10.9075
▁slange	-10.9087
rydde	-10.9137
▁douglas	-10.9144
▁generalmajor	-10.9144
▁keyboard	-10.9144
▁network	-10.9144
▁symptomer	-10.9144
▁umiddelbart	-10.9144
▁virginia	-10.9144
▁1902	-10.9144
▁engasjert	-10.9144
lovgivning	-10.9144
▁arrangerer	-10.9144
▁buddhist	-10.9144
▁chicago	-10.9144
▁manchester	-10.9144
▁public	-10.9144
▁reference	-10.9144
▁fiction	-10.9144
▁yngste	-10.9144
▁ytterkant	-10.9144
▁gjennomsnittlig	-10.9144
▁sympat	-10.9144
▁heavy	-10.9144
▁barnebarn	-10.9144
høvding	-10.9144
▁kjørte	-10.9145
▁vegetasjon	-10.9145
▁føderal	-10.9145
▁flukt	-10.9145
▁etterretnings	-10.9146
▁kråk	-10.9146
▁tolkien	-10.9147
▁poesi	-10.9148
▁database	-10.9149
▁sjette	-10.915
▁fasade	-10.9151
▁stedsnavn	-10.9159
▁göt	-10.9163
▁holdning	-10.9167
▁lauren	-10.9184
forskjell	-10.9224
utenriksminister	-10.9232
prinsippet	-10.9313
komite	-10.9356
▁petroleum	-10.9438
▁fakultet	-10.9438
▁integrert	-10.9438
▁liverpool	-10.9438
▁løpebiller	-10.9438
▁nøytral	-10.9438
▁territorie	-10.9438
▁rekrutt	-10.9438
▁konkurs	-10.9438
▁fjeld	-10.9438
▁uansett	-10.9438
▁komplett	-10.9438
▁hvem	-10.9439
▁bmw	-10.9439
▁stråle	-10.944
▁tilsluttet	-10.944
▁katalog	-10.944
▁beskjed	-10.944
▁sosialdemokrat	-10.9441
▁hvete	-10.9441
▁valgkrets	-10.9442
▁strategisk	-10.9442
▁manager	-10.9442
▁sergej	-10.9443
▁erfaring	-10.9444
▁tørke	-10.9444
▁medvirket	-10.9444
▁svekke	-10.9445
▁grind	-10.9449
fyrstedømme	-10.9451
▁axel	-10.9455
▁reager	-10.9455
flyging	-10.9479
ekspert	-10.9493
menneske	-10.9535
frø	-10.9538
▁kristendom	-10.9556
▁allianse	-10.9575
▁konferanse	-10.9589
▁innvie	-10.9607
astronom	-10.9617
▁journal	-10.9634
▁kulturminne	-10.9636
sonate	-10.973
▁beslutning	-10.9741
▁council	-10.9741
▁distribusjon	-10.9741
▁fasettøyne	-10.9741
▁jerusalem	-10.9741
▁milliarder	-10.9741
▁mountain	-10.9741
▁pradesh	-10.9741
▁prestegjeld	-10.9741
▁sebastian	-10.9741
▁selvbiografi	-10.9741
▁shakespeare	-10.9741
▁visepresident	-10.9741
▁intervju	-10.9741
▁robinson	-10.9741
▁gustaf	-10.9741
▁stridsvogn	-10.9741
▁permanent	-10.9741
▁skihopper	-10.9741
disiplin	-10.9741
▁unesco	-10.9741
▁henrettet	-10.9741
▁bøndene	-10.9741
▁zealand	-10.9741
▁aktuell	-10.9742
▁sandefjord	-10.9742
▁innenriks	-10.9742
▁ronald	-10.9742
▁ntnu	-10.9742
▁kombinere	-10.9742
▁sprint	-10.9742
▁regelmessig	-10.9743
▁enhver	-10.9746
▁kanadisk	-10.9747
tredende	-10.9747
▁point	-10.9751
▁tidspunkt	-10.9751
▁presentere	-10.9752
▁work	-10.9755
▁utvidelse	-10.9811
historiker	-10.984
litteratur	-10.984
▁utarbeide	-10.9976
ã	-11.002
▁amsterdam	-11.0054
▁argentina	-11.0054
▁identifisert	-11.0054
▁konsentrert	-11.0054
▁meksikansk	-11.0054
▁okkupasjon	-11.0054
▁research	-11.0054
▁sarpsborg	-11.0054
▁1903	-11.0054
▁atmosfære	-11.0054
▁benjamin	-11.0054
▁jersey	-11.0054
▁1875	-11.0054
▁democra	-11.0054
▁göteborg	-11.0054
▁1873	-11.0054
▁kapittel	-11.0054
▁oppretthold	-11.0054
▁zhejiang	-11.0054
▁perfekt	-11.0054
▁trompet	-11.0054
▁ragnar	-11.0054
▁virvel	-11.0054
▁veksle	-11.0054
στ	-11.0054
▁kroatisk	-11.0054
▁lingvist	-11.0055
▁funnsted	-11.0056
▁selges	-11.0056
▁colombia	-11.0057
▁trasé	-11.0057
▁charlie	-11.0057
▁antyde	-11.0058
▁clark	-11.006
▁techn	-11.006
▁landkommune	-11.0071
▁ivareta	-11.0075
▁nederlag	-11.0085
enøst	-11.0092
nemnd	-11.0098
forberede	-11.0117
▁publiser	-11.0143
tradisjon	-11.0164
varianten	-11.0167
▁omdanne	-11.0196
kvartett	-11.023
▁overføre	-11.0268
vennlig	-11.0301
▁doktor	-11.0376
▁anbefalt	-11.0376
▁basketball	-11.0376
▁böhm	-11.0376
▁evolusjon	-11.0376
▁inskripsjon	-11.0376
▁manuskript	-11.0376
▁offshore	-11.0376
▁society	-11.0376
▁akseptert	-11.0376
▁babylon	-11.0376
▁forveksle	-11.0376
▁konstitusjon	-11.0376
▁rasmussen	-11.0376
▁buskerud	-11.0376
▁pattedyr	-11.0376
▁operativsystem	-11.0376
▁bystatus	-11.0376
▁dimensjon	-11.0376
▁jupiter	-11.0376
▁mangfold	-11.0376
▁ukentlig	-11.0376
▁psych	-11.0376
▁sediment	-11.0376
▁etterkommere	-11.0376
▁fremtidig	-11.0376
▁begravelse	-11.0376
▁ålesund	-11.0377
▁mektig	-11.0377
▁essay	-11.0377
▁innskriften	-11.0377
▁utforming	-11.0378
▁taiwan	-11.0378
▁kjøpmann	-11.0378
järvi	-11.0379
▁pianist	-11.038
▁bbc	-11.0381
▁text	-11.0381
▁klaus	-11.0386
haupt	-11.0406
▁trondhjems	-11.0407
▁circ	-11.0407
▁söd	-11.0413
duct	-11.0423
flyvning	-11.0436
ngeborg	-11.0503
basseng	-11.0515
▁utøve	-11.0522
▁bransje	-11.0529
alliansen	-11.0558
åpne	-11.0613
kreps	-11.0651
väg	-11.0697
instruktør	-11.0709
▁aftenposten	-11.0709
▁frilufts	-11.0709
▁illustrert	-11.0709
▁konkurrert	-11.0709
▁posthumt	-11.0709
▁substantiv	-11.0709
▁instruksjon	-11.0709
▁låtskriver	-11.0709
▁spirakler	-11.0709
▁utgravning	-11.0709
eksplosjon	-11.0709
▁foundation	-11.0709
▁hønefoss	-11.0709
▁bekjempe	-11.0709
▁offensiv	-11.0709
▁unicode	-11.0709
▁google	-11.0709
▁airlines	-11.071
▁sparebank	-11.071
▁installasjon	-11.071
▁empire	-11.071
▁eidsvoll	-11.071
▁betydningsfull	-11.071
▁invitert	-11.071
▁høyhastighets	-11.071
▁vietnamesisk	-11.071
▁misjonær	-11.071
▁besluttet	-11.071
sylindre	-11.071
▁korrekt	-11.071
▁avgjørende	-11.071
▁dekorert	-11.071
▁finansiert	-11.0711
▁vakre	-11.0711
▁forklaring	-11.0712
▁space	-11.0713
▁andorra	-11.0714
▁brenselstype	-11.0718
▁mannsnavn	-11.0723
nevnte	-11.078
▁dobbel	-11.0806
▁bakkropp	-11.0821
kvalitet	-11.0841
▁kjennes	-11.0843
åpning	-11.0848
klipp	-11.0859
▁forstyrre	-11.0865
▁økonom	-11.0871
▁kompani	-11.0969
▁diplom	-11.1027
▁ødela	-11.1054
▁distribuere	-11.1054
▁inklusiv	-11.1054
▁konsekvens	-11.1054
▁lokomotiv	-11.1054
▁ludwig	-11.1054
▁nacional	-11.1054
▁synonym	-11.1054
▁sørafrikansk	-11.1054
▁vålerenga	-11.1054
▁prøvd	-11.1054
▁utdødd	-11.1054
▁picture	-11.1054
▁kennedy	-11.1054
▁koalisjon	-11.1054
▁diskusjon	-11.1054
begivenhet	-11.1054
▁baptist	-11.1054
▁minoritet	-11.1054
▁mozart	-11.1054
▁komplisert	-11.1054
▁preussen	-11.1054
▁registrering	-11.1054
▁fantasy	-11.1054
▁konsesjon	-11.1054
▁katalansk	-11.1054
▁bjarne	-11.1055
▁jamaica	-11.1055
▁allierte	-11.1055
▁corneli	-11.1055
▁mikael	-11.1055
▁ekeberg	-11.1055
▁rumensk	-11.1055
▁skjebne	-11.1055
▁fantasi	-11.1056
▁tokyo	-11.1056
▁erstatning	-11.1057
kollega	-11.1058
forandringer	-11.106
vilkår	-11.1061
▁enzyme	-11.1063
tilsynet	-11.1066
▁smitte	-11.1067
▁størst	-11.112
fragment	-11.116
▁marcel	-11.1182
kontrakt	-11.1197
▁gullmedalje	-11.1238
prøve	-11.1288
gjerning	-11.1328
▁menneskerettigh	-11.1359
dømmet	-11.1372
▁inspirasjon	-11.1411
ttoregistertonn	-11.1411
▁academy	-11.1411
▁bachelor	-11.1411
▁elektrisitet	-11.1411
▁köln	-11.1411
▁leipzig	-11.1411
▁opphørte	-11.1411
▁pronotum	-11.1411
▁propaganda	-11.1411
▁påbegynt	-11.1411
▁valgdeltakelse	-11.1411
▁pyramide	-11.1411
▁alminnelig	-11.1411
▁begrensning	-11.1411
▁oxford	-11.1411
▁uttrykt	-11.1411
▁litauen	-11.1411
▁shandong	-11.1411
▁krydder	-11.1412
▁secret	-11.1412
▁haugesund	-11.1412
▁animasjon	-11.1412
▁benedikt	-11.1412
▁kongsvinger	-11.1412
▁underjordisk	-11.1412
▁kontrast	-11.1412
