<unk>	0
<s>	0
</s>	0
.	-3.23241
s	-3.50029
e	-3.57188
▁i	-3.75132
▁og	-3.96363
▁	-4.00268
er	-4.0493
t	-4.08734
en	-4.16541
▁av	-4.47812
▁er	-4.58266
r	-4.64273
▁en	-4.71383
▁som	-4.81393
▁for	-4.85637
n	-4.87272
▁til	-4.90793
et	-4.96173
▁på	-4.96969
▁med	-5.06375
▁den	-5.19803
▁ble	-5.29268
a	-5.32779
▁de	-5.33479
▁var	-5.3394
▁det	-5.41831
▁fra	-5.47937
ene	-5.56634
i	-5.64032
▁har	-5.64045
d	-5.65861
▁et	-5.65972
▁han	-5.68998
▁å	-5.71269
o	-5.85358
ne	-5.86219
y	-5.92269
k	-5.99875
▁ved	-6.01502
▁at	-6.10253
te	-6.1474
▁også	-6.20599
g	-6.2374
▁om	-6.24792
▁etter	-6.26001
m	-6.26424
de	-6.27479
f	-6.33272
l	-6.33687
▁ut	-6.34074
p	-6.35387
▁under	-6.39113
re	-6.40308
▁eller	-6.42578
ing	-6.48729
▁opp	-6.49263
▁over	-6.50704
▁to	-6.51554
es	-6.52403
▁kan	-6.53594
▁s	-6.54782
v	-6.55177
▁inn	-6.56133
al	-6.59325
▁men	-6.60667
▁be	-6.60867
▁da	-6.61564
us	-6.61894
▁18	-6.62121
▁a	-6.63015
an	-6.64289
c	-6.64566
▁seg	-6.67252
h	-6.6738
b	-6.688
▁hadde	-6.72794
in	-6.7665
sk	-6.77533
▁sin	-6.80874
▁mot	-6.83256
u	-6.83818
le	-6.84144
▁andre	-6.84241
▁ikke	-6.85976
▁mellom	-6.87524
is	-6.87795
▁the	-6.89797
ende	-6.94164
▁født	-6.94698
ia	-6.94719
na	-6.97142
on	-6.97799
w	-6.98213
▁m	-6.9922
ar	-6.99755
▁ha	-6.99968
▁1	-7.01985
▁hans	-7.02009
▁tre	-7.02227
▁f	-7.03825
▁u	-7.05605
▁hun	-7.06384
ter	-7.07425
▁dette	-7.07639
ri	-7.08457
ma	-7.09584
▁ligger	-7.09768
▁c	-7.09821
▁an	-7.10262
sen	-7.10287
la	-7.10327
lig	-7.11032
▁k	-7.11152
▁første	-7.11962
z	-7.12959
land	-7.13057
▁la	-7.18018
▁der	-7.18084
▁blant	-7.18253
um	-7.18407
▁re	-7.19232
▁sammen	-7.19373
▁d	-7.20465
iske	-7.22382
ning	-7.24106
▁gjennom	-7.24603
ur	-7.2528
▁flere	-7.25958
der	-7.2613
▁nord	-7.26401
or	-7.26523
▁denne	-7.27168
▁2	-7.27256
ke	-7.27437
▁fikk	-7.28162
▁se	-7.28541
ra	-7.28621
ens	-7.28752
▁p	-7.29041
▁man	-7.2909
▁b	-7.29109
isk	-7.2995
▁g	-7.30841
ch	-7.30843
▁ro	-7.31152
▁le	-7.32524
x	-7.3256
▁kom	-7.32711
▁ca	-7.32837
ta	-7.34332
j	-7.34993
▁al	-7.35187
øy	-7.35639
as	-7.35768
▁st	-7.36285
▁17	-7.36843
il	-7.37539
nde	-7.3771
el	-7.38609
tt	-7.39101
ck	-7.39612
li	-7.39679
ng	-7.3996
▁of	-7.40069
be	-7.40634
lo	-7.40832
▁år	-7.41124
▁pi	-7.42187
ske	-7.42386
▁alle	-7.42631
ut	-7.43067
▁her	-7.43081
ver	-7.44301
▁kr	-7.44316
▁stor	-7.44482
at	-7.457
▁tidligere	-7.45799
▁blir	-7.45996
di	-7.4748
da	-7.4775
for	-7.47801
▁v	-7.48169
ler	-7.49064
▁n	-7.49272
th	-7.49694
▁norsk	-7.49788
os	-7.50769
▁kommune	-7.51098
▁o	-7.51445
ka	-7.51602
é	-7.51858
ge	-7.52084
▁mange	-7.52561
▁3	-7.52744
▁bo	-7.52991
▁hvor	-7.53203
bo	-7.53295
▁død	-7.53371
▁h	-7.54324
ig	-7.54428
den	-7.54529
nes	-7.55055
▁l	-7.55278
▁ga	-7.55551
ger	-7.55578
▁så	-7.55681
▁før	-7.55804
ve	-7.55839
▁t	-7.55947
▁ny	-7.56756
▁vi	-7.57084
▁15	-7.57682
▁del	-7.58035
▁disse	-7.58642
ker	-7.58687
ang	-7.59045
▁sør	-7.59192
▁5	-7.593
▁by	-7.5982
▁mer	-7.59984
▁annet	-7.60081
▁in	-7.60253
het	-7.60442
ry	-7.60736
▁4	-7.60811
it	-7.61377
▁ra	-7.62167
ga	-7.62276
erte	-7.62276
ad	-7.62561
ner	-7.63284
ol	-7.6353
▁hoved	-7.6357
ro	-7.63662
id	-7.64193
stad	-7.64536
ul	-7.64732
ba	-7.65264
lige	-7.65493
ør	-7.6553
▁16	-7.66029
▁senere	-7.6611
ff	-7.66684
vis	-7.68786
▁di	-7.68805
▁ar	-7.68846
to	-7.69419
▁sitt	-7.69512
son	-7.69971
▁li	-7.70152
▁sa	-7.70306
▁kon	-7.70413
man	-7.71114
▁byen	-7.71378
mann	-7.71476
by	-7.71827
▁mens	-7.71887
kk	-7.7263
▁store	-7.7307
ja	-7.73219
▁være	-7.73465
▁j	-7.73635
▁vest	-7.73907
▁si	-7.7399
erne	-7.74297
▁grunn	-7.74379
▁siden	-7.74395
ce	-7.7483
▁noen	-7.75305
▁kjent	-7.75458
▁land	-7.75761
▁mo	-7.75889
å	-7.76149
mo	-7.77011
gen	-7.77131
ik	-7.77257
▁as	-7.7751
▁ni	-7.77647
ha	-7.78144
ell	-7.78262
ven	-7.78317
▁co	-7.78795
ti	-7.79115
▁kalt	-7.79828
ko	-7.80242
ling	-7.80845
si	-7.81258
▁vil	-7.8133
▁su	-7.81536
▁rundt	-7.81611
▁10	-7.82345
dal	-7.82444
var	-7.82664
▁ta	-7.82771
▁tallet	-7.82857
▁ti	-7.83004
ist	-7.83728
▁7	-7.83821
mer	-7.84015
me	-7.84275
▁navnet	-7.84659
▁po	-7.85127
▁øst	-7.85388
▁ned	-7.857
▁he	-7.85914
ft	-7.85969
▁na	-7.85978
▁pa	-7.8612
▁selv	-7.86648
▁går	-7.86986
▁nå	-7.87675
▁ofte	-7.87932
▁samt	-7.88
skap	-7.8868
▁6	-7.88784
▁dag	-7.89065
bi	-7.89145
mp	-7.8917
▁fa	-7.89324
ic	-7.89618
▁skal	-7.89791
▁mar	-7.90179
▁du	-7.90246
▁sine	-7.90318
ed	-7.9092
▁norge	-7.90966
gg	-7.9112
▁ka	-7.91163
ton	-7.91586
▁finnes	-7.91845
sjon	-7.91941
▁fire	-7.92005
ste	-7.92239
ion	-7.92305
▁per	-7.92556
▁8	-7.93139
gi	-7.93338
▁båd	-7.93422
del	-7.93469
▁frem	-7.93749
un	-7.93839
sa	-7.94121
▁w	-7.94135
▁mest	-7.944
▁bar	-7.94812
▁tid	-7.95046
kt	-7.95248
▁navn	-7.95497
▁samme	-7.96189
tor	-7.96501
▁fri	-7.96601
berg	-7.9674
▁and	-7.96804
▁blitt	-7.96824
else	-7.97124
▁vært	-7.97634
ir	-7.97855
go	-7.98119
men	-7.98304
▁so	-7.98543
▁bu	-7.9857
▁norske	-7.99182
opp	-7.99426
▁lo	-7.99707
asjon	-7.99879
bu	-8.00313
om	-8.00501
co	-8.0061
▁no	-8.00726
vi	-8.00784
æ	-8.0089
▁me	-8.01338
▁enn	-8.01413
▁12	-8.01416
▁lag	-8.01469
im	-8.02106
á	-8.02527
▁skulle	-8.02538
▁gi	-8.02851
▁far	-8.02947
▁største	-8.03088
▁14	-8.03128
▁ham	-8.03132
▁mai	-8.03151
▁ol	-8.03273
▁fly	-8.03513
▁r	-8.0379
▁hos	-8.03975
▁kinesisk	-8.04429
▁mor	-8.04697
2	-8.0486
▁rett	-8.05087
▁lang	-8.05111
▁9	-8.05184
▁sp	-8.05332
va	-8.05339
ø	-8.05424
▁bak	-8.05527
vik	-8.0556
▁film	-8.05754
ok	-8.05997
▁pro	-8.06682
ring	-8.06731
ant	-8.06749
▁y	-8.06855
▁bi	-8.07022
gang	-8.07802
pp	-8.08074
▁ru	-8.08536
▁am	-8.08543
▁august	-8.08688
len	-8.09285
▁kirke	-8.09581
ster	-8.09719
▁km	-8.09841
rett	-8.09845
▁ho	-8.09878
ment	-8.09911
mi	-8.10216
▁20	-8.10675
▁når	-8.11056
ering	-8.11655
sh	-8.1167
▁tok	-8.11705
▁ko	-8.12043
ö	-8.12086
▁vant	-8.1224
▁lu	-8.1253
▁go	-8.12696
▁fram	-8.13043
▁mars	-8.13101
▁ma	-8.13539
▁gu	-8.13671
tal	-8.13671
ard	-8.13777
▁11	-8.13794
ans	-8.1436
pe	-8.14666
▁ri	-8.14784
▁mål	-8.14914
ä	-8.15322
au	-8.15389
▁13	-8.15478
▁nye	-8.15721
▁ba	-8.15777
▁juli	-8.15827
ru	-8.1664
ni	-8.16655
▁gikk	-8.17804
▁oslo	-8.1784
▁ski	-8.17904
per	-8.18015
▁noe	-8.18168
am	-8.18233
ær	-8.18242
▁0	-8.18417
od	-8.18596
art	-8.18614
ingen	-8.18675
av	-8.18708
▁bare	-8.18982
▁består	-8.19206
ly	-8.19285
▁kunne	-8.19285
je	-8.19609
▁el	-8.19905
ina	-8.19999
ov	-8.20317
ian	-8.20324
▁hele	-8.20385
▁fi	-8.20529
▁do	-8.20878
do	-8.21618
▁innen	-8.21689
ho	-8.21796
dd	-8.22671
ca	-8.22758
▁januar	-8.22887
no	-8.22899
lin	-8.23308
lag	-8.23559
▁sol	-8.23603
gu	-8.23611
år	-8.23824
▁tro	-8.23861
elle	-8.24008
ie	-8.24033
▁te	-8.24206
▁slik	-8.2444
▁eks	-8.24842
▁sønn	-8.24932
op	-8.25087
hus	-8.25359
io	-8.25412
ud	-8.25657
▁sam	-8.25691
▁rekke	-8.25795
▁ei	-8.25897
sel	-8.2592
▁nær	-8.25979
▁vann	-8.26071
▁meter	-8.26095
po	-8.26169
sted	-8.26234
▁videre	-8.2631
mb	-8.26346
▁pe	-8.26366
und	-8.26639
▁tilbake	-8.26943
▁utgitt	-8.27449
▁uten	-8.27734
▁ch	-8.27861
▁små	-8.27878
▁hu	-8.27977
▁musikk	-8.28146
min	-8.28286
ikk	-8.28673
▁2008	-8.28921
▁tri	-8.28992
▁slutt	-8.29115
▁juni	-8.29219
▁tv	-8.29308
sta	-8.29797
nd	-8.29935
▁dem	-8.29946
itt	-8.30035
▁brukt	-8.30104
▁ju	-8.30179
▁ge	-8.30482
▁siste	-8.30772
ow	-8.31212
jø	-8.31234
▁ne	-8.31368
▁tor	-8.31396
▁ab	-8.31713
ier	-8.31742
let	-8.31745
over	-8.31818
▁form	-8.31867
▁000	-8.319
siden	-8.32183
pi	-8.32435
sett	-8.32563
▁john	-8.3272
ningen	-8.32735
▁va	-8.32737
ag	-8.32853
les	-8.32863
▁gift	-8.33239
▁leder	-8.33282
▁fem	-8.33436
bar	-8.33484
pa	-8.3354
▁kun	-8.33576
stein	-8.33604
ü	-8.34156
▁gang	-8.3431
▁x	-8.34405
▁tra	-8.34415
ium	-8.34499
▁kunst	-8.34569
▁området	-8.34731
tter	-8.34816
▁september	-8.34861
ber	-8.34866
▁skole	-8.3511
▁bli	-8.35206
slag	-8.35816
▁egen	-8.35881
ns	-8.35928
▁tillegg	-8.36373
▁like	-8.36489
▁laget	-8.36526
▁kina	-8.36649
▁ja	-8.36692
▁deres	-8.36787
ci	-8.36835
▁jo	-8.37274
▁folke	-8.37313
iv	-8.37347
ong	-8.37751
ord	-8.3776
▁oktober	-8.37971
vin	-8.38205
▁sch	-8.38525
▁desember	-8.38703
▁mi	-8.38924
dag	-8.38976
tur	-8.39219
▁2007	-8.39305
▁brukes	-8.39437
▁kommer	-8.39448
▁2010	-8.39701
▁or	-8.39762
tu	-8.39766
▁kultur	-8.39795
ll	-8.39919
▁april	-8.39935
▁øy	-8.40147
▁wa	-8.40179
▁ak	-8.4064
▁langs	-8.40746
tre	-8.40971
tak	-8.41029
ot	-8.41395
▁mat	-8.41452
▁usa	-8.41491
▁kong	-8.41506
▁russisk	-8.41812
▁spilte	-8.42004
hu	-8.42147
tra	-8.42154
▁først	-8.42383
▁con	-8.42499
▁fjell	-8.42507
sj	-8.42607
▁høy	-8.42629
ac	-8.42868
▁provinsen	-8.42885
▁spiller	-8.42947
ak	-8.43217
▁igjen	-8.43488
▁bra	-8.43618
▁min	-8.43646
▁30	-8.43683
este	-8.43904
ede	-8.44069
if	-8.44082
par	-8.44206
sp	-8.44383
▁ver	-8.44465
▁må	-8.44494
følge	-8.44685
▁gir	-8.44827
▁new	-8.44991
▁alt	-8.45097
verk	-8.45322
▁november	-8.45541
▁parti	-8.45573
▁kalles	-8.45753
▁verdens	-8.45753
elsen	-8.46018
▁bok	-8.46213
mmer	-8.46259
▁san	-8.46263
▁gjen	-8.46464
4	-8.46585
▁februar	-8.46595
▁all	-8.46823
▁hus	-8.46894
hold	-8.46941
ine	-8.47509
mon	-8.47656
sti	-8.47796
▁få	-8.47896
▁gruppen	-8.4825
▁hennes	-8.48323
▁hold	-8.48372
▁innehold	-8.48471
ret	-8.48477
lat	-8.48484
▁skrevet	-8.4862
▁syn	-8.48661
▁språk	-8.48689
▁begge	-8.48745
▁filmen	-8.48792
mar	-8.48857
som	-8.48865
▁bruk	-8.49049
ron	-8.4925
▁car	-8.49283
▁ulike	-8.49284
▁mindre	-8.49296
ley	-8.49879
ken	-8.49923
▁kar	-8.50204
▁nest	-8.50354
▁hi	-8.50493
▁art	-8.50519
▁liv	-8.50671
tiske	-8.51053
▁pu	-8.51228
▁fast	-8.51262
bb	-8.51399
fi	-8.51568
▁2006	-8.51607
itet	-8.51619
▁hver	-8.51803
▁sett	-8.51921
▁fo	-8.51945
▁imidlertid	-8.52039
▁2009	-8.5205
▁sand	-8.52078
▁lys	-8.52107
▁helt	-8.52237
tro	-8.52314
▁kommunen	-8.52476
▁særlig	-8.52623
ation	-8.5276
▁gamle	-8.52882
▁hel	-8.53192
lse	-8.53328
00	-8.53346
met	-8.53376
▁stein	-8.53453
▁person	-8.53578
pen	-8.53601
▁landet	-8.53826
bre	-8.53844
mme	-8.53868
ó	-8.54
ny	-8.5433
tid	-8.54499
▁barn	-8.54601
▁ki	-8.54955
▁kn	-8.55134
▁vei	-8.55184
sten	-8.55382
kon	-8.55516
ting	-8.55604
ya	-8.55741
▁skrev	-8.55918
▁bro	-8.5616
▁lever	-8.56195
▁nasjonal	-8.5633
satt	-8.56358
▁pan	-8.56567
dom	-8.56666
▁god	-8.56766
til	-8.56934
ill	-8.56952
tar	-8.57393
▁norges	-8.57538
ius	-8.5754
▁britisk	-8.57732
▁svært	-8.57798
ator	-8.57818
▁side	-8.57929
sch	-8.57975
▁ad	-8.57993
▁derfor	-8.58048
ran	-8.58212
ung	-8.58247
lands	-8.58306
▁my	-8.58602
1	-8.58677
▁samtidig	-8.58689
▁deretter	-8.58712
gel	-8.58737
▁par	-8.58813
and	-8.59109
▁tysk	-8.59116
ologi	-8.59377
▁engelsk	-8.59475
▁lå	-8.59497
▁ord	-8.59509
▁beste	-8.59616
▁fag	-8.59711
tisk	-8.59757
▁medlem	-8.59858
▁gud	-8.59911
▁em	-8.60061
kom	-8.60253
hi	-8.60332
ki	-8.60546
ald	-8.60556
▁mel	-8.60567
▁bil	-8.60588
og	-8.60635
▁eksempel	-8.60756
cu	-8.60921
bil	-8.61096
du	-8.6116
▁selskapet	-8.6144
▁startet	-8.61746
lu	-8.6181
bruk	-8.61856
▁større	-8.61954
ble	-8.62314
▁2005	-8.62351
5	-8.62614
fa	-8.62678
▁kor	-8.62784
▁vel	-8.6282
isme	-8.62863
▁mal	-8.63026
▁mye	-8.63096
▁ur	-8.63208
fjorden	-8.63316
ph	-8.63376
est	-8.63466
▁ku	-8.6356
▁kort	-8.6399
▁begynte	-8.6422
▁innbyggere	-8.6422
▁com	-8.6436
▁berg	-8.64425
▁val	-8.6454
▁innenfor	-8.64631
▁bru	-8.64683
ku	-8.64909
▁døde	-8.6498
burg	-8.65147
he	-8.65184
▁familien	-8.65193
▁president	-8.65359
inn	-8.65369
▁hen	-8.65469
▁gjorde	-8.65539
▁sen	-8.65695
▁kjente	-8.65721
▁nor	-8.65826
▁rom	-8.65857
▁forskjellige	-8.65928
isert	-8.65931
▁ville	-8.65958
kel	-8.6596
▁sjø	-8.66017
sson	-8.66127
▁fleste	-8.66152
▁mag	-8.66266
val	-8.66342
ding	-8.66812
gl	-8.66862
▁seks	-8.67021
▁europa	-8.67437
▁natur	-8.67444
ju	-8.67647
ty	-8.67654
▁ty	-8.6777
▁året	-8.67917
tok	-8.67974
í	-8.68147
far	-8.68201
▁ingen	-8.68237
▁plass	-8.68362
form	-8.68519
▁halv	-8.68519
ister	-8.68733
rede	-8.68904
ham	-8.68974
▁tar	-8.69001
tiden	-8.6919
▁amerikansk	-8.69247
▁ben	-8.69422
▁årene	-8.69429
ide	-8.69508
▁plan	-8.69553
▁sted	-8.69848
mor	-8.69852
zi	-8.70089
▁sentral	-8.70138
▁lokal	-8.70226
▁bandet	-8.70403
▁bergen	-8.70496
ære	-8.70568
▁anti	-8.70626
▁basert	-8.70633
dalen	-8.70722
▁gull	-8.70872
▁hol	-8.70939
net	-8.7103
jo	-8.71131
borg	-8.71169
▁vin	-8.71176
▁pre	-8.71251
ninger	-8.71296
ller	-8.71673
▁2004	-8.71776
ug	-8.7186
ski	-8.7189
yl	-8.71956
▁ed	-8.72135
▁tiden	-8.72138
▁lov	-8.72148
fly	-8.72174
▁barne	-8.72328
▁gul	-8.72478
▁hal	-8.72499
▁gresk	-8.72516
stående	-8.72551
nyin	-8.7259
▁opprinnelig	-8.72716
▁bygget	-8.72925
lene	-8.73039
▁fin	-8.73064
▁farge	-8.73139
▁gjerne	-8.7314
▁wi	-8.73409
▁ren	-8.73439
fe	-8.73632
▁sommer	-8.73734
▁dagen	-8.73826
▁2011	-8.73839
▁sta	-8.74011
▁gra	-8.74138
dy	-8.74173
uk	-8.74229
kan	-8.74294
▁brun	-8.74507
▁25	-8.74686
øya	-8.74731
bro	-8.74767
▁midt	-8.7478
▁konge	-8.74868
▁tu	-8.74878
ica	-8.75079
▁hav	-8.7509
ji	-8.75193
stand	-8.75407
▁fu	-8.75444
mu	-8.7554
▁jord	-8.7559
▁sk	-8.75629
▁je	-8.75775
▁står	-8.76221
▁sto	-8.76513
▁von	-8.76667
rik	-8.76874
▁vis	-8.77149
za	-8.77151
rmed	-8.77157
▁we	-8.77166
spill	-8.77254
▁amerikanske	-8.77401
mål	-8.77443
elt	-8.77475
▁bor	-8.77595
vo	-8.7788
▁radio	-8.77948
▁tilhører	-8.77986
stre	-8.77994
kning	-8.78183
leg	-8.78382
▁serien	-8.78425
ab	-8.7852
▁motor	-8.78565
▁24	-8.78609
▁mon	-8.78609
ska	-8.7861
▁via	-8.78817
gh	-8.78885
▁deltok	-8.78902
laget	-8.79022
skole	-8.79107
а	-8.79141
▁pr	-8.79141
▁tyske	-8.79302
▁bre	-8.79342
50	-8.79514
lær	-8.79659
ighet	-8.79837
mel	-8.79862
rø	-8.7989
bok	-8.80017
ons	-8.80077
▁gitt	-8.80225
em	-8.80289
▁21	-8.80316
▁luft	-8.80376
heim	-8.8046
ks	-8.80494
elig	-8.80554
▁måtte	-8.80677
akt	-8.80907
inger	-8.81002
værende	-8.81034
vann	-8.81116
▁2000	-8.81348
▁sosial	-8.81358
ou	-8.81434
▁tidlig	-8.81543
▁vinter	-8.81553
ino	-8.81625
▁stat	-8.81688
▁fiske	-8.81699
▁general	-8.8179
▁forfatter	-8.81976
▁utviklet	-8.8218
tan	-8.82181
▁moh	-8.82356
▁rød	-8.8242
▁datter	-8.82542
▁on	-8.82616
▁kv	-8.82916
▁bl	-8.83
q	-8.83023
rat	-8.83061
▁fylke	-8.83183
▁tredje	-8.83265
▁såkalt	-8.83312
▁dikt	-8.83406
anske	-8.8351
▁betyr	-8.83551
løp	-8.83686
▁øya	-8.8379
kker	-8.83825
ld	-8.84139
▁dr	-8.84143
fra	-8.84258
bl	-8.84311
▁col	-8.84376
su	-8.84522
▁svensk	-8.84581
isering	-8.84604
my	-8.84613
▁band	-8.84651
mat	-8.84696
▁tyskland	-8.84702
▁fotball	-8.84727
▁deler	-8.84753
▁spilt	-8.84753
familien	-8.84827
tz	-8.84849
▁sverige	-8.84851
▁vanligvis	-8.84885
▁utenfor	-8.84963
mark	-8.84982
▁kur	-8.85026
▁grad	-8.85047
tiv	-8.85052
ale	-8.85217
▁lett	-8.85235
▁post	-8.85256
stasjon	-8.85308
tin	-8.85326
▁nytt	-8.85328
▁arbeidet	-8.85343
ana	-8.8536
▁albumet	-8.85363
▁roman	-8.85431
ige	-8.85559
▁lange	-8.85936
▁sangen	-8.86138
▁keiser	-8.86424
ps	-8.86704
▁foran	-8.86728
organisasjon	-8.86773
rk	-8.86823
▁støtte	-8.86869
han	-8.86873
▁paul	-8.87061
▁ag	-8.87076
port	-8.87129
▁ganger	-8.87167
▁sal	-8.87372
▁vise	-8.87452
▁hvert	-8.87651
▁stort	-8.87808
▁ve	-8.88181
▁q	-8.88444
▁op	-8.88496
dre	-8.88622
▁ke	-8.88721
▁rø	-8.88763
▁godt	-8.88782
▁tur	-8.88931
▁bill	-8.88948
gård	-8.89185
▁2002	-8.89236
mm	-8.89266
øl	-8.89333
▁tele	-8.89378
▁grav	-8.8943
syn	-8.89612
dan	-8.89646
▁hør	-8.89675
▁dyr	-8.89712
▁skog	-8.89735
tatt	-8.89798
vet	-8.89848
▁industri	-8.90043
ket	-8.90267
▁spe	-8.90268
van	-8.90334
dømme	-8.9037
▁bruker	-8.90399
▁historie	-8.90586
▁jan	-8.90772
▁park	-8.90773
▁forhold	-8.90847
▁betydning	-8.90853
▁mil	-8.91017
▁stra	-8.91083
▁spor	-8.91184
gar	-8.9124
и	-8.91263
dyr	-8.91398
folk	-8.91553
rom	-8.91585
ds	-8.91652
styr	-8.91673
▁spesielt	-8.9168
▁nett	-8.91807
▁mus	-8.91904
▁lands	-8.9194
▁50	-8.92021
fjord	-8.9204
▁sang	-8.92051
leder	-8.9234
▁mont	-8.92367
ich	-8.92382
pol	-8.92445
▁28	-8.92528
selskap	-8.92551
▁får	-8.92584
▁z	-8.9263
uten	-8.92657
▁familie	-8.92665
ola	-8.92753
▁fer	-8.92889
▁tom	-8.92983
▁menneske	-8.93029
▁annen	-8.9304
▁klubben	-8.93146
fl	-8.93231
▁red	-8.93233
8	-8.93239
▁lav	-8.93266
jer	-8.9328
▁inkludert	-8.93357
ksjon	-8.93368
▁19	-8.93378
kul	-8.93392
▁følgende	-8.93618
kor	-8.93628
ther	-8.93749
▁skuespiller	-8.93785
▁sy	-8.93815
fon	-8.94117
▁eu	-8.94144
▁2003	-8.94225
vel	-8.94288
▁cor	-8.94481
▁arbeids	-8.94567
heten	-8.94641
▁fylkesvei	-8.94643
vei	-8.94668
▁kla	-8.94723
film	-8.94795
▁22	-8.95044
▁litt	-8.95244
kar	-8.9526
▁blå	-8.95271
▁mu	-8.95326
▁gruppe	-8.95444
▁omfatter	-8.95494
▁omkring	-8.95496
asjoner	-8.95742
▁prest	-8.95991
▁stil	-8.96006
▁viser	-8.96041
fall	-8.96061
▁gjør	-8.96175
▁fre	-8.96251
plan	-8.96302
▁forbindelse	-8.9632
▁gammel	-8.96377
tes	-8.96495
▁dis	-8.96522
▁bal	-8.96555
▁christian	-8.96721
6	-8.96767
▁carl	-8.96778
▁gav	-8.96781
▁bri	-8.96831
chi	-8.96993
stilling	-8.97046
▁os	-8.97072
▁bur	-8.97128
▁fransk	-8.97199
▁mulig	-8.97269
▁sv	-8.97335
▁ska	-8.97379
▁perioden	-8.97485
wa	-8.97539
▁ledet	-8.97939
lei	-8.97945
▁én	-8.98035
ah	-8.98056
▁karl	-8.98116
folkerepublikken	-8.9812
▁stedet	-8.98124
▁kl	-8.98173
▁pri	-8.98343
kken	-8.98459
merke	-8.98484
▁th	-8.98534
ek	-8.98592
▁100	-8.98641
▁23	-8.98705
▁you	-8.98853
▁lik	-8.98897
▁elven	-8.99033
▁riks	-8.99051
▁pal	-8.99132
alt	-8.99168
banen	-8.99223
ppe	-8.99229
forening	-8.99239
▁delstaten	-8.9924
▁chi	-8.99317
▁fl	-8.99392
rak	-8.99393
▁skolen	-8.99769
▁ø	-8.99804
før	-8.99895
▁slekt	-9.00015
▁cha	-9.00054
pris	-9.0007
▁hatt	-9.00078
▁samarbeid	-9.00144
▁klar	-9.0022
▁bjørn	-9.00224
▁sh	-9.00284
▁egne	-9.00361
▁william	-9.00363
▁orden	-9.00486
▁pl	-9.00609
▁best	-9.00626
▁ser	-9.00742
▁bygge	-9.00775
veien	-9.0086
eri	-9.01005
▁bas	-9.01168
ros	-9.01361
▁gar	-9.01423
råd	-9.01471
▁kvinne	-9.01487
▁bror	-9.01538
lan	-9.01546
▁ex	-9.0162
▁peter	-9.01633
▁medlemmer	-9.01651
▁2001	-9.0176
▁enkelte	-9.02166
▁full	-9.02178
▁hovedsakelig	-9.022
ød	-9.02201
istisk	-9.02224
▁bort	-9.02431
føre	-9.0246
3	-9.02513
lå	-9.02545
▁liten	-9.02576
▁kongen	-9.02648
idae	-9.02717
▁26	-9.02929
▁mann	-9.0295
▁tekst	-9.02965
▁produsert	-9.02993
▁can	-9.03025
▁ul	-9.0303
▁satt	-9.03035
▁arbeid	-9.03059
ari	-9.03137
▁sj	-9.03188
ap	-9.03196
▁viktigst	-9.03251
▁arbeider	-9.03524
▁stemme	-9.0362
▁ber	-9.03717
res	-9.03804
▁don	-9.03862
medalje	-9.04271
▁liste	-9.0437
▁ry	-9.04497
ara	-9.04532
istiske	-9.0454
lys	-9.04596
▁viktig	-9.0463
ringer	-9.04672
▁mark	-9.04716
▁gen	-9.04766
▁london	-9.05004
▁teater	-9.05041
ight	-9.05071
språk	-9.05088
stø	-9.05096
▁opera	-9.05144
▁jeg	-9.0535
▁finner	-9.05358
skog	-9.05378
stu	-9.05381
▁makt	-9.05404
kjenne	-9.05405
▁sc	-9.05524
▁ten	-9.05736
▁styre	-9.05816
▁rev	-9.06086
dig	-9.06245
▁hjelp	-9.06247
ograf	-9.06343
▁antall	-9.0636
grad	-9.0642
▁johan	-9.06454
▁slag	-9.06467
▁mac	-9.06628
▁ly	-9.06651
▁lite	-9.06673
▁kirken	-9.06756
byen	-9.068
▁nu	-9.07001
▁serie	-9.07049
▁van	-9.07149
▁vo	-9.07174
▁rock	-9.07316
▁krigs	-9.07358
▁representert	-9.07408
setning	-9.07412
har	-9.07475
vær	-9.07537
iserte	-9.07564
fri	-9.07579
gj	-9.07625
ien	-9.07687
▁stats	-9.07701
▁hø	-9.07716
▁tru	-9.07734
ach	-9.07881
▁cla	-9.07886
▁tatt	-9.07965
▁angrep	-9.07994
▁gl	-9.08107
7	-9.08148
▁internasjonale	-9.08149
fisk	-9.08244
we	-9.08262
▁års	-9.08297
▁vol	-9.08306
▁31	-9.08356
▁fred	-9.08379
ec	-9.08461
▁valg	-9.08511
xi	-9.08573
rum	-9.08675
pro	-9.08719
р	-9.08871
▁af	-9.08905
don	-9.08934
▁dess	-9.09017
ferd	-9.09079
▁organ	-9.09138
▁bank	-9.09195
▁felles	-9.09392
▁høyeste	-9.09415
▁lin	-9.09532
▁br	-9.09803
▁dy	-9.09857
itz	-9.09867
▁mm	-9.09901
▁bry	-9.09906
▁fant	-9.10061
kje	-9.10304
▁hy	-9.1032
iet	-9.10367
▁au	-9.10373
▁fordi	-9.10404
deling	-9.10461
gra	-9.10487
▁minne	-9.10504
▁tittelen	-9.10694
gn	-9.10825
▁qu	-9.11178
▁tak	-9.11294
lsen	-9.1136
är	-9.11377
asjonen	-9.11388
▁energi	-9.11456
▁herre	-9.11503
tale	-9.11563
▁etablert	-9.11597
▁fortsatt	-9.11622
vern	-9.11682
båt	-9.11699
yn	-9.11735
▁27	-9.11796
▁russland	-9.11941
sjef	-9.11976
bygd	-9.11979
▁ras	-9.12029
bel	-9.12106
о	-9.12137
20	-9.12155
▁kal	-9.1221
▁eget	-9.12366
▁ønske	-9.12413
dt	-9.12414
▁port	-9.12415
▁eldre	-9.12435
▁arter	-9.12454
ette	-9.12485
stan	-9.12496
stil	-9.12543
ay	-9.12568
olog	-9.12706
▁les	-9.12745
kast	-9.12855
▁england	-9.12939
▁tildelt	-9.12959
eres	-9.12976
tun	-9.13094
▁sl	-9.13134
▁universitet	-9.132
▁arm	-9.13202
▁folk	-9.13214
▁veien	-9.1326
▁sø	-9.13488
▁mis	-9.13543
▁dom	-9.13612
▁vekt	-9.1363
▁grunnlagt	-9.13634
▁båt	-9.13734
ini	-9.13738
ving	-9.13744
mester	-9.13898
▁franske	-9.13928
▁langt	-9.14042
up	-9.14045
▁syd	-9.14101
anlegg	-9.14171
▁trans	-9.1442
bane	-9.14438
▁sig	-9.14455
▁omtrent	-9.14464
▁handels	-9.14545
▁georg	-9.14582
▁elva	-9.14608
gående	-9.14613
▁za	-9.14616
▁rolle	-9.14658
lia	-9.14703
▁måte	-9.14752
ice	-9.14806
hr	-9.14973
▁tjeneste	-9.15034
system	-9.15062
▁knytte	-9.15141
▁fått	-9.15162
lagt	-9.15176
▁verk	-9.15198
▁dansk	-9.15261
▁flo	-9.15325
ive	-9.15326
▁sm	-9.15392
10	-9.15394
▁super	-9.15489
▁1999	-9.1552
▁nok	-9.15559
▁lars	-9.15674
sjøen	-9.15731
kal	-9.15768
▁sil	-9.15894
lla	-9.15911
▁åpnet	-9.15966
▁40	-9.16018
departementet	-9.16042
▁hjem	-9.16077
▁vanlig	-9.16166
inne	-9.16169
▁gri	-9.16242
▁verden	-9.16364
▁ett	-9.16429
▁sesongen	-9.16442
pu	-9.16453
40	-9.16541
▁1980	-9.16586
tjeneste	-9.16617
stilt	-9.16811
▁svart	-9.16899
fer	-9.16928
lle	-9.17014
ika	-9.17208
sky	-9.17236
gan	-9.17265
els	-9.17274
▁cu	-9.17321
▁fall	-9.17343
▁utgjør	-9.17373
sto	-9.1738
område	-9.17398
skip	-9.174
navn	-9.17498
området	-9.17597
▁linje	-9.17608
vitenskap	-9.17653
områder	-9.17686
menn	-9.17687
landet	-9.17702
mot	-9.17747
lot	-9.17921
mus	-9.17936
▁air	-9.1794
band	-9.18053
▁gran	-9.18191
▁politiker	-9.18236
▁ban	-9.18238
tel	-9.18277
▁sha	-9.18278
asj	-9.18281
▁29	-9.18553
▁lyd	-9.18595
lik	-9.18619
legg	-9.18669
▁kroppen	-9.18735
▁militær	-9.18802
int	-9.18809
▁danske	-9.18903
▁hånd	-9.19003
kra	-9.19011
▁dan	-9.19083
che	-9.19128
▁erik	-9.19134
▁opprettet	-9.19281
▁hjemme	-9.19338
▁tap	-9.19348
ismen	-9.19393
ater	-9.19552
▁fil	-9.19591
▁ac	-9.19668
▁thor	-9.19674
▁åtte	-9.19767
ð	-9.19827
▁sentrum	-9.19827
nivå	-9.19948
lighet	-9.19997
▁vår	-9.20028
▁hvit	-9.20084
▁fe	-9.20236
ida	-9.20384
▁personer	-9.20533
▁renn	-9.20544
ild	-9.20716
▁kraft	-9.20882
▁kilometer	-9.20935
▁spesial	-9.20936
▁para	-9.20936
▁mak	-9.20954
spiller	-9.20988
▁imp	-9.2102
▁olav	-9.21051
▁millioner	-9.21343
▁reise	-9.21367
▁stasjon	-9.21386
▁moderne	-9.2141
ip	-9.21455
▁ci	-9.21468
▁frankrike	-9.21499
▁1998	-9.21499
zhou	-9.21609
loven	-9.21622
▁mos	-9.21699
▁partiet	-9.21735
▁helse	-9.21821
▁latin	-9.21904
▁sommerfugl	-9.22068
▁kyst	-9.22113
▁robert	-9.22117
▁system	-9.2212
▁delen	-9.22244
▁dokument	-9.2227
▁fr	-9.22334
▁kh	-9.22334
▁aktiv	-9.22538
▁plate	-9.22706
▁økonomisk	-9.22723
sund	-9.22724
evne	-9.22801
ita	-9.22857
ath	-9.23016
huset	-9.23177
▁venstre	-9.23191
▁besto	-9.2327
▁kat	-9.23297
▁lille	-9.23301
▁paris	-9.23306
mannen	-9.23313
▁natt	-9.23386
▁olympisk	-9.23393
▁plante	-9.23542
▁grand	-9.23665
øk	-9.23691
ås	-9.2373
án	-9.23788
▁album	-9.23948
arbeid	-9.24076
iz	-9.24129
▁blad	-9.24287
▁1990	-9.24343
skje	-9.24379
▁kjøpt	-9.24394
▁våpen	-9.24395
med	-9.24408
▁david	-9.24444
bin	-9.24539
▁løpet	-9.24566
▁sak	-9.24602
▁trykk	-9.24635
▁olje	-9.24717
▁west	-9.24762
▁mod	-9.24762
▁dia	-9.24765
bus	-9.24816
▁stu	-9.24922
▁enkelt	-9.24995
▁samling	-9.25015
▁ring	-9.25186
▁venn	-9.2525
▁skade	-9.25252
▁grå	-9.25466
▁danmark	-9.25511
▁ført	-9.25541
▁gal	-9.25543
red	-9.25578
▁martin	-9.25581
▁dannet	-9.25616
gruppen	-9.25704
iti	-9.25733
▁bygd	-9.25734
fag	-9.25836
ringen	-9.25946
king	-9.25961
70	-9.26045
▁direkte	-9.26079
▁1988	-9.26087
oc	-9.26098
hy	-9.26159
ssen	-9.26202
▁zh	-9.26223
minister	-9.26223
holm	-9.26279
▁funnet	-9.26418
▁topp	-9.26437
▁eid	-9.26544
▁oppkalt	-9.26671
▁standard	-9.26683
▁verdenskrig	-9.26762
nske	-9.26892
▁overtok	-9.26948
▁mc	-9.27097
nett	-9.2714
▁jernbane	-9.27157
ille	-9.27185
▁drept	-9.27268
▁1997	-9.27268
▁samle	-9.27383
▁ør	-9.27425
▁pris	-9.27429
lon	-9.27496
▁kontroll	-9.27516
▁fla	-9.27583
kter	-9.27638
▁krigen	-9.27641
trykk	-9.27727
▁ev	-9.27758
▁war	-9.27812
▁spi	-9.2788
▁kamp	-9.27905
▁xi	-9.28018
▁sir	-9.28031
▁studie	-9.28072
▁arkitekt	-9.28097
▁johannes	-9.28114
vit	-9.2816
▁skip	-9.28173
▁kle	-9.28195
30	-9.28218
ze	-9.2825
▁verdi	-9.28304
bor	-9.28348
bygg	-9.2837
ör	-9.28371
▁regnes	-9.28381
▁gate	-9.28406
▁1993	-9.28461
▁interesse	-9.28485
log	-9.2858
▁svenske	-9.28598
ologisk	-9.28651
retning	-9.28707
ativ	-9.28708
bø	-9.28713
▁gren	-9.28793
ire	-9.28878
▁meget	-9.2894
lev	-9.29024
à	-9.29055
▁1994	-9.29066
tegn	-9.29105
▁lege	-9.29239
rin	-9.29379
37	-9.29435
ider	-9.29511
kant	-9.2956
▁sanger	-9.29573
rud	-9.29616
▁1989	-9.29661
produksjon	-9.29663
bygging	-9.29838
▁høyre	-9.29944
▁maria	-9.30017
▁flyttet	-9.3002
▁trekk	-9.30027
gy	-9.30171
samling	-9.30202
▁wo	-9.30275
▁2013	-9.30286
▁temp	-9.30413
▁data	-9.30488
▁bad	-9.3051
▁egg	-9.30554
▁sub	-9.30681
▁tal	-9.30704
messig	-9.3088
ú	-9.30884
▁biskop	-9.30886
▁nordøst	-9.30886
▁2012	-9.30905
▁nils	-9.30922
▁fjern	-9.30932
skudd	-9.31014
▁spansk	-9.31138
▁løs	-9.31289
▁blod	-9.31347
▁wal	-9.31426
▁delt	-9.31499
▁york	-9.31511
bakk	-9.31689
▁skr	-9.31715
▁forsøk	-9.31732
▁universitetet	-9.31783
formet	-9.31811
ish	-9.31874
▁ledd	-9.31876
▁heter	-9.31885
▁island	-9.31953
▁skrift	-9.32063
▁1995	-9.32134
ban	-9.32136
▁lind	-9.32243
▁stjerne	-9.32258
▁fv	-9.32329
lis	-9.3236
▁gjort	-9.32512
ford	-9.32518
lie	-9.32572
▁ap	-9.32661
selskapet	-9.32689
80	-9.32717
▁produsere	-9.32748
▁europeisk	-9.32752
▁italia	-9.32765
▁berlin	-9.32795
skrift	-9.32816
▁spille	-9.32913
▁staten	-9.32997
▁slo	-9.33005
▁eier	-9.33053
elser	-9.33091
▁regionen	-9.33159
▁stre	-9.33237
▁mennesker	-9.3331
▁dyp	-9.33376
▁1970	-9.33391
▁finsk	-9.33397
▁kam	-9.3343
liggende	-9.33447
▁bør	-9.33494
▁bj	-9.33494
▁grønn	-9.33519
bær	-9.33527
48	-9.3353
vatnet	-9.3358
vil	-9.33587
▁mø	-9.33618
plass	-9.33673
▁lær	-9.33753
▁christ	-9.33808
▁hard	-9.33811
drag	-9.33873
▁turn	-9.33881
all	-9.33885
▁sterkt	-9.33981
▁tilsvarende	-9.3401
ā	-9.34169
age	-9.34175
anger	-9.34212
snitt	-9.34217
kin	-9.34266
senter	-9.34293
navnet	-9.34302
▁mur	-9.34346
▁strøm	-9.34459
▁gård	-9.34492
▁hei	-9.34517
ral	-9.34557
▁program	-9.3458
▁kul	-9.34624
▁thomas	-9.34648
rek	-9.34665
▁ind	-9.34922
▁politi	-9.34983
▁ordet	-9.35011
▁smal	-9.35015
▁lek	-9.35091
▁konsert	-9.35178
▁informasjon	-9.35288
▁university	-9.35291
▁1992	-9.35297
▁neste	-9.35451
punkt	-9.35473
▁motstand	-9.35812
▁minst	-9.35815
bra	-9.35888
▁rot	-9.36033
middel	-9.36083
liv	-9.36116
lek	-9.36297
▁gitar	-9.36412
▁kors	-9.36436
organ	-9.3645
▁utgav	-9.36548
▁eldste	-9.36583
▁1985	-9.36595
▁ferdig	-9.36635
▁gro	-9.36659
eier	-9.36761
▁200	-9.36888
ind	-9.36898
▁steder	-9.3692
▁kol	-9.36968
klubb	-9.37031
▁versjon	-9.37091
ål	-9.37201
▁vik	-9.37243
▁utvikling	-9.37357
▁gla	-9.37364
85	-9.37463
▁bred	-9.37515
mund	-9.37525
lem	-9.37576
▁viktige	-9.37584
▁nordlige	-9.3765
rop	-9.37714
▁råd	-9.37799
▁uni	-9.37839
side	-9.37899
▁likevel	-9.37931
▁ji	-9.37991
fører	-9.38004
▁lærer	-9.38035
▁selskap	-9.38047
▁pave	-9.38053
▁periode	-9.38084
nik	-9.38085
▁knut	-9.38096
gren	-9.38135
▁seil	-9.382
voks	-9.38234
60	-9.38302
nor	-9.38397
▁punkt	-9.38513
magasin	-9.38569
gitt	-9.38569
▁2014	-9.38575
▁dam	-9.38591
▁aldri	-9.38592
▁sivil	-9.3861
▁felt	-9.38642
▁flat	-9.38648
fo	-9.38776
bert	-9.38955
jen	-9.39019
è	-9.39177
▁betydelig	-9.39223
▁james	-9.39228
felt	-9.39402
nom	-9.39475
isten	-9.39521
▁drama	-9.39587
ris	-9.39638
▁kje	-9.3966
lus	-9.39669
▁tall	-9.39697
▁ter	-9.39926
▁solgt	-9.39928
▁tett	-9.39979
▁ob	-9.40174
▁funksjon	-9.40177
stedet	-9.40188
▁lokale	-9.40206
tus	-9.40222
ite	-9.40322
eng	-9.40361
systemet	-9.40367
▁design	-9.40375
▁1981	-9.40569
▁national	-9.4057
ani	-9.40576
▁prosent	-9.40578
▁politiske	-9.40698
valg	-9.40777
▁merke	-9.40787
▁ze	-9.40883
lling	-9.41009
søk	-9.41108
▁wh	-9.41141
samfunn	-9.41142
forbund	-9.41165
▁gje	-9.41167
ial	-9.41182
▁transport	-9.412
▁stiftet	-9.41256
▁1996	-9.41257
▁1979	-9.4126
▁kjøre	-9.41278
bjørn	-9.41528
▁sku	-9.41536
ky	-9.41548
▁japan	-9.41567
dals	-9.41595
▁indre	-9.41598
▁japansk	-9.41642
dra	-9.41713
▁årlig	-9.41782
▁hed	-9.41875
▁sølv	-9.41932
▁bygde	-9.41939
▁slaget	-9.4205
▁int	-9.42114
▁møte	-9.42189
▁bilde	-9.42233
▁regjeringen	-9.42267
drift	-9.42486
▁figur	-9.42507
▁havn	-9.42567
ova	-9.42592
▁1983	-9.42636
▁ram	-9.42702
▁hor	-9.42707
mengde	-9.42752
▁henrik	-9.42783
86	-9.42798
of	-9.42871
sal	-9.42888
▁pass	-9.42889
gaard	-9.42958
tall	-9.43105
▁hvis	-9.43138
▁nummer	-9.43139
▁george	-9.43209
▁miljø	-9.43305
▁trondheim	-9.43324
▁politisk	-9.43328
▁1984	-9.43329
▁1987	-9.4333
her	-9.43339
▁eiendom	-9.4339
▁not	-9.43394
▁hvordan	-9.43417
metode	-9.43459
lov	-9.43605
▁følger	-9.43642
nntil	-9.43745
▁forsvar	-9.43796
▁kraftverk	-9.43807
stikk	-9.43859
elva	-9.43861
ney	-9.43865
▁mari	-9.43993
к	-9.44011
▁international	-9.44018
▁1991	-9.44029
▁mad	-9.44051
ano	-9.44149
arm	-9.44165
ledes	-9.44203
▁cap	-9.44212
▁type	-9.44259
▁kunstner	-9.44276
▁komme	-9.44322
▁boken	-9.44402
que	-9.44416
elige	-9.44494
▁skapt	-9.44517
full	-9.44536
fat	-9.44575
low	-9.44614
verket	-9.44628
▁instrument	-9.44639
qui	-9.44699
▁sund	-9.44717
▁1986	-9.44736
▁egentlig	-9.4476
▁distriktet	-9.44761
▁pat	-9.44777
9	-9.44825
▁munn	-9.45003
musikk	-9.45007
55	-9.45017
jæ	-9.45037
▁ball	-9.45063
▁kron	-9.45089
▁krig	-9.45091
▁litteratur	-9.4511
▁fortsatte	-9.45122
▁gjøre	-9.45216
▁henne	-9.45249
78	-9.45265
▁kjerne	-9.45275
▁befolkningen	-9.45406
▁start	-9.45418
39	-9.45461
stri	-9.45468
type	-9.45493
tag	-9.45543
midler	-9.45601
▁skje	-9.45663
▁60	-9.45719
34	-9.4574
25	-9.4577
▁sag	-9.45855
sak	-9.45907
▁flagg	-9.45923
fang	-9.46076
oner	-9.46126
▁tan	-9.46131
fugl	-9.46141
▁sørøst	-9.46148
▁gass	-9.46205
▁nordvest	-9.46207
▁riksvei	-9.46222
partiet	-9.46261
ull	-9.4627
vare	-9.46332
▁pra	-9.46359
▁krav	-9.46399
▁sogn	-9.46434
ux	-9.46464
▁ep	-9.46501
▁distrikt	-9.46529
▁ya	-9.46532
cy	-9.46541
▁benyttet	-9.4655
haug	-9.46631
tic	-9.46639
parti	-9.4665
▁kinas	-9.46664
▁karriere	-9.4674
stra	-9.46772
▁varme	-9.46858
teknisk	-9.46883
▁slekten	-9.46932
▁romersk	-9.46935
▁høsten	-9.46946
▁retning	-9.47003
▁hall	-9.47032
▁provins	-9.47063
▁cas	-9.47278
ij	-9.47386
tta	-9.47397
68	-9.47404
▁iii	-9.47662
▁bon	-9.47676
▁delta	-9.47687
95	-9.47697
▁kampen	-9.4775
▁skjer	-9.47781
bri	-9.4781
▁nådd	-9.47834
▁høyt	-9.47932
▁lære	-9.48018
▁sel	-9.48073
▁beskrive	-9.48104
▁seier	-9.48115
cht	-9.48116
året	-9.48179
▁divisjon	-9.48233
din	-9.48234
aks	-9.48301
α	-9.4832
▁1982	-9.48333
▁1960	-9.48334
▁2015	-9.48342
▁gården	-9.48373
▁reg	-9.48394
pel	-9.48468
vid	-9.48563
▁dal	-9.48576
▁afrika	-9.48992
▁svarte	-9.4905
▁københavn	-9.49055
▁storbritannia	-9.49055
▁richard	-9.49056
gikk	-9.49077
▁søster	-9.49105
▁hodet	-9.49188
▁artist	-9.49203
▁modell	-9.49242
▁fulgte	-9.49284
▁utnevnt	-9.49344
våg	-9.49579
▁mun	-9.49654
cha	-9.49691
så	-9.49694
▁kj	-9.49744
▁she	-9.49772
▁totalt	-9.49774
▁hovedstaden	-9.49776
š	-9.49796
▁stift	-9.49798
▁inter	-9.49879
▁tradisjon	-9.49923
▁opprør	-9.49945
▁populær	-9.49951
syre	-9.50044
▁un	-9.50118
▁løv	-9.50145
old	-9.50182
iner	-9.50189
strøm	-9.50226
▁old	-9.50241
elli	-9.50245
cc	-9.50293
▁danse	-9.50318
▁heste	-9.50359
▁ledelse	-9.50436
kh	-9.50518
▁oppført	-9.50548
virkning	-9.50576
94	-9.50623
▁offentlig	-9.50712
az	-9.50729
aksjon	-9.50749
64	-9.50839
▁følge	-9.50883
kri	-9.50907
▁hår	-9.50912
▁frank	-9.50945
▁just	-9.50995
▁hå	-9.50998
▁drift	-9.51022
▁son	-9.5111
rå	-9.51219
▁pla	-9.51269
ī	-9.51294
▁world	-9.51294
abel	-9.51382
▁stod	-9.51563
bank	-9.51582
dige	-9.51585
▁produkt	-9.51654
ms	-9.5173
▁india	-9.51869
▁gre	-9.51897
▁foss	-9.51901
▁lengde	-9.51924
▁region	-9.52023
ū	-9.52051
▁statsminister	-9.52067
▁daglig	-9.52088
øn	-9.52112
hel	-9.52252
▁nærings	-9.52257
▁syv	-9.52316
oll	-9.5241
82	-9.5245
▁shi	-9.52504
▁lagt	-9.52523
▁enten	-9.52566
▁anne	-9.52625
▁ky	-9.52667
▁hum	-9.52732
føring	-9.52917
tek	-9.52948
stat	-9.52949
▁ungdoms	-9.52971
bud	-9.52994
53	-9.5305
43	-9.53058
▁blo	-9.53127
▁het	-9.53148
løse	-9.53255
▁viste	-9.53268
ins	-9.53269
aktig	-9.53271
tog	-9.53309
hav	-9.53374
eks	-9.53406
▁skipet	-9.53534
▁studerte	-9.53585
▁bakgrunn	-9.5361
▁grense	-9.53613
samisk	-9.5373
▁mas	-9.53752
▁faren	-9.53763
spor	-9.53764
▁tegn	-9.53781
way	-9.53823
▁ordenen	-9.53826
ix	-9.53839
press	-9.53844
▁slike	-9.53873
▁høyere	-9.53933
▁80	-9.54003
▁prisen	-9.54011
gått	-9.54045
ob	-9.5406
▁bay	-9.54065
▁karakter	-9.54113
gruppe	-9.54122
▁sommeren	-9.54124
▁asia	-9.54136
kamp	-9.54165
▁bern	-9.54242
kunst	-9.54325
▁1972	-9.5436
▁los	-9.54377
▁virke	-9.54384
▁avdeling	-9.54418
63	-9.54457
gard	-9.5449
ved	-9.5452
▁lund	-9.54566
▁høyde	-9.5462
▁danner	-9.54623
▁nabo	-9.54675
▁roma	-9.54727
е	-9.5477
brudd	-9.54774
stall	-9.54853
▁jens	-9.54888
▁drev	-9.54901
ora	-9.54986
83	-9.55014
skapet	-9.5507
zz	-9.55072
jev	-9.55111
▁ang	-9.55114
kle	-9.55127
▁verne	-9.55159
san	-9.55166
▁sikre	-9.55181
▁fest	-9.55184
fin	-9.55297
veg	-9.553
▁ran	-9.55345
ction	-9.55377
▁sky	-9.55404
▁dager	-9.55484
▁arten	-9.55544
▁tung	-9.55563
unt	-9.55586
▁produksjon	-9.55599
ark	-9.55605
fest	-9.55744
▁est	-9.55776
ata	-9.5582
▁maskin	-9.55864
▁bolig	-9.55871
▁amerika	-9.55918
▁derimot	-9.55929
▁nærmest	-9.55931
▁vid	-9.55978
org	-9.55981
▁finans	-9.55989
▁ek	-9.55996
▁holde	-9.56008
▁tj	-9.56211
▁privat	-9.56227
▁professor	-9.56229
▁idretts	-9.56312
н	-9.56413
▁fange	-9.56426
ming	-9.56447
▁mente	-9.56485
ios	-9.56516
▁israel	-9.56606
voll	-9.56635
▁stockholm	-9.56721
▁forsvars	-9.56767
▁operasjon	-9.56794
▁ole	-9.56886
▁bygningen	-9.56944
▁museum	-9.56957
▁forsker	-9.56971
person	-9.56972
grav	-9.56998
47	-9.5702
ance	-9.57034
▁borg	-9.57043
oni	-9.57093
▁bøker	-9.57099
än	-9.57129
36	-9.57167
▁menn	-9.57305
fil	-9.57325
▁vind	-9.57353
tell	-9.57355
▁hvilke	-9.57523
cus	-9.57527
▁video	-9.57541
styrke	-9.57619
▁kvinner	-9.57673
▁inkluderer	-9.57683
blad	-9.57686
57	-9.57698
mis	-9.57707
л	-9.57771
stoff	-9.57775
gjøre	-9.57776
▁danne	-9.57789
▁char	-9.57814
▁produsent	-9.57815
▁nrk	-9.57926
▁styrke	-9.58018
▁variant	-9.58027
hn	-9.58052
▁kreve	-9.58073
▁dra	-9.58115
▁virksomhet	-9.58189
▁middel	-9.58205
vesen	-9.58242
field	-9.58301
▁hverandre	-9.58328
utdannet	-9.58333
▁1974	-9.58339
▁love	-9.58341
try	-9.58343
▁fører	-9.58347
▁plassert	-9.58388
▁real	-9.58431
▁produksjons	-9.58458
▁miste	-9.58501
▁bø	-9.58625
▁skrive	-9.58657
▁regi	-9.5868
ub	-9.58736
▁cro	-9.58835
▁jon	-9.58967
nu	-9.59035
▁tegne	-9.59114
с	-9.59127
▁hertug	-9.59145
▁canada	-9.59152
▁1976	-9.59154
▁bestemt	-9.59174
▁black	-9.59192
▁eg	-9.59201
▁organisasjonen	-9.59236
91	-9.59303
▁effekt	-9.59325
▁sju	-9.5933
▁sentrale	-9.59386
▁ph	-9.59405
97	-9.5941
stol	-9.59423
▁jean	-9.59526
ritt	-9.59594
▁poly	-9.59661
nis	-9.59664
▁vold	-9.5968
66	-9.59734
vinger	-9.59814
▁fremme	-9.59869
▁sur	-9.59874
▁win	-9.59879
gata	-9.5993
▁suksess	-9.59961
▁klima	-9.59966
▁utført	-9.59975
▁1968	-9.59976
▁høye	-9.59984
▁poeng	-9.60041
hund	-9.60055
▁grensen	-9.60062
fart	-9.60119
lund	-9.60127
kler	-9.60128
▁metal	-9.60354
alis	-9.60376
ple	-9.6039
44	-9.60405
▁skape	-9.60577
▁fugle	-9.60774
▁us	-9.60775
д	-9.60787
▁klassisk	-9.6079
▁innført	-9.60799
▁1950	-9.60817
▁fjorden	-9.60818
under	-9.60907
▁will	-9.6096
pan	-9.60996
▁syk	-9.61008
vekt	-9.61096
▁løper	-9.61182
▁journalist	-9.61272
▁gå	-9.6132
fu	-9.61449
▁reist	-9.61451
▁sykdom	-9.6147
▁meste	-9.6147
87	-9.61474
senteret	-9.61505
▁hvite	-9.61548
▁bygg	-9.61557
arter	-9.61575
▁arrangert	-9.6162
▁folketelling	-9.61621
▁hovedrollen	-9.61623
▁stavanger	-9.61629
▁charles	-9.61651
▁lyn	-9.61654
▁rygg	-9.61731
▁feil	-9.61754
øs	-9.6187
▁myr	-9.61979
▁penge	-9.6199
ball	-9.6209
▁jern	-9.62091
linje	-9.62106
▁ansvar	-9.62107
42	-9.62156
rød	-9.6216
▁klo	-9.62205
mand	-9.62259
rør	-9.62271
41	-9.62289
▁legge	-9.62308
▁finne	-9.62318
▁spill	-9.62347
▁dro	-9.62438
ekte	-9.62446
▁salt	-9.62456
▁offisiell	-9.62461
▁fjerde	-9.62461
▁jazz	-9.62487
▁tanke	-9.62517
gården	-9.6252
▁maur	-9.62542
ston	-9.62564
▁selve	-9.62593
▁vanlige	-9.62653
prisen	-9.62726
▁dersom	-9.62735
▁regel	-9.6277
▁base	-9.62776
▁oppdaget	-9.62793
▁heller	-9.62798
▁sten	-9.62824
gjorde	-9.6287
delen	-9.62967
▁brann	-9.62973
▁ana	-9.63017
▁italiensk	-9.63024
▁resten	-9.63105
▁jobb	-9.63177
▁bel	-9.63245
▁korte	-9.6325
▁hit	-9.63279
▁fredrik	-9.6329
▁århundre	-9.63309
▁relativ	-9.63309
▁1945	-9.63318
▁1978	-9.63324
▁1920	-9.63331
▁hud	-9.63332
▁2017	-9.63332
76	-9.63339
▁valgt	-9.63363
▁grupper	-9.63401
▁metall	-9.63405
▁akademi	-9.63429
skjold	-9.63442
▁fjord	-9.63505
ante	-9.63521
▁stilling	-9.63529
▁områder	-9.63708
ben	-9.63788
▁raskt	-9.63853
▁leve	-9.63883
▁støttet	-9.63926
illa	-9.63942
▁representant	-9.63989
▁pen	-9.64036
73	-9.64114
м	-9.64163
▁dårlig	-9.64164
▁brensel	-9.64165
løs	-9.64173
▁1964	-9.64178
▁holm	-9.64179
▁musikkalbum	-9.64183
▁ordfører	-9.64189
▁vm	-9.64297
bilde	-9.64307
cia	-9.64348
▁gyl	-9.64361
lang	-9.64382
▁sort	-9.6441
▁hovedstad	-9.64507
▁cy	-9.64572
grense	-9.64612
67	-9.64707
strand	-9.64762
▁total	-9.64788
79	-9.64838
▁epi	-9.64885
våpen	-9.64936
▁gode	-9.64968
▁presse	-9.64993
▁michael	-9.65025
▁pasient	-9.65025
61	-9.65028
gal	-9.6503
▁sn	-9.65036
84	-9.65047
▁klubb	-9.65085
▁tha	-9.6518
mitt	-9.65195
lapp	-9.65221
▁komponist	-9.65275
▁artene	-9.65314
▁sterk	-9.65342
▁anlegget	-9.65481
▁etablerte	-9.65519
71	-9.65537
mond	-9.65678
på	-9.65736
▁behandling	-9.65889
▁profesjonell	-9.65895
▁dronning	-9.65899
▁royal	-9.65901
▁tydelig	-9.65901
ов	-9.65904
▁1977	-9.65906
▁buk	-9.65915
▁sau	-9.6592
krets	-9.65937
▁kraftig	-9.65978
56	-9.65999
▁teksten	-9.66064
62	-9.66094
shire	-9.66104
▁rein	-9.66112
90	-9.66231
uch	-9.66326
▁stan	-9.6634
▁korea	-9.66341
▁led	-9.66346
zo	-9.66449
▁70	-9.66476
blomst	-9.6649
jel	-9.66506
farge	-9.66547
▁max	-9.66574
▁erstattet	-9.66622
▁nederlandsk	-9.66636
▁bane	-9.66645
▁avisen	-9.66729
▁wilhelm	-9.66772
▁parlament	-9.66772
▁lengre	-9.66773
▁handling	-9.66781
▁drive	-9.6679
▁hjerte	-9.66814
▁bevart	-9.66815
▁regjering	-9.66841
▁fø	-9.66915
▁star	-9.66953
▁elev	-9.66966
▁oppdrag	-9.66985
▁bit	-9.67026
ula	-9.6704
▁koloni	-9.67048
one	-9.67094
motor	-9.67097
▁vit	-9.6725
rike	-9.67252
▁påvirke	-9.67414
▁spar	-9.6742
arbeider	-9.67445
▁scene	-9.67535
69	-9.6757
▁dø	-9.67625
▁lenger	-9.67662
▁reguler	-9.67668
▁kjempe	-9.67682
▁ok	-9.67698
▁sørvest	-9.67711
▁forsknings	-9.67727
vest	-9.67823
▁pop	-9.67908
jan	-9.67932
▁senter	-9.67998
▁hva	-9.68072
▁krets	-9.68101
▁temperatur	-9.68212
▁løp	-9.68389
49	-9.68458
løsning	-9.68463
▁røde	-9.6847
▁lignende	-9.68497
industri	-9.68524
skaffe	-9.68544
▁united	-9.68552
▁bevegelse	-9.68555
▁kilde	-9.6856
▁utdanning	-9.68562
iblant	-9.68564
▁snakk	-9.68569
▁kongelig	-9.68583
51	-9.68588
▁king	-9.686
▁alltid	-9.6862
▁hell	-9.68707
ische	-9.68709
▁harald	-9.68758
dor	-9.68789
▁reform	-9.68877
ona	-9.68878
ala	-9.68902
21	-9.6891
▁mw	-9.6892
trekk	-9.68974
▁aust	-9.69032
rio	-9.69087
fot	-9.69088
59	-9.69103
58	-9.69133
▁regn	-9.69136
▁skips	-9.69146
▁klasse	-9.69199
▁strand	-9.69224
▁nes	-9.69231
fjell	-9.69287
▁app	-9.69346
sport	-9.69352
høy	-9.69383
▁hellig	-9.69422
ekspedisjon	-9.6945
▁foruten	-9.69454
▁vokste	-9.69457
▁melodi	-9.69458
▁vanskelig	-9.69458
▁altså	-9.69483
▁kloster	-9.6949
▁adel	-9.6951
▁bedre	-9.69631
92	-9.69639
litt	-9.69648
ram	-9.69665
havet	-9.69768
▁leir	-9.69773
▁åpne	-9.69798
▁dynastiet	-9.69988
▁edderkopp	-9.70028
kop	-9.7007
▁sesong	-9.70102
▁time	-9.70144
▁musiker	-9.70188
▁sko	-9.70231
sje	-9.70239
▁cm	-9.7035
▁symbol	-9.70357
klasse	-9.70357
▁lengst	-9.70366
▁befolkning	-9.70392
kraftverk	-9.70418
kultur	-9.70424
▁samfunns	-9.70486
▁jesu	-9.70588
▁90	-9.70627
▁hoff	-9.70651
▁union	-9.70669
▁luk	-9.70705
▁rik	-9.70752
pet	-9.70828
▁pin	-9.70892
ledning	-9.7093
▁lan	-9.70931
▁nevnt	-9.7094
▁stykke	-9.70978
▁finland	-9.71037
88	-9.71052
▁areal	-9.71054
vogn	-9.71077
▁fot	-9.71148
▁størrelse	-9.71181
dem	-9.71197
bia	-9.71225
klar	-9.7127
▁kardinal	-9.71277
▁publisert	-9.71277
omfattende	-9.71277
▁øvre	-9.71284
bånd	-9.71293
▁lansert	-9.71308
▁plat	-9.71324
▁student	-9.7134
▁anna	-9.71347
▁område	-9.71367
▁city	-9.71399
kilden	-9.71461
▁larven	-9.71524
▁satte	-9.71558
▁johann	-9.71572
▁gru	-9.71602
▁åpen	-9.71605
kov	-9.71637
▁larvene	-9.7173
▁typer	-9.7174
▁sende	-9.7182
▁nasjonale	-9.71906
▁dyre	-9.71917
▁fn	-9.71973
▁prosjekt	-9.71984
▁hopp	-9.72048
▁forfatteren	-9.7205
▁zo	-9.72065
▁cal	-9.72068
lj	-9.72086
kirke	-9.721
▁livs	-9.72133
▁45	-9.72134
linjen	-9.72152
▁direktør	-9.72197
▁sovjetunionen	-9.72203
▁brasil	-9.72209
▁flyplass	-9.72213
▁skatte	-9.72214
▁lufthavn	-9.72214
møte	-9.72304
sberg	-9.72331
bryte	-9.72355
dekke	-9.72365
uc	-9.72431
program	-9.72472
oli	-9.72474
▁representerer	-9.72508
wi	-9.72541
▁cell	-9.72616
standen	-9.72757
▁grev	-9.72767
▁endret	-9.72772
ikken	-9.72801
▁bass	-9.7285
▁elve	-9.72867
▁gun	-9.72869
ping	-9.72889
▁formann	-9.72905
kla	-9.72915
saker	-9.72926
▁lø	-9.72946
▁forsøkt	-9.72968
▁trafikk	-9.7305
sam	-9.73051
▁samlet	-9.73099
ã	-9.73137
ρ	-9.73137
▁egypt	-9.73138
▁arabisk	-9.73139
▁nærmere	-9.73143
▁2016	-9.73163
▁slått	-9.73201
mil	-9.73306
stid	-9.73321
▁hundre	-9.73377
sik	-9.73409
▁driver	-9.73479
▁damp	-9.73528
▁delvis	-9.73558
▁sørlige	-9.73566
▁forkorte	-9.73625
▁redaktør	-9.73741
▁meg	-9.73767
▁ramme	-9.73828
kkel	-9.73839
hen	-9.73855
gna	-9.74037
▁elv	-9.74052
▁religiøs	-9.74081
▁spania	-9.74084
▁kontakt	-9.74089
▁gjennomført	-9.74089
▁1973	-9.74096
▁marie	-9.74139
regionen	-9.74158
▁kart	-9.74162
▁unge	-9.74173
miljø	-9.74182
▁part	-9.74184
plassen	-9.74238
▁bedrift	-9.74271
rich	-9.74305
hør	-9.7446
▁strid	-9.74515
▁1800	-9.74531
dighet	-9.74535
▁arve	-9.74596
▁grenser	-9.74633
▁øke	-9.74639
▁odd	-9.74647
▁frukt	-9.74673
▁pol	-9.74776
▁single	-9.74789
▁posisjon	-9.74815
▁vinner	-9.74827
con	-9.74837
shi	-9.74873
01	-9.74889
▁militære	-9.74908
bare	-9.74912
▁føde	-9.74926
▁rike	-9.74928
strek	-9.74934
gul	-9.74985
▁500	-9.7501
grunn	-9.75027
▁etterhvert	-9.75034
▁begynnelsen	-9.75038
▁voksne	-9.75043
▁1975	-9.75046
▁1940	-9.75057
atur	-9.75068
▁kanon	-9.75074
▁krist	-9.75079
▁kull	-9.75127
▁off	-9.75131
trafikk	-9.75138
maskin	-9.75175
mid	-9.75187
well	-9.75302
▁jevn	-9.75307
▁mørk	-9.75336
win	-9.75395
▁engelske	-9.75403
orm	-9.75475
▁historiker	-9.75507
▁spiss	-9.75521
▁35	-9.75536
virke	-9.75549
▁helge	-9.75554
▁test	-9.75635
▁øyene	-9.75657
ura	-9.75702
gå	-9.75703
▁tema	-9.75705
▁arne	-9.75863
▁sim	-9.75901
т	-9.75988
▁opprinnelse	-9.75995
▁spesiell	-9.75996
▁bronse	-9.76023
▁camp	-9.76066
historie	-9.7611
▁rh	-9.76117
▁vent	-9.76118
pin	-9.76179
12	-9.7618
▁rå	-9.76228
levende	-9.76231
▁tittel	-9.76246
▁bruke	-9.76286
trær	-9.76287
formen	-9.76293
teori	-9.763
valget	-9.76348
lser	-9.76376
75	-9.76381
ity	-9.7639
kka	-9.7641
▁undersøkelse	-9.76416
▁may	-9.76417
▁listen	-9.76583
▁hage	-9.76597
▁kroner	-9.76606
ith	-9.76617
▁kontor	-9.76634
▁laur	-9.7664
ua	-9.76659
▁sterke	-9.76826
▁valgte	-9.76828
▁resultat	-9.76832
fjellet	-9.76912
▁byprefekture	-9.76966
▁regissert	-9.76966
▁nevnes	-9.7697
▁typisk	-9.76971
▁møtte	-9.76979
▁fotballspiller	-9.76992
▁dor	-9.77062
vert	-9.77077
aktiv	-9.77093
▁fro	-9.77144
▁passer	-9.77195
zy	-9.77237
mod	-9.77313
▁havet	-9.77378
bru	-9.77406
▁hode	-9.77504
▁fjellet	-9.77813
15	-9.77859
▁hon	-9.7789
▁1967	-9.77961
svømme	-9.77973
▁stav	-9.77988
utvikle	-9.7799
▁1900	-9.77993
periode	-9.78109
▁nivå	-9.78249
slav	-9.78279
▁begrepet	-9.78353
▁ansatte	-9.78668
▁lot	-9.78679
▁anders	-9.78759
▁kost	-9.78761
ordenen	-9.7877
▁økonomi	-9.7879
▁haug	-9.78796
▁aktivitet	-9.78815
▁motiv	-9.78845
▁trøndelag	-9.78936
▁xiàn	-9.78936
▁strekk	-9.78941
▁malt	-9.78941
▁1948	-9.78957
▁omtalt	-9.78986
krigen	-9.79018
▁stadig	-9.79025
▁lenge	-9.79045
virksomhet	-9.79107
figur	-9.79111
▁mik	-9.79137
▁opprinnelige	-9.79157
▁styrker	-9.79159
løst	-9.79248
▁mester	-9.79356
uf	-9.79661
▁yu	-9.79683
▁magne	-9.7969
lom	-9.79699
ér	-9.79822
▁marine	-9.79874
rådet	-9.79914
▁original	-9.79933
▁foreldre	-9.79938
▁1930	-9.79959
▁soldater	-9.79964
▁otto	-9.79968
▁blomster	-9.79974
▁fordelt	-9.80024
ernes	-9.80076
▁song	-9.80089
fyl	-9.80094
▁polsk	-9.80133
▁byer	-9.80245
▁dog	-9.80254
93	-9.80325
▁glo	-9.80334
▁py	-9.80364
▁stamme	-9.80509
▁skyt	-9.8051
▁forvingen	-9.80546
▁stille	-9.80551
pass	-9.80563
korps	-9.80628
46	-9.80637
77	-9.80718
▁skå	-9.80767
foss	-9.80816
▁bonde	-9.80903
▁berømt	-9.80946
▁kategori	-9.80946
▁beijing	-9.80947
▁religion	-9.80947
▁kristian	-9.80967
▁administrasjons	-9.80991
▁louis	-9.81004
▁nam	-9.81027
▁tverr	-9.8107
▁forskning	-9.81091
gift	-9.81108
▁regjerings	-9.81121
▁naturlig	-9.81143
▁styrt	-9.81173
▁rør	-9.81243
vig	-9.81244
vind	-9.8128
▁bla	-9.81404
▁tapte	-9.81434
▁mill	-9.81448
▁cup	-9.8145
øyene	-9.81586
▁andreas	-9.81597
▁utøve	-9.81616
▁32	-9.81647
▁turist	-9.81701
ico	-9.81715
klubben	-9.81715
▁landsbyen	-9.81719
svik	-9.81773
▁stammer	-9.81834
▁festning	-9.81854
у	-9.81967
kapasitet	-9.81968
enberg	-9.8198
▁benyttes	-9.8198
▁kari	-9.82012
qua	-9.82049
99	-9.82125
forbindelse	-9.82203
last	-9.82207
dømt	-9.82209
74	-9.82257
▁vend	-9.82276
▁fylket	-9.82397
▁cho	-9.82403
▁stasjonen	-9.82428
▁endt	-9.8253
▁beskytte	-9.82585
pla	-9.82664
14	-9.82679
skriv	-9.82692
▁rest	-9.82707
com	-9.8276
▁kall	-9.8286
▁veg	-9.82867
skolen	-9.82881
▁australia	-9.82998
▁tilhørte	-9.83
kandidat	-9.83004
▁forretnings	-9.83041
▁alder	-9.8305
▁slå	-9.83122
▁lavere	-9.83159
▁konkurranse	-9.83209
▁borger	-9.8321
▁sports	-9.83219
▁sendt	-9.83313
▁master	-9.83365
▁hær	-9.83436
▁buss	-9.83515
▁folket	-9.83539
▁rad	-9.83561
▁thi	-9.83565
fabrikk	-9.83635
▁fc	-9.83722
stripe	-9.83758
▁fabrikk	-9.83788
▁betegne	-9.83801
▁mid	-9.83843
28	-9.83866
▁besøk	-9.83881
▁sammenheng	-9.8393
▁hente	-9.83948
▁eksempler	-9.84039
▁tilgjengelig	-9.84039
▁digital	-9.8404
▁primær	-9.8404
▁daniel	-9.84097
▁saint	-9.84156
▁gall	-9.84329
▁bud	-9.84334
▁kil	-9.8437
avdeling	-9.84383
feltet	-9.84403
▁kristne	-9.84427
kraft	-9.84476
▁ark	-9.84541
▁uttrykk	-9.84653
finn	-9.84729
grep	-9.84752
pha	-9.8478
handler	-9.84852
32	-9.84876
▁gard	-9.84968
35	-9.85036
▁prøve	-9.85067
▁hurtig	-9.85093
▁forteller	-9.8512
▁up	-9.85131
grupper	-9.85234
▁petter	-9.8525
trolig	-9.8527
▁ytre	-9.85273
▁und	-9.85294
▁fyr	-9.85453
▁spørsmål	-9.85595
avtale	-9.85637
▁gutt	-9.8567
▁indisk	-9.85747
▁dj	-9.85757
wan	-9.85906
ept	-9.85974
▁hæren	-9.86015
в	-9.86137
▁konflikt	-9.86156
ι	-9.86156
▁tidsskrift	-9.86166
▁1946	-9.8617
▁1971	-9.86172
▁linjen	-9.86181
▁betegnelsen	-9.86201
▁kg	-9.8625
barn	-9.86255
▁livet	-9.86295
aria	-9.8635
skjell	-9.8645
0	-9.86462
▁bærer	-9.86477
zar	-9.86518
19	-9.8652
kysten	-9.86544
nummer	-9.86557
kirken	-9.86609
▁tilfelle	-9.86673
▁north	-9.86755
feld	-9.86873
▁400	-9.86929
stem	-9.86931
bygning	-9.86946
23	-9.86972
▁sendte	-9.86986
▁overgang	-9.87065
31	-9.87085
ori	-9.87132
ado	-9.87231
▁ishockey	-9.87231
▁kritikk	-9.87232
forvaltning	-9.87236
▁1962	-9.87247
▁sykehus	-9.87254
▁tog	-9.87296
dam	-9.8731
17	-9.87333
▁streng	-9.8736
plikt	-9.87398
▁ce	-9.87406
▁wei	-9.8741
bevegelsen	-9.87422
▁huset	-9.87458
kommune	-9.87495
ick	-9.87582
deles	-9.87728
▁preget	-9.87736
▁tusen	-9.87829
elv	-9.87859
▁sjef	-9.87882
▁forlot	-9.87885
▁regional	-9.87938
trinn	-9.87979
ville	-9.88041
▁kysten	-9.88128
▁uavhengig	-9.88206
ō	-9.88251
hø	-9.88273
▁univers	-9.88295
▁publikum	-9.88318
▁jødisk	-9.8832
▁skjedde	-9.8832
▁oscar	-9.88334
dagen	-9.88393
▁tonn	-9.88397
▁albert	-9.88451
utgivelse	-9.88517
rup	-9.88517
▁bryst	-9.88658
▁problem	-9.88689
én	-9.88725
▁kir	-9.88735
▁prins	-9.88767
hov	-9.88792
▁fløy	-9.88801
stykke	-9.88802
▁auto	-9.8885
▁atom	-9.88862
▁republikken	-9.88868
legging	-9.88899
▁nan	-9.88936
cho	-9.8905
▁fremste	-9.8912
▁rask	-9.89154
▁fylkes	-9.89231
bul	-9.89238
slutning	-9.89286
▁falt	-9.89296
▁elektrisk	-9.89417
▁rapport	-9.89417
▁dialekt	-9.89418
▁college	-9.89421
▁high	-9.89499
▁kamper	-9.89502
▁tegneserie	-9.8955
▁nar	-9.89632
▁polen	-9.89746
▁nasjonalpark	-9.89758
plasser	-9.89775
▁kaptein	-9.89777
album	-9.89793
▁tettsted	-9.89818
▁mobil	-9.8983
▁hill	-9.89919
▁zu	-9.89993
▁beskrevet	-9.90008
16	-9.90036
jord	-9.9007
arbeidet	-9.90119
▁tettstedet	-9.90182
▁programmet	-9.90312
▁fal	-9.90397
▁frø	-9.90452
▁kok	-9.90462
økonom	-9.90492
ν	-9.90528
▁records	-9.90528
▁joseph	-9.90528
▁terreng	-9.90529
▁yngre	-9.90529
▁frederik	-9.90534
▁fungere	-9.90543
▁lage	-9.90544
▁1956	-9.90545
▁1969	-9.90545
ón	-9.90592
firma	-9.90677
▁normalt	-9.90706
▁team	-9.90732
innspilling	-9.90743
ras	-9.9078
09	-9.9086
▁fed	-9.90872
▁kvart	-9.90885
▁italienske	-9.90902
▁sønnen	-9.90904
gjort	-9.90918
utvikling	-9.9095
handel	-9.91054
▁tale	-9.9108
back	-9.91129
car	-9.91207
former	-9.91239
▁dekker	-9.91269
▁midten	-9.91353
ín	-9.91379
▁mulighet	-9.91383
▁vær	-9.91396
▁300	-9.91398
skipet	-9.91418
▁utover	-9.91435
▁ting	-9.91498
verdig	-9.91525
▁vill	-9.91567
▁kalk	-9.91589
▁rund	-9.91604
▁studio	-9.91648
▁school	-9.91652
▁hustru	-9.91654
▁oblast	-9.91661
▁1953	-9.91671
▁revolusjon	-9.91684
parken	-9.91811
liste	-9.91855
▁æres	-9.91914
▁statlig	-9.91988
akk	-9.92047
▁oppsto	-9.92086
▁grunnla	-9.9213
▁stoff	-9.92168
driv	-9.92192
▁mørke	-9.92218
▁jakt	-9.92276
rekke	-9.92295
▁freds	-9.92324
butikk	-9.92377
▁snø	-9.9239
▁åpning	-9.92519
bein	-9.92552
▁il	-9.92616
▁tids	-9.92648
▁south	-9.9265
hode	-9.92687
▁human	-9.92719
rolle	-9.92762
▁fullstendig	-9.92788
▁company	-9.92788
▁positiv	-9.92788
▁installert	-9.92788
▁norrøn	-9.92791
▁1963	-9.92807
aceae	-9.9281
tis	-9.92828
▁fordel	-9.92845
▁kristen	-9.92923
▁luc	-9.93008
▁masse	-9.93046
ytter	-9.93072
▁katolske	-9.93107
mennene	-9.93156
ella	-9.93157
▁prof	-9.93161
distrikt	-9.93209
ada	-9.93214
prosjekt	-9.9326
▁dommer	-9.93419
▁endelig	-9.93481
gri	-9.93523
▁landskap	-9.93529
hild	-9.93539
▁historisk	-9.93585
fyll	-9.93649
▁solo	-9.93671
▁offiser	-9.93684
▁bord	-9.9371
lid	-9.93734
▁vokal	-9.93751
▁tone	-9.93795
can	-9.93805
▁finalen	-9.93859
byrå	-9.93875
▁fremst	-9.93925
ł	-9.93937
▁stadion	-9.93945
▁ekteskap	-9.93947
▁vinge	-9.93991
▁län	-9.94022
▁rute	-9.94052
visning	-9.9407
lly	-9.94176
▁formål	-9.94187
▁amt	-9.94206
▁fotballklubb	-9.94299
serien	-9.94376
▁tross	-9.94455
ain	-9.94461
vold	-9.94472
▁stål	-9.9453
▁nr	-9.94663
▁cam	-9.94738
ān	-9.94806
▁long	-9.94812
▁spise	-9.94945
▁front	-9.95059
▁innsats	-9.95103
▁fokus	-9.95105
▁magnus	-9.95106
▁årsak	-9.95124
▁hotell	-9.9513
▁trener	-9.95213
▁gjelder	-9.95235
qu	-9.95265
▁prosess	-9.95303
▁endre	-9.9534
▁jobbe	-9.95386
▁harry	-9.95519
▁oversatt	-9.95709
▁historiske	-9.95728
▁maler	-9.95749
▁utføre	-9.95769
▁ger	-9.95793
▁overfor	-9.95892
▁brand	-9.95941
▁politikk	-9.95993
kasse	-9.96029
▁gruve	-9.96043
▁die	-9.96063
sekretær	-9.96262
▁konkurrere	-9.96277
▁ytterligere	-9.96277
▁skottland	-9.96277
▁tunnel	-9.96277
▁award	-9.96278
▁episode	-9.96279
▁selvstendig	-9.96284
▁1961	-9.96295
cher	-9.963
▁sco	-9.96314
▁rollen	-9.96337
▁arkeolog	-9.9639
▁omfattet	-9.96405
▁effektiv	-9.9642
▁stol	-9.96506
▁gold	-9.96516
▁por	-9.96558
lønn	-9.9658
▁femte	-9.96589
vika	-9.96613
▁apo	-9.96643
▁65	-9.96687
▁kreft	-9.96703
hopp	-9.9674
holdsvis	-9.96782
isa	-9.96803
▁stand	-9.96808
▁vakt	-9.96881
▁irland	-9.96889
▁bind	-9.96919
▁music	-9.96949
65	-9.97003
bladet	-9.97027
følgende	-9.97137
stav	-9.97198
vinner	-9.97203
▁sete	-9.97213
▁runde	-9.97229
26	-9.97286
hand	-9.97342
45	-9.97394
▁elektro	-9.97427
▁1952	-9.97467
▁innbyggertall	-9.97467
▁inspirert	-9.97467
▁league	-9.97467
▁middelsstor	-9.97467
hol	-9.97468
▁1965	-9.97481
mønster	-9.97489
▁1939	-9.9749
▁bakvingen	-9.97497
klo	-9.9751
▁element	-9.97517
▁bibel	-9.97552
11	-9.97581
gate	-9.97597
▁oppgave	-9.97675
ici	-9.97694
▁likhet	-9.97749
▁uttale	-9.97755
▁gil	-9.97862
▁irsk	-9.97896
soldat	-9.97919
løpet	-9.98014
snes	-9.98152
▁cra	-9.98184
▁behandle	-9.98356
▁offentlige	-9.98397
▁liga	-9.98457
▁ung	-9.98523
▁blei	-9.98574
▁jorden	-9.98663
belteasteroide	-9.98672
▁objekt	-9.98672
▁generelt	-9.98673
▁redusert	-9.98674
▁vitenskapelig	-9.9868
▁1949	-9.9869
▁1966	-9.98692
24	-9.98705
▁bol	-9.98734
▁600	-9.98736
▁dvs	-9.98748
▁ris	-9.98756
▁middelalderen	-9.98789
ough	-9.98805
▁måneder	-9.98835
▁innsjøen	-9.9884
gro	-9.98855
▁undervisning	-9.98857
▁för	-9.98868
▁sankt	-9.9887
▁saken	-9.98888
▁hjelpe	-9.98966
▁ull	-9.98982
▁mikro	-9.99009
▁horn	-9.99148
▁begynner	-9.99189
29	-9.99204
▁søke	-9.99227
▁qui	-9.99293
gne	-9.99301
▁debutert	-9.99301
pur	-9.99309
lam	-9.9932
▁ein	-9.99331
▁liberal	-9.99342
krig	-9.9936
03	-9.99491
forhold	-9.99553
▁kjøpe	-9.99589
▁bidra	-9.99724
▁web	-9.99736
▁sider	-9.99756
▁och	-9.99783
▁alternativ	-9.99891
▁konstant	-9.99898
▁bodde	-9.9991
▁1942	-9.99911
▁minutt	-9.99911
▁neu	-9.99935
▁jarl	-9.99949
▁jordbruk	-9.99955
▁heng	-9.99991
▁bibliotek	-10.0002
▁ledende	-10.0004
▁henry	-10.0011
▁geo	-10.0011
mur	-10.0014
ric	-10.0033
▁vestlige	-10.0037
▁tradisjonelle	-10.0039
dorf	-10.004
▁gy	-10.0041
hm	-10.0042
hall	-10.0046
▁unn	-10.0048
lv	-10.0048
▁tour	-10.0051
konkurranse	-10.0053
produkt	-10.0054
▁bydel	-10.0066
bach	-10.0068
▁korn	-10.0074
▁bob	-10.0082
▁nordland	-10.0083
▁fyrst	-10.0083
war	-10.0087
lip	-10.0088
▁tradisjonell	-10.0102
▁moskva	-10.0113
▁grunnlegger	-10.0113
▁stortinget	-10.0113
▁klarte	-10.0114
▁eli	-10.0114
▁1936	-10.0115
▁bølge	-10.0115
▁philip	-10.0117
▁papir	-10.0117
▁fremdeles	-10.0117
▁ukjent	-10.012
▁forsvaret	-10.0122
▁oversettelse	-10.0122
ign	-10.0125
▁virkelig	-10.0126
▁behov	-10.0129
kritiker	-10.0131
▁eksempelvis	-10.0132
▁debut	-10.0133
kjøp	-10.0133
▁bidrag	-10.0143
▁orient	-10.0143
osa	-10.0147
▁tårn	-10.015
ammen	-10.0161
▁kyr	-10.0169
13	-10.0169
▁slave	-10.0169
konstruksjon	-10.0172
33	-10.0172
bal	-10.0175
cheng	-10.0179
▁kin	-10.0182
▁sar	-10.0187
istene	-10.0192
▁rep	-10.0199
▁dalen	-10.02
▁landskapet	-10.0201
▁områdene	-10.0207
▁historien	-10.0213
▁skriver	-10.0216
96	-10.0226
kvalitet	-10.0229
▁gress	-10.0229
▁ub	-10.0231
ο	-10.0237
▁kunnskap	-10.0238
▁salg	-10.0238
▁finnmark	-10.0239
▁1957	-10.024
▁sannsynligvis	-10.0241
høgskole	-10.0242
jern	-10.0244
▁jag	-10.0246
▁scott	-10.0248
brun	-10.025
▁tradisjonel	-10.0252
▁innsjø	-10.0257
▁ånd	-10.0262
vang	-10.0265
gress	-10.0271
▁laste	-10.0273
▁franc	-10.0277
▁pel	-10.0283
ito	-10.0283
cent	-10.0285
▁stoppe	-10.0286
havn	-10.0286
reise	-10.0289
kanten	-10.0304
22	-10.0305
▁innhold	-10.0306
hånd	-10.0309
▁sats	-10.0309
18	-10.031
▁økt	-10.0315
▁green	-10.0316
▁jule	-10.0316
sur	-10.0319
hua	-10.0319
▁anton	-10.0319
ppel	-10.0334
▁bydelen	-10.0338
▁75	-10.0341
later	-10.0357
pat	-10.0358
▁kropps	-10.0363
▁typen	-10.0364
▁astronom	-10.0364
▁nødvendig	-10.0364
▁passasjer	-10.0364
▁edvard	-10.0364
▁kjønn	-10.0366
▁utga	-10.0369
▁tørr	-10.037
rey	-10.0379
staten	-10.0379
rige	-10.0382
▁press	-10.039
gass	-10.0393
festivalen	-10.0396
punktet	-10.0403
▁grunnlag	-10.0406
herre	-10.041
▁skinn	-10.0411
vor	-10.0412
▁wen	-10.042
▁kommunikasjon	-10.0425
▁dør	-10.0429
funksjon	-10.0438
▁villa	-10.044
ledet	-10.0441
▁studier	-10.0454
▁troll	-10.0456
▁institutt	-10.0465
▁bio	-10.0468
▁olsen	-10.0486
nngår	-10.0487
▁tilknyttet	-10.0492
▁1944	-10.0494
▁gustav	-10.0496
▁straffe	-10.0498
▁sverd	-10.05
▁islam	-10.0501
▁kvinnelige	-10.0506
▁kåre	-10.0508
▁eva	-10.051
områdene	-10.0512
▁sho	-10.0513
trådte	-10.0515
▁inge	-10.052
upp	-10.0522
▁esp	-10.0523
▁forlag	-10.0528
▁santa	-10.0532
▁intern	-10.0533
skij	-10.0546
betegnelse	-10.0549
▁mary	-10.055
▁finn	-10.0555
▁oliv	-10.0556
▁funn	-10.0558
▁simon	-10.0559
▁kjell	-10.0567
bell	-10.0567
kort	-10.0569
▁private	-10.0573
hallen	-10.0575
▁az	-10.0576
▁samarbeidet	-10.0581
▁roll	-10.0582
bøker	-10.0582
post	-10.0583
▁tang	-10.0586
▁utgi	-10.059
▁brev	-10.0596
fartøy	-10.0604
▁jacob	-10.0608
▁festival	-10.0609
▁opphav	-10.0611
hai	-10.0612
▁vet	-10.0618
▁struktur	-10.0619
▁etterfulgt	-10.0622
▁artikkel	-10.0622
▁service	-10.0622
▁ekstrem	-10.0622
▁østerrike	-10.0622
▁1933	-10.0624
▁steve	-10.0624
▁1943	-10.0625
▁politiet	-10.0625
▁håkon	-10.0626
▁kraftige	-10.0626
▁brown	-10.0629
▁reserve	-10.0631
▁stri	-10.0633
park	-10.0633
off	-10.0633
▁æ	-10.0633
▁gjenopp	-10.0637
▁glass	-10.0648
▁forekommer	-10.0651
27	-10.0653
▁dun	-10.0656
▁kommunal	-10.0665
▁menighet	-10.0672
halvøya	-10.0672
marked	-10.0676
▁tropp	-10.0677
føringen	-10.0677
▁gjeste	-10.0679
▁utviklingen	-10.068
▁valget	-10.068
▁institusjon	-10.0682
▁materiale	-10.0686
ić	-10.0688
▁viking	-10.0692
bol	-10.0693
▁idrettslag	-10.0695
▁nyere	-10.0698
flue	-10.0699
▁kai	-10.0702
politikk	-10.0703
▁hammer	-10.0705
▁musikalsk	-10.0705
makt	-10.0707
98	-10.0714
▁landsby	-10.0714
▁møter	-10.0724
awa	-10.0736
myndighet	-10.075
▁eventyr	-10.0754
▁california	-10.0754
▁kjærlighet	-10.0754
▁shanghai	-10.0754
▁individ	-10.0754
▁grov	-10.0755
▁1955	-10.0756
▁unntak	-10.0756
▁ligner	-10.0757
ahl	-10.0758
▁krysse	-10.0764
zh	-10.0765
▁arkitektur	-10.077
ordning	-10.0771
▁tolv	-10.0772
▁bygda	-10.0778
▁dato	-10.0784
▁tron	-10.0788
▁aksje	-10.0791
▁with	-10.0792
▁tromsø	-10.0794
▁underlagt	-10.0798
▁sven	-10.0799
▁utstilling	-10.0809
▁sovjetisk	-10.0823
▁flåte	-10.0835
produsent	-10.0838
ical	-10.084
vekst	-10.0841
sanger	-10.0843
▁din	-10.0853
▁nedre	-10.0855
▁utvidet	-10.0855
▁toppen	-10.0856
▁hunnen	-10.0857
▁lån	-10.0859
orden	-10.0862
▁våren	-10.0877
ß	-10.0881
øvrig	-10.0882
▁american	-10.0887
▁innflytelse	-10.0887
▁fengsel	-10.0887
▁arrangere	-10.0887
▁fullført	-10.0887
▁operatør	-10.0887
▁gunnar	-10.0888
▁jakob	-10.0888
▁1938	-10.0888
▁varierer	-10.0894
▁tilbyr	-10.0895
▁stabil	-10.09
▁bou	-10.0902
▁utdannelse	-10.0904
gav	-10.0905
▁grønland	-10.0907
▁skyldes	-10.0911
▁internasjonal	-10.0918
▁saga	-10.0926
dro	-10.0929
▁skille	-10.0939
komst	-10.0941
plate	-10.0947
serie	-10.0948
▁romanen	-10.0958
▁økte	-10.096
▁dobbelt	-10.096
▁vannet	-10.0966
▁hov	-10.0969
dommer	-10.0971
▁kommunist	-10.0971
▁matt	-10.0972
materiale	-10.0975
▁yo	-10.0975
effekt	-10.0976
öl	-10.0983
▁bombe	-10.0984
▁kjemisk	-10.0984
▁markert	-10.0984
▁starter	-10.0986
▁vestre	-10.0986
kontor	-10.0989
▁velge	-10.0992
▁populære	-10.0997
▁hevde	-10.0998
kreft	-10.1002
somme	-10.1003
datter	-10.1015
logen	-10.1021
▁county	-10.1022
▁betrakte	-10.1022
▁premier	-10.1023
▁smith	-10.1024
▁1958	-10.1024
▁1947	-10.1025
▁ref	-10.1029
▁bekrefte	-10.1029
▁hovedsak	-10.1031
strøk	-10.1038
▁verket	-10.1042
cle	-10.1042
▁aur	-10.1044
rim	-10.1046
▁kode	-10.1049
▁bach	-10.1051
▁00	-10.1051
▁ulv	-10.1053
▁hevdet	-10.1056
▁filosof	-10.1067
▁oftest	-10.1071
▁150	-10.1071
maler	-10.1074
iteten	-10.1103
▁ungdom	-10.1106
▁problemer	-10.111
forfatter	-10.1114
mini	-10.1116
▁forskjell	-10.1116
taker	-10.1126
slett	-10.113
▁andersen	-10.1131
▁bakke	-10.1134
onia	-10.1137
▁skyld	-10.114
▁medisin	-10.1143
▁regnet	-10.1146
katt	-10.1156
▁administrativ	-10.1159
▁infanteri	-10.1159
▁anerkjent	-10.1159
▁1923	-10.1161
▁fotograf	-10.1161
▁power	-10.1162
▁svak	-10.1162
▁øvrige	-10.1165
▁brenn	-10.1165
▁vokser	-10.1166
▁east	-10.1166
riket	-10.1168
▁nærheten	-10.1168
møll	-10.1177
▁wood	-10.1192
▁produksjonen	-10.1194
▁gram	-10.1197
▁moren	-10.1197
▁fru	-10.1197
▁ekstra	-10.1199
▁hj	-10.1199
una	-10.1219
▁ken	-10.122
▁cre	-10.1224
ulykke	-10.1225
▁boy	-10.1226
▁indian	-10.1227
cal	-10.1229
▁europe	-10.1237
stått	-10.124
▁dekk	-10.1243
hon	-10.1261
▁lau	-10.1269
▁kommuner	-10.1274
innen	-10.1276
▁hannen	-10.1276
▁skj	-10.1282
foreningen	-10.1289
▁filosofi	-10.129
løytnant	-10.1298
▁alexander	-10.1298
▁alvorlig	-10.1298
konferanse	-10.1298
▁cirka	-10.1298
▁fysisk	-10.1298
▁1932	-10.13
▁drammen	-10.13
▁1951	-10.13
▁elever	-10.1303
strakt	-10.1304
▁skilt	-10.1306
▁systemet	-10.1307
lement	-10.1313
eksamen	-10.1314
▁sveits	-10.1321
▁bosatt	-10.1325
▁markeds	-10.1326
▁sørover	-10.133
▁internasjonalt	-10.1334
▁ulik	-10.1336
▁deles	-10.1336
▁spilles	-10.1341
▁organisert	-10.1341
▁multi	-10.1346
▁hval	-10.135
▁emil	-10.135
▁russ	-10.1359
komedie	-10.1369
▁latinsk	-10.138
▁planet	-10.1381
museum	-10.1399
▁teknologi	-10.1399
botn	-10.1402
▁verker	-10.1405
▁fler	-10.1411
rommet	-10.1413
row	-10.1416
▁rekord	-10.1424
zon	-10.1425
▁involver	-10.1439
▁vunnet	-10.1439
▁terror	-10.144
▁golf	-10.144
▁blanding	-10.144
▁slank	-10.1441
▁1941	-10.1441
▁referere	-10.1442
tårn	-10.1443
▁marker	-10.1454
▁telemark	-10.1461
chester	-10.1462
▁våg	-10.1474
▁grim	-10.1475
fjellene	-10.1482
▁hul	-10.1483
▁lyst	-10.1491
ami	-10.1496
▁kommun	-10.1508
dannelse	-10.1511
▁øverste	-10.1511
formede	-10.1523
▁38	-10.1525
▁fritt	-10.1543
tallet	-10.1546
kjent	-10.1549
▁signal	-10.1569
▁studenter	-10.1572
▁vor	-10.1574
▁introdusert	-10.1582
▁utgangspunkt	-10.1582
▁sjelden	-10.1582
▁club	-10.1582
▁kommersiell	-10.1582
▁autonom	-10.1583
▁mytologi	-10.1584
▁1959	-10.1584
▁henholdsvis	-10.1584
▁snart	-10.1588
▁bosetning	-10.1599
▁vokalist	-10.1609
idrett	-10.1609
▁forbundet	-10.1614
▁kapit	-10.1624
▁bom	-10.1629
▁fett	-10.1642
rand	-10.1643
▁flu	-10.1647
▁opptre	-10.1651
▁rek	-10.1654
▁pap	-10.1662
▁planter	-10.1664
ulf	-10.1677
▁avsluttet	-10.168
▁cri	-10.1685
▁mangle	-10.1685
hof	-10.1686
stille	-10.1688
▁orkester	-10.1688
▁handler	-10.169
lé	-10.1691
▁vers	-10.1701
▁kald	-10.1702
▁sveitsisk	-10.1703
▁normal	-10.1704
livet	-10.1706
▁dukke	-10.1707
▁mexico	-10.1727
▁jørgen	-10.1727
▁debutalbum	-10.1727
▁global	-10.1728
▁1918	-10.1728
▁1928	-10.1729
▁skotsk	-10.173
▁bidro	-10.1731
▁automat	-10.1731
▁kapell	-10.1732
▁demokratisk	-10.1735
▁tho	-10.1739
▁sikkerhets	-10.1745
turnering	-10.1755
▁spenning	-10.1757
▁legger	-10.1761
▁avhengig	-10.1764
▁drikke	-10.1764
▁selge	-10.1764
▁konkurransen	-10.1767
▁kanalen	-10.177
▁spillet	-10.1784
▁timer	-10.1796
▁mah	-10.1806
forsker	-10.1811
▁lønn	-10.1815
vand	-10.1829
▁sea	-10.1834
▁skall	-10.1836
▁sving	-10.1838
▁kjøl	-10.1842
▁krim	-10.1844
født	-10.1844
▁33	-10.1848
▁uke	-10.1859
▁bevege	-10.186
kampen	-10.1862
rakk	-10.1863
ary	-10.1866
vingen	-10.1868
▁sikker	-10.1869
▁bånd	-10.1871
republik	-10.1873
▁offisielt	-10.1874
▁sistnevnte	-10.1874
▁kombinert	-10.1874
▁erklært	-10.1874
komité	-10.1875
▁spredt	-10.1878
▁utvikler	-10.1878
▁overflate	-10.1884
▁flertall	-10.1885
plattform	-10.1896
▁1500	-10.1902
▁sammenligne	-10.191
▁mottatt	-10.1914
▁kaste	-10.1914
▁nordover	-10.1921
▁gitarist	-10.1933
▁advokat	-10.1936
mesterskapet	-10.1943
▁tam	-10.1944
▁høst	-10.1945
▁tilhøre	-10.1946
▁kilder	-10.1956
▁kanal	-10.1962
▁athen	-10.1963
syke	-10.197
▁stilte	-10.198
▁utvalg	-10.1986
▁sav	-10.1988
▁medisinsk	-10.1989
måte	-10.2001
▁nm	-10.2002
▁tvil	-10.2004
▁shan	-10.2013
stokk	-10.2015
▁1600	-10.2019
▁rand	-10.2021
▁fødsel	-10.2023
ì	-10.2023
▁barcelona	-10.2023
▁1954	-10.2023
▁vulkan	-10.2023
▁nikola	-10.2023
▁praktisk	-10.2024
▁himmel	-10.2025
▁ødelegge	-10.2026
▁protest	-10.2026
▁samfunnet	-10.2026
▁1937	-10.2026
▁riktig	-10.2028
wald	-10.2029
hem	-10.203
▁diplomat	-10.203
ship	-10.2032
hed	-10.2035
▁hellas	-10.2038
▁anlegg	-10.2045
▁gaten	-10.205
dyktig	-10.2052
▁motsetning	-10.2057
▁lord	-10.2065
▁østlige	-10.2076
▁levert	-10.2083
▁fartøy	-10.2088
▁torg	-10.2093
▁eie	-10.2098
▁barb	-10.2099
kall	-10.21
▁vegg	-10.21
▁stig	-10.2104
▁play	-10.2105
▁bull	-10.2105
▁nav	-10.2106
bygningen	-10.2107
▁bau	-10.2107
▁mangler	-10.2107
▁ey	-10.2108
rykket	-10.2109
▁foreningen	-10.211
▁manus	-10.2128
▁insekter	-10.2129
misjon	-10.2135
strømmen	-10.2141
▁ric	-10.2145
▁bakkroppen	-10.2155
tank	-10.2157
forbundet	-10.2157
▁jud	-10.2169
▁wil	-10.2171
▁petr	-10.2172
▁1906	-10.2175
▁skulptur	-10.2175
▁pakistan	-10.2175
▁christoph	-10.2175
▁utelukke	-10.2175
▁redusere	-10.2175
ич	-10.2175
▁1924	-10.2176
▁godkjent	-10.2177
▁sli	-10.2179
▁svar	-10.2186
▁rov	-10.219
▁veldig	-10.2191
▁tau	-10.2192
▁prosessen	-10.2197
tain	-10.2203
roman	-10.2211
partner	-10.2212
▁versjonen	-10.2222
gud	-10.2229
▁game	-10.2231
▁krysser	-10.2232
bestemmelse	-10.224
▁bety	-10.225
▁wolf	-10.2251
▁drag	-10.2259
▁myk	-10.2264
▁iso	-10.2295
▁tin	-10.2297
wood	-10.23
▁ingeniør	-10.2308
▁bevis	-10.2318
ç	-10.2328
kompetanse	-10.2329
▁oppstår	-10.2329
▁situasjon	-10.2329
ström	-10.2329
▁kjøtt	-10.2329
▁ridder	-10.2329
▁tømmer	-10.233
▁1921	-10.2331
▁1934	-10.2331
▁komposisjon	-10.2333
▁turbin	-10.2333
▁henhold	-10.2339
▁palm	-10.2347
▁angi	-10.235
▁riket	-10.235
▁stortings	-10.235
▁spre	-10.2351
▁prix	-10.2355
sentre	-10.2364
distanse	-10.2368
▁adam	-10.237
▁benytter	-10.2382
▁klassen	-10.2385
sending	-10.2395
sundet	-10.2399
▁storm	-10.2399
▁chu	-10.2406
scen	-10.2411
▁hem	-10.2414
▁utenriks	-10.2434
▁meta	-10.2446
▁euro	-10.2447
▁måned	-10.2466
ique	-10.2466
stjerne	-10.2468
givelse	-10.2469
▁160	-10.247
▁marin	-10.2476
▁modellen	-10.2478
▁pul	-10.2478
▁prefektur	-10.2485
▁science	-10.2485
▁adolf	-10.2485
▁tilbud	-10.2485
▁nedbør	-10.2485
rådgiver	-10.2485
▁major	-10.2485
▁oversikt	-10.2485
▁bispedømme	-10.2486
▁1935	-10.2487
▁1912	-10.2487
▁hemmelig	-10.2487
▁fjernsyn	-10.2488
▁rektor	-10.2489
▁einar	-10.2499
setting	-10.2503
▁demningen	-10.2504
▁teknikk	-10.2505
▁dol	-10.2505
▁furu	-10.2505
▁hil	-10.2508
▁metro	-10.2514
▁sunn	-10.2517
▁ferge	-10.2518
slekt	-10.2526
▁phil	-10.2527
slekten	-10.2528
nemlig	-10.2529
▁bredt	-10.2542
▁motsatt	-10.2544
▁chang	-10.2547
▁grøn	-10.255
▁flykte	-10.2568
▁bilder	-10.2595
▁beina	-10.2598
▁gruppa	-10.26
▁800	-10.26
▁frihet	-10.2605
▁resultatet	-10.2608
▁dru	-10.261
▁skiller	-10.2614
haus	-10.2617
▁kapp	-10.2618
▁lim	-10.2618
historisk	-10.2621
akademi	-10.2621
▁sekund	-10.2624
▁gjeld	-10.2629
▁utstyr	-10.2632
▁rulle	-10.2633
næs	-10.2638
sikkerhet	-10.2641
friidrettsutøver	-10.2643
▁kino	-10.2643
▁vingespenn	-10.2643
▁regissør	-10.2643
▁negativ	-10.2643
▁utbredt	-10.2643
▁tilhenger	-10.2644
▁tilsvarer	-10.2644
▁studioalbum	-10.2644
▁medlemmene	-10.2645
▁1917	-10.2645
▁1931	-10.2645
▁import	-10.2646
▁bygninger	-10.2648
▁bunn	-10.2651
▁bydistrikt	-10.2651
▁wu	-10.2652
▁skjær	-10.2665
▁lake	-10.2671
▁antennene	-10.2675
▁sab	-10.2677
årig	-10.2682
familie	-10.2683
▁morgen	-10.2689
oksid	-10.2698
masse	-10.2707
bøl	-10.2715
drakt	-10.272
▁mono	-10.2735
▁platen	-10.2736
▁dekket	-10.2741
link	-10.2743
flekk	-10.2753
▁former	-10.2758
▁hek	-10.2759
listen	-10.2763
horn	-10.2767
fre	-10.2768
▁lokaliser	-10.2773
▁prosjektet	-10.2776
zel	-10.2777
teknikk	-10.2784
▁snu	-10.2786
administrasjon	-10.2798
▁erkebiskop	-10.2805
▁ludvig	-10.2805
▁nominert	-10.2805
fysikk	-10.2805
ovitsj	-10.2805
▁begrenset	-10.2805
▁landbruks	-10.2805
▁1929	-10.2807
▁anvende	-10.2807
▁svein	-10.2807
▁anklage	-10.2807
▁oppnådd	-10.2808
▁jim	-10.2814
angrep	-10.2818
▁orgel	-10.2819
▁tredjeplass	-10.2823
▁wall	-10.283
▁nederland	-10.2834
▁isteden	-10.2835
▁jack	-10.2844
▁befinne	-10.2846
▁utstyrt	-10.2853
▁modern	-10.2855
▁nordisk	-10.2863
▁skuespill	-10.2875
▁ansvarlig	-10.2878
на	-10.2879
▁vekst	-10.2881
▁preg	-10.2885
▁tsje	-10.2885
dikt	-10.2885
▁beskrev	-10.2894
▁kim	-10.2894
▁opphold	-10.2899
kjede	-10.29
ridge	-10.2913
avgift	-10.2914
▁enkle	-10.2915
galleri	-10.2918
▁kontrakt	-10.2919
bukta	-10.2919
egnet	-10.2922
ledd	-10.2947
bibliotek	-10.2951
forskning	-10.2953
▁700	-10.2959
▁friedrich	-10.2969
▁guvernør	-10.2969
▁dahl	-10.297
able	-10.2971
▁generasjon	-10.2971
▁omtales	-10.2971
▁trenger	-10.2973
38	-10.2974
▁pensjon	-10.2978
▁bispe	-10.298
▁eksport	-10.2981
▁hjul	-10.2989
▁prinsipp	-10.299
▁show	-10.2991
bygget	-10.2991
øvelse	-10.2992
▁great	-10.3001
▁agder	-10.3003
▁kammer	-10.3005
tysk	-10.3005
▁1700	-10.3006
▁alv	-10.301
▁kollektiv	-10.301
alisme	-10.3025
▁tyskerne	-10.3029
▁sær	-10.3039
▁homo	-10.3044
mmel	-10.3047
▁inntekt	-10.3054
head	-10.3056
▁visse	-10.306
▁ansatt	-10.3063
hest	-10.3068
▁histor	-10.3076
▁pur	-10.3084
▁uttrykket	-10.3088
▁vanligst	-10.309
drevet	-10.3099
▁ankom	-10.3099
maker	-10.3101
▁maleri	-10.3132
modell	-10.3133
▁initiativ	-10.3135
frekvens	-10.3135
▁definert	-10.3136
▁rolf	-10.3136
▁opposisjon	-10.3136
▁1926	-10.3137
▁arendal	-10.3137
▁molde	-10.3137
▁group	-10.3138
▁1910	-10.314
▁programvare	-10.314
▁1000	-10.3141
▁skjul	-10.3142
▁museet	-10.3144
▁hastighet	-10.3144
▁filip	-10.3145
bak	-10.3146
▁bell	-10.3146
førsel	-10.3147
▁piano	-10.3152
▁reaksjon	-10.3153
▁vannkraftverk	-10.3154
▁gradvis	-10.3156
▁bakken	-10.3164
▁server	-10.3202
▁status	-10.3204
beskyttelse	-10.3204
▁fel	-10.3206
fant	-10.321
▁angel	-10.321
▁svi	-10.3214
brua	-10.3223
▁vig	-10.3225
▁smak	-10.3226
▁bin	-10.3232
eira	-10.3239
brett	-10.324
▁term	-10.3243
▁verdensmester	-10.3258
▁nettverk	-10.3258
▁rau	-10.3263
▁kval	-10.327
▁sann	-10.3279
▁tø	-10.3279
hjul	-10.3294
▁administrere	-10.3305
▁oppmerksomhet	-10.3305
▁praksis	-10.3305
▁kristiansand	-10.3305
▁opplysning	-10.3305
▁skjønn	-10.3305
▁nedenfor	-10.3306
▁overført	-10.3306
▁innebære	-10.3307
▁1919	-10.3307
worth	-10.3308
▁litterær	-10.3308
▁forenkle	-10.3309
forsikring	-10.3311
▁frykt	-10.3312
▁anledning	-10.3321
bebyggelse	-10.3322
basert	-10.3327
▁tynn	-10.3328
▁plassering	-10.333
▁bat	-10.3339
▁bøy	-10.3342
brakte	-10.3344
▁johansen	-10.3352
▁utløp	-10.3355
▁kjemi	-10.3362
▁besøkt	-10.3367
▁trø	-10.3371
kveld	-10.3375
▁river	-10.3377
▁karbon	-10.3381
speil	-10.339
▁pont	-10.3397
▁grevskap	-10.3404
verden	-10.3415
▁cru	-10.342
▁hop	-10.3421
▁uker	-10.3424
▁synge	-10.3431
▁falk	-10.3433
▁junior	-10.3441
▁drap	-10.3441
▁kristin	-10.3457
leggelse	-10.3462
▁sign	-10.3467
hastighet	-10.3468
skjær	-10.3471
▁sannsynlig	-10.3473
▁vietnam	-10.3477
▁1905	-10.3477
▁1907	-10.3477
▁antagelig	-10.3477
▁washington	-10.3477
▁østerriksk	-10.3477
▁edward	-10.3477
▁nicola	-10.3477
▁monument	-10.3477
▁kvalifiser	-10.3477
▁fiktiv	-10.3477
▁1904	-10.3477
▁utmerkelse	-10.3478
▁doktorgrad	-10.3478
▁angripe	-10.3478
▁faktisk	-10.3479
▁beholdt	-10.3479
▁1927	-10.3479
▁1913	-10.3479
▁skarp	-10.348
▁house	-10.3481
▁nobel	-10.3489
▁hitler	-10.349
▁blokk	-10.3496
▁undergrunns	-10.3497
▁antatt	-10.3514
▁fan	-10.3518
▁alban	-10.3519
▁street	-10.3523
rock	-10.353
▁fortalt	-10.3531
▁polar	-10.3538
▁gli	-10.3544
▁styrkene	-10.3558
vakt	-10.3562
▁kommando	-10.3564
▁trakt	-10.3568
▁jones	-10.3574
bring	-10.3602
gning	-10.3614
▁last	-10.363
kilde	-10.3632
agon	-10.3634
▁middelalder	-10.3636
medlem	-10.3646
evolusjon	-10.3648
▁lam	-10.365
▁færøyene	-10.3653
▁respekt	-10.3653
▁ressurs	-10.3653
▁erobret	-10.3653
▁mekanisk	-10.3653
▁fremført	-10.3653
▁brøt	-10.3653
kjøring	-10.3654
▁etterfølger	-10.3655
▁utgivelsen	-10.366
▁forestilling	-10.3662
komiteen	-10.3663
▁avholdt	-10.3667
▁vg	-10.3668
▁utnytte	-10.3669
▁sukker	-10.3673
▁angeles	-10.3677
verdi	-10.3679
▁blu	-10.368
▁class	-10.3689
▁stab	-10.3691
lich	-10.3692
▁henri	-10.37
▁arrangement	-10.3704
rute	-10.3711
gram	-10.3738
▁score	-10.3744
▁klokken	-10.3747
▁velger	-10.3763
▁elite	-10.3765
▁unna	-10.3769
▁sideelv	-10.377
▁slott	-10.3784
vre	-10.3789
▁fantes	-10.3814
næring	-10.3818
fattet	-10.3828
▁paus	-10.3828
utdanning	-10.3829
▁eksperiment	-10.3831
▁portugisisk	-10.3831
▁sjeldne	-10.3831
▁central	-10.3831
▁foregår	-10.3831
▁krevde	-10.3832
▁arthur	-10.3832
▁hjørne	-10.3835
kompani	-10.3836
▁michel	-10.3837
takelse	-10.3843
▁lisens	-10.3845
teater	-10.3845
▁paven	-10.3845
▁legend	-10.3845
▁nedlagt	-10.3846
afrikansk	-10.3847
▁uavhengighet	-10.3852
spinner	-10.3852
▁psykologi	-10.3867
▁peder	-10.3892
▁fortsetter	-10.3903
▁div	-10.3908
▁fry	-10.3928
▁inneha	-10.3941
▁tilstand	-10.3946
▁larve	-10.3949
▁sikte	-10.3951
▁synlig	-10.3955
▁roger	-10.3956
kryss	-10.3957
▁begrep	-10.3962
▁brei	-10.3968
fell	-10.3983
skrevet	-10.4003
▁hovedkvarter	-10.4013
▁portugal	-10.4013
▁tilnærm	-10.4013
▁nektet	-10.4014
▁oberst	-10.4014
direktør	-10.4014
behandling	-10.4014
▁betjene	-10.4014
▁geografisk	-10.4015
▁naturgass	-10.4016
politisk	-10.4016
▁mineral	-10.4017
▁unngå	-10.4018
▁jackson	-10.4019
▁formula	-10.402
museet	-10.4022
▁koll	-10.4026
▁økende	-10.4027
▁german	-10.4028
▁thu	-10.4032
▁operere	-10.4033
▁gö	-10.4036
▁spp	-10.4037
▁ernst	-10.4041
hatt	-10.405
▁bah	-10.4051
▁tidspunkt	-10.4071
▁slottet	-10.4091
▁låten	-10.4091
▁ork	-10.4107
▁schi	-10.411
▁bære	-10.4112
▁cour	-10.412
▁salme	-10.4123
beck	-10.4125
▁sara	-10.4132
▁internett	-10.4134
▁life	-10.4137
▁tykk	-10.4141
▁bredd	-10.4141
yuan	-10.4146
▁kap	-10.415
▁bag	-10.417
ligning	-10.4178
▁drei	-10.4178
▁hamar	-10.4187
▁demokrat	-10.4188
▁oppfatte	-10.4195
▁rosa	-10.4196
▁eksemplar	-10.4198
▁trommeslager	-10.4198
territorie	-10.4198
▁eventuel	-10.4198
▁registrert	-10.4198
▁kombinasjon	-10.4198
▁belgia	-10.4198
▁rogaland	-10.4198
▁tyrkisk	-10.4198
▁deutsche	-10.4198
▁hendelsen	-10.4198
▁forbedre	-10.4199
▁ansikt	-10.4199
▁belgisk	-10.4199
stipend	-10.4199
▁fangst	-10.42
▁ytterst	-10.42
▁firmaet	-10.4201
▁1914	-10.4201
▁1901	-10.4201
apparat	-10.4202
▁tråd	-10.4202
▁flekker	-10.4202
struktur	-10.4203
▁friidrett	-10.4203
problem	-10.4203
▁portrett	-10.4211
▁hjerne	-10.4218
wick	-10.4227
▁ungdomsskole	-10.4228
kommende	-10.4232
dou	-10.4237
kurs	-10.4241
▁ost	-10.4242
▁smerte	-10.4245
strup	-10.4253
▁karakteristisk	-10.4258
fekt	-10.4271
tekst	-10.4295
▁liber	-10.4318
opter	-10.4333
▁institut	-10.4376
▁alfa	-10.4377
▁milliarder	-10.4387
▁åpningsseremoni	-10.4387
▁ovenfor	-10.4387
▁ungarn	-10.4387
▁sachsen	-10.4387
▁allierte	-10.4387
pedagog	-10.4387
▁utseende	-10.4387
▁forårsake	-10.4388
overvåk	-10.4388
forhandling	-10.4389
▁håndball	-10.4389
▁programleder	-10.4391
▁generell	-10.4391
▁leie	-10.4393
▁hovedkontor	-10.4394
hovedstad	-10.4395
▁hersker	-10.4401
▁pedersen	-10.4401
▁teorien	-10.4403
bunn	-10.4405
▁foto	-10.4406
▁israelsk	-10.4415
▁sammenlagt	-10.4416
polis	-10.4426
vandring	-10.444
ruter	-10.4446
bestand	-10.4452
▁estland	-10.4471
▁kortere	-10.4473
▁øverst	-10.4481
▁audi	-10.4495
▁kulturell	-10.4501
▁delstat	-10.4503
▁utsatt	-10.4506
▁klippe	-10.4508
▁wang	-10.4512
▁kirk	-10.4513
▁francis	-10.4514
▁oppdag	-10.4523
hår	-10.4525
skøyte	-10.4529
fred	-10.4533
▁troms	-10.4534
▁schw	-10.4538
▁vingene	-10.4546
lignende	-10.4554
▁hv	-10.4572
▁asteroide	-10.4579
▁manuskript	-10.4579
▁utenlandske	-10.4579
▁kjennetegn	-10.4579
▁fiolin	-10.458
▁separat	-10.458
▁hindre	-10.458
▁eik	-10.458
▁brigade	-10.458
▁følelse	-10.458
malerier	-10.458
▁foreslått	-10.4581
▁monark	-10.4584
▁fortellingen	-10.459
▁alpin	-10.4592
▁jiang	-10.4596
▁mynt	-10.4596
▁forsterke	-10.4601
▁ordnet	-10.4604
▁oppnå	-10.4605
skyting	-10.4615
asia	-10.4618
versjon	-10.4622
▁christiania	-10.4623
bekk	-10.4624
▁aksel	-10.4633
▁stam	-10.4634
▁120	-10.4656
▁verksted	-10.4662
ington	-10.4666
domstol	-10.4673
▁arv	-10.4679
slått	-10.4695
tveit	-10.4696
▁oppdagelse	-10.4697
▁andreplass	-10.4703
▁qi	-10.4715
▁antenne	-10.474
▁cand	-10.4745
ittisk	-10.4749
▁forbinde	-10.4768
ς	-10.4775
▁restaurant	-10.4775
▁alkohol	-10.4775
▁favoritt	-10.4775
▁svalbard	-10.4775
▁engasjert	-10.4775
▁komponert	-10.4775
▁nøyaktig	-10.4775
▁ødelagt	-10.4775
▁gymnas	-10.4775
▁hensikt	-10.4775
▁vesentlig	-10.4775
▁mektig	-10.4776
veksling	-10.4776
▁fattig	-10.4776
▁valuta	-10.4776
▁dollar	-10.4776
▁levde	-10.4777
løft	-10.4778
▁white	-10.4779
▁arbeiderpartiet	-10.4779
▁mannskapet	-10.4779
▁2018	-10.478
▁kongress	-10.4785
trukket	-10.4787
▁ibsen	-10.4791
kontroll	-10.4792
front	-10.4794
▁fusjon	-10.4796
stråle	-10.48
hjem	-10.4801
▁robin	-10.4805
▁night	-10.4806
▁hekk	-10.481
kjøn	-10.481
▁beliggende	-10.4819
▁blues	-10.4824
▁romania	-10.4827
▁musikal	-10.4849
sort	-10.4849
regiment	-10.4864
▁jak	-10.4877
▁hydro	-10.4883
▁birk	-10.4888
▁radi	-10.4889
▁grei	-10.4891
▁bai	-10.4893
▁bratt	-10.4902
▁mannlig	-10.491
▁regime	-10.491
orientert	-10.4928
▁xu	-10.4932
lukt	-10.4933
cci	-10.4935
kompleks	-10.4946
▁markedsfør	-10.4952
▁osv	-10.4962
▁forstå	-10.4964
▁øygrupp	-10.4965
▁frakte	-10.4966
▁1908	-10.4975
▁nowiki	-10.4975
▁patriark	-10.4975
▁vedlikehold	-10.4975
▁sigurd	-10.4975
▁konsept	-10.4976
▁presentert	-10.4976
▁sprint	-10.4976
▁kobber	-10.4976
▁senior	-10.4976
▁nepal	-10.4976
ев	-10.4977
ск	-10.4977
▁markedet	-10.4978
▁bronsemedalje	-10.4978
▁1915	-10.4978
▁sverre	-10.4978
▁1925	-10.4979
▁bakterie	-10.4979
fenomen	-10.4981
▁alfred	-10.4983
▁center	-10.4986
▁onkel	-10.4986
▁terje	-10.4988
▁nordsamisk	-10.4994
transport	-10.4996
tittel	-10.5002
▁good	-10.5008
▁østover	-10.5011
prosessen	-10.5014
▁walter	-10.5014
høyden	-10.5018
▁gjenstand	-10.502
▁mørkere	-10.5022
▁erstatte	-10.5038
▁nerve	-10.5039
settelse	-10.5054
▁statue	-10.5075
▁kriminal	-10.5104
▁lou	-10.5108
slutt	-10.5113
▁plast	-10.5148
▁personen	-10.5156
▁munk	-10.5158
▁jente	-10.5171
▁dverg	-10.5175
▁katedral	-10.5179
▁afghanistan	-10.5179
▁akershus	-10.5179
▁akseptert	-10.5179
▁elisabeth	-10.5179
▁vladimir	-10.5179
▁øyeblikk	-10.5179
▁yrkes	-10.518
ontinental	-10.518
▁1903	-10.5182
▁1909	-10.5182
▁1916	-10.5182
dahl	-10.5186
ition	-10.5188
▁mandat	-10.5192
▁bygnings	-10.5194
analyse	-10.5203
divisjon	-10.5204
instrument	-10.5204
▁franz	-10.5204
▁drepe	-10.5209
▁queen	-10.5224
▁johnson	-10.5225
▁who	-10.5237
▁fremfor	-10.5255
▁from	-10.5275
sjö	-10.5276
ан	-10.5279
▁wild	-10.531
▁forskjellig	-10.5323
syklist	-10.533
▁stå	-10.5341
tyder	-10.535
stigning	-10.5365
▁mathi	-10.5387
▁symptom	-10.5388
▁ambassad	-10.5388
▁beseiret	-10.5388
▁dirigent	-10.5388
▁millimeter	-10.5388
▁tilknytning	-10.5388
▁tønsberg	-10.5388
▁grunnleggende	-10.5388
▁samuel	-10.5388
▁ungarsk	-10.5388
palasset	-10.5388
▁eksisterer	-10.5388
▁bodø	-10.5388
▁verdensarv	-10.5388
▁skildre	-10.5388
▁bærum	-10.5388
▁rednings	-10.5389
▁novell	-10.539
▁oppfølger	-10.539
▁definere	-10.5391
katalog	-10.5395
▁planlagt	-10.5395
▁forlenge	-10.5396
▁down	-10.5402
▁feire	-10.5404
▁schu	-10.5404
vassdraget	-10.5406
▁170	-10.5407
iffer	-10.5407
▁trond	-10.5414
▁allmenn	-10.5415
▁brødrene	-10.5417
finalen	-10.5418
▁victoria	-10.542
▁titan	-10.542
ingeniør	-10.5421
▁rav	-10.5436
▁vekk	-10.5441
▁valle	-10.5456
▁beregne	-10.5465
planter	-10.5473
jørn	-10.5474
▁spring	-10.5475
støtte	-10.5504
▁mul	-10.5507
grensen	-10.5515
krev	-10.5522
▁urban	-10.5529
▁lod	-10.5535
▁rug	-10.5544
▁vindu	-10.5548
▁victor	-10.5568
▁klokke	-10.5585
▁nova	-10.5589
▁evig	-10.5594
▁jomfru	-10.5601
▁observato	-10.5601
▁brønn	-10.5601
▁artikler	-10.5601
▁hyppig	-10.5601
▁referanse	-10.5601
▁frivillig	-10.5601
▁theodor	-10.5601
▁bøkene	-10.5601
▁myndighetene	-10.5602
▁debatt	-10.5603
▁familiegruppen	-10.5606
grå	-10.5607
▁donau	-10.5619
▁armé	-10.5624
grund	-10.5629
hjelp	-10.5635
▁oppløst	-10.5635
sosial	-10.5635
▁130	-10.5641
lukke	-10.5656
nytt	-10.5658
▁ligge	-10.5668
feng	-10.568
kredit	-10.5684
▁løfte	-10.569
▁elske	-10.5691
onrad	-10.5709
▁britis	-10.5726
▁cuba	-10.5745
▁fulgt	-10.575
vass	-10.5752
▁syl	-10.5756
▁gjeng	-10.5758
vall	-10.5765
▁kapital	-10.5774
▁blind	-10.58
▁midlertidig	-10.5818
▁münchen	-10.5818
▁særskilt	-10.5818
▁evangeli	-10.5818
▁antarktis	-10.5818
presentasjon	-10.5818
▁hebraisk	-10.5818
▁uvanlig	-10.5818
▁flyktning	-10.5818
ος	-10.5818
▁elektronisk	-10.5819
▁prinsesse	-10.5819
▁josé	-10.582
▁datamaskin	-10.582
▁borgermester	-10.582
▁manager	-10.582
▁kronologisk	-10.5821
▁kryp	-10.5821
▁biografi	-10.5821
▁virginia	-10.5822
▁romsdal	-10.5823
▁erfaring	-10.5823
▁sjanger	-10.5823
▁tegninger	-10.5823
▁sykkel	-10.5826
▁antonio	-10.5827
▁landslaget	-10.5827
nntatt	-10.5828
▁vandre	-10.583
▁kau	-10.5831
▁innlede	-10.5832
fortelling	-10.5832
▁hvile	-10.5835
▁hamburg	-10.5841
▁meteor	-10.5848
▁popul	-10.5856
▁skytter	-10.5858
▁borgerkrig	-10.5858
▁geir	-10.586
▁morten	-10.5865
gods	-10.5886
rekord	-10.5893
prest	-10.5893
▁verb	-10.5896
karriere	-10.5905
▁beskrivelse	-10.5913
krone	-10.5919
▁arkiv	-10.5928
lengde	-10.5935
tropp	-10.5972
registre	-10.5986
spreng	-10.6002
▁håndverk	-10.6033
handlet	-10.6034
▁ferdinand	-10.604
▁halvparten	-10.604
▁jerusalem	-10.604
▁landkreis	-10.604
▁society	-10.604
▁tyrkia	-10.604
▁østfold	-10.604
▁oppretthold	-10.604
▁embets	-10.604
▁amatør	-10.604
▁preussen	-10.604
▁für	-10.6041
▁gregor	-10.6041
▁adresse	-10.6042
▁søndr	-10.6043
▁1911	-10.6043
▁skygge	-10.6046
▁nattfly	-10.6047
▁hensyn	-10.6051
▁mesterskap	-10.6052
▁høyesterett	-10.6054
▁herunder	-10.6058
▁forbunds	-10.6058
▁hypo	-10.6059
snegl	-10.606
▁puppe	-10.6062
▁månen	-10.6065
syssel	-10.6066
▁søyle	-10.6069
▁1899	-10.607
▁nød	-10.6076
relatert	-10.608
▁nedover	-10.608
musiker	-10.6084
konsert	-10.6087
▁1880	-10.6089
▁traff	-10.6093
▁fox	-10.6095
spiss	-10.6108
representant	-10.6113
▁blande	-10.6119
klipp	-10.6137
ful	-10.616
▁begynne	-10.6169
▁etnisk	-10.619
▁etasje	-10.6196
▁innerst	-10.6211
▁størst	-10.6214
▁døgn	-10.6261
utstillingen	-10.6267
▁buddhist	-10.6267
▁göteborg	-10.6267
▁hordaland	-10.6267
▁http	-10.6268
▁reklame	-10.6268
▁batteri	-10.6268
▁serbisk	-10.6269
▁betong	-10.6271
▁overlever	-10.6272
▁etappe	-10.6273
▁kongsberg	-10.6274
▁wilson	-10.6275
▁fastlandet	-10.6277
▁biologisk	-10.628
ière	-10.6283
flate	-10.6285
▁moderat	-10.6288
▁oppleve	-10.629
▁rival	-10.6292
▁jonas	-10.6295
▁beslutning	-10.6296
▁1890	-10.6303
grønn	-10.6316
▁hytte	-10.632
aktivitet	-10.633
korset	-10.6338
utvalget	-10.6343
konsulent	-10.6344
utstyr	-10.6351
▁fair	-10.6355
▁hull	-10.6364
▁høyskole	-10.6376
▁parallell	-10.6394
▁katolsk	-10.6435
▁rub	-10.6467
skjerm	-10.6488
pierre	-10.6499
▁forgjenger	-10.65
▁varaordfører	-10.65
▁jacque	-10.65
▁dekkvingene	-10.65
▁innbyggerne	-10.65
▁permanent	-10.65
▁australsk	-10.65
▁kjønnsmod	-10.65
▁utspring	-10.65
▁risiko	-10.65
budsjett	-10.65
▁thailand	-10.65
▁fødselsår	-10.65
▁tabellen	-10.65
▁forsvant	-10.65
▁atmosfære	-10.65
▁naturreservat	-10.6501
▁fortellinger	-10.6504
kommisjonen	-10.6504
▁francisco	-10.6504
olje	-10.6504
▁tropisk	-10.6505
▁inndelt	-10.6505
▁signerte	-10.6508
▁dagbladet	-10.6508
givende	-10.6508
▁fredrikstad	-10.6513
tempelet	-10.6514
▁hyper	-10.6516
▁bredere	-10.6522
▁gjennombrudd	-10.6522
▁tolke	-10.6524
▁1898	-10.6524
▁1200	-10.6529
▁light	-10.6529
▁skrå	-10.6533
kamerat	-10.6533
▁lunge	-10.6542
posisjon	-10.6546
kledd	-10.6549
▁akku	-10.6549
offiser	-10.6554
hydr	-10.6556
programmet	-10.6559
fast	-10.6564
▁slette	-10.6579
▁home	-10.6581
zhi	-10.6587
▁flø	-10.661
▁cham	-10.6612
▁intens	-10.6651
▁helst	-10.668
▁material	-10.6706
løv	-10.6716
▁football	-10.6738
▁psykisk	-10.6738
▁sarpsborg	-10.6738
bataljon	-10.6738
▁assistent	-10.6738
▁vestfold	-10.6738
▁vilhelm	-10.6738
▁avhandling	-10.6738
▁church	-10.6738
▁canadisk	-10.6738
pattedyr	-10.6739
▁redigert	-10.6739
dimensjon	-10.6739
▁tilpasset	-10.6739
▁invasjon	-10.674
▁fuktig	-10.674
▁1922	-10.6741
▁overlevd	-10.6741
▁väst	-10.6741
ер	-10.6742
▁styreleder	-10.6745
▁sjette	-10.6745
▁forbudt	-10.6746
▁konservative	-10.6746
▁kommunestyre	-10.6746
kollega	-10.6747
▁ørken	-10.675
▁regler	-10.676
▁hotel	-10.6761
▁1896	-10.6764
▁jacobsen	-10.6765
▁1892	-10.6774
▁lysere	-10.6787
smykke	-10.6808
▁vennskap	-10.6809
▁million	-10.6812
▁kontrollert	-10.6856
▁wol	-10.6885
bregne	-10.6898
stemme	-10.6921
burn	-10.6954
ukket	-10.6954
▁bestemme	-10.6958
bredden	-10.6963
▁vannkraft	-10.6968
▁aleksander	-10.6982
▁langrennsløper	-10.6982
▁observasjon	-10.6982
▁seremoni	-10.6982
▁kommandant	-10.6982
▁konvensjon	-10.6982
▁etablere	-10.6982
▁bjørk	-10.6983
▁andré	-10.6983
▁1889	-10.6983
schaft	-10.6984
▁jøder	-10.6984
▁fortsette	-10.6984
vatn	-10.6985
▁generalsekretær	-10.6985
▁myndigheter	-10.6988
▁jernbanestasjon	-10.6988
▁gravlagt	-10.6989
▁diesel	-10.699
▁turneringen	-10.6991
▁takket	-10.6991
▁forløper	-10.6996
▁byggingen	-10.6998
seksjon	-10.7003
▁trent	-10.7006
▁rytter	-10.7009
▁1865	-10.701
▁tekstil	-10.7019
▁moll	-10.7022
forsamlingen	-10.7029
▁gross	-10.7038
▁bassist	-10.7038
▁call	-10.7041
hvelv	-10.7042
▁öst	-10.7042
▁persisk	-10.7045
orkester	-10.7048
institutt	-10.7048
regjering	-10.7048
▁næringsliv	-10.7054
▁søkt	-10.7065
avstemning	-10.7084
▁frod	-10.7149
▁mau	-10.7153
▁sjakk	-10.7174
opptreden	-10.7181
▁avslutte	-10.7183
▁motorvei	-10.7201
gruppa	-10.7217
▁kunstnerisk	-10.7227
▁admiral	-10.7232
▁association	-10.7232
▁bulgaria	-10.7232
▁ludwig	-10.7232
▁luxembourg	-10.7232
▁omdøpt	-10.7232
▁ortodoks	-10.7232
▁chicago	-10.7232
▁individuelle	-10.7232
▁ukraina	-10.7232
▁abraham	-10.7232
▁argument	-10.7232
▁juridisk	-10.7232
▁utslipp	-10.7232
vurdering	-10.7232
▁leonard	-10.7232
▁besluttet	-10.7232
▁alexandr	-10.7232
▁etterkommer	-10.7232
▁selvmord	-10.7232
▁stefan	-10.7232
▁bokstaven	-10.7232
▁haakon	-10.7232
▁originaltittel	-10.7233
▁utsikt	-10.7233
▁gråbrun	-10.7234
▁døpt	-10.7234
▁kjørte	-10.7236
▁sølvmedalje	-10.7236
▁dominerende	-10.7237
▁jurist	-10.7238
▁hydrogen	-10.7238
▁elleve	-10.7238
ōng	-10.7247
▁studere	-10.7255
forståelse	-10.726
betaling	-10.7263
▁poli	-10.7294
teknologi	-10.7309
▁insekt	-10.7309
areal	-10.7326
ол	-10.7358
▁lykke	-10.737
▁psyko	-10.7458
utgave	-10.7472
psykiatri	-10.7488
▁konsekvens	-10.7488
▁françois	-10.7488
▁færøysk	-10.7488
▁helsingfors	-10.7488
▁keyboard	-10.7488
▁prøyssisk	-10.7488
▁1902	-10.7488
▁kommandør	-10.7488
▁utbredelse	-10.7488
▁nøkkel	-10.7488
komponent	-10.7488
▁heinrich	-10.7488
protokoll	-10.7488
▁haugesund	-10.7488
▁skihopper	-10.7488
▁fremtidig	-10.7489
▁trondhjem	-10.7489
▁gabriel	-10.7489
▁skikkelse	-10.7489
▁protein	-10.7489
▁støv	-10.7494
▁fremstille	-10.7501
vilkår	-10.7507
bevegelse	-10.7507
fabrik	-10.7512
▁profil	-10.7514
▁statsråd	-10.7516
▁bakkropp	-10.7522
▁utvide	-10.7523
ла	-10.7539
syklus	-10.7558
▁tilsyne	-10.7562
kontrakt	-10.7567
design	-10.7571
åpning	-10.7572
radio	-10.7575
▁chris	-10.7591
▁rykte	-10.7593
middag	-10.7634
▁frankfurt	-10.7752
▁oksygen	-10.7752
▁ukrainsk	-10.7752
▁sosialdemokrat	-10.7752
▁stråling	-10.7752
▁matematisk	-10.7752
▁hjalp	-10.7752
▁hendelser	-10.7752
▁unesco	-10.7752
▁beslektet	-10.7752
▁søndag	-10.7752
▁cappelen	-10.7752
▁begravet	-10.7752
▁nevner	-10.7752
▁barnehage	-10.7752
▁ntnu	-10.7752
▁vegetasjon	-10.7752
▁drømme	-10.7752
▁oppheve	-10.7753
▁utfordre	-10.7753
▁larvik	-10.7753
mouth	-10.7754
▁frigjøring	-10.7754
▁techn	-10.7754
▁kritisk	-10.7759
▁slippe	-10.776
▁muskel	-10.7764
▁divers	-10.7765
seminar	-10.7766
▁lenin	-10.777
▁flukt	-10.7772
▁fylt	-10.7773
▁avansert	-10.7775
▁idé	-10.7775
▁høydepunkt	-10.7781
▁arrestert	-10.7786
▁tåle	-10.7794
bæk	-10.7817
medlemmer	-10.7821
▁anslå	-10.7882
▁colombia	-10.8022
▁forhindre	-10.8022
▁symfoni	-10.8022
▁buskerud	-10.8022
▁eksisterende	-10.8022
▁litauen	-10.8022
▁fungerte	-10.8022
▁essay	-10.8022
▁byfylke	-10.8022
▁lørdag	-10.8022
▁sandefjord	-10.8022
▁bmw	-10.8022
▁josef	-10.8023
teatret	-10.8023
▁cecil	-10.8023
▁kristiansund	-10.8025
▁avgjørelse	-10.8025
kobling	-10.8027
▁britene	-10.8028
▁norway	-10.8028
▁konkurs	-10.8029
▁sørget	-10.803
▁blank	-10.8031
▁deltakere	-10.8032
vík	-10.8036
spredning	-10.8037
▁lidelse	-10.804
▁styremedlem	-10.8047
▁talent	-10.8051
▁utvidelse	-10.8078
▁tretten	-10.808
gjerning	-10.8081
▁variert	-10.8084
▁krise	-10.809
bevisst	-10.8093
kansler	-10.8103
▁agent	-10.8103
verktøy	-10.8109
▁domkirke	-10.8115
ен	-10.8146
▁sovjet	-10.8155
▁gudinne	-10.816
▁allianse	-10.8207
etaten	-10.8225
▁tidligst	-10.8235
festival	-10.8259
▁forklare	-10.8278
▁omdanne	-10.8289
reservoar	-10.83
▁argentina	-10.83
▁bryllup	-10.83
▁mobiltelefon	-10.83
▁orchestra	-10.83
▁benjamin	-10.83
▁fundament	-10.83
▁champion	-10.83
▁1852	-10.83
▁avgjørende	-10.83
▁zealand	-10.83
▁hindu	-10.83
▁axel	-10.83
attraksjon	-10.83
▁seinere	-10.8301
▁finansiert	-10.8301
▁dominert	-10.8301
▁kullkraftverk	-10.8301
betjent	-10.8301
ст	-10.8302
▁beordre	-10.8303
▁tønne	-10.8303
▁hvem	-10.8303
▁nyhets	-10.8305
terapi	-10.8307
kjerne	-10.8308
▁røyk	-10.831
▁misjons	-10.8312
▁bønn	-10.8313
▁sekundær	-10.8337
redaktør	-10.8401
resultat	-10.8401
størrelse	-10.8409
prøve	-10.8409
▁spenn	-10.841
fisere	-10.8432
ault	-10.8439
lokale	-10.8445
blom	-10.8445
▁kongerike	-10.8445
▁flytte	-10.8533
▁dramatisk	-10.8533
▁aftenposten	-10.8585
▁corporation	-10.8585
▁fordøyelses	-10.8585
▁kronprins	-10.8585
▁mangfold	-10.8585
▁muslimsk	-10.8585
▁valgdeltakelse	-10.8585
▁låtskriver	-10.8585
▁mountain	-10.8585
▁teoretisk	-10.8585
▁kvadrat	-10.8585
▁stridsvogn	-10.8585
▁interiør	-10.8585
▁kjæreste	-10.8585
▁stimul	-10.8585
▁semifinal	-10.8585
▁heavy	-10.8585
▁langvarig	-10.8585
▁kontrast	-10.8586
▁kampanje	-10.8586
▁noensinne	-10.8586
▁rumensk	-10.8586
▁indikere	-10.8586
▁tilskuer	-10.8586
▁tallrike	-10.8588
▁enhver	-10.859
▁poesi	-10.859
▁tennis	-10.8591
▁castle	-10.8591
▁gratis	-10.8593
▁foregikk	-10.8594
▁ballett	-10.8594
▁meyer	-10.8594
▁nevro	-10.8597
▁boeing	-10.8598
▁kaffe	-10.8599
▁alpinist	-10.8601
▁kenya	-10.8606
▁patent	-10.8609
▁tjent	-10.8639
▁brent	-10.8653
▁hevn	-10.8661
medisin	-10.8695
temperatur	-10.8695
flagg	-10.8698
▁representere	-10.8782
▁hjemmebane	-10.8807
hengende	-10.8823
krem	-10.8847
▁first	-10.8869
ч	-10.8878
▁könig	-10.8879
▁musikkvideo	-10.8879
▁pronotum	-10.8879
▁påbegynt	-10.8879
▁vålerenga	-10.8879
▁progressiv	-10.8879
▁satellitt	-10.8879
▁returnert	-10.8879
▁tolkien	-10.8879
▁embeds	-10.8879
▁gjøvik	-10.8879
▁komplett	-10.8879
▁anmelder	-10.8879
▁avdøde	-10.8879
▁landskamper	-10.888
▁henrettet	-10.888
▁tolkning	-10.888
▁seksuell	-10.888
▁ordinær	-10.888
erklæring	-10.888
▁brasiliansk	-10.888
▁reidar	-10.888
▁walisisk	-10.888
▁styrmann	-10.888
▁kombinere	-10.888
▁systematisk	-10.888
mønstre	-10.8882
▁verdensrekord	-10.8882
▁bbc	-10.8883
▁regelmessig	-10.8883
▁flytende	-10.8883
▁våt	-10.8883
▁tilsammen	-10.8885
▁stengt	-10.8885
▁butikker	-10.8888
▁betalt	-10.8893
▁usikker	-10.89
▁rifle	-10.8905
▁benytte	-10.8911
▁punk	-10.892
▁kostnad	-10.892
▁manuel	-10.8921
▁komplekse	-10.8924
sprang	-10.8942
▁sørsid	-10.8946
svekke	-10.898
debut	-10.8997
tradisjon	-10.8999
flåte	-10.9002
struksjon	-10.9037
▁olympi	-10.9073
▁brødre	-10.9141
▁pakke	-10.9143
▁vassdrag	-10.9155
▁dominere	-10.9182
▁ammunisjon	-10.9182
▁academy	-10.9182
▁allikevel	-10.9182
▁giovanni	-10.9182
▁leipzig	-10.9182
▁mongolia	-10.9182
▁observert	-10.9182
▁resultert	-10.9182
▁rudolf	-10.9182
▁aktuelle	-10.9182
▁1881	-10.9182
▁operativsystem	-10.9182
▁taiwan	-10.9182
▁deltakerne	-10.9183
▁trygg	-10.9183
▁vietnamesisk	-10.9183
▁trengte	-10.9183
▁anthon	-10.9183
▁stadium	-10.9184
▁vakre	-10.9184
▁visepresident	-10.9184
▁ektemann	-10.9184
▁stillehavet	-10.9184
▁rettferdig	-10.9185
▁akutt	-10.9186
beregning	-10.9189
traktaten	-10.9191
▁flanke	-10.9192
▁western	-10.9192
▁stedsnavn	-10.9198
amerikanske	-10.9244
president	-10.931
sykdom	-10.9317
▁slange	-10.9388
▁inskripsjon	-10.9495
▁douglas	-10.9495
▁gælisk	-10.9495
▁konkurrert	-10.9495
▁konstruert	-10.9495
▁pedipalpene	-10.9495
▁sebastian	-10.9495
▁shakespeare	-10.9495
▁wergeland	-10.9495
▁bachelor	-10.9495
▁genitalie	-10.9495
▁kristoffer	-10.9495
▁krønike	-10.9495
▁grün	-10.9495
▁taylor	-10.9495
▁forkropp	-10.9495
▁kavaleri	-10.9495
▁public	-10.9495
▁florida	-10.9495
▁syndrom	-10.9495
▁dublin	-10.9495
▁arnold	-10.9495
▁terminal	-10.9495
▁protestantisk	-10.9495
▁nelson	-10.9495
monopol	-10.9496
▁kjøpmann	-10.9496
▁korrekt	-10.9496
▁corneli	-10.9496
forstyrrelse	-10.9496
▁undersøke	-10.9498
▁opplevd	-10.95
▁opprettelse	-10.9501
▁francesc	-10.9502
▁øvelsen	-10.9507
▁cruise	-10.9508
▁alex	-10.951
▁nederst	-10.9514
▁parodi	-10.9516
▁utskil	-10.9523
▁hospital	-10.9534
▁lakse	-10.9542
margin	-10.9545
kjørt	-10.9552
drevne	-10.9586
frukt	-10.9634
brann	-10.9643
kvinne	-10.9649
torget	-10.9669
▁ivareta	-10.9776
signal	-10.9792
▁angelsaksisk	-10.9818
▁bulgarsk	-10.9818
▁fysiker	-10.9818
▁diskusjon	-10.9818
▁intervju	-10.9818
▁prøvd	-10.9818
▁bekjempe	-10.9818
▁pradesh	-10.9818
▁gerhard	-10.9818
▁prototyp	-10.9818
▁tsjekkisk	-10.9818
▁forvandling	-10.9818
▁konsesjon	-10.9818
▁vurdere	-10.9818
disiplin	-10.9818
▁charlotte	-10.9818
▁sophie	-10.9818
▁bøndene	-10.9818
klassiker	-10.9818
▁hjelm	-10.9818
▁dåp	-10.9818
▁hjort	-10.9819
▁utforming	-10.9819
▁social	-10.982
▁søsken	-10.982
▁forklaring	-10.9821
▁bundes	-10.9822
▁bensin	-10.9823
▁claudi	-10.9823
▁analyser	-10.9824
▁fasade	-10.9826
▁presentere	-10.9827
▁spyd	-10.9828
▁hauke	-10.9828
▁ytelse	-10.983
▁fantasi	-10.9831
straße	-10.9831
▁nederlag	-10.9833
▁harmoni	-10.985
▁variasjon	-10.9858
hawk	-10.9892
▁utforske	-10.9899
nevnte	-10.9924
▁jernbanelinj	-10.9956
litteratur	-10.9967
europeisk	-10.9967
▁stevn	-10.9976
▁barokk	-10.9988
regnskap	-10.9999
hindi	-11.0019
otten	-11.0024
▁birg	-11.0027
▁konsul	-11.0048
kjøl	-11.0101
rhein	-11.0106
▁aleksandr	-11.0151
▁assosiert	-11.0151
▁business	-11.0151
▁fakultet	-11.0151
▁jordskjelv	-11.0151
▁nøytral	-11.0151
▁heidelberg	-11.0151
▁interessant	-11.0151
▁lillehammer	-11.0151
▁country	-11.0151
▁sluppet	-11.0151
▁oppdatert	-11.0151
▁gustaf	-11.0151
▁hybrid	-11.0151
▁diameter	-11.0151
▁underholdning	-11.0151
▁ålesund	-11.0151
▁erstatning	-11.0152
▁dream	-11.0152
▁missil	-11.0153
▁isolert	-11.0154
▁embete	-11.0155
▁kråk	-11.0155
▁kallenavne	-11.0156
▁stryk	-11.0156
mekanisme	-11.0157
▁keltisk	-11.016
geografi	-11.0163
ministeriet	-11.0191
▁bjørg	-11.0241
arkitekt	-11.0312
variant	-11.0315
blokk	-11.0318
▁messi	-11.043
▁inspirasjon	-11.0485
inspektør	-11.0496
perspektiv	-11.0496
▁aluminium	-11.0496
▁elizabeth	-11.0496
▁eurovision	-11.0496
▁identifisert	-11.0496
▁indonesia	-11.0496
▁inklusiv	-11.0496
▁innspilt	-11.0496
▁publikasjon	-11.0496
▁sportsutøver	-11.0496
▁sykepleie	-11.0496
▁uppsala	-11.0496
▁windows	-11.0496
▁selvbiografi	-11.0496
▁oxford	-11.0496
saksofon	-11.0496
▁jupiter	-11.0496
▁stephen	-11.0496
▁forfremme	-11.0496
▁norweg	-11.0496
▁sparebank	-11.0496
▁howard	-11.0496
▁statsborger	-11.0496
leverandør	-11.0496
▁lyktes	-11.0496
▁beleiring	-11.0496
▁ytterkant	-11.0496
▁hebei	-11.0496
▁skjønt	-11.0497
reservat	-11.0497
▁contest	-11.0497
▁beskjed	-11.0498
▁space	-11.0498
rettighetene	-11.05
▁guinea	-11.0501
▁ragnar	-11.0507
▁foretrekke	-11.051
▁genetisk	-11.0513
▁rakett	-11.058
▁avskjed	-11.0593
utenriksminister	-11.0611
▁journal	-11.0746
hefte	-11.0773
little	-11.0782
▁diplom	-11.0837
landeveissyklist	-11.0853
svømming	-11.0853
▁arrangør	-11.0853
▁eksplosjon	-11.0853
▁jugoslavia	-11.0853
▁network	-11.0853
▁rekrutter	-11.0853
▁systematikken	-11.0853
▁diagnose	-11.0853
▁elektrisitet	-11.0853
▁strategisk	-11.0853
▁sanskrit	-11.0853
▁oppvarming	-11.0853
▁sekvens	-11.0853
▁offensiv	-11.0853
▁1872	-11.0853
▁airlines	-11.0853
▁minoritet	-11.0853
▁ptolem	-11.0853
▁testament	-11.0853
▁krystall	-11.0853
▁nevø	-11.0853
dynamisk	-11.0853
▁eidsvoll	-11.0853
▁people	-11.0853
▁astrid	-11.0853
▁gummi	-11.0853
▁madrid	-11.0853
▁skjebne	-11.0853
begrensning	-11.0854
selskab	-11.0854
▁utpekt	-11.0854
▁detroit	-11.0854
▁undertegnet	-11.0854
▁nigeria	-11.0854
▁oppfordre	-11.0854
▁klinisk	-11.0855
▁christensen	-11.0855
▁lojal	-11.0855
▁erobring	-11.0855
▁selvstyre	-11.0855
▁sektor	-11.0856
▁bekke	-11.0857
▁forandring	-11.0858
flyging	-11.0859
gjøring	-11.086
▁nazist	-11.0866
▁tilfeldig	-11.0867
▁bystyre	-11.0867
døgnflue	-11.0869
▁særeg	-11.0872
▁fylkeskommun	-11.0883
opplevelse	-11.092
tavle	-11.098
prosesser	-11.0986
▁dobbel	-11.1022
kirche	-11.1025
kommando	-11.1038
historiker	-11.1039
inntekt	-11.104
arkivet	-11.1051
sentral	-11.1169
konsentrasjon	-11.1223
▁pseudo	-11.1223
▁antwerpen	-11.1223
▁ekspansjon	-11.1223
▁entertainment	-11.1223
▁forveksles	-11.1223
▁generalmajor	-11.1223
▁liverpool	-11.1223
▁petroleum	-11.1223
▁pyramide	-11.1223
▁rådgivning	-11.1223
▁spesifikk	-11.1223
▁electric	-11.1223
lovgivning	-11.1223
▁billboard	-11.1223
▁utdødd	-11.1223
▁katolikk	-11.1223
▁1854	-11.1223
▁bystatus	-11.1223
▁kroatisk	-11.1223
▁patrick	-11.1223
▁massakre	-11.1223
▁texas	-11.1223
köping	-11.1223
▁misjonær	-11.1223
▁angivelig	-11.1223
▁bebodd	-11.1223
▁medikamente	-11.1223
▁kommentar	-11.1223
▁frimurer	-11.1223
▁leilighet	-11.1224
▁etablering	-11.1224
▁gwh	-11.1224
▁wagner	-11.1224
▁patriot	-11.1224
▁kirurg	-11.1224
▁radikale	-11.1224
▁hovedpersonen	-11.1224
▁lewis	-11.1225
▁stemte	-11.1225
▁sibir	-11.1225
▁massiv	-11.1227
▁tørke	-11.1228
▁bjarn	-11.123
▁smelte	-11.1235
klub	-11.1265
▁grotte	-11.1311
▁republikk	-11.1416
kommunikasjon	-11.1423
spørsmål	-11.1424
▁dynasti	-11.1533
▁okkupasjon	-11.1607
▁aristokrat	-11.1608
▁erkebispedømme	-11.1608
▁hollywood	-11.1608
▁microsoft	-11.1608
▁research	-11.1608
▁singapore	-11.1608
▁skribent	-11.1608
kommanderende	-11.1608
▁avslørt	-11.1608
▁hønefoss	-11.1608
▁kennedy	-11.1608
▁railway	-11.1608
▁tilstrekkelig	-11.1608
▁vertikal	-11.1608
▁styreformann	-11.1608
▁sogneprest	-11.1608
▁uttrykt	-11.1608
▁yngste	-11.1608
▁division	-11.1608
▁kjemikalie	-11.1608
▁elefant	-11.1608
▁fjeld	-11.1608
▁betydningsfull	-11.1608
▁benedikt	-11.1608
▁margaret	-11.1608
▁petersburg	-11.1608
▁begravelse	-11.1608
▁harrison	-11.1609
▁veksle	-11.161
ć	-12.3193
