<unk>	0
<s>	0
</s>	0
.	-3.25861
s	-3.61611
e	-3.62812
▁i	-3.63327
▁og	-3.90873
t	-4.05467
▁	-4.18652
er	-4.20313
en	-4.20795
▁av	-4.40642
▁er	-4.58091
▁en	-4.59822
▁som	-4.64934
r	-4.68061
▁til	-4.759
▁for	-4.76874
▁på	-4.85896
et	-4.95957
▁med	-4.99071
n	-4.99635
▁den	-5.08418
▁ble	-5.12044
▁var	-5.21524
▁det	-5.24003
▁de	-5.26253
▁fra	-5.38749
a	-5.45694
▁å	-5.50302
▁han	-5.50477
▁et	-5.53568
ene	-5.57742
▁har	-5.58344
ne	-5.82998
i	-5.84326
k	-5.84511
d	-5.86004
▁at	-5.92218
o	-5.93232
▁ved	-5.96351
g	-6.12291
▁om	-6.12787
▁også	-6.13551
▁etter	-6.14775
y	-6.17573
▁ut	-6.19965
te	-6.22104
▁under	-6.2958
de	-6.30607
m	-6.31584
re	-6.35362
l	-6.38984
▁eller	-6.39596
▁men	-6.4156
▁over	-6.42137
f	-6.42886
▁to	-6.46519
p	-6.47206
▁opp	-6.47348
▁seg	-6.49058
▁da	-6.50519
▁kan	-6.50929
▁hadde	-6.55245
▁inn	-6.5814
▁ikke	-6.60265
▁s	-6.61034
c	-6.64755
▁a	-6.67896
▁be	-6.68549
▁andre	-6.68843
v	-6.71283
in	-6.71786
ing	-6.72319
▁sin	-6.72962
▁18	-6.73835
▁mot	-6.75001
us	-6.78163
b	-6.78326
h	-6.78616
es	-6.80835
an	-6.82031
▁født	-6.83552
▁1	-6.84888
ter	-6.8521
u	-6.85789
▁mellom	-6.8592
▁hun	-6.86641
sk	-6.87025
al	-6.88478
▁dette	-6.89428
is	-6.93633
▁første	-6.93802
▁ha	-6.94581
▁tre	-6.96695
le	-6.97448
▁f	-6.97734
▁the	-6.98154
▁hans	-6.98405
ri	-7.00161
na	-7.01641
on	-7.03874
ende	-7.03995
z	-7.04259
▁m	-7.04267
▁man	-7.09545
w	-7.09632
▁år	-7.10027
▁sammen	-7.10752
ia	-7.11505
▁fikk	-7.11531
la	-7.13197
▁blant	-7.13465
▁flere	-7.15487
ar	-7.15665
ra	-7.16099
sen	-7.16254
▁der	-7.16678
▁denne	-7.16738
▁u	-7.1888
▁b	-7.19057
▁alle	-7.1967
▁ligger	-7.19796
▁p	-7.19839
▁kom	-7.19903
▁la	-7.19986
land	-7.20911
lig	-7.22599
▁2	-7.22794
or	-7.23096
j	-7.23668
▁nord	-7.25207
▁k	-7.25817
▁g	-7.26114
um	-7.26162
ning	-7.27289
▁ca	-7.27976
ng	-7.28712
▁se	-7.29181
di	-7.30349
▁gjennom	-7.31602
iske	-7.31728
ere	-7.31739
▁re	-7.32018
be	-7.32129
lo	-7.32512
▁del	-7.33439
▁før	-7.33873
▁hvor	-7.34219
li	-7.3554
▁c	-7.35994
▁d	-7.368
il	-7.37215
▁kr	-7.37329
▁mer	-7.3775
at	-7.38006
ta	-7.38268
▁3	-7.38976
ch	-7.39403
▁død	-7.39745
ens	-7.3983
▁norsk	-7.40388
▁her	-7.41334
▁så	-7.41696
nes	-7.41737
der	-7.41739
▁stor	-7.4197
▁ro	-7.42153
nde	-7.42485
ur	-7.42556
▁ny	-7.42732
▁5	-7.43284
▁17	-7.43411
ck	-7.43416
▁of	-7.4357
ke	-7.4372
ske	-7.4391
▁an	-7.44173
▁blir	-7.442
▁h	-7.44448
▁tidligere	-7.44461
el	-7.44469
ver	-7.45534
ste	-7.4666
▁mange	-7.4718
▁al	-7.47231
os	-7.48204
ler	-7.48707
ig	-7.48768
é	-7.48838
bo	-7.50248
isk	-7.5066
den	-7.50996
as	-7.51397
▁vi	-7.51406
▁senere	-7.51945
▁land	-7.52294
▁disse	-7.52714
▁annet	-7.52718
▁sør	-7.53052
▁16	-7.53443
▁byen	-7.53613
▁t	-7.5376
ut	-7.53842
x	-7.54475
▁he	-7.54591
▁15	-7.54593
for	-7.54601
▁noen	-7.54867
▁kommune	-7.56388
▁siden	-7.57126
it	-7.58022
da	-7.58365
▁selv	-7.58977
▁tallet	-7.59213
øy	-7.59541
▁sitt	-7.59872
▁være	-7.59877
▁store	-7.60368
▁4	-7.60434
▁kjent	-7.60626
ma	-7.61097
▁ned	-7.61271
▁li	-7.6131
▁sa	-7.62762
▁w	-7.63138
stad	-7.63716
▁bo	-7.63899
ka	-7.63972
ry	-7.64166
▁norge	-7.64725
▁ga	-7.65167
ro	-7.65644
ge	-7.66043
lige	-7.6774
▁mens	-7.68755
th	-7.68758
▁vil	-7.68832
ul	-7.68838
ve	-7.69513
▁by	-7.69694
ner	-7.69914
▁v	-7.70132
mp	-7.70493
to	-7.71085
ja	-7.71298
ga	-7.71393
ll	-7.71396
ton	-7.71596
▁hoved	-7.71881
▁vest	-7.71897
▁l	-7.72103
skap	-7.7234
▁ra	-7.72541
ist	-7.73438
▁rundt	-7.73828
▁10	-7.73941
om	-7.74179
▁st	-7.74356
sa	-7.74481
ad	-7.74485
ff	-7.74555
ol	-7.74697
▁sine	-7.74937
▁øst	-7.75346
ba	-7.75396
▁grunn	-7.75454
▁vært	-7.75754
si	-7.75811
dal	-7.75834
vis	-7.75986
asjon	-7.75993
erne	-7.76116
ic	-7.76159
▁ti	-7.77748
man	-7.77793
id	-7.78025
▁blitt	-7.78101
erte	-7.78552
▁ta	-7.78784
▁na	-7.79142
▁e	-7.79236
son	-7.79283
▁enn	-7.79671
▁ka	-7.80007
me	-7.80044
▁ni	-7.80048
▁per	-7.80052
▁pa	-7.80421
▁tid	-7.81105
▁samme	-7.81114
▁frem	-7.82057
▁7	-7.8243
▁ol	-7.82501
▁o	-7.82934
▁n	-7.8308
▁kunne	-7.8315
▁skal	-7.83421
å	-7.83448
▁både	-7.83844
ce	-7.84025
ang	-7.84087
▁navnet	-7.84273
mann	-7.84547
▁kon	-7.84803
mi	-7.84894
▁km	-7.85134
kk	-7.85206
▁ofte	-7.85817
▁nå	-7.86344
▁mest	-7.86411
▁sp	-7.86449
ger	-7.86459
ha	-7.8655
▁6	-7.87138
ö	-7.87247
▁di	-7.87261
▁dag	-7.87797
gen	-7.87858
kt	-7.87906
▁navn	-7.8794
▁noe	-7.88035
▁in	-7.88075
het	-7.88085
▁j	-7.88276
▁fire	-7.88362
▁finnes	-7.89187
▁8	-7.89422
▁skulle	-7.89979
▁le	-7.90104
ker	-7.90664
▁lag	-7.90672
▁mo	-7.91029
▁gikk	-7.91446
▁samt	-7.91451
bu	-7.9166
ster	-7.91726
▁ham	-7.91921
▁ba	-7.91969
ling	-7.92138
by	-7.92218
▁du	-7.92518
▁co	-7.93047
▁mai	-7.93064
▁nye	-7.93171
mer	-7.93601
▁ri	-7.93755
ell	-7.93884
ven	-7.93952
ko	-7.94196
ø	-7.95111
co	-7.95202
▁norske	-7.9544
▁vant	-7.95582
▁går	-7.95734
▁fa	-7.95992
▁største	-7.96501
▁fram	-7.96555
ør	-7.96586
vi	-7.96952
▁tok	-7.97172
▁si	-7.97424
▁pi	-7.97718
▁lu	-7.98085
▁bare	-7.98092
mo	-7.98112
▁y	-7.98133
av	-7.98889
▁as	-7.99859
▁mars	-7.99978
▁oslo	-8.00507
▁ma	-8.00649
var	-8.00728
▁gi	-8.00751
▁ar	-8.00904
▁hele	-8.01275
▁slik	-8.01291
je	-8.01483
▁far	-8.0167
▁når	-8.01762
ant	-8.01781
gang	-8.01863
▁lang	-8.02055
▁mar	-8.02318
va	-8.02448
▁lo	-8.0279
▁12	-8.03
▁fri	-8.03091
▁august	-8.03138
▁r	-8.03288
else	-8.03455
go	-8.03506
▁meter	-8.03528
ti	-8.03546
▁pro	-8.03569
▁tilbake	-8.03684
ment	-8.03815
bi	-8.03886
▁bu	-8.03915
▁januar	-8.04044
ingen	-8.04488
▁14	-8.04988
▁11	-8.05199
do	-8.0536
▁bar	-8.05522
▁ho	-8.05752
▁hos	-8.06086
ik	-8.06297
▁kirke	-8.06373
▁9	-8.06618
▁bi	-8.06799
vik	-8.06905
▁mål	-8.07604
au	-8.07665
▁su	-8.07797
▁kalt	-8.08086
▁gang	-8.08162
▁dem	-8.08468
ks	-8.08785
rett	-8.09446
pp	-8.09485
▁usa	-8.09556
gi	-8.09763
sh	-8.0983
berg	-8.10062
▁skole	-8.10704
▁po	-8.10784
opp	-8.10969
▁området	-8.11301
▁juni	-8.11359
ns	-8.11473
im	-8.11515
nd	-8.11962
▁bestå	-8.11981
▁april	-8.11995
▁bli	-8.12036
▁and	-8.12081
lu	-8.12167
æ	-8.12344
ie	-8.12362
▁do	-8.12444
▁13	-8.13162
▁no	-8.13356
und	-8.13725
▁brukt	-8.14027
tter	-8.14442
ring	-8.14517
▁000	-8.14682
▁bak	-8.14687
ly	-8.15415
un	-8.15631
▁ru	-8.15636
▁20	-8.15667
▁fly	-8.15695
▁siste	-8.15888
ni	-8.15906
ion	-8.16123
pe	-8.16335
▁so	-8.16508
▁rekke	-8.16806
sta	-8.17186
jø	-8.17305
ku	-8.17479
▁kina	-8.17535
▁ei	-8.1761
4	-8.18055
▁rett	-8.18856
▁gu	-8.1895
▁alt	-8.19119
▁eks	-8.19275
▁vann	-8.19375
▁ak	-8.19447
3	-8.19448
ard	-8.19475
▁oktober	-8.19565
op	-8.19762
▁film	-8.20098
▁nær	-8.20333
iv	-8.20681
tal	-8.20788
▁sam	-8.21384
▁utgitt	-8.21789
▁juli	-8.21848
▁musikk	-8.21877
▁tillegg	-8.22583
▁februar	-8.22586
▁november	-8.22586
ud	-8.22675
ina	-8.22755
ær	-8.22834
ir	-8.22885
▁gjen	-8.23345
tak	-8.23521
á	-8.23615
tur	-8.23855
▁ju	-8.23864
bar	-8.23953
▁få	-8.24071
▁desember	-8.24131
▁kinesisk	-8.24131
▁mor	-8.24278
ok	-8.24312
▁me	-8.24643
▁først	-8.24788
▁sch	-8.24793
let	-8.25112
▁2010	-8.2526
ty	-8.25397
▁jo	-8.25435
▁landet	-8.25717
▁deres	-8.25728
▁or	-8.26249
▁september	-8.26837
po	-8.2702
▁2008	-8.27078
io	-8.27454
ningen	-8.2748
gg	-8.27625
▁sk	-8.27731
kke	-8.27773
▁satt	-8.28136
▁må	-8.28142
▁par	-8.28216
▁te	-8.28417
sjon	-8.28519
men	-8.28573
ru	-8.28875
▁tro	-8.28892
▁am	-8.28895
▁pe	-8.2893
ov	-8.28955
min	-8.29007
over	-8.29053
år	-8.29477
▁leder	-8.29543
▁mindre	-8.29619
▁lys	-8.29632
ikk	-8.30045
▁2007	-8.30098
▁spilte	-8.30116
sel	-8.30138
▁små	-8.30168
▁døde	-8.30384
▁tv	-8.30386
les	-8.30437
▁kunst	-8.30476
pa	-8.30761
▁laget	-8.30884
▁sønn	-8.30923
tra	-8.30932
▁begynte	-8.30953
▁ko	-8.31035
▁sol	-8.31191
▁el	-8.31666
▁gift	-8.31738
▁innen	-8.31808
ings	-8.31874
ium	-8.31895
am	-8.31976
lag	-8.32246
ering	-8.32257
tor	-8.32263
▁kun	-8.32468
▁helt	-8.32532
▁like	-8.32552
▁x	-8.32563
▁tor	-8.32677
▁videre	-8.32743
▁folke	-8.33183
ca	-8.33227
len	-8.3323
▁gjorde	-8.33315
kel	-8.33519
▁langs	-8.33672
▁fem	-8.33732
ho	-8.33785
▁kort	-8.33864
per	-8.34265
▁new	-8.34304
ed	-8.34377
fa	-8.34515
del	-8.34954
▁plass	-8.3507
ä	-8.35217
▁hver	-8.35677
▁deretter	-8.36462
gu	-8.36492
sted	-8.36796
ft	-8.36967
▁go	-8.37037
▁spiller	-8.37105
▁barn	-8.37131
▁hus	-8.37175
ag	-8.37178
▁30	-8.3734
▁bruk	-8.3757
▁beste	-8.37722
ron	-8.37802
▁nasjonal	-8.3783
▁mat	-8.37882
▁opprinnelig	-8.37946
▁russisk	-8.37954
ber	-8.38147
▁sett	-8.38167
hu	-8.38486
mb	-8.38689
▁kong	-8.38795
▁igjen	-8.38873
▁va	-8.39017
stand	-8.39085
▁form	-8.39152
▁ulike	-8.3925
▁bra	-8.39843
▁imidlertid	-8.40011
▁uten	-8.40032
lin	-8.40186
▁2009	-8.40281
ow	-8.40457
▁gir	-8.40473
▁ville	-8.40577
ci	-8.40579
▁startet	-8.40696
▁høy	-8.41115
▁2006	-8.41327
du	-8.41436
ak	-8.41499
▁mi	-8.41738
hold	-8.41747
▁ab	-8.41751
▁brukes	-8.41889
▁skrevet	-8.41897
pi	-8.42058
ier	-8.42144
no	-8.42299
▁eksempel	-8.42609
ü	-8.42652
▁ja	-8.42749
rede	-8.42972
ige	-8.43385
▁tiden	-8.4353
▁kultur	-8.43824
▁hennes	-8.43911
▁derfor	-8.43936
▁medlem	-8.44039
▁ver	-8.44171
▁ge	-8.44188
vin	-8.44235
▁2005	-8.44278
vo	-8.44347
ld	-8.44446
▁liv	-8.44488
▁større	-8.44598
▁tri	-8.44698
▁lå	-8.44785
▁egen	-8.44851
▁john	-8.45331
1	-8.45362
ny	-8.45395
ans	-8.45449
inn	-8.45469
▁z	-8.45508
▁kor	-8.45519
▁san	-8.45614
mon	-8.45732
▁svær	-8.45746
▁0	-8.46015
▁støtte	-8.46219
verk	-8.46368
▁min	-8.46541
▁amerikansk	-8.4659
▁fjell	-8.46678
▁ski	-8.46764
▁tysk	-8.46848
▁året	-8.46978
▁deltok	-8.47388
▁pre	-8.47485
ord	-8.47521
▁fast	-8.47622
slag	-8.47693
▁ki	-8.4782
▁filmen	-8.48083
stein	-8.48409
▁gamle	-8.4844
▁kommer	-8.48445
▁em	-8.4851
▁provinsen	-8.48542
▁politisk	-8.48952
▁engelsk	-8.49195
▁årene	-8.49247
ius	-8.49341
▁ord	-8.49426
▁hu	-8.49858
▁ty	-8.50079
tu	-8.50144
▁ne	-8.50167
▁25	-8.50291
sch	-8.50421
▁pu	-8.50578
▁fi	-8.50663
▁skrev	-8.51166
itt	-8.515
▁con	-8.5164
ken	-8.51738
▁språk	-8.51963
▁verdens	-8.52263
▁bok	-8.52267
▁tra	-8.52274
siden	-8.52387
▁all	-8.52415
▁ch	-8.52425
▁plan	-8.52497
▁særlig	-8.52518
tisk	-8.52684
sten	-8.52751
lse	-8.52859
elle	-8.52864
ian	-8.52973
art	-8.53215
▁nor	-8.53344
8	-8.53425
satt	-8.54064
ede	-8.54085
est	-8.54092
▁vei	-8.54098
ot	-8.54167
dag	-8.54447
▁2011	-8.54588
løp	-8.54806
▁mye	-8.54845
▁dermed	-8.54915
▁tyske	-8.55017
dd	-8.5512
▁mal	-8.55224
▁president	-8.55442
ret	-8.55499
▁kn	-8.55563
mar	-8.55831
ald	-8.55854
▁hel	-8.55873
▁seks	-8.55975
▁lever	-8.56072
bb	-8.56108
hus	-8.56626
▁samtidig	-8.56716
▁forhold	-8.57058
ek	-8.5708
tiske	-8.57192
gel	-8.57222
ac	-8.57364
▁europa	-8.5765
nder	-8.57684
í	-8.57925
tten	-8.58068
▁forskjellige	-8.58108
fe	-8.58247
tok	-8.58397
følge	-8.58555
▁begge	-8.58588
stilling	-8.58706
▁ingen	-8.58835
▁kommunen	-8.58851
▁bygget	-8.58885
▁konge	-8.58934
▁wa	-8.58977
▁bandet	-8.59136
▁norges	-8.59175
ran	-8.59272
ighet	-8.59395
ksjon	-8.59412
tatt	-8.5948
▁ad	-8.59489
▁selskapet	-8.59865
▁gruppen	-8.6001
▁kalles	-8.6007
▁2004	-8.60176
til	-8.60365
▁ren	-8.60452
▁parti	-8.6055
sp	-8.60921
▁sjø	-8.60937
▁kjente	-8.61045
ong	-8.61279
▁halv	-8.61327
bruk	-8.6136
▁fred	-8.61443
gn	-8.61548
▁amerikanske	-8.61827
ding	-8.61932
▁sommer	-8.6196
▁bil	-8.61973
▁innenfor	-8.62502
▁innbyggere	-8.63077
▁grav	-8.63288
▁øya	-8.63364
▁måtte	-8.63436
▁sted	-8.63458
dalen	-8.63472
▁ganger	-8.63514
kom	-8.63535
▁sverige	-8.63737
▁side	-8.63849
▁fo	-8.64405
2	-8.64497
▁farge	-8.64635
kker	-8.64689
▁bre	-8.64722
ley	-8.64729
ren	-8.64897
tte	-8.65052
▁basert	-8.65155
▁styre	-8.65263
▁mann	-8.65389
stre	-8.6542
isme	-8.65606
▁wi	-8.65666
▁annen	-8.65744
▁fag	-8.6576
▁syn	-8.65809
▁21	-8.6597
burg	-8.65998
itet	-8.66119
▁22	-8.66178
rø	-8.66205
▁arbeidet	-8.66295
▁god	-8.66358
▁øy	-8.66663
dom	-8.66906
▁gud	-8.66997
vel	-8.67192
▁klubben	-8.67239
▁je	-8.67248
▁tyskland	-8.67319
ham	-8.67343
rik	-8.6736
hi	-8.67374
▁my	-8.67449
▁fransk	-8.67915
tid	-8.68014
tion	-8.68044
syn	-8.68534
▁fleste	-8.68547
ting	-8.68548
ki	-8.68567
▁hi	-8.68771
▁roman	-8.68949
▁os	-8.69061
lands	-8.69133
▁stein	-8.6915
forening	-8.69304
ou	-8.69305
▁dagen	-8.69337
▁sand	-8.69378
▁ur	-8.69477
▁general	-8.6987
5	-8.69916
fjorden	-8.70037
▁rom	-8.70249
▁gresk	-8.70397
▁spor	-8.70574
lat	-8.70687
ologi	-8.70693
▁deler	-8.70705
▁grad	-8.70725
▁stort	-8.70852
▁val	-8.70917
▁sto	-8.70965
▁antall	-8.71172
▁fu	-8.71222
tar	-8.7143
▁person	-8.71443
▁cha	-8.71573
form	-8.71643
spill	-8.7168
▁albumet	-8.71762
mål	-8.71829
▁perioden	-8.7186
▁motor	-8.71868
▁bergen	-8.71875
jo	-8.72028
kon	-8.72038
▁24	-8.72202
▁gull	-8.72343
▁jord	-8.72577
▁stat	-8.7283
▁bro	-8.72837
landet	-8.72981
▁ku	-8.73039
fi	-8.73047
▁hol	-8.73113
mor	-8.7324
elsen	-8.73263
vei	-8.73292
▁natur	-8.73444
▁gul	-8.73464
if	-8.73956
▁ben	-8.74013
borg	-8.74238
▁nytt	-8.74759
▁100	-8.74854
▁olympisk	-8.74917
ju	-8.74919
tre	-8.75116
▁serien	-8.75127
▁ledet	-8.75246
▁viser	-8.75288
▁gitt	-8.75326
inger	-8.75548
▁hen	-8.75892
▁mil	-8.76335
▁spilt	-8.76369
dy	-8.76443
▁vise	-8.76466
▁car	-8.76555
▁står	-8.76686
▁stedet	-8.76692
▁berg	-8.767
▁utenfor	-8.7687
▁mag	-8.77151
▁omkring	-8.77162
▁kar	-8.7717
▁rød	-8.77238
ppe	-8.77269
▁liten	-8.77452
han	-8.77511
▁hvert	-8.77899
▁forfatter	-8.77919
▁tatt	-8.77925
▁viktig	-8.78073
▁fe	-8.78157
▁får	-8.78372
00	-8.7842
dig	-8.78436
▁midt	-8.78656
lan	-8.78731
heim	-8.78993
▁gjerne	-8.79071
▁tur	-8.79111
▁ser	-8.79271
isert	-8.79275
ale	-8.79279
tz	-8.79368
▁kal	-8.79508
rå	-8.79624
ug	-8.7966
▁familien	-8.79781
bok	-8.79811
▁vel	-8.79876
▁on	-8.80159
▁2001	-8.80254
ska	-8.80283
ation	-8.80364
▁fotball	-8.80504
kte	-8.80548
sson	-8.80993
anske	-8.81012
▁fl	-8.81025
val	-8.81094
▁2000	-8.81411
▁2003	-8.81422
▁2002	-8.81429
sjoner	-8.81431
▁svensk	-8.81746
tikk	-8.81795
ator	-8.81931
ninger	-8.81975
▁mulig	-8.8198
tan	-8.82042
tiden	-8.82103
▁datter	-8.82513
▁spesielt	-8.82599
▁pla	-8.82696
bil	-8.82701
så	-8.82734
lot	-8.82901
▁com	-8.82904
sse	-8.82905
elig	-8.83016
▁dan	-8.83143
▁førte	-8.83313
▁tredje	-8.83345
▁th	-8.83482
▁tar	-8.83597
hø	-8.83644
▁bl	-8.83662
isere	-8.8367
▁lov	-8.83737
▁tidlig	-8.83778
▁barne	-8.83824
and	-8.83829
ris	-8.83959
▁1990	-8.84214
▁keiser	-8.84232
▁23	-8.84266
værende	-8.84279
▁vinter	-8.84334
bro	-8.84583
▁lav	-8.84596
▁mark	-8.84621
elt	-8.8473
▁delstaten	-8.85041
kken	-8.85192
▁50	-8.85561
yl	-8.8557
ine	-8.85826
▁sangen	-8.85846
far	-8.86069
▁28	-8.86235
и	-8.86258
▁krigen	-8.86308
fra	-8.86512
▁lokal	-8.86521
▁london	-8.86673
▁vanligvis	-8.86711
▁britiske	-8.86731
uk	-8.86808
▁op	-8.87071
▁ed	-8.87096
▁stats	-8.87164
▁anti	-8.87219
iet	-8.87339
heten	-8.87367
▁lange	-8.87485
▁spille	-8.87529
▁hal	-8.87667
fly	-8.87762
bre	-8.87966
▁arbeider	-8.87996
jen	-8.88326
▁frankrike	-8.88352
▁stra	-8.88491
▁valg	-8.88581
▁we	-8.88753
▁familie	-8.89134
pen	-8.89222
▁26	-8.89438
ab	-8.89508
▁hav	-8.89612
▁england	-8.89643
▁én	-8.89669
▁inneholder	-8.89721
▁bru	-8.8974
som	-8.89845
▁historie	-8.89903
kan	-8.89924
so	-8.89956
ó	-8.89997
▁utviklet	-8.90174
▁prest	-8.9037
jer	-8.90403
▁fortsatt	-8.90426
▁plate	-8.90438
su	-8.90495
van	-8.90628
▁militær	-8.90683
▁åtte	-8.90783
50	-8.90845
▁verk	-8.9088
legg	-8.90941
nn	-8.91001
mel	-8.9111
mat	-8.91184
mm	-8.91514
▁vo	-8.91548
leder	-8.91683
▁band	-8.91686
▁post	-8.91766
sti	-8.91772
▁betyr	-8.91794
ister	-8.91873
▁folk	-8.91887
▁eneste	-8.92013
▁franske	-8.92018
rat	-8.9204
▁skog	-8.92059
▁langt	-8.92103
▁ste	-8.92115
▁rø	-8.92171
▁gammel	-8.9223
fall	-8.92321
▁slutt	-8.92369
mme	-8.92487
ji	-8.92607
ill	-8.92684
▁karl	-8.92811
▁brun	-8.92878
ight	-8.92905
▁lite	-8.92908
▁sesongen	-8.92918
▁hatt	-8.92924
▁radio	-8.93143
mester	-8.93178
▁lin	-8.93198
kal	-8.93199
▁flo	-8.93207
▁pan	-8.93318
▁ag	-8.93376
mal	-8.93419
føring	-8.93482
▁ring	-8.9353
▁russland	-8.93559
che	-8.93576
ana	-8.9367
tes	-8.9373
▁slutten	-8.93752
▁pass	-8.93834
▁forbindelse	-8.94046
▁kur	-8.94053
▁mon	-8.94318
▁slag	-8.94382
▁full	-8.94405
▁vin	-8.94484
▁luft	-8.94519
ica	-8.9463
▁johan	-8.9474
drift	-8.94798
▁arbeid	-8.94801
figur	-8.94948
za	-8.94949
em	-8.95066
▁industri	-8.95135
▁jan	-8.95148
▁samarbeid	-8.95182
mmer	-8.95203
▁van	-8.95245
▁slekt	-8.95255
par	-8.95298
▁betydning	-8.95354
ya	-8.95436
▁19	-8.95551
▁start	-8.95722
▁27	-8.95748
▁tu	-8.95808
setning	-8.95921
▁gjøre	-8.96134
▁ø	-8.96171
sj	-8.96182
▁følgende	-8.96414
sto	-8.96533
tsj	-8.96564
ich	-8.96687
bin	-8.96772
selskap	-8.96887
▁løpet	-8.97071
▁reise	-8.97164
▁gruppe	-8.97166
▁fjern	-8.97194
▁hjem	-8.97196
▁litt	-8.97245
bane	-8.97246
▁stil	-8.97285
▁bruker	-8.97374
ph	-8.97456
▁rolle	-8.97595
▁gri	-8.97713
dde	-8.97756
▁godt	-8.97782
▁gar	-8.97811
lene	-8.97896
▁via	-8.97912
vann	-8.9795
▁egne	-8.98004
▁danmark	-8.98129
▁tru	-8.98452
plass	-8.98528
▁arbeids	-8.98646
▁medlemmer	-8.98649
▁kirken	-8.98697
kar	-8.98713
▁paul	-8.98795
▁von	-8.98831
▁opprettet	-8.98947
▁møte	-8.98972
spiller	-8.99023
▁omfatter	-8.99038
▁politiker	-8.99086
▁sal	-8.99086
▁ten	-8.99205
▁sv	-8.99289
▁helse	-8.99333
skole	-8.99417
stil	-8.99547
▁orden	-8.99597
▁hjelp	-8.99807
▁millioner	-8.99824
▁skuespiller	-8.9999
▁kl	-8.99998
yn	-9.00002
▁produsert	-9.00004
▁flyttet	-9.00017
isering	-9.00081
pol	-9.00082
idae	-9.00184
▁lands	-9.00433
q	-9.00493
minister	-9.00542
▁elven	-9.00592
▁sig	-9.00626
ah	-9.00635
▁bor	-9.00708
▁vanlig	-9.00735
▁bort	-9.0076
▁veien	-9.00814
▁krigs	-9.0088
▁pr	-9.00934
lsen	-9.01016
▁cor	-9.01025
vern	-9.01061
▁sj	-9.01203
▁don	-9.0126
ach	-9.01267
▁gate	-9.01341
ika	-9.01433
▁mennesker	-9.01455
ps	-9.01464
▁fin	-9.01482
▁sentral	-9.01515
dyr	-9.01574
arbeid	-9.01623
▁bror	-9.01624
sund	-9.01632
familien	-9.01677
▁gav	-9.01735
▁handels	-9.0182
▁chi	-9.019
met	-9.01934
▁enkelte	-9.01992
▁aktiv	-9.02079
lar	-9.02094
ung	-9.02097
ino	-9.02184
istiske	-9.02284
wa	-9.02391
ā	-9.024
▁verdenskrig	-9.02443
▁bygge	-9.02464
▁mari	-9.02483
veien	-9.0256
▁jeg	-9.02598
▁inntil	-9.0263
▁holdt	-9.02641
▁skolen	-9.02663
▁fått	-9.02954
▁ras	-9.02988
▁høyre	-9.03065
▁pave	-9.03166
før	-9.03296
▁fylke	-9.03322
mark	-9.03339
▁peter	-9.03364
▁makt	-9.03414
▁you	-9.03469
▁pri	-9.03504
ap	-9.03569
øya	-9.03618
tro	-9.03774
▁opera	-9.03815
chi	-9.03826
▁sang	-9.03841
▁1994	-9.03877
▁felles	-9.03877
▁venstre	-9.03882
banen	-9.03917
ip	-9.03923
▁moderne	-9.04228
olog	-9.04265
▁mus	-9.04299
ide	-9.04368
▁sak	-9.04465
he	-9.04665
▁dansk	-9.04845
▁hjemme	-9.04846
▁direkte	-9.04863
▁liste	-9.04974
▁sanger	-9.05052
vet	-9.05182
▁arm	-9.05189
▁cla	-9.05189
▁menneske	-9.05341
▁mont	-9.05434
▁foran	-9.05656
skip	-9.05657
▁inkludert	-9.05865
▁nesten	-9.05924
▁delen	-9.05945
▁verden	-9.05972
▁universitetet	-9.06107
▁40	-9.0634
▁1970	-9.06377
liggende	-9.06519
▁bur	-9.06551
rak	-9.06556
stående	-9.06597
▁tilhører	-9.06697
▁internasjonale	-9.06701
▁bygd	-9.06775
▁blad	-9.06841
▁borger	-9.06851
▁au	-9.06943
▁serie	-9.07095
bygg	-9.07105
asje	-9.07117
port	-9.07214
▁carl	-9.07244
system	-9.07265
▁bri	-9.07296
▁staten	-9.07361
og	-9.07388
▁riks	-9.0746
▁personer	-9.0752
▁historisk	-9.07573
ds	-9.07759
▁ferdig	-9.07807
▁christian	-9.07825
▁lyd	-9.07863
båt	-9.08213
▁åpnet	-9.08415
▁1980	-9.08428
fri	-9.08504
gh	-9.08509
▁svenske	-9.08512
evne	-9.08548
▁fiske	-9.08641
▁ve	-9.08676
red	-9.0874
▁mm	-9.08759
ey	-9.08814
▁etablert	-9.08816
▁art	-9.08894
stasjon	-9.08897
▁kamp	-9.08917
▁delt	-9.09074
▁hvit	-9.09155
▁hvis	-9.0917
6	-9.09182
▁nok	-9.09224
▁ber	-9.09414
▁minst	-9.09427
drag	-9.09458
▁29	-9.09472
bygd	-9.095
▁jobbe	-9.09501
▁ett	-9.09505
▁fortsatte	-9.09554
40	-9.09605
▁minne	-9.09609
▁tom	-9.09674
▁india	-9.09854
▁kje	-9.09893
▁utvikling	-9.10021
▁gjør	-9.10032
▁rock	-9.10178
▁elva	-9.10207
dr	-9.10258
▁pris	-9.1028
skje	-9.10384
▁ac	-9.10416
laget	-9.10479
▁enkelt	-9.10485
▁york	-9.10506
▁fylkesvei	-9.10524
▁sendt	-9.10534
dømme	-9.10534
▁ska	-9.10585
▁fall	-9.10595
▁organ	-9.10806
zi	-9.10813
res	-9.10837
råd	-9.10844
▁31	-9.10855
kor	-9.10863
▁eu	-9.10904
▁partiet	-9.1099
▁omtrent	-9.11035
▁sm	-9.11039
▁1999	-9.1104
▁jernbane	-9.11291
▁funnet	-9.11305
vil	-9.11417
▁sc	-9.1149
▁fant	-9.11494
▁west	-9.11716
▁gra	-9.11852
kul	-9.11919
▁teater	-9.12005
skog	-9.12031
▁eldre	-9.12104
▁hånd	-9.12133
sjonen	-9.12289
▁dis	-9.12318
cc	-9.12399
▁kraft	-9.12476
▁syd	-9.12483
ford	-9.12551
▁lett	-9.12726
log	-9.12855
my	-9.12935
▁grunnlagt	-9.1307
cu	-9.13129
▁1996	-9.13185
▁dannet	-9.13196
▁hy	-9.13224
▁gjort	-9.13316
▁svart	-9.1342
▁felt	-9.13451
punkt	-9.13486
gar	-9.13551
folk	-9.13671
▁bred	-9.13685
▁måte	-9.13713
▁2012	-9.13735
▁slaget	-9.13794
▁dra	-9.1403
▁bank	-9.14073
▁hard	-9.14077
medalje	-9.1413
▁klart	-9.14185
folkerepublikken	-9.14279
▁italia	-9.14283
kamp	-9.14292
film	-9.14329
▁viktigste	-9.14363
▁miljø	-9.14404
▁tak	-9.1443
▁bør	-9.14497
inyin	-9.14541
▁ter	-9.1457
gård	-9.14638
fal	-9.14715
е	-9.14819
område	-9.14833
▁kvinne	-9.14856
▁energi	-9.1488
▁dyr	-9.14914
▁ji	-9.14921
▁can	-9.14974
▁ettersom	-9.1512
▁linje	-9.15153
▁menn	-9.15259
▁regjeringen	-9.15332
▁ev	-9.15443
fer	-9.15452
mu	-9.15455
▁lege	-9.15531
▁sentrum	-9.15586
▁mu	-9.15631
anger	-9.15663
▁spe	-9.15807
▁knytte	-9.15929
▁studert	-9.15935
▁lille	-9.16013
▁ly	-9.1603
▁fr	-9.16427
▁william	-9.16486
▁paris	-9.16531
pu	-9.16539
▁tekst	-9.16628
▁vm	-9.1673
plan	-9.16745
sjef	-9.16816
lå	-9.16873
▁hovedsakelig	-9.17054
▁1992	-9.17054
lik	-9.17056
▁regnes	-9.17145
▁album	-9.17254
▁lik	-9.17301
▁rev	-9.17327
ys	-9.17346
vær	-9.17368
jel	-9.17371
▁universitet	-9.17441
▁bø	-9.17474
▁trondheim	-9.17616
her	-9.17617
pper	-9.17624
▁kunstner	-9.17789
don	-9.17828
▁utnevnt	-9.17832
▁nu	-9.17833
tek	-9.17979
styre	-9.18057
stilt	-9.18099
▁lær	-9.18111
▁1995	-9.18188
▁2013	-9.1819
full	-9.18211
lø	-9.18249
sjøen	-9.18264
att	-9.18314
mannen	-9.18335
▁berlin	-9.1854
▁bjørn	-9.18569
▁nett	-9.18569
ros	-9.18619
▁betydelig	-9.18752
▁kilometer	-9.18752
▁nordøst	-9.18777
rop	-9.18831
▁lei	-9.19018
а	-9.19067
▁arter	-9.19096
▁sh	-9.191
▁mac	-9.19118
▁moh	-9.19171
▁sta	-9.19193
▁park	-9.19201
▁havn	-9.19252
▁herre	-9.19276
är	-9.19326
ført	-9.19341
bra	-9.19388
▁robert	-9.19388
▁valgt	-9.19502
▁lærer	-9.19555
▁dom	-9.19556
ving	-9.19656
▁års	-9.19723
▁vol	-9.19749
▁forsøk	-9.19761
▁ke	-9.19886
▁storbritannia	-9.19905
▁drept	-9.1991
anlegg	-9.19964
fag	-9.20021
▁tap	-9.20038
svis	-9.20038
▁sosial	-9.20042
▁dr	-9.20047
▁romersk	-9.20084
▁gen	-9.20216
▁kongen	-9.20231
▁eget	-9.20377
dan	-9.20416
▁tegn	-9.20424
▁blå	-9.2043
▁dikt	-9.20431
▁såkalte	-9.20497
▁henhold	-9.20524
▁eier	-9.20635
▁mod	-9.2079
tning	-9.20881
▁sen	-9.20992
elser	-9.21043
▁representert	-9.21071
▁kroppen	-9.21074
▁mc	-9.21159
▁pat	-9.21207
▁pl	-9.21292
▁tittelen	-9.21302
▁olav	-9.21345
▁data	-9.21461
▁følge	-9.21509
▁lokale	-9.21513
trykk	-9.21662
▁university	-9.21662
▁likevel	-9.21702
▁bas	-9.21917
▁motstand	-9.21933
▁kv	-9.22129
ismen	-9.22147
området	-9.22211
▁tildelt	-9.22223
▁sølv	-9.22248
▁thomas	-9.22251
sky	-9.22262
▁bedre	-9.22277
▁skade	-9.22342
kket	-9.22374
rus	-9.22393
▁afrika	-9.22575
▁angrep	-9.2261
navn	-9.2263
▁høyde	-9.22732
▁stjerne	-9.22824
▁1997	-9.22852
▁1998	-9.22853
istisk	-9.22876
fjord	-9.22886
bel	-9.22924
▁finner	-9.22937
▁klar	-9.22955
▁mos	-9.23023
▁grå	-9.23028
▁dia	-9.23038
▁ry	-9.23087
▁konsert	-9.23237
▁1989	-9.2345
▁høyeste	-9.23463
▁dal	-9.23589
rom	-9.23615
skapet	-9.23692
▁bill	-9.23708
▁tjeneste	-9.23732
ls	-9.23918
▁best	-9.23978
▁ex	-9.24061
fest	-9.24082
▁slo	-9.2413
loven	-9.24134
▁fil	-9.24146
lett	-9.24211
▁henne	-9.24302
way	-9.24349
xi	-9.24373
▁gro	-9.24436
▁gå	-9.24541
▁politi	-9.24634
enes	-9.24671
stat	-9.24693
▁mis	-9.2472
▁prosess	-9.24783
▁xi	-9.24837
▁våpen	-9.2484
▁stemme	-9.24889
▁overtok	-9.24986
har	-9.25
▁kla	-9.25025
ze	-9.25068
rin	-9.25285
▁gla	-9.2542
▁drev	-9.25484
ferd	-9.2556
▁utgjør	-9.25688
▁natt	-9.25692
▁oppdaget	-9.25737
bert	-9.25776
ori	-9.25799
kant	-9.2587
▁topp	-9.25875
▁1993	-9.25885
▁krig	-9.25903
▁ci	-9.26041
tel	-9.26116
10	-9.26205
bygning	-9.26314
▁gran	-9.26359
ini	-9.26362
▁danske	-9.26483
hr	-9.26487
▁hvilke	-9.26495
▁bal	-9.26566
departementet	-9.26735
ære	-9.26947
året	-9.27097
▁1960	-9.27124
▁kampen	-9.27179
▁para	-9.27194
▁kontroll	-9.27435
▁smal	-9.2746
▁punkt	-9.27463
▁erik	-9.27608
р	-9.27622
▁følger	-9.27633
▁steder	-9.2767
lys	-9.27817
▁indre	-9.27908
▁tett	-9.2795
mot	-9.27953
▁skip	-9.28049
rud	-9.28083
stra	-9.28146
søk	-9.28252
▁1983	-9.28369
80	-9.2838
▁aldri	-9.28389
▁mester	-9.28453
ble	-9.28463
up	-9.28494
old	-9.2868
gitt	-9.28756
leg	-9.28757
▁litteratur	-9.28772
ita	-9.2881
▁sterkt	-9.28843
▁spesial	-9.2886
navnet	-9.28935
ama	-9.28939
▁sha	-9.28997
▁dessute	-9.29008
▁1991	-9.29009
20	-9.29095
▁kul	-9.29099
▁fla	-9.29145
▁komme	-9.29201
▁boken	-9.29327
brudd	-9.2933
▁500	-9.29358
kraft	-9.29375
lle	-9.29379
▁versjon	-9.2943
organisasjon	-9.29458
senter	-9.2947
▁trekk	-9.29475
▁råd	-9.29503
▁erstattet	-9.29568
▁nummer	-9.29621
▁sogn	-9.29733
▁løp	-9.29766
gruppen	-9.29833
▁kyst	-9.29916
▁divisjon	-9.29988
▁system	-9.30077
all	-9.30103
▁60	-9.30137
▁gje	-9.30148
65	-9.30157
▁hår	-9.30163
bl	-9.30211
▁2014	-9.30291
▁samling	-9.30378
▁opprør	-9.30393
ida	-9.30414
▁syk	-9.30528
▁studie	-9.30575
nett	-9.30583
band	-9.30683
▁red	-9.3075
▁prosent	-9.30947
king	-9.30999
▁sy	-9.31078
▁ger	-9.31146
▁island	-9.31149
▁regn	-9.31155
lighet	-9.3124
▁skjer	-9.31288
▁nordlig	-9.31296
givelse	-9.3131
▁lagt	-9.31375
eres	-9.3139
▁effekt	-9.31415
▁meste	-9.31427
▁meget	-9.31459
ano	-9.31501
▁arkitekt	-9.31512
las	-9.31545
▁dager	-9.31567
▁ang	-9.31571
▁1984	-9.31574
▁eldste	-9.31575
▁martin	-9.31643
▁olje	-9.31703
grad	-9.31715
▁uttrykk	-9.31804
kast	-9.31844
▁hva	-9.31881
▁regjering	-9.32101
▁af	-9.32186
▁1979	-9.32228
▁biskop	-9.32229
▁1985	-9.32234
▁sørøst	-9.3225
▁britisk	-9.32291
▁port	-9.32435
▁beskrive	-9.32448
rev	-9.32597
sette	-9.32601
▁funksjon	-9.32675
▁skrift	-9.32882
▁informasjon	-9.32886
▁oppkalt	-9.32891
pris	-9.32939
▁hopp	-9.33076
▁forut	-9.33127
▁inter	-9.33304
bø	-9.33309
iz	-9.33316
▁europeisk	-9.3333
▁mel	-9.3334
▁georg	-9.33382
havet	-9.33428
hl	-9.33457
▁periode	-9.33508
▁br	-9.33585
▁hvordan	-9.33629
▁selskap	-9.33648
▁david	-9.33682
▁løs	-9.3384
▁len	-9.33901
▁stiftet	-9.33951
▁stasjon	-9.34077
pl	-9.34118
ringer	-9.34344
▁varme	-9.34346
▁plante	-9.34457
▁resultat	-9.34488
områder	-9.34534
▁dre	-9.34589
▁za	-9.34866
▁arrangert	-9.34886
▁dårlig	-9.34887
▁2015	-9.34903
▁2016	-9.34904
▁grand	-9.34964
▁trans	-9.34971
lie	-9.35022
heter	-9.35088
sal	-9.35156
▁finsk	-9.35162
▁air	-9.3518
▁slekten	-9.35212
▁klo	-9.35242
▁kvinner	-9.35437
▁blod	-9.35546
▁suksess	-9.35562
▁sku	-9.35563
▁brasil	-9.35565
▁jon	-9.3557
▁styrke	-9.35621
▁mur	-9.3564
▁slike	-9.35672
▁fremst	-9.35711
án	-9.35782
▁los	-9.35862
kin	-9.35869
▁verdi	-9.35876
gan	-9.36006
bilde	-9.36154
virke	-9.36175
▁ob	-9.3619
▁1988	-9.36242
▁vanskelig	-9.36246
▁1987	-9.36253
▁sommerfugl	-9.36254
ay	-9.36402
о	-9.36526
▁trykk	-9.36629
▁utgav	-9.36648
▁ledd	-9.36672
▁cr	-9.36732
musikk	-9.36832
ux	-9.36852
▁avdeling	-9.36884
▁henrik	-9.37071
▁drift	-9.37086
▁1800	-9.37133
byen	-9.37147
▁befolkningen	-9.37208
▁spi	-9.37214
▁holde	-9.37226
▁design	-9.37253
ssen	-9.37255
▁not	-9.3731
▁col	-9.37405
det	-9.37408
▁lø	-9.37524
valg	-9.37562
holm	-9.37574
▁seil	-9.37706
gra	-9.37714
▁åpen	-9.3774
▁hall	-9.37929
▁kle	-9.37932
▁samlet	-9.3803
krigen	-9.38042
ire	-9.3805
▁japansk	-9.38101
▁skje	-9.38221
lov	-9.38225
▁ul	-9.38227
▁krav	-9.38266
ark	-9.38307
▁1968	-9.38321
blad	-9.38338
nor	-9.38467
▁sky	-9.38476
▁son	-9.38566
abel	-9.38601
tog	-9.38621
mun	-9.38693
nske	-9.3872
stan	-9.38837
▁bad	-9.38848
▁sammenheng	-9.38873
nivå	-9.38995
▁hverandre	-9.3901
▁hevde	-9.3903
▁lengde	-9.39035
klass	-9.39173
▁gal	-9.39188
▁george	-9.39188
fart	-9.39236
▁finland	-9.39313
▁bind	-9.3933
gangen	-9.39336
▁type	-9.39494
ath	-9.39499
▁jern	-9.39618
gle	-9.39647
▁benyttet	-9.39689
▁1978	-9.39725
fon	-9.3978
▁plassert	-9.39825
86	-9.39856
▁virksomhet	-9.39888
▁jens	-9.39911
▁populær	-9.39936
▁dro	-9.39943
▁japan	-9.3995
løse	-9.39973
mus	-9.39974
huset	-9.40032
▁seier	-9.40113
77	-9.40194
▁legge	-9.40295
30	-9.40388
magasin	-9.40438
▁gre	-9.40667
▁flat	-9.40702
▁q	-9.4073
▁wil	-9.40734
▁sø	-9.40756
tør	-9.40819
▁kraftig	-9.40958
▁standard	-9.41158
▁gård	-9.41202
▁vår	-9.41219
sett	-9.41351
▁årlig	-9.41358
▁strøm	-9.41377
▁skatt	-9.4143
▁franc	-9.41457
▁syv	-9.41457
▁kron	-9.41505
▁arten	-9.41516
▁gården	-9.41586
▁nest	-9.41608
▁war	-9.41617
▁karakter	-9.41629
handling	-9.41649
▁amerika	-9.41778
iserte	-9.41839
▁1981	-9.41867
▁maskin	-9.41887
▁kraftverk	-9.41901
▁maria	-9.41905
▁områder	-9.4198
ativ	-9.4203
▁samle	-9.42053
ara	-9.4207
47	-9.42098
▁lars	-9.42127
▁transport	-9.42135
aks	-9.42191
ari	-9.42303
felt	-9.42337
▁ordet	-9.42354
øl	-9.42363
▁sag	-9.42422
37	-9.42426
ola	-9.4255
▁poeng	-9.42605
▁regionen	-9.42641
bli	-9.42736
▁turn	-9.42737
▁retning	-9.42784
▁sund	-9.4282
▁pal	-9.42892
▁tall	-9.43015
metode	-9.43058
ider	-9.4311
bus	-9.4312
pre	-9.43128
ledes	-9.43148
iner	-9.43284
▁relativ	-9.43312
▁tilsvarende	-9.43312
▁stavanger	-9.43322
▁1900	-9.43336
▁egentlig	-9.4334
▁test	-9.43347
▁professor	-9.4346
▁hor	-9.43693
wi	-9.43721
skolen	-9.43761
ringen	-9.43872
▁museum	-9.43946
▁dy	-9.4395
skrift	-9.44042
lagt	-9.44073
▁brann	-9.44103
▁james	-9.44137
▁neste	-9.44247
vit	-9.44278
▁engelske	-9.44308
ial	-9.44438
tegn	-9.44477
▁sjef	-9.44513
▁viste	-9.44633
▁prege	-9.44684
▁høyt	-9.44751
▁fjerde	-9.44788
▁øverst	-9.4479
▁1950	-9.4481
▁ek	-9.44821
▁shi	-9.44826
▁roma	-9.44881
▁kors	-9.44911
▁totalt	-9.45003
▁symbol	-9.45028
▁super	-9.45081
sak	-9.45197
▁total	-9.45251
▁pop	-9.45403
▁gitar	-9.45474
▁faren	-9.45521
▁1945	-9.45541
▁ban	-9.45547
▁hundre	-9.45563
zhou	-9.45681
ink	-9.45847
▁fylkes	-9.4593
▁thor	-9.45936
▁middel	-9.4594
off	-9.45961
▁sir	-9.45962
▁høyere	-9.46019
55	-9.46055
▁direktør	-9.46124
samling	-9.4613
rit	-9.46177
è	-9.46177
▁stockholm	-9.46286
tta	-9.46349
lv	-9.46525
▁rik	-9.46589
systemet	-9.46667
▁fugle	-9.46698
▁høsten	-9.46799
menn	-9.46834
▁klasse	-9.46834
akt	-9.46857
▁sommeren	-9.46866
formet	-9.46976
▁viss	-9.46982
ket	-9.47021
▁1972	-9.47052
▁1973	-9.47053
▁bestemt	-9.47072
▁heller	-9.47133
aktig	-9.47226
▁skrive	-9.47413
87	-9.4747
▁nederlandsk	-9.4747
▁reist	-9.47538
▁forskning	-9.47567
midler	-9.47674
▁nærings	-9.47712
selskapet	-9.47738
omme	-9.47749
▁stø	-9.47806
cia	-9.47926
▁tradisjon	-9.47965
hav	-9.48017
age	-9.48057
itz	-9.48115
▁svarte	-9.48274
▁unge	-9.48281
nu	-9.483
jev	-9.48349
▁auto	-9.48354
ix	-9.48497
trekk	-9.48662
bor	-9.4877
▁koloni	-9.48913
▁fange	-9.49025
sik	-9.49095
▁real	-9.49155
9	-9.49216
▁vis	-9.49216
tall	-9.4923
▁klima	-9.49361
▁handling	-9.49368
▁1940	-9.49371
vid	-9.49372
▁grensen	-9.49403
67	-9.49419
ski	-9.49445
▁bøker	-9.49487
▁stu	-9.4954
▁200	-9.49778
▁enhet	-9.49821
▁sla	-9.49849
▁munn	-9.49858
▁stav	-9.49867
lang	-9.49927
▁gode	-9.4994
▁stre	-9.49972
shire	-9.49986
▁hovedstaden	-9.50087
gger	-9.50118
▁sørvest	-9.50135
▁begynnelsen	-9.50137
▁fotballspiller	-9.50159
produksjon	-9.50228
▁fest	-9.50319
ai	-9.50382
▁egg	-9.50442
▁sil	-9.50494
▁iii	-9.50522
▁bruke	-9.50628
ager	-9.50644
▁ansvar	-9.50664
tic	-9.50731
▁stod	-9.50774
ð	-9.5092
▁gr	-9.5092
▁1977	-9.50935
▁distrikt	-9.50996
▁city	-9.51002
▁holm	-9.51061
66	-9.5107
▁region	-9.51183
▁fulgte	-9.51271
led	-9.51331
48	-9.514
▁kir	-9.51449
gående	-9.51466
▁hovedstad	-9.51493
▁båt	-9.515
stykke	-9.51539
på	-9.51604
eier	-9.51653
▁fjorden	-9.51664
▁world	-9.51714
▁hjerte	-9.51715
▁nordvest	-9.51719
lei	-9.51724
▁die	-9.51724
▁1986	-9.51729
virkning	-9.51746
▁enten	-9.5176
▁livet	-9.51769
▁sivil	-9.51783
historie	-9.51839
lek	-9.5184
▁latin	-9.51854
hy	-9.51902
▁oppført	-9.51937
dra	-9.51957
▁grense	-9.5196
▁pen	-9.51986
liv	-9.52027
▁prisen	-9.52063
ben	-9.52124
▁areal	-9.52129
of	-9.52164
▁bilde	-9.52182
▁karriere	-9.52236
▁hvite	-9.52244
nik	-9.52284
▁unn	-9.5239
▁sesong	-9.52451
▁klassisk	-9.52532
vig	-9.52538
▁statsminister	-9.52538
gress	-9.52568
▁mulighet	-9.52681
▁vold	-9.52701
▁begrepet	-9.52808
ins	-9.52841
▁nrk	-9.52881
elva	-9.53029
hund	-9.53096
▁vekt	-9.53113
▁ind	-9.5328
▁københavn	-9.5332
▁århundre	-9.53321
▁35	-9.53327
▁1967	-9.53334
▁søster	-9.53368
hall	-9.53369
▁forsvar	-9.53373
78	-9.53375
▁spar	-9.5341
▁ytre	-9.53424
▁bel	-9.53426
▁elektrisk	-9.53518
tjeneste	-9.53669
veg	-9.53718
▁grønn	-9.53751
▁anlegget	-9.53759
▁militære	-9.53763
▁les	-9.53893
agn	-9.53901
stoff	-9.53902
valget	-9.54021
▁ledelse	-9.54028
▁mas	-9.54067
▁religiøs	-9.54133
ram	-9.5415
▁bevart	-9.54155
▁dyp	-9.54169
▁rus	-9.54227
▁endt	-9.54242
▁tal	-9.54259
regionen	-9.54298
shi	-9.5436
▁marine	-9.54391
▁nev	-9.54438
▁sju	-9.54465
ence	-9.54484
▁lar	-9.54491
▁kull	-9.54535
▁privat	-9.5455
▁utdanne	-9.54551
▁wal	-9.54605
▁personlig	-9.54626
▁styrker	-9.54713
the	-9.54738
▁italiensk	-9.5474
▁offentlige	-9.54749
heng	-9.54753
▁80	-9.54849
ologisk	-9.54885
▁1964	-9.54962
▁skape	-9.54971
fisk	-9.55
▁bevegelse	-9.55036
▁cm	-9.55073
▁danner	-9.55089
▁stille	-9.55163
gruppe	-9.55197
▁sur	-9.55198
▁festival	-9.55251
▁bry	-9.55304
▁fot	-9.55304
▁skips	-9.55362
▁rike	-9.55487
▁lau	-9.55511
▁heter	-9.55516
▁artene	-9.55549
▁bern	-9.55552
▁leg	-9.55562
▁gren	-9.55632
42	-9.55764
deling	-9.55773
tive	-9.55879
hal	-9.5591
▁tonn	-9.5595
sol	-9.56095
▁mak	-9.56142
▁verne	-9.56169
med	-9.5619
▁king	-9.56212
▁leve	-9.56288
▁ap	-9.56307
gift	-9.56338
▁vik	-9.56484
mas	-9.56491
▁slått	-9.56524
в	-9.56604
▁nils	-9.56607
▁sovjetunionen	-9.56613
▁national	-9.56613
▁louis	-9.56613
▁typisk	-9.56617
▁1930	-9.56628
▁het	-9.56661
▁stadig	-9.56694
ance	-9.56737
pass	-9.56753
▁base	-9.56786
▁representant	-9.56821
rich	-9.56849
▁johannes	-9.56903
▁tung	-9.56908
▁skipet	-9.5691
▁valgte	-9.56912
▁rot	-9.56939
▁gru	-9.5694
dor	-9.56967
▁polsk	-9.57
▁tele	-9.57146
fu	-9.57221
fo	-9.57252
▁mad	-9.57292
åk	-9.57318
sberg	-9.57339
sam	-9.57372
▁kardinal	-9.57453
▁teknisk	-9.57453
▁dronning	-9.57458
▁1982	-9.57466
▁kamper	-9.57496
▁nivå	-9.57533
▁adel	-9.57557
▁union	-9.57567
▁res	-9.57601
fla	-9.57652
▁hodet	-9.57834
▁sul	-9.57845
▁finalen	-9.57931
▁holder	-9.5798
▁sentrale	-9.58009
68	-9.58146
delen	-9.58287
▁nærmest	-9.58302
▁1975	-9.58311
▁musikkalbum	-9.58311
▁befolkning	-9.58327
rådet	-9.58337
▁renner	-9.5849
▁hell	-9.58495
kommune	-9.58569
▁salt	-9.58574
▁70	-9.58587
▁høye	-9.58592
▁daglig	-9.58787
▁sub	-9.58811
linje	-9.5884
▁ask	-9.58949
▁festning	-9.59075
▁1974	-9.59155
vendt	-9.59155
pan	-9.59158
▁omfattende	-9.59212
▁snar	-9.59264
▁eid	-9.59277
▁ungdoms	-9.59343
▁nan	-9.59481
ms	-9.59486
qu	-9.59532
▁nederland	-9.59549
klubb	-9.59611
▁cup	-9.59624
▁historien	-9.59727
rike	-9.59769
løs	-9.59796
tus	-9.59849
▁metall	-9.59912
▁distriktet	-9.59979
stid	-9.5998
syk	-9.59986
fin	-9.59999
▁ønsket	-9.60007
▁1969	-9.60028
▁400	-9.60048
▁hud	-9.60059
▁bygningen	-9.60078
▁produkt	-9.60091
parti	-9.60142
cy	-9.60159
▁åpne	-9.60178
▁ekspedisjon	-9.60194
mengde	-9.60204
▁ordenen	-9.60213
▁harald	-9.60237
▁mørke	-9.60249
▁teksten	-9.60254
▁endret	-9.60285
tti	-9.60307
▁resten	-9.60315
kunst	-9.60322
▁utdanning	-9.60326
▁nabo	-9.60369
kle	-9.60392
▁viktige	-9.60407
▁løv	-9.60425
▁fro	-9.60437
▁just	-9.60455
▁strid	-9.6055
merket	-9.60558
▁time	-9.60587
spor	-9.60644
▁drama	-9.60704
▁spre	-9.6078
▁prøve	-9.60781
▁lind	-9.60781
lon	-9.60803
▁sannsynlig	-9.60887
š	-9.60887
▁australia	-9.60887
▁1976	-9.60895
▁black	-9.60944
gikk	-9.60992
▁lot	-9.61044
▁kol	-9.61077
▁phil	-9.61116
bjørn	-9.61167
▁vestlig	-9.612
ive	-9.6122
gren	-9.61223
▁semi	-9.61249
▁trolig	-9.61269
▁ramme	-9.61296
▁journalist	-9.61329
▁organisasjonen	-9.6135
▁hei	-9.61404
▁myr	-9.6148
▁ok	-9.61533
▁beskytte	-9.6159
unt	-9.61614
н	-9.61656
ritt	-9.61663
▁raskt	-9.61665
▁hær	-9.617
▁ii	-9.61726
▁trøndelag	-9.61764
▁benytte	-9.61764
▁1971	-9.61774
▁1946	-9.61775
▁bol	-9.61785
▁besøk	-9.61786
marked	-9.61792
▁sikre	-9.61805
▁kloster	-9.61819
82	-9.61825
▁derimo	-9.61832
linjen	-9.61874
skjold	-9.61956
▁zh	-9.61977
60	-9.61979
▁italienske	-9.61992
rum	-9.62026
▁tema	-9.62047
▁hæren	-9.62087
▁tross	-9.62111
bri	-9.62161
▁forfatteren	-9.62167
▁ball	-9.62197
▁bolig	-9.62409
▁stammer	-9.62521
▁fører	-9.62566
▁asia	-9.62581
▁foss	-9.62583
▁us	-9.62622
▁regel	-9.62633
vunnet	-9.6265
▁1920	-9.62667
▁kanon	-9.62694
▁israel	-9.62745
ther	-9.62758
lund	-9.6278
▁finans	-9.6279
52	-9.62923
stall	-9.62975
▁idretts	-9.62995
prisen	-9.63008
▁ana	-9.63011
▁grenser	-9.63055
pro	-9.63097
▁pol	-9.63401
▁falt	-9.63623
▁lenge	-9.63625
mand	-9.63652
▁hit	-9.63725
▁qu	-9.63813
arbeider	-9.63875
ata	-9.6391
▁delvis	-9.6399
fører	-9.63996
forbund	-9.64028
▁regi	-9.64175
ney	-9.642
graf	-9.64233
▁veg	-9.64238
ille	-9.64295
ub	-9.64344
с	-9.64382
▁gass	-9.64393
▁alternativ	-9.64443
ved	-9.64445
▁møtte	-9.6446
▁alltid	-9.64499
erende	-9.64541
58	-9.64657
▁rang	-9.64724
▁feil	-9.64757
07	-9.64804
▁borg	-9.6483
▁anne	-9.6491
lia	-9.64963
▁epi	-9.64973
▁mw	-9.65035
▁temperatur	-9.65047
▁mørk	-9.65122
▁char	-9.65181
▁sve	-9.65322
▁lek	-9.65359
▁betrakte	-9.65397
messig	-9.65412
▁un	-9.65416
▁kongelig	-9.65474
ani	-9.65511
▁knut	-9.6553
▁dyre	-9.65538
gard	-9.65543
gjør	-9.65545
▁grev	-9.65567
▁90	-9.65579
vatnet	-9.65652
▁delta	-9.65693
▁fyr	-9.65702
ova	-9.65721
▁senter	-9.65792
krets	-9.65809
▁produksjon	-9.65866
bær	-9.65988
51	-9.66113
ula	-9.66122
vekt	-9.66135
▁kost	-9.66171
▁krist	-9.6619
vesen	-9.66242
pin	-9.66248
▁cap	-9.66263
institusjon	-9.66269
▁spesiell	-9.6627
▁øvre	-9.6627
ografi	-9.66291
▁mente	-9.66316
ain	-9.664
▁she	-9.66406
verket	-9.66422
▁kjenne	-9.66532
▁rad	-9.66558
▁meg	-9.66613
93	-9.66739
▁jevn	-9.6685
▁nådd	-9.66865
▁kjempe	-9.66938
▁alder	-9.66946
▁materiale	-9.66956
▁program	-9.67181
lev	-9.67186
т	-9.67189
▁etterhvert	-9.67195
▁komponist	-9.67195
▁offisiell	-9.67195
▁sistnevnte	-9.67195
▁tydelig	-9.67199
▁est	-9.67199
▁lengre	-9.67199
▁1944	-9.67204
▁christ	-9.67207
▁1965	-9.67214
▁ordfører	-9.67217
partiet	-9.67229
▁che	-9.67249
▁ub	-9.67282
side	-9.67317
▁lenger	-9.67322
▁bit	-9.67347
gården	-9.6737
que	-9.6739
▁økonomisk	-9.67407
▁representerer	-9.67418
dommen	-9.67503
manns	-9.67546
▁historiker	-9.67584
▁reform	-9.67632
▁tanke	-9.6773
▁eg	-9.67737
▁musiker	-9.67805
▁mistet	-9.67822
ish	-9.67826
▁korte	-9.67867
arm	-9.67917
lem	-9.67935
▁maler	-9.67946
▁virke	-9.68009
ú	-9.6813
▁jazz	-9.6813
▁fremdeles	-9.6813
▁fokus	-9.68133
▁canada	-9.6814
▁1963	-9.68142
▁scene	-9.68181
ød	-9.6823
▁solgt	-9.68283
▁lan	-9.68328
▁samfunns	-9.68331
▁størrelse	-9.6837
hol	-9.68376
øve	-9.68465
▁egypt	-9.68489
▁produksjons	-9.6856
▁kysten	-9.68565
57	-9.68585
▁forsøkt	-9.6872
▁posisjon	-9.68758
mid	-9.68758
organ	-9.68832
delse	-9.68986
56	-9.69027
stripe	-9.6904
▁kontakt	-9.69079
▁1948	-9.69088
▁1966	-9.69089
▁bla	-9.69105
▁fortsette	-9.69134
▁slott	-9.69171
variant	-9.69215
▁gutt	-9.69249
▁kvart	-9.6929
ville	-9.69308
▁mid	-9.69379
▁utført	-9.69433
▁omfatte	-9.69437
▁tapte	-9.69474
▁300	-9.69501
ib	-9.6953
eller	-9.69557
▁odd	-9.69569
62	-9.69633
01	-9.69733
odi	-9.69737
▁turist	-9.69743
elli	-9.69745
▁strand	-9.69755
field	-9.69765
90	-9.69787
▁hoff	-9.69794
▁selve	-9.69798
plasser	-9.69839
▁utover	-9.69912
qui	-9.69912
språk	-9.69932
▁last	-9.6996
▁tha	-9.69963
▁1952	-9.70039
ria	-9.70107
▁røde	-9.70131
▁grupper	-9.7015
▁bomb	-9.70245
▁tettsted	-9.7027
▁vind	-9.70331
▁vist	-9.7035
▁uni	-9.7038
gate	-9.70389
hn	-9.70405
strøm	-9.70462
industri	-9.7049
▁lage	-9.7052
pal	-9.70552
gå	-9.70594
▁fjellet	-9.70649
▁lund	-9.70742
▁studenter	-9.70788
▁spill	-9.70798
▁utviklingen	-9.70859
▁dam	-9.70872
▁ky	-9.70874
løpet	-9.70899
▁behandling	-9.70976
samisk	-9.7098
▁michael	-9.70987
▁publisert	-9.70987
▁richard	-9.70988
▁betegnelsen	-9.71013
▁video	-9.71037
ves	-9.71069
▁led	-9.71176
lære	-9.71204
▁opphav	-9.71243
▁redaktør	-9.71342
▁femte	-9.71347
▁sel	-9.71352
och	-9.71354
rød	-9.71495
▁rask	-9.71502
▁ven	-9.71539
stor	-9.71584
▁offentlig	-9.71646
renn	-9.71721
az	-9.71732
▁ole	-9.71761
▁oppdag	-9.71764
gy	-9.71843
▁kast	-9.71855
dagen	-9.71917
▁fv	-9.7193
▁univers	-9.71938
▁international	-9.71958
gata	-9.71991
▁jordbruk	-9.72007
▁landskapet	-9.72052
▁naturlig	-9.72067
▁kroner	-9.72091
▁huset	-9.72098
▁larven	-9.7213
▁hill	-9.72131
rør	-9.72137
må	-9.72154
▁anna	-9.72157
▁typer	-9.72159
▁slå	-9.72211
riket	-9.72235
ali	-9.72302
▁lære	-9.72364
▁hører	-9.724
▁sti	-9.72401
▁artist	-9.72421
▁kam	-9.72439
medlem	-9.72458
middel	-9.7246
▁pra	-9.72477
▁spiss	-9.72486
▁forsknings	-9.72517
▁irland	-9.72517
▁landsbyen	-9.72524
▁metal	-9.72553
haug	-9.72583
▁område	-9.72589
kov	-9.72592
94	-9.72626
ull	-9.72649
▁byer	-9.72755
▁anders	-9.72758
skriv	-9.72758
▁vannet	-9.72842
arter	-9.72898
▁voksne	-9.72939
▁stortinget	-9.72942
▁1949	-9.72951
▁fredrik	-9.72953
▁bronse	-9.72953
bru	-9.72995
brun	-9.73003
voll	-9.73026
gaard	-9.73105
grupper	-9.73113
▁soldater	-9.73142
▁kalle	-9.73142
grav	-9.73144
▁innført	-9.73193
▁kilde	-9.73293
▁venn	-9.73299
▁prosjekt	-9.73324
▁aust	-9.73377
kraftverk	-9.73479
▁bygg	-9.7348
saker	-9.735
▁aktivitet	-9.73531
illa	-9.73723
▁app	-9.73765
▁kjøpte	-9.7381
▁jorden	-9.73861
81	-9.73913
▁profesjonell	-9.73928
▁pasient	-9.73929
▁gjelder	-9.73929
▁bokstav	-9.7393
▁2017	-9.7395
▁spania	-9.73953
oni	-9.73979
▁45	-9.74082
▁ung	-9.74128
pel	-9.74263
ér	-9.74286
▁sterk	-9.74309
ball	-9.74321
▁økt	-9.74334
▁katolske	-9.74337
mennene	-9.74414
▁innsjøen	-9.74442
▁win	-9.74503
▁fy	-9.74517
▁offiser	-9.74534
▁mun	-9.74541
02	-9.74558
bygging	-9.74608
ledd	-9.74661
fugl	-9.74667
▁elev	-9.74693
iti	-9.74737
kjær	-9.74796
▁midten	-9.74867
▁jag	-9.74899
▁kristen	-9.74912
istene	-9.74915
▁rapport	-9.74929
▁united	-9.7493
▁erobre	-9.74952
▁teori	-9.74978
▁haug	-9.74985
ado	-9.74996
▁bodde	-9.75039
49	-9.75045
rsom	-9.75087
makt	-9.75118
▁etablerte	-9.75158
▁undersøkelse	-9.75221
▁vanlige	-9.75281
▁begynner	-9.75348
▁merke	-9.75367
▁stig	-9.75379
forfatter	-9.75479
▁element	-9.75484
delt	-9.75485
61	-9.75519
▁reg	-9.75614
farge	-9.75706
46	-9.75743
54	-9.75796
fang	-9.75867
▁økonomiske	-9.75868
iller	-9.75947
▁1936	-9.7595
▁skjedde	-9.75958
▁zo	-9.75968
▁ram	-9.76065
▁presse	-9.76066
▁riksvei	-9.76071
▁32	-9.7608
▁gor	-9.76191
trekning	-9.76257
▁sort	-9.76267
bare	-9.7627
press	-9.76302
▁jean	-9.76309
▁vinner	-9.76321
våg	-9.76449
▁slave	-9.76453
møte	-9.7653
win	-9.76585
▁bane	-9.76604
kanten	-9.76679
motor	-9.76793
▁nevnt	-9.76843
▁hed	-9.76945
▁finne	-9.7695
▁foreldre	-9.7696
▁vokste	-9.76977
▁saint	-9.76998
▁jarl	-9.77
strand	-9.77016
▁vir	-9.7704
л	-9.77069
▁havet	-9.77112
75	-9.77131
▁fabrikk	-9.77152
▁nes	-9.77381
▁interesse	-9.77399
▁student	-9.77489
kors	-9.77503
ifi	-9.77605
▁vinge	-9.77643
komst	-9.77732
kysten	-9.77789
70	-9.77843
16	-9.77847
▁hertug	-9.77984
▁selvstendig	-9.7799
▁religion	-9.7799
▁jødisk	-9.77991
hastighet	-9.78007
▁benyttes	-9.78051
ias	-9.78068
▁løper	-9.78113
63	-9.7814
▁sykehus	-9.78267
stø	-9.78281
▁oppdrag	-9.78297
iver	-9.78306
▁stilling	-9.78346
▁studier	-9.78361
tis	-9.78366
løy	-9.78451
serien	-9.78501
95	-9.78506
▁politikk	-9.78527
fjell	-9.78593
▁arabisk	-9.7862
ming	-9.78625
▁grunnlag	-9.78651
ij	-9.78715
bevegelsen	-9.7885
▁livs	-9.78928
▁uavhengig	-9.78931
▁ting	-9.78972
▁mik	-9.79015
▁1953	-9.79031
▁tilgjengelig	-9.79032
▁produsent	-9.79042
▁lansert	-9.79051
▁cro	-9.79052
▁län	-9.79071
▁gjennomført	-9.79161
ón	-9.79175
▁forsker	-9.79204
▁kval	-9.79204
▁jøde	-9.79346
▁debutert	-9.79392
▁stan	-9.79399
senteret	-9.7941
▁kvinnelig	-9.79415
▁maur	-9.79453
▁sn	-9.79573
nær	-9.79651
avdeling	-9.79713
ild	-9.7979
▁listen	-9.79856
▁trafikk	-9.79892
stedet	-9.79925
▁sli	-9.79976
▁dukke	-9.79977
▁rein	-9.80029
▁formel	-9.80033
▁flu	-9.80043
gin	-9.80057
▁primær	-9.80085
▁ekteskap	-9.80087
▁dynastiet	-9.80093
▁1961	-9.80097
▁college	-9.80102
▁ep	-9.8013
▁modell	-9.80168
▁flyplass	-9.8028
▁organisert	-9.80343
ella	-9.80379
▁gy	-9.80379
▁snø	-9.80442
▁jakt	-9.80443
▁kristne	-9.80463
mitt	-9.80501
ob	-9.8063
▁teknologi	-9.80648
59	-9.80782
▁utvidet	-9.80832
▁leir	-9.80972
▁avisen	-9.81044
sar	-9.81054
▁stasjonen	-9.81092
▁trak	-9.8111
73	-9.81136
▁sterke	-9.81145
à	-9.81148
▁fengsel	-9.81148
▁opprinnelse	-9.81148
▁kaptein	-9.81148
▁kjøre	-9.81149
forvaltning	-9.81166
▁spredt	-9.81174
▁tunnel	-9.81223
▁henry	-9.81304
dar	-9.81326
19	-9.81393
69	-9.81472
▁rygg	-9.81495
rolle	-9.81551
▁up	-9.81696
▁ansatte	-9.8175
▁omtale	-9.81761
mur	-9.81775
▁cu	-9.81795
festival	-9.81833
stro	-9.81842
stol	-9.81849
▁områdene	-9.81852
▁bay	-9.81889
▁struktur	-9.81895
▁150	-9.81955
▁star	-9.81966
æl	-9.81981
holdt	-9.82032
▁bidra	-9.82046
▁wei	-9.821
▁tids	-9.82128
▁inspirert	-9.82223
▁school	-9.82224
▁cirka	-9.82224
▁episode	-9.82224
▁hovedrollen	-9.82226
▁antenne	-9.82233
▁charles	-9.82257
▁våren	-9.82327
▁systemet	-9.82363
can	-9.82376
runn	-9.82386
▁tråd	-9.82393
sø	-9.82546
▁tittel	-9.8257
▁bonde	-9.82625
gler	-9.82674
▁forsvars	-9.82729
25	-9.82896
grense	-9.82915
▁populære	-9.82969
▁tradisjonelle	-9.82981
▁formann	-9.82989
▁bygde	-9.83017
dro	-9.83026
kh	-9.83075
92	-9.83141
gul	-9.83169
vind	-9.83187
øyene	-9.83288
▁mexico	-9.8331
▁berømt	-9.8331
kapasitet	-9.83311
▁yngre	-9.83311
▁østerrike	-9.83313
▁1924	-9.8332
71	-9.83325
▁krets	-9.83368
▁love	-9.83376
▁press	-9.83407
▁eksistere	-9.83422
▁eiendom	-9.83474
▁måneder	-9.83525
▁saken	-9.83538
artikler	-9.83558
▁hente	-9.83614
▁økonomi	-9.83654
▁drive	-9.83769
▁sørlige	-9.83795
98	-9.83908
▁vitenskapelig	-9.83911
matisk	-9.84018
zy	-9.84059
▁operasjon	-9.84088
kultur	-9.84099
▁fordelt	-9.84109
▁brev	-9.84111
▁tog	-9.84153
stått	-9.84165
▁polen	-9.84233
91	-9.8427
▁lignende	-9.84326
▁elv	-9.84398
▁fullstendig	-9.84409
▁ytterligere	-9.84409
▁bakgrunn	-9.84409
▁hurtig	-9.8441
▁forteller	-9.8443
▁omtalt	-9.84452
15	-9.84521
parten	-9.84658
områdene	-9.84665
kritiker	-9.84705
▁kunnskap	-9.84717
▁tegnet	-9.84748
vannet	-9.84752
▁endelig	-9.84861
con	-9.8489
meter	-9.84895
▁frukt	-9.8496
09	-9.84999
ora	-9.85027
▁kontrakt	-9.85035
▁stand	-9.851
skudd	-9.85165
dikt	-9.85174
ios	-9.85249
▁kap	-9.85334
▁frank	-9.85337
▁sovjetisk	-9.85369
▁korea	-9.85397
▁hage	-9.85429
ο	-9.8552
▁wilhelm	-9.8552
▁bronsemedalje	-9.85532
▁1956	-9.85535
▁ph	-9.85538
▁lev	-9.85649
▁gjenopp	-9.8566
▁betegne	-9.85691
▁vitenskap	-9.85731
▁gold	-9.85769
▁studio	-9.85812
▁motsetning	-9.85813
▁py	-9.8583
▁avis	-9.85844
mod	-9.85865
▁nordisk	-9.86109
▁instrument	-9.8615
▁old	-9.86178
▁frihet	-9.86221
våpen	-9.86298
gir	-9.86354
cha	-9.86423
ordenen	-9.86445
▁stoppe	-9.86561
▁trener	-9.86562
finn	-9.86627
▁original	-9.86641
ō	-9.86644
ī	-9.86644
▁beijing	-9.86644
▁1962	-9.86659
08	-9.86677
▁ukjent	-9.867
▁front	-9.86721
car	-9.86756
▁ledende	-9.86759
▁streng	-9.86762
▁kart	-9.86768
low	-9.86774
к	-9.8678
▁sau	-9.86781
▁blokk	-9.86788
spekt	-9.8689
▁salme	-9.86894
▁forskjell	-9.86946
▁normalt	-9.87022
▁oppsto	-9.87063
fot	-9.87124
▁dog	-9.87173
▁north	-9.87192
▁rekord	-9.87214
hard	-9.87216
▁åpning	-9.87264
▁orkester	-9.87281
well	-9.87326
▁bud	-9.87341
▁styrkene	-9.87363
▁tam	-9.87373
▁landsby	-9.87407
▁grunnlegge	-9.87417
▁overfor	-9.87423
▁sluttet	-9.87455
▁kg	-9.87456
▁bord	-9.87624
▁edderkopp	-9.87686
▁andreplass	-9.87776
▁deriblant	-9.8778
▁konflikt	-9.8778
д	-9.8778
▁1912	-9.87792
▁regjerings	-9.87793
▁fungere	-9.87796
▁forretnings	-9.87808
▁rep	-9.87813
▁hjelpe	-9.87817
▁unntak	-9.87819
▁johann	-9.87877
▁blo	-9.87899
▁bryst	-9.88028
▁bytte	-9.8814
▁kil	-9.88143
gal	-9.88156
▁danse	-9.88188
▁stål	-9.88238
▁formål	-9.88239
▁fordel	-9.88287
▁syr	-9.88334
kka	-9.88367
72	-9.88386
▁oversatt	-9.88422
▁damp	-9.88437
▁valget	-9.88464
▁helge	-9.88502
▁liga	-9.88549
64	-9.88561
▁nr	-9.88662
▁prins	-9.88675
▁hotell	-9.88688
ban	-9.88728
▁fn	-9.8873
byrå	-9.88921
▁california	-9.8893
▁folketelling	-9.8893
▁stoff	-9.88931
▁melodi	-9.88942
▁1957	-9.88946
▁sim	-9.88946
▁leker	-9.88951
▁erklært	-9.88981
verdig	-9.89061
▁nasjon	-9.89071
former	-9.89072
▁effektiv	-9.89085
▁bestod	-9.89179
leng	-9.89224
▁bispedømme	-9.89239
▁kalte	-9.89343
skij	-9.89433
▁landslag	-9.89484
▁ö	-9.89502
▁masse	-9.89662
person	-9.89728
handler	-9.89753
plassen	-9.89814
▁stamme	-9.89983
▁tang	-9.90013
▁etterfulgt	-9.90092
▁joseph	-9.90092
▁passasjer	-9.90093
▁nærmere	-9.90099
▁tegneserie	-9.90101
▁1932	-9.90103
ов	-9.90104
dommer	-9.90121
▁max	-9.90128
ifisering	-9.90139
plante	-9.90162
▁bære	-9.90212
▁kontor	-9.90277
▁nasjonalpark	-9.90379
dekk	-9.90451
▁mill	-9.90552
▁grunnlegger	-9.90615
gjort	-9.90676
35	-9.90688
▁politiet	-9.90733
▁arts	-9.9079
▁østlig	-9.90828
▁markert	-9.90881
kilden	-9.90923
18	-9.90943
▁kommuner	-9.90956
slutt	-9.90988
mesterskapet	-9.91072
hode	-9.91114
▁larvene	-9.91126
▁ran	-9.91165
▁toppen	-9.91181
▁folket	-9.91186
▁forsvaret	-9.91192
com	-9.91257
▁1941	-9.91269
▁south	-9.91277
▁1908	-9.91283
ada	-9.91283
▁oscar	-9.9129
▁daniel	-9.91329
▁rør	-9.91422
▁hon	-9.91425
▁inkluderer	-9.91442
▁horn	-9.91535
snitt	-9.91581
▁log	-9.91648
slekt	-9.91659
▁problem	-9.91701
▁gram	-9.91702
▁verket	-9.91729
verdi	-9.91731
▁internasjonalt	-9.91762
▁cal	-9.918
ctor	-9.91833
▁arn	-9.91853
▁vid	-9.91877
alitet	-9.9192
▁single	-9.92043
36	-9.92094
virksomhet	-9.92165
▁rollen	-9.92188
▁bølge	-9.92336
skift	-9.92357
▁sko	-9.92375
sekretær	-9.92442
ū	-9.92459
▁league	-9.92459
▁objekt	-9.92459
▁club	-9.9246
▁sekund	-9.92463
yang	-9.92463
▁flertall	-9.92466
▁1939	-9.92471
▁mytologi	-9.92472
▁premier	-9.92477
▁republikken	-9.92484
▁veldig	-9.9251
▁nærheten	-9.92544
▁atom	-9.92582
▁mikro	-9.92636
▁dj	-9.92765
▁nordland	-9.928
hm	-9.92838
▁mø	-9.92866
▁medisin	-9.92882
▁glass	-9.92973
▁ekstra	-9.92973
▁flåte	-9.92987
▁private	-9.9305
▁fisk	-9.93111
levende	-9.93124
▁skriver	-9.93231
▁kjønn	-9.93261
vitenskap	-9.93347
forskning	-9.9341
▁tø	-9.93425
stasjonen	-9.93425
▁sten	-9.93433
▁spillet	-9.93451
mund	-9.9357
▁kristian	-9.93608
følgende	-9.93647
▁jacob	-9.93666
▁scott	-9.93666
▁norrøn	-9.93668
▁oversikt	-9.93671
▁tidsskrift	-9.93675
▁1919	-9.93679
▁blue	-9.9371
▁straffe	-9.93732
▁bibel	-9.93736
vinner	-9.93758
▁filmer	-9.93897
▁snu	-9.93953
▁likhet	-9.94088
▁middelalderen	-9.94094
ansk	-9.94117
hov	-9.94135
▁kropps	-9.94299
klubben	-9.94419
uch	-9.94453
▁øyene	-9.94463
▁former	-9.94472
dahl	-9.94478
ledning	-9.94486
drakt	-9.94506
gjøre	-9.94514
▁ankom	-9.9453
▁akademi	-9.94556
finalen	-9.9466
føl	-9.94665
formen	-9.94666
▁internasjonal	-9.94801
▁innflytelse	-9.94879
▁1928	-9.94884
▁kategori	-9.94884
▁moskva	-9.94884
▁1958	-9.94901
▁1942	-9.94901
mmet	-9.94911
▁sider	-9.94962
rup	-9.94998
▁utga	-9.95053
sket	-9.95114
▁sports	-9.95122
▁athen	-9.95195
▁kh	-9.95229
vold	-9.95249
▁skille	-9.95301
▁kreve	-9.95306
▁viking	-9.9537
▁kanal	-9.95391
▁stift	-9.95395
▁motiv	-9.95403
▁spørsmål	-9.95409
7	-9.95489
mond	-9.95504
bakk	-9.95647
pet	-9.95648
kirken	-9.95801
prosess	-9.95856
▁skiller	-9.95865
ough	-9.9599
▁tårn	-9.95994
▁vokal	-9.96068
▁publikum	-9.96118
▁vietnam	-9.96118
▁alkohol	-9.96118
▁kombinert	-9.96119
▁1933	-9.9613
▁1947	-9.9614
▁behandle	-9.96157
▁skilt	-9.96172
▁nevnes	-9.96222
▁flagg	-9.96257
fabrikk	-9.96348
▁rund	-9.96424
▁amt	-9.96461
▁vent	-9.96469
▁lavere	-9.96487
▁tverr	-9.96528
▁uke	-9.9654
▁mobil	-9.96551
sport	-9.96557
▁dor	-9.96614
▁andreas	-9.96666
▁troll	-9.96715
▁ya	-9.96764
syre	-9.96801
▁song	-9.96835
oma	-9.96859
▁bydelen	-9.9687
setting	-9.96964
▁ref	-9.97002
kirke	-9.97006
▁runde	-9.97012
▁stemmer	-9.97017
▁rå	-9.97035
▁avstand	-9.97072
samfunn	-9.97143
miljø	-9.97154
▁ola	-9.9722
▁spansk	-9.97241
lege	-9.97244
43	-9.97252
▁sier	-9.9728
▁hunnen	-9.97284
▁enda	-9.97345
slette	-9.97356
▁offisielt	-9.97368
▁tilhørte	-9.97368
▁award	-9.97369
dynasti	-9.97369
▁otto	-9.97383
▁1910	-9.97395
▁lån	-9.97412
eksamen	-9.97468
▁angeles	-9.97483
▁banen	-9.97528
▁yu	-9.97575
12	-9.97633
tropp	-9.97654
▁spanske	-9.97659
▁human	-9.97755
▁arne	-9.97908
▁bon	-9.97973
hild	-9.97979
▁retts	-9.98085
▁kjerne	-9.98162
bein	-9.98206
▁innhold	-9.98281
house	-9.98287
▁buss	-9.9829
▁villa	-9.98292
▁sw	-9.98295
park	-9.98303
▁synes	-9.98405
▁måned	-9.98406
bånd	-9.98425
prosjekt	-9.98431
▁museet	-9.98453
▁elve	-9.98483
▁utføre	-9.98501
▁aksept	-9.98634
▁skottland	-9.98634
▁sjelden	-9.98634
▁gustav	-9.98635
▁allierte	-9.98635
▁frederik	-9.98641
▁1951	-9.98651
▁arbeiderpartiet	-9.98654
▁kjemisk	-9.98658
▁videregående	-9.98673
dam	-9.98683
forhold	-9.98693
▁båten	-9.9879
enberg	-9.98862
▁debut	-9.98881
▁sønnen	-9.98962
▁oftest	-9.99037
▁cur	-9.99042
▁revolusjon	-9.99082
▁rosen	-9.99125
krig	-9.99139
▁poet	-9.99237
▁selge	-9.99284
▁fløy	-9.99314
oksid	-9.99377
▁virkelig	-9.99601
handel	-9.9961
▁bunn	-9.99779
▁markeds	-9.9979
ł	-9.99916
▁administrativ	-9.99916
▁records	-9.99916
▁tilknytning	-9.99916
▁himmel	-9.99917
▁ridder	-9.99923
▁statlig	-9.99927
▁kilder	-9.99941
▁protest	-9.99941
▁lengst	-9.99945
▁wh	-9.99995
▁cel	-10.0006
▁plassering	-10.0011
▁eksempelvis	-10.0013
▁ulik	-10.0015
gli	-10.0017
fylt	-10.0017
▁jack	-10.0018
▁organisasjoner	-10.0018
▁rute	-10.002
▁tilby	-10.0029
ische	-10.0033
▁arve	-10.0034
▁ansvarlig	-10.0035
slav	-10.0037
99	-10.0042
rygg	-10.0043
deler	-10.0046
fekt	-10.0047
▁poly	-10.0054
▁klubb	-10.0057
▁bærer	-10.0061
▁bibliotek	-10.0064
una	-10.007
▁utdannelse	-10.0072
▁normal	-10.0084
▁innsjø	-10.0089
▁fyrst	-10.009
▁600	-10.0092
▁kjøpe	-10.0101
trafikk	-10.0105
hånd	-10.0105
▁vekk	-10.0105
strekker	-10.0116
▁initiativ	-10.0121
▁installert	-10.0121
▁oblast	-10.0122
▁innsats	-10.0122
▁inneholdt	-10.0122
▁magnus	-10.0122
▁1934	-10.0123
▁1955	-10.0124
▁skotsk	-10.0124
▁konkurransen	-10.0124
▁varierer	-10.0127
▁forvingen	-10.0133
serie	-10.0134
plikt	-10.0135
▁albert	-10.0135
▁1500	-10.0136
▁bosetning	-10.0136
▁resultatet	-10.0138
▁koll	-10.014
▁ari	-10.0146
▁harry	-10.015
forsamling	-10.0158
fjellene	-10.0163
▁administrasjons	-10.0167
kjemi	-10.0168
▁grunnla	-10.0172
▁formen	-10.0184
▁besto	-10.0191
▁pet	-10.0193
▁organisasjon	-10.0194
▁camp	-10.0196
▁gjeste	-10.0199
▁irsk	-10.0199
▁ungdom	-10.0212
pur	-10.0214
▁fjord	-10.0218
▁nam	-10.0224
▁bob	-10.023
▁bredt	-10.0236
▁kapp	-10.0239
født	-10.0241
post	-10.0244
▁brenn	-10.0247
▁svi	-10.0247
▁såkalt	-10.0251
▁parken	-10.0252
▁kai	-10.0252
▁eventyr	-10.0253
▁nødvendig	-10.0253
▁redusert	-10.0253
85	-10.0254
▁lufthavn	-10.0254
▁edvard	-10.0254
▁1943	-10.0254
▁1954	-10.0255
▁diplomat	-10.0256
▁uttalt	-10.0261
oth	-10.0263
henger	-10.0264
▁will	-10.0266
lid	-10.0272
▁cy	-10.0275
etter	-10.0279
plate	-10.0284
▁indisk	-10.0285
▁æres	-10.0291
▁overført	-10.0292
styrke	-10.0293
76	-10.0295
head	-10.0297
▁innspilling	-10.0301
skipet	-10.0303
▁svak	-10.0304
▁pin	-10.031
▁eli	-10.0315
jan	-10.0318
slaget	-10.0319
feltet	-10.0336
hai	-10.034
11	-10.034
▁dekker	-10.0343
kop	-10.0347
▁penge	-10.035
▁bevis	-10.0351
▁tettstedet	-10.0358
▁dobbelt	-10.0359
▁provins	-10.0363
produkt	-10.0375
bøker	-10.0382
▁syke	-10.0385
▁ishockey	-10.0386
konstruksjon	-10.0386
▁østerriksk	-10.0386
▁fattig	-10.0387
▁royal	-10.0387
▁1923	-10.0388
▁levert	-10.0393
innen	-10.0398
▁avhengig	-10.0399
▁kok	-10.0402
jord	-10.0402
▁magnet	-10.0406
ity	-10.0409
▁sveits	-10.0411
▁33	-10.0415
▁tidlige	-10.0448
▁samfunnet	-10.0448
▁handel	-10.0451
▁nettverk	-10.0451
▁menighet	-10.0456
▁programmet	-10.0462
rick	-10.0463
▁sent	-10.0464
17	-10.0468
▁rh	-10.0468
▁kommun	-10.0471
▁ansatt	-10.0474
▁mary	-10.0475
▁hode	-10.0479
▁vær	-10.0481
▁utvikle	-10.0481
38	-10.0487
bakken	-10.0496
▁endre	-10.0501
▁kreft	-10.0501
trinn	-10.0504
▁typen	-10.0506
tunnel	-10.0512
program	-10.0512
løst	-10.0517
typen	-10.052
▁vulkan	-10.0522
▁jakob	-10.0522
▁referere	-10.0523
39	-10.0524
▁skaffe	-10.0525
visning	-10.0527
▁nedlagt	-10.0532
høgskole	-10.0537
fyll	-10.0537
tallet	-10.054
▁demo	-10.054
fotograf	-10.0545
▁esp	-10.0555
partner	-10.0556
▁skj	-10.0558
▁underlagt	-10.0558
dorf	-10.057
▁solo	-10.0573
▁hin	-10.0586
▁kari	-10.0589
45	-10.0593
▁anton	-10.0593
▁sende	-10.0599
korps	-10.06
97	-10.0601
▁produserer	-10.0604
96	-10.0607
▁tau	-10.0608
▁middelalder	-10.061
▁samarbeidet	-10.0611
▁lese	-10.0631
▁kvi	-10.0631
▁solgte	-10.0638
▁endringer	-10.0639
republikk	-10.0653
▁kritikk	-10.0659
▁arendal	-10.0659
▁nedenfor	-10.0659
▁1938	-10.066
zon	-10.066
▁1959	-10.066
▁stortings	-10.0667
opplysning	-10.067
27	-10.0671
aktiv	-10.0671
fyr	-10.0677
32	-10.0686
▁may	-10.0686
▁tolv	-10.069
▁status	-10.0703
cal	-10.0704
ammen	-10.0712
▁timer	-10.0722
vald	-10.0723
▁redd	-10.0724
ood	-10.0746
stig	-10.0749
на	-10.0749
▁linjen	-10.0757
▁pala	-10.0778
▁od	-10.0779
▁konkurranse	-10.0785
distrikt	-10.0785
forbindelse	-10.079
fil	-10.0796
▁byprefektur	-10.0797
▁regissert	-10.0797
▁smith	-10.0798
▁nedbør	-10.0798
▁brensel	-10.0798
21	-10.0798
▁definert	-10.0798
▁medlemmene	-10.0798
▁avsluttet	-10.0798
▁utnytte	-10.0799
▁blomster	-10.0799
▁skøyte	-10.08
▁sverd	-10.0802
▁drikke	-10.0802
leir	-10.0803
merke	-10.0803
awa	-10.0804
44	-10.0811
▁stol	-10.0812
hopp	-10.0817
▁agder	-10.0819
▁jule	-10.082
▁bånd	-10.082
▁sho	-10.0822
▁morgen	-10.0824
reise	-10.0827
▁sunn	-10.0828
▁nedre	-10.0831
grep	-10.0832
▁tan	-10.0839
▁beskrevet	-10.0839
▁buk	-10.0845
24	-10.0848
formede	-10.086
▁gruve	-10.086
▁ark	-10.0861
▁dun	-10.0871
▁språket	-10.0876
▁tekster	-10.0891
▁utsatt	-10.0896
34	-10.0897
▁søke	-10.0898
▁riket	-10.0902
▁bevege	-10.0924
ual	-10.0928
politikk	-10.0931
▁qui	-10.0934
▁utgangspunkt	-10.0938
▁tilknytte	-10.0938
▁washington	-10.0938
▁registrert	-10.0938
▁verdenscup	-10.0938
▁belgia	-10.0938
▁hustru	-10.0939
▁stadion	-10.0939
▁faktisk	-10.0939
▁1911	-10.094
▁vannkraftverk	-10.0942
▁kapell	-10.0946
▁reserve	-10.0947
▁forlag	-10.0948
▁hovedsak	-10.0952
89	-10.0955
▁lønn	-10.0955
▁team	-10.0958
▁1700	-10.096
▁tale	-10.096
▁bosatt	-10.0962
26	-10.0964
▁kongens	-10.0976
▁problemer	-10.0979
▁ære	-10.0981
bank	-10.0983
▁az	-10.0988
▁mini	-10.0996
▁artikkel	-10.0998
▁fø	-10.1
▁kandidat	-10.101
▁undervisning	-10.1011
▁verker	-10.1037
▁vakt	-10.1039
▁venner	-10.1048
▁fremme	-10.1056
feld	-10.1062
livet	-10.1064
▁latinsk	-10.1065
▁driver	-10.1072
▁hve	-10.1074
maskin	-10.108
▁music	-10.108
▁eksempler	-10.1081
▁argument	-10.1081
▁service	-10.1081
▁hendelser	-10.1081
▁ungarn	-10.1081
▁beregne	-10.1081
▁muslim	-10.1081
plattform	-10.1082
▁1918	-10.1083
▁1937	-10.1084
▁fysisk	-10.1087
▁luther	-10.1088
kompani	-10.1088
▁anledning	-10.1089
liste	-10.1089
▁bydel	-10.1093
▁forbund	-10.1097
▁overflate	-10.11
▁anlegg	-10.1102
avtale	-10.1108
aria	-10.1118
▁handler	-10.1121
▁fotballklubb	-10.1121
▁celle	-10.1128
▁legend	-10.113
språklig	-10.1132
▁master	-10.114
▁stillingen	-10.1142
▁forble	-10.1144
▁gun	-10.1157
▁elever	-10.1157
▁brand	-10.1165
kort	-10.1166
styrt	-10.1168
rommet	-10.1169
▁fan	-10.117
▁stri	-10.1186
uz	-10.1188
▁sideelv	-10.1194
▁bass	-10.1195
▁demokratisk	-10.1201
▁intern	-10.1208
▁bakken	-10.1212
▁grøn	-10.1213
▁sosiale	-10.1219
produsent	-10.1225
▁1906	-10.1226
▁positiv	-10.1226
gymnas	-10.1226
▁generelt	-10.1226
▁gått	-10.1227
front	-10.1228
▁telefon	-10.1228
halvøya	-10.1228
▁etterfølger	-10.1228
▁grov	-10.1235
vogn	-10.1238
▁butikk	-10.1239
▁øvrige	-10.1239
▁score	-10.124
▁jente	-10.1247
▁hellige	-10.1253
hon	-10.1262
▁niels	-10.1264
▁fc	-10.1268
▁tusen	-10.1273
▁vers	-10.1274
▁filosofi	-10.1279
▁forbundet	-10.128
▁stam	-10.1295
▁skapte	-10.1299
▁terri	-10.1299
33	-10.1301
▁wall	-10.1302
▁dekket	-10.1304
▁advokat	-10.1304
▁tilbud	-10.1312
▁bou	-10.1313
▁800	-10.1313
▁funn	-10.1314
aya	-10.1317
▁tone	-10.1318
prakt	-10.1326
▁green	-10.1328
grensen	-10.1331
▁økte	-10.1332
▁finn	-10.1344
koll	-10.1351
▁utstyr	-10.1351
▁teologi	-10.136
▁ali	-10.1361
klær	-10.1372
▁kommunikasjon	-10.1373
▁edward	-10.1373
▁introdusert	-10.1373
▁konkurrere	-10.1373
▁dollar	-10.1373
▁geografisk	-10.1373
▁dør	-10.1374
▁hemmelig	-10.1377
teri	-10.1378
havn	-10.1382
23	-10.1383
fell	-10.1384
▁arkitektur	-10.1387
bebyggelse	-10.1391
▁forekommer	-10.1398
▁isteden	-10.1399
hjem	-10.14
▁planter	-10.1401
▁tvang	-10.1403
distans	-10.1404
▁lee	-10.1407
▁bidrag	-10.1415
▁storm	-10.1416
▁orient	-10.142
▁american	-10.1428
▁eva	-10.1431
familie	-10.1442
botn	-10.1449
rand	-10.1455
▁sammenligne	-10.1457
▁38	-10.1462
▁mono	-10.1465
▁utvalg	-10.1471
▁lokaliser	-10.1479
▁avtale	-10.1481
▁produksjonen	-10.1501
messige	-10.1513
oppgave	-10.1519
▁1905	-10.1522
▁guvernør	-10.1522
▁utbredt	-10.1522
▁jørgen	-10.1522
hjørne	-10.1523
▁inngår	-10.1523
▁landbruks	-10.1523
▁utenlandsk	-10.1524
▁finnmark	-10.1524
▁1935	-10.1524
▁high	-10.1528
kontor	-10.1533
▁modellen	-10.1533
▁kode	-10.154
▁grei	-10.1542
▁gitarist	-10.1552
▁moren	-10.156
rekke	-10.1561
▁kommunal	-10.1562
▁36	-10.1566
▁inge	-10.1567
▁fantes	-10.1576
▁cra	-10.1582
▁free	-10.1592
vinger	-10.1596
▁sikkerhets	-10.1604
▁fylket	-10.1606
▁34	-10.1607
▁sentralt	-10.1614
▁nm	-10.1621
▁tour	-10.163
kasse	-10.1633
▁loven	-10.1638
▁din	-10.1638
▁comp	-10.1643
▁deles	-10.1643
▁øyne	-10.1658
▁versjonen	-10.1665
▁utgi	-10.167
▁svar	-10.1671
▁1904	-10.1674
▁dialekt	-10.1674
▁liberal	-10.1675
▁tradisjonel	-10.1675
kjent	-10.1677
▁fullført	-10.1678
▁svømme	-10.168
parken	-10.1681
strøk	-10.1681
▁frykt	-10.1683
▁hersker	-10.1683
kjørt	-10.1685
▁armé	-10.1691
▁show	-10.1695
▁sær	-10.1695
▁kjøpt	-10.1697
▁75	-10.17
▁dato	-10.1711
svarer	-10.1718
▁stabil	-10.1719
▁tykk	-10.1721
▁junior	-10.1733
foss	-10.1746
▁salg	-10.1752
wan	-10.1774
▁trær	-10.1786
fjellet	-10.1791
▁gil	-10.1792
▁oh	-10.1801
løsning	-10.1805
▁ferd	-10.1807
gått	-10.181
▁myk	-10.1816
betegnelse	-10.1822
▁bortset	-10.1824
ß	-10.1827
▁dokumenter	-10.1828
▁praksis	-10.1828
▁umiddelbar	-10.1828
▁ludvig	-10.1828
▁alvorlig	-10.1828
▁bakvingen	-10.1828
▁drammen	-10.1829
kapital	-10.1834
▁riktig	-10.1834
vekst	-10.1839
▁hellas	-10.1846
øvelse	-10.1849
▁ernst	-10.1851
nummer	-10.1852
bukta	-10.1858
▁drap	-10.186
▁styrte	-10.1873
▁adam	-10.1875
▁vindu	-10.1887
nå	-10.1892
▁enkle	-10.1893
▁produsere	-10.1895
▁signal	-10.1897
▁driv	-10.1898
▁hammer	-10.1902
turnering	-10.1906
▁dikter	-10.1908
▁bryte	-10.1924
▁manus	-10.193
▁tj	-10.1931
▁skiftet	-10.1934
▁leon	-10.1945
▁andersen	-10.1945
▁prosjektet	-10.1948
▁krever	-10.1949
▁neu	-10.1958
▁utstyrt	-10.1958
▁cho	-10.1964
▁europe	-10.1969
▁meta	-10.1971
▁kammer	-10.1981
▁observa	-10.1983
▁eksperiment	-10.1984
▁xiàn	-10.1984
▁fjær	-10.1984
▁oversettelse	-10.1985
▁belgisk	-10.1985
▁litterær	-10.1986
mønster	-10.1986
▁kvalitet	-10.1988
▁gyld	-10.1991
utvikling	-10.1992
konkurranse	-10.1994
analyse	-10.1997
▁høv	-10.2
▁klassen	-10.2001
▁kjell	-10.2004
▁fol	-10.2012
▁with	-10.2017
▁opphold	-10.2018
bygningen	-10.2025
▁regne	-10.2026
än	-10.2027
▁petter	-10.204
▁skudd	-10.2042
▁hannen	-10.2049
cent	-10.2055
▁uker	-10.2063
▁vingene	-10.2075
▁tilfeller	-10.2076
▁pil	-10.2084
▁melk	-10.2085
▁unna	-10.2089
▁frø	-10.2096
▁vet	-10.2097
▁tryg	-10.2114
bak	-10.2119
▁play	-10.2119
lignende	-10.212
▁700	-10.212
sentre	-10.2131
▁shan	-10.2133
olje	-10.2136
stjerne	-10.2136
blomst	-10.2137
myndighet	-10.214
▁beseiret	-10.2143
▁erkebiskop	-10.2143
▁katedral	-10.2143
▁digital	-10.2143
▁forbedre	-10.2143
▁doktorgrad	-10.2143
▁euro	-10.2143
▁kulturminne	-10.2143
▁brøt	-10.2144
▁1914	-10.2144
▁1916	-10.2145
vandring	-10.2149
▁portrett	-10.2151
▁spenning	-10.2153
▁kjøl	-10.2159
hem	-10.2162
▁1600	-10.2165
mynt	-10.2166
▁kin	-10.2174
▁unngå	-10.2177
modell	-10.2177
▁colo	-10.2178
lé	-10.2178
▁intel	-10.2201
▁blanding	-10.2213
▁kommando	-10.2214
kryss	-10.2216
▁inntekt	-10.2216
firma	-10.2225
▁ansett	-10.2225
▁tempel	-10.2231
▁møll	-10.2234
▁long	-10.224
▁eide	-10.2244
vard	-10.2252
▁begrenset	-10.2258
▁fartøy	-10.2259
▁rose	-10.2268
staten	-10.2278
▁penger	-10.2281
▁eik	-10.2285
forsker	-10.23
kjede	-10.23
▁fødsel	-10.2304
▁antagelig	-10.2304
▁insekter	-10.2304
▁restaurant	-10.2304
▁skulptur	-10.2304
symfoni	-10.2304
▁christoph	-10.2304
▁krevde	-10.2304
admiral	-10.2304
▁interesser	-10.2304
▁islam	-10.2305
▁utgivelsen	-10.2305
▁tidspunkt	-10.2306
▁brown	-10.2307
▁signert	-10.2308
▁bidro	-10.2309
▁bekrefte	-10.2311
▁multi	-10.232
▁skyldes	-10.2322
▁levde	-10.2333
▁tyskerne	-10.2335
▁bilder	-10.2338
▁lord	-10.2341
▁dø	-10.235
▁kraftige	-10.2369
▁ønsker	-10.2391
▁institutt	-10.2394
cul	-10.2396
▁tilfelle	-10.2398
trener	-10.2402
roman	-10.2407
▁coll	-10.2408
able	-10.2414
maleri	-10.2414
ique	-10.2415
tjenesten	-10.2429
▁mening	-10.2436
▁teknikk	-10.2443
tårn	-10.2445
▁kara	-10.2453
▁sørge	-10.2463
▁oppnå	-10.2465
▁fett	-10.2466
▁lyn	-10.2467
▁eventuel	-10.2468
▁kjærlighet	-10.2468
▁kombinasjon	-10.2468
▁tyrkisk	-10.2468
▁arrangere	-10.2468
▁county	-10.2468
▁negativ	-10.2468
▁1929	-10.2469
▁håndball	-10.247
▁godkjent	-10.247
▁vegg	-10.247
▁sølvmedalje	-10.2471
dannelse	-10.2478
▁jiang	-10.2479
▁behov	-10.2486
effekt	-10.2487
bølge	-10.2488
kostnad	-10.2488
▁tørr	-10.2491
▁bull	-10.2495
▁flykte	-10.2495
▁nerve	-10.2507
styrken	-10.2513
▁nordover	-10.2518
▁polar	-10.252
bestemmelse	-10.2525
▁gruppa	-10.2527
▁64	-10.2531
▁dommer	-10.2534
▁elektron	-10.2545
ulf	-10.2552
▁samfunn	-10.2552
▁tradisjonell	-10.2559
▁idrettslag	-10.2559
▁dømt	-10.2562
▁betale	-10.2566
▁1000	-10.2588
▁kha	-10.2598
▁sveitsisk	-10.2604
listen	-10.2605
▁disk	-10.261
▁aur	-10.2622
▁hull	-10.2623
▁vekst	-10.2628
▁nem	-10.2628
000	-10.263
13	-10.2633
▁individ	-10.2635
▁færøyene	-10.2635
▁global	-10.2635
▁innbyggertall	-10.2635
▁nominert	-10.2635
▁ødelagt	-10.2635
▁ytterst	-10.2635
▁bøkene	-10.2635
▁myndighetene	-10.2635
▁årsaken	-10.2636
▁1927	-10.2636
▁telemark	-10.2637
▁løsning	-10.2638
▁uttale	-10.2638
▁debatt	-10.2639
▁bygninger	-10.2641
▁dvs	-10.2641
avisen	-10.2645
bury	-10.2648
▁mangler	-10.265
▁deltaker	-10.265
vikler	-10.2651
▁flytte	-10.2652
sjanger	-10.2655
▁rulle	-10.2661
▁lam	-10.2662
▁hov	-10.2665
pho	-10.2677
▁angrepet	-10.268
▁bygda	-10.2685
▁diktet	-10.2686
▁bio	-10.2686
▁gall	-10.2687
basert	-10.269
▁tilhøre	-10.2701
▁cd	-10.2703
zar	-10.2713
▁minutter	-10.272
mmy	-10.2722
▁synge	-10.2727
▁virket	-10.2728
▁pors	-10.2742
▁flekker	-10.2745
vakt	-10.2746
galleri	-10.2756
▁bakkroppen	-10.2762
▁from	-10.2764
ison	-10.2788
▁wu	-10.2797
▁elver	-10.28
▁hovedkvarter	-10.2804
▁involvert	-10.2804
▁münchen	-10.2804
▁juridisk	-10.2804
▁oppmerksomhet	-10.2804
▁science	-10.2804
▁invasjon	-10.2804
▁utslipp	-10.2805
høyskole	-10.2805
▁mineral	-10.2806
▁utøver	-10.2806
▁anklage	-10.2806
▁rektor	-10.2807
▁varianter	-10.2809
merker	-10.2813
fond	-10.2815
▁vogn	-10.2815
▁sara	-10.2818
museum	-10.2829
▁besøkt	-10.2835
▁bakke	-10.2837
▁sørover	-10.2844
▁kompleks	-10.2849
▁stilt	-10.2852
▁120	-10.2852
▁vokser	-10.2858
▁oc	-10.2862
▁bach	-10.2873
▁39	-10.2879
▁kino	-10.2884
▁stå	-10.2887
start	-10.2908
▁egyptisk	-10.291
øst	-10.2917
▁rek	-10.2933
lipp	-10.2944
▁norman	-10.2946
rute	-10.2948
vari	-10.295
ania	-10.2955
▁pul	-10.2975
▁astronom	-10.2976
▁helsingfors	-10.2976
▁middelsstor	-10.2977
▁hjerne	-10.2977
▁novelle	-10.2977
▁konsul	-10.298
▁operatør	-10.298
▁påvirket	-10.298
▁slank	-10.298
▁alv	-10.2982
faktor	-10.2982
▁respekt	-10.2987
▁eksport	-10.2987
▁vokalist	-10.299
▁kanalen	-10.2998
▁enorm	-10.3001
▁wel	-10.3002
kreft	-10.3002
talende	-10.3003
teknikk	-10.3003
president	-10.3005
wood	-10.3013
ical	-10.3013
▁utbygging	-10.3013
▁inneha	-10.3021
▁44	-10.3024
▁simon	-10.3027
22	-10.3041
▁filip	-10.3052
▁roger	-10.3054
14	-10.3055
▁ross	-10.3055
kammer	-10.3059
perioden	-10.306
▁komedie	-10.3063
▁ønske	-10.3064
▁våg	-10.3077
▁hamar	-10.3124
▁olsen	-10.3138
▁slu	-10.3139
▁skyld	-10.314
▁kalk	-10.3146
forbundet	-10.315
▁nøyaktig	-10.3152
opplæring	-10.3152
▁bodø	-10.3152
▁frivillig	-10.3152
▁dverg	-10.3153
▁street	-10.3154
▁power	-10.3154
▁krysser	-10.3155
▁menneskelig	-10.3155
▁smelte	-10.3157
▁beslutte	-10.3162
▁medisinsk	-10.3181
kommisjon	-10.3182
▁befinne	-10.3186
▁1880	-10.3186
dyktig	-10.3188
▁nav	-10.3189
spiss	-10.3191
tind	-10.3191
angrep	-10.32
▁modern	-10.3224
▁kyr	-10.3228
▁regional	-10.3244
politisk	-10.325
▁thi	-10.3252
▁administrasjon	-10.3268
▁overleve	-10.3274
▁foto	-10.329
wald	-10.3295
▁endring	-10.3297
▁kår	-10.3317
▁tann	-10.3324
▁fakultet	-10.333
▁friedrich	-10.333
▁papir	-10.3331
▁adresse	-10.3331
▁1922	-10.3332
▁håkon	-10.3332
▁1921	-10.3332
▁skarp	-10.3333
▁mengder	-10.3334
aceae	-10.3334
▁hovedkontor	-10.3336
▁sikker	-10.3337
▁aksje	-10.3352
▁boy	-10.3355
▁fritt	-10.336
akademi	-10.3363
▁oppnådd	-10.3364
▁tynn	-10.3366
museet	-10.3369
▁proto	-10.3377
ordning	-10.3377
▁vanligst	-10.3381
behandling	-10.3382
▁ull	-10.3383
▁skinn	-10.3383
▁elektro	-10.3385
alisme	-10.3391
høyde	-10.3392
teater	-10.3395
ington	-10.3404
▁motsatt	-10.3405
▁ingeniør	-10.3419
▁arv	-10.3419
▁kru	-10.3424
▁arab	-10.3428
▁forskjellig	-10.3436
▁hjul	-10.3457
▁sender	-10.3458
▁hydro	-10.3459
▁skapt	-10.3462
▁hul	-10.3466
slått	-10.3488
▁kim	-10.3499
registre	-10.3506
▁mei	-10.351
situasjon	-10.351
friidrettsutøver	-10.3512
▁australsk	-10.3512
▁portugisisk	-10.3512
▁shanghai	-10.3512
▁innbyggerne	-10.3512
▁kristiansand	-10.3512
▁foregår	-10.3512
▁anerkjent	-10.3512
▁generasjon	-10.3513
▁sjette	-10.3513
▁internett	-10.3513
▁summ	-10.3514
komité	-10.3514
▁1925	-10.3515
▁erfaring	-10.3516
▁alfred	-10.3518
▁turneringen	-10.3519
▁troms	-10.3519
▁einar	-10.3523
førsel	-10.3524
flytt	-10.3526
▁east	-10.3528
▁oppløst	-10.3535
▁beholdt	-10.3536
▁tredjeplass	-10.3538
▁rykke	-10.3556
▁håp	-10.3557
▁arrangement	-10.3561
▁sikte	-10.3571
▁fru	-10.3579
▁pensjon	-10.358
▁aksjon	-10.3581
▁spise	-10.3583
forsvar	-10.3588
▁sønd	-10.3599
speil	-10.361
▁kåret	-10.3611
organiser	-10.3615
▁fulgt	-10.3615
▁lykke	-10.3622
cheng	-10.363
▁gli	-10.363
▁gon	-10.3633
▁skuespill	-10.364
▁rand	-10.3644
oid	-10.3661
▁oppfatte	-10.3665
▁wood	-10.3676
▁elite	-10.3682
▁psyko	-10.3682
▁avtalen	-10.3696
belteasteroide	-10.3697
▁vingespenn	-10.3697
▁windows	-10.3697
▁friidrett	-10.3698
▁vesentlig	-10.3698
▁nikola	-10.3698
▁usikker	-10.3698
▁angripe	-10.3698
▁strekningen	-10.3698
▁krysset	-10.3699
▁import	-10.37
▁saga	-10.3703
▁økende	-10.3703
▁forandre	-10.3708
▁hitler	-10.3711
▁ein	-10.3713
kampanje	-10.3722
▁utvikler	-10.3726
▁sankt	-10.3729
▁soldat	-10.3734
▁torg	-10.3734
▁antatt	-10.3735
typer	-10.3736
direktør	-10.3738
▁estland	-10.374
▁næringsliv	-10.3747
▁trø	-10.3755
▁lim	-10.3757
forsyning	-10.376
odden	-10.3765
▁mottatt	-10.3768
▁41	-10.3771
▁velge	-10.3773
▁web	-10.3779
▁dyrke	-10.3782
▁vev	-10.3788
lä	-10.3794
▁kjøp	-10.3797
▁øker	-10.38
▁parlament	-10.3811
▁programmer	-10.3813
▁poli	-10.3814
rykk	-10.3816
forbud	-10.3816
29	-10.3818
▁town	-10.3827
skyting	-10.3842
▁bredde	-10.3861
ruten	-10.3872
▁gui	-10.3886
▁barcelona	-10.3886
▁ortodoks	-10.3886
▁1931	-10.3886
▁tabellen	-10.3886
molekyl	-10.3886
▁ekstrem	-10.3886
▁golf	-10.3887
▁forkortet	-10.3887
kjøring	-10.3887
▁terror	-10.3887
▁datamaskin	-10.3888
▁forårsake	-10.3888
▁1913	-10.3888
▁för	-10.3888
▁stiftelsen	-10.3889
▁molde	-10.3894
▁hensyn	-10.3896
▁arena	-10.3898
▁arkiv	-10.3899
▁uavhengighet	-10.3905
▁santa	-10.3906
▁mord	-10.3908
▁brødrene	-10.3912
bryter	-10.394
bunn	-10.3955
▁parlamentet	-10.3962
▁kommunist	-10.397
▁anker	-10.3974
▁zu	-10.3992
▁ordre	-10.3993
▁steve	-10.3994
▁katolsk	-10.3999
departement	-10.4003
▁dio	-10.4008
▁anse	-10.4032
fred	-10.4049
statue	-10.405
▁velger	-10.4054
▁gw	-10.4067
strup	-10.4077
▁170	-10.4077
vassdraget	-10.4078
▁elisabeth	-10.4078
▁midlertidig	-10.4078
▁komponert	-10.4078
▁fungerte	-10.4079
▁kjøtt	-10.4079
▁monument	-10.4079
kvalifisert	-10.4079
▁nektet	-10.4079
▁karbon	-10.4079
▁1915	-10.4081
▁1907	-10.4081
▁administrere	-10.4084
▁planlagt	-10.4085
▁komposisjon	-10.4085
castle	-10.4085
▁allmenn	-10.4085
▁antikken	-10.4087
▁høyesterett	-10.4089
▁skall	-10.4089
▁piano	-10.409
▁kristiania	-10.4092
▁tildele	-10.4095
▁gjennombrudd	-10.4099
▁panser	-10.4099
▁sammenlagt	-10.4102
traktat	-10.4102
▁skjell	-10.4109
time	-10.4114
studie	-10.4128
▁verksted	-10.4128
▁peder	-10.413
▁hesten	-10.4132
▁hum	-10.4132
▁vig	-10.4133
▁erstatte	-10.4134
lende	-10.4138
▁bell	-10.4151
▁svekke	-10.4159
▁mannlig	-10.4166
▁urban	-10.4201
▁shu	-10.4202
▁arkeologisk	-10.4206
▁etnisk	-10.421
▁bestemme	-10.4215
▁cle	-10.4246
▁søkt	-10.425
vall	-10.4252
årig	-10.4253
▁institut	-10.4268
▁arrestert	-10.4275
▁oksygen	-10.4275
▁akershus	-10.4275
▁portugal	-10.4275
▁vestfold	-10.4275
▁oppstår	-10.4275
▁alexandr	-10.4275
▁egenskaper	-10.4275
▁forklare	-10.4275
▁1926	-10.4276
▁romsdal	-10.4277
▁tømmer	-10.4277
▁myndigheter	-10.4277
▁dominerende	-10.4278
▁tromsø	-10.4279
▁trenger	-10.4279
▁forbudt	-10.428
▁biografi	-10.4282
▁nova	-10.4285
ск	-10.4287
▁stab	-10.4289
▁1899	-10.4293
▁hamburg	-10.4296
▁prinsipp	-10.4297
▁regler	-10.43
▁sovjet	-10.4301
▁blind	-10.4304
litt	-10.4307
psykologi	-10.4317
strømmen	-10.4321
materiale	-10.4326
sønn	-10.4331
rock	-10.4342
▁utenriks	-10.4361
domstol	-10.438
▁whi	-10.4386
▁fry	-10.4388
▁utkom	-10.444
▁160	-10.4443
▁jam	-10.4463
▁qi	-10.4469
pedagog	-10.4473
lokomotiv	-10.4475
ström	-10.4475
frekvens	-10.4475
▁alexander	-10.4475
▁referanse	-10.4475
▁yrkes	-10.4475
▁radikal	-10.4475
▁mektig	-10.4475
▁gunnar	-10.4475
▁autonom	-10.4475
▁fiktiv	-10.4475
regulering	-10.4475
▁rolf	-10.4476
▁definere	-10.4477
▁enhver	-10.4477
▁group	-10.4478
yuan	-10.4481
▁helst	-10.4481
▁tegninger	-10.4481
▁mandat	-10.4483
▁kongress	-10.4486
▁angel	-10.4505
▁christiania	-10.4509
▁takke	-10.4519
▁skjær	-10.4525
regning	-10.453
▁statsråd	-10.4535
▁khan	-10.4537
▁marx	-10.4539
næs	-10.4545
strid	-10.4552
▁hå	-10.4562
ograf	-10.4564
trær	-10.4572
ular	-10.4574
▁julius	-10.4583
kontroll	-10.4596
▁begrep	-10.4622
▁250	-10.467
løytnant	-10.4679
▁færøysk	-10.4679
▁milliarder	-10.4679
▁prefektur	-10.4679
▁1888	-10.4679
disiplin	-10.4679
▁individuell	-10.4679
▁fiolin	-10.4679
▁sprint	-10.4679
▁avdød	-10.468
▁firmaet	-10.468
▁følelse	-10.4681
▁programleder	-10.4682
▁monark	-10.4683
▁tvunge	-10.4684
apparat	-10.4684
▁sykkel	-10.4686
▁tronen	-10.469
▁nød	-10.4691
▁formula	-10.4691
▁nederlag	-10.4693
▁fremført	-10.4694
▁metro	-10.4695
▁1896	-10.4697
▁naturgass	-10.4698
▁naz	-10.4698
▁talent	-10.4698
kommende	-10.4699
▁gradvis	-10.4705
▁white	-10.4709
▁inngikk	-10.4712
▁frei	-10.4725
▁server	-10.4734
▁fortalt	-10.4741
tittel	-10.4746
drive	-10.4762
▁stund	-10.477
god	-10.477
▁little	-10.4771
▁forstå	-10.4772
▁road	-10.4776
gjeng	-10.4777
▁cand	-10.4786
▁vitne	-10.4789
▁høre	-10.4801
kongen	-10.4818
tank	-10.4834
lock	-10.4839
masse	-10.4843
▁ulykk	-10.4843
forsterke	-10.4845
gudinne	-10.4847
▁unik	-10.4847
▁øke	-10.4853
▁føde	-10.4859
periode	-10.4884
▁omdøpt	-10.4887
▁tønsberg	-10.4887
▁reklame	-10.4887
▁arthur	-10.4887
▁mekanisk	-10.4887
▁major	-10.4887
▁føderal	-10.4888
givende	-10.4888
▁social	-10.4889
▁fortellinger	-10.4889
▁väst	-10.4889
▁1902	-10.489
▁antyde	-10.489
▁kongeriket	-10.4891
▁misjons	-10.4892
▁studere	-10.4895
▁avansert	-10.4897
▁nobel	-10.4898
▁utgjorde	-10.49
vík	-10.4908
▁manager	-10.4912
base	-10.4913
▁ulv	-10.492
▁svein	-10.4922
▁walter	-10.4922
▁inndeling	-10.4925
▁beskyttelse	-10.4929
▁kopi	-10.4929
album	-10.4949
struktur	-10.4951
hjul	-10.4952
▁musikalsk	-10.4979
▁hval	-10.498
fartøy	-10.4999
▁sikkerhet	-10.5004
▁cou	-10.5009
▁øre	-10.5024
▁dru	-10.5028
fattet	-10.5053
▁game	-10.506
▁kva	-10.5069
løft	-10.5091
▁aleksander	-10.51
▁ambassadør	-10.51
▁definisjon	-10.51
▁infanteri	-10.51
▁konstruert	-10.51
▁maksimal	-10.51
▁vedlikehold	-10.51
nspirasjon	-10.51
▁konsept	-10.51
▁pakistan	-10.51
▁regissør	-10.51
▁heinrich	-10.51
▁adolf	-10.51
▁thailand	-10.51
▁avgjørende	-10.51
▁trengte	-10.51
▁elleve	-10.5101
▁bedrifter	-10.5101
terminal	-10.5101
materiell	-10.5101
▁halvparten	-10.5103
▁gravlagt	-10.5105
▁bakterie	-10.5108
▁anvende	-10.5108
▁filosof	-10.5112
▁skrå	-10.5115
▁håndverk	-10.5116
▁ungdomsskole	-10.5122
▁victoria	-10.5123
▁great	-10.5124
zel	-10.5125
opera	-10.5129
▁inndelt	-10.5133
▁møre	-10.5138
▁lunge	-10.5139
▁østover	-10.514
▁grønland	-10.5142
▁brent	-10.5147
phy	-10.515
▁katt	-10.5168
funksjon	-10.5169
historisk	-10.5169
utstyr	-10.5177
vang	-10.5181
hed	-10.5185
▁demokrati	-10.5197
▁dramatisk	-10.5216
celle	-10.5226
misjon	-10.5231
sosialistisk	-10.5249
▁verdensmester	-10.5252
▁utarbeide	-10.5273
▁drepe	-10.5294
▁regjer	-10.5294
lich	-10.5315
▁nowiki	-10.5317
▁sportsutøvere	-10.5317
▁1903	-10.5317
▁rådgiver	-10.5317
▁texas	-10.5317
▁hebraisk	-10.5317
▁kobber	-10.5317
▁utseende	-10.5318
▁dominert	-10.5318
▁prinsesse	-10.5319
maker	-10.5319
▁opplevd	-10.5319
▁bau	-10.532
▁bispe	-10.5321
▁michel	-10.5322
▁søndag	-10.5324
▁fredrikstad	-10.5328
▁franz	-10.5328
▁1897	-10.5336
▁1876	-10.5337
▁orgel	-10.5337
▁hvile	-10.5339
▁steg	-10.534
syssel	-10.5341
▁1898	-10.5341
▁1892	-10.5341
bach	-10.5342
▁johnson	-10.5353
bød	-10.5355
▁billed	-10.5362
▁bevisst	-10.5368
▁ferge	-10.5369
▁kommunistparti	-10.537
▁mul	-10.5381
▁persisk	-10.5384
posisjon	-10.5388
gass	-10.5389
▁ligge	-10.5391
temperatur	-10.5391
kjønn	-10.5394
▁høst	-10.5399
town	-10.5416
▁intens	-10.5419
kild	-10.5426
stokk	-10.5433
▁beholde	-10.5443
▁thu	-10.5474
▁out	-10.5475
▁rednings	-10.5488
▁opprette	-10.5499
▁gjennomsnitt	-10.55
▁flest	-10.551
▁israelsk	-10.5515
▁fremmed	-10.5519
utgave	-10.5526
fortelling	-10.5534
▁argentina	-10.5539
▁elizabeth	-10.5539
▁opptrådt	-10.5539
▁evangeli	-10.5539
▁terreng	-10.5539
▁risiko	-10.5539
▁kritisert	-10.554
▁bærum	-10.554
▁valuta	-10.554
▁oberst	-10.554
▁sosialdemokrat	-10.554
▁hindre	-10.554
▁innlemme	-10.5541
▁opptrer	-10.5542
▁foreslått	-10.5542
▁1901	-10.5542
hei	-10.5544
▁kulturell	-10.5545
▁alpin	-10.5547
▁meldt	-10.5548
▁stalin	-10.5551
sdatter	-10.5557
▁humor	-10.5562
▁ferr	-10.5562
▁britis	-10.5563
▁1890	-10.5568
stemning	-10.5568
pleie	-10.5572
vokst	-10.5582
forretning	-10.5585
▁emil	-10.5604
horn	-10.5616
musiker	-10.5619
karriere	-10.5623
▁løfte	-10.5625
▁innerst	-10.5628
ittisk	-10.5629
ekspert	-10.5634
▁river	-10.5636
▁tjenestegjor	-10.5638
kall	-10.5667
blå	-10.568
▁bang	-10.5685
▁munk	-10.5685
orientert	-10.5696
▁lyng	-10.5712
ка	-10.5725
wei	-10.573
▁histori	-10.5735
▁sving	-10.574
▁konstant	-10.5749
▁association	-10.5767
▁douglas	-10.5767
▁ferdinand	-10.5767
▁liverpool	-10.5767
▁intervju	-10.5767
▁tyrkia	-10.5767
▁østfold	-10.5767
▁ovenfor	-10.5767
▁vellykke	-10.5767
▁rogaland	-10.5767
▁ungarsk	-10.5767
▁fangst	-10.5767
▁wolf	-10.5768
▁tallrike	-10.5769
▁tropisk	-10.5769
▁disney	-10.577
▁generell	-10.577
▁sverre	-10.577
▁divers	-10.577
profil	-10.5771
planlegging	-10.5772
▁jackson	-10.5775
▁etappe	-10.578
▁verb	-10.5783
▁ibsen	-10.5784
▁kommunestyre	-10.5788
▁skyte	-10.5814
▁henri	-10.5821
▁forlenge	-10.5826
▁wales	-10.5841
litteratur	-10.585
grønn	-10.5851
konsert	-10.5851
hjelp	-10.5851
abilit	-10.5856
▁afrikansk	-10.5872
▁glen	-10.5889
▁elektronisk	-10.5891
vatn	-10.59
▁sof	-10.5917
prest	-10.5917
▁kriminal	-10.5924
wick	-10.5928
▁qua	-10.5936
jå	-10.597
▁allikevel	-10.5999
▁dokumentar	-10.5999
▁kollektiv	-10.5999
▁komponent	-10.5999
▁manuskript	-10.5999
▁country	-10.5999
▁prøvd	-10.5999
▁antarktis	-10.5999
▁permanent	-10.5999
veksling	-10.5999
▁company	-10.5999
▁uvanlig	-10.5999
▁utmerkelse	-10.5999
▁etablering	-10.5999
▁etablere	-10.5999
▁ombord	-10.6
▁detaljer	-10.6
▁kjøretøy	-10.6
▁studioalbum	-10.6
▁artilleri	-10.6
▁opposisjon	-10.6001
▁1917	-10.6001
▁grevskapet	-10.6002
▁praktisk	-10.6002
▁bensin	-10.6002
▁tilsammen	-10.6003
▁britene	-10.6004
▁88	-10.6006
▁1200	-10.6007
▁center	-10.6008
▁tolke	-10.601
stipend	-10.6013
▁akademisk	-10.6019
▁anlagt	-10.602
▁1895	-10.6026
▁solberg	-10.603
▁audi	-10.6042
type	-10.6044
▁ørn	-10.6049
▁ddr	-10.605
▁romania	-10.6065
tagelse	-10.6069
▁familiegrupp	-10.6079
▁furu	-10.6085
▁messe	-10.6088
regjering	-10.6089
▁flekk	-10.609
▁million	-10.6091
kanalen	-10.6091
▁synlig	-10.6134
▁begynne	-10.6136
▁130	-10.6138
kjerne	-10.6146
▁plast	-10.6173
melding	-10.6229
▁engasjert	-10.6237
▁forhindre	-10.6237
▁pronotum	-10.6237
▁symptom	-10.6237
▁trommeslager	-10.6237
▁vilhelm	-10.6237
bataljon	-10.6237
▁asteroide	-10.6237
▁francisco	-10.6237
▁hordaland	-10.6237
▁innebærer	-10.6237
▁manchester	-10.6237
▁utelukke	-10.6237
▁diskusjon	-10.6237
▁aktuell	-10.6237
▁deutsche	-10.6237
▁opptreden	-10.6237
▁amatør	-10.6237
▁petersburg	-10.6238
▁igjennom	-10.6238
▁redusere	-10.6238
▁presentert	-10.6238
▁senatet	-10.6238
▁skildre	-10.6238
▁für	-10.6238
▁døpt	-10.6238
▁naturreservat	-10.6239
▁squa	-10.6239
▁overlevd	-10.6239
▁atmosfære	-10.6239
føderasjon	-10.624
▁2018	-10.6243
▁analyser	-10.6244
▁down	-10.6253
▁tropper	-10.6255
▁1870	-10.6265
▁prix	-10.6267
▁oval	-10.6275
▁morten	-10.6277
▁voksen	-10.6288
▁qing	-10.6288
▁lettere	-10.629
▁gjennomsnittlig	-10.6293
skrevet	-10.6321
offiser	-10.6334
▁begrense	-10.6338
▁anerkjenne	-10.6342
▁undergrunns	-10.6362
▁slippe	-10.6372
▁smak	-10.6403
regimet	-10.6416
▁tiår	-10.6428
serve	-10.6438
▁ødelegge	-10.6439
▁øvrig	-10.6459
kamerat	-10.6478
▁lukke	-10.6478
▁hønefoss	-10.6481
▁lillehammer	-10.6481
▁jersey	-10.6481
døgnflue	-10.6481
▁utspring	-10.6481
▁preussen	-10.6481
▁hensikt	-10.6481
▁henrettet	-10.6481
▁ålesund	-10.6482
perspektiv	-10.6482
▁meteor	-10.6482
tolkning	-10.6482
▁allianse	-10.6483
▁gregor	-10.6483
▁ligner	-10.6485
▁stengt	-10.6485
▁antonio	-10.6486
mission	-10.649
▁biologisk	-10.6491
▁fortellingen	-10.6491
▁byggingen	-10.6496
▁rytter	-10.6496
relatert	-10.6496
▁1885	-10.6504
konsern	-10.6511
▁geir	-10.6512
brett	-10.6518
bæk	-10.6519
ра	-10.6524
▁raf	-10.6556
▁seire	-10.657
▁arkeolog	-10.6583
gutt	-10.6583
▁900	-10.6593
▁kristin	-10.6595
▁opprettelse	-10.6611
▁trond	-10.6613
kledt	-10.6619
▁filosofisk	-10.6627
aften	-10.6627
▁finale	-10.6663
overflaten	-10.6699
▁kontrollere	-10.6713
ç	-10.6731
▁amsterdam	-10.6731
▁göteborg	-10.6731
▁jerusalem	-10.6731
▁central	-10.6731
▁frilufts	-10.6731
▁konsekvens	-10.6731
▁renessanse	-10.6731
▁kommandør	-10.6731
▁litauen	-10.6731
▁church	-10.6731
▁yngste	-10.6731
▁parallell	-10.6731
▁geometr	-10.6732
▁erobring	-10.6732
mouth	-10.6732
omsorg	-10.6736
▁røyk	-10.6737
▁klokken	-10.6737
▁gullmedalje	-10.6738
▁senator	-10.6741
▁invest	-10.6742
▁tjue	-10.6744
▁hylle	-10.6745
hausen	-10.6745
▁kommunistisk	-10.6748
▁hypo	-10.6748
▁moderat	-10.675
▁rykte	-10.6753
▁1860	-10.6766
▁senke	-10.6783
scene	-10.6832
amerikanske	-10.6842
▁pels	-10.6872
▁nordmenn	-10.6946
▁mathi	-10.6951
snegl	-10.696
endring	-10.6961
konge	-10.6964
gevær	-10.6965
▁afghanistan	-10.6988
▁angelsaksisk	-10.6988
▁filippinene	-10.6988
▁nøytral	-10.6988
▁skjønt	-10.6988
▁bjørk	-10.6988
▁chicago	-10.6988
▁gjeldende	-10.6988
▁oxford	-10.6988
▁1884	-10.6988
▁separat	-10.6988
▁komplett	-10.6988
▁charlotte	-10.6988
▁brigade	-10.6988
▁vakre	-10.6988
▁tennis	-10.6989
▁verdensrekord	-10.6989
▁oppgaver	-10.699
▁barokk	-10.699
▁forgjenger	-10.699
kjemper	-10.699
▁konservative	-10.6991
▁generalsekretær	-10.6991
▁avledet	-10.6991
▁court	-10.6992
▁tidligst	-10.6992
vilkår	-10.6993
▁rifle	-10.6994
▁eiendommen	-10.6996
▁stykket	-10.6996
▁tjener	-10.6997
▁regiment	-10.6997
▁klatre	-10.7
▁valley	-10.7001
▁trommer	-10.7003
▁1814	-10.7006
▁konstantin	-10.7008
syklus	-10.7009
▁nederst	-10.7016
▁kamera	-10.7027
0	-10.7033
▁vennskap	-10.7043
fried	-10.705
▁bakkropp	-10.7052
hest	-10.7061
▁variert	-10.7066
▁anslå	-10.7072
▁skifte	-10.7092
redskap	-10.7098
dømt	-10.7102
bibliotek	-10.7102
instrument	-10.7102
orkester	-10.7102
kontrakt	-10.7102
europeisk	-10.7104
blokk	-10.7105
aktivitet	-10.7106
knapp	-10.7108
programmer	-10.7109
prøve	-10.711
▁formell	-10.7129
▁avvist	-10.7132
▁musikal	-10.7136
▁nordsid	-10.7187
▁home	-10.7211
▁victor	-10.7235
ressurs	-10.7249
▁mangfold	-10.7251
▁forøvrig	-10.7251
▁virginia	-10.7251
▁sjeldne	-10.7251
▁flaggbærer	-10.7251
▁embets	-10.7251
▁frigjøring	-10.7251
▁sigurd	-10.7251
▁bridge	-10.7251
▁dagbladet	-10.7251
▁lørdag	-10.7251
▁lyktes	-10.7251
▁selvmord	-10.7251
▁trondhjem	-10.7251
worth	-10.7251
▁debutalbum	-10.7251
▁ørken	-10.7252
▁dybde	-10.7252
▁betjene	-10.7253
▁hedmark	-10.7254
▁oversetter	-10.7255
▁styremedlem	-10.7256
▁blank	-10.7258
▁pedersen	-10.7267
▁1300	-10.7271
▁1889	-10.7274
▁sandvik	-10.7277
▁sukker	-10.7277
▁queen	-10.7285
▁alban	-10.7294
▁silke	-10.7296
trakte	-10.7307
owski	-10.7319
▁gross	-10.7323
▁utvide	-10.7326
▁hotel	-10.7327
personlighet	-10.7329
▁karakteristisk	-10.7336
ла	-10.734
▁slange	-10.7342
▁pont	-10.7344
▁cuba	-10.7344
tilbud	-10.7369
divisjon	-10.7373
kjøp	-10.7373
programmet	-10.7375
tempel	-10.7381
▁øygrupp	-10.7384
versjon	-10.7387
problem	-10.7388
krav	-10.7444
bredden	-10.7512
element	-10.752
▁åpningsseremoni	-10.7521
▁øyeblikk	-10.7521
▁corporation	-10.7521
▁prøyssisk	-10.7521
▁etterretnings	-10.7521
▁jesuitt	-10.7521
▁nicola	-10.7521
▁senior	-10.7522
▁utpekt	-10.7522
▁kredit	-10.7522
▁massiv	-10.7523
▁samuel	-10.7523
▁beordre	-10.7523
betjent	-10.7524
▁fuktig	-10.7525
▁situasjonen	-10.7525
▁jurist	-10.7525
▁nyhets	-10.7525
kobling	-10.7527
▁forenkle	-10.7528
▁bassist	-10.7531
▁lisens	-10.7536
▁klippe	-10.7538
▁kirkegård	-10.7541
▁koble	-10.7542
▁dobbel	-10.7576
▁domkirke	-10.7599
advokat	-10.765
resultat	-10.765
teknologi	-10.7651
▁nettsted	-10.7691
▁hytte	-10.7757
skilde	-10.7777
direktoratet	-10.7799
▁konkurrert	-10.7799
▁kommandant	-10.7799
▁millimeter	-10.7799
▁assistent	-10.7799
▁taylor	-10.7799
▁zealand	-10.7799
▁stridsvogn	-10.7799
▁unesco	-10.7799
favoritt	-10.7799
▁kommersiell	-10.7799
▁seksuell	-10.7799
▁sachsen	-10.7799
▁utgravning	-10.7799
▁hendelsen	-10.7799
▁beleiring	-10.7799
▁kjennetegne	-10.7799
▁andré	-10.78
▁stråle	-10.78
▁tillatelse	-10.78
▁bbc	-10.7801
▁sykdommen	-10.7802
▁bayern	-10.7802
▁1909	-10.7802
▁døtre	-10.7803
▁vurdert	-10.7804
palasset	-10.7806
▁bydistrikt	-10.7808
▁størst	-10.7815
▁idé	-10.7821
▁feire	-10.7821
▁pumpe	-10.7822
▁søyle	-10.7825
▁utvidelse	-10.783
▁forbinde	-10.7833
emmelig	-10.7843
▁punk	-10.7849
▁gratis	-10.7886
institutt	-10.7937
forfølgelse	-10.7941
vitenskapelig	-10.7948
▁bratt	-10.7949
▁sieg	-10.8009
▁rådhus	-10.8016
stevn	-10.8084
▁beslutning	-10.8085
▁columbia	-10.8085
▁dekkvingene	-10.8085
▁innstiftet	-10.8085
▁jugoslavia	-10.8085
▁keyboard	-10.8085
▁kronprins	-10.8085
▁ludwig	-10.8085
▁nøkkel	-10.8085
▁pennsylvania	-10.8085
▁tilstrekkelig	-10.8085
▁ukrainsk	-10.8085
▁konsentrert	-10.8085
▁utbredelse	-10.8085
▁konkurs	-10.8085
▁oppfatning	-10.8085
▁fjellkjeden	-10.8085
▁florida	-10.8085
▁regulert	-10.8085
▁verdensarv	-10.8085
▁protestantisk	-10.8085
▁bøndene	-10.8085
▁ulovlig	-10.8085
▁ordinær	-10.8085
▁josef	-10.8085
▁lewis	-10.8085
▁omdanne	-10.8087
▁sentralbank	-10.8087
▁miste	-10.8087
▁tilhengere	-10.809
politi	-10.8091
▁nøt	-10.8095
▁splitte	-10.8095
▁dream	-10.8097
▁alpinist	-10.8097
eira	-10.8105
▁kontinental	-10.8108
nevnte	-10.812
▁undertegne	-10.812
ан	-10.8222
kandidat	-10.823
▁satse	-10.8277
støtte	-10.8311
areal	-10.8351
stue	-10.8369
▁palme	-10.8372
investering	-10.8373
▁antwerpen	-10.8379
▁ferskvann	-10.8379
▁matematikk	-10.8379
▁returnerte	-10.8379
▁svalbard	-10.8379
▁ukraina	-10.8379
▁alminnelig	-10.8379
▁avslutning	-10.8379
▁ektefelle	-10.8379
▁invadert	-10.8379
▁sanskrit	-10.8379
▁venezia	-10.8379
▁fenomen	-10.8379
▁stafett	-10.8379
▁høg	-10.8379
▁canadisk	-10.8379
▁varierende	-10.838
▁skjøt	-10.838
▁harrison	-10.838
▁utforming	-10.838
▁business	-10.838
diagnose	-10.8381
ст	-10.8381
▁ressurser	-10.8381
▁flytende	-10.8381
▁kryp	-10.8381
▁kronologisk	-10.8382
▁boston	-10.8382
▁betong	-10.8383
▁øvelsen	-10.8385
▁hydrogen	-10.8385
▁skygge	-10.8386
eksplo	-10.8388
▁pistol	-10.8389
▁holdning	-10.8389
▁larvik	-10.8392
▁blått	-10.8394
▁tillatt	-10.8397
▁kaffe	-10.8399
▁fremstille	-10.8429
▁ødeleggelse	-10.843
stamme	-10.8456
relasjon	-10.8488
▁forståelse	-10.8488
hvelv	-10.8502
▁barneskole	-10.8518
▁minutt	-10.8529
▁vokse	-10.853
ingeniør	-10.8533
medisin	-10.8533
rekord	-10.8535
▁brutt	-10.8561
hydr	-10.8592
▁nettside	-10.8597
▁beskrev	-10.8606
▁overføre	-10.8657
produser	-10.8665
▁cambridge	-10.8682
▁etiopia	-10.8682
▁frankfurt	-10.8682
▁innspilt	-10.8682
▁strategisk	-10.8682
▁væpne	-10.8682
kommanderende	-10.8682
▁hjort	-10.8682
▁hyppig	-10.8682
▁vegetasjon	-10.8682
kompetanse	-10.8682
▁sektor	-10.8682
▁skjult	-10.8682
▁marcus	-10.8683
▁søsken	-10.8683
▁protein	-10.8683
reservat	-10.8683
▁mastergrad	-10.8684
▁innviet	-10.8684
▁patrick	-10.8684
▁korpset	-10.8684
ор	-10.8686
▁oldtiden	-10.8686
▁hindu	-10.8687
▁syklist	-10.8687
▁clark	-10.8688
forsikring	-10.8697
▁tjent	-10.8711
▁undersøke	-10.8713
▁ideologi	-10.8713
▁idrett	-10.8717
▁kjøpmann	-10.8724
▁oppleve	-10.8736
▁kontrollert	-10.8769
▁vurdere	-10.8784
embete	-10.8789
▁nevro	-10.8795
komedie	-10.8806
▁rhod	-10.8844
økonomi	-10.8845
frukt	-10.8846
sesongen	-10.8846
design	-10.8846
debut	-10.8894
▁ødela	-10.8994
▁jomfru	-10.8994
▁langrennsløper	-10.8994
▁luxembourg	-10.8994
▁meksikansk	-10.8994
▁tsjekkoslovakia	-10.8994
▁vladimir	-10.8994
▁buskerud	-10.8994
▁parallelt	-10.8994
▁progressiv	-10.8994
▁abraham	-10.8994
▁foreløpig	-10.8994
▁forklaring	-10.8994
▁gjøvik	-10.8994
▁skihopper	-10.8994
▁snakket	-10.8994
▁ringerike	-10.8994
▁turbiner	-10.8994
▁sandefjord	-10.8994
▁forsvant	-10.8995
▁langvarig	-10.8995
▁hørte	-10.8995
▁skrog	-10.8995
▁haakon	-10.8995
▁regulere	-10.8995
▁skikkelse	-10.8995
▁trykt	-10.8995
▁first	-10.8996
▁teatre	-10.8996
▁seinere	-10.8996
▁betaling	-10.8996
▁moralsk	-10.8996
▁våt	-10.8997
▁blomstre	-10.8999
▁satellitt	-10.9
gjald	-10.9
▁kunngjor	-10.9001
▁kreert	-10.9002
nfeksjon	-10.9002
▁særeg	-10.9002
▁spurt	-10.9003
▁vandre	-10.9006
▁rettssak	-10.9019
▁bakerst	-10.9025
schaft	-10.9025
▁manglen	-10.903
ière	-10.904
møll	-10.9171
tradisjon	-10.9171
▁fylle	-10.918
åpning	-10.9182
▁skuespillerinne	-10.9191
▁brødre	-10.9273
▁napoleon	-10.9317
▁innendørs	-10.9317
▁restaurering	-10.9317
▁engasjement	-10.9317
▁fiendtlig	-10.9317
▁football	-10.9317
▁identifisert	-10.9317
▁research	-10.9317
▁sarpsborg	-10.9317
▁særskilt	-10.9317
▁territorium	-10.9317
▁resultert	-10.9317
▁1874	-10.9317
▁embeds	-10.9317
▁gerilja	-10.9317
▁opprettholde	-10.9317
▁eidsvoll	-10.9317
▁eksistens	-10.9317
sylindre	-10.9317
▁ingrid	-10.9317
▁dublin	-10.9317
▁snakker	-10.9317
▁heavy	-10.9317
▁begravelse	-10.9317
▁psykisk	-10.9317
▁barnehage	-10.9317
▁ansikt	-10.9318
▁tverrbånd	-10.9318
▁dvd	-10.9318
▁beskjed	-10.9318
rhein	-10.9318
▁utsikt	-10.9319
▁etasjer	-10.9319
▁døgn	-10.9321
rettighetene	-10.9321
▁administ	-10.9323
▁flanke	-10.9327
størrelse	-10.9332
▁smitte	-10.9338
▁ytelse	-10.9341
flyvning	-10.9397
ulykke	-10.9408
bevegelse	-10.9413
kommando	-10.9501
befolkningen	-10.9502
ол	-10.9502
inntekt	-10.9502
signal	-10.9503
sentral	-10.9504
gjorde	-10.9556
basseng	-10.9573
fabrik	-10.9585
bukten	-10.9597
▁kontinent	-10.9623
recht	-10.9647
▁singapore	-10.965
▁æthel	-10.965
▁ambassade	-10.965
▁buddhist	-10.965
▁fundament	-10.965
▁hospital	-10.965
▁katolikk	-10.965
▁installasjon	-10.965
▁opphevet	-10.965
▁identitet	-10.965
▁taiwan	-10.965
▁nynorsk	-10.965
landkreis	-10.965
▁redaksjon	-10.965
▁theodor	-10.965
▁haugesund	-10.965
leverandør	-10.965
▁beslektet	-10.965
▁begravet	-10.965
▁ntnu	-10.9651
▁trussel	-10.9651
▁christensen	-10.9651
▁fjordane	-10.9651
▁innvalgt	-10.9651
jylland	-10.9652
▁oppfordre	-10.9652
▁spinner	-10.9652
▁referert	-10.9652
▁fiender	-10.9653
▁telenor	-10.9654
▁gjenopprette	-10.9655
▁programvare	-10.9657
▁elsker	-10.9657
ingsrepresentant	-10.9659
▁alex	-10.966
▁tørke	-10.9661
▁nsb	-10.9662
▁antas	-10.9662
forestillinger	-10.9665
▁opplevelse	-10.9668
▁ballett	-10.9676
protokoll	-10.9688
▁koreansk	-10.9728
tjern	-10.9738
▁skanse	-10.9777
spørsmål	-10.9846
blanding	-10.9848
▁america	-10.9867
overføring	-10.9918
utenriksminister	-10.994
vømm	-10.9977
▁aleksandr	-10.9995
▁assosiert	-10.9995
▁byfylke	-10.9995
▁bysantinsk	-10.9995
▁demonstrasjon	-10.9995
▁hongkong	-10.9995
▁identifisere	-10.9995
▁låtskriver	-10.9995
▁mountain	-10.9995
▁offensiv	-10.9995
▁patriark	-10.9995
▁plutselig	-10.9995
▁society	-10.9995
▁sørafrikansk	-10.9995
▁tsjekkisk	-10.9995
▁aserbajdsjan	-10.9995
▁bachelor	-10.9995
budsjett	-10.9995
▁division	-10.9995
▁pattedyr	-10.9995
▁uttrykt	-10.9995
▁interiør	-10.9995
▁ragnar	-10.9995
▁kavaleri	-10.9995
▁forklart	-10.9995
▁baptist	-10.9995
▁beatles	-10.9995
▁massakre	-10.9995
▁fødselsår	-10.9995
▁grekerne	-10.9995
▁margaret	-10.9995
▁napoli	-10.9995
▁snorre	-10.9995
▁uklar	-10.9995
▁innledet	-10.9995
▁originaltittel	-10.9996
▁erstatning	-10.9996
▁nigeria	-10.9996
▁samlealbum	-10.9996
▁kjernekraftverk	-10.9997
▁herunder	-10.9997
▁stefan	-10.9997
ovitsj	-10.9997
▁tilbrakt	-10.9998
▁titler	-10.9998
▁poesi	-10.9998
▁suveren	-10.9999
artikkel	-11.0001
▁hovedsete	-11.0002
flåt	-11.0014
kirurg	-11.0028
▁gjennomføre	-11.0039
balanse	-11.0079
▁bekjempe	-11.0105
register	-11.0113
gjest	-11.0218
revolusjonen	-11.0225
▁bringe	-11.0301
▁birg	-11.0316
konservativ	-11.0348
▁doktor	-11.0351
▁annonsert	-11.0352
▁bryllup	-11.0352
▁bulgaria	-11.0352
▁interessant	-11.0352
▁katastrofe	-11.0352
▁melbourne	-11.0352
▁sebastian	-11.0352
▁angivelig	-11.0352
▁cæsar	-11.0352
▁seremoni	-11.0352
▁krønike	-11.0352
▁nidaros	-11.0352
▁erkebispedømme	-11.0352
▁lagkonkurransen	-11.0352
▁misjonær	-11.0352
▁dekorasjon	-11.0352
▁skåne	-11.0352
▁forventet	-11.0352
▁flyktning	-11.0353
▁korrekt	-11.0353
▁hovedpersonen	-11.0353
▁walisisk	-11.0353
▁rumensk	-11.0353
▁wagner	-11.0353
▁skjebne	-11.0353
▁indiker	-11.0353
▁dekorert	-11.0354
▁tokyo	-11.0354
▁fantasi	-11.0354
▁rakett	-11.0354
▁bremse	-11.0355
▁fienden	-11.0358
▁profet	-11.0359
sluppet	-11.0359
hertugdømmet	-11.0359
▁point	-11.036
terapi	-11.036
▁bundes	-11.036
▁spyd	-11.0364
▁epoke	-11.0365
▁ivareta	-11.0366
▁genetisk	-11.0371
liknende	-11.0376
pierre	-11.0382
▁avskjed	-11.0383
▁maritim	-11.0399
▁utforske	-11.0416
kjennelse	-11.048
▁bearbeide	-11.0507
historiker	-11.0574
soldater	-11.0574
▁høgskolen	-11.0715
▁academy	-11.0722
▁aluminium	-11.0722
▁instruksjon	-11.0722
▁musikkvideo	-11.0722
▁novgorod	-11.0722
▁pyramide	-11.0722
▁skandinavia	-11.0722
▁spesifikk	-11.0722
▁stjørdal	-11.0722
▁varaordfører	-11.0722
▁hollywood	-11.0722
orrespond	-11.0722
▁carolina	-11.0722
▁torpedo	-11.0722
▁annerledes	-11.0722
▁bystatus	-11.0722
▁double	-11.0722
▁katalog	-11.0722
▁forkropp	-11.0722
▁dominere	-11.0722
▁veksel	-11.0723
patrulje	-11.0723
▁westfalen	-11.0723
▁ordenstegne	-11.0723
▁tvilling	-11.0723
▁kongsvinger	-11.0723
▁betydningsfull	-11.0723
▁fremtidig	-11.0723
▁gabriel	-11.0723
▁brasiliansk	-11.0723
▁russerne	-11.0723
▁vurdering	-11.0723
▁tiltrådt	-11.0723
brønn	-11.0723
▁batteri	-11.0724
▁innflytelsesrik	-11.0724
▁betingelse	-11.0724
▁sophi	-11.0724
mønstre	-11.0724
▁konsernet	-11.0724
▁stryk	-11.0724
▁serbisk	-11.0724
▁kalender	-11.0726
▁finansiere	-11.0726
▁bløt	-11.0726
▁oppfølger	-11.0727
mekanisme	-11.0727
▁advent	-11.073
▁stedsnavn	-11.0735
▁oppgaven	-11.0736
sprang	-11.0787
sentrum	-11.096
▁representere	-11.1013
forsvarsminister	-11.1031
landeveissyklist	-11.1107
psykiatri	-11.1107
▁argentinsk	-11.1107
▁folkeavstemning	-11.1107
▁illustrert	-11.1107
▁indonesia	-11.1107
▁innvandrer	-11.1107
▁keramikk	-11.1107
▁massachusetts	-11.1107
▁okkupasjonen	-11.1107
▁orchestra	-11.1107
▁republikansk	-11.1107
▁sichuan	-11.1107
▁uppsala	-11.1107
▁prestegjeld	-11.1107
▁representasjon	-11.1107
▁koalisjon	-11.1107
▁kosovo	-11.1107
▁campbell	-11.1107
▁litauisk	-11.1107
▁afghansk	-11.1107
▁arbeidsgiver	-11.1107
▁essay	-11.1107
▁noensinne	-11.1107
▁dedikert	-11.1107
▁tilpasning	-11.1107
▁matematisk	-11.1107
▁bjarn	-11.1107
▁hjelm	-11.1107
▁bmw	-11.1108
▁diamant	-11.1109
▁kelly	-11.1109
▁innskriften	-11.1109
▁temple	-11.111
▁work	-11.1115
plikasjon	-11.1117
▁tilfeldig	-11.1126
▁operert	-11.1128
edderkopper	-11.1139
▁basketball	-11.1144
▁ekstern	-11.1163
feiring	-11.1197
▁konferanse	-11.1305
redaktør	-11.1358
undervisning	-11.1359
transport	-11.1359
vurder	-11.1376
▁journal	-11.1384
sparc	-11.1451
▁atlanterhavet	-11.1507
▁françois	-11.1507
▁inklusiv	-11.1507
▁kambodsja	-11.1507
▁konstitusjon	-11.1507
▁köln	-11.1507
▁metropolitan	-11.1507
▁okkupert	-11.1507
▁opphørte	-11.1507
▁adskilt	-11.1507
▁babylon	-11.1507
▁fogderi	-11.1507
▁gloppen	-11.1507
▁utdødd	-11.1507
köping	-11.1507
▁taliban	-11.1507
▁midtøsten	-11.1507
▁rovdyr	-11.1507
▁autoritet	-11.1507
▁invitert	-11.1507
▁stephen	-11.1507
▁verdslig	-11.1507
konvensjonen	-11.1507
▁avskaff	-11.1508
▁racing	-11.1508
▁omstridt	-11.1508
▁betydd	-11.1508
▁stadium	-11.1508
▁fusjonert	-11.1509
▁bevaring	-11.1509
▁sannhet	-11.1512
thorax	-11.1512
▁oversvømme	-11.1512
nklin	-11.1513
▁havneby	-11.1515
ograph	-11.1516
premie	-11.1527
▁planlegge	-11.1531
▁amerikanere	-11.1546
▁vincen	-11.1615
gjerde	-11.1638
▁begynt	-11.1653
gruppa	-11.17
▁offentliggjor	-11.1741
utdanning	-11.1773
innspilling	-11.1775
provins	-11.1776
interesse	-11.1776
▁sjakk	-11.1794
▁inneholde	-11.1831
▁olympia	-11.1924
dampskibsselskab	-11.1924
▁absolutt	-11.1924
▁beliggenhet	-11.1924
▁electric	-11.1924
▁evolusjon	-11.1924
▁forfremmet	-11.1924
▁fremtredende	-11.1924
▁helikopter	-11.1924
▁individuelt	-11.1924
▁kasakhstan	-11.1924
▁kentucky	-11.1924
▁konkurrent	-11.1924
▁narkotika	-11.1924
▁observert	-11.1924
▁ptolemai	-11.1924
▁publikasjon	-11.1924
▁shakespeare	-11.1924
▁spanjolene	-11.1924
▁styrmann	-11.1924
▁warszawa	-11.1924
▁1879	-11.1924
▁billboard	-11.1924
▁kjønnsmodn	-11.1924
▁selvbiografi	-11.1924
▁skandinavis	-11.1924
▁katarina	-11.1924
▁statistikk	-11.1924
▁forbedring	-11.1924
▁sogneprest	-11.1924
▁prøysen	-11.1924
▁gjensidig	-11.1924
▁svovel	-11.1924
▁people	-11.1924
▁konjakk	-11.1924
▁reformasjonen	-11.1924
▁frimurer	-11.1924
ã	-12.4767
