<unk>	0
<s>	0
</s>	0
.	-3.03555
s	-3.25715
e	-3.57897
▁	-3.60198
t	-4.03802
er	-4.09715
en	-4.23265
▁og	-4.34822
▁i	-4.46784
r	-4.65233
▁er	-4.67563
a	-4.75176
n	-4.81489
et	-5.00672
i	-5.16165
▁av	-5.20745
o	-5.32605
d	-5.34724
▁for	-5.37954
k	-5.43021
▁en	-5.53533
y	-5.58496
▁til	-5.66022
▁var	-5.66564
▁på	-5.68531
▁som	-5.70555
g	-5.74078
▁med	-5.74394
▁de	-5.77377
te	-5.78681
ne	-5.79873
m	-5.80165
ene	-5.81115
l	-5.92694
▁har	-5.97476
f	-6.03952
▁fra	-6.08446
▁den	-6.08781
h	-6.11738
in	-6.13636
u	-6.14444
p	-6.17219
de	-6.20102
c	-6.23223
v	-6.23744
b	-6.23896
es	-6.24336
us	-6.26521
ing	-6.29963
▁ble	-6.29996
▁a	-6.33299
▁s	-6.35012
al	-6.36193
an	-6.36656
▁et	-6.38961
re	-6.39376
le	-6.42445
▁be	-6.43245
▁det	-6.44954
na	-6.48045
▁han	-6.53267
on	-6.56911
z	-6.57118
ar	-6.58911
▁p	-6.60155
▁ut	-6.60297
is	-6.61519
▁m	-6.62054
▁ved	-6.62704
▁the	-6.63257
▁eller	-6.63526
ri	-6.64328
▁også	-6.67558
j	-6.67688
x	-6.67847
▁to	-6.70716
ia	-6.70777
▁under	-6.72637
ter	-6.72673
▁kan	-6.7461
▁d	-6.75448
▁å	-6.76201
▁f	-6.76553
or	-6.76895
sen	-6.77044
sk	-6.78748
w	-6.7903
5	-6.7942
um	-6.79965
ta	-6.81286
ch	-6.81292
4	-6.8317
3	-6.84278
ur	-6.85087
li	-6.88391
2	-6.88539
la	-6.88692
▁over	-6.89085
▁se	-6.90061
ke	-6.90768
6	-6.92307
7	-6.92314
▁c	-6.92668
▁in	-6.93207
el	-6.945
▁la	-6.95272
▁b	-6.95796
ma	-6.9618
▁opp	-6.96291
ra	-6.96687
▁18	-6.97265
ck	-6.98042
ng	-6.98985
▁al	-6.99363
▁om	-6.99501
0	-6.99636
▁h	-6.99893
ens	-7.02478
▁g	-7.02822
é	-7.03401
8	-7.03768
▁u	-7.03946
land	-7.04053
ka	-7.04991
▁inn	-7.05266
▁an	-7.05304
9	-7.05904
▁l	-7.06338
▁k	-7.06767
ga	-7.07132
di	-7.07214
▁re	-7.08206
▁etter	-7.08321
der	-7.09942
da	-7.10292
▁andre	-7.11417
ende	-7.11904
il	-7.14295
▁ligger	-7.14932
1	-7.15095
ler	-7.15252
▁sa	-7.15332
▁da	-7.17224
▁n	-7.17827
ve	-7.18575
be	-7.1999
ger	-7.20193
nes	-7.20366
▁and	-7.20945
ver	-7.21803
to	-7.22312
▁of	-7.23693
ge	-7.23899
id	-7.23907
ba	-7.24206
ja	-7.2424
lo	-7.24245
▁ha	-7.2581
ig	-7.27774
▁j	-7.28122
isk	-7.28252
▁na	-7.29581
▁at	-7.30432
▁li	-7.31058
den	-7.32274
▁co	-7.33238
th	-7.33443
me	-7.33461
ut	-7.33557
bo	-7.34036
▁no	-7.34077
▁t	-7.34123
▁le	-7.34533
ø	-7.34542
ed	-7.35222
▁her	-7.35819
lig	-7.36448
it	-7.36679
kt	-7.36917
ul	-7.36968
▁ra	-7.37267
son	-7.37299
▁bo	-7.37523
▁st	-7.37743
ad	-7.38011
vi	-7.38113
▁ro	-7.38269
▁v	-7.38375
stad	-7.38418
nde	-7.38922
ro	-7.3898
ol	-7.39436
ton	-7.39705
mi	-7.39801
▁tre	-7.40209
ker	-7.40251
▁man	-7.40291
ry	-7.40306
man	-7.425
▁hoved	-7.42709
va	-7.43191
▁nord	-7.43285
▁o	-7.4334
▁di	-7.43684
ning	-7.43916
kk	-7.44433
▁blant	-7.44632
▁he	-7.44844
ha	-7.44915
øy	-7.45702
as	-7.45779
▁w	-7.46221
▁vi	-7.46759
á	-7.47642
berg	-7.47674
ko	-7.47787
▁sp	-7.47872
▁mot	-7.48899
at	-7.49779
▁pa	-7.49903
ik	-7.50219
▁ca	-7.51533
▁ka	-7.521
mo	-7.52109
▁hans	-7.52634
▁do	-7.5323
▁men	-7.53409
ce	-7.53496
▁so	-7.54101
dal	-7.54681
▁du	-7.55034
co	-7.55366
ner	-7.55698
ti	-7.55878
go	-7.56143
ly	-7.56545
iske	-7.56824
▁r	-7.56921
▁ma	-7.57053
▁mar	-7.57261
æ	-7.57425
for	-7.57814
ic	-7.57816
▁kalles	-7.59232
ina	-7.60085
▁as	-7.60453
ske	-7.60805
▁ta	-7.6084
ff	-7.61003
▁ni	-7.6169
os	-7.61736
▁pi	-7.61821
ci	-7.62082
by	-7.62292
▁sin	-7.6268
no	-7.62708
▁tor	-7.63409
do	-7.63571
ell	-7.63595
▁bar	-7.64024
▁per	-7.64651
lige	-7.64766
▁lo	-7.64902
gen	-7.64945
pe	-7.65114
▁gjennom	-7.66022
bi	-7.66078
ist	-7.66566
▁mellom	-7.66943
pa	-7.67483
bu	-7.67512
ør	-7.67713
je	-7.67943
▁lu	-7.68578
mann	-7.68631
▁kon	-7.68649
om	-7.68731
▁mo	-7.69461
▁ko	-7.69831
▁hadde	-7.70085
erte	-7.70314
▁po	-7.70854
å	-7.70872
si	-7.71208
▁kinesisk	-7.71947
▁ba	-7.72059
▁dette	-7.7216
▁el	-7.72278
mer	-7.72662
▁or	-7.72784
▁by	-7.72813
var	-7.7305
▁am	-7.73104
ant	-7.73142
ven	-7.736
▁sch	-7.7401
am	-7.74168
▁stor	-7.74422
▁si	-7.75002
vik	-7.75108
ho	-7.75645
▁mor	-7.75904
▁ti	-7.75917
▁der	-7.75929
▁me	-7.76093
▁1	-7.76518
un	-7.76525
▁seg	-7.76765
í	-7.76797
ling	-7.7728
▁fa	-7.77689
▁pro	-7.78447
▁ho	-7.7856
▁ny	-7.78706
▁su	-7.79485
ir	-7.79639
het	-7.79691
po	-7.80117
vis	-7.80604
ä	-7.81713
ment	-7.8173
ov	-7.81755
▁17	-7.82558
tra	-7.82573
▁flere	-7.83012
▁te	-7.83202
▁del	-7.83285
ster	-7.83396
▁jo	-7.83649
▁2	-7.83703
ie	-7.84335
men	-7.84443
ö	-7.84717
▁ri	-7.85565
▁y	-7.857
▁ga	-7.8608
ær	-7.86082
▁fri	-7.86269
▁denne	-7.86782
ni	-7.86938
io	-7.87968
sh	-7.88258
▁sol	-7.883
▁ikke	-7.88911
gi	-7.88968
ca	-7.89143
lin	-7.89205
itt	-7.89793
sjon	-7.907
sta	-7.90937
ki	-7.91114
op	-7.91531
del	-7.9166
▁gu	-7.92322
ring	-7.92588
▁con	-7.92811
▁kom	-7.92811
▁ru	-7.92902
ion	-7.93089
ian	-7.93339
▁car	-7.93459
ten	-7.93485
▁ja	-7.936
asjon	-7.93989
▁hun	-7.94229
av	-7.94613
▁disse	-7.94711
▁bi	-7.94844
▁tilhører	-7.94939
▁ar	-7.95308
▁19	-7.95393
▁far	-7.95491
▁sammen	-7.95673
▁ad	-7.95806
▁hu	-7.96208
▁sør	-7.96353
ard	-7.96625
od	-7.96964
ns	-7.97059
▁x	-7.97146
▁ab	-7.97373
▁min	-7.9793
else	-7.98489
▁fikk	-7.98615
tter	-7.99035
tal	-7.99149
▁ne	-7.99234
ste	-7.9933
hu	-7.99658
▁første	-8.00268
ou	-8.00496
sel	-8.00828
▁født	-8.01019
ica	-8.01076
▁mi	-8.01077
erne	-8.01749
▁ju	-8.01934
rett	-8.02398
ation	-8.0291
▁samt	-8.03318
ac	-8.03592
▁ch	-8.03763
ok	-8.038
ak	-8.03814
▁bestå	-8.03818
▁lag	-8.04126
▁blir	-8.04138
▁alle	-8.04636
ium	-8.05049
tan	-8.05081
hold	-8.05527
gg	-8.0561
▁john	-8.05654
pi	-8.05989
ny	-8.0607
per	-8.0622
ó	-8.06233
▁bu	-8.07653
nd	-8.07946
▁tra	-8.08067
▁go	-8.08825
▁ge	-8.09092
▁tidligere	-8.0922
▁vest	-8.09488
▁pe	-8.09608
▁tri	-8.09722
gu	-8.10149
▁øst	-8.10379
hi	-8.10663
▁ned	-8.10746
ow	-8.11029
ine	-8.11194
skap	-8.11221
▁pu	-8.11246
im	-8.11643
au	-8.11644
▁finnes	-8.12511
▁hel	-8.12924
fa	-8.13099
▁sk	-8.13278
idae	-8.1349
år	-8.13546
▁gi	-8.13572
ung	-8.13839
iv	-8.13878
mp	-8.14048
▁tu	-8.14056
and	-8.142
sch	-8.14293
▁bak	-8.14715
ang	-8.14844
em	-8.14945
▁san	-8.14978
▁mer	-8.15131
ber	-8.15153
ā	-8.1524
▁fly	-8.15302
▁omfatter	-8.15526
▁navn	-8.15565
ede	-8.15716
tu	-8.15917
▁va	-8.16099
pp	-8.16541
ü	-8.16914
jo	-8.17002
ong	-8.17485
▁pre	-8.1796
ord	-8.17972
kel	-8.1798
▁russisk	-8.18173
lu	-8.18647
▁ki	-8.18721
▁land	-8.18736
stein	-8.18793
und	-8.18796
ting	-8.18921
ru	-8.18952
elle	-8.18954
▁kommune	-8.19154
▁val	-8.19155
▁navnet	-8.19306
ken	-8.19688
▁my	-8.19732
▁annet	-8.19749
hus	-8.19758
е	-8.19967
▁ski	-8.20075
bb	-8.20152
tre	-8.204
lag	-8.20473
▁3	-8.20484
▁kalt	-8.20546
over	-8.207
bar	-8.20901
▁nå	-8.20945
ld	-8.2103
mar	-8.21342
▁sam	-8.21561
▁kar	-8.21975
▁så	-8.22358
tor	-8.22428
▁heter	-8.22501
▁all	-8.22531
ering	-8.23413
▁byen	-8.23494
ud	-8.23928
les	-8.24504
ll	-8.24631
▁syn	-8.24818
▁we	-8.24963
ag	-8.25178
▁vann	-8.2544
ikk	-8.25669
vin	-8.25763
za	-8.25786
sp	-8.26247
sson	-8.26421
▁nor	-8.26581
tur	-8.26921
▁bra	-8.2723
▁norsk	-8.27308
ju	-8.27693
▁wi	-8.27824
▁fire	-8.2784
▁op	-8.27978
▁tro	-8.28268
yl	-8.28376
▁z	-8.28588
tro	-8.28749
fi	-8.28806
▁jan	-8.28986
sted	-8.29066
▁bro	-8.29178
tar	-8.2918
▁kl	-8.29203
ley	-8.29953
▁ei	-8.30201
zi	-8.30412
▁ag	-8.30531
▁ofte	-8.3056
mb	-8.30807
▁følgende	-8.30962
▁mens	-8.31266
ill	-8.31563
▁lang	-8.31611
▁dag	-8.31728
mm	-8.31954
▁kirke	-8.32384
he	-8.3253
tisk	-8.32593
▁sal	-8.33215
▁mange	-8.33325
sten	-8.33899
du	-8.33932
opp	-8.33986
▁sta	-8.34065
lan	-8.34203
▁ben	-8.3426
▁16	-8.34639
ren	-8.34754
▁cha	-8.35409
▁fi	-8.35551
lands	-8.35919
▁før	-8.36065
▁lever	-8.36098
▁mat	-8.36133
▁berg	-8.36293
wa	-8.36378
▁ke	-8.36539
▁mel	-8.36706
min	-8.37204
▁mu	-8.37361
▁mal	-8.37364
▁lys	-8.37394
inyin	-8.37496
ot	-8.37556
▁liste	-8.37597
▁mål	-8.37711
dalen	-8.37721
ron	-8.38014
▁on	-8.3805
ier	-8.38178
▁ver	-8.38182
▁år	-8.38188
о	-8.38327
heim	-8.38721
familien	-8.38769
bre	-8.3887
mor	-8.39127
verk	-8.39404
▁vil	-8.39452
▁betyr	-8.39497
ius	-8.39634
▁col	-8.39678
nings	-8.39717
▁par	-8.39811
fe	-8.39986
ú	-8.40039
▁sand	-8.40077
▁ur	-8.40194
ty	-8.40235
dag	-8.40287
▁være	-8.4037
▁største	-8.40412
ku	-8.40461
▁fe	-8.40671
▁com	-8.40873
tz	-8.40892
gang	-8.41018
▁vel	-8.41546
и	-8.41556
▁pr	-8.41565
är	-8.4168
▁fjell	-8.41785
chi	-8.42108
vel	-8.42109
ps	-8.42254
▁tid	-8.42863
▁folketelling	-8.43477
tte	-8.43657
▁ku	-8.43683
00	-8.43993
ft	-8.44079
▁frem	-8.44154
▁nu	-8.44265
▁2002	-8.44376
sti	-8.44449
følge	-8.44463
▁går	-8.44499
art	-8.44621
ya	-8.44647
ek	-8.44754
▁store	-8.4479
▁fin	-8.45148
▁kor	-8.45287
ze	-8.45581
q	-8.45846
▁hus	-8.46077
▁4	-8.4609
▁flaggbærer	-8.46135
▁skal	-8.46184
ab	-8.46251
pningsseremonien	-8.4636
if	-8.464
▁eks	-8.46459
▁br	-8.4664
▁operatør	-8.46811
dd	-8.46877
tall	-8.46973
gn	-8.47102
len	-8.47136
▁selv	-8.47211
øk	-8.47418
ph	-8.47491
▁ham	-8.4776
▁hal	-8.47789
▁dr	-8.47829
▁bru	-8.48365
ji	-8.4847
▁stein	-8.48564
bel	-8.48576
vo	-8.4881
▁5	-8.48919
tid	-8.49268
▁familien	-8.49948
▁musikk	-8.4995
▁sh	-8.49964
ale	-8.50297
ris	-8.50372
▁mon	-8.50467
dre	-8.50476
ska	-8.5053
kker	-8.50704
▁sitt	-8.50771
▁au	-8.50814
bro	-8.50902
est	-8.51098
▁och	-8.51123
ingen	-8.51127
▁innen	-8.51177
▁leder	-8.51246
til	-8.51268
▁ak	-8.51345
▁moh	-8.51379
▁hol	-8.51501
▁film	-8.51561
▁små	-8.51724
kar	-8.51734
ator	-8.51948
▁art	-8.51988
▁fem	-8.52013
kon	-8.52166
far	-8.5237
let	-8.52392
▁nær	-8.52667
dan	-8.53549
▁fo	-8.53624
▁ste	-8.53923
▁hos	-8.54057
▁noen	-8.54161
che	-8.54417
▁parti	-8.54447
▁kommunen	-8.54507
▁gar	-8.54552
hr	-8.54656
form	-8.54722
▁ac	-8.54725
▁inneholder	-8.54882
▁sig	-8.54949
senter	-8.55043
▁wa	-8.55055
▁spilt	-8.55088
mon	-8.55403
▁7	-8.55416
este	-8.55514
▁bok	-8.55551
▁ol	-8.55698
▁th	-8.55881
ham	-8.55898
▁15	-8.55931
inger	-8.55996
▁ry	-8.56148
yn	-8.56213
▁død	-8.56265
veien	-8.56358
▁kunst	-8.56437
▁vo	-8.56622
▁vant	-8.56872
ct	-8.56966
vann	-8.57023
▁chi	-8.57067
▁can	-8.57096
▁brun	-8.5712
▁god	-8.57284
ī	-8.57433
dy	-8.57468
▁gjen	-8.57506
▁mus	-8.57844
▁senere	-8.5787
siden	-8.57882
ino	-8.57925
▁kommer	-8.57939
▁bor	-8.57979
▁inkluderer	-8.5804
▁gra	-8.58135
▁rød	-8.58483
su	-8.58652
▁langs	-8.58717
▁engelsk	-8.58803
tin	-8.58804
▁hvor	-8.58834
▁af	-8.59324
gren	-8.59372
▁mest	-8.59442
bl	-8.59719
▁div	-8.59956
▁fram	-8.59994
▁pan	-8.6004
fly	-8.60166
ana	-8.60242
▁os	-8.60337
▁ty	-8.60345
shi	-8.60371
fjorden	-8.60558
jø	-8.60582
▁paul	-8.60674
▁folke	-8.60696
▁za	-8.60734
folkerepublikken	-8.6086
▁laget	-8.6113
gar	-8.61166
▁vin	-8.61169
ini	-8.61232
▁new	-8.61238
val	-8.61263
▁gir	-8.61466
bil	-8.61796
tion	-8.62002
▁form	-8.62003
ding	-8.62018
ningen	-8.6214
▁ed	-8.6221
▁20	-8.62409
ans	-8.62483
▁van	-8.62722
kan	-8.63157
we	-8.63357
▁energi	-8.63519
▁rundt	-8.63631
ah	-8.63685
▁høy	-8.63752
▁gul	-8.63772
▁ren	-8.63802
▁10	-8.63934
а	-8.64153
tiske	-8.64206
▁hen	-8.64285
ski	-8.64452
ran	-8.64534
▁skole	-8.64862
▁em	-8.6491
▁rom	-8.65065
borg	-8.65151
▁sc	-8.65263
▁red	-8.65644
▁shi	-8.65687
met	-8.65759
▁gal	-8.65809
burg	-8.65878
ari	-8.65992
▁sønn	-8.66171
mel	-8.66283
nk	-8.66336
itet	-8.66844
▁kal	-8.66975
øn	-8.66999
▁vis	-8.67217
kle	-8.67375
bok	-8.6756
▁kjent	-8.67616
klubb	-8.67763
▁kort	-8.6789
▁fu	-8.67969
rin	-8.68057
ula	-8.68125
▁fag	-8.68146
ologi	-8.68331
selskapet	-8.68435
fra	-8.68539
▁ul	-8.68584
stand	-8.68633
▁sha	-8.69031
elsen	-8.69054
▁sj	-8.69231
▁jord	-8.69254
lia	-8.69308
▁skrev	-8.69423
ano	-8.69442
è	-8.69483
▁bre	-8.69551
▁peter	-8.69558
▁må	-8.69582
▁bjørn	-8.69604
tten	-8.69695
bra	-8.69845
ap	-8.69967
ð	-8.70008
▁post	-8.70027
gel	-8.70068
▁verdens	-8.70088
д	-8.70119
▁språk	-8.70327
▁un	-8.70418
rik	-8.70691
▁bal	-8.70798
ug	-8.7084
▁mari	-8.70896
▁dy	-8.70897
▁sø	-8.7094
▁kjente	-8.71189
tak	-8.71449
dyr	-8.71736
tel	-8.71743
ach	-8.71814
vet	-8.7206
stre	-8.72123
▁innbyggertall	-8.72136
kal	-8.72151
▁sel	-8.72176
▁para	-8.72275
ich	-8.72321
α	-8.72428
ara	-8.7245
▁fiske	-8.72456
▁tur	-8.72569
mat	-8.72676
▁bil	-8.72697
▁8	-8.72711
▁liv	-8.72935
▁von	-8.73019
▁kong	-8.73047
▁grunn	-8.73483
▁skog	-8.73609
van	-8.73739
sett	-8.7395
▁kinas	-8.74005
▁ji	-8.74104
fisk	-8.74259
mu	-8.74289
▁tar	-8.74349
inn	-8.74389
▁pra	-8.74471
mmer	-8.74505
slag	-8.74634
▁lav	-8.74646
▁side	-8.74658
án	-8.74727
ika	-8.74737
rom	-8.74807
kor	-8.74841
satt	-8.74911
par	-8.74921
▁kv	-8.74926
▁like	-8.75145
▁sjø	-8.75242
▁juli	-8.75329
gre	-8.75395
▁oslo	-8.75504
▁står	-8.75517
sund	-8.75615
▁gud	-8.75653
▁innenfor	-8.75763
laget	-8.75793
▁vei	-8.76076
ret	-8.76186
▁dan	-8.76234
š	-8.76297
▁bur	-8.76417
▁sv	-8.76456
▁anti	-8.76498
▁mai	-8.76505
ninger	-8.76591
▁lå	-8.76611
▁ob	-8.76675
ister	-8.76893
ita	-8.77083
▁roman	-8.77242
pu	-8.7752
▁christian	-8.77553
▁mag	-8.77633
ige	-8.77818
ice	-8.77907
que	-8.77954
tri	-8.77987
han	-8.78103
▁12	-8.78146
▁barne	-8.78149
▁mc	-8.78278
▁landet	-8.78456
▁robert	-8.7852
ola	-8.78544
▁øy	-8.78714
pre	-8.78769
▁6	-8.78776
▁grav	-8.7882
isme	-8.78821
▁spiller	-8.78867
▁hei	-8.79018
ater	-8.79063
▁und	-8.79143
▁kultur	-8.79298
gh	-8.79385
ym	-8.79399
▁hi	-8.79401
▁gen	-8.79457
▁ber	-8.79645
net	-8.7967
ida	-8.79846
▁not	-8.80026
▁ve	-8.80142
press	-8.80149
▁natur	-8.80151
▁person	-8.80164
▁representerte	-8.80335
hl	-8.804
▁tv	-8.8067
▁gruppen	-8.80774
øl	-8.80865
▁lind	-8.80867
▁kina	-8.80895
anlegg	-8.80913
▁området	-8.80937
▁ord	-8.80991
▁radio	-8.8101
ppe	-8.8108
tic	-8.8112
с	-8.81148
ath	-8.81163
ther	-8.81169
▁norge	-8.81177
▁14	-8.81229
mester	-8.81238
fjord	-8.81304
▁gull	-8.81367
▁sen	-8.81386
dra	-8.8149
ighet	-8.81636
▁norske	-8.81719
ære	-8.81736
▁valg	-8.8174
gård	-8.81869
▁vol	-8.81904
▁km	-8.82031
▁inter	-8.82111
▁plan	-8.82145
pper	-8.82309
øya	-8.82362
lek	-8.82728
▁kra	-8.82732
▁fast	-8.82898
navn	-8.82922
▁thor	-8.82967
fon	-8.83089
hn	-8.83207
▁ci	-8.83219
▁videre	-8.83246
▁erik	-8.83289
ij	-8.83534
my	-8.83598
ip	-8.83683
▁svensk	-8.83749
▁kr	-8.83977
ble	-8.83986
up	-8.84009
▁bruker	-8.8404
▁hav	-8.84056
ū	-8.84188
mål	-8.84201
▁die	-8.84242
fo	-8.84322
▁cas	-8.84525
don	-8.84554
▁ap	-8.84586
▁ya	-8.84821
▁gr	-8.8487
▁q	-8.84917
▁nasjonal	-8.84928
vær	-8.85003
bø	-8.85239
ay	-8.85262
▁tal	-8.85351
lev	-8.85412
än	-8.85489
▁mark	-8.85627
▁fl	-8.85638
gan	-8.85773
▁både	-8.86178
lik	-8.86189
▁uten	-8.86204
▁mars	-8.86246
▁martin	-8.86312
▁ex	-8.86321
ves	-8.86476
▁port	-8.86661
▁motor	-8.86669
age	-8.86697
red	-8.86873
kom	-8.87102
ib	-8.87103
▁för	-8.87192
▁hvit	-8.87271
▁kla	-8.87285
områder	-8.87312
uk	-8.87339
▁lokal	-8.87581
▁midt	-8.87594
▁alt	-8.87598
▁gl	-8.87809
alis	-8.87914
▁tom	-8.88123
▁ly	-8.88162
▁kn	-8.88268
▁cor	-8.88551
▁2006	-8.8858
ille	-8.88588
▁slik	-8.88596
xi	-8.88612
▁band	-8.8862
▁hovedstad	-8.88649
▁selskapet	-8.88659
▁via	-8.88814
blad	-8.88878
▁august	-8.88895
▁class	-8.88905
▁25	-8.88968
▁cu	-8.89073
▁karl	-8.89113
▁stat	-8.89197
▁ky	-8.89201
▁dia	-8.89356
eri	-8.89371
▁gro	-8.89434
▁sommer	-8.89478
▁ang	-8.89542
▁rø	-8.89727
▁norges	-8.89843
▁plante	-8.89906
huset	-8.90144
▁mad	-8.90162
▁brukes	-8.90175
▁hy	-8.90193
▁cl	-8.90315
ella	-8.90373
tiv	-8.90408
rud	-8.90529
▁gift	-8.90551
▁siden	-8.90654
к	-8.90667
rang	-8.90902
bruk	-8.91054
▁you	-8.91328
▁tekst	-8.91335
▁sine	-8.91632
▁9	-8.91662
▁mos	-8.91698
▁gresk	-8.92008
som	-8.92013
fer	-8.92029
▁http	-8.92042
▁tysk	-8.92045
ata	-8.92079
the	-8.92373
▁mac	-8.92391
▁carl	-8.92511
▁bl	-8.9258
▁kun	-8.92595
ford	-8.92685
▁stra	-8.92781
mark	-8.92826
▁mil	-8.92919
▁halv	-8.92943
ros	-8.93235
▁bill	-8.93252
ix	-8.93346
trykk	-8.93417
▁eksempel	-8.93473
▁opprinnelig	-8.93473
kh	-8.93509
у	-8.93834
enes	-8.93979
fall	-8.93996
▁farge	-8.94002
ving	-8.94033
▁roll	-8.94064
▁hell	-8.94177
bert	-8.94339
område	-8.94436
sky	-8.94437
▁fred	-8.9445
navnet	-8.94511
sto	-8.94595
▁når	-8.94675
▁tele	-8.94765
ani	-8.95087
▁ban	-8.95204
vei	-8.9523
▁yu	-8.9529
▁war	-8.95353
▁distrikt	-8.95438
cu	-8.95481
▁dikt	-8.95547
▁distriktet	-8.95654
à	-8.9571
dde	-8.95779
▁vår	-8.95815
▁blå	-8.95859
hal	-8.95944
jen	-8.96019
tus	-8.96096
▁johan	-8.96124
▁fal	-8.96168
lis	-8.96229
▁sub	-8.9644
▁tradisjonell	-8.96492
eres	-8.96495
ova	-8.96644
mus	-8.96669
▁ø	-8.97131
▁stu	-8.97197
▁park	-8.97198
▁kol	-8.97238
▁21	-8.97265
ori	-8.9755
▁vise	-8.97724
ive	-8.97952
spill	-8.97968
skole	-8.9802
pen	-8.98036
▁plat	-8.98121
bær	-8.98185
▁arm	-8.98186
▁støtte	-8.98245
anger	-8.98466
sam	-8.98487
▁blad	-8.98511
▁het	-8.98514
lse	-8.98559
▁verk	-8.98589
▁administrasjons	-8.98617
pris	-8.98675
▁ska	-8.98937
stra	-8.99031
▁jeg	-8.99097
ν	-8.99411
nu	-8.99421
▁organ	-8.99617
▁beste	-8.99767
vern	-8.99941
forening	-8.99963
▁sil	-8.99976
▁begge	-8.99979
▁ole	-8.99991
jer	-9.00149
ight	-9.00471
gle	-9.00702
ish	-9.00794
ura	-9.00907
bygg	-9.00973
kin	-9.01044
▁gran	-9.01049
▁tr	-9.01118
iz	-9.01217
▁sommerfugl	-9.01245
▁japansk	-9.0128
▁west	-9.01286
▁22	-9.01301
lene	-9.01342
▁david	-9.01346
▁fer	-9.01373
mal	-9.01539
▁fla	-9.01651
▁jon	-9.0167
▁mis	-9.01747
elig	-9.01772
р	-9.01836
▁hø	-9.01859
▁fransk	-9.01907
10	-9.01995
lla	-9.01998
bus	-9.02081
▁spe	-9.02117
▁gjerne	-9.02313
▁president	-9.0232
kj	-9.02335
▁es	-9.02433
▁sto	-9.0245
▁seks	-9.02627
▁eu	-9.02645
▁bø	-9.02652
bin	-9.02751
aks	-9.02819
dig	-9.02826
▁william	-9.02914
gge	-9.03012
tsj	-9.03017
sjef	-9.03236
res	-9.03247
ì	-9.0331
▁2007	-9.03338
▁dom	-9.0335
▁ein	-9.03362
råd	-9.03471
way	-9.03497
▁tru	-9.03525
▁with	-9.03551
fin	-9.03593
▁ring	-9.03668
ep	-9.03687
tiden	-9.03702
▁thomas	-9.0373
▁riks	-9.03732
▁small	-9.03761
▁lø	-9.03788
lett	-9.03813
▁lin	-9.03862
▁gamle	-9.03863
▁luft	-9.0393
▁will	-9.03976
▁gri	-9.03979
▁fil	-9.03984
▁enn	-9.04095
rak	-9.04109
▁that	-9.04156
våg	-9.04198
▁sur	-9.04249
▁11	-9.04304
▁sy	-9.04421
▁christ	-9.04492
ity	-9.04499
legg	-9.04546
lys	-9.04567
wi	-9.04571
ati	-9.04607
л	-9.04617
bor	-9.04815
▁bas	-9.04883
▁tak	-9.04884
hy	-9.0489
▁dem	-9.04899
cy	-9.04909
▁ulike	-9.04921
▁23	-9.04953
▁frank	-9.04986
▁100	-9.05082
og	-9.05104
▁kri	-9.05184
▁trans	-9.05199
ød	-9.05392
▁jag	-9.05464
fri	-9.05532
▁konge	-9.05564
▁lyd	-9.05692
▁johannes	-9.05698
▁reference	-9.05725
▁30	-9.05802
rum	-9.05836
dro	-9.05984
▁ze	-9.06037
organisasjon	-9.06063
▁2010	-9.06153
ub	-9.06261
т	-9.06369
▁ingen	-9.06451
▁styre	-9.06478
▁wal	-9.06507
▁full	-9.06518
▁imidlertid	-9.06543
▁kunne	-9.06549
▁ram	-9.06564
▁cap	-9.06613
▁tok	-9.06668
har	-9.06747
ō	-9.06859
løp	-9.06903
▁0	-9.06997
cc	-9.07025
ull	-9.0704
senteret	-9.07042
▁hele	-9.07082
▁ok	-9.071
▁vas	-9.07237
▁28	-9.07241
▁rett	-9.07267
lle	-9.07301
▁pri	-9.07349
ider	-9.07414
isering	-9.07558
▁gre	-9.07568
▁derfor	-9.07596
qui	-9.07643
в	-9.07647
pro	-9.07719
ssa	-9.0774
▁georg	-9.07752
▁bli	-9.07755
▁www	-9.07783
▁følger	-9.07832
ance	-9.0784
med	-9.07895
elser	-9.07901
pan	-9.07951
▁les	-9.07974
▁sang	-9.08004
leder	-9.08153
▁kje	-9.08168
▁viktigste	-9.08214
get	-9.08368
▁zh	-9.08411
▁son	-9.08554
▁foran	-9.08672
▁kat	-9.08675
sak	-9.08686
▁samme	-9.08793
tti	-9.08829
rå	-9.0885
▁att	-9.09004
▁grenser	-9.09286
▁kron	-9.09287
▁reg	-9.09315
▁hennes	-9.0939
pt	-9.09443
▁general	-9.09468
pol	-9.09642
▁bon	-9.09729
isert	-9.09839
▁24	-9.09864
dals	-9.09888
jev	-9.09919
aksjon	-9.10032
selskap	-9.1007
stu	-9.10071
▁kur	-9.10104
▁datter	-9.10144
stilling	-9.10239
▁hovedstaden	-9.10453
▁nett	-9.10524
ban	-9.10529
▁xi	-9.10564
▁spilles	-9.10616
▁sak	-9.10649
elt	-9.10723
▁latin	-9.10723
mund	-9.10814
▁bri	-9.10925
▁temp	-9.11004
▁stats	-9.11057
▁eksempler	-9.11166
ite	-9.1117
▁deretter	-9.11219
▁ser	-9.11297
▁kyst	-9.11376
all	-9.11443
zhou	-9.11497
nor	-9.11525
▁data	-9.11642
▁je	-9.11742
isten	-9.11771
▁2009	-9.12056
qu	-9.12204
cha	-9.12274
▁vir	-9.12592
▁sentral	-9.1277
gje	-9.12808
tegn	-9.12862
▁2008	-9.12928
▁george	-9.12968
ast	-9.12987
stru	-9.12988
▁zu	-9.13044
syn	-9.13228
▁dra	-9.13334
▁2005	-9.13383
н	-9.13438
ås	-9.13446
▁egen	-9.13479
kov	-9.13489
komme	-9.13613
▁slekt	-9.13701
ι	-9.1378
lot	-9.13791
▁hor	-9.13827
▁stre	-9.13855
dom	-9.13902
ette	-9.14002
▁lik	-9.1402
uch	-9.14047
▁bj	-9.14114
▁mol	-9.14184
▁produsere	-9.14223
oc	-9.14335
▁lille	-9.14442
▁arter	-9.14466
nett	-9.14523
▁bare	-9.14525
на	-9.14802
▁she	-9.14872
▁skolen	-9.14937
ram	-9.15022
ör	-9.15026
▁michael	-9.15114
side	-9.15161
qua	-9.15176
▁arabisk	-9.15197
▁nils	-9.15198
sj	-9.15316
vil	-9.15396
dor	-9.15453
zo	-9.15604
stil	-9.15626
▁vært	-9.15714
elli	-9.15734
rat	-9.15753
bane	-9.15767
ges	-9.15771
én	-9.15799
ala	-9.15841
iti	-9.15877
▁eg	-9.15951
cia	-9.15957
ction	-9.16033
las	-9.16075
▁qu	-9.16085
▁sky	-9.16177
banen	-9.16186
bygd	-9.16194
jan	-9.16465
asjonen	-9.16763
før	-9.16833
▁dessuten	-9.1692
▁maria	-9.16935
ringen	-9.16944
▁rekke	-9.16945
▁cal	-9.16981
▁ek	-9.17003
skog	-9.17022
▁opera	-9.17036
▁bør	-9.17047
▁system	-9.17126
▁arbeids	-9.17277
▁barn	-9.17388
▁eid	-9.17461
▁kh	-9.17547
▁lars	-9.17571
▁topp	-9.17661
mannen	-9.17728
▁deres	-9.17738
▁1989	-9.17835
▁dal	-9.17857
▁2004	-9.1787
ky	-9.17893
sjøen	-9.18013
▁provinsen	-9.18079
lagt	-9.18303
▁nye	-9.18316
▁lund	-9.18389
▁eier	-9.18511
pir	-9.18543
minister	-9.18559
ria	-9.18587
byen	-9.18611
ob	-9.18694
▁13	-9.18734
gul	-9.19137
språk	-9.19357
▁kre	-9.19362
▁usa	-9.19367
▁skulle	-9.19401
▁ball	-9.19481
▁tillegg	-9.19639
ild	-9.19666
▁odd	-9.19709
kul	-9.19722
området	-9.19758
fu	-9.1976
▁industri	-9.19762
▁mas	-9.19829
systemet	-9.19852
båt	-9.1995
▁web	-9.20023
▁anne	-9.20117
ansk	-9.20118
▁inkludert	-9.2016
syre	-9.20243
verket	-9.20279
▁regi	-9.20421
ose	-9.206
samling	-9.20611
eller	-9.20692
▁knut	-9.20743
▁viktige	-9.20964
plan	-9.21039
50	-9.21093
▁2011	-9.21122
▁sm	-9.21139
▁kj	-9.21166
olog	-9.21185
prosess	-9.21195
▁nærings	-9.21245
▁mont	-9.21246
værende	-9.21263
▁prest	-9.21296
▁tett	-9.21364
▁terr	-9.21371
12	-9.214
▁lar	-9.2141
▁stil	-9.21447
▁ten	-9.21604
▁000	-9.21643
bjørn	-9.21725
▁arne	-9.21885
▁års	-9.21899
illa	-9.21928
alt	-9.21928
▁filmen	-9.22039
tatt	-9.22099
oli	-9.22117
graf	-9.22172
▁gikk	-9.22327
▁ør	-9.22356
▁bruk	-9.22429
stat	-9.2249
▁tittelen	-9.2254
log	-9.22671
heten	-9.22757
▁skrevet	-9.2278
sal	-9.22796
▁wo	-9.22804
▁hver	-9.22866
▁27	-9.22968
▁elven	-9.22983
▁vanligvis	-9.23055
▁don	-9.23075
▁slag	-9.23104
iner	-9.23108
▁rock	-9.23215
▁litt	-9.23228
zz	-9.2323
gaard	-9.2331
▁skul	-9.23314
▁grå	-9.23384
rop	-9.23399
▁arkitekt	-9.23466
▁tj	-9.23548
▁gav	-9.23579
rus	-9.23602
▁che	-9.23607
▁lev	-9.23637
lighet	-9.23813
pl	-9.23822
▁camp	-9.23866
løse	-9.23907
bru	-9.23998
▁pen	-9.24003
▁ind	-9.24052
▁hall	-9.24119
ført	-9.24287
▁are	-9.24346
▁rev	-9.2435
gna	-9.24377
ografi	-9.2442
kken	-9.24429
▁døde	-9.24435
▁militær	-9.24488
▁mannskapet	-9.24494
asjoner	-9.24554
▁blod	-9.2476
▁start	-9.24763
▁pat	-9.24799
▁eng	-9.24849
▁strand	-9.24938
ρ	-9.24981
▁januar	-9.24982
vig	-9.25161
▁air	-9.25174
▁amerikansk	-9.25226
landet	-9.2524
pur	-9.25285
organ	-9.25297
▁helse	-9.25441
́	-9.25476
lie	-9.25489
tis	-9.25555
▁lands	-9.25631
kant	-9.25646
ket	-9.25661
heng	-9.2587
▁svart	-9.25891
г	-9.25923
▁slutt	-9.26084
▁super	-9.26142
▁hånd	-9.26289
arbeid	-9.26331
▁region	-9.26448
▁standard	-9.26475
▁pin	-9.26549
lå	-9.26567
м	-9.26595
▁egg	-9.26618
▁mur	-9.26749
nis	-9.26915
skij	-9.26962
▁win	-9.27026
spiller	-9.27029
ón	-9.27067
full	-9.27115
are	-9.2715
voll	-9.27172
▁får	-9.27253
eks	-9.27392
▁herre	-9.27409
gon	-9.27523
▁gitar	-9.27582
ben	-9.27588
▁utgjør	-9.27604
▁din	-9.27705
▁lov	-9.27707
▁orden	-9.27715
stor	-9.27731
ão	-9.27798
▁comp	-9.27834
▁dann	-9.27902
▁båt	-9.27915
▁klubben	-9.27943
▁finn	-9.27977
▁mass	-9.28105
▁finner	-9.28128
fal	-9.28358
▁poly	-9.28418
farge	-9.28426
я	-9.28499
▁gammel	-9.28543
lund	-9.28548
▁mindre	-9.2858
▁versjon	-9.28642
▁pla	-9.28657
▁siste	-9.28681
▁medlem	-9.28718
▁lett	-9.2889
ial	-9.28965
▁viser	-9.28969
ney	-9.29075
19	-9.29085
lus	-9.29109
▁overtok	-9.29112
port	-9.29219
kjenne	-9.29338
▁lege	-9.29434
▁kulturminner	-9.29527
▁26	-9.29565
▁særlig	-9.29613
kket	-9.29618
ledd	-9.29627
▁bank	-9.29727
film	-9.29869
gata	-9.29912
▁29	-9.29925
▁spill	-9.2993
arter	-9.3003
▁bad	-9.30041
belteasteroide	-9.30045
▁regjering	-9.30046
▁student	-9.3005
▁fortsatt	-9.3015
retning	-9.30202
▁besto	-9.30297
fl	-9.30332
▁historie	-9.30389
ο	-9.30557
▁februar	-9.30566
▁innbyggere	-9.30566
▁høyeste	-9.30575
▁bygde	-9.30578
▁sir	-9.30589
17	-9.30594
kro	-9.30631
lang	-9.30644
istisk	-9.30646
ora	-9.30755
ologisk	-9.30845
aktig	-9.30956
asje	-9.30969
▁representerer	-9.31101
▁tang	-9.31206
ure	-9.31229
▁uni	-9.31275
▁kam	-9.31492
ekte	-9.31502
stasjon	-9.31534
▁forskjellige	-9.31616
▁juni	-9.31646
▁zo	-9.3167
blomst	-9.31703
▁fle	-9.31744
▁lam	-9.31803
▁studie	-9.31824
stoff	-9.31844
skje	-9.32021
vold	-9.32039
▁bass	-9.32091
▁im	-9.32182
▁cam	-9.3228
▁europa	-9.32332
▁sul	-9.32364
▁31	-9.32403
▁veg	-9.32507
vatnet	-9.32517
▁nø	-9.32599
▁bir	-9.32715
ence	-9.32721
▁bergen	-9.32736
▁imp	-9.328
▁us	-9.32809
ming	-9.32864
nivå	-9.32881
car	-9.32894
ved	-9.32957
rig	-9.3296
leg	-9.33043
▁oc	-9.33064
▁kin	-9.33225
▁kristian	-9.33245
▁grønn	-9.33272
▁off	-9.33282
▁bred	-9.33375
▁pol	-9.33387
▁skje	-9.33445
ér	-9.33545
▁andreas	-9.33606
▁с	-9.3365
▁kilde	-9.33654
▁mes	-9.33701
▁gje	-9.33738
▁harald	-9.33788
nik	-9.33793
▁spesial	-9.3382
▁kraft	-9.33825
▁politi	-9.33912
▁mak	-9.33984
lat	-9.34031
ira	-9.34099
▁liten	-9.34147
▁len	-9.34151
▁32	-9.34188
gruppen	-9.34235
rich	-9.34325
rike	-9.34351
ary	-9.34372
zy	-9.34399
▁ger	-9.34649
▁bel	-9.3481
▁anna	-9.34869
jel	-9.34922
wer	-9.34966
▁fotball	-9.35237
itz	-9.35255
sberg	-9.35257
▁vokal	-9.35285
▁bio	-9.35293
11	-9.35297
▁miljø	-9.35312
τ	-9.3538
▁samtidig	-9.35381
▁richard	-9.35381
▁nr	-9.35408
kka	-9.3541
fag	-9.35448
▁utenfor	-9.35477
ffer	-9.35484
▁blo	-9.35519
haug	-9.3555
oni	-9.35644
uf	-9.3571
▁ph	-9.35764
grad	-9.3577
▁serie	-9.35833
č	-9.35929
▁hovedsakelig	-9.35929
▁gang	-9.35931
▁hin	-9.35971
▁hon	-9.36008
▁sve	-9.36022
fugl	-9.3604
din	-9.36204
menn	-9.36215
▁olje	-9.36251
styre	-9.36257
kur	-9.36261
▁mann	-9.36299
hall	-9.36329
hua	-9.36372
▁dre	-9.36409
ål	-9.36454
phi	-9.36455
bånd	-9.36491
ade	-9.36497
▁180	-9.3656
▁kap	-9.36774
▁forfatter	-9.36785
▁est	-9.36801
ec	-9.36893
▁åtte	-9.36952
lling	-9.36982
▁haug	-9.36996
▁driver	-9.37053
▁sund	-9.3707
▁rh	-9.37145
partiet	-9.37224
▁mill	-9.37309
fører	-9.3736
▁samarbeid	-9.37364
▁kommunene	-9.37366
▁kunstner	-9.37378
▁sla	-9.37405
drag	-9.37405
system	-9.37452
ama	-9.37457
▁redaktør	-9.37467
king	-9.37493
arafa	-9.37547
▁nowiki	-9.37596
▁power	-9.37663
▁dermed	-9.37667
slav	-9.37687
hand	-9.37783
kast	-9.37787
dis	-9.37791
▁sted	-9.37877
▁dyr	-9.37891
ras	-9.379
▁hansen	-9.37903
aya	-9.3791
▁mand	-9.37917
▁holm	-9.38029
▁skr	-9.38029
tta	-9.38043
▁dam	-9.3816
▁nes	-9.38276
▁helge	-9.38311
▁james	-9.38376
▁myr	-9.38428
led	-9.38441
▁vinter	-9.3852
▁island	-9.3858
tha	-9.38585
▁sett	-9.38588
eksjon	-9.38719
▁skjer	-9.38739
▁venstre	-9.38741
skjell	-9.3879
▁anders	-9.38791
▁nevnes	-9.38798
yang	-9.3883
▁gjør	-9.38898
mun	-9.39015
▁just	-9.39055
▁modell	-9.39062
able	-9.3913
▁gruppe	-9.39149
▁vind	-9.39162
lov	-9.3917
▁virke	-9.39193
▁mik	-9.39222
▁ev	-9.39261
lsen	-9.39323
hov	-9.39326
▁lei	-9.39356
kamp	-9.39464
▁antall	-9.39477
▁sau	-9.39491
ativ	-9.39506
▁vinge	-9.3954
▁stav	-9.39589
▁jean	-9.39654
▁lufthavn	-9.3987
▁først	-9.39907
▁tegn	-9.39982
▁blei	-9.40084
▁ton	-9.40088
▁80	-9.40106
▁venn	-9.4017
▁syd	-9.40218
▁gy	-9.40268
▁kull	-9.4033
σ	-9.40437
▁italiensk	-9.40437
▁international	-9.40437
▁tan	-9.4055
▁oppført	-9.40554
▁but	-9.40577
▁kir	-9.40605
band	-9.40648
▁wei	-9.4066
gress	-9.40686
▁ep	-9.40896
▁world	-9.41015
aceae	-9.41044
▁familie	-9.4107
▁skrift	-9.41121
▁cra	-9.41171
▁nar	-9.41195
▁stan	-9.41239
▁jer	-9.41271
▁moder	-9.41282
cent	-9.41309
▁nan	-9.41341
▁ana	-9.41354
kre	-9.41402
can	-9.41534
▁sim	-9.41559
feld	-9.41656
▁høyre	-9.41695
resultat	-9.41821
▁ung	-9.41827
▁albert	-9.4183
low	-9.41849
ische	-9.41891
▁cy	-9.41952
▁bay	-9.41954
▁dagen	-9.41963
vogn	-9.41999
▁ungdoms	-9.42146
▁hem	-9.4215
tag	-9.42165
ström	-9.42181
▁svært	-9.42191
▁tilbake	-9.42192
▁angel	-9.42246
▁prosjekt	-9.42303
▁kode	-9.42426
01	-9.42432
▁grad	-9.42542
▁end	-9.42586
▁eli	-9.42614
▁fro	-9.42627
▁bror	-9.42677
▁sho	-9.42713
osi	-9.42738
strand	-9.42745
▁was	-9.42748
▁artikkel	-9.42785
▁rot	-9.42805
dømme	-9.4281
▁dato	-9.42835
▁internasjonale	-9.4284
field	-9.42851
▁bandet	-9.42874
13	-9.42903
ock	-9.4292
ith	-9.42949
▁tam	-9.42979
tun	-9.43054
▁henrik	-9.43096
dia	-9.43116
▁sn	-9.4313
▁hår	-9.43235
valg	-9.4331
▁dansk	-9.43316
fjellet	-9.43332
▁tilhørte	-9.43361
▁foss	-9.43377
mot	-9.43394
▁il	-9.43615
lar	-9.43646
røy	-9.43705
dorf	-9.4371
gir	-9.43824
▁flu	-9.43836
tok	-9.4391
yan	-9.43916
akademi	-9.43958
▁mod	-9.44067
ric	-9.44099
▁sw	-9.44104
▁cho	-9.44143
holm	-9.44195
▁app	-9.44207
▁ordet	-9.44236
▁ask	-9.44251
▁gor	-9.44257
punkt	-9.44287
▁fr	-9.44421
manns	-9.44454
▁ec	-9.44458
▁rein	-9.44468
▁type	-9.44534
mand	-9.44536
osa	-9.44547
▁basert	-9.44639
▁2000	-9.44644
strøm	-9.44725
▁bol	-9.44743
▁dis	-9.44792
ön	-9.44804
▁større	-9.44841
▁tilby	-9.44851
kla	-9.44917
б	-9.44922
▁dj	-9.45062
18	-9.4508
cal	-9.45102
▁stjerne	-9.45209
▁lange	-9.4526
løs	-9.45469
▁vit	-9.45583
▁ye	-9.45639
utvikling	-9.45643
con	-9.45663
▁grand	-9.45702
▁cre	-9.45703
▁py	-9.45741
▁brenselkilden	-9.45763
▁bakvingen	-9.45766
▁long	-9.45773
▁keiser	-9.45774
▁forenkle	-9.45784
▁rest	-9.45853
▁gun	-9.45907
sikt	-9.45921
one	-9.46059
ado	-9.46063
▁gate	-9.46102
▁mun	-9.46129
▁produsert	-9.46132
▁may	-9.46165
ali	-9.46261
▁polsk	-9.46324
▁thi	-9.46363
ǎ	-9.46373
ε	-9.46373
▁national	-9.46376
▁sølv	-9.46382
▁kalte	-9.46482
ez	-9.46564
▁qui	-9.46566
▁gam	-9.46611
▁ris	-9.46613
cl	-9.46656
▁char	-9.46739
gin	-9.46775
▁sli	-9.468
▁dø	-9.46813
▁nam	-9.46841
mas	-9.4692
▁året	-9.4695
▁40	-9.46962
ù	-9.46987
▁spi	-9.47002
ssen	-9.47015
▁2003	-9.47033
▁daniel	-9.4704
▁populær	-9.47104
nummer	-9.47143
▁fall	-9.47271
tek	-9.4729
▁fre	-9.47296
wan	-9.47374
yu	-9.47407
yo	-9.47515
nic	-9.47571
▁isbn	-9.47614
zu	-9.47631
pla	-9.47678
ün	-9.4778
rad	-9.47845
anske	-9.47883
iserte	-9.47892
ire	-9.47896
awa	-9.47922
renner	-9.48013
rør	-9.48024
▁70	-9.48038
of	-9.48053
▁flat	-9.48085
▁unn	-9.48143
▁fredrik	-9.48194
under	-9.48243
lid	-9.48283
her	-9.48347
unt	-9.48382
istiske	-9.48485
15	-9.48497
▁tap	-9.48532
logen	-9.48564
zh	-9.48623
ark	-9.48676
▁bygg	-9.48706
▁meter	-9.48733
▁sosial	-9.48741
parti	-9.488
ical	-9.48833
і	-9.4885
▁kategori	-9.4885
▁hj	-9.48874
▁star	-9.48881
▁esp	-9.48882
▁felles	-9.48953
▁jernbane	-9.49
▁stemme	-9.49051
▁punkt	-9.49056
uc	-9.49074
▁176	-9.49074
▁hjemme	-9.49086
▁minne	-9.49086
▁bla	-9.49161
øst	-9.49225
▁has	-9.49238
▁lan	-9.49325
äl	-9.49348
▁ann	-9.49393
amp	-9.49432
▁delta	-9.4945
ă	-9.49479
▁sten	-9.4954
▁hjerte	-9.49555
ppen	-9.49559
▁berlin	-9.49605
flu	-9.49628
▁løv	-9.49691
▁horn	-9.49698
▁kommun	-9.49705
▁left	-9.49729
▁startet	-9.49796
▁yo	-9.49856
▁strøm	-9.49954
ān	-9.50106
▁bekrefte	-9.50166
▁2001	-9.50167
20	-9.50176
aten	-9.50202
▁larvene	-9.50265
▁ce	-9.50277
ott	-9.50298
▁slike	-9.5034
▁vä	-9.50351
ferd	-9.5043
▁slekten	-9.50476
▁50	-9.50495
▁kas	-9.50508
▁inge	-9.50546
az	-9.50606
skrift	-9.50612
vit	-9.50747
κ	-9.50749
▁hå	-9.50815
▁brann	-9.50913
▁grense	-9.50954
sats	-9.51059
cul	-9.51093
fjell	-9.51138
industri	-9.51293
▁fylke	-9.51338
fest	-9.51377
▁sverige	-9.51392
▁louis	-9.51393
lich	-9.51396
jiang	-9.51453
skjær	-9.51457
ato	-9.51591
▁kost	-9.51633
ín	-9.51636
zar	-9.51649
pin	-9.51665
▁cur	-9.51843
havet	-9.51844
▁179	-9.51861
▁sort	-9.51904
▁måt	-9.51951
produksjon	-9.51952
вич	-9.52039
▁maur	-9.52059
▁mottok	-9.52106
▁por	-9.52131
▁king	-9.52179
▁from	-9.5218
elva	-9.52231
ко	-9.52321
▁turn	-9.52382
▁glo	-9.5247
part	-9.52571
aria	-9.5259
lei	-9.52669
grav	-9.52684
▁november	-9.52684
▁april	-9.52688
mod	-9.52714
forbundet	-9.52729
▁arbeider	-9.52742
erende	-9.52816
midler	-9.5289
kraftverk	-9.52972
satte	-9.53026
liste	-9.53124
forbindelse	-9.53153
▁cer	-9.53154
▁162	-9.5319
klar	-9.53273
▁tha	-9.53327
λ	-9.53338
▁tredje	-9.5334
kraft	-9.53359
▁2012	-9.53363
mma	-9.53407
com	-9.53424
▁black	-9.53439
stående	-9.53473
▁blitt	-9.53475
ár	-9.53503
▁salt	-9.53531
lon	-9.53546
▁bilde	-9.53564
▁ken	-9.53625
▁omfatte	-9.53625
▁tidlig	-9.53654
▁stri	-9.53659
▁up	-9.53695
▁frukt	-9.53749
▁wen	-9.5377
bygning	-9.53902
▁avis	-9.53959
▁bort	-9.53959
løper	-9.53961
utdanning	-9.54043
▁que	-9.5405
▁heste	-9.54098
14	-9.54155
museet	-9.54243
▁35	-9.54245
bakken	-9.54414
▁flo	-9.54435
▁172	-9.54441
▁pass	-9.54463
fond	-9.54518
▁tim	-9.5457
arm	-9.54635
▁gunnar	-9.54661
▁såkalt	-9.54663
rup	-9.54737
▁olav	-9.5475
▁russland	-9.5479
▁hovedrollene	-9.54902
▁produsent	-9.5498
▁menneske	-9.55007
hin	-9.5503
▁sogn	-9.55114
lignende	-9.55119
▁gård	-9.5518
orm	-9.55192
gy	-9.55278
▁mø	-9.55305
liggende	-9.55333
▁skuespiller	-9.55348
▁zi	-9.55352
▁pal	-9.55353
▁passer	-9.55382
plass	-9.5548
kreft	-9.55527
▁gau	-9.55541
▁hører	-9.5558
▁fylkes	-9.55645
▁politisk	-9.55711
bit	-9.55796
ick	-9.55824
vinger	-9.5583
ies	-9.55891
ost	-9.55916
▁old	-9.55988
▁charles	-9.56034
▁spar	-9.56077
els	-9.56081
▁teater	-9.5612
gt	-9.56122
▁lek	-9.56252
▁æ	-9.56289
sjoner	-9.56299
cus	-9.56313
tive	-9.56329
▁krist	-9.56407
plassen	-9.56423
stikk	-9.56433
forbund	-9.56484
▁kvinne	-9.5651
shan	-9.56527
▁mørk	-9.56611
ß	-9.56645
16	-9.56655
▁lær	-9.56791
▁sanger	-9.56831
eide	-9.56855
▁middel	-9.56964
▁real	-9.57002
▁kjell	-9.57028
skip	-9.57057
▁out	-9.57082
gra	-9.57153
svik	-9.57199
ст	-9.57215
ima	-9.57257
▁time	-9.57293
▁wat	-9.57351
ē	-9.57352
▁omkring	-9.57354
▁smal	-9.5736
tempelet	-9.57374
magasin	-9.57376
ulf	-9.57418
cho	-9.57456
gli	-9.57469
old	-9.57498
▁uk	-9.57517
▁utgitt	-9.57532
cht	-9.57546
▁sangen	-9.57663
opter	-9.57804
▁borg	-9.57808
▁rei	-9.57896
▁river	-9.57937
ł	-9.57966
▁original	-9.58037
sko	-9.58049
ping	-9.58079
delse	-9.58115
▁samle	-9.58132
▁india	-9.58149
▁bolig	-9.58188
rim	-9.58198
▁nytt	-9.58207
▁utgi	-9.58225
й	-9.58246
▁vanlig	-9.58267
▁sag	-9.58269
▁dar	-9.58276
sport	-9.58339
gua	-9.58406
▁ref	-9.58461
▁kil	-9.58539
▁marine	-9.58627
dahl	-9.58698
▁wilhelm	-9.58727
sion	-9.58806
▁neu	-9.58831
▁165	-9.58833
▁kul	-9.58872
▁fant	-9.58944
▁ara	-9.58946
hode	-9.58979
▁gla	-9.59019
mur	-9.59027
▁gui	-9.59062
ique	-9.59109
▁los	-9.59132
▁ves	-9.59134
dar	-9.59244
bein	-9.59249
30	-9.59306
loven	-9.59311
▁design	-9.59324
▁qua	-9.59336
▁north	-9.59341
▁finsk	-9.594
з	-9.5942
▁dokument	-9.59421
▁ukrainsk	-9.59421
▁max	-9.59435
▁mah	-9.5945
▁pris	-9.59458
gå	-9.59473
▁iso	-9.59553
▁folk	-9.59564
fabrikk	-9.59566
▁krigs	-9.59579
▁elve	-9.59651
▁tallet	-9.5968
▁155	-9.59762
▁nev	-9.59765
rev	-9.59873
▁ran	-9.60032
lem	-9.60058
▁etablert	-9.60121
temperatur	-9.60126
▁øya	-9.60223
musikk	-9.60243
gående	-9.60291
kontor	-9.60357
▁handels	-9.60532
ada	-9.60541
bank	-9.60592
▁munn	-9.6063
gro	-9.60739
▁dyre	-9.60767
▁olsen	-9.60772
▁informasjon	-9.60825
▁privat	-9.60832
▁forsvar	-9.60833
▁sun	-9.60877
chu	-9.60974
▁anton	-9.61107
▁flor	-9.61184
hund	-9.61257
▁dun	-9.6126
▁kraftig	-9.6126
formet	-9.61296
spor	-9.61314
▁178	-9.61372
gruppe	-9.61386
cher	-9.61395
nia	-9.61396
oide	-9.61463
▁kropp	-9.61495
▁pl	-9.61502
liga	-9.61533
▁typisk	-9.61541
▁stasjon	-9.6159
▁andersen	-9.61633
ç	-9.61665
▁gru	-9.61702
una	-9.61768
gitt	-9.61774
▁auto	-9.61802
▁nummer	-9.61825
▁169	-9.61843
▁villa	-9.6185
skudd	-9.61909
▁landsbyen	-9.61946
phy	-9.61952
▁fugle	-9.61967
▁seil	-9.62019
▁natt	-9.62048
oper	-9.62059
▁vid	-9.62136
▁larven	-9.62158
▁elektro	-9.6224
well	-9.62243
▁desember	-9.62248
▁begynt	-9.62249
▁meg	-9.62275
▁forsknings	-9.62339
▁song	-9.62341
▁ras	-9.62408
â	-9.6243
kommune	-9.62474
hei	-9.62484
maskin	-9.62486
gard	-9.6254
stø	-9.62627
▁leg	-9.62699
▁dor	-9.62739
ander	-9.62776
▁gil	-9.62784
▁fjord	-9.6283
▁trykk	-9.6283
ismen	-9.62923
▁kamp	-9.6296
▁canada	-9.62998
posisjon	-9.63004
ensis	-9.6302
▁medlemmer	-9.63041
▁nest	-9.6307
▁matt	-9.63202
▁tall	-9.63205
▁have	-9.63308
▁rå	-9.63336
air	-9.63379
hel	-9.63384
▁hed	-9.6342
ville	-9.63443
▁bærer	-9.63618
ч	-9.63687
▁wil	-9.63692
▁tildelt	-9.63752
alder	-9.63844
pha	-9.63846
jord	-9.63871
▁arn	-9.63878
▁byer	-9.63952
liv	-9.64009
møll	-9.6401
win	-9.64063
lé	-9.64072
▁kontroll	-9.6414
▁noe	-9.64228
kirke	-9.64234
▁jacob	-9.6424
▁partiet	-9.64259
handler	-9.64285
▁årlig	-9.64326
▁sven	-9.64366
▁styrke	-9.64411
ë	-9.64422
hjul	-9.64471
▁kro	-9.64478
▁riksvei	-9.64486
▁33	-9.64499
kjede	-9.6452
ux	-9.64584
gården	-9.64616
▁ö	-9.64635
▁regnes	-9.64636
▁serien	-9.64653
arkiv	-9.64684
bach	-9.6471
▁167	-9.64789
▁tsj	-9.64833
hai	-9.64928
gram	-9.64934
▁finland	-9.64935
gikk	-9.64944
▁spor	-9.6497
02	-9.64973
▁oliv	-9.65
butikk	-9.65074
tårn	-9.65103
▁elev	-9.65109
ito	-9.65111
▁utviklet	-9.65158
▁tittel	-9.65164
▁oppkalt	-9.65165
dam	-9.6518
▁hit	-9.65212
oth	-9.65257
ledning	-9.65257
▁mig	-9.65269
▁japan	-9.65358
teori	-9.65379
ра	-9.65411
olo	-9.65426
strid	-9.65429
▁164	-9.65561
▁klasse	-9.65616
▁hør	-9.65686
▁bat	-9.65692
▁hopp	-9.65795
▁174	-9.65836
▁gjer	-9.65861
▁hov	-9.65864
plasser	-9.65866
▁september	-9.65898
▁hjelp	-9.65914
atur	-9.65925
befolkning	-9.65932
▁bind	-9.6595
gal	-9.65956
medalje	-9.66094
sang	-9.66096
▁rosen	-9.66168
▁36	-9.66181
▁dol	-9.66221
▁klar	-9.66224
▁love	-9.6623
▁grøn	-9.66242
▁bygge	-9.66273
klubben	-9.66279
nam	-9.6635
▁nova	-9.66391
▁wu	-9.6643
▁ledet	-9.66459
sha	-9.66599
▁løper	-9.66639
▁oktober	-9.66644
▁spesielt	-9.66644
mos	-9.6673
▁idretts	-9.6673
▁ordenen	-9.66739
formen	-9.66761
hav	-9.668
▁få	-9.66841
▁henry	-9.66845
mit	-9.66923
ann	-9.67038
▁rund	-9.67075
▁buk	-9.67155
▁betydning	-9.67206
ffe	-9.67286
60	-9.67328
brudd	-9.67362
kanalen	-9.67376
▁univers	-9.67382
▁album	-9.674
motor	-9.67428
ån	-9.6744
▁pop	-9.6745
vers	-9.67492
▁kors	-9.67516
▁netto	-9.67519
▁vor	-9.67593
mbo	-9.67628
▁mit	-9.67766
oksid	-9.67807
gue	-9.67838
▁cell	-9.67855
bal	-9.67871
▁qi	-9.67882
ка	-9.67907
▁gard	-9.67915
forhold	-9.67939
ür	-9.67957
▁kara	-9.68052
skriv	-9.68055
▁museum	-9.68084
▁institut	-9.68119
tum	-9.68174
▁2014	-9.68175
▁2013	-9.68178
▁leir	-9.68197
▁hjem	-9.68215
nie	-9.68275
▁frø	-9.68299
▁res	-9.68348
hed	-9.68369
bakk	-9.6837
vall	-9.68601
flø	-9.68607
park	-9.68634
formede	-9.68667
▁lau	-9.68677
inne	-9.68721
eier	-9.68746
cca	-9.68746
▁internasjonal	-9.68825
felt	-9.68832
ona	-9.68837
setning	-9.68915
ô	-9.68917
▁direkte	-9.68942
▁igjen	-9.68946
▁patri	-9.69002
▁mørke	-9.69037
rekord	-9.69044
yuan	-9.6921
▁franc	-9.69238
▁160	-9.69291
▁bern	-9.69346
▁ud	-9.69349
lic	-9.69408
▁jim	-9.69485
▁82	-9.69683
▁autonom	-9.69689
▁nic	-9.69698
løsning	-9.69715
foss	-9.69747
▁eiendom	-9.69811
▁vekt	-9.69881
jia	-9.69887
▁stedet	-9.69893
▁syl	-9.69901
▁enkelt	-9.69976
▁hul	-9.69999
▁stø	-9.70032
øyene	-9.70112
ørn	-9.70112
ов	-9.70113
▁jern	-9.70119
▁ett	-9.70121
▁linje	-9.70125
lønn	-9.70156
▁moderne	-9.70201
▁staten	-9.70232
anda	-9.70279
▁tyskland	-9.70288
arten	-9.70292
▁snø	-9.70305
ál	-9.70315
områdene	-9.70405
▁klo	-9.70452
▁verdi	-9.7046
▁magnus	-9.70472
▁met	-9.70651
ful	-9.70652
mmel	-9.70694
▁einar	-9.70829
▁music	-9.70835
lä	-9.70884
avdeling	-9.70924
▁ven	-9.70985
▁drama	-9.70994
▁rep	-9.7104
▁arten	-9.71065
klo	-9.71099
▁hær	-9.71155
▁beskrive	-9.71236
▁metall	-9.71275
krigen	-9.71277
▁fjern	-9.71282
▁rand	-9.71299
▁sea	-9.71309
▁stasjonen	-9.71335
▁173	-9.71456
korps	-9.71466
pel	-9.71508
▁sko	-9.71541
tom	-9.71585
▁bis	-9.71593
ritt	-9.71623
distrikt	-9.71679
eira	-9.71693
ania	-9.71695
middel	-9.71737
hjem	-9.71742
▁steve	-9.71773
▁34	-9.71787
▁daglig	-9.71805
▁sju	-9.71812
▁helt	-9.71815
▁fat	-9.71826
cio	-9.71866
▁vinner	-9.7191
fot	-9.71918
ough	-9.71922
▁idrettslag	-9.71948
▁sar	-9.71992
▁rus	-9.71998
ê	-9.7203
oner	-9.72049
▁kloster	-9.72082
▁mid	-9.72152
▁fol	-9.72185
▁produkt	-9.7223
▁pap	-9.7224
hm	-9.7234
departementet	-9.72344
▁johann	-9.72406
▁multi	-9.72423
▁part	-9.72464
hard	-9.72467
landskap	-9.72472
kere	-9.72476
parken	-9.72536
▁brukte	-9.72632
seth	-9.72665
▁bety	-9.72701
▁jen	-9.72789
vitenskap	-9.7281
krets	-9.72814
ò	-9.72824
ž	-9.72824
▁egentlig	-9.72844
rådet	-9.72851
▁blue	-9.72872
hem	-9.73003
▁sentrum	-9.73024
▁hard	-9.73145
▁johansen	-9.732
▁hydro	-9.73209
spinner	-9.73284
▁elv	-9.73323
felle	-9.73388
▁who	-9.73418
▁monte	-9.73467
tjeneste	-9.73533
▁larsen	-9.73543
oll	-9.73566
▁joseph	-9.73638
▁jens	-9.73654
▁club	-9.73655
ór	-9.73671
▁landsforening	-9.73674
divisjon	-9.73681
▁annen	-9.73693
bet	-9.737
▁146	-9.73737
marked	-9.73739
▁otto	-9.73741
lend	-9.73772
▁vold	-9.73888
▁innsjøen	-9.73896
▁42	-9.7391
▁trond	-9.73979
▁magne	-9.73983
▁avdeling	-9.74012
▁stig	-9.74035
enberg	-9.74044
▁his	-9.74069
▁в	-9.74074
▁festival	-9.74144
▁transport	-9.74158
off	-9.74222
▁vill	-9.74231
▁test	-9.74236
▁dommer	-9.74345
▁våpen	-9.74346
fil	-9.74356
medaljen	-9.74392
▁geo	-9.74397
▁elva	-9.74421
struktur	-9.74431
▁best	-9.74465
slekten	-9.74468
▁hud	-9.74485
▁syv	-9.7457
▁afrika	-9.74599
▁gass	-9.74613
medisin	-9.74772
▁arbeidet	-9.74778
ward	-9.74797
▁aktiv	-9.74836
▁edderkopp	-9.74843
▁skrive	-9.74945
leng	-9.75013
jö	-9.75087
rio	-9.75105
lli	-9.75132
▁albumet	-9.75221
representant	-9.75231
grep	-9.75244
▁kirken	-9.75258
▁2016	-9.75266
▁marc	-9.75269
▁2017	-9.75272
▁figur	-9.75276
stol	-9.75295
▁sesong	-9.75298
▁utgav	-9.75309
▁60	-9.75389
▁45	-9.75391
▁kari	-9.75428
▁buss	-9.75464
på	-9.75507
merket	-9.75514
skolen	-9.75524
▁drift	-9.75618
▁disk	-9.75623
▁egne	-9.75677
▁prim	-9.75728
▁provins	-9.75814
delen	-9.75838
ikkel	-9.7587
▁kristin	-9.75921
basert	-9.75983
▁betegne	-9.75988
π	-9.76063
▁rektor	-9.76066
▁style	-9.7609
▁kha	-9.76106
▁jazz	-9.76132
▁high	-9.76173
▁universitet	-9.76182
▁whi	-9.76275
▁97	-9.76339
ã	-9.76371
▁råd	-9.76392
lære	-9.76397
▁az	-9.76432
hol	-9.76441
▁jar	-9.76446
evne	-9.76451
skifte	-9.76481
▁152	-9.76495
føring	-9.7656
komp	-9.76567
kol	-9.76634
sjø	-9.76669
prisen	-9.7676
kra	-9.76787
bol	-9.76808
▁hatt	-9.76839
▁regn	-9.76871
μ	-9.76889
løst	-9.76918
▁90	-9.77003
▁dahl	-9.77043
typen	-9.77139
▁city	-9.772
folk	-9.77244
ico	-9.77347
▁sær	-9.77394
▁forkorte	-9.7755
medlem	-9.77652
ς	-9.77714
ы	-9.77716
pet	-9.77741
▁endre	-9.77744
▁п	-9.77745
skytter	-9.77801
▁sports	-9.77826
tyr	-9.77826
ous	-9.77839
▁gjorde	-9.77928
▁felt	-9.77936
bul	-9.77982
▁bom	-9.78005
ios	-9.78013
▁01	-9.78031
▁ville	-9.78141
sey	-9.78157
saker	-9.78198
▁mei	-9.78222
▁simon	-9.78303
▁bob	-9.78325
▁cle	-9.7834
cor	-9.78375
▁tann	-9.78401
▁tilhøre	-9.78437
▁sykl	-9.78444
▁bestod	-9.78524
dige	-9.78531
jar	-9.78535
ě	-9.78563
vor	-9.78574
messig	-9.7858
rygg	-9.78582
arbeider	-9.78624
▁lengde	-9.78655
vekst	-9.78703
forsker	-9.78868
▁153	-9.78872
▁indisk	-9.78897
▁jesu	-9.7893
elv	-9.78944
▁glass	-9.7896
stille	-9.79063
blom	-9.79074
▁samling	-9.79151
▁kai	-9.79165
▁vær	-9.79282
horn	-9.79284
▁lærer	-9.79327
▁aas	-9.79401
ñ	-9.79411
▁middelsstor	-9.79411
▁digital	-9.79412
orum	-9.79443
nstant	-9.7951
▁für	-9.79552
▁slo	-9.79584
head	-9.796
▁eva	-9.79637
erud	-9.79657
▁cru	-9.79774
war	-9.79815
ен	-9.79817
▁grunnla	-9.79915
holmen	-9.7993
▁enkelte	-9.80034
▁ola	-9.80116
▁ordens	-9.80196
х	-9.80265
▁1999	-9.80266
▁1995	-9.80266
▁delstaten	-9.80267
▁øverst	-9.80269
▁group	-9.80304
▁studert	-9.8031
utgivelse	-9.8037
▁henne	-9.8045
▁britisk	-9.80474
▁168	-9.80486
▁sterk	-9.80501
bak	-9.8061
▁marie	-9.8067
produkter	-9.80702
feltet	-9.80719
▁emil	-9.80772
▁150	-9.80816
▁hum	-9.8084
brun	-9.80864
kirken	-9.80881
snegl	-9.80915
ball	-9.8093
ello	-9.81038
▁løp	-9.81054
tjenester	-9.81121
myndighet	-9.81128
▁spin	-9.81319
▁offentlig	-9.81354
oma	-9.81388
▁ita	-9.81416
låt	-9.81498
▁palm	-9.81533
▁gö	-9.81603
iva	-9.81619
▁cro	-9.8166
▁morten	-9.81669
hallen	-9.81669
ро	-9.81739
▁reise	-9.81756
▁fang	-9.81837
▁paa	-9.81854
▁rik	-9.81859
metode	-9.81867
ль	-9.81871
kilde	-9.81973
▁vanlige	-9.81978
▁finans	-9.81991
▁varaordfører	-9.81997
▁plass	-9.82057
▁tung	-9.82061
▁michel	-9.82067
▁trommer	-9.82075
rey	-9.82103
▁kok	-9.82148
▁mye	-9.8217
▁right	-9.82177
àn	-9.82196
▁52	-9.82243
asi	-9.82245
▁osv	-9.82293
▁mobil	-9.82313
▁б	-9.82338
▁156	-9.82357
bare	-9.82383
▁nesten	-9.82395
▁borger	-9.82455
▁hom	-9.82459
forskning	-9.82505
▁troll	-9.82593
▁pot	-9.82641
▁totalt	-9.82654
▁uttale	-9.82666
kes	-9.82666
lingen	-9.82727
▁eget	-9.82737
▁mono	-9.82819
▁mm	-9.82828
▁rask	-9.8284
п	-9.82851
figur	-9.82853
▁foreldre	-9.82877
▁benytter	-9.82877
▁nærmest	-9.82882
▁opplags	-9.82893
▁south	-9.829
▁ever	-9.82937
onia	-9.83019
grunn	-9.83038
▁tai	-9.83046
▁chu	-9.83048
▁naturgass	-9.83085
året	-9.83088
▁kjøpt	-9.83141
ila	-9.83154
programmet	-9.83239
bell	-9.83277
▁marg	-9.83408
trekk	-9.8341
▁try	-9.83499
top	-9.8353
▁sjef	-9.83533
▁brenn	-9.83567
▁maskin	-9.83573
mil	-9.83629
ctor	-9.83638
ер	-9.83641
krig	-9.83671
light	-9.83701
▁svarte	-9.83705
▁bit	-9.83797
▁phil	-9.83843
▁pil	-9.83849
▁cat	-9.83883
▁stort	-9.83947
former	-9.83971
ington	-9.83976
▁lære	-9.83999
roll	-9.84016
ernes	-9.84145
atet	-9.84181
▁harry	-9.84189
▁shan	-9.84226
▁led	-9.84263
fre	-9.84306
▁hill	-9.84314
▁sæ	-9.84369
▁forlag	-9.84392
hof	-9.8441
▁service	-9.84421
▁exp	-9.84449
bilde	-9.84463
finne	-9.84495
planter	-9.84515
amin	-9.84563
▁plu	-9.84581
sekretær	-9.84641
▁mediebedriften	-9.84652
▁this	-9.84774
▁nabo	-9.84786
▁italia	-9.84802
stjerne	-9.84804
styrke	-9.84809
cheng	-9.84935
▁64	-9.85022
▁arve	-9.85028
vang	-9.85077
▁skade	-9.85119
▁regionen	-9.85137
▁omtale	-9.85147
▁är	-9.85235
▁trener	-9.85242
▁skriver	-9.85271
▁od	-9.85285
▁rune	-9.85379
▁instrument	-9.85421
▁litteratur	-9.85456
▁bygget	-9.85539
virke	-9.85541
▁nikola	-9.85556
▁sco	-9.85559
▁ivar	-9.85568
▁bevegelse	-9.85582
▁kart	-9.85586
▁sideelv	-9.85717
▁158	-9.85724
ät	-9.85734
▁skips	-9.85748
▁svi	-9.8582
▁funksjon	-9.8588
▁lor	-9.85919
handel	-9.85924
▁svein	-9.85983
▁nasjonale	-9.85988
botn	-9.85995
▁nilsen	-9.86072
rød	-9.86139
▁geir	-9.8618
▁tank	-9.8618
▁bou	-9.86213
snitt	-9.86298
▁mester	-9.86322
▁jam	-9.86324
▁front	-9.86403
▁org	-9.86409
▁ting	-9.86433
havn	-9.86461
▁1998	-9.86462
teknikk	-9.86466
▁stål	-9.86585
▁primær	-9.86602
▁38	-9.86669
▁rygg	-9.86785
▁apo	-9.86799
rot	-9.86864
▁bin	-9.8688
programmer	-9.8688
skapet	-9.87023
▁egil	-9.8708
motiv	-9.87096
▁pic	-9.871
▁herman	-9.8712
▁boken	-9.8715
kammer	-9.87151
etter	-9.87165
pil	-9.87208
▁adam	-9.8724
▁blomster	-9.87267
▁fører	-9.87342
▁dog	-9.87348
▁1988	-9.8738
▁161	-9.87421
▁stammer	-9.87467
▁fyr	-9.87474
våpen	-9.87477
museum	-9.87485
▁direktør	-9.87498
▁oh	-9.87503
▁gua	-9.87519
▁samfunns	-9.8756
▁bryst	-9.87577
▁aar	-9.87687
eau	-9.87737
aktiv	-9.87749
▁petter	-9.87784
▁selskap	-9.87801
lings	-9.87832
▁ah	-9.87857
▁epi	-9.87865
istene	-9.87909
▁bygd	-9.8793
fyll	-9.88214
ś	-9.88288
▁filosof	-9.88305
▁1993	-9.88306
▁rolf	-9.88316
▁antonio	-9.8837
▁thu	-9.88383
▁landbruk	-9.88387
haugen	-9.88388
▁tin	-9.88408
▁enhet	-9.8843
▁boy	-9.88501
møte	-9.88559
▁mulig	-9.88561
▁brit	-9.88609
▁kjerne	-9.8866
▁mir	-9.88672
bedrift	-9.88761
nan	-9.88765
▁ganger	-9.88873
▁spiss	-9.88874
▁feil	-9.88886
ifisert	-9.88918
▁polar	-9.88945
▁grev	-9.8903
▁produksjons	-9.89116
▁luc	-9.89121
kamera	-9.89125
▁inc	-9.8921
▁konsert	-9.89228
▁stockholm	-9.8924
▁betydelig	-9.89242
utdannet	-9.89245
▁brukt	-9.89251
▁2015	-9.89269
▁debut	-9.89331
▁hö	-9.89353
brød	-9.89363
innen	-9.89372
▁140	-9.89408
linjen	-9.89436
▁furu	-9.8946
økonomi	-9.89462
løft	-9.89482
▁149	-9.89499
▁indre	-9.89507
▁fed	-9.89599
ordenen	-9.89618
qi	-9.89623
▁hage	-9.89712
fjellene	-9.89994
▁nrk	-9.90078
▁ross	-9.9018
▁1994	-9.90184
▁1996	-9.90184
▁inngår	-9.90187
▁middelalder	-9.90193
grupper	-9.90203
syke	-9.90237
bud	-9.90279
▁meget	-9.90333
▁politiker	-9.90339
stedet	-9.90359
historie	-9.90365
▁føde	-9.90392
town	-9.9043
plante	-9.90557
▁kjær	-9.90586
ative	-9.90599
▁lot	-9.90604
firma	-9.90691
▁turist	-9.90699
uni	-9.90734
▁mitt	-9.90761
shire	-9.90761
▁hannen	-9.90783
mont	-9.90783
▁sit	-9.90802
stykke	-9.9081
onom	-9.90822
▁kalk	-9.9083
▁lokale	-9.90857
usjon	-9.90919
▁aur	-9.90998
▁75	-9.91015
ан	-9.91083
uz	-9.91107
▁jørgen	-9.91136
▁1990	-9.91136
▁energy	-9.91149
▁øvre	-9.9115
▁dverg	-9.91163
▁antenne	-9.91188
▁sterkt	-9.91218
foreningen	-9.91292
▁bølge	-9.91293
▁green	-9.91296
▁xu	-9.91313
▁stad	-9.91368
▁award	-9.91378
▁ple	-9.91415
skipet	-9.91419
▁prins	-9.91452
politikk	-9.91469
kjøp	-9.91498
▁ott	-9.91501
▁pala	-9.9159
slått	-9.91738
insk	-9.91762
▁fett	-9.91846
klær	-9.91859
høy	-9.9198
▁gli	-9.92074
▁personlig	-9.92088
▁prefektur	-9.92097
▁komponist	-9.92097
▁norrøn	-9.92098
▁mangler	-9.92109
▁trondheim	-9.92125
▁himmel	-9.92129
▁128	-9.92171
snes	-9.9218
næs	-9.92181
▁nordøst	-9.92193
wald	-9.92318
wood	-9.92332
▁øvrig	-9.9234
tunnelen	-9.92342
▁gansk	-9.92356
▁rør	-9.92382
▁betjener	-9.92412
▁eldre	-9.92466
betegnelse	-9.92486
▁base	-9.92507
▁verne	-9.92532
atør	-9.92595
▁pul	-9.92602
▁kru	-9.92642
▁søster	-9.92708
tog	-9.92747
▁jack	-9.92769
▁brand	-9.92797
▁khan	-9.92855
▁back	-9.92867
▁arbeid	-9.92904
riket	-9.92954
▁fyrst	-9.9297
▁spansk	-9.92983
tradisjon	-9.93058
▁utdype	-9.93071
▁tolkien	-9.93077
ingeniør	-9.93083
utstilling	-9.93088
ovitsj	-9.93103
▁klima	-9.93127
▁tau	-9.93152
bygging	-9.93205
äm	-9.93216
▁markeds	-9.93263
▁flyplass	-9.93318
virksomhet	-9.93328
byrå	-9.9336
▁mikro	-9.93381
▁cath	-9.93439
▁varierer	-9.93472
▁én	-9.9348
▁æres	-9.93561
▁gjeste	-9.93592
▁symbol	-9.93634
ally	-9.93664
▁carlo	-9.93683
▁37	-9.9369
ва	-9.93761
▁verden	-9.93791
▁steder	-9.93803
▁line	-9.93847
▁merke	-9.93882
▁ferr	-9.9394
▁alb	-9.93942
åpning	-9.94006
kop	-9.94015
▁skip	-9.94048
ί	-9.94048
▁alternativ	-9.94048
▁benyttes	-9.94049
▁even	-9.9407
▁mongol	-9.94078
▁beskrev	-9.94092
▁victor	-9.94116
▁hjerne	-9.94144
▁foruten	-9.94168
medlemmene	-9.94173
▁fot	-9.94202
▁there	-9.94249
styrt	-9.9427
▁trekk	-9.94314
▁159	-9.94398
▁ferdig	-9.9441
kultur	-9.94412
▁gold	-9.94439
align	-9.94467
▁kim	-9.94501
▁pur	-9.94545
▁ledes	-9.94569
▁dannet	-9.94571
dong	-9.9459
▁fest	-9.94655
demokra	-9.94688
trinn	-9.94729
hopp	-9.94782
livet	-9.94788
▁jun	-9.94816
ate	-9.94838
▁chang	-9.94843
klasse	-9.94852
▁still	-9.94852
▁markere	-9.94856
person	-9.94902
zan	-9.94912
▁human	-9.95021
friidrettsutøver	-9.95039
γ	-9.95039
▁shanghai	-9.95039
▁kardinal	-9.95039
▁individ	-9.95039
▁1997	-9.95039
▁fjær	-9.95041
kjøtt	-9.95056
▁ordfører	-9.95068
virkning	-9.95097
merke	-9.95103
▁godt	-9.95142
▁terje	-9.95147
▁alpin	-9.95273
skyld	-9.9538
▁157	-9.95444
▁wan	-9.9545
▁148	-9.95521
▁wel	-9.95592
▁ey	-9.95694
▁varme	-9.95755
▁cd	-9.95787
trær	-9.95811
▁offisiel	-9.95869
flekk	-9.95991
▁intern	-9.96006
▁derimot	-9.9604
▁alexander	-9.96044
▁video	-9.96044
▁york	-9.96059
▁anlegget	-9.96101
▁drive	-9.96132
▁offisielle	-9.96209
▁byene	-9.96231
▁jr	-9.96284
▁streng	-9.96305
▁retts	-9.9632
▁single	-9.96339
▁storm	-9.96477
▁anvend	-9.96526
arbeidet	-9.96528
▁arg	-9.96551
86	-9.96557
▁fun	-9.96664
atus	-9.96745
gruppa	-9.96786
▁konkurranse	-9.96846
house	-9.96868
▁wall	-9.96967
▁stamme	-9.97023
▁rob	-9.97025
η	-9.97049
bridge	-9.97129
▁bronse	-9.97154
▁center	-9.97181
ь	-9.97195
▁pel	-9.97216
verdig	-9.9735
para	-9.974
spekt	-9.97556
▁oversatt	-9.97599
▁prof	-9.9765
▁rem	-9.97652
▁hir	-9.97719
▁typer	-9.97752
▁wade	-9.97766
dikt	-9.97787
inus	-9.97787
skilt	-9.97812
▁drag	-9.97857
samfunn	-9.97869
▁sykdom	-9.9799
▁omtrent	-9.98069
▁religion	-9.9807
▁1992	-9.9807
▁sverre	-9.98095
▁text	-9.98106
▁holde	-9.98124
▁betegnelsen	-9.98148
▁stol	-9.9817
▁smith	-9.98171
▁62	-9.98193
▁bonde	-9.98201
▁mala	-9.98206
▁pettersen	-9.9826
▁kroppen	-9.98291
▁betydninger	-9.98331
▁dio	-9.98333
lege	-9.9842
▁104	-9.98493
▁fan	-9.98494
▁fløy	-9.98498
hild	-9.98592
▁tun	-9.98675
▁vig	-9.98684
▁sara	-9.98715
serien	-9.9877
▁sunn	-9.98778
▁stopp	-9.98795
▁virksomhet	-9.98824
▁sentrale	-9.98827
▁vok	-9.98862
olin	-9.98911
vinner	-9.98918
lokk	-9.98929
flo	-9.9898
▁europe	-9.99029
lista	-9.99043
▁ub	-9.99048
▁russ	-9.99099
▁styrmann	-9.991
▁gjelder	-9.99101
▁sigurd	-9.99102
▁dynastiet	-9.99206
▁vokser	-9.99209
▁gitt	-9.99223
▁hoff	-9.99301
periode	-9.99306
▁tyske	-9.99457
▁kongen	-9.99536
▁funn	-9.99542
▁professor	-9.99543
dannelse	-9.99545
ient	-9.99591
lement	-9.99664
▁dru	-9.9974
▁israel	-9.99794
olje	-9.99802
spenning	-9.99891
▁blokk	-9.99952
zon	-9.99988
▁dialekt	-10.0003
karriere	-10.0006
▁då	-10.001
▁gå	-10.001
▁fry	-10.001
▁fulgte	-10.0014
▁skjøn	-10.0014
kommunikasjon	-10.0014
volusjon	-10.0015
▁university	-10.0016
▁gustav	-10.0018
fartøy	-10.0026
▁smi	-10.0026
▁rad	-10.003
▁pedersen	-10.003
▁livs	-10.0031
▁organisasjonen	-10.0033
▁spp	-10.0035
▁sivil	-10.0035
rick	-10.0042
▁gress	-10.0043
▁gon	-10.0051
▁ost	-10.0052
▁bran	-10.0053
last	-10.0056
▁deler	-10.0059
▁tjeneste	-10.006
systemer	-10.0063
▁ull	-10.0069
hui	-10.0071
▁sle	-10.0078
brand	-10.0081
▁festning	-10.0084
▁flytt	-10.0093
▁shu	-10.0095
▁preg	-10.0097
▁46	-10.0098
▁krysser	-10.0098
▁havne	-10.01
▁our	-10.01
ltså	-10.0107
▁mini	-10.0113
▁108	-10.0116
▁administrere	-10.0119
▁frederik	-10.012
analyse	-10.0123
▁internett	-10.0125
▁roger	-10.0126
▁aldri	-10.0127
▁knytte	-10.0127
▁folket	-10.0131
▁angrep	-10.0132
idrett	-10.0135
tang	-10.0136
▁skatte	-10.0138
▁papir	-10.0142
▁låt	-10.0147
▁meta	-10.0152
mond	-10.0156
verksted	-10.0158
myr	-10.0161
▁dro	-10.0161
iya	-10.0173
▁vu	-10.0182
▁wid	-10.0185
▁fir	-10.0191
fang	-10.0192
▁wang	-10.0192
▁stoff	-10.0201
▁ari	-10.0203
▁bell	-10.0205
jå	-10.0219
▁sie	-10.0221
▁rose	-10.0225
▁nedenfor	-10.0226
kandidat	-10.0227
▁efter	-10.0227
▁biskop	-10.0228
▁oblast	-10.0228
▁iii	-10.023
▁kata	-10.0232
ppel	-10.0238
komst	-10.0244
cula	-10.0251
▁korn	-10.0252
▁jobb	-10.0254
▁had	-10.026
▁guang	-10.0265
▁danse	-10.0272
kjemi	-10.0278
kunst	-10.0278
▁fru	-10.0281
produsent	-10.0281
forfatter	-10.0281
▁linjen	-10.0292
▁upp	-10.0294
▁135	-10.0298
▁ark	-10.031
▁last	-10.031
▁103	-10.0311
▁hunde	-10.0316
▁stod	-10.0316
▁orkester	-10.0327
▁1991	-10.0333
▁andré	-10.0335
kommando	-10.0335
▁statsminister	-10.0336
▁utstyr	-10.0338
▁dominere	-10.0341
▁gården	-10.0341
▁beat	-10.0343
hydr	-10.0344
pass	-10.0344
▁tel	-10.0344
▁fleste	-10.0351
▁greg	-10.0356
maleri	-10.0362
▁santa	-10.0365
▁ter	-10.037
hagen	-10.0373
▁gutt	-10.0373
▁lyn	-10.0374
▁130	-10.0386
vald	-10.0387
▁besøk	-10.0391
▁eie	-10.0392
▁krets	-10.0393
▁historisk	-10.0397
▁bord	-10.04
▁tø	-10.0409
drift	-10.0417
▁wood	-10.0425
▁þ	-10.0427
▁akt	-10.0433
iserer	-10.0434
▁138	-10.0434
▁behandling	-10.0438
▁delt	-10.0439
▁økt	-10.044
▁olavs	-10.044
▁unicode	-10.0442
▁inneholdt	-10.0442
dagen	-10.0448
▁tørr	-10.045
▁tverr	-10.0452
▁120	-10.0453
arena	-10.0455
▁mathi	-10.0461
▁åpnet	-10.0468
▁operasjon	-10.0468
artikler	-10.0471
▁underlagt	-10.0473
▁produksjon	-10.0473
▁lite	-10.0476
▁distr	-10.0476
▁tema	-10.0479
måte	-10.0479
kort	-10.0485
▁union	-10.0492
▁57	-10.0497
▁motta	-10.0499
▁team	-10.0502
▁39	-10.0503
▁alf	-10.0511
▁brev	-10.0512
▁effekt	-10.0522
▁fylket	-10.0525
levende	-10.0536
▁hev	-10.0538
pri	-10.0544
▁jakob	-10.0552
▁london	-10.0552
vre	-10.0552
▁adresse	-10.0557
▁grunnlagt	-10.056
▁fur	-10.0561
linje	-10.0563
▁deltok	-10.0564
▁regional	-10.0567
▁saint	-10.0569
tikken	-10.0572
▁kryss	-10.0575
▁chris	-10.0577
fred	-10.0579
vatn	-10.0579
▁arch	-10.0582
post	-10.0583
▁minst	-10.0584
▁utført	-10.0586
▁akk	-10.0588
▁clo	-10.0601
▁dekker	-10.0604
▁they	-10.0604
▁bydelen	-10.0612
hunder	-10.0613
meter	-10.0614
forsvar	-10.0617
▁41	-10.0623
▁hvert	-10.0626
selva	-10.0626
▁bod	-10.063
▁verb	-10.0633
▁erstattet	-10.0644
▁histori	-10.0646
ischen	-10.065
▁adel	-10.0651
▁bydel	-10.0652
▁bakke	-10.0662
åsen	-10.0663
ц	-10.0663
▁tilknyttet	-10.0663
▁friedrich	-10.0663
▁sveits	-10.0664
▁nordvest	-10.0664
▁play	-10.0665
▁definer	-10.0668
vakt	-10.0677
▁høsten	-10.068
▁sukker	-10.0684
ла	-10.0685
▁musiker	-10.0685
▁fab	-10.0691
deles	-10.0695
▁prisen	-10.0696
▁bai	-10.0706
▁høyt	-10.0714
▁damp	-10.0718
▁lyng	-10.0719
icus	-10.0726
▁artist	-10.0726
program	-10.0733
▁observ	-10.0745
▁lim	-10.0752
stripe	-10.0758
äll	-10.0771
δ	-10.0775
▁parlament	-10.0775
▁forekommer	-10.0775
▁christoph	-10.0775
▁tilsvarer	-10.0776
▁episode	-10.0776
▁referere	-10.0779
▁rod	-10.078
▁danmark	-10.0781
▁solo	-10.0783
▁legge	-10.0786
våk	-10.0787
▁bland	-10.0789
stav	-10.0791
▁hypo	-10.0793
▁top	-10.0803
▁dong	-10.0804
nytt	-10.0804
voks	-10.0806
āng	-10.0807
▁dyp	-10.081
▁stift	-10.0814
bury	-10.0817
▁kjøl	-10.0822
▁mul	-10.0826
▁bry	-10.0827
▁vet	-10.0828
▁hammer	-10.0829
▁total	-10.0846
funksjon	-10.0848
gjøre	-10.0855
▁one	-10.0861
skogen	-10.0868
▁ash	-10.0884
▁sing	-10.0885
▁deriblant	-10.0889
▁administrativ	-10.0889
▁dronning	-10.089
ος	-10.089
▁europeisk	-10.0891
▁republikken	-10.0892
▁1986	-10.0893
▁yi	-10.09
pal	-10.0904
▁veien	-10.0913
▁radi	-10.0913
▁pont	-10.0916
▁85	-10.0917
▁125	-10.0928
▁kaller	-10.0931
▁makt	-10.0937
zhi	-10.0942
▁hai	-10.0946
▁aktivitet	-10.0946
plate	-10.0947
▁cm	-10.0953
▁kath	-10.0954
▁forsvars	-10.0957
kran	-10.0957
▁bibliotek	-10.0972
▁øyene	-10.0974
▁svar	-10.0979
▁prop	-10.0988
▁500	-10.0997
▁klokke	-10.0999
fold	-10.1001
ш	-10.1004
advokat	-10.1004
▁publisert	-10.1004
▁frei	-10.1004
▁tydelig	-10.1004
▁nicola	-10.1007
▁håkon	-10.1008
vikler	-10.1009
eiro	-10.1011
later	-10.1016
chester	-10.1018
▁tenn	-10.102
roman	-10.1028
▁bud	-10.1031
▁bull	-10.1035
▁verneområde	-10.1053
▁pet	-10.1055
isse	-10.1057
assi	-10.1063
▁scene	-10.1063
▁teksten	-10.1069
▁peder	-10.1072
▁kåre	-10.1076
long	-10.1083
▁karakter	-10.1087
▁slett	-10.109
▁big	-10.1099
▁day	-10.1104
▁holder	-10.1108
tysk	-10.1113
giovanni	-10.112
▁tilsvarende	-10.112
▁hebraisk	-10.112
▁1987	-10.112
▁kjønn	-10.112
▁school	-10.1121
▁familiegruppen	-10.1122
▁college	-10.1124
▁bach	-10.1129
▁slott	-10.113
▁scott	-10.113
▁nielsen	-10.1135
▁kau	-10.1137
▁ansvarlig	-10.1143
▁hjemmeside	-10.1153
▁syr	-10.1154
▁east	-10.1156
▁bomb	-10.1157
soldat	-10.116
▁kjøpe	-10.1163
festivalen	-10.1169
magn	-10.1178
tveit	-10.1178
▁gaten	-10.118
▁47	-10.118
▁heng	-10.1181
▁program	-10.1185
▁dig	-10.1187
▁mr	-10.1187
hamn	-10.1188
▁spise	-10.1188
merker	-10.1191
▁arc	-10.1193
kvalitet	-10.1195
ни	-10.1201
▁naturlig	-10.1225
áng	-10.1227
imi	-10.123
▁eik	-10.1237
▁1968	-10.1238
▁begrepet	-10.1238
▁opprettet	-10.1238
▁programleder	-10.1239
▁anta	-10.1241
▁uavhengig	-10.1244
▁wol	-10.1247
▁alltid	-10.1253
▁nerv	-10.1256
▁liber	-10.126
▁kvar	-10.126
logi	-10.126
speil	-10.1264
▁74	-10.1268
▁09	-10.1268
sdatter	-10.1275
▁tone	-10.1275
iana	-10.1278
▁oftest	-10.1281
gran	-10.1284
ður	-10.1284
▁life	-10.1285
▁sport	-10.1285
▁84	-10.1286
lian	-10.1289
stedene	-10.1289
▁henri	-10.1291
gni	-10.1297
▁koll	-10.1299
▁54	-10.1302
▁tog	-10.1306
▁jevn	-10.1309
bord	-10.1317
kasse	-10.1318
valget	-10.1331
mengde	-10.1338
▁alm	-10.1347
▁cup	-10.1353
▁corp	-10.1354
▁leon	-10.1355
ό	-10.1357
▁1979	-10.1357
▁benyttet	-10.1357
▁relativ	-10.1357
▁hurtig	-10.1357
▁tabellen	-10.1358
▁flertall	-10.1366
▁byprefekturet	-10.137
▁seier	-10.1373
stab	-10.1373
kall	-10.1377
▁bun	-10.1377
▁alv	-10.138
▁cri	-10.1384
burn	-10.1385
▁fler	-10.1388
▁bog	-10.139
▁hou	-10.1393
▁jensen	-10.1398
▁53	-10.14
setningen	-10.1402
▁grupper	-10.1403
▁43	-10.1407
▁55	-10.1413
ли	-10.1421
maker	-10.1425
▁00	-10.1427
folket	-10.1435
▁latinsk	-10.1437
▁grov	-10.1443
ск	-10.145
prosjekt	-10.1452
▁115	-10.1452
utstyr	-10.1457
▁101	-10.1466
▁enten	-10.1468
▁forfatteren	-10.147
▁svak	-10.1473
▁raf	-10.1473
linjer	-10.1475
▁sovjetunionen	-10.1477
▁american	-10.1477
▁deutsche	-10.1478
▁arthur	-10.1478
▁fabrikk	-10.1478
▁frankrike	-10.148
ор	-10.1482
▁fylkesvei	-10.1483
vegg	-10.1485
▁brygge	-10.149
▁kontor	-10.149
stone	-10.1491
schaft	-10.1498
▁kommuner	-10.1501
▁137	-10.1504
▁drev	-10.1514
vika	-10.1515
▁109	-10.1517
tilstand	-10.1517
▁corn	-10.1518
▁105	-10.1525
▁65	-10.1526
skjold	-10.1527
▁mary	-10.1528
▁vitenskapelig	-10.1528
px	-10.153
▁jarl	-10.1543
vand	-10.1557
ovo	-10.1558
▁pad	-10.1562
▁63	-10.1565
▁lenge	-10.1565
lung	-10.1573
▁tiden	-10.1577
data	-10.1583
▁lom	-10.1584
nagar	-10.1595
▁vakt	-10.1598
ekspedisjon	-10.1599
▁nabokommunen	-10.1599
▁olymp	-10.16
ogen	-10.1602
▁kjemisk	-10.1603
▁møtte	-10.1605
▁omtalt	-10.1605
ал	-10.1609
▁alfred	-10.1612
modell	-10.1623
tropp	-10.1628
▁utføre	-10.1631
verdi	-10.1633
kjempe	-10.1633
▁sym	-10.1639
ario	-10.1639
dekke	-10.1647
løv	-10.1649
tallet	-10.1659
bryter	-10.166
▁plassert	-10.1668
▁vers	-10.1679
▁artene	-10.1682
▁kw	-10.1686
▁møte	-10.1691
gjort	-10.1709
▁73	-10.171
▁registr	-10.171
▁132	-10.1713
▁hop	-10.1713
▁48	-10.1713
pleie	-10.1722
ń	-10.1723
▁1985	-10.1723
▁studio	-10.1723
▁claud	-10.1724
drakt	-10.1725
▁gile	-10.1726
▁nattfly	-10.1726
▁fått	-10.1728
bøker	-10.1733
▁mineral	-10.1733
pensjon	-10.1735
finalen	-10.1739
▁trafikk	-10.174
leir	-10.1742
fortelling	-10.1744
▁110	-10.1747
▁ltd	-10.1748
skatt	-10.1767
▁atom	-10.1779
▁cheng	-10.178
visning	-10.1781
▁lunge	-10.1785
skaja	-10.179
tilbud	-10.1791
▁mou	-10.1791
▁audi	-10.1793
▁artister	-10.1796
▁your	-10.18
▁stam	-10.18
▁schw	-10.1814
▁free	-10.1817
▁grunnlegger	-10.1824
direktør	-10.1834
▁kurt	-10.1835
▁hil	-10.1839
▁hode	-10.1846
▁gabriel	-10.1848
▁drammen	-10.1848
stipend	-10.185
terminal	-10.1851
▁melodi	-10.1853
▁oscar	-10.1853
▁foreningen	-10.1854
▁invest	-10.1857
avisen	-10.1874
strup	-10.1874
▁asia	-10.1879
ugh	-10.188
ân	-10.1885
ledende	-10.1889
▁bøker	-10.1891
▁136	-10.1894
▁slu	-10.1894
▁kristen	-10.1898
▁72	-10.19
luk	-10.1908
▁størrelse	-10.1912
▁penge	-10.1943
▁aust	-10.1945
fugler	-10.1946
dynastiet	-10.1961
regionen	-10.1962
▁orient	-10.1969
▁electric	-10.1974
▁storbritannia	-10.1974
▁1983	-10.1974
▁1973	-10.1975
▁skyldes	-10.1976
▁what	-10.1978
▁ønske	-10.1978
▁persisk	-10.199
▁urdu	-10.1992
▁nederland	-10.1992
enburg	-10.1993
asso	-10.1993
▁kjempe	-10.2
▁straffe	-10.2003
plattform	-10.2005
▁tråd	-10.2012
▁did	-10.2016
▁ytre	-10.2017
▁åpen	-10.2026
løpet	-10.2029
forkortelse	-10.2031
▁77	-10.2033
materiale	-10.2033
▁lapp	-10.2036
cast	-10.2037
▁skapt	-10.2042
▁material	-10.2044
holt	-10.2045
▁rec	-10.2045
lind	-10.2048
▁grim	-10.205
▁årene	-10.2051
▁66	-10.2057
▁56	-10.2069
▁well	-10.2072
▁gott	-10.2077
▁leif	-10.2078
kål	-10.2087
▁106	-10.2091
▁bulgarsk	-10.2103
▁support	-10.2103
▁hjort	-10.2105
kunnskap	-10.2105
masse	-10.2105
▁stavanger	-10.2106
▁josé	-10.2106
▁bag	-10.2107
▁social	-10.2108
▁problem	-10.2112
▁eldste	-10.2113
▁hustru	-10.2114
▁122	-10.2122
▁jud	-10.2129
strekning	-10.2131
▁nasjonalpark	-10.2137
stilte	-10.2139
▁127	-10.2144
▁carol	-10.2148
▁hunnen	-10.215
▁sz	-10.2152
▁87	-10.2152
▁sku	-10.2153
▁term	-10.2154
▁møter	-10.2155
▁acc	-10.2156
▁sikte	-10.216
▁cel	-10.2168
▁øyvin	-10.2174
▁serv	-10.2179
▁126	-10.2179
illo	-10.2189
▁slav	-10.2197
▁kamper	-10.2197
▁likeve	-10.22
▁represent	-10.2203
▁qing	-10.2206
konsern	-10.2209
ddy	-10.2212
zel	-10.2214
lapp	-10.2218
то	-10.2219
▁master	-10.2224
▁44	-10.2227
▁hviterussisk	-10.2232
▁1980	-10.2233
▁sørvest	-10.2233
ttle	-10.2233
▁svømme	-10.2234
▁143	-10.2236
▁forretnings	-10.2254
▁skinn	-10.2258
mennene	-10.226
▁junior	-10.2261
▁hente	-10.2264
▁edi	-10.2273
hyll	-10.2275
▁86	-10.2276
▁økonomisk	-10.228
▁walter	-10.2283
bygningen	-10.2285
▁rute	-10.2288
▁show	-10.229
▁pho	-10.2293
▁morgen	-10.2299
arisk	-10.2305
▁semi	-10.2311
▁tyr	-10.2314
▁gram	-10.2316
elius	-10.2318
▁stiftet	-10.2318
▁nedre	-10.2319
▁alfa	-10.2324
▁tab	-10.2326
kvart	-10.233
▁malm	-10.2334
▁ledelse	-10.2343
▁sum	-10.2347
▁beskytte	-10.2348
▁måne	-10.2348
veps	-10.2353
▁02	-10.2353
▁normalt	-10.2358
▁høyde	-10.2362
hjelp	-10.2362
▁hvis	-10.2362
▁etterfulgt	-10.2364
▁dobbelt	-10.2364
▁pseudo	-10.2364
▁1982	-10.2364
▁teknisk	-10.2364
▁journalist	-10.2365
▁forårsake	-10.2365
▁dannes	-10.2368
▁work	-10.237
▁lansert	-10.2376
stasjonen	-10.2377
▁hellig	-10.238
▁hval	-10.238
stell	-10.2383
▁aksje	-10.2386
ømme	-10.2391
▁tran	-10.2393
▁indo	-10.2396
familie	-10.2401
ated	-10.2405
▁spillerne	-10.2406
bukta	-10.2411
▁påvirke	-10.2414
cep	-10.2416
▁tegnet	-10.2417
alitet	-10.2425
duc	-10.2426
▁sankt	-10.2431
herre	-10.244
vá	-10.2447
▁myk	-10.2458
▁mach	-10.2459
wick	-10.247
▁brasil	-10.2488
kompleks	-10.2498
▁company	-10.2498
▁united	-10.2498
▁royal	-10.2499
▁stefan	-10.25
▁jule	-10.25
▁edward	-10.2501
▁brown	-10.2503
▁pierre	-10.2503
▁frå	-10.2507
▁tå	-10.2508
▁historiker	-10.2515
▁normal	-10.2515
▁hindi	-10.252
▁snakke	-10.2521
stift	-10.2523
ōng	-10.2527
▁bygningen	-10.2529
▁134	-10.253
▁dør	-10.2533
▁smak	-10.2535
▁sendt	-10.2535
▁grend	-10.2537
politisk	-10.2547
▁jeff	-10.2548
avgift	-10.2556
nøtt	-10.2561
▁mennesker	-10.2562
egnet	-10.2566
▁vent	-10.2589
▁92	-10.2596
støl	-10.2598
ça	-10.2601
▁bang	-10.2601
▁rosa	-10.2607
ев	-10.262
▁andrew	-10.2623
problemer	-10.2624
▁05	-10.2624
offiser	-10.2624
dommen	-10.2628
fabrik	-10.2629
▁elektrisk	-10.2633
▁arrangerer	-10.2633
▁egypt	-10.2633
frekvens	-10.2633
▁spesiell	-10.2633
▁inndeling	-10.2635
▁rid	-10.2637
behandling	-10.2637
innspilling	-10.2639
▁stadion	-10.264
▁brei	-10.2642
▁forvingen	-10.2642
▁element	-10.2644
▁float	-10.265
▁lill	-10.2652
▁piano	-10.2659
▁kald	-10.2665
▁kop	-10.2665
▁jacobsen	-10.2667
hest	-10.2678
▁117	-10.2679
▁skall	-10.268
▁95	-10.2682
søkte	-10.2683
ledet	-10.2693
▁johnson	-10.2694
▁ånd	-10.2697
▁68	-10.2706
▁singel	-10.2719
▁ulv	-10.2723
▁teknologi	-10.2727
▁bau	-10.2735
▁høst	-10.2741
▁114	-10.2755
▁raj	-10.2755
го	-10.2758
▁hodet	-10.276
▁kampen	-10.2762
guan	-10.2766
▁tettstedet	-10.2771
▁sna	-10.2774
▁sørøst	-10.2778
bevegelse	-10.2778
▁drept	-10.2778
orkester	-10.2779
▁filip	-10.2783
▁kvinner	-10.2786
evitsj	-10.279
▁139	-10.2796
fotograf	-10.2812
flat	-10.282
▁154	-10.2831
▁landsby	-10.2831
▁sound	-10.2832
▁bert	-10.2834
▁great	-10.284
▁kanon	-10.2859
▁nordisk	-10.2864
institusjon	-10.2883
ordning	-10.2886
typer	-10.2895
▁sik	-10.2896
▁iran	-10.2897
journal	-10.2908
▁elisabeth	-10.2908
▁fjerde	-10.2909
▁sanskrit	-10.2909
▁records	-10.2909
▁katolsk	-10.2909
▁debutalbum	-10.2909
▁linux	-10.2911
▁prosent	-10.2913
▁signal	-10.2918
▁brad	-10.292
▁qa	-10.2935
alisme	-10.2936
blomsterflue	-10.2938
format	-10.2945
inntekt	-10.2947
▁rio	-10.2948
▁99	-10.2949
▁saga	-10.295
▁jonas	-10.2955
▁høyere	-10.2955
▁bö	-10.296
ар	-10.2962
▁län	-10.2966
▁spring	-10.2977
▁pave	-10.2992
skjoldet	-10.2992
▁08	-10.2993
▁busk	-10.2996
halvøya	-10.2996
▁maj	-10.2997
studier	-10.3014
▁wild	-10.3032
▁universitetet	-10.3032
▁bunn	-10.3044
blikk	-10.3045
▁rub	-10.3048
▁skar	-10.3049
løytnant	-10.3049
▁tusenårssted	-10.3049
▁dirigent	-10.3049
▁1977	-10.3049
spesifik	-10.3049
▁klassisk	-10.305
▁perioden	-10.3055
▁eld	-10.3056
▁poeng	-10.3061
▁400	-10.3062
apparat	-10.3063
▁franz	-10.3064
▁flagg	-10.3068
▁fremste	-10.3081
▁anim	-10.3089
▁panser	-10.309
▁viktig	-10.309
nntil	-10.3094
▁rib	-10.3096
forsterke	-10.3097
mission	-10.3098
øvelse	-10.3104
▁begynner	-10.3104
▁korea	-10.3108
▁59	-10.3111
▁bow	-10.3122
▁133	-10.3135
▁112	-10.3158
▁200	-10.3167
▁bedre	-10.3169
▁åpne	-10.3175
pati	-10.3187
næring	-10.319
▁orchestra	-10.3192
▁tilskuere	-10.3192
▁heinrich	-10.3192
▁beijing	-10.3192
▁petersburg	-10.3192
undersøkelse	-10.3193
kontrakt	-10.3193
▁allerede	-10.3194
▁islam	-10.3194
▁kapp	-10.3194
▁sykehus	-10.3194
▁klipp	-10.3196
▁måned	-10.3197
pul	-10.3199
stokk	-10.3201
▁sverd	-10.3201
trafikk	-10.3213
instrument	-10.3213
design	-10.3215
album	-10.322
▁119	-10.3236
kryp	-10.3245
▁forbinde	-10.3248
toppen	-10.3255
▁white	-10.3256
▁kirk	-10.3259
▁jose	-10.3269
▁thy	-10.3271
rekke	-10.3273
back	-10.3285
▁kaptein	-10.3286
▁cour	-10.3294
▁politiet	-10.3302
▁tradisjonel	-10.3304
ruter	-10.3309
▁vad	-10.3312
▁paris	-10.3314
vind	-10.3327
▁krav	-10.3331
▁łód	-10.3337
▁berømt	-10.3337
▁opprinnelse	-10.3337
▁fødsel	-10.3337
▁public	-10.3337
▁1981	-10.3337
▁church	-10.3337
järvi	-10.3338
▁kjærlighet	-10.3339
▁foto	-10.3339
▁tibetansk	-10.3341
▁spillet	-10.3341
▁gjenopp	-10.3343
▁handling	-10.3343
▁jordbruk	-10.3344
▁300	-10.3345
hovedstaden	-10.3347
▁vanligste	-10.3347
▁utvikler	-10.3355
▁luther	-10.3361
▁lauren	-10.3362
effekt	-10.3363
miljø	-10.3366
vekt	-10.3367
brett	-10.3374
xiang	-10.3374
▁mö	-10.3376
▁forvaltnings	-10.3378
kost	-10.3384
▁69	-10.3385
▁krok	-10.3386
krit	-10.3387
ми	-10.3393
sønn	-10.34
▁interesse	-10.34
▁grund	-10.3401
▁123	-10.3406
gud	-10.3417
▁88	-10.3419
▁51	-10.3421
pping	-10.3429
▁kvit	-10.3431
▁chan	-10.3433
▁slå	-10.3436
utøver	-10.3442
▁call	-10.3467
▁kval	-10.347
▁fader	-10.347
abad	-10.3476
▁københavn	-10.3484
variant	-10.3484
▁central	-10.3484
▁1972	-10.3484
▁millioner	-10.3484
▁integr	-10.3484
▁pasient	-10.3485
▁valuta	-10.3485
▁fiktiv	-10.3485
mesterskapet	-10.3485
▁insekt	-10.3486
▁fremdeles	-10.3487
▁bakterie	-10.3488
▁utløp	-10.3489
▁stro	-10.349
▁oversettelse	-10.3494
▁popul	-10.3495
▁drikke	-10.3499
▁undervisning	-10.3499
▁kast	-10.3502
brev	-10.3509
▁alex	-10.351
print	-10.3513
konkurranse	-10.3514
▁motstand	-10.3515
serie	-10.3519
▁verd	-10.3522
front	-10.3522
rente	-10.3524
▁bygda	-10.353
▁demon	-10.3532
▁delvis	-10.3542
ри	-10.3543
▁frp	-10.3552
▁francis	-10.357
▁petr	-10.3572
laug	-10.3573
▁hva	-10.3573
▁laks	-10.3576
▁jakt	-10.358
▁siv	-10.3589
▁petro	-10.3598
izhi	-10.3598
▁liter	-10.3599
▁clar	-10.3619
▁sjeldne	-10.3633
▁alkohol	-10.3633
▁1978	-10.3633
▁1970	-10.3633
▁rapport	-10.3634
▁tolv	-10.3634
▁kallenavn	-10.3635
▁tidsskriftet	-10.3635
▁stortings	-10.3636
▁dårlig	-10.3636
▁forteller	-10.3637
▁ridder	-10.3646
▁portrett	-10.365
▁bibel	-10.3659
▁bakover	-10.366
▁rap	-10.3663
▁gruve	-10.3663
tvedt	-10.3668
redaktør	-10.3668
▁ernst	-10.367
▁147	-10.3681
▁trenings	-10.3685
▁swa	-10.3686
▁liberal	-10.3687
▁holdt	-10.3689
cup	-10.3692
īng	-10.3694
▁asp	-10.3699
gass	-10.3703
▁trolig	-10.3706
▁four	-10.3708
spiss	-10.3711
▁emb	-10.3712
utvalget	-10.3729
▁sørlig	-10.374
forvaltning	-10.3743
type	-10.3752
versjon	-10.3753
▁fib	-10.3761
▁provinshovedsta	-10.3764
▁silke	-10.3771
time	-10.3777
▁introdusert	-10.3785
▁tilgjengelig	-10.3785
▁ytterligere	-10.3785
▁1975	-10.3785
▁tyrkisk	-10.3785
▁noctu	-10.3786
▁etterfølger	-10.3786
▁midgard	-10.3786
▁skøyte	-10.3786
▁tømmer	-10.3787
▁padding	-10.3788
▁firmaet	-10.3788
væske	-10.379
▁bundes	-10.3792
▁stadium	-10.3792
▁komposisjon	-10.3793
▁forsøk	-10.3795
▁uttalt	-10.3797
▁blank	-10.38
▁count	-10.3801
▁potet	-10.3806
opol	-10.3811
▁krever	-10.3814
▁kapell	-10.3821
▁144	-10.3825
grønn	-10.3827
▁129	-10.3828
▁heart	-10.3832
▁main	-10.3844
▁49	-10.3853
▁than	-10.3856
▁lasse	-10.386
▁omhandle	-10.3861
owski	-10.3868
kjent	-10.387
▁luci	-10.3886
somme	-10.39
но	-10.3909
ugle	-10.3915
▁03	-10.3921
▁ungdom	-10.3925
▁republik	-10.3935
▁gitarist	-10.3938
▁sannsynlig	-10.3939
▁bispedømme	-10.3939
▁naturreservat	-10.3939
▁arrangør	-10.3939
▁science	-10.3939
betennelse	-10.3939
▁serbisk	-10.3939
▁yrkes	-10.3939
▁golf	-10.3941
utgave	-10.3941
▁fiolin	-10.3943
▁down	-10.395
▁smør	-10.3955
▁klatre	-10.3956
▁hyper	-10.3957
▁oppdrag	-10.3966
sort	-10.3967
▁121	-10.3968
kysten	-10.397
▁fritz	-10.3975
bibliotek	-10.3982
fokus	-10.3983
▁demokrati	-10.3995
▁frode	-10.3995
domstol	-10.4004
▁norman	-10.4008
hår	-10.4011
▁baby	-10.4017
bukk	-10.4023
▁ligne	-10.4025
▁høg	-10.4031
zzo	-10.4044
▁hjemmebane	-10.4052
▁davis	-10.4055
▁81	-10.4078
▁utvide	-10.4081
▁samisk	-10.4088
▁amerika	-10.4095
▁bakkroppen	-10.4095
▁1976	-10.4095
▁tegneserie	-10.4096
▁yngre	-10.4096
▁brenselstype	-10.4096
tidsskrift	-10.4098
▁glad	-10.4106
▁gjennomført	-10.4112
▁sikkerhets	-10.4113
▁bjør	-10.4122
▁fungere	-10.4122
turnering	-10.4135
teknologi	-10.4144
▁04	-10.4146
▁fremme	-10.4171
та	-10.4176
▁bryn	-10.4176
▁regel	-10.4188
▁alban	-10.4189
▁avgjør	-10.4195
tjenesten	-10.4205
▁kö	-10.4211
▁neger	-10.4218
▁clark	-10.4228
ин	-10.4248
▁arrangeres	-10.4254
▁rudolf	-10.4254
▁vulkan	-10.4254
▁diplom	-10.4254
▁1984	-10.4254
▁moskva	-10.4254
▁fysisk	-10.4254
▁østerrike	-10.4254
hastighet	-10.4255
▁eventyr	-10.4255
▁global	-10.4256
▁inndelt	-10.4256
▁reidar	-10.4257
worth	-10.4257
institutt	-10.4261
▁demningen	-10.4262
thon	-10.4264
slutt	-10.4272
▁susan	-10.4276
▁opprør	-10.428
▁utviklings	-10.4293
▁bosetning	-10.4298
▁snu	-10.43
▁svan	-10.43
▁07	-10.4301
▁young	-10.4305
▁gha	-10.4307
▁eb	-10.4309
▁billed	-10.4311
▁107	-10.4315
ambi	-10.4325
cchi	-10.4328
blanding	-10.4329
▁kär	-10.433
▁ramme	-10.4338
▁113	-10.434
minne	-10.4344
odden	-10.4349
▁josef	-10.435
katalog	-10.4351
▁kho	-10.4352
▁sandvik	-10.4355
ий	-10.4364
▁reserve	-10.4375
▁frihet	-10.4378
▁76	-10.4385
▁irsk	-10.4387
▁nederlandsk	-10.4398
▁øker	-10.4402
▁98	-10.4403
ruten	-10.4406
recht	-10.4412
▁astronom	-10.4415
▁ishockey	-10.4415
▁suksess	-10.4415
ópolis	-10.4415
▁regissør	-10.4415
▁edvard	-10.4415
▁regissert	-10.4415
komité	-10.4416
▁micro	-10.4419
▁1960	-10.4423
▁lengst	-10.4423
kjøretøy	-10.4424
▁bydistrikt	-10.4425
gjær	-10.4428
ulert	-10.4435
▁vokste	-10.4437
punktet	-10.4441
▁dvs	-10.4448
▁disc	-10.4455
fyr	-10.4456
▁domini	-10.4457
▁ekstra	-10.4466
trener	-10.4474
transport	-10.4475
hånd	-10.4476
▁kub	-10.4497
▁munk	-10.45
▁robin	-10.451
▁71	-10.4515
▁bodde	-10.4516
▁bære	-10.4523
▁145	-10.4544
▁mega	-10.4565
kapasitet	-10.4579
cap	-10.4579
▁ingrid	-10.4579
▁hertug	-10.458
▁96	-10.4582
▁kveld	-10.4582
mønster	-10.4582
▁hotell	-10.4583
▁metro	-10.4588
▁barnehage	-10.4589
▁bodø	-10.4591
▁oppgave	-10.4593
kontroll	-10.4596
▁brian	-10.4598
▁china	-10.4604
▁viking	-10.4609
▁poll	-10.4609
distanse	-10.461
ма	-10.4615
▁nettside	-10.4617
▁font	-10.4617
▁night	-10.4623
årig	-10.4623
▁anderson	-10.4625
▁jess	-10.4626
▁statlig	-10.4627
løype	-10.4629
▁olaf	-10.4631
▁pha	-10.4645
▁mau	-10.4647
▁little	-10.4652
sentre	-10.4654
▁lord	-10.4667
gall	-10.4693
▁supp	-10.4717
▁06	-10.4721
▁öst	-10.4725
▁116	-10.4733
▁1964	-10.4746
▁regulere	-10.4747
▁redusere	-10.4748
▁archive	-10.4748
▁poli	-10.4748
terapi	-10.4752
▁mytologi	-10.4753
▁commun	-10.4754
▁tommy	-10.4754
▁bensin	-10.4755
▁eksport	-10.4756
▁ukjent	-10.4756
▁høyesterett	-10.4757
▁norway	-10.4757
administrasjon	-10.4762
▁plast	-10.4765
galleri	-10.4773
▁german	-10.4778
▁fuji	-10.4781
▁homo	-10.4782
bæk	-10.4785
▁hong	-10.4808
▁78	-10.4814
▁elias	-10.4821
▁jury	-10.4824
▁stabil	-10.4828
ovic	-10.4831
egler	-10.4831
gift	-10.4836
▁reich	-10.4837
▁dark	-10.4851
forestilling	-10.4857
▁skarp	-10.4863
▁nådd	-10.4864
blå	-10.4877
avhengig	-10.4882
▁wolf	-10.4886
▁kommunal	-10.4888
▁bring	-10.4897
▁rö	-10.4901
amba	-10.4905
▁katedral	-10.4905
▁innsjø	-10.4911
dommer	-10.4911
▁aleksandr	-10.4915
▁1961	-10.4915
▁1971	-10.4915
▁sjelden	-10.4915
▁utkom	-10.4916
▁generalsekretær	-10.4917
▁sekund	-10.4918
▁skotsk	-10.4918
▁58	-10.492
kompani	-10.4922
▁meyer	-10.4926
мо	-10.4943
▁first	-10.4949
frukt	-10.4992
▁kvin	-10.5
profil	-10.5005
▁vokalist	-10.5017
▁gross	-10.5017
gått	-10.5028
ș	-10.5031
chau	-10.5039
▁tykk	-10.504
▁tell	-10.504
▁karbon	-10.5052
opptak	-10.5054
▁major	-10.5059
▁nevro	-10.5061
▁milan	-10.5068
sikkerhet	-10.5069
melding	-10.508
υ	-10.5087
konstruksjon	-10.5087
ская	-10.5087
▁religiøs	-10.5087
▁sistnevnte	-10.5087
▁pradesh	-10.5088
▁ludvig	-10.5088
▁kenneth	-10.5088
▁people	-10.5088
støtte	-10.5088
▁symfoni	-10.5088
▁ungarsk	-10.5088
▁wind	-10.5088
▁systematikk	-10.5088
modul	-10.509
▁asbjørn	-10.5109
stamme	-10.511
▁vandre	-10.511
▁which	-10.5113
▁kunde	-10.5114
▁arkitektur	-10.5127
ière	-10.5128
▁utøve	-10.5133
▁fotballklubb	-10.5134
▁sving	-10.5136
▁ej	-10.5139
▁euro	-10.5139
ault	-10.5143
▁sovjetisk	-10.5153
▁67	-10.5154
▁krog	-10.5158
▁henning	-10.5172
▁mario	-10.5179
▁eriksen	-10.5187
bjørk	-10.5194
▁fish	-10.5197
drevet	-10.5209
▁him	-10.5212
▁stim	-10.5214
▁søke	-10.5217
▁hekke	-10.5229
polit	-10.5236
▁102	-10.5244
sykdommer	-10.525
▁francesco	-10.5263
▁generelt	-10.5263
▁zhu	-10.5263
▁maksim	-10.5264
▁geit	-10.5265
▁begrense	-10.5265
▁xiàn	-10.5265
▁protein	-10.5266
▁fremstille	-10.5268
▁styreleder	-10.5268
monument	-10.5268
▁llc	-10.527
▁zhang	-10.5276
laid	-10.528
▁hersker	-10.5283
stråle	-10.5292
▁rov	-10.5293
▁austr	-10.5293
▁forbunds	-10.5307
▁orgel	-10.5316
▁nobel	-10.5317
▁other	-10.532
▁hauk	-10.533
▁bredd	-10.5331
▁areal	-10.5345
▁fantes	-10.5346
generasjon	-10.5349
▁revers	-10.5349
president	-10.5352
avtale	-10.5354
▁aksel	-10.5358
▁olga	-10.5358
▁vend	-10.537
ulykke	-10.5374
bunn	-10.5378
ić	-10.5381
witz	-10.5382
▁opphav	-10.5409
▁legend	-10.5411
näs	-10.5425
tunnel	-10.5434
▁krf	-10.544
▁keyboard	-10.5442
▁passasjer	-10.5442
▁1945	-10.5442
▁stephen	-10.5442
▁zw	-10.5442
▁australia	-10.5442
▁hvilke	-10.5442
▁kontakt	-10.5443
▁varianter	-10.5448
▁1930	-10.5451
▁when	-10.5452
▁sammenheng	-10.5455
▁varianten	-10.5456
▁sammenlagt	-10.5456
regiment	-10.5459
amerikansk	-10.5463
▁benevn	-10.5471
▁report	-10.5475
▁93	-10.5491
▁good	-10.5495
vík	-10.5499
▁ferge	-10.5503
▁thom	-10.5506
▁oberst	-10.5524
▁novo	-10.5529
aktivitet	-10.5541
▁england	-10.5543
▁past	-10.5546
departement	-10.5551
▁fritt	-10.5552
▁142	-10.5558
▁markert	-10.5559
▁utnevnt	-10.5623
bataljon	-10.5623
▁corporation	-10.5623
▁fullstendig	-10.5623
▁initiativ	-10.5623
▁millimeter	-10.5623
▁ytterkant	-10.5623
▁komponert	-10.5623
▁således	-10.5623
▁1966	-10.5623
▁bjarne	-10.5624
kjøkken	-10.5624
▁flerårig	-10.5624
▁vanskelig	-10.5626
▁bakgrunn	-10.5629
▁place	-10.5632
ittisk	-10.5639
▁øystein	-10.5642
▁sammenlign	-10.5644
▁manuel	-10.5648
▁klein	-10.5651
▁ansikt	-10.5652
▁eugen	-10.5655
▁avslutte	-10.5668
▁crist	-10.567
▁rulle	-10.5671
▁kreert	-10.5676
kjører	-10.5687
▁book	-10.5725
▁stykk	-10.5746
klub	-10.5759
sentral	-10.5789
▁miste	-10.5796
▁profesjonell	-10.5809
▁vladimir	-10.5809
spørsmål	-10.5809
saksofon	-10.5809
▁evangeli	-10.5809
▁1963	-10.5809
▁adolf	-10.5809
▁redusert	-10.5809
▁skjedde	-10.5814
▁toll	-10.5816
faktor	-10.5817
▁stryk	-10.5818
▁knud	-10.5826
▁veldig	-10.5827
▁partner	-10.5828
▁91	-10.5831
▁ansatte	-10.5839
bekken	-10.5843
▁61	-10.5848
▁sump	-10.5851
▁røyk	-10.5857
skiller	-10.5861
▁metal	-10.5867
▁sorg	-10.5868
▁83	-10.5911
vitenskapelig	-10.5925
ccio	-10.5928
skinn	-10.5931
cycl	-10.5935
väg	-10.5951
quist	-10.5954
▁utenriks	-10.5962
▁grø	-10.5963
tikere	-10.598
▁niels	-10.5981
festival	-10.5986
▁kilometer	-10.5997
▁hverandre	-10.5997
▁fengsel	-10.5997
▁trygve	-10.5997
▁natrium	-10.5997
▁1969	-10.5997
▁1974	-10.5997
▁brønn	-10.5997
ensemble	-10.5998
▁söder	-10.5998
▁kriminal	-10.5998
▁alexandr	-10.5998
▁theodor	-10.5998
▁henholdsvis	-10.5999
▁solgte	-10.5999
▁serra	-10.6001
▁finnmark	-10.6002
▁samuel	-10.6003
assistent	-10.6004
bebyggelse	-10.6005
positiv	-10.6007
▁allmenn	-10.601
ло	-10.6011
▁romersk	-10.6011
følelse	-10.6012
▁vinnerlag	-10.6014
▁effektiv	-10.6017
▁donau	-10.6023
▁hovedbyen	-10.6024
biologi	-10.6027
▁bedrifts	-10.603
га	-10.6032
▁cross	-10.6033
ти	-10.6039
styring	-10.6039
▁organisert	-10.6046
▁hilde	-10.6048
▁kaffe	-10.606
▁philip	-10.6062
▁bush	-10.6076
▁jøde	-10.6093
bjørg	-10.6098
▁arab	-10.6111
▁dà	-10.6116
▁castel	-10.6121
metrisk	-10.6132
kirch	-10.6135
▁reform	-10.6153
tjern	-10.6157
annon	-10.6172
▁automat	-10.6176
▁association	-10.6189
▁mountain	-10.6189
▁ukraina	-10.619
▁vunnet	-10.619
▁igjennom	-10.619
▁1936	-10.619
veksling	-10.619
▁senior	-10.6191
▁elektronisk	-10.6192
givende	-10.6192
▁wolfgang	-10.6192
▁håndball	-10.6195
egenskaper	-10.6196
▁leonard	-10.6196
▁moore	-10.6198
opplysning	-10.6199
▁utgjorde	-10.6202
▁miao	-10.6203
▁jackson	-10.6203
▁omfattende	-10.6209
▁know	-10.6209
høgskole	-10.6215
▁kritikk	-10.6216
▁hugh	-10.6228
vømm	-10.6236
▁bratt	-10.625
▁tildele	-10.6262
▁koloni	-10.6266
▁skaper	-10.6273
▁vidar	-10.6273
lândia	-10.6277
▁øke	-10.6278
▁lauri	-10.628
▁ibn	-10.6292
▁blind	-10.6297
▁rou	-10.6322
bregne	-10.6338
fylt	-10.636
samband	-10.6374
▁aero	-10.6375
direktoratet	-10.6386
▁aleksander	-10.6386
▁publikum	-10.6386
opplæring	-10.6386
▁foregår	-10.6386
▁1959	-10.6386
▁1924	-10.6386
kommisjon	-10.6386
▁brigade	-10.6387
▁two	-10.6388
sidig	-10.6389
▁arendal	-10.6389
▁import	-10.6392
▁nkp	-10.6395
▁bernard	-10.6396
▁cooper	-10.6407
vegetasjon	-10.6408
▁muskel	-10.6412
dersom	-10.6424
▁innført	-10.6425
▁silver	-10.643
▁medisinsk	-10.6446
440	-10.6467
▁registrert	-10.6483
historisk	-10.6519
▁overflate	-10.655
▁münchen	-10.6586
▁færøyene	-10.6586
▁guvernør	-10.6586
▁hospital	-10.6586
▁umiddelbar	-10.6586
▁inspirert	-10.6586
▁abraham	-10.6586
▁1940	-10.6586
▁geografisk	-10.6586
▁1965	-10.6586
▁1955	-10.6586
▁fortsetter	-10.6586
konferanse	-10.6586
▁kristiansand	-10.6586
▁innskriften	-10.6586
pedagog	-10.6586
▁alvorlig	-10.6586
▁skildre	-10.6586
▁über	-10.6587
▁hjørne	-10.6587
▁hurra	-10.6588
holdsvis	-10.6588
▁terreng	-10.6591
▁telemark	-10.6593
▁arkeolog	-10.6598
▁bidrag	-10.6599
▁arild	-10.661
▁ungdomsskole	-10.661
▁hundre	-10.6626
▁automatisk	-10.6628
title	-10.664
▁child	-10.6647
psykologi	-10.6674
høyskole	-10.6675
reise	-10.6694
▁hovedrollen	-10.6715
▁bestemme	-10.6717
▁kvinnelig	-10.6723
tropi	-10.6738
panel	-10.6787
forstyrrelse	-10.679
▁kollektiv	-10.679
▁vingespenn	-10.679
▁washington	-10.679
▁innbyggerne	-10.679
▁kristoffer	-10.679
▁1941	-10.679
▁kombinert	-10.679
▁utmerkelse	-10.679
▁ragnar	-10.679
▁avhandling	-10.679
ский	-10.679
sekvens	-10.6791
kjøl	-10.6792
▁opptrer	-10.6792
▁godkjent	-10.6792
▁spirit	-10.6794
▁protest	-10.6794
palasset	-10.6794
▁disney	-10.6795
▁sergej	-10.6795
▁gudinne	-10.6806
älven	-10.6806
▁eirik	-10.681
▁bønn	-10.6811
▁600	-10.6811
▁pepper	-10.6814
▁trekant	-10.6818
foretak	-10.6819
▁sosialistisk	-10.683
forsamlingen	-10.6833
▁tynn	-10.6842
stemme	-10.6871
▁identifi	-10.6875
radio	-10.6878
▁crow	-10.6879
нов	-10.6912
▁sovjet	-10.692
▁philipp	-10.6931
kunstner	-10.6957
toft	-10.6964
ventil	-10.698
▁sikre	-10.698
▁dekkvingene	-10.6998
▁douglas	-10.6998
▁hovedartikkel	-10.6998
▁jomfru	-10.6998
▁symphon	-10.6998
▁pattedyr	-10.6998
▁1957	-10.6998
▁eventuel	-10.6998
▁fjeld	-10.6998
▁mekanisk	-10.6999
▁søvn	-10.7
rettigheter	-10.7
▁akutt	-10.7001
▁viktor	-10.7001
▁twi	-10.7001
▁datamaskin	-10.7001
aften	-10.7004
▁francisco	-10.7006
endringer	-10.7006
▁fremført	-10.7008
▁1920	-10.701
▁nepal	-10.7011
▁plassering	-10.7013
▁point	-10.7014
▁biografi	-10.7015
▁centre	-10.7015
▁tibet	-10.7018
▁karakteristisk	-10.7026
▁utnytte	-10.7029
▁1900	-10.7032
funnstedet	-10.7034
▁maritim	-10.7035
zhuang	-10.7037
▁hytte	-10.7038
▁diesel	-10.7038
▁bjørke	-10.7041
▁fasci	-10.7042
▁mulighet	-10.7042
guó	-10.7043
▁oppleve	-10.7058
regning	-10.7062
rommet	-10.7071
sjön	-10.7081
▁salme	-10.709
tekst	-10.7096
▁erstatte	-10.7117
▁111	-10.7137
øvrig	-10.7157
sentrum	-10.7159
strømmen	-10.7163
skuespill	-10.7205
▁favoritt	-10.7211
▁infanteri	-10.7211
▁krystall	-10.7211
▁ludwig	-10.7211
▁eksperiment	-10.7211
▁etterhvert	-10.7211
▁finskspråklig	-10.7211
▁oppdatert	-10.7211
▁asteroide	-10.7211
▁ovenfor	-10.7211
▁windows	-10.7211
▁1952	-10.7211
rådgiver	-10.7211
▁thailand	-10.7211
▁prince	-10.7212
▁systematisk	-10.7212
▁axel	-10.7212
▁luigi	-10.7212
▁hjelm	-10.7212
▁nærmere	-10.7212
▁bærum	-10.7213
▁lewis	-10.7213
▁gråbrun	-10.7213
view	-10.7213
▁eivind	-10.7215
▁beholdt	-10.7216
kjerne	-10.7216
▁intens	-10.7216
▁foretrekke	-10.7217
▁2018	-10.7217
▁trenger	-10.7218
▁tropisk	-10.7218
▁hormon	-10.7222
▁novell	-10.7222
▁pistol	-10.7225
▁dream	-10.7232
▁fredrikstad	-10.7233
▁giv	-10.7233
▁plateselskap	-10.7241
okså	-10.7241
eksamen	-10.7243
gjorde	-10.7246
produkt	-10.7263
▁grunnlegge	-10.7265
▁glatt	-10.731
døgnfluer	-10.7313
terrier	-10.7317
fordeling	-10.7349
▁vietnam	-10.7428
▁inskripsjon	-10.7428
▁jesuittordenen	-10.7428
▁krydder	-10.7428
▁musikalsk	-10.7428
▁norwegian	-10.7428
▁research	-10.7428
▁behandles	-10.7428
kompetanse	-10.7428
▁utelukke	-10.7428
▁selvstendig	-10.7428
▁jacque	-10.7428
▁1939	-10.7428
▁hovedkvarter	-10.7428
▁vietnamesisk	-10.7428
▁bokstaven	-10.7428
▁gylden	-10.7428
▁doktorgrad	-10.7429
▁bitumen	-10.7429
▁essay	-10.7429
▁stortinget	-10.7429
▁tromsø	-10.7429
kjøring	-10.743
▁sibir	-10.743
▁bernhard	-10.743
ressurs	-10.743
betjent	-10.7432
gjald	-10.7432
vandring	-10.7446
▁snart	-10.7447
▁circ	-10.7451
hvelv	-10.7469
▁skrå	-10.7484
▁database	-10.7492
beskrivelse	-10.7493
▁maxim	-10.7498
▁bekke	-10.7533
▁inneha	-10.7561
▁trø	-10.7574
▁pall	-10.7589
ansvarlig	-10.7607
fylke	-10.7609
nevnte	-10.7612
hammar	-10.7613
▁færøysk	-10.765
▁vennskapsbyer	-10.765
▁business	-10.765
vassdraget	-10.765
▁tilføyd	-10.765
protokoll	-10.765
▁håvard	-10.765
▁1938	-10.7651
▁1927	-10.7651
▁1962	-10.7651
▁1967	-10.7651
seremoni	-10.7651
▁charlotte	-10.7651
▁strategi	-10.7651
▁studioalbum	-10.7651
▁oppdaget	-10.7651
▁donald	-10.7651
▁konsentr	-10.7653
▁programvare	-10.7653
▁embets	-10.7658
straße	-10.7659
▁lengre	-10.7661
▁kvalifiser	-10.7667
▁ørken	-10.7668
nevner	-10.7671
▁spyd	-10.7674
binding	-10.7679
bestemmelse	-10.7702
sjtsj	-10.7727
fatning	-10.7732
▁symbolisere	-10.7747
▁blanc	-10.7751
pumpe	-10.7753
▁kjøre	-10.7796
abili	-10.7796
▁marcel	-10.7808
vendt	-10.7854
▁kinamisjonær	-10.7878
▁barcelona	-10.7878
▁portugisisk	-10.7878
▁trommeslager	-10.7878
konservativ	-10.7878
▁mercedes	-10.7878
sentralbanksjef	-10.7878
▁kennedy	-10.7878
▁utbredt	-10.7878
▁høyhastighets	-10.7878
leksikon	-10.7878
▁parallell	-10.7878
▁1948	-10.7878
▁tvilling	-10.7878
▁ødelegge	-10.7878
▁arrangert	-10.7878
▁grunnkretsen	-10.7878
▁trompet	-10.7878
▁embeds	-10.7878
▁jødisk	-10.7878
▁detroit	-10.7878
▁bløt	-10.7879
▁diverse	-10.788
▁again	-10.7882
▁tørke	-10.7882
qvist	-10.7883
▁werner	-10.7884
▁unntak	-10.7885
vytsj	-10.7886
▁betong	-10.7887
▁express	-10.7889
▁partileder	-10.7889
ucci	-10.7892
▁short	-10.7896
▁bedriften	-10.7906
▁icao	-10.791
▁feire	-10.793
hytta	-10.7954
korset	-10.798
▁nøtte	-10.7999
▁result	-10.8022
▁ronn	-10.8062
arkitekt	-10.8078
bølge	-10.8091
▁taylor	-10.811
duksjon	-10.811
▁airlines	-10.811
▁referanse	-10.811
▁halvorsen	-10.811
▁1949	-10.811
▁1946	-10.811
▁frederick	-10.811
▁søndag	-10.811
▁haakon	-10.8111
▁arvid	-10.8111
▁valentin	-10.8111
▁second	-10.8112
▁spredt	-10.8113
▁fuktig	-10.8114
▁nettsted	-10.8115
▁armensk	-10.8115
▁nasjonalsang	-10.8116
▁vannkraftverk	-10.812
▁country	-10.812
▁bevart	-10.8127
▁alias	-10.8143
▁tolk	-10.8159
ović	-10.8174
dyktig	-10.8188
▁avvist	-10.8229
knapp	-10.8245
▁brent	-10.8294
provins	-10.8323
▁hybrid	-10.8348
▁puppeperioden	-10.8348
▁ragnhild	-10.8348
▁valgdeltakel	-10.8348
publikasjon	-10.8348
▁joachim	-10.8348
▁management	-10.8348
▁benjamin	-10.8348
▁through	-10.8348
▁buddha	-10.8348
▁konsept	-10.8348
▁1921	-10.8348
▁1951	-10.8348
▁1905	-10.8348
▁svovel	-10.8348
sylindre	-10.8349
▁ytterst	-10.8349
▁1896	-10.8349
▁frivillig	-10.8349
buddhist	-10.8349
ου	-10.835
▁skei	-10.8351
▁koreansk	-10.8352
▁airport	-10.8353
▁trasé	-10.8354
tilsynet	-10.8357
▁forbruker	-10.8357
▁gratis	-10.8365
▁tilpasse	-10.8377
relatert	-10.8389
▁direct	-10.8389
forsyning	-10.8399
forretning	-10.8412
overføring	-10.8418
▁quart	-10.8459
▁lykke	-10.8494
▁oversette	-10.8501
balanse	-10.8519
frø	-10.8587
▁vedlikehold	-10.8592
▁frilufts	-10.8592
▁litauisk	-10.8592
▁molekyl	-10.8592
▁medvirkende	-10.8592
▁html	-10.8592
patrulje	-10.8592
▁oppstår	-10.8592
▁division	-10.8592
▁fenomen	-10.8592
▁kommentar	-10.8592
▁overlevde	-10.8592
▁1944	-10.8592
kommandant	-10.8592
leverandør	-10.8592
▁texas	-10.8593
regulering	-10.8593
▁slovensk	-10.8593
▁cirka	-10.8593
▁visepresident	-10.8594
▁bøkene	-10.8595
▁christensen	-10.8595
▁strøk	-10.8596
▁claus	-10.8596
▁vestfold	-10.86
▁jernbanestasjon	-10.8616
mouth	-10.8621
▁psyko	-10.8629
direkt	-10.8635
beskyttelse	-10.8642
lilje	-10.8671
regnskap	-10.8678
▁geometri	-10.8686
▁grunnlov	-10.8723
▁slange	-10.8741
▁begynne	-10.8745
innehaver	-10.8796
modifiser	-10.8804
volum	-10.8813
høyden	-10.8821
▁microsoft	-10.8842
▁sebastian	-10.8842
▁aluminium	-10.8842
▁aserbajdsjan	-10.8842
▁tsjekkisk	-10.8842
▁göteborg	-10.8842
filharmoni	-10.8842
▁brødrene	-10.8842
▁nordsamisk	-10.8842
▁1958	-10.8842
grunnsstasjon	-10.8842
▁1925	-10.8842
høvding	-10.8843
▁project	-10.8843
▁salgs	-10.8843
▁kalsium	-10.8843
ansvaret	-10.8844
▁zhōng	-10.8844
köping	-10.8845
▁return	-10.8845
▁arbeiderpartiet	-10.8846
▁prinsesse	-10.8846
▁stiftelsen	-10.8846
▁nestleder	-10.8847
▁enzym	-10.8848
▁giuli	-10.8854
▁iversen	-10.8857
▁arrest	-10.886
qiao	-10.8889
▁nevnt	-10.8901
fysikk	-10.892
▁forvalte	-10.9024
historiker	-10.909
▁elizabeth	-10.9099
▁generalmajor	-10.9099
▁lawrence	-10.9099
▁symptomer	-10.9099
▁trøndelag	-10.9099
▁oksygen	-10.9099
prinsippet	-10.9099
▁mexico	-10.9099
▁vilhelm	-10.9099
▁1928	-10.9099
▁1929	-10.9099
▁1932	-10.9099
▁1942	-10.9099
▁1956	-10.9099
▁vesentlig	-10.9099
▁1935	-10.9099
▁amundsen	-10.9099
▁uigur	-10.9099
▁kommersiell	-10.9099
▁wagner	-10.9099
▁nelson	-10.9099
▁ungarn	-10.91
fosfat	-10.91
▁bmw	-10.9101
▁kråk	-10.9102
▁patriark	-10.9102
▁gerhard	-10.9103
▁fotballspiller	-10.9103
▁ekteskap	-10.9105
▁charlie	-10.9106
kreditt	-10.9106
açu	-10.9112
liknende	-10.9113
▁idrettsforening	-10.9124
ław	-10.9125
adresse	-10.9127
forsikring	-10.9138
trukket	-10.9141
utenriksminister	-10.9148
børste	-10.9149
tavle	-10.9153
▁hvile	-10.9158
▁drenere	-10.9167
nnede	-10.917
fasade	-10.9172
namerikansk	-10.92
▁harmoni	-10.9219
▁variere	-10.9221
grunnlag	-10.9278
▁luftfart	-10.9285
musikere	-10.9314
▁døgnflue	-10.9325
▁ferdinand	-10.9362
▁frankfurt	-10.9362
▁frigjøring	-10.9362
▁fyringsolje	-10.9362
▁sarpsborg	-10.9362
▁pakistan	-10.9362
▁wergeland	-10.9362
▁kapittel	-10.9362
▁kvadrat	-10.9362
▁tønsberg	-10.9362
▁oxford	-10.9362
▁xinjiang	-10.9362
▁colombia	-10.9362
▁1931	-10.9362
▁ålesund	-10.9362
▁cappelen	-10.9362
▁1880	-10.9362
▁ekstrem	-10.9362
▁nemlig	-10.9362
▁kroatisk	-10.9362
flaggermus	-10.9363
▁kobber	-10.9363
▁131	-10.9364
jernbane	-10.9364
▁marianne	-10.9365
▁føderal	-10.9366
▁kelly	-10.9366
▁alpinisten	-10.9368
ability	-10.9368
▁signert	-10.9373
▁kritiker	-10.9376
▁isabel	-10.9376
▁utvidelse	-10.9395
klokke	-10.94
▁innerst	-10.9405
overflaten	-10.9415
sæter	-10.9431
▁landslags	-10.9494
▁sokn	-10.9513
læg	-10.9614
▁nødvendig	-10.9632
gjødsel	-10.9632
▁juridisk	-10.9632
▁gjøvik	-10.9632
▁chicago	-10.9632
▁raymond	-10.9632
disiplin	-10.9632
▁1923	-10.9632
▁1947	-10.9632
▁wylie	-10.9632
▁1933	-10.9632
▁selvmord	-10.9632
▁alminnelig	-10.9632
▁psych	-10.9633
script	-10.9633
▁stephan	-10.9633
▁negativ	-10.9633
▁steffen	-10.9634
▁margaret	-10.9634
▁nyheter	-10.9634
▁arnold	-10.9635
▁øivin	-10.9635
▁grammati	-10.9637
størrelse	-10.9638
▁nyhets	-10.9639
▁krevd	-10.9644
stitusjon	-10.9681
plikasjon	-10.9699
▁earl	-10.9717
▁medici	-10.9727
▁beregne	-10.973
konsert	-10.9906
▁komponent	-10.991
▁aftenposten	-10.991
▁argentina	-10.991
▁langrennsløper	-10.991
▁manuskript	-10.991
▁philadelphia	-10.991
▁substantiv	-10.991
▁installert	-10.991
▁satellitt	-10.991
▁selvbiografi	-10.991
▁hongkong	-10.991
▁piauí	-10.991
▁antagelig	-10.991
▁intervju	-10.991
▁skottland	-10.991
▁kombinasjon	-10.991
budsjett	-10.991
▁1937	-10.991
▁special	-10.991
▁fellow	-10.991
▁would	-10.991
▁1891	-10.991
▁kjersti	-10.991
▁1844	-10.991
▁capital	-10.991
▁reklame	-10.991
stråling	-10.9911
▁delstats	-10.9911
▁control	-10.9911
▁belgisk	-10.9912
ый	-10.9912
▁about	-10.9912
▁mikael	-10.9912
▁taiwan	-10.9913
skrevet	-10.9914
▁søndr	-10.992
kobling	-10.9921
▁romsdal	-10.9925
▁birgit	-10.9934
▁økonom	-11.0024
▁varemerke	-11.005
syklus	-11.0053
▁overføre	-11.0074
▁lukke	-11.0189
psykiatri	-11.0196
▁california	-11.0196
▁françois	-11.0196
▁giuseppe	-11.0196
▁ortodoks	-11.0196
▁tsjekkoslovakia	-11.0196
skilpadde	-11.0196
▁innflytelse	-11.0196
▁akershus	-11.0196
▁utdødd	-11.0196
▁petroleum	-11.0196
▁schwarz	-11.0196
▁betrakte	-11.0196
▁1908	-11.0196
vurdering	-11.0196
▁1953	-11.0196
▁trønder	-11.0196
▁lørdag	-11.0196
▁1899	-11.0196
▁valutakode	-11.0196
▁situasjon	-11.0196
▁regelmessig	-11.0197
▁fernand	-11.0197
▁verktøy	-11.0197
▁apollo	-11.0198
▁flytende	-11.0199
▁eddie	-11.0199
▁nederst	-11.0207
▁detalj	-11.0209
middag	-11.021
kampanje	-11.0215
europeisk	-11.022
▁tilslutte	-11.0222
strø	-11.0222
▁ekstern	-11.0223
▁pryd	-11.0227
▁karakterisere	-11.0241
▁søyle	-11.029
komedie	-11.0298
croi	-11.0325
craft	-11.0332
basseng	-11.0401
røtter	-11.0424
▁pakke	-11.0428
▁kontinental	-11.049
▁matematisk	-11.049
▁salvador	-11.049
▁gråhvit	-11.049
▁sullivan	-11.049
▁respons	-11.049
▁litauen	-11.049
▁english	-11.049
▁simpson	-11.049
▁fjernsyns	-11.049
▁1934	-11.049
▁anerkjent	-11.049
▁ronald	-11.049
▁underholdning	-11.0491
▁hovedpersonen	-11.0491
▁río	-11.0492
▁utenlandsk	-11.0492
klinikk	-11.0493
▁columb	-11.0496
▁generell	-11.0498
▁anatol	-11.05
▁smelte	-11.0503
▁hawk	-11.0505
ć	-11.051
▁xiao	-11.0515
litteratur	-11.0522
dialekt	-11.0522
orientert	-11.0523
▁presentere	-11.0523
▁frels	-11.0552
dømt	-11.0593
▁lokalavis	-11.0603
smykke	-11.0604
kvinne	-11.0604
psykolog	-11.0615
seminar	-11.0676
tabilitet	-11.072
▁bevege	-11.0788
▁beslutning	-11.0793
▁bulgaria	-11.0793
▁definisjon	-11.0793
▁erkebiskop	-11.0793
▁network	-11.0793
▁technology	-11.0793
▁basketball	-11.0793
▁lloyd	-11.0793
▁lillehammer	-11.0793
▁rasmussen	-11.0793
▁gjennomsnittlig	-11.0793
▁punjab	-11.0793
▁hamilton	-11.0793
▁fantasy	-11.0793
kommandør	-11.0793
▁trebukker	-11.0793
▁1954	-11.0793
▁nedbør	-11.0793
▁belgia	-11.0793
▁forbedre	-11.0793
bråten	-11.0793
▁1865	-11.0793
▁concert	-11.0793
▁sandefjord	-11.0793
▁anerkjenne	-11.0794
▁gwh	-11.0794
kirurgi	-11.0794
▁klinisk	-11.0797
▁elleve	-11.0798
▁avgrense	-11.0807
▁koreograf	-11.0816
▁kritiser	-11.0825
þ	-11.0834
