<unk>	0
<s>	0
</s>	0
.	-3.1848
s	-3.40016
e	-3.51955
▁	-3.78545
▁i	-3.90469
t	-4.0154
er	-4.0274
▁og	-4.04804
en	-4.1654
▁er	-4.58084
▁av	-4.64217
r	-4.65966
n	-4.86504
▁en	-4.87297
et	-4.92455
▁for	-4.97483
▁som	-5.00727
▁til	-5.07917
a	-5.09567
▁på	-5.14998
▁med	-5.1733
▁den	-5.41282
▁var	-5.46165
i	-5.49872
▁de	-5.5184
▁ble	-5.54195
▁fra	-5.60548
ene	-5.6817
▁har	-5.68752
▁det	-5.70706
o	-5.71716
d	-5.74949
▁et	-5.79096
k	-5.80217
ne	-5.80374
y	-5.87833
▁han	-5.95461
g	-5.96035
▁å	-6.02787
m	-6.07014
te	-6.13887
l	-6.13899
▁ved	-6.13993
p	-6.18471
re	-6.24293
▁også	-6.26213
de	-6.27681
f	-6.31007
▁ut	-6.3784
c	-6.38789
▁under	-6.44113
▁at	-6.44697
▁eller	-6.46037
▁om	-6.46338
v	-6.46527
h	-6.46589
▁a	-6.47136
u	-6.48311
▁etter	-6.50855
an	-6.51144
▁kan	-6.51801
us	-6.53811
▁s	-6.54811
▁be	-6.56686
▁to	-6.59236
in	-6.59254
ing	-6.60794
al	-6.62745
▁opp	-6.63792
▁over	-6.64314
le	-6.67029
on	-6.6923
▁inn	-6.70956
b	-6.71599
na	-6.72065
ar	-6.75979
sk	-6.79892
ter	-6.8044
ia	-6.82714
is	-6.8288
▁the	-6.83124
▁da	-6.83268
▁men	-6.87821
z	-6.89153
▁andre	-6.91762
▁18	-6.9242
▁seg	-6.93861
ende	-6.94177
▁hadde	-6.95741
▁mot	-6.95822
la	-6.96648
▁g	-6.96935
w	-6.97296
▁la	-6.97906
▁m	-6.97937
▁mellom	-6.9866
▁f	-6.99852
or	-7.00515
ke	-7.00635
▁sin	-7.00949
▁ha	-7.01103
▁u	-7.0214
j	-7.02441
ta	-7.03913
sen	-7.0623
▁d	-7.07348
▁tre	-7.0784
land	-7.08117
▁p	-7.08642
▁ikke	-7.10323
um	-7.12895
▁ligger	-7.13129
▁se	-7.13675
ur	-7.14655
▁født	-7.15055
ri	-7.15209
ning	-7.15441
ck	-7.17198
▁hans	-7.1969
▁h	-7.19761
il	-7.19802
ens	-7.20569
lig	-7.21181
x	-7.21322
▁1	-7.21577
ch	-7.22667
ra	-7.25121
▁an	-7.25404
isk	-7.25667
li	-7.26323
be	-7.26512
blant	-7.26633
di	-7.27813
▁dette	-7.27815
▁of	-7.28998
▁b	-7.29233
▁c	-7.29374
▁man	-7.30248
ve	-7.30508
▁al	-7.31969
ler	-7.32082
el	-7.32432
▁hun	-7.32487
nes	-7.32905
▁første	-7.33244
ma	-7.34031
▁nord	-7.34103
▁sammen	-7.34575
▁gjennom	-7.35344
ig	-7.35795
▁re	-7.36005
▁le	-7.36028
▁her	-7.36552
▁der	-7.37562
▁flere	-7.37565
iske	-7.37636
▁k	-7.37661
ske	-7.37791
da	-7.37809
ng	-7.38121
▁ca	-7.38434
as	-7.38491
kk	-7.40253
ro	-7.41021
der	-7.427
▁denne	-7.42722
ka	-7.43559
▁stor	-7.44165
▁ra	-7.45439
ner	-7.45737
é	-7.45773
▁fikk	-7.45818
▁17	-7.46272
ad	-7.4629
os	-7.46359
▁bo	-7.46381
å	-7.46585
to	-7.46699
ga	-7.4704
▁kommune	-7.47892
ver	-7.48153
ker	-7.48397
▁alle	-7.48557
stad	-7.48767
3	-7.49064
▁5	-7.49545
ff	-7.49686
ut	-7.50134
bo	-7.50146
kt	-7.50392
nde	-7.50746
ry	-7.50954
ul	-7.51212
▁li	-7.5134
mi	-7.5193
▁2	-7.52471
▁w	-7.52491
it	-7.52896
▁blir	-7.53109
▁hoved	-7.5338
▁he	-7.53431
▁ro	-7.53462
▁in	-7.53788
øy	-7.53825
ja	-7.54108
ger	-7.54333
ba	-7.5442
for	-7.54524
vis	-7.55551
▁vi	-7.56543
2	-7.56981
th	-7.57215
▁kom	-7.57819
dal	-7.58309
lo	-7.59054
▁di	-7.59504
ge	-7.59561
▁st	-7.5976
son	-7.60288
at	-7.61217
▁n	-7.61457
▁j	-7.61675
▁ga	-7.61786
▁ny	-7.61974
▁pa	-7.62705
▁del	-7.62712
ton	-7.63379
si	-7.63956
▁disse	-7.64603
▁l	-7.65316
▁by	-7.65358
1	-7.65492
▁3	-7.65624
▁lo	-7.65724
▁år	-7.65984
▁na	-7.66032
ell	-7.66674
▁hvor	-7.6671
het	-7.66898
▁kon	-7.67081
▁tidligere	-7.67623
mp	-7.6767
id	-7.67886
▁si	-7.67939
▁and	-7.68115
man	-7.68351
erte	-7.69574
lige	-7.70142
▁ti	-7.70512
del	-7.70596
ol	-7.7085
den	-7.71386
ør	-7.71511
▁16	-7.7165
▁o	-7.71769
bi	-7.71844
▁annet	-7.72143
▁sør	-7.72664
ist	-7.73001
je	-7.73023
va	-7.7352
▁mer	-7.73595
▁co	-7.7399
▁15	-7.74512
▁død	-7.74739
mer	-7.74761
ko	-7.74918
ha	-7.74951
vi	-7.75011
mann	-7.75116
berg	-7.75244
ic	-7.75305
gen	-7.75449
▁t	-7.7586
▁v	-7.76076
tre	-7.76203
▁kinesisk	-7.7626
ti	-7.76285
▁norsk	-7.76336
ce	-7.76397
ven	-7.76483
▁byen	-7.76691
▁ka	-7.76827
▁4	-7.7689
ll	-7.76994
▁sa	-7.77624
▁mens	-7.77939
▁per	-7.78213
▁sp	-7.78545
▁går	-7.78598
▁mi	-7.7868
▁as	-7.78817
▁før	-7.79419
▁mo	-7.79439
▁mange	-7.79618
var	-7.79719
▁ba	-7.80003
ster	-7.80298
▁no	-7.80306
me	-7.80821
▁ar	-7.8088
▁så	-7.81008
▁du	-7.81083
5	-7.81208
▁sitt	-7.82036
sjon	-7.82454
ed	-7.82817
▁navnet	-7.82912
gg	-7.83331
ang	-7.83405
by	-7.83736
æ	-7.83774
▁pi	-7.83947
▁10	-7.84318
▁samt	-7.84614
men	-7.84667
gi	-7.84743
erne	-7.85306
▁vest	-7.8606
▁bu	-7.86067
▁pro	-7.86182
▁ofte	-7.86227
▁ni	-7.86436
ling	-7.86528
▁være	-7.87453
▁7	-7.87745
mo	-7.87874
▁do	-7.87876
▁lu	-7.89366
▁6	-7.90016
▁mar	-7.90213
tal	-7.90282
ov	-7.90434
4	-7.9078
▁bar	-7.9087
▁ma	-7.90878
▁or	-7.90919
ir	-7.90975
▁land	-7.91303
▁kjent	-7.9132
co	-7.91336
ste	-7.91861
▁ned	-7.9195
▁senere	-7.92395
▁ri	-7.92794
▁y	-7.92833
pe	-7.92955
▁fri	-7.93815
▁store	-7.93926
▁noen	-7.94092
om	-7.94543
▁finnes	-7.94631
▁ta	-7.94661
ns	-7.94778
▁ru	-7.9504
op	-7.95551
▁jo	-7.95715
▁mor	-7.95929
tor	-7.96124
▁po	-7.96319
ni	-7.9634
▁kalt	-7.96557
▁øst	-7.96557
▁frem	-7.96575
9	-7.96701
á	-7.96804
▁vil	-7.97268
▁ho	-7.97392
▁r	-7.97555
▁so	-7.97916
▁skal	-7.983
▁siden	-7.98543
ik	-7.99057
vik	-7.99339
skap	-7.99907
do	-8.00072
▁14	-8.00197
un	-8.00316
▁tid	-8.00481
ion	-8.00501
▁8	-8.00545
ær	-8.01203
elle	-8.01268
ak	-8.01321
ina	-8.01782
▁hos	-8.01854
▁su	-8.01986
▁sch	-8.02326
▁navn	-8.0261
▁far	-8.03078
▁0	-8.03102
else	-8.0348
po	-8.03693
ho	-8.03709
am	-8.0371
av	-8.03854
sh	-8.03966
les	-8.0408
▁bak	-8.04763
▁sine	-8.0491
sted	-8.04963
len	-8.05283
▁fire	-8.05399
▁lag	-8.05728
▁dag	-8.06246
▁me	-8.06516
lu	-8.06544
bu	-8.0655
▁12	-8.06601
no	-8.06675
▁selv	-8.06676
▁fly	-8.06826
▁spilt	-8.07735
▁sol	-8.08023
ot	-8.08591
rett	-8.08642
▁13	-8.08821
▁bi	-8.09347
▁9	-8.09372
▁el	-8.09894
▁te	-8.09943
▁fa	-8.10074
go	-8.10498
ings	-8.10784
▁både	-8.10828
ant	-8.10979
per	-8.11067
▁film	-8.11324
ag	-8.11439
▁gu	-8.11443
ment	-8.11515
od	-8.11678
år	-8.11763
▁mest	-8.12141
itt	-8.12252
▁11	-8.12319
gu	-8.12454
ø	-8.12491
▁ham	-8.12621
bar	-8.12831
pa	-8.13173
tter	-8.13246
▁rundt	-8.13281
sta	-8.1345
▁vann	-8.1345
ä	-8.13773
8	-8.13842
au	-8.14054
ly	-8.14076
lin	-8.14247
▁kl	-8.1529
▁største	-8.15305
ard	-8.15322
dd	-8.15455
▁vært	-8.15555
▁wa	-8.15575
▁mål	-8.1558
verk	-8.15668
▁pu	-8.15813
7	-8.15899
▁hu	-8.15978
sel	-8.16282
ru	-8.16293
▁samme	-8.16785
ud	-8.17289
▁ko	-8.18077
▁pe	-8.18497
ering	-8.1875
hold	-8.18836
▁ei	-8.19312
▁lang	-8.19327
min	-8.19452
▁am	-8.19852
▁tor	-8.19872
▁kirke	-8.19893
▁kr	-8.20087
mb	-8.20095
▁består	-8.20186
opp	-8.2033
▁når	-8.20394
▁mai	-8.20513
▁ja	-8.2065
vo	-8.20769
lag	-8.20782
▁km	-8.20862
ft	-8.212
▁grunn	-8.21368
▁san	-8.21424
▁20	-8.22016
fa	-8.22023
ium	-8.2243
ans	-8.22639
dag	-8.22646
ci	-8.22899
▁sam	-8.22951
tra	-8.23202
▁john	-8.23299
ca	-8.23618
ac	-8.23795
▁lever	-8.24009
▁sønn	-8.242
▁kunne	-8.24332
ok	-8.24357
▁fram	-8.24363
▁skole	-8.24368
▁enn	-8.24948
pp	-8.25121
▁bra	-8.25323
ks	-8.25533
kke	-8.25551
▁rett	-8.25887
▁alt	-8.2594
▁ab	-8.25999
▁nor	-8.26037
▁con	-8.26038
▁kunst	-8.26103
ian	-8.26178
over	-8.26197
▁vant	-8.2628
▁august	-8.26315
▁kina	-8.26392
▁kalles	-8.26437
▁hel	-8.26472
▁musikk	-8.26515
▁nå	-8.2654
ring	-8.26612
▁fi	-8.26664
gang	-8.26744
▁mars	-8.26953
siden	-8.27185
vin	-8.27336
▁tra	-8.27368
▁ju	-8.27534
▁ver	-8.27594
io	-8.2766
ningen	-8.27958
▁tallet	-8.28261
tiv	-8.28409
▁ad	-8.28463
▁norge	-8.28627
ku	-8.28825
▁norske	-8.28865
ny	-8.29163
▁amerikansk	-8.29484
▁provinsen	-8.29768
ingen	-8.29792
▁car	-8.30068
▁go	-8.30244
▁innen	-8.30283
ede	-8.30464
▁langs	-8.30565
▁blitt	-8.3075
▁x	-8.30806
▁russisk	-8.30915
▁gjen	-8.3104
idae	-8.31449
hus	-8.3145
▁gi	-8.31647
▁par	-8.31761
▁ne	-8.31912
hu	-8.32092
stein	-8.32293
nd	-8.32302
im	-8.32449
▁tri	-8.32453
▁må	-8.32491
▁all	-8.32506
▁slik	-8.33305
ken	-8.33311
▁syn	-8.33449
mar	-8.33492
0	-8.33567
▁nær	-8.33705
▁tv	-8.33805
ran	-8.33895
ier	-8.33992
ius	-8.34279
▁laget	-8.34554
▁pinyin	-8.3484
asjon	-8.35072
ow	-8.35366
▁tok	-8.3538
ie	-8.35534
ü	-8.35678
▁min	-8.35699
▁hi	-8.35822
▁ol	-8.36223
ong	-8.36306
ó	-8.36459
ou	-8.36685
▁eks	-8.36765
í	-8.37379
▁kor	-8.37732
▁juli	-8.37861
▁små	-8.37912
tan	-8.37966
▁bare	-8.38218
▁skulle	-8.38235
▁brukes	-8.38333
▁gruppen	-8.38414
▁ge	-8.38432
▁gikk	-8.38449
ine	-8.38693
▁området	-8.39287
▁folke	-8.39535
iv	-8.39603
▁hele	-8.39787
dan	-8.39832
▁fjell	-8.39989
▁sand	-8.40024
ding	-8.40142
sti	-8.40351
▁oslo	-8.40394
▁innehold	-8.40568
▁videre	-8.41054
▁nye	-8.41325
tisk	-8.41643
▁januar	-8.41748
▁bro	-8.41768
este	-8.41928
▁bruk	-8.42062
ö	-8.42715
øn	-8.42895
▁ulik	-8.43044
▁kommer	-8.43324
hi	-8.43449
ph	-8.43624
ty	-8.43755
ron	-8.43778
▁br	-8.44139
▁pre	-8.44229
▁sk	-8.44326
▁je	-8.44384
▁mat	-8.44453
ige	-8.44623
▁eksempel	-8.4465
lse	-8.44709
ica	-8.4507
følge	-8.45161
▁ste	-8.4555
vel	-8.45578
▁tilhører	-8.4564
res	-8.45822
gel	-8.46084
tiske	-8.46175
▁bok	-8.46203
inn	-8.46218
tte	-8.4622
▁leder	-8.46447
und	-8.46581
tur	-8.46734
sp	-8.46895
pi	-8.47229
tid	-8.47306
ung	-8.47365
▁wi	-8.47386
▁bru	-8.47581
▁stein	-8.47753
▁fem	-8.47783
za	-8.47804
▁vei	-8.47933
▁pan	-8.48103
▁ski	-8.48195
tar	-8.48306
▁ki	-8.48424
tu	-8.48509
▁like	-8.49159
▁kultur	-8.49193
▁hus	-8.49284
▁gre	-8.49286
sch	-8.49295
stand	-8.49304
ham	-8.4949
6	-8.49557
▁noe	-8.49634
ber	-8.4968
▁parti	-8.49929
▁utgitt	-8.50038
kel	-8.50395
ley	-8.50467
▁dem	-8.50634
▁new	-8.50686
▁spiller	-8.50724
▁kar	-8.51007
▁høy	-8.5101
▁fast	-8.51146
▁rekke	-8.51411
met	-8.5159
▁on	-8.51636
▁bil	-8.51766
inger	-8.51773
itet	-8.51899
▁ak	-8.5198
▁skrev	-8.52239
▁gir	-8.52302
▁meter	-8.52371
ord	-8.52521
q	-8.52734
til	-8.52798
fi	-8.52906
▁tillegg	-8.53119
jo	-8.53132
▁tysk	-8.5332
lands	-8.53617
▁col	-8.53638
ju	-8.53662
form	-8.53797
▁ur	-8.53869
yl	-8.53943
▁my	-8.54521
▁val	-8.54619
ya	-8.54628
▁cha	-8.5469
▁verk	-8.54854
▁kn	-8.5502
lan	-8.55194
▁sjø	-8.55245
▁engelsk	-8.55276
▁først	-8.55418
▁juni	-8.55481
▁bli	-8.55618
sten	-8.55661
▁2010	-8.56367
tten	-8.56389
▁nasjonal	-8.56394
ation	-8.56486
▁deres	-8.56542
ting	-8.56693
sson	-8.56826
▁hennes	-8.57162
mor	-8.57196
▁2007	-8.57477
bb	-8.57538
▁fag	-8.57852
ki	-8.57874
▁ch	-8.57981
▁kort	-8.57981
▁siste	-8.58008
▁vel	-8.58056
ikk	-8.58074
▁familien	-8.58088
▁kong	-8.58186
▁tilbake	-8.58309
▁dr	-8.58321
nk	-8.58397
▁halv	-8.58457
ninger	-8.58538
dalen	-8.58722
ab	-8.58725
▁skrevet	-8.59133
▁lov	-8.592
jø	-8.59274
▁000	-8.59502
fe	-8.59631
▁kjente	-8.59632
▁språk	-8.59638
isme	-8.59783
ologi	-8.59808
▁bl	-8.59859
fjorden	-8.59889
tak	-8.60014
kon	-8.60205
est	-8.60267
▁we	-8.60312
▁tro	-8.60315
▁art	-8.60353
tin	-8.60405
tok	-8.60669
▁følgende	-8.60973
▁usa	-8.6107
▁landet	-8.61171
▁ty	-8.61197
▁februar	-8.61444
folkerepublikken	-8.61735
▁kun	-8.61805
▁gud	-8.61949
anske	-8.61962
▁innenfor	-8.62107
▁vo	-8.62199
▁april	-8.6232
uk	-8.62335
▁mindre	-8.62342
▁25	-8.624
sto	-8.62824
ek	-8.62838
▁rom	-8.63014
bil	-8.6313
my	-8.63136
▁ord	-8.63183
▁uten	-8.63241
▁sv	-8.63254
▁mag	-8.63327
▁au	-8.63375
kor	-8.6379
▁egen	-8.64033
▁va	-8.64325
▁com	-8.64326
▁desember	-8.6439
ator	-8.64563
chi	-8.64596
mon	-8.64644
▁30	-8.6469
du	-8.65165
▁brun	-8.65199
▁fu	-8.65242
▁2005	-8.65306
▁cor	-8.65652
▁midt	-8.65738
stil	-8.65928
ug	-8.6593
▁2008	-8.65946
▁mel	-8.65992
▁moh	-8.66102
▁oktober	-8.662
par	-8.66247
▁lå	-8.66283
familien	-8.66366
▁president	-8.66387
tes	-8.6645
▁gresk	-8.66869
▁bre	-8.67265
▁form	-8.67313
▁derfor	-8.67334
▁hver	-8.67378
▁ber	-8.67481
borg	-8.67482
▁selskapet	-8.67535
▁vise	-8.67625
а	-8.67768
▁chi	-8.67845
▁hol	-8.67875
cu	-8.67932
▁side	-8.68042
iker	-8.68134
▁z	-8.6828
▁seks	-8.68295
kj	-8.68334
løp	-8.68381
▁kal	-8.68472
rik	-8.68484
yn	-8.68578
▁berg	-8.68894
▁mu	-8.69097
▁lys	-8.69241
burg	-8.6931
ps	-8.69333
▁2006	-8.69342
dyr	-8.69361
▁ed	-8.69425
far	-8.69516
▁imidlertid	-8.69606
▁tu	-8.69761
▁barne	-8.69783
▁god	-8.70027
▁rød	-8.70134
and	-8.70145
▁verdens	-8.70249
rede	-8.70263
ana	-8.70276
enes	-8.70337
▁filmen	-8.70438
▁norges	-8.70602
▁liv	-8.7066
dy	-8.70694
øya	-8.70805
▁betyr	-8.7086
▁begge	-8.70902
▁særlig	-8.70931
▁helt	-8.71039
▁gang	-8.71164
▁2009	-8.71207
nder	-8.71236
▁bred	-8.71301
tz	-8.71342
og	-8.71478
mme	-8.71496
ris	-8.71566
art	-8.71592
▁sta	-8.71651
▁anti	-8.7169
▁hen	-8.71715
▁september	-8.71836
▁omfatter	-8.71836
▁vin	-8.71926
bel	-8.71996
he	-8.72103
▁startet	-8.72234
▁sen	-8.7261
if	-8.72618
▁sett	-8.72692
▁luft	-8.72877
▁op	-8.72889
laget	-8.73048
▁konge	-8.7368
▁grav	-8.73717
▁ku	-8.7376
▁bruker	-8.73777
ide	-8.7406
▁lokal	-8.74114
val	-8.74303
dre	-8.74331
mål	-8.74391
▁sal	-8.74462
zi	-8.74549
▁døde	-8.74674
▁ex	-8.74834
▁begynte	-8.75109
kar	-8.75135
▁gr	-8.75143
sse	-8.75151
ap	-8.75175
▁stil	-8.75331
▁november	-8.75442
ld	-8.75572
▁sak	-8.75616
hy	-8.75635
▁innbyggere	-8.76112
▁von	-8.76133
ze	-8.76145
▁em	-8.76157
kom	-8.76226
slag	-8.76368
▁ren	-8.76631
bok	-8.76761
▁ve	-8.76775
▁deretter	-8.76844
che	-8.76897
▁fylke	-8.76928
ksjon	-8.76981
▁cu	-8.77015
▁via	-8.77079
▁sentral	-8.77186
▁hal	-8.77206
▁står	-8.77231
▁sy	-8.77236
bro	-8.77442
▁gamle	-8.77468
ino	-8.77711
ære	-8.77818
▁mal	-8.77825
▁fransk	-8.77943
medalje	-8.78022
asj	-8.7817
▁2002	-8.78172
wa	-8.78293
▁os	-8.78343
fly	-8.78372
uten	-8.78581
▁paul	-8.78584
00	-8.7862
dig	-8.78635
▁ben	-8.78652
▁fr	-8.78662
▁dagen	-8.78679
▁gul	-8.78806
▁samtidig	-8.78839
så	-8.7886
▁fred	-8.78861
▁fo	-8.78929
▁gjerne	-8.78934
kan	-8.78961
▁tar	-8.78989
▁christian	-8.79206
elsen	-8.79391
▁svær	-8.79411
▁valg	-8.79464
su	-8.79521
▁kommunen	-8.79601
vei	-8.79623
▁dan	-8.7971
ah	-8.79723
▁dermed	-8.79929
▁jan	-8.79975
▁beste	-8.802
mark	-8.8021
▁blå	-8.80223
▁kur	-8.80248
ale	-8.8049
▁pr	-8.80491
и	-8.80892
▁gull	-8.80949
▁jord	-8.80969
ay	-8.80975
▁mark	-8.81496
▁nest	-8.81497
bre	-8.81595
mal	-8.81649
gar	-8.81814
▁medlem	-8.81897
▁van	-8.82074
▁fotball	-8.82232
eres	-8.82237
▁datter	-8.82239
heim	-8.82502
spill	-8.82542
▁natur	-8.82595
о	-8.82881
▁igjen	-8.82926
ill	-8.82939
let	-8.83014
ska	-8.83025
▁hav	-8.83139
▁barn	-8.83421
▁bor	-8.8343
em	-8.83472
iz	-8.83516
▁få	-8.83683
rike	-8.8376
pper	-8.83782
▁2011	-8.83805
▁tidlig	-8.83818
▁gift	-8.839
▁større	-8.83991
bruk	-8.84044
satt	-8.84076
▁sto	-8.8409
van	-8.84091
▁brukt	-8.84263
▁øya	-8.84281
▁vis	-8.84363
▁fylkesvei	-8.84534
dom	-8.84544
mmer	-8.8485
▁ingen	-8.84871
▁bandet	-8.84923
sund	-8.85036
▁tur	-8.8506
▁pol	-8.85085
▁kri	-8.85282
▁vanligvis	-8.85291
▁person	-8.85319
elt	-8.85449
▁året	-8.85513
▁får	-8.85603
▁24	-8.85605
▁øy	-8.8561
▁roman	-8.85764
▁post	-8.85789
fri	-8.85805
▁th	-8.85979
▁ag	-8.86052
skole	-8.86078
▁forskjellige	-8.86177
▁lav	-8.86273
fjord	-8.86305
е	-8.8636
▁general	-8.86368
ther	-8.86437
▁farge	-8.86494
port	-8.86504
lik	-8.86666
▁europa	-8.86766
stat	-8.86808
▁forhold	-8.86889
▁sh	-8.87249
led	-8.8725
▁gro	-8.87328
kin	-8.87557
tiden	-8.87729
▁ap	-8.87778
▁gen	-8.87819
▁styre	-8.87839
bin	-8.87876
▁årene	-8.88077
fra	-8.8829
▁politisk	-8.88345
banen	-8.88495
veien	-8.88532
mat	-8.88556
ighet	-8.88733
▁forfatter	-8.88737
▁band	-8.88845
▁skog	-8.88877
▁skr	-8.89319
bl	-8.89347
▁nett	-8.89461
▁22	-8.89507
▁af	-8.89528
fo	-8.89642
▁dikt	-8.89843
▁arm	-8.89955
gan	-8.89968
▁basert	-8.89999
▁motor	-8.90016
elig	-8.90142
ep	-8.90176
▁gate	-8.90329
tatt	-8.90348
▁slekt	-8.90695
▁19	-8.90727
▁arbeids	-8.91003
▁vol	-8.91052
▁mon	-8.91101
rom	-8.91111
▁stat	-8.91137
▁rø	-8.9121
▁industri	-8.91255
▁tekst	-8.913
▁liten	-8.91328
▁gav	-8.91346
forening	-8.91459
▁hø	-8.91576
▁tredje	-8.91725
▁gammel	-8.91739
▁fin	-8.91747
▁carl	-8.91817
▁sangen	-8.91851
▁peter	-8.91852
ble	-8.92043
▁bergen	-8.92052
gl	-8.92081
xi	-8.922
▁pla	-8.92461
ving	-8.92523
▁utenfor	-8.92597
inne	-8.92628
up	-8.92752
lot	-8.92809
▁regn	-8.92821
▁mus	-8.93251
▁sang	-8.93312
▁jeg	-8.93501
▁politi	-8.93618
kraft	-8.93801
som	-8.94128
▁ø	-8.94164
▁28	-8.94182
vern	-8.94224
▁viser	-8.94254
▁serien	-8.94333
▁såkalt	-8.94515
kul	-8.94655
leder	-8.94884
▁mye	-8.9492
▁ev	-8.94935
mester	-8.94991
▁sil	-8.95061
▁za	-8.95125
▁kv	-8.95197
ister	-8.95308
øv	-8.95329
ini	-8.95341
lsen	-8.95389
▁dann	-8.95564
▁svensk	-8.95614
▁utviklet	-8.95752
▁mont	-8.9583
mel	-8.95851
▁spor	-8.95953
rak	-8.95994
▁heter	-8.96156
landet	-8.96175
før	-8.96264
▁bur	-8.96434
▁pra	-8.96451
▁støtte	-8.96454
system	-8.96499
à	-8.96554
tion	-8.96564
stående	-8.96568
▁2004	-8.96573
gra	-8.96605
▁liste	-8.9677
▁gar	-8.96829
ppe	-8.96996
▁kamp	-8.97062
sett	-8.97116
olog	-8.97137
ji	-8.97149
ach	-8.97166
▁gjorde	-8.97169
gh	-8.97303
▁bal	-8.97403
▁lange	-8.97681
isert	-8.97698
syn	-8.97833
han	-8.9784
▁lyd	-8.9785
▁minne	-8.97858
vet	-8.97928
mun	-8.98016
▁mm	-8.98135
pen	-8.9823
▁keiser	-8.98248
▁stats	-8.98261
▁britisk	-8.98445
lene	-8.98463
▁produsert	-8.9847
ita	-8.98518
isering	-8.98531
▁bygget	-8.98559
▁rock	-8.9856
▁21	-8.98617
▁sted	-8.98678
▁måtte	-8.98687
▁slutt	-8.98726
heten	-8.98736
mm	-8.98742
▁sc	-8.98835
asjonen	-8.99055
▁omkring	-8.99118
▁versjon	-8.99287
lagt	-8.99366
▁fer	-8.99376
▁familie	-8.99461
▁elven	-8.99481
▁inkludert	-8.99483
don	-8.99498
▁ser	-8.99592
fall	-8.99597
▁plan	-8.99617
▁ville	-8.99656
▁system	-8.99799
▁tru	-8.99898
▁sommerfugl	-8.99956
▁riks	-9.00061
▁hy	-9.00133
▁para	-9.00196
folk	-9.003
▁sommer	-9.00381
ford	-9.0059
▁dess	-9.00655
▁utvikling	-9.0066
▁johan	-9.00735
app	-9.00829
vær	-9.00963
▁bas	-9.01027
▁menneske	-9.01032
plass	-9.01182
▁opprinnelig	-9.01237
▁maria	-9.01281
ies	-9.01313
ski	-9.01346
▁rev	-9.0135
asjons	-9.01434
anger	-9.01443
▁kyst	-9.01455
▁sig	-9.01499
▁mil	-9.01588
ika	-9.0161
ð	-9.01629
▁william	-9.01629
▁26	-9.01633
▁hjelp	-9.01669
figur	-9.01681
ice	-9.01696
▁tyske	-9.01768
▁ci	-9.01782
▁grad	-9.01794
▁ring	-9.01839
▁ry	-9.0188
ves	-9.02012
kken	-9.02034
▁hvert	-9.02079
we	-9.02257
råd	-9.02267
▁fv	-9.0243
н	-9.02466
ú	-9.025
▁plass	-9.02597
ā	-9.02609
isere	-9.02748
▁tak	-9.02809
hl	-9.02838
är	-9.02927
▁representert	-9.02939
▁ul	-9.0298
▁2000	-9.02986
▁mod	-9.03011
▁internasjonale	-9.03014
▁23	-9.03249
▁radio	-9.03337
▁betydning	-9.0338
▁bjørn	-9.034
▁fleste	-9.03433
▁lands	-9.03448
▁air	-9.03523
net	-9.03528
▁dekk	-9.03594
▁arbeidet	-9.03647
▁gal	-9.0367
▁erik	-9.03725
skog	-9.03781
▁flo	-9.04033
▁tiden	-9.04036
▁es	-9.04109
oc	-9.04221
gre	-9.04231
bra	-9.0427
båt	-9.04421
▁bror	-9.04492
▁ke	-9.04541
è	-9.04656
▁lett	-9.04678
▁eu	-9.04742
▁ledet	-9.04933
▁bon	-9.05015
▁opera	-9.05132
▁populær	-9.05165
▁karl	-9.05333
rum	-9.05403
▁foran	-9.05485
▁blad	-9.05543
▁fl	-9.05544
press	-9.05698
▁fiske	-9.05762
▁mis	-9.05877
log	-9.05964
▁klubben	-9.06169
fer	-9.06274
▁bygd	-9.06352
▁lin	-9.06507
▁you	-9.06568
lia	-9.0664
styre	-9.06659
▁sm	-9.06683
ib	-9.06693
▁stra	-9.06722
tus	-9.06733
▁ob	-9.06897
▁xi	-9.06905
tsj	-9.07104
▁ky	-9.07227
▁tradisjonell	-9.07249
spiller	-9.07282
ano	-9.07484
▁nytt	-9.07578
р	-9.07579
pro	-9.07695
▁50	-9.07859
▁satt	-9.07879
▁antall	-9.07887
lett	-9.07955
▁full	-9.08196
▁skuespiller	-9.08226
▁gruppe	-9.08238
minister	-9.0824
sj	-9.0843
hr	-9.08553
vann	-9.08626
▁tr	-9.08661
▁100	-9.08669
bygning	-9.08709
▁historie	-9.08768
fl	-9.08828
▁martin	-9.08918
▁hall	-9.08949
lys	-9.0896
▁plante	-9.08997
mu	-9.09012
▁kinas	-9.09028
▁mac	-9.09159
▁sub	-9.09165
rø	-9.09203
stilling	-9.09262
asjoner	-9.09319
20	-9.09366
▁ang	-9.09374
kast	-9.09476
▁lik	-9.09525
que	-9.0957
▁sosial	-9.0963
ida	-9.09646
▁moderne	-9.0979
▁hånd	-9.09984
▁utgjør	-9.10022
▁tom	-9.10069
▁ordet	-9.10115
▁shi	-9.10118
▁christ	-9.10121
rus	-9.10185
sky	-9.10186
▁2003	-9.10284
tyr	-9.1039
itz	-9.10513
▁kraft	-9.10557
br	-9.10598
grense	-9.10604
ført	-9.10679
pris	-9.10712
▁tildelt	-9.10759
▁mos	-9.10767
▁robert	-9.10781
lie	-9.10841
▁qu	-9.10912
▁eier	-9.10942
▁gran	-9.10971
our	-9.1099
▁grå	-9.11038
▁can	-9.11044
▁års	-9.11129
л	-9.11178
film	-9.11194
mannen	-9.11197
bygd	-9.1144
kal	-9.11537
▁tittelen	-9.11549
▁trans	-9.11607
selskap	-9.11639
▁sverige	-9.11661
▁litt	-9.11714
way	-9.11741
▁dis	-9.11743
dra	-9.11831
ari	-9.11949
▁fil	-9.12075
▁russland	-9.12141
▁mann	-9.12182
▁ganger	-9.12189
cy	-9.12238
▁latin	-9.12248
▁park	-9.12318
▁lite	-9.12326
▁eid	-9.12346
▁kre	-9.12387
kamp	-9.12429
▁port	-9.12458
▁svart	-9.12469
mus	-9.12522
navnet	-9.12542
sam	-9.12548
leg	-9.12605
stra	-9.12698
▁lille	-9.13026
søk	-9.13032
▁venn	-9.13228
▁olav	-9.13293
skip	-9.1337
gård	-9.13471
▁teater	-9.13476
grad	-9.13477
anlegg	-9.13604
▁energi	-9.1364
▁ind	-9.13644
▁handels	-9.13676
byen	-9.13703
▁les	-9.13807
område	-9.13888
▁fe	-9.13895
10	-9.13941
tic	-9.13943
▁organ	-9.13964
▁våpen	-9.14015
liggende	-9.14145
ish	-9.14163
▁27	-9.14219
▁historisk	-9.14226
▁pop	-9.14313
▁vinter	-9.14319
▁finner	-9.14357
▁hvit	-9.14378
▁mari	-9.14527
▁ten	-9.1461
▁kra	-9.14614
all	-9.14621
án	-9.14724
▁slag	-9.14789
▁overtok	-9.14815
lat	-9.15027
▁orden	-9.1503
▁stemme	-9.15045
stu	-9.15053
▁skolen	-9.15152
▁res	-9.15217
▁albumet	-9.15292
ros	-9.15319
▁ly	-9.15326
ath	-9.1537
▁én	-9.15543
▁folketelling	-9.15573
▁sj	-9.15737
dømme	-9.1575
nor	-9.15837
ind	-9.15943
▁nu	-9.15991
▁london	-9.16073
rud	-9.16117
navn	-9.16301
▁jon	-9.16458
▁david	-9.16689
pu	-9.167
området	-9.16721
▁gra	-9.16754
▁dy	-9.16796
valg	-9.16928
▁krigs	-9.17027
▁pat	-9.17037
kla	-9.17224
▁pass	-9.17355
▁stedet	-9.17372
gitt	-9.174
▁arbeider	-9.17422
▁gla	-9.17461
▁stu	-9.17579
▁thomas	-9.17639
kh	-9.17742
sjøen	-9.17803
▁west	-9.17858
▁ac	-9.18058
jer	-9.18114
▁helse	-9.18151
tikk	-9.18156
ket	-9.18188
fin	-9.18194
kop	-9.18237
jon	-9.18303
rid	-9.18408
▁sha	-9.18429
▁ji	-9.18485
▁31	-9.18487
bane	-9.18546
▁herre	-9.18554
▁regi	-9.1858
ås	-9.18702
▁super	-9.18705
vid	-9.18707
tel	-9.18731
▁kontroll	-9.18751
ula	-9.18762
med	-9.18801
▁dal	-9.18915
▁spe	-9.19059
▁egg	-9.19078
α	-9.19126
▁hovedsakelig	-9.19133
▁2001	-9.19157
▁universitet	-9.19398
▁hatt	-9.1946
▁tyskland	-9.1956
▁medlemmer	-9.19685
pol	-9.19695
vil	-9.19712
▁hår	-9.19812
▁reg	-9.199
40	-9.19902
kning	-9.19913
▁stort	-9.19985
▁militær	-9.20024
▁syd	-9.20026
▁tal	-9.20071
▁enkelte	-9.201
ive	-9.20123
▁kol	-9.20187
▁serie	-9.20187
organisasjon	-9.20243
red	-9.20282
klubb	-9.20314
føring	-9.20345
▁gitt	-9.20393
▁arter	-9.20395
az	-9.20399
▁pl	-9.20449
▁wo	-9.20584
lis	-9.20601
▁bank	-9.20637
▁lø	-9.20757
bert	-9.20788
mas	-9.20857
▁kongen	-9.20895
▁egne	-9.20932
vert	-9.20946
▁pris	-9.21079
skrift	-9.21102
ix	-9.21148
▁delstaten	-9.21217
▁1989	-9.21224
▁nev	-9.21251
▁viktigste	-9.21258
svis	-9.21557
▁mc	-9.21615
▁ban	-9.21638
▁felles	-9.21673
▁not	-9.21745
sykl	-9.21787
lev	-9.21819
zhou	-9.21883
▁mas	-9.21893
istiske	-9.21907
▁tele	-9.21957
▁kunstner	-9.21985
sal	-9.22005
▁bør	-9.22033
øl	-9.22071
holm	-9.22121
stoff	-9.2214
pan	-9.22142
▁hjemme	-9.22143
▁venstre	-9.22276
▁sølv	-9.22286
▁best	-9.22379
kle	-9.2249
▁thor	-9.22496
▁vår	-9.22532
ade	-9.2256
▁ferdig	-9.22595
kant	-9.22648
▁plate	-9.22747
rin	-9.22757
▁annen	-9.22768
▁båt	-9.22779
▁dannet	-9.22819
bø	-9.22888
ms	-9.22948
▁georg	-9.23001
▁kron	-9.23038
▁29	-9.23061
▁miljø	-9.23231
løse	-9.23323
forsker	-9.23374
▁lege	-9.23472
▁godt	-9.23628
60	-9.2384
liv	-9.23862
▁oppkalt	-9.23892
▁zh	-9.23952
arbeid	-9.24036
▁ska	-9.24115
▁dia	-9.24391
tta	-9.24399
rat	-9.24427
▁2013	-9.24449
gren	-9.24471
dri	-9.24606
▁album	-9.24619
▁mur	-9.25037
gruppen	-9.25141
▁island	-9.25262
▁tall	-9.25277
▁grønn	-9.25309
menn	-9.2531
▁arbeid	-9.25342
▁spesielt	-9.25528
▁omtrent	-9.25528
▁40	-9.25555
ight	-9.2556
▁høyeste	-9.25576
▁design	-9.256
the	-9.25647
▁følger	-9.25675
▁ball	-9.25675
lv	-9.25697
senter	-9.25779
▁lind	-9.25798
bud	-9.2585
samling	-9.25895
80	-9.25901
ola	-9.25906
tegn	-9.25974
▁region	-9.26024
bygg	-9.26096
85	-9.26134
punkt	-9.26139
▁vind	-9.26166
bygging	-9.26299
huset	-9.26379
▁fortsatt	-9.26455
▁reise	-9.266
30	-9.26655
▁høyre	-9.26694
▁kvinne	-9.26715
selskapet	-9.26729
▁mad	-9.26786
vogn	-9.26918
▁japansk	-9.26968
▁stasjon	-9.27052
produksjon	-9.27215
▁bort	-9.27418
retning	-9.27432
▁hor	-9.2746
stan	-9.27474
▁fant	-9.27714
▁eli	-9.27719
▁kat	-9.27725
myndighet	-9.27757
▁ter	-9.27809
plan	-9.27832
qui	-9.28106
▁war	-9.28197
▁cla	-9.28227
▁studie	-9.28231
▁kam	-9.28241
▁standard	-9.28323
▁knytte	-9.28326
of	-9.28348
jen	-9.28393
86	-9.28445
▁strøm	-9.28568
våg	-9.28584
pass	-9.28592
▁mulig	-9.28668
▁q	-9.28742
king	-9.28849
▁1999	-9.28898
▁2012	-9.28908
ama	-9.28915
▁arkitekt	-9.28951
▁aktiv	-9.28954
▁kir	-9.28974
▁pri	-9.29061
ald	-9.2917
▁bygge	-9.29249
iet	-9.29279
fest	-9.29293
aktig	-9.2941
elser	-9.29451
▁cro	-9.29488
▁james	-9.29543
▁politiker	-9.29551
▁deler	-9.29808
▁dø	-9.29898
▁india	-9.29901
ringen	-9.2993
elva	-9.30124
ial	-9.30223
▁distrikt	-9.30452
▁stjerne	-9.30499
▁kjøp	-9.30661
▁regnes	-9.30731
▁deltok	-9.30747
▁angrep	-9.30837
satte	-9.3096
▁pen	-9.31033
▁svenske	-9.31106
mot	-9.31114
lit	-9.31165
isten	-9.3117
▁national	-9.31196
▁dom	-9.31205
▁modell	-9.31206
fisk	-9.31251
▁økonomisk	-9.31296
▁veien	-9.31349
▁åtte	-9.31378
▁selskap	-9.31388
▁perioden	-9.31499
lem	-9.31577
stikk	-9.3169
▁etablert	-9.31731
▁fall	-9.31765
formet	-9.31771
▁bø	-9.31777
▁skje	-9.31824
▁opprettet	-9.31864
▁eget	-9.31867
▁sel	-9.3187
▁besøk	-9.31951
▁mill	-9.3198
▁bj	-9.32007
eks	-9.32013
ille	-9.32057
legg	-9.32165
lov	-9.32189
▁sanger	-9.32212
▁nils	-9.32245
▁bri	-9.32273
▁staten	-9.32318
▁riksvei	-9.32434
ater	-9.32532
▁olje	-9.32556
▁vanlig	-9.32557
▁don	-9.32568
ub	-9.32568
fag	-9.32588
ire	-9.32599
ij	-9.32678
▁un	-9.32779
▁uni	-9.32802
▁spar	-9.32806
ky	-9.32882
▁samarbeid	-9.32954
ala	-9.32956
▁1990	-9.3297
▁forbindelse	-9.33077
▁jernbane	-9.33103
▁dra	-9.33187
▁blod	-9.33231
side	-9.33243
senteret	-9.33247
▁hard	-9.33286
▁regionen	-9.33309
▁mol	-9.33458
▁hvis	-9.33458
sjef	-9.3352
▁1980	-9.3357
▁viktig	-9.33614
▁fas	-9.33684
ekte	-9.33704
▁sesongen	-9.33724
ssa	-9.33842
ella	-9.33916
kunst	-9.33977
▁pave	-9.34011
tall	-9.34081
age	-9.34089
mul	-9.34138
▁ph	-9.34151
▁åpnet	-9.34162
36	-9.34188
▁inkluderer	-9.34261
▁topp	-9.34288
▁fordi	-9.34342
bus	-9.34347
ben	-9.34465
iner	-9.34576
eier	-9.3459
ani	-9.34667
▁vekt	-9.34684
▁fredrik	-9.34789
▁prosjekt	-9.34799
в	-9.34829
midler	-9.34924
▁folk	-9.35053
brudd	-9.35054
istisk	-9.35095
▁styrke	-9.35213
ich	-9.353
drag	-9.35328
▁smal	-9.35384
▁bad	-9.35391
skje	-9.35475
ob	-9.35492
grunn	-9.35562
▁kors	-9.35575
kra	-9.35696
▁wal	-9.35713
▁turn	-9.35788
▁delt	-9.35836
▁type	-9.36032
▁elva	-9.36064
▁klar	-9.36131
gul	-9.36162
havet	-9.36198
▁gass	-9.36207
▁flat	-9.36222
37	-9.36236
▁het	-9.36279
▁len	-9.36391
ved	-9.36534
▁inter	-9.36566
sberg	-9.36568
▁richard	-9.3659
messig	-9.36602
lå	-9.36633
▁enkelt	-9.36736
▁finsk	-9.36792
▁johannes	-9.36792
bri	-9.37073
▁kul	-9.37197
stedet	-9.37293
ata	-9.37306
haug	-9.37581
▁sl	-9.37744
▁vas	-9.37794
ismen	-9.37804
64	-9.37821
▁informasjon	-9.3786
▁fått	-9.3788
▁dansk	-9.3789
stasjon	-9.3796
bær	-9.38023
78	-9.38134
▁lær	-9.38229
ull	-9.38446
park	-9.38452
▁erstatte	-9.38521
▁fremst	-9.38574
▁mørk	-9.38584
▁gjør	-9.38617
tti	-9.38674
▁tap	-9.38693
ban	-9.38861
omme	-9.38939
shi	-9.38961
▁millioner	-9.39079
▁biskop	-9.39081
▁transport	-9.39205
▁skrift	-9.39214
mand	-9.39256
gata	-9.39297
abel	-9.394
områder	-9.39571
▁løper	-9.39621
▁trykk	-9.39656
▁egentlig	-9.39737
66	-9.39762
old	-9.39832
▁trekk	-9.39889
▁uttrykk	-9.39922
▁berlin	-9.3996
merke	-9.40066
bru	-9.40068
ain	-9.40111
▁bilde	-9.40149
hel	-9.40154
▁veg	-9.40168
▁george	-9.402
▁frank	-9.40217
▁tegn	-9.40356
▁1998	-9.40359
lus	-9.4037
bank	-9.40384
▁she	-9.40397
▁skade	-9.40477
▁ordenen	-9.40524
nu	-9.40549
▁syv	-9.40572
bjørn	-9.40693
løs	-9.40693
39	-9.40722
oli	-9.40745
▁son	-9.40776
▁neste	-9.40877
▁meget	-9.40915
prosess	-9.40927
▁35	-9.40969
▁international	-9.40989
▁eldre	-9.41054
▁rolle	-9.41105
▁tjeneste	-9.41114
▁nærings	-9.41118
▁høyde	-9.41232
vig	-9.41239
løst	-9.41269
ör	-9.41325
dor	-9.41341
▁red	-9.41354
middel	-9.41387
▁slekten	-9.41392
yo	-9.41456
▁just	-9.41462
▁ledd	-9.41476
ira	-9.41479
▁start	-9.41484
▁viktige	-9.41525
elige	-9.41542
▁ett	-9.41632
▁hjem	-9.41637
▁1996	-9.41643
▁ole	-9.41713
▁holdt	-9.41794
kro	-9.41798
▁fal	-9.418
nett	-9.41811
hal	-9.41812
▁kirken	-9.41817
▁rund	-9.41898
▁verdi	-9.41943
band	-9.42097
▁lek	-9.42098
▁spansk	-9.42147
wan	-9.42203
▁seil	-9.42257
▁personer	-9.4226
š	-9.42284
▁operatør	-9.42296
tri	-9.42386
nia	-9.4244
▁årlig	-9.42517
▁hvite	-9.42639
▁180	-9.42647
▁nrk	-9.42754
▁60	-9.42771
▁jean	-9.42798
▁minst	-9.428
▁auto	-9.42908
▁symbol	-9.42937
▁direkte	-9.42938
fjell	-9.4294
70	-9.42966
▁arten	-9.4298
nivå	-9.42993
aks	-9.4306
▁yu	-9.43157
systemet	-9.43182
eri	-9.43315
ér	-9.43351
▁grand	-9.43398
▁xiàn	-9.43595
felt	-9.43742
ance	-9.43801
ferd	-9.43833
▁sø	-9.43925
▁ram	-9.43975
zo	-9.44054
▁råd	-9.44086
partiet	-9.44116
▁pin	-9.4414
cia	-9.44151
▁ras	-9.44204
▁nes	-9.44273
▁italia	-9.44284
▁sul	-9.44359
tør	-9.44367
▁gjøre	-9.4438
▁data	-9.44422
▁metall	-9.44559
▁hei	-9.44591
▁sir	-9.44602
▁samle	-9.44617
nom	-9.44648
▁elev	-9.44715
dar	-9.4473
▁kraftverk	-9.44752
▁indre	-9.44791
▁cap	-9.44928
▁kloster	-9.44962
ette	-9.45042
parti	-9.45045
▁punkt	-9.45069
▁mun	-9.45165
▁middel	-9.45261
▁lev	-9.45306
▁hovedstad	-9.4531
▁grunnlagt	-9.45414
38	-9.45447
nik	-9.4545
ledd	-9.45514
▁varme	-9.45531
▁ken	-9.4554
▁1995	-9.45595
▁sørøst	-9.45597
▁jern	-9.45602
68	-9.45645
▁black	-9.45662
motor	-9.45695
▁samling	-9.45748
▁brukte	-9.45803
▁rot	-9.45815
▁dyr	-9.45836
hol	-9.45852
handling	-9.45857
musikk	-9.45871
▁gje	-9.45895
▁kroppen	-9.45995
full	-9.45999
farge	-9.4607
▁besto	-9.4607
▁sky	-9.46119
▁lan	-9.4623
▁betydelig	-9.46272
▁studert	-9.46287
▁unn	-9.46296
ark	-9.46312
▁løv	-9.46335
elli	-9.46397
▁kje	-9.46406
▁haug	-9.46485
ora	-9.4657
gikk	-9.46594
▁domin	-9.46681
ges	-9.46683
▁harald	-9.46707
des	-9.46788
▁mørke	-9.46824
▁frankrike	-9.46968
▁prest	-9.46975
▁tett	-9.46996
▁nok	-9.47047
vesen	-9.47109
▁sur	-9.47139
▁win	-9.47155
ild	-9.47182
▁grenser	-9.47239
ple	-9.47273
sens	-9.47354
▁thi	-9.47437
ologisk	-9.47504
▁resultat	-9.47528
▁langt	-9.4754
▁cas	-9.47564
delen	-9.47635
▁kilometer	-9.47636
enhet	-9.47666
ativ	-9.47732
▁elv	-9.47733
▁boken	-9.47763
los	-9.47911
▁skrive	-9.47933
▁mak	-9.48011
▁hed	-9.48038
▁variant	-9.48167
vende	-9.48198
▁fle	-9.48259
▁kristian	-9.48321
▁sw	-9.48322
nis	-9.48376
▁sivil	-9.484
▁utgav	-9.48406
person	-9.48493
▁mø	-9.48604
▁sn	-9.4869
47	-9.48746
▁bry	-9.48811
▁stiftet	-9.4884
cent	-9.48874
ite	-9.48903
▁sag	-9.48936
▁student	-9.48948
▁lokale	-9.48967
87	-9.48988
т	-9.49013
▁lund	-9.4909
▁sogn	-9.49091
bilde	-9.49094
rød	-9.49128
ori	-9.49169
grafi	-9.49191
▁che	-9.49215
▁henrik	-9.49232
▁rein	-9.49256
▁por	-9.49416
▁nr	-9.4945
▁est	-9.49491
ische	-9.49599
▁tilsvarende	-9.4972
▁spesial	-9.4972
▁høsten	-9.4976
▁linje	-9.49897
året	-9.49914
▁bedre	-9.49934
▁vir	-9.49967
con	-9.49977
▁mennesker	-9.49997
▁time	-9.5036
fyl	-9.50394
jev	-9.50417
▁1994	-9.50424
▁lufthavn	-9.50432
▁1986	-9.50441
▁franc	-9.50473
▁pal	-9.50525
loven	-9.50532
49	-9.50543
▁økt	-9.50548
sak	-9.506
▁anne	-9.50675
▁cal	-9.50858
▁finn	-9.50882
yang	-9.50933
kov	-9.50977
ón	-9.50977
62	-9.50998
▁sentrum	-9.51023
▁spiss	-9.51059
skriv	-9.51127
▁byprefektur	-9.51133
▁york	-9.51135
▁1988	-9.51147
▁2014	-9.51153
▁dam	-9.51156
▁brann	-9.51172
▁idretts	-9.51233
▁myr	-9.51347
hund	-9.51429
▁henne	-9.5144
trekk	-9.51523
с	-9.5154
▁sterkt	-9.51546
▁kost	-9.51576
▁80	-9.51616
ringer	-9.5163
øs	-9.51635
88	-9.51675
▁gitar	-9.51676
voll	-9.51728
mengde	-9.51734
▁motstand	-9.51737
▁steder	-9.51767
historie	-9.51776
77	-9.51784
stille	-9.51814
▁michael	-9.51847
▁hjerte	-9.51849
her	-9.51931
▁och	-9.51964
▁drift	-9.52013
pla	-9.52016
▁oppført	-9.52054
▁holm	-9.52081
▁distriktet	-9.52106
▁hell	-9.52122
vatnet	-9.52143
▁bill	-9.52178
▁kh	-9.52184
▁lar	-9.52262
språk	-9.52398
67	-9.52453
▁world	-9.52567
▁larvene	-9.52577
▁gy	-9.52599
▁charles	-9.52601
▁søster	-9.5262
fil	-9.52704
gruppe	-9.52705
84	-9.52733
▁bygg	-9.52735
▁die	-9.52749
zy	-9.52762
▁fjern	-9.52796
▁partiet	-9.52828
vit	-9.52878
▁hå	-9.5297
▁lærer	-9.53051
trykk	-9.53098
▁gård	-9.53249
▁nordøst	-9.53294
▁1970	-9.53307
▁eksempler	-9.5336
▁slott	-9.53363
museet	-9.53428
▁bolig	-9.53454
48	-9.53477
unt	-9.53501
▁driver	-9.53541
▁vid	-9.53645
▁hovedstaden	-9.5368
▁funksjon	-9.53748
76	-9.53873
strøm	-9.53989
▁innbyggertall	-9.54021
bånd	-9.54022
skjær	-9.54054
mod	-9.54071
▁henhold	-9.54089
▁bol	-9.5409
virke	-9.54111
▁fla	-9.54113
fon	-9.54119
44	-9.54125
▁komp	-9.5414
fu	-9.54178
▁poly	-9.5419
▁gården	-9.54194
▁sendt	-9.54206
▁rå	-9.544
fører	-9.54418
ī	-9.54478
▁bay	-9.54492
stri	-9.54537
cha	-9.54581
▁regjeringen	-9.54637
gaard	-9.54658
▁svarte	-9.54685
▁flyttet	-9.5476
alis	-9.54889
tunnel	-9.54908
▁bern	-9.54909
virkning	-9.54937
ien	-9.55001
▁kategori	-9.55017
aktivitet	-9.55048
▁ger	-9.55124
▁glo	-9.5513
▁tilby	-9.5513
▁natt	-9.55137
tis	-9.55223
▁sau	-9.55316
▁maskin	-9.55317
skudd	-9.55374
▁administrasjons	-9.55443
wi	-9.55454
▁louis	-9.555
ara	-9.55508
▁england	-9.55549
lang	-9.55578
syre	-9.55649
▁ris	-9.55662
brun	-9.55676
▁konsert	-9.55677
▁renner	-9.5571
▁und	-9.55735
▁makt	-9.5582
tha	-9.55847
▁japan	-9.5585
▁aust	-9.55935
46	-9.55957
slav	-9.56024
▁virke	-9.56057
▁åpen	-9.56076
▁grense	-9.56082
ura	-9.56165
▁frukt	-9.56185
69	-9.56189
oner	-9.56189
tårn	-9.56221
▁middelsstor	-9.56244
▁cm	-9.56244
▁32	-9.56256
▁ok	-9.56257
kanalen	-9.56296
▁finans	-9.56373
▁landsbyen	-9.56449
▁beskytte	-9.56488
gående	-9.56581
▁slo	-9.56626
▁slike	-9.5671
▁borger	-9.5672
▁ledelse	-9.56747
iserte	-9.5677
▁anna	-9.56807
▁franske	-9.56843
fang	-9.56917
▁cell	-9.56962
▁arne	-9.56974
▁1992	-9.56995
▁university	-9.57002
▁jens	-9.57024
▁danmark	-9.57027
stø	-9.57044
ppen	-9.57109
▁giftet	-9.57116
departementet	-9.57122
▁zo	-9.57131
ria	-9.57142
vind	-9.57206
▁ep	-9.57257
oph	-9.57296
low	-9.57297
▁verden	-9.57319
bor	-9.57331
innen	-9.57393
▁universitetet	-9.57607
▁camp	-9.57618
▁odd	-9.57665
én	-9.57744
▁1997	-9.57764
▁1985	-9.5777
▁sports	-9.57799
grav	-9.57858
ise	-9.57861
▁skips	-9.57971
▁anders	-9.58003
▁kraftig	-9.58013
89	-9.58035
▁sort	-9.58105
ras	-9.58131
fartøy	-9.58142
▁brit	-9.5828
ence	-9.58371
▁eg	-9.58433
▁privat	-9.58437
▁litteratur	-9.58439
blomst	-9.58458
▁spille	-9.58487
▁1982	-9.58516
▁foreldre	-9.58518
▁typisk	-9.58521
▁klasse	-9.58596
▁knut	-9.58615
etter	-9.58739
områdene	-9.58764
▁pet	-9.58769
rør	-9.58799
illa	-9.58811
▁stod	-9.58856
cc	-9.58911
▁ungdoms	-9.58928
kong	-9.58952
linjen	-9.58952
▁sund	-9.58961
▁beskrive	-9.58968
snitt	-9.59004
▁høyt	-9.59156
▁sim	-9.59184
▁bind	-9.59213
▁rad	-9.59231
▁eldste	-9.59286
arbeider	-9.59333
▁likevel	-9.59353
mund	-9.59381
tek	-9.59412
ider	-9.59413
lling	-9.59418
▁avdeling	-9.59431
pel	-9.5948
vekst	-9.59508
mes	-9.59522
nda	-9.59522
▁strand	-9.59564
gard	-9.5959
▁sko	-9.59739
stro	-9.59909
rich	-9.60011
dam	-9.60017
▁offisiell	-9.60061
▁statsminister	-9.60083
▁ze	-9.60104
field	-9.60134
▁kull	-9.6017
▁borg	-9.6025
▁bel	-9.60262
fjellet	-9.60302
fugl	-9.60337
▁stre	-9.60345
▁arn	-9.60363
ez	-9.60382
▁forsvar	-9.60455
▁skille	-9.6047
▁interesse	-9.60567
▁betegne	-9.60634
▁danske	-9.60731
▁skapt	-9.60746
ity	-9.60752
off	-9.60774
äl	-9.60775
manns	-9.60777
hør	-9.60793
▁blo	-9.6082
▁totalt	-9.60845
▁dronning	-9.60847
magasin	-9.6086
arter	-9.60884
iller	-9.60899
▁musiker	-9.60927
▁iii	-9.60941
heng	-9.60958
våpen	-9.60983
verket	-9.61008
▁bygde	-9.61015
▁albert	-9.61016
ød	-9.61026
oy	-9.61067
▁sten	-9.61096
▁45	-9.61097
sang	-9.61117
▁arabisk	-9.61139
▁fører	-9.61156
▁stø	-9.61187
qu	-9.61196
rekord	-9.61197
sin	-9.61198
71	-9.61225
▁real	-9.61257
▁vik	-9.61276
▁felt	-9.61281
well	-9.61298
forbund	-9.61311
▁star	-9.61395
▁salt	-9.61421
▁larven	-9.61491
▁char	-9.61527
mid	-9.61557
▁pot	-9.6156
▁virksomhet	-9.61568
▁fan	-9.61583
ith	-9.61586
д	-9.61612
▁møtte	-9.61661
▁ya	-9.6169
65	-9.61708
▁hører	-9.61718
98	-9.61735
▁nevnes	-9.61747
▁opprør	-9.6178
industri	-9.61785
▁dar	-9.61798
kommune	-9.61806
▁epi	-9.61812
▁italiensk	-9.61814
ansk	-9.61857
shire	-9.61896
41	-9.61907
▁led	-9.61944
ney	-9.61968
▁organisasjon	-9.62065
sol	-9.62075
lon	-9.62076
▁publisert	-9.62114
bol	-9.62133
har	-9.6219
▁sjef	-9.62215
▁redaktør	-9.62306
▁mester	-9.62321
▁will	-9.62338
▁fulgte	-9.62348
ō	-9.62354
▁fest	-9.62385
aksjon	-9.62394
ν	-9.62423
▁1972	-9.62423
▁1993	-9.62423
▁ein	-9.62445
▁bronse	-9.6245
▁retning	-9.62467
▁tank	-9.62635
oth	-9.62649
▁rh	-9.6269
▁lei	-9.62717
sport	-9.62745
oni	-9.62764
ordenen	-9.62783
liste	-9.62821
▁johann	-9.62824
rene	-9.62829
▁mid	-9.62834
▁us	-9.62886
korps	-9.62928
▁gren	-9.62985
▁zu	-9.62997
▁behandling	-9.63056
værende	-9.63112
bakk	-9.63135
ømt	-9.63152
42	-9.63216
▁stockholm	-9.63223
▁nordvest	-9.63228
▁bla	-9.6323
▁1976	-9.63238
▁1978	-9.63241
aceae	-9.63241
▁2017	-9.63244
▁2015	-9.6325
organ	-9.63284
mak	-9.63317
▁hit	-9.63375
▁hud	-9.63409
løsning	-9.63411
56	-9.63428
ulf	-9.63436
▁lengde	-9.63445
utvalg	-9.63522
▁naturlig	-9.63595
▁tung	-9.63621
▁200	-9.63625
▁500	-9.63627
▁munn	-9.6363
▁museum	-9.63714
ball	-9.63839
▁song	-9.63859
hard	-9.63871
▁kin	-9.639
▁produsent	-9.63911
kat	-9.63913
▁opprinnelse	-9.6403
▁1991	-9.6403
▁øverst	-9.64031
▁prisen	-9.64032
▁1987	-9.64046
▁tverr	-9.64114
spekt	-9.64159
▁maur	-9.64219
ua	-9.64251
15	-9.64476
▁enten	-9.64483
tog	-9.64491
▁rygg	-9.64556
▁strid	-9.64685
▁ce	-9.6472
get	-9.64742
м	-9.64825
▁1979	-9.64843
▁uavhengig	-9.64843
▁fjerde	-9.64846
▁vær	-9.64868
▁video	-9.64868
▁ek	-9.64971
▁holde	-9.64996
gler	-9.65066
▁gor	-9.6507
▁fjord	-9.65075
▁ref	-9.65125
▁utført	-9.65156
pur	-9.65188
▁kj	-9.6519
▁laur	-9.65202
▁heste	-9.65289
din	-9.65405
▁rike	-9.65414
▁direktør	-9.6543
▁karakter	-9.65446
▁king	-9.65471
▁benyttet	-9.65493
▁delta	-9.65584
lund	-9.65605
▁unge	-9.65607
▁long	-9.65609
evne	-9.65643
utdannet	-9.65669
▁1984	-9.65678
vakt	-9.65686
▁nummer	-9.65756
under	-9.65847
▁stav	-9.65914
ugh	-9.65929
▁sti	-9.65933
gården	-9.65967
formen	-9.65981
ico	-9.66026
▁gjort	-9.66029
lek	-9.66116
▁skjer	-9.66189
bevegelse	-9.66276
▁paris	-9.66313
▁krigen	-9.66319
▁bøker	-9.66398
▁fro	-9.66404
▁1981	-9.66489
▁tydelig	-9.66494
ona	-9.66548
▁måned	-9.66596
vinger	-9.66625
▁union	-9.66724
▁krav	-9.66817
▁metal	-9.66879
▁forsknings	-9.66895
▁kilde	-9.66924
45	-9.66951
utvikle	-9.67147
▁kil	-9.67177
blad	-9.67193
▁drev	-9.67217
inntil	-9.67225
74	-9.67244
▁sykdom	-9.67281
▁ö	-9.67338
cher	-9.67341
vurder	-9.67347
▁drama	-9.67444
▁rute	-9.67478
▁wei	-9.67581
▁dor	-9.67602
lokk	-9.67755
▁bio	-9.67818
▁kropp	-9.67853
▁vokal	-9.67936
▁indisk	-9.68
▁gode	-9.68016
feld	-9.6808
belteasteroide	-9.68162
ι	-9.68162
▁norrøn	-9.68166
▁dynastiet	-9.68174
▁alltid	-9.68251
▁gun	-9.68255
jiang	-9.68261
skij	-9.68281
▁nederlandsk	-9.68343
▁feil	-9.68357
▁fylkes	-9.68398
feltet	-9.68461
▁lars	-9.68513
▁legge	-9.68518
▁nar	-9.68546
▁tim	-9.68592
strand	-9.68644
▁mes	-9.68663
▁skip	-9.68694
sø	-9.68698
ova	-9.68882
bein	-9.68912
35	-9.68931
▁sommeren	-9.68935
▁kart	-9.68945
▁lign	-9.68965
▁univers	-9.68986
ick	-9.69049
▁hopp	-9.69183
mma	-9.692
▁utdanning	-9.69274
▁produksjon	-9.69339
alder	-9.69378
▁anlegget	-9.69439
▁byer	-9.69495
styrke	-9.69512
bevegelsen	-9.69517
svik	-9.69522
uc	-9.69587
▁elektro	-9.69854
foss	-9.6986
ρ	-9.69865
▁flaggbærer	-9.69865
teknikk	-9.69865
▁bokstav	-9.69867
merket	-9.69875
▁1975	-9.69877
▁koll	-9.69889
fabrikk	-9.69893
dro	-9.69908
▁inf	-9.69922
▁test	-9.69932
▁tang	-9.69946
▁kjerne	-9.69947
last	-9.69948
trolig	-9.69958
▁för	-9.69999
▁klo	-9.7001
19	-9.70045
90	-9.70075
▁areal	-9.70097
▁spill	-9.70104
▁størrelse	-9.70159
saker	-9.70236
▁korte	-9.7037
▁foss	-9.70386
hall	-9.70391
▁delen	-9.70404
▁lære	-9.7051
▁møte	-9.7051
▁hom	-9.70533
handler	-9.70574
dens	-9.70615
legger	-9.70693
▁festning	-9.70728
skjold	-9.70729
▁nærmest	-9.70734
▁dyp	-9.70826
▁spi	-9.70844
meter	-9.70943
▁vold	-9.71015
▁måte	-9.71023
▁fortsatte	-9.71058
fart	-9.71086
▁gru	-9.71093
▁professor	-9.71112
▁helge	-9.71127
klar	-9.71151
▁sju	-9.71158
lighet	-9.71224
▁øye	-9.71287
dorf	-9.7138
gri	-9.71405
▁kvinner	-9.71405
▁sve	-9.71475
▁joseph	-9.71596
▁sørvest	-9.716
▁etablerte	-9.7167
▁stammer	-9.71732
▁befolkningen	-9.71776
▁marie	-9.718
ada	-9.71857
▁avis	-9.71911
vekt	-9.72017
bare	-9.72044
▁sja	-9.72064
▁offentlig	-9.7212
▁cre	-9.72166
▁dro	-9.72175
▁finland	-9.72219
▁nasjonale	-9.72323
▁blomster	-9.72351
▁kreve	-9.72442
▁klassisk	-9.72473
pningsseremonien	-9.72474
▁livs	-9.72474
▁club	-9.72475
▁1974	-9.72488
▁prosent	-9.72492
12	-9.72539
jar	-9.72553
▁gil	-9.72574
▁gjelder	-9.7259
▁markeds	-9.72605
tun	-9.72707
▁handling	-9.72737
▁leir	-9.72739
win	-9.72751
▁trafikk	-9.72755
▁lagt	-9.72806
▁north	-9.72921
type	-9.73071
▁33	-9.73089
▁karriere	-9.73173
▁vä	-9.73335
у	-9.73358
▁wilhelm	-9.73358
▁regissert	-9.73359
▁trondheim	-9.73368
▁nåværende	-9.73387
▁samfunns	-9.73497
tøy	-9.73503
к	-9.73724
▁kommunene	-9.73807
▁fjorden	-9.73837
▁bir	-9.73855
analyse	-9.73863
roll	-9.7391
▁holder	-9.73998
▁dun	-9.74135
gjorde	-9.7416
▁plassert	-9.74167
▁nam	-9.74185
ì	-9.74251
▁service	-9.74251
▁drept	-9.74255
▁tatt	-9.74267
trær	-9.74276
▁ask	-9.74299
▁profesjonell	-9.74317
▁sku	-9.74364
▁cam	-9.74431
car	-9.74433
▁rik	-9.74488
jan	-9.74573
▁lyse	-9.74618
▁oftest	-9.74656
▁dato	-9.7468
rop	-9.74684
▁kontor	-9.74729
▁forfatteren	-9.74757
ult	-9.74814
▁organisasjonen	-9.74828
▁følge	-9.74853
▁tittel	-9.74862
elsk	-9.74879
▁tj	-9.74894
▁70	-9.74938
▁kok	-9.74952
verdig	-9.7502
▁skriver	-9.7503
gro	-9.75077
▁flagg	-9.75078
▁divisjon	-9.75102
▁vit	-9.75108
ł	-9.75145
▁1973	-9.75152
▁hverandre	-9.75152
▁øvre	-9.75164
▁nic	-9.75177
rip	-9.75231
▁romersk	-9.75237
▁py	-9.7524
tum	-9.75242
▁up	-9.75255
▁krig	-9.75274
▁representant	-9.75329
▁manus	-9.75346
▁hon	-9.7536
▁høye	-9.75387
vikler	-9.7548
gjøre	-9.75567
▁høyere	-9.75578
▁phil	-9.75597
24	-9.75609
▁damp	-9.75668
▁jevn	-9.75699
▁flu	-9.75745
▁ansvar	-9.75781
▁omtale	-9.75782
13	-9.75822
▁sentrale	-9.75861
standen	-9.75894
16	-9.75942
høy	-9.75965
spor	-9.7603
▁afrika	-9.76053
▁alternativ	-9.76061
▁religiøs	-9.76061
▁faren	-9.76135
fortelling	-9.762
▁total	-9.76218
▁vinner	-9.76235
▁oppgave	-9.76244
▁åpne	-9.76286
▁førte	-9.76291
bedrift	-9.76452
▁daglig	-9.76455
▁kjøpte	-9.7648
jö	-9.76494
▁bille	-9.76638
på	-9.76678
▁klima	-9.76679
▁seier	-9.76874
enberg	-9.76885
fond	-9.76895
▁nabo	-9.76932
økonom	-9.76939
́	-9.76979
▁1983	-9.76979
▁hill	-9.76994
▁brasil	-9.76994
▁islam	-9.77059
ique	-9.77097
ios	-9.77176
▁atom	-9.77194
▁provins	-9.77235
▁160	-9.77273
▁bass	-9.7729
▁tema	-9.77399
▁comp	-9.77432
▁gjenopp	-9.77463
▁mw	-9.7753
▁vent	-9.77631
▁los	-9.77641
▁teksten	-9.77658
stol	-9.77703
▁cra	-9.77773
▁vanlige	-9.77775
▁original	-9.77901
▁administrativ	-9.77905
▁dårlig	-9.77909
▁stasjonen	-9.77952
▁nan	-9.7798
▁foruten	-9.78008
▁jobb	-9.7802
atet	-9.78057
▁ana	-9.78068
▁dog	-9.78071
▁representerer	-9.78089
▁kjempe	-9.78093
kammer	-9.78156
▁festival	-9.78214
▁300	-9.78236
▁with	-9.78283
▁bestod	-9.78393
bakken	-9.78401
stall	-9.78403
▁andreas	-9.78405
▁rang	-9.78416
▁områder	-9.78429
kapasitet	-9.78471
▁materiale	-9.78475
programmet	-9.78476
▁krets	-9.78479
plasser	-9.78503
bladet	-9.78504
cht	-9.7861
97	-9.78613
▁fabrikk	-9.78616
ction	-9.78616
▁tettstedet	-9.78638
▁sterke	-9.78744
▁gjeste	-9.78757
▁velge	-9.78796
▁gutt	-9.78805
▁forsøk	-9.7882
ο	-9.78836
г	-9.78838
п	-9.78839
▁hvilke	-9.78842
▁musikkalbum	-9.78858
▁kapp	-9.78861
rygg	-9.78871
▁omtalt	-9.78882
▁varierer	-9.78883
▁selve	-9.789
cal	-9.7892
▁våren	-9.7892
hjul	-9.78926
▁buk	-9.78936
▁operasjon	-9.78944
▁klokke	-9.78955
▁aldri	-9.79038
plassen	-9.79049
▁buss	-9.79101
rådet	-9.79111
▁komme	-9.79127
ritt	-9.79225
▁hoff	-9.79294
▁tradisjon	-9.793
▁gall	-9.79342
▁problem	-9.79394
▁gå	-9.79404
hua	-9.7944
ön	-9.79442
program	-9.79447
▁horn	-9.79454
▁stol	-9.79463
▁arve	-9.79539
▁lyst	-9.79605
▁vinge	-9.79689
▁90	-9.79703
▁hotell	-9.79758
â	-9.79782
▁1950	-9.79782
▁københavn	-9.79782
▁prefektur	-9.79782
▁individ	-9.79783
▁suksess	-9.79783
▁1945	-9.79798
▁power	-9.79801
▁betegnelsen	-9.79826
avdeling	-9.79945
føl	-9.80014
▁bord	-9.80021
75	-9.80025
formede	-9.80048
▁meg	-9.80054
▁reform	-9.8006
▁kvart	-9.80098
▁dyre	-9.80152
▁kampen	-9.80188
▁avslutte	-9.80209
▁sho	-9.8023
▁may	-9.80241
▁effekt	-9.80328
ping	-9.80399
▁sun	-9.80406
▁skape	-9.80407
festival	-9.80418
▁elve	-9.80464
▁temperatur	-9.80552
samfunn	-9.80569
marked	-9.80651
vision	-9.80712
▁teori	-9.80713
▁autonom	-9.80748
snes	-9.80753
▁1968	-9.80755
bridge	-9.80785
▁derimo	-9.80805
▁primær	-9.80809
▁sammenheng	-9.80813
▁tam	-9.80887
▁cri	-9.809
osa	-9.80934
utstilling	-9.81058
▁bit	-9.81217
trop	-9.81306
can	-9.81329
ré	-9.8144
▁utnevnt	-9.81444
▁175	-9.81474
▁gard	-9.815
▁israel	-9.81521
▁asia	-9.81544
▁engelske	-9.81627
gress	-9.81637
ū	-9.81687
▁sykehus	-9.81698
parten	-9.81715
▁1977	-9.81715
▁nordland	-9.81729
▁tilhørt	-9.81761
▁hodet	-9.81843
▁normal	-9.81895
skolen	-9.81905
▁bydel	-9.81956
18	-9.81987
▁korea	-9.82004
▁heng	-9.82059
▁linjen	-9.821
▁gram	-9.82145
▁område	-9.822
fre	-9.82212
99	-9.82344
▁stig	-9.82447
▁anton	-9.82495
▁glass	-9.82665
▁vingespenn	-9.82667
hastighet	-9.82671
▁fokus	-9.82672
▁oblast	-9.82681
kirke	-9.82753
▁wu	-9.82919
▁militære	-9.82932
▁tho	-9.82947
▁merke	-9.82986
25	-9.82993
▁komponist	-9.8308
gift	-9.83157
lly	-9.83214
▁cho	-9.83281
▁slått	-9.83354
amerikansk	-9.83394
skatt	-9.83405
aria	-9.83519
26	-9.83524
▁din	-9.83588
▁1971	-9.83665
lim	-9.83669
rek	-9.83678
▁stål	-9.83707
▁menn	-9.83736
ado	-9.83751
awa	-9.8376
▁im	-9.83809
dekke	-9.83817
14	-9.83857
▁forkorte	-9.83888
▁tan	-9.83968
▁benyttes	-9.8397
▁forskning	-9.84082
▁blei	-9.84144
▁drive	-9.84169
▁regjering	-9.84195
pin	-9.84272
uch	-9.84452
gangen	-9.84463
øyene	-9.8449
▁hær	-9.84492
halvøya	-9.84534
▁rør	-9.84599
▁hode	-9.84608
▁teknisk	-9.84638
▁jazz	-9.8464
▁hustru	-9.84641
▁element	-9.84644
▁city	-9.84803
fø	-9.84817
▁high	-9.84858
▁skatte	-9.84908
gin	-9.8491
fatte	-9.85005
▁ettersom	-9.85043
▁funnet	-9.85088
▁fyr	-9.85113
▁sørlig	-9.85151
hov	-9.8517
▁zi	-9.85172
ctor	-9.85199
▁melodi	-9.85206
▁hunnen	-9.85275
dø	-9.85308
▁kår	-9.85402
vitenskap	-9.8542
▁polsk	-9.85487
pter	-9.85495
▁santa	-9.85537
▁benytte	-9.85557
▁skipet	-9.85558
mennene	-9.85596
▁presse	-9.85616
▁tilknytte	-9.85638
▁parlament	-9.85638
▁forteller	-9.85642
▁1960	-9.85663
▁eiendom	-9.85674
▁gis	-9.8571
vor	-9.85752
21	-9.85757
▁teknologi	-9.85766
▁award	-9.8579
▁flyplass	-9.85802
trafikk	-9.85826
ville	-9.85854
mos	-9.8588
▁tettsted	-9.85915
kirken	-9.85918
vannet	-9.85919
drift	-9.85926
34	-9.85969
▁ann	-9.86022
slekt	-9.86054
▁villa	-9.86101
▁spilles	-9.86168
▁tai	-9.86174
klasse	-9.86241
ical	-9.86301
kysten	-9.8631
gy	-9.86331
kjemi	-9.86397
▁italienske	-9.86411
▁sikre	-9.86461
zh	-9.86524
kontor	-9.86541
▁kast	-9.86574
skytter	-9.86635
č	-9.86648
▁inspirert	-9.86648
▁flertall	-9.86658
▁hydro	-9.86662
▁1969	-9.86667
▁1966	-9.8667
▁lansert	-9.86704
▁veldig	-9.86713
▁roll	-9.86724
▁vå	-9.86733
herr	-9.86734
▁artene	-9.86851
bak	-9.86971
▁løp	-9.87006
▁kalte	-9.87007
▁fange	-9.87016
flue	-9.87052
▁music	-9.87176
pri	-9.87186
▁meste	-9.87187
▁sønnen	-9.87201
▁scene	-9.8728
▁produksjons	-9.87284
на	-9.87326
▁fot	-9.8742
▁forsvars	-9.87432
▁slutten	-9.87445
▁frø	-9.87565
▁fremme	-9.87658
▁school	-9.87669
▁roma	-9.8767
▁formel	-9.87679
▁2016	-9.87699
▁stamme	-9.87792
kjempe	-9.87796
organis	-9.87869
renn	-9.87872
arbeidet	-9.87891
post	-9.87957
artikler	-9.88045
▁produkt	-9.88058
▁lyn	-9.88073
▁markert	-9.88078
▁olympisk	-9.88133
mont	-9.88197
atur	-9.88238
▁400	-9.88239
▁journalist	-9.88289
▁stilling	-9.88307
istene	-9.88358
▁euro	-9.88375
▁boy	-9.88427
▁ung	-9.88454
hai	-9.88479
▁bispedømme	-9.88482
▁neu	-9.88497
▁europeisk	-9.8856
plate	-9.88583
11	-9.88626
ila	-9.88638
gått	-9.88667
▁listen	-9.88688
ç	-9.88699
▁bakvingen	-9.88705
▁kjønn	-9.88707
▁tha	-9.88722
22	-9.88744
32	-9.88806
stasjonen	-9.88807
▁forvingen	-9.88823
col	-9.88861
ernes	-9.88966
▁front	-9.8903
byrå	-9.89058
gor	-9.89093
▁regel	-9.89136
▁egypt	-9.89167
▁preste	-9.89245
▁turist	-9.89246
ов	-9.89261
▁havne	-9.89291
▁hil	-9.89317
▁papir	-9.89411
▁program	-9.89418
▁vend	-9.89622
institusjon	-9.89741
▁records	-9.89741
▁storbritannia	-9.89741
ström	-9.89741
▁rapport	-9.89741
▁snakke	-9.89749
▁spania	-9.89761
▁1940	-9.89769
▁klubb	-9.8977
▁multi	-9.89772
▁ordens	-9.89792
▁grensen	-9.89793
▁verdenskrig	-9.89834
later	-9.89865
rup	-9.89878
▁gjennomført	-9.89892
▁finne	-9.89908
▁bygningen	-9.89953
▁cy	-9.89968
▁hva	-9.89992
mond	-9.90017
▁stift	-9.90058
kret	-9.90166
▁resten	-9.90172
logi	-9.90194
lam	-9.90287
▁bane	-9.90343
krets	-9.90367
skapet	-9.90415
▁grunnla	-9.90423
▁sær	-9.90511
▁bou	-9.90528
avtale	-9.90593
ål	-9.90603
falt	-9.90693
▁fugle	-9.90709
møte	-9.90717
▁fed	-9.90727
▁insekt	-9.90801
▁produserer	-9.90802
▁1964	-9.90816
▁ordfører	-9.90821
▁forretnings	-9.90874
▁instrument	-9.9088
▁behandle	-9.90886
▁prøve	-9.90892
▁kristen	-9.9091
▁internasjonal	-9.90924
ati	-9.90928
▁steve	-9.90973
▁luc	-9.91011
▁nådd	-9.9103
▁fyrst	-9.91156
▁170	-9.91174
trinn	-9.91192
▁nivå	-9.9121
▁personlig	-9.91215
▁alder	-9.91215
lege	-9.91229
▁single	-9.91283
▁troll	-9.91302
grupper	-9.91309
æren	-9.91341
▁delvis	-9.91345
96	-9.91412
liga	-9.91439
▁hannen	-9.91448
roman	-9.91449
town	-9.91524
oid	-9.91551
rommet	-9.91649
distrikt	-9.91722
foreningen	-9.91738
▁øyene	-9.91747
leir	-9.91779
ë	-9.91857
▁brenselkilden	-9.91857
▁innflytelse	-9.91857
▁nowiki	-9.91857
▁royal	-9.91863
▁eie	-9.91863
▁deriblant	-9.91866
▁ull	-9.91872
▁lengre	-9.91887
▁group	-9.91898
▁alpin	-9.91977
▁kongelig	-9.92
▁brand	-9.92009
levende	-9.92028
▁konkurranse	-9.92053
▁vitenskapelig	-9.92057
▁miste	-9.92093
▁studier	-9.92101
▁lot	-9.92158
kontrakt	-9.92162
gal	-9.92234
▁jakt	-9.9226
gon	-9.92314
komedie	-9.92417
krigen	-9.92485
▁esp	-9.92494
28	-9.92632
▁web	-9.92677
prisen	-9.9282
▁beg	-9.92822
▁ting	-9.92882
lé	-9.92906
stripe	-9.92931
▁etterfulgt	-9.92933
▁introdusert	-9.92933
▁tilgjengelig	-9.92933
▁sjelden	-9.92933
▁øvrig	-9.92933
▁nikola	-9.92934
▁hurtig	-9.92934
▁united	-9.92936
kultur	-9.92936
▁1965	-9.92952
▁slank	-9.92957
▁saint	-9.92963
nummer	-9.93014
▁angel	-9.93024
fjellene	-9.93041
▁masse	-9.93092
▁jur	-9.9312
war	-9.93127
kilde	-9.93134
▁dager	-9.93174
▁svak	-9.93213
▁senter	-9.93224
chu	-9.9324
▁tegnet	-9.93276
sats	-9.93345
▁æ	-9.9354
▁master	-9.93604
bon	-9.93629
▁intern	-9.93629
▁røde	-9.93647
▁rose	-9.93687
gram	-9.93711
▁typer	-9.93715
ár	-9.93738
▁deles	-9.93771
hed	-9.93805
▁kru	-9.93806
▁samlet	-9.9381
▁olsen	-9.9384
▁nedre	-9.93842
▁tau	-9.93843
▁graf	-9.93941
prosjekt	-9.93942
▁artikkel	-9.93974
▁stykke	-9.9401
▁etterhvert	-9.9402
▁fremdeles	-9.9402
▁komponert	-9.94022
▁mongol	-9.94026
▁elektrisk	-9.94027
▁stavanger	-9.94037
▁ramme	-9.94039
elv	-9.94047
▁hevde	-9.94074
▁bevart	-9.94076
tjenester	-9.94093
▁inge	-9.94118
▁fisk	-9.94142
▁fol	-9.9417
▁bestemt	-9.94171
▁endring	-9.94185
▁bob	-9.94262
▁vestlig	-9.94263
▁matt	-9.94291
▁slaget	-9.94365
17	-9.94544
luk	-9.94546
são	-9.94628
▁marine	-9.94666
▁nordlige	-9.94668
▁viste	-9.94672
kanten	-9.94692
▁still	-9.94706
ward	-9.94726
23	-9.94732
▁max	-9.94736
▁uke	-9.9474
▁qui	-9.94776
ative	-9.94812
▁mente	-9.9484
▁avisen	-9.94906
▁65	-9.94926
▁snø	-9.94944
▁opprinnelige	-9.95013
forbindelse	-9.95106
▁voksne	-9.95119
▁dialekt	-9.9512
kommando	-9.95143
▁videregående	-9.95151
▁mikro	-9.95198
▁starter	-9.95212
▁ånd	-9.95255
▁mini	-9.95268
klubben	-9.95279
▁maleri	-9.95329
▁sea	-9.95362
▁grunnlag	-9.95381
▁innført	-9.95425
basert	-9.95442
▁fylket	-9.95469
▁é	-9.95568
▁stoff	-9.9557
▁jim	-9.95572
▁jarl	-9.95602
▁old	-9.95648
▁bærer	-9.95662
33	-9.95711
▁lenge	-9.95728
sdatter	-9.95744
▁bakke	-9.95787
kasse	-9.95795
▁bakkroppen	-9.95799
▁ansatte	-9.95873
▁grupper	-9.95928
varer	-9.96022
▁cle	-9.96056
▁trak	-9.96078
komst	-9.9608
▁økonomi	-9.96086
▁tonn	-9.96157
▁kari	-9.96172
▁periode	-9.96192
kort	-9.96212
κ	-9.96229
31	-9.96286
▁bakgrunn	-9.96289
▁75	-9.96325
▁stadig	-9.96331
▁fjær	-9.96341
▁fj	-9.9635
▁regjerings	-9.96361
▁naturgass	-9.96395
▁150	-9.96432
▁endt	-9.96475
handel	-9.96476
stykke	-9.96488
familie	-9.96503
▁state	-9.96575
ima	-9.96619
vika	-9.96651
▁spise	-9.96659
lj	-9.96666
▁nevnt	-9.96678
▁jag	-9.97062
▁kha	-9.97139
▁rand	-9.97155
▁styrker	-9.97182
▁sar	-9.97325
▁religion	-9.97354
▁tilhørende	-9.97354
▁spesiell	-9.97354
▁filosofi	-9.97355
▁oppdaget	-9.97359
▁canada	-9.97374
▁tilfelle	-9.97375
ān	-9.97377
▁otto	-9.97382
▁55	-9.97387
▁tale	-9.97417
forsvar	-9.97458
▁motiv	-9.975
yuan	-9.97567
▁slå	-9.97593
▁planter	-9.97611
▁huset	-9.97665
▁schw	-9.97703
▁jack	-9.97784
▁underlagt	-9.97796
▁rosen	-9.97817
ifisert	-9.9784
▁petter	-9.97936
▁eik	-9.97991
▁tog	-9.97994
skipet	-9.98045
▁gui	-9.98158
▁løpet	-9.98178
▁nederland	-9.98275
▁ost	-9.98318
▁normalt	-9.98348
vang	-9.98349
▁fc	-9.98409
hild	-9.98436
▁sum	-9.98488
▁1956	-9.98509
hallen	-9.98574
▁dj	-9.98581
sykkel	-9.98593
▁anta	-9.98612
lser	-9.98727
hode	-9.98738
▁oppdrag	-9.98739
▁kjell	-9.98758
▁begynner	-9.9886
▁kanon	-9.98883
kapell	-9.98966
▁forsøkt	-9.98968
bukk	-9.98986
tallet	-9.98988
▁begrepet	-9.99061
▁maler	-9.99164
lid	-9.99236
▁polar	-9.99327
▁ron	-9.99364
house	-9.99566
fant	-9.99609
▁amerika	-9.99631
▁studio	-9.99637
▁1959	-9.99639
▁sannsynlig	-9.99639
▁ytterligere	-9.99639
▁digital	-9.99639
▁objekt	-9.99639
kandidat	-9.99649
▁posisjon	-9.99656
▁college	-9.99665
▁jordbruk	-9.99688
virksomhet	-9.99729
▁streng	-9.9975
▁kai	-9.9977
com	-9.99803
lignende	-9.99841
▁lavere	-9.99866
▁systemet	-9.99949
▁ud	-9.99954
vinner	-9.99956
▁hve	-9.99972
▁jule	-9.9999
▁typen	-10.0008
▁eva	-10.0013
▁relativt	-10.0023
▁mary	-10.0033
kring	-10.0048
able	-10.005
▁laste	-10.0051
▁sterk	-10.0055
▁165	-10.0056
▁struktur	-10.0056
▁irsk	-10.0061
▁sider	-10.0068
ín	-10.0078
▁vor	-10.0079
▁omfattende	-10.008
▁vokser	-10.008
▁institut	-10.0082
▁bodde	-10.0082
▁1941	-10.0082
▁1930	-10.0083
▁kjemisk	-10.0083
▁vm	-10.0086
▁heller	-10.009
▁east	-10.009
vold	-10.0095
høgskole	-10.0099
▁ark	-10.0105
▁historien	-10.0105
▁stopp	-10.0109
finner	-10.0113
▁salg	-10.0117
▁ansvarlig	-10.0119
▁samarbeidet	-10.012
▁oversatt	-10.012
▁sesong	-10.012
▁utstyr	-10.0123
serien	-10.0125
▁foto	-10.0133
▁dør	-10.0142
▁revolusjon	-10.0151
▁cru	-10.016
▁mono	-10.016
▁studenter	-10.0166
ary	-10.0168
▁iso	-10.0177
▁sav	-10.0179
▁qua	-10.0194
▁friedrich	-10.0198
▁trøndelag	-10.0198
▁alkohol	-10.0198
▁gustav	-10.0198
▁vanskelig	-10.0199
▁smith	-10.02
▁poeng	-10.0203
▁fon	-10.0208
horn	-10.0211
sand	-10.0218
▁kode	-10.0221
▁innsjøen	-10.0224
▁æres	-10.0229
drakt	-10.0235
▁gitarist	-10.0241
▁ønsket	-10.0242
▁cou	-10.0242
▁toppen	-10.0244
▁hansen	-10.0246
▁skylde	-10.025
dagen	-10.0254
chan	-10.0258
▁gli	-10.0259
▁republikken	-10.026
▁hov	-10.0266
løpet	-10.0272
▁adam	-10.0273
▁vitenskap	-10.0274
▁hente	-10.0276
▁meta	-10.0316
▁1957	-10.0317
▁sovjetunionen	-10.0317
▁ey	-10.0318
▁1962	-10.0319
▁fel	-10.0321
▁daniel	-10.0321
▁philip	-10.0322
cheng	-10.0325
forbundet	-10.0331
▁opphav	-10.0333
produsent	-10.0334
produkter	-10.0336
▁kjær	-10.0347
▁rei	-10.0347
▁menighet	-10.0351
▁tolv	-10.0351
▁gjer	-10.0369
▁andersen	-10.037
▁inte	-10.0377
betegnelse	-10.0377
▁malt	-10.0378
mur	-10.0378
dersom	-10.038
▁overfor	-10.038
▁fløy	-10.0382
zu	-10.0385
▁176	-10.0389
▁raskt	-10.039
▁term	-10.0396
tjeneste	-10.0403
▁mah	-10.0405
▁jacob	-10.0421
▁slett	-10.0421
й	-10.0436
▁australia	-10.0437
▁mexico	-10.0437
▁forenklet	-10.0437
▁fengsel	-10.0437
▁passasjer	-10.0437
▁magnus	-10.0438
▁rolf	-10.0438
▁dahl	-10.0443
ledende	-10.0448
bach	-10.0455
▁ekstra	-10.0455
forfatter	-10.0458
forskning	-10.0459
light	-10.0459
▁akademi	-10.0459
grep	-10.0462
▁hum	-10.0462
▁rob	-10.0465
dem	-10.0465
modell	-10.0466
▁latinsk	-10.0468
▁utga	-10.0472
27	-10.0475
▁vill	-10.0481
ordning	-10.0482
bad	-10.0485
shan	-10.0489
teori	-10.0491
▁artist	-10.0498
▁simon	-10.0505
drevet	-10.0515
▁spillet	-10.0522
▁myk	-10.0534
▁grov	-10.0544
▁bach	-10.0548
▁lenger	-10.0559
▁that	-10.0559
▁california	-10.0559
б	-10.0559
▁1953	-10.0559
μ	-10.0559
▁pasient	-10.0559
▁generelt	-10.0559
▁hertug	-10.056
galleri	-10.0561
▁himmel	-10.0562
▁1967	-10.0562
▁skotsk	-10.0562
▁institutt	-10.0562
▁lignende	-10.0565
▁pap	-10.0568
musik	-10.0569
▁edderkopp	-10.0569
▁effektiv	-10.0577
▁femte	-10.0577
▁geometr	-10.0578
▁verne	-10.0583
struktur	-10.0584
▁jøde	-10.0591
▁are	-10.0599
▁forekommer	-10.0601
▁gress	-10.0605
▁liberal	-10.0607
▁endre	-10.0608
▁folket	-10.0617
▁penge	-10.0618
hagen	-10.0622
▁human	-10.0629
▁stri	-10.0633
▁skyld	-10.0634
▁od	-10.0635
matisk	-10.0635
▁cup	-10.0643
bukta	-10.0649
▁orkester	-10.0659
ago	-10.0668
sekretær	-10.0681
я	-10.0683
▁jørgen	-10.0683
▁jakob	-10.0683
▁skjedde	-10.0683
▁south	-10.0684
▁rektor	-10.0687
iteten	-10.0688
▁amt	-10.0689
▁storm	-10.069
▁jorden	-10.0692
▁solo	-10.0702
medlem	-10.0705
▁bydelen	-10.071
oksid	-10.0713
▁hundre	-10.0714
bøker	-10.0724
▁kjøre	-10.073
▁ytre	-10.073
▁offentlige	-10.0733
▁kroner	-10.0737
▁rask	-10.0738
▁havn	-10.0744
▁sven	-10.0748
qua	-10.076
▁rek	-10.0762
▁metro	-10.0764
▁livet	-10.0765
range	-10.0769
▁tone	-10.0769
▁wood	-10.0775
sider	-10.0778
▁cd	-10.0778
ppel	-10.0781
▁ec	-10.0784
▁koloni	-10.0785
enburg	-10.0786
▁romanen	-10.0788
▁kraftige	-10.0788
▁forbundet	-10.0793
▁dommer	-10.0795
ǎ	-10.0808
▁1954	-10.0808
frekvens	-10.0808
▁kaptein	-10.0808
▁kontakt	-10.0809
▁fungere	-10.081
▁bydistrikt	-10.0814
▁brev	-10.0814
giver	-10.0814
▁liga	-10.0815
▁vokste	-10.0815
gno	-10.082
tage	-10.0826
▁organisert	-10.0832
▁class	-10.0839
▁støttet	-10.084
▁furu	-10.084
slekten	-10.0841
▁middelalder	-10.0843
▁div	-10.0844
▁saa	-10.0846
▁kim	-10.085
▁valgte	-10.0853
▁fortsetter	-10.0854
▁utføre	-10.0868
asso	-10.0868
▁kjenn	-10.0873
▁endret	-10.0873
gje	-10.0874
▁tun	-10.0878
▁hunde	-10.088
▁bombe	-10.088
hei	-10.0886
▁landskap	-10.0887
fugler	-10.0893
pinner	-10.09
▁hem	-10.0902
▁niels	-10.0905
politisk	-10.0908
oma	-10.0914
polis	-10.0917
formasjon	-10.0924
ß	-10.0934
▁offisielt	-10.0934
▁1955	-10.0934
▁company	-10.0934
▁alvorlig	-10.0934
▁arthur	-10.0935
ич	-10.0935
▁nærmere	-10.0935
▁kristin	-10.0936
strid	-10.0936
▁1928	-10.0936
▁nasjonalpark	-10.0938
▁1900	-10.0939
▁lim	-10.0943
▁eksistere	-10.0948
▁tørr	-10.0952
▁føde	-10.0953
▁debut	-10.096
▁drag	-10.0961
▁marg	-10.0961
▁fjellet	-10.0962
utvikling	-10.0965
miljø	-10.0968
▁bølge	-10.0969
▁geo	-10.0978
inntekt	-10.098
▁trener	-10.0983
botn	-10.0986
▁moren	-10.0989
hø	-10.0989
▁nyere	-10.1004
forhold	-10.1005
▁svar	-10.1013
lyng	-10.1015
alisme	-10.1016
▁utgi	-10.1018
dannelse	-10.1021
stjerne	-10.1027
▁hæren	-10.103
gjen	-10.103
▁historiker	-10.104
▁jam	-10.1044
slutt	-10.1048
gav	-10.1051
▁idrettslag	-10.1052
▁spørsmål	-10.1053
linjer	-10.1055
▁lån	-10.1057
▁1963	-10.1063
▁kvinnelig	-10.1065
▁tradisjonelt	-10.1065
▁innsjø	-10.1067
olje	-10.1068
▁oc	-10.107
▁mei	-10.1078
▁bud	-10.1091
havs	-10.1091
▁00	-10.1096
album	-10.1099
direktør	-10.1099
effekt	-10.1099
▁astro	-10.1103
▁rep	-10.1107
▁nettverk	-10.1116
uz	-10.1117
utgivelse	-10.1121
serie	-10.1129
▁sunn	-10.1138
▁ara	-10.1141
▁antenne	-10.1144
▁innhold	-10.1147
▁ali	-10.1151
▁qi	-10.116
▁ross	-10.1169
▁valgt	-10.1176
▁ild	-10.1186
▁hellige	-10.1188
dynasti	-10.1192
▁eksperiment	-10.1192
▁1958	-10.1192
▁sistnevnte	-10.1192
▁alexander	-10.1192
▁således	-10.1192
▁gunnar	-10.1193
▁major	-10.1193
▁debutalbum	-10.1193
▁reist	-10.1193
▁lengst	-10.1194
kompleks	-10.1194
mønster	-10.1195
▁gö	-10.1195
▁brenn	-10.1201
dommer	-10.1206
▁private	-10.1206
▁arkitektur	-10.1211
rekke	-10.1218
▁kara	-10.1224
kjøretøy	-10.1226
▁larsen	-10.1227
jord	-10.1229
▁ube	-10.1247
dahl	-10.126
▁vet	-10.1274
▁bull	-10.1275
▁hovedrollene	-10.1277
▁ønske	-10.128
▁krysser	-10.1291
▁wall	-10.1294
ington	-10.1296
▁gruppa	-10.1299
▁uttale	-10.1317
blikk	-10.1319
▁administrere	-10.1324
▁science	-10.1324
▁beijing	-10.1324
▁berømte	-10.1324
▁nedenfor	-10.1325
▁stadion	-10.1325
▁mannskapet	-10.1326
▁edward	-10.1326
▁finnmark	-10.1327
▁familiegruppen	-10.1327
▁offiser	-10.1329
▁åpning	-10.1333
strekning	-10.134
masse	-10.1341
▁34	-10.1344
▁fordelt	-10.1346
▁kilder	-10.1358
teater	-10.1359
29	-10.1365
▁shan	-10.1367
wood	-10.1367
▁filosof	-10.1368
▁teo	-10.1382
politikk	-10.1383
▁endelig	-10.1385
▁fritt	-10.1392
▁herman	-10.1393
▁math	-10.1393
ão	-10.1401
▁artister	-10.1403
▁sæ	-10.1409
▁melk	-10.1417
▁solgte	-10.1419
skrev	-10.1424
▁prins	-10.1429
▁vg	-10.143
▁bidra	-10.143
▁undervisning	-10.1445
▁syr	-10.1456
▁bibliotek	-10.1457
kommunikasjon	-10.1457
▁arrangert	-10.1457
▁1952	-10.1457
▁kardinal	-10.1457
▁vulkan	-10.1457
▁ekstrem	-10.1458
▁kalk	-10.1458
kommisjon	-10.1458
▁signal	-10.1459
▁stiftelsen	-10.1459
▁1948	-10.146
▁bell	-10.1461
▁1920	-10.1461
strøk	-10.1461
cio	-10.1463
▁dvs	-10.1469
▁aksje	-10.1473
▁rollen	-10.1476
rykket	-10.1478
▁bryst	-10.148
▁frihet	-10.1485
▁politikk	-10.1491
▁peder	-10.1499
▁anim	-10.15
mmel	-10.1501
▁ola	-10.1501
▁morgen	-10.1501
▁bidrag	-10.1502
▁trø	-10.1502
regionen	-10.1505
havn	-10.1513
måte	-10.1526
løk	-10.1526
lop	-10.1529
▁katolske	-10.1532
dok	-10.1539
▁møter	-10.1541
▁overgang	-10.155
linje	-10.1552
fyr	-10.1555
▁aar	-10.1563
▁befolkning	-10.1565
snegl	-10.1575
▁grunnlegger	-10.1576
▁kva	-10.158
▁tann	-10.1587
▁hul	-10.1592
▁advokat	-10.1592
▁selvstendig	-10.1592
▁positiv	-10.1592
▁moskva	-10.1593
▁utmerkelse	-10.1593
▁redusere	-10.1593
▁frederik	-10.1594
▁svømme	-10.1594
▁1918	-10.1594
▁utøver	-10.1595
▁1938	-10.1595
ев	-10.1596
stråle	-10.1597
▁dobbelt	-10.1605
komite	-10.1607
▁mobil	-10.1614
▁sveits	-10.1614
stått	-10.1619
▁beskrevet	-10.1643
funksjon	-10.1644
president	-10.1646
▁mulighet	-10.1648
lä	-10.1663
▁pul	-10.1666
▁viking	-10.1669
▁ungdom	-10.1687
▁internasjonalt	-10.1689
▁magnet	-10.1698
▁kjøl	-10.1704
▁medie	-10.1719
▁produksjonen	-10.1723
▁kontra	-10.1727
▁østerriksk	-10.1729
▁1951	-10.1729
▁århundre	-10.173
▁bånd	-10.173
▁hjerne	-10.173
▁begynnelsen	-10.173
▁premier	-10.173
▁betjene	-10.1731
▁1934	-10.1731
▁jobbet	-10.1732
▁internett	-10.1732
▁oscar	-10.1733
soldater	-10.1733
▁referere	-10.1733
▁signert	-10.1734
hest	-10.1735
▁preget	-10.1737
administrasjon	-10.174
▁arkeolog	-10.1743
▁bibel	-10.1745
kjede	-10.1745
▁pedersen	-10.1745
ømme	-10.1745
▁white	-10.1761
▁proto	-10.1766
▁alb	-10.177
▁kval	-10.177
▁fotballklubb	-10.1773
▁vokalist	-10.1773
demokrat	-10.1777
▁fn	-10.1778
▁kunnskap	-10.1785
museum	-10.1785
▁undersøkelse	-10.1785
grønn	-10.1785
▁parken	-10.1787
▁munk	-10.179
delingen	-10.1791
▁mangler	-10.1792
møll	-10.1794
konstruksjon	-10.18
språklig	-10.18
egnet	-10.18
visning	-10.1803
▁trond	-10.181
▁roger	-10.1813
▁akt	-10.1821
▁verket	-10.1837
▁tropp	-10.1838
bygget	-10.1839
▁utvide	-10.184
▁beina	-10.186
▁billed	-10.1862
ь	-10.1867
▁1908	-10.1868
▁millimeter	-10.1868
▁jødisk	-10.1868
▁yngre	-10.1869
▁kjærlighet	-10.1869
▁dverg	-10.1869
▁forårsake	-10.1869
▁qū	-10.187
▁1946	-10.1871
▁sara	-10.1871
▁khan	-10.1872
▁fotballspiller	-10.1873
arten	-10.1876
▁trommer	-10.1876
preg	-10.1877
▁fru	-10.1877
▁michel	-10.1878
▁fremført	-10.1879
▁tempel	-10.189
▁planet	-10.1892
▁ferge	-10.1893
▁svein	-10.1901
▁gold	-10.1907
distanse	-10.1907
▁utløp	-10.1916
▁selge	-10.1917
▁foreningen	-10.1922
▁grim	-10.1924
▁kno	-10.1931
hjem	-10.1932
▁medisin	-10.1932
▁beregne	-10.1934
ić	-10.1935
strømmen	-10.1938
▁lønn	-10.1939
▁met	-10.1941
behandling	-10.1943
▁hammer	-10.1943
stemt	-10.1958
▁enkle	-10.197
▁wil	-10.1977
▁tråd	-10.199
▁out	-10.1999
▁tå	-10.2005
zel	-10.2008
▁havet	-10.2009
▁ukrainsk	-10.2009
stråling	-10.2009
▁ludvig	-10.2009
▁betrakte	-10.2009
▁http	-10.2009
▁edvard	-10.2009
▁kristne	-10.2009
▁cirka	-10.2009
▁butikk	-10.201
▁scott	-10.201
▁omfattet	-10.201
▁für	-10.201
samband	-10.2011
▁håndball	-10.2011
▁1942	-10.2012
▁straffe	-10.2012
▁hersker	-10.2022
▁formål	-10.2028
▁ric	-10.203
▁skjell	-10.2042
forestilling	-10.2047
▁palm	-10.2052
ulær	-10.2054
▁emil	-10.2056
▁blokk	-10.206
▁arena	-10.2062
ship	-10.207
▁river	-10.2071
▁saga	-10.2072
▁american	-10.2074
verdi	-10.2094
▁600	-10.2101
▁medlemmene	-10.2103
▁kata	-10.2105
▁regional	-10.2106
▁harry	-10.211
▁kryss	-10.2111
▁fett	-10.2119
▁dokumenter	-10.212
▁kald	-10.2125
▁bom	-10.2128
forvaltning	-10.2145
egenskaper	-10.2147
▁arkiv	-10.215
▁tegneserie	-10.2153
▁1911	-10.2154
▁liber	-10.2155
▁1949	-10.2155
▁fullført	-10.2156
▁forsvaret	-10.2156
▁ukjent	-10.2161
eksamen	-10.2162
▁tilstand	-10.2166
▁chu	-10.2172
▁bunn	-10.2183
krig	-10.2183
gelse	-10.2187
▁gruve	-10.2196
▁1800	-10.2198
▁sankt	-10.22
▁qing	-10.2202
▁former	-10.2226
kjent	-10.2229
▁landsby	-10.2241
▁road	-10.2241
▁orient	-10.2242
▁stab	-10.2245
▁spp	-10.2253
blå	-10.2256
▁fotograf	-10.2267
▁malm	-10.2272
▁debuter	-10.2277
▁minutter	-10.2297
▁ekteskap	-10.2299
▁final	-10.2302
▁antonio	-10.2302
faktor	-10.2302
▁pil	-10.2303
▁reaksjon	-10.231
▁piano	-10.2312
▁bety	-10.2314
▁kg	-10.2314
dikt	-10.232
▁krim	-10.2324
bring	-10.2324
▁henry	-10.2325
▁grunnlegge	-10.233
▁sikte	-10.2331
endt	-10.2332
▁morten	-10.2334
nøtt	-10.2337
▁departement	-10.2343
dyktig	-10.2347
▁tour	-10.235
▁tapte	-10.2359
▁dannes	-10.2365
▁oliv	-10.2392
▁øker	-10.2394
materiale	-10.2399
▁wolf	-10.2399
▁dukke	-10.2422
▁medisinsk	-10.2428
▁forskjell	-10.2435
feng	-10.2436
vald	-10.2436
hö	-10.2441
▁ishockey	-10.2444
▁eventyr	-10.2444
▁blues	-10.2444
▁inngår	-10.2444
▁episode	-10.2444
▁golf	-10.2445
▁konstant	-10.2445
▁adresse	-10.2445
▁josé	-10.2446
▁bære	-10.2447
fattig	-10.2449
perioden	-10.2451
▁klassen	-10.2451
▁play	-10.2457
▁rulle	-10.2468
slått	-10.2478
▁whi	-10.2478
lista	-10.2485
▁carol	-10.2488
▁utstyrt	-10.2493
▁junior	-10.2497
planter	-10.2501
head	-10.2502
hopp	-10.2506
▁chang	-10.2515
konkurranse	-10.252
hånd	-10.252
▁nordisk	-10.2526
▁arg	-10.2528
▁strekk	-10.253
▁bau	-10.2535
punktet	-10.2537
▁back	-10.2538
lich	-10.254
▁aas	-10.2542
▁ulv	-10.2542
▁bøy	-10.2545
▁foregå	-10.2559
▁kvalitet	-10.2572
base	-10.2579
▁dru	-10.258
▁platen	-10.2583
ς	-10.2593
▁skottland	-10.2593
▁tyrkisk	-10.2593
▁hjort	-10.2593
▁registrert	-10.2593
▁kombinert	-10.2593
▁byfylke	-10.2593
▁global	-10.2593
▁anerkjent	-10.2593
▁terror	-10.2594
▁ridder	-10.2595
plante	-10.2595
▁nicola	-10.2595
▁1947	-10.2596
▁nattfly	-10.2596
▁håkon	-10.2597
▁øyne	-10.2598
situasjon	-10.2599
▁tykk	-10.2599
▁fantes	-10.2603
▁innsats	-10.2611
høyskole	-10.2611
iansk	-10.2615
▁skilt	-10.2627
bury	-10.2628
▁utvikler	-10.2628
sosialistisk	-10.2634
▁skuespill	-10.2636
▁sab	-10.2636
kall	-10.2639
▁kreft	-10.2639
▁155	-10.2643
▁finalen	-10.2647
▁driv	-10.2647
kompani	-10.2647
ск	-10.2656
▁klarte	-10.266
▁vunnet	-10.2667
▁skar	-10.2671
▁bag	-10.2675
▁utvidet	-10.2681
▁vingene	-10.2681
gods	-10.2685
spiss	-10.2687
▁alm	-10.2692
▁betale	-10.27
▁raf	-10.27
▁flam	-10.2701
▁middelalderen	-10.2703
▁valle	-10.2707
▁tron	-10.2709
næs	-10.2712
zan	-10.272
▁sideelv	-10.2724
▁ingeniør	-10.274
▁redusert	-10.2745
▁avledet	-10.2748
▁län	-10.2748
rettigheter	-10.2749
▁snart	-10.275
▁sverd	-10.2751
▁avhengig	-10.2751
▁programmer	-10.2753
anlegget	-10.2755
▁mineral	-10.2755
▁øre	-10.2756
▁europe	-10.276
▁spenning	-10.2762
▁sikkerhets	-10.2765
▁utdannelse	-10.2765
mming	-10.2766
▁torg	-10.278
▁team	-10.2786
▁osv	-10.2789
firmaet	-10.2799
ulykke	-10.2801
▁stam	-10.2803
▁kö	-10.2804
styrt	-10.2818
▁who	-10.2821
▁athen	-10.2826
gjort	-10.2827
▁snu	-10.2828
typen	-10.283
historisk	-10.283
edderkopper	-10.2834
tittel	-10.2837
▁server	-10.2847
▁rune	-10.285
▁game	-10.2875
▁kap	-10.2896
▁skjønn	-10.2899
▁symptom	-10.2899
▁1961	-10.2899
▁league	-10.2899
grunnsstasjon	-10.2899
▁fiolin	-10.2899
▁tabellen	-10.2899
▁østerrike	-10.2899
▁innspilling	-10.2899
▁1932	-10.2901
▁telefon	-10.2901
▁overflate	-10.2904
▁ankom	-10.2909
▁likhet	-10.2926
▁spin	-10.2939
▁chris	-10.2943
▁oppleve	-10.2957
▁landslag	-10.2972
▁frei	-10.2974
▁sovjetisk	-10.2978
mä	-10.2982
▁begrep	-10.2996
▁utenriks	-10.3005
▁vig	-10.3005
▁sex	-10.3007
▁spring	-10.3011
▁redd	-10.3019
▁høst	-10.3026
▁vegg	-10.3029
▁1000	-10.303
▁utover	-10.3034
fold	-10.3048
▁fødsel	-10.3055
▁skulptur	-10.3055
▁regissør	-10.3055
▁heinrich	-10.3055
▁tømmer	-10.3055
▁landbruks	-10.3056
stell	-10.3056
▁bekrefte	-10.3061
▁ltd	-10.3064
▁dokumentar	-10.3066
▁sving	-10.3075
cca	-10.3081
▁oh	-10.3113
▁opprette	-10.3123
▁smak	-10.3129
▁kjøtt	-10.3151
▁skall	-10.3156
▁tross	-10.3158
▁beat	-10.3158
▁pont	-10.3167
wald	-10.3178
▁troms	-10.3183
▁120	-10.3187
ferdig	-10.319
▁gjeld	-10.3197
ensis	-10.3203
▁tell	-10.321
friidrettsutøver	-10.3214
▁arrangeres	-10.3214
▁initiativ	-10.3214
▁kulturminner	-10.3214
▁definert	-10.3214
▁1925	-10.3216
▁inndelt	-10.3217
▁1937	-10.3217
▁street	-10.3217
▁1936	-10.3217
ordnet	-10.3217
▁flekker	-10.3218
▁mytologi	-10.3221
▁kvit	-10.3223
▁uttalt	-10.3226
▁hval	-10.3235
▁agder	-10.3246
tekst	-10.3251
relatert	-10.3259
▁tynn	-10.326
▁statlig	-10.3273
fabrik	-10.3273
▁hellig	-10.3274
publik	-10.3278
tjenesten	-10.3283
▁skarp	-10.3291
gass	-10.3296
▁cel	-10.3312
sundet	-10.3341
▁skinn	-10.3352
▁bestemme	-10.3354
leie	-10.3355
makten	-10.3359
▁eb	-10.3365
▁bow	-10.3367
▁emb	-10.3372
▁installert	-10.3375
opplæring	-10.3375
▁yrkes	-10.3375
▁styrmann	-10.3375
▁fenomen	-10.3375
▁stortinget	-10.3376
▁blanding	-10.3376
▁utnytte	-10.3377
▁alfred	-10.3382
▁skift	-10.3387
▁sca	-10.3388
▁feire	-10.3389
▁bygninger	-10.3389
▁1600	-10.34
kål	-10.34
key	-10.341
▁gon	-10.3413
turbin	-10.342
▁rug	-10.3421
skjerm	-10.3426
▁novel	-10.3434
▁metode	-10.3441
mesterskapet	-10.345
▁bjør	-10.3459
strup	-10.3459
spir	-10.3463
▁sønd	-10.3476
følelse	-10.3486
ional	-10.3505
▁laks	-10.3515
▁eksempl	-10.3523
gran	-10.3528
▁antagelig	-10.3539
▁central	-10.3539
▁bosetning	-10.3539
▁valuta	-10.3539
▁nymfe	-10.354
▁arendal	-10.354
▁kryp	-10.3541
insk	-10.3542
▁sverre	-10.3544
▁brown	-10.3549
▁slave	-10.3555
fysikk	-10.3559
▁gradvis	-10.356
▁show	-10.3575
▁oldtid	-10.358
flekk	-10.3582
▁psykologi	-10.3586
▁prinsipp	-10.3595
▁kjø	-10.3617
▁thu	-10.3618
versjon	-10.3622
reich	-10.364
▁irland	-10.364
▁landskapet	-10.3648
▁karbon	-10.3652
▁legend	-10.3661
▁kau	-10.367
▁årsak	-10.3698
▁electric	-10.3706
▁konflikt	-10.3706
▁utgangspunkt	-10.3706
▁oppstår	-10.3706
assistent	-10.3706
▁sprint	-10.3706
plattform	-10.3706
▁klipp	-10.3707
▁godkjent	-10.3707
▁1935	-10.3708
▁protest	-10.371
▁angripe	-10.3711
▁tegninger	-10.3712
▁bidro	-10.3712
▁alpe	-10.3715
▁nærheten	-10.3716
▁eksport	-10.3718
▁hovedsak	-10.3718
▁center	-10.3721
reise	-10.3721
▁hitler	-10.3722
▁demningen	-10.3724
▁stabil	-10.3726
▁german	-10.3728
kapital	-10.3736
bund	-10.3737
▁kub	-10.3737
seth	-10.3739
▁tromsø	-10.3751
▁emp	-10.3753
▁konkurransen	-10.3758
sentre	-10.3758
▁mjø	-10.3768
▁status	-10.378
▁dyrke	-10.3795
▁fry	-10.3819
▁verb	-10.382
medisin	-10.3822
utdanning	-10.3823
▁etnisk	-10.3829
født	-10.3829
avgift	-10.3845
skiftet	-10.3853
lønn	-10.3861
følgende	-10.3864
angrep	-10.3865
▁xu	-10.3867
hull	-10.3869
tysk	-10.387
▁toll	-10.3874
▁fullstendig	-10.3875
▁konkurrere	-10.3875
▁doktorgrad	-10.3875
▁trommeslager	-10.3875
▁pakistan	-10.3875
▁dekkvingene	-10.3875
▁giovann	-10.3875
▁vesentlig	-10.3875
▁kommunal	-10.3875
▁publikum	-10.3875
konferanse	-10.3875
▁reklame	-10.3876
konvensjon	-10.3876
▁geografisk	-10.3876
▁sukker	-10.3877
▁1921	-10.3877
▁1912	-10.3878
▁1919	-10.3878
▁oppnådd	-10.3879
▁trenger	-10.388
▁drikke	-10.3885
▁bodø	-10.3886
▁passerer	-10.3886
bebyggelse	-10.3888
▁pensjon	-10.3889
kamerat	-10.3891
høyden	-10.3892
▁histori	-10.3898
▁victoria	-10.3899
▁from	-10.3913
▁bratt	-10.3921
▁nova	-10.3944
▁reserve	-10.3956
hara	-10.3958
▁krysset	-10.3969
▁tildele	-10.3976
▁funn	-10.3983
redskap	-10.3992
▁clo	-10.4004
▁musikalsk	-10.401
maleri	-10.4024
▁nødvendig	-10.4047
▁færøyene	-10.4047
▁christopher	-10.4047
▁drammen	-10.4048
▁skildre	-10.4048
▁ungarsk	-10.4048
▁motsetning	-10.4048
ος	-10.4048
▁spredt	-10.4048
▁riktig	-10.4049
▁1931	-10.405
▁1924	-10.405
▁stortings	-10.4054
▁allmenn	-10.4059
▁oversettelse	-10.4059
▁franz	-10.406
fred	-10.4061
ōng	-10.4062
hem	-10.4065
▁prosessen	-10.4067
datert	-10.4085
▁skyte	-10.4085
▁solgt	-10.4103
▁cli	-10.411
▁cand	-10.4111
chel	-10.4113
▁intel	-10.4118
▁lykke	-10.414
lærer	-10.4145
kontroll	-10.4161
▁bevege	-10.4168
āng	-10.4175
finalen	-10.4177
bølge	-10.418
lengde	-10.4195
▁mangle	-10.4203
vand	-10.4221
▁forbinde	-10.4222
▁naturreservat	-10.4223
▁utbredt	-10.4223
▁asteroide	-10.4223
▁aksept	-10.4223
▁fysisk	-10.4223
▁bøkene	-10.4224
gjøring	-10.4224
▁utenlandsk	-10.4224
▁kveld	-10.4225
▁1933	-10.4225
▁etterfølger	-10.4225
▁litterær	-10.4226
▁1944	-10.4226
▁1939	-10.4227
▁1910	-10.4228
▁unntak	-10.4228
▁kritikk	-10.4228
▁jackson	-10.4231
▁formula	-10.4234
▁wild	-10.4236
▁portrett	-10.4236
▁shu	-10.4238
▁deltaker	-10.4243
▁free	-10.4244
▁arab	-10.4244
▁brødrene	-10.4248
▁plassering	-10.4248
▁henri	-10.4254
maskiner	-10.4255
▁kaller	-10.4272
▁johansen	-10.428
▁geir	-10.428
▁bassist	-10.429
īn	-10.429
▁tidsskriftet	-10.4294
bord	-10.4307
turnering	-10.4308
▁utkom	-10.4336
milit	-10.4353
▁tusen	-10.4375
alistisk	-10.4379
sikkerhet	-10.4393
▁salme	-10.4397
▁elisabeth	-10.4401
▁svalbard	-10.4401
▁guvernør	-10.4401
▁undergrunnsbane	-10.4401
▁vietnam	-10.4401
▁thailand	-10.4402
▁praktisk	-10.4402
apparat	-10.4403
▁1914	-10.4404
▁samuel	-10.4405
▁bakterie	-10.4405
▁tilsvarer	-10.4405
terapi	-10.4406
▁produseres	-10.4406
▁telemark	-10.4407
▁num	-10.4407
ра	-10.4408
mission	-10.4408
▁energiselskape	-10.4412
aften	-10.4422
bød	-10.4423
▁forsterke	-10.4424
▁hellas	-10.4426
▁1500	-10.4428
▁behov	-10.4429
▁dokument	-10.4429
▁flåte	-10.4432
cast	-10.4433
▁grund	-10.4456
▁edderkoppene	-10.4462
metri	-10.4463
lidelse	-10.4465
▁hovedrollen	-10.4465
▁fyll	-10.4472
▁lukke	-10.4473
løft	-10.4486
bredden	-10.4491
opptak	-10.4501
kreft	-10.4507
▁kunde	-10.4509
▁katedral	-10.4515
▁alban	-10.4517
cci	-10.4524
speil	-10.453
bæk	-10.4533
hunder	-10.4539
konsert	-10.4546
front	-10.4548
næring	-10.455
grå	-10.4553
▁ledes	-10.4565
lö	-10.4576
idrett	-10.4579
løytnant	-10.4583
▁oppmerksomhet	-10.4583
▁kriminal	-10.4583
▁sigurd	-10.4583
▁deutsche	-10.4583
▁adolf	-10.4583
▁ytterst	-10.4583
▁studioalbum	-10.4584
▁biografi	-10.4585
▁hemmelig	-10.4585
▁filip	-10.4585
▁generasjon	-10.4588
ко	-10.4588
▁diplomat	-10.459
▁turneringen	-10.4591
▁forvaltnings	-10.4593
▁hou	-10.4594
▁diesel	-10.4595
▁hyper	-10.46
▁modern	-10.4601
▁130	-10.4605
vall	-10.4606
▁jacobsen	-10.4609
▁einar	-10.4615
▁ernst	-10.4625
▁karakteristisk	-10.4632
▁nordover	-10.4643
▁acc	-10.4645
▁book	-10.4649
flat	-10.4654
▁tab	-10.4668
lyd	-10.4678
▁brei	-10.468
▁verdensmester	-10.4718
zzo	-10.4724
representant	-10.4732
givelse	-10.474
laug	-10.4747
▁larve	-10.4752
▁konservativ	-10.4768
▁shanghai	-10.4768
▁væske	-10.4769
▁risiko	-10.4769
▁rogaland	-10.4769
molekyl	-10.4769
kompetanse	-10.4769
▁skjul	-10.4769
▁kristiansand	-10.477
▁elektronisk	-10.477
▁hovedkontor	-10.4778
▁ørn	-10.478
▁divers	-10.4781
▁vanligste	-10.4783
▁blind	-10.4785
bevisst	-10.4791
▁mynt	-10.4791
▁ungdomsskole	-10.4792
skikk	-10.4805
▁isteden	-10.4806
▁fau	-10.4814
▁prim	-10.4819
▁høg	-10.4828
▁østlige	-10.4828
takelse	-10.4853
skade	-10.4863
ario	-10.4873
utgave	-10.4877
setting	-10.4881
▁beskrivelse	-10.4893
▁parallell	-10.4895
forsyning	-10.4899
▁verneområde	-10.4908
transport	-10.4925
▁øke	-10.4937
▁kapit	-10.4937
skilt	-10.4942
fast	-10.4947
wich	-10.4949
▁søke	-10.4955
▁arrangement	-10.4957
▁akershus	-10.4957
▁jesuitt	-10.4957
▁airlines	-10.4957
▁vilhelm	-10.4957
▁ansikt	-10.4957
▁forbedre	-10.4957
▁gabriel	-10.4958
▁utseende	-10.4958
▁josef	-10.4958
▁fungert	-10.4959
▁domstol	-10.4959
▁1923	-10.496
▁arbeiderpartiet	-10.496
▁bensin	-10.4965
▁tsje	-10.4965
▁då	-10.4966
nemlig	-10.4975
▁nedlagt	-10.4975
registre	-10.4981
ière	-10.4981
kjel	-10.4982
aux	-10.4989
lect	-10.4998
burn	-10.5009
▁marin	-10.5012
▁basis	-10.5022
problemer	-10.504
▁katolsk	-10.5042
▁mega	-10.5043
biblioteket	-10.5051
▁motsatt	-10.5055
▁800	-10.5059
▁ansatt	-10.5083
▁handle	-10.5092
▁life	-10.5117
ansett	-10.5125
tempel	-10.5126
▁wang	-10.5128
utstyr	-10.5132
▁victor	-10.5133
gevær	-10.5138
ekspedisjon	-10.5141
▁association	-10.5149
▁erkebiskop	-10.5149
▁1905	-10.5149
▁1943	-10.5149
▁grønland	-10.5149
▁vannkraftverk	-10.5149
▁dollar	-10.5149
▁monument	-10.5149
▁artilleri	-10.515
protokoll	-10.515
▁detaljer	-10.515
▁oberst	-10.515
▁originaltittel	-10.515
▁belgisk	-10.5151
▁kritisert	-10.5151
▁partner	-10.5151
▁efter	-10.5151
forsikring	-10.5152
ий	-10.5152
▁samfunnet	-10.5153
▁pierre	-10.5156
▁blank	-10.5163
▁øvelse	-10.5163
pleie	-10.5168
▁inneha	-10.518
▁forbunds	-10.5183
▁mottatt	-10.5198
▁smerte	-10.5205
▁overført	-10.5205
bille	-10.5209
▁audi	-10.5211
▁fortalt	-10.522
▁antennene	-10.5226
▁evangel	-10.5227
stokk	-10.5228
▁egil	-10.523
▁gyld	-10.5235
regiment	-10.5242
▁vekk	-10.5244
▁slu	-10.5246
brev	-10.5251
▁tidsskrift	-10.5267
▁sender	-10.5271
▁firma	-10.5276
▁demokratisk	-10.5307
▁95	-10.5311
▁reid	-10.532
teknologi	-10.5322
design	-10.5328
▁trenings	-10.5333
▁sekund	-10.5334
▁rosa	-10.5344
cula	-10.5345
▁sjeldne	-10.5345
▁1909	-10.5346
sammenslåing	-10.5346
▁oversikt	-10.5346
▁rednings	-10.5347
▁faktisk	-10.5347
▁stefan	-10.5347
overflaten	-10.5348
▁spesifik	-10.5349
▁romsdal	-10.5351
▁grunnkrets	-10.5351
▁generell	-10.5351
▁alex	-10.5354
▁maksimal	-10.5356
▁nød	-10.5364
ин	-10.5365
▁hotel	-10.5369
▁utenom	-10.5376
▁1700	-10.5383
▁styrte	-10.5385
palasset	-10.5427
kjøring	-10.5429
vatn	-10.5472
tradisjon	-10.5525
kjøp	-10.5526
legging	-10.5528
▁sammenligne	-10.5533
▁opplysning	-10.5543
▁aleksander	-10.5545
▁corporation	-10.5545
▁hovedkvarter	-10.5545
▁luxembourg	-10.5545
▁vladimir	-10.5545
▁1906	-10.5546
▁australsk	-10.5546
▁eventuel	-10.5546
fundament	-10.5546
▁colombia	-10.5546
▁etterkommer	-10.5546
▁beseire	-10.5546
▁hebraisk	-10.5546
▁krevde	-10.5546
▁belgia	-10.5546
▁mekanisk	-10.5546
▁alexandr	-10.5547
▁seinere	-10.5547
▁opptrer	-10.5549
▁tropisk	-10.5554
▁1896	-10.5564
▁intens	-10.5573
▁forskjellig	-10.5573
▁samisk	-10.5574
▁variasjon	-10.5575
▁sound	-10.5575
areal	-10.5579
▁persisk	-10.5582
▁sørge	-10.5584
kost	-10.5587
▁walter	-10.5593
▁lü	-10.5594
odden	-10.5594
▁kopi	-10.56
▁little	-10.5602
▁wol	-10.5603
▁falk	-10.561
▁låten	-10.5623
▁leif	-10.5641
▁virkelig	-10.5661
fallende	-10.567
kommende	-10.5678
messe	-10.5679
▁pels	-10.5691
▁demokrati	-10.5718
▁regjer	-10.5729
hjelp	-10.5731
instrument	-10.5733
kroppen	-10.5735
vokst	-10.5747
▁erklært	-10.575
▁jomfru	-10.575
▁orchestra	-10.575
▁research	-10.575
▁washington	-10.575
▁anmelder	-10.575
▁county	-10.575
▁terreng	-10.575
▁radikal	-10.575
▁nominert	-10.575
▁strategi	-10.575
▁anledning	-10.575
▁grevskap	-10.575
▁serbisk	-10.575
komponent	-10.575
▁1927	-10.5752
ovitsj	-10.5752
▁1926	-10.5752
▁påvirket	-10.5753
▁embets	-10.5753
▁fjellkjede	-10.5753
▁østfold	-10.5754
▁tilhenger	-10.5755
▁lokalisert	-10.5761
liknende	-10.5762
▁1890	-10.5774
▁night	-10.5775
▁oppnå	-10.5778
▁foster	-10.5779
syssel	-10.5782
▁prix	-10.5784
▁visse	-10.5784
▁innerst	-10.5789
▁avtalen	-10.5789
tavle	-10.5791
▁oval	-10.5799
▁lord	-10.5799
▁robin	-10.5805
▁pall	-10.5807
▁kommunist	-10.5826
settelse	-10.5836
▁beskrev	-10.5902
regning	-10.5907
▁hjemmebane	-10.5922
box	-10.5948
prøve	-10.595
bunn	-10.5957
▁afghanistan	-10.5958
▁midlertidig	-10.5958
▁utelukkende	-10.5958
vassdraget	-10.5958
▁referanse	-10.5958
▁ødelegge	-10.5958
▁hyppig	-10.5958
▁nedbør	-10.5958
▁negativ	-10.5958
▁kommersiell	-10.5958
ensemble	-10.5958
▁innlemme	-10.5959
komité	-10.596
▁regelmessig	-10.596
▁programleder	-10.5961
▁disney	-10.5962
▁debatt	-10.5963
▁2018	-10.5964
▁ekspedisjonen	-10.5967
▁bønn	-10.5975
▁støv	-10.5982
▁oppfatte	-10.5987
▁mau	-10.5988
▁young	-10.5989
▁fritz	-10.5992
▁herfra	-10.5995
▁israelsk	-10.5996
tveit	-10.5997
▁musikal	-10.6004
zhi	-10.6005
▁levde	-10.6018
toppen	-10.6041
▁great	-10.6049
íng	-10.6099
▁bö	-10.6123
▁opptrådt	-10.6154
▁700	-10.6154
institutt	-10.6163
offiser	-10.6164
▁konstruert	-10.6171
▁portugisisk	-10.6171
budsjett	-10.6171
▁theodor	-10.6171
▁spreng	-10.6171
▁kobber	-10.6171
▁hindi	-10.6172
dimensjon	-10.6172
▁protein	-10.6172
betjent	-10.6172
▁fuktig	-10.6173
▁batteri	-10.6173
▁1929	-10.6173
ст	-10.6173
▁flytende	-10.6173
▁1917	-10.6173
▁1922	-10.6174
▁sjette	-10.6176
▁slippe	-10.6176
▁monark	-10.6177
▁gregor	-10.6178
▁hypo	-10.6189
▁ombord	-10.619
▁operere	-10.6201
▁hvile	-10.6205
▁good	-10.6207
▁østover	-10.6208
celler	-10.6218
▁gratis	-10.6232
▁lill	-10.6248
▁small	-10.6254
akademiet	-10.6263
bahn	-10.6267
▁nerve	-10.6268
▁jud	-10.6272
▁jente	-10.6273
▁birke	-10.6273
▁egyptisk	-10.629
søyle	-10.6296
posisjon	-10.6378
▁dirigent	-10.6388
▁restaurant	-10.6388
▁sebastian	-10.6388
▁symfoni	-10.6388
▁jacque	-10.6388
▁tvilling	-10.6388
▁hindre	-10.6389
▁besetning	-10.639
▁redaksjon	-10.6391
▁innebære	-10.6391
▁isbn	-10.6391
materiell	-10.6391
worth	-10.6392
▁betong	-10.6393
▁import	-10.6395
▁smelte	-10.6395
▁styreleder	-10.6396
▁frykt	-10.6397
▁barndom	-10.6398
▁skaffe	-10.64
▁sammenlagt	-10.6423
bryter	-10.6437
▁lunge	-10.6442
▁gott	-10.6463
brand	-10.6476
start	-10.6491
rough	-10.65
signal	-10.6503
▁1200	-10.6513
▁kommunistisk	-10.6528
▁innlede	-10.6541
flåten	-10.6573
▁900	-10.659
pati	-10.6593
blom	-10.6599
direktoratet	-10.661
▁ferdinand	-10.661
▁frankfurt	-10.661
▁kronprins	-10.661
▁vedlikehold	-10.661
▁1907	-10.661
▁francisco	-10.661
▁wergeland	-10.661
▁1902	-10.661
▁ovenfor	-10.661
▁sparebank	-10.661
▁tilsammen	-10.661
▁juridisk	-10.661
teatret	-10.6611
▁astronomi	-10.6611
▁senior	-10.6611
▁gråbrun	-10.6614
▁1916	-10.6614
▁komplett	-10.6614
▁økende	-10.6618
▁strekningen	-10.6619
bjørk	-10.6621
▁pistol	-10.6621
▁hydrogen	-10.6621
▁biologisk	-10.6621
▁andré	-10.6623
radio	-10.6623
▁vandre	-10.6627
▁idé	-10.6628
evitsj	-10.6629
▁1899	-10.6634
▁inneba	-10.6644
drevne	-10.6655
kjøkken	-10.6661
politi	-10.668
▁canadisk	-10.6686
▁dramatisk	-10.6704
katalog	-10.6708
▁hyll	-10.6717
periode	-10.6719
krem	-10.6724
akka	-10.6733
artist	-10.6769
▁plast	-10.6796
prest	-10.6801
▁psyko	-10.6813
stipend	-10.6836
▁football	-10.6838
▁observasjon	-10.6838
▁society	-10.6838
▁varaordfører	-10.6838
▁alfabet	-10.6838
▁hordaland	-10.6838
▁ytterkant	-10.6838
▁veksel	-10.6838
▁frivillig	-10.6838
▁1904	-10.6838
▁kritiker	-10.6838
▁separat	-10.6838
▁haakon	-10.6838
fiber	-10.6839
▁ørken	-10.6839
▁opplevd	-10.6841
▁føderal	-10.6841
▁energy	-10.6841
▁bispe	-10.6843
ingeniør	-10.6845
▁planlagt	-10.6845
▁bernard	-10.6848
▁social	-10.6856
▁barnehage	-10.6857
▁synge	-10.6858
▁score	-10.6861
hausen	-10.6864
▁personlighet	-10.6869
▁down	-10.6873
▁kjennetegne	-10.6877
▁flykte	-10.6887
nettverk	-10.6902
owski	-10.6903
produkt	-10.6945
▁spenn	-10.6962
artikkel	-10.6965
skyting	-10.6971
ро	-10.6987
▁slange	-10.7008
▁klage	-10.7043
▁250	-10.7051
andro	-10.7056
ч	-10.7069
▁jurisdiksjon	-10.707
▁matematikk	-10.707
▁münchen	-10.707
▁psykisk	-10.707
▁selvbiografi	-10.707
▁windows	-10.707
▁hjørne	-10.707
▁soldatene	-10.707
▁ukraina	-10.707
▁ødelagt	-10.707
▁primitiv	-10.707
▁reference	-10.707
seremoni	-10.707
▁heavy	-10.707
▁embeds	-10.707
▁mektig	-10.7071
▁automatisk	-10.7072
▁fremstilt	-10.7072
▁anklage	-10.7075
terminal	-10.7078
trukket	-10.708
▁hensyn	-10.7081
divisjon	-10.7083
▁høyesterett	-10.7084
provins	-10.7085
sentral	-10.7086
▁røtter	-10.709
▁respekt	-10.7091
▁brygge	-10.7091
▁nederst	-10.7092
medlemmer	-10.7093
▁angeles	-10.7093
▁right	-10.7095
arkiv	-10.7101
ка	-10.7104
planlegging	-10.711
▁jernbanestasjon	-10.712
▁grunnlov	-10.7129
oppdagelse	-10.7146
▁agent	-10.715
▁krok	-10.7164
▁flyselskap	-10.7164
wick	-10.7174
▁sovjet	-10.7186
støtte	-10.7223
▁bergart	-10.723
▁kirkegård	-10.7234
▁sveitsisk	-10.727
▁hytte	-10.7292
▁oksygen	-10.7308
▁country	-10.7308
▁douglas	-10.7308
▁intervju	-10.7308
▁innbyggerne	-10.7308
▁pattedyr	-10.7308
▁hensikt	-10.7308
▁utspring	-10.7308
veksling	-10.7308
▁church	-10.7308
▁uvanlig	-10.7308
▁prinsesse	-10.7309
▁bløt	-10.7309
▁brigade	-10.7309
pedagog	-10.7309
▁first	-10.731
mekanisme	-10.7311
▁elleve	-10.7311
▁beholdt	-10.7312
▁1913	-10.7312
▁fjernsyns	-10.7312
▁definere	-10.7313
▁kredit	-10.7313
▁programvare	-10.7313
▁komposisjon	-10.7314
▁bryggeri	-10.7317
▁wilson	-10.7318
▁røyk	-10.7318
spørsmål	-10.7327
europeisk	-10.7327
▁donau	-10.7328
▁utgivelsen	-10.7328
sykdom	-10.7331
▁klein	-10.7334
vandring	-10.7335
▁rifle	-10.7337
▁bedriften	-10.7337
▁koble	-10.7339
▁anerkjenne	-10.7339
▁aksel	-10.734
butikk	-10.7342
▁kjeve	-10.7342
▁forvalte	-10.7345
fellesskap	-10.7354
▁estisk	-10.7363
flyvning	-10.7367
overføring	-10.7396
▁variert	-10.74
orientert	-10.7404
nevnte	-10.7406
forsamlingen	-10.7408
▁kä	-10.7423
▁aero	-10.7427
▁forstå	-10.7483
▁nøkkel	-10.7552
▁ortodoks	-10.7552
▁renessanse	-10.7552
▁rudolf	-10.7552
▁sanskrit	-10.7552
▁uttrykt	-10.7552
▁ragnar	-10.7552
▁vertikal	-10.7552
konsulent	-10.7552
▁special	-10.7552
▁people	-10.7552
▁hindu	-10.7552
▁allierte	-10.7553
▁hjal	-10.7553
▁brøt	-10.7553
▁utforming	-10.7553
▁two	-10.7554
▁overraske	-10.7554
▁klatre	-10.7554
▁invasjon	-10.7555
▁afrikansk	-10.7555
▁stryk	-10.7556
▁hørte	-10.7556
▁drømme	-10.7556
vilkår	-10.7556
▁søndag	-10.7557
▁fiction	-10.7559
▁erfaring	-10.756
▁møller	-10.756
▁eiendommen	-10.7565
ifisering	-10.7565
▁forbudt	-10.7565
▁tidspunkt	-10.7566
▁fordøyelses	-10.7566
▁koreansk	-10.7567
▁fuji	-10.7569
litteratur	-10.7577
▁avholdt	-10.7577
▁forlenge	-10.7593
skifte	-10.7622
▁overføre	-10.7623
▁flø	-10.7697
▁palass	-10.77
gutt	-10.7787
bjørg	-10.7787
▁tibet	-10.7795
▁angelsaksisk	-10.7802
▁sarpsborg	-10.7802
▁tortricidae	-10.7802
▁definisjon	-10.7802
▁langrennsløper	-10.7802
▁tønsberg	-10.7802
▁nordsamisk	-10.7802
▁forgjenger	-10.7802
▁linux	-10.7802
▁fiktiv	-10.7802
▁særskilt	-10.7803
▁bærum	-10.7803
▁ektemann	-10.7804
▁generalsekretær	-10.7805
▁1915	-10.7806
▁friidrett	-10.7807
▁bundes	-10.7808
▁vestfold	-10.7808
▁tjener	-10.7815
▁muskel	-10.7819
bukten	-10.7829
størrelse	-10.7833
frukt	-10.7834
▁manuel	-10.784
▁statsråd	-10.7843
▁frost	-10.7855
fordeling	-10.7867
struksjon	-10.7928
▁motorvei	-10.7978
shaw	-10.8008
ã	-10.8023
▁sikker	-10.8045
psykiatri	-10.8059
▁françois	-10.8059
▁gymnas	-10.8059
▁keyboard	-10.8059
▁patriark	-10.8059
▁tyrkia	-10.8059
▁arrestert	-10.8059
▁ferskvann	-10.8059
▁meteorolog	-10.8059
▁1895	-10.8059
▁infanteri	-10.8059
▁petersburg	-10.8059
▁utsikt	-10.8059
▁nektet	-10.806
spredning	-10.806
▁kapittel	-10.806
▁lovgiv	-10.806
▁dream	-10.8061
▁sosialdemokrat	-10.8061
▁arbeidsgiver	-10.8061
▁massiv	-10.8062
▁poesi	-10.8062
▁donald	-10.8064
▁nyhets	-10.8064
▁mandat	-10.8074
▁sekundær	-10.8077
tjern	-10.8078
seminar	-10.8087
redaktør	-10.8097
flagg	-10.81
▁fylt	-10.8102
sentrum	-10.8135
lokale	-10.8141
bregne	-10.8163
kjennelse	-10.8223
▁urban	-10.8258
▁fortsette	-10.8275
kommanderende	-10.8322
landeveissyklist	-10.8322
▁ludwig	-10.8322
▁milliarder	-10.8322
▁mountain	-10.8322
▁aleksandr	-10.8322
▁arrangerer	-10.8322
▁elektrisitet	-10.8322
▁konstitu	-10.8322
▁sichuan	-10.8322
▁operativsystem	-10.8322
▁psych	-10.8322
▁verdenscup	-10.8322
▁selvmord	-10.8322
▁cappelen	-10.8322
▁charlotte	-10.8322
▁walisisk	-10.8322
▁beordre	-10.8323
▁vegetasjon	-10.8323
▁nepal	-10.8323
▁rådgiver	-10.8323
▁database	-10.8324
▁what	-10.8325
köping	-10.8327
▁enhver	-10.8327
▁tennis	-10.8328
▁slapp	-10.8328
▁year	-10.8329
▁clark	-10.833
▁tommy	-10.8333
▁takket	-10.8333
▁harmoni	-10.8335
▁forbruker	-10.8337
▁boeing	-10.834
plikasjon	-10.835
▁kaffe	-10.8353
skutt	-10.8363
craft	-10.8363
resultat	-10.8364
klor	-10.8389
kledt	-10.8398
kjøl	-10.841
▁skanse	-10.8448
▁olympi	-10.8469
▁forklare	-10.8541
produsere	-10.8582
sirkel	-10.8588
gruppa	-10.8589
▁atmosfære	-10.8592
▁barcelona	-10.8592
▁gælisk	-10.8592
▁kontinental	-10.8592
▁omdøpt	-10.8592
▁systematikken	-10.8592
▁kavaleri	-10.8592
▁oxford	-10.8592
▁florida	-10.8592
▁sophie	-10.8592
▁underholdning	-10.8592
▁hendelsen	-10.8592
▁aktuell	-10.8592
▁verdensarv	-10.8593
▁søstre	-10.8593
▁dekorert	-10.8594
▁kråk	-10.8594
mouth	-10.8594
ль	-10.8594
▁klaver	-10.8594
▁spirit	-10.8595
kobling	-10.8595
▁søvn	-10.8595
▁bbc	-10.8596
▁skøyte	-10.8598
ма	-10.8598
да	-10.8598
▁igjennom	-10.8598
▁stengt	-10.8599
tolkning	-10.8602
▁holdning	-10.8609
forståelse	-10.863
▁tolke	-10.863
kvalitet	-10.8644
orkester	-10.8645
temperatur	-10.8645
▁spesialisert	-10.8646
schaft	-10.8652
forandring	-10.8671
▁benevn	-10.8671
▁guinea	-10.8755
psykolog	-10.8819
rhein	-10.8829
▁dobbel	-10.8845
▁løfte	-10.8855
▁inspirasjon	-10.8869
▁bryllup	-10.887
▁elizabeth	-10.887
▁forøvrig	-10.887
▁petroleum	-10.887
▁tilknytning	-10.887
▁virginia	-10.887
▁manchester	-10.887
▁krystall	-10.887
▁mangfold	-10.887
▁abraham	-10.887
▁fødselsår	-10.887
▁kvadrat	-10.887
▁ungarn	-10.887
▁sachsen	-10.887
▁utnevne	-10.887
▁avdøde	-10.887
▁redigert	-10.887
▁noctu	-10.8871
straße	-10.8871
▁monroe	-10.8871
▁lewis	-10.8871
▁maritim	-10.8871
▁grün	-10.8872
▁påvirker	-10.8872
▁kronologisk	-10.8874
▁næringsliv	-10.8874
▁pastor	-10.8875
▁skygge	-10.8877
▁tibetansk	-10.8892
▁gjennomføre	-10.8903
blomsterflue	-10.8924
historiker	-10.893
bispedømme	-10.893
karriere	-10.8931
undervisning	-10.8932
▁forekomme	-10.8946
basseng	-10.8947
prinsippet	-10.9063
foretak	-10.9136
▁størst	-10.9149
▁pseudo	-10.9155
▁aftenposten	-10.9155
▁argentina	-10.9155
▁fakultet	-10.9155
▁inklusiv	-10.9155
▁network	-10.9155
▁okkupasjon	-10.9155
disiplin	-10.9155
▁göteborg	-10.9155
forstyrrelse	-10.9155
▁benjamin	-10.9155
▁1903	-10.9155
▁tsjekkisk	-10.9156
▁apotek	-10.9156
▁syndrom	-10.9156
▁henrettet	-10.9156
▁presentert	-10.9156
▁dominerende	-10.9156
▁ntnu	-10.9156
järvi	-10.9157
▁finskspråklig	-10.9157
avstemning	-10.9157
▁micro	-10.9158
▁hassel	-10.9161
▁smitte	-10.9163
▁spyd	-10.9171
stredet	-10.9176
▁studere	-10.9186
vokter	-10.9212
partei	-10.922
▁borgerkrig	-10.9222
нов	-10.9248
glass	-10.925
▁domkirke	-10.9255
▁marcus	-10.929
▁begynne	-10.9352
▁ligge	-10.9358
▁beholde	-10.9374
▁unngå	-10.9388
▁camill	-10.9402
▁favoritt	-10.945
▁kontrovers	-10.945
▁aluminium	-10.945
▁bulgarsk	-10.945
▁frilufts	-10.945
▁generalmajor	-10.945
▁inskripsjon	-10.945
▁mobiltelefon	-10.945
▁tilsynelatende	-10.945
▁identitet	-10.945
▁anvendt	-10.945
▁rekrutt	-10.945
▁support	-10.945
▁1894	-10.945
▁interiør	-10.945
▁1892	-10.945
▁gjennomsnittlig	-10.945
presentasjon	-10.945
▁margaret	-10.945
▁sammensetning	-10.945
▁varierende	-10.945
▁nabokommun	-10.9451
▁stadium	-10.9452
▁opposisjon	-10.9452
▁kalender	-10.9453
▁oppfølger	-10.9454
▁lojal	-10.9454
▁døpt	-10.9454
▁tilfeldig	-10.946
elektr	-10.9466
forkortelse	-10.9472
vík	-10.9476
▁legat	-10.9496
▁sokn	-10.9519
utenriksminister	-10.9546
pumpe	-10.9627
▁omhandle	-10.9664
kirch	-10.9751
▁fasettøyne	-10.9753
▁argumenter	-10.9753
▁arrangør	-10.9753
▁færøysk	-10.9753
▁meksikansk	-10.9753
▁microsoft	-10.9753
▁observatori	-10.9753
▁territorie	-10.9753
▁business	-10.9753
▁engasjert	-10.9753
▁portugal	-10.9753
▁bystatus	-10.9753
▁pradesh	-10.9753
▁muslimsk	-10.9753
▁1863	-10.9753
▁hendelser	-10.9753
▁antarktis	-10.9753
▁kommentar	-10.9753
▁kongsvinger	-10.9753
leverandør	-10.9753
▁trykt	-10.9753
▁forsvant	-10.9753
▁serbia	-10.9753
▁stephen	-10.9753
▁essay	-10.9753
▁skjebne	-10.9753
▁stanley	-10.9753
▁splitt	-10.9754
▁kallenavn	-10.9754
▁plukk	-10.9755
▁temple	-10.9756
▁barokk	-10.9756
▁nordligst	-10.9757
▁tørke	-10.9761
▁nkp	-10.9762
▁mannsnavn	-10.9772
▁datamaskin	-10.9783
oppdrett	-10.9788
svermer	-10.9802
uniform	-10.9838
▁anslå	-10.9842
byrd	-10.9847
syrisk	-11.0004
brenning	-11.0015
▁hollywood	-11.0065
▁illustrert	-11.0065
▁prestegjeld	-11.0065
▁lillehammer	-11.0065
▁forveksle	-11.0065
▁francesco	-11.0065
▁nøyaktig	-11.0065
▁traktaten	-11.0065
▁buddhist	-11.0065
▁chicago	-11.0065
▁kennedy	-11.0065
▁konsernet	-11.0065
▁1893	-11.0065
▁texas	-11.0065
▁eidsvoll	-11.0065
leksikon	-11.0065
▁unesco	-11.0065
▁frimurer	-11.0065
▁opptreden	-11.0065
▁skåne	-11.0066
▁kjørte	-11.0066
▁axel	-11.0066
▁battle	-11.0066
▁jamaica	-11.0066
▁griff	-11.0066
▁contest	-11.0066
▁delstats	-11.0067
▁ekspert	-11.0067
▁finansiert	-11.0067
▁slakte	-11.0067
▁enorme	-11.0067
▁avgjørelse	-11.0067
▁akutt	-11.0068
▁klinisk	-11.0068
▁saturn	-11.0071
▁techn	-11.0073
▁castle	-11.0077
▁patric	-11.0091
▁ekstern	-11.0103
▁omdanne	-11.011
▁earl	-11.0122
betaling	-11.0175
▁publiser	-11.019
trådte	-11.0199
spenning	-11.0211
vennlig	-11.0337
▁brødre	-11.0341
▁pyramide	-11.0388
▁valgdeltakelse	-11.0388
▁coverversjon	-11.0388
▁1901	-11.0388
▁hockey	-11.0388
▁utdødd	-11.0388
▁oransje	-11.0388
▁litauen	-11.0388
▁1879	-11.0388
▁alminnelig	-11.0388
▁permanent	-11.0388
▁ressurs	-11.0388
▁skihopper	-11.0388
▁minoritet	-11.0388
koordinat	-11.0388
▁opphørte	-11.0388
▁cecili	-11.0388
▁grieg	-11.0388
forurensning	-11.0388
▁tilskuer	-11.0389
▁korrekt	-11.0389
alliansen	-11.0389
▁søsken	-11.039
sław	-11.039
▁claudi	-11.039
▁kostnad	-11.0391
▁klaus	-11.0394
ragende	-11.0402
kollega	-11.041
▁avskjed	-11.0412
embetet	-11.0414
tillatelse	-11.0415
▁fulgt	-11.0419
mottak	-11.0503
katedralen	-11.051
▁innenriks	-11.0664
ttoregistertonn	-11.0721
▁anthony	-11.0721
▁innspilt	-11.0721
▁jerusalem	-11.0721
▁jordskjelv	-11.0721
▁kjønnsmodne	-11.0721
▁låtskriver	-11.0721
▁napoleon	-11.0721
▁stjørdal	-11.0721
▁integrert	-11.0721
▁joachim	-11.0721
▁oppvarming	-11.0721
▁annonsert	-11.0721
▁innbefatte	-11.0721
▁shandong	-11.0721
offensiv	-11.0721
▁english	-11.0721
▁eksisterte	-11.0721
▁gustaf	-11.0721
▁nynorsk	-11.0721
▁overlevde	-11.0721
▁diagnose	-11.0721
▁matematisk	-11.0721
▁beslektet	-11.0721
▁ålesund	-11.0721
▁begravelse	-11.0721
▁svekket	-11.0721
▁trompet	-11.0721
▁fusjonert	-11.0722
▁kvalifisering	-11.0722
▁snorre	-11.0722
▁håndverker	-11.0722
▁ritual	-11.0722
▁fantasi	-11.0722
▁innvilge	-11.0722
▁seksuell	-11.0722
▁claude	-11.0722
hertugdømmet	-11.0723
▁vakre	-11.0723
▁beskjed	-11.0723
▁diamant	-11.0723
▁tempo	-11.0723
▁anatol	-11.0725
kvinne	-11.0726
▁andorra	-11.0734
▁stedsnavn	-11.074
▁bolivia	-11.0743
▁genetisk	-11.075
annibal	-11.0778
trofe	-11.0795
▁parallel	-11.0834
medlemmene	-11.0841
variant	-11.0841
spesialist	-11.0865
▁america	-11.0908
▁tjenestegjor	-11.0929
metoden	-11.0948
▁maksim	-11.1048
▁cerambyc	-11.1066
flokkurin	-11.1066
▁admiral	-11.1066
▁guangdong	-11.1066
▁helsingfors	-11.1066
▁terrengsyklist	-11.1066
klassifisering	-11.1066
▁babylon	-11.1066
▁evolusjon	-11.1066
▁innendørs	-11.1066
▁reguleres	-11.1066
▁satellitt	-11.1066
▁buskerud	-11.1066
▁katolikk	-11.1066
▁1850	-11.1066
▁trondhjems	-11.1066
▁frederick	-11.1066
▁konsesjon	-11.1066
▁könig	-11.1066
▁kristoffer	-11.1066
▁betydningsfull	-11.1066
▁vitamin	-11.1066
▁amatør	-11.1066
sylindre	-11.1066
▁prosessor	-11.1067
▁forklaring	-11.107
klinikk	-11.107
▁fangst	-11.1071
installasjon	-11.1071
▁lensmann	-11.1072
▁bjarn	-11.1078
▁rytme	-11.1087
▁nederlag	-11.1103
▁moderat	-11.1113
▁skjøt	-11.112
▁ivareta	-11.1177
▁blanc	-11.1177
aktivist	-11.1192
student	-11.12
klima	-11.1201
▁relativ	-11.1241
▁canadi	-11.1307
▁antropo	-11.1316
▁assosiert	-11.1423
▁foundation	-11.1423
▁konkurrent	-11.1423
▁konsekvens	-11.1423
▁liverpool	-11.1423
▁mccartney	-11.1423
▁nitrogen	-11.1423
▁tusenårssted	-11.1423
▁identifisert	-11.1423
▁konsentrert	-11.1423
▁novgorod	-11.1423
▁overvåke	-11.1423
▁railway	-11.1423
▁kroatisk	-11.1423
▁respons	-11.1423
▁taliban	-11.1423
▁mozart	-11.1423
▁eduard	-11.1423
▁public	-11.1423
▁1891	-11.1423
▁sediment	-11.1423
▁1855	-11.1423
▁hybrid	-11.1423
▁fjeld	-11.1423
betennelse	-11.1423
▁besluttet	-11.1423
▁grevinne	-11.1423
▁barbara	-11.1424
▁bmw	-11.1424
▁gummi	-11.1424
▁rumensk	-11.1424
▁etablere	-11.1424
▁dybde	-11.1424
rettighetene	-11.1425
▁yngst	-11.1426
▁pianist	-11.1428
▁spalte	-11.1445
provinshovedstad	-11.1446
flytting	-11.1456
journalist	-11.1568
produsert	-11.1569
papir	-11.1569
sesongen	-11.1569
▁bakkropp	-11.157
▁bianc	-11.1584
ć	-12.2619
ñ	-13.2003
ô	-13.2004
