<unk>	0
<s>	0
</s>	0
.	-3.12747
s	-3.36788
e	-3.55578
▁	-3.77871
t	-4.0612
er	-4.09444
▁i	-4.12382
▁og	-4.1493
en	-4.15678
r	-4.5433
▁er	-4.58918
n	-4.8091
▁av	-4.83147
et	-4.95349
a	-4.99603
▁en	-5.11382
▁for	-5.13003
▁som	-5.24409
▁til	-5.28997
▁på	-5.34252
▁med	-5.37455
i	-5.39309
d	-5.463
o	-5.48343
▁var	-5.53097
▁de	-5.60423
k	-5.62731
▁den	-5.6781
ene	-5.68504
y	-5.70702
▁fra	-5.7921
ne	-5.79466
▁har	-5.80219
▁ble	-5.84854
te	-5.9045
m	-5.9151
g	-5.93921
▁et	-5.97468
▁det	-5.97744
in	-6.05127
l	-6.09643
de	-6.12024
▁han	-6.19595
h	-6.21568
p	-6.27661
f	-6.28322
▁ved	-6.33014
▁å	-6.33465
▁også	-6.35778
u	-6.35836
c	-6.37228
al	-6.37373
es	-6.37986
v	-6.41386
us	-6.41608
▁a	-6.42539
re	-6.42667
an	-6.43962
▁s	-6.45085
ing	-6.4726
b	-6.48136
▁eller	-6.48179
▁be	-6.49891
▁under	-6.53399
na	-6.55044
le	-6.56686
▁to	-6.59248
▁kan	-6.60587
▁ut	-6.60671
on	-6.64207
z	-6.67014
▁om	-6.68048
▁m	-6.691
▁the	-6.70646
sk	-6.70832
is	-6.72693
▁over	-6.73612
▁etter	-6.73724
▁opp	-6.7782
la	-6.79133
ar	-6.79705
ta	-6.79937
▁inn	-6.81066
▁at	-6.83629
ia	-6.85689
sen	-6.85927
ter	-6.87107
▁f	-6.8868
ma	-6.88952
▁d	-6.90281
▁18	-6.90567
ende	-6.90583
w	-6.92045
um	-6.93199
ur	-6.96113
▁da	-6.96343
▁b	-6.96451
▁p	-6.97753
ke	-6.97997
▁andre	-6.98922
ch	-6.99916
▁g	-7.01147
ck	-7.02485
ri	-7.03415
j	-7.0369
▁la	-7.05833
ka	-7.06257
▁u	-7.06668
or	-7.07134
x	-7.07627
land	-7.0947
il	-7.10141
▁ligger	-7.11228
li	-7.12697
st	-7.13484
▁se	-7.13497
ens	-7.14015
▁tre	-7.1413
▁ha	-7.14422
▁an	-7.14682
é	-7.15755
ler	-7.16512
ra	-7.16633
▁c	-7.17425
el	-7.18024
▁al	-7.19008
▁k	-7.19885
isk	-7.20458
▁mellom	-7.20766
▁mot	-7.21248
▁h	-7.22108
▁sin	-7.22111
tt	-7.22194
▁re	-7.22564
ver	-7.23098
ul	-7.23407
▁men	-7.23829
øy	-7.24914
▁hadde	-7.26618
▁hans	-7.27168
ga	-7.27224
ng	-7.27271
▁blant	-7.27566
▁of	-7.27867
lig	-7.30333
▁man	-7.30382
da	-7.30875
ske	-7.30945
id	-7.31409
mi	-7.31592
▁l	-7.32208
to	-7.32755
▁co	-7.32998
ger	-7.33292
ve	-7.33416
▁seg	-7.33847
▁her	-7.34126
▁v	-7.34128
nes	-7.34156
di	-7.34257
3	-7.34473
be	-7.34735
▁ca	-7.3475
ro	-7.35645
iske	-7.35899
▁di	-7.36839
▁gjennom	-7.37025
▁1	-7.37358
ig	-7.38102
▁in	-7.38369
bo	-7.38582
▁hoved	-7.39
▁n	-7.39933
▁nord	-7.4023
at	-7.40834
as	-7.41937
der	-7.42124
son	-7.42546
ja	-7.42899
▁vi	-7.43255
os	-7.43364
1	-7.43516
▁dette	-7.43638
▁li	-7.44116
▁sa	-7.44836
▁ikke	-7.44975
ge	-7.45271
it	-7.45823
▁17	-7.46196
▁t	-7.46202
▁na	-7.46776
▁født	-7.47028
ut	-7.47382
vi	-7.48431
▁bo	-7.48942
▁ro	-7.49408
4	-7.5077
▁and	-7.5114
nde	-7.51451
▁he	-7.51829
▁kon	-7.52102
▁sammen	-7.52238
den	-7.52666
ed	-7.52916
▁2	-7.53132
vis	-7.53319
▁der	-7.53899
▁j	-7.54102
for	-7.54327
man	-7.54866
▁o	-7.5491
stad	-7.55257
me	-7.55373
ff	-7.5551
▁flere	-7.55616
ner	-7.55758
▁st	-7.56001
kk	-7.56007
▁as	-7.56113
▁hun	-7.56157
ton	-7.56172
ko	-7.56254
▁kinesisk	-7.56575
ry	-7.56807
ning	-7.56986
mann	-7.58368
▁denne	-7.58569
ol	-7.58634
▁16	-7.58829
lo	-7.58878
ba	-7.5888
2	-7.59344
ic	-7.59706
th	-7.59754
▁le	-7.60359
ste	-7.60517
▁5	-7.60723
▁første	-7.61035
ell	-7.61047
▁stor	-7.61227
▁fikk	-7.61619
va	-7.61876
un	-7.6211
▁no	-7.62901
▁pa	-7.63456
ker	-7.6376
dal	-7.64347
ad	-7.64752
▁mar	-7.64961
▁r	-7.65238
▁ho	-7.65691
ha	-7.66289
▁du	-7.6684
ni	-7.67786
si	-7.67844
del	-7.67995
▁jo	-7.68154
berg	-7.68476
gen	-7.6863
▁mo	-7.68992
mo	-7.69817
▁do	-7.7
á	-7.70349
▁ma	-7.70777
▁ti	-7.70945
▁per	-7.70982
▁alle	-7.71053
lige	-7.71149
ling	-7.7137
co	-7.72269
▁sp	-7.72737
▁w	-7.7288
▁sør	-7.72946
ør	-7.73372
ist	-7.73477
▁del	-7.73559
erte	-7.73619
ven	-7.7413
▁blir	-7.74142
ce	-7.74164
▁15	-7.74197
▁lo	-7.74992
am	-7.75103
mp	-7.75195
▁ny	-7.75343
▁3	-7.75429
ø	-7.75769
het	-7.76617
▁tidligere	-7.76664
▁land	-7.7668
▁by	-7.76746
▁ni	-7.76966
ster	-7.77082
by	-7.77318
▁ta	-7.77448
bu	-7.77756
9	-7.78172
ak	-7.78192
å	-7.78195
▁pro	-7.78205
▁bar	-7.78206
▁disse	-7.78426
ment	-7.78669
▁si	-7.78821
▁kommune	-7.78845
je	-7.7895
▁annet	-7.79636
pe	-7.79722
vik	-7.79749
ti	-7.8027
skap	-7.81104
▁me	-7.81388
tal	-7.8194
kt	-7.81989
▁bi	-7.82049
men	-7.82611
7	-7.82648
▁10	-7.82973
ns	-7.83774
▁ra	-7.83848
▁ga	-7.83865
▁sch	-7.83868
▁lu	-7.83926
ca	-7.84436
5	-7.84618
▁4	-7.84624
hu	-7.84887
iv	-7.84923
▁ri	-7.85381
▁su	-7.85671
▁pi	-7.85944
bi	-7.86334
▁ofte	-7.86598
▁samt	-7.86778
mer	-7.87594
▁ka	-7.87706
ov	-7.8799
æ	-7.88069
▁mor	-7.88144
ll	-7.88191
▁so	-7.88234
sh	-7.88291
pp	-7.88676
var	-7.88967
▁fri	-7.89028
▁vest	-7.8911
▁fa	-7.89115
im	-7.89286
▁po	-7.89288
ir	-7.89522
ang	-7.89963
lag	-7.90089
▁el	-7.90125
▁kom	-7.90867
do	-7.91431
io	-7.91456
ian	-7.91686
ly	-7.92034
6	-7.921
ik	-7.92476
erne	-7.92662
▁or	-7.92802
ant	-7.93522
▁kalles	-7.93931
▁mer	-7.94074
tter	-7.95012
▁14	-7.95035
au	-7.95191
▁kalt	-7.95227
▁ad	-7.95347
▁byen	-7.95611
▁finnes	-7.95766
tra	-7.96289
lu	-7.96324
asjon	-7.9633
▁mange	-7.96472
▁ba	-7.96492
om	-7.96602
▁7	-7.96701
else	-7.96823
▁bu	-7.96913
▁ko	-7.96999
▁ei	-7.97253
po	-7.97302
▁bestå	-7.97558
ken	-7.97663
pa	-7.97914
▁ju	-7.98074
ä	-7.98481
ard	-7.98601
▁gu	-7.98714
▁12	-7.9901
go	-7.99062
vin	-7.99303
rett	-7.99323
▁hu	-7.9954
▁død	-7.99854
av	-7.99962
▁tor	-8.00623
▁mens	-8.00635
▁navnet	-8.00733
ok	-8.00934
▁øst	-8.01041
ü	-8.01344
▁norsk	-8.01352
ö	-8.01437
tor	-8.01507
▁ru	-8.01877
▁fi	-8.02
od	-8.02752
▁går	-8.02871
▁far	-8.02876
▁lag	-8.0288
ina	-8.03112
▁pe	-8.03161
▁8	-8.03409
ci	-8.03762
ho	-8.03827
▁sitt	-8.03837
▁kr	-8.03887
ion	-8.04153
▁6	-8.04631
▁ar	-8.04742
▁te	-8.04898
lin	-8.05033
▁år	-8.05033
gg	-8.05077
▁hvor	-8.05201
sel	-8.05652
opp	-8.06134
▁am	-8.06147
len	-8.06451
▁så	-8.06606
op	-8.068
▁sol	-8.06866
▁bak	-8.06952
tre	-8.07098
00	-8.07182
▁nå	-8.07192
gi	-8.07234
▁car	-8.07259
ring	-8.074
▁store	-8.07673
▁z	-8.07802
dd	-8.08007
▁11	-8.08337
hold	-8.08645
▁vann	-8.08697
▁min	-8.08726
no	-8.08831
gu	-8.08838
ie	-8.08902
▁senere	-8.09427
▁mi	-8.09469
▁13	-8.09511
▁y	-8.09654
▁bra	-8.09676
▁hos	-8.09859
ber	-8.10051
pi	-8.10093
▁go	-8.10462
▁skal	-8.10725
sted	-8.10819
▁va	-8.11145
▁9	-8.12192
▁være	-8.12287
▁fu	-8.12739
ær	-8.12878
min	-8.12944
ings	-8.13367
▁russisk	-8.13623
í	-8.1365
▁fire	-8.13948
dre	-8.14117
kke	-8.1412
▁x	-8.14315
▁navn	-8.14523
▁vil	-8.1453
▁par	-8.14641
mb	-8.14764
▁tilhører	-8.1493
▁tri	-8.15553
▁før	-8.16021
itt	-8.16355
▁syn	-8.16407
les	-8.16681
▁ned	-8.16729
▁piny	-8.17368
▁ol	-8.1769
▁største	-8.17807
and	-8.17838
▁sam	-8.17858
sta	-8.18069
over	-8.18103
▁noen	-8.18475
tur	-8.18955
▁fly	-8.19047
▁san	-8.19384
▁mest	-8.19393
▁ver	-8.19411
▁gi	-8.19804
ingen	-8.19942
▁dag	-8.20632
em	-8.20903
▁john	-8.21203
▁tra	-8.21381
▁ab	-8.21418
ow	-8.21571
ag	-8.21799
ung	-8.21883
▁kjent	-8.21962
nd	-8.22111
▁con	-8.22374
▁frem	-8.22524
per	-8.22543
▁ne	-8.229
▁ja	-8.22932
gang	-8.22971
ot	-8.23144
ki	-8.23279
▁både	-8.23641
ering	-8.23718
år	-8.23967
▁tid	-8.24145
▁lever	-8.24341
ou	-8.24924
satt	-8.24969
ede	-8.2574
▁ge	-8.25865
ation	-8.25995
▁kirke	-8.26052
sjon	-8.26273
▁siden	-8.26335
ny	-8.26521
▁nær	-8.2654
ium	-8.26707
stein	-8.26975
▁rundt	-8.27849
ó	-8.28279
und	-8.28383
mar	-8.28484
▁0	-8.29632
▁ski	-8.29764
▁mål	-8.30052
kel	-8.30131
▁folke	-8.30157
kker	-8.30228
hus	-8.30541
vo	-8.30654
▁ch	-8.3098
▁selv	-8.31071
▁kina	-8.31186
▁pre	-8.31411
▁nor	-8.31442
ier	-8.31533
▁lang	-8.31763
▁wi	-8.31968
▁langs	-8.32093
▁små	-8.32156
▁hel	-8.32174
hi	-8.32335
▁op	-8.32841
▁bety	-8.32912
▁sine	-8.33109
ley	-8.33348
fi	-8.3335
sch	-8.33726
tan	-8.3408
elle	-8.34106
▁kar	-8.34107
▁ham	-8.34159
bb	-8.34411
▁film	-8.34418
tar	-8.34605
dag	-8.34933
ong	-8.34995
▁innen	-8.35013
▁ur	-8.35304
idae	-8.35366
ac	-8.35711
▁bro	-8.35858
▁skole	-8.36221
▁ku	-8.3643
▁gir	-8.36444
mon	-8.3647
ft	-8.36639
ans	-8.36883
tte	-8.36992
ord	-8.37029
▁val	-8.37057
sten	-8.37112
du	-8.3719
nder	-8.37331
▁omfatter	-8.37704
verk	-8.37712
▁musikk	-8.37713
▁fo	-8.37738
▁ki	-8.37758
▁lys	-8.37928
▁alt	-8.38338
▁my	-8.38651
bar	-8.3869
▁følgende	-8.38738
▁sk	-8.3878
jo	-8.38867
▁fram	-8.39073
▁laget	-8.39314
til	-8.39427
▁km	-8.39506
▁øy	-8.39689
▁20	-8.39748
mmer	-8.39811
heim	-8.401
▁grunn	-8.4017
▁vant	-8.40187
▁bl	-8.40295
▁pu	-8.40601
sson	-8.40645
о	-8.40826
▁engelsk	-8.40952
▁eks	-8.41097
ikk	-8.41166
▁sand	-8.41964
ju	-8.42138
tu	-8.42464
tisk	-8.42975
rø	-8.43001
he	-8.43024
▁sønn	-8.43195
▁mat	-8.43299
siden	-8.43426
▁all	-8.43442
▁ed	-8.43768
ru	-8.43786
ks	-8.43944
ting	-8.4398
dy	-8.43983
ud	-8.44184
▁norge	-8.44588
ica	-8.44656
▁br	-8.44693
▁art	-8.44873
▁on	-8.44968
ek	-8.44974
▁leder	-8.45318
tak	-8.45648
følge	-8.45734
gre	-8.45739
mme	-8.45808
isme	-8.46069
▁ben	-8.46142
ill	-8.4627
▁gjen	-8.46442
▁berg	-8.46472
▁tro	-8.4662
▁mai	-8.46642
lands	-8.46971
sti	-8.47035
stre	-8.47293
▁fjell	-8.47304
fa	-8.47359
▁cha	-8.47469
sp	-8.47512
yl	-8.47786
familien	-8.48074
mm	-8.48102
▁fem	-8.48201
▁kjente	-8.48429
ologi	-8.48466
▁mars	-8.48508
mor	-8.48567
vel	-8.4884
▁provinsen	-8.49046
dalen	-8.49055
▁hus	-8.49079
art	-8.49176
▁vært	-8.49187
▁roman	-8.49512
▁norske	-8.49889
inn	-8.50263
▁bok	-8.5061
ham	-8.50705
gn	-8.50858
▁familien	-8.50939
ine	-8.51084
▁2002	-8.51136
tro	-8.51341
inger	-8.51369
▁området	-8.5184
▁hav	-8.52042
▁spiller	-8.52045
▁kor	-8.5207
ron	-8.52129
if	-8.52432
▁gul	-8.52475
▁kunst	-8.5259
ius	-8.5267
kon	-8.52673
kan	-8.52702
▁kun	-8.52791
ty	-8.52863
▁wa	-8.53143
stand	-8.53313
▁kommer	-8.53484
▁gift	-8.53556
cu	-8.53684
▁ste	-8.53798
chi	-8.54192
▁kultur	-8.54225
▁hi	-8.54253
▁mel	-8.54402
▁tu	-8.54517
▁mag	-8.54613
е	-8.54731
▁sta	-8.54882
▁brukes	-8.54897
met	-8.55273
▁hele	-8.55363
▁dr	-8.5553
folkerepublikken	-8.55713
za	-8.5588
▁juli	-8.56118
▁kommunen	-8.56138
▁slik	-8.56184
tiske	-8.56717
▁når	-8.56776
▁inneholder	-8.56855
▁stein	-8.56931
▁enn	-8.56991
▁mu	-8.57015
▁sal	-8.57068
tid	-8.57423
и	-8.57625
itet	-8.57716
rik	-8.57727
▁gruppen	-8.57817
▁we	-8.57876
ug	-8.57879
▁bru	-8.57909
van	-8.58028
▁eksempel	-8.58353
▁ty	-8.58374
let	-8.58455
▁bil	-8.5852
▁kong	-8.58601
zi	-8.58678
▁ag	-8.58773
▁nest	-8.59114
▁egen	-8.59127
▁fast	-8.59274
ku	-8.59292
▁jan	-8.59377
▁19	-8.59378
▁bor	-8.59717
ran	-8.59775
▁vel	-8.59888
▁chi	-8.59892
▁ak	-8.60252
▁samme	-8.60394
▁folketelling	-8.60518
▁bare	-8.60566
▁august	-8.60792
yn	-8.61168
▁liv	-8.61258
▁parti	-8.61487
▁pr	-8.61547
▁innenfor	-8.61694
ska	-8.61771
tz	-8.61833
ph	-8.61842
▁em	-8.62057
▁moh	-8.62187
▁oslo	-8.62257
▁mon	-8.6227
bil	-8.62434
ino	-8.62438
▁fag	-8.62515
ze	-8.62733
▁tysk	-8.62851
▁kal	-8.62969
løp	-8.63004
▁må	-8.63064
ya	-8.63268
▁sjø	-8.63488
▁brun	-8.6354
ab	-8.63616
burg	-8.63878
8	-8.6396
ana	-8.63965
▁høy	-8.64347
▁tv	-8.64351
kar	-8.64397
▁new	-8.64414
fly	-8.64426
▁skrev	-8.64555
▁paul	-8.64715
▁gud	-8.64734
▁gikk	-8.64869
ach	-8.64921
▁like	-8.64941
gle	-8.65037
▁midt	-8.65314
veien	-8.65624
▁kunne	-8.65675
▁je	-8.65723
ator	-8.65789
dom	-8.65958
▁ke	-8.66212
▁verk	-8.66261
▁kl	-8.66353
▁van	-8.66571
▁fin	-8.66612
bl	-8.66714
ninger	-8.66716
▁dem	-8.66724
▁rød	-8.66825
bok	-8.67241
pre	-8.67298
▁2006	-8.6732
borg	-8.67339
▁nye	-8.67358
▁von	-8.67365
▁rekke	-8.67488
tel	-8.67527
elig	-8.67616
▁videre	-8.67628
▁pan	-8.67652
han	-8.67683
▁vin	-8.6792
а	-8.67962
▁th	-8.67971
ah	-8.6814
▁kla	-8.68209
▁af	-8.68302
mål	-8.68878
og	-8.68884
▁skog	-8.69072
▁2008	-8.69174
ris	-8.69184
▁rett	-8.69324
▁nu	-8.69336
▁gresk	-8.69474
bro	-8.6955
▁vei	-8.69679
gar	-8.69722
▁com	-8.69748
▁nasjonal	-8.69776
slag	-8.69824
▁grav	-8.69888
▁hal	-8.6998
▁ulike	-8.69984
▁tillegg	-8.70008
▁post	-8.70009
▁hennes	-8.70052
ding	-8.70053
che	-8.70151
▁jord	-8.70197
kor	-8.70274
far	-8.70284
hr	-8.7035
▁god	-8.70467
▁tar	-8.70638
øya	-8.70744
sund	-8.70809
ige	-8.70901
▁kn	-8.70941
▁sig	-8.70978
ble	-8.71009
▁vise	-8.71521
mark	-8.71539
som	-8.71556
▁latin	-8.71622
val	-8.71731
▁bruker	-8.71745
▁fe	-8.71758
▁hol	-8.71762
ight	-8.71816
▁plan	-8.71879
▁bre	-8.71923
est	-8.72087
▁spilte	-8.72124
▁spe	-8.72248
▁skulle	-8.72462
tri	-8.7255
rom	-8.72552
ningen	-8.72697
▁natur	-8.72699
▁gre	-8.72863
ola	-8.72892
▁uten	-8.73033
▁verdens	-8.73035
ari	-8.73123
vei	-8.73271
dyr	-8.73293
ð	-8.73345
▁februar	-8.73345
▁barn	-8.73425
wa	-8.736
▁can	-8.73602
mu	-8.73625
▁tok	-8.73674
res	-8.73721
är	-8.73823
▁mil	-8.73846
▁sc	-8.73918
▁blitt	-8.74142
dan	-8.74145
elsen	-8.74218
▁rom	-8.74411
nings	-8.74488
ale	-8.74627
ep	-8.74637
ita	-8.74669
ført	-8.7479
▁sha	-8.74916
▁bruk	-8.74923
ā	-8.74989
lse	-8.75035
▁skrevet	-8.75115
jer	-8.75177
▁2007	-8.75559
ice	-8.75775
ji	-8.76128
50	-8.76292
bel	-8.76313
▁ul	-8.76766
kom	-8.76955
▁norges	-8.76983
ski	-8.77026
▁gar	-8.77056
ika	-8.77086
▁ren	-8.77239
▁au	-8.77255
▁radio	-8.77291
ap	-8.77741
▁farge	-8.77954
▁rø	-8.78066
tin	-8.7817
▁gull	-8.78329
fra	-8.78365
▁ten	-8.78406
▁hen	-8.78466
▁sy	-8.78557
▁begge	-8.78589
▁bli	-8.78613
spill	-8.78705
▁liste	-8.78707
vet	-8.78754
▁motor	-8.78756
isering	-8.78779
▁peter	-8.78864
▁heter	-8.79071
▁kinas	-8.79122
gel	-8.79232
fon	-8.7966
ay	-8.7967
▁gjern	-8.7989
▁sto	-8.79974
▁derfor	-8.79982
▁halv	-8.80005
▁juni	-8.80128
ære	-8.80131
▁selskapet	-8.8031
har	-8.80526
▁ord	-8.80589
ld	-8.80602
▁tallet	-8.80842
▁meter	-8.80865
▁sh	-8.80902
tes	-8.8092
▁ek	-8.81087
ú	-8.81103
anlegg	-8.81664
▁gamle	-8.81872
lå	-8.81947
▁pol	-8.82002
før	-8.82003
▁anti	-8.82085
▁står	-8.82222
lene	-8.82285
laget	-8.82301
fjorden	-8.82322
▁za	-8.82366
▁hver	-8.82367
ros	-8.82453
gård	-8.82535
▁os	-8.82575
ara	-8.82692
punkt	-8.82694
▁christian	-8.82839
▁form	-8.82923
fe	-8.82957
▁fiske	-8.83104
syk	-8.83267
▁utgitt	-8.83274
▁via	-8.83474
ich	-8.83475
▁you	-8.83553
leg	-8.83644
▁filmen	-8.83712
▁ska	-8.83732
▁seks	-8.83797
▁sommerfugl	-8.83852
my	-8.83854
▁sak	-8.83877
▁christ	-8.84014
▁president	-8.84066
uk	-8.84381
▁lå	-8.84417
▁ser	-8.84502
▁shi	-8.84704
▁ber	-8.84729
form	-8.84833
▁vo	-8.84911
▁bjørn	-8.85074
ida	-8.85117
leder	-8.85169
▁siste	-8.85325
tsj	-8.85363
▁jeg	-8.85454
▁stat	-8.85477
▁000	-8.85531
▁usa	-8.856
▁erik	-8.85678
lan	-8.85698
▁sen	-8.859
rakt	-8.85902
▁2010	-8.85941
▁vol	-8.86059
skog	-8.86109
▁industri	-8.86368
▁cor	-8.86648
par	-8.86683
▁30	-8.86907
▁gjør	-8.86938
▁språk	-8.86941
▁deres	-8.87018
tiden	-8.87262
lia	-8.87313
xi	-8.8732
tion	-8.87386
▁bal	-8.87436
bruk	-8.87471
gh	-8.87871
up	-8.87871
▁sj	-8.87931
▁gra	-8.87934
mat	-8.88071
▁fle	-8.88172
▁red	-8.88208
▁kur	-8.88417
system	-8.88584
▁fred	-8.88763
л	-8.88765
▁bur	-8.8916
log	-8.89294
▁band	-8.89391
q	-8.8948
bra	-8.89501
▁fil	-8.89719
▁tal	-8.89757
è	-8.89845
▁kort	-8.89911
eres	-8.89945
▁noe	-8.90161
▁2009	-8.90264
mus	-8.90344
▁mal	-8.9037
navn	-8.90435
▁vis	-8.90477
sj	-8.9055
▁viktigste	-8.90661
sto	-8.90951
▁imidlertid	-8.90988
jø	-8.91029
gan	-8.91076
samling	-8.9116
hø	-8.91185
▁valg	-8.91348
pro	-8.91413
▁luft	-8.91441
cc	-8.91468
▁ac	-8.91572
oc	-8.91585
▁sv	-8.9172
▁april	-8.91734
▁arm	-8.91756
▁særlig	-8.92157
▁inkluderer	-8.92174
ativ	-8.92186
skole	-8.92186
▁basert	-8.92195
så	-8.92375
▁sø	-8.92407
▁tur	-8.92466
▁barne	-8.92801
▁col	-8.92845
▁2005	-8.92875
▁gro	-8.93218
▁gri	-8.93221
š	-8.93239
senter	-8.93276
▁lav	-8.93334
▁spill	-8.9335
fall	-8.93361
fer	-8.93582
▁foran	-8.93614
▁militær	-8.9362
▁januar	-8.9362
ini	-8.93918
arbeid	-8.94029
▁ang	-8.94104
▁para	-8.94191
pu	-8.94269
▁mis	-8.94299
▁dikt	-8.94321
▁21	-8.94326
ī	-8.94383
▁full	-8.94424
ban	-8.94461
▁robert	-8.94461
▁sang	-8.94467
▁blå	-8.94541
▁ci	-8.9462
ksjon	-8.94774
▁24	-8.94818
▁gen	-8.9509
fri	-8.95146
▁representert	-8.95155
▁samtidig	-8.95156
▁plante	-8.95263
▁ly	-8.9543
▁sett	-8.95471
▁stil	-8.95722
øl	-8.95899
iker	-8.96052
▁lokal	-8.96123
▁innbyggertall	-8.96322
lle	-8.96367
▁ø	-8.96393
sø	-8.96409
▁un	-8.96468
▁hy	-8.96635
▁fransk	-8.96789
▁slekt	-8.96801
▁ex	-8.96819
område	-8.96828
▁kron	-8.96892
hy	-8.96983
▁svær	-8.96985
▁hvit	-8.97073
mel	-8.97104
▁operatør	-8.97109
▁general	-8.97112
▁tilbake	-8.97117
▁xi	-8.97265
nom	-8.9737
▁mark	-8.97413
▁arbeids	-8.97466
▁oktober	-8.97503
istisk	-8.97514
▁25	-8.97551
kle	-8.97645
sjøen	-8.97657
nu	-8.97711
▁ry	-8.97725
▁vanligvis	-8.97936
▁dom	-8.98003
▁dan	-8.98044
værende	-8.98195
▁opprinnelig	-8.98224
ider	-8.98233
▁side	-8.98237
▁les	-8.98253
▁tom	-8.9827
▁gy	-8.98276
▁pen	-8.9831
▁tak	-8.98315
▁datter	-8.98317
▁dermed	-8.98352
▁styre	-8.98454
▁politi	-8.98464
▁forfatter	-8.98491
lot	-8.98577
pper	-8.98577
▁system	-8.98584
port	-8.98631
▁innbyggere	-8.98699
ano	-8.98707
▁2011	-8.98711
▁danne	-8.98805
▁cl	-8.98808
▁ras	-8.98895
▁større	-8.99034
▁mari	-8.99071
▁lin	-8.99121
heten	-8.99123
▁fla	-8.99169
ix	-8.99194
▁forskjellige	-8.99249
▁beste	-8.99253
à	-8.9947
▁sub	-8.99498
▁desember	-8.99504
▁kra	-8.99605
▁tele	-8.99642
▁not	-8.99699
shi	-8.99712
pris	-8.99753
▁data	-8.99762
ps	-8.99863
▁døde	-8.99916
▁deretter	-8.99969
syn	-9.00018
▁martin	-9.00027
forening	-9.00085
▁organ	-9.00123
▁ya	-9.00192
▁tekst	-9.00264
▁kap	-9.00277
▁etablert	-9.00315
lie	-9.00423
▁grad	-9.00554
▁och	-9.00592
isert	-9.00673
fjord	-9.00692
vær	-9.00714
▁inkludert	-9.00723
▁mindre	-9.00801
bre	-9.00817
våg	-9.0087
▁sil	-9.00926
▁svensk	-9.00949
▁lyd	-9.01044
д	-9.01132
anger	-9.01148
pen	-9.01186
ologisk	-9.0131
ij	-9.01421
▁startet	-9.0155
get	-9.01768
▁først	-9.01847
elser	-9.02028
▁dal	-9.02198
▁lands	-9.02235
▁stra	-9.02295
▁lange	-9.02331
▁gammel	-9.02401
lus	-9.02426
▁følger	-9.02441
age	-9.02448
▁fylke	-9.02566
qui	-9.02622
▁distrikt	-9.0264
oli	-9.02746
▁mac	-9.02748
▁november	-9.02789
mannen	-9.02804
▁lind	-9.02853
don	-9.02879
▁johan	-9.02905
ringer	-9.03047
▁kat	-9.03079
sjoner	-9.03204
▁william	-9.03208
lagt	-9.03345
zz	-9.03368
án	-9.03426
▁regn	-9.03548
▁bred	-9.03573
▁sosial	-9.03627
film	-9.0385
▁trans	-9.03898
▁kunstner	-9.03899
dra	-9.03939
30	-9.03974
stasjon	-9.04042
▁tredje	-9.04051
vann	-9.04197
▁bri	-9.04405
▁rock	-9.04483
nor	-9.04575
bert	-9.04584
▁øya	-9.04692
20	-9.04778
▁slutt	-9.05002
byen	-9.05059
▁grå	-9.05085
ction	-9.05089
▁tradisjonell	-9.05146
▁lev	-9.05313
▁1989	-9.05326
▁riks	-9.0534
▁dia	-9.05344
rede	-9.05412
sjef	-9.05494
the	-9.05613
vern	-9.05704
▁ob	-9.05817
▁gal	-9.06081
▁gang	-9.06104
▁kje	-9.06112
cy	-9.06186
sky	-9.06241
landet	-9.06333
banen	-9.06396
▁bergen	-9.06408
▁stats	-9.06412
▁kvinne	-9.06417
▁mas	-9.0642
▁lov	-9.06446
▁eier	-9.06468
ath	-9.06526
40	-9.06637
▁ingen	-9.06641
▁karl	-9.06672
olog	-9.06781
liv	-9.06822
ai	-9.06894
▁sangen	-9.06916
▁medlem	-9.06995
ford	-9.07114
ão	-9.07129
lev	-9.07149
isten	-9.07174
▁west	-9.07313
stoff	-9.07342
▁jon	-9.07473
▁keiser	-9.07496
ula	-9.07537
båt	-9.07574
▁utenfor	-9.07577
ip	-9.07743
we	-9.07773
▁støtte	-9.07783
iet	-9.08016
▁cu	-9.08122
full	-9.08127
▁gla	-9.0814
stan	-9.08191
stru	-9.08248
su	-9.08253
▁fotball	-9.08255
ket	-9.08319
ō	-9.0837
▁bon	-9.08438
øk	-9.08462
▁gran	-9.08558
▁svart	-9.08601
▁pal	-9.0869
elt	-9.08691
▁hånd	-9.08747
vil	-9.08804
▁september	-9.08813
▁tru	-9.08821
tive	-9.08871
gra	-9.08917
ien	-9.08941
ister	-9.08965
råd	-9.08968
▁mos	-9.0898
stilling	-9.09189
▁dyr	-9.09303
pl	-9.09323
▁ph	-9.09367
ving	-9.09367
▁sentral	-9.09461
▁stu	-9.09462
dig	-9.09494
▁don	-9.09495
▁inter	-9.09543
▁ring	-9.09652
navnet	-9.09718
▁helt	-9.09851
bane	-9.09981
▁ball	-9.09987
ther	-9.10138
▁port	-9.10157
▁japansk	-9.10196
▁albumet	-9.10281
lik	-9.10295
▁kyst	-9.10306
kh	-9.10386
▁historie	-9.1045
kin	-9.10507
▁david	-9.10606
nivå	-9.10619
▁mad	-9.1062
gjør	-9.10625
ive	-9.10649
lys	-9.10676
med	-9.10703
▁kamp	-9.10847
▁sel	-9.10915
lekt	-9.1092
que	-9.10941
▁begynte	-9.11055
▁konge	-9.11458
skje	-9.11479
▁26	-9.1152
inne	-9.11551
▁spor	-9.11614
▁air	-9.11681
bø	-9.11739
stykke	-9.11875
ves	-9.11894
α	-9.11966
minister	-9.11972
bin	-9.11982
lighet	-9.12018
▁thor	-9.12064
▁fl	-9.12248
▁dagen	-9.12288
▁22	-9.12293
net	-9.12334
▁nils	-9.12442
▁carl	-9.12467
▁lett	-9.12515
65	-9.1262
sal	-9.12643
ild	-9.12693
las	-9.12732
selskap	-9.1285
br	-9.12865
sjons	-9.12966
▁utgjør	-9.13027
▁james	-9.13031
ani	-9.13182
▁klar	-9.13201
▁dis	-9.13207
▁arten	-9.1322
▁bø	-9.13249
▁ji	-9.13342
▁person	-9.1335
▁thomas	-9.13377
▁egg	-9.13397
▁topp	-9.13408
▁mur	-9.13454
▁finner	-9.13501
▁fal	-9.13566
н	-9.1371
ala	-9.13733
▁eu	-9.13836
▁britisk	-9.13837
▁bas	-9.13854
kul	-9.1389
▁gruppe	-9.1401
▁het	-9.14018
hl	-9.14063
iserte	-9.14095
▁und	-9.14219
tegn	-9.14233
▁fylkesvei	-9.14308
fl	-9.14323
▁russland	-9.14346
▁bandet	-9.14348
aks	-9.14442
rus	-9.14509
▁che	-9.1478
▁pri	-9.14785
▁klubben	-9.14887
tic	-9.15
▁est	-9.15103
▁spilt	-9.15207
gren	-9.15257
ød	-9.15413
▁hovedstad	-9.15567
▁utviklet	-9.15714
▁blod	-9.15812
ella	-9.15883
systemet	-9.16102
▁såkalt	-9.16172
▁minne	-9.16178
cht	-9.16221
hn	-9.16243
▁28	-9.163
▁son	-9.16368
skrift	-9.16371
▁brukt	-9.16418
ish	-9.16497
▁sl	-9.16517
▁skolen	-9.16588
▁studie	-9.16632
78	-9.1665
▁ban	-9.16753
asj	-9.16765
▁wh	-9.16815
ec	-9.16873
▁liten	-9.16927
oll	-9.17016
▁nett	-9.17019
området	-9.1702
▁herre	-9.17042
▁viser	-9.17113
▁flaggbærer	-9.17132
rum	-9.17212
enes	-9.17262
ben	-9.1733
▁elven	-9.17332
▁blad	-9.17456
havet	-9.1759
pningsseremonien	-9.17615
▁litt	-9.17764
klubb	-9.17838
▁gav	-9.17905
▁mus	-9.17911
lis	-9.18024
▁opera	-9.1807
▁sverige	-9.18101
part	-9.18123
р	-9.18148
60	-9.18223
way	-9.18229
huset	-9.18497
▁året	-9.18508
▁bank	-9.18555
kning	-9.18567
▁lille	-9.18647
▁fyr	-9.18652
▁tittelen	-9.18697
▁rev	-9.18728
▁ev	-9.18778
▁sag	-9.18821
jev	-9.18835
▁mod	-9.18884
▁hår	-9.18934
▁slag	-9.18982
▁distriktet	-9.18992
▁fro	-9.19064
▁får	-9.1913
▁res	-9.1916
▁modell	-9.19172
af	-9.1921
føring	-9.19226
▁mann	-9.19252
▁sommer	-9.19269
dals	-9.19301
itz	-9.19304
istiske	-9.19324
▁europa	-9.1935
zo	-9.1942
▁versjon	-9.19499
▁dessut	-9.19574
▁maria	-9.19713
▁spesial	-9.19726
▁ledet	-9.19999
▁hor	-9.20066
plass	-9.20081
▁flo	-9.20117
▁kir	-9.20124
▁super	-9.20196
▁23	-9.20261
bær	-9.20363
▁ør	-9.20377
▁sted	-9.20469
nis	-9.20596
▁bror	-9.20598
kov	-9.20649
▁sn	-9.20722
ald	-9.20844
▁skjer	-9.20873
▁pat	-9.20925
▁helse	-9.21035
arter	-9.21061
▁100	-9.21192
old	-9.21264
▁hjelp	-9.21292
80	-9.21292
▁tidlig	-9.21302
▁landets	-9.2135
▁george	-9.21403
▁pra	-9.21439
▁fer	-9.21476
▁krigs	-9.21489
▁2004	-9.21495
▁serien	-9.21506
▁syd	-9.21572
▁felles	-9.21598
rat	-9.217
ater	-9.21779
10	-9.21976
ky	-9.21984
▁antall	-9.22044
▁olje	-9.22061
kret	-9.2207
ì	-9.22071
▁hovedsakelig	-9.22074
▁energi	-9.22116
▁27	-9.22302
ål	-9.22346
tom	-9.22584
▁arter	-9.22618
bygg	-9.22903
organisasjon	-9.22969
stra	-9.23041
▁stjerne	-9.2317
▁familie	-9.23214
ör	-9.23218
▁tegn	-9.23249
▁fant	-9.23283
▁anders	-9.2346
▁bilde	-9.23522
▁høyeste	-9.23602
illa	-9.23657
alis	-9.23666
farge	-9.23702
▁arabisk	-9.23723
▁georg	-9.23791
are	-9.23932
styre	-9.24039
▁arkitekt	-9.24047
▁åtte	-9.24065
▁omkring	-9.24118
fo	-9.24265
▁ap	-9.24278
▁2000	-9.24347
▁vinter	-9.2438
ming	-9.24583
▁die	-9.2467
bus	-9.24772
▁stemme	-9.24779
ub	-9.24799
▁orden	-9.24805
▁pass	-9.24985
▁wal	-9.25117
▁mc	-9.25253
ata	-9.25539
produksjon	-9.25594
▁sur	-9.25623
qu	-9.2566
zhou	-9.25668
▁igjen	-9.25719
her	-9.2585
side	-9.25851
▁myr	-9.25875
▁q	-9.25917
▁ordet	-9.25919
plan	-9.25928
dor	-9.26004
▁gate	-9.26009
▁kle	-9.26205
▁populær	-9.26277
ansk	-9.26318
▁annen	-9.26412
▁arbeider	-9.26464
evne	-9.2647
▁ant	-9.26496
▁es	-9.26541
▁kol	-9.26646
asjonen	-9.26735
▁yu	-9.26744
▁skuespiller	-9.26774
gge	-9.26849
▁slekten	-9.26932
iti	-9.27052
fin	-9.272
mester	-9.2728
tus	-9.27354
▁ind	-9.27434
▁sky	-9.27449
▁gitar	-9.27515
giv	-9.27579
kter	-9.27585
▁menneske	-9.27623
▁camp	-9.27686
lov	-9.27784
▁hell	-9.27818
▁lei	-9.27999
kje	-9.28047
▁politisk	-9.2814
spiller	-9.28179
у	-9.28339
85	-9.28409
▁kh	-9.28425
▁viktige	-9.28428
rike	-9.28433
▁handels	-9.28443
stu	-9.28575
▁amerikanske	-9.28587
▁len	-9.28591
lsen	-9.28633
grad	-9.28661
▁kilde	-9.28693
formet	-9.28874
▁oppkalt	-9.2888
▁riksvei	-9.28924
▁gje	-9.28976
▁tiden	-9.28988
äl	-9.29027
fyl	-9.29066
▁jernbane	-9.29095
▁grenser	-9.29111
senteret	-9.29123
▁ve	-9.29128
dia	-9.29241
▁sanger	-9.29303
samisk	-9.29304
gruppen	-9.2932
ura	-9.29424
▁administrasjons	-9.29452
▁skr	-9.29455
ance	-9.29594
▁hall	-9.29813
▁student	-9.29839
fu	-9.29887
▁folk	-9.2996
ighet	-9.3005
▁war	-9.3006
▁prest	-9.30078
▁stort	-9.3012
▁bad	-9.30127
▁sir	-9.30234
▁ter	-9.30271
▁hard	-9.30295
bbe	-9.30326
▁universitet	-9.30328
▁kraft	-9.304
voll	-9.30423
▁italiensk	-9.30519
▁ram	-9.30524
klar	-9.30524
▁venstre	-9.30541
vig	-9.30544
▁win	-9.30591
▁internasjonale	-9.30601
ugh	-9.30609
▁bør	-9.30636
mun	-9.30665
▁serie	-9.3072
▁få	-9.30726
wi	-9.3076
▁mont	-9.30773
loven	-9.31275
kamp	-9.31346
▁tyske	-9.31396
▁elv	-9.31476
iz	-9.31486
legg	-9.31579
▁cal	-9.31695
▁søster	-9.31705
▁gjorde	-9.3172
fører	-9.31755
▁finsk	-9.31807
▁lik	-9.31823
▁prosjekt	-9.31842
▁hovedstaden	-9.3197
38	-9.32081
▁fall	-9.32095
▁nok	-9.32113
gj	-9.32128
oni	-9.32133
▁eksempler	-9.32186
▁kristian	-9.3221
▁tilby	-9.32232
▁mottok	-9.32266
tall	-9.32274
▁driver	-9.32276
▁region	-9.32456
stikk	-9.32459
▁40	-9.32579
fag	-9.32656
cia	-9.32718
▁stedet	-9.3272
belteasteroide	-9.32747
▁standard	-9.3275
tti	-9.32766
▁2001	-9.3278
15	-9.32863
▁mm	-9.32917
▁fv	-9.32992
▁vår	-9.33026
skip	-9.33072
▁auto	-9.3312
bygd	-9.33147
felt	-9.33184
▁ville	-9.33277
▁flat	-9.33391
90	-9.33405
▁sul	-9.33414
▁metall	-9.3344
ova	-9.33508
70	-9.33522
rin	-9.33533
▁plass	-9.33582
▁bygget	-9.33584
▁johannes	-9.33635
▁jean	-9.33677
fal	-9.33699
▁hit	-9.33796
mund	-9.33848
stat	-9.3385
95	-9.3393
menn	-9.33934
▁finn	-9.34025
▁sw	-9.34036
ved	-9.34083
ismen	-9.34097
▁mol	-9.34193
▁teater	-9.34197
elva	-9.34248
▁sve	-9.34336
▁sim	-9.34342
▁forut	-9.34351
▁29	-9.34403
▁amerikansk	-9.34459
▁strøm	-9.34469
▁she	-9.34473
▁qu	-9.345
▁park	-9.3451
områder	-9.34517
44	-9.34518
▁spilles	-9.34552
▁partiet	-9.34663
▁just	-9.3482
stilt	-9.34827
ence	-9.34924
▁spesielt	-9.35027
teri	-9.35075
one	-9.35083
▁aktiv	-9.35117
▁india	-9.35138
▁mun	-9.35193
maskin	-9.35225
▁grønn	-9.35236
▁hjem	-9.3525
▁punkt	-9.35318
▁reg	-9.35347
▁cas	-9.35523
ial	-9.35526
of	-9.3553
ū	-9.35595
liggende	-9.35612
gul	-9.35664
▁måtte	-9.35666
ssa	-9.3567
▁design	-9.35703
handler	-9.35712
än	-9.35723
▁overtok	-9.35736
▁50	-9.3575
▁kam	-9.3576
▁cap	-9.35812
▁frank	-9.35847
▁blo	-9.35954
▁kv	-9.36018
▁delstaten	-9.36208
haug	-9.36328
organ	-9.36394
▁besto	-9.36431
low	-9.36552
▁haug	-9.36562
▁ky	-9.3659
ity	-9.36608
sberg	-9.36639
løse	-9.36837
▁för	-9.36897
gitt	-9.36906
▁beskrive	-9.36951
well	-9.36992
æl	-9.37131
cha	-9.37192
16	-9.37343
vit	-9.37345
▁knytte	-9.37365
tikk	-9.37429
▁2003	-9.37434
▁samarbeid	-9.37449
▁løper	-9.37482
▁ana	-9.37523
▁fylkes	-9.37577
kraft	-9.37636
stående	-9.37651
blad	-9.37677
▁tall	-9.37678
gaard	-9.37691
▁mye	-9.37692
▁gil	-9.37731
▁album	-9.37808
kra	-9.37836
band	-9.37879
▁tyskland	-9.3789
ο	-9.37945
48	-9.3799
blomst	-9.38025
▁sund	-9.38026
▁uni	-9.38067
dro	-9.38085
▁arne	-9.38147
▁inte	-9.38214
▁rein	-9.38252
▁samling	-9.38289
gata	-9.38347
lat	-9.38352
▁mik	-9.38367
▁island	-9.38367
▁poly	-9.38433
▁bol	-9.38445
sett	-9.38468
т	-9.38498
▁ger	-9.3852
ν	-9.38546
gard	-9.38591
ón	-9.38608
▁bern	-9.38626
▁styrke	-9.38767
aksjon	-9.38829
▁dam	-9.38884
▁høyre	-9.38892
gin	-9.38902
▁ann	-9.39001
▁dra	-9.39016
ade	-9.39117
▁plat	-9.39124
gor	-9.39179
ras	-9.39246
fat	-9.39343
▁lars	-9.39376
king	-9.39443
trykk	-9.39511
в	-9.39555
▁smal	-9.39618
36	-9.39655
▁elva	-9.39687
▁mak	-9.3973
messig	-9.3978
▁hvert	-9.39842
99	-9.39859
▁knut	-9.39882
с	-9.39898
elli	-9.39903
▁skrift	-9.4006
▁regi	-9.40084
▁reise	-9.4013
tok	-9.4035
▁sten	-9.40472
zy	-9.40731
rud	-9.40777
▁us	-9.40783
▁grand	-9.40888
rich	-9.40912
▁lund	-9.40933
▁lar	-9.4095
▁bel	-9.40951
б	-9.40963
▁national	-9.40965
▁gru	-9.41087
▁anne	-9.41104
▁real	-9.4115
▁hei	-9.41222
▁larvene	-9.41277
lar	-9.41287
▁kirken	-9.41288
ple	-9.41292
ografi	-9.41333
▁world	-9.41577
akademi	-9.41579
jel	-9.41604
▁gass	-9.41697
▁produkt	-9.4173
▁will	-9.41758
▁lær	-9.41841
▁berlin	-9.41958
▁ok	-9.41965
▁museum	-9.42018
merke	-9.42047
▁arn	-9.42059
▁pin	-9.4214
▁bill	-9.422
▁lan	-9.42208
▁2012	-9.42212
▁rot	-9.42217
39	-9.42233
all	-9.42383
mot	-9.42402
▁produsert	-9.42436
▁with	-9.42463
pol	-9.42507
▁merke	-9.42532
sia	-9.42568
bas	-9.42624
▁spansk	-9.42655
▁bygge	-9.42687
▁bir	-9.42692
▁gam	-9.42721
▁marc	-9.42753
▁richard	-9.42816
▁ole	-9.42864
jen	-9.42866
ney	-9.42986
ås	-9.43003
nett	-9.43059
▁mulig	-9.43129
▁venn	-9.43154
▁moderne	-9.43182
rev	-9.43229
▁pla	-9.43241
▁nytt	-9.43285
▁egne	-9.43303
▁års	-9.4343
iller	-9.43431
departementet	-9.4344
▁sølv	-9.43446
▁lufthavn	-9.43449
88	-9.43488
tha	-9.43604
phi	-9.43627
▁betydning	-9.43645
▁utvikling	-9.43649
▁kull	-9.43706
ire	-9.43788
retning	-9.4382
pel	-9.43847
▁vokal	-9.43886
▁én	-9.43919
▁tang	-9.43932
din	-9.4394
▁jern	-9.43945
77	-9.43986
lund	-9.44029
▁michael	-9.44069
▁grunnlagt	-9.44108
▁vanlig	-9.44125
▁pris	-9.44154
86	-9.44163
jan	-9.44218
▁bind	-9.44237
▁trykk	-9.44336
▁eneste	-9.44367
vatnet	-9.44432
▁anna	-9.44463
verket	-9.44468
▁selskap	-9.44474
▁maur	-9.44548
▁godt	-9.44628
bjørn	-9.44643
98	-9.4466
▁redaktør	-9.44675
▁off	-9.44889
▁klasse	-9.44937
▁middel	-9.44983
на	-9.45096
ali	-9.4515
hel	-9.45192
▁utgav	-9.45197
ull	-9.45203
▁forhold	-9.45212
fisk	-9.45257
▁lek	-9.45288
г	-9.45322
▁direkte	-9.45339
▁fr	-9.45352
field	-9.45426
▁ein	-9.45509
wan	-9.45533
▁mø	-9.45696
▁ce	-9.45741
rør	-9.4575
▁fre	-9.45828
76	-9.45909
øyene	-9.45957
utstyr	-9.45999
▁2013	-9.46001
pet	-9.46045
▁black	-9.46066
▁arbeidet	-9.46095
kast	-9.46104
▁gård	-9.4617
ric	-9.46223
▁henrik	-9.46231
plat	-9.46352
▁tap	-9.46359
▁fortsatt	-9.46374
grav	-9.46468
0	-9.46492
▁ep	-9.46496
▁dato	-9.46508
▁nr	-9.46537
ffer	-9.46549
bri	-9.46556
▁vekt	-9.46654
fjell	-9.46656
▁neu	-9.46707
▁ett	-9.46716
bygging	-9.46722
prosess	-9.46812
▁sm	-9.46831
erende	-9.4701
én	-9.47012
kommune	-9.47065
stil	-9.47075
bud	-9.47119
▁nan	-9.47163
68	-9.47173
kur	-9.47196
iner	-9.47229
▁hed	-9.47237
â	-9.47253
▁omtrent	-9.47275
▁1990	-9.473
selskapet	-9.47331
▁medlemmer	-9.47343
▁finland	-9.4744
feld	-9.47525
▁ganger	-9.47551
▁verdi	-9.47586
▁rund	-9.47594
▁cy	-9.4765
97	-9.47687
shan	-9.47723
▁hjemme	-9.47734
▁odd	-9.47844
▁turn	-9.47909
▁london	-9.47929
▁hest	-9.4793
▁privat	-9.47933
aceae	-9.47954
dar	-9.48
dis	-9.48007
▁årene	-9.48021
▁institut	-9.48055
▁veien	-9.48084
▁lege	-9.48127
▁glo	-9.48158
mas	-9.48162
wer	-9.48175
drag	-9.48181
ér	-9.48195
▁180	-9.48221
▁sko	-9.48278
▁drama	-9.48291
▁div	-9.48318
rad	-9.4844
pan	-9.48442
▁type	-9.48446
mes	-9.48447
▁bygd	-9.48534
tis	-9.48558
ι	-9.48586
bibliotek	-9.48586
▁lite	-9.48624
▁tildelt	-9.48662
▁natt	-9.4883
23	-9.48844
lly	-9.48911
ical	-9.49006
ferd	-9.49008
▁viktig	-9.49076
▁are	-9.49085
ille	-9.49101
orm	-9.49229
▁stasjon	-9.49257
▁lø	-9.4928
▁bolig	-9.49308
▁veg	-9.49324
sette	-9.49329
ori	-9.49356
▁gun	-9.49366
к	-9.49411
▁uttrykk	-9.49454
▁nærings	-9.49463
lling	-9.49515
▁jesu	-9.49525
67	-9.49529
▁polsk	-9.49564
▁sau	-9.49614
industri	-9.49743
58	-9.499
magasin	-9.49933
▁egentlig	-9.49946
fot	-9.50073
▁bat	-9.50077
stedet	-9.501
lon	-9.50101
▁bygg	-9.50162
▁cho	-9.50164
47	-9.50169
▁mørk	-9.50201
språk	-9.50248
▁boken	-9.50302
▁larven	-9.50304
▁arbeid	-9.50319
▁ordenen	-9.50335
bor	-9.50418
gro	-9.50425
▁imp	-9.50481
▁løv	-9.50498
▁kjøre	-9.50537
enhet	-9.50548
gli	-9.50552
ringen	-9.50576
gua	-9.50579
▁international	-9.50586
▁old	-9.50602
▁bass	-9.50686
løs	-9.50765
vekst	-9.50817
els	-9.50838
▁ö	-9.50948
▁gitt	-9.50997
▁31	-9.51026
▁char	-9.51068
62	-9.51133
▁alb	-9.5115
▁kongen	-9.51152
pur	-9.51195
▁ze	-9.51207
▁kroppen	-9.51265
▁strand	-9.51291
▁nevnes	-9.51327
hal	-9.51402
▁dyre	-9.51405
▁cam	-9.51454
ria	-9.51465
▁skrive	-9.51472
skapet	-9.51488
▁staten	-9.51538
strøm	-9.51672
▁best	-9.51718
ico	-9.51754
▁wo	-9.51768
tek	-9.51828
▁gren	-9.51894
▁bakvingen	-9.51961
▁lengde	-9.52019
▁dar	-9.52031
▁fleste	-9.52063
35	-9.52081
▁eget	-9.52083
▁time	-9.52141
▁ask	-9.52196
ische	-9.52199
▁zu	-9.52266
fabrikk	-9.52295
▁andreas	-9.52338
midler	-9.52409
▁mill	-9.52441
▁fugle	-9.52565
▁fredrik	-9.52611
tyr	-9.52615
τ	-9.52627
▁munn	-9.52639
▁1996	-9.52641
▁seil	-9.52642
▁1999	-9.52648
▁2014	-9.52649
▁tung	-9.52683
▁brit	-9.52685
yang	-9.52704
▁årlig	-9.52718
sser	-9.52753
▁renner	-9.52794
▁bort	-9.53035
▁harald	-9.53102
▁foss	-9.53163
▁rh	-9.53167
løpet	-9.5317
forbund	-9.53178
rød	-9.53197
▁studert	-9.53339
▁eiendom	-9.53409
foreningen	-9.53411
25	-9.53422
oth	-9.53475
heng	-9.53506
▁sogn	-9.53545
kant	-9.53572
▁wu	-9.53648
▁regionen	-9.53762
bilde	-9.53786
▁kas	-9.53786
los	-9.53848
▁epi	-9.53937
skij	-9.53938
▁aust	-9.53946
▁litteratur	-9.5395
▁angrep	-9.54015
ies	-9.54024
kontor	-9.54035
▁vit	-9.54054
▁informasjon	-9.54069
▁byprefekturet	-9.54093
▁gansk	-9.54097
vare	-9.5411
hall	-9.54197
ulf	-9.5423
ram	-9.544
mod	-9.54548
ima	-9.54572
ette	-9.54614
92	-9.54628
▁kontroll	-9.54692
▁representerer	-9.5471
▁university	-9.54718
▁linje	-9.54732
94	-9.54742
▁hon	-9.5477
cheng	-9.54869
musikk	-9.54937
vinger	-9.55011
dømme	-9.55053
hav	-9.55056
korps	-9.55059
▁salt	-9.55111
fest	-9.55242
▁deler	-9.55306
grense	-9.5531
▁slo	-9.55336
sam	-9.55341
vogn	-9.5536
ç	-9.55414
ín	-9.55422
▁kj	-9.55435
▁funksjon	-9.55443
▁deltok	-9.555
▁sterkt	-9.55567
▁produksjon	-9.55605
▁his	-9.55636
08	-9.55716
rup	-9.55745
flu	-9.55753
snitt	-9.55833
ati	-9.5585
▁tj	-9.55908
▁våpen	-9.5592
▁regnes	-9.55944
skilt	-9.55971
▁moder	-9.56067
▁grunnla	-9.56079
vitenskap	-9.56097
24	-9.56098
▁besøk	-9.56116
ł	-9.56124
й	-9.56124
tårn	-9.56167
can	-9.56173
anske	-9.56178
nummer	-9.56188
▁enkelte	-9.56211
▁transport	-9.56248
▁grev	-9.56264
▁eng	-9.56277
dige	-9.56347
brudd	-9.56377
▁oppført	-9.56388
valg	-9.56406
▁fremst	-9.56415
▁log	-9.56427
lip	-9.56433
syre	-9.56506
▁bla	-9.56564
▁gall	-9.56586
▁innehold	-9.56593
▁forsknings	-9.56651
▁tha	-9.56684
▁kors	-9.56685
kri	-9.56695
ary	-9.56741
▁historisk	-9.5676
hode	-9.56763
▁temp	-9.56771
▁stav	-9.56786
▁råd	-9.568
́	-9.56838
▁steder	-9.56857
gå	-9.56932
bia	-9.56992
▁kraftverk	-9.57015
▁syv	-9.57157
▁inntil	-9.5722
ith	-9.57257
bladet	-9.57273
ifisert	-9.57275
▁laur	-9.57293
▁maskin	-9.57379
disk	-9.57464
skatt	-9.57468
gården	-9.57501
▁flu	-9.5753
▁nar	-9.57547
▁fest	-9.57548
▁forenkle	-9.57586
▁charles	-9.57595
▁wei	-9.57622
able	-9.57639
▁tittel	-9.57643
▁enkelt	-9.57656
yu	-9.57686
▁ungdoms	-9.5769
sport	-9.57765
▁glass	-9.57826
▁nes	-9.5785
hov	-9.57872
▁mørke	-9.58012
▁cro	-9.58109
я	-9.58282
▁tilsvarende	-9.58282
19	-9.58294
▁up	-9.58304
mos	-9.58306
▁fjern	-9.58309
gruppe	-9.58375
abel	-9.58407
ama	-9.58446
▁cell	-9.58506
fang	-9.58518
▁horn	-9.58523
parti	-9.5853
▁sports	-9.58539
delen	-9.586
vold	-9.58645
lei	-9.58653
▁rolle	-9.58713
▁bj	-9.58846
▁hatt	-9.58872
▁that	-9.58885
fond	-9.589
▁totalt	-9.58967
▁kategori	-9.59013
skjold	-9.59013
▁typisk	-9.59017
tun	-9.59022
tidsskrift	-9.59064
▁louis	-9.59075
▁brukte	-9.59081
▁borg	-9.59116
lær	-9.59143
▁hører	-9.5918
san	-9.59251
▁svarte	-9.59354
hjul	-9.59385
▁met	-9.59525
17	-9.59582
▁johann	-9.59697
▁py	-9.59699
▁skje	-9.59718
ān	-9.59724
▁middelsstor	-9.59747
rek	-9.59806
▁resultat	-9.59811
▁dyp	-9.59857
▁bygde	-9.5986
▁eli	-9.59905
▁politiker	-9.59911
fil	-9.5995
con	-9.60014
▁bio	-9.60063
▁holm	-9.60075
11	-9.60137
▁drift	-9.60168
▁virke	-9.60368
▁kri	-9.60442
▁nam	-9.6046
▁israel	-9.60468
▁song	-9.60627
13	-9.6065
▁avdeling	-9.60803
zu	-9.60844
▁dor	-9.6087
▁edderkopp	-9.609
▁lærer	-9.60911
qua	-9.61061
▁cra	-9.61078
▁miljø	-9.61107
arm	-9.61124
▁bay	-9.61136
nik	-9.61169
ström	-9.61235
▁1998	-9.61256
oid	-9.6126
komponist	-9.61269
sang	-9.61282
▁power	-9.61297
▁web	-9.61336
▁forbindelse	-9.61376
ledning	-9.61393
skudd	-9.61793
kirke	-9.61834
▁betegne	-9.61838
dorf	-9.61856
kort	-9.61919
på	-9.61921
linjen	-9.61948
▁komp	-9.61982
č	-9.61986
▁nowiki	-9.61986
teknikk	-9.61989
▁biskop	-9.6199
virkning	-9.62005
hund	-9.62023
▁hjerte	-9.62043
slått	-9.62057
wood	-9.62063
▁unn	-9.62071
bal	-9.62134
▁eg	-9.62189
▁albert	-9.62246
eier	-9.62279
▁may	-9.62292
▁final	-9.62334
▁direktør	-9.62449
▁kul	-9.6246
cell	-9.62476
▁tim	-9.62503
69	-9.62578
hard	-9.62677
alder	-9.62713
win	-9.62793
rådet	-9.62843
▁bærer	-9.62847
▁hud	-9.62906
18	-9.62911
▁rå	-9.62911
ritt	-9.62927
liste	-9.62961
▁svenske	-9.62968
isa	-9.63063
kka	-9.63112
oma	-9.63142
plasser	-9.63205
▁start	-9.63228
▁offisiell	-9.6329
ball	-9.63323
try	-9.63356
▁por	-9.63361
▁hør	-9.63372
▁produserer	-9.63391
▁kjerne	-9.63428
75	-9.63513
▁klima	-9.63532
▁meget	-9.63553
medalje	-9.63587
verdi	-9.63628
ikt	-9.63641
slav	-9.6366
▁vind	-9.63677
▁frukt	-9.63719
▁mid	-9.63776
brun	-9.63817
sis	-9.63918
motor	-9.63995
▁stiftet	-9.64
66	-9.64056
▁blei	-9.64095
▁santa	-9.64144
▁ec	-9.64157
▁hvis	-9.64193
ora	-9.64224
▁perioden	-9.64227
▁sun	-9.64234
▁slike	-9.64239
▁eid	-9.64267
ρ	-9.64276
▁arrangere	-9.64277
▁north	-9.64279
gikk	-9.64288
▁kloster	-9.64327
▁love	-9.64435
▁delta	-9.64458
▁slott	-9.64463
▁petter	-9.64615
▁zo	-9.6467
▁hopp	-9.64682
▁din	-9.64708
lang	-9.64795
holm	-9.64871
▁elve	-9.64881
cher	-9.64981
▁konsert	-9.65129
lapp	-9.65151
▁vanlige	-9.65156
▁dansk	-9.65238
▁jag	-9.65257
spor	-9.65338
▁vinge	-9.65415
▁tema	-9.65429
▁felt	-9.65429
▁steve	-9.65484
▁hul	-9.65632
▁leg	-9.65729
▁vær	-9.65742
▁japan	-9.65799
▁oblast	-9.65844
14	-9.65873
▁jazz	-9.65888
▁60	-9.65952
osa	-9.65977
м	-9.65981
politikk	-9.66011
▁økt	-9.66207
fugl	-9.66214
kjøp	-9.66341
trekk	-9.66356
▁sentrum	-9.66467
▁bach	-9.66504
året	-9.66545
▁ferdig	-9.66548
▁ken	-9.66569
▁høsten	-9.66601
▁nordøst	-9.66681
12	-9.66763
▁eldre	-9.66806
▁holdt	-9.66834
▁tam	-9.66854
bet	-9.66912
▁olav	-9.66923
press	-9.66996
▁sentrale	-9.67027
▁trekk	-9.67032
▁sær	-9.67147
klo	-9.6719
▁euro	-9.6723
▁retts	-9.67237
levende	-9.67253
strand	-9.67302
▁kost	-9.67319
handling	-9.67383
top	-9.67387
▁univers	-9.67391
▁benyttes	-9.67414
▁1991	-9.67414
▁star	-9.67511
▁båt	-9.67524
forbundet	-9.67539
ada	-9.67602
gon	-9.67604
▁hellig	-9.67624
▁symbol	-9.67642
▁il	-9.67678
▁instrument	-9.67705
mand	-9.67718
▁dro	-9.67733
vekt	-9.6775
marked	-9.67761
▁fortsatte	-9.67766
formen	-9.67789
stø	-9.67791
21	-9.67809
▁rei	-9.67857
▁cre	-9.6791
uch	-9.6792
prisen	-9.67923
▁sort	-9.68055
▁vid	-9.6806
shire	-9.68076
▁høyt	-9.68091
ù	-9.68214
▁nærmest	-9.6822
▁mannskapet	-9.68229
▁klo	-9.68283
▁gor	-9.68299
▁enhet	-9.68483
kere	-9.68494
▁dannet	-9.68506
arkiv	-9.68555
fart	-9.68584
▁buss	-9.68659
▁løp	-9.68712
▁opprettet	-9.6872
tog	-9.68777
▁havne	-9.68824
▁los	-9.68847
▁indisk	-9.68908
▁helge	-9.68918
▁makt	-9.68979
ß	-9.68985
▁brenselkilden	-9.6902
▁wilhelm	-9.6902
▁betydelig	-9.69027
▁kjøpte	-9.69028
▁aldri	-9.69046
▁2016	-9.69053
▁2015	-9.69057
▁kommunene	-9.6907
▁markeds	-9.69124
▁70	-9.69148
com	-9.69188
▁produsent	-9.69199
▁hvite	-9.69237
våpen	-9.69253
sjø	-9.69279
det	-9.69309
kong	-9.69314
▁cer	-9.69316
▁musiker	-9.69338
▁daglig	-9.69379
bakken	-9.6939
museum	-9.69392
skolen	-9.69427
▁ud	-9.69585
▁blomster	-9.69657
▁aur	-9.69658
▁meg	-9.6972
▁jens	-9.6973
▁tsj	-9.69746
uf	-9.69775
feltet	-9.69814
32	-9.69854
▁bydistrikt	-9.69874
▁pot	-9.69875
▁kvar	-9.69934
▁ven	-9.69953
bare	-9.69996
▁inf	-9.70037
▁alf	-9.70063
▁union	-9.70129
▁zi	-9.70138
▁regel	-9.70167
▁angel	-9.70351
foss	-9.70373
▁nabo	-9.70492
▁spa	-9.70502
▁foreldre	-9.70656
▁øvre	-9.70666
trop	-9.70673
▁club	-9.70676
istene	-9.707
▁tett	-9.70767
▁personlig	-9.70837
▁king	-9.70914
ppel	-9.70942
formede	-9.70979
▁malt	-9.71
▁max	-9.71013
▁dj	-9.71022
▁klokke	-9.71051
▁utgi	-9.71053
lem	-9.71059
▁figur	-9.71061
▁høyde	-9.71095
arten	-9.71104
▁stan	-9.71132
28	-9.71185
sha	-9.71243
▁comp	-9.71347
▁formel	-9.71353
▁dun	-9.71416
▁att	-9.71428
▁35	-9.71429
▁dokument	-9.71436
soldat	-9.7147
▁eldste	-9.71481
▁yo	-9.71548
▁tw	-9.71561
▁sla	-9.71575
▁finans	-9.71581
ici	-9.71619
▁80	-9.71634
▁front	-9.71668
▁pop	-9.71681
cal	-9.71718
yuan	-9.71808
▁grense	-9.71812
▁typer	-9.71824
plassen	-9.72032
folk	-9.72043
▁sit	-9.7205
▁test	-9.72083
▁bestod	-9.72112
▁adel	-9.72131
▁tjeneste	-9.72142
▁korte	-9.72173
▁marine	-9.72243
▁but	-9.72257
ô	-9.72313
45	-9.7236
løst	-9.72433
bakk	-9.7246
nær	-9.72489
▁landet	-9.72507
▁idretts	-9.72517
park	-9.72585
▁feil	-9.72607
▁с	-9.7261
▁hovedrollene	-9.7265
▁minst	-9.72658
▁åpnet	-9.72662
▁esp	-9.728
▁åpen	-9.72832
kjør	-9.72961
▁monte	-9.7313
▁stockholm	-9.73153
▁1987	-9.73153
▁øverst	-9.73155
▁1994	-9.73176
▁1995	-9.7318
▁1970	-9.73181
▁daniel	-9.73203
øst	-9.73228
▁hem	-9.73247
▁long	-9.73248
▁provins	-9.73286
▁lokale	-9.73322
gående	-9.73364
▁varme	-9.73368
▁løs	-9.73422
virksomhet	-9.73489
bru	-9.735
▁dynastiet	-9.73504
enberg	-9.73506
partiet	-9.73518
▁base	-9.73519
ville	-9.73542
▁ordens	-9.73566
▁leir	-9.73654
▁sju	-9.73804
▁hill	-9.73815
samfunn	-9.7382
▁jacob	-9.7383
basert	-9.73842
▁tilhørt	-9.7393
▁kulturminner	-9.74001
▁bokstav	-9.74003
bryte	-9.74034
▁brann	-9.74066
▁tettsted	-9.74129
▁danse	-9.742
▁pave	-9.74208
▁fot	-9.74225
▁borger	-9.7425
▁stamme	-9.74433
poli	-9.74449
▁maler	-9.74454
▁vent	-9.74489
▁rør	-9.7459
jord	-9.74597
▁danske	-9.74655
områdene	-9.74686
▁produksjons	-9.74763
▁32	-9.74798
▁franske	-9.74814
▁millioner	-9.74856
▁qū	-9.7487
▁utvide	-9.74875
▁betegnelsen	-9.74897
jö	-9.74919
▁wer	-9.75005
▁linjen	-9.75023
ár	-9.75045
▁organisasjonen	-9.75047
▁plate	-9.75048
▁bille	-9.75143
▁skade	-9.75173
▁langt	-9.7518
snegl	-9.75216
ira	-9.75338
▁ye	-9.75428
riket	-9.75467
drift	-9.75593
rop	-9.75669
σ	-9.75717
▁elektrisk	-9.75717
▁beskrev	-9.75718
pass	-9.75783
aria	-9.75822
▁spiss	-9.75831
▁paris	-9.75928
▁økonomisk	-9.75928
fold	-9.75932
▁konkurranse	-9.75975
▁henne	-9.76035
ark	-9.76061
▁kjell	-9.7608
arbeider	-9.76105
▁app	-9.76165
▁150	-9.76258
▁sven	-9.76277
ges	-9.76335
last	-9.76355
bit	-9.76367
merket	-9.76418
▁bøker	-9.76458
▁bomb	-9.76521
▁statsminister	-9.7661
▁indre	-9.76691
▁nasjonalpark	-9.76758
car	-9.76801
▁villa	-9.76848
cent	-9.76883
▁mennesker	-9.76888
etter	-9.76908
mond	-9.7692
endt	-9.76932
klubben	-9.76951
stol	-9.77017
▁buk	-9.77046
anda	-9.77067
ward	-9.77089
jørn	-9.77144
▁qui	-9.77151
▁gården	-9.77196
▁tai	-9.77203
▁uttale	-9.77209
sion	-9.77239
34	-9.77253
▁dog	-9.77256
ique	-9.77363
assi	-9.77393
▁kalte	-9.77419
ios	-9.77446
▁1982	-9.77464
▁klassisk	-9.77468
▁primær	-9.7755
▁hend	-9.77552
▁landbruk	-9.77575
▁sjef	-9.77598
vert	-9.7765
▁high	-9.77724
▁astro	-9.77765
▁lam	-9.77777
▁nasjonale	-9.779
figur	-9.7792
▁hå	-9.77927
skriv	-9.7809
idrett	-9.78178
hof	-9.7821
▁rygg	-9.78215
ping	-9.78225
▁erstattet	-9.78229
96	-9.78297
27	-9.78342
▁benyttet	-9.78349
▁1993	-9.78349
▁joseph	-9.78349
▁xiàn	-9.7836
▁1992	-9.78373
▁prosent	-9.78373
▁class	-9.78382
▁1980	-9.78382
▁vinner	-9.78386
ctor	-9.78445
▁hage	-9.78473
▁video	-9.78507
▁krav	-9.78526
▁skapt	-9.78561
▁phil	-9.78659
pin	-9.78723
sku	-9.78777
▁satt	-9.78778
distrikt	-9.7878
▁møte	-9.78782
▁rang	-9.78797
▁tank	-9.78811
trinn	-9.78816
▁nev	-9.78938
▁kin	-9.78947
▁snø	-9.78952
ado	-9.78987
grupper	-9.78998
▁fulgte	-9.79014
▁rosen	-9.79099
gri	-9.79125
▁flor	-9.79202
▁original	-9.79239
λ	-9.79242
▁magnus	-9.7925
▁danmark	-9.79284
▁franc	-9.79286
▁anlegget	-9.79287
▁gjelder	-9.79297
▁bronse	-9.79304
tsu	-9.79311
▁antenne	-9.79321
lä	-9.7936
▁pap	-9.7936
▁total	-9.79381
▁tilhør	-9.7943
ов	-9.79451
▁bygningen	-9.79463
▁spi	-9.7947
▁problem	-9.79472
rim	-9.795
▁stri	-9.79549
▁forfatteren	-9.79561
▁music	-9.79633
▁od	-9.79653
▁kode	-9.79664
▁æ	-9.79733
historie	-9.79741
▁virksomhet	-9.79784
▁selve	-9.79868
▁program	-9.7988
programmer	-9.79951
medaljen	-9.80038
▁plu	-9.80046
▁trafikk	-9.80108
løft	-9.80134
myndighet	-9.80136
▁øvrig	-9.80143
▁religion	-9.80143
▁school	-9.80144
▁http	-9.80147
▁york	-9.80154
▁tverr	-9.80273
▁henry	-9.80309
▁fått	-9.80311
pek	-9.80313
▁sunn	-9.80379
olo	-9.80405
▁ran	-9.80435
▁heng	-9.80479
▁human	-9.80585
fartøy	-9.80598
▁last	-9.80616
▁fører	-9.8068
▁marie	-9.80862
▁festning	-9.80882
▁thi	-9.80883
ernes	-9.80922
▁gard	-9.80923
▁kardinal	-9.81052
▁dårlig	-9.81057
▁trondheim	-9.81067
▁autonom	-9.81074
▁2017	-9.81081
▁energiselskap	-9.81096
styrt	-9.81102
▁romersk	-9.81131
lum	-9.81206
trær	-9.81272
kirken	-9.81442
ikken	-9.81523
▁effekt	-9.81543
kop	-9.81553
atet	-9.81563
bein	-9.81572
bol	-9.81608
▁personer	-9.81637
▁qi	-9.81638
64	-9.81696
▁verden	-9.81747
onia	-9.8189
▁dø	-9.81895
aktig	-9.81901
п	-9.81921
▁stø	-9.81955
ë	-9.81969
▁tilknyttet	-9.81969
▁ønske	-9.81976
▁middelalder	-9.8198
▁1988	-9.81997
▁solo	-9.82075
▁forsøk	-9.82132
lser	-9.82163
▁chu	-9.82187
▁søk	-9.82273
▁operasjon	-9.82346
▁kanal	-9.82347
▁rik	-9.82352
kamera	-9.82386
▁ris	-9.82413
▁legge	-9.82434
▁sesongen	-9.82469
▁forbi	-9.82469
sats	-9.82493
hor	-9.82554
middel	-9.82558
▁hin	-9.82574
▁krist	-9.82618
▁scene	-9.82638
programmet	-9.82644
▁ube	-9.82773
▁ot	-9.82781
ς	-9.82887
▁ukrainsk	-9.82895
▁sho	-9.82897
løk	-9.82907
eide	-9.82914
▁møtte	-9.82943
▁geo	-9.83068
▁beskytte	-9.83069
▁wen	-9.83093
mper	-9.83098
▁uk	-9.83126
▁lot	-9.83193
▁que	-9.8324
▁frø	-9.83265
▁skips	-9.83271
▁troll	-9.83288
▁krets	-9.83339
▁kval	-9.83394
▁ey	-9.83414
prosjekt	-9.83469
war	-9.83576
fjellet	-9.83634
styrke	-9.83638
dighet	-9.83707
kanalen	-9.83795
▁1984	-9.8383
▁1985	-9.83861
vor	-9.83917
▁spar	-9.84024
▁bit	-9.84157
▁ari	-9.84256
▁beg	-9.84256
▁hum	-9.84284
▁unge	-9.84303
▁forsvars	-9.84312
29	-9.84327
▁åpning	-9.84395
standen	-9.8441
▁adam	-9.8443
▁ref	-9.84439
utvikling	-9.8446
▁simon	-9.84484
▁gutt	-9.84484
▁luc	-9.8452
medlem	-9.84529
▁boy	-9.84576
▁fordi	-9.84651
gue	-9.84668
▁sier	-9.84724
▁jim	-9.84745
▁vitenskapelig	-9.84757
▁egypt	-9.84773
kler	-9.8479
▁alltid	-9.84859
▁sivil	-9.84879
▁rute	-9.84915
▁samle	-9.84953
▁fan	-9.8498
handel	-9.84997
artikler	-9.85001
festivalen	-9.85021
zar	-9.85024
▁kok	-9.85032
▁hva	-9.85036
▁festival	-9.85066
▁anton	-9.85102
byrå	-9.85139
▁artikkel	-9.85152
▁tegnet	-9.85253
▁bord	-9.85273
▁green	-9.85383
▁akt	-9.85418
kraftverk	-9.8542
avdeling	-9.85435
horn	-9.85562
vald	-9.85625
klasse	-9.85724
ε	-9.85726
▁uavhengig	-9.85726
▁fc	-9.85728
▁gunnar	-9.85729
▁organisasjon	-9.85737
▁roll	-9.85775
▁leon	-9.85786
▁utga	-9.85796
▁italia	-9.85848
wald	-9.85901
▁gö	-9.85963
▁ron	-9.85967
aya	-9.86038
▁harry	-9.86049
▁sommeren	-9.86113
▁inge	-9.86123
herre	-9.86124
▁andersen	-9.86165
▁mir	-9.86194
▁hoff	-9.86293
▁stille	-9.86312
▁motstand	-9.86334
вич	-9.86352
▁omtale	-9.86381
kunst	-9.86389
▁interesse	-9.86391
bånd	-9.86427
produkt	-9.86451
tjeneste	-9.86452
37	-9.86564
▁vold	-9.86569
linje	-9.86583
▁ple	-9.86633
▁vill	-9.86661
stripe	-9.86683
▁deriblant	-9.86687
▁alternativ	-9.86687
▁publisert	-9.86687
▁service	-9.86687
▁sørvest	-9.86695
▁frankrike	-9.86704
▁1997	-9.86714
svømme	-9.86718
▁canada	-9.86727
▁smith	-9.86748
▁æres	-9.86776
▁hode	-9.868
▁representant	-9.868
▁gjenopp	-9.86818
▁rep	-9.86822
phy	-9.86935
▁from	-9.86952
stall	-9.86976
▁omfattet	-9.8721
vannet	-9.87215
hei	-9.87218
▁behandling	-9.87267
▁holder	-9.87286
▁shan	-9.87362
kall	-9.87369
vre	-9.87433
▁bud	-9.87504
▁kjemisk	-9.87545
▁vor	-9.87607
ǎ	-9.87658
μ	-9.87658
▁regissert	-9.87659
▁bryst	-9.87663
▁nattfly	-9.87685
▁ordfører	-9.87686
▁stål	-9.87775
▁amt	-9.87858
▁samfunns	-9.87866
▁niels	-9.87886
▁motta	-9.87942
meter	-9.87988
iva	-9.88018
bedrift	-9.8811
▁turist	-9.88225
lingen	-9.88285
▁hodet	-9.88364
▁stig	-9.88368
▁trom	-9.88379
▁karakter	-9.88386
▁160	-9.88427
somme	-9.8856
▁utgivelse	-9.8856
▁cm	-9.88593
ordenen	-9.88614
▁iii	-9.8862
▁digital	-9.88639
▁derimot	-9.8864
oksid	-9.88643
tjenester	-9.88644
▁naturgass	-9.88649
▁stavanger	-9.88657
▁mei	-9.88694
bord	-9.88696
krigen	-9.88776
▁bakke	-9.88787
jon	-9.88912
▁math	-9.88986
litt	-9.89028
▁hj	-9.89083
▁lære	-9.89101
▁krigen	-9.89128
▁fjorden	-9.89182
▁matt	-9.89189
▁teksten	-9.89211
▁retning	-9.89248
▁kommun	-9.8936
dam	-9.89375
▁enten	-9.89378
▁line	-9.89383
produsent	-9.8941
▁rose	-9.89494
kultur	-9.8952
▁kanon	-9.89554
▁fry	-9.8961
▁opprinnelse	-9.89629
▁1983	-9.89629
▁500	-9.8963
▁1975	-9.89652
▁nordvest	-9.89652
havn	-9.89656
formasjon	-9.89661
▁fylket	-9.89776
▁chang	-9.89786
▁utdanning	-9.89837
▁fabrikk	-9.89869
▁multi	-9.8987
▁pala	-9.89913
▁mitt	-9.8992
gram	-9.89968
lich	-9.8997
▁sti	-9.90127
▁kontor	-9.90153
▁orkester	-9.9017
▁forvingen	-9.90184
▁sku	-9.90231
serien	-9.90233
▁176	-9.90366
lö	-9.9039
▁økonomi	-9.90421
▁90	-9.90434
lyn	-9.90441
forbindelse	-9.90443
head	-9.90505
▁tan	-9.90507
▁holde	-9.90512
▁temperatur	-9.9052
▁rob	-9.90608
▁papir	-9.90627
▁1979	-9.90629
▁berømt	-9.90629
▁www	-9.90629
▁forkortet	-9.90635
▁rolf	-9.90635
▁bølge	-9.90658
▁1986	-9.90659
▁spise	-9.90682
▁grov	-9.90682
program	-9.90702
▁kraftig	-9.90708
▁cur	-9.9079
typen	-9.90792
lé	-9.90807
▁bob	-9.90849
▁øyene	-9.90911
komst	-9.90914
▁høyere	-9.90984
snes	-9.9102
▁75	-9.91034
▁mobil	-9.91041
▁fjord	-9.91043
utvikle	-9.9108
folket	-9.91291
prinsipp	-9.91396
▁nrk	-9.91422
▁sykdom	-9.91476
▁bane	-9.91495
lm	-9.91511
▁prof	-9.91596
ć	-9.91639
advokat	-9.91639
▁hotell	-9.91656
▁1976	-9.91668
▁1977	-9.9167
▁omtalt	-9.91684
vurder	-9.9169
▁sørøst	-9.91697
▁kara	-9.91704
▁delt	-9.9172
▁sønnen	-9.91804
▁33	-9.91825
▁otto	-9.91828
▁aktivitet	-9.91861
barn	-9.91955
bygning	-9.91985
▁professor	-9.91995
▁nådd	-9.92015
▁forekommer	-9.92062
▁jack	-9.92099
▁landsbyen	-9.92182
▁200	-9.92192
▁oc	-9.92256
pha	-9.92264
▁ting	-9.92299
▁byer	-9.92375
bad	-9.92392
fre	-9.92406
▁skipet	-9.92459
▁south	-9.92461
▁gau	-9.92502
mont	-9.92598
▁drive	-9.9261
▁sannsynlig	-9.92659
▁hurtig	-9.92661
▁deutsch	-9.92661
utdannet	-9.92664
▁raskt	-9.92669
ander	-9.92694
▁olsen	-9.92743
▁størrelse	-9.92746
strup	-9.92759
▁flagg	-9.92765
analyse	-9.92779
sanger	-9.92797
▁trommer	-9.92806
▁forskning	-9.92831
▁opprinnelige	-9.92851
▁gjort	-9.92874
▁hov	-9.92941
▁rand	-9.92963
▁mikro	-9.93073
▁artister	-9.93081
▁avisen	-9.93125
▁svein	-9.93126
▁utført	-9.93129
▁ung	-9.93183
valget	-9.93217
▁sum	-9.93241
dahl	-9.93289
▁cri	-9.93298
løsning	-9.93331
ån	-9.93366
døgn	-9.93404
▁kvinner	-9.93423
▁drag	-9.93433
▁klubb	-9.93448
▁roger	-9.93461
▁chan	-9.93498
▁kari	-9.93526
▁kalk	-9.93542
▁petr	-9.93559
▁hansen	-9.93619
▁kristen	-9.93625
▁skriver	-9.9365
▁storbritannia	-9.9369
▁påvirke	-9.93691
▁kilometer	-9.93693
▁himmel	-9.93707
line	-9.93709
▁republikken	-9.9372
▁masse	-9.93722
▁profesjonell	-9.93802
▁flyplass	-9.9382
▁ou	-9.93941
▁røde	-9.93977
bygningen	-9.93982
▁fisk	-9.94057
▁45	-9.94064
▁rune	-9.94071
næs	-9.94192
▁pun	-9.94194
▁moren	-9.9424
▁brand	-9.94251
▁prisen	-9.94266
▁single	-9.94298
▁plassert	-9.94326
▁marker	-9.94381
▁gress	-9.94389
lokk	-9.94452
slet	-9.9446
▁kop	-9.94471
▁eva	-9.94471
▁gli	-9.94495
▁fel	-9.94501
▁kai	-9.94512
hallen	-9.94516
▁tradisjon	-9.94549
▁out	-9.94572
mur	-9.94657
ington	-9.9467
▁jam	-9.94686
økonom	-9.94695
▁teknisk	-9.94732
▁dronning	-9.94738
▁referere	-9.94749
▁1968	-9.94761
▁sara	-9.94764
▁svak	-9.94793
sol	-9.94863
▁faren	-9.94888
kilde	-9.94896
jia	-9.94959
▁mah	-9.95028
▁has	-9.9504
▁drev	-9.95243
rick	-9.95367
elv	-9.95375
vision	-9.95389
▁osv	-9.95405
▁coll	-9.95409
olje	-9.9541
▁opphav	-9.95438
▁gå	-9.95554
air	-9.95637
▁områder	-9.95708
slekten	-9.95718
▁rad	-9.95725
▁sar	-9.95774
ē	-9.95784
▁suksess	-9.95787
▁dommer	-9.95789
22	-9.95821
▁mytologi	-9.95823
▁alfred	-9.95854
▁sja	-9.95866
▁flertall	-9.95868
hjem	-9.95878
▁ross	-9.95878
▁universitetet	-9.95895
▁paa	-9.95998
▁einar	-9.96084
vev	-9.96086
▁ledes	-9.96152
▁qua	-9.96168
▁sideelv	-9.96254
▁naturlig	-9.96256
maleri	-9.9631
▁stasjonen	-9.96341
▁sem	-9.96363
▁oversatt	-9.96446
▁wall	-9.96601
▁kjønn	-9.96617
kasse	-9.96642
▁våren	-9.96708
holdning	-9.96779
▁wood	-9.96806
sekretær	-9.96837
▁amerika	-9.96849
▁relativ	-9.96849
▁katolsk	-9.9685
▁group	-9.96891
legger	-9.96916
▁larsen	-9.96944
tempelet	-9.96951
▁grupper	-9.96985
▁ramme	-9.97015
▁kreve	-9.97049
▁kart	-9.97136
▁stammer	-9.97143
▁forsvar	-9.97156
▁skip	-9.97179
slaget	-9.97198
blanding	-9.97253
hon	-9.97326
▁tunnel	-9.97368
▁begrepet	-9.97416
▁aar	-9.975
bekk	-9.97529
▁dager	-9.97648
grunn	-9.97652
stjerne	-9.97662
funksjon	-9.97882
slutning	-9.97949
▁stadion	-9.97966
▁sea	-9.97968
cio	-9.9797
▁vik	-9.97976
▁antonio	-9.97978
▁kristin	-9.97983
▁kraftige	-9.98
▁metode	-9.98068
▁nummer	-9.98093
skyld	-9.98104
▁kryss	-9.98105
skaffe	-9.98269
▁gold	-9.9827
▁selge	-9.98283
▁gis	-9.98343
sig	-9.98527
ст	-9.986
▁prøve	-9.98666
▁bell	-9.98672
planter	-9.98695
▁pad	-9.98718
god	-9.98719
dagen	-9.98744
inae	-9.98787
former	-9.98902
seth	-9.98911
▁aas	-9.98933
з	-9.98993
▁malm	-9.99002
▁jørgen	-9.99011
▁fjerde	-9.99011
▁spesiell	-9.99012
▁jule	-9.99032
▁stopp	-9.99033
▁islam	-9.99034
▁oscar	-9.99036
modell	-9.99076
▁lansert	-9.99091
▁dominere	-9.99114
▁gode	-9.99156
lop	-9.99163
▁oppgave	-9.99187
▁award	-9.9923
▁nova	-9.99247
varer	-9.99279
erud	-9.99327
øvelse	-9.99356
▁følge	-9.99357
skipet	-9.99376
fjellene	-9.99434
▁jarl	-9.99434
▁elev	-9.99453
▁sendt	-9.99468
zj	-9.99486
▁jevn	-9.99493
orden	-9.99495
hai	-9.99495
pra	-9.9951
▁ves	-9.99518
▁delvis	-9.99567
▁fjellet	-9.99581
▁ånd	-9.99923
ledet	-10
▁skul	-10.0006
▁sav	-10.0007
kontroll	-10.0008
institusjon	-10.0011
ě	-10.0011
κ	-10.0011
▁gustav	-10.0011
▁dialekt	-10.0014
▁verne	-10.0016
breen	-10.0022
▁kampen	-10.004
flyttet	-10.0042
tag	-10.0046
▁vokser	-10.0047
▁spp	-10.0055
▁tone	-10.0058
āng	-10.0058
parken	-10.0058
▁dahl	-10.0061
▁42	-10.0061
▁mono	-10.0063
▁az	-10.0065
bank	-10.0068
▁måned	-10.0082
▁tå	-10.0083
▁idrettslag	-10.0084
▁ara	-10.0093
holmen	-10.0097
▁ansvarlig	-10.0101
innen	-10.0101
▁wil	-10.0104
▁graf	-10.011
▁eik	-10.0111
ensis	-10.0112
▁34	-10.0113
▁introduser	-10.0122
▁nedenfor	-10.0123
▁frederik	-10.0123
▁kontakt	-10.0123
▁white	-10.0123
▁dverg	-10.0124
▁melodi	-10.0124
botn	-10.0127
zon	-10.0128
▁likevel	-10.0131
▁hustru	-10.0131
▁familiegruppe	-10.0131
▁portrett	-10.0132
▁innsjøen	-10.0132
onym	-10.0133
▁dys	-10.0134
▁patri	-10.0137
▁piano	-10.0143
▁arve	-10.0144
▁opprør	-10.0144
▁gjennomført	-10.0145
▁høye	-10.0146
▁gjeste	-10.0146
▁ost	-10.0156
▁was	-10.0159
▁underlagt	-10.0163
▁small	-10.0165
▁term	-10.0167
▁menn	-10.0177
dikt	-10.0178
rot	-10.0179
▁ledelse	-10.0179
▁korn	-10.0184
▁bou	-10.0185
awa	-10.0189
▁tran	-10.0193
stasjonen	-10.0196
regionen	-10.0208
▁bonde	-10.0217
▁rike	-10.0221
▁fange	-10.0221
saker	-10.0222
▁slett	-10.0223
▁cd	-10.0226
bell	-10.0233
hunder	-10.0234
ò	-10.0234
▁1973	-10.0234
▁styrmann	-10.0234
▁edward	-10.0237
cle	-10.0239
trafikk	-10.024
▁lengst	-10.0242
hed	-10.0254
hild	-10.0263
▁kim	-10.0265
strid	-10.0267
▁gruve	-10.0269
behandle	-10.0275
▁55	-10.0281
▁ull	-10.0282
▁fol	-10.0284
komite	-10.0284
▁damp	-10.0298
finn	-10.0301
▁sete	-10.0319
▁ledd	-10.0321
▁regional	-10.0328
▁divisjon	-10.0328
▁metal	-10.0329
▁båten	-10.033
▁nedre	-10.0333
▁stad	-10.0338
▁inc	-10.034
friidrettsutøver	-10.0348
▁friedrich	-10.0348
▁københavn	-10.0348
▁avslutte	-10.0348
▁naturreservat	-10.0349
bjørk	-10.0354
▁saint	-10.0357
ania	-10.0359
▁russ	-10.0361
periode	-10.0363
▁oss	-10.0364
▁apo	-10.0364
▁hannen	-10.0369
▁forretnings	-10.037
▁exp	-10.037
▁city	-10.0373
▁tråd	-10.0375
▁trolig	-10.0382
▁gui	-10.0382
▁kjenn	-10.0383
▁qing	-10.0393
▁led	-10.0407
▁foto	-10.0408
myr	-10.0409
▁furu	-10.0409
▁senter	-10.0409
▁skylde	-10.0428
fisker	-10.044
vikler	-10.044
bak	-10.0443
kysten	-10.0453
▁lyn	-10.0459
journal	-10.0461
▁1972	-10.0463
▁benytter	-10.0463
kommando	-10.0465
▁rektor	-10.0467
▁bekrefte	-10.0468
ла	-10.0468
▁stod	-10.047
▁michel	-10.0471
album	-10.0475
▁hvordan	-10.0476
▁sørlig	-10.0489
▁viste	-10.049
▁magnet	-10.0493
▁64	-10.0494
ledende	-10.0498
▁sof	-10.0499
▁tho	-10.0506
▁nettverk	-10.0513
▁krig	-10.0519
▁37	-10.0524
▁nordlige	-10.0529
▁iso	-10.0533
▁heller	-10.0535
▁stol	-10.0536
▁storm	-10.0536
▁wolf	-10.054
▁herman	-10.0546
▁måte	-10.0546
▁tonn	-10.0549
▁jiang	-10.055
▁free	-10.0559
▁europeisk	-10.0563
zhi	-10.0569
26	-10.057
▁bedre	-10.0572
sfjorden	-10.0577
▁forteller	-10.058
kandidat	-10.058
▁college	-10.058
▁journalist	-10.0582
▁mineral	-10.0582
▁1960	-10.0584
▁dør	-10.0585
àn	-10.0588
▁kald	-10.0588
▁verket	-10.0598
▁materiale	-10.0605
aktige	-10.0606
▁kha	-10.0613
▁mala	-10.0613
later	-10.0616
▁this	-10.0619
▁stift	-10.0625
▁tann	-10.0626
sey	-10.0627
spir	-10.0629
mengde	-10.063
▁polar	-10.0632
▁arv	-10.0633
▁shu	-10.0634
▁irsk	-10.064
▁ali	-10.0642
▁fjær	-10.065
▁jakt	-10.0678
▁utføre	-10.0686
▁presse	-10.0691
▁cle	-10.0692
▁blokk	-10.0695
▁kru	-10.0695
arrangement	-10.0697
▁eventyr	-10.0697
▁sykehus	-10.0697
▁tydelig	-10.0697
▁kropps	-10.0698
▁element	-10.0698
▁streng	-10.0698
▁straffe	-10.0705
hånd	-10.0715
▁ekstra	-10.0724
ор	-10.0726
▁metro	-10.0739
opter	-10.0742
▁peder	-10.0742
▁produserte	-10.0743
▁tell	-10.0745
▁sikre	-10.0757
▁arch	-10.0768
▁pont	-10.0775
leir	-10.0787
tallet	-10.0788
▁bevegelse	-10.0789
▁mester	-10.079
graf	-10.0802
versjon	-10.0811
ž	-10.0816
▁prefektur	-10.0816
▁religiøs	-10.0816
▁1971	-10.0816
▁vulkan	-10.0816
frekvens	-10.0816
▁pasient	-10.0816
▁alexander	-10.0816
▁inngår	-10.0816
forskjell	-10.0817
▁1978	-10.0821
▁jordbruk	-10.0822
▁sammenheng	-10.0825
våk	-10.0828
▁east	-10.0831
▁nav	-10.0833
forfatter	-10.0836
forskning	-10.0836
▁oppdrag	-10.0837
ito	-10.0837
▁live	-10.0841
▁kau	-10.0842
aki	-10.0844
▁thu	-10.0845
▁ytre	-10.0848
▁fru	-10.0853
pri	-10.0855
alitet	-10.0862
ograf	-10.0865
▁pil	-10.0868
betegnelse	-10.0871
▁yng	-10.0874
▁jar	-10.0879
gave	-10.0884
▁bydelen	-10.0898
▁hag	-10.0898
▁teori	-10.0913
▁pul	-10.0928
▁medvirke	-10.0937
▁nikola	-10.0937
▁drept	-10.0937
▁für	-10.0937
ва	-10.0938
ovitsj	-10.0938
▁mary	-10.0945
▁ferr	-10.0954
bach	-10.0954
▁opprett	-10.0956
▁teknologi	-10.0959
åsen	-10.096
▁syl	-10.0966
▁morten	-10.0968
▁koloni	-10.0975
psykologi	-10.0977
ч	-10.0979
ux	-10.098
▁400	-10.0983
måte	-10.0983
▁johansen	-10.0984
▁vokste	-10.0985
▁lyst	-10.0986
▁befolkningen	-10.0988
▁komme	-10.0994
▁kapp	-10.0994
▁mini	-10.0995
▁lau	-10.1004
halvøya	-10.1005
▁butikk	-10.1006
skift	-10.101
▁resten	-10.1013
▁åpne	-10.1022
▁busk	-10.1022
▁trak	-10.1024
▁spin	-10.1025
▁play	-10.1032
▁handling	-10.1034
▁regjerings	-10.1039
▁nederlandsk	-10.104
dok	-10.1042
▁seier	-10.1047
ór	-10.1051
▁conc	-10.1053
ь	-10.1057
η	-10.1058
ă	-10.1058
ǔ	-10.1058
▁1974	-10.1058
▁etterhvert	-10.1058
▁sjelden	-10.1058
▁company	-10.1058
▁arthur	-10.1059
▁internett	-10.1062
▁satte	-10.1064
▁sverd	-10.1066
▁scott	-10.1068
møll	-10.1068
▁pedersen	-10.1076
▁fler	-10.1082
▁sukker	-10.1083
miljø	-10.1085
▁asia	-10.1089
▁geir	-10.1091
▁tatt	-10.1096
▁normalt	-10.1097
▁elektro	-10.1113
▁kunnskap	-10.1116
▁brenn	-10.1119
▁torg	-10.1119
▁starter	-10.1124
▁meta	-10.113
▁føl	-10.1131
▁sikte	-10.1132
▁kjempe	-10.1134
eira	-10.1138
▁arc	-10.114
▁normal	-10.1145
tilbud	-10.1146
▁dru	-10.1149
▁hente	-10.115
▁master	-10.1162
▁støttet	-10.1162
▁olavs	-10.1168
▁beijing	-10.1182
undersøkelse	-10.1182
kritiker	-10.1184
▁ishockey	-10.1185
▁slank	-10.1188
▁1950	-10.1189
serie	-10.119
▁kjøl	-10.1199
▁menighet	-10.1199
bevegelsen	-10.1202
▁begrense	-10.1207
▁dekker	-10.1208
▁former	-10.121
forsvar	-10.1212
dannelse	-10.1214
▁bodde	-10.1216
linjer	-10.122
▁tun	-10.1223
▁hunnen	-10.123
▁struktur	-10.1233
▁emil	-10.1235
møte	-10.1235
▁prins	-10.1239
hyll	-10.1241
▁slå	-10.1243
▁varierer	-10.1251
▁syr	-10.126
kjenn	-10.1266
▁stam	-10.127
▁salg	-10.1273
▁lønn	-10.1276
isch	-10.1285
sdatter	-10.1287
bukta	-10.1295
▁valgte	-10.1295
kjønn	-10.1295
▁pur	-10.1297
post	-10.1299
spørsmål	-10.1307
▁1981	-10.1307
▁pseudo	-10.1307
ος	-10.1308
▁adresse	-10.1308
▁mangler	-10.1309
▁sikkerhets	-10.1317
▁beina	-10.1318
▁regjering	-10.1321
mmel	-10.1326
▁produsere	-10.1326
▁offentlige	-10.1329
▁tau	-10.133
▁befolkning	-10.1331
▁hæren	-10.1332
▁fremme	-10.1338
▁england	-10.1344
▁hydro	-10.1345
feng	-10.1349
▁sterke	-10.135
vakt	-10.1351
▁kommunal	-10.136
▁lignende	-10.1366
▁sesong	-10.1368
avtale	-10.1371
▁sankt	-10.1372
▁tø	-10.1381
iserer	-10.1385
▁reform	-10.1386
▁back	-10.1389
▁sider	-10.1397
ligner	-10.1398
▁intern	-10.14
▁grøn	-10.1405
▁bakkroppen	-10.1407
vinner	-10.1409
▁hil	-10.141
▁skinn	-10.1411
▁tog	-10.1413
▁karriere	-10.1415
kus	-10.1421
▁landsby	-10.1422
▁ingeniør	-10.1423
▁120	-10.1423
krig	-10.1423
bind	-10.1427
fugler	-10.1432
▁illustr	-10.1433
▁1963	-10.1433
▁sigurd	-10.1434
▁debutalbum	-10.1434
▁konstant	-10.1434
▁royal	-10.1434
hastighet	-10.1434
▁insekt	-10.1434
▁musikkalbum	-10.1436
▁akk	-10.1436
▁1967	-10.1437
▁nevnt	-10.1438
▁stortings	-10.1443
▁poeng	-10.1444
▁tørr	-10.1444
▁barnehage	-10.1444
▁eids	-10.1445
▁føde	-10.1449
rommet	-10.1456
▁lavere	-10.1457
▁voks	-10.1461
▁brød	-10.1462
nøtt	-10.1463
▁bånd	-10.1468
▁måne	-10.147
teori	-10.1474
roman	-10.1476
domstol	-10.1484
bøker	-10.1485
▁cru	-10.1486
▁ray	-10.1493
forhold	-10.1511
▁dekk	-10.1512
▁museet	-10.1515
▁betydninger	-10.1521
kompani	-10.1533
▁grunnlegger	-10.1534
ер	-10.1535
▁regjeringen	-10.1554
▁sovjetunionen	-10.1562
▁dekkvingene	-10.1562
▁ytterligere	-10.1562
▁alkohol	-10.1562
konstruksjon	-10.1562
▁komponert	-10.1562
▁drammen	-10.1562
▁episode	-10.1562
▁hvilke	-10.1562
▁valuta	-10.1562
▁tegneserie	-10.1562
▁brasil	-10.1565
▁hevde	-10.1568
▁passerer	-10.1569
▁records	-10.1569
visning	-10.1572
blå	-10.1573
▁øke	-10.1574
▁då	-10.1582
▁poet	-10.1583
▁corn	-10.1585
▁persisk	-10.1588
▁frei	-10.1594
▁overfor	-10.1596
materiale	-10.16
▁femte	-10.1602
president	-10.1603
▁stilling	-10.1607
▁areal	-10.1608
▁kaller	-10.1608
▁kyr	-10.1625
▁penge	-10.1625
▁svi	-10.1627
▁rem	-10.1629
▁rek	-10.1629
▁skjær	-10.163
▁internasjonal	-10.163
duk	-10.1639
▁hammer	-10.1639
plikt	-10.164
▁smi	-10.1643
▁iran	-10.1655
ridge	-10.1657
▁present	-10.1657
▁verneområde	-10.1659
rolle	-10.1663
▁bydel	-10.1668
ittisk	-10.167
▁wade	-10.167
▁nø	-10.1672
ruter	-10.1689
▁hai	-10.169
bund	-10.1694
▁1945	-10.1694
▁demningen	-10.17
spreng	-10.1702
▁arkeolog	-10.1705
▁aksje	-10.1706
▁alder	-10.1708
▁reaksjon	-10.1709
fred	-10.1716
▁atom	-10.172
▁kjøpe	-10.172
▁singel	-10.1727
▁filosof	-10.1727
ía	-10.1731
▁tropp	-10.1734
▁innsjø	-10.1736
kron	-10.1737
▁silke	-10.174
▁ekspedisjon	-10.174
lønn	-10.1744
▁markert	-10.1746
vingen	-10.1753
jiang	-10.1764
sentre	-10.1764
▁beat	-10.1765
▁oh	-10.1767
▁henri	-10.177
▁vig	-10.1773
▁historiker	-10.1785
aq	-10.1789
31	-10.179
▁prim	-10.1801
▁ark	-10.1807
staten	-10.181
▁fab	-10.1816
▁gw	-10.1818
spinner	-10.1819
▁begynner	-10.1823
▁1956	-10.1823
▁reference	-10.1823
▁fengsel	-10.1823
▁nicola	-10.1823
▁sekund	-10.1823
▁ridder	-10.1824
▁isbn	-10.1825
mennene	-10.1827
▁ungdom	-10.183
▁roma	-10.1832
▁bunn	-10.1837
▁gott	-10.1839
høgskole	-10.1843
▁01	-10.1843
▁rod	-10.1844
▁lagt	-10.1845
▁170	-10.1845
dommer	-10.1848
▁grønland	-10.1849
▁jensen	-10.1849
▁trond	-10.185
▁ført	-10.1851
▁hö	-10.1854
▁show	-10.1856
▁bygda	-10.1858
kreft	-10.1859
▁drikke	-10.1861
typer	-10.1862
effekt	-10.1869
▁lyng	-10.187
▁strid	-10.1875
▁nordre	-10.1876
▁eie	-10.1878
▁lim	-10.1885
▁viking	-10.1886
▁м	-10.1893
▁utløp	-10.1901
▁kjøtt	-10.1903
▁kreft	-10.191
▁møter	-10.1916
▁kvalitet	-10.1922
▁solgte	-10.1922
toppen	-10.1927
▁debut	-10.193
redning	-10.1932
ро	-10.1932
áng	-10.1942
▁artist	-10.1954
▁afrika	-10.1956
▁australia	-10.1956
▁vingespenn	-10.1956
▁hverandre	-10.1956
▁studio	-10.1957
▁oppdaget	-10.1957
▁1966	-10.196
▁snart	-10.1964
▁center	-10.1967
▁forsker	-10.1977
holt	-10.1985
jå	-10.1986
▁rollen	-10.1989
▁kammer	-10.1992
▁debutert	-10.1993
▁vakt	-10.1995
▁offentlig	-10.1995
▁bære	-10.2002
▁team	-10.2007
▁morgen	-10.2011
▁livet	-10.2013
stille	-10.2017
▁tradisjonel	-10.2019
▁ettersom	-10.2019
▁hval	-10.202
undervisning	-10.2029
brand	-10.2035
forvaltning	-10.205
▁gram	-10.2051
▁dol	-10.2053
▁billed	-10.2053
bygget	-10.2063
▁elever	-10.2081
▁krysser	-10.2083
▁eventuel	-10.2092
▁trøndelag	-10.2092
▁science	-10.2092
▁funnet	-10.2092
▁josef	-10.2092
▁parken	-10.2093
▁1930	-10.2098
hop	-10.2104
▁skå	-10.2106
▁dvs	-10.2108
▁kg	-10.2109
misjon	-10.2109
plattform	-10.2115
▁good	-10.2124
iano	-10.2127
melding	-10.213
lind	-10.2132
▁korea	-10.2133
veps	-10.2135
▁ernst	-10.2141
aux	-10.2141
direktør	-10.2145
▁lunge	-10.2147
språklig	-10.2158
▁server	-10.2159
▁velge	-10.2171
▁rosa	-10.2178
hopp	-10.2179
▁kåre	-10.2195
▁grensen	-10.2205
▁huset	-10.2206
klær	-10.2206
▁raf	-10.2208
▁ild	-10.221
▁samlet	-10.2223
▁nick	-10.2225
søkte	-10.2227
▁bulgarsk	-10.2229
▁kjærlighet	-10.223
▁skape	-10.223
▁к	-10.223
▁skotsk	-10.2232
▁skarp	-10.2233
▁ansvar	-10.2233
▁brygge	-10.2233
▁avhengig	-10.2235
eksamen	-10.2246
▁carlo	-10.2248
▁dyn	-10.2255
rykket	-10.226
rygg	-10.2264
▁medisin	-10.2268
▁bestemt	-10.2271
▁hundre	-10.2275
▁slaget	-10.2282
▁155	-10.2283
chang	-10.2291
museet	-10.2294
▁status	-10.2303
register	-10.2314
spenning	-10.232
▁gaten	-10.2326
▁kry	-10.2327
▁ever	-10.2329
▁historien	-10.2337
institutt	-10.234
▁dobbelt	-10.2349
▁verb	-10.2364
▁noctuidae	-10.2367
▁arrangert	-10.2367
▁hebraisk	-10.2367
▁passasjer	-10.2367
▁inspirert	-10.2367
▁fremdeles	-10.2368
▁invest	-10.2368
▁utnytte	-10.2369
▁myk	-10.2371
bøl	-10.2371
▁bakgrunn	-10.2372
▁1938	-10.2372
jal	-10.2373
▁1940	-10.2373
▁lån	-10.2383
▁legend	-10.2383
▁trener	-10.2394
bøkene	-10.2402
▁hær	-10.2408
▁vokalist	-10.2409
▁kjemi	-10.2412
▁kil	-10.2414
para	-10.2416
▁sæ	-10.2416
▁posisjon	-10.2422
wei	-10.2422
tekst	-10.2438
trå	-10.2441
mä	-10.2441
▁medlemmene	-10.2462
▁amb	-10.2463
▁bang	-10.2467
▁kva	-10.2477
▁xu	-10.2488
demokrat	-10.2489
gått	-10.2494
▁bod	-10.2507
work	-10.2507
▁sistnevnte	-10.2508
▁1959	-10.2508
▁1961	-10.2508
▁objekt	-10.2508
▁82	-10.2508
▁united	-10.2509
ль	-10.251
rettigheter	-10.251
▁sving	-10.251
▁håkon	-10.2512
opplæring	-10.2512
▁josé	-10.2512
▁norrønt	-10.2519
▁snakke	-10.2521
▁vanligste	-10.2522
▁mente	-10.2525
▁filosofi	-10.2526
ship	-10.2526
▁språket	-10.2528
▁hunde	-10.2531
bred	-10.2539
brua	-10.2542
▁offisiel	-10.2549
▁organisert	-10.2552
▁skifte	-10.2559
▁liber	-10.2572
reise	-10.2573
egne	-10.258
isse	-10.2595
▁168	-10.2599
▁dig	-10.26
orkester	-10.26
▁fett	-10.2637
administrasjon	-10.2643
▁periode	-10.2645
▁jin	-10.2648
kjede	-10.2649
▁bispedømme	-10.2651
▁olympisk	-10.2651
▁jakob	-10.2651
▁generelt	-10.2651
vunnet	-10.2652
▁nærmere	-10.2653
▁energy	-10.2653
▁vanskelig	-10.2654
kode	-10.2654
▁1964	-10.2654
▁brown	-10.2654
▁begrep	-10.2656
▁hjerne	-10.266
▁alm	-10.2664
▁franz	-10.2664
setting	-10.2682
▁mach	-10.2685
▁sterk	-10.2689
▁dong	-10.2692
årig	-10.2695
▁internasjonalt	-10.2698
kanten	-10.2709
kjempe	-10.2716
▁fotograf	-10.2719
vatn	-10.272
skjær	-10.2721
spiss	-10.2738
▁big	-10.2742
pati	-10.275
▁gitarist	-10.2752
▁bog	-10.2754
▁hä	-10.276
▁bull	-10.2761
▁egil	-10.2767
▁alv	-10.2767
▁elektron	-10.277
drevet	-10.2778
▁press	-10.278
▁nød	-10.2781
▁tettstedet	-10.2781
▁lill	-10.2785
▁svar	-10.2785
▁dirigent	-10.2796
▁millimeter	-10.2796
▁således	-10.2796
skripsjon	-10.2796
▁kaptein	-10.2796
▁brødrene	-10.2797
▁etterfølger	-10.2797
▁videregående	-10.2799
▁social	-10.2801
▁major	-10.2807
▁luther	-10.2811
▁jud	-10.2812
▁utvikler	-10.2818
▁arkitektur	-10.2823
▁grim	-10.2825
▁house	-10.2826
▁ork	-10.2837
▁samarbeidet	-10.2837
▁skjøn	-10.2841
vang	-10.2843
▁statlig	-10.2849
▁audi	-10.285
▁typen	-10.2858
tveit	-10.2862
▁hypo	-10.2868
tind	-10.2871
▁ulv	-10.2871
▁105	-10.2879
▁palme	-10.2882
hagen	-10.2893
▁snu	-10.2903
▁bau	-10.2905
utøver	-10.2909
▁hou	-10.2912
▁vet	-10.2917
▁wang	-10.2924
icus	-10.293
▁rap	-10.2931
▁vegg	-10.2934
dium	-10.2936
▁slu	-10.2938
▁acc	-10.294
▁fødsel	-10.2943
▁katedral	-10.2943
▁sanskrit	-10.2943
▁1949	-10.2943
▁tyrkisk	-10.2943
territori	-10.2943
▁ødelegge	-10.2943
kapasitet	-10.2943
▁fiolin	-10.2944
blom	-10.2944
▁global	-10.2945
mønster	-10.2946
▁inndelt	-10.2946
▁1928	-10.2946
▁yrkes	-10.2947
masse	-10.2947
▁offiser	-10.295
tolk	-10.2951
▁øker	-10.2952
▁atlant	-10.2952
▁feire	-10.2963
▁hyper	-10.2963
hausen	-10.2972
▁bag	-10.2974
▁town	-10.298
elius	-10.2982
▁fotballklubb	-10.2983
▁agder	-10.2984
▁rio	-10.2994
hol	-10.2995
lette	-10.2996
▁brei	-10.3004
fell	-10.3005
▁great	-10.3006
▁marin	-10.3014
holdsvis	-10.3019
▁vend	-10.3019
amerikanske	-10.3022
tunnel	-10.3022
født	-10.3026
▁river	-10.3038
▁qa	-10.3039
▁skiller	-10.3053
▁lenger	-10.3058
▁bosetning	-10.3064
▁laks	-10.3068
▁nordisk	-10.3079
høyskole	-10.3085
▁gruppa	-10.309
▁etterfulgt	-10.3092
▁shanghai	-10.3092
▁varaordfører	-10.3092
▁tilgjengelig	-10.3092
▁tabellen	-10.3093
▁stortinget	-10.3093
▁betrakte	-10.3093
▁sentralbank	-10.3094
▁anvende	-10.3095
▁1969	-10.3096
▁sverre	-10.3096
▁fokus	-10.3096
terminal	-10.3097
faktor	-10.3097
▁wel	-10.3102
▁uttalt	-10.3104
▁rekord	-10.3104
▁eksistere	-10.3107
▁kvinnelige	-10.3109
lignende	-10.3115
▁87	-10.3122
▁rulle	-10.3131
▁guang	-10.3133
gass	-10.3135
▁jøde	-10.314
leif	-10.3143
▁stadig	-10.3148
ра	-10.315
▁brev	-10.3159
▁jä	-10.3164
gift	-10.3167
▁rub	-10.3167
▁vall	-10.3167
▁chris	-10.318
ordning	-10.3181
▁sovjetisk	-10.3183
teater	-10.3185
inntekt	-10.3193
▁kompleks	-10.3217
▁41	-10.3224
iya	-10.3225
bregne	-10.3226
gall	-10.3229
▁74	-10.3235
ario	-10.3243
▁giovanni	-10.3244
▁innflytelse	-10.3244
▁gabriel	-10.3244
▁skjedde	-10.3244
▁innspilling	-10.3245
▁selvstendig	-10.3245
▁kriminal	-10.3245
▁hjort	-10.3245
▁oversikt	-10.3245
avgift	-10.3246
▁salme	-10.3247
▁unntak	-10.3249
▁netto	-10.3249
▁motiv	-10.3252
▁oversettelse	-10.3253
▁endret	-10.3254
data	-10.3262
▁effektiv	-10.3262
▁nyere	-10.327
iansk	-10.3273
▁bai	-10.3273
▁sveits	-10.3277
▁kjær	-10.3279
▁left	-10.329
legging	-10.3293
▁listen	-10.3294
vá	-10.33
orum	-10.3306
▁score	-10.3326
hjelp	-10.3328
▁175	-10.3336
grå	-10.3338
▁overgang	-10.3343
▁who	-10.3348
ligning	-10.335
▁spenn	-10.3355
bygda	-10.336
▁utover	-10.3365
▁ukjent	-10.3398
▁ungarsk	-10.3398
▁cirka	-10.3398
▁andré	-10.3399
▁tilsvarer	-10.3401
▁komposisjon	-10.3401
apparat	-10.3402
▁pierre	-10.3402
▁1947	-10.3402
▁1965	-10.3404
▁american	-10.3405
▁jackson	-10.3408
▁popul	-10.3412
cula	-10.3414
tjenesten	-10.3416
▁bibel	-10.3419
▁wol	-10.3427
▁ferge	-10.3428
▁emb	-10.3432
ев	-10.3432
▁clo	-10.3434
▁län	-10.3435
▁skjell	-10.3445
▁kast	-10.346
▁grund	-10.3462
▁bom	-10.3476
løv	-10.3481
▁preget	-10.3481
struktur	-10.3489
▁cup	-10.3493
behandling	-10.3503
saken	-10.3506
▁forsvaret	-10.3509
maker	-10.3509
avisen	-10.3512
▁koll	-10.3518
▁liga	-10.352
▁mul	-10.3547
▁mau	-10.3549
▁elisabeth	-10.3554
▁klipp	-10.3555
▁oberst	-10.3556
▁1962	-10.3558
▁lengre	-10.3562
▁1900	-10.3572
▁utvalg	-10.3578
▁german	-10.3579
▁vingene	-10.3579
kommen	-10.358
▁yngre	-10.358
artikkel	-10.3597
▁raj	-10.3601
▁skille	-10.3629
plante	-10.3641
▁hop	-10.3649
posisjon	-10.3652
format	-10.3659
wick	-10.3665
▁irland	-10.3667
▁bö	-10.3674
ен	-10.3674
▁krim	-10.3674
ск	-10.3676
bury	-10.3676
▁maj	-10.3683
▁prakt	-10.3688
▁falk	-10.3694
▁norrøn	-10.3701
ка	-10.3702
støtte	-10.3702
▁høg	-10.3708
▁gjeld	-10.3708
▁sjeldne	-10.3713
▁firmaet	-10.3713
▁1954	-10.3713
▁redusert	-10.3713
familie	-10.3713
▁beregne	-10.3715
▁signal	-10.3716
▁omfattende	-10.3716
▁bevart	-10.3721
▁landskapet	-10.3724
▁detalj	-10.3724
makt	-10.3726
▁verdenskrig	-10.3726
▁43	-10.3735
▁fritt	-10.3736
studier	-10.3737
rekke	-10.3738
rapport	-10.3741
▁life	-10.3753
▁francis	-10.3762
bukk	-10.3764
hā	-10.3771
efinner	-10.3775
▁bytte	-10.3777
▁revolusjon	-10.3791
sending	-10.3797
▁cel	-10.3805
▁sco	-10.3806
ould	-10.3808
▁lj	-10.3813
▁strekk	-10.3814
instrument	-10.3815
▁vestlig	-10.3819
fekt	-10.382
qi	-10.3822
▁wild	-10.3822
▁elektronisk	-10.3831
▁nordland	-10.3833
blikk	-10.3869
type	-10.3873
▁kombinert	-10.3874
▁systematikk	-10.3874
▁fiktiv	-10.3875
▁golf	-10.3875
▁techn	-10.3877
katalog	-10.3877
▁erobre	-10.3877
▁blank	-10.3885
▁46	-10.3889
▁sab	-10.3893
registre	-10.3896
▁ørn	-10.3897
▁smak	-10.3902
▁drei	-10.3911
▁84	-10.3912
▁tynn	-10.3916
strømmen	-10.3919
dømt	-10.3921
distanse	-10.3925
▁rug	-10.3928
▁frp	-10.3941
ruten	-10.3942
▁slave	-10.3942
mesterskapet	-10.3953
▁57	-10.396
▁skall	-10.3973
▁blind	-10.3976
▁ker	-10.3983
▁bredd	-10.3987
▁rag	-10.3987
▁omhandle	-10.399
eppe	-10.3998
▁pic	-10.4001
tagelse	-10.4025
tittel	-10.4028
▁begynnelse	-10.4038
▁symfoni	-10.4038
▁utnevnt	-10.4038
▁1904	-10.4038
▁1957	-10.4038
▁1953	-10.4038
▁skildre	-10.4038
▁geometr	-10.4038
▁redusere	-10.4039
▁forkortelse	-10.4039
▁kveld	-10.4039
▁stefan	-10.404
▁tildeles	-10.4041
flat	-10.4046
▁tilstand	-10.4047
▁stro	-10.4053
▁hersker	-10.4054
▁ltd	-10.4054
▁veldig	-10.4057
▁khan	-10.406
strøk	-10.4063
▁høst	-10.4063
▁alpe	-10.4064
▁nederland	-10.4067
▁fritz	-10.4069
▁vindu	-10.4073
▁voksne	-10.4084
▁betjener	-10.4088
face	-10.4128
burn	-10.4135
▁heid	-10.4143
▁stiv	-10.4149
grønn	-10.415
▁høv	-10.4163
▁kvit	-10.4164
kunstner	-10.4164
▁pira	-10.4198
radio	-10.4199
▁alpin	-10.4201
løytnant	-10.4205
▁administrative	-10.4205
konservativ	-10.4205
▁parallell	-10.4205
▁forårsake	-10.4205
▁jødisk	-10.4205
stråling	-10.4205
▁utenlandsk	-10.4206
▁overflate	-10.4206
▁nepal	-10.4207
ressurs	-10.4207
▁beholdt	-10.4207
stemte	-10.4208
▁håndball	-10.4211
▁viklere	-10.4215
▁utgjorde	-10.4217
fordeling	-10.4219
▁street	-10.4221
setningen	-10.4222
▁filip	-10.4224
time	-10.4233
fysikk	-10.4239
▁walter	-10.4249
▁smerte	-10.4251
▁solgt	-10.4254
▁plast	-10.426
▁tilfelle	-10.4269
▁philip	-10.4271
▁300	-10.4276
gjeng	-10.4278
▁kaffe	-10.4295
▁vass	-10.4302
konkurranse	-10.4323
butikk	-10.4339
lista	-10.4352
pakke	-10.4359
▁tusen	-10.4359
zel	-10.4364
forestilling	-10.4366
republikk	-10.4367
▁tolv	-10.4373
▁psyko	-10.4374
▁1906	-10.4374
▁initiativ	-10.4374
▁skulptur	-10.4374
▁1955	-10.4374
▁skottland	-10.4374
▁identifiser	-10.4374
▁registrert	-10.4374
▁ekstrem	-10.4374
forsikring	-10.4375
kompetanse	-10.4375
▁studioalbum	-10.4375
▁kallenavn	-10.4375
▁generasjon	-10.4376
dyktig	-10.4376
▁stiftelsen	-10.4377
▁programleder	-10.4377
▁tømmer	-10.4377
▁allmenn	-10.4384
▁skytter	-10.4387
kostnad	-10.4389
▁hamburg	-10.4389
▁glu	-10.4392
stemning	-10.44
▁what	-10.4405
▁reserve	-10.4409
▁likhet	-10.4412
▁rab	-10.4413
▁kongelig	-10.4419
▁night	-10.442
▁junior	-10.442
▁kilo	-10.4444
▁tong	-10.4447
asso	-10.4452
▁bidrag	-10.4453
frø	-10.4462
▁preg	-10.4485
▁water	-10.4488
▁østlig	-10.449
▁rau	-10.4493
fatning	-10.4498
arafa	-10.4506
▁medisinsk	-10.4517
▁flø	-10.4518
chel	-10.4528
regiment	-10.4542
▁frankfurt	-10.4546
▁godkjent	-10.4546
▁søndag	-10.4547
▁moskva	-10.4547
▁ekteskap	-10.4547
▁kobber	-10.4547
worth	-10.4548
▁henholdsvis	-10.4548
▁1918	-10.4551
terapi	-10.4552
▁rapporter	-10.4559
▁eksport	-10.456
▁knud	-10.4562
▁fløy	-10.4564
ни	-10.4565
dekket	-10.457
løype	-10.4575
▁thom	-10.4589
▁little	-10.46
▁stabil	-10.4614
▁fyll	-10.4624
ibn	-10.4636
▁munk	-10.4646
▁road	-10.4648
▁herunde	-10.4655
▁baby	-10.4659
▁mega	-10.4665
▁plateselskap	-10.4665
gud	-10.4667
bjørg	-10.4668
problem	-10.4678
▁rav	-10.4679
hår	-10.4696
støl	-10.4699
▁california	-10.4722
▁hovedkvarter	-10.4722
▁society	-10.4722
▁tortricidae	-10.4722
▁fullstendig	-10.4722
▁positiv	-10.4722
pedagog	-10.4722
▁samuel	-10.4724
zhong	-10.4726
▁fotballspiller	-10.4726
▁1958	-10.4727
▁1939	-10.4727
▁mcc	-10.4729
situasjon	-10.4731
▁dokumentar	-10.4731
▁innsats	-10.4743
▁forvalte	-10.4743
tavle	-10.4744
▁ankom	-10.4751
▁heinric	-10.4751
▁kino	-10.4753
▁sound	-10.4756
vík	-10.476
▁110	-10.4764
▁young	-10.4764
ин	-10.4771
▁trekant	-10.4781
feksjon	-10.4782
ddy	-10.4782
▁reich	-10.4794
opera	-10.4797
▁karbon	-10.4814
▁utkom	-10.4819
▁lenge	-10.4824
▁kvin	-10.4826
▁nerve	-10.4842
agno	-10.488
agon	-10.4888
▁eksperiment	-10.4901
▁mexico	-10.4901
▁regissør	-10.4901
▁ukraina	-10.4901
▁edvard	-10.4901
▁doktorgrad	-10.4901
▁ansikt	-10.4902
▁efter	-10.4902
▁1948	-10.4906
strekning	-10.4907
fabrik	-10.4909
▁årsak	-10.4918
wich	-10.4924
styring	-10.4934
stokk	-10.4942
▁vasa	-10.4957
atus	-10.4974
ри	-10.5019
▁hjemmebane	-10.502
▁kw	-10.5022
▁inneha	-10.5026
▁skjel	-10.5027
gjort	-10.5032
dynastiet	-10.5044
utdanning	-10.5044
utvalget	-10.5057
leddet	-10.5075
høyden	-10.508
▁individ	-10.5082
restaurant	-10.5082
▁electric	-10.5082
▁1951	-10.5082
▁petersburg	-10.5083
▁sachsen	-10.5083
flo	-10.5085
▁1925	-10.5087
▁terje	-10.5104
▁prosessen	-10.5105
▁johnny	-10.5111
▁mynt	-10.5113
vall	-10.5117
politisk	-10.5117
▁spring	-10.5118
▁cross	-10.512
sort	-10.5125
▁liberal	-10.5128
▁upp	-10.5142
▁drap	-10.5147
fast	-10.5153
▁kristne	-10.5162
▁takk	-10.5163
▁tykk	-10.517
krem	-10.517
▁mou	-10.5174
bæk	-10.5174
▁messe	-10.5175
▁lou	-10.5182
town	-10.5183
▁musikalsk	-10.5202
▁utenriks	-10.522
aktivitet	-10.5233
frukt	-10.5234
teknologi	-10.5234
▁anerkjent	-10.5268
▁1946	-10.5268
▁public	-10.5268
bataljon	-10.5268
ópolis	-10.5268
▁zhang	-10.5268
▁muslim	-10.5268
▁regulere	-10.5268
konsernet	-10.527
▁gerhard	-10.5271
▁kritikk	-10.5271
▁1937	-10.5271
▁hemmelig	-10.5273
▁tempel	-10.5275
▁1920	-10.5276
▁micro	-10.5277
▁erklært	-10.5279
▁fremført	-10.5284
finalen	-10.5291
▁hvile	-10.5298
▁tekstil	-10.5309
▁tilpasse	-10.5312
▁panser	-10.5314
blomsterflue	-10.5321
▁aksel	-10.5322
▁grunnlegge	-10.5325
▁forvaltnings	-10.5326
▁kunstig	-10.5328
▁oval	-10.5337
mission	-10.5343
▁book	-10.5347
politi	-10.5348
ordnet	-10.5357
▁teolog	-10.5359
▁hong	-10.5385
▁bidra	-10.5401
nevner	-10.5406
▁victor	-10.5407
aften	-10.5408
▁ytter	-10.5429
stått	-10.5446
gjorde	-10.5452
▁bestemme	-10.5454
▁aleksandr	-10.5456
▁færøyene	-10.5456
▁kollektiv	-10.5456
▁anbefal	-10.5456
▁installert	-10.5456
▁konsept	-10.5456
▁automatisk	-10.5456
▁referanse	-10.5456
▁terreng	-10.5456
▁minutter	-10.5456
▁people	-10.5456
▁utmerkelse	-10.5456
▁østerrike	-10.5456
▁church	-10.5457
brønn	-10.5457
▁alvorlig	-10.5457
▁axel	-10.5458
▁1919	-10.5461
▁1924	-10.5461
▁turbin	-10.5463
▁signert	-10.5464
▁stryk	-10.5464
▁sammenligne	-10.5467
▁hindi	-10.5471
▁diesel	-10.5473
▁rednings	-10.5475
▁down	-10.5478
▁nettsted	-10.5481
▁forsterke	-10.5484
▁forbunds	-10.5488
▁operere	-10.5494
▁jacobsen	-10.5495
▁feder	-10.5519
følelse	-10.5532
▁utøve	-10.5541
▁geit	-10.5547
▁datterselskap	-10.5589
▁dukke	-10.5602
beskrivelse	-10.5621
transport	-10.5622
design	-10.5622
▁supp	-10.5624
hest	-10.5628
front	-10.5628
▁publikum	-10.5648
▁washington	-10.5648
▁1905	-10.5648
▁hovedperson	-10.5649
▁århundre	-10.5649
▁opplysning	-10.5649
▁fysisk	-10.5649
▁forbedre	-10.5649
▁hertug	-10.565
▁angripe	-10.565
▁1932	-10.5653
▁telemark	-10.5657
▁spania	-10.5657
▁diplomat	-10.566
▁høyesterett	-10.5661
provinshovedstad	-10.5665
sykdommer	-10.5682
▁jonas	-10.5696
▁hilde	-10.5709
▁musik	-10.5726
▁praktisk	-10.5752
børste	-10.5788
▁orient	-10.5807
samband	-10.5818
representant	-10.5821
▁demokratisk	-10.5828
sikkerhet	-10.5831
▁pip	-10.5833
▁radi	-10.584
turnering	-10.5843
▁windows	-10.5845
▁konkurrere	-10.5845
▁undergrunnsbane	-10.5845
▁innebærer	-10.5845
▁pradesh	-10.5845
▁geografisk	-10.5845
▁negativ	-10.5845
▁adolf	-10.5845
▁sykkel	-10.5845
sekvens	-10.5845
▁krystall	-10.5846
▁separat	-10.5846
komité	-10.5846
▁1926	-10.5848
▁definere	-10.5848
▁oppnådd	-10.5849
▁klage	-10.5849
▁1921	-10.5849
▁1908	-10.585
▁donald	-10.585
▁møller	-10.5851
▁francesc	-10.5851
▁1910	-10.5852
▁meyer	-10.5855
▁norway	-10.5855
▁bernard	-10.5857
▁røyk	-10.5858
▁bidro	-10.5859
▁bakterie	-10.5861
bestemmelse	-10.5871
▁erstatte	-10.59
ма	-10.5901
▁visse	-10.5902
▁krok	-10.5906
verktøy	-10.5906
▁disc	-10.5925
utstillingen	-10.5928
nesisk	-10.594
forsyning	-10.5962
▁600	-10.5973
fløyte	-10.5983
▁800	-10.5988
lengde	-10.5996
▁erkebiskop	-10.6045
▁norwegian	-10.6045
▁manuskript	-10.6045
▁utgangspunkt	-10.6045
▁central	-10.6045
▁fortsetter	-10.6045
▁nedbør	-10.6045
▁væske	-10.6045
▁thailand	-10.6045
▁nemlig	-10.6045
▁belgia	-10.6045
▁kristiansand	-10.6045
▁drømme	-10.6046
▁arab	-10.6046
▁seinere	-10.6046
▁1929	-10.6049
▁disney	-10.605
stigning	-10.605
▁bygninger	-10.6052
liknende	-10.6056
▁hytte	-10.6058
▁biografi	-10.6059
▁puppe	-10.606
▁fredrikstad	-10.606
▁plassering	-10.6063
▁utdannelse	-10.6067
tjern	-10.6069
▁rask	-10.607
▁orgel	-10.607
▁canadi	-10.6075
grunnlaget	-10.6078
▁karakteristisk	-10.6089
▁spesifik	-10.6091
▁turbo	-10.6092
▁heart	-10.6094
▁nevro	-10.6103
▁victoria	-10.6111
▁virkelig	-10.6126
▁mulighet	-10.6146
▁støv	-10.6154
▁fair	-10.616
▁place	-10.6162
▁hovedrollen	-10.6166
▁1000	-10.6174
view	-10.6179
statue	-10.6189
kjøring	-10.6191
wall	-10.6223
▁kath	-10.6223
resultat	-10.6231
medisin	-10.6234
konsert	-10.6243
▁association	-10.6249
▁infanteri	-10.6249
▁vladimir	-10.6249
▁australsk	-10.6249
▁innbyggerne	-10.6249
▁1941	-10.6249
▁natrium	-10.6249
vassdraget	-10.6249
▁fattig	-10.6249
▁dollar	-10.625
▁fuktig	-10.625
▁flykte	-10.6254
▁text	-10.6254
järvi	-10.6255
▁landsforening	-10.6256
▁bensin	-10.6258
▁09	-10.6261
▁bønn	-10.6262
▁trygg	-10.6264
▁smør	-10.6265
▁bridge	-10.6266
▁bygnings	-10.6273
owski	-10.6275
▁ungdomsskole	-10.6276
▁utenom	-10.6279
▁barokk	-10.6285
▁strategi	-10.6286
▁flyge	-10.6299
▁humor	-10.6301
▁skru	-10.6303
▁henning	-10.6304
▁1500	-10.6306
▁variert	-10.6333
та	-10.6343
▁musikal	-10.6352
korset	-10.6369
ytelse	-10.6375
siktig	-10.6376
▁forskjellig	-10.6381
▁agent	-10.6392
rensning	-10.6397
arkitekt	-10.6447
kommunikasjon	-10.6447
malt	-10.6456
▁corporation	-10.6457
▁orchestra	-10.6457
▁vedlikehold	-10.6457
▁opplagstall	-10.6457
▁østerriksk	-10.6457
▁aksept	-10.6457
▁nødvendig	-10.6457
grunnsstasjon	-10.6457
▁evangeli	-10.6457
betennelse	-10.6457
▁oppstår	-10.6457
elefant	-10.6457
▁spredt	-10.6457
▁sosialdemokrat	-10.6459
▁1931	-10.646
▁novell	-10.6461
▁1927	-10.6462
▁1917	-10.6462
▁søndr	-10.6463
▁viktor	-10.6467
vandring	-10.6469
▁luci	-10.647
▁undervisnings	-10.6471
▁bjerk	-10.6475
▁variere	-10.648
▁sammenlagt	-10.6485
▁nedover	-10.6492
▁06	-10.6514
▁øks	-10.6529
komedie	-10.6558
▁material	-10.656
▁vekk	-10.6563
▁philipp	-10.6589
▁flåte	-10.659
klub	-10.6597
▁avvist	-10.6618
▁administrerend	-10.6637
yama	-10.6664
▁forøvrig	-10.667
▁portugisisk	-10.667
▁trygve	-10.667
▁beslektet	-10.667
▁kombinasjon	-10.667
▁nøyaktig	-10.667
▁byfylke	-10.667
▁utbredt	-10.667
▁utseende	-10.667
▁sprint	-10.6671
▁protein	-10.6672
rådgiver	-10.6672
alfabet	-10.6673
▁opptrer	-10.6673
▁hendelsen	-10.6675
▁1912	-10.6675
▁1914	-10.6675
▁strekningen	-10.6676
▁1936	-10.6676
stipend	-10.6679
▁tromsø	-10.668
▁pistol	-10.668
▁lokalisert	-10.6681
settelse	-10.6681
kjøl	-10.6684
▁ytterkant	-10.6684
bebyggelse	-10.6689
▁1896	-10.6694
▁kniv	-10.6709
▁østover	-10.6711
▁krog	-10.6718
▁deltaker	-10.6719
▁varemerke	-10.6723
drive	-10.6724
▁domini	-10.6736
▁irak	-10.6741
▁lomme	-10.6746
▁motsetning	-10.6747
▁sovjet	-10.6756
smykke	-10.6757
▁etnisk	-10.6788
во	-10.6829
▁sveitsisk	-10.684
▁regjer	-10.6869
vokst	-10.6881
hockey	-10.6882
▁vietnam	-10.6887
▁research	-10.6887
▁svalbard	-10.6887
▁trommeslager	-10.6887
▁absolut	-10.6887
▁ferskvann	-10.6887
▁argument	-10.6887
▁pakistan	-10.6887
▁1952	-10.6887
▁1933	-10.6887
▁pattedyr	-10.6887
▁foregår	-10.6887
▁gustaf	-10.6887
▁tolkien	-10.6887
▁gælisk	-10.6887
▁grün	-10.6887
▁reklame	-10.6887
▁embeds	-10.6887
▁cappelen	-10.6888
▁nominert	-10.6888
▁margaret	-10.6888
▁ragnar	-10.6888
▁senior	-10.6888
mesterskap	-10.6889
▁flytende	-10.689
skyting	-10.689
▁linux	-10.689
▁krevd	-10.689
▁nyhets	-10.6891
▁næringsliv	-10.6891
▁koreansk	-10.6893
▁francisco	-10.6893
▁styreleder	-10.6895
▁bedrifter	-10.6896
▁vestfold	-10.6897
▁kritiser	-10.6899
▁tjener	-10.6904
▁asbjørn	-10.6908
▁eugen	-10.692
▁elias	-10.6936
brems	-10.6963
▁frå	-10.6998
▁bassist	-10.6999
basseng	-10.7009
gudinnen	-10.701
gruppa	-10.7063
▁terror	-10.7069
▁arrangør	-10.7109
▁involvert	-10.7109
▁molekyl	-10.7109
▁oppmerksomhet	-10.7109
▁tsjekkisk	-10.7109
▁1907	-10.7109
▁rudolf	-10.7109
▁european	-10.7109
▁asteroide	-10.7109
▁tvilling	-10.711
▁kommentar	-10.711
▁risiko	-10.711
▁support	-10.711
▁originaltittel	-10.711
▁definert	-10.711
regulering	-10.711
▁brigade	-10.711
▁belgisk	-10.7111
▁partner	-10.7112
▁import	-10.7113
▁embets	-10.7114
▁inndeling	-10.7115
га	-10.7115
▁finnmark	-10.7116
▁armensk	-10.7117
▁gratis	-10.7118
▁hydrogen	-10.7119
▁tommy	-10.7119
▁kommunikasjons	-10.712
▁nevø	-10.7121
dimensjon	-10.7121
▁harmoni	-10.7122
sentral	-10.7122
▁nedlagt	-10.7127
▁bedriften	-10.7127
vitenskapelig	-10.7128
mouth	-10.7139
utstillinger	-10.714
bunn	-10.714
▁lykke	-10.7141
▁söd	-10.7141
vesenet	-10.7142
▁grunnlov	-10.7171
redskap	-10.7191
festival	-10.7207
▁fremstille	-10.7208
kledt	-10.7225
▁brent	-10.7226
▁etasje	-10.7233
amba	-10.7269
▁størst	-10.728
svarte	-10.7308
▁barcelona	-10.7337
▁konflikt	-10.7337
▁litauisk	-10.7337
▁umiddelbar	-10.7337
▁oppdatert	-10.7337
▁abraham	-10.7337
▁rekrutt	-10.7337
▁nøkkel	-10.7337
▁kombinere	-10.7337
▁serbisk	-10.7337
▁utdype	-10.7337
▁patriark	-10.7338
▁elleve	-10.7339
betjent	-10.734
▁gråbrun	-10.734
materiell	-10.7341
▁debatt	-10.7341
▁1911	-10.7343
palasset	-10.7343
overflaten	-10.7344
▁protest	-10.7344
▁vannkraftverk	-10.7344
▁bodø	-10.7345
redaktør	-10.7346
offiser	-10.7346
▁wilson	-10.7351
▁muskel	-10.7354
knapp	-10.7356
ière	-10.7359
▁lisens	-10.7369
▁talent	-10.737
svermer	-10.7372
høyde	-10.738
schaft	-10.7384
▁ytterst	-10.7421
▁hjemmeside	-10.7424
▁imperi	-10.744
▁verdensmester	-10.7461
▁styrte	-10.7498
brakte	-10.7508
▁flyselskap	-10.7535
cture	-10.7561
▁douglas	-10.7569
▁forkroppen	-10.7569
▁færøysk	-10.7569
▁ortodoks	-10.7569
▁country	-10.7569
▁1901	-10.7569
▁jacque	-10.7569
▁kjennetegne	-10.7569
▁vesentlig	-10.7569
▁kenneth	-10.7569
▁svovel	-10.7569
▁fjernsyns	-10.7569
▁fantasy	-10.7569
▁alexandr	-10.757
▁diverse	-10.757
▁finskspråklig	-10.7571
mekanisme	-10.7571
▁centre	-10.7573
▁clark	-10.7574
▁1934	-10.7574
▁tilhenger	-10.7575
▁igjennom	-10.7575
▁monark	-10.7576
▁programvare	-10.7577
▁avlange	-10.7577
▁betong	-10.7578
▁stadium	-10.758
▁komplett	-10.7582
▁style	-10.7583
papir	-10.7585
hytta	-10.7588
▁alex	-10.7591
musiker	-10.7594
▁kvant	-10.7602
▁høi	-10.7602
▁manuel	-10.7604
▁ballett	-10.7605
▁administrere	-10.7605
▁alpinist	-10.7614
nettverk	-10.7646
▁låten	-10.7653
mottaker	-10.7678
▁athen	-10.7698
abilitet	-10.7737
ifikasjon	-10.7752
▁first	-10.7772
▁elizabeth	-10.7807
▁jerusalem	-10.7807
▁maksimal	-10.7807
▁mekaniske	-10.7807
▁kontinent	-10.7807
▁skihopper	-10.7807
▁kvadrat	-10.7808
▁network	-10.7808
ensemble	-10.7808
▁bløt	-10.7808
▁akutt	-10.781
▁generalsekretær	-10.781
▁arendal	-10.781
▁dream	-10.7811
▁litterær	-10.7811
▁1935	-10.7814
▁2018	-10.7815
▁1944	-10.7815
ки	-10.7817
▁formula	-10.7819
по	-10.782
▁frykt	-10.782
▁skjøt	-10.782
kvartett	-10.7822
størrelse	-10.7828
ingeniør	-10.7828
utgivelse	-10.7828
litteratur	-10.7828
align	-10.783
▁castel	-10.7862
▁statsråd	-10.7875
▁kill	-10.7982
sæter	-10.8012
▁øygrupp	-10.804
▁microsoft	-10.8051
▁aleksander	-10.8051
▁mediebedrifte	-10.8051
▁guangdong	-10.8051
▁tilføyd	-10.8051
▁hordaland	-10.8051
bransjen	-10.8051
▁fenomen	-10.8052
▁ungarn	-10.8052
▁forgjenger	-10.8054
▁arbeiderpartiet	-10.8054
▁again	-10.8054
shui	-10.8055
▁fjellkjede	-10.8056
▁generell	-10.8056
▁1922	-10.8056
sylindre	-10.8056
▁observe	-10.8056
▁bjarn	-10.8056
▁hindu	-10.8058
▁trenger	-10.8058
▁command	-10.8059
▁turneringen	-10.8059
▁point	-10.8063
▁sergej	-10.8066
▁skygge	-10.8066
temperatur	-10.8078
▁maritim	-10.8084
kampanje	-10.8088
▁demokrati	-10.8104
▁forstå	-10.8177
toft	-10.8177
▁claus	-10.8182
ã	-10.8258
▁definisjon	-10.8301
▁kjøkken	-10.8301
▁sebastian	-10.8301
▁oksygen	-10.8301
▁1902	-10.8301
▁ødelagt	-10.8301
▁antagelig	-10.8301
▁kennedy	-10.8301
▁1942	-10.8301
▁buddhist	-10.8301
▁county	-10.8301
▁bystatus	-10.8301
▁taylor	-10.8301
▁ovenfor	-10.8301
▁colombia	-10.8301
▁antarktis	-10.8301
▁lørdag	-10.8301
▁jersey	-10.8302
▁radikal	-10.8302
▁essay	-10.8302
▁frivillig	-10.8302
komponent	-10.8302
▁hongkong	-10.8302
▁nymfe	-10.8303
▁afrikansk	-10.8303
▁missil	-10.8305
▁spirit	-10.8305
▁bundes	-10.8307
▁mengder	-10.8307
▁väst	-10.8308
misjonær	-10.8309
▁kontrollere	-10.8314
middag	-10.8321
seksuell	-10.8326
historisk	-10.8329
tradisjon	-10.8335
europeisk	-10.8337
▁prosesser	-10.8337
lokale	-10.8349
▁kommunistisk	-10.8362
forretning	-10.837
▁domkirke	-10.8435
kirche	-10.8454
▁forekomme	-10.8455
▁betale	-10.8474
rrow	-10.848
personell	-10.8494
▁font	-10.8496
▁skuespill	-10.8539
rgy	-10.8546
meldt	-10.855
▁doktor	-10.8557
▁jomfru	-10.8558
▁beseiret	-10.8558
▁favoritt	-10.8558
▁münchen	-10.8558
▁satellitt	-10.8558
▁łód	-10.8558
▁ludvig	-10.8558
▁amatør	-10.8558
▁league	-10.8558
▁hybrid	-10.8558
▁airlines	-10.8558
teatret	-10.8558
▁zealand	-10.8558
▁syssel	-10.8559
▁bomull	-10.8559
mønstre	-10.856
▁express	-10.8562
tilsynet	-10.857
gjald	-10.8571
▁database	-10.8572
▁stedsnavn	-10.8573
etappe	-10.8579
▁jernbanestasjon	-10.8585
▁dobbel	-10.8596
karriere	-10.8599
ekspert	-10.8614
utenriksminister	-10.8625
forstyrrelser	-10.8635
▁overføre	-10.8696
▁utarbeide	-10.8783
▁bevege	-10.8798
▁america	-10.8809
▁academy	-10.8821
▁aftenposten	-10.8821
▁françois	-10.8821
▁akershus	-10.8821
▁portugal	-10.8821
▁gjøvik	-10.8821
▁kristoffer	-10.8821
▁utbredelse	-10.8821
▁tilskuere	-10.8821
▁heavy	-10.8821
▁anerkjenne	-10.8821
▁theodor	-10.8821
▁redigert	-10.8822
▁lewis	-10.8822
▁ulykke	-10.8823
beregning	-10.8823
▁borgermester	-10.8824
kommisjonen	-10.8824
▁manager	-10.8825
▁reidar	-10.8825
opptreden	-10.8826
▁antikken	-10.8828
▁nederst	-10.8836
▁innerst	-10.8863
sjön	-10.8866
kompleks	-10.8867
divisjon	-10.8868
▁idrettsforening	-10.8873
orientert	-10.8877
bukten	-10.8894
нов	-10.8944
▁monument	-10.8982
beskyttelse	-10.9041
▁slange	-10.9055
sentrum	-10.9073
sparc	-10.9076
▁gjennomføre	-10.9087
▁ferdinand	-10.9091
▁generalmajor	-10.9091
▁jordskjelv	-10.9091
▁utelukkende	-10.9091
▁valgdeltakel	-10.9091
▁forveksle	-10.9091
▁guvernør	-10.9091
▁benjamin	-10.9091
▁intervju	-10.9091
▁management	-10.9091
▁chicago	-10.9091
▁vilhelm	-10.9091
▁testament	-10.9091
▁trykt	-10.9092
▁rumensk	-10.9092
▁bærum	-10.9092
▁stråle	-10.9092
за	-10.9095
▁jerry	-10.9096
cephal	-10.9098
▁bbc	-10.9103
▁elsker	-10.9103
▁yizh	-10.911
▁mandat	-10.9111
▁oppnå	-10.9123
nemnd	-10.9145
provinsen	-10.9146
kreps	-10.9156
kjerne	-10.9253
bringe	-10.9278
vidde	-10.934
▁fundament	-10.9369
direktoratet	-10.9369
instruktør	-10.9369
▁aluminium	-10.9369
▁football	-10.9369
▁langrennsløper	-10.9369
▁nøytral	-10.9369
▁mercedes	-10.9369
▁juridisk	-10.9369
▁nanjing	-10.9369
▁fortellingen	-10.9369
▁syklist	-10.9369
▁psych	-10.9369
▁1852	-10.9369
▁individuell	-10.9369
▁overlevde	-10.9369
▁krydder	-10.9369
veksling	-10.9369
▁primitiv	-10.9369
▁ingrid	-10.9369
▁nelson	-10.9369
traktaten	-10.9369
▁kråke	-10.9369
skjelettet	-10.937
▁søvn	-10.937
▁respekt	-10.937
▁plantefamilie	-10.9371
▁communi	-10.9371
▁dominert	-10.9372
▁krypt	-10.9372
▁søsken	-10.9372
▁myndighetene	-10.9372
▁heinz	-10.9374
▁anklage	-10.9375
▁andorra	-10.9376
▁streik	-10.9377
▁slippe	-10.9378
▁hvete	-10.9381
straße	-10.9381
▁short	-10.9384
▁pryd	-10.9385
▁hovedsak	-10.9396
▁tjue	-10.9413
produsert	-10.9432
kvinne	-10.9433
▁symbolisere	-10.9483
bourg	-10.9512
entreprenør	-10.9655
▁development	-10.9655
▁midlertidig	-10.9655
▁substantiv	-10.9655
▁tusenårssted	-10.9655
sykepleie	-10.9655
▁hviterussisk	-10.9655
▁mongolia	-10.9655
▁utdødd	-10.9655
▁anthony	-10.9655
▁göteborg	-10.9655
▁railway	-10.9655
▁tønsberg	-10.9655
▁litauen	-10.9655
▁tilsammen	-10.9655
▁special	-10.9655
▁rogaland	-10.9655
zhuang	-10.9655
▁prince	-10.9655
▁forsvant	-10.9655
▁walisisk	-10.9655
▁utforming	-10.9655
▁haakon	-10.9655
▁psykisk	-10.9655
▁vegetasjon	-10.9655
▁about	-10.9656
▁beordre	-10.9656
▁kjøpmann	-10.9656
▁tørke	-10.9657
▁castle	-10.9657
omsorg	-10.9657
▁sannhet	-10.9658
▁kreert	-10.9662
▁tropisk	-10.9667
▁rytme	-10.9674
▁studere	-10.9689
▁bakkropp	-10.9716
brenning	-10.9716
▁earl	-10.9717
regjering	-10.9726
student	-10.9728
prøve	-10.9737
lsrud	-10.9749
▁blanc	-10.9778
refleks	-10.9824
sypress	-10.9839
▁kromosom	-10.9949
observasjon	-10.9949
ttoregistertonn	-10.9949
▁fasettøyne	-10.9949
▁keyboard	-10.9949
▁kringkasting	-10.9949
▁matematikk	-10.9949
▁innbefatte	-10.9949
▁renessanse	-10.9949
▁tianjin	-10.9949
▁tyrkia	-10.9949
▁sparebank	-10.9949
▁unntatt	-10.9949
▁unicode	-10.9949
▁opptrådt	-10.9949
▁fungerte	-10.9949
▁veksel	-10.9949
▁1893	-10.9949
▁texas	-10.9949
▁trebukker	-10.9949
▁stephen	-10.9949
▁oppstod	-10.9949
▁overtatt	-10.995
▁hvem	-10.995
▁konsesjon	-10.995
▁fantasi	-10.995
▁bmw	-10.995
▁fritids	-10.995
▁klinisk	-10.9951
▁virtu	-10.9951
▁control	-10.9951
▁christensen	-10.9952
▁tvangs	-10.9953
▁hjelm	-10.9955
▁smelte	-10.9957
vennlig	-10.9958
reservat	-10.9959
klorid	-10.9967
▁variasjon	-10.9968
▁cycl	-10.9978
▁guinea	-10.9981
universitetet	-11.0029
skred	-11.019
ansvaret	-11.0193
rhein	-11.0236
ский	-11.0252
▁brenselstypen	-11.0252
▁ludwig	-11.0252
▁luxembourg	-11.0252
▁mongolsk	-11.0252
▁mountain	-11.0252
▁prestegjeld	-11.0252
▁velkjent	-11.0252
▁venezia	-11.0252
▁kommandant	-11.0252
▁schmidt	-11.0252
▁tibetansk	-11.0252
▁fortellinger	-11.0252
▁1943	-11.0252
▁historia	-11.0252
▁hyppig	-11.0252
▁konsonant	-11.0252
▁charlotte	-11.0252
▁halvorsen	-11.0252
leksikon	-11.0252
▁frimurer	-11.0252
▁uvanlig	-11.0252
ндр	-11.0252
▁ålesund	-11.0252
leverandør	-11.0252
▁wagner	-11.0252
▁korrekt	-11.0253
▁prinsesse	-11.0253
▁riktig	-11.0253
▁oppdagelse	-11.0253
▁føderal	-11.0254
▁tokyo	-11.0254
▁faktisk	-11.0254
▁betaling	-11.0255
▁oliver	-11.0256
▁romsdal	-11.026
▁foretrekke	-11.0264
▁spyd	-11.0281
▁begrunne	-11.0306
forskeren	-11.0317
craft	-11.0328
▁kongress	-11.0336
historiker	-11.0341
kvalitet	-11.0341
spect	-11.0373
edderkopper	-11.039
▁hevn	-11.0404
laborat	-11.0415
▁famil	-11.0534
foretak	-11.0559
skilpadde	-11.0564
▁innspilt	-11.0564
▁müller	-11.0564
▁novgorod	-11.0564
▁omdøpt	-11.0564
▁kommandør	-11.0564
▁istedenfor	-11.0564
▁kapittel	-11.0564
▁miguel	-11.0564
▁kongedømmet	-11.0564
▁permanent	-11.0564
▁claudi	-11.0564
▁verdenscup	-11.0564
▁claude	-11.0564
▁vietnamesisk	-11.0564
▁mektig	-11.0565
▁registrering	-11.0565
▁sektor	-11.0565
▁luigi	-11.0565
▁utfordre	-11.0566
▁gjær	-11.0566
▁1909	-11.0566
▁sophie	-11.0566
▁marianne	-11.0567
▁kalender	-11.0568
vilkår	-11.0568
▁saturn	-11.0568
▁nkp	-11.0568
▁dvd	-11.0569
▁opplevd	-11.057
▁fasade	-11.0572
trukket	-11.0577
kobling	-11.0582
opplevelse	-11.059
▁omfatte	-11.0599
flyvning	-11.0614
▁lokalavis	-11.0622
hovedstad	-11.0636
▁vokte	-11.0662
symbol	-11.0664
flåten	-11.0684
region	-11.0774
▁record	-11.0868
▁argentina	-11.0887
▁basketball	-11.0887
▁kronprins	-11.0887
▁leipzig	-11.0887
▁perspektiv	-11.0887
▁drivstoff	-11.0887
▁leopold	-11.0887
▁identitet	-11.0887
▁publisere	-11.0887
▁vertikal	-11.0887
▁kavaleri	-11.0887
▁kreditt	-11.0887
▁uttrykt	-11.0887
▁frazioni	-11.0887
▁1879	-11.0887
▁frigjøring	-11.0887
▁arbeidsgiver	-11.0887
▁animasjon	-11.0887
ñ	-12.8003
