<unk>	0
<s>	0
</s>	0
.	-3.19267
s	-3.35111
e	-3.49531
▁	-3.78217
▁i	-3.91804
t	-4.00117
er	-4.044
▁og	-4.05298
en	-4.08589
r	-4.51401
▁er	-4.57848
▁av	-4.65363
n	-4.86298
▁en	-4.87592
▁for	-4.95349
et	-4.95788
▁som	-4.99787
▁til	-5.06132
a	-5.13162
▁på	-5.14475
▁med	-5.18189
▁den	-5.38949
▁var	-5.44233
▁de	-5.50221
▁ble	-5.55841
▁fra	-5.5857
d	-5.59822
i	-5.64096
▁det	-5.68571
ene	-5.6993
k	-5.71228
o	-5.71994
▁har	-5.72246
▁et	-5.78729
ne	-5.80558
y	-5.81168
▁han	-5.95505
▁å	-6.04287
g	-6.06764
l	-6.11382
te	-6.14506
▁ved	-6.15876
in	-6.20855
m	-6.22063
h	-6.2428
p	-6.24433
▁også	-6.27006
de	-6.28469
f	-6.35502
b	-6.37575
re	-6.38474
▁s	-6.38803
▁ut	-6.41191
▁under	-6.43185
▁om	-6.43193
ing	-6.43464
▁etter	-6.43783
▁at	-6.44371
▁eller	-6.45773
c	-6.50108
v	-6.52113
us	-6.52602
u	-6.53984
▁kan	-6.56738
▁to	-6.57403
an	-6.57648
▁be	-6.58076
▁a	-6.59726
al	-6.5994
▁over	-6.60418
le	-6.63237
▁opp	-6.64284
na	-6.6477
▁inn	-6.72434
ia	-6.8011
▁da	-6.80445
ar	-6.80827
▁18	-6.80834
▁the	-6.81173
ter	-6.81309
z	-6.81594
▁men	-6.8179
sk	-6.85879
▁andre	-6.87592
▁f	-6.87615
is	-6.87801
on	-6.89573
▁m	-6.89675
▁b	-6.92795
ri	-6.92877
ch	-6.93178
w	-6.93509
▁hadde	-6.9364
▁seg	-6.96807
▁mellom	-6.99472
▁ha	-7.00187
▁la	-7.00581
ende	-7.02831
▁u	-7.03707
▁tre	-7.04783
la	-7.04895
um	-7.05133
▁sin	-7.08151
▁d	-7.08364
▁mot	-7.08652
ma	-7.08811
▁hans	-7.09139
▁ligger	-7.10817
▁født	-7.13048
li	-7.13789
▁k	-7.13879
▁ikke	-7.14344
land	-7.14466
j	-7.14712
▁p	-7.15186
▁se	-7.15427
ens	-7.15473
▁1	-7.15549
or	-7.15607
x	-7.16942
ur	-7.1706
▁g	-7.17323
ke	-7.1757
ta	-7.19069
di	-7.19816
▁re	-7.20341
nes	-7.22232
il	-7.22698
ng	-7.22764
▁al	-7.22775
▁c	-7.23427
▁blant	-7.24129
ra	-7.27235
el	-7.27761
▁gjennom	-7.281
da	-7.2858
nde	-7.29208
der	-7.29833
▁st	-7.30044
▁hun	-7.31618
lig	-7.31754
▁man	-7.319
▁dette	-7.31984
▁første	-7.32155
ig	-7.32619
øy	-7.32728
▁bo	-7.32828
os	-7.33125
▁h	-7.34031
kt	-7.3443
▁ro	-7.35392
▁an	-7.3577
ka	-7.36011
be	-7.36213
den	-7.36233
ck	-7.36797
as	-7.36799
ger	-7.37838
▁sammen	-7.37939
é	-7.38944
▁ca	-7.39722
▁17	-7.39995
▁of	-7.41305
▁2	-7.41667
▁denne	-7.41667
▁flere	-7.42133
ut	-7.42429
isk	-7.42562
ske	-7.42768
▁l	-7.4282
ver	-7.43006
▁der	-7.44364
▁her	-7.44517
lo	-7.44538
iske	-7.44781
▁nord	-7.44869
ler	-7.44949
ro	-7.45938
to	-7.4623
ul	-7.46464
2	-7.47361
bo	-7.47482
▁sa	-7.48024
▁hoved	-7.48236
ff	-7.48449
for	-7.49436
ning	-7.49838
▁fikk	-7.49972
ve	-7.50671
ad	-7.51227
▁li	-7.51437
om	-7.52272
man	-7.52336
ø	-7.52518
ba	-7.52748
ed	-7.52894
it	-7.52945
ner	-7.52989
son	-7.53748
▁w	-7.53936
stad	-7.5478
▁alle	-7.54813
▁le	-7.55476
at	-7.5632
▁3	-7.56397
▁del	-7.57143
▁n	-7.57186
ja	-7.57471
▁kom	-7.57496
▁t	-7.57562
ton	-7.57654
me	-7.57914
ker	-7.58255
▁tidligere	-7.58439
▁stor	-7.58826
id	-7.58914
ry	-7.59023
▁kon	-7.5927
▁co	-7.6025
▁blir	-7.60388
▁16	-7.60974
sjon	-7.61177
▁j	-7.61192
ga	-7.62493
vis	-7.62516
ling	-7.62673
▁ny	-7.63389
▁pa	-7.64105
dal	-7.65076
pp	-7.65144
lige	-7.65737
▁in	-7.66043
▁di	-7.6616
ge	-7.66579
ha	-7.6685
3	-7.67069
ol	-7.67152
▁15	-7.67411
▁5	-7.67518
▁annet	-7.67694
erte	-7.67694
▁kommune	-7.6794
▁ka	-7.6826
si	-7.68537
▁4	-7.68582
ør	-7.68623
▁v	-7.69239
▁mar	-7.69557
▁ta	-7.70441
1	-7.70778
▁disse	-7.71427
th	-7.71883
▁år	-7.72577
▁ba	-7.72594
▁and	-7.73046
▁ga	-7.73141
ce	-7.73273
▁byen	-7.73538
▁si	-7.73737
▁he	-7.73837
by	-7.74156
▁by	-7.74256
▁mer	-7.74592
á	-7.74678
ell	-7.74769
▁mens	-7.75182
▁hvor	-7.75634
mo	-7.75915
▁kinesisk	-7.76007
▁10	-7.76063
berg	-7.76169
mann	-7.76239
▁mange	-7.76602
▁så	-7.76761
va	-7.77058
▁vi	-7.77563
je	-7.77588
▁mo	-7.78288
▁as	-7.78395
▁na	-7.78843
▁norsk	-7.78929
ant	-7.78935
▁død	-7.79318
▁no	-7.79521
å	-7.79752
co	-7.79916
▁samt	-7.79958
▁kalt	-7.79965
▁o	-7.80197
ion	-7.80432
▁ti	-7.8054
▁sør	-7.80757
▁ofte	-7.80825
ko	-7.80896
▁su	-7.81337
gen	-7.81633
ist	-7.81744
▁per	-7.82036
▁lo	-7.82237
▁du	-7.82463
vi	-7.83475
▁6	-7.83819
▁ned	-7.83821
▁pro	-7.83951
ic	-7.84217
mi	-7.84332
▁øst	-7.8435
▁før	-7.84863
bu	-7.84971
▁lu	-7.85239
ven	-7.85396
▁går	-7.85538
pe	-7.85592
tal	-7.85621
▁me	-7.8569
ö	-7.86195
▁ni	-7.86408
▁land	-7.86538
ik	-7.86612
ær	-7.86626
▁dag	-7.87072
mer	-7.8749
▁sitt	-7.882
sa	-7.88394
▁navnet	-7.88517
▁bu	-7.88864
ti	-7.89782
ang	-7.90166
▁do	-7.9042
else	-7.90881
▁vest	-7.90979
skap	-7.91348
erne	-7.916
bi	-7.92069
▁7	-7.92303
▁kjent	-7.92449
▁8	-7.9255
het	-7.92551
▁bi	-7.92787
un	-7.92918
opp	-7.93122
▁ri	-7.93274
▁fri	-7.93275
▁or	-7.93451
▁ma	-7.93553
sh	-7.93573
▁fly	-7.93597
▁ho	-7.93613
▁po	-7.94787
▁pi	-7.95038
lin	-7.95236
▁noen	-7.95407
▁12	-7.95428
▁senere	-7.9559
ni	-7.95711
▁store	-7.95928
del	-7.95993
au	-7.96458
▁fa	-7.9655
ov	-7.96589
▁9	-7.97159
▁bar	-7.97278
▁være	-7.97487
▁so	-7.98036
▁gi	-7.9814
im	-7.98244
ie	-7.98342
ster	-7.98416
▁navn	-7.98803
rett	-7.99088
mp	-7.99329
ok	-7.99355
▁selv	-7.99685
do	-7.998
▁finnes	-7.998
▁vil	-7.99864
gi	-7.99879
ste	-8.0003
▁mor	-8.00222
▁far	-8.00346
▁el	-8.00648
lag	-8.01651
▁siden	-8.02262
▁bak	-8.02277
▁ei	-8.02295
od	-8.02469
▁ru	-8.02604
4	-8.02637
per	-8.02782
▁frem	-8.03268
ard	-8.03312
▁rundt	-8.03318
io	-8.03469
les	-8.03578
▁skal	-8.03744
▁hos	-8.03749
gu	-8.03785
pa	-8.04062
vik	-8.04171
ina	-8.04197
▁sp	-8.04682
ir	-8.04789
▁r	-8.05738
ak	-8.05765
ca	-8.06236
▁både	-8.06285
æ	-8.06377
tter	-8.06431
go	-8.06504
▁sch	-8.07475
elle	-8.07961
tre	-8.08237
tor	-8.08323
ll	-8.08445
mm	-8.08451
▁ko	-8.08648
▁fire	-8.09174
▁ju	-8.09269
▁sk	-8.09333
gikk	-8.09388
▁14	-8.0958
▁jo	-8.09719
▁tid	-8.10153
op	-8.10335
▁sol	-8.10401
▁go	-8.10533
av	-8.10721
▁grunn	-8.10955
▁am	-8.10976
▁ra	-8.11081
kk	-8.1112
nd	-8.11816
▁bestå	-8.11919
▁største	-8.11947
år	-8.12654
var	-8.12739
▁te	-8.13051
sel	-8.13056
▁ab	-8.13142
ly	-8.13281
▁kl	-8.13372
▁hver	-8.13387
▁mai	-8.14137
no	-8.14157
ow	-8.14224
ment	-8.14458
▁ne	-8.14679
▁min	-8.14713
▁mest	-8.14783
▁tor	-8.1484
▁11	-8.14842
00	-8.15338
▁ad	-8.15458
▁kalles	-8.15561
▁13	-8.15711
▁mål	-8.15843
▁hu	-8.1617
▁fi	-8.16379
ns	-8.16454
▁sine	-8.16687
asjon	-8.16878
ber	-8.16893
▁lang	-8.16913
▁fram	-8.17295
▁film	-8.17671
em	-8.17682
ho	-8.1779
hu	-8.18045
ium	-8.18503
▁amerikansk	-8.18869
ud	-8.18876
vin	-8.18944
▁y	-8.19065
bar	-8.19114
▁0	-8.19238
ä	-8.19349
▁lag	-8.19466
▁sam	-8.20396
▁ar	-8.20397
▁km	-8.20424
5	-8.20659
tra	-8.20814
▁20	-8.20983
ou	-8.21176
▁vært	-8.21307
▁vann	-8.21337
po	-8.21518
▁pre	-8.21655
▁lys	-8.21802
▁kirke	-8.22225
ci	-8.22384
▁norge	-8.22579
itt	-8.22786
▁russisk	-8.22845
len	-8.22965
▁eks	-8.23881
▁con	-8.23888
fa	-8.23956
▁tallet	-8.23966
▁tri	-8.2407
▁blit	-8.24251
▁vant	-8.24363
ag	-8.244
▁ol	-8.24795
over	-8.24825
ede	-8.25049
▁br	-8.25203
am	-8.25347
▁ak	-8.25373
▁kina	-8.25475
ring	-8.25842
▁ge	-8.26005
í	-8.26295
hold	-8.26503
ki	-8.26586
ks	-8.27067
▁innen	-8.2712
▁skole	-8.27252
▁samme	-8.27692
▁mars	-8.28227
▁pe	-8.28359
gang	-8.28363
▁tra	-8.28481
▁nå	-8.28505
▁kr	-8.28512
▁ham	-8.28577
und	-8.28698
men	-8.29003
▁car	-8.29092
ian	-8.29129
ord	-8.29218
ku	-8.29285
▁x	-8.29286
▁vel	-8.29372
dag	-8.29464
▁må	-8.29709
▁john	-8.29835
▁norske	-8.30147
mar	-8.30365
min	-8.30402
▁par	-8.30411
bb	-8.30488
pi	-8.30589
ering	-8.306
dre	-8.30626
itet	-8.30742
▁når	-8.30867
▁slik	-8.31011
ier	-8.31188
▁syn	-8.31799
idae	-8.31858
ron	-8.31939
ius	-8.32144
mb	-8.323
▁små	-8.3233
ran	-8.32346
iv	-8.32395
▁langs	-8.32533
▁hele	-8.32846
▁gu	-8.33094
ikk	-8.33283
▁mat	-8.33873
▁sønn	-8.33879
▁san	-8.33982
ation	-8.34223
hus	-8.34517
▁tro	-8.34704
ü	-8.3473
▁kunne	-8.34873
▁rekke	-8.34949
bel	-8.35116
▁bra	-8.35198
tak	-8.35234
▁nær	-8.35294
▁val	-8.35332
dd	-8.35407
ld	-8.35498
▁musikk	-8.35804
▁wa	-8.35821
▁piny	-8.35894
ley	-8.36131
▁skulle	-8.362
▁enn	-8.3633
▁innehold	-8.36429
▁videre	-8.36449
▁juli	-8.36494
▁lever	-8.36541
▁provinsen	-8.36868
tur	-8.3799
▁oslo	-8.38061
▁gjen	-8.38095
verk	-8.38116
sta	-8.38195
ting	-8.38231
gg	-8.38517
tid	-8.38533
▁like	-8.38625
ek	-8.38637
fi	-8.38995
ac	-8.39026
lu	-8.39436
▁området	-8.39966
sted	-8.40051
ny	-8.40077
fe	-8.4016
▁pu	-8.40226
tiske	-8.40592
▁mi	-8.4062
ft	-8.40762
▁nye	-8.40786
▁ver	-8.40873
mon	-8.40903
▁august	-8.41039
▁kommer	-8.4146
▁tok	-8.41622
ot	-8.41632
siden	-8.41663
▁je	-8.41754
este	-8.41808
dalen	-8.41999
▁hel	-8.42097
▁all	-8.42151
kon	-8.423
stein	-8.42483
▁th	-8.42729
▁uten	-8.42731
▁noe	-8.42745
▁laget	-8.42801
tu	-8.42948
▁høy	-8.42972
kke	-8.43499
inn	-8.43687
▁kultur	-8.43722
▁bare	-8.43916
▁ja	-8.44104
▁kar	-8.44352
▁kunst	-8.44786
▁fem	-8.44798
▁meter	-8.4482
▁brukes	-8.45153
▁gruppen	-8.45237
▁leder	-8.45352
sch	-8.4544
▁ur	-8.45484
▁gir	-8.45517
▁bru	-8.4562
▁folke	-8.45874
▁em	-8.45913
▁mel	-8.4615
6	-8.4633
ung	-8.46502
▁tilhører	-8.46623
▁januar	-8.46623
ine	-8.47105
▁spiller	-8.4715
▁nor	-8.47667
jo	-8.47804
let	-8.47977
hi	-8.4807
sti	-8.48086
▁rett	-8.48114
ken	-8.48301
stand	-8.48307
▁kj	-8.48437
sten	-8.49139
slag	-8.49173
tisk	-8.49201
vo	-8.49272
▁midt	-8.49349
isme	-8.49933
▁skrev	-8.49965
▁hus	-8.50205
▁ch	-8.50295
▁wi	-8.50384
tro	-8.50466
▁bl	-8.50483
▁utgitt	-8.50532
est	-8.50539
tar	-8.50697
▁vei	-8.50699
▁sand	-8.50896
▁tv	-8.50925
ó	-8.51053
▁parti	-8.51486
▁fjell	-8.51813
▁z	-8.51978
mor	-8.52014
▁berg	-8.52076
ab	-8.52159
gel	-8.52209
▁2010	-8.52288
ong	-8.52401
▁tysk	-8.5262
▁fast	-8.52658
sj	-8.52683
▁bro	-8.5289
▁dr	-8.52968
laget	-8.52974
▁hennes	-8.52991
▁juni	-8.53031
▁tillegg	-8.53162
tten	-8.53209
▁opprinnelig	-8.53335
▁ki	-8.53366
tan	-8.5339
følge	-8.53413
▁hi	-8.53552
ju	-8.53742
▁new	-8.53792
▁bok	-8.53818
sson	-8.53953
▁ulike	-8.54012
▁fl	-8.54289
и	-8.54331
▁000	-8.54335
▁engelsk	-8.54359
satt	-8.54409
▁mu	-8.5458
▁30	-8.54863
7	-8.54897
▁fe	-8.55008
jø	-8.5504
9	-8.55164
▁tilbake	-8.55224
ator	-8.5535
ham	-8.55623
ska	-8.55649
▁cha	-8.55898
▁gud	-8.55954
za	-8.56315
▁verdens	-8.56546
art	-8.56571
dy	-8.57167
▁q	-8.57473
ug	-8.57583
ica	-8.57596
lan	-8.57668
▁skrevet	-8.57749
▁språk	-8.57948
wa	-8.58046
▁spilte	-8.58561
▁lå	-8.58672
▁hal	-8.58818
▁april	-8.58824
yn	-8.58904
▁fo	-8.58999
▁brun	-8.59007
▁kor	-8.59078
▁familien	-8.59358
▁ski	-8.59532
▁sjø	-8.59666
▁nasjonal	-8.59694
▁op	-8.59695
ingen	-8.59909
▁dem	-8.60214
▁kjente	-8.60241
fjorden	-8.60241
ans	-8.60248
▁2008	-8.60257
▁deres	-8.60336
bruk	-8.61062
ru	-8.61199
heim	-8.6129
jer	-8.6149
▁mag	-8.61495
▁my	-8.61716
▁gul	-8.6183
▁sen	-8.61913
▁usa	-8.6212
▁kn	-8.62132
▁kort	-8.62159
▁fag	-8.62276
▁mindre	-8.62309
▁bil	-8.62361
lands	-8.62425
som	-8.62745
tes	-8.63058
▁ag	-8.63363
if	-8.63442
▁halv	-8.63523
▁2002	-8.63759
▁va	-8.64047
yl	-8.64054
løp	-8.64255
▁bli	-8.64299
ologi	-8.643
borg	-8.64592
gr	-8.64614
е	-8.64786
ige	-8.64845
ære	-8.65024
▁jan	-8.65246
▁vin	-8.65275
▁alt	-8.65343
▁hol	-8.65356
▁2007	-8.65555
▁siste	-8.65618
▁on	-8.65697
▁bandet	-8.65791
gh	-8.65852
inger	-8.66011
▁kong	-8.66036
▁februar	-8.66137
▁november	-8.66137
▁ku	-8.66425
▁ty	-8.66462
▁norges	-8.66476
▁omfatter	-8.66564
▁egen	-8.66644
▁støtte	-8.66854
met	-8.66951
tz	-8.67172
▁imidlertid	-8.67358
▁gang	-8.67732
▁begge	-8.67757
fly	-8.67815
▁we	-8.67827
gn	-8.6793
▁deretter	-8.68026
▁hav	-8.68061
▁filmen	-8.68076
▁rom	-8.6808
ningen	-8.6808
▁2006	-8.68133
▁roman	-8.68212
▁ben	-8.68239
▁landet	-8.68365
▁ord	-8.6862
lev	-8.68686
▁2005	-8.68917
▁god	-8.69028
▁sal	-8.6909
▁kun	-8.69141
▁betyr	-8.69158
▁fu	-8.69188
▁oktober	-8.69219
ill	-8.69263
▁ry	-8.69315
bro	-8.6959
▁begynte	-8.69847
kul	-8.69877
▁derfor	-8.70071
▁vo	-8.70087
▁eksempel	-8.70111
ty	-8.70182
▁liv	-8.70384
zi	-8.7053
van	-8.70683
▁gre	-8.70728
tiden	-8.70797
▁tur	-8.70798
▁særlig	-8.70837
lat	-8.71084
▁desember	-8.71115
▁september	-8.71115
▁forskjellig	-8.71117
kel	-8.71125
▁først	-8.7115
▁col	-8.71245
▁kommunen	-8.71367
elsen	-8.71411
▁beste	-8.7142
▁via	-8.71568
far	-8.71681
val	-8.71797
ninger	-8.71811
▁følgende	-8.71839
▁ed	-8.7188
ya	-8.71924
res	-8.72084
du	-8.72111
▁pr	-8.72284
my	-8.72289
senter	-8.72306
tiv	-8.72373
▁ren	-8.72482
▁president	-8.72483
tte	-8.73024
folkerepublikken	-8.73047
▁bruk	-8.73063
▁lokal	-8.73064
form	-8.73191
▁von	-8.73409
▁gamle	-8.7346
til	-8.73464
▁rød	-8.73623
▁selskapet	-8.73848
par	-8.73891
bil	-8.74146
▁stein	-8.74522
kar	-8.74537
kor	-8.74545
su	-8.74674
burg	-8.74679
he	-8.74857
▁innenfor	-8.75116
▁står	-8.75155
▁barn	-8.75334
kom	-8.75549
▁ten	-8.75645
mat	-8.75826
▁25	-8.76238
▁sett	-8.76287
vei	-8.76287
▁form	-8.76476
ble	-8.76506
bok	-8.76653
familien	-8.76885
▁stats	-8.76975
▁innbyggere	-8.77028
▁2009	-8.77036
up	-8.7704
ep	-8.77109
▁chi	-8.7721
▁van	-8.77444
▁gresk	-8.77528
▁anti	-8.77568
▁ke	-8.77622
▁luft	-8.77773
▁vise	-8.77856
▁kur	-8.77858
che	-8.77946
▁riks	-8.78471
mål	-8.78481
▁motor	-8.78534
▁farge	-8.78744
kje	-8.78988
▁medlem	-8.79002
▁samtidig	-8.7908
▁skog	-8.79097
▁radio	-8.79172
dyr	-8.79298
▁natur	-8.79418
bl	-8.79509
pro	-8.79622
▁basert	-8.79644
▁mil	-8.79736
▁styre	-8.79767
ym	-8.79831
▁sj	-8.80013
▁større	-8.80162
▁sak	-8.80499
ah	-8.80533
▁grav	-8.80544
veien	-8.8059
▁tu	-8.80593
▁lav	-8.80614
ris	-8.80842
▁verk	-8.80865
▁seks	-8.80895
▁helt	-8.80963
rede	-8.81001
ana	-8.81313
▁gro	-8.81315
vel	-8.81364
uk	-8.81477
▁stil	-8.81488
cu	-8.81627
▁svensk	-8.81779
ding	-8.81823
▁satt	-8.81887
▁2011	-8.81892
▁startet	-8.81938
kker	-8.81956
ach	-8.82014
▁ev	-8.82053
øya	-8.82062
▁hen	-8.82096
▁igjen	-8.82224
▁au	-8.82362
q	-8.82433
▁kra	-8.82744
elig	-8.82885
▁paul	-8.82971
▁sh	-8.82998
о	-8.83018
▁side	-8.83119
ighet	-8.83155
à	-8.83312
▁gen	-8.83598
▁gull	-8.83605
▁bruker	-8.83627
▁sta	-8.83654
▁dikt	-8.83907
lene	-8.84075
▁hy	-8.8419
▁mark	-8.84339
chi	-8.84406
sett	-8.84428
spill	-8.84439
▁bor	-8.84708
а	-8.8475
▁industri	-8.84777
▁fred	-8.84854
▁gjern	-8.84909
▁spe	-8.85087
▁gift	-8.85095
isering	-8.85159
▁lange	-8.85249
svært	-8.85306
▁brukt	-8.85352
▁få	-8.85453
ino	-8.85674
án	-8.85804
▁pan	-8.86208
▁art	-8.86223
▁lov	-8.86303
▁døde	-8.8651
▁lands	-8.86636
▁tar	-8.86654
▁jord	-8.86679
bin	-8.86692
▁utenfor	-8.86708
log	-8.86892
▁arm	-8.8691
ale	-8.86974
▁os	-8.87093
ani	-8.87188
vet	-8.87337
▁vanligvis	-8.87393
▁bur	-8.87612
▁kal	-8.87648
ski	-8.8772
dan	-8.87967
▁karl	-8.8806
▁rø	-8.88145
▁pl	-8.88176
▁sentral	-8.88176
og	-8.88392
▁24	-8.88431
▁tidlig	-8.88838
mmer	-8.88948
▁klar	-8.88976
▁gra	-8.89094
▁mac	-8.89133
▁lyd	-8.89317
rik	-8.89341
ps	-8.89359
lot	-8.89363
▁gjorde	-8.89394
ph	-8.89404
leder	-8.89415
▁fiske	-8.89499
▁22	-8.89569
▁energi	-8.89678
sp	-8.89721
sund	-8.89823
ini	-8.89878
▁ingen	-8.89909
▁viser	-8.90169
▁jeg	-8.90219
▁forhold	-8.90241
press	-8.90461
▁skuespiller	-8.90469
▁mont	-8.9048
▁com	-8.90529
▁fransk	-8.90573
skole	-8.90669
▁bre	-8.90751
før	-8.908
ita	-8.90824
▁vis	-8.90845
fjord	-8.90848
▁can	-8.90849
kan	-8.90886
▁dagen	-8.90912
▁hø	-8.91032
rom	-8.91415
▁danne	-8.91438
mal	-8.91761
▁året	-8.91836
nings	-8.91931
▁post	-8.91981
▁fylkesvei	-8.91982
▁dermed	-8.92009
leg	-8.92058
bygg	-8.92115
▁moh	-8.92489
▁foran	-8.92505
elt	-8.92939
ap	-8.93044
enes	-8.93133
▁bergen	-8.93162
anlegg	-8.93198
▁sommer	-8.932
▁21	-8.93261
▁mon	-8.93288
▁keiser	-8.93581
▁datter	-8.93588
▁blå	-8.93646
▁kat	-8.93674
råd	-8.93689
iet	-8.93705
ji	-8.93975
▁elven	-8.94018
vann	-8.94051
ket	-8.94064
▁vinter	-8.94154
▁mye	-8.94241
▁inkludert	-8.9435
▁familie	-8.94426
mark	-8.94639
▁plan	-8.94677
landet	-8.94717
ssen	-8.94917
▁forfatter	-8.95275
mun	-8.95577
▁ledet	-8.95611
rin	-8.95614
▁fylke	-8.95619
don	-8.95663
gar	-8.95702
▁politisk	-8.95808
forening	-8.95929
▁bill	-8.95947
▁stat	-8.95956
▁general	-8.95978
▁gammel	-8.95981
lse	-8.96335
▁omkring	-8.96384
▁system	-8.96391
▁tekst	-8.96409
р	-8.96575
▁plante	-8.96956
▁sig	-8.96981
bygd	-8.96997
sky	-8.97006
ien	-8.97053
kket	-8.97085
▁gri	-8.97109
ú	-8.97208
▁sl	-8.97251
▁robert	-8.97266
▁albumet	-8.97337
▁fer	-8.97356
▁slutt	-8.97396
ath	-8.97405
▁peter	-8.97466
▁fotball	-8.9751
ice	-8.97555
isere	-8.97591
▁historie	-8.97616
50	-8.97669
eres	-8.97738
stat	-8.97786
rak	-8.97877
mel	-8.97922
▁tru	-8.9808
▁sang	-8.98126
bry	-8.98196
▁bror	-8.98351
è	-8.98458
▁cor	-8.98493
▁mari	-8.98573
tall	-8.98652
isert	-8.98697
ā	-8.98789
elser	-8.98815
dra	-8.98886
▁øya	-8.98894
▁russland	-8.98938
▁produsert	-8.99111
▁minne	-8.99172
▁23	-8.99232
▁såkalt	-8.99302
fri	-8.99372
▁liste	-8.99499
▁orden	-8.99535
▁50	-8.9955
▁ly	-8.99605
tok	-8.99627
▁para	-8.99692
ano	-8.99722
▁sv	-8.99726
anger	-8.99744
ich	-8.99871
▁konge	-8.99889
▁band	-8.99981
▁fr	-9.00006
▁fin	-9.00077
spiller	-9.00098
pen	-9.00217
ette	-9.00392
ide	-9.00496
▁af	-9.00513
▁spor	-9.00563
age	-9.00621
▁tyske	-9.00658
rus	-9.0075
tatt	-9.00759
tel	-9.00801
skog	-9.00909
▁park	-9.00939
▁trans	-9.00939
▁spilt	-9.00983
har	-9.01025
▁19	-9.01079
▁eu	-9.01202
▁william	-9.01437
dom	-9.01472
▁tiden	-9.01591
▁erik	-9.01592
▁dia	-9.01653
▁mos	-9.01657
▁får	-9.01696
vern	-9.01727
▁tredje	-9.01826
▁sted	-9.01828
ført	-9.0186
and	-9.01871
▁2004	-9.01888
▁litt	-9.02016
▁hjelp	-9.02027
xi	-9.02232
▁air	-9.02271
▁ber	-9.02336
minister	-9.02343
▁gar	-9.02361
▁arbeids	-9.02409
▁barne	-9.02446
▁west	-9.02579
▁versjon	-9.0261
pol	-9.02628
mu	-9.0265
ct	-9.02711
▁mann	-9.0273
▁sommerfugl	-9.02747
▁europa	-9.02767
graf	-9.03042
▁slekt	-9.03057
gan	-9.03195
▁full	-9.03305
dde	-9.03375
ial	-9.03397
▁tom	-9.03413
▁sangen	-9.03434
ika	-9.03578
▁100	-9.03798
▁sto	-9.03799
ford	-9.0397
▁bygget	-9.03983
▁annen	-9.04073
▁årene	-9.04306
▁vol	-9.0434
▁kamp	-9.04378
▁christian	-9.04414
▁utvikling	-9.04557
▁stemme	-9.04625
mannen	-9.04643
▁gruppe	-9.04816
▁lett	-9.04835
system	-9.04866
▁don	-9.05
rå	-9.05118
▁samle	-9.05197
▁rev	-9.0525
▁representert	-9.05402
▁dessut	-9.05405
▁kinas	-9.05575
▁kyst	-9.05671
▁ac	-9.05689
vil	-9.05692
▁arbeidet	-9.05871
▁sosial	-9.06081
▁ci	-9.06188
istiske	-9.06334
fra	-9.06349
▁mas	-9.06556
▁data	-9.06571
▁rock	-9.06673
▁dy	-9.06704
ister	-9.06718
banen	-9.06805
port	-9.06872
syn	-9.06915
▁klubben	-9.07075
▁sverige	-9.07217
▁utviklet	-9.0728
asjonen	-9.07323
ater	-9.07355
pon	-9.07478
▁bas	-9.07544
stykke	-9.07547
▁arbeider	-9.07552
▁liten	-9.07564
▁hår	-9.07659
▁ex	-9.07665
▁betydning	-9.07675
8	-9.07853
▁organ	-9.082
kal	-9.08216
ip	-9.08349
▁opera	-9.0839
▁skolen	-9.08458
▁pen	-9.08541
selskap	-9.08568
▁2000	-9.08583
▁johan	-9.08656
▁mal	-9.0885
▁sm	-9.08855
▁kre	-9.08872
▁mc	-9.08899
full	-9.0905
asjons	-9.09094
▁regi	-9.09137
▁you	-9.09281
olog	-9.09333
▁regn	-9.09367
film	-9.09448
▁mm	-9.09493
▁mis	-9.0954
inne	-9.09575
istisk	-9.09578
▁ras	-9.09607
nor	-9.09664
▁militær	-9.09693
20	-9.09792
▁mod	-9.09976
▁italiensk	-9.1
▁grad	-9.1001
navn	-9.10073
▁martin	-9.10083
byen	-9.10163
▁person	-9.10364
▁bal	-9.10427
▁ø	-9.10461
liv	-9.10466
▁ul	-9.1053
▁blad	-9.106
rud	-9.10604
▁helse	-9.10622
ald	-9.10628
л	-9.10661
▁lin	-9.107
kken	-9.10755
▁sc	-9.10758
▁teater	-9.10764
▁spesielt	-9.10946
▁viktigste	-9.10983
stilt	-9.10993
mester	-9.10998
▁hvit	-9.11035
grad	-9.11082
øl	-9.11207
ologisk	-9.11229
drag	-9.11294
▁arkitekt	-9.11357
▁lille	-9.11382
ze	-9.11402
▁fv	-9.11419
▁2001	-9.11739
lle	-9.11814
hl	-9.1192
bra	-9.12013
legg	-9.12054
▁finner	-9.12065
▁serien	-9.12092
▁shi	-9.12114
dring	-9.12154
året	-9.12362
▁fleste	-9.12426
▁dis	-9.1243
▁bør	-9.12443
▁lind	-9.12489
▁not	-9.12582
løse	-9.12604
holm	-9.12681
▁sil	-9.12948
føring	-9.13084
▁ap	-9.13084
kamp	-9.1313
▁kongen	-9.13352
que	-9.13358
▁bø	-9.13387
▁stort	-9.13405
sjef	-9.13474
fall	-9.13477
▁olav	-9.13559
▁gav	-9.1362
▁svart	-9.13644
▁dal	-9.13667
ind	-9.13786
▁grå	-9.13838
hall	-9.1386
ub	-9.13942
▁sha	-9.13943
ros	-9.14015
kning	-9.14049
båt	-9.14084
vare	-9.14168
▁nett	-9.14172
▁eid	-9.14261
▁40	-9.14319
navnet	-9.14354
▁medlemmer	-9.14389
▁distrikt	-9.14633
▁heter	-9.1468
stilling	-9.1471
▁kontroll	-9.14723
ferd	-9.15036
▁staten	-9.15047
gård	-9.15084
▁bort	-9.15166
stan	-9.15278
▁felles	-9.15282
▁folketelling	-9.15316
▁hovedsakelig	-9.15321
▁måtte	-9.15364
bø	-9.1544
▁hall	-9.15545
▁slag	-9.15586
fer	-9.15592
folk	-9.15626
rød	-9.15687
▁pri	-9.15763
pris	-9.15766
ð	-9.15813
▁regjering	-9.15868
▁egne	-9.15871
▁utgjør	-9.1594
är	-9.15988
▁våpen	-9.16261
▁rolle	-9.16297
stasjon	-9.16354
▁tildelt	-9.16361
gående	-9.16395
▁gjør	-9.16395
▁følger	-9.16529
heten	-9.16549
ban	-9.16606
▁eg	-9.16626
stra	-9.16642
▁pat	-9.16719
▁dan	-9.16836
▁nu	-9.16861
▁ganger	-9.16928
▁stedet	-9.17111
▁carl	-9.17163
▁27	-9.17234
ves	-9.17255
▁stjerne	-9.17269
▁bred	-9.17276
▁hell	-9.17355
grav	-9.17389
han	-9.17592
▁india	-9.17625
▁fil	-9.1778
▁fant	-9.1782
ix	-9.1792
▁tradisjonell	-9.17949
▁venn	-9.18018
▁pris	-9.18093
▁26	-9.1817
fyl	-9.18216
▁ob	-9.183
▁ter	-9.1831
▁miljø	-9.18343
ula	-9.18482
bert	-9.18569
ari	-9.18674
▁lø	-9.1868
fisk	-9.18694
▁etablert	-9.1889
iti	-9.18994
ay	-9.19062
vær	-9.19096
▁politi	-9.19116
▁deler	-9.19192
▁mur	-9.19401
området	-9.19417
▁maria	-9.19514
▁sub	-9.1967
ati	-9.1981
▁nytt	-9.19847
ī	-9.19885
stil	-9.19892
tun	-9.19907
▁tittelen	-9.19914
ara	-9.1992
▁david	-9.19986
ull	-9.20174
ther	-9.20236
▁mus	-9.203
▁plat	-9.20317
typ	-9.20387
stu	-9.20396
gge	-9.20403
bane	-9.20424
▁2003	-9.20437
80	-9.20455
selskapet	-9.20487
▁kro	-9.20503
▁deltok	-9.20509
lia	-9.20572
▁kirken	-9.20579
systemet	-9.2059
▁båt	-9.2072
▁za	-9.20755
huset	-9.20801
▁tak	-9.20847
▁bri	-9.20898
▁inkluderer	-9.20929
klubb	-9.21004
▁stasjon	-9.21005
▁antall	-9.21038
▁sanger	-9.21094
▁sky	-9.21157
▁les	-9.21159
▁bjørn	-9.21161
▁31	-9.2122
▁best	-9.21317
▁hånd	-9.2136
▁overtok	-9.21639
▁kvinne	-9.21678
▁åtte	-9.2172
lis	-9.21729
▁ser	-9.2174
king	-9.21754
▁gate	-9.2179
wi	-9.21836
rum	-9.21854
▁pal	-9.21865
fl	-9.21918
▁res	-9.21956
м	-9.21985
▁latin	-9.22013
▁serie	-9.2202
▁vanlig	-9.22036
▁xi	-9.22067
▁johannes	-9.22225
ort	-9.22229
10	-9.22235
▁stra	-9.22267
▁samarbeid	-9.22425
▁internasjonale	-9.2248
▁super	-9.22682
▁høyre	-9.22731
▁tjeneste	-9.22748
▁inter	-9.22857
ving	-9.23024
▁privat	-9.23054
liggende	-9.23055
▁mulig	-9.23265
▁kol	-9.233
▁aktiv	-9.23318
▁skrift	-9.23373
lys	-9.23426
formet	-9.23437
ansk	-9.23451
▁valg	-9.23456
▁sølv	-9.23592
▁dyr	-9.23629
▁gitt	-9.23783
▁handels	-9.23783
gitt	-9.23876
▁bank	-9.23891
▁ville	-9.2397
gle	-9.23981
▁kron	-9.24013
vitenskap	-9.24137
▁øy	-9.24371
bus	-9.24428
▁gansk	-9.24449
▁syd	-9.2445
▁cu	-9.24625
kjøp	-9.24642
▁ferdig	-9.24691
zhou	-9.24783
qui	-9.24796
▁jernbane	-9.24811
▁dom	-9.2497
▁pass	-9.24993
plan	-9.25017
▁produsere	-9.25219
▁omtrent	-9.2522
▁venstre	-9.25225
▁delt	-9.25235
pre	-9.25236
way	-9.25366
▁gal	-9.25381
▁japansk	-9.2539
▁thor	-9.2546
▁studie	-9.25525
90	-9.25541
▁universitet	-9.25558
▁godt	-9.25577
▁ring	-9.25697
ata	-9.25771
rop	-9.25832
▁olje	-9.25844
▁het	-9.2589
▁lite	-9.2594
område	-9.25978
sjøen	-9.2603
shi	-9.26183
ance	-9.26184
jen	-9.26333
svis	-9.26334
fag	-9.26444
▁qu	-9.26479
kh	-9.26574
▁millioner	-9.2675
grense	-9.26802
▁hjemme	-9.26812
▁region	-9.26821
ob	-9.26889
▁james	-9.26928
skip	-9.26939
itz	-9.26964
▁makt	-9.26966
▁auto	-9.26972
sak	-9.27153
lik	-9.27219
mus	-9.27245
▁viktige	-9.27257
▁tyskland	-9.27283
▁ze	-9.27382
▁delstaten	-9.27438
▁cent	-9.27464
ola	-9.27521
styre	-9.27665
▁bygge	-9.27681
▁gran	-9.27743
øn	-9.2779
▁ban	-9.27858
stående	-9.27859
▁georg	-9.27929
elva	-9.27931
▁kraft	-9.27939
▁2012	-9.28015
▁skje	-9.2807
▁riksvei	-9.28073
▁rot	-9.28083
erende	-9.28115
▁kjøpt	-9.28146
all	-9.28159
▁lik	-9.28386
▁nesten	-9.28401
60	-9.28403
▁bygd	-9.28448
kant	-9.28466
▁28	-9.28485
▁eier	-9.28511
▁enkelte	-9.2855
š	-9.28562
▁1989	-9.28562
▁svenske	-9.28567
▁tele	-9.28583
▁spansk	-9.28595
net	-9.28628
▁egg	-9.28657
vinne	-9.28779
alt	-9.2878
senteret	-9.28801
ai	-9.28806
iz	-9.28845
▁menneske	-9.28886
▁wal	-9.28925
punkt	-9.28964
▁vas	-9.28964
ida	-9.28987
ømme	-9.29018
ū	-9.2913
30	-9.29134
ider	-9.29304
▁prosess	-9.29315
▁krigs	-9.2941
▁regionen	-9.29424
▁son	-9.2953
▁hard	-9.29544
▁finsk	-9.29581
▁hei	-9.29638
▁stu	-9.29676
▁oppkalt	-9.29706
▁sau	-9.29812
55	-9.29947
ij	-9.30169
vogn	-9.30345
▁lek	-9.30391
▁viktig	-9.30441
felt	-9.30469
▁økonomisk	-9.30478
▁ang	-9.30495
lær	-9.30525
▁fre	-9.30703
▁ok	-9.30716
bru	-9.3072
д	-9.30855
▁imp	-9.30863
▁spesial	-9.30874
messig	-9.30933
cy	-9.31032
cia	-9.31197
▁bon	-9.31228
lsen	-9.31237
▁plass	-9.31297
▁port	-9.31345
▁kryss	-9.31446
▁høyeste	-9.31501
▁george	-9.31532
produksjon	-9.31563
▁hor	-9.31685
ott	-9.31698
evne	-9.31709
områder	-9.31726
▁album	-9.31849
rev	-9.31899
▁sentrum	-9.31919
▁historisk	-9.3204
▁knytte	-9.32045
▁ek	-9.32081
tegn	-9.32087
retning	-9.32096
▁reise	-9.32128
▁arter	-9.3215
departementet	-9.32252
mul	-9.32286
▁års	-9.32305
▁elev	-9.32355
kin	-9.32431
▁dra	-9.32504
▁fortsatt	-9.32541
stru	-9.32561
arbeid	-9.32606
▁operatør	-9.32611
▁tap	-9.32641
н	-9.32695
kur	-9.32709
▁blod	-9.32711
ismen	-9.32949
tic	-9.33081
▁ve	-9.33109
▁hjem	-9.33116
▁produksjon	-9.3317
hol	-9.33178
▁studert	-9.33217
▁forbindelse	-9.33287
▁herre	-9.33327
▁ska	-9.33414
ish	-9.33501
haug	-9.33575
plass	-9.33667
gruppen	-9.33692
▁linje	-9.33757
igh	-9.33774
vid	-9.33788
dø	-9.33856
▁lei	-9.33955
lett	-9.33956
rør	-9.34017
tri	-9.34171
ive	-9.34177
▁utgav	-9.34305
gon	-9.34306
aks	-9.34318
▁kilde	-9.34354
▁forut	-9.34448
▁kh	-9.34574
▁len	-9.34591
zz	-9.34675
vig	-9.34692
▁sø	-9.34711
▁ordet	-9.34757
cha	-9.34812
hn	-9.3495
sal	-9.34976
64	-9.34997
▁london	-9.34998
▁standard	-9.34999
menn	-9.35034
▁arbeid	-9.35034
▁nærings	-9.35056
▁kunstner	-9.35073
▁veien	-9.35079
▁fall	-9.35187
fest	-9.35274
65	-9.35316
▁slekten	-9.3548
▁1999	-9.35611
▁1990	-9.3562
ala	-9.35639
ão	-9.35643
pel	-9.35728
løs	-9.35857
▁moderne	-9.35912
▁trykk	-9.36012
▁skjer	-9.36081
▁sel	-9.3626
▁enkelt	-9.36269
▁nils	-9.363
▁flytte	-9.36353
fon	-9.3638
heter	-9.36391
skrift	-9.36454
▁cla	-9.36491
▁én	-9.36515
▁punkt	-9.36569
67	-9.3666
▁die	-9.36681
kast	-9.36723
▁vekt	-9.36754
▁thomas	-9.36827
aktig	-9.36835
76	-9.36894
▁kv	-9.36959
40	-9.37024
▁christ	-9.37119
▁indre	-9.37188
▁lege	-9.37206
▁cas	-9.37245
▁29	-9.37378
▁berlin	-9.37441
▁1980	-9.37459
lagt	-9.375
▁zh	-9.37603
▁folk	-9.37643
▁regnes	-9.37654
▁kraftverk	-9.37658
fo	-9.37665
med	-9.37733
▁ind	-9.37803
36	-9.37832
▁hatt	-9.37834
▁opprettet	-9.37855
▁personer	-9.37927
▁trekk	-9.38017
dor	-9.38048
lek	-9.38156
samling	-9.3829
fil	-9.38292
asj	-9.38309
▁frank	-9.38358
maskin	-9.38449
ink	-9.3846
▁rh	-9.38578
т	-9.38626
▁fal	-9.38751
fal	-9.38759
86	-9.38789
▁nest	-9.38824
gress	-9.38826
▁angrep	-9.38879
▁grønn	-9.38891
▁henrik	-9.38897
ges	-9.3896
komp	-9.3903
kraft	-9.39042
last	-9.392
elli	-9.39218
▁pla	-9.39322
voks	-9.39341
▁kroppen	-9.39375
organ	-9.39443
▁yu	-9.39564
oc	-9.39567
▁gass	-9.39582
merke	-9.39619
gren	-9.397
dals	-9.39757
▁gård	-9.39829
▁ole	-9.3993
▁politiker	-9.40022
band	-9.40052
▁sy	-9.40052
▁konsert	-9.40177
▁tal	-9.4024
▁strøm	-9.40288
lla	-9.40296
bor	-9.40399
roll	-9.40432
▁dannet	-9.40525
▁driver	-9.4058
▁1998	-9.40597
▁interesse	-9.40624
ved	-9.40626
▁knut	-9.40627
▁sir	-9.40632
klar	-9.40633
the	-9.40663
ies	-9.40795
gata	-9.40804
▁wo	-9.40883
tyr	-9.40912
bjørn	-9.40947
▁selskap	-9.40954
▁jon	-9.40955
▁skip	-9.41028
78	-9.41067
▁180	-9.41101
well	-9.4113
18	-9.41174
▁uk	-9.41196
▁black	-9.41287
▁styrke	-9.41427
▁time	-9.41541
▁us	-9.4159
58	-9.41601
▁uni	-9.41691
▁åpnet	-9.41742
▁un	-9.41768
▁varme	-9.41843
▁britiske	-9.4186
▁jern	-9.41863
▁kap	-9.41864
▁kilometer	-9.41875
tjeneste	-9.41891
85	-9.41894
▁myr	-9.41922
▁tall	-9.41929
▁jobb	-9.41978
musikk	-9.42006
▁ordenen	-9.4201
▁ram	-9.42145
stoff	-9.42153
▁larvene	-9.42222
språk	-9.42227
bær	-9.42255
▁hvis	-9.4231
▁funksjon	-9.42348
▁smal	-9.42474
▁york	-9.42528
▁trondheim	-9.42534
▁nok	-9.42541
▁ball	-9.42554
▁grunnlagt	-9.42562
▁fjern	-9.42566
▁design	-9.4259
skje	-9.42623
mund	-9.4263
▁arten	-9.42653
▁mad	-9.42663
▁administrasjons	-9.42697
partiet	-9.42709
▁bern	-9.42718
▁jens	-9.42723
57	-9.42781
linje	-9.42888
▁war	-9.42981
åpning	-9.43093
bud	-9.43161
▁1994	-9.43187
▁fest	-9.43219
styrke	-9.43296
hø	-9.43338
▁partiet	-9.43392
metode	-9.4346
fin	-9.43487
▁stan	-9.43524
stø	-9.43568
▁dansk	-9.43643
▁lokale	-9.43644
cc	-9.43736
▁pin	-9.43787
68	-9.43801
▁university	-9.43836
▁world	-9.43836
▁direkte	-9.43836
▁und	-9.4386
of	-9.43884
skjell	-9.43888
lighet	-9.43906
løst	-9.43953
gjør	-9.43962
▁sogn	-9.43985
▁pave	-9.4406
▁motstand	-9.44061
▁she	-9.44098
kle	-9.44102
handling	-9.44103
▁topp	-9.44174
▁løper	-9.4432
nntil	-9.44326
forbund	-9.44366
ische	-9.44404
side	-9.44423
nett	-9.44452
oni	-9.44475
ativ	-9.44512
▁bind	-9.44527
▁fredrik	-9.44529
▁solgt	-9.44547
ura	-9.4462
48	-9.44779
▁vår	-9.44784
ón	-9.44927
▁ett	-9.44934
heng	-9.44951
▁virke	-9.4504
▁inf	-9.45055
skifte	-9.45078
66	-9.4509
isten	-9.4513
gruppe	-9.45137
▁vik	-9.45166
vit	-9.45225
▁danske	-9.45252
▁lund	-9.45295
lov	-9.45339
bia	-9.45349
løsning	-9.45373
▁salt	-9.45519
▁eli	-9.45546
▁flat	-9.456
kunst	-9.45665
gler	-9.4582
▁dokument	-9.45836
▁ph	-9.45839
▁1991	-9.45845
hel	-9.45853
fot	-9.4586
▁langt	-9.45925
▁eldre	-9.45952
▁start	-9.46003
▁besto	-9.46004
▁lær	-9.46028
▁bad	-9.46037
syre	-9.46119
ritt	-9.46137
midler	-9.46148
▁60	-9.46235
39	-9.46312
▁hest	-9.46461
▁redaktør	-9.46548
▁hj	-9.46608
▁elva	-9.46713
▁minst	-9.46741
▁seil	-9.46962
ella	-9.47046
rike	-9.47182
▁middelalder	-9.47199
▁1996	-9.47204
▁kristian	-9.47207
ås	-9.47226
▁henhold	-9.47247
▁transport	-9.4726
ör	-9.47268
▁holdt	-9.47353
▁lengde	-9.47373
▁produkt	-9.47396
▁bygde	-9.47408
lem	-9.47528
▁anders	-9.47552
56	-9.47586
▁skade	-9.47645
▁mørk	-9.47656
▁fro	-9.47701
▁fla	-9.4775
▁cap	-9.4778
ova	-9.47796
▁ven	-9.47867
▁innbyggertall	-9.47877
▁richard	-9.47878
▁2013	-9.47894
▁bel	-9.47922
▁internasjonal	-9.47923
▁rad	-9.47982
esse	-9.47996
san	-9.48031
▁grand	-9.48165
▁gy	-9.48208
gaard	-9.48219
▁vind	-9.48259
▁pet	-9.48274
dri	-9.48274
▁gitar	-9.48364
▁sterkt	-9.48428
▁frankrike	-9.48576
▁sesongen	-9.48577
▁meget	-9.48582
▁andreas	-9.48645
ora	-9.48674
alis	-9.48758
▁perioden	-9.48863
old	-9.48906
▁che	-9.48911
▁populær	-9.4901
ick	-9.49036
ringen	-9.49054
▁arne	-9.49063
▁jean	-9.49065
ō	-9.4918
ram	-9.49215
representant	-9.49261
▁michael	-9.49261
▁betydelig	-9.49262
bilde	-9.49266
▁problem	-9.49339
yo	-9.49369
▁høyt	-9.4937
snitt	-9.49431
▁red	-9.49522
▁sve	-9.49591
brudd	-9.49615
alder	-9.49636
▁cm	-9.49761
▁tett	-9.49779
▁hovedstad	-9.49787
▁samling	-9.49822
lus	-9.49865
к	-9.49915
ο	-9.4996
у	-9.4996
▁danmark	-9.49981
ød	-9.49997
▁nordøst	-9.50008
ér	-9.5002
iserte	-9.50043
▁kost	-9.50046
▁fortsatte	-9.50075
▁syk	-9.50137
sis	-9.50146
▁borg	-9.5032
44	-9.50343
▁alb	-9.50384
arter	-9.50385
▁ky	-9.50403
▁svarte	-9.50441
▁cell	-9.50487
▁gje	-9.50531
ire	-9.50576
▁mennesker	-9.50702
sang	-9.50741
▁gården	-9.50793
▁mø	-9.51055
els	-9.51069
ografi	-9.51078
▁stav	-9.51083
▁ep	-9.51166
▁japan	-9.51181
▁landskap	-9.51272
▁verdi	-9.51298
▁modell	-9.51302
▁eksempler	-9.51374
▁international	-9.51374
▁egentlig	-9.51403
▁informasjon	-9.51413
▁england	-9.51415
88	-9.51415
▁tegn	-9.51419
▁høyde	-9.5142
▁leg	-9.51444
rat	-9.51671
▁kull	-9.51719
gard	-9.51766
▁distriktet	-9.51773
▁karakter	-9.51825
96	-9.51837
nis	-9.51861
unt	-9.51893
▁kri	-9.51972
uc	-9.5203
▁stiftet	-9.52101
trekk	-9.52119
oli	-9.5219
samisk	-9.52221
▁paris	-9.52308
▁mørke	-9.52347
▁cho	-9.52416
fører	-9.52417
▁ya	-9.52426
våg	-9.52439
▁rein	-9.52454
fjell	-9.5248
▁offisiell	-9.52491
▁lars	-9.52518
▁årlig	-9.526
ction	-9.52701
▁xiàn	-9.52808
▁2017	-9.52828
▁løv	-9.52845
foss	-9.52906
46	-9.52923
87	-9.52934
▁musiker	-9.52961
▁sports	-9.53094
vor	-9.53148
delse	-9.53171
▁professor	-9.53208
▁pra	-9.53265
52	-9.53334
▁mak	-9.53445
manns	-9.53489
industri	-9.53507
dige	-9.53543
▁hjerte	-9.53609
▁odd	-9.53647
▁nes	-9.53711
▁representerer	-9.53712
▁renner	-9.53731
delen	-9.53783
pu	-9.53801
søk	-9.53822
iller	-9.53858
spekt	-9.53908
34	-9.53983
▁maur	-9.53989
dannelse	-9.54125
▁avdeling	-9.54199
▁foss	-9.54246
▁1995	-9.54262
skjold	-9.54263
ben	-9.54389
verket	-9.54408
hund	-9.54415
▁ji	-9.54447
▁are	-9.54474
▁johann	-9.54519
70	-9.54533
det	-9.54533
▁drift	-9.54563
lund	-9.54635
▁nabo	-9.54645
69	-9.54656
▁finland	-9.5466
linjen	-9.54693
▁litteratur	-9.54735
▁sju	-9.54748
▁vit	-9.54771
vinger	-9.54805
her	-9.54886
riket	-9.54906
trykk	-9.54972
▁produsent	-9.54997
▁1970	-9.5501
▁bla	-9.55023
▁tverr	-9.55107
▁franske	-9.55113
jan	-9.5514
▁sten	-9.55162
ign	-9.55162
▁steder	-9.55258
valg	-9.5526
veg	-9.55262
arm	-9.55338
▁stre	-9.55361
▁gam	-9.55389
▁cal	-9.55443
▁effekt	-9.55457
▁sentrale	-9.5548
63	-9.55487
▁daglig	-9.55488
nu	-9.55622
▁los	-9.55673
▁fører	-9.55678
grunn	-9.55686
mid	-9.55729
α	-9.55738
▁tilsvarende	-9.55738
▁national	-9.55738
▁unge	-9.55755
▁charles	-9.55768
▁metal	-9.55773
▁giftet	-9.55803
på	-9.55807
▁kam	-9.55915
pan	-9.55951
mot	-9.55967
ori	-9.56011
tive	-9.5602
ky	-9.56045
vatnet	-9.56057
▁ansvar	-9.56081
97	-9.56089
43	-9.56104
mit	-9.56126
lå	-9.56184
▁munn	-9.56263
organisasjon	-9.5627
▁søk	-9.56274
ringer	-9.56331
jev	-9.56392
trekning	-9.56399
▁2014	-9.56507
▁anne	-9.5652
▁romersk	-9.56545
▁reg	-9.56579
▁80	-9.566
▁bolig	-9.56628
styrt	-9.56648
virkning	-9.56666
▁ara	-9.5673
shire	-9.56738
aksjon	-9.56763
▁kart	-9.56862
▁nr	-9.56916
▁sw	-9.56924
tus	-9.5695
▁strand	-9.56966
ama	-9.57017
fu	-9.57131
gul	-9.5715
▁gren	-9.57192
▁metall	-9.57198
▁besøk	-9.5726
▁2016	-9.57265
▁byprefekture	-9.57282
gin	-9.57298
▁sivil	-9.57307
kommune	-9.57324
▁natt	-9.57335
under	-9.57355
▁brukte	-9.57362
▁måte	-9.57373
▁tradisjon	-9.57409
▁delen	-9.57418
71	-9.57483
zo	-9.57579
▁forfatteren	-9.57654
▁boken	-9.57736
▁bygningen	-9.57761
▁log	-9.57825
tti	-9.57826
▁høsten	-9.57957
▁økt	-9.58139
spor	-9.58177
▁hill	-9.58201
ball	-9.58213
▁oppført	-9.5823
atur	-9.58277
▁grunnla	-9.58286
▁hovedstaden	-9.5838
sberg	-9.58442
▁harald	-9.5856
с	-9.58679
54	-9.58701
akademi	-9.58732
▁øverst	-9.58758
▁1984	-9.58768
▁spi	-9.58824
våpen	-9.58853
▁tilby	-9.58952
havet	-9.58996
hov	-9.59019
▁avis	-9.5911
sam	-9.59191
▁camp	-9.59202
▁dyre	-9.59289
▁aust	-9.59327
lam	-9.59335
▁dyp	-9.59378
▁tung	-9.59408
▁forsknings	-9.59423
tek	-9.59567
▁veg	-9.59569
ity	-9.59571
▁fått	-9.59596
▁cre	-9.59598
▁slike	-9.59732
▁och	-9.59812
sol	-9.59829
ordenen	-9.59847
▁arn	-9.59925
▁od	-9.59957
▁hvite	-9.60254
så	-9.60256
ì	-9.60301
▁1983	-9.60301
▁nærmest	-9.60306
▁tydelig	-9.60306
▁brann	-9.60336
nivå	-9.60448
▁holm	-9.60472
▁bilde	-9.60473
▁førte	-9.60478
handler	-9.6048
pla	-9.60489
▁felt	-9.60522
▁nummer	-9.60573
▁marine	-9.60601
▁sommeren	-9.60605
▁king	-9.60672
loven	-9.60688
▁omfatte	-9.60696
plante	-9.60731
▁just	-9.60745
▁middel	-9.60767
▁gjort	-9.60836
▁ledelse	-9.60836
rich	-9.60858
59	-9.6086
▁student	-9.60861
▁spar	-9.60871
orm	-9.60875
▁borger	-9.61016
kov	-9.61052
tha	-9.61053
ł	-9.61083
▁benyttet	-9.61083
teknikk	-9.61084
▁1988	-9.61096
▁1960	-9.611
▁200	-9.6111
▁haug	-9.61124
▁hører	-9.61134
wan	-9.61147
▁slo	-9.6116
▁tang	-9.61197
▁nar	-9.61208
▁lan	-9.6122
strøm	-9.61236
▁dam	-9.61262
hjul	-9.61271
▁henne	-9.61501
▁pol	-9.61518
▁glo	-9.61535
▁resultat	-9.6175
misjon	-9.61796
▁middelsstor	-9.6187
▁1977	-9.61882
skjær	-9.61883
▁1993	-9.61883
skudd	-9.61894
▁video	-9.61899
▁likevel	-9.61923
▁plate	-9.62017
korps	-9.62026
▁uttrykk	-9.6205
bånd	-9.62062
▁vid	-9.62089
anske	-9.62124
▁britisk	-9.622
▁verden	-9.6236
▁sund	-9.62445
medaljen	-9.6248
▁nederlandsk	-9.62529
tis	-9.62541
93	-9.62561
bare	-9.62586
▁motto	-9.62643
▁utnevnt	-9.62664
п	-9.62664
▁nordvest	-9.62667
pur	-9.62669
▁lufthavn	-9.62672
▁1997	-9.62677
▁jazz	-9.62695
▁sørøst	-9.62702
▁flo	-9.62718
▁museum	-9.62722
▁fjorden	-9.62741
19	-9.62744
lie	-9.62753
parti	-9.62759
▁offentlig	-9.62804
▁opprør	-9.62852
▁flu	-9.62868
▁est	-9.6289
▁fylkes	-9.62936
▁skille	-9.63017
▁horn	-9.63021
▁grenser	-9.63042
▁figur	-9.63062
win	-9.63108
▁win	-9.63113
▁stev	-9.63351
▁dato	-9.63371
▁zo	-9.63445
belteasteroide	-9.63464
▁storbritannia	-9.63464
▁1992	-9.63464
▁hovedrollen	-9.6347
▁statsminister	-9.63493
▁teknologi	-9.63505
▁variant	-9.63551
nik	-9.63642
▁union	-9.63658
lly	-9.63677
▁island	-9.63842
dorf	-9.63852
stedet	-9.63881
lang	-9.63896
sport	-9.64033
bein	-9.64041
▁stasjonen	-9.64056
▁europeisk	-9.64184
din	-9.64187
▁1981	-9.6427
▁1982	-9.6427
▁arrangere	-9.64271
hastighet	-9.64273
▁1987	-9.64284
▁italia	-9.64296
svik	-9.64316
skapet	-9.64337
▁type	-9.64378
▁kors	-9.64401
▁kvinner	-9.64423
▁fulgte	-9.64466
▁bol	-9.64475
▁ungdoms	-9.64483
▁marie	-9.64488
kraftverk	-9.64503
jiang	-9.64548
bladet	-9.64621
ence	-9.64799
▁spille	-9.64832
fang	-9.64958
▁edderkopp	-9.64987
▁ana	-9.65028
▁eldste	-9.65085
▁altså	-9.65109
▁polsk	-9.65136
▁will	-9.65137
▁søster	-9.65143
▁pop	-9.65191
etter	-9.65231
gal	-9.6524
teri	-9.65277
▁ein	-9.65287
▁delta	-9.65542
▁gor	-9.65606
▁indisk	-9.65677
krigen	-9.6571
▁erstattet	-9.65775
▁dar	-9.65834
25	-9.6584
myndighet	-9.65897
▁luc	-9.659
▁møte	-9.65901
▁fjerde	-9.65903
kommunikasjon	-9.65905
▁prosent	-9.6591
▁1968	-9.65918
▁nåværende	-9.65926
formen	-9.65942
▁idretts	-9.65957
▁drama	-9.65965
▁instrument	-9.66001
▁gram	-9.66014
museet	-9.66018
▁star	-9.66077
▁song	-9.66238
▁grense	-9.66269
▁øye	-9.66391
▁biskop	-9.66401
▁institut	-9.66435
oth	-9.66465
▁final	-9.66474
ledes	-9.66477
▁gyl	-9.66555
▁blei	-9.66571
▁råd	-9.6668
▁spill	-9.66711
▁elektro	-9.66724
vekt	-9.66725
▁profesjonell	-9.66729
▁1972	-9.66729
rådet	-9.66732
▁1985	-9.66745
▁prosjekt	-9.66754
▁typisk	-9.66763
▁hevde	-9.66808
blad	-9.66817
▁max	-9.66824
▁klasse	-9.66896
dagen	-9.66932
akk	-9.66939
79	-9.67035
▁lære	-9.67057
▁app	-9.67094
kret	-9.67097
▁epi	-9.671
eier	-9.67133
77	-9.67161
skriv	-9.67316
▁cy	-9.67324
low	-9.67375
▁thi	-9.67388
▁bay	-9.67396
ville	-9.67506
gården	-9.67528
▁elektrisk	-9.67563
▁olympisk	-9.67563
▁1945	-9.67573
▁øvre	-9.67574
▁1978	-9.67578
51	-9.67673
▁stammer	-9.67674
▁gjeste	-9.67678
▁direktør	-9.67719
▁tatt	-9.67778
▁tittel	-9.67788
▁kjerne	-9.67848
▁gui	-9.6795
▁kode	-9.67997
▁maskin	-9.68021
saker	-9.68034
▁zu	-9.68085
motor	-9.6819
lon	-9.6825
▁tank	-9.68267
field	-9.68285
kro	-9.68329
lad	-9.6834
▁sort	-9.68399
в	-9.68399
▁kategori	-9.68403
▁spesiell	-9.68404
▁1986	-9.6842
▁temperatur	-9.68428
▁2015	-9.6843
lar	-9.68448
▁provins	-9.68468
ов	-9.68515
wood	-9.68538
kra	-9.68551
▁nam	-9.68644
▁stopp	-9.68748
vendt	-9.68785
vert	-9.68861
▁real	-9.69042
▁rute	-9.69196
▁krig	-9.69217
▁poly	-9.69225
▁flaggbærer	-9.6925
▁stockholm	-9.6925
▁arabisk	-9.69252
▁musikkalbum	-9.69268
▁bøker	-9.69292
arbeider	-9.69335
▁prest	-9.6944
▁euro	-9.69452
slav	-9.69454
ary	-9.6948
▁hud	-9.69481
15	-9.69501
▁plassert	-9.69574
▁ask	-9.6961
▁bio	-9.69623
ernes	-9.69698
▁wei	-9.69705
▁bedre	-9.69722
▁lagt	-9.69735
▁gru	-9.69797
▁behandling	-9.69803
▁danse	-9.69809
cul	-9.69817
▁tj	-9.69852
gger	-9.69858
▁betegne	-9.69872
fartøy	-9.69886
▁virksomhet	-9.70067
б	-9.70105
▁åpningsseremoni	-9.70105
▁måned	-9.70139
▁dor	-9.70188
▁rik	-9.70199
49	-9.70221
▁ari	-9.7023
bol	-9.7023
▁city	-9.7024
voll	-9.70252
▁gjøre	-9.70261
▁dro	-9.70342
rek	-9.70401
middel	-9.70534
bakken	-9.70761
▁kraftig	-9.70797
▁500	-9.70836
▁landsbyen	-9.70878
▁north	-9.70947
mas	-9.70952
▁lærer	-9.70958
й	-9.70967
ς	-9.70967
▁nevnes	-9.70972
mod	-9.71112
tta	-9.71143
▁sti	-9.7131
▁utført	-9.71315
▁aldri	-9.71336
▁hoff	-9.71361
▁try	-9.71378
▁mid	-9.71404
▁typer	-9.71452
▁regjeringen	-9.7153
▁ref	-9.71549
▁nrk	-9.7155
▁syv	-9.71583
vision	-9.71612
▁fugle	-9.71645
ikken	-9.71672
bygging	-9.71696
hode	-9.71762
▁1973	-9.71837
▁norrøn	-9.71837
▁oblast	-9.71852
▁gjelder	-9.71868
12	-9.71876
ney	-9.71889
▁fremme	-9.71938
øst	-9.7197
▁mester	-9.71982
▁tegnet	-9.71993
▁ting	-9.71998
▁frukt	-9.72084
▁finans	-9.72147
▁kjøre	-9.7217
▁høyere	-9.72239
▁reform	-9.72261
figur	-9.72284
▁nan	-9.72286
▁vir	-9.72312
ark	-9.72392
▁35	-9.72423
tog	-9.72489
▁festning	-9.72521
▁90	-9.72548
con	-9.72653
▁områder	-9.72658
ppen	-9.72706
▁københavn	-9.72714
▁service	-9.72714
▁komponist	-9.72714
▁louis	-9.72715
▁krigen	-9.72716
▁drept	-9.72718
▁merke	-9.72722
▁stavanger	-9.72731
aceae	-9.72741
▁samfunns	-9.72746
84	-9.72777
▁vanlige	-9.72782
▁love	-9.72798
▁korte	-9.72868
▁klima	-9.72945
▁up	-9.72978
▁finn	-9.73053
▁pot	-9.731
kirke	-9.73154
▁forsvars	-9.73269
▁kloster	-9.73383
▁løp	-9.7342
illa	-9.73427
▁stig	-9.73504
▁vokal	-9.73507
▁skyld	-9.73534
11	-9.73574
uch	-9.73575
▁meg	-9.73578
â	-9.73599
▁parlament	-9.73599
▁enten	-9.73599
▁1975	-9.7361
ān	-9.73611
▁melodi	-9.73613
▁møtte	-9.73627
94	-9.73667
▁administrativ	-9.73699
▁festival	-9.737
get	-9.73705
08	-9.73716
▁kil	-9.73723
lutning	-9.73724
▁prisen	-9.73758
▁fjord	-9.73805
▁with	-9.73835
▁stod	-9.73892
▁buk	-9.73973
▁prim	-9.74016
▁påvirke	-9.74128
ille	-9.74212
91	-9.74284
▁mik	-9.74296
▁hopp	-9.74335
valget	-9.7449
ν	-9.74492
▁berømt	-9.74492
▁dronning	-9.74496
▁tam	-9.7454
gy	-9.74605
▁gla	-9.74649
▁albert	-9.74758
▁naturlig	-9.74774
plassen	-9.74812
▁test	-9.7482
▁feil	-9.74839
ough	-9.74859
▁gun	-9.74905
▁driv	-9.74929
▁slaget	-9.74979
trinn	-9.75017
▁drev	-9.7503
▁ramme	-9.75041
▁organisasjonen	-9.75117
▁komme	-9.75125
▁off	-9.75131
▁åpen	-9.7515
▁ube	-9.75176
▁70	-9.75243
▁wilhelm	-9.75393
́	-9.75393
▁joseph	-9.75393
▁studio	-9.75409
▁1976	-9.75411
▁spiss	-9.75416
firma	-9.75502
▁operasjon	-9.75504
gna	-9.7554
▁leir	-9.75541
▁mikro	-9.75564
23	-9.75577
▁skips	-9.75593
▁teksten	-9.75597
bygning	-9.7562
▁tsj	-9.75651
▁adel	-9.75709
somme	-9.75874
▁enhet	-9.75952
▁bomb	-9.75966
able	-9.75967
▁gil	-9.75968
utstilling	-9.75975
▁anna	-9.75987
▁hannen	-9.76027
▁nic	-9.76079
top	-9.76087
▁ledd	-9.76093
town	-9.76116
▁hed	-9.76177
▁opphav	-9.76179
skolen	-9.76189
▁cur	-9.76193
vikler	-9.76194
16	-9.76212
værende	-9.76216
▁inge	-9.76225
▁jacob	-9.76236
▁øvrig	-9.76302
▁relativ	-9.76303
▁bryst	-9.76314
▁antenne	-9.7632
▁1950	-9.76329
▁betegnelsen	-9.76332
▁rang	-9.76367
fart	-9.7638
▁verdenskrig	-9.7641
▁rygg	-9.76419
▁eksempelvis	-9.76449
levende	-9.76482
nske	-9.76522
org	-9.76523
▁malt	-9.76589
▁holder	-9.76682
drift	-9.76718
▁solo	-9.76752
▁buss	-9.768
▁rike	-9.76866
▁slutten	-9.76913
▁esp	-9.76935
▁laur	-9.77087
▁grupper	-9.77107
ical	-9.77133
finn	-9.77166
14	-9.77173
kjør	-9.77206
▁benyttes	-9.77219
▁publisert	-9.77219
▁foreldre	-9.77222
▁følge	-9.77233
▁anlegget	-9.77259
▁vå	-9.77282
на	-9.77284
gjorde	-9.77286
▁glass	-9.77412
▁totalt	-9.77417
jal	-9.77425
jar	-9.77437
▁comp	-9.77485
▁larven	-9.7751
▁tolk	-9.77624
▁hit	-9.77641
fugl	-9.77677
▁befolkningen	-9.77686
▁omtale	-9.77694
▁kommunene	-9.77719
▁sjef	-9.77726
▁tan	-9.77764
▁vold	-9.77806
fond	-9.77811
▁stol	-9.77849
kontor	-9.77866
▁jag	-9.7791
▁jule	-9.77978
än	-9.78021
ming	-9.78029
uf	-9.78038
▁rør	-9.78142
▁religiøs	-9.78145
▁gode	-9.78156
▁power	-9.78164
liste	-9.78198
▁rep	-9.78204
sper	-9.78218
▁afrika	-9.78235
99	-9.7831
▁sykdom	-9.78399
▁sag	-9.78412
awa	-9.78471
▁retts	-9.78493
▁russ	-9.78523
▁hul	-9.7854
kong	-9.78611
▁may	-9.78657
▁sur	-9.78657
▁stilling	-9.78732
enberg	-9.78776
mond	-9.78803
▁preste	-9.78902
com	-9.78907
▁fot	-9.78971
ledning	-9.78998
▁elv	-9.79016
bur	-9.79052
▁flekk	-9.79072
▁opprinnelse	-9.7908
▁1964	-9.79099
▁1967	-9.79099
▁utdanning	-9.79109
▁bruke	-9.79125
▁sverd	-9.79127
▁grev	-9.79205
▁slott	-9.79215
▁kjenn	-9.79219
▁byer	-9.79244
kilde	-9.79247
▁ris	-9.79297
▁lot	-9.79297
▁por	-9.79351
stift	-9.79483
yang	-9.79517
▁begrepet	-9.7956
▁forsøk	-9.79627
▁kvinnelig	-9.79644
jö	-9.79668
historie	-9.79704
▁skrive	-9.79767
▁bob	-9.79777
rute	-9.79792
▁rollen	-9.79901
98	-9.79909
▁retning	-9.7993
▁etablerte	-9.79951
▁krist	-9.79958
▁høye	-9.79985
▁kvi	-9.8
▁stål	-9.80027
strand	-9.80047
▁hustru	-9.80072
matisk	-9.80075
merket	-9.80139
atet	-9.80207
▁selve	-9.80227
butikk	-9.80322
17	-9.80444
▁klo	-9.8047
▁old	-9.80528
▁livs	-9.80577
kysten	-9.80626
▁hunnen	-9.80652
▁ark	-9.80663
prosess	-9.80672
▁32	-9.80694
produkt	-9.80695
▁heller	-9.80731
▁vinge	-9.80798
ß	-9.80972
▁krav	-9.80973
▁vingespenn	-9.80975
▁beijing	-9.80976
▁magnus	-9.80982
▁bakvingen	-9.80998
▁tog	-9.81013
▁hon	-9.81073
ksjonen	-9.81087
▁programmet	-9.81219
ada	-9.81224
▁symbol	-9.81333
eppe	-9.81439
▁temp	-9.81459
▁oversatt	-9.81466
ima	-9.81519
▁bane	-9.81562
▁scene	-9.8168
stol	-9.81765
mil	-9.81809
ux	-9.81811
nummer	-9.81816
▁total	-9.81822
ios	-9.81912
▁web	-9.81936
▁klassisk	-9.81938
▁brasil	-9.81955
klasse	-9.82006
▁saint	-9.8201
struksjon	-9.82041
▁hvordan	-9.82057
▁asia	-9.82194
gruppa	-9.82224
phi	-9.82314
▁qua	-9.82361
▁ann	-9.82397
▁program	-9.82414
▁markert	-9.82512
plasser	-9.82516
▁stille	-9.82531
▁størrelse	-9.82668
skij	-9.82673
fjellet	-9.82686
▁sær	-9.82708
▁amerika	-9.82804
▁penge	-9.82868
▁iii	-9.82871
▁bronse	-9.82891
ρ	-9.82908
▁1974	-9.82908
▁hvilke	-9.8291
▁ordfører	-9.82933
feltet	-9.82936
hav	-9.82956
▁derimo	-9.8297
▁ran	-9.82972
▁oppnå	-9.82973
▁lengst	-9.82976
▁daniel	-9.83007
▁resten	-9.83018
▁hær	-9.83035
▁bestemt	-9.83038
bakk	-9.83067
lokk	-9.83123
gate	-9.83129
▁gå	-9.83156
▁tim	-9.8316
▁svak	-9.83177
45	-9.83193
▁kjell	-9.83206
aya	-9.83226
▁vinner	-9.83261
▁materiale	-9.83293
▁hva	-9.83313
▁olsen	-9.83316
▁æ	-9.83477
▁music	-9.83488
▁bit	-9.83585
formede	-9.83598
▁char	-9.83659
▁tema	-9.83797
▁deriblant	-9.83888
▁sannsynlig	-9.83888
▁hverandre	-9.83889
▁club	-9.83889
▁1979	-9.83903
▁utgi	-9.83934
▁neste	-9.8395
▁karriere	-9.83961
▁award	-9.8401
▁snø	-9.8406
▁helge	-9.84065
zan	-9.84099
arkiv	-9.84189
virke	-9.84191
▁qui	-9.8425
▁universitetet	-9.84268
qua	-9.84299
car	-9.84316
én	-9.84332
kirken	-9.84332
▁mol	-9.84355
▁din	-9.84387
▁grensen	-9.844
▁område	-9.84416
▁valgte	-9.84418
▁spilles	-9.84428
▁nordlige	-9.84434
kkel	-9.84452
▁behandle	-9.84514
qi	-9.8452
▁cri	-9.84558
▁klubb	-9.84576
ith	-9.84591
hjem	-9.84671
▁hodet	-9.84713
møte	-9.84717
▁former	-9.84756
gro	-9.84787
▁skape	-9.84847
institusjon	-9.84878
▁pasient	-9.84879
▁tidsskrift	-9.8488
bach	-9.84881
▁1969	-9.84895
▁offiser	-9.84938
▁niels	-9.84969
▁flagg	-9.84995
▁amt	-9.85047
▁oppgave	-9.85058
▁sun	-9.85079
ras	-9.85184
▁kreve	-9.85191
trær	-9.85231
▁hum	-9.85237
▁cra	-9.85238
▁ekspedisjon	-9.85296
▁koloni	-9.85299
▁syr	-9.85339
▁mw	-9.85349
program	-9.85426
▁tettstedet	-9.85464
24	-9.85483
▁fisk	-9.85598
21	-9.85689
dersom	-9.8574
ledd	-9.85765
▁miste	-9.85796
▁long	-9.85805
▁sven	-9.85818
▁original	-9.85875
▁nowiki	-9.85878
▁mongol	-9.85883
▁1966	-9.85897
▁gutt	-9.85957
innspilling	-9.85967
▁kristen	-9.85992
▁skipet	-9.86004
hai	-9.86197
▁fon	-9.86352
strid	-9.86403
▁single	-9.86424
klubben	-9.86472
ulf	-9.86472
▁kontor	-9.86587
▁valgt	-9.86621
brun	-9.86659
distrikt	-9.86661
spenning	-9.86711
▁produksjons	-9.86721
vekst	-9.86744
medlem	-9.86753
post	-9.86758
▁aktivitet	-9.86782
kultur	-9.86788
▁py	-9.86821
▁150	-9.86865
ekte	-9.86878
▁sovjetunionen	-9.86888
▁1946	-9.86906
▁blue	-9.86924
▁anta	-9.86949
▁otto	-9.86958
ona	-9.86981
▁alltid	-9.86994
tag	-9.87019
vre	-9.87032
▁brand	-9.87095
▁primær	-9.87113
75	-9.87154
▁hem	-9.87163
inntekt	-9.87255
▁åpne	-9.8726
▁larsen	-9.8747
▁fange	-9.87478
former	-9.87571
komst	-9.87575
plikt	-9.87582
▁laste	-9.8759
▁fett	-9.87613
ctor	-9.8765
prisen	-9.87657
gli	-9.87659
▁menn	-9.87659
kop	-9.87661
forsvar	-9.87764
▁blomster	-9.8782
▁uavhengig	-9.87823
fre	-9.87823
handel	-9.87826
▁viste	-9.87862
ç	-9.87909
▁alternativ	-9.87909
▁hurtig	-9.8791
▁royal	-9.87916
▁vokste	-9.87919
▁sammenheng	-9.88006
▁forskning	-9.88015
▁meta	-9.88062
▁fjellet	-9.88122
▁forsvar	-9.88153
ikere	-9.88156
orp	-9.88169
▁hå	-9.88195
▁leve	-9.8821
night	-9.88247
ico	-9.88352
esisk	-9.88414
øyene	-9.88459
▁rand	-9.88474
zon	-9.88493
lapp	-9.88553
▁vær	-9.88553
▁sterk	-9.88624
▁fc	-9.88635
▁jorden	-9.88666
meter	-9.88696
▁mir	-9.88735
▁nivå	-9.88771
▁løpet	-9.88798
▁verne	-9.88811
▁israel	-9.88872
▁artene	-9.88899
▁røde	-9.88935
я	-9.8894
▁dårlig	-9.88943
åsen	-9.88944
▁utdannet	-9.88957
▁omtalt	-9.8899
▁element	-9.89004
▁fabrikk	-9.89019
▁arve	-9.8904
forhold	-9.89093
▁flyplass	-9.89123
▁led	-9.89155
øvelse	-9.89173
rup	-9.89224
▁personlig	-9.89233
cker	-9.89244
ander	-9.89267
▁handling	-9.89275
▁trafikk	-9.89325
▁simon	-9.8933
▁økonomi	-9.89345
▁regel	-9.8937
ledende	-9.894
bevegelsen	-9.89478
▁samfunn	-9.89484
47	-9.89488
▁dør	-9.89505
▁funnet	-9.89527
gor	-9.89656
kamera	-9.89676
▁rund	-9.89724
stikk	-9.89762
▁roma	-9.89772
▁sterke	-9.89794
▁rå	-9.89798
festival	-9.89863
regionen	-9.89866
dam	-9.89926
▁beskytte	-9.89946
▁ytterligere	-9.89981
▁kardinal	-9.89982
▁nevnt	-9.89982
▁sørvest	-9.89984
▁united	-9.89985
▁nordisk	-9.89996
▁neu	-9.90014
trafikk	-9.90051
▁lenger	-9.90074
▁stamme	-9.9011
▁cro	-9.90156
▁damp	-9.90199
▁kir	-9.90213
gått	-9.90285
tropp	-9.90306
vang	-9.90311
ordning	-9.90333
▁heng	-9.9036
▁160	-9.90482
▁fylket	-9.90512
bit	-9.90525
▁livet	-9.90607
▁maler	-9.90646
▁dahl	-9.90665
dommen	-9.90752
istene	-9.90786
▁nasjonale	-9.90795
▁mah	-9.90799
▁brenn	-9.90834
▁bevegelse	-9.90877
▁periode	-9.9089
▁organisasjon	-9.90898
utvikling	-9.90915
▁historiker	-9.90985
▁smith	-9.91049
▁bydistrikt	-9.91081
▁fortsette	-9.91125
37	-9.91169
stri	-9.91173
▁korea	-9.91177
▁sikkerhets	-9.91185
▁hage	-9.91218
feld	-9.91243
▁formel	-9.91263
▁pel	-9.91305
▁kampen	-9.91364
▁linjen	-9.91381
gav	-9.91579
musik	-9.91648
▁normalt	-9.91667
▁bestod	-9.91678
programmer	-9.91745
▁teori	-9.91773
▁osv	-9.91904
forbindelse	-9.92027
museum	-9.92031
▁digital	-9.92098
▁orkester	-9.92098
▁kanon	-9.92099
▁school	-9.92099
▁suksess	-9.92099
▁frederik	-9.92105
kandidat	-9.92107
▁canada	-9.92118
vold	-9.92126
▁fotballspiller	-9.92131
▁fungere	-9.92136
vari	-9.92139
35	-9.92143
▁poeng	-9.9215
▁vokser	-9.92168
▁meste	-9.92209
▁tale	-9.92231
▁eiendom	-9.92242
▁gall	-9.9227
▁henry	-9.9228
hild	-9.92357
▁frø	-9.92391
▁legge	-9.9241
▁begynner	-9.9243
phy	-9.92543
▁overgang	-9.92557
artikler	-9.9258
▁journalist	-9.92581
▁bord	-9.9262
▁petter	-9.92661
▁folket	-9.92666
fabrikk	-9.92678
serien	-9.92759
▁bass	-9.92764
▁stadig	-9.92784
▁gard	-9.92786
▁myk	-9.92791
▁havet	-9.92794
▁turist	-9.92816
▁lignende	-9.92946
stille	-9.92966
ado	-9.92984
▁but	-9.93039
▁kommun	-9.93057
▁eva	-9.93067
▁brenselkilden	-9.93173
▁objekt	-9.93174
▁kulturminne	-9.93178
▁vanskelig	-9.9318
▁1952	-9.93192
▁bevart	-9.93217
▁lansert	-9.93231
▁1900	-9.93247
▁alpin	-9.93286
▁finne	-9.93294
ín	-9.93365
basert	-9.93392
▁sim	-9.93396
▁faren	-9.93463
fyr	-9.93471
▁trolig	-9.93512
eringen	-9.93696
▁hode	-9.93747
▁varierer	-9.93796
▁sesong	-9.93809
▁jevn	-9.93822
▁ull	-9.93869
klas	-9.93878
▁bånd	-9.93997
13	-9.94094
▁base	-9.94111
▁dynastiet	-9.94144
▁tau	-9.9425
▁sistnevnte	-9.9426
advokat	-9.9426
▁tilhørte	-9.9426
▁teknisk	-9.94261
▁1940	-9.94282
▁scott	-9.94284
▁forretnings	-9.94347
gå	-9.94442
fjellene	-9.94525
▁disk	-9.94548
▁arts	-9.9459
▁areal	-9.94597
kasse	-9.9473
▁chang	-9.94782
verdig	-9.94829
▁forvingen	-9.94835
▁shan	-9.94961
▁våren	-9.94991
krig	-9.95011
▁innsjøen	-9.95166
▁seier	-9.95168
▁bibliotek	-9.95193
▁lager	-9.95249
▁undervisning	-9.95291
ô	-9.95359
▁trøndelag	-9.95359
produsent	-9.9536
▁yngre	-9.9536
▁konstant	-9.95362
▁slått	-9.95377
▁bølge	-9.95408
▁bakgrunn	-9.95409
gjeld	-9.95456
▁nasjonalpark	-9.95533
hunder	-9.95588
▁revolusjon	-9.9562
▁oppdrag	-9.95663
væ	-9.95739
▁sørlige	-9.95787
pass	-9.95883
ifisert	-9.96004
▁dj	-9.96123
steder	-9.96126
▁cru	-9.96242
▁elve	-9.96314
mur	-9.96319
▁ola	-9.9638
shan	-9.96469
č	-9.9647
▁inspirert	-9.9647
▁fremdeles	-9.96471
▁regissert	-9.96471
pin	-9.96482
prosjekt	-9.96494
republik	-9.96503
botn	-9.96539
forsker	-9.96567
renn	-9.96669
bukta	-9.96676
grupper	-9.96691
cz	-9.96732
▁cam	-9.96842
light	-9.96842
▁kongelig	-9.96847
▁sko	-9.9686
byrå	-9.96868
▁huset	-9.96916
kler	-9.96954
▁pil	-9.96964
▁kara	-9.96967
▁hæren	-9.9698
▁kjempe	-9.97214
▁havne	-9.97232
lé	-9.97406
gangen	-9.97526
dighet	-9.97539
mba	-9.97542
spørsmål	-9.97594
▁tunnel	-9.97601
▁lengre	-9.97602
▁1957	-9.97614
▁sykehus	-9.97616
▁gustav	-9.97616
virksomhet	-9.97644
miljø	-9.97671
▁endret	-9.97678
hånd	-9.97688
▁sho	-9.97736
▁tha	-9.97748
medalje	-9.97751
▁utløp	-9.97771
▁high	-9.97804
▁engelske	-9.97808
▁75	-9.97809
▁magnet	-9.97843
▁gold	-9.9793
eget	-9.97936
▁fyr	-9.98024
▁bunn	-9.98105
▁skriver	-9.98108
▁gitarist	-9.98111
▁oliv	-9.98112
▁phil	-9.9814
pal	-9.98236
▁120	-9.98359
г	-9.98363
▁reist	-9.98442
▁posisjon	-9.98469
▁bydelen	-9.98474
▁øke	-9.98479
bank	-9.98501
slått	-9.98518
▁ung	-9.98543
▁il	-9.98644
▁ost	-9.98648
▁rosen	-9.98666
vol	-9.9867
▁introdusert	-9.9873
kapasitet	-9.98731
▁autonom	-9.98732
ич	-9.98739
▁multi	-9.9874
▁south	-9.98742
▁jarl	-9.98746
▁bokstav	-9.98749
▁1948	-9.98752
▁slank	-9.98757
situasjon	-9.98765
▁straffe	-9.98779
▁styrker	-9.98799
▁unn	-9.98829
herre	-9.98886
bøker	-9.98935
dikt	-9.98993
avtale	-9.9901
▁dun	-9.99032
▁innført	-9.99068
▁jakt	-9.99117
▁trak	-9.99138
29	-9.99224
▁kin	-9.99231
▁øyene	-9.99311
▁zi	-9.9933
ami	-9.99426
▁sovjetisk	-9.99438
▁militære	-9.9948
▁lønn	-9.99494
▁troll	-9.99568
▁sønnen	-9.99597
slekt	-9.99646
▁atom	-9.99664
parken	-9.99704
løpet	-9.99719
▁vingene	-9.99751
▁friedrich	-9.99879
ι	-9.9988
konflikt	-9.9988
kompleks	-9.99881
▁himmel	-9.99889
▁forårsake	-9.99889
▁naturgass	-9.9989
▁voksne	-9.99896
▁finnmark	-9.99898
▁preget	-9.99967
▁mengde	-9.99982
marked	-9.99985
medlemmene	-10.0007
▁bibel	-10.0008
▁hente	-10.0024
▁front	-10.0026
▁fotograf	-10.0031
▁ves	-10.0034
stripe	-10.0035
▁status	-10.0041
▁fremste	-10.0044
▁gle	-10.0052
▁dekker	-10.0057
▁45	-10.0058
cal	-10.0059
▁master	-10.0059
lyst	-10.006
▁mary	-10.0065
▁vill	-10.0067
▁gruve	-10.0068
anda	-10.0079
▁papir	-10.008
▁ger	-10.0089
▁cup	-10.0094
tallet	-10.0101
▁1962	-10.0104
▁records	-10.0104
▁tilgjengelig	-10.0104
▁religion	-10.0104
▁nikola	-10.0104
▁hertug	-10.0105
▁prøve	-10.0106
▁ishockey	-10.0108
familie	-10.0111
▁kjønn	-10.0111
▁medisin	-10.0114
▁islam	-10.0118
forskning	-10.0118
søkte	-10.0118
politisk	-10.0119
album	-10.0119
▁polen	-10.0122
kjent	-10.0123
▁malm	-10.0126
plattform	-10.0128
air	-10.0133
▁befolkning	-10.0134
stasjonen	-10.0136
▁300	-10.0144
▁nedre	-10.0146
▁sider	-10.0147
▁sul	-10.0152
▁mini	-10.0153
ammen	-10.0155
skipet	-10.016
▁deles	-10.0164
▁vent	-10.0169
cheng	-10.0179
▁ali	-10.019
▁mill	-10.0195
▁hotell	-10.0204
▁forkorte	-10.0214
▁alkohol	-10.0222
▁etterhvert	-10.0222
▁alexander	-10.0222
▁gunnar	-10.0222
▁svømme	-10.0225
▁1920	-10.0225
▁tørr	-10.0226
sand	-10.0226
leir	-10.0235
univers	-10.0235
▁gua	-10.0236
▁oppsto	-10.0237
soldat	-10.0245
▁kald	-10.0248
▁cd	-10.0258
27	-10.026
▁hin	-10.0261
▁bispedømme	-10.0266
▁nav	-10.0266
verdi	-10.0266
studi	-10.0267
▁junior	-10.0268
elv	-10.0278
▁runde	-10.0291
park	-10.0294
▁chu	-10.03
mannskapet	-10.0311
32	-10.0321
ox	-10.0321
▁wil	-10.0324
▁motiv	-10.0325
▁out	-10.0326
▁fyrst	-10.0327
▁inc	-10.0329
formasjon	-10.033
▁fler	-10.0332
bal	-10.0332
▁that	-10.0338
τ	-10.0341
▁australia	-10.0341
▁kaptein	-10.0341
▁undersøkelse	-10.0341
▁palass	-10.0342
▁snart	-10.0342
▁1971	-10.0343
legging	-10.0348
▁divisjon	-10.035
▁stri	-10.0354
foreningen	-10.0354
▁streng	-10.0355
▁føde	-10.0356
▁gjer	-10.0357
forfatter	-10.036
▁för	-10.0362
▁tråd	-10.037
syke	-10.0371
▁vä	-10.0373
▁hundre	-10.0381
▁kommunal	-10.0386
beck	-10.0392
▁vm	-10.0397
28	-10.0397
▁holde	-10.0399
leng	-10.0401
▁raskt	-10.0402
aria	-10.0411
▁landsby	-10.0412
▁moren	-10.0413
▁stad	-10.0415
egnet	-10.0417
▁kok	-10.0421
▁beskriver	-10.0421
▁fan	-10.0423
rygg	-10.0423
▁verb	-10.0433
▁ulik	-10.0434
ique	-10.0434
▁grov	-10.0439
▁vakt	-10.044
▁rose	-10.0444
vard	-10.0444
▁nådd	-10.0445
▁femte	-10.0446
▁beina	-10.0451
▁utga	-10.0454
▁palm	-10.0456
▁ansatte	-10.0461
▁insekt	-10.0462
▁oppdaget	-10.0462
▁tegneserie	-10.0462
▁1951	-10.0463
▁1956	-10.0464
▁typen	-10.0467
bygget	-10.0468
▁portrett	-10.047
▁bærer	-10.0476
▁bell	-10.048
▁gjennomført	-10.0482
▁ekstra	-10.0482
▁aksje	-10.0488
▁trond	-10.0492
▁lenge	-10.0496
blomst	-10.0509
▁møter	-10.0509
▁sara	-10.0528
avdeling	-10.0528
▁skatte	-10.053
pet	-10.0532
▁svi	-10.054
▁mulighet	-10.054
▁tun	-10.0553
kort	-10.0556
slutt	-10.0562
▁brit	-10.0575
▁republikken	-10.0583
▁oscar	-10.0586
▁forenkle	-10.0589
▁snakk	-10.0591
▁mono	-10.0592
▁latinsk	-10.0594
▁filosofi	-10.0597
▁fordelt	-10.06
▁play	-10.0606
næs	-10.0608
posisjon	-10.0608
▁dobbelt	-10.061
▁organisert	-10.0614
▁likhet	-10.0616
▁skr	-10.0617
▁korn	-10.0617
▁markeds	-10.062
▁sankt	-10.0626
▁bidrag	-10.0626
ward	-10.0628
▁sca	-10.063
▁kroner	-10.0641
preg	-10.0643
stjerne	-10.0643
betegnelse	-10.0646
▁trener	-10.0648
▁dog	-10.0649
▁lån	-10.0656
▁kai	-10.066
▁adam	-10.066
▁bytte	-10.0667
lignende	-10.067
▁khan	-10.0675
▁torg	-10.0676
▁sæ	-10.0676
head	-10.0677
qu	-10.0681
lement	-10.0692
gift	-10.0697
▁geo	-10.0699
uz	-10.0705
sekretær	-10.0706
ë	-10.0707
▁prefektur	-10.0707
▁tilhørende	-10.0707
▁forteller	-10.0707
▁kontakt	-10.0708
▁referere	-10.0709
▁wu	-10.0711
dømt	-10.0716
horn	-10.0718
lich	-10.0721
kontroll	-10.0724
▁vokalist	-10.0725
▁slu	-10.0726
oma	-10.0729
▁hydro	-10.0729
kled	-10.0729
hof	-10.0733
▁mente	-10.0734
▁team	-10.0734
▁aur	-10.0742
▁tell	-10.0746
▁æres	-10.0747
▁whi	-10.0749
▁krets	-10.075
▁ec	-10.075
▁nordland	-10.0751
ulykke	-10.0754
▁populære	-10.0757
▁harry	-10.0757
arten	-10.0758
▁gli	-10.076
øren	-10.076
▁fn	-10.0762
▁exp	-10.0768
▁jar	-10.0783
▁masse	-10.0785
▁schw	-10.0794
▁fløy	-10.0796
▁human	-10.0798
zj	-10.08
▁eies	-10.0807
▁bakkroppen	-10.0808
▁offentlige	-10.081
arbeidet	-10.0813
▁selge	-10.0824
▁andersen	-10.0824
gram	-10.0824
▁manus	-10.0827
▁leon	-10.0832
▁arrangert	-10.0832
▁vietnam	-10.0832
▁inngår	-10.0832
▁selvstendig	-10.0832
▁1918	-10.0834
▁1930	-10.0835
hei	-10.0838
▁dvs	-10.0843
cio	-10.0845
psykologi	-10.0845
▁lau	-10.085
▁sveits	-10.0854
▁vekst	-10.0856
▁enkle	-10.0857
▁lavere	-10.0858
▁billed	-10.086
▁ungdom	-10.0863
▁syl	-10.0866
▁sendte	-10.0868
hev	-10.0877
flue	-10.0891
▁kvalitet	-10.0898
hagen	-10.091
▁bredt	-10.0922
▁flor	-10.0923
▁foto	-10.0926
▁artikkel	-10.0929
visning	-10.0944
bille	-10.095
▁vet	-10.0953
▁irsk	-10.0955
▁debutalbum	-10.0958
▁tilknyttet	-10.0958
▁1941	-10.0958
▁passasjer	-10.0958
▁1965	-10.0961
▁philip	-10.0962
fred	-10.0964
▁forsker	-10.0966
▁michel	-10.0966
grim	-10.0966
▁bull	-10.0967
▁matt	-10.0972
duk	-10.0979
▁nederland	-10.0984
▁kaller	-10.0986
▁kop	-10.0993
funksjon	-10.0993
▁underlagt	-10.0994
effekt	-10.0995
▁sats	-10.0996
snegl	-10.0996
▁dio	-10.0996
▁avslutte	-10.1003
▁kraftige	-10.1003
tain	-10.101
låt	-10.1011
yuan	-10.1013
▁kva	-10.1021
▁green	-10.103
▁400	-10.1032
22	-10.1045
høgskole	-10.1046
▁katolske	-10.105
jon	-10.1054
▁områdene	-10.1054
▁santa	-10.1055
▁tann	-10.1055
▁arch	-10.1064
▁øre	-10.1066
▁listen	-10.1068
▁koll	-10.1071
▁с	-10.1075
▁storm	-10.1085
▁wall	-10.1086
▁etterfulgt	-10.1087
▁publikum	-10.1087
▁jørgen	-10.1087
▁company	-10.1087
▁moskva	-10.1087
▁jakob	-10.1087
▁college	-10.1087
kommando	-10.1087
▁tolv	-10.109
▁stiftelse	-10.109
▁ansvarlig	-10.1093
wald	-10.1096
utvalg	-10.1097
▁avisen	-10.1104
▁foreningen	-10.1104
▁overflate	-10.1118
▁iso	-10.1122
▁struktur	-10.1123
▁server	-10.1131
▁hammer	-10.1147
▁magasin	-10.1149
▁stoff	-10.1157
▁elver	-10.1158
▁yo	-10.1167
▁dialekt	-10.1171
drevet	-10.1175
ici	-10.1176
nam	-10.1176
▁tromsø	-10.1181
▁tå	-10.1185
▁gö	-10.1185
▁forsvaret	-10.1185
▁vig	-10.119
utgivelse	-10.1191
▁mei	-10.1198
afrikansk	-10.1204
endt	-10.1205
▁utstyrt	-10.1206
▁idrettslag	-10.1208
næring	-10.1213
▁individ	-10.1216
▁kjærlighet	-10.1216
friidrettsutøver	-10.1217
▁østerrike	-10.1217
regissør	-10.1218
▁beat	-10.1219
▁håkon	-10.1219
▁kropps	-10.1224
▁artister	-10.1225
▁mangler	-10.1231
▁bosetning	-10.1236
▁popul	-10.1236
sentre	-10.1239
▁hval	-10.1239
▁bodde	-10.1241
setting	-10.1245
▁ytre	-10.1247
gjort	-10.125
▁brem	-10.1253
tilbud	-10.1253
▁familiegrupp	-10.1255
konkurranse	-10.1257
▁levert	-10.1261
▁svein	-10.1272
▁studier	-10.1274
forbundet	-10.1274
▁strid	-10.1274
▁skilt	-10.1278
▁american	-10.128
komite	-10.1285
▁angel	-10.1285
▁ken	-10.1291
▁vers	-10.1293
▁tettsted	-10.1298
▁spre	-10.1309
▁jim	-10.1331
▁prins	-10.1332
▁historien	-10.1345
▁utvikler	-10.1347
▁konkurranse	-10.1347
▁california	-10.1348
▁millimeter	-10.1348
▁nærmere	-10.1349
▁stortings	-10.1351
artist	-10.1351
▁grunnlegger	-10.1353
▁mytologi	-10.1354
bedrift	-10.1362
▁havn	-10.1364
▁sukker	-10.1365
cent	-10.1369
galleri	-10.137
▁spillet	-10.1371
▁vestlig	-10.1373
▁kari	-10.1376
▁salg	-10.1384
▁kreft	-10.1386
▁kalk	-10.1389
hed	-10.1398
strømmen	-10.1407
▁romanen	-10.1408
nytt	-10.141
▁intern	-10.1418
kjempe	-10.1424
▁ønske	-10.1436
stått	-10.1439
▁aas	-10.1441
▁forbundet	-10.1443
▁frihet	-10.1458
cca	-10.1468
▁sendt	-10.1475
enburg	-10.1475
▁div	-10.1477
▁starter	-10.1478
▁århundre	-10.1481
▁fiolin	-10.1482
▁oversettelse	-10.1482
▁fokus	-10.1482
▁betjene	-10.1483
▁drammen	-10.1484
▁län	-10.1492
▁avhengig	-10.1495
▁bære	-10.1496
istikk	-10.1504
▁slett	-10.1506
▁endte	-10.1509
▁hellige	-10.1516
▁bevis	-10.1531
dekk	-10.1534
▁lyn	-10.1536
▁tradisjonel	-10.1548
▁tour	-10.1548
▁kvart	-10.1552
bukk	-10.1556
▁innhold	-10.1562
▁bydel	-10.1563
▁utstyr	-10.1574
teori	-10.1575
▁utover	-10.1596
▁politiet	-10.1598
spir	-10.1605
plate	-10.161
▁innflytelse	-10.1617
▁1961	-10.1617
▁ludvig	-10.1617
▁deutsche	-10.1617
▁redusere	-10.1617
▁studioalbum	-10.1617
▁1963	-10.1619
▁1958	-10.1619
▁stadion	-10.1623
▁jordbruk	-10.1623
ск	-10.1628
▁omfattende	-10.1629
▁spin	-10.1634
rommet	-10.164
stav	-10.1642
26	-10.1642
▁spise	-10.1645
kanten	-10.1653
▁sikre	-10.1653
▁falt	-10.1655
▁studenter	-10.1656
pleie	-10.1659
turbin	-10.166
▁tårn	-10.1661
ington	-10.1668
▁uttale	-10.1669
ligste	-10.167
spinner	-10.1672
▁river	-10.1683
▁kanalen	-10.1685
oksid	-10.1691
▁vannet	-10.1693
▁funn	-10.1696
▁1800	-10.17
ition	-10.1704
organisasjonen	-10.1715
▁kg	-10.1723
▁bestående	-10.1725
▁kontrakt	-10.1727
▁term	-10.1727
▁37	-10.1738
▁ferge	-10.1739
▁egypt	-10.1753
ström	-10.1754
▁1944	-10.1756
▁skjedde	-10.1757
▁pedersen	-10.1759
sending	-10.1761
▁spania	-10.1762
38	-10.1765
parten	-10.1776
▁sete	-10.1785
▁smak	-10.1788
▁dekk	-10.1789
▁birk	-10.1789
▁rask	-10.179
▁fremst	-10.1799
▁kyr	-10.181
▁innsjø	-10.181
▁33	-10.1811
▁tilfelle	-10.1815
▁emil	-10.1817
▁oc	-10.1817
rekord	-10.182
▁kim	-10.1822
▁skapte	-10.1823
▁vunnet	-10.1824
▁dommer	-10.1832
▁kjøtt	-10.1834
lock	-10.1844
▁oh	-10.1845
jä	-10.1849
▁landbruks	-10.1856
iansk	-10.1868
▁kha	-10.1883
▁47	-10.1888
kall	-10.1889
bygningen	-10.189
▁regional	-10.1891
▁science	-10.1892
▁ridder	-10.1894
▁1954	-10.1895
▁skotsk	-10.1895
▁formula	-10.1899
▁street	-10.1901
▁trommer	-10.1902
▁bakterie	-10.1903
▁ingeniør	-10.1906
strup	-10.1906
▁reaksjon	-10.1908
sdatter	-10.1921
▁utføre	-10.1923
politikk	-10.1938
▁raf	-10.1948
▁offisiel	-10.1954
avgift	-10.1955
▁normal	-10.1958
▁maleri	-10.1958
▁kunnskap	-10.1961
bred	-10.1965
slekten	-10.1969
▁tilstand	-10.1971
0	-10.1974
▁rei	-10.1978
▁sab	-10.1988
▁planter	-10.1995
▁yi	-10.2001
▁anton	-10.2004
eira	-10.2005
▁back	-10.2007
fell	-10.2019
▁akk	-10.2028
▁grøn	-10.2029
▁sjelden	-10.2033
▁oppstår	-10.2033
▁generelt	-10.2033
▁ekteskap	-10.2035
▁1955	-10.2036
▁ligner	-10.2037
farget	-10.2039
▁kjøl	-10.204
▁grunnlegge	-10.204
serie	-10.2041
▁kapell	-10.2056
bøl	-10.2059
▁bygda	-10.2059
▁alder	-10.2061
▁vitenskapelig	-10.2062
▁årsak	-10.2063
▁show	-10.2064
▁bygger	-10.2067
▁morgen	-10.2076
▁strekk	-10.2077
▁singel	-10.2081
institutt	-10.2084
krutt	-10.2085
▁fau	-10.2088
31	-10.2091
samfunn	-10.2099
▁nyere	-10.2102
ев	-10.2102
gjøring	-10.2104
▁polar	-10.2108
▁jin	-10.2126
▁sideelv	-10.2131
vall	-10.2134
▁38	-10.2134
stone	-10.2153
mennene	-10.2155
▁overfor	-10.2159
▁slå	-10.2169
zhi	-10.2171
▁toppen	-10.2172
▁1942	-10.2176
▁administrere	-10.2176
▁færøyene	-10.2176
▁vulkan	-10.2176
▁eventyr	-10.2176
▁redusert	-10.2176
▁yrkes	-10.2176
▁rolf	-10.2177
▁terror	-10.2177
▁etterfølger	-10.2178
▁major	-10.2184
▁formål	-10.2187
ktive	-10.2189
▁blokk	-10.2193
▁einar	-10.22
vakt	-10.2213
støt	-10.2217
▁verket	-10.2217
▁170	-10.2221
▁skar	-10.2221
vannet	-10.2238
▁rune	-10.2239
▁athen	-10.2248
lønn	-10.2256
▁beskrevet	-10.2259
▁rekord	-10.2263
sekund	-10.2266
grå	-10.2275
▁home	-10.2277
teater	-10.229
▁pap	-10.229
▁føl	-10.2294
▁utvidet	-10.2294
tysk	-10.2298
kelsen	-10.2306
▁bou	-10.2308
▁1000	-10.231
▁medisinsk	-10.2314
seth	-10.2315
▁kjemisk	-10.2321
▁arthur	-10.2321
frekvens	-10.2321
▁kritikk	-10.2321
▁territo	-10.2322
ál	-10.2324
▁dominere	-10.2327
▁1910	-10.2327
jønn	-10.2328
▁toll	-10.2337
distanse	-10.2344
▁heg	-10.235
sundet	-10.2351
▁az	-10.2351
▁lyng	-10.2354
▁ray	-10.2365
▁drei	-10.2367
▁rai	-10.237
▁kristne	-10.2373
▁samarbeidet	-10.2388
øm	-10.2396
bekk	-10.2402
▁rat	-10.2418
ко	-10.2425
▁bidra	-10.2443
▁ledes	-10.2444
▁prosjektet	-10.246
▁saga	-10.2466
▁1953	-10.2468
▁shanghai	-10.2468
▁christoph	-10.2468
▁oversikt	-10.2468
▁cirka	-10.2468
▁væske	-10.2469
▁nedenfor	-10.2469
▁1949	-10.247
▁ibsen	-10.2476
sikring	-10.2479
▁øker	-10.2483
havn	-10.2492
jå	-10.2496
▁jack	-10.2504
▁ønsket	-10.2523
▁jøde	-10.2525
▁viking	-10.2528
▁begrep	-10.2541
magasin	-10.2545
▁rosa	-10.2548
modell	-10.2548
▁herman	-10.2552
spiss	-10.2562
▁konkurransen	-10.2571
▁nak	-10.2572
punktet	-10.2575
stemt	-10.2583
▁num	-10.2588
▁turner	-10.259
▁politikk	-10.2592
▁metro	-10.2596
opera	-10.2608
versjon	-10.2612
▁fry	-10.2617
▁nødvendig	-10.2617
▁heavy	-10.2617
ovitsj	-10.2618
▁1929	-10.2619
▁definere	-10.2619
▁soldater	-10.2623
▁jackson	-10.2623
▁claud	-10.2625
▁alfred	-10.2626
▁hjerne	-10.2631
▁german	-10.2632
▁deltaker	-10.2634
▁utnytte	-10.264
▁signal	-10.2644
āng	-10.2647
▁forble	-10.2648
myr	-10.2651
▁tynn	-10.2654
▁planet	-10.2654
▁from	-10.2656
▁rest	-10.2657
▁brev	-10.2661
▁legger	-10.2662
domstol	-10.2668
▁fullstendig	-10.2677
▁vestre	-10.2693
▁gaten	-10.2693
født	-10.2702
▁stam	-10.2707
▁tross	-10.2707
▁irland	-10.2708
▁audi	-10.2716
▁kapp	-10.2719
▁bakke	-10.2725
▁virkelig	-10.273
komedie	-10.273
▁mobil	-10.2733
▁mala	-10.2735
▁fru	-10.2739
arrangement	-10.2769
▁astronom	-10.2769
▁utgangspunkt	-10.2769
▁fødsel	-10.2769
▁skottland	-10.2769
▁kombinert	-10.2769
rådgiver	-10.2769
▁episode	-10.2769
▁golf	-10.277
▁adresse	-10.277
▁edward	-10.2771
▁nattfly	-10.2772
▁pierre	-10.2773
faktor	-10.2774
▁bekrefte	-10.2775
▁komposisjon	-10.2775
▁protest	-10.2777
▁hersker	-10.2779
▁slave	-10.2781
▁flertall	-10.2785
eksamen	-10.279
▁gjenopp	-10.2791
▁arkitektur	-10.2794
forestilling	-10.2805
▁ansatt	-10.2808
▁shu	-10.2811
▁lim	-10.2815
▁norman	-10.2817
▁nordre	-10.2818
▁aar	-10.2833
▁kammer	-10.2836
▁tapte	-10.284
jord	-10.2841
▁østlig	-10.2846
▁beskrev	-10.2846
passet	-10.2848
▁nettverk	-10.2851
wick	-10.2853
▁800	-10.287
behandling	-10.2871
▁600	-10.2872
ridge	-10.2872
administrasjon	-10.2882
▁kveld	-10.2893
ан	-10.2898
▁tonn	-10.2914
demokra	-10.2916
▁skulptur	-10.2923
▁konkurrere	-10.2923
▁tyrkisk	-10.2923
▁jødisk	-10.2923
▁begynnelsen	-10.2923
▁benytter	-10.2923
▁1947	-10.2925
▁1925	-10.2925
▁litterær	-10.2926
hjørne	-10.2927
▁cover	-10.2928
▁klassen	-10.293
▁eksistere	-10.2938
▁ey	-10.2943
tempelet	-10.2944
roman	-10.2948
▁wolf	-10.2953
hvelv	-10.2953
▁salme	-10.2954
▁skatt	-10.2971
▁bilder	-10.2982
▁svar	-10.301
▁sammenligne	-10.3025
▁modern	-10.3028
sikkerhet	-10.3034
▁villa	-10.3037
masse	-10.3037
▁sunn	-10.3046
▁tildele	-10.3062
olje	-10.3072
▁brødrene	-10.3079
▁elisabeth	-10.3079
▁dekkvingene	-10.3079
▁pakistan	-10.3079
▁erkebiskop	-10.3079
▁betrakte	-10.3079
▁positiv	-10.3079
konferanse	-10.3079
▁nemlig	-10.3079
▁adolf	-10.3079
▁rektor	-10.3079
pedagog	-10.308
▁naturreservat	-10.308
▁bøkene	-10.308
▁karbon	-10.308
▁global	-10.308
▁pul	-10.308
▁1908	-10.3081
opplæring	-10.3081
▁1959	-10.3081
▁inndelt	-10.3082
rettigheter	-10.3082
▁forbinde	-10.3084
skilt	-10.3084
sats	-10.3087
▁nærheten	-10.3087
▁stab	-10.3096
kretsen	-10.3104
▁geir	-10.311
perioden	-10.312
▁fiktiv	-10.3122
fold	-10.3128
▁bert	-10.3139
▁140	-10.314
▁endelig	-10.3142
mesterskapet	-10.3153
raj	-10.3162
▁musikalsk	-10.3169
▁visse	-10.317
økonomi	-10.3175
materiale	-10.3175
tekst	-10.3184
blikk	-10.3187
hand	-10.3187
▁liber	-10.3187
▁modellen	-10.3203
▁frei	-10.3215
▁carol	-10.3217
årene	-10.3234
ь	-10.3237
▁bidro	-10.3238
▁stortinget	-10.3238
▁1939	-10.3241
▁1936	-10.3241
▁fremført	-10.325
▁east	-10.3253
registre	-10.3255
▁bispe	-10.3257
▁ash	-10.3257
▁plassering	-10.3264
områdene	-10.3265
▁filosof	-10.3273
reise	-10.3274
høyskole	-10.3277
ansett	-10.3281
▁fantes	-10.3282
▁karakteristisk	-10.3297
▁cli	-10.3301
▁nerve	-10.3304
kode	-10.3314
▁stabil	-10.3338
▁larve	-10.3339
kanalen	-10.3343
litt	-10.3345
melding	-10.3348
dommer	-10.3354
oid	-10.3367
recht	-10.3383
▁vegg	-10.3385
▁krim	-10.339
▁dol	-10.3396
▁eksperiment	-10.3399
▁1904	-10.3399
▁diagnos	-10.3399
▁komponert	-10.3399
▁mekanisk	-10.3399
▁ekstrem	-10.3399
▁utmerkelse	-10.3399
komité	-10.34
▁oberst	-10.34
▁1928	-10.3401
▁brown	-10.3401
▁1912	-10.3401
▁mineral	-10.3402
▁utvikle	-10.3409
halvøya	-10.3409
stamme	-10.3411
▁innsats	-10.3412
▁donau	-10.3417
ōng	-10.3418
▁ernst	-10.3432
▁cath	-10.3435
▁great	-10.3439
▁life	-10.3449
delingen	-10.3451
▁lunge	-10.3454
fabrik	-10.3468
løv	-10.347
▁prakt	-10.3475
▁motsetning	-10.3483
kommisjon	-10.3484
▁cel	-10.3499
hjelp	-10.3503
▁fritt	-10.3514
regning	-10.3519
bunn	-10.3521
dahl	-10.3525
▁roger	-10.3533
▁øyne	-10.3547
▁observa	-10.3558
▁guvernør	-10.3563
▁ukrainsk	-10.3563
▁utelukke	-10.3563
kompetanse	-10.3563
▁vesentlig	-10.3563
bjørg	-10.3563
▁utbredt	-10.3563
▁angripe	-10.3564
▁andré	-10.3564
▁kryp	-10.3564
stipend	-10.3566
strategi	-10.3567
▁telemark	-10.3567
▁internett	-10.3568
tjenesten	-10.3571
bury	-10.3572
stråle	-10.3577
rapport	-10.3582
▁mynt	-10.3583
▁beskrive	-10.359
▁plast	-10.3595
▁tykk	-10.36
▁troms	-10.3614
▁sender	-10.3635
farge	-10.3646
blå	-10.3647
▁skyte	-10.3648
▁sign	-10.3654
▁histori	-10.366
vingen	-10.3666
▁statlig	-10.3666
aften	-10.367
konsert	-10.3678
tittel	-10.3679
ww	-10.3689
assi	-10.3691
▁wang	-10.3693
▁ankom	-10.3694
ordnet	-10.3694
▁hil	-10.37
▁skall	-10.3702
givelse	-10.371
▁kino	-10.3717
bestemmelse	-10.3724
▁konservativ	-10.373
▁sigurd	-10.373
▁alvorlig	-10.373
▁faktisk	-10.373
▁für	-10.373
▁premier	-10.3731
▁1932	-10.3731
▁1937	-10.3732
▁josé	-10.3732
▁telefon	-10.3732
▁vii	-10.3733
analyse	-10.3733
apparat	-10.3737
▁pik	-10.374
▁veldig	-10.3743
▁piano	-10.3746
▁hovedsak	-10.3747
▁bodø	-10.3749
▁grund	-10.376
▁1500	-10.3761
ligning	-10.3763
▁1600	-10.3776
▁kirk	-10.3784
▁molde	-10.3793
▁peder	-10.3797
▁carlo	-10.3832
▁rap	-10.3834
angrep	-10.385
sønn	-10.388
▁dverg	-10.3882
▁1906	-10.3899
▁initiativ	-10.3899
▁hebraisk	-10.3899
▁erklært	-10.3899
grunnsstasjon	-10.3899
▁muslim	-10.3899
▁geometr	-10.3899
▁fysisk	-10.3899
strøk	-10.39
▁klatre	-10.39
▁1921	-10.3901
mønster	-10.3901
▁godkjent	-10.3902
▁opptrer	-10.3902
▁tabellen	-10.3903
gass	-10.3904
▁group	-10.3907
▁tennis	-10.3907
▁eksport	-10.3911
▁luther	-10.3914
▁forbunds	-10.3919
▁drives	-10.392
▁operere	-10.3924
▁liberal	-10.3931
▁sikte	-10.3934
▁class	-10.3936
▁kunde	-10.3941
▁hørt	-10.3943
mä	-10.3945
▁mitt	-10.3949
skjerm	-10.3957
turnering	-10.3982
▁ulv	-10.3989
▁dekket	-10.3999
▁skinn	-10.4004
▁homo	-10.4008
støtte	-10.4014
struktur	-10.4023
historisk	-10.4024
ва	-10.4024
president	-10.4027
▁liga	-10.4029
løft	-10.4032
▁poli	-10.4032
stokk	-10.4051
utgave	-10.4051
▁klokken	-10.4052
▁handle	-10.4055
▁anse	-10.4057
▁symptom	-10.4071
▁1933	-10.4071
▁erobret	-10.4072
▁county	-10.4072
▁http	-10.4072
fysikk	-10.4072
▁utenlandsk	-10.4073
konsernet	-10.4073
▁generasjon	-10.4074
▁1914	-10.4074
▁håndball	-10.4076
▁kub	-10.4077
▁spring	-10.4077
▁import	-10.4077
▁sjanger	-10.4078
▁franz	-10.4086
▁vanligste	-10.4088
▁håndverk	-10.409
▁sammenlagt	-10.409
▁house	-10.4097
følelse	-10.4102
koll	-10.4113
polis	-10.4117
▁snu	-10.4117
▁motsatt	-10.4128
▁synlig	-10.4133
▁drap	-10.4136
▁nova	-10.4145
utvalget	-10.4147
▁låten	-10.416
▁skarp	-10.4164
▁klokke	-10.4182
lista	-10.4194
▁130	-10.4196
flate	-10.4204
front	-10.4206
▁bredde	-10.4226
▁psyko	-10.4229
▁forklare	-10.4241
▁tempel	-10.4242
▁trommeslager	-10.4247
▁geografisk	-10.4247
▁ungarsk	-10.4247
▁fattig	-10.4247
▁serbisk	-10.4248
regulering	-10.4248
referanse	-10.4249
▁spredt	-10.4249
▁1919	-10.425
▁pont	-10.4252
▁bygninger	-10.4255
▁maj	-10.4258
▁nedlagt	-10.426
kammer	-10.4279
▁vu	-10.4281
▁munk	-10.4284
▁walter	-10.4291
▁furu	-10.4294
▁katolsk	-10.4297
▁forekommer	-10.4297
▁prinsipp	-10.4299
▁utøver	-10.4302
setningen	-10.4314
▁tusen	-10.4317
forsyning	-10.4322
▁drikke	-10.4324
stell	-10.4327
▁who	-10.4332
▁baron	-10.4332
trener	-10.4333
▁utenriks	-10.4356
▁sikker	-10.4356
▁bau	-10.4357
trukket	-10.437
skrevet	-10.437
frukt	-10.4384
programmet	-10.4387
etasje	-10.441
▁jam	-10.4423
temp	-10.4424
wei	-10.4424
▁oksygen	-10.4425
▁antagelig	-10.4426
▁innebærer	-10.4426
▁kongedømme	-10.4426
▁kontinent	-10.4426
▁heinrich	-10.4426
▁ovenfor	-10.4426
▁foregår	-10.4426
▁negativ	-10.4426
▁lørdag	-10.4426
▁fjellkjede	-10.4426
▁tilsvarer	-10.4426
▁nicola	-10.4428
▁sverre	-10.4429
▁francisco	-10.4429
▁rednings	-10.443
▁planlagt	-10.443
▁lokalisert	-10.4433
▁passerer	-10.4436
ст	-10.4444
▁gradvis	-10.4445
▁skrå	-10.4446
▁nød	-10.4446
register	-10.445
▁sørover	-10.4463
årig	-10.4464
▁befinne	-10.4473
▁rulle	-10.4474
lengde	-10.4477
▁sovjet	-10.4495
▁bratt	-10.4513
▁egil	-10.4535
▁signert	-10.4541
▁semi	-10.4545
▁unna	-10.4563
kreft	-10.4564
▁110	-10.4592
scene	-10.4596
▁høg	-10.4597
ć	-10.4607
▁jesuitt	-10.4607
▁portugisisk	-10.4607
giovanni	-10.4607
▁1909	-10.4607
▁anerkjent	-10.4608
▁kallenavn	-10.4608
▁batteri	-10.4608
▁1931	-10.4609
▁1938	-10.4609
▁novell	-10.461
▁1934	-10.461
▁skjønn	-10.4612
▁antonio	-10.4614
▁biografi	-10.4618
▁ukjent	-10.4622
▁ltd	-10.4623
▁legend	-10.4626
▁sørge	-10.4626
▁feire	-10.4627
▁flåte	-10.4627
ittisk	-10.4632
▁jernbanestasjon	-10.465
▁fotballklubb	-10.4655
▁brei	-10.4658
▁reserve	-10.4662
▁hou	-10.4667
thal	-10.4671
breen	-10.4676
dyktig	-10.4685
vatn	-10.4699
personell	-10.4703
blom	-10.4705
▁verksted	-10.4709
atus	-10.4715
▁kaste	-10.4732
tårnet	-10.4743
ин	-10.4743
▁indo	-10.4746
direktør	-10.4758
▁water	-10.4758
▁forsøkt	-10.477
▁arc	-10.4774
▁xu	-10.4775
brand	-10.4781
zel	-10.4784
▁span	-10.4785
ар	-10.4789
▁overleve	-10.479
▁restaurant	-10.4792
▁league	-10.4792
▁akershus	-10.4793
▁eventuel	-10.4793
▁registrert	-10.4793
▁rogaland	-10.4793
▁forbedre	-10.4793
▁myndighetene	-10.4795
▁romsdal	-10.4795
▁unntak	-10.4797
▁generell	-10.4799
▁hovedkontor	-10.4804
følgende	-10.4808
ifikasjon	-10.4809
▁koreansk	-10.481
▁rapporter	-10.4813
▁down	-10.4815
▁johansen	-10.4819
▁700	-10.482
▁victoria	-10.4822
▁nevro	-10.4826
▁nau	-10.4831
▁hotel	-10.4842
▁morten	-10.4844
▁proto	-10.4866
▁lykke	-10.4885
▁silke	-10.4886
▁mølle	-10.4892
▁katedral	-10.4906
setninger	-10.4928
▁victor	-10.4959
høyden	-10.4962
▁250	-10.4976
mottak	-10.4977
ро	-10.4979
▁installert	-10.4981
▁1901	-10.4981
▁fengsel	-10.4981
▁kollektiv	-10.4981
admiral	-10.4981
▁skihopp	-10.4981
▁thailand	-10.4981
▁konstruert	-10.4981
ль	-10.4983
▁blanding	-10.4983
▁1935	-10.4983
▁1917	-10.4984
▁1923	-10.4984
terminal	-10.4984
▁social	-10.4985
terapi	-10.4985
▁monark	-10.4986
▁fullført	-10.4987
▁tilhenger	-10.4987
▁blank	-10.4992
▁bety	-10.4992
▁bygnings	-10.4998
▁armé	-10.5014
▁behov	-10.5017
▁wol	-10.5029
regime	-10.5062
▁rab	-10.5068
▁strak	-10.508
bü	-10.5089
departement	-10.5097
▁plateselskap	-10.5112
▁kommunistisk	-10.5115
ifisering	-10.5116
▁sveitsisk	-10.514
▁blind	-10.5144
▁bjørk	-10.5173
▁molekyl	-10.5173
▁kombinasjon	-10.5174
▁terreng	-10.5174
▁byfylke	-10.5174
▁originaltittel	-10.5174
▁doktorgrad	-10.5174
▁belgisk	-10.5175
▁edvard	-10.5177
▁stadium	-10.518
▁røyk	-10.518
relatert	-10.5184
▁britis	-10.5187
▁uavhengighet	-10.519
▁corp	-10.5191
▁score	-10.5192
▁ungdomsskole	-10.5198
nettverk	-10.5201
utstyr	-10.5214
brakte	-10.5215
▁johnson	-10.5227
▁nordover	-10.5232
▁kvalifiser	-10.5253
vindu	-10.526
▁sving	-10.526
▁hä	-10.5261
▁kristin	-10.5268
▁wild	-10.5307
▁small	-10.5318
skatt	-10.5324
▁kru	-10.5333
instrument	-10.5346
provins	-10.5347
▁islandsk	-10.5362
phon	-10.5364
budsjett	-10.537
▁australsk	-10.537
▁bulgaria	-10.537
▁jacque	-10.537
▁mexico	-10.537
▁infanteri	-10.537
▁styrmann	-10.537
▁parallell	-10.537
▁søndag	-10.537
▁skildre	-10.537
▁kritiker	-10.537
▁tømmer	-10.537
▁utseende	-10.537
▁definert	-10.537
▁1922	-10.5372
▁sentralbank	-10.5372
▁1911	-10.5372
▁hedmark	-10.5373
▁krevd	-10.5375
mission	-10.5383
▁onkel	-10.5383
▁jacobsen	-10.5384
start	-10.5392
▁tekstil	-10.5407
▁beskrivelse	-10.5408
▁besetning	-10.5424
▁reich	-10.5427
kommen	-10.5438
▁lord	-10.5441
▁him	-10.5442
▁ørn	-10.5449
▁beregne	-10.5457
fallende	-10.5457
redaksjon	-10.5461
sosialistisk	-10.5468
▁grevskap	-10.5476
ра	-10.5482
▁høst	-10.55
▁demokratisk	-10.5513
▁avvist	-10.5519
▁kval	-10.5536
▁mau	-10.555
bæk	-10.556
▁barcelona	-10.557
▁beseiret	-10.557
▁varaordfører	-10.557
▁windows	-10.557
▁1905	-10.557
vassdraget	-10.557
strek	-10.557
▁opptrådt	-10.557
▁fenomen	-10.557
▁systematikk	-10.557
▁nominert	-10.557
▁hendelsen	-10.557
maleri	-10.5572
▁diplomat	-10.5581
▁demningen	-10.5583
▁divers	-10.5583
▁anledning	-10.5584
▁redd	-10.5585
fløy	-10.5587
bebyggelse	-10.5593
▁1898	-10.5593
▁cross	-10.5596
ingeniør	-10.5605
▁mottatt	-10.5609
▁good	-10.5611
titler	-10.5627
▁lill	-10.5633
▁little	-10.5636
▁trenings	-10.5646
owski	-10.5657
▁punk	-10.566
tavle	-10.5681
fast	-10.5702
▁kiel	-10.5703
▁håp	-10.5714
skyting	-10.5722
bringe	-10.5737
divisjon	-10.5758
▁ytter	-10.5758
transport	-10.5759
design	-10.5762
funn	-10.5763
▁estisk	-10.5768
gjennom	-10.5769
▁francis	-10.577
▁vev	-10.5772
kål	-10.5772
▁undergrunnsbane	-10.5774
▁association	-10.5774
▁bulgarsk	-10.5774
▁electric	-10.5774
▁münchen	-10.5774
▁country	-10.5774
▁symfoni	-10.5774
▁european	-10.5774
▁amatør	-10.5774
▁komplett	-10.5774
▁josef	-10.5774
▁valuta	-10.5774
▁kobber	-10.5774
▁partner	-10.5775
▁programleder	-10.5777
▁hovedkvarter	-10.5777
▁firmaet	-10.5777
▁fjernsyn	-10.5778
▁programvare	-10.5779
▁hemmelig	-10.5779
▁skaffe	-10.5781
▁kritiser	-10.5781
▁bevege	-10.5782
▁hitler	-10.5789
▁angeles	-10.5791
overføring	-10.58
▁herfra	-10.5802
▁bassist	-10.5813
▁utbygging	-10.5814
▁christiania	-10.5826
karriere	-10.583
▁agder	-10.583
▁hekk	-10.5833
areal	-10.585
▁drepe	-10.5857
kjøring	-10.586
▁glu	-10.5865
▁innerst	-10.5892
ла	-10.5897
▁henri	-10.5927
vitenskapelige	-10.594
▁jente	-10.5941
▁chris	-10.5941
▁vekk	-10.5945
▁skapt	-10.5945
▁variere	-10.5954
grønn	-10.5965
▁regjer	-10.5971
offiser	-10.5971
redaktør	-10.5971
teknologi	-10.598
▁invest	-10.5981
▁microsoft	-10.5982
presentasjon	-10.5982
▁public	-10.5982
▁ukraina	-10.5982
▁reklame	-10.5982
▁senior	-10.5983
▁1924	-10.5985
▁beholdt	-10.5985
▁stryk	-10.5986
▁work	-10.5991
▁filip	-10.5995
▁israelsk	-10.5996
▁kommunestyre	-10.5999
▁forsterke	-10.6
▁forandre	-10.6001
▁1899	-10.6007
blomsterflue	-10.6008
vesenet	-10.601
▁sandvik	-10.601
▁kropp	-10.6012
▁rust	-10.6014
▁grønland	-10.6016
▁young	-10.602
▁jonas	-10.602
▁barneskole	-10.6021
▁nøt	-10.6026
▁action	-10.6027
▁bosatt	-10.6035
▁white	-10.6036
tsje	-10.6043
▁first	-10.6046
▁oval	-10.6051
krav	-10.6069
▁dukke	-10.6072
▁rag	-10.6099
tveit	-10.6111
▁rau	-10.6123
bevegelse	-10.6132
▁verdensmester	-10.6141
▁arg	-10.6163
▁glad	-10.6171
temperatur	-10.6188
utdanning	-10.6189
arkitekt	-10.6189
▁milliarder	-10.6195
▁anerkjenne	-10.6195
▁monument	-10.6195
▁avledet	-10.6196
▁separat	-10.6196
▁fuktig	-10.6196
▁1927	-10.6197
▁flytende	-10.6198
▁egenskaper	-10.6198
spreng	-10.6201
▁sykkel	-10.6202
▁beskyttelse	-10.6203
▁antikken	-10.6203
protokoll	-10.6205
▁frykt	-10.6206
▁høyesterett	-10.6208
▁diesel	-10.621
▁nordsamisk	-10.6212
▁hyper	-10.6219
▁talent	-10.6219
▁smerte	-10.6246
utenriksminister	-10.6258
го	-10.6264
▁erstatte	-10.6277
▁estland	-10.6284
▁puppe	-10.6284
▁intens	-10.6285
▁musikal	-10.629
▁løfte	-10.6336
нов	-10.6339
▁verneområde	-10.6367
▁fase	-10.6376
▁rö	-10.6386
svarte	-10.6406
medisin	-10.641
ttoregistertonn	-10.6412
▁sanskrit	-10.6412
▁vladimir	-10.6412
▁renessanse	-10.6412
▁1902	-10.6412
▁umiddelbar	-10.6412
▁praksis	-10.6412
▁alexandr	-10.6412
▁ombord	-10.6413
ensemble	-10.6413
▁egyptisk	-10.6413
▁kristiansand	-10.6414
▁arendal	-10.6414
▁1913	-10.6415
▁nyhets	-10.6416
▁betong	-10.6417
▁smelte	-10.6418
▁erfaring	-10.6418
▁hindre	-10.6418
▁vannkraftverk	-10.642
▁nederst	-10.6424
▁france	-10.6425
▁fuji	-10.6427
▁lisens	-10.6428
▁hamburg	-10.643
▁øks	-10.6432
bregne	-10.6434
▁tredjeplass	-10.6435
møll	-10.6436
reidar	-10.6446
▁thu	-10.6451
▁queen	-10.6476
▁steg	-10.6497
▁arkeologisk	-10.6522
språklige	-10.6539
▁helst	-10.6543
▁kriminal	-10.6554
vandring	-10.6572
▁öst	-10.6589
▁mannlig	-10.6592
▁skuespill	-10.6597
pumpe	-10.6598
fortelling	-10.6624
forvaltning	-10.6628
▁kule	-10.663
direktoratet	-10.6634
▁midlertidig	-10.6634
▁hospital	-10.6634
▁patrick	-10.6634
▁antarktis	-10.6634
▁etterkommer	-10.6634
▁sachsen	-10.6635
▁ungarn	-10.6635
▁kjøretøy	-10.6635
▁haakon	-10.6635
▁nymfe	-10.6635
▁protein	-10.6635
▁central	-10.6636
▁ørken	-10.6636
▁elektronisk	-10.6636
▁invasjon	-10.6636
▁axel	-10.6636
▁tilsammen	-10.6639
▁næringsliv	-10.6639
▁nepal	-10.6644
▁gjennombrudd	-10.6657
▁studere	-10.6658
▁anlagt	-10.6661
▁plassere	-10.6663
▁fusjon	-10.667
▁foll	-10.6673
kritisk	-10.6674
▁organisk	-10.6676
▁persisk	-10.6678
▁panser	-10.6678
▁konkl	-10.6685
▁trø	-10.6691
▁menneskelig	-10.6723
▁aksel	-10.6732
▁kommunist	-10.677
▁klippe	-10.6772
▁aero	-10.6774
▁split	-10.6782
jong	-10.6787
▁aleksander	-10.6862
▁pronotum	-10.6862
▁society	-10.6862
▁svalbard	-10.6862
▁tilknytning	-10.6862
▁vedlikehold	-10.6862
▁buddhist	-10.6862
▁1889	-10.6862
▁asteroide	-10.6862
▁göteborg	-10.6862
▁abraham	-10.6862
▁texas	-10.6862
▁søndre	-10.6862
bataljon	-10.6862
▁evangeli	-10.6862
▁risiko	-10.6862
▁døgn	-10.6862
▁church	-10.6862
▁brigade	-10.6862
straße	-10.6863
▁regelmessig	-10.6864
▁1926	-10.6864
▁fortellinger	-10.6866
▁markedet	-10.6866
▁vestfold	-10.6867
▁opplevd	-10.6867
▁østfold	-10.6867
▁hindu	-10.6868
▁pistol	-10.6871
tradisjon	-10.6871
prøve	-10.6871
▁bedriften	-10.6872
▁vandre	-10.6882
▁bestemme	-10.689
▁domini	-10.6897
▁ytterst	-10.6914
▁kunstnerisk	-10.6918
▁million	-10.6923
▁avtalen	-10.6925
drakt	-10.6929
▁variert	-10.6939
▁etnisk	-10.6966
▁call	-10.6982
▁guddomme	-10.6982
ни	-10.6987
▁markere	-10.6996
▁statue	-10.701
bestand	-10.7049
▁nettsted	-10.7073
▁argentina	-10.7094
▁oppmerksomhet	-10.7094
▁rudolf	-10.7094
▁sichuan	-10.7094
▁gabriel	-10.7094
▁istedenfor	-10.7094
▁hordaland	-10.7094
▁taylor	-10.7094
▁hensikt	-10.7094
traktaten	-10.7095
▁nedbør	-10.7095
▁nelson	-10.7095
▁stefan	-10.7095
▁nevner	-10.7095
▁regulere	-10.7095
▁seinere	-10.7095
▁oppdagelse	-10.7096
▁sophie	-10.7096
betjent	-10.7096
▁1943	-10.7098
givende	-10.7098
▁arbeiderpartiet	-10.7099
▁kaffe	-10.71
▁bryggeri	-10.7104
gjenstander	-10.7105
▁hindi	-10.7111
▁etappe	-10.7118
▁avholdt	-10.712
▁skru	-10.7136
måte	-10.7136
tagelse	-10.714
søstre	-10.7144
ndig	-10.7154
høyde	-10.7156
▁steel	-10.717
▁demokrati	-10.7173
børste	-10.7187
▁anslå	-10.7195
klipp	-10.72
nøtt	-10.7201
▁spenne	-10.7206
▁konsul	-10.7209
▁datterselskap	-10.7241
▁rådhus	-10.725
gutt	-10.7262
▁sørsid	-10.7296
▁jurist	-10.7299
hockey	-10.7325
ч	-10.733
▁alfabet	-10.7332
▁frankfurt	-10.7332
▁intelligen	-10.7332
▁østerriksk	-10.7332
▁krystall	-10.7332
▁1903	-10.7332
▁argument	-10.7332
▁diskusjon	-10.7332
▁1881	-10.7332
▁sparebank	-10.7332
▁radikal	-10.7332
järvi	-10.7332
▁belgia	-10.7332
▁kjennetegne	-10.7332
▁sekundær	-10.7333
▁ødelagt	-10.7333
▁seksuell	-10.7333
▁innlemme	-10.7333
knapp	-10.7334
mekanisme	-10.7334
▁gråbrun	-10.7335
▁1916	-10.7336
▁antyde	-10.7336
▁levde	-10.7336
▁tropisk	-10.7337
graph	-10.7342
▁styreleder	-10.7342
▁muskel	-10.7344
samband	-10.7348
historiker	-10.7352
kampanje	-10.7352
▁hylle	-10.7353
vík	-10.7357
▁patent	-10.7362
▁barnehage	-10.7367
▁skygge	-10.7377
toft	-10.7469
▁kult	-10.7503
▁omhandle	-10.751
innehaver	-10.7511
▁fulgt	-10.7517
▁corporation	-10.7576
▁konstitusjon	-10.7576
▁washington	-10.7576
▁sjeldne	-10.7576
▁kavaleri	-10.7576
▁ødelegge	-10.7576
▁permanent	-10.7576
▁verdenscup	-10.7576
orientert	-10.7576
▁utbredelse	-10.7576
ović	-10.7577
▁nektet	-10.7577
▁prestegjeld	-10.7578
syndrom	-10.7578
▁linux	-10.758
▁1915	-10.758
▁anklage	-10.7581
▁sultan	-10.7582
▁gregor	-10.7582
▁debatt	-10.7582
▁kongsberg	-10.7583
▁skøyte	-10.7583
▁forvaltnings	-10.7585
▁hydrogen	-10.7585
liknende	-10.7588
▁wilson	-10.7589
▁turneringen	-10.7591
▁ytterkant	-10.7593
▁øyvin	-10.7595
syssel	-10.7597
▁utvidelse	-10.7599
europeisk	-10.7603
▁effektiv	-10.7603
▁forvalte	-10.7606
▁grunnlov	-10.7608
▁allmenn	-10.761
flekk	-10.7624
▁fremstille	-10.7625
▁glatt	-10.7678
▁kirkegård	-10.7678
augh	-10.7685
periode	-10.7695
xian	-10.7724
▁praktisk	-10.7737
▁byggingen	-10.7762
▁medaljer	-10.7783
▁urban	-10.7799
kansler	-10.7805
tjern	-10.7813
▁hytte	-10.7824
▁inskripsjon	-10.7826
▁lillehammer	-10.7826
▁patriark	-10.7826
▁dirigent	-10.7826
▁seremoni	-10.7826
▁tibetansk	-10.7826
saksofon	-10.7826
▁stephen	-10.7826
▁gustaf	-10.7826
▁vilhelm	-10.7826
▁embets	-10.7826
▁tvilling	-10.7826
▁regulert	-10.7826
▁beslektet	-10.7826
▁artilleri	-10.7826
▁theodor	-10.7827
▁verdensarv	-10.7827
edderkopper	-10.7827
▁føderal	-10.7828
▁dream	-10.7828
▁what	-10.783
▁annonse	-10.7833
▁spyd	-10.7834
▁samuel	-10.7835
▁hensyn	-10.7836
▁utgivelsen	-10.7837
▁øystein	-10.7838
▁point	-10.7839
▁holdning	-10.784
▁landsforening	-10.7856
seminar	-10.7857
▁hvile	-10.7857
størrelse	-10.7859
▁alex	-10.7863
▁fredag	-10.7863
radio	-10.7887
syklus	-10.7889
▁artisten	-10.7902
▁forkortelse	-10.7905
forsamlingen	-10.792
▁dramatisk	-10.7931
▁gjennomføre	-10.7957
▁betale	-10.7958
balanse	-10.7961
▁grø	-10.7962
▁kjeve	-10.7968
konsulent	-10.797
kjernen	-10.805
▁færøysk	-10.8083
▁generalmajor	-10.8083
▁laborator	-10.8083
▁leipzig	-10.8083
▁ludwig	-10.8083
▁tsjekkia	-10.8083
▁forkroppen	-10.8083
▁tyrkia	-10.8083
▁ferskvann	-10.8083
▁portugal	-10.8083
▁pattedyr	-10.8083
▁shandong	-10.8083
▁stridsvogn	-10.8083
▁fungerte	-10.8083
▁hendelser	-10.8083
▁nevø	-10.8083
▁ansikt	-10.8083
▁hjelm	-10.8083
▁ålesund	-10.8083
▁opplysning	-10.8083
▁ntnu	-10.8083
▁valgdelta	-10.8083
▁avdøde	-10.8083
▁opplevelse	-10.8084
▁presentert	-10.8084
▁vakre	-10.8084
▁syklist	-10.8084
▁oppfølger	-10.8085
▁kjøpmann	-10.8085
▁generalsekretær	-10.8085
▁pastor	-10.8085
▁prinsesse	-10.8086
▁tallrike	-10.8086
▁clark	-10.809
▁gratis	-10.809
▁trenger	-10.809
▁eiendommen	-10.8091
▁bensin	-10.8092
▁tidspunkt	-10.8095
finansiert	-10.8112
bibliotek	-10.8122
aktivitet	-10.8122
resultat	-10.8122
▁søyle	-10.8126
▁slange	-10.8135
▁utvide	-10.8139
▁uniform	-10.8145
opptil	-10.8165
▁frost	-10.8192
▁unngå	-10.8217
väg	-10.8243
fordeling	-10.8263
overflaten	-10.8301
landeveissyklist	-10.8346
▁atmosfære	-10.8346
▁definisjon	-10.8346
▁innspilt	-10.8346
▁konkurrert	-10.8346
▁research	-10.8346
▁sammenslåing	-10.8346
▁1895	-10.8346
▁pradesh	-10.8346
▁reference	-10.8346
▁gerhard	-10.8346
▁oppretthold	-10.8346
▁jamaica	-10.8346
▁colombia	-10.8346
▁kommentar	-10.8346
▁frimurer	-10.8346
▁kommersiell	-10.8346
sylindre	-10.8346
▁noctu	-10.8347
▁margret	-10.8347
▁søsken	-10.8347
▁dollar	-10.8347
▁klaver	-10.8347
▁bløt	-10.8347
▁larvik	-10.8348
▁fylkeskommune	-10.8348
▁fangst	-10.8348
▁disney	-10.835
▁tegninger	-10.8354
▁bedrifter	-10.8355
sjön	-10.8356
▁bronsemedalje	-10.8359
▁manglen	-10.836
▁tjener	-10.8361
▁rifle	-10.8371
mån	-10.8373
▁fylle	-10.8388
▁ballett	-10.8391
sentral	-10.8392
sentrum	-10.8393
fargede	-10.8394
▁spesialisert	-10.8419
kjøl	-10.842
basseng	-10.8479
▁inneha	-10.8547
egenskap	-10.859
frø	-10.8609
▁journal	-10.8614
▁friidrett	-10.8616
▁aleksandr	-10.8616
▁douglas	-10.8616
▁gælisk	-10.8616
▁köln	-10.8616
▁langrennsløper	-10.8616
▁mountain	-10.8616
▁skjønt	-10.8616
▁embeds	-10.8616
▁anmelder	-10.8616
▁minoritet	-10.8616
▁mangfold	-10.8616
▁1882	-10.8616
▁utspring	-10.8616
▁selvmord	-10.8616
mønstre	-10.8616
▁hyppig	-10.8616
▁canadisk	-10.8617
▁apollo	-10.8617
▁detroit	-10.8617
▁forgjenger	-10.8617
▁lewis	-10.8618
▁tørke	-10.8618
▁nkp	-10.8619
▁bjarn	-10.8619
▁spesifikk	-10.862
▁borgermester	-10.862
▁moderat	-10.8621
▁energy	-10.8621
▁barokk	-10.8622
▁oppheve	-10.8636
vennlig	-10.8658
▁henvise	-10.8664
kontrakt	-10.867
undervisning	-10.8672
styring	-10.8675
ка	-10.869
mengde	-10.8698
▁varemerke	-10.8702
▁harmoni	-10.8704
▁gullmedalje	-10.8709
kveld	-10.8714
forandring	-10.8716
▁domkirke	-10.8734
▁kenya	-10.8754
▁arkeolog	-10.8772
▁opprette	-10.8774
▁utarbeide	-10.8806
brenning	-10.8808
stock	-10.8818
utdanne	-10.8861
amerikansk	-10.8863
▁landslags	-10.8867
▁involvert	-10.8894
▁maksimal	-10.8894
▁nøytral	-10.8894
▁prøvd	-10.8894
▁psykisk	-10.8894
kringkasting	-10.8894
▁1907	-10.8894
▁joachim	-10.8894
▁assistent	-10.8894
▁veksel	-10.8894
▁matematikk	-10.8894
forståelse	-10.8894
▁fremtidig	-10.8894
▁opptreden	-10.8894
▁margaret	-10.8894
▁sandefjord	-10.8894
nøkkel	-10.8895
▁sprint	-10.8895
▁christensen	-10.8895
▁dekorert	-10.8895
▁marcus	-10.8896
▁efter	-10.8896
▁florida	-10.8896
▁medvirket	-10.8897
▁trasé	-10.8897
▁brygge	-10.8897
▁micro	-10.8898
▁kanadisk	-10.8898
▁tilfeldig	-10.8899
▁bundes	-10.8899
▁enhver	-10.89
▁investering	-10.8902
▁skrog	-10.8903
▁fortellingen	-10.891
▁rederi	-10.8914
oidea	-10.8917
▁holdeplass	-10.8923
▁fasci	-10.8966
▁bekke	-10.8984
▁hjemmeside	-10.9053
losje	-10.9054
shaw	-10.9077
▁usikker	-10.909
▁dobbel	-10.9118
▁messi	-10.9153
prinsippet	-10.9167
▁hjemmebane	-10.9174
▁elizabeth	-10.918
▁forøvrig	-10.918
▁orchestra	-10.918
▁virginia	-10.918
svømming	-10.918
▁absolut	-10.918
▁hovedpersonen	-10.918
▁selvbiografi	-10.918
▁juridisk	-10.918
forstyrrelse	-10.918
ressurser	-10.918
▁oppdatert	-10.918
▁support	-10.918
▁døpt	-10.918
▁individuell	-10.918
▁prince	-10.918
▁avgjørende	-10.918
▁forsvant	-10.918
▁døtre	-10.918
▁database	-10.918
▁etablere	-10.918
▁øygrupp	-10.918
▁gwh	-10.918
▁særskilt	-10.9181
▁command	-10.9181
▁theatre	-10.9181
▁boston	-10.9187
▁avansert	-10.9194
▁analyser	-10.9199
fellesskap	-10.9208
artikkel	-10.9233
emmelig	-10.9243
befolkning	-10.925
papir	-10.925
▁bøye	-10.9286
▁america	-10.9331
▁pseudo	-10.9473
▁arrestert	-10.9474
▁basketball	-10.9474
▁guangdong	-10.9474
▁lokomotiv	-10.9474
▁satellitt	-10.9474
▁bachelor	-10.9474
▁forveksle	-10.9474
▁identifisert	-10.9474
▁litauisk	-10.9474
▁manuskript	-10.9474
▁kapittel	-10.9474
▁progressiv	-10.9474
disiplin	-10.9474
vurdering	-10.9474
▁svovel	-10.9474
▁kroatia	-10.9474
leverandør	-10.9474
▁kongsvinger	-10.9474
▁henrettelse	-10.9474
▁slippe	-10.9474
▁walisisk	-10.9474
▁kvadrat	-10.9474
▁frivillig	-10.9474
▁corneli	-10.9474
▁mhz	-10.9475
▁ektemann	-10.9475
▁utfordre	-10.9475
▁right	-10.9475
worth	-10.9476
▁charlie	-10.9477
grün	-10.9477
▁leilighet	-10.9478
▁pioner	-10.9482
▁akademisk	-10.9484
▁riktig	-10.9486
▁nettside	-10.9492
betaling	-10.9509
aktør	-10.9553
tetthet	-10.9605
▁symboliser	-10.9663
bransjen	-10.9677
regent	-10.9709
▁doktor	-10.9776
kommanderende	-10.9777
▁afghanistan	-10.9777
▁ambassadør	-10.9777
▁assosiert	-10.9777
▁bryllup	-10.9777
▁fasettøyne	-10.9777
▁keyboard	-10.9777
▁kommandør	-10.9777
▁venezuela	-10.9777
lovgivning	-10.9777
orientering	-10.9777
▁babylon	-10.9777
▁könig	-10.9777
▁buskerud	-10.9777
▁nøyaktig	-10.9777
▁komponent	-10.9777
▁torpedo	-10.9777
▁operativsystem	-10.9777
▁testament	-10.9777
▁utdødd	-10.9777
▁francesco	-10.9777
▁charlotte	-10.9777
▁petersburg	-10.9777
▁allierte	-10.9777
▁subjekt	-10.9777
▁mektig	-10.9777
▁underholdning	-10.9777
▁zealand	-10.9778
▁utforming	-10.9778
piercing	-10.9778
▁contest	-10.9778
▁monroe	-10.9778
▁castle	-10.9778
▁oppfatte	-10.9778
materiell	-10.9779
▁kråk	-10.9779
▁maritim	-10.978
kreditt	-10.9782
kobling	-10.9783
▁robot	-10.9793
▁beslutte	-10.9796
▁xiao	-10.9797
▁presentere	-10.9803
gudinnen	-10.9814
gjeng	-10.9833
kalender	-10.9844
▁flamme	-10.9864
kloster	-10.9868
ngrid	-10.9877
hytta	-10.9879
▁omdanne	-10.9885
▁ideologi	-10.9898
hefte	-10.9901
bøyd	-10.9927
utøvere	-10.9944
kvarter	-11.0036
psykiatri	-11.0089
▁distribusjon	-11.0089
▁helsingfors	-11.0089
▁inklusiv	-11.0089
▁konsekvens	-11.0089
▁krydder	-11.0089
▁narkotika	-11.0089
▁okkupert	-11.0089
▁opphørte	-11.0089
▁ortodoks	-11.0089
▁skjult	-11.0089
▁tortricidae	-11.0089
▁venezia	-11.0089
▁elefant	-11.0089
▁engasjert	-11.0089
▁chicago	-11.0089
▁kennedy	-11.0089
▁fjeld	-11.0089
▁oxford	-11.0089
▁fantasy	-11.0089
▁organismer	-11.0089
▁unesco	-11.0089
▁vegetasjon	-11.009
▁bmw	-11.009
▁beordre	-11.0091
▁sannhet	-11.0092
▁universal	-11.0093
▁stedsnavn	-11.0101
▁innstifte	-11.0119
spesialist	-11.0132
▁bakkropp	-11.0151
▁benevn	-11.0151
hovedstad	-11.0158
dynastiet	-11.0188
sykdom	-11.0196
lokale	-11.0233
torget	-11.0257
▁inndeling	-11.033
kvartett	-11.0375
▁inspirasjon	-11.0411
▁amsterdam	-11.0412
▁arrangør	-11.0412
▁elektrisitet	-11.0412
▁filippinene	-11.0412
▁françois	-11.0412
▁fundament	-11.0412
▁godkjenne	-11.0412
▁jomfru	-11.0412
▁kommandant	-11.0412
▁kronprins	-11.0412
▁låtskriver	-11.0412
▁omdøpt	-11.0412
▁rasmussen	-11.0412
▁sarpsborg	-11.0412
▁ekspansjon	-11.0412
▁fakultet	-11.0412
▁kjønnsmodn	-11.0412
▁arbeidsgiver	-11.0412
▁benjamin	-11.0412
▁knudsen	-11.0412
▁identitet	-11.0412
▁thorvald	-11.0412
▁trygve	-11.0412
▁1861	-11.0412
▁matematisk	-11.0412
▁trompet	-11.0412
script	-11.0412
▁ragnar	-11.0412
▁kontrast	-11.0413
▁skrivemåte	-11.0413
▁delstats	-11.0414
▁beskjed	-11.0414
rettighetene	-11.0414
▁tvangs	-11.0416
▁flanke	-11.0424
klinikk	-11.0425
▁hovedsete	-11.0429
skyldig	-11.0459
▁kommunistparti	-11.0493
vilkår	-11.0498
relasjon	-11.0519
regjering	-11.0522
katedralen	-11.0542
epoke	-11.0613
▁ødela	-11.0745
▁kontinuerlig	-11.0745
▁løpebiller	-11.0745
▁petroleum	-11.0745
▁publikasjon	-11.0745
köping	-11.0745
skvadron	-11.0745
▁aluminium	-11.0745
▁kambodsja	-11.0745
▁konsentrert	-11.0745
▁kromosom	-11.0745
▁uttrykt	-11.0745
▁innendørs	-11.0745
▁manchester	-11.0745
▁oransje	-11.0745
▁natrium	-11.0745
▁langstrakt	-11.0745
▁jupiter	-11.0745
▁bystatus	-11.0745
▁airlines	-11.0745
▁eidsvoll	-11.0745
terapeut	-11.0745
▁konsesjon	-11.0745
installasjon	-11.0745
▁trønder	-11.0745
tekniker	-11.0745
▁mikael	-11.0746
▁barbara	-11.0746
▁uvanlig	-11.0746
teatret	-11.0746
▁innenriks	-11.0746
▁skjebne	-11.0746
reservat	-11.0746
▁finskspråklig	-11.0747
▁pianist	-11.0747
▁birger	-11.0747
▁foreslo	-11.0748
▁space	-11.0748
spredning	-11.0757
▁fasade	-11.076
▁foretrekke	-11.0761
▁earl	-11.0773
▁markedsføre	-11.0796
▁skjøt	-11.0808
▁dimensjon	-11.0809
dialekt	-11.0866
litteratur	-11.0866
▁isbre	-11.0941
▁tildeling	-11.0984
sprang	-11.102
spesifik	-11.1054
▁aftenposten	-11.109
▁angelsaksisk	-11.109
▁brenselstype	-11.109
▁jugoslavia	-11.109
▁konseptet	-11.109
▁norwegian	-11.109
▁business	-11.109
▁substantiv	-11.109
▁hongkong	-11.109
▁intervju	-11.109
▁kenneth	-11.109
▁1873	-11.109
▁1862	-11.109
▁bjerke	-11.109
▁innledet	-11.109
▁autoritet	-11.109
▁haugesund	-11.109
▁spencer	-11.109
▁sosialdemokrati	-11.1091
▁søvn	-11.1091
kostnader	-11.1091
▁kombinere	-11.1091
relieff	-11.1091
▁skikkelse	-11.1091
kirurgi	-11.1091
▁erstatning	-11.1091
▁dominert	-11.1092
▁innskriften	-11.1092
sjåfør	-11.1093
▁kjetil	-11.1095
qvist	-11.11
bourne	-11.1104
▁cooper	-11.1112
▁rytme	-11.1115
provinshovedstad	-11.1122
skrekk	-11.1136
▁direct	-11.1138
▁konvensjon	-11.1316
▁halvpart	-11.1356
monopol	-11.1426
▁anbefalt	-11.1447
▁eksemplarer	-11.1447
▁football	-11.1447
▁infrastruktur	-11.1447
▁jerusalem	-11.1447
▁publisere	-11.1447
▁skribent	-11.1447
▁technology	-11.1447
▁toppscorer	-11.1447
▁tønsberg	-11.1447
▁vancouver	-11.1447
▁łód	-11.1447
▁columbia	-11.1447
▁ragnhild	-11.1447
▁tsjekkisk	-11.1447
▁wergeland	-11.1447
▁forhindre	-11.1447
▁library	-11.1447
▁unicode	-11.1447
▁litauen	-11.1447
▁1883	-11.1447
betennelse	-11.1447
▁apotek	-11.1447
▁rovdyr	-11.1447
▁frederick	-11.1447
▁brønn	-11.1447
▁henrettet	-11.1447
▁invitert	-11.1447
▁cecil	-11.1448
▁gummi	-11.1448
ã	-11.5375
