<unk>	0
<s>	0
</s>	0
.	-3.23408
s	-3.48364
e	-3.60064
▁i	-3.76536
▁	-3.91091
▁og	-3.96668
t	-4.07316
er	-4.14784
en	-4.15025
▁av	-4.49366
▁er	-4.5856
r	-4.60641
▁en	-4.72364
▁som	-4.79635
▁for	-4.84904
n	-4.89191
▁til	-4.91645
et	-4.95757
▁på	-4.98834
▁med	-5.06491
▁den	-5.20913
a	-5.27228
▁ble	-5.31733
▁var	-5.32985
▁de	-5.37056
▁det	-5.45454
▁fra	-5.47327
ene	-5.58746
▁har	-5.62929
▁et	-5.66376
▁å	-5.69965
d	-5.7204
▁han	-5.74099
i	-5.74226
ne	-5.75793
o	-5.94373
▁ved	-6.0129
y	-6.01392
k	-6.05066
te	-6.07536
▁at	-6.12035
g	-6.15091
▁også	-6.19166
m	-6.25319
l	-6.259
de	-6.26681
▁om	-6.27846
▁etter	-6.29122
▁ut	-6.3109
re	-6.31508
f	-6.32446
p	-6.34529
▁under	-6.36746
▁eller	-6.41539
▁opp	-6.47423
▁to	-6.48635
▁over	-6.49809
▁s	-6.51422
in	-6.54582
▁be	-6.54648
▁kan	-6.55723
▁men	-6.56201
h	-6.56776
es	-6.60263
v	-6.60404
an	-6.61448
ing	-6.61933
▁inn	-6.62812
▁da	-6.63718
us	-6.65273
▁a	-6.66458
▁seg	-6.67716
▁hadde	-6.67795
▁18	-6.70451
c	-6.72217
u	-6.79813
▁andre	-6.79965
▁mot	-6.81051
▁f	-6.82906
al	-6.84471
▁ikke	-6.84486
b	-6.85083
sk	-6.86233
▁sin	-6.88182
na	-6.8852
▁mellom	-6.88751
ter	-6.89627
▁p	-6.91447
z	-6.93057
le	-6.93084
▁the	-6.93308
▁født	-6.95335
ia	-6.9617
is	-6.96389
▁m	-6.97934
▁tre	-6.99879
▁re	-7.00984
on	-7.03184
▁1	-7.03265
▁hans	-7.03538
▁første	-7.04132
ar	-7.04366
ri	-7.04694
la	-7.04833
ende	-7.06078
▁ha	-7.06281
lig	-7.06508
▁hun	-7.09746
w	-7.09871
▁k	-7.10445
▁dette	-7.10861
sen	-7.10999
▁ligger	-7.1329
▁u	-7.13389
▁g	-7.1345
land	-7.14227
▁la	-7.1476
▁se	-7.14913
or	-7.17333
el	-7.17397
um	-7.18352
ra	-7.18812
blant	-7.19468
▁man	-7.2109
▁d	-7.21775
ma	-7.21835
j	-7.22263
▁fikk	-7.22418
▁c	-7.22736
ke	-7.23199
▁der	-7.23513
▁nord	-7.23881
▁sammen	-7.23957
▁ca	-7.23982
▁an	-7.2431
ta	-7.25102
ng	-7.27724
▁denne	-7.2784
▁b	-7.28101
▁flere	-7.28155
vis	-7.28801
da	-7.28928
ens	-7.29694
ning	-7.29789
ck	-7.30297
▁2	-7.30503
ur	-7.30822
▁gjennom	-7.31891
▁år	-7.32241
at	-7.33268
ch	-7.33493
li	-7.34015
isk	-7.34168
▁alle	-7.35009
der	-7.35627
kt	-7.35876
øy	-7.36292
▁h	-7.36542
iske	-7.38091
ler	-7.38463
x	-7.38729
▁al	-7.3887
▁17	-7.39401
▁kom	-7.39616
be	-7.39725
ver	-7.40247
as	-7.4028
nde	-7.40424
ske	-7.4132
den	-7.41764
▁her	-7.42492
▁of	-7.42718
ry	-7.43847
▁vi	-7.44071
ul	-7.44155
▁del	-7.44335
▁stor	-7.44616
▁3	-7.4491
it	-7.45066
il	-7.4563
▁ny	-7.46009
▁blir	-7.46919
ør	-7.46969
▁t	-7.47778
for	-7.48533
ga	-7.48958
nes	-7.49931
lige	-7.50256
os	-7.50453
▁før	-7.50876
▁5	-7.509
ut	-7.5099
▁li	-7.52839
ad	-7.52975
▁død	-7.53369
▁16	-7.53717
di	-7.54336
ce	-7.54382
ere	-7.54766
▁in	-7.54897
▁tidligere	-7.54908
▁så	-7.5517
▁land	-7.55816
▁mer	-7.56026
▁kommune	-7.56366
▁norsk	-7.56917
ve	-7.5747
lo	-7.57658
▁bo	-7.57738
▁ba	-7.57939
ker	-7.58224
▁l	-7.58529
ist	-7.58548
▁hoved	-7.58706
me	-7.58783
kk	-7.58882
å	-7.59012
▁hvor	-7.59042
▁mange	-7.59082
▁annet	-7.59257
to	-7.59491
▁sa	-7.60193
ton	-7.60447
é	-7.60493
▁disse	-7.60556
th	-7.61468
▁ni	-7.61915
▁ra	-7.62208
▁15	-7.62288
▁n	-7.62878
▁byen	-7.63365
stad	-7.63416
ka	-7.6378
ro	-7.63911
ff	-7.64161
▁he	-7.64524
▁sp	-7.64812
asjon	-7.64959
ig	-7.64979
mi	-7.65205
▁sør	-7.65375
▁ro	-7.65422
ja	-7.65775
ø	-7.65834
▁senere	-7.66455
tt	-7.6647
ge	-7.66788
ak	-7.67484
▁kon	-7.68242
▁by	-7.68286
▁st	-7.68517
bo	-7.68633
mo	-7.68727
▁4	-7.6892
son	-7.69044
id	-7.69046
▁co	-7.69139
▁v	-7.7025
▁sitt	-7.70311
ba	-7.70571
skap	-7.70724
vi	-7.71177
▁store	-7.71461
ik	-7.71613
dal	-7.71895
ner	-7.71913
▁ned	-7.72102
▁w	-7.72277
▁mens	-7.7257
het	-7.7269
▁noen	-7.73242
▁le	-7.73382
iv	-7.73426
ste	-7.73788
ell	-7.74421
erte	-7.74767
▁fa	-7.75645
▁kr	-7.75708
▁na	-7.76391
▁kjent	-7.76798
▁ka	-7.76875
else	-7.77065
▁ga	-7.7721
▁ta	-7.77362
▁samt	-7.77497
gen	-7.77954
mer	-7.78216
ger	-7.78422
▁j	-7.78451
▁di	-7.78834
by	-7.78891
▁vest	-7.78933
ic	-7.79162
man	-7.79168
▁per	-7.79834
mp	-7.79846
si	-7.79936
▁være	-7.80105
▁ri	-7.80465
▁10	-7.8054
ol	-7.80595
▁pa	-7.80702
berg	-7.8072
ha	-7.81258
▁siden	-7.81648
▁øst	-7.81879
▁frem	-7.82597
▁rundt	-7.82632
▁si	-7.83088
var	-7.83368
ko	-7.83461
▁as	-7.83533
▁navnet	-7.83804
▁ofte	-7.84215
▁kalt	-7.8452
▁6	-7.8489
▁no	-7.8503
▁vil	-7.85564
op	-7.85912
▁skal	-7.87504
▁ti	-7.8759
▁går	-7.87635
ster	-7.87691
▁båd	-7.87911
▁12	-7.87997
erne	-7.88232
▁selv	-7.88253
▁lo	-7.88512
▁8	-7.89029
un	-7.89191
▁blitt	-7.89304
▁ol	-7.89391
bi	-7.89685
pp	-7.89757
▁dag	-7.8991
▁du	-7.89963
▁bu	-7.90045
▁14	-7.9031
▁grunn	-7.90314
ment	-7.90365
▁7	-7.90909
▁fri	-7.91504
▁sine	-7.91638
ir	-7.91712
pe	-7.92243
co	-7.92448
om	-7.92682
▁tallet	-7.92903
▁el	-7.92959
▁navn	-7.93452
▁nå	-7.93957
va	-7.943
ven	-7.94393
▁ma	-7.95441
▁o	-7.95599
▁do	-7.9579
▁lu	-7.95805
▁pi	-7.95843
go	-7.95855
▁hos	-7.96641
ie	-7.96663
▁lag	-7.97562
kke	-7.98244
▁and	-7.98391
▁vært	-7.98397
▁finnes	-7.98962
▁fire	-7.99012
▁mest	-7.99042
▁enn	-7.99099
▁samme	-7.99218
1	-7.99471
▁km	-7.99834
▁tid	-8.00423
ed	-8.005
▁bi	-8.01226
ling	-8.01428
▁ham	-8.01629
sjon	-8.01796
ti	-8.02093
▁kinesisk	-8.02282
▁norge	-8.02697
▁nye	-8.02938
tter	-8.03728
mann	-8.03792
▁mai	-8.03819
▁fram	-8.03878
ant	-8.04189
▁fly	-8.04516
len	-8.04859
▁skulle	-8.04867
▁bak	-8.05206
▁pro	-8.05255
▁so	-8.05363
▁ho	-8.05532
je	-8.05675
▁me	-8.05863
▁11	-8.05931
ni	-8.05954
▁største	-8.06133
▁norske	-8.064
▁mo	-8.06472
ang	-8.07106
▁sch	-8.07363
lag	-8.07632
gi	-8.0789
▁vant	-8.07895
▁slik	-8.07932
á	-8.0842
sh	-8.08465
rett	-8.08811
ho	-8.08938
over	-8.09012
▁0	-8.09166
▁13	-8.09217
▁ar	-8.09293
men	-8.09293
▁ei	-8.09498
▁te	-8.09918
bu	-8.0998
sel	-8.10018
▁9	-8.10268
▁su	-8.10483
▁bare	-8.10639
ion	-8.10747
gang	-8.10953
▁kunne	-8.11409
opp	-8.11422
ard	-8.11665
ö	-8.11701
▁gi	-8.11988
▁kirke	-8.12265
2	-8.12367
▁høy	-8.12472
▁tok	-8.12688
▁gikk	-8.13047
▁mars	-8.13096
▁mål	-8.13232
▁jo	-8.13531
▁august	-8.14177
▁far	-8.1425
lin	-8.14358
gu	-8.14421
▁or	-8.14439
▁gu	-8.14679
▁bestå	-8.14826
ll	-8.15156
im	-8.15217
▁lang	-8.15252
ings	-8.15627
lu	-8.1578
▁noe	-8.15915
au	-8.16076
vin	-8.1613
ina	-8.16173
vik	-8.16827
per	-8.16866
ä	-8.1696
4	-8.1735
▁20	-8.17428
▁r	-8.17682
▁ju	-8.17732
tak	-8.17939
ca	-8.18038
▁mor	-8.18095
▁mar	-8.18271
▁hele	-8.18322
do	-8.1853
5	-8.18738
dd	-8.18801
▁når	-8.18814
▁musikk	-8.19031
▁sv	-8.19035
▁januar	-8.1908
hold	-8.19223
▁juli	-8.19638
tre	-8.19753
ær	-8.20072
▁meter	-8.2032
▁innen	-8.20383
inn	-8.20808
▁oslo	-8.20946
itt	-8.21085
▁nær	-8.21225
siden	-8.21248
ku	-8.21416
▁eks	-8.22005
▁kultur	-8.2208
ring	-8.22086
▁skole	-8.22519
▁film	-8.22617
od	-8.22793
▁mi	-8.22831
▁bar	-8.22868
▁go	-8.22981
tra	-8.23077
▁ko	-8.23181
▁sol	-8.23703
▁tra	-8.23808
▁uten	-8.2381
æ	-8.23978
▁engelsk	-8.24028
▁dem	-8.24421
hu	-8.24443
ken	-8.2454
3	-8.2463
ok	-8.24634
ningen	-8.25057
nd	-8.25604
▁området	-8.25701
no	-8.25752
▁juni	-8.25883
pa	-8.25938
▁tilbake	-8.26164
del	-8.2625
elle	-8.26733
io	-8.26818
▁fi	-8.26874
▁po	-8.2689
dag	-8.26897
▁bli	-8.26954
▁små	-8.27179
▁sønn	-8.27246
po	-8.27312
▁john	-8.27691
▁y	-8.27767
sta	-8.27799
▁siste	-8.27812
tal	-8.27839
▁vann	-8.28087
▁hu	-8.2838
▁utgitt	-8.2909
ns	-8.29152
▁langs	-8.29269
▁tri	-8.29569
▁am	-8.29726
▁gift	-8.29807
bar	-8.29855
am	-8.29987
sted	-8.30198
les	-8.30767
▁ne	-8.30777
ot	-8.31113
min	-8.31453
▁tv	-8.31555
ow	-8.31643
▁vanlig	-8.31673
stein	-8.31754
ium	-8.31782
ingen	-8.31804
ier	-8.31808
▁tor	-8.31921
▁sk	-8.31979
▁par	-8.32306
▁fem	-8.32571
▁ad	-8.3276
▁like	-8.32806
ly	-8.32872
▁sam	-8.3292
år	-8.32959
ny	-8.33027
▁gang	-8.33064
▁eksempel	-8.33082
▁2007	-8.33109
▁mat	-8.3324
▁deres	-8.33714
▁bra	-8.33776
▁folke	-8.34049
verk	-8.34333
av	-8.34566
vo	-8.34894
tisk	-8.34896
▁san	-8.34979
▁hus	-8.35158
▁rekke	-8.35186
▁må	-8.35193
▁all	-8.35292
▁november	-8.35421
und	-8.35927
▁pe	-8.3615
▁laget	-8.36336
sj	-8.36343
▁000	-8.364
tid	-8.36838
▁oktober	-8.36851
▁ab	-8.36858
▁lå	-8.36979
▁ulike	-8.37236
▁ja	-8.37745
▁pre	-8.37771
▁kommer	-8.37844
▁egen	-8.38277
▁september	-8.38302
▁wa	-8.38305
▁new	-8.38459
tur	-8.38465
▁tro	-8.38653
ov	-8.38838
▁kunst	-8.38985
ius	-8.39055
ering	-8.39294
▁mindre	-8.39297
▁tillegg	-8.393
▁skrev	-8.40276
▁ski	-8.40399
▁leder	-8.40529
▁lov	-8.40559
ru	-8.40688
▁hennes	-8.40714
ud	-8.40966
bruk	-8.41089
▁brukes	-8.41117
▁april	-8.41269
▁2008	-8.41276
isme	-8.41303
ou	-8.41413
▁gjen	-8.41436
ag	-8.41465
fe	-8.4169
ong	-8.41721
▁2006	-8.41779
hi	-8.42249
▁spilte	-8.42495
ü	-8.42613
▁hver	-8.42712
ci	-8.42755
▁30	-8.42933
▁usa	-8.43033
▁con	-8.43413
mar	-8.4388
sp	-8.4424
▁skrevet	-8.44291
▁kalles	-8.44397
▁verdens	-8.44414
▁desember	-8.44586
ige	-8.44795
▁ord	-8.44937
▁helt	-8.44968
ord	-8.45216
sten	-8.45276
ian	-8.45565
▁ge	-8.45806
hus	-8.46167
▁provinsen	-8.46546
▁rett	-8.4664
▁2010	-8.46697
ek	-8.46798
00	-8.46851
tiske	-8.46916
▁februar	-8.46948
▁barn	-8.46951
▁min	-8.47119
▁tysk	-8.47209
▁kina	-8.47312
▁få	-8.47341
▁kun	-8.47471
▁gir	-8.47745
▁filmen	-8.48251
▁ki	-8.48821
▁ru	-8.4896
ede	-8.48961
▁syn	-8.49191
▁bl	-8.49218
▁dr	-8.49382
ber	-8.49536
▁bro	-8.49621
gg	-8.50218
ft	-8.50385
▁større	-8.50407
▁x	-8.5053
▁ver	-8.50572
▁imidlertid	-8.50738
▁ty	-8.50774
vel	-8.5079
▁øy	-8.50971
▁særlig	-8.51038
▁begge	-8.51064
slag	-8.51163
▁fjell	-8.51476
yl	-8.51478
▁pu	-8.51595
▁form	-8.51962
kker	-8.52135
tan	-8.52386
ley	-8.52581
bil	-8.52585
rik	-8.52595
▁sjø	-8.52658
▁stein	-8.52929
▁døde	-8.52935
ator	-8.52982
▁spiller	-8.53041
▁liv	-8.53146
▁kong	-8.53181
mm	-8.53351
met	-8.53588
tro	-8.53661
▁hen	-8.54121
ninger	-8.54177
▁fast	-8.54349
elsen	-8.54449
ki	-8.54635
▁je	-8.54828
▁først	-8.54828
tok	-8.54865
▁innbyggere	-8.54963
▁president	-8.54964
pi	-8.5498
gn	-8.54995
til	-8.55014
mmer	-8.55292
▁nasjonal	-8.55336
par	-8.55354
▁medlem	-8.55377
▁bruk	-8.55477
▁wi	-8.55624
í	-8.5563
bb	-8.55664
if	-8.5572
▁gamle	-8.55862
rede	-8.55864
▁fo	-8.55999
▁mye	-8.56161
▁gruppen	-8.56186
▁norges	-8.56792
▁videre	-8.56856
ron	-8.57182
▁landet	-8.57488
▁deretter	-8.5761
▁språk	-8.57746
▁kort	-8.57907
kor	-8.5822
▁ur	-8.58316
▁begynte	-8.58344
form	-8.58561
kon	-8.58836
▁parti	-8.58913
ks	-8.58913
and	-8.58919
▁art	-8.58974
▁vei	-8.59009
dalen	-8.59061
stil	-8.59125
▁sand	-8.59275
а	-8.59385
▁britisk	-8.59388
ting	-8.59448
▁igjen	-8.59528
▁alt	-8.59592
dig	-8.59651
▁car	-8.59862
stand	-8.59912
jø	-8.60041
▁ch	-8.60152
▁svær	-8.60153
▁startet	-8.60187
▁nor	-8.6042
▁bok	-8.60463
est	-8.60503
ung	-8.60506
jo	-8.60557
ty	-8.60662
itet	-8.60682
fa	-8.6099
▁derfor	-8.61443
ac	-8.61489
▁brukt	-8.61512
▁innenfor	-8.61595
▁hel	-8.61698
ight	-8.6175
bel	-8.61791
ill	-8.61868
ation	-8.61869
▁25	-8.61869
▁bru	-8.6254
▁my	-8.62551
▁lever	-8.62617
▁bil	-8.62874
laget	-8.62955
elig	-8.62968
▁2009	-8.63059
▁von	-8.6306
nder	-8.6358
▁rom	-8.63643
▁god	-8.63716
tte	-8.64025
sch	-8.64083
styr	-8.64332
▁gjorde	-8.64521
▁plan	-8.64668
val	-8.64721
▁sta	-8.6477
▁seks	-8.65006
▁satt	-8.65112
mor	-8.65179
stre	-8.65313
▁halv	-8.65427
8	-8.65494
▁samtidig	-8.6558
tten	-8.65638
6	-8.6576
▁konge	-8.65922
▁kar	-8.66259
ju	-8.66418
▁gud	-8.66475
sson	-8.66693
▁selskapet	-8.66704
mål	-8.66927
▁ak	-8.67228
▁ingen	-8.67485
▁21	-8.67548
lands	-8.67715
skole	-8.67794
▁br	-8.68402
mon	-8.68536
▁em	-8.68561
ya	-8.68744
▁ren	-8.68775
tor	-8.68836
uk	-8.68934
▁nest	-8.6902
▁kjente	-8.69149
▁amerikansk	-8.69195
▁står	-8.69257
▁side	-8.69533
▁val	-8.69602
▁hol	-8.69614
▁sen	-8.69617
ret	-8.69674
mb	-8.69689
wa	-8.69711
tar	-8.69729
▁bergen	-8.69842
▁jord	-8.69889
ó	-8.70044
▁cha	-8.7019
▁hav	-8.70232
tz	-8.70652
▁vel	-8.70698
▁tiden	-8.70868
▁sommer	-8.7118
▁tu	-8.71279
▁vin	-8.7132
▁sto	-8.71336
ald	-8.71343
▁ku	-8.71362
▁gul	-8.71401
▁fag	-8.71411
▁beste	-8.71423
▁mil	-8.71432
▁datter	-8.71453
burg	-8.7148
▁opprinnelig	-8.71818
q	-8.71908
bok	-8.71936
▁støtte	-8.72115
▁ville	-8.72527
▁bandet	-8.72597
ine	-8.72683
▁z	-8.72734
▁midt	-8.72745
▁tar	-8.72995
▁os	-8.73128
▁årene	-8.73217
▁mann	-8.73416
▁lav	-8.73478
▁mag	-8.73597
ach	-8.73622
▁kommunen	-8.73804
▁familien	-8.73893
▁2005	-8.73932
▁we	-8.74073
anske	-8.74097
let	-8.74137
▁europa	-8.74271
▁ste	-8.7429
br	-8.74347
▁politisk	-8.74364
isert	-8.74552
▁etablert	-8.74616
▁lys	-8.74731
ans	-8.74732
tiden	-8.74772
fjorden	-8.74921
▁dagen	-8.75479
▁barne	-8.75788
art	-8.75847
ologi	-8.75874
▁sangen	-8.76029
▁gull	-8.76087
▁russisk	-8.76117
▁sal	-8.76174
▁basert	-8.76604
▁band	-8.76609
▁fred	-8.76744
▁2004	-8.76755
tu	-8.76875
inger	-8.76948
▁inneholder	-8.77017
▁sett	-8.7707
▁stort	-8.7745
▁meg	-8.77514
▁stil	-8.77534
far	-8.77568
9	-8.77689
▁kor	-8.77694
kan	-8.77777
▁pan	-8.77779
ppe	-8.77815
▁berg	-8.77826
▁grav	-8.77839
▁dikt	-8.77884
▁via	-8.78018
▁betyr	-8.78183
van	-8.7834
▁anti	-8.78522
▁tur	-8.78559
lær	-8.78621
▁gjern	-8.78646
▁forfatter	-8.78668
▁person	-8.78693
▁mel	-8.78706
▁amerikanske	-8.78731
▁22	-8.78773
▁sted	-8.78828
her	-8.79009
▁ed	-8.79098
ksjon	-8.79167
lot	-8.79318
▁va	-8.79338
dre	-8.79365
▁ganger	-8.79376
▁bruker	-8.79561
▁orden	-8.79582
vei	-8.79663
▁forskjellige	-8.79781
▁christian	-8.80034
▁annen	-8.80077
ding	-8.80083
▁året	-8.80181
ham	-8.80244
▁svensk	-8.80249
▁dermed	-8.80442
isering	-8.80537
dyr	-8.80555
ikk	-8.80713
▁ifølge	-8.80717
▁24	-8.80799
▁mal	-8.81163
▁tyskland	-8.81365
▁motor	-8.81457
▁bygget	-8.81473
za	-8.81522
lik	-8.81801
▁2011	-8.81888
zi	-8.81926
▁can	-8.82113
borg	-8.82133
▁brun	-8.822
iet	-8.82331
▁skog	-8.82364
▁fransk	-8.824
▁riks	-8.82409
▁luft	-8.8269
tikk	-8.8278
ære	-8.82997
▁gammel	-8.8302
▁cor	-8.83056
tri	-8.83115
▁jan	-8.83232
▁van	-8.83254
ai	-8.83296
sto	-8.83328
▁sverige	-8.83397
▁fotball	-8.83668
▁19	-8.83672
▁bor	-8.83691
▁utenfor	-8.83893
▁ag	-8.83931
▁roman	-8.84061
dy	-8.84116
skrift	-8.84221
inyin	-8.8431
▁lokal	-8.84317
50	-8.84384
lse	-8.84417
kar	-8.84469
▁tyske	-8.84516
▁måtte	-8.84588
▁100	-8.84639
ah	-8.84642
em	-8.84721
su	-8.84733
tel	-8.85104
▁sentral	-8.85164
mester	-8.85166
ys	-8.85183
▁historie	-8.85193
ister	-8.85283
▁arbeids	-8.85293
du	-8.85301
▁såkalt	-8.8533
▁gresk	-8.85394
▁fu	-8.85518
ris	-8.85773
pre	-8.86144
▁th	-8.86232
▁hi	-8.86263
dring	-8.86393
▁kal	-8.86411
▁tredje	-8.86447
▁tilhører	-8.86478
gh	-8.86522
▁com	-8.86605
▁natur	-8.86645
ica	-8.8668
pen	-8.86681
▁rød	-8.86686
▁2002	-8.86916
▁vis	-8.86947
▁albumet	-8.87034
bl	-8.87216
plass	-8.87252
и	-8.87292
▁deler	-8.87323
vet	-8.87505
▁grad	-8.87554
▁gate	-8.87624
▁plass	-8.87644
gel	-8.88096
▁spilt	-8.88158
▁industri	-8.88308
fra	-8.88436
▁2000	-8.88441
fly	-8.88539
lan	-8.88574
▁on	-8.88575
▁omfatter	-8.88614
øya	-8.88614
banen	-8.88699
ller	-8.88955
▁karl	-8.88959
port	-8.89086
▁ben	-8.8914
▁sosial	-8.89142
▁ev	-8.89252
kom	-8.89291
▁sang	-8.89338
▁tom	-8.89466
▁serien	-8.89481
ska	-8.89556
▁hvert	-8.89577
mat	-8.8958
spill	-8.89668
▁radio	-8.89754
▁kn	-8.89925
tale	-8.89974
▁vise	-8.90063
▁general	-8.90118
asjoner	-8.90162
▁mon	-8.90181
▁antall	-8.90222
▁deltok	-8.90225
▁christ	-8.90307
ran	-8.90339
▁paul	-8.90476
▁johan	-8.90478
▁omkring	-8.90529
▁mu	-8.90536
fl	-8.90538
▁lik	-8.90575
ab	-8.90669
▁perioden	-8.90722
ind	-8.90756
værende	-8.90768
▁kur	-8.90934
▁fleste	-8.90968
▁lite	-8.91021
han	-8.91047
leg	-8.91167
▁gitt	-8.91201
ug	-8.91246
▁kla	-8.91255
gård	-8.91329
fi	-8.91418
ighet	-8.91429
▁bre	-8.91631
▁peter	-8.91847
▁op	-8.92034
heim	-8.92179
olog	-8.92342
som	-8.92423
▁vol	-8.92427
jer	-8.9247
ep	-8.92477
▁øya	-8.92565
ich	-8.9259
▁arbeidet	-8.92601
▁bri	-8.92603
▁pla	-8.92614
▁nytt	-8.92647
▁klubben	-8.92773
▁foran	-8.92925
▁arbeider	-8.92978
▁viser	-8.9299
▁mus	-8.93146
dan	-8.93175
film	-8.93213
▁fe	-8.93309
▁inkludert	-8.93445
gar	-8.93609
▁lange	-8.93686
▁valg	-8.9373
▁stat	-8.93763
▁millioner	-8.94206
dom	-8.94206
▁ex	-8.94228
▁post	-8.94376
fri	-8.94453
skog	-8.94599
inne	-8.94648
eg	-8.94698
lene	-8.94712
▁2001	-8.94743
band	-8.94767
▁får	-8.9478
▁hy	-8.94799
føring	-8.94888
▁col	-8.94955
▁utviklet	-8.95215
kla	-8.95242
▁slekt	-8.95245
ana	-8.95356
▁kirken	-8.95441
ari	-8.95595
lev	-8.95678
▁fylke	-8.95795
▁mark	-8.95829
rom	-8.95961
▁liten	-8.96071
▁følgende	-8.9612
▁ledet	-8.96138
ida	-8.96237
▁pr	-8.96249
ale	-8.96255
▁elven	-8.9626
he	-8.96721
▁hø	-8.96855
chi	-8.96867
rø	-8.96995
løp	-8.97236
▁minne	-8.97247
▁slutt	-8.97306
▁betydning	-8.97324
▁keiser	-8.97328
ford	-8.97346
▁start	-8.97349
res	-8.97379
bro	-8.9743
bre	-8.97453
▁park	-8.97483
▁28	-8.97601
ros	-8.97657
▁stedet	-8.97744
▁skuespiller	-8.97925
pro	-8.97937
▁lett	-8.97981
▁ten	-8.97987
▁ob	-8.97995
▁rø	-8.98132
▁nu	-8.9824
▁rev	-8.98266
▁versjon	-8.98288
▁ke	-8.98425
▁litt	-8.98894
▁gav	-8.99007
mel	-8.99025
▁moh	-8.99064
▁spesielt	-8.99099
my	-8.99152
▁bort	-8.99327
▁stra	-8.99338
ze	-8.99396
▁hatt	-8.99593
ld	-8.99598
▁farge	-8.99611
▁krigs	-9.0009
mark	-9.001
▁vinter	-9.00181
cu	-9.0026
▁eu	-9.00291
▁herre	-9.00301
bygg	-9.00427
▁verk	-9.00456
satt	-9.00567
▁fiske	-9.00595
vann	-9.00603
▁dom	-9.0073
▁kongen	-9.00762
sje	-9.01101
kast	-9.01194
▁50	-9.01322
▁ber	-9.01432
▁gra	-9.01495
▁ven	-9.01639
sett	-9.01729
▁sanger	-9.01744
stat	-9.01781
els	-9.01879
▁jeg	-9.01903
▁full	-9.02116
veien	-9.02153
▁tru	-9.02154
▁moderne	-9.02211
▁produsert	-9.02281
▁bø	-9.02315
ath	-9.0235
spiller	-9.02447
hr	-9.02449
▁eneste	-9.02488
ves	-9.02511
all	-9.0266
merke	-9.02678
▁london	-9.02744
▁fylkesvei	-9.02765
▁fant	-9.02767
familien	-9.0299
stilling	-9.03084
bygd	-9.03115
20	-9.03294
▁aktiv	-9.0338
elt	-9.03389
▁fil	-9.03429
sund	-9.03449
▁jon	-9.03458
▁les	-9.03541
selskap	-9.036
▁forhold	-9.03614
cy	-9.03728
ide	-9.03947
kal	-9.04019
folkerepublikken	-9.04146
▁chi	-9.04261
▁blå	-9.04273
▁sak	-9.04314
▁23	-9.04428
idae	-9.04446
ita	-9.04466
fer	-9.0447
pu	-9.04492
▁organ	-9.04529
istiske	-9.04584
forening	-9.0475
ski	-9.04752
▁gre	-9.04761
▁vo	-9.04941
ps	-9.04981
▁2003	-9.0511
▁stats	-9.05179
bin	-9.05182
liggende	-9.05205
▁råd	-9.0524
▁mis	-9.05293
▁tildelt	-9.0542
▁familie	-9.05427
▁gri	-9.05453
▁gjør	-9.05488
▁styre	-9.055
▁26	-9.05515
▁gro	-9.05515
▁opprettet	-9.0557
▁teater	-9.05608
▁lyd	-9.05642
net	-9.0571
▁rock	-9.05851
▁regi	-9.05884
ā	-9.05945
▁valgt	-9.06026
▁bror	-9.06051
og	-9.06139
▁jernbane	-9.06191
▁dis	-9.0676
ds	-9.06769
▁sm	-9.06779
▁lands	-9.06807
▁ci	-9.06871
▁arter	-9.06885
ino	-9.06929
▁william	-9.0701
ismen	-9.07029
▁fortsatt	-9.07181
leder	-9.07199
▁slag	-9.07206
▁nett	-9.07488
▁omtrent	-9.07495
lett	-9.0752
mu	-9.07549
▁gar	-9.07603
nske	-9.07608
▁bill	-9.07661
▁best	-9.07705
the	-9.0774
hl	-9.07765
▁ett	-9.07801
▁tidlig	-9.07806
▁serie	-9.07851
▁skolen	-9.07871
samfunn	-9.07872
▁sl	-9.07873
▁40	-9.07908
▁godt	-9.07952
▁arbeid	-9.07962
▁2012	-9.08
▁folk	-9.08052
ket	-9.08069
navnet	-9.08257
▁ry	-9.08288
▁egne	-9.08324
bra	-9.0843
▁helse	-9.0847
▁produksjon	-9.08554
sjonen	-9.08571
stasjon	-9.08689
▁mm	-9.08765
о	-9.08951
ay	-9.09024
▁enkelte	-9.09032
▁nok	-9.09356
▁hvit	-9.09418
pris	-9.09552
80	-9.09611
kning	-9.09657
▁fre	-9.10112
▁31	-9.10138
▁utgjør	-9.1017
vil	-9.10244
▁topp	-9.10249
▁don	-9.10265
▁27	-9.10274
ssen	-9.10306
▁ser	-9.10336
▁års	-9.10414
søk	-9.10424
▁spor	-9.10475
råd	-9.10526
▁medlemmer	-9.10539
▁makt	-9.10629
▁besto	-9.10908
navn	-9.10938
skje	-9.11012
▁rolle	-9.11023
▁fin	-9.11062
kamp	-9.11133
▁bygge	-9.11187
▁fordi	-9.11192
▁bjørn	-9.11296
▁samarbeid	-9.11316
skip	-9.11351
▁båt	-9.11359
iz	-9.11367
▁langt	-9.11372
▁pri	-9.11435
▁italiensk	-9.11466
▁delstaten	-9.1149
sjef	-9.11626
▁tal	-9.11701
▁forbindelse	-9.11739
40	-9.11873
ark	-9.11954
▁1990	-9.11983
▁dia	-9.12019
▁program	-9.12023
▁viktigste	-9.12024
ji	-9.12098
we	-9.12148
▁sesongen	-9.12149
▁gen	-9.12222
båt	-9.12229
▁internasjonale	-9.12232
che	-9.12373
▁tjeneste	-9.12391
ater	-9.1245
up	-9.12512
30	-9.12557
▁au	-9.12843
▁lei	-9.12849
ika	-9.12912
xi	-9.12913
sky	-9.1304
▁robert	-9.13052
istisk	-9.13291
bær	-9.13347
ini	-9.13349
ien	-9.13506
▁bur	-9.13554
sti	-9.13628
▁olav	-9.13642
ferd	-9.13731
▁styrke	-9.13735
punkt	-9.13757
▁eier	-9.13817
▁hal	-9.13857
▁elva	-9.13872
▁krigen	-9.13932
▁russland	-9.14034
▁thomas	-9.14047
fjord	-9.14102
fag	-9.14192
▁drev	-9.14225
området	-9.14281
ola	-9.14313
▁ly	-9.14314
▁militær	-9.14323
ara	-9.14481
▁hjem	-9.14524
våg	-9.14755
fin	-9.14844
▁viktig	-9.14974
vær	-9.15049
ap	-9.15063
sjøen	-9.15065
lis	-9.1507
heten	-9.15179
▁stasjon	-9.15204
▁kontroll	-9.15221
rus	-9.15255
▁sig	-9.15479
▁gruppe	-9.15564
ð	-9.15601
▁direkte	-9.15601
▁red	-9.15715
med	-9.15751
▁én	-9.15758
▁gal	-9.15789
stra	-9.15797
▁berlin	-9.15836
▁fl	-9.15984
▁ji	-9.15994
▁verden	-9.16125
▁gran	-9.16125
trykk	-9.16189
don	-9.16251
stan	-9.16282
▁kraft	-9.1643
▁skade	-9.16547
▁you	-9.16615
vern	-9.1662
▁ført	-9.16636
▁høyeste	-9.16639
▁kol	-9.16666
▁1989	-9.16668
▁maria	-9.1671
60	-9.168
hy	-9.16829
10	-9.16898
▁partiet	-9.17092
▁stu	-9.17184
▁pat	-9.17213
gruppen	-9.17352
▁lin	-9.17413
▁ul	-9.17459
fall	-9.17475
▁ky	-9.17621
valg	-9.177
king	-9.17741
▁tittelen	-9.17839
▁za	-9.1786
▁liste	-9.17871
▁staten	-9.17892
▁hår	-9.17933
det	-9.17984
▁tatt	-9.18082
lser	-9.1816
▁kv	-9.18282
lei	-9.18288
▁politi	-9.18307
▁energi	-9.18332
▁tall	-9.18337
85	-9.18381
▁franske	-9.18399
▁samling	-9.1864
nett	-9.18646
▁blad	-9.18651
grad	-9.1867
▁cla	-9.18684
lle	-9.1871
▁sha	-9.18769
▁tak	-9.18805
syn	-9.18845
▁forsøk	-9.18859
▁ferdig	-9.18884
▁mont	-9.18911
sal	-9.18993
▁opera	-9.19059
▁bank	-9.19104
▁arkitekt	-9.19121
н	-9.19338
▁1970	-9.19373
▁ordet	-9.19378
▁danmark	-9.19379
▁verdi	-9.19389
▁veien	-9.19507
▁menneske	-9.19585
log	-9.1974
▁para	-9.19792
▁mac	-9.19944
▁finner	-9.19996
▁bj	-9.2003
▁mari	-9.20063
gitt	-9.20096
▁trykk	-9.20273
▁die	-9.20296
løse	-9.20364
minister	-9.20443
▁frankrike	-9.20474
▁1980	-9.20483
▁hånd	-9.20494
▁ras	-9.20499
▁grunnlagt	-9.20501
▁air	-9.2056
lighet	-9.20579
stående	-9.20662
stø	-9.20695
▁arv	-9.20768
▁sc	-9.20799
▁sentrum	-9.2093
▁syd	-9.20988
α	-9.21022
rike	-9.21104
▁kroppen	-9.21107
område	-9.21164
nis	-9.21528
▁system	-9.21534
landet	-9.21586
▁england	-9.21606
▁politiker	-9.2166
▁kle	-9.2175
lit	-9.21911
▁sterkt	-9.21935
▁album	-9.2202
▁hjelp	-9.22084
▁sh	-9.221
▁olympisk	-9.22143
▁1999	-9.22154
way	-9.22255
zo	-9.22282
▁mc	-9.22299
▁stjerne	-9.22307
▁tids	-9.22384
iner	-9.22385
▁gje	-9.22392
▁martin	-9.22397
vit	-9.22414
▁ter	-9.22454
▁økonomisk	-9.22505
▁len	-9.22595
▁minst	-9.22618
dning	-9.22679
▁dessut	-9.22711
plan	-9.22747
tion	-9.22752
imot	-9.22864
▁måte	-9.22887
▁anders	-9.22915
cia	-9.23009
▁åpnet	-9.23056
mal	-9.23181
arbeid	-9.23253
▁erik	-9.2328
▁studie	-9.23281
▁sommerfugl	-9.23286
rk	-9.23447
ani	-9.23478
▁wal	-9.2356
▁biskop	-9.23562
▁flyttet	-9.23733
▁port	-9.2381
▁åtte	-9.23818
graf	-9.23873
▁lokale	-9.23902
▁hovedsake	-9.23929
områder	-9.24102
▁regionen	-9.24141
▁dan	-9.24238
▁lille	-9.24299
▁29	-9.24355
▁standard	-9.24423
▁york	-9.24427
▁felles	-9.24511
▁personer	-9.24628
tegn	-9.24705
▁olje	-9.2472
▁overtok	-9.2474
▁svenske	-9.24877
▁bal	-9.24896
▁enkelt	-9.24977
▁latin	-9.24998
▁imp	-9.25
▁hall	-9.25107
ringen	-9.25241
▁sla	-9.25339
folk	-9.25471
kraft	-9.25504
ssa	-9.25572
▁kra	-9.25688
▁kul	-9.2581
▁svart	-9.2583
▁lind	-9.25835
system	-9.2585
▁hjemme	-9.25881
▁klo	-9.25887
rå	-9.25917
▁sil	-9.25938
bane	-9.25991
▁pris	-9.26098
è	-9.26129
▁kvinne	-9.26142
▁nordøst	-9.26208
▁artist	-9.26378
ved	-9.26395
▁tap	-9.26444
▁utvikling	-9.26456
vig	-9.26457
ct	-9.26461
▁kamp	-9.26686
ble	-9.26711
messig	-9.26756
▁afrika	-9.26761
▁lær	-9.26762
▁venstre	-9.26781
▁dannet	-9.26826
▁george	-9.2684
är	-9.26995
▁høyre	-9.27058
anlegg	-9.27096
▁pol	-9.27141
▁pl	-9.27273
▁sølv	-9.27346
mannen	-9.27529
iserte	-9.27554
fisk	-9.27627
▁dansk	-9.27671
▁mennesker	-9.27758
▁strøm	-9.27816
▁funksjon	-9.28053
▁war	-9.28142
▁pave	-9.28193
selskapet	-9.28218
▁fortsatte	-9.28359
pol	-9.28361
▁ac	-9.28435
▁selskap	-9.2847
▁bør	-9.28479
▁italia	-9.28553
▁kje	-9.28578
satte	-9.2867
ød	-9.28684
kri	-9.28688
last	-9.28706
▁kjøpt	-9.28751
press	-9.2886
▁tekst	-9.28867
▁mos	-9.28926
▁flo	-9.29073
▁litteratur	-9.29089
systemet	-9.29111
▁1998	-9.29151
fo	-9.29239
▁historisk	-9.29267
old	-9.29275
▁60	-9.29327
▁tegn	-9.29444
р	-9.29737
▁universitet	-9.29796
▁stemme	-9.30028
▁elev	-9.30031
▁inntil	-9.30056
▁forut	-9.30101
evne	-9.30104
retning	-9.30106
samling	-9.30137
▁lø	-9.30252
▁af	-9.30327
▁david	-9.30362
▁1991	-9.30368
▁west	-9.30499
kjenne	-9.30503
36	-9.30559
yn	-9.30614
ix	-9.30639
rin	-9.30639
program	-9.30925
▁fåt	-9.30941
▁ball	-9.30946
▁island	-9.30963
språk	-9.31036
▁dy	-9.31046
▁ø	-9.3107
▁handels	-9.31122
▁plante	-9.31178
aksjon	-9.31204
itz	-9.31271
▁fv	-9.31386
ano	-9.31428
▁bern	-9.31467
▁vekt	-9.3147
▁knyttet	-9.31478
anger	-9.31507
▁uni	-9.31508
▁carl	-9.31531
▁bygd	-9.31536
mun	-9.31565
▁arm	-9.31621
holm	-9.3163
▁reise	-9.31658
rum	-9.31752
ving	-9.31818
▁japansk	-9.31896
teori	-9.32315
huset	-9.32375
dra	-9.3243
▁behandling	-9.32507
▁tett	-9.32508
▁skille	-9.32688
▁årlig	-9.32702
▁hvis	-9.32731
▁delen	-9.32776
▁sø	-9.32804
havet	-9.32896
brudd	-9.32935
▁universitetet	-9.32979
án	-9.33056
grense	-9.33099
▁løpet	-9.33202
oli	-9.33259
▁mod	-9.33267
▁grå	-9.33337
▁skrift	-9.33373
▁sub	-9.33373
fest	-9.33405
▁1960	-9.33482
nivå	-9.33517
senter	-9.33599
▁zh	-9.33694
▁klar	-9.33801
▁danske	-9.33853
menn	-9.3391
tårn	-9.3403
▁kilometer	-9.34097
▁1985	-9.34114
▁nærings	-9.34154
organ	-9.34168
▁distrikt	-9.34181
▁kl	-9.34218
kin	-9.34279
▁lege	-9.34294
lys	-9.34315
dals	-9.34318
▁bad	-9.34329
eres	-9.34344
ull	-9.34363
▁bedre	-9.34364
har	-9.34529
oc	-9.34539
ban	-9.34691
▁ære	-9.34699
ip	-9.348
▁holdt	-9.34853
full	-9.34877
▁kyst	-9.34944
rio	-9.34948
▁mulig	-9.34993
ringer	-9.35035
tis	-9.35051
så	-9.35061
▁grand	-9.35062
▁delt	-9.3508
▁vår	-9.3519
hal	-9.35197
▁steder	-9.35239
lsen	-9.3533
ild	-9.35414
▁høyde	-9.35422
▁ska	-9.35468
side	-9.35534
▁mad	-9.35585
▁museum	-9.35586
gra	-9.35667
▁miljø	-9.35668
▁mur	-9.35759
▁resultat	-9.35866
ledes	-9.35868
gan	-9.35966
▁boken	-9.35983
produksjon	-9.35997
bygging	-9.36012
departementet	-9.3602
▁utnevnt	-9.3602
▁mester	-9.36055
kunst	-9.36084
▁data	-9.36094
age	-9.36147
▁ap	-9.36174
▁neste	-9.36279
▁avdeling	-9.36366
▁slutten	-9.36435
ektor	-9.36488
▁sku	-9.36529
aks	-9.36545
ås	-9.3656
▁xi	-9.36648
▁bred	-9.36655
▁oppkalt	-9.36674
▁1984	-9.36681
▁fjern	-9.36681
▁2013	-9.36687
▁verdenskrig	-9.36703
95	-9.36744
▁komme	-9.36797
▁hvite	-9.36815
fon	-9.36858
▁drift	-9.37059
▁klart	-9.37133
▁dyr	-9.37183
▁paris	-9.37242
е	-9.37265
▁karriere	-9.37286
▁eldste	-9.37324
▁university	-9.37327
▁1996	-9.37331
▁drept	-9.37333
ritt	-9.37362
▁åpen	-9.37368
▁romersk	-9.37379
▁eldre	-9.37393
▁regn	-9.37411
▁blod	-9.37417
året	-9.37492
ativ	-9.37553
hall	-9.37604
▁seil	-9.37622
▁marine	-9.37676
42	-9.37912
bygning	-9.37934
roll	-9.37942
▁hei	-9.37954
▁egentlig	-9.38021
▁un	-9.38023
bert	-9.38101
▁gjort	-9.38288
▁ettersom	-9.38313
▁funnet	-9.38329
▁eg	-9.38349
▁regnes	-9.38442
byen	-9.3846
abel	-9.38531
løs	-9.38536
▁son	-9.38557
▁havne	-9.38607
▁storbritannia	-9.38643
▁1994	-9.38649
▁trondheim	-9.3865
▁1992	-9.38656
▁brukte	-9.38664
▁angrep	-9.3868
▁våpen	-9.38734
▁rot	-9.38994
▁egg	-9.39007
▁trekk	-9.39115
▁konsert	-9.39135
heng	-9.39154
▁wo	-9.39155
tic	-9.39195
▁prosess	-9.39195
▁nummer	-9.39275
▁studerte	-9.3931
▁følge	-9.39339
▁knut	-9.39414
▁økt	-9.39467
lia	-9.39513
▁munn	-9.39524
fabrikk	-9.396
▁skje	-9.397
rud	-9.39841
rop	-9.39845
get	-9.39921
▁venn	-9.39968
▁høsten	-9.39973
▁informasjon	-9.39981
▁1988	-9.39989
▁miste	-9.39989
▁1986	-9.39993
eget	-9.40026
▁200	-9.40071
bor	-9.40103
▁enhet	-9.40162
37	-9.40227
▁områder	-9.4028
fu	-9.40348
▁gjøre	-9.40349
aktig	-9.40377
▁kjøre	-9.40457
▁henne	-9.40464
▁sel	-9.40471
▁stilling	-9.40489
ons	-9.40505
mus	-9.40645
akademi	-9.40659
▁ledd	-9.4066
sis	-9.40785
▁finsk	-9.40789
▁uttrykk	-9.40895
gående	-9.40901
▁eli	-9.40922
formet	-9.40966
▁følger	-9.41011
▁grønn	-9.4103
ekte	-9.41039
tive	-9.41148
▁80	-9.41209
musikk	-9.41296
à	-9.41337
▁national	-9.41337
▁flagg	-9.41357
▁dro	-9.41425
▁spesial	-9.41533
ama	-9.4165
▁heter	-9.41768
▁design	-9.41821
55	-9.41823
▁kost	-9.41835
▁pra	-9.41859
▁not	-9.41979
▁fall	-9.42019
ider	-9.42022
tus	-9.42053
▁inter	-9.42064
▁bilde	-9.42095
kket	-9.42122
organisasjon	-9.4219
ib	-9.423
sberg	-9.42358
bø	-9.42469
ive	-9.42484
▁kraftverk	-9.4249
kh	-9.42562
▁effekt	-9.42618
erende	-9.42662
▁spansk	-9.42708
ú	-9.42712
▁rus	-9.42734
trekk	-9.42763
ati	-9.42865
▁holde	-9.42884
▁mas	-9.42969
ata	-9.43033
▁ring	-9.43069
▁veg	-9.431
nsk	-9.43115
▁transport	-9.43154
▁divisjon	-9.43154
▁trans	-9.43163
▁lau	-9.43238
▁skip	-9.43384
▁punkt	-9.43386
▁slekten	-9.43397
▁betydelig	-9.43406
▁stockholm	-9.43406
▁1987	-9.43419
▁brann	-9.43435
▁pot	-9.43439
hund	-9.43493
tig	-9.435
▁danner	-9.43649
▁beskrive	-9.43658
▁virke	-9.43721
▁produkt	-9.43748
78	-9.43929
▁thor	-9.43942
▁dre	-9.43952
ör	-9.43963
lla	-9.44094
▁uavhengig	-9.44105
parlament	-9.4411
▁prosent	-9.44115
metode	-9.44124
▁2015	-9.44128
66	-9.44135
▁krist	-9.44223
▁india	-9.44255
grunn	-9.44266
▁høyt	-9.44281
ial	-9.44425
▁kinas	-9.44453
▁møte	-9.44538
kant	-9.44662
▁smal	-9.44742
▁krig	-9.44757
▁vas	-9.44784
л	-9.4481
▁suksess	-9.4481
▁øverst	-9.44811
▁vik	-9.44839
▁lærer	-9.44847
ria	-9.44851
▁viktige	-9.4489
62	-9.44897
▁spille	-9.44948
▁maskin	-9.44953
▁utført	-9.44978
skolen	-9.44989
felt	-9.45029
▁tung	-9.45224
gren	-9.45258
▁sag	-9.45321
▁lagt	-9.45338
▁kors	-9.45414
▁representerte	-9.45436
▁hvilke	-9.4552
stoff	-9.45529
▁shi	-9.45612
76	-9.45613
▁sogn	-9.45647
▁johannes	-9.45651
▁spi	-9.45664
▁ordenen	-9.45794
verket	-9.45816
veg	-9.45914
▁bon	-9.45987
▁indre	-9.46059
▁gård	-9.46208
ms	-9.46216
ub	-9.46216
к	-9.46226
▁ang	-9.46227
▁relativ	-9.46234
qui	-9.46269
▁sentrale	-9.46282
▁hvordan	-9.46329
▁regjeringen	-9.46364
▁fest	-9.46381
drag	-9.46414
dømme	-9.46419
▁professor	-9.46451
▁middel	-9.46459
bjørn	-9.46476
▁sau	-9.46529
sette	-9.46558
▁old	-9.46631
▁gå	-9.46682
jev	-9.46715
ky	-9.46723
stall	-9.46802
mund	-9.46827
kje	-9.46871
▁plate	-9.46903
gangen	-9.46946
▁typisk	-9.46957
gle	-9.46968
▁2016	-9.46973
▁opprør	-9.47102
▁offentlig	-9.47114
▁borger	-9.47153
▁periode	-9.47229
▁flat	-9.47299
▁figur	-9.47316
▁turn	-9.47533
▁dam	-9.47648
ppen	-9.47661
▁tilsvarende	-9.47677
▁folketelling	-9.47678
▁klima	-9.47741
▁lek	-9.47773
▁natt	-9.47851
løst	-9.47871
▁slaget	-9.47899
hav	-9.4796
▁sky	-9.48057
▁svarte	-9.48077
▁foss	-9.48079
oni	-9.48146
▁seier	-9.48203
▁erstattet	-9.48249
▁kvinner	-9.48258
▁dager	-9.48271
▁kro	-9.48331
ance	-9.48343
▁eid	-9.48361
ball	-9.48387
▁kir	-9.48394
representant	-9.48407
▁varme	-9.48419
▁1979	-9.48421
99	-9.48481
rekord	-9.48501
medalje	-9.48506
marked	-9.48561
▁drama	-9.48561
▁aldri	-9.48578
givelse	-9.48607
ansk	-9.48652
kontor	-9.48762
▁kas	-9.4885
▁us	-9.48868
▁iii	-9.48926
▁størrelse	-9.48967
▁arten	-9.48992
▁1993	-9.49154
åpning	-9.4916
▁prest	-9.49187
▁nils	-9.49199
▁fla	-9.492
▁james	-9.49265
▁salt	-9.494
▁slo	-9.49511
▁total	-9.49531
▁hed	-9.49539
▁sti	-9.49665
gården	-9.49686
kur	-9.49711
rød	-9.49717
▁70	-9.4979
▁real	-9.49873
▁dronning	-9.49892
▁1995	-9.499
▁hjerte	-9.49912
▁super	-9.49916
▁henrik	-9.50075
zhou	-9.50086
tori	-9.50177
forbund	-9.50224
▁interesse	-9.5025
▁fot	-9.50299
lund	-9.50338
gikk	-9.50339
▁bygningen	-9.50358
44	-9.50362
▁krav	-9.50485
92	-9.5051
lem	-9.5054
46	-9.50573
▁kron	-9.50601
▁world	-9.5063
▁1978	-9.50645
▁statsminister	-9.50646
▁sørøst	-9.50666
pan	-9.50713
klubb	-9.50751
ort	-9.50782
drift	-9.5085
sam	-9.50898
▁løp	-9.50923
48	-9.50969
▁nrk	-9.50974
elva	-9.50977
industri	-9.5098
fre	-9.50984
smann	-9.5099
57	-9.51133
▁hovedstaden	-9.51176
spor	-9.51233
bus	-9.51331
▁fjerde	-9.51382
▁1982	-9.51396
▁1976	-9.51397
▁jern	-9.51422
dor	-9.51442
▁pen	-9.51497
▁region	-9.51502
▁mørke	-9.5158
▁ok	-9.51588
ob	-9.51602
83	-9.5162
▁kunstner	-9.51621
▁mid	-9.51644
82	-9.51658
▁fylkes	-9.51777
ple	-9.51805
▁gass	-9.51818
ish	-9.5184
▁dra	-9.51852
liv	-9.51916
▁psyk	-9.51933
▁anne	-9.51955
wi	-9.52116
▁sørvest	-9.52143
▁nordvest	-9.52148
▁vanskelig	-9.5215
▁1997	-9.52153
▁sir	-9.52154
▁hva	-9.52204
col	-9.52221
fal	-9.52431
▁fører	-9.52567
shire	-9.52615
▁ram	-9.52668
▁hit	-9.52681
▁enten	-9.52831
eier	-9.52861
▁ze	-9.52869
▁sur	-9.52887
jel	-9.52938
▁gren	-9.52948
▁samlet	-9.52957
▁slike	-9.53162
▁finland	-9.53251
strøm	-9.53298
vatnet	-9.53312
ction	-9.53328
90	-9.53347
nu	-9.53375
fart	-9.53445
▁utdanne	-9.53477
56	-9.53562
▁sommeren	-9.53568
▁lengde	-9.53587
▁utgav	-9.53646
▁bygde	-9.53705
▁slått	-9.53745
▁reg	-9.5376
▁gode	-9.5379
ink	-9.53798
▁fange	-9.53833
▁nederlandsk	-9.53878
kov	-9.53937
loven	-9.53957
▁motstand	-9.53958
▁tradisjon	-9.54119
▁cu	-9.5416
▁linje	-9.54185
gift	-9.54328
07	-9.54342
koll	-9.54349
▁skipet	-9.54392
hn	-9.54394
▁international	-9.54447
▁1968	-9.5446
ført	-9.54474
▁altså	-9.54476
tun	-9.54481
▁stre	-9.5449
▁inkluderer	-9.54585
▁distriktet	-9.54596
uf	-9.54619
▁est	-9.54643
▁stod	-9.54732
▁selve	-9.54735
▁mun	-9.54751
▁35	-9.54767
▁sterke	-9.54828
arm	-9.54834
lon	-9.5492
▁likevel	-9.5494
▁georg	-9.54999
▁anton	-9.5503
87	-9.55095
▁virksomhet	-9.55189
с	-9.5522
▁1972	-9.55241
▁syv	-9.55265
vekst	-9.55274
▁legge	-9.55355
▁renner	-9.55381
▁fro	-9.55383
▁win	-9.55464
▁retning	-9.55467
▁menn	-9.55477
▁skjer	-9.55484
grav	-9.55515
▁hor	-9.55533
▁jobb	-9.55627
▁tele	-9.55635
elli	-9.55642
▁løv	-9.55658
▁just	-9.557
▁danne	-9.55868
▁nordlig	-9.55951
▁bomb	-9.55974
▁hest	-9.56027
▁1975	-9.56029
gy	-9.56112
▁oppført	-9.56173
▁kraftig	-9.56253
linjen	-9.56261
79	-9.56301
▁finne	-9.56337
▁regjering	-9.56433
led	-9.56443
▁borg	-9.56445
▁ledelse	-9.56495
kommune	-9.56503
▁vold	-9.56689
▁bane	-9.56719
▁1981	-9.56822
minne	-9.56825
▁lund	-9.56868
67	-9.56999
▁hodet	-9.57076
krigen	-9.57146
▁stø	-9.57181
▁auto	-9.57286
▁180	-9.57323
97	-9.5735
løper	-9.57457
mand	-9.57509
▁holm	-9.5751
ben	-9.57581
▁hverandre	-9.57609
▁jacob	-9.5761
parti	-9.57616
wood	-9.57697
▁pal	-9.57795
gå	-9.57821
cc	-9.57916
▁plassert	-9.57986
lang	-9.58047
▁reform	-9.58065
▁forfatteren	-9.5815
giver	-9.58166
▁klasse	-9.58189
▁russiske	-9.58214
stor	-9.58262
▁viste	-9.58296
well	-9.58341
rich	-9.58408
▁benyttet	-9.58415
▁norrøn	-9.58418
høgskole	-9.58454
▁syk	-9.58473
▁felt	-9.58492
▁grunnla	-9.58504
▁tanke	-9.58601
▁ek	-9.58609
ram	-9.58652
bladet	-9.58685
yang	-9.58687
jiang	-9.5871
▁jens	-9.58867
▁spre	-9.58936
▁mw	-9.59013
sol	-9.59015
▁elv	-9.59028
▁sul	-9.59061
▁cl	-9.59105
krat	-9.59142
gress	-9.59165
▁dårlig	-9.5923
▁klassisk	-9.59231
▁fle	-9.59246
▁2014	-9.59247
kka	-9.59274
▁sivil	-9.59299
one	-9.59312
tha	-9.59388
▁bol	-9.59392
fang	-9.59412
kong	-9.59439
▁ep	-9.59467
▁bøker	-9.59587
▁drive	-9.59659
▁japan	-9.59672
alis	-9.59691
▁stiftet	-9.59736
haug	-9.5989
▁meste	-9.59948
▁cap	-9.59995
▁1950	-9.60079
▁skapt	-9.60102
▁danse	-9.60112
▁stadig	-9.60147
skjold	-9.602
ér	-9.60238
▁befolkningen	-9.60248
▁heller	-9.60296
qu	-9.60383
58	-9.60486
▁privat	-9.60556
▁frank	-9.60595
▁stav	-9.60631
▁cm	-9.60743
▁løper	-9.60788
▁århundre	-9.60875
▁tilhørte	-9.60876
ura	-9.60904
▁rein	-9.61075
▁type	-9.61133
▁lan	-9.61201
▁tilfelle	-9.61264
tjeneste	-9.61279
legg	-9.61372
▁fyr	-9.61402
▁sammenheng	-9.61405
ture	-9.61409
43	-9.61409
▁populær	-9.61545
▁økonomi	-9.61575
ī	-9.61708
▁michael	-9.61708
▁riksvei	-9.61799
▁merke	-9.61873
pl	-9.61873
lagt	-9.61917
▁glo	-9.61919
▁daglig	-9.6203
▁larvene	-9.62036
que	-9.6205
▁500	-9.62059
ille	-9.62071
▁nabo	-9.62139
63	-9.62141
▁student	-9.6221
ova	-9.62226
▁produsent	-9.62276
▁ole	-9.62281
▁spill	-9.62322
tti	-9.62338
▁dyre	-9.62339
middel	-9.62345
las	-9.62351
deles	-9.62382
arter	-9.62421
47	-9.62444
på	-9.62479
eid	-9.62491
vekt	-9.62519
▁het	-9.62546
▁louis	-9.62549
▁etterhvert	-9.6255
▁foreldre	-9.62551
stu	-9.62558
▁stamme	-9.62581
▁fortsette	-9.62599
fører	-9.62654
▁bestemt	-9.6267
deling	-9.62749
krets	-9.62847
▁raskt	-9.62866
▁kj	-9.62878
▁strand	-9.62888
▁gru	-9.62973
▁bruke	-9.63054
▁preste	-9.63093
ick	-9.6313
low	-9.63142
stid	-9.63202
▁sw	-9.63232
▁vern	-9.63275
styrke	-9.63276
▁rå	-9.63304
▁grense	-9.63316
▁kristen	-9.63347
senteret	-9.63399
ов	-9.63404
▁1974	-9.63411
▁1967	-9.63412
▁møtte	-9.63417
▁adel	-9.63419
▁kloster	-9.63458
▁elve	-9.635
ade	-9.63507
▁prisen	-9.63514
partiet	-9.63644
gruppe	-9.63729
▁listen	-9.63733
løpet	-9.63763
86	-9.63803
75	-9.63816
▁bel	-9.63824
▁jean	-9.63836
▁høyere	-9.63856
▁sund	-9.6395
▁cal	-9.64074
▁vm	-9.64144
▁musiker	-9.64146
kirke	-9.64171
74	-9.64175
ō	-9.6425
▁hertug	-9.64254
▁melodi	-9.64256
▁stavanger	-9.6426
▁musikkalbum	-9.64263
hel	-9.64268
▁ya	-9.64292
▁bygg	-9.64313
84	-9.64338
▁mill	-9.64358
midler	-9.64449
▁hundre	-9.64473
ografi	-9.64482
▁hoff	-9.64555
▁zo	-9.64573
ische	-9.64651
kle	-9.64696
12	-9.64717
rådet	-9.64806
bare	-9.64812
▁pop	-9.64887
ij	-9.64904
▁anna	-9.64928
▁fugle	-9.65015
▁korte	-9.65045
▁utdanning	-9.65088
▁1973	-9.65126
▁city	-9.65219
▁begynnelse	-9.65414
▁grensen	-9.65425
rør	-9.6546
▁endret	-9.65466
farge	-9.65504
▁besøk	-9.65542
▁north	-9.65574
81	-9.65607
gge	-9.65618
▁karakter	-9.65746
▁grupper	-9.65756
▁mak	-9.65806
▁temperatur	-9.65837
avdeling	-9.6586
cha	-9.65927
▁direktør	-9.6594
skyld	-9.65961
т	-9.65982
▁arrangert	-9.65982
dagen	-9.65997
orm	-9.66002
▁tema	-9.66048
ori	-9.66146
▁alb	-9.66148
▁dersom	-9.66162
tall	-9.6621
vendt	-9.66214
▁rike	-9.66295
▁organisasjon	-9.664
verdi	-9.66436
▁fjord	-9.66456
39	-9.66458
▁time	-9.66491
lipp	-9.6651
68	-9.66557
▁hell	-9.66598
▁mørk	-9.66675
off	-9.66687
manns	-9.66718
▁tang	-9.6672
▁markeds	-9.66747
72	-9.66805
▁skips	-9.66813
ekspedisjon	-9.66859
ν	-9.66859
▁unge	-9.66866
▁black	-9.66917
▁søster	-9.66922
▁90	-9.66949
▁vid	-9.66958
▁forsvar	-9.66977
▁mente	-9.67128
▁operasjon	-9.67135
▁dyp	-9.67138
▁ana	-9.67187
gaard	-9.67231
▁mulighet	-9.67239
▁myr	-9.67264
▁she	-9.67336
▁pass	-9.67356
fjell	-9.67445
▁asia	-9.67457
▁fjorden	-9.67496
ula	-9.67501
voll	-9.67634
ras	-9.67733
▁1969	-9.67744
▁sannsynlig	-9.67744
▁1971	-9.67758
ão	-9.6776
spiss	-9.6776
▁bolig	-9.67771
virkning	-9.67778
øyene	-9.67782
turnering	-9.67822
▁dal	-9.6784
lav	-9.67864
▁samfunns	-9.67946
▁stammer	-9.67987
▁larven	-9.67992
▁sy	-9.68021
15	-9.68023
▁representerer	-9.68038
tog	-9.68085
▁samle	-9.68104
▁forsknings	-9.68113
▁militære	-9.68134
▁nan	-9.68217
▁metal	-9.68265
▁totalt	-9.68302
▁instrument	-9.68313
▁redaktør	-9.6833
hør	-9.68375
lly	-9.68408
historie	-9.68506
slekt	-9.6854
uc	-9.68544
▁finans	-9.68603
▁alternativ	-9.68637
▁joseph	-9.68637
▁kardinal	-9.68637
▁fokus	-9.68641
▁gården	-9.6865
delse	-9.6866
▁bevart	-9.68676
kro	-9.68707
▁vind	-9.68787
▁presse	-9.68801
▁kh	-9.68865
▁grenser	-9.689
▁arabisk	-9.68991
ora	-9.69028
▁begrepet	-9.69049
▁kanon	-9.69121
oy	-9.69162
▁mø	-9.69224
rene	-9.69263
▁los	-9.69266
oppgave	-9.69325
▁hellig	-9.69337
brun	-9.69394
våpen	-9.69423
▁roma	-9.69464
field	-9.69489
▁komponist	-9.69538
▁spesiell	-9.69538
▁scene	-9.69577
▁fremdeles	-9.69582
▁lenge	-9.69603
▁od	-9.69607
▁bind	-9.6964
45	-9.69705
▁rygg	-9.69717
rev	-9.6972
▁innehold	-9.69761
▁fulgte	-9.69765
ique	-9.69826
rim	-9.6988
blom	-9.69956
kilden	-9.6999
▁forsvars	-9.70001
▁kreve	-9.70001
▁hud	-9.70014
fugl	-9.70172
▁aktivitet	-9.70172
▁nø	-9.70202
▁bit	-9.70228
▁off	-9.7023
▁skrive	-9.70233
19	-9.70366
▁prosjekt	-9.7037
▁gitar	-9.70423
ι	-9.70447
▁religiøs	-9.70447
▁publisert	-9.70447
▁naturlig	-9.70448
▁nærmest	-9.7045
▁1964	-9.70459
▁nivå	-9.70463
▁1920	-9.70476
93	-9.70568
▁vokste	-9.70672
▁sko	-9.70766
▁mik	-9.70799
▁grev	-9.70837
dar	-9.7089
▁400	-9.70981
▁anlegget	-9.70994
▁leve	-9.71076
▁buk	-9.71106
▁max	-9.71113
▁kampen	-9.71144
bein	-9.71152
77	-9.71306
▁hå	-9.71317
▁aust	-9.71328
mot	-9.7133
▁symbol	-9.71362
▁kategori	-9.71364
▁opprinnelse	-9.71364
▁lengre	-9.71366
▁1945	-9.7138
▁omfattende	-9.71382
▁ph	-9.71389
gata	-9.71407
motor	-9.71514
▁passer	-9.71552
▁song	-9.71601
▁lenger	-9.7162
▁kroner	-9.71646
gt	-9.71657
▁nådd	-9.7166
▁landsbyen	-9.71664
cl	-9.71689
▁q	-9.71718
▁sykdom	-9.71724
hov	-9.7185
ato	-9.71853
pass	-9.71959
▁påvirke	-9.71988
▁leir	-9.72004
▁vinner	-9.7205
saker	-9.72057
ney	-9.72262
møte	-9.72268
▁område	-9.72269
bach	-9.72278
▁selvstendig	-9.7229
▁fredrik	-9.72295
▁brasil	-9.72298
▁1977	-9.72305
▁charles	-9.72312
▁1900	-9.72342
ordenen	-9.72437
nom	-9.72453
▁star	-9.72508
▁organisasjonen	-9.7255
▁undersøkelse	-9.72685
atur	-9.72837
▁kalle	-9.72948
▁hode	-9.7304
▁forskning	-9.73041
zy	-9.73081
▁sju	-9.73084
mid	-9.73112
▁jule	-9.73128
91	-9.73183
▁dekk	-9.73209
hastighet	-9.73228
▁oppdaget	-9.7323
▁antenne	-9.73236
▁pin	-9.73251
eiendom	-9.73256
▁lansert	-9.73257
▁tverr	-9.73368
▁festning	-9.73403
▁modell	-9.73431
grupper	-9.73438
hen	-9.73509
▁koloni	-9.7352
of	-9.73523
klubben	-9.73547
▁typer	-9.73554
▁avslutte	-9.73629
71	-9.73629
▁nasjonale	-9.73654
▁nar	-9.73666
73	-9.73752
ville	-9.73756
▁sider	-9.73813
▁internasjonal	-9.73876
▁hovedstad	-9.73903
▁betegnelsen	-9.73909
mod	-9.73934
▁kam	-9.73944
▁cup	-9.74006
stykke	-9.74041
▁beskytte	-9.74071
▁velge	-9.74086
▁vokal	-9.74102
▁ce	-9.74143
▁teksten	-9.74157
š	-9.74168
kapasitet	-9.74169
▁richard	-9.74169
▁harald	-9.74206
▁vitenskapelig	-9.7421
▁støttet	-9.74227
henger	-9.74254
lov	-9.74284
59	-9.74337
▁klubb	-9.74361
▁greske	-9.74365
▁oppdrag	-9.74375
gått	-9.74388
▁log	-9.74414
▁ban	-9.74438
løsning	-9.74483
▁regel	-9.74496
ón	-9.74506
delen	-9.74534
riket	-9.74549
▁test	-9.74592
▁lot	-9.74618
▁historien	-9.74637
▁ting	-9.74652
▁wei	-9.74668
▁sykehus	-9.74691
▁kryss	-9.74696
mmet	-9.74697
▁haug	-9.74729
▁folket	-9.74741
▁arne	-9.75015
lingen	-9.75058
▁hær	-9.75062
spon	-9.75081
▁benyttes	-9.75121
▁byprefekturet	-9.75121
▁eksempler	-9.75121
▁kontakt	-9.75127
vitenskap	-9.75131
▁areal	-9.75178
▁alltid	-9.75215
▁sønnen	-9.75291
▁gam	-9.75314
prisen	-9.75344
▁jakt	-9.75422
▁skifte	-9.75541
stasjonen	-9.75547
▁dog	-9.75644
fot	-9.75645
▁avisen	-9.75713
49	-9.75731
▁kontor	-9.75846
▁delvis	-9.75853
▁gor	-9.75862
levende	-9.75929
▁hage	-9.75954
▁und	-9.76
▁kilde	-9.76044
forfatter	-9.76076
▁profesjonell	-9.76082
▁bodde	-9.76104
▁bronse	-9.76114
maskin	-9.76137
▁lære	-9.76213
▁feil	-9.76267
▁retts	-9.76337
strand	-9.76357
▁led	-9.76359
▁arn	-9.76377
▁kanal	-9.76486
ette	-9.76581
▁korea	-9.76605
▁delta	-9.76621
cal	-9.76643
nos	-9.76683
▁stab	-9.7672
▁forsker	-9.76758
▁avis	-9.7679
▁offisielle	-9.76894
kes	-9.76949
▁tilgjengelig	-9.77053
▁trøndelag	-9.77053
▁brensel	-9.77056
▁øvre	-9.77061
kamera	-9.77072
▁1983	-9.77072
▁rh	-9.77107
▁snø	-9.77129
▁32	-9.7716
kere	-9.77191
win	-9.77258
bru	-9.77294
▁mini	-9.77353
65	-9.77387
illa	-9.77491
arbeider	-9.77516
▁lyse	-9.77624
fond	-9.77827
▁politikk	-9.77849
ikken	-9.7788
▁alder	-9.77917
▁holder	-9.77934
hem	-9.77957
▁bytte	-9.78002
▁religion	-9.78034
▁spania	-9.78035
▁tydelig	-9.78039
▁royal	-9.78039
▁1963	-9.78051
▁video	-9.78055
▁1930	-9.78062
virksomhet	-9.78083
▁personlig	-9.78208
▁magne	-9.78358
ræ	-9.78379
▁bio	-9.78413
▁huset	-9.78428
▁resten	-9.78447
▁tilby	-9.78471
▁prøve	-9.78477
▁egypt	-9.78535
lek	-9.78562
cell	-9.78613
▁bay	-9.78651
lapp	-9.78659
▁up	-9.78696
▁tettstedet	-9.78719
▁andreas	-9.78732
▁ungdoms	-9.78778
blad	-9.78794
plassen	-9.78804
dam	-9.78868
▁tha	-9.78907
con	-9.78942
▁metall	-9.7901
▁københavn	-9.79024
▁bokstav	-9.79025
▁1948	-9.79043
▁1940	-9.79053
▁bakgrunn	-9.79069
gard	-9.79082
rygg	-9.79092
bånd	-9.79108
▁ali	-9.79136
▁che	-9.7915
▁masse	-9.79162
forskjell	-9.79174
▁behandle	-9.79299
▁yu	-9.79365
herre	-9.79427
▁teknisk	-9.79465
▁idretts	-9.79494
jan	-9.7961
▁rang	-9.79751
mond	-9.79752
70	-9.79793
▁utvidet	-9.79814
kat	-9.7982
jente	-9.79887
ico	-9.79965
▁lars	-9.79969
▁univers	-9.80004
ön	-9.80019
ρ	-9.80024
▁wilhelm	-9.80024
▁bryst	-9.80028
▁lufthavn	-9.80037
▁1956	-9.80041
bedrift	-9.80054
▁jordbruk	-9.80091
▁award	-9.80092
nummer	-9.80216
park	-9.80242
hjem	-9.80265
▁vinge	-9.80278
▁driver	-9.80337
▁fremst	-9.80665
16	-9.80721
▁sort	-9.80738
▁malt	-9.80756
▁gjeste	-9.80838
▁kull	-9.80954
▁faren	-9.8101
▁que	-9.81026
▁original	-9.8103
▁arrangere	-9.81034
▁kunnskap	-9.81035
▁johann	-9.81044
▁stille	-9.81046
▁base	-9.81057
▁poeng	-9.81065
▁omtalt	-9.81068
▁programmet	-9.81079
▁formel	-9.81131
▁kil	-9.81203
▁brev	-9.81227
▁jarl	-9.8126
▁handling	-9.81275
lid	-9.81333
▁front	-9.81347
▁artene	-9.81487
▁fordelt	-9.81522
▁havet	-9.81562
ado	-9.81589
▁ung	-9.81603
▁krets	-9.8163
▁fal	-9.81642
virke	-9.81647
plasser	-9.81686
▁hill	-9.81716
▁gil	-9.81736
▁gutt	-9.81891
▁kamper	-9.81901
▁kjempe	-9.81916
▁styrker	-9.82005
▁betegne	-9.82036
▁sistnevnte	-9.82054
▁nevnt	-9.82054
▁united	-9.82057
▁gjelder	-9.82079
▁rør	-9.82092
▁marie	-9.82126
▁gjenopp	-9.8216
regionen	-9.8219
periode	-9.82224
21	-9.8225
▁sesong	-9.82252
▁mikro	-9.82256
▁nes	-9.82258
▁buss	-9.82264
ledning	-9.8228
▁befolkning	-9.82283
▁stoppe	-9.82294
▁rad	-9.82309
lv	-9.82339
dorf	-9.82347
komst	-9.82364
▁syr	-9.82372
▁tegnet	-9.8238
gger	-9.82383
▁trafikk	-9.8239
▁gla	-9.82433
▁formål	-9.82506
▁1800	-9.82526
kler	-9.82536
føl	-9.82581
▁hunnen	-9.82644
tag	-9.82656
▁innsjøen	-9.82666
▁blomster	-9.82777
▁nam	-9.82837
▁ark	-9.82844
▁manus	-9.8286
øk	-9.82869
▁bevegelse	-9.82877
bank	-9.82906
▁dynastiet	-9.82953
▁amerika	-9.82965
▁frukt	-9.82971
▁dun	-9.8308
qua	-9.83082
ł	-9.83085
▁records	-9.83085
magasin	-9.83086
▁hustru	-9.83087
institusjon	-9.83088
▁administrativ	-9.83089
▁2017	-9.83112
▁are	-9.83128
▁administrasjons	-9.83129
▁sun	-9.83171
▁hører	-9.83174
▁kvar	-9.83214
▁katolske	-9.83259
skapet	-9.83324
▁opphav	-9.83334
▁union	-9.83387
kjempe	-9.83409
cht	-9.83442
▁solo	-9.83495
▁ønske	-9.83529
▁byer	-9.83546
butikk	-9.83549
▁tapte	-9.83576
▁uke	-9.83687
▁will	-9.83703
øst	-9.83706
▁ran	-9.83727
▁jevn	-9.83772
▁former	-9.83792
legger	-9.83837
▁brenn	-9.83843
utstilling	-9.83845
▁300	-9.83885
▁poly	-9.83889
▁regissert	-9.84127
▁primær	-9.84127
▁nærmere	-9.84134
▁1946	-9.84147
▁1966	-9.84149
▁fotballspiller	-9.84161
▁mytologi	-9.84175
▁vær	-9.84198
▁hjelpe	-9.84205
▁livet	-9.84226
strek	-9.84236
▁ytre	-9.84315
▁por	-9.84382
trær	-9.84419
▁qui	-9.84426
▁voksne	-9.84444
ona	-9.84605
▁sørlige	-9.84637
▁human	-9.84671
▁provins	-9.84678
bol	-9.84711
hev	-9.84735
▁tonn	-9.84755
▁qua	-9.84778
▁finalen	-9.84786
▁leg	-9.84795
▁odd	-9.84831
feltet	-9.84941
▁stol	-9.84973
dommen	-9.85032
▁kjerne	-9.85133
▁fremste	-9.85162
▁vestlig	-9.85167
▁1952	-9.8518
▁frederik	-9.85187
▁canada	-9.85189
▁spilles	-9.8529
▁lignende	-9.85335
prosess	-9.85366
▁sterk	-9.8542
▁åpne	-9.85431
▁organisert	-9.85503
chester	-9.85547
kysten	-9.8561
nch	-9.85665
ping	-9.85719
▁tross	-9.85737
41	-9.8581
▁bass	-9.85836
▁materiale	-9.8585
skipet	-9.8588
▁run	-9.85922
gul	-9.85932
24	-9.86019
18	-9.86026
▁fyrst	-9.86096
▁omtale	-9.86206
▁elektro	-9.86236
▁jazz	-9.86244
▁fjellet	-9.86366
▁forretnings	-9.86401
▁sim	-9.86472
▁bidrag	-9.8666
type	-9.86715
▁trolig	-9.86716
▁stasjonen	-9.8686
▁preget	-9.86873
▁hopp	-9.86887
▁røde	-9.8693
▁tan	-9.86966
▁skape	-9.86981
▁troll	-9.8699
▁mol	-9.87011
▁områdene	-9.87172
gate	-9.87239
ity	-9.87292
▁innflytelse	-9.87319
▁fortelling	-9.87323
▁berømt	-9.87324
▁1949	-9.87335
▁variant	-9.87424
▁journalist	-9.87496
▁high	-9.87497
▁ankom	-9.87511
▁jø	-9.87518
ella	-9.87598
▁vanlige	-9.87635
aya	-9.87635
17	-9.8772
pha	-9.87748
▁spar	-9.87817
▁atom	-9.87875
▁bla	-9.87909
ough	-9.87947
▁historiker	-9.8799
hard	-9.88015
stedet	-9.88016
▁prins	-9.88129
▁problem	-9.88131
▁ramme	-9.88138
▁sjef	-9.88167
▁formann	-9.88268
▁offentlige	-9.88271
års	-9.88281
▁livs	-9.88291
▁inspirert	-9.88406
▁middelsstor	-9.88406
▁school	-9.88406
▁nevnes	-9.8841
▁flertall	-9.88413
▁minutt	-9.88428
▁ordfører	-9.88434
▁lev	-9.88449
▁normalt	-9.88453
▁flyplass	-9.88496
▁wil	-9.885
98	-9.88518
▁vet	-9.88523
▁populære	-9.88644
▁fremme	-9.8866
▁kvinnelig	-9.88665
prosjekt	-9.88672
foss	-9.88772
▁tettsted	-9.88796
kjær	-9.88929
▁nr	-9.8896
slå	-9.89053
▁vannet	-9.89163
vakt	-9.89199
▁maler	-9.89202
▁turist	-9.89214
gler	-9.89226
strid	-9.89285
osa	-9.8933
mmy	-9.89334
tallet	-9.89338
11	-9.89359
▁produksjons	-9.89383
inen	-9.89409
bon	-9.89417
в	-9.89484
▁kart	-9.89493
▁tilknytte	-9.89504
▁sikre	-9.8954
▁bærer	-9.89579
▁music	-9.89602
▁blei	-9.89603
▁opprinnelige	-9.89614
gjøre	-9.89643
▁posisjon	-9.89648
▁regjerings	-9.89668
wan	-9.89897
▁glass	-9.90015
korps	-9.90019
▁timer	-9.9004
fjellene	-9.90131
▁overfor	-9.90147
▁akt	-9.9018
▁ønsket	-9.90181
▁nav	-9.90195
▁tj	-9.90202
▁kjøp	-9.90205
▁sports	-9.90213
▁tradisjonell	-9.90262
▁nederland	-9.9034
▁snakke	-9.9036
▁gard	-9.90376
syre	-9.90401
edderkopp	-9.9043
▁oversatt	-9.9049
▁vitenskap	-9.90556
▁ytterligere	-9.90616
▁gustav	-9.90616
▁lengst	-9.90627
▁fungere	-9.90636
▁dato	-9.90642
serien	-9.90651
▁cho	-9.90761
mur	-9.90776
▁kalk	-9.90781
▁henry	-9.90876
▁santa	-9.90884
politikk	-9.90971
skij	-9.91098
▁bonde	-9.91123
▁camp	-9.91141
klo	-9.91252
▁king	-9.91313
▁sier	-9.91329
▁stå	-9.91368
▁innsjø	-9.91371
▁struktur	-9.91575
▁tog	-9.91611
▁kommuner	-9.91616
shi	-9.91617
▁anta	-9.9166
ū	-9.91733
λ	-9.91739
▁edward	-9.91748
▁forteller	-9.9175
▁1965	-9.91756
▁1959	-9.91757
▁1958	-9.91759
▁1944	-9.9176
7	-9.91798
▁bølge	-9.91847
▁overflate	-9.91865
▁ekstra	-9.91912
jord	-9.91936
▁zu	-9.91961
▁albert	-9.91977
▁jack	-9.92018
row	-9.92096
▁yng	-9.92113
ctor	-9.92117
▁rund	-9.92127
post	-9.92146
▁europeiske	-9.92167
▁utføre	-9.92173
bour	-9.92193
ith	-9.923
22	-9.92312
ledd	-9.92313
▁kjønn	-9.92325
bevegelsen	-9.92331
istene	-9.92342
▁endt	-9.92348
25	-9.92372
▁fisk	-9.92424
lut	-9.92524
ios	-9.92699
▁jorden	-9.92725
▁bånd	-9.9278
▁bibliotek	-9.92799
vold	-9.92842
sekretær	-9.92862
▁teknologi	-9.92866
▁elektrisk	-9.92875
▁fullstendig	-9.92875
▁1939	-9.92895
▁daniel	-9.92914
▁bekrefte	-9.92916
▁blue	-9.92916
bud	-9.92931
▁avhengig	-9.92968
▁horn	-9.92972
▁gjennomført	-9.92973
▁lar	-9.92978
▁streng	-9.93
▁tilhøre	-9.93025
▁innført	-9.93073
▁gold	-9.93142
▁polen	-9.93167
▁israel	-9.9323
▁kli	-9.93232
produsent	-9.93246
kultur	-9.93268
▁forbundet	-9.93295
fat	-9.93392
35	-9.93428
▁forsøkte	-9.93456
▁single	-9.93503
kirken	-9.93547
▁may	-9.93574
▁bord	-9.93598
parken	-9.93655
▁kap	-9.93668
ernes	-9.93754
følge	-9.93781
svik	-9.93789
▁pala	-9.93966
▁runde	-9.93984
▁nordisk	-9.94005
ο	-9.94021
▁ungdom	-9.94024
▁australia	-9.94025
▁friedrich	-9.94025
▁offisielt	-9.94025
▁passasjer	-9.94025
▁sovjetunionen	-9.94025
▁xiàn	-9.94025
▁ekteskap	-9.94035
▁henholdsvis	-9.94048
plante	-9.94086
▁utviklingen	-9.94115
▁plat	-9.94123
▁ube	-9.9413
▁dor	-9.94167
▁motiv	-9.94177
▁linjen	-9.94313
hode	-9.94469
64	-9.9447
▁nedre	-9.94477
▁filosofi	-9.94563
komedie	-9.94597
gjør	-9.94658
ulf	-9.94709
tolk	-9.94777
▁akse	-9.94818
person	-9.94902
▁fan	-9.95003
rov	-9.95006
▁45	-9.95034
▁trener	-9.95034
parten	-9.95036
▁slå	-9.95112
▁fylket	-9.95121
▁rollen	-9.95169
debut	-9.95179
▁publikum	-9.95188
▁moskva	-9.95188
▁his	-9.95211
▁oblast	-9.95213
hand	-9.95265
bakk	-9.95277
▁kg	-9.95342
▁gitarist	-9.95347
▁reaksjon	-9.95367
krig	-9.9537
▁hou	-9.95406
▁skriver	-9.95477
▁begynner	-9.95532
▁indisk	-9.95577
sang	-9.9564
▁dialekt	-9.95685
sammen	-9.95733
▁kjell	-9.95758
▁oppsto	-9.95787
▁femte	-9.95833
▁hom	-9.95849
▁tittel	-9.95872
legge	-9.95875
handler	-9.96046
mber	-9.96211
myndighet	-9.96324
▁sunn	-9.96339
▁landsby	-9.96341
τ	-9.96364
belteasteroide	-9.96364
▁installert	-9.96364
▁vulkan	-9.96364
▁normal	-9.96389
▁dvs	-9.96435
▁liga	-9.96452
▁rosen	-9.96459
▁bibel	-9.96504
▁hvorav	-9.96626
▁regnet	-9.96636
aria	-9.96661
havn	-9.9683
▁spørsmål	-9.96889
▁regional	-9.96924
▁din	-9.96949
▁konkurranse	-9.96983
▁dobbelt	-9.9702
▁rute	-9.97039
holdsvis	-9.9704
▁bydel	-9.97062
vinger	-9.97201
▁athen	-9.97228
øl	-9.97236
▁orkester	-9.9724
▁ves	-9.97284
▁sovjetisk	-9.97305
dømt	-9.97343
dikt	-9.97441
▁sende	-9.97526
▁innbyggertall	-9.97555
▁service	-9.97555
▁kaptein	-9.97555
▁redusert	-9.97556
stråling	-9.97558
▁nedenfor	-9.97563
▁luther	-9.97566
▁1947	-9.97575
▁1912	-9.97575
▁1957	-9.97578
▁medisin	-9.97616
▁eksistere	-9.97693
▁skå	-9.97697
▁flu	-9.97745
▁iran	-9.9784
▁måneder	-9.97859
▁storm	-9.9787
kanten	-9.97881
▁zi	-9.97912
▁barb	-9.97937
▁bunn	-9.97997
▁kode	-9.98
plikt	-9.98022
skudd	-9.98045
avtale	-9.98127
iger	-9.98142
13	-9.98254
▁tidlige	-9.9828
medlem	-9.98282
samisk	-9.98295
dus	-9.98373
bul	-9.98391
▁skj	-9.98392
▁studier	-9.98557
▁thi	-9.98566
▁stoff	-9.98615
▁toppen	-9.98619
▁green	-9.98631
▁stål	-9.98651
89	-9.98727
▁senter	-9.98754
▁individ	-9.98759
konstruksjon	-9.98759
▁vunnet	-9.98759
▁regissør	-9.98759
▁kjærlighet	-9.9876
▁kritikk	-9.98761
▁cri	-9.98785
▁stykke	-9.988
kompani	-9.98824
▁dokumenter	-9.9883
▁nedlagt	-9.98836
oma	-9.989
27	-9.98922
wald	-9.98941
byrå	-9.98943
▁kongelige	-9.98981
ical	-9.99089
▁trak	-9.99231
96	-9.99247
konkurranse	-9.99266
▁finn	-9.99269
▁hæren	-9.9928
▁festival	-9.99309
▁vill	-9.9934
▁gy	-9.99369
pho	-9.99449
▁kok	-9.99473
dekke	-9.99533
▁stift	-9.99534
▁hind	-9.99542
▁fn	-9.99578
forhold	-9.99598
▁falt	-9.99745
▁poet	-9.99775
låt	-9.99835
▁offiser	-9.99852
▁jag	-9.99856
ici	-9.99885
mming	-9.99938
▁etterfulgt	-9.99979
▁utgangspunkt	-9.99979
▁digital	-9.99979
▁debuterte	-9.9998
▁motsetning	-9.9998
▁episode	-9.9998
▁skjedde	-9.99982
▁utover	-9.99987
▁south	-9.99992
▁hotell	-9.99994
▁studio	-9.99995
▁meta	-10.0004
▁voks	-10.0006
▁dj	-10.0008
▁diplomat	-10.0009
▁henhold	-10.0011
▁sja	-10.0016
▁møter	-10.0019
▁cro	-10.0027
▁romanen	-10.0027
mennene	-10.0027
fylt	-10.0032
ary	-10.0041
studi	-10.0042
▁lavere	-10.0049
▁il	-10.0061
▁cre	-10.0063
▁gall	-10.0073
▁ost	-10.0078
øve	-10.0082
festivalen	-10.0082
▁epi	-10.0084
jon	-10.0085
former	-10.0086
▁sikkerhets	-10.0091
▁inntekt	-10.0092
▁tw	-10.0095
deler	-10.0103
▁anim	-10.0114
▁cam	-10.0115
▁vert	-10.0116
stille	-10.0118
г	-10.0121
▁1953	-10.0121
▁artikkel	-10.0121
▁fengsel	-10.0121
▁deriblant	-10.0122
▁forstå	-10.0125
▁sjelden	-10.0125
din	-10.0126
▁straffe	-10.0128
▁phil	-10.0131
▁kommunene	-10.0134
▁arkitektur	-10.0137
pur	-10.0142
▁tolv	-10.0146
▁inge	-10.0159
38	-10.0159
▁menighet	-10.0165
linje	-10.0166
kasse	-10.0172
▁verket	-10.0174
▁markert	-10.0175
utvikling	-10.0175
forbindelse	-10.0179
car	-10.0181
stripe	-10.0182
døgn	-10.0186
▁våren	-10.0187
filosof	-10.0188
▁hammer	-10.0195
▁sum	-10.0195
▁bakkroppen	-10.0196
basert	-10.0202
▁pet	-10.0212
mba	-10.0212
delt	-10.0215
awa	-10.0215
▁mary	-10.0218
▁sendt	-10.0219
▁øyene	-10.0221
14	-10.0235
▁selge	-10.0235
bak	-10.0236
▁sete	-10.0237
can	-10.0241
23	-10.0243
м	-10.0246
д	-10.0246
ε	-10.0246
▁1928	-10.0246
▁betrakte	-10.0246
▁erkebiskop	-10.0246
▁beijing	-10.0246
▁alvorlig	-10.0246
▁operatør	-10.0247
▁magnus	-10.0247
▁1918	-10.0248
▁1943	-10.0249
▁kjøpe	-10.0249
▁saint	-10.025
▁konkurransen	-10.0254
▁mangler	-10.0256
▁hals	-10.0259
svarer	-10.0263
▁hon	-10.0265
trådte	-10.0266
▁deltaker	-10.0266
later	-10.027
▁grov	-10.0294
artikler	-10.03
▁bredt	-10.0303
feld	-10.0304
trinn	-10.0312
▁polsk	-10.0315
▁amt	-10.0318
▁bob	-10.0332
▁endre	-10.0335
dro	-10.0337
mesterskapet	-10.034
zh	-10.0341
kjønn	-10.0343
▁solgt	-10.0351
▁valget	-10.0351
▁sette	-10.036
handel	-10.0364
▁fru	-10.0364
▁kristian	-10.0367
▁nødvendig	-10.0373
▁østerriksk	-10.0373
▁øvrig	-10.0373
▁insekt	-10.0374
▁finnmark	-10.0374
▁club	-10.0374
▁hevdet	-10.0374
▁snart	-10.0375
▁1942	-10.0376
▁kommunist	-10.0378
strøk	-10.038
▁skatte	-10.038
▁kommun	-10.0385
▁ledende	-10.0386
firma	-10.0389
▁produsere	-10.039
▁wu	-10.0392
▁yngre	-10.0396
tek	-10.04
én	-10.0404
▁sendte	-10.0405
▁stabil	-10.0407
vinner	-10.0412
▁dør	-10.0416
somme	-10.0419
▁simon	-10.0421
▁private	-10.0422
▁helge	-10.0428
sanger	-10.0437
produkt	-10.0438
▁frø	-10.0439
▁rose	-10.0439
▁irland	-10.044
▁systemet	-10.0442
▁omfattet	-10.0445
▁mono	-10.0447
▁iso	-10.0459
▁ov	-10.0465
▁gyl	-10.0469
▁måned	-10.047
▁harry	-10.0486
88	-10.0491
▁forekommer	-10.0501
▁county	-10.0501
▁multi	-10.0502
kapital	-10.0502
▁oscar	-10.0503
▁1919	-10.0503
▁islam	-10.0503
▁1936	-10.0504
▁detalj	-10.0507
▁app	-10.0507
ima	-10.0509
▁sammenligne	-10.0513
▁esp	-10.0517
▁33	-10.0519
▁bilder	-10.0525
▁hannen	-10.0528
▁ger	-10.053
▁with	-10.0534
▁endelig	-10.0553
▁cra	-10.0557
▁trond	-10.0558
bygningen	-10.0559
▁beskrevet	-10.0561
▁utstyr	-10.0564
▁problemer	-10.0566
figur	-10.0566
▁é	-10.0567
formen	-10.0567
▁språket	-10.0574
32	-10.0575
▁char	-10.0577
▁jobbet	-10.058
▁slott	-10.0581
forestilling	-10.0585
lyn	-10.0589
svømme	-10.0591
▁bidra	-10.0594
▁celle	-10.0595
▁otto	-10.0601
▁aur	-10.0602
▁kari	-10.0603
fil	-10.0629
▁1961	-10.0631
▁league	-10.0631
▁drammen	-10.0631
ax	-10.0632
▁unntak	-10.0633
▁tørr	-10.0636
områdene	-10.0646
kran	-10.0649
▁ein	-10.065
▁levert	-10.0651
una	-10.0652
▁gram	-10.0654
kanalen	-10.0654
ologiske	-10.066
▁fc	-10.0661
▁plasser	-10.0662
gjort	-10.0676
▁kald	-10.0685
▁sara	-10.0687
▁kristne	-10.0699
stemt	-10.0709
▁och	-10.072
▁stig	-10.0721
▁revolusjon	-10.0723
▁sluttet	-10.0725
▁østlig	-10.0728
▁tau	-10.0732
formede	-10.0741
▁anlegg	-10.0742
▁kraftige	-10.0743
▁filmer	-10.0743
gjeld	-10.075
cul	-10.0753
▁rand	-10.0756
oid	-10.076
▁flor	-10.076
bredde	-10.0761
▁objekt	-10.0763
frekvens	-10.0763
▁150	-10.0763
▁oversikt	-10.0763
▁innsats	-10.0763
▁konstant	-10.0763
▁scott	-10.0763
▁ukjent	-10.0763
▁1955	-10.0765
▁bygninger	-10.0769
▁maleri	-10.0772
▁lam	-10.0772
kritiker	-10.0793
▁furu	-10.0795
▁nasjonalpark	-10.0796
▁status	-10.0808
▁sna	-10.0811
▁tromsø	-10.0828
▁soldater	-10.0836
hjul	-10.0837
▁skudd	-10.0852
speil	-10.0862
▁sveits	-10.0865
▁slett	-10.0868
▁1000	-10.0874
▁kreft	-10.0875
▁gau	-10.0886
▁studenter	-10.0886
▁company	-10.0896
▁golf	-10.0896
▁1923	-10.0898
▁1941	-10.0898
▁reiste	-10.09
▁philip	-10.09
▁brygge	-10.0901
▁marg	-10.0902
▁college	-10.0904
▁aksje	-10.0918
arbeidet	-10.0918
▁bell	-10.0923
▁600	-10.0933
▁billed	-10.0935
▁arrangement	-10.0937
▁hum	-10.0938
ømme	-10.0952
▁maur	-10.0962
▁fløy	-10.0964
▁saken	-10.0973
elv	-10.0981
maler	-10.0985
▁undervisning	-10.0987
ín	-10.0989
▁00	-10.099
uch	-10.0997
egnet	-10.1003
▁klassen	-10.1008
▁planter	-10.101
▁160	-10.1011
▁medisinsk	-10.1012
versjon	-10.1013
▁republikken	-10.102
▁gli	-10.1023
▁california	-10.1031
▁vingespenn	-10.1031
▁1954	-10.1031
▁skottland	-10.1031
kompleks	-10.1031
▁referere	-10.1031
▁fattig	-10.1032
ström	-10.1032
▁stadion	-10.1032
▁jødisk	-10.1032
▁utnytte	-10.1032
▁1924	-10.1033
▁grøn	-10.1034
▁sten	-10.1035
▁east	-10.1038
bukta	-10.1045
▁medlemmene	-10.1051
linjer	-10.1057
▁likhet	-10.1057
▁handler	-10.1058
øyd	-10.108
▁disk	-10.1086
▁lager	-10.1087
▁skar	-10.1091
plate	-10.1095
▁politiet	-10.1095
▁neu	-10.1097
▁sikker	-10.1098
▁samarbeidet	-10.11
▁spise	-10.1106
▁korn	-10.1107
▁tradisjonelle	-10.111
miljø	-10.1113
▁damp	-10.1114
▁pap	-10.1119
mula	-10.1124
▁bispedømme	-10.1124
▁tann	-10.1127
▁gruve	-10.1133
▁strid	-10.1134
mont	-10.1139
▁bestemme	-10.114
▁long	-10.1141
▁teknikk	-10.1145
▁forsvaret	-10.1149
flate	-10.115
▁produserer	-10.115
spir	-10.115
▁fed	-10.1153
staten	-10.1161
ß	-10.1167
▁anerkjent	-10.1168
▁videregående	-10.1172
com	-10.1174
▁salg	-10.1179
punktet	-10.1195
▁institutt	-10.1196
▁emil	-10.1197
▁lønn	-10.1202
▁comp	-10.1221
fjellet	-10.1231
▁nordland	-10.1231
▁utga	-10.1233
▁fritt	-10.1234
▁ec	-10.1235
bury	-10.1237
33	-10.1238
▁nettverk	-10.1241
▁tunnel	-10.1241
▁kommunikasjon	-10.1243
▁gun	-10.1255
▁vingene	-10.1257
skifte	-10.126
grep	-10.1265
vogn	-10.1269
▁enkle	-10.1273
▁moren	-10.1282
▁kim	-10.1288
▁hovedsak	-10.1292
▁matt	-10.1292
▁utstyrt	-10.1293
▁stam	-10.1294
▁fødsel	-10.1307
▁positiv	-10.1307
▁fordel	-10.1307
▁østerrike	-10.1307
▁1932	-10.1309
domstol	-10.131
▁geo	-10.1311
▁veldig	-10.1315
▁redd	-10.1315
▁alpin	-10.1316
▁hersker	-10.1318
▁sær	-10.1328
▁rask	-10.133
▁effektiv	-10.133
▁tour	-10.1331
▁1500	-10.1333
stitu	-10.1338
▁solgte	-10.1338
▁morgen	-10.134
▁kommunal	-10.1343
lip	-10.135
▁vokser	-10.1351
▁ansvarlig	-10.1353
scen	-10.1356
ual	-10.1365
▁fett	-10.1369
▁varierer	-10.137
▁dalen	-10.1371
▁skall	-10.1372
▁hil	-10.1374
masse	-10.1376
klassen	-10.1382
bakken	-10.1392
▁lee	-10.1395
▁advokat	-10.1396
▁tam	-10.1397
▁spring	-10.14
▁drag	-10.1403
▁ytter	-10.1405
modell	-10.1407
▁adam	-10.1416
▁larsen	-10.1416
▁kel	-10.1426
hild	-10.1427
fartøy	-10.1428
fyll	-10.1428
▁sving	-10.143
dokument	-10.144
▁65	-10.1445
▁olsen	-10.1447
▁guvernør	-10.1448
▁generelt	-10.1448
▁dollar	-10.1448
▁hurtig	-10.1448
▁premier	-10.1449
▁power	-10.145
▁skøyte	-10.145
fyr	-10.1454
▁malm	-10.1454
jö	-10.1455
▁landskapet	-10.1456
kjør	-10.1459
▁75	-10.1464
▁radi	-10.1475
sykl	-10.1479
▁peder	-10.1484
bygget	-10.1486
▁eide	-10.1493
rommet	-10.1495
able	-10.1501
▁mart	-10.1507
▁final	-10.1511
cca	-10.1513
▁viking	-10.1514
▁river	-10.1518
▁hjul	-10.1519
▁sideelv	-10.1519
▁lyst	-10.152
▁fotograf	-10.1522
▁vä	-10.1522
▁funn	-10.1523
▁blanding	-10.1532
forbundet	-10.154
▁oc	-10.1541
finalen	-10.1545
europe	-10.1548
kilde	-10.1554
▁kropps	-10.1555
dem	-10.1557
▁verker	-10.1562
▁kjøl	-10.1566
administrasjon	-10.1568
▁konflikt	-10.1591
▁konservativ	-10.1591
▁krevde	-10.1591
▁jakob	-10.1591
▁bosetning	-10.1591
▁fysisk	-10.1591
▁1938	-10.1592
▁1917	-10.1593
▁fullført	-10.1593
▁befinne	-10.1593
▁ansatte	-10.1602
▁føde	-10.1607
▁flåte	-10.1607
ulykke	-10.161
▁liberal	-10.1615
▁ansatt	-10.162
lyst	-10.1625
▁rob	-10.1629
norsk	-10.1631
oftest	-10.1631
▁hovedrollene	-10.1633
▁skjær	-10.1634
foreningen	-10.1643
▁skilt	-10.1643
distanse	-10.1646
▁hardt	-10.1646
▁master	-10.1657
ordning	-10.1659
▁tusen	-10.166
▁steve	-10.1662
▁institut	-10.1666
ledet	-10.1668
▁kapp	-10.1669
▁formen	-10.1672
▁midten	-10.1681
▁out	-10.1681
distrikt	-10.1684
trafikk	-10.1689
museum	-10.1689
▁avstand	-10.169
▁tekster	-10.1691
kommende	-10.1695
bøker	-10.17
▁blokk	-10.1705
skilt	-10.1708
tjenesten	-10.1709
▁preg	-10.1724
▁1908	-10.1736
▁introdusert	-10.1736
▁nowiki	-10.1736
▁situasjon	-10.1736
▁alexander	-10.1736
▁edvard	-10.1736
▁alkohol	-10.1736
▁nedbør	-10.1736
▁innspilling	-10.1736
▁angel	-10.1739
▁romsdal	-10.174
kommisjon	-10.1744
▁portrett	-10.1745
▁lyn	-10.1748
▁vokalist	-10.175
rente	-10.1752
▁representert	-10.1753
▁hellas	-10.1754
partner	-10.1757
▁agder	-10.1763
dannelse	-10.1763
ān	-10.1766
▁riket	-10.1769
▁rod	-10.1772
▁sørover	-10.1774
▁museet	-10.1776
vre	-10.1778
tank	-10.1802
vatn	-10.1808
▁vist	-10.1813
tekst	-10.1814
▁foreningen	-10.1827
▁alv	-10.1827
▁vor	-10.1836
▁38	-10.1847
gin	-10.1873
ç	-10.1883
▁mexico	-10.1883
▁umiddelbar	-10.1883
▁kontinent	-10.1883
▁benytter	-10.1883
▁cirka	-10.1883
▁bakvingen	-10.1883
▁etterfølger	-10.1883
▁josé	-10.1884
▁1933	-10.1884
▁kjemisk	-10.1885
▁1962	-10.1886
▁internett	-10.1887
typen	-10.1887
▁papir	-10.1888
0	-10.1888
▁120	-10.1891
ruten	-10.1893
▁pensjon	-10.1894
▁kai	-10.1903
▁underlagt	-10.1916
▁modellen	-10.1919
▁irsk	-10.1922
spinner	-10.193
slutt	-10.1934
▁signal	-10.1935
▁hov	-10.1943
31	-10.1945
▁tilstand	-10.1946
serie	-10.1946
▁bakke	-10.1951
▁hval	-10.1962
▁uker	-10.1966
▁prof	-10.197
▁sca	-10.1977
▁penge	-10.1977
livet	-10.1977
▁søke	-10.1981
▁virkelig	-10.1991
strømmen	-10.1996
▁brem	-10.1998
▁web	-10.2
▁eva	-10.2008
tain	-10.2008
▁frihet	-10.201
▁brent	-10.2011
▁spillet	-10.2012
▁utvikler	-10.2017
▁utvikle	-10.2024
▁bakken	-10.2026
▁windows	-10.2032
▁fjær	-10.2032
▁redusere	-10.2033
▁stortinget	-10.2033
▁naturgass	-10.2033
▁håndball	-10.2034
▁län	-10.2038
▁michel	-10.2038
▁utvalg	-10.2039
▁franz	-10.2043
▁spenning	-10.2046
▁forvingen	-10.2046
familie	-10.2046
29	-10.2049
▁latinske	-10.2049
▁team	-10.206
pin	-10.2067
head	-10.2074
▁petter	-10.2077
▁ray	-10.2102
▁tron	-10.2105
vang	-10.2105
▁trø	-10.2113
▁kontrakt	-10.2114
▁kha	-10.2142
bunn	-10.2151
▁nm	-10.2153
▁penger	-10.2156
▁1934	-10.2183
▁konkurrere	-10.2183
▁geografisk	-10.2183
▁rogaland	-10.2183
▁frykt	-10.2184
▁global	-10.2184
▁gunnar	-10.2184
konferanse	-10.2184
▁major	-10.2184
▁andré	-10.2184
▁terror	-10.2184
▁friidrett	-10.2187
▁street	-10.2189
▁uttalt	-10.2192
▁hentet	-10.2193
▁show	-10.2198
▁ansvar	-10.2202
▁levde	-10.2214
▁drikke	-10.2216
▁aas	-10.2217
▁persisk	-10.2225
▁moral	-10.2226
▁sankt	-10.223
gjen	-10.2236
▁plattform	-10.2246
▁dø	-10.225
▁rulle	-10.2257
▁stilt	-10.2262
sundet	-10.227
▁qa	-10.2273
▁dekket	-10.2281
▁kysten	-10.2287
▁verd	-10.2287
▁salme	-10.2292
problem	-10.2299
regning	-10.2317
▁sekund	-10.2319
▁vakt	-10.2334
avl	-10.2335
▁astronom	-10.2337
alitet	-10.2337
▁kristiansand	-10.2337
▁ekstrem	-10.2337
▁faktisk	-10.2338
▁utøver	-10.2338
▁1931	-10.2339
▁reserve	-10.2339
▁1937	-10.2341
▁planlagt	-10.2341
▁skaffe	-10.2341
phy	-10.2342
▁slank	-10.2343
▁bow	-10.2344
▁nærheten	-10.2346
▁villa	-10.2346
▁score	-10.2351
▁boy	-10.2353
kort	-10.2353
eksamen	-10.2353
▁asp	-10.2357
harmoni	-10.2363
▁white	-10.2364
▁munk	-10.2367
▁brede	-10.2373
▁mynt	-10.2373
▁bydelen	-10.2374
▁wolf	-10.2374
skade	-10.2375
▁alfa	-10.238
psykologi	-10.238
▁sport	-10.2382
oksid	-10.2382
▁prop	-10.2385
▁stri	-10.2392
▁hj	-10.24
▁forble	-10.2402
▁kvalitet	-10.2403
▁junior	-10.2407
tunnelen	-10.241
▁ull	-10.2412
▁erobret	-10.2414
stemme	-10.2414
▁ånd	-10.2425
▁besøkt	-10.2462
front	-10.2462
▁internasjonalt	-10.2462
museet	-10.2463
▁indian	-10.2467
▁bevege	-10.2469
kost	-10.2475
▁krysser	-10.2481
ς	-10.2493
▁ishockey	-10.2493
▁portugisisk	-10.2493
▁erklært	-10.2494
▁mongol	-10.2494
ск	-10.2495
▁spredt	-10.2497
▁hemmelig	-10.2497
aceae	-10.2497
▁skotsk	-10.2498
▁arkiv	-10.2503
▁vekk	-10.2512
▁unngå	-10.2518
vika	-10.2518
▁edderkoppen	-10.252
▁hul	-10.252
▁sikte	-10.2521
▁grunnlegge	-10.2523
▁utgi	-10.2525
▁myk	-10.253
▁snu	-10.2536
▁64	-10.2542
▁blande	-10.2545
allianse	-10.2547
hver	-10.255
▁innlede	-10.2553
▁fartøy	-10.2555
▁vogn	-10.2563
▁fantes	-10.2569
▁musikalsk	-10.2586
dron	-10.259
kjemi	-10.259
▁hydro	-10.2594
▁dukke	-10.2604
▁kandidat	-10.2607
strekker	-10.2613
historisk	-10.2619
▁pul	-10.2628
▁brødrene	-10.2652
▁washington	-10.2652
▁færøyene	-10.2652
▁initiativ	-10.2652
▁referanse	-10.2652
▁registrert	-10.2652
ος	-10.2653
▁forårsake	-10.2653
▁firmaet	-10.2654
▁karbon	-10.2655
▁erfaring	-10.2656
▁brown	-10.2658
▁div	-10.2658
▁hjerne	-10.2659
▁vegg	-10.2659
▁shan	-10.2663
▁feire	-10.2664
▁sverd	-10.2666
▁talent	-10.2668
▁vannkraftverk	-10.267
▁svar	-10.2671
▁angrepet	-10.2675
▁unn	-10.2691
▁whi	-10.2692
ordnet	-10.2696
botn	-10.27
▁dahl	-10.2705
makten	-10.2709
▁mei	-10.2721
▁gruppa	-10.273
hai	-10.2733
vannet	-10.2735
▁skylde	-10.2748
▁middelalder	-10.2754
▁handel	-10.2756
▁platen	-10.2779
funksjon	-10.2783
▁prosjektet	-10.2788
behandling	-10.2789
▁svalbard	-10.2814
▁praksis	-10.2814
▁kombinasjon	-10.2814
▁kombinert	-10.2814
▁tyrkisk	-10.2814
▁jørgen	-10.2814
▁negativ	-10.2814
▁nikola	-10.2814
▁dokumentar	-10.2814
▁angripe	-10.2814
▁frivillig	-10.2814
▁bærum	-10.2814
▁inngår	-10.2814
▁ødelagt	-10.2814
komiteen	-10.2814
▁1929	-10.2815
▁1927	-10.2816
▁litterær	-10.2816
▁soldat	-10.2816
▁bidro	-10.2818
▁medaljen	-10.2821
wick	-10.2824
▁mobil	-10.2833
dyktig	-10.2847
▁american	-10.2866
kall	-10.2869
▁middelalderen	-10.2873
▁skyte	-10.2893
hopp	-10.29
▁statlig	-10.2916
▁34	-10.2917
▁begrep	-10.2919
▁innhold	-10.2922
▁ferr	-10.2923
▁tempel	-10.2923
▁intern	-10.2925
▁cur	-10.2933
stjerne	-10.2957
▁sæ	-10.2964
▁bull	-10.2968
▁pakistan	-10.2977
▁himmel	-10.2977
orientert	-10.2978
▁alfred	-10.2978
▁geometri	-10.2978
▁riktig	-10.2978
▁dverg	-10.2979
brand	-10.2979
▁1914	-10.2979
▁stiftelsen	-10.298
▁jam	-10.2985
▁hitler	-10.2992
strup	-10.2995
▁metro	-10.3003
lønn	-10.3005
▁morten	-10.3007
▁server	-10.3011
▁kontra	-10.3011
cio	-10.3013
▁dommer	-10.3018
▁modern	-10.3024
▁estland	-10.3033
drakt	-10.3034
forsker	-10.3043
94	-10.3046
▁tidspunkt	-10.3057
▁øl	-10.3072
▁slottet	-10.3074
rup	-10.3081
time	-10.3081
▁az	-10.3093
▁hindre	-10.3098
▁bau	-10.3116
næring	-10.3116
▁tradisjonel	-10.3119
materiale	-10.3119
▁from	-10.313
hed	-10.3132
sikkerhet	-10.3133
idrett	-10.3137
forvaltning	-10.3137
gli	-10.3137
lignende	-10.314
▁mah	-10.3141
▁vietnam	-10.3144
eksperiment	-10.3144
▁skulptur	-10.3144
▁vesentlig	-10.3144
▁yrkes	-10.3144
▁nektet	-10.3145
fysikk	-10.3145
▁tegneserie	-10.3145
▁brøt	-10.3145
▁ridder	-10.3146
mønster	-10.3146
▁smith	-10.3146
følgende	-10.3149
▁kapell	-10.3153
▁lokalisert	-10.3154
angrep	-10.3155
▁anledning	-10.3156
▁armé	-10.3163
▁demningen	-10.3168
ittisk	-10.3169
▁hevde	-10.317
▁behov	-10.3171
▁bin	-10.3174
▁overført	-10.3177
▁landslag	-10.318
gudinne	-10.3184
26	-10.32
▁bou	-10.3208
▁utdannelse	-10.3209
▁beregne	-10.321
▁kommando	-10.3212
▁brand	-10.3226
▁tilbud	-10.3229
▁praktisk	-10.3233
▁qi	-10.3237
▁idrettslag	-10.3241
▁skatt	-10.3268
▁fargen	-10.3271
posisjon	-10.3288
økonomi	-10.3292
lé	-10.3293
forskning	-10.3293
▁steng	-10.3295
uka	-10.3298
▁grunnlegger	-10.3304
roman	-10.3306
на	-10.3308
▁euro	-10.3312
▁münchen	-10.3314
▁1951	-10.3314
▁elisabeth	-10.3314
▁gjennomsnitt	-10.3314
▁utbredt	-10.3314
▁kriminal	-10.3314
▁tømmer	-10.3314
▁innebære	-10.3315
▁generasjon	-10.3316
▁fremført	-10.3322
▁kara	-10.3328
▁høst	-10.3333
▁inndelt	-10.3335
næs	-10.3339
▁gradvis	-10.3345
▁isteden	-10.3345
▁muligens	-10.3346
▁synlig	-10.3347
▁rap	-10.3366
▁foto	-10.3369
▁knap	-10.3377
▁roger	-10.3382
kjennelse	-10.3383
flekk	-10.3384
▁synge	-10.3391
▁arkeologi	-10.3391
▁drap	-10.3395
▁torg	-10.3403
▁betegnelse	-10.3405
utgave	-10.3414
visning	-10.3415
blikk	-10.3419
gass	-10.3422
▁ingeniør	-10.3427
▁typen	-10.3432
▁ulik	-10.3439
▁forbud	-10.344
▁170	-10.3446
▁beina	-10.3446
▁fol	-10.3452
lista	-10.3456
ship	-10.3481
ligner	-10.3482
▁beseiret	-10.3486
▁eventyr	-10.3486
▁argument	-10.3486
▁ludvig	-10.3486
▁hebraisk	-10.3486
▁muslim	-10.3486
▁betjene	-10.3486
▁opplysning	-10.3486
▁klokken	-10.3487
▁definert	-10.3487
▁elektronisk	-10.3487
▁arendal	-10.3488
▁1926	-10.3488
▁1922	-10.3488
▁1935	-10.3488
▁beslutte	-10.3497
▁rapporter	-10.3498
▁kilder	-10.3507
▁lunge	-10.3512
▁skjell	-10.3518
▁1600	-10.3521
▁osv	-10.3526
▁tyskerne	-10.3533
▁book	-10.3534
▁cara	-10.357
▁irak	-10.3575
▁kval	-10.3575
▁vestre	-10.3578
▁hop	-10.358
▁troms	-10.3585
▁forbunds	-10.3589
▁sender	-10.3591
▁signert	-10.3596
▁skuespill	-10.3598
▁låten	-10.361
gram	-10.3613
▁800	-10.3615
løft	-10.3617
▁opphold	-10.362
▁sho	-10.3624
duk	-10.363
▁bosatt	-10.3633
bølge	-10.3648
stell	-10.3659
▁baron	-10.3661
▁paus	-10.3661
▁restaurant	-10.3661
▁shanghai	-10.3661
▁akershus	-10.3661
▁vestfold	-10.3661
▁nøyaktig	-10.3661
▁følelse	-10.3662
▁1925	-10.3664
▁opptrer	-10.3664
manuel	-10.367
▁forvaltnings	-10.3671
▁tin	-10.3671
halvøya	-10.3673
▁lykke	-10.368
relatert	-10.3682
▁angi	-10.3688
▁för	-10.3692
▁kopi	-10.3695
▁vanligste	-10.3702
politisk	-10.3717
stokk	-10.3722
▁ansvaret	-10.375
▁omkom	-10.3756
runde	-10.3763
øvelse	-10.378
▁samisk	-10.3795
▁herman	-10.3815
krutt	-10.3826
kil	-10.3826
hånd	-10.3829
▁intens	-10.383
▁øre	-10.3833
kompetanse	-10.384
▁godkjent	-10.384
▁monument	-10.384
strategi	-10.384
▁ungarsk	-10.384
▁arthur	-10.384
▁utmerkelse	-10.3841
▁oversettelse	-10.3841
▁sølvmedalje	-10.3842
▁arbeiderpartiet	-10.3843
▁telemark	-10.3843
▁axel	-10.3843
▁håkon	-10.3844
kampanje	-10.3845
tysk	-10.3849
▁oppnå	-10.385
setting	-10.3851
liste	-10.3859
▁bygda	-10.3867
▁ulv	-10.387
klasse	-10.3871
▁kammer	-10.3877
opera	-10.3885
▁singel	-10.3892
▁avtalen	-10.3897
sønn	-10.3899
asso	-10.3901
▁betale	-10.3906
▁plassering	-10.3929
▁sab	-10.3936
▁utsatt	-10.3943
vá	-10.3951
▁øker	-10.3956
▁arab	-10.3981
ington	-10.3993
▁sørge	-10.3997
▁drepe	-10.4003
▁1909	-10.4022
▁luxembourg	-10.4022
▁milliarder	-10.4022
▁science	-10.4022
▁1904	-10.4022
▁hordaland	-10.4022
▁antagelig	-10.4022
▁eventuel	-10.4022
▁heinrich	-10.4022
▁terreng	-10.4022
▁ansikt	-10.4022
artilleri	-10.4022
▁separat	-10.4022
teatret	-10.4023
▁autonom	-10.4024
▁beholdt	-10.4024
▁1921	-10.4025
▁definere	-10.4025
▁protest	-10.4025
▁oppnådd	-10.4027
▁bydistrikt	-10.4028
artist	-10.4028
▁arc	-10.4028
▁saga	-10.4031
▁rektor	-10.4036
▁ross	-10.4039
▁1888	-10.404
sdatter	-10.4046
analyse	-10.4051
▁nova	-10.4056
▁1700	-10.4065
▁tråd	-10.4065
▁rykke	-10.4066
▁who	-10.4069
▁budd	-10.4069
nemlig	-10.4069
▁yo	-10.4073
▁birk	-10.408
▁hai	-10.4114
▁utkom	-10.4123
trukket	-10.4127
▁israelsk	-10.415
▁unna	-10.415
▁vall	-10.4152
▁beskrivelse	-10.4154
▁chile	-10.4157
▁strak	-10.4175
lä	-10.4186
kjel	-10.4187
▁khan	-10.4194
tromme	-10.4202
effekt	-10.4202
album	-10.4203
▁reservoar	-10.4207
▁tønsberg	-10.4207
▁1905	-10.4207
▁dekkvingene	-10.4207
▁respekt	-10.4207
▁kommersiell	-10.4207
▁skildre	-10.4207
pedagog	-10.4207
▁1916	-10.421
▁1910	-10.4212
▁nød	-10.4213
▁lake	-10.4215
▁flekker	-10.4215
polis	-10.4219
mengden	-10.4225
▁dyrke	-10.4228
beck	-10.4233
▁prix	-10.4235
▁smak	-10.4245
agon	-10.425
▁verksted	-10.4255
▁bratt	-10.4265
▁oberst	-10.4266
▁kåre	-10.4275
▁ferge	-10.4275
▁oppstår	-10.4278
start	-10.4292
▁molde	-10.4299
▁beskrev	-10.432
seth	-10.4327
hei	-10.4332
▁sav	-10.4338
▁shu	-10.434
bord	-10.4347
▁oh	-10.4354
balanse	-10.4368
▁grim	-10.4384
й	-10.4394
▁katedral	-10.4396
▁australsk	-10.4396
▁sammenslåing	-10.4396
▁thailand	-10.4396
▁studioalbum	-10.4396
▁protein	-10.4397
▁rolf	-10.4397
stipend	-10.4399
▁debatt	-10.4401
givning	-10.4401
▁komposisjon	-10.4403
▁bispe	-10.4406
▁eksport	-10.4409
▁gjenstand	-10.441
▁vindu	-10.441
▁donau	-10.4411
▁forenkle	-10.4414
▁popul	-10.4415
▁angeles	-10.4425
▁bah	-10.4428
cheng	-10.4429
▁teologi	-10.443
▁marsj	-10.4431
skrive	-10.4432
▁tvang	-10.4434
▁sovjet	-10.4436
▁cuba	-10.4439
listen	-10.4443
fødte	-10.4452
grå	-10.4467
veps	-10.4468
▁nordover	-10.447
▁skarp	-10.4478
▁oval	-10.4478
▁messe	-10.4481
møll	-10.4484
fell	-10.4488
▁ansett	-10.4489
▁kino	-10.4499
flukt	-10.4518
forsyning	-10.452
▁vitne	-10.4535
dommer	-10.4541
gevær	-10.4549
olje	-10.455
▁katt	-10.4555
bød	-10.4585
løytnant	-10.4588
▁midlertidig	-10.4588
▁juridisk	-10.4588
▁maksimal	-10.4588
▁nominert	-10.4588
▁etablering	-10.4588
▁mekanisk	-10.4588
▁utseende	-10.4589
skripsjon	-10.4589
▁belgisk	-10.4589
▁qū	-10.4589
▁ektemann	-10.4589
ев	-10.459
▁mineral	-10.459
teknologi	-10.459
▁telefon	-10.4591
▁sign	-10.4591
▁programleder	-10.4593
▁høyesterett	-10.4599
▁frakte	-10.4606
▁1898	-10.461
▁young	-10.4616
reise	-10.4623
▁antatt	-10.4624
eira	-10.4626
▁qing	-10.4634
▁utbygging	-10.4645
▁ott	-10.4651
▁administrere	-10.4652
▁marx	-10.4652
ruter	-10.468
bryter	-10.4682
▁egyptisk	-10.4684
▁urban	-10.4684
▁tykk	-10.4702
▁fjellkjede	-10.4704
▁term	-10.4718
bü	-10.472
▁handle	-10.4722
yuan	-10.4746
▁hamar	-10.4769
▁thu	-10.4774
▁øke	-10.4776
▁900	-10.4777
▁rosa	-10.4781
▁komponert	-10.4784
▁cappelen	-10.4784
▁church	-10.4784
▁individuell	-10.4784
admiral	-10.4784
▁canadisk	-10.4784
▁valuta	-10.4784
▁onkel	-10.4784
▁presentert	-10.4785
▁grevskapet	-10.4785
▁flytende	-10.4786
▁cru	-10.4786
▁motsatt	-10.4787
væske	-10.4787
utdanning	-10.479
hjelp	-10.479
▁palm	-10.4792
▁svein	-10.4792
▁skytter	-10.4794
▁utgjorde	-10.4797
▁german	-10.4801
▁studere	-10.4802
rock	-10.4802
faktor	-10.4808
▁kirk	-10.4809
▁personlighet	-10.4811
▁sveitsisk	-10.483
binder	-10.4832
▁fotballklubb	-10.4838
▁karakteristisk	-10.4838
▁silke	-10.4843
profil	-10.4853
▁variert	-10.4854
▁sofi	-10.4858
▁brei	-10.4865
▁trekant	-10.4868
▁overleve	-10.4874
▁anse	-10.4884
vandring	-10.4894
▁prakt	-10.4901
▁europeisk	-10.4908
▁forskjellig	-10.4914
ørret	-10.4936
verden	-10.4948
▁colle	-10.4963
him	-10.4969
▁tsje	-10.4973
▁etasje	-10.4982
friidrettsutøver	-10.4984
▁bryllup	-10.4984
▁involvert	-10.4984
▁kommandør	-10.4984
▁vilhelm	-10.4984
▁fungerte	-10.4984
▁verdenscup	-10.4984
▁hendelsen	-10.4984
▁mottatt	-10.4985
katalog	-10.4985
▁für	-10.4985
▁besetning	-10.4985
▁fangst	-10.4985
▁tørke	-10.4986
fluer	-10.4986
planlegging	-10.4986
▁manager	-10.4986
▁1913	-10.4987
ifisere	-10.4987
▁pierre	-10.4988
▁håndverk	-10.4993
direktør	-10.4994
▁1894	-10.4999
▁terje	-10.5002
▁einar	-10.5002
▁pedersen	-10.5003
▁pels	-10.5007
kredit	-10.5012
høyden	-10.5017
▁million	-10.5034
▁nerve	-10.5039
▁fortalt	-10.504
ingham	-10.5049
forsvar	-10.5051
handlinger	-10.506
▁sønd	-10.5062
▁søkt	-10.5081
▁sparta	-10.5105
kjeden	-10.5114
▁carlo	-10.5119
politi	-10.5131
løv	-10.514
chel	-10.516
▁polar	-10.5161
forsamlingen	-10.5171
talende	-10.5179
▁francis	-10.5185
▁elizabeth	-10.5188
▁pasienten	-10.5188
▁1906	-10.5188
disiplin	-10.5188
▁fenomen	-10.5188
▁risiko	-10.5188
▁ungarn	-10.5188
▁bodø	-10.5188
▁margaret	-10.5189
▁atmosfære	-10.5189
▁utenlandsk	-10.519
▁1911	-10.5191
palasset	-10.5194
▁røyk	-10.5194
▁bensin	-10.5197
karriere	-10.5201
bibliotek	-10.5202
▁sukker	-10.5212
▁cross	-10.5215
▁good	-10.5218
▁audi	-10.5223
regime	-10.5224
▁knytte	-10.5229
ansvar	-10.5233
▁walter	-10.5234
▁little	-10.5236
▁møre	-10.5239
rydde	-10.5243
▁larve	-10.5253
redskap	-10.5256
aux	-10.5262
▁legend	-10.527
▁takk	-10.5287
▁700	-10.5292
▁chris	-10.531
brev	-10.5325
ward	-10.5334
areal	-10.5343
▁henri	-10.5345
mä	-10.5352
▁verb	-10.5364
▁menneskelig	-10.5381
▁enkel	-10.5389
▁definisjon	-10.5396
▁millimeter	-10.5396
▁seremoni	-10.5396
▁society	-10.5396
▁asteroide	-10.5397
▁hensikt	-10.5397
▁parallell	-10.5397
▁kongedømmet	-10.5397
▁adolf	-10.5397
▁belgia	-10.5397
▁vegetasjon	-10.5397
▁antarktis	-10.5397
▁kritisert	-10.5397
▁invasjon	-10.5397
forsikring	-10.5397
▁bakterie	-10.54
apparat	-10.5401
▁group	-10.5402
▁myndigheter	-10.5402
▁sverre	-10.5403
terminal	-10.5405
grensen	-10.541
▁bassist	-10.5411
▁oppfatte	-10.5412
▁kristiania	-10.5413
▁bö	-10.5414
litteratur	-10.5415
▁grønland	-10.5429
▁1890	-10.543
▁kvad	-10.5436
▁lukke	-10.5438
brett	-10.5442
▁lettere	-10.5449
▁grunnlov	-10.545
rapport	-10.5453
▁kropp	-10.548
▁material	-10.5506
other	-10.5508
skyting	-10.554
▁øygrupp	-10.5542
▁hovedrollen	-10.5547
krem	-10.5548
▁hytte	-10.557
▁liber	-10.5592
løk	-10.5602
ifikasjon	-10.5605
utenriksminister	-10.5609
▁kollektiv	-10.5609
▁abraham	-10.5609
▁unntatt	-10.5609
dirigent	-10.5609
▁foregår	-10.5609
▁reklame	-10.561
▁alexandr	-10.561
▁dominert	-10.561
▁bronsemedalje	-10.5611
▁nyhets	-10.5613
▁opprettelse	-10.5613
▁1907	-10.5613
zza	-10.5618
▁skrå	-10.5622
▁knud	-10.5623
▁alex	-10.5624
▁trommer	-10.563
▁amerikaner	-10.563
fallende	-10.5632
offiser	-10.5632
▁victoria	-10.5634
▁1886	-10.5641
▁ernst	-10.5645
▁walk	-10.5645
azar	-10.5647
▁geir	-10.5648
▁rub	-10.5658
▁apple	-10.566
▁kunstig	-10.5667
▁glad	-10.5674
▁egil	-10.5683
▁erstatte	-10.5687
▁ligge	-10.5713
▁basis	-10.5715
▁laks	-10.5715
slått	-10.5727
▁fremmed	-10.5735
bekken	-10.5771
kledd	-10.5788
snegl	-10.5789
▁falk	-10.579
▁flytte	-10.5792
▁lord	-10.5796
▁lyng	-10.5797
▁pasienter	-10.5827
▁tilknytning	-10.5827
▁aleksander	-10.5827
▁debutalbum	-10.5827
▁jesuitt	-10.5827
▁stridsvogn	-10.5827
▁kjennetegne	-10.5827
assistent	-10.5827
▁permanent	-10.5827
▁henrettet	-10.5827
▁ovenfor	-10.5827
▁forsvant	-10.5827
▁sachsen	-10.5827
▁vedtatt	-10.5828
materiell	-10.5828
▁kronologisk	-10.5828
▁overraske	-10.5828
▁myndighetene	-10.5828
komité	-10.5828
▁foreslått	-10.5829
▁kveld	-10.5829
▁antyde	-10.583
▁hørte	-10.583
gjald	-10.583
▁fjernsyn	-10.583
▁prinsesse	-10.583
▁1915	-10.583
▁kritisk	-10.5833
▁økende	-10.5835
▁jackson	-10.5837
▁skuld	-10.5837
▁anvende	-10.5837
lengde	-10.5842
▁jøder	-10.5843
▁orgel	-10.5845
▁hamburg	-10.5849
▁hull	-10.5849
▁1896	-10.5849
▁vev	-10.5849
▁nederst	-10.5849
▁1889	-10.5849
▁beskyttelse	-10.585
▁ungdomsskole	-10.5852
▁1870	-10.5854
medisin	-10.5854
musiker	-10.5855
▁panser	-10.5861
betaling	-10.5864
▁bruce	-10.5866
▁gjennomføre	-10.5867
▁kunde	-10.5874
▁great	-10.5875
▁tilpasse	-10.589
kjerne	-10.5895
▁næringsliv	-10.5898
▁nevro	-10.5904
▁lill	-10.5905
▁xu	-10.5907
bilder	-10.5911
▁wol	-10.5912
▁geologisk	-10.5914
▁ytterst	-10.5934
▁sjel	-10.5948
▁etnisk	-10.599
▁norman	-10.5992
▁fulgt	-10.5993
▁størst	-10.5997
vokst	-10.5999
▁jud	-10.6006
▁krag	-10.6033
prest	-10.6039
horn	-10.6041
▁napoleon	-10.6049
▁oppmerksomhet	-10.6049
▁trommeslager	-10.6049
▁vedlikehold	-10.6049
▁virginia	-10.6049
▁1903	-10.6049
▁akseptert	-10.6049
budsjett	-10.6049
▁innbyggerne	-10.6049
▁oppretthold	-10.6049
▁country	-10.6049
▁evangeli	-10.6049
leverandør	-10.6049
▁beslektet	-10.6049
▁josef	-10.605
▁fiktiv	-10.605
▁naturreservat	-10.605
▁forkortet	-10.605
▁elleve	-10.6051
▁demokratisk	-10.6051
▁gregor	-10.6051
▁tropisk	-10.6052
▁forklare	-10.6052
▁nattfly	-10.6053
▁gravlagt	-10.6054
▁oppgaver	-10.6054
▁kvin	-10.6054
▁import	-10.6056
▁turbin	-10.6058
▁hypo	-10.6064
skrevet	-10.6068
▁avholdt	-10.607
▁sammenlagt	-10.6071
▁ombord	-10.6072
▁rykte	-10.6074
▁maritim	-10.6078
struktur	-10.6082
▁georgia	-10.6083
ovitsj	-10.6084
sosialistisk	-10.6086
▁class	-10.6094
▁statue	-10.6134
▁inneha	-10.6134
▁løfte	-10.6157
▁eik	-10.6198
tjern	-10.6198
pakke	-10.6221
▁sjakk	-10.6222
tveit	-10.6235
▁victor	-10.6262
▁rednings	-10.6264
▁ukraina	-10.6276
▁utelukkende	-10.6276
▁football	-10.6276
▁portugal	-10.6276
▁anmelder	-10.6276
▁forgjenger	-10.6276
▁selvmord	-10.6276
▁mektig	-10.6277
▁bebyggelse	-10.6277
worth	-10.6278
▁anklage	-10.628
▁igjennom	-10.6281
▁generell	-10.6281
▁blank	-10.6283
▁forlenge	-10.6284
▁divers	-10.6288
▁bjerk	-10.629
nevner	-10.6293
▁lisens	-10.6295
▁skygge	-10.6296
▁avhandling	-10.6299
▁fabrikken	-10.6301
temperatur	-10.6314
frukt	-10.6314
teknikk	-10.6315
sentrum	-10.6316
kreft	-10.6329
▁grund	-10.6332
kjøring	-10.6343
gutt	-10.6355
▁kongress	-10.6383
▁kontrollert	-10.6397
champ	-10.6416
▁familiegruppe	-10.6447
recht	-10.6458
▁brutt	-10.6488
▁utvide	-10.6506
ønne	-10.6509
▁observasjon	-10.6509
▁chicago	-10.6509
▁gabriel	-10.6509
▁hospital	-10.6509
▁hjørne	-10.6509
▁overlevde	-10.6509
▁utsikt	-10.6509
▁originaltittel	-10.6509
▁sprint	-10.651
▁herunder	-10.651
▁utgivelsen	-10.651
▁tilskuer	-10.651
▁opposisjon	-10.6511
▁gråbrun	-10.6511
▁ambassadør	-10.6511
▁søndag	-10.6512
▁sentralbank	-10.6512
▁hovedkvarter	-10.6512
▁samuel	-10.6513
kobling	-10.6514
▁styreleder	-10.6515
▁deltatt	-10.6526
▁frei	-10.6529
▁forandre	-10.6531
▁innerst	-10.6572
utvalget	-10.6579
utstyr	-10.6596
tilbud	-10.66
▁musikal	-10.6606
ætt	-10.6629
sykdommer	-10.6645
▁prinsipp	-10.6655
tetthet	-10.6657
▁filip	-10.6692
▁katolsk	-10.6706
▁kunstnerisk	-10.6743
▁skihopper	-10.6747
▁ødelegge	-10.6747
▁dominere	-10.6747
▁rettigheter	-10.6747
▁eiendommen	-10.6747
▁sykkel	-10.6748
▁doktorgrad	-10.6748
lyktes	-10.6749
ор	-10.6751
hydr	-10.6751
▁trenger	-10.6753
▁dominerende	-10.6753
▁tegninger	-10.6754
▁analyser	-10.6757
▁kommunestyre	-10.6758
▁mandat	-10.6761
▁piano	-10.6766
▁tekstil	-10.6772
▁sekundær	-10.6775
▁vennskap	-10.6783
duksjon	-10.6784
trener	-10.6788
kontroll	-10.6795
feng	-10.6832
melding	-10.6845
▁tenke	-10.6852
▁britis	-10.6873
▁domkirke	-10.688
blå	-10.6921
▁regjer	-10.6971
asjen	-10.6982
endinger	-10.6988
▁oppleve	-10.6989
kommanderende	-10.6991
▁bulgarsk	-10.6991
▁konstruert	-10.6991
▁kvalifisering	-10.6991
▁nøytral	-10.6991
▁prøvde	-10.6991
▁symptom	-10.6991
▁1902	-10.6991
▁utspring	-10.6991
veksling	-10.6991
ensemble	-10.6991
▁avgjørende	-10.6991
▁sjette	-10.6991
▁seinere	-10.6992
annibal	-10.6993
▁regelmessig	-10.6993
▁magasinet	-10.6994
seminar	-10.6996
▁center	-10.6998
▁down	-10.6998
▁fastlandet	-10.7
▁spyd	-10.7
▁biografi	-10.7001
▁clark	-10.7004
▁nordmenn	-10.7008
▁koble	-10.7012
▁anlagt	-10.7015
▁aero	-10.7016
▁helst	-10.7019
▁hvile	-10.7019
tittelen	-10.7046
blokk	-10.7048
drive	-10.7108
▁overføre	-10.711
fabrik	-10.7113
work	-10.717
▁bergart	-10.7173
▁administr	-10.7186
▁skru	-10.7201
▁variere	-10.7222
▁association	-10.7241
▁barcelona	-10.7241
▁låtskriver	-10.7241
▁arrestert	-10.7241
▁komponent	-10.7241
▁oksygen	-10.7241
▁beslutning	-10.7241
▁apotek	-10.7241
▁innlemmet	-10.7241
▁linux	-10.7241
▁uansett	-10.7241
▁leonard	-10.7241
▁haugesund	-10.7241
▁deutsche	-10.7241
▁essay	-10.7241
▁konvensjon	-10.7241
▁bridge	-10.7241
▁sjeldne	-10.7241
grunnsstasjon	-10.7241
▁fiolin	-10.7241
▁barnehage	-10.7241
▁hjelm	-10.7241
▁stråle	-10.7241
▁walisisk	-10.7241
▁sjanger	-10.7241
▁senior	-10.7241
▁tropper	-10.7242
▁årsaken	-10.7242
▁splitt	-10.7242
▁mannskapet	-10.7245
terapi	-10.7246
pistol	-10.7252
▁wilson	-10.7252
▁dream	-10.7253
▁fredrikstad	-10.7254
▁bryn	-10.7267
svekke	-10.7276
▁heart	-10.7277
▁tredjeplass	-10.7278
resultat	-10.7301
inntekt	-10.7303
regjering	-10.7304
▁utarbeide	-10.7348
▁ressurs	-10.7375
▁thom	-10.7382
▁ørn	-10.7394
betjent	-10.7415
▁puppe	-10.7423
fellesskap	-10.7465
▁doktor	-10.7496
sbestemmelse	-10.7497
▁eurovision	-10.7497
▁gasskraftverk	-10.7497
▁göteborg	-10.7497
▁skjønt	-10.7497
▁visepresident	-10.7497
▁symfoni	-10.7497
▁patriark	-10.7497
▁venezia	-10.7497
skribent	-10.7497
▁grün	-10.7497
▁sigurd	-10.7497
▁charlotte	-10.7497
▁etterkommer	-10.7497
▁hendelser	-10.7497
▁protestantisk	-10.7497
▁strekningen	-10.7497
▁kobber	-10.7498
▁utforming	-10.7498
▁gerhard	-10.7499
▁datamaskin	-10.7499
▁francisco	-10.7502
▁gratis	-10.7504
▁social	-10.7507
▁hensyn	-10.7508
▁ytelse	-10.751
skrekk	-10.751
▁allmenn	-10.751
▁nordsamisk	-10.7513
▁republikk	-10.7518
ен	-10.7518
▁kvant	-10.7523
▁forvente	-10.7524
▁operativsystem	-10.7532
orkester	-10.7566
prøve	-10.7573
▁petro	-10.7623
▁bryte	-10.7644
▁nettsted	-10.7717
▁medaljer	-10.7722
▁flø	-10.7727
bjørg	-10.7729
stifte	-10.773
▁vannkraft	-10.7743
▁keyboard	-10.776
▁amsterdam	-10.776
▁corporation	-10.776
▁forøvrig	-10.776
▁1901	-10.776
▁forhindre	-10.776
▁tyrkia	-10.776
▁utbredelse	-10.776
▁sebasti	-10.776
▁langrenn	-10.776
▁zealand	-10.7761
▁etablere	-10.7761
▁ordinær	-10.7761
▁uvanlig	-10.7761
reisende	-10.7761
mouth	-10.7762
▁forberede	-10.7764
▁2018	-10.7768
▁hydrogen	-10.7768
mission	-10.7774
▁særeg	-10.7774
▁meldt	-10.7781
bestand	-10.7782
▁oppstå	-10.7786
▁kjørt	-10.7787
▁søyle	-10.7796
▁undervist	-10.7809
▁utvidelse	-10.7827
▁tidligst	-10.7832
kalender	-10.7834
kandidat	-10.7836
institutt	-10.7836
konsert	-10.7839
▁biologisk	-10.7839
grønn	-10.7843
▁pont	-10.7845
▁konsekven	-10.7845
inndeling	-10.7853
▁ideologi	-10.7879
kål	-10.7952
▁gymnas	-10.7961
▁treffe	-10.7969
rhein	-10.7994
festival	-10.7995
▁omdanne	-10.8022
▁hollywood	-10.8031
▁meksikansk	-10.8031
▁okkupasjon	-10.8031
▁varaordfører	-10.8031
▁taiwan	-10.8031
▁frigjøring	-10.8031
vurdering	-10.8031
▁embets	-10.8031
▁hyppig	-10.8031
▁forbedre	-10.8031
▁contest	-10.8031
▁european	-10.8031
▁hovedpersonen	-10.8031
▁sibir	-10.8032
▁våt	-10.8033
▁oppdagelse	-10.8033
▁vandre	-10.8046
ière	-10.8048
▁ibsen	-10.805
▁operere	-10.8052
▁ballett	-10.8057
skikkelse	-10.8064
▁variasjon	-10.8064
▁montert	-10.8067
▁slippe	-10.8072
▁punk	-10.8075
bald	-10.8083
▁statsråd	-10.8107
revolusjon	-10.8114
design	-10.812
tempelet	-10.8121
stigning	-10.8122
opplevelse	-10.8135
▁hylle	-10.8162
▁rådhus	-10.8226
kjøl	-10.8228
emmelig	-10.8229
▁krise	-10.8244
▁ferskvann	-10.8308
▁færøysk	-10.8308
▁giovanni	-10.8308
▁kjønnsmodne	-10.8308
▁konsentrert	-10.8308
▁kontrovers	-10.8308
▁renessanse	-10.8308
▁rudolf	-10.8308
lokomotiv	-10.8308
▁sylinder	-10.8308
▁høvding	-10.8308
▁taylor	-10.8308
▁avdøde	-10.8308
▁krystall	-10.8308
bevegelse	-10.8309
▁aktuell	-10.8309
▁theodor	-10.8309
▁overtatt	-10.8309
▁konkurs	-10.8309
▁oppfølger	-10.8309
▁særskilt	-10.8309
▁vinkel	-10.8309
▁traktat	-10.8309
▁føderal	-10.831
▁massiv	-10.831
▁nepal	-10.8311
▁bayern	-10.8312
▁disney	-10.8313
▁alpene	-10.8313
▁larvik	-10.8317
▁smitte	-10.8317
vesenet	-10.833
vassdraget	-10.8354
tradisjon	-10.8398
arkitekt	-10.8398
bispedømme	-10.8399
gjorde	-10.8402
▁prost	-10.8441
▁fylle	-10.8538
aften	-10.8541
▁vassdrag	-10.8547
ignal	-10.8583
fattet	-10.8589
▁infanteri	-10.8594
▁jomfru	-10.8594
▁lillehammer	-10.8594
▁terrengsyklist	-10.8594
▁avslørt	-10.8594
▁engasjert	-10.8594
▁intervju	-10.8594
▁kommandant	-10.8594
▁kvalifisert	-10.8594
▁stephen	-10.8594
▁carolina	-10.8594
▁østfold	-10.8594
tingsvalget	-10.8594
▁lincoln	-10.8594
▁betydningsfull	-10.8594
▁langvarig	-10.8594
▁castle	-10.8594
▁regulere	-10.8595
▁forkortelse	-10.8596
▁stefan	-10.8596
▁bbc	-10.8597
▁dekorert	-10.8597
▁plateselskapet	-10.8598
▁howard	-10.8599
▁britene	-10.86
▁døtre	-10.8603
indeks	-10.8608
▁rakett	-10.8611
▁kaffe	-10.8617
ingeniør	-10.8693
redaktør	-10.8694
aktivitet	-10.8694
åpne	-10.8699
sentral	-10.87
lokale	-10.8734
skjerm	-10.8781
foretak	-10.8799
kirch	-10.8811
▁dynasti	-10.8813
pningsseremonien	-10.8888
▁argentina	-10.8888
▁generalmajor	-10.8888
▁konkurrert	-10.8888
▁mccartney	-10.8888
▁sarpsborg	-10.8888
▁inspirasjon	-10.8888
▁jacque	-10.8888
▁konstitusjon	-10.8888
▁molekyl	-10.8888
▁massakre	-10.8888
▁nidaros	-10.8888
▁offensiv	-10.8888
▁regulert	-10.8888
▁nevø	-10.8888
▁opphørte	-10.8888
▁people	-10.8888
▁fødselsår	-10.8888
deltakelsen	-10.8888
▁bmw	-10.8889
bransjen	-10.8889
▁haakon	-10.8889
▁symbolisere	-10.8889
▁vakre	-10.8889
▁guinea	-10.8889
▁misjons	-10.889
▁innviet	-10.8891
▁beordre	-10.8891
▁hjort	-10.8891
▁styremedlem	-10.8891
▁avgjørelse	-10.8892
▁gjengjeld	-10.8893
▁medførte	-10.8895
▁relasjon	-10.8895
▁smelte	-10.8895
▁western	-10.8895
▁stedsnavn	-10.89
▁tjener	-10.8903
▁kreert	-10.8905
▁bedriften	-10.8914
instrument	-10.8997
divisjon	-10.8997
advokat	-10.8998
▁marcel	-10.9021
krav	-10.9025
▁hjemmebane	-10.9026
▁representere	-10.909
nøtt	-10.9151
▁spesifik	-10.9174
▁aftenposten	-10.9191
▁aleksandr	-10.9191
▁angelsaksisk	-10.9191
▁central	-10.9191
▁elektrisitet	-10.9191
▁identifisere	-10.9191
▁kontinuerlig	-10.9191
▁kronprins	-10.9191
▁ludwig	-10.9191
▁satellitt	-10.9191
▁shakespeare	-10.9191
▁spellemannpris	-10.9191
▁forveksle	-10.9191
▁ragnar	-10.9191
▁landkreis	-10.9191
sylindre	-10.9191
▁hvem	-10.9192
registrering	-10.9192
▁rumensk	-10.9192
▁skjult	-10.9192
▁monroe	-10.9193
▁søsken	-10.9193
straße	-10.9193
ий	-10.9194
omsorg	-10.9194
▁halvparten	-10.9196
▁stryk	-10.9197
hausen	-10.92
▁monarki	-10.9204
▁betalt	-10.9204
▁hevn	-10.921
▁nazist	-10.9211
syssel	-10.9212
konsern	-10.9222
▁bønn	-10.9265
ømt	-10.9288
historiker	-10.9309
dynastiet	-10.9309
transport	-10.931
▁omhandle	-10.9323
gyldig	-10.933
bukten	-10.9362
forsvarsminister	-10.9373
flokkurin	-10.9504
▁afghanistan	-10.9504
▁aluminium	-10.9504
▁colombia	-10.9504
▁mangfold	-10.9504
▁microsoft	-10.9504
▁mountain	-10.9504
▁okkupert	-10.9504
▁orchestra	-10.9504
▁ortodoks	-10.9504
▁parallelt	-10.9504
▁ukrainsk	-10.9504
▁vladimir	-10.9504
▁buskerud	-10.9504
▁kennedy	-10.9504
▁diskusjon	-10.9504
▁patrick	-10.9504
▁amatør	-10.9504
▁baptist	-10.9504
▁fengsle	-10.9504
▁frilufts	-10.9504
▁indikere	-10.9504
▁ålesund	-10.9504
▁sandefjord	-10.9504
▁seksuell	-10.9504
▁begravelse	-10.9504
infeksjon	-10.9504
▁russell	-10.9504
▁organisere	-10.9505
▁samlealbum	-10.9505
▁skjøt	-10.9505
▁harrison	-10.9505
▁rettferdig	-10.9505
▁tyngde	-10.9505
▁erstatning	-10.9506
▁mikael	-10.9506
▁utpekt	-10.9506
▁ekspert	-10.9506
▁fuktig	-10.9507
▁generalsekretær	-10.9508
▁selvstyre	-10.9511
▁presentere	-10.9516
▁spurt	-10.9517
▁styring	-10.9521
▁benevn	-10.9529
▁etappe	-10.9539
▁rifle	-10.9546
klub	-10.9562
kvartett	-10.958
▁borgerkrig	-10.958
prinsippet	-10.961
glans	-10.9677
amerikanske	-10.9744
kvinne	-10.9819
▁ødela	-10.9825
▁academy	-10.9826
▁argentinsk	-10.9826
▁evolusjon	-10.9826
▁ferdinand	-10.9826
▁matematiker	-10.9826
▁oppvarming	-10.9826
▁pronotum	-10.9826
▁tilsynelatende	-10.9826
▁varmekraftverk	-10.9826
▁hiphop	-10.9826
▁undergrunnsbane	-10.9826
▁misjonær	-10.9826
▁gjøvik	-10.9826
▁veksel	-10.9826
▁litauen	-10.9826
▁public	-10.9826
▁texas	-10.9826
▁eksistens	-10.9826
▁lørdag	-10.9826
▁statsborger	-10.9827
▁diameter	-10.9827
▁kommentar	-10.9827
▁prince	-10.9827
▁invitert	-10.9827
▁serbisk	-10.9827
▁ulovlig	-10.9827
▁http	-10.9827
▁database	-10.9827
▁lewis	-10.9827
▁brønn	-10.9828
▁ivareta	-10.9828
▁centre	-10.9828
▁utfordre	-10.9829
▁nyheter	-10.9829
reservat	-10.9829
▁poesi	-10.983
▁muskel	-10.983
▁koreograf	-10.9831
▁cruise	-10.9833
▁kanadisk	-10.9834
▁armensk	-10.9843
▁syklist	-10.9844
craft	-10.9852
schaft	-10.9866
▁ekstern	-10.9867
abilit	-10.9874
▁offisiell	-10.988
▁kommunistparti	-10.9952
blanding	-10.997
count	-11.011
▁tibet	-11.015
▁bulgaria	-11.016
▁douglas	-11.016
▁fakultet	-11.016
▁fasettøynene	-11.016
kringkasting	-11.016
▁arrangør	-11.016
▁fogderi	-11.016
▁katolikk	-11.016
▁koalisjon	-11.016
▁kullkraftverk	-11.016
▁matematisk	-11.016
▁identitet	-11.016
▁sophie	-11.016
▁angivelig	-11.016
▁campbell	-11.016
▁stafett	-11.016
▁heavy	-11.016
▁ringerike	-11.016
▁svovel	-11.016
▁avviklet	-11.016
▁oppfatning	-11.016
▁apollo	-11.016
▁anthon	-11.016
▁styrmann	-11.016
▁forklaring	-11.0161
mønstre	-11.0162
▁ørken	-11.0162
▁titler	-11.0162
▁strategisk	-11.0163
▁gjenopprette	-11.0166
▁mohamm	-11.0167
▁øvelsen	-11.0172
▁tibetansk	-11.0179
▁moderat	-11.0187
▁forvalte	-11.0218
▁omfatte	-11.0224
jalp	-11.0237
▁begynne	-11.0282
▁bakkropp	-11.0298
undervisning	-11.031
størrelse	-11.031
soldater	-11.031
gruve	-11.0333
▁erobre	-11.0346
▁viderefør	-11.0366
sekvens	-11.0395
▁journal	-11.0447
▁ammunisjon	-11.0504
▁frankfurt	-11.0504
▁françois	-11.0504
▁fremtredende	-11.0504
▁guddommelig	-11.0504
▁helikopter	-11.0504
▁infrastruktur	-11.0504
▁mobiltelefon	-11.0504
▁pedipalpene	-11.0504
▁propaganda	-11.0504
▁prøyssisk	-11.0504
▁resolusjon	-11.0504
▁spitsbergen	-11.0504
▁tortricidae	-11.0504
▁wergeland	-11.0504
▁petroleum	-11.0504
▁müller	-11.0504
▁oxford	-11.0504
▁returnert	-11.0504
▁shandong	-11.0504
▁sergej	-11.0505
▁autoritet	-11.0505
▁øyeblikk	-11.0505
▁kavaleri	-11.0505
▁kjæreste	-11.0505
▁avskaffe	-11.0505
▁benedikt	-11.0505
forstyrrelse	-11.0505
▁vietnamesisk	-11.0505
▁cecil	-11.0505
▁kombinere	-11.0505
regulering	-11.0505
▁stemning	-11.0506
▁dampmaskin	-11.0506
▁døpt	-11.0506
▁konsernet	-11.0506
▁osmansk	-11.0507
▁klinisk	-11.0508
mekanisme	-11.0508
▁court	-11.0508
skriving	-11.0509
▁flanke	-11.0512
dolph	-11.0521
▁genetisk	-11.0531
▁barokk	-11.0554
thorax	-11.0583
▁flamme	-11.0608
kommunikasjon	-11.0667
sykehus	-11.0667
likevel	-11.0669
▁blanc	-11.0733
▁columbia	-11.0862
▁helsingfors	-11.0862
▁identifisert	-11.0862
▁kambodsja	-11.0862
▁kasakhstan	-11.0862
▁observert	-11.0862
▁pyramide	-11.0862
▁stjørdal	-11.0862
▁benjamin	-11.0862
▁innvilget	-11.0862
▁republikaner	-11.0862
▁sanskrit	-11.0862
▁skroget	-11.0862
▁babylon	-11.0862
▁genitalie	-11.0862
▁könig	-11.0862
▁luftforsvaret	-11.0862
▁forkroppen	-11.0862
▁jersey	-11.0862
▁teoretisk	-11.0862
▁division	-11.0862
▁hamilton	-11.0862
▁english	-11.0862
▁tsjekkisk	-11.0862
▁jamaica	-11.0862
▁interiør	-11.0862
▁betydd	-11.0862
▁tolkien	-11.0862
▁bebodd	-11.0862
▁kongsvinger	-11.0862
▁karakterisere	-11.0862
▁velkjent	-11.0862
▁frimurer	-11.0862
▁avsnitt	-11.0862
▁wagner	-11.0862
teleskop	-11.0862
▁tokyo	-11.0863
▁efter	-11.0864
▁innvalgt	-11.0864
rettighetene	-11.0864
kollega	-11.0866
▁føtte	-11.0868
▁verdslig	-11.087
▁rettssak	-11.0874
flyging	-11.0882
skanse	-11.0893
kvarter	-11.0896
sprang	-11.0898
▁galleri	-11.0911
torget	-11.0983
basseng	-11.1022
pynt	-11.103
sesongen	-11.1038
student	-11.1039
▁utforske	-11.1053
hefte	-11.1062
▁formidle	-11.1086
▁tjenestegjor	-11.1202
▁usikker	-11.1226
▁atlanterhavet	-11.1232
▁cambridge	-11.1232
▁electric	-11.1232
▁konkluder	-11.1232
▁makedonia	-11.1232
▁omdøpt	-11.1232
▁pictures	-11.1232
▁yunnan	-11.1232
helikoptre	-11.1232
katastrof	-11.1232
▁illustrasjon	-11.1232
▁jordskjelv	-11.1232
▁kjøkken	-11.1232
▁konkurrent	-11.1232
▁storhertug	-11.1232
▁billboard	-11.1232
▁uttrykt	-11.1232
▁embeds	-11.1232
▁sicilia	-11.1232
▁subjekt	-11.1232
▁natrium	-11.1232
▁bystatus	-11.1232
▁epigyn	-11.1232
▁westfalen	-11.1232
▁airlines	-11.1232
▁gustaf	-11.1232
▁unesco	-11.1232
betennelse	-11.1232
▁komplett	-11.1232
▁sosiologi	-11.1232
▁ordenstegne	-11.1232
▁bøndene	-11.1232
▁referert	-11.1232
▁petersburg	-11.1232
▁charlie	-11.1233
▁flyktning	-11.1233
selskab	-11.1233
▁alminnelig	-11.1233
▁seoul	-11.1233
pseudonym	-11.1234
▁theatre	-11.1234
▁spiral	-11.1234
▁uklar	-11.1234
▁akutt	-11.1235
▁grammati	-11.124
tilsynet	-11.1241
synkron	-11.1246
▁lojal	-11.1247
▁avansert	-11.1248
▁operert	-11.125
▁rytme	-11.1255
▁bakerst	-11.1267
dybde	-11.1284
fragment	-11.1316
bestyrer	-11.1326
bevisst	-11.133
▁dobbel	-11.1402
ressurser	-11.1412
kontrakt	-11.1422
biskop	-11.1423
▁america	-11.1493
arkeolog	-11.1506
nskspråklig	-11.1536
elektromagnetisk	-11.1617
▁absolutt	-11.1617
▁byfylke	-11.1617
▁elefant	-11.1617
▁entertainment	-11.1617
▁illustrert	-11.1617
▁inklusiv	-11.1617
▁liverpool	-11.1617
▁matematikk	-11.1617
▁pennsylvania	-11.1617
▁republikansk	-11.1617
▁singapore	-11.1617
▁sluppet	-11.1617
▁venezuela	-11.1617
▁patrulje	-11.1617
▁sjælland	-11.1617
▁terningkast	-11.1617
▁tsjekkia	-11.1617
▁ufullstendig	-11.1617
▁vurdert	-11.1617
▁hongkong	-11.1617
▁torpedo	-11.1617
▁attentat	-11.1617
▁ektefelle	-11.1617
▁pattedyr	-11.1617
▁nanjing	-11.1617
▁bosnia	-11.1617
ã	-12.525
