<unk>	0
<s>	0
</s>	0
.	-3.25905
s	-3.54625
e	-3.57069
▁i	-3.63725
▁og	-3.91165
t	-4.06164
▁	-4.06694
er	-4.17644
en	-4.21102
▁av	-4.39249
r	-4.5403
▁er	-4.58267
▁en	-4.61092
▁som	-4.64625
▁for	-4.74987
▁til	-4.75098
▁på	-4.86718
et	-4.96355
n	-4.96724
▁med	-5.00888
▁den	-5.05116
▁ble	-5.13755
▁var	-5.23911
▁det	-5.25044
▁de	-5.2575
a	-5.42918
▁fra	-5.43317
▁han	-5.49941
▁å	-5.51973
▁et	-5.56526
ene	-5.58739
▁har	-5.59122
i	-5.863
ne	-5.90558
▁at	-5.92286
k	-5.94714
▁ved	-5.96329
d	-5.96443
o	-6.12807
▁også	-6.13462
▁om	-6.16964
▁ut	-6.18448
▁etter	-6.18462
y	-6.22733
l	-6.26658
▁under	-6.30891
de	-6.33716
te	-6.3487
m	-6.38045
g	-6.38205
▁men	-6.39101
p	-6.4474
re	-6.44842
▁eller	-6.45031
▁over	-6.46586
▁da	-6.47401
▁opp	-6.47512
▁seg	-6.48897
▁to	-6.49603
▁kan	-6.5018
f	-6.52984
▁hadde	-6.54981
h	-6.55867
▁inn	-6.59306
in	-6.59417
▁s	-6.63004
▁18	-6.64138
c	-6.64776
▁be	-6.65626
v	-6.65919
▁ikke	-6.66593
▁sin	-6.66873
▁a	-6.70074
▁andre	-6.71612
ing	-6.72583
▁mot	-6.74284
ter	-6.77409
b	-6.79958
on	-6.82953
us	-6.83398
▁mellom	-6.83772
u	-6.83785
▁1	-6.85588
▁født	-6.87655
an	-6.88583
▁første	-6.89693
al	-6.90096
le	-6.90738
▁f	-6.91772
▁dette	-6.92035
▁ha	-6.93221
▁hun	-6.96314
ia	-6.96543
sk	-6.97936
▁der	-6.98379
▁hans	-6.99232
▁tre	-7.00291
ende	-7.01225
w	-7.02245
▁the	-7.02518
na	-7.03268
▁år	-7.07728
▁fikk	-7.08767
▁ligger	-7.10139
ar	-7.10529
sen	-7.11094
▁m	-7.11176
z	-7.11565
la	-7.11569
▁man	-7.11726
▁sammen	-7.15556
▁denne	-7.15739
▁blant	-7.16553
ta	-7.18367
ri	-7.18708
is	-7.19414
▁2	-7.20886
▁flere	-7.21111
▁nord	-7.21473
▁kom	-7.21626
▁u	-7.21888
▁la	-7.22571
▁p	-7.25101
▁c	-7.25205
land	-7.25583
lig	-7.25821
di	-7.26072
▁re	-7.26327
▁alle	-7.26936
or	-7.27518
um	-7.2773
nde	-7.28305
iske	-7.29586
▁ca	-7.3031
j	-7.30497
øy	-7.30964
▁gjennom	-7.31054
ch	-7.3223
▁hvor	-7.32796
isk	-7.32964
ra	-7.33472
ma	-7.33769
▁g	-7.34909
ck	-7.34997
ur	-7.35761
▁17	-7.35779
▁d	-7.3681
ens	-7.37343
▁3	-7.3742
▁se	-7.37432
ske	-7.376
▁del	-7.37602
▁stor	-7.38473
▁b	-7.38828
▁død	-7.39234
der	-7.394
▁så	-7.3945
ke	-7.40279
▁blir	-7.40461
it	-7.40484
▁her	-7.40896
▁of	-7.4116
ig	-7.41561
be	-7.42797
▁før	-7.43693
as	-7.43981
▁k	-7.44319
▁mange	-7.44582
da	-7.44914
▁5	-7.4523
ler	-7.45763
▁tidligere	-7.45996
ng	-7.46169
x	-7.46257
ver	-7.46361
ning	-7.46386
▁al	-7.468
▁st	-7.47246
▁ny	-7.47326
▁ro	-7.47524
▁mer	-7.48304
nes	-7.48361
el	-7.48614
▁kommune	-7.49131
il	-7.49184
▁norsk	-7.49334
▁vi	-7.49354
for	-7.50021
▁an	-7.50544
▁senere	-7.51192
kk	-7.51331
ve	-7.51856
▁disse	-7.52514
▁sitt	-7.5319
▁annet	-7.53209
li	-7.53492
os	-7.5459
▁sa	-7.54681
▁t	-7.54903
at	-7.5587
▁byen	-7.56136
▁16	-7.5641
▁sør	-7.57167
▁siden	-7.57494
é	-7.57875
ste	-7.58803
lo	-7.58921
▁land	-7.59215
▁bo	-7.59247
den	-7.59407
▁noen	-7.59428
▁tallet	-7.59834
▁være	-7.5991
▁4	-7.60027
▁selv	-7.6033
ff	-7.60528
▁by	-7.60567
tt	-7.60727
▁h	-7.60741
ø	-7.60891
▁kjent	-7.60926
▁ta	-7.61786
ga	-7.61935
▁le	-7.63106
th	-7.63477
ge	-7.6436
▁15	-7.64848
▁li	-7.64924
mann	-7.65097
▁ra	-7.65432
ger	-7.66044
▁ned	-7.66213
▁kr	-7.66215
▁store	-7.67185
▁na	-7.67298
ut	-7.67349
ell	-7.68215
ad	-7.68499
ør	-7.68706
▁v	-7.69292
stad	-7.69472
å	-7.69639
erne	-7.6993
vis	-7.70851
ro	-7.70904
▁mens	-7.70906
erte	-7.71684
me	-7.72301
ner	-7.7252
ul	-7.72573
▁l	-7.7306
▁norge	-7.73846
▁j	-7.73868
▁samme	-7.73943
▁frem	-7.73993
ti	-7.74254
man	-7.74505
▁vært	-7.74855
▁hoved	-7.75248
▁rundt	-7.75573
ker	-7.76302
▁både	-7.76398
bo	-7.76807
ton	-7.77138
ja	-7.77581
▁10	-7.77758
id	-7.7788
▁ol	-7.77962
▁o	-7.78366
ry	-7.78445
to	-7.78481
lige	-7.78988
kt	-7.79002
dal	-7.79635
▁tid	-7.80331
▁grunn	-7.80721
by	-7.80835
▁6	-7.81399
▁blit	-7.81448
▁navnet	-7.81932
▁vil	-7.82134
▁nye	-7.82152
▁ga	-7.82517
▁dag	-7.82553
▁enn	-7.82578
son	-7.82736
▁in	-7.82777
ol	-7.83385
ven	-7.83514
ka	-7.83893
skap	-7.84178
▁12	-7.84238
mo	-7.84369
var	-7.84506
▁7	-7.84509
▁km	-7.84702
▁lag	-7.85175
un	-7.85449
▁vest	-7.85605
▁sine	-7.85606
▁ofte	-7.85849
▁n	-7.86022
▁ba	-7.86065
mer	-7.86449
▁skal	-7.86484
▁vant	-7.86782
▁du	-7.8688
1	-7.86925
▁kunne	-7.86997
▁si	-7.87024
▁navn	-7.87191
▁mest	-7.87285
▁finnes	-7.87373
▁8	-7.87599
gi	-7.88137
men	-7.88604
▁di	-7.88661
▁norske	-7.89291
▁amerikansk	-7.89566
▁ni	-7.90043
▁ti	-7.9039
▁bare	-7.9059
het	-7.90648
▁mars	-7.90979
else	-7.9098
▁per	-7.91248
▁gikk	-7.9148
▁fri	-7.91736
ed	-7.91946
▁øst	-7.91976
▁meter	-7.92619
▁fire	-7.92651
sa	-7.92936
▁he	-7.93226
go	-7.93865
▁ho	-7.93931
▁ham	-7.93966
ha	-7.9402
mi	-7.94065
▁tok	-7.94339
gang	-7.94603
▁slik	-7.94774
tre	-7.94868
av	-7.95069
▁14	-7.95081
▁kirke	-7.95092
opp	-7.95284
▁mai	-7.9535
▁hele	-7.95364
▁pro	-7.95528
mp	-7.95623
▁august	-7.95721
▁pa	-7.95743
▁sp	-7.95782
▁skulle	-7.9589
▁y	-7.95966
▁ma	-7.95997
▁bak	-7.96039
ster	-7.96158
ment	-7.96285
pe	-7.96351
▁noe	-7.96631
gen	-7.96793
▁går	-7.97184
▁w	-7.97685
▁pi	-7.97708
▁oslo	-7.97934
sjon	-7.97986
am	-7.98057
kke	-7.983
▁fly	-7.98345
▁mar	-7.98444
▁kalt	-7.98458
vi	-7.98753
▁lang	-7.9885
ic	-7.98904
nd	-7.98999
▁co	-7.99333
▁lu	-7.99356
▁9	-7.99388
▁juli	-8.00321
▁ka	-8.00696
▁gi	-8.00774
bi	-8.01171
pp	-8.01673
▁far	-8.01729
▁fram	-8.01809
▁bu	-8.01968
ie	-8.0213
▁13	-8.02281
ist	-8.02321
▁mor	-8.02328
ling	-8.0236
▁når	-8.02451
ce	-8.02861
▁gang	-8.02962
asjon	-8.02971
va	-8.03314
▁største	-8.03516
▁samt	-8.03546
▁hos	-8.03572
ba	-8.03774
berg	-8.03918
▁11	-8.04051
▁bli	-8.04256
ikk	-8.04369
▁lo	-8.04913
▁januar	-8.04961
ant	-8.05007
si	-8.0513
▁kon	-8.05182
▁nå	-8.05361
▁me	-8.05598
▁sk	-8.05643
▁tilbake	-8.06068
▁do	-8.06341
▁no	-8.06419
ang	-8.06515
co	-8.06574
je	-8.06836
▁bar	-8.06886
au	-8.07011
op	-8.0716
sel	-8.07237
po	-8.07496
ks	-8.07501
▁so	-8.07506
▁ar	-8.08439
▁mo	-8.0847
sh	-8.08665
im	-8.08803
ring	-8.08992
ni	-8.09479
▁tra	-8.0973
▁sch	-8.09782
▁juni	-8.09976
▁mål	-8.10147
ko	-8.10508
▁brukt	-8.10953
do	-8.10967
▁rekke	-8.11246
år	-8.11373
▁20	-8.1147
▁as	-8.12035
len	-8.12136
▁mi	-8.12353
▁000	-8.13515
om	-8.13555
ud	-8.13836
▁el	-8.13888
▁bestå	-8.13924
▁siste	-8.1397
▁and	-8.14401
æ	-8.1453
▁film	-8.14957
▁utgitt	-8.15022
▁go	-8.15084
▁2008	-8.15353
▁dem	-8.15355
▁vann	-8.15362
▁ri	-8.15383
ir	-8.15532
▁fa	-8.15694
▁videre	-8.15766
elle	-8.15944
ä	-8.16173
▁bi	-8.1678
▁ju	-8.17832
á	-8.17937
▁tro	-8.18724
ho	-8.18934
pa	-8.19037
▁pe	-8.19394
lag	-8.19598
▁spilte	-8.19775
▁or	-8.19869
▁musikk	-8.19903
▁desember	-8.2033
▁usa	-8.20384
▁ko	-8.20482
gg	-8.20925
▁få	-8.20977
▁sol	-8.21316
iv	-8.21542
ty	-8.21756
▁skole	-8.22015
ll	-8.22313
ier	-8.22331
per	-8.22443
les	-8.22583
▁deres	-8.22637
▁nær	-8.22728
vik	-8.22842
io	-8.23198
▁først	-8.23243
bar	-8.2331
ov	-8.23389
ingen	-8.23468
▁gu	-8.23534
itet	-8.23648
▁tillegg	-8.23978
3	-8.24083
▁april	-8.2424
und	-8.24413
itt	-8.24548
tur	-8.24851
ær	-8.25047
ca	-8.25745
tal	-8.25774
▁oktober	-8.25802
▁november	-8.26027
▁sønn	-8.26668
▁te	-8.26861
vo	-8.27199
▁ei	-8.27396
rett	-8.274
▁området	-8.27462
▁jo	-8.27798
▁r	-8.27984
▁su	-8.28017
▁0	-8.28226
ard	-8.28353
▁tor	-8.28492
▁rett	-8.2856
▁fi	-8.28718
▁laget	-8.28808
mm	-8.28839
ion	-8.28921
ok	-8.29228
▁igjen	-8.29249
▁gjen	-8.29463
▁kina	-8.29498
▁po	-8.29906
▁mindre	-8.30171
▁fem	-8.3031
▁ad	-8.31212
▁par	-8.31236
sted	-8.31328
▁leder	-8.3144
ku	-8.31462
▁hver	-8.31464
▁sett	-8.31683
▁ak	-8.3178
▁februar	-8.31829
▁san	-8.32161
▁september	-8.32549
▁små	-8.32592
ru	-8.32772
▁hennes	-8.33031
sta	-8.33175
▁kunst	-8.33465
▁2010	-8.33526
ö	-8.33575
▁new	-8.33859
▁kong	-8.33982
▁2007	-8.34257
ans	-8.34679
▁kun	-8.3487
▁john	-8.34949
▁eks	-8.35095
em	-8.35155
slag	-8.35192
par	-8.3564
▁mat	-8.35655
ft	-8.3584
▁ru	-8.36299
▁like	-8.36339
▁folke	-8.36497
▁lov	-8.36514
▁langs	-8.36529
ns	-8.36561
ak	-8.36908
▁imidlertid	-8.36978
sj	-8.37075
bu	-8.37126
▁tri	-8.37425
▁gift	-8.375
▁året	-8.37553
▁min	-8.37772
del	-8.37907
▁2009	-8.37997
▁filmen	-8.38337
í	-8.38498
▁innen	-8.38736
ber	-8.39025
ina	-8.39206
▁sam	-8.39361
no	-8.39395
dag	-8.39498
tak	-8.39545
▁begynte	-8.39908
ium	-8.39974
▁ulike	-8.39979
min	-8.40256
od	-8.40304
▁konge	-8.40359
lu	-8.40601
▁kinesisk	-8.40825
▁gjorde	-8.40854
▁britisk	-8.40945
ings	-8.4106
▁30	-8.41068
▁bruk	-8.41308
stein	-8.41581
▁mye	-8.4164
ian	-8.41877
▁russisk	-8.41887
▁nor	-8.42282
▁ski	-8.42364
▁helt	-8.42607
hus	-8.42632
▁all	-8.42759
ag	-8.42789
ot	-8.42809
ering	-8.43005
inn	-8.43206
▁bas	-8.43278
▁hu	-8.43281
▁spiller	-8.43405
▁brukes	-8.43529
00	-8.43659
▁hus	-8.438
▁må	-8.43822
▁høy	-8.44089
dd	-8.44098
ede	-8.44142
▁kommer	-8.44206
som	-8.44321
ius	-8.44377
rede	-8.44646
lse	-8.44883
▁x	-8.45102
▁deltok	-8.4516
▁z	-8.45391
▁25	-8.45519
ly	-8.45597
hold	-8.45635
ik	-8.45639
▁uten	-8.45689
▁liv	-8.45844
▁tv	-8.45898
▁satt	-8.46007
▁døde	-8.46288
anske	-8.46391
ige	-8.46469
▁startet	-8.46507
▁kultur	-8.4673
▁syn	-8.46799
isme	-8.46815
▁større	-8.46841
hu	-8.46886
verk	-8.46953
▁2006	-8.47036
▁lå	-8.47215
ken	-8.47276
▁tiden	-8.47428
wa	-8.47463
▁barn	-8.47503
▁plass	-8.47641
▁dermed	-8.47893
▁årene	-8.47896
▁fjell	-8.47946
▁mal	-8.48194
▁egen	-8.48213
▁alt	-8.48289
ny	-8.48582
ac	-8.4888
lin	-8.48956
▁forhold	-8.49166
▁bl	-8.49191
▁øy	-8.49227
▁beste	-8.49572
ow	-8.49583
▁ne	-8.49803
▁eksempel	-8.50087
ningen	-8.50142
▁medlem	-8.50463
vin	-8.50612
▁opprinnelig	-8.50709
▁europa	-8.50716
kor	-8.50753
▁vei	-8.50924
▁ge	-8.51031
▁deretter	-8.51062
tiske	-8.51131
elsen	-8.5127
▁bra	-8.51297
▁2005	-8.51301
▁wa	-8.51671
ble	-8.51674
▁president	-8.51699
▁ja	-8.51855
▁gamle	-8.51901
ord	-8.51989
▁begge	-8.52169
▁ville	-8.52194
4	-8.52268
▁tyske	-8.52306
▁plan	-8.52527
hi	-8.53018
▁innbyggere	-8.53045
fe	-8.53152
tid	-8.53265
met	-8.53534
▁form	-8.53706
▁kort	-8.54309
▁tidlig	-8.54369
ret	-8.54453
▁politisk	-8.54464
▁gir	-8.54874
▁skrev	-8.55027
▁engelsk	-8.55068
res	-8.55195
til	-8.55205
▁fl	-8.55285
▁hi	-8.55375
▁svært	-8.55742
▁særlig	-8.55768
fa	-8.55773
▁bandet	-8.55916
▁stein	-8.56174
mar	-8.56352
ek	-8.56373
▁hel	-8.56378
▁skrevet	-8.56725
tra	-8.5676
▁språk	-8.56906
▁parti	-8.56919
▁norges	-8.56936
▁ab	-8.57052
▁fast	-8.57274
▁kjente	-8.57285
▁bok	-8.57555
▁sommer	-8.57555
est	-8.57567
▁lever	-8.57619
gu	-8.57876
▁kv	-8.58121
derfor	-8.5876
▁dagen	-8.58919
▁verdens	-8.58953
▁gruppen	-8.58974
ting	-8.58995
lat	-8.58998
bb	-8.59037
▁2011	-8.59142
▁seks	-8.59174
▁provinsen	-8.59205
▁ch	-8.59253
siden	-8.59282
ley	-8.59383
▁roman	-8.5947
▁gl	-8.59677
▁my	-8.5976
▁nasjonal	-8.59859
mb	-8.60134
▁bil	-8.6026
▁god	-8.60436
satt	-8.60446
▁vel	-8.60463
▁fe	-8.60524
▁con	-8.60609
▁måtte	-8.60746
tte	-8.60791
tiden	-8.60878
▁tyskland	-8.6088
borg	-8.60995
▁hvert	-8.61429
▁albumet	-8.61514
▁nest	-8.61623
▁car	-8.61658
▁kalles	-8.61841
▁am	-8.61887
▁bergen	-8.6221
pi	-8.62408
2	-8.6242
over	-8.62505
ci	-8.62533
fly	-8.62593
dalen	-8.62792
▁gud	-8.62896
▁lys	-8.62902
form	-8.62905
▁sand	-8.63018
▁pu	-8.63283
▁sv	-8.63333
▁ki	-8.63451
ki	-8.63519
▁bro	-8.63618
▁gull	-8.63671
mon	-8.63738
tor	-8.63901
▁tysk	-8.64009
▁ingen	-8.64235
▁2004	-8.64299
▁bygget	-8.64309
art	-8.64326
val	-8.64333
▁bru	-8.64447
▁bety	-8.6451
▁sverige	-8.64621
let	-8.64944
bl	-8.6497
▁arbeidet	-8.6502
lot	-8.65255
▁br	-8.65419
▁sjø	-8.65701
▁øya	-8.6589
sp	-8.66091
▁spilt	-8.66167
kel	-8.66335
▁halv	-8.66466
▁ganger	-8.66632
▁samtidig	-8.66661
sto	-8.66821
tisk	-8.66844
ou	-8.66927
▁fleste	-8.67092
if	-8.67264
▁fred	-8.67335
▁fo	-8.67362
▁sted	-8.67516
▁kommunen	-8.67559
and	-8.67722
▁ser	-8.67974
▁gitt	-8.68204
bil	-8.68233
kning	-8.68469
▁lokal	-8.69122
▁støtte	-8.69173
▁rom	-8.69258
▁tar	-8.69286
tu	-8.69328
▁sto	-8.69351
▁forskjellige	-8.69442
▁familien	-8.69531
▁nytt	-8.69605
ron	-8.69606
dig	-8.70048
ju	-8.70162
tten	-8.703
▁wi	-8.70474
bruk	-8.7065
▁100	-8.7095
▁general	-8.71134
ine	-8.71206
▁innenfor	-8.71214
ran	-8.71335
▁ver	-8.71376
ation	-8.71467
▁forfatter	-8.7158
gel	-8.71778
▁ed	-8.71928
▁fotball	-8.72051
fi	-8.72189
kom	-8.72349
▁dr	-8.72469
▁grad	-8.72473
ninger	-8.72511
tok	-8.7291
sch	-8.72919
lands	-8.73034
▁pre	-8.73109
▁farge	-8.73117
▁ren	-8.73192
▁berg	-8.73192
▁selskapet	-8.73252
▁hen	-8.73462
tar	-8.7351
▁omkring	-8.74003
▁kor	-8.74077
▁2000	-8.74321
▁ord	-8.74552
ham	-8.74556
▁side	-8.74626
uk	-8.74654
kan	-8.74779
▁mulig	-8.74844
tes	-8.74883
▁tredje	-8.75033
▁gammel	-8.75105
▁ur	-8.75295
▁bor	-8.75362
ys	-8.75432
▁22	-8.75513
▁basert	-8.75801
▁21	-8.76371
▁va	-8.76475
▁grav	-8.76485
du	-8.76607
▁sesongen	-8.7661
▁em	-8.76774
yl	-8.7678
▁styre	-8.76781
mål	-8.7681
▁annen	-8.76968
▁natur	-8.77117
stat	-8.77122
gre	-8.77126
ld	-8.77273
▁datter	-8.7737
nn	-8.77431
▁hol	-8.7754
jer	-8.7761
▁ben	-8.77774
▁gresk	-8.78001
▁motor	-8.7813
vel	-8.78211
▁deler	-8.7872
▁sang	-8.78887
ong	-8.78901
za	-8.79039
▁kn	-8.79145
he	-8.7941
bel	-8.79477
▁stedet	-8.79615
eg	-8.79675
ab	-8.7977
▁bygge	-8.79781
▁ledet	-8.79865
▁cha	-8.79959
dom	-8.79994
▁london	-8.80008
▁produksjon	-8.80064
▁sentral	-8.80121
▁24	-8.80122
isere	-8.8016
nk	-8.8034
kamp	-8.80396
▁olympisk	-8.80538
dde	-8.80639
▁sta	-8.80687
jo	-8.80705
▁2002	-8.80796
▁meg	-8.80853
▁gav	-8.80904
▁perioden	-8.81003
▁we	-8.81099
▁hal	-8.81103
▁fu	-8.81326
▁val	-8.81497
▁luft	-8.81627
▁skog	-8.81908
▁gul	-8.82118
ó	-8.8218
▁tatt	-8.82376
gjerne	-8.82429
▁os	-8.8248
stand	-8.82526
ica	-8.82564
▁ifølge	-8.82569
▁står	-8.82753
▁paul	-8.82921
▁art	-8.82977
ding	-8.8303
sson	-8.83108
▁fransk	-8.83146
▁sangen	-8.83225
▁utenfor	-8.83245
ket	-8.8329
heim	-8.83363
cu	-8.83437
▁ty	-8.83497
rø	-8.83562
▁hy	-8.83586
ris	-8.83597
▁viktig	-8.83877
bok	-8.83895
▁kal	-8.84052
ator	-8.8407
▁midt	-8.84091
▁familie	-8.84144
▁person	-8.84328
▁england	-8.8437
iet	-8.84612
▁von	-8.84619
▁stat	-8.84652
▁danne	-8.84691
mor	-8.84833
▁mag	-8.84906
▁millioner	-8.84996
▁klubben	-8.85053
▁serien	-8.85143
▁keiser	-8.8518
fest	-8.85433
spill	-8.8547
▁barne	-8.85495
▁slutt	-8.85732
▁lav	-8.8579
▁landet	-8.85951
▁offentlig	-8.85985
▁spesiel	-8.86271
løp	-8.86281
▁fant	-8.86294
▁com	-8.86307
bygg	-8.86391
▁stil	-8.86456
mat	-8.86518
vei	-8.86786
▁stats	-8.86907
ph	-8.87106
▁betydning	-8.87227
▁får	-8.87238
▁2003	-8.87242
▁lands	-8.87426
▁kirken	-8.87482
▁stort	-8.87543
han	-8.87602
▁svensk	-8.87607
▁ber	-8.87681
▁26	-8.87696
▁via	-8.87739
plan	-8.87743
▁spor	-8.87807
▁50	-8.87916
▁ten	-8.87988
isering	-8.88
ologi	-8.88043
50	-8.88061
▁1990	-8.88066
▁lange	-8.88214
fra	-8.88353
▁skuespiller	-8.88484
▁19	-8.88535
▁mil	-8.88626
øya	-8.88699
spiller	-8.88782
▁holdt	-8.88952
ug	-8.88987
▁bruker	-8.89077
van	-8.8915
▁full	-8.89184
▁sosial	-8.89486
▁mann	-8.89503
▁kar	-8.89561
sten	-8.8967
sky	-8.89732
▁q	-8.89743
▁delstaten	-8.89754
▁2001	-8.89777
▁utviklet	-8.89779
▁enkelte	-8.89794
sti	-8.89891
enes	-8.90067
▁kongen	-8.90074
lan	-8.90088
▁valg	-8.90197
▁viser	-8.90314
▁28	-8.90365
gn	-8.90383
▁pan	-8.90571
▁ag	-8.90631
▁mark	-8.90639
▁anti	-8.90644
▁vanligvis	-8.90648
▁dyr	-8.90746
lle	-8.90851
▁fre	-8.90947
▁fag	-8.90957
▁vise	-8.90973
▁tu	-8.90979
▁lite	-8.9105
▁christian	-8.91395
▁godt	-8.91648
▁hjelp	-8.91745
▁partiet	-8.91833
ip	-8.91903
▁frankrike	-8.91912
▁historie	-8.91927
▁riks	-8.92206
▁inneholder	-8.92214
и	-8.92343
dy	-8.92351
heten	-8.92403
▁arbeid	-8.92421
▁litt	-8.92478
ill	-8.92484
vil	-8.92549
▁pr	-8.92638
▁kur	-8.9276
lser	-8.92768
▁rød	-8.9285
▁førte	-8.9293
▁løpet	-8.92952
▁gruppe	-8.93124
▁ke	-8.9321
▁inkludert	-8.93223
▁organ	-8.93304
▁folk	-8.93393
▁au	-8.93457
▁elven	-8.93504
yn	-8.93599
▁slekt	-8.93608
▁orden	-8.93666
▁1999	-8.93672
log	-8.93707
▁spille	-8.93798
kul	-8.93974
▁prest	-8.94032
▁tilhører	-8.9411
vær	-8.94158
dyr	-8.94244
vann	-8.94357
▁tekst	-8.94569
▁rolle	-8.947
▁wh	-8.94725
mark	-8.94753
▁eneste	-8.94756
▁gjør	-8.94874
elig	-8.94902
che	-8.94964
▁peter	-8.94965
inger	-8.94993
▁ras	-8.95014
▁hatt	-8.95043
▁sl	-8.95062
landet	-8.95103
lev	-8.95308
▁reise	-8.95342
▁liten	-8.95377
▁23	-8.95387
а	-8.95434
▁slag	-8.95454
▁tak	-8.95458
▁makt	-8.95572
dan	-8.95603
▁medlemmer	-8.95803
▁dikt	-8.95875
ds	-8.95882
merke	-8.95939
rik	-8.96012
lsen	-8.9605
▁universitet	-8.96086
▁industri	-8.96197
▁krigen	-8.96222
▁serie	-8.9633
setning	-8.96468
▁vo	-8.96564
stil	-8.96569
▁krigs	-8.96626
80	-8.96627
▁slutten	-8.9667
▁bror	-8.96716
tall	-8.96742
▁foran	-8.96881
fall	-8.96991
▁pave	-8.97175
asje	-8.97367
▁hav	-8.97532
▁tur	-8.9774
▁1980	-8.97752
▁følgende	-8.97929
elt	-8.97936
rak	-8.98082
▁27	-8.98127
▁versjon	-8.98252
plass	-8.98358
ister	-8.98381
ps	-8.98384
legg	-8.98475
sett	-8.98583
▁ku	-8.98632
▁såkalt	-8.9867
mu	-8.98734
▁skolen	-8.98892
far	-8.98953
my	-8.98981
▁verk	-8.99064
▁rø	-8.99229
▁tal	-8.99298
▁ry	-8.993
isert	-8.99431
▁arbeider	-8.99618
▁mari	-8.99713
ach	-8.99732
▁karl	-8.99781
▁historisk	-8.99809
fjord	-8.99835
pl	-8.99851
film	-8.99922
▁verden	-8.99959
fjorden	-8.99991
▁italiensk	-9.00074
▁russland	-9.00077
▁delen	-9.00226
anger	-9.00333
▁vin	-9.00335
▁pal	-9.00347
▁aktiv	-9.00424
føre	-9.00539
råd	-9.00719
▁kvinne	-9.00786
su	-9.00788
▁antall	-9.00827
▁militær	-9.00901
skje	-9.01034
gård	-9.01052
▁op	-9.01096
vet	-9.01292
▁radio	-9.01298
▁th	-9.01343
folk	-9.0135
▁minne	-9.01392
▁kj	-9.01488
▁hovedsakelig	-9.01508
▁etablert	-9.01548
▁band	-9.01571
▁fortsatt	-9.01576
gående	-9.01695
▁sal	-9.01712
▁hjem	-9.01843
tel	-9.01852
▁bygd	-9.02034
ana	-9.0206
▁forbindelse	-9.0218
dømme	-9.02291
▁gar	-9.02411
▁omtrent	-9.02467
▁1998	-9.02472
bre	-9.02477
▁robert	-9.02534
ai	-9.02792
▁park	-9.02849
▁flyttet	-9.02964
iker	-9.03072
ighet	-9.03246
bygging	-9.03316
▁je	-9.03367
▁danmark	-9.0345
ym	-9.03456
ight	-9.03777
▁stemme	-9.03889
▁veien	-9.03995
▁én	-9.04116
ung	-9.04129
▁fått	-9.04138
pen	-9.04238
ros	-9.0427
▁sig	-9.04417
▁verdenskrig	-9.04457
kken	-9.04476
▁franske	-9.04484
▁lik	-9.04574
rå	-9.04607
▁jord	-9.04674
▁blad	-9.04763
▁staten	-9.04846
lene	-9.04876
▁venstre	-9.04919
▁student	-9.0492
▁1970	-9.04927
▁henne	-9.04969
jel	-9.04971
▁vanlig	-9.05001
▁ring	-9.05073
▁internasjonale	-9.05115
pper	-9.05156
▁rock	-9.05177
▁fylke	-9.05348
▁skade	-9.05355
fo	-9.05373
bro	-9.05378
fer	-9.05383
mel	-9.05433
ald	-9.05456
▁stra	-9.05487
eres	-9.05489
▁stre	-9.05525
skole	-9.0561
▁produsert	-9.05614
språk	-9.05773
ya	-9.05832
syn	-9.059
▁høyre	-9.05921
selskap	-9.06153
▁vol	-9.0621
▁on	-9.06318
▁album	-9.06405
▁paris	-9.0641
▁italia	-9.06429
idae	-9.06775
q	-9.06911
▁komme	-9.06918
rom	-9.06978
tion	-9.0712
ice	-9.07284
▁arter	-9.0738
▁york	-9.07432
ika	-9.07459
leder	-9.07485
fri	-9.07595
veien	-9.07669
▁liste	-9.07721
о	-9.07722
▁kontroll	-9.0799
▁mont	-9.08302
▁2012	-9.08467
▁fall	-9.08563
all	-9.08605
kla	-9.08764
▁jan	-9.08773
▁bal	-9.08785
▁opprettet	-9.0881
ons	-9.08865
▁gal	-9.08943
▁langt	-9.08965
▁lett	-9.08979
▁29	-9.09103
▁dannet	-9.09117
▁nok	-9.09296
▁brun	-9.09317
▁gre	-9.09432
▁egne	-9.09516
▁mennesker	-9.09525
▁viktigste	-9.09564
net	-9.09566
▁gen	-9.09783
▁31	-9.09799
▁omfatter	-9.09935
▁regnes	-9.10038
kjønn	-9.10054
ismen	-9.10182
▁moderne	-9.10336
▁samarbeid	-9.10403
▁båt	-9.10423
▁plate	-9.10526
▁william	-9.10532
▁direkte	-9.10533
▁cor	-9.10601
her	-9.10676
▁jeg	-9.10678
▁bur	-9.10729
▁lyd	-9.10752
so	-9.10842
▁ap	-9.10997
▁sendt	-9.11079
▁svenske	-9.11118
▁politiker	-9.11287
▁gå	-9.11299
kar	-9.11393
vern	-9.11479
▁mod	-9.11516
forening	-9.11548
▁storbritannia	-9.11587
▁utnevnt	-9.11587
▁kamp	-9.11642
mester	-9.1179
▁felles	-9.11832
▁bre	-9.11859
tan	-9.1194
▁syd	-9.12008
sund	-9.12127
▁post	-9.12316
istiske	-9.1236
▁tru	-9.12387
▁mon	-9.12553
ara	-9.12615
▁1984	-9.12663
▁funnet	-9.12955
bra	-9.13006
▁van	-9.13026
▁gjøre	-9.13045
ska	-9.13081
bud	-9.13093
ay	-9.13124
▁gjort	-9.13189
▁arbeids	-9.13206
▁bort	-9.13233
▁trykk	-9.13268
laget	-9.13277
byen	-9.13282
▁neste	-9.13348
▁helse	-9.13598
▁1995	-9.13739
▁1988	-9.13741
▁fylkesvei	-9.13746
▁fremst	-9.13832
▁ø	-9.13846
bygd	-9.1386
▁pri	-9.13867
▁tom	-9.13917
▁utgjør	-9.14015
▁vinter	-9.14031
▁års	-9.14111
sjøen	-9.14251
▁erstatte	-9.14321
ski	-9.14479
kant	-9.14514
▁dansk	-9.14533
▁åpnet	-9.14535
▁konsert	-9.14631
▁angrep	-9.14658
tz	-9.14673
▁lege	-9.14692
▁lars	-9.14764
skip	-9.14782
teori	-9.14853
▁strøm	-9.14936
▁sanger	-9.1497
istisk	-9.14979
▁skip	-9.15032
system	-9.1519
▁sak	-9.15201
▁kraft	-9.15215
stående	-9.15265
▁blå	-9.15318
krets	-9.15319
▁eget	-9.1537
▁sentrum	-9.15376
▁elva	-9.15419
stykke	-9.15475
▁qu	-9.15485
mal	-9.15495
ban	-9.15515
kal	-9.15523
▁60	-9.15541
▁tittelen	-9.15562
▁befolkningen	-9.15572
▁erik	-9.15734
gj	-9.15809
prosess	-9.15877
▁1996	-9.15931
▁aldri	-9.15939
▁nordøst	-9.15963
▁åtte	-9.15968
▁menn	-9.16049
▁vm	-9.16191
▁port	-9.1628
▁les	-9.16393
▁moh	-9.16393
▁universitetet	-9.16401
▁turn	-9.16476
▁enkelt	-9.16476
lik	-9.16574
▁jernbane	-9.16638
familien	-9.16729
▁menneske	-9.16787
ind	-9.16812
▁carl	-9.16865
▁lin	-9.16886
▁grunnlagt	-9.16986
▁rev	-9.17035
departementet	-9.17038
▁best	-9.17067
▁ferdig	-9.17178
▁kron	-9.17256
hy	-9.17271
jen	-9.17388
▁slo	-9.17433
▁tall	-9.17441
tegn	-9.17545
▁regionen	-9.1766
▁energi	-9.17672
▁you	-9.1768
red	-9.1776
▁holde	-9.17766
▁bør	-9.17892
▁chi	-9.17914
værende	-9.17979
område	-9.18013
▁hø	-9.18032
ekte	-9.18059
▁handels	-9.18186
▁kl	-9.18196
stø	-9.18231
▁resultat	-9.18255
▁pl	-9.18264
▁gro	-9.18298
▁bri	-9.18323
▁hvis	-9.18404
▁slaget	-9.18451
▁sm	-9.18545
▁bø	-9.18604
▁indre	-9.18757
▁hard	-9.18859
ford	-9.18952
▁havn	-9.19034
sjef	-9.19083
▁personer	-9.19216
imot	-9.19223
▁tildelt	-9.19347
skrift	-9.19352
ah	-9.19355
▁pris	-9.1945
▁arm	-9.19469
▁ør	-9.19504
bin	-9.19694
ino	-9.19795
▁2013	-9.19891
▁syk	-9.1995
▁mur	-9.19988
tiv	-9.19994
▁lille	-9.20026
▁christ	-9.20144
▁west	-9.20145
ille	-9.20147
▁punkt	-9.2017
▁para	-9.20278
▁fiske	-9.2038
▁delt	-9.20516
stra	-9.2063
trykk	-9.20685
▁gate	-9.20714
▁likevel	-9.20735
▁ve	-9.20739
▁system	-9.20863
20	-9.20866
oc	-9.21044
▁1997	-9.21047
ført	-9.21078
▁mu	-9.21112
stilling	-9.21132
▁eier	-9.21197
liggende	-9.21198
▁bjørn	-9.2123
är	-9.21271
up	-9.21377
pu	-9.21405
▁spe	-9.21438
▁kla	-9.21477
▁ettersom	-9.21507
bert	-9.21607
▁kilometer	-9.21623
▁regjeringen	-9.21624
▁interesse	-9.21633
▁thomas	-9.21641
▁høyeste	-9.21642
anlegg	-9.21673
▁gran	-9.21752
søk	-9.21842
▁linje	-9.21876
▁kvinner	-9.21972
▁besto	-9.22168
▁representert	-9.22212
▁oppkalt	-9.22215
▁kunstner	-9.22217
▁kroppen	-9.22221
▁dra	-9.2227
rike	-9.22285
king	-9.22344
suten	-9.22461
30	-9.22575
▁ly	-9.22666
▁skrift	-9.22753
▁krig	-9.22793
▁eldre	-9.22806
els	-9.22817
skog	-9.22829
▁tjeneste	-9.2284
gruppen	-9.22863
skapet	-9.22877
lett	-9.22943
dr	-9.23014
▁ev	-9.23069
▁ex	-9.23083
xi	-9.23136
▁kampen	-9.23139
mmer	-9.23164
▁benyttet	-9.23176
▁johan	-9.23241
lie	-9.23366
▁1992	-9.23407
rat	-9.23408
▁bedre	-9.23422
ple	-9.23499
▁regi	-9.23539
ære	-9.23567
▁hjemme	-9.23596
▁kro	-9.23631
grad	-9.23684
▁venn	-9.23789
▁nett	-9.23809
selskapet	-9.23851
▁eu	-9.23852
▁funksjon	-9.2393
▁mm	-9.24057
ini	-9.24212
gitt	-9.24288
▁plante	-9.2432
▁gra	-9.24344
chi	-9.24375
▁kat	-9.24394
▁mos	-9.24443
▁sj	-9.24449
▁natt	-9.24476
zi	-9.24478
▁fortsatte	-9.24536
▁1989	-9.24612
svis	-9.24617
drag	-9.24711
tun	-9.24764
båt	-9.24853
▁mus	-9.24927
▁følge	-9.25048
▁red	-9.25168
banen	-9.25184
▁1994	-9.25212
▁fjern	-9.25223
▁ska	-9.25301
▁opprør	-9.25313
▁besøk	-9.25341
▁lokale	-9.25362
punkt	-9.25417
▁hvit	-9.25491
▁valgt	-9.25492
området	-9.25506
komme	-9.25509
▁fil	-9.25617
ale	-9.25654
▁ky	-9.25747
▁drept	-9.25828
▁miljø	-9.25922
▁bill	-9.25964
stasjon	-9.25969
▁periode	-9.25974
▁årlig	-9.25987
▁landets	-9.26032
fag	-9.26033
▁finner	-9.26136
▁pen	-9.26233
▁biskop	-9.2643
▁martin	-9.26467
▁danske	-9.26495
▁japan	-9.26514
▁mac	-9.26657
▁uttrykk	-9.26719
▁don	-9.26737
▁inntil	-9.26741
jon	-9.26758
mannen	-9.26813
▁råd	-9.26884
▁1987	-9.27056
ji	-9.27063
akt	-9.27164
▁måte	-9.27266
▁un	-9.27381
fisk	-9.27392
60	-9.27484
66	-9.27484
▁col	-9.27554
ā	-9.27605
▁500	-9.27637
▁egypt	-9.27668
▁trekk	-9.27702
▁sterkt	-9.27703
pol	-9.27731
▁sil	-9.27752
▁hva	-9.27753
▁legge	-9.27759
▁pol	-9.27764
▁samle	-9.27833
huset	-9.27902
▁za	-9.27913
40	-9.27945
▁overtok	-9.27952
▁mis	-9.27968
▁olav	-9.27994
qui	-9.281
▁bon	-9.28135
▁40	-9.28164
▁vekt	-9.28197
▁pinyin	-9.28293
ater	-9.28296
ita	-9.28349
▁herre	-9.28473
burg	-9.28842
▁son	-9.28899
ål	-9.28919
▁kra	-9.29063
heter	-9.29072
ap	-9.29155
dra	-9.29293
ikt	-9.29332
lis	-9.2942
rin	-9.29444
▁betydelig	-9.29556
▁jon	-9.29569
▁1960	-9.29569
inne	-9.29572
tus	-9.29573
port	-9.29733
gar	-9.2976
▁berlin	-9.29813
▁kyst	-9.29828
▁tegn	-9.29841
øl	-9.29992
▁ul	-9.30072
▁minst	-9.30101
▁kjøp	-9.30122
way	-9.30156
▁sølv	-9.30185
▁1985	-9.30204
▁topp	-9.30262
▁200	-9.30404
▁arkitekt	-9.30456
▁motstand	-9.30458
ari	-9.30459
sak	-9.30518
▁sogn	-9.30557
▁spesial	-9.30631
ze	-9.30701
samling	-9.30752
▁mc	-9.30762
▁sha	-9.30784
▁dy	-9.30807
▁studert	-9.30843
▁standard	-9.30845
▁gri	-9.30883
▁kul	-9.30971
▁fin	-9.31011
▁fjorden	-9.31056
▁dal	-9.31119
▁opera	-9.31129
▁møte	-9.3114
▁afrika	-9.3114
sjonen	-9.31148
▁meste	-9.31155
▁maria	-9.3125
ferd	-9.3134
etter	-9.31352
▁sub	-9.31362
▁hånd	-9.31374
lia	-9.31418
▁university	-9.31481
▁sø	-9.31484
age	-9.31513
▁can	-9.31731
gan	-9.32029
▁ci	-9.32035
▁brasil	-9.32131
▁blod	-9.32199
▁professor	-9.32254
ringer	-9.32257
senter	-9.3235
lys	-9.32358
▁klar	-9.32502
ider	-9.32542
▁ett	-9.32756
▁forsøk	-9.3287
pris	-9.32943
▁start	-9.33094
▁grev	-9.33139
blad	-9.33217
▁teater	-9.33306
▁seil	-9.33314
▁stjerne	-9.33335
liv	-9.33387
nivå	-9.33461
▁viktige	-9.33473
▁ven	-9.33536
side	-9.33556
▁selskap	-9.33564
▁dia	-9.33668
styre	-9.33679
ved	-9.33694
▁trans	-9.33718
▁skje	-9.33734
▁stasjon	-9.33747
og	-9.33749
▁stiftet	-9.33772
kraft	-9.33779
▁grå	-9.33849
our	-9.33866
▁løp	-9.33916
året	-9.33929
▁nev	-9.3394
▁trondheim	-9.34108
▁olje	-9.3417
▁stu	-9.34543
pro	-9.34555
▁sh	-9.34642
▁af	-9.34681
▁xi	-9.34763
▁2014	-9.34767
ød	-9.34791
▁james	-9.348
▁sørøst	-9.34801
tro	-9.34929
▁grønn	-9.34993
ologisk	-9.34997
▁ger	-9.35027
gra	-9.35147
gren	-9.35225
systemet	-9.35263
spi	-9.35537
▁gass	-9.35639
øn	-9.3577
sjoner	-9.35885
▁jern	-9.35914
▁sc	-9.35931
▁ansvar	-9.35971
▁eid	-9.36095
▁1982	-9.36121
▁henhold	-9.36157
▁ordet	-9.36205
olog	-9.36218
▁hvordan	-9.36221
forsker	-9.36355
▁nordlige	-9.36475
stilt	-9.36487
65	-9.3665
midler	-9.36755
е	-9.36786
▁1983	-9.36794
▁møtte	-9.36794
akademi	-9.36795
▁1993	-9.36801
▁hevde	-9.36806
▁prosent	-9.3682
▁utvikling	-9.36882
ano	-9.37012
ich	-9.37072
▁boken	-9.37133
har	-9.37203
▁lei	-9.37221
▁ledelse	-9.37313
navn	-9.3736
▁bank	-9.3744
86	-9.3769
85	-9.37738
▁kle	-9.3779
▁grand	-9.37792
▁studie	-9.37839
ire	-9.37847
▁pat	-9.37856
linje	-9.37966
ani	-9.38087
▁super	-9.38093
ette	-9.38095
ð	-9.38169
▁steder	-9.3817
shire	-9.38177
▁1991	-9.38178
▁1900	-9.38205
▁spi	-9.38213
bryte	-9.38237
▁slike	-9.3828
▁våpen	-9.38433
medalje	-9.38463
▁miste	-9.38552
▁mester	-9.38563
produksjon	-9.38581
▁mel	-9.38588
▁hall	-9.38649
▁høsten	-9.38689
▁skjer	-9.3869
▁virke	-9.38713
nor	-9.38745
▁eldste	-9.38864
▁1945	-9.38871
standen	-9.3891
▁alp	-9.38911
▁iii	-9.38932
▁dis	-9.39034
▁figur	-9.39117
alt	-9.39128
tive	-9.39189
▁sy	-9.39288
▁unge	-9.39312
р	-9.39422
▁avdeling	-9.39499
deling	-9.39519
▁island	-9.39538
▁stockholm	-9.39563
▁gode	-9.39696
kin	-9.39713
▁david	-9.39719
▁rus	-9.3977
▁latin	-9.3981
▁lagt	-9.40014
fu	-9.40039
▁samling	-9.40054
▁høre	-9.40056
itz	-9.40066
▁følger	-9.40131
tale	-9.4017
▁tung	-9.40199
fører	-9.4022
▁arrangert	-9.40267
▁symbol	-9.40267
organ	-9.40273
▁1972	-9.4028
▁merke	-9.40378
▁not	-9.40454
▁stod	-9.40459
▁ii	-9.40575
▁oppdaget	-9.40619
elva	-9.40688
valg	-9.40739
▁thor	-9.40825
iserte	-9.40949
в	-9.40968
▁vår	-9.41053
▁felt	-9.41069
▁politi	-9.41113
våg	-9.41146
▁svart	-9.41186
▁dom	-9.413
37	-9.41575
▁sommeren	-9.41667
messig	-9.41683
л	-9.41691
▁skatt	-9.41719
▁nordvest	-9.41732
▁renner	-9.41831
▁egg	-9.41863
kast	-9.41887
▁fange	-9.4193
navnet	-9.41972
▁skrive	-9.41993
loven	-9.42032
▁1800	-9.42046
arbeid	-9.42073
▁divisjon	-9.42134
▁ac	-9.42152
89	-9.42165
lø	-9.42417
42	-9.42478
▁phil	-9.42548
▁endt	-9.42609
▁sen	-9.42667
bane	-9.42668
▁nummer	-9.42695
ild	-9.42811
sis	-9.42824
stro	-9.4286
▁grensen	-9.4301
▁totalt	-9.43067
▁dyp	-9.43125
▁1964	-9.43148
▁sammenheng	-9.43207
▁fulgte	-9.43329
▁rot	-9.43358
▁nrk	-9.43432
▁bygningen	-9.43474
stan	-9.4352
38	-9.43546
vende	-9.4355
▁idretts	-9.43556
regionen	-9.43668
▁personlig	-9.4369
▁vanskelig	-9.43868
▁svarte	-9.43869
▁1979	-9.43876
fl	-9.43909
vid	-9.44019
▁lærer	-9.44025
verket	-9.44069
▁tross	-9.44157
gne	-9.44177
bru	-9.44369
▁war	-9.44404
▁distrikt	-9.44451
▁kanal	-9.44476
fon	-9.44494
▁voksne	-9.446
▁århundre	-9.446
▁2016	-9.44621
▁len	-9.44672
▁henrik	-9.44733
64	-9.44758
▁verdi	-9.44786
39	-9.44889
▁bruke	-9.44988
felt	-9.45047
▁musiker	-9.45073
▁hit	-9.45083
▁område	-9.45103
mul	-9.45105
▁områder	-9.45125
▁slått	-9.45238
▁2015	-9.4536
sberg	-9.45361
72	-9.45388
▁søster	-9.45388
tog	-9.45451
områder	-9.4547
▁sentrale	-9.45495
▁bilde	-9.45613
▁arten	-9.45669
▁transport	-9.45786
▁hår	-9.45802
menn	-9.45846
▁sir	-9.4586
▁uni	-9.45882
ms	-9.45954
▁sn	-9.45994
bus	-9.45995
▁enten	-9.46052
▁wal	-9.46086
▁komponist	-9.46087
▁københavn	-9.46087
▁vokste	-9.46087
▁dårlig	-9.46088
▁hvilke	-9.46088
▁begynnelsen	-9.46094
▁smal	-9.46103
▁1940	-9.46104
▁poeng	-9.46105
▁bj	-9.46189
▁hor	-9.46424
▁høyde	-9.46444
70	-9.46479
▁gård	-9.46599
▁data	-9.46651
strøm	-9.46692
▁operasjon	-9.46735
▁tapt	-9.46775
▁los	-9.46829
▁kardinal	-9.46839
▁1981	-9.46848
▁1986	-9.46854
▁engelske	-9.47009
▁viste	-9.47054
10	-9.4707
▁union	-9.4707
▁finland	-9.47117
rum	-9.47172
▁shi	-9.47185
ving	-9.47299
▁vold	-9.47396
▁india	-9.47411
▁tap	-9.47449
▁knyttet	-9.47454
▁hovedstaden	-9.47504
fjell	-9.47522
gått	-9.47534
▁emb	-9.47535
ola	-9.47578
havet	-9.4759
▁stavanger	-9.47608
ix	-9.47692
▁sky	-9.47785
▁redaktør	-9.48015
▁skipet	-9.48105
gle	-9.48151
▁roma	-9.48218
▁anne	-9.48283
▁relativ	-9.4836
▁1978	-9.48371
è	-9.48413
ther	-9.48431
sal	-9.48458
▁zh	-9.48478
gh	-9.48538
▁oppført	-9.48562
▁sommerfugl	-9.48616
▁beskrev	-9.48656
▁karriere	-9.48679
holm	-9.48712
▁forfatteren	-9.48836
kle	-9.48979
▁tett	-9.48986
eier	-9.49001
▁kjerne	-9.49018
▁region	-9.49071
▁veg	-9.49071
▁befolkning	-9.49128
▁national	-9.49129
▁dager	-9.49155
▁enhet	-9.49518
▁areal	-9.49556
67	-9.49591
▁løs	-9.49672
▁museum	-9.4978
gjorde	-9.49903
▁religiøs	-9.49904
▁hverandre	-9.49904
magasin	-9.49912
▁valgte	-9.50023
▁dro	-9.50032
asjoner	-9.50072
fø	-9.50093
of	-9.50178
▁johannes	-9.50185
▁sørlige	-9.50195
▁dan	-9.5024
ral	-9.50272
▁viss	-9.50291
▁seier	-9.50382
▁tyn	-9.50414
stikk	-9.50544
linjen	-9.50563
alder	-9.50647
folkerepublikken	-9.50685
bilde	-9.50715
▁kap	-9.50777
lus	-9.50779
ming	-9.50807
ins	-9.50807
▁gru	-9.5089
▁bind	-9.50908
tjeneste	-9.50915
cy	-9.50968
▁gården	-9.50991
mus	-9.51106
▁hær	-9.51132
▁ball	-9.5115
▁borger	-9.51249
▁flat	-9.51298
▁cm	-9.51319
▁ing	-9.51411
▁international	-9.51473
▁sovjetunionen	-9.51473
▁informasjon	-9.51473
▁fjerde	-9.51473
▁gren	-9.51478
▁borg	-9.51484
▁prøve	-9.51535
▁profesjonell	-9.51538
ativ	-9.51622
▁direktør	-9.51651
ark	-9.51682
▁tradisjon	-9.51747
▁utført	-9.51754
park	-9.51786
48	-9.51817
▁pass	-9.51843
musikk	-9.51919
▁lind	-9.5196
▁ep	-9.51976
minister	-9.52046
▁klo	-9.52065
asjonen	-9.5208
lagt	-9.5208
▁drift	-9.52104
rus	-9.52152
nu	-9.52203
▁skape	-9.52261
virkning	-9.52308
leng	-9.52358
▁retning	-9.52358
▁tha	-9.52425
▁vis	-9.52485
jev	-9.52501
6	-9.52637
▁artist	-9.52669
▁bern	-9.52712
▁syv	-9.52822
▁alder	-9.52919
▁uavhengig	-9.52934
grunn	-9.52976
heng	-9.5301
▁suksess	-9.53066
ance	-9.53067
▁real	-9.53071
▁kraftverk	-9.53084
▁nåværende	-9.53112
valget	-9.53132
▁city	-9.53162
▁ang	-9.53249
▁mulighet	-9.53267
▁kontakt	-9.53321
▁finans	-9.53343
voll	-9.53355
under	-9.53367
kov	-9.53368
▁litteratur	-9.53427
▁grense	-9.53455
▁skapt	-9.53512
▁løv	-9.53524
▁maskin	-9.53557
▁slå	-9.53614
▁kors	-9.53779
hn	-9.53841
plat	-9.53844
▁sag	-9.53853
▁1936	-9.53882
▁1973	-9.53885
▁1967	-9.53887
▁egentlig	-9.53894
▁sørvest	-9.53905
▁lengde	-9.53908
▁drama	-9.53939
▁størrelse	-9.54001
▁krav	-9.54158
▁ledd	-9.5419
kka	-9.54226
▁finne	-9.54276
▁hundre	-9.54285
▁type	-9.54354
68	-9.54399
▁george	-9.54408
▁karakter	-9.54513
yk	-9.54639
vitenskap	-9.54677
bygning	-9.54684
88	-9.54686
▁canada	-9.54695
▁spill	-9.54713
▁fremdeles	-9.54716
▁kamper	-9.54762
▁lære	-9.54827
▁journalist	-9.54833
▁resten	-9.54859
▁fer	-9.54883
▁produkt	-9.54913
arter	-9.54929
gata	-9.54951
elige	-9.54967
▁munn	-9.55003
▁asia	-9.55096
▁stav	-9.55101
▁effekt	-9.55235
ib	-9.55241
hal	-9.5529
▁hei	-9.55298
ova	-9.5532
▁drev	-9.5533
▁sel	-9.55423
▁nærings	-9.55429
▁sjef	-9.55433
▁daglig	-9.55436
lla	-9.55448
nett	-9.55476
riket	-9.55491
▁heller	-9.55636
misjon	-9.55639
▁ungdoms	-9.55652
▁lenger	-9.5581
mand	-9.55833
▁regn	-9.55889
62	-9.55892
▁ek	-9.55934
58	-9.55989
▁ob	-9.56016
ritt	-9.56093
gjort	-9.56266
last	-9.56316
▁retts	-9.56326
styrke	-9.56331
▁sannsynlig	-9.56332
▁louis	-9.56332
▁dronning	-9.56336
▁hell	-9.56382
▁høye	-9.56391
▁flo	-9.56391
ction	-9.56433
▁scene	-9.56435
▁skips	-9.56504
▁virksomhet	-9.56534
▁høyt	-9.56598
cc	-9.56614
▁nu	-9.56643
▁est	-9.56687
▁høyere	-9.5673
47	-9.56779
ori	-9.56783
lær	-9.56914
▁tettstedet	-9.56948
▁drive	-9.56998
▁vas	-9.57025
iz	-9.5706
▁amerika	-9.57107
▁jobb	-9.57158
rich	-9.57168
▁klasse	-9.57172
▁stadig	-9.57218
▁prisen	-9.57259
99	-9.57344
▁fører	-9.57365
▁hest	-9.57381
fang	-9.57396
84	-9.57522
▁vit	-9.57533
▁europeiske	-9.57551
get	-9.57581
▁raskt	-9.57593
▁lund	-9.57653
▁bay	-9.57676
▁sterk	-9.57706
dagen	-9.57734
mod	-9.57793
▁fla	-9.57795
▁nasjonale	-9.57842
▁tele	-9.57847
▁dyre	-9.57856
▁old	-9.5791
▁kol	-9.57949
▁lær	-9.57965
▁eg	-9.58067
▁mengde	-9.58086
vig	-9.58096
▁lan	-9.58118
forbund	-9.58139
▁fv	-9.58196
slekt	-9.58207
▁forsknings	-9.5822
▁nabo	-9.58356
▁delvis	-9.58434
▁hvite	-9.58476
abel	-9.58504
▁hæren	-9.58574
▁utvikle	-9.58598
▁lau	-9.58601
ledes	-9.58685
ney	-9.58762
▁handling	-9.58771
lek	-9.58778
à	-9.58853
ugh	-9.58854
▁finalen	-9.58869
fart	-9.58881
▁nevnt	-9.58882
kjede	-9.5892
the	-9.58938
▁kreve	-9.58945
▁wo	-9.5898
klubb	-9.59065
▁militære	-9.59074
que	-9.59173
▁bøker	-9.59231
▁hovedstad	-9.59245
old	-9.59484
▁lø	-9.59557
▁vestlig	-9.59583
▁lenge	-9.59631
stor	-9.59696
▁1975	-9.59719
▁lengre	-9.59734
08	-9.59792
▁feil	-9.59972
▁tusen	-9.60025
▁middel	-9.60157
gården	-9.60159
▁modell	-9.60222
gift	-9.60239
▁ana	-9.60285
metode	-9.60441
▁kraftig	-9.60494
▁beskytte	-9.6051
pet	-9.60564
▁world	-9.6057
▁typisk	-9.60572
▁1968	-9.60585
▁black	-9.60624
▁styrke	-9.60889
▁ref	-9.60952
don	-9.61023
hø	-9.61111
▁røde	-9.6114
zz	-9.61182
52	-9.61324
▁hopp	-9.61396
▁ordenen	-9.61402
ú	-9.61439
▁publisert	-9.61439
▁richard	-9.6144
▁tydelig	-9.61441
▁tilfelle	-9.61454
▁slekten	-9.61536
oli	-9.61545
▁sende	-9.61581
saker	-9.61629
▁sports	-9.61647
ial	-9.61653
ama	-9.61663
▁ram	-9.61685
▁koloni	-9.61698
mur	-9.61758
▁utviklingen	-9.61774
▁grenser	-9.61777
bø	-9.61846
▁rike	-9.61853
dor	-9.61881
virke	-9.61919
kh	-9.61947
▁gall	-9.61988
5	-9.61994
▁stille	-9.62007
▁kost	-9.62021
korps	-9.62024
▁heter	-9.62031
▁harald	-9.62135
▁80	-9.62163
▁økonomiske	-9.6218
▁øke	-9.62201
aktig	-9.62263
▁australia	-9.62317
▁etterhvert	-9.62317
▁ken	-9.62329
▁strand	-9.62354
▁sivil	-9.62401
▁forsvar	-9.62453
▁samfunns	-9.62466
dals	-9.62489
▁innført	-9.62524
▁regjering	-9.62651
hel	-9.62688
76	-9.62813
mund	-9.6287
delse	-9.62884
lling	-9.62925
handling	-9.62935
▁sko	-9.63043
▁samlet	-9.63051
▁trøndelag	-9.63201
▁1946	-9.63214
▁statsminister	-9.63218
▁altså	-9.63228
sport	-9.63269
▁kanon	-9.63366
▁win	-9.634
fal	-9.63405
▁plat	-9.63468
▁leve	-9.63483
▁oftest	-9.63501
▁beskrive	-9.63508
▁cu	-9.6356
vatnet	-9.63571
▁mad	-9.63692
▁bomb	-9.63738
skolen	-9.63754
▁organisasjonen	-9.63781
ij	-9.63826
▁hom	-9.63831
▁hodet	-9.63837
ön	-9.63908
bor	-9.64009
virket	-9.64039
▁ytterligere	-9.64094
▁michael	-9.64094
▁bispedømme	-9.641
▁1977	-9.64106
▁1974	-9.64108
▁1948	-9.6411
ledning	-9.64114
▁1930	-9.64116
▁jobbe	-9.64183
74	-9.64186
▁katolske	-9.64202
rup	-9.64235
▁she	-9.64235
distrikt	-9.64246
sign	-9.64318
oll	-9.64381
▁endret	-9.64426
▁formel	-9.64457
▁cell	-9.64674
ansk	-9.64756
mil	-9.64767
▁kir	-9.64845
▁helge	-9.64846
stoff	-9.64914
ien	-9.64986
▁artene	-9.64986
vogn	-9.64992
sekretær	-9.64995
▁nærmest	-9.64997
▁sikre	-9.65015
05	-9.65016
▁1950	-9.65025
▁hud	-9.65029
▁oppnå	-9.65058
▁brann	-9.65069
▁300	-9.65085
59	-9.65103
full	-9.65117
▁hjelpe	-9.65122
vesen	-9.65169
periode	-9.65172
▁hed	-9.65226
▁bol	-9.65264
▁frank	-9.65332
kos	-9.65475
▁90	-9.65545
kirke	-9.65614
▁adel	-9.6562
▁ønsket	-9.65679
▁livet	-9.65692
ctor	-9.65704
▁gjelder	-9.65782
fugl	-9.65803
▁japansk	-9.65804
▁sten	-9.6582
▁administrativ	-9.65904
teknikk	-9.65906
▁sund	-9.65917
▁1969	-9.65918
▁vik	-9.65921
▁delta	-9.65937
▁us	-9.65941
bia	-9.65981
▁ask	-9.65987
▁knut	-9.66016
flåte	-9.66027
▁fal	-9.66064
69	-9.66081
ball	-9.66107
▁innehold	-9.66189
▁sesong	-9.66218
57	-9.66227
ås	-9.66229
18	-9.66231
▁jens	-9.66232
evne	-9.66272
så	-9.66344
87	-9.66349
▁mid	-9.66395
gal	-9.66452
▁tonn	-9.66487
▁anders	-9.66532
▁kh	-9.66535
▁che	-9.66559
eiendom	-9.66565
▁privat	-9.666
cia	-9.66623
stid	-9.66661
▁total	-9.6672
▁cup	-9.66746
78	-9.66773
73	-9.66782
š	-9.66822
т	-9.66822
▁skjedde	-9.66844
▁bronse	-9.66845
▁time	-9.66926
senteret	-9.66937
▁passer	-9.66938
formet	-9.66959
н	-9.66966
din	-9.66989
fil	-9.67041
møte	-9.67059
føring	-9.67117
rådet	-9.67127
▁hoff	-9.67128
stander	-9.6714
▁tog	-9.67181
foreningen	-9.67298
▁nivå	-9.673
fulle	-9.6735
▁spørsmål	-9.67361
▁tanke	-9.67377
▁tids	-9.6738
▁elv	-9.67407
▁het	-9.67417
spor	-9.67441
▁nederland	-9.67472
▁reg	-9.67485
▁historien	-9.67486
79	-9.67521
▁opphav	-9.67577
▁gje	-9.67579
56	-9.67623
kvart	-9.67689
▁kjempe	-9.67749
ept	-9.67766
▁saint	-9.67772
▁stammer	-9.67843
▁fylkes	-9.67852
tic	-9.67954
kilden	-9.67983
▁ytre	-9.6799
zhou	-9.68003
▁forsvars	-9.68015
visning	-9.68018
▁spesiell	-9.68032
▁faren	-9.68048
▁fyr	-9.68052
▁forskning	-9.68108
ordenen	-9.68113
▁anlegget	-9.68323
drift	-9.68364
▁temperatur	-9.68372
▁femte	-9.68382
▁grupper	-9.68435
▁bolig	-9.68439
▁aust	-9.68466
▁vanlige	-9.68531
▁løper	-9.68617
▁plassert	-9.68631
▁tilsvarende	-9.68682
løse	-9.68719
▁fotballspiller	-9.68719
sler	-9.68805
▁sju	-9.68822
▁georg	-9.68844
pel	-9.68879
krigen	-9.68897
▁spre	-9.689
band	-9.68902
▁festival	-9.68911
▁regel	-9.68948
▁ære	-9.68977
án	-9.69034
▁salt	-9.69037
ub	-9.69056
▁hill	-9.69146
▁klima	-9.69173
▁klarte	-9.69251
▁aktivitet	-9.69334
orm	-9.69344
lokk	-9.69396
arm	-9.69561
▁poly	-9.69603
▁tilgjengelig	-9.69626
▁ekteskap	-9.69637
▁soldater	-9.69641
▁musikkalbum	-9.69649
▁ung	-9.69708
organisasjon	-9.69709
▁gjennomført	-9.69734
▁tegnet	-9.69818
trafikk	-9.69867
▁vind	-9.69885
aksjon	-9.69948
▁teknisk	-9.69987
sar	-9.70002
▁kast	-9.7004
▁mørk	-9.70077
▁70	-9.70082
well	-9.70127
▁mørke	-9.70131
ula	-9.70261
▁avisen	-9.70263
▁begynner	-9.7031
stedet	-9.70356
▁bad	-9.70389
▁marine	-9.70547
43	-9.70548
▁publikum	-9.70578
▁arabisk	-9.70579
▁royal	-9.7058
▁1976	-9.70593
▁bevart	-9.70606
▁bygde	-9.70622
▁trafikk	-9.70637
▁havet	-9.70645
enberg	-9.70661
▁glass	-9.70675
▁produsent	-9.70714
lighet	-9.7072
▁jakt	-9.70817
▁representerer	-9.70832
▁forsøkt	-9.70902
▁melodi	-9.70929
▁viking	-9.70947
▁sort	-9.70962
▁livs	-9.70967
с	-9.70977
kop	-9.71003
▁avis	-9.71021
▁bred	-9.71022
▁atom	-9.71049
▁tema	-9.71097
▁heng	-9.71198
▁teksten	-9.71201
▁romerske	-9.71231
▁sau	-9.71258
▁kart	-9.71356
▁formann	-9.71372
▁solo	-9.71406
ografi	-9.71454
▁passasjer	-9.7154
▁1962	-9.71556
ão	-9.71557
▁charles	-9.71568
▁nils	-9.71577
lund	-9.71678
▁markeds	-9.71714
▁slott	-9.71747
▁rute	-9.71864
tek	-9.71935
ob	-9.71944
plassen	-9.7199
▁politikk	-9.72043
▁dato	-9.72145
▁ph	-9.72214
ish	-9.72241
▁johann	-9.72266
vekt	-9.72386
▁selve	-9.72467
plasser	-9.72482
▁opprinnelse	-9.7251
▁øvre	-9.72521
▁lansert	-9.72538
46	-9.72584
jiang	-9.72608
shi	-9.72635
▁anna	-9.72691
hav	-9.72791
▁måneder	-9.72813
▁terr	-9.72839
▁sim	-9.72847
▁maler	-9.72939
az	-9.72978
▁danse	-9.73069
san	-9.73117
pass	-9.73183
komst	-9.73216
oni	-9.73224
▁foss	-9.73287
▁metall	-9.73322
ledende	-9.73347
▁vokal	-9.73374
▁rang	-9.73374
▁elve	-9.73392
▁mente	-9.73399
▁alternativ	-9.73491
▁spania	-9.73494
▁hertug	-9.73495
▁1971	-9.73504
▁1952	-9.73507
▁1965	-9.73511
▁2017	-9.73514
▁ordfører	-9.73515
brun	-9.73594
▁riksvei	-9.73626
92	-9.73628
97	-9.73711
▁undersøkelse	-9.73768
90	-9.73785
strand	-9.73789
kommune	-9.738
hjem	-9.73818
▁studio	-9.73829
fin	-9.73845
▁up	-9.73853
▁air	-9.73872
lei	-9.73934
▁kha	-9.73985
▁horn	-9.74059
eide	-9.7408
ram	-9.74111
gler	-9.74132
▁cap	-9.74143
▁posisjon	-9.74254
25	-9.7434
▁single	-9.74378
19	-9.74473
▁etterfulgt	-9.74481
▁objekt	-9.74482
▁bakgrunn	-9.74525
endring	-9.74577
sburg	-9.7459
▁arve	-9.74621
ulykke	-9.74721
▁styrker	-9.74735
zo	-9.74747
▁mak	-9.74761
▁toppen	-9.74789
pan	-9.74817
hall	-9.74819
▁begrepet	-9.7489
mesterskapet	-9.74893
▁fro	-9.74922
nik	-9.74965
▁ris	-9.74995
bedrift	-9.75
▁king	-9.75095
▁domin	-9.75146
▁nådd	-9.75152
▁fugle	-9.75207
øst	-9.75223
▁die	-9.7526
▁vitenskap	-9.75267
trolig	-9.75332
▁etablerte	-9.75386
▁ok	-9.75472
α	-9.75481
▁elektrisk	-9.75481
▁utdannet	-9.75481
▁united	-9.75483
▁1963	-9.75494
▁front	-9.75496
▁1920	-9.75505
▁blue	-9.75506
▁distriktet	-9.75514
▁hente	-9.75572
med	-9.7558
parti	-9.75583
mid	-9.75626
07	-9.75687
▁oppgave	-9.75728
▁holder	-9.75744
▁will	-9.75798
gate	-9.75827
▁spar	-9.75831
▁ramme	-9.75841
▁stamme	-9.75972
▁oversatt	-9.75983
kler	-9.76083
gruppe	-9.76123
▁salg	-9.76253
▁univers	-9.76462
▁california	-9.76491
institusjon	-9.76491
▁fokus	-9.76494
▁kilde	-9.76498
▁1949	-9.76504
▁1959	-9.76507
farge	-9.76516
▁rein	-9.76531
▁jøde	-9.76565
▁alltid	-9.76569
▁korea	-9.76571
▁sur	-9.76578
▁materiale	-9.76653
gav	-9.76657
low	-9.7672
▁bel	-9.76735
▁økonomisk	-9.76807
hund	-9.7686
historie	-9.76868
▁tettsted	-9.7689
ör	-9.76958
▁rik	-9.77023
▁prosjekt	-9.77071
eringen	-9.77104
75	-9.77113
▁styrt	-9.77123
rør	-9.77165
▁ban	-9.77209
▁offisielle	-9.77339
▁fordelt	-9.77394
rop	-9.7748
▁rapport	-9.77511
▁folketelling	-9.77512
▁episode	-9.77513
▁betrakte	-9.77513
▁hjerte	-9.77513
▁hovedrollen	-9.77513
▁østerrike	-9.77514
▁flertall	-9.77521
▁tolv	-9.77521
▁1953	-9.77525
▁1966	-9.77534
field	-9.77596
▁falt	-9.77635
▁inkluderer	-9.77703
▁magne	-9.77725
▁polen	-9.7775
▁listen	-9.77758
▁nr	-9.77782
▁støttet	-9.77784
▁jean	-9.77788
▁fot	-9.77848
▁driver	-9.77891
▁betegne	-9.77945
rød	-9.77953
ér	-9.7796
▁program	-9.77993
▁400	-9.78027
▁israel	-9.78028
▁instrument	-9.78078
▁mas	-9.78105
▁stasjonen	-9.78204
cha	-9.7824
71	-9.78243
▁rollen	-9.78262
programmer	-9.78299
▁klart	-9.78351
▁strid	-9.78352
▁programmet	-9.78363
ora	-9.78456
▁kam	-9.78489
▁åpen	-9.78534
▁innflytelse	-9.78542
▁kategori	-9.78542
▁school	-9.78543
▁lufthavn	-9.78553
▁1956	-9.78558
▁rad	-9.78574
▁35	-9.78664
▁holm	-9.78677
feltet	-9.78699
▁char	-9.7872
▁spiss	-9.78754
dam	-9.78778
grav	-9.78793
▁studier	-9.78808
▁oppdrag	-9.78808
tha	-9.78848
▁haug	-9.78894
ville	-9.78925
brudd	-9.78949
klubben	-9.79029
▁bla	-9.79046
haug	-9.79084
følge	-9.79142
▁hode	-9.79215
vinner	-9.79269
lov	-9.7931
▁republikken	-9.79453
▁fordel	-9.79473
▁lev	-9.79493
▁gitar	-9.79509
skjold	-9.79585
▁snakke	-9.79587
▁benyttes	-9.79643
▁omfattende	-9.79645
▁pra	-9.79787
▁regjerings	-9.79901
▁nederlandsk	-9.79914
▁grunnla	-9.79993
▁landsbyen	-9.80108
▁inter	-9.80182
delen	-9.80183
▁mill	-9.8031
ith	-9.80322
▁vannet	-9.80373
▁lek	-9.8038
▁bit	-9.80382
rolle	-9.80426
▁forsvaret	-9.80489
ben	-9.80532
▁jødisk	-9.80638
▁norrøn	-9.8064
▁element	-9.80643
▁fremme	-9.80693
▁nø	-9.80777
▁bodde	-9.80781
▁ran	-9.80788
▁våren	-9.80792
post	-9.80796
ence	-9.80828
▁flu	-9.80855
91	-9.80929
▁vid	-9.80962
arbeider	-9.80996
81	-9.80997
kro	-9.81019
▁populære	-9.81021
kritiker	-9.81044
lapp	-9.81076
▁byer	-9.81083
24	-9.81101
rick	-9.81124
kaffe	-9.81147
▁frukt	-9.81148
ella	-9.81247
▁metal	-9.81325
ada	-9.81339
feld	-9.81394
esse	-9.81427
qua	-9.81454
▁150	-9.81486
▁polsk	-9.81534
vind	-9.81556
▁jorden	-9.81654
▁religion	-9.81701
▁frederik	-9.81705
▁1954	-9.81713
▁økonomi	-9.8178
▁por	-9.81781
▁hind	-9.81854
▁ya	-9.81872
ida	-9.81882
▁tråd	-9.81894
gy	-9.81951
▁kontor	-9.81953
bare	-9.81987
løst	-9.82021
63	-9.82072
▁ark	-9.821
▁teknologi	-9.82164
▁vær	-9.82188
▁anton	-9.82234
▁cal	-9.82249
▁finsk	-9.82259
trinn	-9.8231
motor	-9.82327
96	-9.82351
sang	-9.82467
▁omtale	-9.82499
led	-9.82545
win	-9.82582
ali	-9.82728
95	-9.8275
grupper	-9.82754
▁original	-9.82773
▁nødvendig	-9.82776
kapasitet	-9.82778
▁1939	-9.82798
wood	-9.82798
alis	-9.82906
▁vers	-9.82916
kammer	-9.82986
▁reform	-9.83002
09	-9.83083
elli	-9.83113
▁indisk	-9.83183
bord	-9.83215
▁jevn	-9.83233
arbeidet	-9.83293
forskning	-9.83293
▁lam	-9.83317
hol	-9.83319
53	-9.83391
oy	-9.83422
▁utover	-9.83473
▁verne	-9.8351
▁nordisk	-9.8353
▁gam	-9.83664
▁test	-9.83825
▁alvorlig	-9.83863
analyse	-9.83871
▁1912	-9.83875
▁1944	-9.83877
▁premier	-9.83879
▁kvinnelig	-9.83896
dialekt	-9.83901
gende	-9.84001
▁tj	-9.84015
rakt	-9.84104
prisen	-9.84109
▁rør	-9.84121
▁jarl	-9.84122
kysten	-9.84204
lon	-9.84244
nom	-9.84319
fjellet	-9.84341
ón	-9.8435
▁spansk	-9.84361
maskin	-9.84392
▁åpning	-9.84414
▁solgte	-9.84439
▁fc	-9.84457
gli	-9.84514
▁sterke	-9.84517
dikt	-9.84533
løs	-9.84564
▁landskapet	-9.84566
77	-9.84634
▁offiser	-9.84634
fabrikk	-9.8464
▁snø	-9.84715
▁elev	-9.84716
▁leir	-9.84759
ity	-9.84762
isten	-9.84839
bul	-9.84935
ł	-9.84962
▁vunnet	-9.84962
▁fungere	-9.8497
▁1943	-9.84978
▁video	-9.84985
▁erobre	-9.84993
▁jordbruk	-9.84999
▁kristen	-9.85043
▁ube	-9.85068
44	-9.85104
49	-9.8516
slaget	-9.8517
demokrat	-9.85218
ppen	-9.85234
▁sul	-9.85251
▁hum	-9.85293
stab	-9.85394
▁regnet	-9.85395
▁hund	-9.85416
15	-9.85538
middel	-9.85542
▁varme	-9.85557
lege	-9.85648
▁overfor	-9.85665
▁larvene	-9.8573
▁bidra	-9.85795
▁valget	-9.85865
▁kristian	-9.85978
▁kroner	-9.8598
▁behandling	-9.85983
▁stoff	-9.86061
ī	-9.86073
▁magnus	-9.86077
▁forteller	-9.86078
▁betegnelsen	-9.86104
▁virkelig	-9.86131
gard	-9.86148
▁albert	-9.86201
▁mw	-9.86207
▁streng	-9.86224
▁blomster	-9.86235
▁gold	-9.86282
▁pin	-9.86306
▁franc	-9.8634
▁yu	-9.86361
dekk	-9.86385
makten	-9.86405
▁status	-9.86421
▁od	-9.86468
▁sum	-9.8649
wald	-9.86507
▁gyl	-9.86592
▁runde	-9.86602
▁solgt	-9.86621
utvikling	-9.86621
▁lyse	-9.86632
konkurranse	-9.86652
dorf	-9.86684
▁historiker	-9.86724
tis	-9.86759
▁stoppe	-9.86889
▁star	-9.86953
ernes	-9.86972
trekk	-9.87073
byrå	-9.87089
▁design	-9.87091
kirken	-9.87121
▁just	-9.87179
▁offisielt	-9.87196
▁tilknytte	-9.87196
▁dollar	-9.87197
▁hurtig	-9.87198
▁klassisk	-9.87198
▁1957	-9.87214
▁sent	-9.87304
▁rygg	-9.87314
▁foruten	-9.87332
▁kjøpte	-9.87346
▁gjenopp	-9.87358
kjær	-9.87393
▁sønnen	-9.8743
▁vitenskapelig	-9.8745
▁pop	-9.87486
stått	-9.87568
▁anta	-9.87577
▁hage	-9.87656
▁irland	-9.87729
album	-9.87794
▁tittel	-9.87818
▁huset	-9.87847
▁områdene	-9.88054
▁euro	-9.88121
illa	-9.88233
▁elektro	-9.88315
▁sykdom	-9.88327
▁wilhelm	-9.88333
▁1961	-9.88333
▁pasient	-9.88333
▁1932	-9.88345
▁college	-9.88348
▁nordland	-9.8849
hode	-9.88529
skriv	-9.88601
wi	-9.8861
▁østlige	-9.88633
▁sier	-9.88681
▁bidrag	-9.88731
▁cy	-9.88762
▁buss	-9.88884
▁utføre	-9.88888
▁insekter	-9.88907
▁tang	-9.88942
▁bord	-9.88944
▁ting	-9.88963
lly	-9.88978
bak	-9.89012
pur	-9.89046
gna	-9.89137
▁fjord	-9.8917
▁gun	-9.89186
forhold	-9.89198
▁thi	-9.89242
▁dokument	-9.89253
▁bølge	-9.89342
▁kari	-9.89376
▁institutt	-9.89406
▁konkurransen	-9.89437
▁eventyr	-9.89482
▁records	-9.89482
▁selvstendig	-9.89482
▁joseph	-9.89482
▁skottland	-9.89482
▁himmel	-9.89483
▁bokstav	-9.89484
▁friidrett	-9.89506
▁jazz	-9.89511
▁omtalt	-9.89518
▁innsjø	-9.8954
▁debutert	-9.8954
deles	-9.89604
▁internasjonal	-9.89613
▁tverr	-9.8962
▁lavere	-9.89724
▁kris	-9.89742
▁fjellet	-9.8975
▁bou	-9.89789
▁sku	-9.89895
▁syr	-9.89964
gaard	-9.90005
▁fabrikk	-9.90081
36	-9.90275
▁åpne	-9.90317
▁epi	-9.90361
▁naturlig	-9.9041
21	-9.90557
▁ishockey	-9.90645
▁utgangspunkt	-9.90645
▁fredrik	-9.9065
▁1924	-9.9066
sfjorden	-9.90699
▁bevis	-9.90705
▁stortings	-9.9073
row	-9.90734
variant	-9.90764
▁banen	-9.90876
▁larven	-9.90913
▁problemer	-9.90922
▁formål	-9.91088
▁nes	-9.91094
lang	-9.91111
▁bane	-9.91133
øyene	-9.91174
▁strekke	-9.91233
▁stilling	-9.91255
▁utvidet	-9.91281
akse	-9.91334
forbindelse	-9.91343
▁andreas	-9.91365
kasse	-9.91375
▁dør	-9.91381
medlem	-9.914
person	-9.9143
▁folket	-9.91432
syre	-9.91523
▁prins	-9.91563
▁kommunene	-9.91683
▁skilt	-9.91728
▁music	-9.91797
▁berømt	-9.91821
▁regissert	-9.91822
▁kristne	-9.91829
▁effektiv	-9.91862
▁straffe	-9.9188
vre	-9.91916
▁filosofi	-9.91936
gjøre	-9.9209
driv	-9.92146
▁odd	-9.92147
28	-9.92204
▁møter	-9.9221
▁arne	-9.92238
▁uke	-9.92259
▁saken	-9.92356
▁flyplass	-9.92385
▁gjer	-9.92388
▁ama	-9.92504
▁dukke	-9.92513
bånd	-9.92552
▁bach	-9.92679
55	-9.92683
▁ce	-9.92721
▁tradisjonelle	-9.92752
▁æ	-9.92772
▁sluttet	-9.92822
▁trener	-9.92823
partiet	-9.9289
д	-9.93012
▁tilhørte	-9.93012
▁1941	-9.93012
▁kunnskap	-9.93014
▁jacob	-9.93014
hørende	-9.93015
▁stadion	-9.93017
▁ridder	-9.93019
▁oversikt	-9.93021
▁hotell	-9.93023
▁1928	-9.93026
▁1958	-9.93031
rettigheter	-9.93048
foss	-9.93054
▁mun	-9.93103
▁pot	-9.93167
54	-9.93178
▁gjeste	-9.93179
▁svak	-9.93195
▁bosatt	-9.93206
0	-9.93247
▁populær	-9.93268
▁brede	-9.93292
rykket	-9.93371
fylt	-9.93471
▁kommunikasjon	-9.93534
▁provins	-9.93573
▁eie	-9.93586
skifte	-9.93657
▁preget	-9.93676
våpen	-9.93756
▁ola	-9.93861
▁økt	-9.93896
▁bibliotek	-9.93899
▁systemet	-9.93947
▁kalte	-9.93955
▁korte	-9.93976
▁south	-9.94014
car	-9.9406
renn	-9.94132
12	-9.94137
▁troll	-9.94139
▁overgang	-9.94157
handel	-9.94162
arrangement	-9.94217
▁redusert	-9.94218
▁fattig	-9.94218
▁stortinget	-9.94221
▁nærmere	-9.94228
▁1955	-9.94231
tatt	-9.94249
▁high	-9.94257
▁ukjent	-9.94277
▁kjenne	-9.94336
▁32	-9.94396
16	-9.94419
▁underlagt	-9.94518
▁overført	-9.94541
▁kull	-9.94582
▁innsjøen	-9.94593
jek	-9.94603
▁athen	-9.94622
▁likhet	-9.94634
▁formen	-9.94659
▁angrepet	-9.94671
plikt	-9.947
tallet	-9.94741
serien	-9.94781
▁33	-9.9485
rev	-9.94859
▁kysten	-9.94915
figur	-9.94998
▁ungdom	-9.95031
bøker	-9.95063
▁wei	-9.9508
nummer	-9.95118
bas	-9.9516
▁hannen	-9.95168
bakken	-9.95182
▁45	-9.95283
trop	-9.95356
slav	-9.954
м	-9.95436
▁beijing	-9.95437
▁primær	-9.95437
▁club	-9.95437
▁brensel	-9.95439
▁sankt	-9.95673
kanten	-9.95716
▁koll	-9.95721
▁skille	-9.95757
▁menighet	-9.95869
▁max	-9.95911
▁ari	-9.95915
▁øverste	-9.95949
▁måned	-9.95953
▁north	-9.95959
▁song	-9.95975
▁masse	-9.96008
ntin	-9.96033
verdig	-9.96054
▁regional	-9.96054
▁kilder	-9.9609
komite	-9.96186
bein	-9.96198
▁avsluttet	-9.96204
▁kommuner	-9.9621
vinger	-9.96212
itu	-9.96221
▁normal	-9.96239
skudd	-9.96248
formede	-9.96272
▁søke	-9.96279
▁overleve	-9.96296
▁kontrakt	-9.96304
▁tau	-9.96316
▁prosjektet	-9.96351
økonom	-9.96386
stripe	-9.96418
▁reiste	-9.9642
▁grunnlegge	-9.96479
▁tårn	-9.9653
35	-9.96556
▁fullstendig	-9.96671
▁sistnevnte	-9.96671
▁skiftet	-9.96696
ico	-9.9671
▁py	-9.96715
▁spenning	-9.96745
rill	-9.96756
▁bydel	-9.96758
▁omfatte	-9.96774
halvøya	-9.96801
litt	-9.96855
▁rask	-9.97016
▁utgave	-9.97063
▁graf	-9.97155
ats	-9.97193
▁maur	-9.97212
▁dynastiet	-9.97254
än	-9.97262
▁stilt	-9.97267
tank	-9.97344
▁kongelige	-9.97355
kunst	-9.97401
bjørn	-9.97475
▁kjøre	-9.97498
samisk	-9.97502
▁oppstå	-9.97503
▁ze	-9.97573
▁fritt	-9.97579
▁midten	-9.97604
▁uttale	-9.9777
▁kode	-9.97879
к	-9.97904
hin	-9.97908
flate	-9.97913
▁deriblant	-9.97921
▁konflikt	-9.97921
▁vietnam	-9.97921
▁oblast	-9.97932
▁sølvmedalje	-9.97937
▁bestemt	-9.97939
11	-9.97991
trukket	-9.98005
▁former	-9.98015
eksamen	-9.98019
▁middelalderen	-9.98032
områdene	-9.98043
▁bosetning	-9.98063
møll	-9.98232
▁typer	-9.98415
▁romanen	-9.98499
▁sider	-9.98506
▁gutte	-9.98562
▁edderkopp	-9.98657
▁vii	-9.98746
17	-9.98772
prosjekt	-9.9879
▁vinner	-9.98856
06	-9.98878
▁auto	-9.98985
gul	-9.99085
▁eva	-9.99091
▁anlegg	-9.99094
somme	-9.99145
klær	-9.99169
▁erkebiskop	-9.99187
▁gjennomsnitt	-9.99187
▁innsats	-9.99194
▁vist	-9.99196
▁bronsemedalje	-9.99198
▁ligne	-9.99253
▁brev	-9.99357
▁kjell	-9.99434
▁kg	-9.99578
▁mobil	-9.99589
▁hellige	-9.99635
▁600	-9.99672
▁fan	-9.99709
▁simon	-9.99713
▁blomst	-9.99761
▁ånd	-9.99767
gue	-9.99784
▁endre	-9.99833
▁blanding	-9.99876
▁problem	-10
▁motiv	-10.0011
følgende	-10.0018
skyting	-10.0029
▁sovjetisk	-10.0034
▁cam	-10.0038
▁sti	-10.0041
▁alkohol	-10.0047
▁konservativ	-10.0047
▁kjærlighet	-10.0047
▁forekommer	-10.0047
▁yngre	-10.0047
▁tunnel	-10.0047
▁handler	-10.0049
▁1938	-10.0049
▁øyene	-10.0051
▁frø	-10.0057
▁nevnes	-10.0059
▁henry	-10.0064
gikk	-10.0065
▁undervisning	-10.0073
▁grunnlegger	-10.0081
klassen	-10.0081
▁bygning	-10.0085
▁spise	-10.0093
▁landsby	-10.0098
deler	-10.0109
▁konkurranse	-10.0114
▁varierer	-10.0116
▁rå	-10.0117
vest	-10.0125
jö	-10.0139
forfatter	-10.014
produkt	-10.0142
▁sats	-10.0143
▁sær	-10.0149
hag	-10.0151
sjø	-10.0155
▁linjen	-10.0159
▁riket	-10.0159
▁lee	-10.0162
kraftverk	-10.0162
45	-10.0163
mond	-10.0164
▁fyrst	-10.0165
mennene	-10.0167
▁presse	-10.0177
▁eksempler	-10.0177
▁fengsel	-10.0177
▁fløy	-10.0177
▁bidro	-10.018
▁skotsk	-10.018
▁län	-10.0182
▁nærheten	-10.0185
hop	-10.0194
▁liberal	-10.0197
ahl	-10.0205
vald	-10.0206
tom	-10.0208
▁cur	-10.022
▁bob	-10.0233
▁dog	-10.0244
▁dor	-10.0249
vold	-10.0251
▁plu	-10.0252
▁salme	-10.0253
steder	-10.0261
com	-10.0263
samfunn	-10.0273
▁bevegelse	-10.0273
▁human	-10.0275
væ	-10.0282
ordning	-10.0286
▁behandle	-10.0291
▁hunnen	-10.0294
▁zo	-10.0306
▁1951	-10.0308
▁major	-10.0309
▁brøt	-10.0309
▁sveits	-10.0312
faktor	-10.0312
▁bunn	-10.0313
▁ansatt	-10.0313
▁uttalt	-10.0316
▁administrasjons	-10.032
skipet	-10.0323
dyktig	-10.0328
▁1500	-10.0333
ping	-10.0339
▁blei	-10.0342
én	-10.0343
▁kåre	-10.0349
▁normalt	-10.0361
program	-10.0364
▁gruppa	-10.0364
▁timer	-10.0369
▁vakt	-10.0371
yang	-10.0375
▁myr	-10.0377
▁funn	-10.0379
▁rh	-10.038
▁levert	-10.0392
▁forvingen	-10.0393
32	-10.0393
▁ali	-10.0397
legging	-10.0399
cca	-10.0405
festival	-10.0409
virksomhet	-10.0409
▁esp	-10.0415
▁kreft	-10.0426
▁verket	-10.0432
▁løsning	-10.0436
ary	-10.0437
▁mexico	-10.0442
▁utbredt	-10.0442
basert	-10.0442
▁fysisk	-10.0442
▁1934	-10.0443
▁1919	-10.0444
▁1947	-10.0444
▁mikro	-10.0446
▁final	-10.0448
▁aksje	-10.0461
▁føde	-10.0462
▁bestemme	-10.0471
▁kraftige	-10.0474
skij	-10.0476
▁plassering	-10.0483
▁gui	-10.0484
▁økte	-10.0489
▁intern	-10.0492
▁master	-10.0495
enburg	-10.0496
ux	-10.051
▁bydelen	-10.0526
dro	-10.053
▁skriver	-10.0533
▁gla	-10.0543
▁vinteren	-10.0546
direktør	-10.0546
▁landskap	-10.0549
▁kandidat	-10.055
syke	-10.0551
▁bære	-10.0554
sammen	-10.0558
▁introdusert	-10.0577
▁service	-10.0577
kompleks	-10.0577
▁behov	-10.0577
▁spredt	-10.0579
▁lengst	-10.058
former	-10.0583
▁award	-10.0587
løpet	-10.0588
▁ansatte	-10.0597
jan	-10.0601
▁avhengig	-10.0606
▁lyn	-10.0606
▁led	-10.0607
▁organisert	-10.0608
▁unntak	-10.0609
▁amt	-10.0609
▁cre	-10.0625
▁endelig	-10.0641
▁flagg	-10.0649
27	-10.0652
▁long	-10.0656
anda	-10.0656
▁minutter	-10.0658
▁politiet	-10.066
▁oss	-10.0663
▁struktur	-10.0664
▁buk	-10.0671
▁stand	-10.0675
▁latinsk	-10.0678
▁rekord	-10.068
93	-10.068
atet	-10.0696
▁harry	-10.0699
▁organisasjon	-10.0706
22	-10.0708
▁installert	-10.0714
▁antagelig	-10.0714
▁inngår	-10.0714
▁definert	-10.0714
▁hustru	-10.0714
▁brødrene	-10.0714
serie	-10.0715
▁1917	-10.0715
▁protest	-10.0717
▁sykehus	-10.0717
▁bredt	-10.0721
▁turneringen	-10.0721
▁øvrige	-10.0727
ual	-10.0731
▁eksempelvis	-10.0736
▁brenn	-10.0738
▁trond	-10.0744
▁butikk	-10.0745
▁ekstra	-10.0766
▁que	-10.077
▁larve	-10.0775
asse	-10.0783
▁innhold	-10.0784
▁villa	-10.0791
98	-10.08
▁bakken	-10.081
▁may	-10.0811
▁finske	-10.0818
▁produserer	-10.0818
▁tsj	-10.0823
▁dj	-10.0834
ical	-10.0836
▁fartøy	-10.0845
▁gruve	-10.0851
▁fødsel	-10.0852
▁american	-10.0853
▁guvernør	-10.0853
▁inspirert	-10.0853
▁league	-10.0853
▁registrert	-10.0853
▁kombinert	-10.0853
▁oscar	-10.0855
▁michel	-10.0857
▁angeles	-10.0858
▁islam	-10.0862
▁sikkerhets	-10.0864
▁bibel	-10.0864
▁terror	-10.0866
formen	-10.0868
▁kalle	-10.087
lam	-10.0872
23	-10.0873
▁agder	-10.0876
▁kjemi	-10.0877
cal	-10.0878
▁selge	-10.0878
▁kommunal	-10.088
distanse	-10.0889
▁ull	-10.0901
▁skudd	-10.0906
istene	-10.0908
▁hammer	-10.0914
▁fotograf	-10.0918
▁parlament	-10.092
▁brand	-10.0921
bol	-10.0922
▁bilder	-10.0926
bær	-10.0927
▁utløp	-10.0927
ische	-10.0931
▁representant	-10.0937
forbundet	-10.095
▁34	-10.0952
▁jag	-10.0958
▁lignende	-10.0959
▁moren	-10.0961
rib	-10.0961
miljø	-10.0969
▁jakob	-10.0994
▁gustav	-10.0994
▁ungarn	-10.0994
▁allierte	-10.0994
▁faktisk	-10.0994
▁studioalbum	-10.0994
▁power	-10.0995
▁geografisk	-10.0995
ison	-10.0995
▁hemmelig	-10.0996
▁1908	-10.0996
▁statlig	-10.0996
▁mytologi	-10.1
▁veldig	-10.1001
markedet	-10.1004
▁score	-10.1004
▁vor	-10.1004
▁kil	-10.1015
▁vekst	-10.1016
▁roll	-10.1025
▁produsere	-10.1028
▁svar	-10.1029
▁bygninger	-10.103
▁motsetning	-10.1031
▁vinge	-10.1036
strup	-10.1038
▁rob	-10.1042
▁spillet	-10.1044
▁forskjell	-10.1045
▁green	-10.105
bank	-10.1053
▁sara	-10.1054
▁vet	-10.1054
▁fylket	-10.1059
▁bærer	-10.1064
▁kapell	-10.1067
vente	-10.1068
trykt	-10.1085
▁planter	-10.1086
▁rund	-10.1091
13	-10.1108
▁slett	-10.1111
▁klubb	-10.1112
materiale	-10.1113
på	-10.1116
vekst	-10.1118
▁cou	-10.1118
versjon	-10.112
kultur	-10.1124
82	-10.113
▁advokat	-10.1136
▁oppmerksomhet	-10.1136
▁dobbelt	-10.1136
▁umiddelbar	-10.1136
▁finn	-10.1138
▁skarp	-10.1139
sida	-10.114
▁senter	-10.1141
ulf	-10.1142
▁kai	-10.1147
▁preg	-10.1161
olo	-10.1161
▁kalk	-10.1161
▁lot	-10.1163
▁ansett	-10.1168
▁private	-10.1171
▁bestemte	-10.1176
▁grov	-10.1177
ifisert	-10.1185
▁singel	-10.1194
▁samfunnet	-10.1202
▁stål	-10.1211
▁grei	-10.1216
ksjoner	-10.1216
forestilling	-10.1217
▁turist	-10.1237
94	-10.1259
produsent	-10.1261
forsvar	-10.1264
lyst	-10.1264
stasjonen	-10.1265
kryss	-10.1269
▁mary	-10.1273
▁mono	-10.1277
▁storm	-10.128
komedie	-10.1281
▁friedrich	-10.1281
▁kombinasjon	-10.1281
▁1935	-10.1283
▁edvard	-10.1283
▁1925	-10.1283
▁daniel	-10.1286
▁bekrefte	-10.1287
▁tilhenger	-10.1289
▁luther	-10.1289
▁cd	-10.1289
▁anledning	-10.1291
▁show	-10.1294
▁mottatt	-10.1296
▁anvende	-10.1298
▁hve	-10.13
▁ron	-10.1303
årene	-10.1307
▁team	-10.1311
hild	-10.1313
▁andreplass	-10.1314
finere	-10.1327
▁akt	-10.1328
rige	-10.1333
▁stabil	-10.1337
31	-10.134
▁rep	-10.1341
▁gau	-10.1346
▁samarbeidet	-10.1347
▁stift	-10.1356
▁nedre	-10.1357
▁camp	-10.1369
▁shan	-10.137
▁sammenligne	-10.1373
onia	-10.1378
kilde	-10.1384
▁fisker	-10.1384
▁spanske	-10.1386
politikk	-10.139
▁penge	-10.1398
▁tradisjonel	-10.14
kontor	-10.1407
stjerne	-10.1408
hard	-10.1409
▁tour	-10.1409
▁aur	-10.1411
tain	-10.1412
▁uker	-10.142
bon	-10.1424
▁leker	-10.1426
▁byprefekturet	-10.1428
▁forvaltning	-10.1428
▁moskva	-10.1428
▁redusere	-10.1429
▁signal	-10.143
▁edward	-10.143
▁sverd	-10.1432
▁snart	-10.1433
▁signert	-10.1435
▁1000	-10.1441
▁armé	-10.1442
▁drap	-10.1445
▁vokalist	-10.145
sket	-10.1451
▁sørover	-10.1452
øvelse	-10.146
▁arn	-10.1465
▁begynne	-10.1469
▁with	-10.1472
liste	-10.1479
▁polar	-10.148
▁nordre	-10.1482
turnering	-10.1491
▁00	-10.1492
vard	-10.151
▁verker	-10.1511
▁parken	-10.1513
▁dømt	-10.1516
▁lån	-10.1516
▁geo	-10.1518
føringen	-10.1523
▁forbundet	-10.1531
▁drei	-10.1548
▁eksperiment	-10.1578
▁katedral	-10.1578
▁innbyggertall	-10.1578
▁kaptein	-10.1578
▁belgia	-10.1578
konferanse	-10.1578
▁hjerne	-10.1578
▁doktorgrad	-10.1578
▁1931	-10.1579
▁tidspunkt	-10.1579
▁1937	-10.158
maleri	-10.1582
▁hjul	-10.1582
konvensjon	-10.1582
▁tørr	-10.1583
kompani	-10.1585
▁filip	-10.1587
▁arkitektur	-10.1593
ici	-10.1594
▁lønn	-10.1597
▁bell	-10.1598
▁grønland	-10.1599
▁evne	-10.1601
7	-10.1602
▁ansvarlig	-10.1612
▁syl	-10.1617
▁sørge	-10.1618
firma	-10.162
avdeling	-10.1623
▁tromsø	-10.163
▁sete	-10.1637
havn	-10.1642
▁oppdag	-10.1642
sikkerhet	-10.1644
▁idrettslag	-10.1646
grensen	-10.1648
▁forbund	-10.1648
▁manus	-10.1661
▁coll	-10.167
▁antallet	-10.1671
vakt	-10.1676
▁kjøl	-10.168
▁cru	-10.1681
▁troms	-10.1687
34	-10.1713
ppel	-10.1714
spenn	-10.1718
kjent	-10.172
▁bio	-10.1723
▁individ	-10.1729
▁initiativ	-10.1729
▁vulkan	-10.1729
▁middelsstor	-10.1729
▁negativ	-10.1729
▁kritikk	-10.1729
▁etterfølger	-10.173
▁finnmark	-10.1731
▁inntekt	-10.1731
▁irsk	-10.1731
opplæring	-10.1735
▁blokk	-10.174
▁hitler	-10.1743
▁gram	-10.1744
kall	-10.1757
▁1600	-10.1759
▁stig	-10.1767
ledd	-10.1772
▁alv	-10.1777
▁utstyrt	-10.1796
▁velger	-10.1803
afrikansk	-10.181
▁rand	-10.1822
▁slave	-10.1844
▁skinn	-10.185
▁utstyr	-10.1851
▁mol	-10.1852
▁hastighet	-10.1865
▁verdensmester	-10.187
angrep	-10.1872
▁sco	-10.1875
masse	-10.1877
▁damp	-10.1877
▁kommun	-10.1881
▁kok	-10.1882
▁tilknytning	-10.1883
▁1914	-10.1883
▁artilleri	-10.1883
▁regissør	-10.1883
▁nominert	-10.1883
▁håkon	-10.1883
▁generelt	-10.1883
▁praksis	-10.1883
▁integr	-10.1883
▁nedbør	-10.1883
▁praktisk	-10.1883
▁beregne	-10.1883
▁bøkene	-10.1883
▁multi	-10.1884
▁utstilling	-10.1885
▁1905	-10.1885
oto	-10.1886
▁1942	-10.1886
domstol	-10.1886
▁fullført	-10.1887
▁dalen	-10.1887
▁erklært	-10.189
åsen	-10.1891
▁portrett	-10.1891
▁stå	-10.1892
▁avtale	-10.1895
time	-10.19
▁typen	-10.19
▁hval	-10.1903
▁dekker	-10.1905
▁stol	-10.1912
▁vekk	-10.1931
▁kommando	-10.195
▁santa	-10.1953
▁roger	-10.1959
▁nasjon	-10.196
lid	-10.1961
hallen	-10.1961
▁disk	-10.1973
▁tilbud	-10.1978
vika	-10.1979
con	-10.1988
▁liga	-10.1995
▁utøver	-10.1996
▁steve	-10.1996
▁utdannings	-10.2004
▁andersen	-10.2007
dommer	-10.2007
▁utgi	-10.2015
norsk	-10.2024
▁foreta	-10.2026
▁fru	-10.2028
isse	-10.2036
▁observa	-10.2036
født	-10.2037
▁eventuel	-10.2039
▁konkurrere	-10.2039
▁debut	-10.2039
▁konsept	-10.2039
▁muslim	-10.2039
▁debutalbum	-10.204
▁1929	-10.204
▁landbruks	-10.204
▁reserve	-10.2041
▁debatt	-10.2041
▁1918	-10.2042
▁press	-10.2042
▁nasjonalpark	-10.2043
listen	-10.2044
mont	-10.2049
▁hvile	-10.2051
▁dekket	-10.2055
▁befinne	-10.2058
▁representanter	-10.206
▁filosof	-10.2063
▁75	-10.2064
▁organisasjoner	-10.2065
▁tredjeplass	-10.2068
▁markert	-10.207
vingen	-10.207
▁dokumenter	-10.207
▁dommer	-10.2071
lønn	-10.2072
reise	-10.2075
▁ross	-10.2076
▁stjerner	-10.2086
▁resultatet	-10.209
▁bånd	-10.21
▁stillingen	-10.2106
bukta	-10.211
▁språket	-10.2113
▁neu	-10.2123
▁sup	-10.2131
▁vert	-10.2133
oksid	-10.2143
▁begrenset	-10.2143
zon	-10.2146
▁fn	-10.2148
▁internett	-10.215
betegnelse	-10.215
▁fett	-10.2155
▁alf	-10.2157
▁az	-10.2163
▁reist	-10.2164
▁cra	-10.2183
administrasjon	-10.2184
▁bygda	-10.2185
▁trening	-10.2185
leir	-10.2187
jord	-10.2188
problem	-10.2191
hånd	-10.2192
▁1904	-10.2198
▁astronom	-10.2198
▁involvert	-10.2198
▁1933	-10.2198
▁ødelegge	-10.2198
▁alexander	-10.2198
▁digital	-10.2198
gjør	-10.22
▁1910	-10.2201
▁generell	-10.2202
▁utgivelsen	-10.2202
▁bakvingen	-10.2202
▁forretnings	-10.2203
▁dvs	-10.2205
fatning	-10.2205
▁laste	-10.2206
▁hersker	-10.2208
▁55	-10.2214
▁operativ	-10.2214
duk	-10.2217
▁petter	-10.2223
soldat	-10.2225
▁kjøtt	-10.2235
▁tyskerne	-10.2243
▁følelse	-10.2243
▁adam	-10.2246
▁gö	-10.2247
▁måten	-10.2262
▁menneskelig	-10.2263
▁sjøen	-10.2264
▁festning	-10.2267
▁avtalen	-10.2267
▁internasjonalt	-10.2277
▁term	-10.2277
▁hå	-10.2278
▁starter	-10.2283
▁opphold	-10.2289
▁musikalsk	-10.2291
rommet	-10.2291
▁vokser	-10.2295
▁orkester	-10.2298
▁ankom	-10.23
▁prinsipp	-10.2314
▁arv	-10.2314
▁handel	-10.2316
▁kjøpt	-10.2319
▁revolusjon	-10.232
▁inndel	-10.2327
▁ulik	-10.2336
▁jente	-10.2342
▁skyld	-10.2354
hjul	-10.2356
høgskole	-10.2357
▁positiv	-10.2359
▁anerkjent	-10.2359
▁fjær	-10.2359
▁dverg	-10.236
▁medlemmene	-10.2361
▁1916	-10.2361
▁1921	-10.2361
▁1915	-10.2361
▁klokken	-10.2362
▁bakke	-10.2362
innspilling	-10.2367
▁samtid	-10.2371
tjenesten	-10.2382
fyr	-10.2385
▁gy	-10.2387
▁frihet	-10.2388
▁gitarist	-10.2389
▁levde	-10.239
▁temp	-10.239
industrien	-10.2392
▁eli	-10.24
▁chang	-10.2402
▁hydro	-10.2406
▁fotballklubb	-10.242
▁kvalitet	-10.243
▁elever	-10.243
setting	-10.2431
▁modellen	-10.2432
▁melk	-10.2449
▁utvalg	-10.2452
▁gard	-10.2454
kongress	-10.2454
▁festningen	-10.2454
▁bakkroppen	-10.2469
▁ef	-10.2472
bygget	-10.2476
▁utdannelse	-10.2476
▁klosteret	-10.2485
statue	-10.2492
▁hull	-10.2494
▁utdanning	-10.2503
rekk	-10.2504
▁skiller	-10.2504
wick	-10.2512
▁krevde	-10.2523
▁sjelden	-10.2523
▁rogaland	-10.2523
▁bodø	-10.2523
politisk	-10.2523
▁forårsake	-10.2524
▁36	-10.2525
▁1927	-10.2525
▁utenlandske	-10.2527
▁formula	-10.2529
▁tilbyr	-10.2534
idrett	-10.2537
▁inngikk	-10.2541
▁nm	-10.2542
▁minister	-10.2546
▁grøn	-10.2546
organisasjonen	-10.2548
▁antatt	-10.2559
▁morgen	-10.256
▁nordover	-10.2561
▁enkle	-10.2561
▁vestre	-10.2565
▁dahl	-10.2566
allianse	-10.2569
handler	-10.2572
▁jim	-10.2575
▁sunn	-10.2575
▁boy	-10.2581
26	-10.2581
bevegelsen	-10.2582
▁populært	-10.2596
ikasjon	-10.2598
verdi	-10.26
▁vente	-10.2603
▁foreldre	-10.2608
▁vingene	-10.2617
forsamlingen	-10.2617
▁artikkel	-10.2627
▁samfunn	-10.2629
▁måne	-10.2647
roman	-10.2652
▁medisin	-10.2653
▁velge	-10.2666
▁katolsk	-10.267
▁anse	-10.2679
cent	-10.2683
▁sveitsisk	-10.2685
▁beseiret	-10.269
▁nowiki	-10.269
▁portugal	-10.269
▁tømmer	-10.269
▁tegneserie	-10.2691
▁naturgass	-10.2691
▁håndball	-10.2692
▁smith	-10.2692
▁1911	-10.2692
▁antyde	-10.2692
▁nam	-10.2692
▁papir	-10.2694
▁otto	-10.2694
▁endringer	-10.2695
▁east	-10.2699
▁kjørt	-10.27
▁histori	-10.2702
▁deltaker	-10.2704
▁mangler	-10.2705
▁clar	-10.2707
▁ferd	-10.2713
▁skre	-10.2716
olje	-10.2721
▁lake	-10.2724
▁fortalt	-10.2731
▁indian	-10.2743
▁romersk	-10.2745
▁flytte	-10.2746
givelse	-10.2752
elv	-10.2753
▁styrkene	-10.2754
▁vill	-10.2758
▁ekspedisjonen	-10.276
▁kino	-10.2763
drevet	-10.2764
▁grunnlaget	-10.2767
▁saga	-10.2769
▁myndigheter	-10.277
▁tradisjonell	-10.2776
løsning	-10.2788
▁hek	-10.281
▁trær	-10.2815
▁gjennomføre	-10.2825
▁fry	-10.2826
melding	-10.2831
messe	-10.2835
kjør	-10.2848
▁halvparten	-10.2859
▁milliarder	-10.2859
vassdraget	-10.2859
▁administrere	-10.2859
▁county	-10.2859
▁jørgen	-10.2859
traktaten	-10.2859
▁antarktis	-10.2859
▁cirka	-10.2859
▁utnytte	-10.2859
pedagog	-10.2859
▁nektet	-10.286
▁riktig	-10.286
▁1923	-10.2861
▁ferge	-10.2863
▁brown	-10.2864
▁beslutte	-10.2865
▁house	-10.2865
▁alfred	-10.2866
▁vendt	-10.2866
▁eksport	-10.2867
▁scott	-10.287
▁økende	-10.2873
brigade	-10.2876
fant	-10.2886
ward	-10.2886
▁unna	-10.2887
▁hovedsak	-10.2888
finn	-10.2896
▁klassen	-10.2902
▁rek	-10.2909
▁konsul	-10.2927
krit	-10.2929
▁orient	-10.2932
▁snu	-10.2937
▁korn	-10.2939
▁fjellene	-10.2952
▁eik	-10.2953
sey	-10.2955
▁ingeniør	-10.2963
▁cand	-10.297
▁hem	-10.298
ique	-10.2993
▁tykk	-10.3012
▁akershus	-10.3032
▁pakistan	-10.3032
▁østerriksk	-10.3032
▁unngå	-10.3032
▁ekstrem	-10.3032
▁hjal	-10.3032
▁adresse	-10.3033
▁eksistert	-10.3033
▁rolf	-10.3033
▁1926	-10.3033
▁litterær	-10.3033
▁bispe	-10.3034
▁arbeiderpartiet	-10.3034
▁mongol	-10.3034
▁frykt	-10.3037
▁emi	-10.3038
▁medaljen	-10.3042
▁olsen	-10.3042
livet	-10.3043
▁avholdt	-10.3045
▁hellas	-10.3049
▁matt	-10.3059
hof	-10.3063
bebyggelse	-10.3065
▁tann	-10.3074
▁gress	-10.3081
drakt	-10.3084
▁konstruksjon	-10.3122
8	-10.3146
▁brudd	-10.3151
strid	-10.3155
▁vegg	-10.3171
▁medisinsk	-10.3172
aya	-10.3173
▁blande	-10.3174
▁bevege	-10.3175
▁tun	-10.3176
▁pap	-10.3179
▁nød	-10.3179
botn	-10.3196
▁ekspedisjon	-10.3207
▁sjeldne	-10.3207
▁1903	-10.3207
▁vilhelm	-10.3207
▁nicola	-10.3207
▁verdenscup	-10.3207
▁hendelser	-10.3207
▁forbedre	-10.3207
▁ansikt	-10.3208
▁fungert	-10.3208
hei	-10.3208
▁krysset	-10.3209
▁telefon	-10.3209
▁1909	-10.3209
▁referere	-10.321
▁palass	-10.321
▁telemark	-10.321
▁sjette	-10.3211
▁brem	-10.3214
▁allmenn	-10.3214
overflaten	-10.3215
▁tronen	-10.3218
▁bag	-10.322
▁hov	-10.3223
▁kin	-10.3227
▁boka	-10.3229
brakte	-10.3245
▁ein	-10.3246
▁johansen	-10.3246
▁molde	-10.3247
gram	-10.3254
▁utgaven	-10.3258
▁skall	-10.3266
▁krim	-10.3273
▁oppleve	-10.3275
▁wall	-10.3281
▁sikker	-10.3287
▁bratt	-10.3288
herre	-10.3313
▁hindre	-10.3313
▁kapp	-10.3314
klasse	-10.3315
▁700	-10.3319
▁kloster	-10.332
▁vokse	-10.3324
▁sideelv	-10.3331
▁grunnlov	-10.3331
feng	-10.3344
▁skyte	-10.335
▁institut	-10.335
▁stri	-10.336
gjørelse	-10.3365
▁museet	-10.3367
▁innlede	-10.337
▁føl	-10.3371
▁160	-10.3372
ström	-10.3386
▁ludvig	-10.3386
▁sportsutøver	-10.3386
▁plattform	-10.3386
▁risiko	-10.3387
▁generasjon	-10.3387
▁terreng	-10.3388
▁godkjent	-10.3388
▁anklage	-10.3388
▁bevegelsen	-10.339
▁bortsett	-10.3391
▁sykkel	-10.3391
front	-10.3403
næring	-10.3406
▁myk	-10.341
oide	-10.3412
modell	-10.3413
▁gjeld	-10.3414
industri	-10.3415
takelse	-10.3429
▁server	-10.3438
fartøy	-10.3442
rygg	-10.3451
▁statsråd	-10.3451
▁betale	-10.3455
sundet	-10.3455
▁120	-10.3465
▁karrieren	-10.3468
▁lim	-10.3479
▁ordre	-10.3484
▁avvist	-10.3486
▁begrep	-10.3493
▁seine	-10.3494
uka	-10.3502
▁utsatt	-10.3506
▁designet	-10.3507
▁svi	-10.3515
ruten	-10.3533
▁penger	-10.3536
▁800	-10.3537
▁try	-10.3548
▁middelalder	-10.3553
▁sho	-10.3567
▁eksemplar	-10.3568
▁okkupasjon	-10.3568
▁tyrkisk	-10.3568
▁avdøde	-10.3568
▁søndag	-10.3568
▁ødelagt	-10.3568
friidrettsutøver	-10.3568
▁byttet	-10.3569
▁1922	-10.3569
bridge	-10.3571
▁komposisjon	-10.3574
▁fortellingen	-10.3576
▁angi	-10.3577
▁kamera	-10.3578
høyskole	-10.3579
▁gaten	-10.3584
▁web	-10.3586
▁birk	-10.3589
▁klatre	-10.359
▁party	-10.3591
▁metro	-10.3592
▁skjær	-10.3597
head	-10.3599
måte	-10.3599
▁østre	-10.3603
▁skaffe	-10.3603
▁munk	-10.3615
▁ey	-10.3628
▁nettverk	-10.3646
▁markere	-10.3656
trener	-10.3674
▁republik	-10.3676
vatn	-10.3677
▁town	-10.3684
▁utenriks	-10.3686
katt	-10.3686
▁rio	-10.3688
▁cel	-10.3712
▁kara	-10.3713
turbin	-10.3721
slutt	-10.3723
▁amb	-10.3734
▁arkeologisk	-10.3737
▁bredde	-10.3743
▁bull	-10.3749
▁hil	-10.3752
▁argument	-10.3753
▁uvanlig	-10.3753
▁sachsen	-10.3753
▁oversettelse	-10.3753
▁autonom	-10.3754
▁partner	-10.3754
▁wolf	-10.3755
▁1907	-10.3755
▁krysser	-10.3757
▁planlagt	-10.3758
▁innlemme	-10.3761
▁nedlagt	-10.3765
▁anlagt	-10.3768
▁sist	-10.377
▁sovjet	-10.3771
▁rulle	-10.3771
▁demningen	-10.3773
▁sammenlagt	-10.3773
hastighet	-10.3774
funksjon	-10.3774
▁vanligste	-10.3774
nemlig	-10.3778
stigning	-10.3781
▁etappe	-10.3783
tittel	-10.3786
reform	-10.3793
▁jack	-10.3793
▁vedtatt	-10.3793
▁kim	-10.3799
bad	-10.3805
▁mei	-10.3816
▁junior	-10.3824
▁patri	-10.3836
speil	-10.3837
▁cri	-10.3841
▁ønsker	-10.3841
▁wu	-10.3842
sidig	-10.3855
▁beina	-10.3856
▁41	-10.3863
▁platen	-10.3871
rock	-10.3877
▁och	-10.3904
tårn	-10.391
ograf	-10.3918
jå	-10.3919
ligning	-10.3919
▁nazi	-10.3931
opter	-10.3932
▁science	-10.3941
▁kriminal	-10.3941
▁individuell	-10.3942
▁kommersiell	-10.3942
▁valuta	-10.3942
frekvens	-10.3942
▁utseende	-10.3942
▁bakterie	-10.3944
▁østfold	-10.3945
▁tegninger	-10.3946
▁stam	-10.3952
▁beskyttelse	-10.3955
▁forsterke	-10.3955
▁meta	-10.3959
kreft	-10.396
▁lom	-10.3962
▁østover	-10.3963
▁mynt	-10.3964
amerikansk	-10.3966
▁gjeng	-10.3968
bølge	-10.3971
skilt	-10.3972
cci	-10.3973
karriere	-10.3994
arna	-10.3995
typen	-10.4003
▁river	-10.4003
iko	-10.4009
▁motsatt	-10.4015
▁fortsetter	-10.403
▁artikler	-10.4035
29	-10.4039
▁modern	-10.4043
orientert	-10.4055
kran	-10.4066
▁sosialistisk	-10.4073
▁step	-10.4074
familie	-10.408
▁kommunistisk	-10.4098
▁unnta	-10.4104
▁jorda	-10.4106
fold	-10.4116
▁emil	-10.4116
▁rod	-10.4117
▁bang	-10.4129
ington	-10.4131
▁skuespill	-10.4132
▁aleksander	-10.4134
▁forhindre	-10.4134
▁global	-10.4134
▁nikola	-10.4134
▁amatør	-10.4134
▁drammen	-10.4134
▁vingespenn	-10.4134
▁vall	-10.4135
▁kveld	-10.4135
løft	-10.4136
komité	-10.4136
▁møre	-10.4138
▁hovedkontor	-10.4139
avisen	-10.414
▁vg	-10.4143
psykologi	-10.4157
▁prix	-10.4157
▁1896	-10.4157
▁num	-10.4162
▁arkeolog	-10.4164
museet	-10.4167
mengde	-10.4175
bunn	-10.4179
▁oppsto	-10.4202
▁halvdel	-10.421
▁benytter	-10.421
▁road	-10.4227
konsern	-10.4249
▁demokratisk	-10.4261
forsyning	-10.4261
▁sving	-10.4264
▁verb	-10.4273
▁andel	-10.4283
▁hamar	-10.4286
utgivelse	-10.4292
▁kjemisk	-10.4297
spinner	-10.4324
fast	-10.4328
▁1902	-10.433
▁elisabeth	-10.433
▁münchen	-10.433
▁portugisisk	-10.433
▁adolf	-10.433
▁radikal	-10.433
▁kristiansand	-10.433
▁foregår	-10.433
▁operatør	-10.433
▁bryst	-10.433
▁utmerkelse	-10.4331
▁invasjon	-10.4331
lyktes	-10.4331
▁firmaet	-10.4331
▁mineral	-10.4332
▁pierre	-10.4333
▁group	-10.4334
▁brygge	-10.4334
vandring	-10.4335
▁mannskapet	-10.4335
▁diesel	-10.4339
▁liber	-10.4346
▁kommunestyre	-10.4347
▁brød	-10.4348
▁overtatt	-10.4355
horn	-10.4359
museum	-10.4363
▁1870	-10.4365
▁billed	-10.4377
▁anslå	-10.4383
▁ytterst	-10.4392
▁løfte	-10.4408
▁frakte	-10.4422
▁dru	-10.4436
▁grim	-10.4439
wich	-10.444
▁øverst	-10.4446
▁dominert	-10.4464
▁toll	-10.4488
▁dø	-10.4495
▁skjø	-10.4521
▁dekkvingene	-10.453
▁diplomat	-10.453
▁maksimal	-10.453
▁shanghai	-10.453
▁utslipp	-10.453
▁angripe	-10.453
rådgiver	-10.453
regulering	-10.4531
▁belgisk	-10.4531
▁nedenfor	-10.4531
▁divers	-10.4532
▁rektor	-10.4532
▁mjø	-10.4533
ått	-10.4537
▁arkiv	-10.4539
▁byggingen	-10.4541
▁1894	-10.4548
▁konst	-10.4551
▁för	-10.4552
▁grunnlag	-10.4558
▁oppløst	-10.456
situasjon	-10.4565
▁johnson	-10.4567
▁walter	-10.457
▁lord	-10.4581
▁vinne	-10.4587
▁kortere	-10.4597
▁helst	-10.4604
▁marin	-10.4634
▁water	-10.4645
kongen	-10.465
maker	-10.4676
samband	-10.4699
▁omhandle	-10.4703
▁synge	-10.4725
▁døgn	-10.4726
▁forlate	-10.4728
veggen	-10.4731
▁hjørne	-10.4734
▁kollektiv	-10.4734
▁manuskript	-10.4734
▁sammenslåing	-10.4734
▁1901	-10.4734
▁asteroide	-10.4734
▁ressurs	-10.4734
kompetanse	-10.4734
▁monument	-10.4734
▁fiolin	-10.4734
▁frivillig	-10.4734
▁betjene	-10.4735
▁elektronisk	-10.4735
▁golf	-10.4735
▁sukker	-10.4735
aceae	-10.4736
▁1906	-10.4736
▁stiftelsen	-10.4737
terminal	-10.4737
▁imperi	-10.4739
▁drikke	-10.4741
▁lokalisert	-10.4741
▁tvunge	-10.4741
▁betalt	-10.4742
▁bau	-10.4743
▁pul	-10.4753
▁legend	-10.4753
krig	-10.4758
▁drepe	-10.476
▁from	-10.4772
kandidat	-10.4774
▁brei	-10.4775
programmet	-10.4778
▁borgerkrig	-10.4784
▁estland	-10.4787
▁antennen	-10.4799
▁vennskap	-10.4803
▁konstantin	-10.4812
▁urban	-10.4818
▁vad	-10.482
▁britis	-10.4827
▁cho	-10.4841
troppen	-10.4854
▁elite	-10.4862
regime	-10.488
▁flest	-10.4884
qi	-10.4903
rute	-10.4907
▁kongelig	-10.4936
▁favoritt	-10.4942
▁millimeter	-10.4942
▁windows	-10.4942
▁vesentlig	-10.4942
▁oppfatte	-10.4942
▁hyppig	-10.4942
▁arthur	-10.4942
▁andré	-10.4943
▁arendal	-10.4943
▁datamaskin	-10.4944
▁meldt	-10.4948
▁hensyn	-10.495
▁center	-10.4951
▁onkel	-10.4952
▁1898	-10.4962
▁utenom	-10.4969
▁opptatt	-10.4969
▁1878	-10.4972
fred	-10.4977
▁mah	-10.4979
▁knytte	-10.4982
▁furu	-10.4985
stemme	-10.4987
▁wales	-10.4988
▁intens	-10.4999
▁søkt	-10.5
bød	-10.5028
▁angel	-10.5034
▁fase	-10.5037
▁høst	-10.5047
▁israelsk	-10.5048
gass	-10.5051
▁kno	-10.5058
bury	-10.5082
▁oppdagelse	-10.5107
ç	-10.5155
▁country	-10.5155
▁forgjenger	-10.5155
▁hordaland	-10.5155
▁prøvd	-10.5155
▁australsk	-10.5155
▁yngste	-10.5155
▁sigurd	-10.5155
▁church	-10.5155
▁hovedkvarter	-10.5155
▁bjørk	-10.5155
▁dominerende	-10.5155
▁gunnar	-10.5155
▁ungarsk	-10.5155
▁hendelsen	-10.5155
▁kjøretøy	-10.5156
▁social	-10.5156
▁romsdal	-10.5156
dannelse	-10.5156
▁prinsesse	-10.5156
▁årsaken	-10.5157
▁1913	-10.5157
▁karbon	-10.5158
▁slank	-10.5158
▁britene	-10.5158
batteri	-10.5159
▁fastlandet	-10.5165
▁biologisk	-10.5165
▁fremført	-10.5171
▁1895	-10.5181
▁myndighetene	-10.5189
▁georgia	-10.5193
posisjon	-10.5196
▁sandnes	-10.5199
ligaen	-10.5202
preg	-10.5202
bakke	-10.5202
hjelp	-10.5205
årig	-10.5206
behandling	-10.5207
▁rug	-10.5209
▁pont	-10.5213
▁flor	-10.5228
▁spring	-10.5239
▁mitt	-10.5251
▁130	-10.5256
bach	-10.5269
ografisk	-10.5286
konge	-10.5287
▁etnisk	-10.5303
skrevet	-10.5342
▁psyko	-10.5347
▁tempel	-10.5366
▁variere	-10.5367
▁kronprins	-10.5372
▁matematikk	-10.5372
▁renessanse	-10.5372
▁symfoni	-10.5372
▁hebraisk	-10.5372
bransjen	-10.5373
▁zealand	-10.5373
▁presentert	-10.5373
▁strøk	-10.5373
alfabet	-10.5374
worth	-10.5374
▁beholdt	-10.5374
▁import	-10.5374
▁avledet	-10.5375
▁manager	-10.5375
▁francisco	-10.5376
▁samuel	-10.5376
burn	-10.5376
▁foregikk	-10.5377
▁vannkraftverk	-10.5377
▁varianter	-10.5378
▁studere	-10.538
▁franz	-10.5382
▁trygg	-10.5386
▁tolke	-10.5387
▁håndverk	-10.5388
▁ibsen	-10.5389
▁kristiania	-10.5391
▁play	-10.5391
▁gudinne	-10.5397
▁etterpå	-10.5405
tekst	-10.5408
▁francis	-10.5412
▁knap	-10.5421
▁levende	-10.5427
høyde	-10.5446
odden	-10.5461
▁foreldrene	-10.548
▁out	-10.5487
kjøp	-10.5496
▁mannlig	-10.5516
▁fulgt	-10.5535
▁foto	-10.5572
svømme	-10.5593
start	-10.5594
belteasteroide	-10.5595
▁elizabeth	-10.5595
▁konkurrert	-10.5595
▁tønsberg	-10.5595
▁washington	-10.5595
▁utbredelse	-10.5595
▁xiàn	-10.5595
ovitsj	-10.5595
▁kritisert	-10.5595
▁sprint	-10.5595
▁tilsvarer	-10.5595
▁opposisjon	-10.5596
▁skjønt	-10.5596
▁situasjonen	-10.5599
mekanisme	-10.5599
▁biografi	-10.56
▁fredrikstad	-10.5603
forretning	-10.5605
▁wild	-10.562
▁sikte	-10.5622
▁nederst	-10.5622
▁plast	-10.5622
bredden	-10.5622
▁250	-10.5623
▁deltatt	-10.5626
parlamentet	-10.5627
teater	-10.5628
▁hul	-10.5633
▁great	-10.5633
▁fremmed	-10.5638
srud	-10.5649
bibliotek	-10.5654
institutt	-10.5654
representant	-10.5655
rekord	-10.5656
kjerne	-10.5671
skade	-10.5673
▁fond	-10.5695
▁synlig	-10.5703
▁republikk	-10.5716
trær	-10.5716
▁jam	-10.5724
næs	-10.5727
▁tretten	-10.5731
brev	-10.5733
▁konstant	-10.5739
gutt	-10.5749
▁steg	-10.576
▁arch	-10.5764
▁ønske	-10.5772
▁vindu	-10.5775
▁vev	-10.5797
slått	-10.5821
▁afghanistan	-10.5822
▁arrangeres	-10.5822
▁definisjon	-10.5822
▁infanteri	-10.5822
▁jesuitt	-10.5822
▁liverpool	-10.5822
▁skulptur	-10.5822
▁etablere	-10.5822
▁manchester	-10.5822
▁permanent	-10.5822
▁hertugdømmet	-10.5822
▁alexandr	-10.5822
▁forsvant	-10.5822
▁fengsle	-10.5822
mønster	-10.5822
▁protein	-10.5822
▁naturreservat	-10.5823
▁erstatning	-10.5823
▁opprettelsen	-10.5823
▁jesus	-10.5824
▁sentralbank	-10.5824
▁gregor	-10.5825
▁kreert	-10.5826
▁2018	-10.583
polis	-10.5833
▁einar	-10.5836
▁skyldes	-10.5837
▁tjue	-10.5837
balanse	-10.584
▁skjell	-10.5841
▁orgel	-10.5842
▁panser	-10.5849
▁vestover	-10.585
▁kopi	-10.585
▁spin	-10.5851
▁geir	-10.5851
▁1890	-10.5853
▁oppstod	-10.5853
▁1200	-10.5856
▁christiania	-10.5872
utvikle	-10.5884
studie	-10.5901
▁musikal	-10.5919
▁håp	-10.5934
▁fortsette	-10.595
▁kommunist	-10.5955
stell	-10.596
▁lyng	-10.596
▁jud	-10.5972
bukk	-10.5984
flue	-10.5985
▁chu	-10.6029
lich	-10.6054
▁argentina	-10.6054
▁eurovision	-10.6054
▁landkreis	-10.6054
▁stråling	-10.6054
▁heinrich	-10.6054
▁victoria	-10.6054
▁wilson	-10.6055
▁evangeli	-10.6055
▁skihopp	-10.6055
▁egenskaper	-10.6055
eksisterende	-10.6055
▁larvik	-10.6055
▁fylle	-10.6056
▁beordre	-10.6056
▁stengt	-10.6056
▁forklare	-10.6058
▁smelte	-10.6058
▁terje	-10.6059
▁kritisk	-10.6061
effekt	-10.6063
▁forbudt	-10.6065
▁trommer	-10.6066
▁hamburg	-10.6068
▁barndom	-10.6068
▁reaksjon	-10.6074
▁tvang	-10.6081
▁vestsiden	-10.6084
▁gradvis	-10.6085
▁tekstil	-10.6086
▁nedover	-10.6089
▁morten	-10.6093
flo	-10.6094
▁smerte	-10.6095
▁lunge	-10.6103
▁karakteristisk	-10.6105
▁nerve	-10.6118
kontrakt	-10.6124
offiser	-10.6125
utstyr	-10.6127
kunstner	-10.6136
▁hekk	-10.6136
▁lykke	-10.6174
▁henri	-10.6192
lignende	-10.6223
▁beskrivelse	-10.6236
▁hellig	-10.6242
▁europeisk	-10.6249
▁forskjellig	-10.6268
▁beslutning	-10.6293
▁engasjert	-10.6293
▁okkupert	-10.6293
▁resultert	-10.6293
▁society	-10.6293
▁tyrkia	-10.6293
▁færøyene	-10.6293
▁juridisk	-10.6293
▁automatisk	-10.6293
▁parallell	-10.6293
veksling	-10.6293
▁forkortet	-10.6293
▁henrettet	-10.6293
▁haakon	-10.6293
▁avgjørende	-10.6293
▁forklaring	-10.6293
▁kryp	-10.6294
▁hedmark	-10.6296
▁svein	-10.6297
▁sverre	-10.6297
▁vestfold	-10.6297
▁utøve	-10.6298
▁sjanger	-10.6298
▁frp	-10.6302
▁metoden	-10.6302
▁høyesterett	-10.6304
▁piano	-10.6306
▁hö	-10.6308
▁fremstilt	-10.631
tempelet	-10.6312
▁nederlag	-10.6312
▁1893	-10.6316
▁østsiden	-10.6321
utenriksminister	-10.6348
▁anima	-10.6364
blomst	-10.6368
provins	-10.6369
regjering	-10.637
yndig	-10.6377
▁nordmenn	-10.6419
støtte	-10.6494
regning	-10.6508
▁disiplin	-10.6536
▁svalbard	-10.6536
▁koalisjon	-10.6536
▁komponert	-10.6536
▁tidsskriftet	-10.6536
▁innbyggerne	-10.6536
▁gymnas	-10.6537
▁semifinale	-10.6537
▁margaret	-10.6537
▁drømme	-10.6537
▁venezia	-10.6537
▁monroe	-10.6537
teatret	-10.6537
▁atmosfære	-10.6538
▁cross	-10.6538
▁kjennetegn	-10.6539
▁foreslått	-10.6539
▁overlevd	-10.6541
▁opptrer	-10.6541
▁trenger	-10.6541
▁jackson	-10.6542
sikring	-10.6544
▁røyk	-10.6545
▁tjener	-10.6546
▁sending	-10.6547
▁night	-10.6564
aften	-10.657
▁ernst	-10.6571
▁utvidelse	-10.6572
▁åttende	-10.6574
▁ungdomsskole	-10.6576
▁glad	-10.6588
▁kulturell	-10.6601
▁ideologi	-10.6604
▁thom	-10.6617
temperatur	-10.6619
iffer	-10.6627
brett	-10.665
▁hyper	-10.666
▁kontrollere	-10.6676
▁chile	-10.6679
▁strategi	-10.6688
▁opprette	-10.6691
▁ytter	-10.6698
ramme	-10.6698
kontroll	-10.6704
yuan	-10.6739
snegl	-10.6767
svømming	-10.6786
▁admiral	-10.6786
▁arrestert	-10.6786
▁kommandant	-10.6786
▁psykisk	-10.6786
▁hjort	-10.6786
▁1814	-10.6786
▁stafett	-10.6787
▁dagbladet	-10.6787
▁preussen	-10.6787
▁thailand	-10.6787
▁bøndene	-10.6787
assistent	-10.6787
▁contest	-10.6787
▁soldatene	-10.6788
▁utfordre	-10.6788
omsorg	-10.6788
▁fangst	-10.6789
▁døtre	-10.6792
▁elleve	-10.6792
▁igjennom	-10.6793
fortelling	-10.6796
▁harmoni	-10.6797
▁gjennombrudd	-10.6803
▁forstå	-10.6803
▁forandre	-10.6804
▁kontinental	-10.681
▁pirat	-10.6813
▁tjent	-10.6814
▁talent	-10.6816
▁agent	-10.6823
▁ddr	-10.6843
▁persisk	-10.6844
▁seire	-10.6858
▁punk	-10.6858
▁smak	-10.687
utdanning	-10.6874
historisk	-10.6876
▁cuba	-10.6878
utstilling	-10.6896
ск	-10.6935
blå	-10.6937
▁tjenestegjor	-10.7013
▁familiegruppe	-10.7018
▁øvrig	-10.7018
▁kontinent	-10.7019
▁inspirasjon	-10.7042
▁hensikt	-10.7042
▁absolutt	-10.7043
▁aftenposten	-10.7043
▁akseptert	-10.7043
▁kvalifisering	-10.7043
▁luxembourg	-10.7043
▁rekrutt	-10.7043
▁ukraina	-10.7043
▁vedlikehold	-10.7043
▁gabriel	-10.7043
▁drivstoff	-10.7043
▁tabellen	-10.7043
▁nøkkel	-10.7043
▁testament	-10.7043
kjøkken	-10.7043
▁bærum	-10.7043
▁aktuell	-10.7043
▁regulere	-10.7043
▁skildre	-10.7043
▁mekanisk	-10.7043
▁vakre	-10.7043
▁oppfølger	-10.7044
apparat	-10.7044
▁hørte	-10.7044
▁tørke	-10.7045
▁stemt	-10.7047
▁medførte	-10.7051
▁senator	-10.7052
styring	-10.7055
▁åpenbar	-10.7058
▁1882	-10.7067
▁lettere	-10.7069
▁1877	-10.7074
basseng	-10.7078
▁gravlag	-10.7103
▁oberst	-10.7107
kjøring	-10.7119
kjøl	-10.7134
▁begrense	-10.7136
struktur	-10.7138
konsert	-10.7139
aktivitet	-10.7147
▁minutt	-10.7149
▁innerst	-10.7157
brand	-10.7167
presse	-10.7175
artist	-10.7179
▁hytte	-10.7196
на	-10.7253
▁anerkjenne	-10.7306
▁fogderi	-10.7306
▁gjaldt	-10.7306
▁innspilt	-10.7306
▁jerusalem	-10.7306
▁nøytral	-10.7306
▁sarpsborg	-10.7306
▁company	-10.7306
▁konstruert	-10.7306
▁essay	-10.7306
▁ovenfor	-10.7306
▁pedersen	-10.7306
▁canadisk	-10.7306
leverandør	-10.7306
▁ordinær	-10.7306
▁utnevne	-10.7306
▁noensinne	-10.7307
▁florida	-10.7307
▁fjordane	-10.7307
mouth	-10.7308
▁flytende	-10.7309
▁redaksjon	-10.7309
▁betong	-10.7309
▁programleder	-10.7309
▁disney	-10.7309
▁nyhets	-10.731
▁monark	-10.7311
▁regjere	-10.7312
bjørg	-10.7314
▁antikken	-10.7315
▁holdning	-10.7315
ан	-10.7318
▁grunnskole	-10.732
medlemmer	-10.7322
▁idé	-10.7324
▁rederi	-10.7324
▁ordnet	-10.733
▁marmor	-10.7331
▁utenlands	-10.7331
▁popul	-10.7332
āng	-10.7333
▁titan	-10.7344
▁uavhengighet	-10.7353
▁arena	-10.7378
▁slippe	-10.7384
▁klippe	-10.7391
styrt	-10.7391
orkester	-10.7408
divisjon	-10.7409
artikkel	-10.741
▁strategisk	-10.7411
musiker	-10.7413
utdannelse	-10.7414
▁million	-10.7426
▁massa	-10.7447
prest	-10.7492
▁antenne	-10.7493
▁nettsted	-10.7508
▁benytte	-10.7555
▁størst	-10.7567
▁komponent	-10.7576
▁budsjett	-10.7576
▁corporation	-10.7576
▁oksygen	-10.7576
▁ortodoks	-10.7576
▁prefektur	-10.7576
▁påbegynt	-10.7576
▁chicago	-10.7576
▁krystall	-10.7576
▁oxford	-10.7576
▁vellykke	-10.7576
▁søndre	-10.7576
▁utspring	-10.7576
▁eiendommen	-10.7577
▁begravelse	-10.7577
▁eksistens	-10.7577
▁ntnu	-10.7577
▁hovedpersonen	-10.7577
▁josef	-10.7577
▁kulturminne	-10.7577
▁forkropp	-10.7577
▁tidevann	-10.7577
▁dream	-10.7577
▁patriark	-10.7578
▁poesi	-10.7578
▁carolin	-10.7578
▁enhver	-10.758
▁bassist	-10.7582
▁kristin	-10.7583
▁innspillingen	-10.7585
▁profil	-10.7587
▁moderat	-10.7588
▁kunstløp	-10.7593
▁tropper	-10.7593
▁skutt	-10.7597
▁forenkle	-10.7602
▁manuel	-10.7604
kirurg	-10.761
▁datert	-10.7616
grønn	-10.7683
ingeniør	-10.7686
▁dramatisk	-10.7701
forståelse	-10.773
▁avslutte	-10.7749
utvalget	-10.7753
▁hjemmebane	-10.7754
hogg	-10.7767
stamme	-10.7785
▁rådhus	-10.7818
▁midtbane	-10.7836
▁angelsaksisk	-10.7854
▁fakultet	-10.7854
▁kontinuerlig	-10.7854
▁låtskriver	-10.7854
▁offensiv	-10.7854
▁prøyssisk	-10.7854
▁ukrainsk	-10.7854
▁etablering	-10.7854
▁intervju	-10.7854
▁nøyaktig	-10.7854
▁avstemning	-10.7854
▁separat	-10.7854
▁ulovlig	-10.7854
▁tilskuere	-10.7854
▁opptrådt	-10.7854
▁regulert	-10.7854
▁kommentar	-10.7854
▁erobring	-10.7854
▁seksuell	-10.7855
▁lojal	-10.7855
▁stråle	-10.7855
▁serbisk	-10.7856
▁sosiolog	-10.7856
▁svømmer	-10.7857
▁fortellinger	-10.7857
stue	-10.7858
▁fjernsyn	-10.786
▁erfaring	-10.7861
▁asbjørn	-10.7862
▁alex	-10.7872
▁rykte	-10.7883
prosessor	-10.789
▁stanse	-10.791
▁variert	-10.7938
▁folkeparti	-10.794
dømt	-10.7972
finalen	-10.7972
hvelv	-10.7972
spørsmål	-10.7972
transport	-10.7972
leigh	-10.807
▁slip	-10.81
vitne	-10.8121
▁kupp	-10.813
direktoratet	-10.814
▁bekjempe	-10.814
▁færøysk	-10.814
▁hollywood	-10.814
▁lillehammer	-10.814
▁matematiker	-10.814
▁mislykke	-10.814
▁returnerte	-10.814
▁alminnelig	-10.814
▁kvalifisert	-10.814
▁kennedy	-10.814
▁uansett	-10.814
▁aspekt	-10.814
▁giovann	-10.814
▁gjennomgår	-10.814
▁fenomen	-10.814
▁protestantisk	-10.814
▁eksisterer	-10.814
▁stefan	-10.814
▁walisisk	-10.814
▁særskilt	-10.814
▁senterpartiet	-10.8141
▁innebære	-10.8141
▁forsinke	-10.8141
▁reklame	-10.8141
▁rednings	-10.8141
▁skytter	-10.8141
▁innviet	-10.8142
fylling	-10.8142
▁snorre	-10.8142
▁buskerud	-10.8142
▁regelmessig	-10.8142
▁linux	-10.8142
ев	-10.8143
▁programvare	-10.8144
▁gullmedalje	-10.8147
▁vandre	-10.8147
▁death	-10.8148
▁styreleder	-10.8149
▁skuld	-10.815
▁sykdommen	-10.815
▁ultra	-10.8151
▁koreansk	-10.8152
▁usikker	-10.8156
▁observator	-10.8158
schaft	-10.8158
▁antonio	-10.8161
▁otta	-10.8179
▁avskjed	-10.8181
ар	-10.8198
▁brent	-10.8209
▁lill	-10.8209
▁hevn	-10.8215
▁næringsliv	-10.8217
▁fagforening	-10.822
▁sparta	-10.8224
▁bakkropp	-10.8235
town	-10.824
▁sjakk	-10.8245
medisin	-10.8265
▁beholde	-10.8273
▁klage	-10.8309
▁konsekvens	-10.8434
▁ambassadør	-10.8434
▁barcelona	-10.8434
▁bryllup	-10.8434
▁forøvrig	-10.8434
▁innvandrer	-10.8434
▁midlertidig	-10.8434
▁musikkvideo	-10.8434
▁trommeslager	-10.8434
▁kommandør	-10.8434
▁pseudonym	-10.8434
▁central	-10.8434
▁angivelig	-10.8434
▁frigjøring	-10.8434
▁texas	-10.8434
▁diameter	-10.8434
▁senior	-10.8434
▁utgravning	-10.8434
▁kobber	-10.8434
▁kampanje	-10.8434
▁fiktiv	-10.8435
▁originaltittel	-10.8435
▁overraske	-10.8435
▁beskjed	-10.8435
▁kalender	-10.8435
▁verktøy	-10.8435
▁tilpasset	-10.8436
▁høydepunkt	-10.8438
▁bensin	-10.8439
▁spyd	-10.8441
▁null	-10.8444
▁viktor	-10.8445
▁operere	-10.8447
▁omdanne	-10.8451
bevegelse	-10.8459
avtalen	-10.8486
▁sluse	-10.8524
ко	-10.8563
historiker	-10.8569
instrument	-10.8569
redaktør	-10.8569
butikk	-10.857
prøve	-10.8577
▁øygrupp	-10.8599
fellesskap	-10.8603
lån	-10.8625
fleks	-10.8629
kommanderende	-10.8737
▁arrangerer	-10.8737
▁arrangør	-10.8737
▁inskripsjon	-10.8737
▁jomfru	-10.8737
▁omdøpt	-10.8737
▁shakespeare	-10.8737
▁territorium	-10.8737
▁tsjekkia	-10.8737
▁hiphop	-10.8737
▁foreløpig	-10.8737
▁konkurs	-10.8737
▁diagnos	-10.8737
▁misjonær	-10.8737
▁selvmord	-10.8737
▁væske	-10.8738
▁slovensk	-10.8738
▁handlet	-10.8738
▁betaling	-10.8738
▁rettferdig	-10.8738
▁sekunder	-10.8739
▁svekke	-10.8739
▁axel	-10.8739
▁røtter	-10.8739
▁bbc	-10.874
▁verdensrekord	-10.874
▁fuktig	-10.874
▁utsikt	-10.874
▁senatet	-10.874
stipend	-10.8741
▁nansen	-10.8742
▁bedrifter	-10.8746
mission	-10.8749
▁mandat	-10.8751
▁jurist	-10.8751
▁pumpe	-10.8752
▁ytterkant	-10.8756
ministre	-10.8757
▁variasjon	-10.8763
▁undervist	-10.8766
▁jernbanestasjon	-10.8788
▁forvalte	-10.8789
▁domkirke	-10.8791
blanding	-10.8885
radio	-10.8889
▁insekt	-10.8893
▁database	-10.8897
areal	-10.8918
sykdom	-10.8928
overføring	-10.8931
▁olympi	-10.8934
bombe	-10.8962
erkebispedømme	-10.9049
landeveissyklist	-10.9049
▁association	-10.9049
▁generalmajor	-10.9049
▁helsingfors	-10.9049
▁hongkong	-10.9049
▁illustrasjon	-10.9049
▁innendørs	-10.9049
▁investering	-10.9049
▁tilnærming	-10.9049
▁virginia	-10.9049
▁vladimir	-10.9049
▁opprettholde	-10.9049
▁abraham	-10.9049
▁anmelder	-10.9049
▁identitet	-10.9049
▁oppdatert	-10.9049
▁kavaleri	-10.905
▁heavy	-10.905
▁class	-10.905
▁komplett	-10.905
▁lørdag	-10.905
▁trussel	-10.905
statistikk	-10.905
innehaver	-10.9051
▁uklar	-10.9051
▁omstridt	-10.9051
▁barokk	-10.9051
krønike	-10.9052
▁leilighet	-10.9052
▁forandring	-10.9052
▁gjenopprette	-10.9052
▁kristus	-10.9053
▁sultan	-10.9054
▁høgskolen	-10.9054
▁rakett	-10.9055
▁tibet	-10.9056
▁donald	-10.9056
recht	-10.9057
▁skygge	-10.9061
▁avgrense	-10.9078
registre	-10.9086
▁demokrati	-10.9087
▁sokn	-10.9106
forfølgelse	-10.912
direk	-10.9167
konstruksjon	-10.9204
arkitekt	-10.9204
klima	-10.9208
▁ligge	-10.9232
▁verneområde	-10.9248
▁undergrunns	-10.9254
▁messi	-10.9288
bukten	-10.931
▁konsentrasjon	-10.9331
▁væpne	-10.9372
▁football	-10.9372
▁frankfurt	-10.9372
▁fundament	-10.9372
▁konsentrert	-10.9372
▁microsoft	-10.9372
▁opphørte	-10.9372
▁vålerenga	-10.9372
▁ferskvann	-10.9372
▁1883	-10.9372
▁colombia	-10.9372
▁european	-10.9372
▁mangfold	-10.9372
▁westfalen	-10.9372
▁deutsche	-10.9372
▁kontrast	-10.9372
▁firenze	-10.9372
▁begravet	-10.9372
▁cambridge	-10.9373
▁visepresident	-10.9373
▁regjert	-10.9373
▁innskriften	-10.9373
▁dvd	-10.9373
▁osmansk	-10.9374
▁revolusjonære	-10.9374
▁josé	-10.9374
▁gerhard	-10.9375
▁stryk	-10.9375
▁føderal	-10.9375
▁fienden	-10.9376
▁gratis	-10.9377
▁splitte	-10.938
▁øvelsen	-10.938
▁tilfeldig	-10.9381
▁ltd	-10.9384
▁avansert	-10.9387
▁priori	-10.9399
▁våt	-10.9405
sirkel	-10.9408
lemme	-10.9445
▁myndighet	-10.9458
▁kallenavne	-10.9484
▁utvide	-10.95
sentral	-10.9566
lokale	-10.9567
artikler	-10.9577
herredømme	-10.9585
▁respekt	-10.959
▁dynasti	-10.963
asiatiske	-10.9664
voksende	-10.9671
ière	-10.9682
▁bysantinsk	-10.9705
▁elektrisitet	-10.9705
▁françois	-10.9705
▁halveringstid	-10.9705
▁illustrert	-10.9705
▁sluppet	-10.9705
▁invadert	-10.9705
▁konstitusjon	-10.9705
▁plutselig	-10.9705
▁prestegjeld	-10.9705
▁restaurant	-10.9705
▁vurdert	-10.9705
▁årsjubile	-10.9705
▁flaggbærer	-10.9705
▁jacque	-10.9705
lovgivning	-10.9705
▁invitert	-10.9705
▁potensiel	-10.9705
▁autoritet	-10.9705
▁svovel	-10.9705
▁unesco	-10.9705
▁fantasy	-10.9705
▁haugesund	-10.9705
▁people	-10.9706
▁kristelig	-10.9706
▁sektor	-10.9706
▁seoul	-10.9706
▁etterretning	-10.9706
selskab	-10.9706
▁kostnad	-10.9706
▁ålesund	-10.9706
▁døpt	-10.9706
▁flyktninge	-10.9706
▁utpekt	-10.9707
▁søsken	-10.9707
▁varmekraftverk	-10.9707
▁oppheve	-10.9707
▁bolivia	-10.9707
betjent	-10.9707
▁fylkeskommune	-10.9708
▁reformasjonen	-10.9708
▁busker	-10.971
▁filmatiser	-10.9711
trilogi	-10.9712
▁smitte	-10.9713
ritual	-10.9713
▁work	-10.9718
▁rifle	-10.9721
regnskap	-10.973
shaw	-10.9745
▁kommunistparti	-10.9758
▁offisiell	-10.9763
ladning	-10.9822
chuan	-10.9844
størrelse	-10.9879
resultat	-10.9883
flagg	-10.9884
utgave	-10.9908
fløyte	-10.9958
streik	-10.997
▁pleie	-11.0002
▁avslutning	-11.005
▁bulgaria	-11.005
▁bulgarsk	-11.005
▁douglas	-11.005
▁heidelberg	-11.005
▁konkurrent	-11.005
▁molekyl	-11.005
▁parallelt	-11.005
▁tsjekkisk	-11.005
▁åpningsseremoni	-11.005
▁cæsar	-11.005
▁høvding	-11.005
▁plyndr	-11.005
▁pattedyr	-11.005
▁arbeidsgiver	-11.005
▁claudi	-11.005
köping	-11.005
▁africa	-11.005
▁scient	-11.005
▁theodor	-11.005
▁napoli	-11.005
▁wright	-11.005
▁stephen	-11.0051
▁massiv	-11.0051
▁innenriks	-11.0051
▁kombinere	-11.0051
▁lewis	-11.0051
▁trengte	-11.0051
▁tokyo	-11.0051
▁kullkraftverk	-11.0051
▁referert	-11.0052
▁myrdet	-11.0052
▁innvalgt	-11.0052
▁dekorert	-11.0052
▁sunget	-11.0052
▁barnehage	-11.0052
▁utgivelser	-11.0054
▁annonsert	-11.0054
▁presentere	-11.0055
▁tropisk	-11.0062
▁slange	-11.0094
hampton	-11.0115
revolusjonen	-11.0134
▁öst	-11.0162
▁forfatte	-11.0188
fylke	-11.0241
operasjon	-11.0253
9	-11.0321
▁beliggenhet	-11.0407
▁dirigent	-11.0407
▁forvandling	-11.0407
▁frilufts	-11.0407
▁guangdong	-11.0407
▁intellektuell	-11.0407
▁jordskjelv	-11.0407
▁meksikansk	-11.0407
▁orchestra	-11.0407
▁skandinavia	-11.0407
▁stjørdal	-11.0407
▁babylon	-11.0407
▁göteborg	-11.0407
▁hønefoss	-11.0407
▁katolikk	-11.0407
▁propaganda	-11.0407
▁kvadrat	-11.0407
▁materiell	-11.0407
▁sogneprest	-11.0407
▁diskusjon	-11.0407
▁eidsvoll	-11.0407
▁brønn	-11.0407
▁rockeband	-11.0407
▁jersey	-11.0408
▁arsenal	-11.0408
▁cappelen	-11.0408
▁tolkning	-11.0408
▁konsesjon	-11.0408
▁fødselsår	-11.0408
▁kommisjonen	-11.0408
▁redigert	-11.0408
▁corneli	-11.0408
▁verdensarv	-11.0408
søknad	-11.0409
▁skrog	-11.0409
▁skikkelse	-11.0409
▁charlotte	-11.0409
▁kråk	-11.0411
▁bløt	-11.0411
▁first	-11.0411
terapi	-11.0411
▁nkp	-11.0413
▁point	-11.0413
▁mannsnavn	-11.0419
▁bjerk	-11.0419
▁ødela	-11.0419
▁flanke	-11.0422
▁armensk	-11.0424
▁ragnar	-11.0429
▁bakerst	-11.0437
▁undergrunnsbane	-11.0441
personligheter	-11.0473
▁kjeve	-11.0495
▁blanc	-11.0518
▁skanse	-11.0539
edderkopper	-11.056
frukt	-11.0609
forskjell	-11.0609
litteratur	-11.061
tradisjon	-11.0611
klipp	-11.0669
▁basketball	-11.0778
▁ektefelle	-11.0778
▁fasettøynene	-11.0778
▁guddommelig	-11.0778
▁indonesia	-11.0778
▁innstiftet	-11.0778
▁jugoslavia	-11.0778
▁pennsylvania	-11.0778
▁popularitet	-11.0778
▁pronotum	-11.0778
▁uppsala	-11.0778
▁vurdering	-11.0778
▁øyeblikk	-11.0778
inspektør	-11.0778
▁ammunisjon	-11.0778
▁amsterdam	-11.0778
▁fiendtlig	-11.0778
▁forveksle	-11.0778
▁opplysninger	-11.0778
▁litauen	-11.0778
▁stridsvogn	-11.0778
▁baptist	-11.0778
pyramide	-11.0778
▁verdslig	-11.0778
▁frogner	-11.0778
betennelse	-11.0778
▁prince	-11.0778
▁selvbiografi	-11.0778
▁sicilia	-11.0778
▁korsfarer	-11.0778
▁vegetasjon	-11.0778
▁stemning	-11.0778
▁apollo	-11.0779
▁dybde	-11.0779
▁bønder	-11.0779
▁macao	-11.0779
▁veteran	-11.078
▁stedsnavn	-11.0782
▁place	-11.0788
▁fossile	-11.0789
▁forelske	-11.0799
▁støv	-11.0823
▁hospital	-11.0861
▁flamme	-11.087
emmelig	-11.0874
grunnsstasjon	-11.0885
kommando	-11.0994
kvalitet	-11.0994
kommunikasjon	-11.0994
teknologi	-11.0997
åpning	-11.0998
tetthet	-11.1045
▁napoleon	-11.1162
provinshovedstad	-11.1162
psykiatri	-11.1162
▁assosiert	-11.1162
▁filippinene	-11.1162
▁helikopter	-11.1162
▁intelligen	-11.1162
▁lokomotiv	-11.1162
▁ordenstegnet	-11.1162
▁philadelphia	-11.1162
▁research	-11.1162
▁spellemannpris	-11.1162
▁francesco	-11.1162
▁indirekte	-11.1162
▁nitrogen	-11.1162
▁utdødd	-11.1162
▁campbell	-11.1162
▁ferdinand	-11.1162
▁overvåke	-11.1162
mønstre	-11.1162
▁istedenfor	-11.1162
▁forbedring	-11.1162
▁gravitasjon	-11.1162
▁vertikal	-11.1162
▁komplisert	-11.1162
▁ferrari	-11.1162
▁atlanta	-11.1163
▁kongsvinger	-11.1163
▁langvarig	-11.1163
▁kjæreste	-11.1163
▁fernand	-11.1163
▁narvik	-11.1163
▁systematisk	-11.1163
▁detroit	-11.1164
▁tirol	-11.1164
beredskap	-11.1165
▁fantasi	-11.1165
▁tendens	-11.1167
dolph	-11.1169
▁amerikanere	-11.1186
kapell	-11.1194
▁benevn	-11.1213
kjenning	-11.1214
misbruk	-11.1241
flyvning	-11.1273
gruppa	-11.1336
president	-11.1393
ekspedisjon	-11.1394
likevel	-11.1395
▁representere	-11.1455
▁forstyrre	-11.1525
dampskibsselskab	-11.1562
▁columbia	-11.1562
▁kristendommen	-11.1562
▁lincoln	-11.1562
▁ludwig	-11.1562
▁mccartney	-11.1562
▁mountain	-11.1562
▁publikasjon	-11.1562
▁varaordfører	-11.1562
▁evolusjon	-11.1562
▁fjorten	-11.1562
▁narkotika	-11.1562
▁identifisert	-11.1562
▁matematisk	-11.1562
▁meteorolog	-11.1562
▁libanon	-11.1562
saksofon	-11.1562
▁latvia	-11.1562
▁bystatus	-11.1562
▁dresden	-11.1562
▁dublin	-11.1562
▁tvilling	-11.1562
▁sekundær	-11.1563
hemmede	-11.1563
▁madrid	-11.1563
▁stanley	-11.1563
▁gwh	-11.1563
▁middle	-11.1563
▁bowie	-11.1563
▁skjebne	-11.1563
▁muhamm	-11.1563
▁guinea	-11.1564
▁christensen	-11.1565
▁abbed	-11.1565
▁finansiere	-11.1566
rettighetene	-11.1566
▁manglen	-11.1582
nemnd	-11.1584
sekund	-11.1599
myndigheten	-11.1604
rilyn	-11.1606
løype	-11.1693
▁puppe	-11.1696
▁utforme	-11.1699
knutepunkt	-11.1713
brenning	-11.1792
produsert	-11.1811
sesongen	-11.1812
bøyd	-11.1854
▁doktor	-11.1978
▁aluminium	-11.1979
▁ambassade	-11.1979
▁business	-11.1979
▁fallskjerm	-11.1979
▁forfremme	-11.1979
▁gjøvik	-11.1979
▁godkjenne	-11.1979
▁infrastruktur	-11.1979
▁keyboard	-11.1979
▁klassifisere	-11.1979
▁kristoffer	-11.1979
▁margrethe	-11.1979
▁mississippi	-11.1979
▁opplysnings	-11.1979
▁skribent	-11.1979
ã	-12.337
ü	-12.6489
