<unk>	0
<s>	0
</s>	0
.	-3.27958
▁i	-3.51077
e	-3.60929
s	-3.726
▁og	-3.87051
t	-4.18039
▁	-4.18267
er	-4.23896
en	-4.30203
▁av	-4.32209
▁som	-4.51323
▁en	-4.51713
▁er	-4.56522
▁til	-4.66126
r	-4.69913
▁for	-4.72209
▁på	-4.75808
n	-4.92337
▁med	-4.94604
▁den	-4.95476
▁ble	-4.98382
▁det	-5.03575
et	-5.0507
▁de	-5.09878
▁var	-5.11427
▁han	-5.27121
▁å	-5.33639
▁fra	-5.36999
▁et	-5.49511
▁har	-5.56019
a	-5.60175
ene	-5.62078
▁at	-5.6989
ne	-5.82578
▁ved	-5.93981
d	-5.94583
i	-6.0006
▁om	-6.05013
▁også	-6.06014
▁etter	-6.07733
o	-6.09393
k	-6.09487
▁men	-6.14923
te	-6.1727
▁ut	-6.2234
▁under	-6.23972
g	-6.24481
y	-6.27347
m	-6.31875
▁seg	-6.32326
▁da	-6.36307
▁hadde	-6.38707
re	-6.39273
de	-6.40904
▁ikke	-6.41206
l	-6.41511
▁to	-6.41616
▁opp	-6.4173
▁over	-6.42628
▁eller	-6.44831
▁kan	-6.50618
p	-6.50756
▁inn	-6.50909
f	-6.54229
▁s	-6.56064
▁sin	-6.61785
▁andre	-6.64304
es	-6.65463
v	-6.6663
▁mot	-6.69117
▁18	-6.72183
ing	-6.72998
▁hun	-6.73482
▁1	-6.73923
▁første	-6.73938
▁dette	-6.75077
us	-6.7644
▁be	-6.76496
▁a	-6.77373
▁mellom	-6.80515
ter	-6.81147
h	-6.83488
▁født	-6.83808
▁ha	-6.84071
al	-6.84451
▁år	-6.85482
c	-6.868
▁hans	-6.87093
b	-6.90406
an	-6.91634
ende	-6.92164
in	-6.94615
u	-6.95247
▁tre	-6.96494
▁f	-6.97074
▁der	-6.98961
sk	-6.99066
▁fikk	-7.02454
▁denne	-7.04275
▁sammen	-7.04739
le	-7.06788
sen	-7.06806
na	-7.07167
▁flere	-7.07221
▁the	-7.07676
z	-7.08443
▁blant	-7.08651
▁kom	-7.09629
on	-7.09689
ri	-7.09715
▁man	-7.10509
ia	-7.10629
▁nord	-7.10671
▁u	-7.12412
▁2	-7.13095
ar	-7.13958
w	-7.14268
▁alle	-7.14641
▁m	-7.16616
▁c	-7.20004
▁før	-7.20686
▁la	-7.23456
▁ligger	-7.23623
▁del	-7.24009
▁så	-7.24593
ø	-7.25479
▁hvor	-7.25703
is	-7.25926
la	-7.26356
▁g	-7.27466
lig	-7.28657
▁mange	-7.29927
land	-7.30606
▁mer	-7.31201
▁stor	-7.3198
ta	-7.32577
▁3	-7.33355
▁bo	-7.3411
ten	-7.34902
vis	-7.35817
▁tidligere	-7.36236
▁ca	-7.36344
▁senere	-7.37495
▁se	-7.38154
▁17	-7.38195
▁kr	-7.38232
øy	-7.38249
um	-7.38778
▁norsk	-7.38791
iske	-7.393
nde	-7.39501
li	-7.39662
▁p	-7.40012
ut	-7.40432
▁annet	-7.40502
▁kommune	-7.40844
st	-7.41014
▁norge	-7.41402
▁byen	-7.41559
▁død	-7.4199
▁blir	-7.42034
▁b	-7.42072
▁her	-7.42333
ske	-7.42678
▁gjennom	-7.43077
j	-7.43631
▁tallet	-7.43693
▁disse	-7.43698
ur	-7.43815
▁noen	-7.44777
▁d	-7.45876
el	-7.46268
▁selv	-7.46922
ler	-7.47097
▁of	-7.47771
▁siden	-7.47781
ens	-7.48598
▁5	-7.48833
▁ol	-7.49246
be	-7.4949
▁være	-7.4951
▁ny	-7.49864
ke	-7.49877
▁k	-7.50145
▁4	-7.5024
▁15	-7.50332
▁sør	-7.50453
▁sitt	-7.5066
▁kjent	-7.50869
ver	-7.51323
ig	-7.5151
▁re	-7.51851
▁blitt	-7.5288
▁16	-7.5288
▁ro	-7.53368
ma	-7.53383
▁st	-7.53842
▁vært	-7.54238
or	-7.5545
▁store	-7.56055
ning	-7.56311
ka	-7.56881
ul	-7.57079
der	-7.57145
▁samme	-7.57485
▁vest	-7.58049
▁al	-7.58229
▁sa	-7.5836
ff	-7.58609
nes	-7.58932
x	-7.60086
▁frem	-7.61017
é	-7.61328
▁o	-7.61363
lo	-7.61444
▁rundt	-7.61587
isk	-7.6167
▁noe	-7.6192
it	-7.6238
▁h	-7.62528
▁tid	-7.63184
▁an	-7.63309
▁10	-7.63512
▁ned	-7.63903
ck	-7.64211
ad	-7.6471
▁mens	-7.65208
for	-7.65289
da	-7.66448
▁dag	-7.66922
å	-7.66933
kk	-7.67016
ga	-7.67925
▁land	-7.6812
▁enn	-7.69024
ch	-7.69216
ll	-7.69467
▁kunne	-7.70056
mann	-7.70388
bo	-7.70575
▁gikk	-7.70764
▁vil	-7.7082
erte	-7.70878
▁ofte	-7.71355
▁skulle	-7.71372
▁øst	-7.71425
ra	-7.71454
▁by	-7.71462
▁spilt	-7.71502
▁båd	-7.71503
me	-7.72608
▁sine	-7.72826
▁vant	-7.73575
▁grunn	-7.73673
▁slik	-7.73688
▁ba	-7.73878
tt	-7.74001
ton	-7.74117
ger	-7.75089
▁v	-7.7512
ol	-7.75553
▁skal	-7.75624
▁mest	-7.75643
▁pi	-7.75711
▁7	-7.75821
▁km	-7.76282
ør	-7.76294
th	-7.76374
ste	-7.7655
ha	-7.76597
bu	-7.77166
ve	-7.77202
▁le	-7.77243
▁di	-7.77263
▁n	-7.774
▁ga	-7.78097
ge	-7.78179
os	-7.78526
ng	-7.78564
ro	-7.78598
den	-7.78664
▁6	-7.78713
il	-7.7886
kt	-7.78875
ner	-7.78944
man	-7.79144
▁ham	-7.79195
at	-7.79195
▁li	-7.79544
ert	-7.79588
▁norske	-7.79615
mo	-7.79638
lige	-7.79659
ven	-7.80008
▁vi	-7.80054
▁hoved	-7.80125
▁nye	-7.80729
▁finnes	-7.82002
ry	-7.82085
▁navnet	-7.82441
▁mo	-7.83319
▁tilbake	-7.83406
▁co	-7.83406
erne	-7.83466
▁navn	-7.83692
skap	-7.83803
▁ta	-7.83916
▁j	-7.8399
as	-7.84354
▁største	-7.84823
▁8	-7.85136
▁gang	-7.85323
▁mars	-7.8547
▁ni	-7.85574
stad	-7.85905
▁ti	-7.85941
het	-7.86102
▁fram	-7.86777
ker	-7.86787
to	-7.87146
ist	-7.87465
▁tok	-7.87951
▁ka	-7.88138
▁w	-7.88177
▁oslo	-7.88327
▁bli	-7.88402
▁fire	-7.88661
▁sp	-7.88852
▁lag	-7.88869
▁dem	-7.88915
▁få	-7.88958
▁l	-7.89115
pp	-7.89126
▁ra	-7.89139
▁bare	-7.8927
▁august	-7.8928
▁mai	-7.90111
▁kon	-7.90123
▁sk	-7.92027
mi	-7.92189
ja	-7.92217
▁januar	-7.92268
vi	-7.9247
▁pa	-7.92478
id	-7.92613
▁fri	-7.92636
ell	-7.93142
ic	-7.93233
▁ho	-7.93627
▁nå	-7.93644
▁13	-7.94038
▁ar	-7.94079
om	-7.94235
▁per	-7.94394
am	-7.94522
un	-7.94571
di	-7.96021
▁går	-7.96356
▁si	-7.96458
▁14	-7.96713
▁meter	-7.9673
▁kalt	-7.96761
var	-7.96923
▁kirke	-7.97631
▁na	-7.97634
▁hele	-7.97643
dal	-7.97685
by	-7.97725
▁9	-7.9789
▁usa	-7.9823
mer	-7.98522
▁t	-7.98832
son	-7.98934
▁juli	-7.993
▁12	-7.99516
▁mål	-7.99553
▁siste	-7.997
ed	-8.00857
▁000	-8.01463
gen	-8.01783
▁lo	-8.01871
ag	-8.02563
▁he	-8.03039
opp	-8.03708
▁tillegg	-8.03873
op	-8.03883
ling	-8.04166
▁su	-8.04748
mp	-8.05172
ti	-8.05544
co	-8.06222
bi	-8.06344
▁april	-8.06358
▁lu	-8.06372
▁vanlig	-8.0645
▁deres	-8.06531
ce	-8.06542
asjon	-8.06673
ba	-8.06822
pe	-8.07011
▁rekke	-8.07032
ier	-8.07182
gi	-8.07478
▁først	-8.07567
▁far	-8.07864
▁2008	-8.07897
▁bi	-8.08311
ie	-8.08389
▁du	-8.08496
ang	-8.08528
▁bak	-8.08562
▁fly	-8.08595
▁2007	-8.08719
▁me	-8.08743
▁videre	-8.08926
▁engelsk	-8.09315
▁20	-8.0935
▁igjen	-8.0972
▁når	-8.09822
▁området	-8.09859
▁hos	-8.0986
men	-8.09934
▁as	-8.10223
sa	-8.1025
▁årene	-8.10715
▁11	-8.10903
▁deltok	-8.10971
▁juni	-8.11497
ard	-8.11759
▁pe	-8.11776
ær	-8.11967
▁mor	-8.1199
▁skole	-8.12116
▁bu	-8.12168
▁oktober	-8.1256
▁2010	-8.1257
▁samt	-8.12813
▁lang	-8.12886
je	-8.12941
rett	-8.13102
gang	-8.13512
nd	-8.13982
▁utgitt	-8.14108
▁el	-8.14377
va	-8.14543
▁rett	-8.14781
else	-8.15943
si	-8.16005
vik	-8.16169
ring	-8.16345
▁no	-8.16428
á	-8.16583
▁desember	-8.16775
▁mindre	-8.16783
▁so	-8.17611
▁fem	-8.17929
▁vann	-8.18033
kke	-8.18089
del	-8.18109
ä	-8.18112
▁lov	-8.18154
▁landet	-8.18246
ho	-8.18295
▁tro	-8.184
▁po	-8.18552
len	-8.18678
▁uten	-8.18723
▁gi	-8.19219
sjon	-8.19538
▁september	-8.19614
▁februar	-8.19836
sh	-8.20331
ant	-8.2045
iv	-8.20617
▁pro	-8.20706
▁mat	-8.20755
▁kong	-8.21223
▁laget	-8.21748
▁r	-8.2188
▁leder	-8.22246
ö	-8.22404
▁like	-8.22772
▁døde	-8.23081
ok	-8.2312
▁or	-8.23298
▁y	-8.23441
▁november	-8.23452
▁nær	-8.23458
▁begynte	-8.23622
he	-8.23866
sted	-8.23957
midlertid	-8.24146
tal	-8.24176
go	-8.24283
▁hu	-8.24367
▁liv	-8.24535
▁kun	-8.24779
▁bestå	-8.24853
▁2009	-8.2508
▁go	-8.25081
æ	-8.25123
▁ri	-8.25183
▁eksempel	-8.2531
år	-8.25433
ly	-8.25722
berg	-8.25813
▁do	-8.2603
▁ru	-8.26156
▁musikk	-8.26268
od	-8.26306
▁gjen	-8.26568
▁eks	-8.27093
▁and	-8.27207
ko	-8.2769
retter	-8.27788
▁ei	-8.27861
▁sønn	-8.27907
▁film	-8.2792
▁plass	-8.27922
▁helt	-8.28162
ir	-8.28432
do	-8.28509
ns	-8.28575
▁2006	-8.28655
▁bruk	-8.2894
▁ville	-8.29088
ment	-8.29365
▁new	-8.29466
ingen	-8.2953
im	-8.30345
▁jo	-8.30374
▁medlem	-8.30394
tte	-8.30772
▁forhold	-8.30839
ion	-8.31201
▁beste	-8.31269
gu	-8.31271
▁tv	-8.31528
▁større	-8.3183
▁gamle	-8.32101
▁hver	-8.32168
▁sol	-8.32273
lse	-8.32311
▁europa	-8.32359
ster	-8.32423
▁2005	-8.32866
▁egen	-8.32909
▁30	-8.33119
▁ko	-8.33232
ik	-8.33478
▁brukt	-8.33509
▁spiller	-8.33688
▁sverige	-8.33873
▁gu	-8.34032
▁brukes	-8.34092
▁startet	-8.34139
▁gjorde	-8.34254
ans	-8.34506
▁tyske	-8.34633
▁innbyggere	-8.34642
lin	-8.34772
▁form	-8.3478
▁olympisk	-8.35158
▁små	-8.35337
▁mye	-8.35475
▁dr	-8.3563
tak	-8.35752
ca	-8.35825
▁gift	-8.36359
▁fa	-8.36464
▁politisk	-8.37122
▁tyskland	-8.37138
tor	-8.3751
au	-8.37535
▁ski	-8.37555
▁sam	-8.37557
▁skrev	-8.37905
▁kunst	-8.38197
▁lys	-8.3821
per	-8.38282
▁kommer	-8.38302
▁bra	-8.38346
pa	-8.38451
▁ge	-8.38645
tur	-8.38994
▁innen	-8.39061
▁0	-8.39069
over	-8.39166
▁sch	-8.39495
kel	-8.40336
ni	-8.40615
dag	-8.40732
▁satt	-8.40847
▁derfor	-8.40959
▁kort	-8.4113
ord	-8.41367
▁språk	-8.41526
jø	-8.41546
▁lå	-8.41561
ow	-8.4157
▁måtte	-8.41598
▁filmen	-8.41799
▁par	-8.41808
itet	-8.42004
vin	-8.42275
ina	-8.42311
▁må	-8.42443
anske	-8.42567
ningen	-8.42646
▁tor	-8.42658
gg	-8.42665
mål	-8.42722
▁svær	-8.42808
▁hennes	-8.42921
pi	-8.42947
▁mar	-8.43107
▁langs	-8.43155
ings	-8.43208
▁opprinnelig	-8.43238
▁ma	-8.43423
▁øy	-8.43446
rede	-8.43501
▁tri	-8.44473
slag	-8.44597
▁god	-8.44598
ci	-8.44604
▁all	-8.44944
▁x	-8.45046
▁bandet	-8.45069
▁barn	-8.45091
hu	-8.4551
▁vei	-8.45764
▁ingen	-8.45906
▁parti	-8.46157
ov	-8.46481
▁tiden	-8.46485
▁bar	-8.46519
siden	-8.46622
ü	-8.46662
▁alt	-8.46778
▁tatt	-8.46823
▁særlig	-8.46977
▁hus	-8.47083
tre	-8.47129
▁president	-8.47368
▁am	-8.47543
▁gir	-8.47612
rik	-8.47756
▁em	-8.4789
▁tysk	-8.4795
▁bygget	-8.47961
▁sett	-8.48016
▁mi	-8.48023
elle	-8.4818
▁fi	-8.48412
▁sommer	-8.48701
▁folke	-8.4887
po	-8.48894
ering	-8.4916
▁ju	-8.49536
ong	-8.49749
dermed	-8.49766
▁te	-8.49854
▁tidlig	-8.4991
io	-8.49932
▁høy	-8.49938
▁ulike	-8.49999
▁begge	-8.50212
▁2004	-8.50216
▁amerikanske	-8.50327
av	-8.5041
sta	-8.50523
▁samtidig	-8.50532
▁hvert	-8.50536
▁perioden	-8.50737
ud	-8.50804
ium	-8.51047
▁amerikansk	-8.51443
▁john	-8.51693
▁bok	-8.51837
▁verdens	-8.51903
min	-8.51962
følge	-8.51979
und	-8.52107
▁seks	-8.52139
▁albumet	-8.52139
▁tra	-8.52164
ak	-8.52172
▁kina	-8.52173
stand	-8.52314
▁kultur	-8.52339
bar	-8.52999
▁ad	-8.53173
▁lever	-8.53197
▁arbeidet	-8.5328
▁fast	-8.53342
▁året	-8.53597
stein	-8.53618
ot	-8.53671
ny	-8.53882
ppe	-8.53964
▁san	-8.54008
and	-8.5424
▁skrevet	-8.5427
2	-8.5433
ting	-8.54391
▁ganger	-8.54676
▁norges	-8.54683
▁nasjonal	-8.54873
▁fo	-8.54904
▁fleste	-8.54913
dalen	-8.55126
ty	-8.5516
met	-8.55328
▁etablert	-8.55773
▁klubben	-8.55878
▁25	-8.55959
tan	-8.56048
▁bl	-8.56195
ken	-8.5629
val	-8.56368
▁hen	-8.56511
mmer	-8.56677
▁ja	-8.57011
▁gitt	-8.57252
▁gull	-8.57286
▁grad	-8.57331
▁sv	-8.57338
▁ab	-8.57527
ld	-8.57593
lu	-8.57667
▁2011	-8.57707
▁2003	-8.57711
▁nor	-8.57814
sel	-8.57986
▁hi	-8.58078
▁london	-8.58677
hold	-8.58814
▁gruppen	-8.58928
▁tredje	-8.58973
▁kjente	-8.59134
▁stedet	-8.59137
nn	-8.59345
▁gud	-8.59353
▁provinsen	-8.59385
▁lokal	-8.59394
gr	-8.59631
lag	-8.59737
satt	-8.59787
▁sto	-8.59896
▁frankrike	-8.6033
▁innehold	-8.60331
▁pu	-8.60531
▁ste	-8.60645
hi	-8.60664
▁ki	-8.60665
▁kor	-8.60816
▁sted	-8.6088
ius	-8.60971
ran	-8.61207
▁løpet	-8.61375
▁2000	-8.61423
▁øya	-8.61489
▁side	-8.61658
mb	-8.61835
ru	-8.61846
ige	-8.61886
▁annen	-8.61922
les	-8.62036
▁fotball	-8.62226
ber	-8.62345
▁vel	-8.62684
▁stort	-8.6269
▁21	-8.62955
hus	-8.63189
sp	-8.63293
mme	-8.63512
fjorden	-8.63603
mar	-8.63748
ku	-8.63783
▁stat	-8.63839
▁ord	-8.63888
tiske	-8.64063
ron	-8.64104
▁viktig	-8.64394
tro	-8.64612
▁wa	-8.64917
▁millioner	-8.65027
▁fjell	-8.6528
▁nytt	-8.65394
ikk	-8.65589
▁fransk	-8.65915
▁fred	-8.65934
ley	-8.65986
4	-8.66087
▁gammel	-8.66151
▁ak	-8.66211
▁sjø	-8.6645
art	-8.66501
bb	-8.66505
▁2002	-8.66515
▁bro	-8.66593
ks	-8.66606
kon	-8.6672
dom	-8.66914
▁kalles	-8.66931
itt	-8.66999
▁stein	-8.6706
▁con	-8.67163
▁mark	-8.67815
fa	-8.67852
▁mulig	-8.67856
▁hel	-8.67882
du	-8.67947
▁mann	-8.67979
let	-8.68019
▁bru	-8.68128
▁england	-8.68308
▁fag	-8.68343
sse	-8.68368
▁19	-8.68425
▁står	-8.68591
dd	-8.6873
▁forskjellige	-8.68733
▁deler	-8.68763
▁verdenskrig	-8.6904
▁selskapet	-8.69273
tid	-8.69409
▁car	-8.69481
kor	-8.69617
isme	-8.69626
▁person	-8.69803
▁kinesisk	-8.69946
ren	-8.69972
tisk	-8.69995
ighet	-8.70141
nder	-8.70176
▁eneste	-8.70264
▁serien	-8.70328
sch	-8.70625
kj	-8.70876
lat	-8.70976
▁langt	-8.71027
inn	-8.71048
em	-8.71103
verk	-8.71115
▁støtte	-8.71365
▁slutt	-8.71708
▁ne	-8.71942
▁kongen	-8.72008
▁familien	-8.72287
▁britiske	-8.72305
▁fant	-8.72409
▁konge	-8.72488
ham	-8.72695
ian	-8.72841
▁forfatter	-8.72953
▁pre	-8.73342
tra	-8.73412
lan	-8.73761
lands	-8.73773
▁kirken	-8.73911
ac	-8.73931
net	-8.74118
▁omkring	-8.74612
▁komme	-8.74707
▁grav	-8.74726
▁familie	-8.74738
▁basert	-8.74879
▁2001	-8.75148
▁farge	-8.75278
▁syn	-8.75487
▁22	-8.75527
up	-8.75588
▁my	-8.75706
▁arbeid	-8.75832
▁kn	-8.7589
▁viser	-8.75933
dre	-8.75989
▁100	-8.75994
▁delen	-8.76205
▁kar	-8.76263
▁krigen	-8.76335
skole	-8.76351
▁sesongen	-8.7677
▁va	-8.76873
▁delstaten	-8.76962
ska	-8.77014
▁ført	-8.77291
▁val	-8.77339
mor	-8.77364
fly	-8.77594
ninger	-8.77627
▁innenfor	-8.77808
kant	-8.78013
inger	-8.78179
tall	-8.78537
▁os	-8.78547
▁fortsatt	-8.78619
▁bruker	-8.7864
mm	-8.78646
burg	-8.78658
sten	-8.78738
par	-8.78788
▁1990	-8.78932
▁én	-8.78963
▁utenfor	-8.79022
rak	-8.79086
▁ledet	-8.79139
▁rom	-8.79171
▁hatt	-8.79197
bel	-8.79371
▁utviklet	-8.79393
no	-8.79542
▁sangen	-8.79549
tok	-8.79555
ab	-8.79612
▁z	-8.7963
▁forbindelse	-8.7965
▁26	-8.79862
▁luft	-8.80144
▁fordi	-8.80236
ation	-8.80292
▁verden	-8.80362
tikk	-8.80492
▁mal	-8.80543
▁danmark	-8.80547
sett	-8.80731
▁pan	-8.80754
▁slutten	-8.80825
▁spille	-8.80838
ømme	-8.80886
tiden	-8.81015
▁dikt	-8.81049
▁bergen	-8.81101
ug	-8.81172
▁verk	-8.81298
▁1999	-8.8137
▁riks	-8.81404
▁elven	-8.81497
▁liten	-8.81866
▁ch	-8.81945
▁ty	-8.81972
wa	-8.82019
▁skog	-8.82044
▁berg	-8.82101
▁datter	-8.82113
ede	-8.82241
▁24	-8.82593
▁jeg	-8.82667
▁vm	-8.82737
▁åtte	-8.82901
▁ur	-8.83037
▁midt	-8.83103
ya	-8.83245
▁roman	-8.83379
my	-8.83632
▁historie	-8.83641
ki	-8.83749
vel	-8.84015
▁reise	-8.84098
▁bygge	-8.8413
stre	-8.84225
▁såkalt	-8.84277
▁godt	-8.84297
▁holdt	-8.84312
ica	-8.84384
▁lange	-8.84488
▁hol	-8.84671
ine	-8.84855
ksjon	-8.84859
▁23	-8.84891
▁sand	-8.85002
▁we	-8.85044
▁lav	-8.85238
landet	-8.85249
▁ver	-8.85261
og	-8.85574
▁sendt	-8.86001
ys	-8.86123
vei	-8.86271
▁hav	-8.86366
▁1980	-8.86425
uk	-8.86508
▁bort	-8.86697
▁karl	-8.8673
▁peter	-8.86755
bre	-8.86821
▁nok	-8.86872
▁fu	-8.86947
▁kommunen	-8.86983
elig	-8.87042
▁gul	-8.87216
▁rød	-8.87249
▁th	-8.87387
kan	-8.8744
▁stats	-8.87663
za	-8.87723
▁aktiv	-8.87773
▁universitetet	-8.8795
▁egne	-8.87959
▁ev	-8.87986
▁rolle	-8.88006
▁serie	-8.88011
asjonen	-8.88024
▁vise	-8.88062
sson	-8.88219
løp	-8.88226
▁funnet	-8.88337
▁moderne	-8.88363
▁hjelp	-8.8839
▁ben	-8.88484
▁general	-8.88595
kle	-8.88623
í	-8.88681
▁hjem	-8.887
▁svensk	-8.88754
▁resultat	-8.88763
jo	-8.88869
▁paris	-8.88924
▁franske	-8.88936
fi	-8.88997
▁bil	-8.89017
▁storbritannia	-8.89039
▁lite	-8.89088
pen	-8.89209
▁halv	-8.89265
▁militær	-8.89362
som	-8.89507
▁van	-8.89809
▁fl	-8.89885
▁ø	-8.89946
▁tar	-8.89993
▁jord	-8.90281
fjord	-8.90378
tar	-8.90536
▁svenske	-8.90685
▁stil	-8.90712
akt	-8.90781
▁enkelte	-8.90845
▁folk	-8.9086
▁pla	-8.90865
ret	-8.90936
est	-8.91101
form	-8.91194
▁plan	-8.91218
▁spesielt	-8.91282
▁50	-8.91388
▁barne	-8.91411
fe	-8.9144
▁skolen	-8.91497
van	-8.91523
ou	-8.91606
tri	-8.9174
▁flyttet	-8.91757
▁nesten	-8.91812
▁tu	-8.91968
▁natur	-8.91993
ister	-8.9201
▁mennesker	-8.92119
ator	-8.92225
▁min	-8.92247
▁slaget	-8.92618
▁personer	-8.9265
▁russisk	-8.9269
rat	-8.92735
plan	-8.92792
leg	-8.92822
▁bror	-8.92854
▁stemme	-8.92902
skje	-8.93025
▁kur	-8.93103
▁russland	-8.93114
bruk	-8.93146
legg	-8.93353
ung	-8.93381
dy	-8.93381
▁orden	-8.93556
▁gal	-8.93666
▁27	-8.93708
bok	-8.9382
▁hy	-8.93853
isert	-8.94075
▁ser	-8.94093
ill	-8.94157
elsen	-8.94355
▁betydning	-8.94505
▁1970	-8.94518
dyr	-8.94684
▁gjør	-8.94894
▁28	-8.94934
rom	-8.94939
sund	-8.94973
▁2012	-8.94985
1	-8.95164
▁krig	-8.95203
ble	-8.95378
▁bor	-8.95395
▁ett	-8.95572
▁radio	-8.95934
plass	-8.95978
▁utnevnt	-8.96082
▁band	-8.96285
▁lyd	-8.96305
▁følgende	-8.96438
kning	-8.96525
gående	-8.96622
▁prest	-8.96714
▁1998	-8.96885
▁bre	-8.9705
▁sentral	-8.9708
▁art	-8.97218
yl	-8.97292
▁italiensk	-8.97358
figur	-8.97403
▁mu	-8.97408
ding	-8.97421
▁fåt	-8.97424
▁gjort	-8.97491
▁arbeider	-8.97517
▁gjøre	-8.97604
forening	-8.97607
▁opprettet	-8.97641
▁31	-8.97664
▁ren	-8.97681
ide	-8.97683
▁styre	-8.97765
▁nummer	-8.97796
▁får	-8.97862
▁divisjon	-8.98082
▁au	-8.98089
▁kvinne	-8.98166
ds	-8.98179
▁sm	-8.98252
isering	-8.98295
▁dagens	-8.98316
▁york	-8.98327
far	-8.98374
▁menn	-8.98384
▁betyr	-8.98395
▁sta	-8.98493
▁ber	-8.98493
gel	-8.98495
tz	-8.98582
▁gruppe	-8.98694
▁meste	-8.98698
▁knytte	-8.98815
▁ku	-8.98836
▁industri	-8.98981
ket	-8.9912
mu	-8.992
▁italia	-8.99314
ek	-8.99329
▁aldri	-8.99338
▁via	-8.99378
▁jernbane	-8.99458
▁ed	-8.99531
ps	-8.99555
▁veien	-8.99634
▁hjemme	-8.99636
ski	-8.99708
▁partiet	-8.99726
▁gjerne	-8.9984
▁fin	-8.9989
borg	-9.00006
▁mon	-9.00041
▁valg	-9.00071
vo	-9.00079
▁åpnet	-9.00082
res	-9.00124
ving	-9.00147
▁medlemmer	-9.00367
ika	-9.00445
▁mus	-9.00468
▁lagt	-9.00503
▁op	-9.00593
▁spor	-9.00645
▁omtrent	-9.0079
▁sentrum	-9.00794
▁venstre	-9.00803
▁ring	-9.00964
lle	-9.01004
lla	-9.01023
▁johan	-9.01135
til	-9.01171
▁mari	-9.01227
▁bygd	-9.01331
00	-9.01552
▁cha	-9.01574
▁inkludert	-9.01576
▁antall	-9.0169
▁motor	-9.01706
▁foran	-9.01732
▁1996	-9.01799
▁full	-9.0189
▁menneske	-9.01937
▁kal	-9.02017
▁album	-9.02072
▁internasjonale	-9.0218
▁paul	-9.02196
styre	-9.02343
ji	-9.02428
▁best	-9.0247
▁meg	-9.02507
løs	-9.02687
▁fortsatte	-9.02707
lsen	-9.02767
▁eldre	-9.02844
gitt	-9.02947
vær	-9.03042
▁vinter	-9.03077
▁hal	-9.03077
stilling	-9.03124
▁mil	-9.03159
▁borger	-9.03205
▁je	-9.03225
stilt	-9.03249
▁jobbe	-9.03348
▁pr	-9.03382
▁valgt	-9.03522
▁slag	-9.03617
▁vin	-9.03805
laget	-9.03833
▁brasil	-9.03842
▁felles	-9.03899
lev	-9.03937
▁henne	-9.04027
▁litt	-9.04038
▁gav	-9.04266
▁skuespiller	-9.0436
▁romersk	-9.04375
▁hva	-9.04377
▁gj	-9.04528
▁staten	-9.04534
▁qu	-9.04547
spill	-9.04556
rå	-9.04694
▁produsert	-9.04862
▁1960	-9.04872
▁sen	-9.05022
▁gre	-9.05165
iner	-9.05285
▁studert	-9.05384
vet	-9.05411
ip	-9.05447
lå	-9.05494
fri	-9.05578
fer	-9.05606
▁krigs	-9.05609
▁chi	-9.05675
▁mag	-9.05682
setning	-9.05721
▁regionen	-9.0574
▁ferdig	-9.05772
mal	-9.0581
▁sc	-9.059
▁1992	-9.05916
▁henhold	-9.05938
▁mont	-9.05946
ris	-9.05952
▁tildelt	-9.05992
▁kontroll	-9.06024
▁slekt	-9.06068
▁kvinner	-9.06082
fra	-9.0627
▁tjeneste	-9.06296
▁samarbeid	-9.06331
▁arbeids	-9.06395
▁amerika	-9.06432
▁brun	-9.06526
▁stra	-9.06692
ale	-9.06734
enes	-9.06817
▁led	-9.0689
olog	-9.07015
film	-9.07069
▁tap	-9.07413
▁holde	-9.07427
▁arm	-9.07528
▁bur	-9.07596
svis	-9.07666
▁utgjør	-9.07761
ó	-9.07808
spiller	-9.07892
▁dom	-9.07918
minister	-9.07925
▁1994	-9.08037
ph	-9.08039
▁br	-9.08344
▁elv	-9.08502
▁afrika	-9.08556
▁2013	-9.08577
▁skade	-9.08599
▁følge	-9.08635
▁kv	-9.08658
▁sang	-9.08697
▁tilhører	-9.08879
ons	-9.08958
▁keiser	-9.09005
▁regnes	-9.0903
▁delt	-9.09081
▁rock	-9.09281
mester	-9.0938
øl	-9.09527
▁lands	-9.09533
stu	-9.09645
▁viktigst	-9.09749
▁mis	-9.09834
▁liste	-9.09909
kamp	-9.09958
▁tru	-9.1001
▁europeisk	-9.10013
imot	-9.1012
▁sanger	-9.10176
▁skip	-9.10182
heten	-9.10289
▁sh	-9.10326
råd	-9.10361
▁gri	-9.10426
▁regjeringen	-9.10632
stil	-9.10698
▁kilometer	-9.10746
▁1988	-9.10752
▁anti	-9.10789
▁carl	-9.1102
▁grunnlagt	-9.11092
▁sal	-9.11203
▁system	-9.11245
▁fylke	-9.1125
▁island	-9.1129
▁enkelt	-9.11332
50	-9.11398
▁data	-9.1156
▁lett	-9.11587
tin	-9.11658
ara	-9.11659
▁lik	-9.11724
bro	-9.11774
и	-9.11854
▁rev	-9.11901
året	-9.11915
▁høyre	-9.11963
▁benyttet	-9.12037
▁ve	-9.12056
zi	-9.12081
stående	-9.12176
▁ettersom	-9.12194
▁elva	-9.12233
gh	-9.12256
▁arter	-9.12262
▁gå	-9.12278
▁dansk	-9.12357
▁post	-9.12386
▁opprør	-9.12418
▁nordøst	-9.12454
ologi	-9.12528
syn	-9.12593
led	-9.12607
▁nett	-9.12658
heim	-9.12721
menn	-9.12791
▁biskop	-9.12976
▁universitet	-9.12997
lene	-9.13127
kast	-9.13145
▁dager	-9.13282
▁40	-9.13445
sak	-9.13482
▁drept	-9.1354
▁1991	-9.1355
▁ag	-9.1362
leder	-9.13638
båt	-9.13835
▁tur	-9.13847
▁måte	-9.1386
▁sy	-9.13917
q	-9.13927
▁bank	-9.13928
▁befolkningen	-9.13943
▁sak	-9.14017
rike	-9.14019
▁col	-9.14074
føring	-9.1408
dig	-9.14085
▁1997	-9.14115
▁lokale	-9.14256
iker	-9.14259
▁års	-9.14421
▁on	-9.14483
▁betydelig	-9.14679
▁legge	-9.14698
det	-9.14758
▁lille	-9.14812
▁minst	-9.14887
krigen	-9.14964
▁våpen	-9.15039
veien	-9.15121
bl	-9.1522
▁fange	-9.15231
asj	-9.15263
▁poeng	-9.15265
▁university	-9.1529
▁robert	-9.15324
mat	-9.15451
▁29	-9.15522
xi	-9.15612
▁rø	-9.15705
▁pave	-9.15758
las	-9.15792
▁1945	-9.1584
lys	-9.15842
pris	-9.15873
før	-9.15974
cu	-9.16117
gård	-9.16295
▁christian	-9.16408
▁william	-9.16413
▁1995	-9.16422
▁handels	-9.16537
▁eget	-9.16705
▁neste	-9.16812
istiske	-9.16843
а	-9.16989
ath	-9.1699
▁1985	-9.17006
anger	-9.17012
dde	-9.17034
▁kjøpt	-9.17039
▁bel	-9.1705
▁fre	-9.17087
▁lenger	-9.17148
▁berlin	-9.17268
▁hvis	-9.17316
ller	-9.17317
▁organ	-9.17372
ana	-9.17453
▁tom	-9.17503
▁dannet	-9.17512
▁sølv	-9.1759
mark	-9.17603
her	-9.17609
▁gro	-9.17726
▁inntil	-9.17771
int	-9.17842
▁fall	-9.17892
▁danske	-9.17935
nings	-9.17969
▁steder	-9.17994
▁lær	-9.18016
▁von	-9.18162
▁hovedsakelig	-9.18184
▁kl	-9.18324
▁regn	-9.18605
▁eier	-9.18624
▁klar	-9.18658
▁angrep	-9.18689
lett	-9.18748
▁professor	-9.18773
vitenskap	-9.18775
▁1984	-9.18782
departementet	-9.18791
▁ke	-9.18796
▁energi	-9.18837
▁forsøk	-9.18904
skip	-9.1893
ini	-9.18945
ight	-9.18949
▁blå	-9.1899
liggende	-9.19011
inne	-9.19074
▁pris	-9.19076
▁makt	-9.19081
▁bør	-9.19081
▁bri	-9.19099
folk	-9.19105
▁teater	-9.19218
▁1989	-9.19379
▁fylkesvei	-9.19397
▁politiker	-9.19409
ford	-9.19455
asjoner	-9.19498
øya	-9.19519
▁møte	-9.19529
▁tittelen	-9.19546
▁lege	-9.19775
lot	-9.19782
lik	-9.19788
iet	-9.19956
fall	-9.19985
▁eu	-9.20049
▁dyr	-9.20106
bygd	-9.20216
sto	-9.20282
ark	-9.20306
▁århundre	-9.20581
▁høyde	-9.20592
bil	-9.20645
▁bal	-9.20701
▁ry	-9.20735
▁helse	-9.2076
▁reist	-9.20856
40	-9.20899
ju	-9.20952
att	-9.20998
▁trondheim	-9.2119
▁interesse	-9.21202
▁slått	-9.21294
▁områder	-9.2132
▁vekt	-9.21387
hr	-9.21486
9	-9.21538
ino	-9.21717
▁eldste	-9.21805
▁kroppen	-9.21807
▁blad	-9.21849
▁indre	-9.22031
▁200	-9.22219
grad	-9.22273
▁tegn	-9.22283
stat	-9.22416
▁direkte	-9.22421
▁sannsynlig	-9.22421
е	-9.22421
lis	-9.22421
vann	-9.22439
pro	-9.22461
tør	-9.22488
▁kunstner	-9.22575
▁suksess	-9.22588
20	-9.22606
▁linje	-9.22747
vern	-9.22768
ach	-9.22802
king	-9.22827
▁gresk	-9.22923
han	-9.22936
tu	-9.22987
о	-9.23036
▁dessu	-9.23097
if	-9.2317
gruppen	-9.23239
▁tak	-9.23346
▁mm	-9.23366
eres	-9.23577
▁utgav	-9.23619
▁sovjetunionen	-9.23667
▁thomas	-9.23667
yk	-9.2367
▁ledelse	-9.23689
su	-9.23774
▁af	-9.23785
▁venn	-9.23887
▁fe	-9.24064
tjeneste	-9.24081
▁super	-9.24138
▁skje	-9.24237
▁fjerde	-9.24296
▁1968	-9.24307
▁prosent	-9.2431
▁ball	-9.24448
▁jan	-9.24452
ich	-9.24455
▁skjer	-9.24459
▁periode	-9.24526
ater	-9.24537
dan	-9.24648
▁kraft	-9.24711
elt	-9.24721
▁felt	-9.2476
▁stasjon	-9.24836
▁kron	-9.24849
▁seier	-9.2493
yn	-9.2508
▁pl	-9.25235
ød	-9.25241
▁ten	-9.25271
▁samling	-9.25337
navn	-9.25437
▁hånd	-9.25446
▁standard	-9.25586
▁ordet	-9.25628
▁kje	-9.25755
hy	-9.25817
che	-9.25856
10	-9.25857
ien	-9.25916
▁dis	-9.26174
▁1993	-9.26219
▁1986	-9.2622
▁ven	-9.26222
▁minne	-9.26223
jen	-9.26228
merke	-9.26319
banen	-9.26324
ære	-9.26434
▁ly	-9.26486
ros	-9.26595
▁sterkt	-9.26619
tiv	-9.26691
▁sø	-9.26718
▁viss	-9.26733
▁1920	-9.2687
▁delta	-9.26913
▁dro	-9.26953
ringen	-9.27034
▁opera	-9.27157
▁offentlig	-9.27378
▁para	-9.27412
▁hverandre	-9.27501
▁voksne	-9.27501
▁begynnelsen	-9.27506
▁mc	-9.27527
▁sogn	-9.27537
▁ang	-9.27602
området	-9.27618
▁fiske	-9.27706
sjøen	-9.27759
▁slo	-9.27775
▁litteratur	-9.27796
fag	-9.27807
▁start	-9.27846
▁ska	-9.279
ay	-9.27904
▁omfatter	-9.27914
▁kors	-9.27966
80	-9.28132
▁stockholm	-9.28155
▁1950	-9.28175
▁sørøst	-9.28187
elser	-9.28214
gje	-9.28223
vid	-9.28271
▁sig	-9.28301
stan	-9.28315
område	-9.28553
ida	-9.28575
regionen	-9.28626
▁studie	-9.28754
▁1979	-9.28823
▁mur	-9.28844
▁kamp	-9.28938
▁versjon	-9.29029
stasjon	-9.29062
familien	-9.2908
▁park	-9.29215
▁båt	-9.29222
▁bjørn	-9.29289
navnet	-9.29296
▁spe	-9.29333
▁finalen	-9.29348
▁syv	-9.29358
▁livet	-9.29421
▁japan	-9.29443
▁hvit	-9.29484
▁phil	-9.29553
▁brann	-9.29609
▁1800	-9.2963
▁avdeling	-9.29726
▁uttrykk	-9.29731
▁500	-9.29799
▁sosial	-9.29949
▁wi	-9.30058
ider	-9.30093
▁retning	-9.30115
р	-9.30142
▁informasjon	-9.30149
▁ras	-9.30151
▁syd	-9.30217
▁likevel	-9.30497
▁grensen	-9.30623
▁cr	-9.3063
▁olje	-9.30683
65	-9.30694
▁vo	-9.30732
bygg	-9.30754
▁svart	-9.30777
▁sikre	-9.30822
▁finne	-9.30825
▁2014	-9.30829
▁1940	-9.30832
▁kle	-9.3084
▁tross	-9.31005
▁midten	-9.31058
▁møtte	-9.31106
jel	-9.31157
ah	-9.31376
messig	-9.31488
▁dårlig	-9.31489
istisk	-9.31537
▁hvordan	-9.31571
▁nordlige	-9.31883
byen	-9.31997
sere	-9.32092
ice	-9.32145
▁kardinal	-9.32169
▁arrangert	-9.32169
▁nu	-9.3221
fl	-9.32328
oc	-9.32336
skapet	-9.32443
▁finner	-9.325
▁vanskelig	-9.32856
▁drift	-9.32941
selskap	-9.33057
▁høyere	-9.33103
oni	-9.33141
▁totalt	-9.33347
▁gran	-9.33463
bane	-9.33505
▁eid	-9.33546
▁1987	-9.33554
▁2015	-9.33563
▁blod	-9.3363
vil	-9.33641
iserte	-9.33733
▁bedre	-9.33751
▁finland	-9.33814
▁mester	-9.33879
▁trans	-9.33889
▁roma	-9.33917
▁dyp	-9.3396
▁verdi	-9.3397
▁utvikling	-9.34097
system	-9.34149
ismen	-9.3416
▁tal	-9.34163
▁russiske	-9.34182
gle	-9.34236
▁oppdaget	-9.34241
▁gate	-9.34292
ive	-9.34324
ub	-9.34369
▁selskap	-9.34403
idae	-9.34548
30	-9.34559
▁koloni	-9.3465
ze	-9.34665
▁sommeren	-9.34755
▁stjerne	-9.34834
▁politi	-9.34841
loven	-9.34925
▁øverst	-9.34938
▁nordvest	-9.34941
▁tradisjonell	-9.34951
▁dy	-9.34991
▁res	-9.34997
▁britisk	-9.35115
▁grense	-9.35128
kken	-9.35157
▁ønsket	-9.35309
hl	-9.35355
▁vol	-9.35366
▁sl	-9.35381
▁hæren	-9.35414
rud	-9.35571
▁syk	-9.35576
▁canada	-9.35647
▁kla	-9.35752
▁olav	-9.35789
▁gar	-9.35879
▁herre	-9.35987
▁ul	-9.35992
chi	-9.36033
gl	-9.36093
▁funksjon	-9.36102
▁ind	-9.36178
produksjon	-9.36266
sal	-9.36357
▁1900	-9.36374
kraft	-9.36377
▁renn	-9.36435
▁los	-9.3656
samling	-9.36605
▁tekst	-9.36612
▁resten	-9.3662
drag	-9.36628
▁un	-9.3668
▁effekt	-9.36689
lek	-9.36742
▁kat	-9.36789
▁hall	-9.3681
▁erstattet	-9.36843
▁egypt	-9.36865
▁topp	-9.36877
lv	-9.36898
▁mac	-9.37035
▁dronning	-9.37071
lov	-9.37097
of	-9.37112
▁dia	-9.3714
lagt	-9.37181
▁hø	-9.3725
▁produksjon	-9.37341
▁inter	-9.37378
▁region	-9.37424
▁råd	-9.37424
▁tan	-9.37627
▁fer	-9.37636
way	-9.37685
pu	-9.37689
itz	-9.37792
så	-9.37807
valg	-9.37817
▁havne	-9.37863
▁endret	-9.37959
old	-9.37991
▁samlet	-9.38023
▁overtok	-9.38088
▁område	-9.38102
▁hard	-9.38265
▁spesial	-9.38271
ama	-9.38346
▁vik	-9.38367
▁sir	-9.38368
værende	-9.38398
▁styrke	-9.38415
▁1974	-9.38509
▁james	-9.38515
kar	-9.38527
▁regjering	-9.38711
ls	-9.38715
port	-9.38835
▁ære	-9.38878
▁sentrale	-9.38939
▁lengde	-9.38939
▁direktør	-9.3896
anlegg	-9.39019
▁brukte	-9.39038
▁faren	-9.39054
▁endt	-9.39103
▁bred	-9.39123
bryte	-9.39228
▁pol	-9.39237
log	-9.39238
▁1948	-9.39249
▁1978	-9.39251
▁boken	-9.39414
▁kamper	-9.39458
▁finans	-9.39522
bert	-9.39543
▁lei	-9.39557
ai	-9.39566
tsj	-9.39577
▁stiftet	-9.39637
▁hær	-9.39667
▁sesong	-9.39796
▁vestlig	-9.39897
▁hopp	-9.40009
▁kul	-9.40026
▁operasjon	-9.40117
▁stadig	-9.40145
▁skrive	-9.40187
▁militære	-9.40189
brudd	-9.40206
▁konsert	-9.40332
▁skipet	-9.40408
▁offiser	-9.4041
▁utdanne	-9.40422
▁za	-9.40429
fest	-9.40448
▁miljø	-9.40749
▁vold	-9.40931
mannen	-9.40949
▁xi	-9.41015
▁årlig	-9.4106
▁grev	-9.41245
▁west	-9.41297
▁københavn	-9.41461
▁gen	-9.41463
▁gården	-9.41468
▁leker	-9.41468
▁1973	-9.41475
64	-9.41545
tale	-9.41625
▁prosess	-9.41676
▁klarte	-9.41677
▁60	-9.41739
ekt	-9.41862
▁india	-9.41875
▁virke	-9.41933
▁unge	-9.4198
▁sammenheng	-9.41983
▁fot	-9.42126
skrift	-9.4221
▁tilsvarende	-9.42213
▁relativ	-9.42213
førte	-9.42323
fjell	-9.42347
▁tett	-9.42357
▁q	-9.42409
▁dagen	-9.42437
gangen	-9.4265
tek	-9.42704
▁forskning	-9.42756
▁ex	-9.42782
▁skrift	-9.42967
▁anders	-9.42987
▁ledd	-9.43006
70	-9.43192
▁distrikt	-9.43192
▁gård	-9.43206
▁løp	-9.4326
▁tapte	-9.43326
▁svarte	-9.43416
nyin	-9.43451
▁com	-9.43471
▁dal	-9.43504
▁soldater	-9.43579
ifiser	-9.43598
▁veg	-9.43678
▁nivå	-9.4368
▁regi	-9.43694
▁samle	-9.43756
styrke	-9.4382
▁rot	-9.43858
▁sha	-9.44085
▁trykk	-9.441
heter	-9.44181
▁lærer	-9.44268
▁arten	-9.4433
▁viktige	-9.44397
bra	-9.44468
▁het	-9.44491
▁erik	-9.44505
▁1982	-9.44514
hund	-9.446
▁dra	-9.44664
formet	-9.44746
▁satte	-9.4476
▁nrk	-9.44768
▁motstand	-9.44769
▁vår	-9.44797
▁størrelse	-9.44822
▁fulgte	-9.44823
▁katolske	-9.44867
▁greske	-9.44889
▁nest	-9.44938
▁slekten	-9.45058
▁strøm	-9.45082
▁gass	-9.45085
▁seil	-9.45115
▁hor	-9.45128
36	-9.45142
havet	-9.45178
66	-9.45225
▁etterhvert	-9.45278
▁trøndelag	-9.45278
▁not	-9.45281
▁1981	-9.45288
▁1983	-9.45293
▁henrik	-9.45333
nivå	-9.45355
kom	-9.45363
▁80	-9.45444
▁ky	-9.45505
▁sørlige	-9.45583
▁type	-9.45589
▁flo	-9.45592
områder	-9.45621
▁plante	-9.45909
trykk	-9.46012
▁fører	-9.4607
▁1972	-9.46071
▁høyeste	-9.46078
▁bakgrunn	-9.46088
▁black	-9.46096
3	-9.46105
▁turn	-9.46132
gar	-9.46175
▁grå	-9.46243
gan	-9.46247
virkning	-9.46262
▁jon	-9.46283
sky	-9.46321
▁bruke	-9.46338
qu	-9.46344
arbeid	-9.46413
▁rike	-9.46498
▁cup	-9.46505
▁klasse	-9.46514
▁mod	-9.46551
▁pra	-9.46662
tog	-9.46663
▁museum	-9.46718
sti	-9.46739
▁israel	-9.46755
▁bill	-9.46805
▁400	-9.46822
slutning	-9.46848
▁skyld	-9.46868
▁viste	-9.46927
▁borg	-9.4694
punkt	-9.47188
▁transport	-9.47214
▁you	-9.47232
▁ep	-9.4724
liv	-9.47241
▁design	-9.47268
bilde	-9.47283
▁fremst	-9.47318
tel	-9.47428
▁kol	-9.47462
▁lenge	-9.47551
▁iii	-9.47627
▁plate	-9.47642
▁sørvest	-9.47643
▁stavanger	-9.47648
▁1975	-9.47653
▁heller	-9.47653
▁grand	-9.4771
ban	-9.47768
▁hundre	-9.47894
▁ac	-9.47897
▁danne	-9.47965
ringer	-9.48012
▁vis	-9.48028
søk	-9.48077
▁ken	-9.48104
▁mel	-9.48317
▁oppkalt	-9.48441
▁air	-9.48512
sjef	-9.48563
▁journalist	-9.48582
▁tettsted	-9.48587
▁martin	-9.48592
ferd	-9.48624
77	-9.4863
vogn	-9.48709
stid	-9.48717
▁skape	-9.48738
▁anlegget	-9.48766
▁fremme	-9.48873
▁utdanning	-9.48879
bø	-9.48935
▁produsent	-9.49039
▁historien	-9.49099
▁rus	-9.49108
kjønn	-9.49219
iz	-9.49273
systemet	-9.49335
organisasjon	-9.49361
cy	-9.49368
▁david	-9.49467
▁huset	-9.49497
▁kjempe	-9.49542
ari	-9.49758
bor	-9.49783
skog	-9.49896
▁offisiell	-9.5006
▁produsere	-9.5006
▁1964	-9.50079
alder	-9.50208
▁kyst	-9.50241
retning	-9.50294
▁krav	-9.50294
skolen	-9.50315
well	-9.50502
huset	-9.50522
▁styrker	-9.50523
▁naturlig	-9.50531
ind	-9.50586
▁høsten	-9.50619
▁hår	-9.5062
tegn	-9.50672
▁ci	-9.50721
▁bøker	-9.50801
uel	-9.50834
▁beskytte	-9.50835
▁tradisjon	-9.50853
▁1976	-9.50894
▁george	-9.50903
sis	-9.50923
▁alltid	-9.50931
sjoner	-9.51084
ori	-9.51096
ction	-9.51106
rådet	-9.51333
itu	-9.51371
ola	-9.51456
zo	-9.5152
▁ii	-9.51621
▁reform	-9.5168
▁australia	-9.51706
▁original	-9.51706
▁lengre	-9.51708
▁spania	-9.51708
▁hertug	-9.51709
▁1930	-9.51727
▁selve	-9.51759
▁pal	-9.51764
under	-9.51842
▁latin	-9.5185
tion	-9.51863
pl	-9.51906
ap	-9.51907
▁fylkes	-9.51945
▁karriere	-9.51964
▁valgte	-9.5199
▁munn	-9.51995
▁kap	-9.52007
stru	-9.52021
▁alder	-9.52027
▁arkitekt	-9.52071
▁fro	-9.52081
har	-9.52083
ā	-9.52195
86	-9.52196
▁posisjon	-9.52274
▁solgt	-9.52323
▁port	-9.52373
tyr	-9.52457
▁tanke	-9.52461
▁plassert	-9.52503
▁skjedde	-9.52555
▁2016	-9.52562
▁fotballspiller	-9.52568
▁sivil	-9.5259
▁bind	-9.52603
mel	-9.52624
▁gjenopp	-9.52656
▁personlig	-9.52679
ano	-9.52707
still	-9.52754
▁åpen	-9.52773
våg	-9.52778
fisk	-9.52793
▁varme	-9.52905
org	-9.52985
▁nasjonale	-9.5308
▁produkt	-9.53107
▁kongelig	-9.53369
69	-9.5338
magasin	-9.53387
▁vokste	-9.53399
▁statsminister	-9.53403
▁fremdeles	-9.53418
▁feil	-9.53465
pel	-9.53474
▁bodde	-9.53483
▁metal	-9.53543
▁lære	-9.5358
evne	-9.53626
▁len	-9.53697
stra	-9.53754
hel	-9.53877
▁maskin	-9.5399
▁lars	-9.54
nis	-9.54137
▁strid	-9.54144
kin	-9.54187
▁merke	-9.5421
▁virksomhet	-9.5432
▁wo	-9.54327
heng	-9.54353
språk	-9.54449
grunn	-9.5448
fo	-9.54508
hall	-9.54588
▁sende	-9.54595
rem	-9.5464
▁artene	-9.54734
rum	-9.54762
▁musiker	-9.54776
▁sub	-9.54937
▁fil	-9.54987
ix	-9.54992
▁lar	-9.55031
▁festning	-9.55035
▁nådd	-9.55037
▁bilde	-9.55096
▁1967	-9.55096
▁valget	-9.55105
▁egentlig	-9.55108
▁japansk	-9.55143
▁natt	-9.55188
vig	-9.55215
▁oppført	-9.55222
fin	-9.55277
▁pat	-9.55315
▁sju	-9.55347
sberg	-9.55386
▁utført	-9.55413
▁grønn	-9.55455
▁sten	-9.55478
arter	-9.55623
▁total	-9.55745
▁delvis	-9.55755
▁teori	-9.55771
▁høyt	-9.55787
rin	-9.55817
▁california	-9.55944
▁øvrig	-9.55944
▁richard	-9.55945
folkerepublikken	-9.55957
▁sel	-9.56058
rev	-9.56109
linjen	-9.56327
ald	-9.56361
dia	-9.56376
▁areal	-9.56485
bin	-9.56494
▁hell	-9.56624
án	-9.56722
▁ting	-9.56755
▁rapport	-9.56814
▁hjerte	-9.56814
▁red	-9.56817
▁1969	-9.56831
▁war	-9.56875
af	-9.56937
bjørn	-9.57059
grav	-9.57168
60	-9.57205
▁fest	-9.57228
▁sette	-9.57262
99	-9.57295
▁egg	-9.57314
trekk	-9.57314
cia	-9.57344
37	-9.57345
▁hit	-9.57388
46	-9.57401
selskapet	-9.57537
løse	-9.57576
organ	-9.57593
▁forsøkt	-9.57603
shire	-9.57619
93	-9.57678
▁organisasjonen	-9.57681
aks	-9.57687
▁innflytelse	-9.57691
▁michael	-9.57691
▁ytterligere	-9.57691
л	-9.57691
▁kontakt	-9.57696
▁flat	-9.57701
▁1939	-9.57706
▁gode	-9.57781
▁uni	-9.57823
høy	-9.57848
44	-9.57857
lar	-9.57886
▁leve	-9.5794
gruppe	-9.5794
ansk	-9.57962
▁metall	-9.57978
henger	-9.57978
▁can	-9.58012
▁skapt	-9.58178
▁overført	-9.58284
▁pass	-9.58322
kop	-9.58379
▁sj	-9.58379
▁sovjetisk	-9.58565
▁1952	-9.58576
▁befolkning	-9.58577
▁lansert	-9.5858
▁1956	-9.58589
▁lind	-9.58667
▁tall	-9.58686
▁sterke	-9.58703
▁70	-9.58706
delt	-9.58753
▁pri	-9.58783
▁jakt	-9.58798
▁tung	-9.58811
▁athen	-9.58837
▁gra	-9.58853
ick	-9.58857
all	-9.58887
73	-9.5897
▁moh	-9.58994
▁begrepet	-9.59022
▁lek	-9.59117
cc	-9.59197
ib	-9.59238
▁følger	-9.59297
▁formann	-9.59353
aksjon	-9.59381
▁bomb	-9.59431
▁sul	-9.59436
▁teknisk	-9.59469
▁1924	-9.59479
side	-9.59504
▁høye	-9.59509
senter	-9.59509
▁nåværende	-9.59513
ved	-9.59577
dagen	-9.59804
▁sund	-9.59845
▁thor	-9.59873
nik	-9.59976
▁gren	-9.60097
▁300	-9.60103
▁havet	-9.60131
▁idretts	-9.6015
ås	-9.60244
▁rad	-9.60334
▁stortinget	-9.60373
▁che	-9.6038
▁1963	-9.60383
ves	-9.60444
▁slott	-9.60516
bladet	-9.60571
▁johannes	-9.60598
▁dyre	-9.60635
plasser	-9.60649
maskin	-9.60687
▁daglig	-9.60738
▁cm	-9.6074
rang	-9.60806
din	-9.60818
▁trak	-9.60842
orm	-9.60868
ild	-9.60871
▁anne	-9.61008
▁don	-9.6103
91	-9.61065
▁sur	-9.61095
abel	-9.61109
▁bad	-9.61191
saker	-9.61203
standen	-9.61232
▁nødvendig	-9.61279
▁fengsel	-9.61279
▁østerrike	-9.6128
▁ordfører	-9.61297
5	-9.61406
▁løv	-9.61414
lighet	-9.6147
▁test	-9.61484
▁snar	-9.61498
▁lin	-9.61537
▁materiale	-9.61543
▁smal	-9.61601
▁bygde	-9.61679
▁grenser	-9.61684
▁kraftverk	-9.61832
▁base	-9.61876
▁innført	-9.61936
komm	-9.61967
▁modell	-9.62103
▁vid	-9.62109
▁prisen	-9.62124
▁grupper	-9.6217
▁drive	-9.62178
ð	-9.62196
zhou	-9.62211
fører	-9.62211
▁1965	-9.62219
▁slå	-9.62291
elva	-9.62326
▁jern	-9.62395
▁avis	-9.62407
▁måneder	-9.62424
lser	-9.62441
92	-9.62476
våpen	-9.62549
▁kroner	-9.62568
kv	-9.62598
linje	-9.62684
▁betegnelsen	-9.62728
▁rh	-9.62743
▁temperatur	-9.62766
83	-9.62824
valget	-9.62919
▁euro	-9.62927
▁asia	-9.62947
kos	-9.62951
▁korea	-9.62981
▁organisasjon	-9.63003
▁nærings	-9.63007
▁nev	-9.63037
▁fugle	-9.6307
trådte	-9.63125
▁fokus	-9.63125
▁1962	-9.63136
▁1944	-9.6314
▁ask	-9.63273
▁stykke	-9.63383
▁hei	-9.63471
▁marine	-9.6348
57	-9.63509
▁real	-9.63542
▁wal	-9.63602
med	-9.63702
atet	-9.63711
▁programmet	-9.63734
▁representerte	-9.63771
▁runde	-9.639
our	-9.63931
▁uavhengig	-9.63935
▁gru	-9.6398
49	-9.63997
è	-9.64024
▁bolig	-9.64042
ish	-9.64054
▁1971	-9.64071
▁utgivelse	-9.64192
▁forsvar	-9.64203
▁hovedstaden	-9.64213
▁ap	-9.64217
▁middel	-9.64284
▁dog	-9.64322
▁sterk	-9.64384
dor	-9.64413
▁aktivitet	-9.64516
▁christ	-9.64548
ritt	-9.64609
▁nevnt	-9.64638
▁spi	-9.64646
rich	-9.64682
▁sjef	-9.64887
▁komponist	-9.65
▁oversikt	-9.65001
▁foreldre	-9.65002
war	-9.65014
▁sommerfugl	-9.65016
▁city	-9.65031
raf	-9.65049
▁mad	-9.65055
43	-9.65091
▁mak	-9.65162
▁albert	-9.65168
▁hvorav	-9.65228
▁us	-9.65263
jan	-9.65392
historie	-9.65398
periode	-9.654
▁politikk	-9.65444
▁føl	-9.65472
san	-9.65482
krets	-9.65484
bas	-9.65496
▁90	-9.65497
▁revolusjon	-9.65523
mesterskapet	-9.65532
ssel	-9.65548
▁rollen	-9.65559
ula	-9.65875
▁pop	-9.6592
▁yu	-9.65943
▁hvite	-9.65951
à	-9.65952
▁forteller	-9.65971
▁hodet	-9.66102
▁økonomisk	-9.6621
08	-9.66211
▁økonomi	-9.66234
▁raskt	-9.66269
▁prøve	-9.66271
kla	-9.66303
▁fjorden	-9.66398
▁passer	-9.66399
▁redaktør	-9.664
ct	-9.66507
trolig	-9.66535
▁tyn	-9.66536
▁she	-9.66563
makt	-9.66596
haug	-9.66639
▁aks	-9.6686
▁bygningen	-9.66901
▁1961	-9.66929
▁1947	-9.6693
▁1977	-9.66934
▁1966	-9.66935
▁fredrik	-9.66944
høgskole	-9.66964
▁stammer	-9.66986
▁eiendom	-9.67033
▁danner	-9.67083
▁union	-9.67107
▁privat	-9.67268
▁fjern	-9.67279
39	-9.6728
ör	-9.67327
ball	-9.67342
▁kampen	-9.6743
▁åpne	-9.67497
▁historiske	-9.67513
▁rekord	-9.67518
▁hevdet	-9.67554
ani	-9.67609
▁student	-9.67647
ledes	-9.67697
gata	-9.67733
ali	-9.67817
virket	-9.67835
▁jule	-9.67874
▁opprinnelse	-9.67885
▁norrøn	-9.67885
▁grunnlag	-9.67889
▁1936	-9.67906
▁omfattende	-9.67929
▁røde	-9.67946
iell	-9.68021
▁undersøkelse	-9.68034
▁time	-9.68062
samisk	-9.68098
▁kaptein	-9.68102
hør	-9.68106
▁son	-9.68112
▁besøk	-9.68164
▁maria	-9.68252
▁frank	-9.68257
▁studier	-9.68295
▁listen	-9.68411
ille	-9.68424
▁internasjonal	-9.68539
rop	-9.68573
gard	-9.68583
▁svak	-9.68617
▁punkt	-9.68618
▁regne	-9.68623
▁wil	-9.68654
oner	-9.68796
midler	-9.68805
▁tele	-9.68818
▁gitar	-9.68862
▁konflikt	-9.68865
▁vunnet	-9.68865
94	-9.68908
▁avhengig	-9.68944
▁drama	-9.68961
▁scene	-9.68984
gården	-9.68998
▁temp	-9.69006
▁offentlige	-9.69052
▁problem	-9.69074
felt	-9.6911
▁hvilke	-9.69125
levende	-9.69146
▁hest	-9.69155
▁opphav	-9.69186
tive	-9.69208
▁preget	-9.69245
▁formel	-9.69277
▁folket	-9.69293
▁vist	-9.69315
spor	-9.69343
▁ob	-9.69359
▁samfunns	-9.69376
▁irland	-9.69396
▁kontrakt	-9.69399
▁forlot	-9.69464
▁fordelt	-9.69469
ther	-9.69555
ativ	-9.69559
▁bygg	-9.69628
▁masse	-9.69636
forbund	-9.69652
▁kam	-9.69775
▁utviklingen	-9.69846
▁skottland	-9.69855
▁louis	-9.69855
▁erklært	-9.69883
▁fortsette	-9.69891
▁profesjonell	-9.69902
▁søster	-9.69904
▁vinner	-9.69957
76	-9.69978
▁mege	-9.70046
▁mørk	-9.70059
▁kir	-9.70071
nett	-9.70079
mus	-9.7009
▁vitenskapelig	-9.70096
▁nabo	-9.70129
68	-9.70174
▁ordenen	-9.7019
▁dan	-9.70245
▁landsbyen	-9.70251
78	-9.70267
▁sau	-9.7027
41	-9.70286
▁ung	-9.70288
dals	-9.70317
▁ønske	-9.70329
▁begynner	-9.70338
8	-9.70354
tis	-9.70441
▁enten	-9.70465
ort	-9.70541
▁mørke	-9.70658
▁rose	-9.70736
mennene	-9.70749
▁skatt	-9.7076
▁økonomiske	-9.70777
▁kanon	-9.70825
к	-9.7085
▁kategori	-9.70855
▁klassisk	-9.70856
▁united	-9.70857
gift	-9.70868
don	-9.70929
stoff	-9.70937
field	-9.70943
medalje	-9.70959
lang	-9.71067
▁reg	-9.71091
▁ansatte	-9.71098
▁debutert	-9.71119
▁odd	-9.71125
▁løs	-9.71158
akk	-9.71166
▁gutt	-9.71175
ville	-9.71176
▁arn	-9.71223
▁dam	-9.71242
▁kinesiske	-9.71299
▁shi	-9.71347
▁femte	-9.71362
fot	-9.71381
▁hører	-9.71406
fart	-9.71408
▁populære	-9.71436
▁falt	-9.71443
zh	-9.71467
▁bedrift	-9.71476
▁bern	-9.7148
ire	-9.71574
▁øyene	-9.71612
mund	-9.71762
gjorde	-9.71808
47	-9.7184
▁berømt	-9.71865
▁tilgjengelig	-9.71865
▁selvstendig	-9.71865
▁1958	-9.71879
▁1946	-9.71885
▁bevart	-9.71893
eid	-9.71909
▁ytre	-9.71984
▁tegnet	-9.71991
▁mw	-9.71998
ita	-9.7206
▁sports	-9.72075
fyl	-9.72135
▁tusen	-9.72152
partiet	-9.7224
▁tema	-9.72243
6	-9.72258
fang	-9.72262
▁ekteskap	-9.72263
que	-9.72301
stod	-9.72313
▁studenter	-9.72513
▁polsk	-9.72519
▁tettstedet	-9.72743
dro	-9.72875
в	-9.72876
▁fullstendig	-9.72886
▁national	-9.72886
▁flertall	-9.72887
rykket	-9.7289
▁bronsemedalje	-9.72892
▁heter	-9.72899
▁musikkalbum	-9.72901
▁1955	-9.72902
senteret	-9.73002
▁regel	-9.73072
pan	-9.73078
ins	-9.73094
▁gy	-9.73128
▁ishockey	-9.73129
▁stoppe	-9.73184
▁ekspedisjon	-9.73208
▁presse	-9.73259
▁lund	-9.73296
▁turist	-9.73365
▁glo	-9.73443
gress	-9.73508
▁innsjøen	-9.73521
ence	-9.7359
▁klart	-9.73676
voll	-9.73733
▁danse	-9.73734
vesen	-9.73783
▁star	-9.73796
kro	-9.73911
▁religion	-9.73917
▁sjelden	-9.73917
▁øvre	-9.73917
kapasitet	-9.73917
▁nærmest	-9.73919
▁college	-9.7392
▁jordbruk	-9.73948
▁jarl	-9.73985
▁vind	-9.74034
▁plassering	-9.74071
▁nederlandsk	-9.74095
▁sil	-9.74144
holm	-9.74166
ison	-9.74203
▁hoff	-9.74233
▁oppgave	-9.74239
▁forfatteren	-9.7424
eks	-9.74265
▁lot	-9.74276
▁hevd	-9.74296
▁tropp	-9.74328
▁bestemt	-9.74377
▁enhet	-9.74396
▁bla	-9.74454
▁styrkene	-9.74466
▁ze	-9.74559
▁bestemte	-9.74578
▁teksten	-9.74654
parten	-9.74672
ført	-9.74758
▁holm	-9.74772
67	-9.74783
▁nederland	-9.7479
▁hovedrollen	-9.74958
▁beijing	-9.74959
▁world	-9.74959
▁lengst	-9.74965
▁program	-9.74965
▁1959	-9.74974
▁bronse	-9.74976
▁publisert	-9.74982
▁altså	-9.74995
▁omtalt	-9.74997
▁gått	-9.75009
▁sent	-9.75037
nos	-9.75051
▁pen	-9.75059
tta	-9.75095
▁verne	-9.75097
▁kontor	-9.7516
ance	-9.75227
oli	-9.75288
▁hud	-9.75325
▁kysten	-9.75367
▁salg	-9.75383
dis	-9.75419
▁tids	-9.75481
nor	-9.75545
▁enda	-9.75574
▁trekk	-9.75579
rene	-9.75594
61	-9.75621
▁rep	-9.75643
▁mini	-9.75696
kh	-9.75709
55	-9.75743
sil	-9.75786
visning	-9.75786
▁stilling	-9.75804
▁stand	-9.75885
▁populær	-9.75982
enberg	-9.75995
с	-9.76005
▁alternativ	-9.76011
▁utgangspunkt	-9.76011
▁1918	-9.76027
▁1953	-9.76028
▁1941	-9.76029
▁2017	-9.76036
▁bevis	-9.76051
▁trafikk	-9.76209
▁historisk	-9.7623
blad	-9.76316
▁flagg	-9.76379
▁kryss	-9.76392
▁larven	-9.76409
▁ube	-9.76415
ias	-9.76476
▁spar	-9.76657
▁single	-9.76662
53	-9.76732
01	-9.76738
ras	-9.76792
▁bø	-9.76799
mod	-9.7681
▁fal	-9.76975
▁holder	-9.77016
kirken	-9.77067
▁friidrett	-9.77075
▁kreve	-9.77077
▁1949	-9.77095
band	-9.77148
54	-9.77392
▁kh	-9.77405
▁prosjekt	-9.7744
rsom	-9.77447
79	-9.77552
▁spørsmål	-9.77658
bygning	-9.77697
▁tittel	-9.77859
▁kraftig	-9.77876
▁dø	-9.77978
▁sluttet	-9.77984
▁nils	-9.78099
lære	-9.78135
▁passasjer	-9.7815
▁kjøre	-9.78151
▁bokstav	-9.78152
▁typisk	-9.78154
▁1932	-9.78165
▁myr	-9.7817
▁spill	-9.78205
▁king	-9.78247
▁salt	-9.78288
▁rygg	-9.78308
▁andreplass	-9.78317
▁kvinnelig	-9.78364
▁kjenne	-9.78393
ova	-9.784
nu	-9.78568
kur	-9.78601
84	-9.78633
▁psyk	-9.78684
▁dukke	-9.78718
▁drev	-9.78748
▁nordisk	-9.78833
▁krim	-9.78841
gende	-9.78852
▁områdene	-9.78858
▁forsvars	-9.78892
ograf	-9.78905
lingen	-9.78944
▁ungdom	-9.78963
pol	-9.79007
▁kalle	-9.79022
▁klubb	-9.79037
ast	-9.79103
▁ramme	-9.79111
▁lev	-9.79208
bank	-9.79229
▁situasjon	-9.79239
▁lufthavn	-9.79248
▁kjerne	-9.79299
▁handling	-9.79439
07	-9.79592
▁aust	-9.79599
15	-9.79634
hal	-9.7966
▁strand	-9.79759
▁harald	-9.79763
verket	-9.7984
▁liga	-9.79857
strøm	-9.79931
▁ungdoms	-9.80005
ordenen	-9.80095
fte	-9.80103
jev	-9.80115
▁georg	-9.80141
72	-9.80228
▁nr	-9.80229
▁distriktet	-9.80236
▁mas	-9.80281
ú	-9.80336
▁elektrisk	-9.80336
▁inspirert	-9.80336
▁international	-9.80336
▁league	-9.80336
▁kongedømme	-9.80336
▁tydelig	-9.80338
▁royal	-9.80338
▁bay	-9.8034
▁tidsskrift	-9.80346
▁1943	-9.80356
▁straffe	-9.80363
▁uker	-9.8038
lund	-9.80382
▁kost	-9.80428
▁landbruk	-9.8045
▁just	-9.8046
▁avisen	-9.80513
▁vannet	-9.80515
75	-9.80517
▁filmer	-9.80558
▁bosatt	-9.80561
eller	-9.8059
▁polen	-9.80661
90	-9.80665
▁bispedømme	-9.80667
grupper	-9.8078
bygging	-9.80806
▁landskapet	-9.80894
ikken	-9.80896
▁behandling	-9.80917
feltet	-9.80941
vinger	-9.8102
87	-9.81046
cha	-9.81063
▁kjøpe	-9.81072
kra	-9.81197
møte	-9.81208
▁sykdom	-9.81254
▁utbredt	-9.81447
▁charles	-9.81462
▁video	-9.81465
▁front	-9.81529
ura	-9.81538
▁flykte	-9.81585
kjær	-9.8163
▁knut	-9.81638
jern	-9.81643
deles	-9.81664
▁endelig	-9.81862
▁gjennomført	-9.81864
▁vet	-9.819
▁akademi	-9.81921
▁forsknings	-9.81931
stripe	-9.81986
hn	-9.82012
▁helge	-9.82018
aktig	-9.82029
▁minutter	-9.82176
industri	-9.82186
delen	-9.82194
kjempe	-9.82265
▁tårn	-9.82276
▁lignende	-9.82278
▁øke	-9.82401
▁35	-9.82428
▁bonde	-9.82478
aw	-9.82495
lia	-9.82501
59	-9.82502
▁1928	-9.82571
▁betrakte	-9.82571
▁episode	-9.82572
▁kristne	-9.82573
▁saken	-9.8258
▁tonn	-9.82643
punktet	-9.82664
markedet	-9.82673
▁atom	-9.82721
▁riket	-9.82722
▁jorden	-9.82733
▁riksvei	-9.82776
▁oppdrag	-9.82832
plate	-9.82863
arbeidet	-9.82869
ben	-9.82878
18	-9.82932
▁tilby	-9.82948
25	-9.82995
▁45	-9.8308
▁rang	-9.83085
▁lage	-9.83105
tage	-9.83128
serien	-9.83232
korps	-9.83249
▁utvidet	-9.8331
vekst	-9.83362
▁sveits	-9.83373
▁hon	-9.83411
62	-9.83414
▁karakter	-9.83439
98	-9.83509
▁south	-9.83573
▁studio	-9.83704
▁jazz	-9.83707
▁fungere	-9.83714
▁sykehus	-9.83726
▁zo	-9.83881
▁scoret	-9.8399
63	-9.84068
▁østlige	-9.8407
48	-9.84162
▁hed	-9.84199
innen	-9.84226
71	-9.84247
▁sort	-9.84256
▁problemer	-9.84282
▁benytte	-9.84363
▁brev	-9.84416
▁ana	-9.84417
95	-9.84509
rommet	-9.84531
▁ram	-9.84534
formen	-9.84547
▁prins	-9.84561
▁bane	-9.84582
fat	-9.84638
skipet	-9.84661
▁vær	-9.84668
kirke	-9.84676
▁spillet	-9.84749
▁flu	-9.84838
▁publikum	-9.84857
▁unntak	-9.84857
▁arabisk	-9.84858
▁stadion	-9.8486
▁historiker	-9.84879
▁bygninger	-9.84881
sler	-9.8496
wood	-9.85048
musikk	-9.85066
56	-9.85197
▁anna	-9.8522
▁32	-9.85234
▁status	-9.85261
▁marc	-9.85287
stått	-9.85357
▁besto	-9.85363
▁win	-9.85368
▁symbol	-9.85425
▁nes	-9.85497
och	-9.85505
▁buss	-9.85512
hand	-9.85644
avdeling	-9.85681
▁tog	-9.85685
klubb	-9.85701
▁regjerings	-9.85717
▁økt	-9.8574
▁stille	-9.85778
▁ekte	-9.85879
lling	-9.85884
▁ark	-9.85891
▁linjen	-9.85913
▁rå	-9.85914
▁fabrikk	-9.85919
ologisk	-9.85962
dekke	-9.85998
▁artikkel	-9.86019
▁jacob	-9.86021
ér	-9.86031
▁1925	-9.86037
brun	-9.86047
rog	-9.86061
▁streng	-9.86077
hol	-9.8608
hjul	-9.8609
elli	-9.86096
▁angeles	-9.86147
▁banen	-9.86189
▁stasjonen	-9.86198
▁slave	-9.86233
▁rein	-9.86242
16	-9.86251
▁kart	-9.86272
▁maur	-9.86314
▁spiss	-9.86344
▁økte	-9.86422
▁vir	-9.86439
▁camp	-9.86443
▁inkluder	-9.86524
▁elever	-9.86595
▁løper	-9.86621
▁dobbelt	-9.86765
▁elev	-9.86844
▁adel	-9.86862
medlem	-9.86892
stykke	-9.86913
▁måned	-9.8692
▁fremste	-9.87006
▁mexico	-9.87196
▁records	-9.87196
▁fattig	-9.87197
▁hurtig	-9.87198
▁konkurransen	-9.872
▁1942	-9.87209
▁cent	-9.87276
▁sikkerhets	-9.87277
▁organisert	-9.8737
▁ekstra	-9.87442
▁jevn	-9.87451
▁festival	-9.87453
mos	-9.87471
hode	-9.87499
85	-9.87512
▁melodi	-9.87553
▁fullført	-9.87566
▁overfor	-9.87658
bri	-9.87688
▁opphold	-9.87797
▁bit	-9.87896
gjort	-9.87906
vor	-9.88025
prosess	-9.88051
istene	-9.88171
kraftverk	-9.88182
▁fjellet	-9.88242
▁edvard	-9.88387
▁school	-9.88387
▁forretnings	-9.88422
øst	-9.88433
kunst	-9.88482
▁benyttes	-9.88508
▁uke	-9.88541
stedet	-9.88597
▁typer	-9.88667
▁flyplass	-9.88673
▁sider	-9.88764
▁skips	-9.8889
skift	-9.89044
▁bibliotek	-9.89077
gjøre	-9.89126
▁struktur	-9.89151
▁hill	-9.89243
▁lau	-9.89266
▁korte	-9.89383
redning	-9.89394
sens	-9.89451
post	-9.89462
▁krets	-9.89495
kysten	-9.89508
▁press	-9.89576
▁wilhelm	-9.89591
▁spesiell	-9.89592
▁oscar	-9.89592
▁län	-9.89593
▁hjelpe	-9.89604
▁premier	-9.89604
▁1933	-9.89606
▁1914	-9.89607
▁1954	-9.8961
ische	-9.89668
▁nedlagt	-9.89679
▁lese	-9.89685
▁yngre	-9.89686
▁max	-9.89747
▁finsk	-9.89769
21	-9.89842
parti	-9.8993
ora	-9.90043
▁åpning	-9.90073
82	-9.90129
▁slett	-9.90142
▁rute	-9.90189
kilden	-9.902
støt	-9.90204
lapp	-9.90205
▁toppen	-9.9025
arbeider	-9.90276
▁arve	-9.90289
▁cap	-9.90367
▁instrument	-9.90384
▁larvene	-9.9042
▁buk	-9.90496
dens	-9.90512
festival	-9.90545
▁sønnen	-9.90568
är	-9.90574
cher	-9.90578
▁våren	-9.90588
▁mik	-9.90639
▁byer	-9.9066
qui	-9.90696
▁tunnel	-9.90703
▁regissert	-9.90811
▁klima	-9.9082
▁planlagt	-9.90835
▁magn	-9.90836
ij	-9.90841
▁kristen	-9.90848
gy	-9.90864
▁jens	-9.90884
▁snakke	-9.90961
▁kommuner	-9.91029
▁tale	-9.9107
▁motsetning	-9.91107
▁representerer	-9.91111
▁singel	-9.91184
▁stav	-9.91192
ada	-9.91285
▁bestod	-9.91294
▁sier	-9.91295
05	-9.91305
▁viking	-9.91432
slaget	-9.91467
19	-9.91535
ios	-9.91576
løpet	-9.91576
14	-9.91715
▁mid	-9.91739
middel	-9.91768
▁rask	-9.91927
▁ansatt	-9.91943
myndighet	-9.92017
▁1951	-9.92045
▁offisielt	-9.92045
▁vietnam	-9.92045
▁antagelig	-9.92045
▁belgia	-9.92046
▁brøt	-9.92048
▁markeds	-9.92054
▁blue	-9.9208
▁ridder	-9.92081
▁angrepet	-9.92243
▁sosiale	-9.92273
▁keiseren	-9.9229
▁kilder	-9.92308
▁sky	-9.92344
▁log	-9.92354
▁støttet	-9.9236
▁tolv	-9.92361
områdene	-9.92369
▁oversettelse	-9.92459
11	-9.92583
tun	-9.92584
gren	-9.92632
▁religiøse	-9.92775
▁private	-9.92837
▁bygging	-9.92904
klar	-9.93027
distrikt	-9.93043
bær	-9.93058
▁bakken	-9.93082
▁fyr	-9.93091
45	-9.93116
forhold	-9.93225
farge	-9.93263
▁betegne	-9.93292
▁ukjent	-9.93295
▁frederik	-9.933
ram	-9.93308
▁flåte	-9.93315
▁1957	-9.93318
innspilling	-9.93333
▁fv	-9.93339
▁tha	-9.93359
▁middelalderen	-9.93419
▁sær	-9.93422
▁lavere	-9.93451
forestilling	-9.93557
dra	-9.93654
▁haug	-9.9376
▁600	-9.93813
▁hovedstad	-9.93853
metode	-9.94011
gikk	-9.94143
▁troll	-9.94152
▁stre	-9.94168
gaard	-9.94206
▁provins	-9.94269
trafikk	-9.94335
kommune	-9.94376
▁hellige	-9.94466
▁stift	-9.94479
republikk	-9.94504
lønn	-9.9455
▁generelt	-9.94561
▁himmel	-9.94562
▁hotell	-9.94583
▁1908	-9.94584
▁frykt	-9.94591
▁turneringen	-9.9462
▁nærheten	-9.94627
▁fyrst	-9.94634
▁klo	-9.94649
▁tredjeplass	-9.94686
▁overflate	-9.94693
▁dekker	-9.94706
▁systemet	-9.9471
▁1700	-9.94716
▁bosetning	-9.94722
▁bidra	-9.94757
▁bydel	-9.94819
▁lø	-9.94823
▁tj	-9.94879
▁søke	-9.94883
▁normalt	-9.94887
kjøp	-9.9492
▁peder	-9.94952
▁inntekt	-9.94962
▁fløy	-9.9501
person	-9.95066
▁bord	-9.95068
▁leir	-9.95099
32	-9.95108
▁teknologi	-9.95198
▁dynastiet	-9.95227
fugl	-9.95253
▁amt	-9.95264
mil	-9.95315
full	-9.95364
▁prosjektet	-9.95389
▁ph	-9.95447
plassen	-9.95465
▁liberal	-9.95487
▁påvirke	-9.95522
▁utover	-9.95531
▁tour	-9.95533
▁nam	-9.95583
▁alb	-9.95707
▁forskere	-9.95764
strand	-9.95782
▁cirka	-9.95844
▁generasjon	-9.95856
ografi	-9.95877
▁hustru	-9.95886
35	-9.95894
▁produksjons	-9.95944
▁pin	-9.95949
▁gjeste	-9.95958
▁mikro	-9.9596
øyene	-9.95963
▁møter	-9.95966
58	-9.95969
▁fordel	-9.95992
▁former	-9.95997
▁kilde	-9.96035
trær	-9.96071
▁utstyr	-9.96122
mma	-9.96179
sport	-9.9626
kule	-9.96334
spekt	-9.9637
verdig	-9.96383
▁tang	-9.96463
▁språket	-9.96495
▁oversatt	-9.96497
▁bol	-9.96519
listen	-9.96638
kampen	-9.96641
▁innsjø	-9.96654
▁ban	-9.96664
▁bj	-9.9672
▁ligne	-9.96798
▁trener	-9.96834
▁kanal	-9.96862
vind	-9.96883
skudd	-9.96941
▁ødelagt	-9.97142
▁kombinert	-9.97142
▁administrativ	-9.97145
▁nærmere	-9.97148
▁invest	-9.97149
▁1938	-9.97156
artist	-9.97156
▁republikken	-9.9718
▁verket	-9.97229
▁saint	-9.97293
▁wei	-9.97322
▁henry	-9.97325
▁objekt	-9.97393
▁institusjon	-9.97407
▁est	-9.97447
▁spise	-9.97453
▁spanske	-9.97465
▁ran	-9.97467
▁gil	-9.97468
▁timer	-9.97476
▁utenlandsk	-9.97674
81	-9.97939
97	-9.97972
ammen	-9.98069
pla	-9.98087
▁nyere	-9.98101
▁will	-9.98224
bånd	-9.9827
▁filosofi	-9.98274
▁spansk	-9.98365
▁svar	-9.98374
▁avtale	-9.98384
▁sportsutøver	-9.98458
▁brensel	-9.98459
▁dialekt	-9.98459
shi	-9.98478
leir	-9.98482
▁1937	-9.98483
▁element	-9.98503
▁reserve	-9.9851
▁uttalt	-9.98537
▁innsats	-9.98549
▁magnus	-9.98593
▁nekte	-9.98637
skytter	-9.98645
17	-9.98724
▁jean	-9.98771
▁master	-9.98773
▁kinas	-9.98818
vatnet	-9.98862
isto	-9.98957
ón	-9.99004
win	-9.9902
▁skille	-9.99024
▁epi	-9.99036
fulle	-9.99052
▁bølge	-9.99066
▁innhold	-9.99073
vekt	-9.99083
yang	-9.99148
fekt	-9.99193
▁inf	-9.99207
halvøya	-9.99247
▁penge	-9.99286
▁stilte	-9.99309
▁utvikle	-9.99344
lement	-9.99381
drift	-9.9945
▁fc	-9.99455
▁hage	-9.99485
politikk	-9.99536
▁konkurranse	-9.99628
pass	-9.99632
▁endre	-9.99649
▁forskjell	-9.99724
▁fle	-9.99763
▁folketelling	-9.99792
▁doktorgrad	-9.99794
▁romsdal	-9.99804
▁detalj	-9.99806
▁mytologi	-9.99813
▁skilt	-9.9984
▁sagt	-9.99853
motor	-9.99856
▁malt	-9.99863
▁arkitektur	-9.99888
▁driver	-9.99893
▁gard	-9.99929
▁forekommer	-10.0005
▁nasjonalpark	-10.0007
▁ok	-10.0008
▁song	-10.0023
itter	-10.0023
bevegelsen	-10.0025
somme	-10.0045
▁avsluttet	-10.0047
ical	-10.006
kjede	-10.0061
▁jag	-10.0064
▁horn	-10.0076
▁fylket	-10.0082
▁bevege	-10.0087
▁frø	-10.0094
▁motiv	-10.0097
virksomhet	-10.0099
89	-10.0106
▁terr	-10.0107
н	-10.0112
▁erkebiskop	-10.0114
▁etterfulgt	-10.0114
▁tilknytning	-10.0114
▁moskva	-10.0114
▁riktig	-10.0114
▁mistet	-10.0119
▁por	-10.0121
▁nevnes	-10.0123
▁1500	-10.0129
gul	-10.013
jö	-10.0139
03	-10.0146
96	-10.0151
▁solgte	-10.0151
på	-10.0158
▁north	-10.0164
▁ann	-10.0173
▁landene	-10.018
▁utdannelse	-10.0185
▁begrep	-10.0194
mont	-10.0201
▁sørge	-10.021
can	-10.0216
▁forsker	-10.0216
kritiker	-10.023
kultur	-10.0233
▁anta	-10.0251
▁praksis	-10.0251
▁eventyr	-10.0251
kompleks	-10.0251
▁unngå	-10.0252
▁bryst	-10.0252
▁1919	-10.0253
▁etterfølger	-10.0253
▁oppsto	-10.0254
▁myndigheter	-10.0254
▁dommer	-10.0256
▁vendt	-10.0257
▁cy	-10.0262
▁koll	-10.0262
▁butikk	-10.0263
▁føde	-10.0264
▁solo	-10.0268
▁bånd	-10.0271
▁dør	-10.0271
ulykke	-10.0275
▁1000	-10.0275
signal	-10.0275
▁morgen	-10.0277
▁undervisning	-10.0279
▁rør	-10.028
▁kommunikasjon	-10.028
▁ankom	-10.0286
▁likhet	-10.029
ary	-10.0295
▁hindre	-10.0302
dige	-10.0306
▁sist	-10.0308
▁kampene	-10.0318
▁sim	-10.032
lad	-10.0324
▁fritt	-10.0328
▁administrasjons	-10.0328
▁mill	-10.0329
ky	-10.0333
ernes	-10.0348
stasjonen	-10.0351
▁stol	-10.0354
turnering	-10.037
krig	-10.0373
program	-10.0377
▁forble	-10.0383
▁gjeld	-10.0383
▁elektro	-10.0387
▁insekter	-10.039
▁installert	-10.039
▁positiv	-10.039
▁vulkan	-10.039
▁anledning	-10.039
▁strekker	-10.0391
▁behov	-10.0391
▁sekund	-10.0392
variant	-10.0392
▁alpin	-10.0392
▁latinsk	-10.0392
33	-10.0392
▁gjennomsnitt	-10.0396
▁gjelder	-10.0398
▁east	-10.0399
▁snø	-10.04
▁hellas	-10.0403
snitt	-10.0404
▁1600	-10.0405
handler	-10.0407
▁antatt	-10.0409
▁foruten	-10.0409
▁årets	-10.0416
▁trekke	-10.0417
▁bevegelse	-10.0419
▁damp	-10.042
stamme	-10.0423
▁overgang	-10.0423
▁samarbeidet	-10.0436
▁foss	-10.0438
▁vii	-10.0453
▁bio	-10.0465
▁mulighet	-10.0476
▁typen	-10.0476
▁kommunene	-10.0483
▁planet	-10.0497
ming	-10.0504
ain	-10.0511
oth	-10.0513
slått	-10.0522
forskning	-10.0523
givelse	-10.0524
▁introdusert	-10.0531
▁county	-10.0531
▁ungarn	-10.0531
▁kunnskap	-10.0531
▁faktisk	-10.0532
prisen	-10.0535
iro	-10.0535
▁forlag	-10.0539
▁levde	-10.0555
▁skul	-10.0557
▁dokumenter	-10.0557
gå	-10.0562
▁nan	-10.0563
▁eg	-10.057
mur	-10.0576
rim	-10.0593
▁frakte	-10.0602
▁gau	-10.0615
▁romanen	-10.0616
▁statlig	-10.0618
▁auto	-10.0623
mber	-10.0624
▁kandidat	-10.0624
▁kåre	-10.0633
▁begrenset	-10.0634
hag	-10.065
lam	-10.0653
▁debut	-10.0653
▁omfatte	-10.0661
▁kil	-10.0662
▁vokal	-10.0662
grep	-10.0665
▁grunnlegger	-10.0669
▁dekket	-10.0673
mønster	-10.0674
▁edward	-10.0674
▁behandle	-10.0683
kostnad	-10.0684
feld	-10.0691
▁effektiv	-10.0693
low	-10.0695
typen	-10.0696
▁grunnlegge	-10.0698
▁human	-10.0701
▁bilder	-10.0705
grense	-10.0714
▁nm	-10.072
▁bytte	-10.0733
▁beskrevet	-10.0734
skyting	-10.0736
▁orkester	-10.0739
▁samfunnet	-10.0743
▁erobret	-10.0754
trinn	-10.0758
▁beskriver	-10.0758
▁teologi	-10.0759
kontor	-10.0762
▁nordland	-10.0764
▁skiftet	-10.0764
▁verker	-10.0767
turbin	-10.0768
▁ferd	-10.0776
staten	-10.0783
▁normal	-10.0787
▁samfunn	-10.0788
▁stig	-10.0799
▁ek	-10.0804
▁maler	-10.0814
front	-10.0817
▁beseiret	-10.0819
▁byprefektur	-10.0819
▁eventuel	-10.0819
▁ødelegge	-10.0819
▁medlemmene	-10.082
▁protest	-10.082
▁forbund	-10.0825
▁kode	-10.0827
▁dj	-10.0831
▁starten	-10.0839
▁eik	-10.084
sfære	-10.084
▁bunn	-10.0846
▁planter	-10.0848
▁bilen	-10.0849
fond	-10.0861
▁tidspunkt	-10.0864
con	-10.0872
▁vers	-10.0873
▁ansvar	-10.0873
▁flytte	-10.0881
ough	-10.0885
▁bob	-10.0897
delse	-10.0903
▁kreft	-10.0906
▁bakke	-10.091
▁sko	-10.091
▁drevet	-10.0912
▁stoff	-10.0916
06	-10.0921
▁forsvaret	-10.0926
styrt	-10.093
▁may	-10.0934
▁aker	-10.0952
▁cu	-10.0953
▁univers	-10.0959
▁hval	-10.0961
13	-10.0965
tittel	-10.0965
▁kristiansand	-10.0966
▁alvorlig	-10.0966
▁dollar	-10.0966
▁håndball	-10.0967
▁sølvmedalje	-10.0967
▁high	-10.0971
▁hjerne	-10.0972
handlingen	-10.0981
▁rand	-10.0988
frukt	-10.0988
▁cal	-10.0991
▁jim	-10.0995
kov	-10.0997
firma	-10.0999
▁rådgiver	-10.1006
▁verd	-10.1009
▁sja	-10.1017
▁tradisjonel	-10.1033
▁innlede	-10.1037
▁utføre	-10.104
▁kommando	-10.1045
▁dømt	-10.1045
▁tsj	-10.1046
aria	-10.1051
▁brenn	-10.1052
mengde	-10.1053
▁utsatt	-10.1058
▁utvalg	-10.1059
▁kvi	-10.106
▁ya	-10.1064
▁cell	-10.1065
strekning	-10.1067
▁penger	-10.1076
▁salme	-10.1077
▁sku	-10.1079
42	-10.1081
▁makten	-10.1083
▁1909	-10.1115
▁tilknyttet	-10.1115
▁hensikt	-10.1115
▁kontinent	-10.1115
▁redusert	-10.1115
ulf	-10.1115
▁hemmelig	-10.1116
▁1912	-10.1117
▁1906	-10.1117
miljø	-10.1117
▁bekrefte	-10.1118
▁beslutte	-10.112
▁primær	-10.1122
▁redde	-10.1123
▁tå	-10.1123
▁kjøl	-10.1125
24	-10.1127
▁pensjon	-10.1129
dyktig	-10.1145
ington	-10.1146
▁utgi	-10.1149
▁stillingen	-10.115
▁medisin	-10.1156
▁ris	-10.116
▁forbundet	-10.1173
regn	-10.1187
pot	-10.1188
væ	-10.1193
▁selge	-10.1199
▁tilfeller	-10.12
hild	-10.12
▁turner	-10.121
▁moren	-10.1212
▁75	-10.1213
▁handler	-10.1214
23	-10.1218
melding	-10.1219
former	-10.1223
▁kanalen	-10.1223
vold	-10.1239
▁maleri	-10.1239
▁gli	-10.124
▁gui	-10.1242
▁hamar	-10.125
grensen	-10.1253
▁green	-10.1253
▁levert	-10.1254
▁grunnet	-10.1255
▁representanter	-10.1261
▁bygda	-10.1263
blomst	-10.1264
▁steve	-10.1266
▁eksperiment	-10.1267
▁konservativ	-10.1267
▁allierte	-10.1267
mond	-10.1267
▁spredt	-10.1268
▁800	-10.1268
prosjekt	-10.1268
▁representant	-10.1272
telefon	-10.1273
▁hersker	-10.1274
rap	-10.1281
▁gold	-10.1299
angrep	-10.1304
▁jøde	-10.1307
barn	-10.1312
▁opptil	-10.1319
▁santa	-10.1324
handel	-10.1326
▁kvalitet	-10.1326
konge	-10.1336
▁anse	-10.1346
▁synes	-10.137
▁vinteren	-10.1375
cho	-10.1379
▁landslag	-10.1383
slav	-10.1387
▁teknikk	-10.1388
▁stam	-10.139
reise	-10.1392
▁sete	-10.1394
▁stå	-10.14
▁kg	-10.1402
▁sti	-10.1419
▁prinsipp	-10.142
▁gustav	-10.142
▁sistnevnte	-10.1421
▁litterær	-10.1421
komité	-10.1421
▁kommunist	-10.1422
▁1910	-10.1425
pho	-10.1425
▁hovedsak	-10.1438
eksamen	-10.1439
▁team	-10.1445
▁foreningen	-10.1454
▁polar	-10.1458
▁river	-10.1459
▁klassen	-10.147
▁fn	-10.1471
▁wien	-10.1483
▁vokse	-10.1496
▁kalk	-10.1497
▁hammer	-10.1514
back	-10.1516
▁senter	-10.1524
rekke	-10.1529
fyll	-10.1535
000	-10.1539
▁virkelig	-10.1542
▁nav	-10.1542
▁alene	-10.1545
▁mesterskap	-10.1562
bakken	-10.1566
bille	-10.1568
▁sentralt	-10.1575
▁kai	-10.1576
▁godkjent	-10.1577
▁hendelser	-10.1577
▁studere	-10.1577
▁glass	-10.1578
▁1935	-10.1579
▁luther	-10.1582
forfatter	-10.1584
▁hunnen	-10.1589
▁tråd	-10.1594
88	-10.16
▁ali	-10.1611
▁iso	-10.1612
havn	-10.1616
følgende	-10.1617
▁junior	-10.1619
▁karrieren	-10.1621
▁fotballklubb	-10.1627
▁gruppa	-10.1629
▁idrettslag	-10.163
22	-10.1634
▁finske	-10.1637
▁old	-10.1647
▁tvil	-10.1649
▁150	-10.1656
▁flyet	-10.1656
▁institutt	-10.1656
hopp	-10.1657
▁kast	-10.1666
▁bevegelsen	-10.1668
▁saga	-10.1679
flate	-10.1683
▁harry	-10.1688
▁ein	-10.1689
kilde	-10.1697
▁administrasjon	-10.1701
▁landskap	-10.1716
▁oppnå	-10.1722
foreningen	-10.1722
▁kull	-10.1731
▁laste	-10.1732
parlament	-10.1735
▁eksempler	-10.1735
▁kjørt	-10.1735
▁oblast	-10.1735
gymnas	-10.1735
▁kritikk	-10.1736
konferanse	-10.1736
▁award	-10.1736
▁club	-10.1736
▁tilhørte	-10.1736
▁konstant	-10.1736
▁beholdt	-10.1736
▁myndighetene	-10.1736
ов	-10.1737
▁etterkommer	-10.1737
▁otto	-10.1737
▁referere	-10.1738
▁1921	-10.1738
▁skotsk	-10.1738
▁sverd	-10.174
▁varierer	-10.1744
▁tekster	-10.1746
▁terror	-10.1746
samfunn	-10.1746
▁tverr	-10.175
▁deltaker	-10.1751
▁tørr	-10.1753
▁kommunestyre	-10.1755
▁mynt	-10.1755
▁stabil	-10.1757
▁andreas	-10.176
▁oppnådd	-10.1761
syre	-10.1765
▁char	-10.1765
▁music	-10.1774
▁vakt	-10.1775
vannet	-10.1775
gin	-10.1776
▁hydro	-10.1779
▁bestemme	-10.178
serie	-10.1783
▁representert	-10.1784
▁utenriks	-10.1788
▁urban	-10.1797
familie	-10.1798
zy	-10.1809
▁kval	-10.181
uch	-10.1816
38	-10.1817
▁landslaget	-10.1817
▁bredt	-10.182
sikkerhet	-10.1826
▁ordre	-10.1828
dorf	-10.1828
▁tromsø	-10.1833
▁55	-10.1841
▁jud	-10.1852
▁fartøy	-10.1857
strømmen	-10.1859
▁betegnelse	-10.1862
liste	-10.1871
▁ansett	-10.1871
▁landsby	-10.1872
▁jødiske	-10.1874
▁inge	-10.1877
▁utøver	-10.1888
▁formen	-10.189
▁service	-10.1897
▁avdøde	-10.1897
▁mary	-10.1897
▁hve	-10.1897
strøk	-10.1897
▁arendal	-10.1898
▁1922	-10.1898
▁1917	-10.1899
faktor	-10.19
setting	-10.1901
▁veldig	-10.1907
klassen	-10.1908
26	-10.191
▁planen	-10.1912
▁handel	-10.1917
gått	-10.192
▁1870	-10.1923
▁muligheten	-10.1923
modell	-10.1932
▁sli	-10.1933
▁dun	-10.1939
▁barb	-10.1941
ado	-10.1942
▁samtid	-10.1951
▁spenning	-10.1953
bygningen	-10.1959
▁kapell	-10.1961
▁utstilling	-10.1961
▁rulle	-10.1966
▁olsen	-10.1968
▁tilfelle	-10.197
▁poly	-10.1972
jord	-10.1975
▁bakkroppen	-10.1984
▁42	-10.1993
▁manus	-10.1995
▁produksjonen	-10.2004
▁dato	-10.2026
▁bærer	-10.2042
▁hode	-10.206
▁østerriksk	-10.2061
▁krevde	-10.2061
▁registrert	-10.2061
opplæring	-10.2061
▁befinne	-10.2062
▁1934	-10.2062
▁telemark	-10.2062
herre	-10.2063
▁1911	-10.2063
▁jackson	-10.2063
▁møre	-10.2063
▁hentet	-10.2068
▁respekt	-10.2068
ual	-10.2069
▁økende	-10.207
▁avholdt	-10.2073
▁avtalen	-10.2075
hånd	-10.2076
▁armé	-10.2076
tunnel	-10.2076
▁frihet	-10.2077
▁johann	-10.2077
▁agder	-10.2078
hjem	-10.2079
▁israelsk	-10.208
▁oppstå	-10.2083
virke	-10.2083
▁unna	-10.2084
▁parken	-10.2084
▁flekk	-10.2092
▁styret	-10.2092
▁kha	-10.2095
▁bidrag	-10.2099
ira	-10.2106
▁motstander	-10.2107
▁fan	-10.2109
▁velger	-10.2109
gli	-10.2111
foss	-10.2115
fabrikk	-10.2116
▁kraftige	-10.2122
sosialistisk	-10.2124
▁perioder	-10.2137
▁lyn	-10.2147
▁tam	-10.2159
▁indisk	-10.2161
rock	-10.2161
komedie	-10.2162
▁natten	-10.2179
politisk	-10.2179
bukta	-10.2182
asser	-10.2183
▁ref	-10.219
forbundet	-10.219
▁bære	-10.2194
ordnet	-10.2198
▁tilhøre	-10.2207
▁middelalder	-10.2212
▁helsingfors	-10.2227
▁pasient	-10.2227
▁akershus	-10.2227
▁utnytte	-10.2227
▁arrangere	-10.2227
▁debatt	-10.2228
nntatt	-10.223
park	-10.2233
▁funn	-10.224
bebyggelse	-10.224
▁mottatt	-10.2241
▁vokalist	-10.2241
▁sum	-10.2243
▁grønland	-10.2244
▁sammenlagt	-10.2249
▁ansvarlig	-10.2255
▁østover	-10.2256
▁underlag	-10.2256
blant	-10.2262
▁gjenstand	-10.2265
▁styrte	-10.2267
27	-10.2281
▁antallet	-10.229
▁spre	-10.2292
▁populært	-10.2303
▁00	-10.2316
komiteen	-10.2322
▁drap	-10.2331
sey	-10.2331
rakk	-10.2334
▁sammenligne	-10.2335
▁web	-10.2338
▁portrett	-10.2347
▁fjernet	-10.2347
▁kin	-10.2351
▁museet	-10.2352
▁33	-10.2353
▁shan	-10.2354
ittisk	-10.2355
▁overleve	-10.2358
▁gun	-10.2368
▁måten	-10.2371
▁versjonen	-10.2374
▁skjold	-10.2374
strid	-10.2386
▁nettverk	-10.2394
▁politiet	-10.2395
fjellet	-10.2397
▁alkohol	-10.2397
▁science	-10.2397
▁vestfold	-10.2397
▁debutalbum	-10.2397
ström	-10.2397
▁1927	-10.2399
▁fjernsyn	-10.2399
▁1913	-10.2399
konkurranse	-10.2417
▁molde	-10.2418
▁vinne	-10.242
nummer	-10.2431
▁beskrive	-10.2436
▁vekst	-10.2454
▁religiøs	-10.2468
▁skriver	-10.247
▁plateselskap	-10.2489
klokke	-10.2492
34	-10.2498
▁mol	-10.2505
kommisjon	-10.251
▁deles	-10.2517
▁andel	-10.2524
▁skiller	-10.2524
▁stan	-10.2533
næs	-10.2539
plikt	-10.2547
▁utstyrt	-10.2547
▁dahl	-10.2558
▁arkeolog	-10.2562
▁bud	-10.2563
▁brede	-10.2563
livet	-10.2564
▁1904	-10.2569
▁anerkjent	-10.2569
▁shanghai	-10.2569
▁semifinale	-10.2569
▁mongol	-10.257
▁fysisk	-10.257
▁mangler	-10.257
▁håkon	-10.2571
▁skarp	-10.2571
▁sovjet	-10.2571
▁båten	-10.2575
rygg	-10.2575
kompani	-10.2577
▁feire	-10.2577
▁bydelen	-10.2578
▁hitler	-10.2582
▁gitarist	-10.2583
▁kontra	-10.2584
▁nød	-10.2585
12	-10.2586
▁rob	-10.2588
album	-10.259
sekretær	-10.2591
skjold	-10.2592
bøker	-10.2602
dommer	-10.2617
▁advokat	-10.2619
▁statue	-10.262
prest	-10.2623
dannelse	-10.2629
spillet	-10.2647
▁kjell	-10.2661
▁700	-10.2672
▁vegg	-10.2678
▁38	-10.2682
skutt	-10.2698
▁irsk	-10.2698
start	-10.2699
▁leon	-10.2702
▁fett	-10.2703
ín	-10.2704
▁fisker	-10.2708
▁anlegg	-10.271
slipp	-10.2715
klubben	-10.273
▁metro	-10.2733
▁kvart	-10.2741
dikt	-10.2743
▁skulptur	-10.2745
▁joseph	-10.2745
▁fungerte	-10.2745
▁rogaland	-10.2745
▁kombinasjon	-10.2745
▁invasjon	-10.2745
▁føderal	-10.2746
▁vedtatt	-10.2746
▁angripe	-10.2747
▁etappe	-10.2748
▁afrikansk	-10.2748
▁skaffe	-10.2748
▁oppmerksomhet	-10.2749
▁hensyn	-10.2751
▁eksport	-10.2752
versjon	-10.2754
▁kommunal	-10.2766
▁sankt	-10.2771
øvelse	-10.2783
▁lykke	-10.2786
drakt	-10.2789
▁modellen	-10.2793
▁zi	-10.2811
▁angel	-10.2821
▁tai	-10.2835
yu	-10.2839
▁internasjonalt	-10.2845
▁alf	-10.2845
▁vokser	-10.2849
▁handle	-10.2852
stemt	-10.2855
▁melk	-10.287
▁lake	-10.2876
▁besøkt	-10.2898
masse	-10.2898
▁kim	-10.2908
trener	-10.2911
komst	-10.2918
▁alexander	-10.2923
▁company	-10.2923
▁ansikt	-10.2923
▁zealand	-10.2923
▁uvanlig	-10.2923
▁forbedre	-10.2923
▁utmerkelse	-10.2924
▁parlamentet	-10.2924
▁1929	-10.2925
▁anklage	-10.2925
▁manager	-10.2925
▁1923	-10.2925
▁platen	-10.2926
▁analyse	-10.2927
▁signert	-10.2927
▁formula	-10.2929
▁drepe	-10.2942
▁forvingen	-10.2942
verdi	-10.2947
nemlig	-10.2947
museum	-10.2954
▁skudd	-10.2957
▁aksje	-10.2958
▁paven	-10.297
klasse	-10.297
▁stål	-10.2979
▁kino	-10.2979
parken	-10.2981
▁vitne	-10.2982
brua	-10.2987
▁rund	-10.2988
▁ec	-10.2988
▁ull	-10.2998
vika	-10.3002
▁hå	-10.3005
▁tab	-10.3007
▁niels	-10.3007
▁fotograf	-10.3008
▁ulv	-10.3009
▁kari	-10.3013
▁term	-10.3013
▁etnisk	-10.302
▁artikler	-10.302
▁bidr	-10.3032
▁grov	-10.3042
▁endringer	-10.3047
▁vor	-10.305
▁storm	-10.3053
▁hastighet	-10.3064
▁lån	-10.3066
▁sideelv	-10.307
bein	-10.3082
▁jente	-10.3092
▁preg	-10.3093
manuskript	-10.3105
▁friedrich	-10.3105
▁initiativ	-10.3105
▁konkurrert	-10.3105
▁konsekvens	-10.3105
▁middelsstor	-10.3105
▁portugisisk	-10.3105
▁kjærlighet	-10.3105
▁finnmark	-10.3105
▁geografisk	-10.3105
▁smith	-10.3105
▁papir	-10.3105
▁scott	-10.3105
vokst	-10.3106
▁kveld	-10.3106
▁høre	-10.3106
▁jesus	-10.3106
▁1915	-10.3108
▁drammen	-10.3109
▁vannkraftverk	-10.3109
▁filip	-10.3109
▁dvs	-10.3111
▁fastlandet	-10.3114
com	-10.3117
▁with	-10.3124
▁inneha	-10.3138
▁tyskerne	-10.3138
▁soldat	-10.3143
▁arbeiderpartiet	-10.3145
▁million	-10.3146
næring	-10.3151
▁monument	-10.3152
stjerne	-10.3154
▁wales	-10.3155
▁fortalt	-10.3156
▁disk	-10.3156
▁halvdel	-10.3163
▁kjøretøy	-10.3164
fyr	-10.3169
brand	-10.317
runde	-10.3179
▁ferge	-10.3183
▁drikke	-10.3186
▁regional	-10.319
▁verdenscupen	-10.3192
leie	-10.3195
▁katolsk	-10.3203
▁sikker	-10.3208
▁street	-10.3213
▁gram	-10.3216
kall	-10.3227
▁hvilken	-10.3241
▁villa	-10.325
▁løsning	-10.3257
▁uttale	-10.3268
fei	-10.3277
▁vinge	-10.3277
olu	-10.3279
▁kloster	-10.3281
svarer	-10.3283
▁antwerpen	-10.329
▁umiddelbar	-10.329
▁utelukke	-10.329
▁pakistan	-10.329
▁ludvig	-10.329
▁innbyggerne	-10.329
▁vesentlig	-10.329
▁preussen	-10.329
▁sachsen	-10.329
▁nedbør	-10.329
▁praktisk	-10.3291
▁utseende	-10.3291
▁nedenfor	-10.3291
▁michel	-10.3292
▁1931	-10.3292
▁mengder	-10.3293
iva	-10.3293
▁1916	-10.3293
▁medaljer	-10.3293
iansk	-10.3297
▁hvile	-10.3297
▁kjønns	-10.3299
▁young	-10.3301
▁elite	-10.3316
▁lord	-10.3322
▁fjellene	-10.3325
▁utvikler	-10.3326
▁isteden	-10.3326
forbindelse	-10.3327
▁utbrudd	-10.3341
▁egyptisk	-10.3342
▁fru	-10.3344
▁cand	-10.3353
▁konstruksjon	-10.3361
▁motsatt	-10.3364
▁ansvaret	-10.3378
botn	-10.3379
31	-10.3379
▁begynne	-10.3386
▁bull	-10.3405
▁beskrev	-10.341
▁oppfatte	-10.341
slutt	-10.3415
▁cur	-10.3418
rute	-10.3422
▁medisinsk	-10.343
▁34	-10.3438
fattet	-10.3452
▁avvist	-10.3452
▁sekretær	-10.3454
▁münchen	-10.3479
▁1902	-10.3479
▁barcelona	-10.3479
▁guvernør	-10.3479
▁konkurrere	-10.3479
▁nominert	-10.3479
▁digital	-10.3479
▁ekstrem	-10.3479
▁golf	-10.3479
▁inngår	-10.3479
▁sving	-10.348
▁verdensrekord	-10.348
▁power	-10.3481
▁blomster	-10.3481
▁1905	-10.3482
▁1907	-10.3482
▁france	-10.3483
▁bassist	-10.3487
▁artister	-10.3488
▁mobil	-10.3493
▁1896	-10.3496
▁deltatt	-10.3503
utvikling	-10.3519
teknikk	-10.352
bygget	-10.3522
▁tell	-10.3528
▁app	-10.3529
▁krok	-10.3542
▁ef	-10.3544
avtale	-10.3547
ān	-10.3558
▁troms	-10.3558
▁ytterst	-10.3562
▁kongress	-10.3567
ledd	-10.3572
▁bein	-10.3572
▁rettigheter	-10.3581
▁tilbud	-10.3583
▁thi	-10.3589
kritisk	-10.359
▁fulgt	-10.3591
▁modern	-10.3599
▁beina	-10.36
▁cho	-10.3614
▁dokument	-10.3624
ordningen	-10.3624
▁terreng	-10.3641
byrå	-10.3643
▁zu	-10.3643
▁snakk	-10.3648
▁stab	-10.365
▁christi	-10.366
ique	-10.366
▁aleksander	-10.3671
▁australsk	-10.3671
▁færøyene	-10.3671
▁musikalsk	-10.3671
▁prøvd	-10.3671
▁svalbard	-10.3671
▁arrestert	-10.3671
▁jakob	-10.3671
▁negativ	-10.3671
▁antarktis	-10.3671
▁kritisert	-10.3671
▁hendelsen	-10.3671
▁frivillig	-10.3671
▁bøkene	-10.3671
▁studioalbum	-10.3672
▁allianse	-10.3672
▁novelle	-10.3672
▁velge	-10.3673
▁omtales	-10.3673
▁internett	-10.3674
▁alfred	-10.3676
▁daniel	-10.3677
misjon	-10.3678
▁programmer	-10.3679
▁reaksjon	-10.3684
▁gruve	-10.3685
▁sara	-10.369
▁white	-10.3693
▁inngikk	-10.3695
▁gradvis	-10.3711
▁sørover	-10.3712
▁emil	-10.3714
hastighet	-10.3715
født	-10.3719
▁brem	-10.3724
▁islam	-10.3727
▁klosteret	-10.3744
▁kastet	-10.3761
speil	-10.3765
politi	-10.3769
bød	-10.3769
▁baron	-10.3783
▁ytter	-10.3784
▁gjennomføre	-10.3794
kjemi	-10.3795
▁krysset	-10.3798
▁bach	-10.3802
▁demokratisk	-10.3832
teori	-10.3832
bru	-10.3841
▁verdensmester	-10.3849
▁boka	-10.3852
▁individ	-10.3866
▁akseptert	-10.3867
▁elisabeth	-10.3867
▁restaurant	-10.3867
▁washington	-10.3867
▁argument	-10.3867
▁regissør	-10.3867
▁tyrkisk	-10.3867
▁døgn	-10.3868
artilleri	-10.3868
▁tømmer	-10.3868
▁elleve	-10.3868
▁beordre	-10.3868
▁forårsake	-10.3869
▁oppløst	-10.3869
▁definere	-10.3869
▁tropisk	-10.3869
stipend	-10.387
▁tibet	-10.3871
▁gullmedalje	-10.3871
▁brown	-10.3871
▁house	-10.3871
▁petter	-10.3872
▁kapp	-10.3877
▁lokalisert	-10.3879
▁prix	-10.3882
▁liber	-10.3885
▁1897	-10.3886
▁tronen	-10.3888
▁tau	-10.3889
▁kulturell	-10.389
▁skjær	-10.3899
▁intern	-10.3901
spis	-10.3902
strup	-10.3904
▁seire	-10.3908
▁søkt	-10.3912
historisk	-10.3915
▁beskrivelse	-10.3916
▁sporter	-10.3925
▁trukket	-10.393
▁ingeniør	-10.3939
▁smak	-10.394
▁involvert	-10.394
▁long	-10.3957
light	-10.3959
▁grøn	-10.396
▁rester	-10.3961
bakke	-10.3996
ligning	-10.3998
▁administrere	-10.4018
▁motta	-10.4032
▁jøder	-10.4033
29	-10.4061
▁afghanistan	-10.4067
▁intervju	-10.4067
▁etablering	-10.4067
▁vilhelm	-10.4067
▁innlemme	-10.4067
▁erobring	-10.4067
▁bodø	-10.4068
▁rolf	-10.4068
▁innebære	-10.4068
▁overtatt	-10.4068
▁bispe	-10.4069
▁show	-10.4076
▁uavhengighet	-10.4093
▁sunn	-10.4113
produsent	-10.412
▁filosof	-10.4125
datter	-10.4127
▁ey	-10.4137
▁grunnla	-10.4146
roman	-10.4152
▁etasje	-10.4163
vegg	-10.4163
▁gaten	-10.4174
▁herred	-10.418
agon	-10.4212
▁hellig	-10.4229
▁wu	-10.4256
edderkopp	-10.4259
▁halvpart	-10.4259
▁play	-10.4264
mengden	-10.4264
litt	-10.4267
▁portugal	-10.4271
admiral	-10.4271
▁hordaland	-10.4271
▁stafett	-10.4271
▁jørgen	-10.4271
▁radikal	-10.4271
▁foregår	-10.4271
▁global	-10.4271
frekvens	-10.4272
▁fangst	-10.4272
▁import	-10.4273
▁1926	-10.4274
▁styremedlem	-10.4274
▁kjemisk	-10.4274
▁wolf	-10.4274
▁medaljen	-10.4277
bach	-10.4279
▁fredrikstad	-10.428
blokk	-10.4281
▁arkiv	-10.4281
▁skuespill	-10.4285
▁arkeologisk	-10.4289
▁brødrene	-10.4298
▁adam	-10.4298
▁server	-10.4307
▁håp	-10.4308
bredden	-10.4315
formasjon	-10.4315
▁statsråd	-10.4318
▁vennskap	-10.4338
fartøy	-10.4351
▁tryg	-10.4352
▁demokrati	-10.4356
gav	-10.4371
▁kommun	-10.4372
wald	-10.4373
▁vingene	-10.4376
▁comp	-10.4385
▁snu	-10.4387
tårn	-10.4409
▁låten	-10.4412
▁fry	-10.4414
▁høst	-10.4452
▁wall	-10.4454
▁ulik	-10.4455
prin	-10.4456
forsyning	-10.4457
tysk	-10.4464
▁hind	-10.4479
▁amsterdam	-10.448
▁argentina	-10.448
▁hovedkvarter	-10.448
▁tønsberg	-10.448
▁windows	-10.448
▁embets	-10.448
▁kongeriket	-10.448
▁kommersiell	-10.448
▁blanding	-10.4481
▁prinsesse	-10.4481
▁multi	-10.4481
▁opptatt	-10.4481
▁slank	-10.4481
▁flytende	-10.4482
▁generell	-10.4482
▁midlertidig	-10.4482
givende	-10.4483
▁britene	-10.4483
▁biografi	-10.4486
▁fortellingen	-10.4486
▁roll	-10.4488
▁avansert	-10.4495
▁furu	-10.4497
galleri	-10.4497
▁kommunistisk	-10.4498
▁1880	-10.4519
skrive	-10.4534
▁vekk	-10.4535
▁hem	-10.4539
problem	-10.4541
befolkning	-10.4541
regjering	-10.4542
▁dyrke	-10.4544
▁kortere	-10.455
onia	-10.4561
måte	-10.457
flo	-10.459
▁mannlig	-10.4597
redskap	-10.4613
brutt	-10.4621
stab	-10.4641
▁250	-10.4649
▁bell	-10.4649
▁takke	-10.4652
alisme	-10.4669
illa	-10.4672
▁flor	-10.4678
kompetanse	-10.4692
▁forhindre	-10.4692
▁sammenslåing	-10.4692
▁henrettet	-10.4693
orientert	-10.4693
▁senior	-10.4693
▁oppfatning	-10.4693
▁ombord	-10.4693
▁opplysning	-10.4693
▁svømmer	-10.4693
▁partner	-10.4693
stråling	-10.4693
▁adresse	-10.4693
▁bayern	-10.4695
▁foreslått	-10.4696
▁allmenn	-10.4702
▁1200	-10.4707
▁glad	-10.4712
▁1890	-10.4716
opter	-10.4718
▁walter	-10.4723
▁birk	-10.4724
▁akku	-10.4724
▁synlig	-10.4727
teater	-10.4731
▁proto	-10.474
▁tiår	-10.4746
▁sveitsisk	-10.4756
sønn	-10.4761
museet	-10.4762
▁endring	-10.4787
forsvar	-10.4806
verge	-10.4822
lignende	-10.4847
▁hull	-10.4847
▁omkom	-10.4862
feng	-10.4871
▁flest	-10.4882
▁regjer	-10.4888
▁fødsel	-10.491
friidrettsutøver	-10.491
▁arrangement	-10.491
▁lillehammer	-10.491
▁tyrkia	-10.491
▁fakultet	-10.491
▁nøyaktig	-10.491
▁lyktes	-10.491
▁presentert	-10.491
▁major	-10.491
▁sjette	-10.491
traktaten	-10.4911
▁tegneserie	-10.4911
▁sprint	-10.4911
konvensjon	-10.4911
▁klokken	-10.4913
▁erfaring	-10.4914
▁individuelle	-10.4915
▁kristiania	-10.4916
▁dverg	-10.4917
▁meldt	-10.4918
▁kreert	-10.4919
▁piano	-10.4922
▁1888	-10.4927
cca	-10.4927
▁helst	-10.493
▁simon	-10.4935
▁antennene	-10.4941
akademiet	-10.4943
▁etterpå	-10.4948
▁vende	-10.4959
▁milit	-10.496
▁karakteristisk	-10.4962
▁dramatisk	-10.4964
ofon	-10.4964
skij	-10.4969
posisjon	-10.497
norsk	-10.4972
▁ligge	-10.4978
▁roger	-10.5002
▁erstatte	-10.5003
▁lid	-10.5025
▁synge	-10.5034
▁160	-10.5037
brød	-10.5039
sats	-10.5049
chu	-10.5049
wich	-10.5058
▁vindu	-10.5065
forsker	-10.5079
work	-10.5079
▁skinn	-10.5091
▁forskjellig	-10.5093
samband	-10.5095
▁hertugdømmet	-10.5132
▁skjønt	-10.5132
▁vingespenn	-10.5132
▁risiko	-10.5132
▁autonom	-10.5132
▁tabellen	-10.5132
▁eksisterer	-10.5132
▁bibelen	-10.5132
▁brigade	-10.5133
▁definert	-10.5133
aceae	-10.5134
▁programleder	-10.5134
▁opptrer	-10.5135
▁svein	-10.5135
▁trening	-10.5137
▁town	-10.5138
▁munk	-10.5139
▁larvik	-10.5141
▁forsterke	-10.5144
▁nederlag	-10.5146
▁skjell	-10.5156
▁indianer	-10.516
▁rana	-10.5162
▁1860	-10.5163
▁nasjoner	-10.5164
▁tvang	-10.5166
▁apple	-10.5168
▁forvaltnings	-10.5177
wiki	-10.5178
gudinne	-10.5189
▁vanligste	-10.5191
skrevet	-10.5196
▁diplomat	-10.5197
produkt	-10.5205
europeisk	-10.5208
▁minutt	-10.5212
▁begrense	-10.5215
sykdommer	-10.5219
▁hekk	-10.5225
▁blind	-10.5261
▁bang	-10.5269
▁meta	-10.5275
▁120	-10.5293
▁neu	-10.5303
enhver	-10.5332
settelse	-10.5339
▁kunde	-10.5341
▁krise	-10.5343
▁gö	-10.5352
▁falk	-10.5353
▁cra	-10.5357
belteasteroide	-10.5359
▁american	-10.5359
▁innendørs	-10.5359
▁liverpool	-10.5359
▁maksimal	-10.5359
▁milliarder	-10.5359
budsjett	-10.5359
▁dominerende	-10.5359
▁oxford	-10.5359
▁infanteri	-10.5359
disiplin	-10.5359
▁canadisk	-10.5359
▁avgjørende	-10.5359
▁rektor	-10.5359
▁bærum	-10.536
▁arthur	-10.536
▁valuta	-10.536
▁dominert	-10.536
▁nepal	-10.536
▁oppdagelse	-10.5361
▁hjal	-10.5361
▁titler	-10.5361
▁1903	-10.5362
▁forlenge	-10.5362
▁forbudt	-10.5363
▁trenger	-10.5363
▁distanse	-10.5363
▁1901	-10.5363
▁väst	-10.5363
▁varianter	-10.5364
▁strekningen	-10.5365
▁biologisk	-10.5366
▁victoria	-10.5368
▁rednings	-10.537
▁antoni	-10.5374
▁anlagt	-10.5377
▁whi	-10.538
ansett	-10.538
fred	-10.5381
▁1882	-10.5382
▁brent	-10.5386
▁institut	-10.539
▁nedover	-10.5402
▁verb	-10.542
▁torg	-10.5421
embete	-10.5424
▁skall	-10.5439
kandidat	-10.544
instrument	-10.544
funksjon	-10.544
▁anker	-10.5448
▁forklare	-10.5451
utenriksminister	-10.547
▁bass	-10.5483
forsamlingen	-10.5487
følelse	-10.5487
dratt	-10.5503
dahl	-10.5512
aux	-10.5513
▁anerkjenne	-10.5516
material	-10.5528
demokrat	-10.5537
▁lest	-10.5539
språklige	-10.5548
▁fed	-10.5585
▁okkupasjon	-10.5592
▁engasjert	-10.5592
▁innbyggertall	-10.5592
▁påbegynt	-10.5592
▁virginia	-10.5592
▁fenomen	-10.5592
▁evangeli	-10.5592
veksling	-10.5592
▁forsvant	-10.5592
▁mekanisk	-10.5592
▁oberst	-10.5592
▁jiang	-10.5592
▁bakterie	-10.5596
▁group	-10.5598
▁2018	-10.5598
▁eiendommen	-10.5601
vatn	-10.5606
▁tjent	-10.5614
▁estland	-10.5626
▁lunge	-10.5631
▁utbygging	-10.5636
▁histori	-10.5637
stigning	-10.566
▁hul	-10.5661
▁nordover	-10.5666
▁cru	-10.5666
▁vilje	-10.5672
▁løfte	-10.5672
▁tvers	-10.5676
institutt	-10.5678
struktur	-10.5678
programmet	-10.5682
▁esp	-10.5686
▁georgia	-10.569
▁oppstod	-10.5698
basert	-10.5707
▁tenke	-10.5716
bury	-10.572
▁forstå	-10.573
klær	-10.5737
▁opprettelse	-10.5737
▁fase	-10.5746
▁great	-10.575
løft	-10.5756
støtte	-10.5764
▁52	-10.5768
▁trodd	-10.5771
forvaltning	-10.5784
odden	-10.5787
gram	-10.579
▁slu	-10.5799
▁størst	-10.5799
registre	-10.5815
▁francis	-10.5827
▁aftenposten	-10.583
▁kollektiv	-10.583
▁konsept	-10.583
▁låtskriver	-10.583
▁rekrutt	-10.583
▁chicago	-10.583
▁beregnet	-10.583
▁graf	-10.583
▁redusere	-10.583
▁lørdag	-10.583
▁selvmord	-10.583
▁igjennom	-10.583
▁tilskuer	-10.583
▁kredit	-10.5831
▁døpt	-10.5831
▁francisco	-10.5833
▁operatør	-10.5834
relatert	-10.5836
▁røyk	-10.5837
førsel	-10.5841
formede	-10.5844
▁nobel	-10.5846
wick	-10.5847
▁jonas	-10.5847
▁britis	-10.5847
▁maritim	-10.5853
▁agent	-10.5855
▁talent	-10.5856
▁mah	-10.5856
▁hylle	-10.5858
▁manglen	-10.5858
▁audi	-10.586
▁øre	-10.5863
▁tilsyne	-10.5863
▁blandet	-10.5867
▁romerne	-10.5868
fast	-10.5871
▁1850	-10.5883
▁tilpasse	-10.5885
direktør	-10.5922
temperatur	-10.5923
rekord	-10.5924
musiker	-10.5925
▁betale	-10.5933
▁idrett	-10.6003
behandling	-10.6003
vitenskapelige	-10.6015
▁mao	-10.6057
▁markere	-10.6068
▁astronom	-10.6074
▁ferdinand	-10.6074
▁juridisk	-10.6074
▁territorie	-10.6074
▁fjordane	-10.6074
▁annonsert	-10.6074
▁beatles	-10.6074
▁amatør	-10.6074
▁gunnar	-10.6074
▁ntnu	-10.6074
▁opplevelse	-10.6074
teatret	-10.6074
forsikring	-10.6075
▁opposisjon	-10.6075
▁forberede	-10.6075
▁tallrike	-10.6077
▁foreslo	-10.6077
▁gravlagt	-10.608
▁manchester	-10.6081
▁kunstløp	-10.6087
▁1889	-10.6096
▁1895	-10.61
▁hamburg	-10.61
▁einar	-10.6102
seier	-10.6105
▁minas	-10.6105
▁utvidelse	-10.6117
▁pont	-10.6125
▁marx	-10.6128
vang	-10.6143
pati	-10.6154
effekt	-10.6176
▁lyng	-10.6179
▁skyte	-10.6182
▁skifte	-10.6185
svarte	-10.6226
areal	-10.6247
▁rid	-10.6266
▁islamsk	-10.6266
▁finale	-10.6271
▁antenne	-10.6295
▁ambassadør	-10.6324
▁muslimsk	-10.6324
▁buskerud	-10.6324
▁komponert	-10.6324
▁skjult	-10.6324
▁venezia	-10.6324
▁naturgass	-10.6324
▁forkortet	-10.6324
▁hebraisk	-10.6324
▁søndag	-10.6324
▁opptreden	-10.6324
▁tolkning	-10.6324
▁kampanje	-10.6324
▁ungarsk	-10.6324
▁langrenn	-10.6324
▁væske	-10.6324
▁kobber	-10.6325
▁innvalgt	-10.6325
▁beslektet	-10.6325
▁firmaet	-10.6326
▁antyde	-10.6326
▁divers	-10.6326
▁stiftelsen	-10.6327
▁tilsammen	-10.6328
▁sikte	-10.633
▁antikken	-10.633
▁mandat	-10.6334
▁håndverk	-10.6339
▁barndom	-10.634
syklus	-10.6341
liknende	-10.6342
▁cuba	-10.6344
▁oversette	-10.6346
▁1881	-10.6347
vervet	-10.6354
▁hevn	-10.636
▁jack	-10.6361
kjennelse	-10.6365
▁isbre	-10.6367
▁heks	-10.6379
▁bevisst	-10.638
▁yng	-10.6392
▁fau	-10.64
kanalen	-10.6417
▁silke	-10.6421
kreft	-10.6427
kontroll	-10.6428
offiser	-10.6428
karriere	-10.6459
▁pala	-10.6486
▁gera	-10.6488
horn	-10.6496
nettverk	-10.6501
celle	-10.6516
lengde	-10.6526
▁usikker	-10.6536
▁kub	-10.6556
▁country	-10.658
▁symfoni	-10.658
▁angelsaksisk	-10.658
▁jerusalem	-10.658
▁popularitet	-10.658
▁renessanse	-10.658
▁trommeslager	-10.658
▁vedlikehold	-10.658
▁jesuitt	-10.658
▁returnert	-10.658
▁gjøvik	-10.658
▁xiàn	-10.658
▁kronprins	-10.658
komponent	-10.658
▁plattform	-10.658
▁reklame	-10.658
▁fiolin	-10.658
▁theodor	-10.658
▁fjær	-10.658
▁utpekt	-10.6581
▁ålesund	-10.6581
▁adolf	-10.6581
▁trengte	-10.6581
▁hyppig	-10.6581
▁cross	-10.6582
▁hedmark	-10.6583
▁anvende	-10.6585
▁avledet	-10.6585
▁alex	-10.6586
▁down	-10.6588
mission	-10.6589
▁betalt	-10.6589
▁komposisjon	-10.659
▁høyesterett	-10.659
tempelet	-10.6592
fortelling	-10.6592
▁straks	-10.6593
oksid	-10.6596
▁uklar	-10.6598
▁lettere	-10.6602
▁administr	-10.6604
▁christiania	-10.6617
▁qing	-10.6626
▁utvide	-10.6647
▁palass	-10.6648
spinner	-10.6656
skjerm	-10.6667
bibliotek	-10.6691
▁opprette	-10.6718
polis	-10.6726
bring	-10.6761
▁sparta	-10.6776
▁formell	-10.6791
round	-10.6802
▁stortings	-10.6832
▁departement	-10.6835
▁spenn	-10.6842
direktoratet	-10.6843
▁eksemplarer	-10.6843
▁frankfurt	-10.6843
▁hollywood	-10.6843
▁katedral	-10.6843
▁prefektur	-10.6843
▁frilufts	-10.6843
▁resultert	-10.6843
▁testamente	-10.6843
▁ordinær	-10.6844
regulering	-10.6844
▁fiktiv	-10.6844
▁bakvingen	-10.6844
▁seinere	-10.6845
▁gregor	-10.6845
▁hørte	-10.6846
▁techn	-10.6846
▁fortellinger	-10.6846
▁sjanger	-10.6847
▁bjerk	-10.6848
▁tvunge	-10.6851
▁tjener	-10.6852
▁blokker	-10.6854
▁tolke	-10.6854
▁arena	-10.6857
▁lisens	-10.6865
▁gjennombrudd	-10.6865
▁tsar	-10.6868
▁1848	-10.6871
▁johnson	-10.6876
▁robin	-10.6883
▁chang	-10.6889
ector	-10.6896
на	-10.696
stokk	-10.6978
▁galli	-10.7007
▁dynasti	-10.7045
▁tykk	-10.7047
▁elizabeth	-10.7114
▁ferskvann	-10.7114
▁football	-10.7114
▁giovanni	-10.7114
▁nøkkel	-10.7114
▁tsjekkoslovakia	-10.7114
frigjøring	-10.7114
▁texas	-10.7114
▁autoritet	-10.7114
▁referanse	-10.7114
▁gjaldt	-10.7114
▁heavy	-10.7114
▁thailand	-10.7114
▁kvalifisert	-10.7114
▁nikola	-10.7114
▁protestantisk	-10.7114
▁alexandr	-10.7114
▁fremtidig	-10.7114
▁profil	-10.7114
▁vakre	-10.7114
▁oppløsning	-10.7114
▁skildre	-10.7114
publiser	-10.7114
▁kulturminne	-10.7114
▁sosialdemokrat	-10.7115
▁senterpartiet	-10.7115
▁kristin	-10.7115
▁referert	-10.7116
▁rettssak	-10.7116
▁senator	-10.7123
▁donau	-10.7123
▁tilfeldig	-10.7125
▁onkel	-10.7127
▁åndelig	-10.7128
▁drøm	-10.7129
▁dokumentar	-10.713
▁fylt	-10.7132
▁tillatt	-10.7135
▁1885	-10.7142
▁1898	-10.7143
▁prim	-10.7148
▁beholde	-10.7148
▁intel	-10.716
▁vasa	-10.7174
hardt	-10.7223
time	-10.7227
▁basis	-10.7235
▁erobre	-10.7238
spørsmål	-10.7239
utdanning	-10.724
hjelp	-10.7241
grensa	-10.7243
▁domkirke	-10.7264
▁klage	-10.7281
▁scor	-10.7285
mannskapet	-10.7309
asso	-10.7361
▁menneskelig	-10.7364
▁könig	-10.7391
▁bysantinsk	-10.7391
▁færøysk	-10.7391
▁jomfru	-10.7391
▁melbourne	-10.7391
▁observert	-10.7391
▁ortodoks	-10.7391
▁brønn	-10.7392
▁strategisk	-10.7392
▁eksisterende	-10.7392
▁opprettholde	-10.7392
skribent	-10.7392
▁vurdere	-10.7392
▁sigurd	-10.7392
▁karbon	-10.7392
▁noensinne	-10.7392
▁skjøt	-10.7392
▁visepresident	-10.7393
▁omstridt	-10.7393
▁isolert	-10.7393
▁kronologisk	-10.7394
▁kryp	-10.7394
▁trussel	-10.7395
▁terje	-10.7395
▁yngste	-10.7397
▁hovedkontor	-10.74
▁regiment	-10.7401
▁forløper	-10.7402
▁bygnings	-10.7403
▁ddr	-10.7409
▁party	-10.7416
▁1872	-10.7421
▁hindu	-10.7428
▁persisk	-10.7442
artikler	-10.7454
▁kontrollert	-10.7496
fellesskap	-10.7505
tavle	-10.751
bæk	-10.7511
kommando	-10.7525
dømt	-10.7525
rettigheter	-10.7525
design	-10.7531
bedrift	-10.7538
▁møtt	-10.7552
ан	-10.7557
▁rådhus	-10.7581
vassdraget	-10.762
▁fremført	-10.7648
▁sjakk	-10.7657
▁kristian	-10.7668
løk	-10.7675
▁halveringstid	-10.7677
▁kristendommen	-10.7677
▁sarpsborg	-10.7677
▁vellykke	-10.7677
▁litauen	-10.7677
▁hjort	-10.7677
▁permanent	-10.7677
▁kristus	-10.7677
▁sandefjord	-10.7678
▁castle	-10.7678
▁separat	-10.7678
ск	-10.7679
▁elektronisk	-10.7679
▁generalsekretær	-10.768
mekanisme	-10.768
▁forklaring	-10.768
▁jurist	-10.768
▁tendens	-10.7681
▁overraskende	-10.7682
▁tegninger	-10.7686
▁holdning	-10.7686
▁900	-10.7687
▁rederi	-10.7688
▁bønn	-10.769
kollega	-10.7691
▁innspillingen	-10.7692
▁billed	-10.7701
▁variasjon	-10.7719
▁ernst	-10.7733
ifikasjon	-10.7741
▁ungdomsskole	-10.7753
▁tretten	-10.7766
preg	-10.7767
kontrakt	-10.7819
arkitekt	-10.7819
møll	-10.782
tveit	-10.7824
malerier	-10.783
▁innvie	-10.7833
oppgaver	-10.7836
7	-10.7853
forekomst	-10.7871
▁universit	-10.7892
chester	-10.7896
bataljon	-10.7971
▁assistent	-10.7971
▁fasettøyne	-10.7971
▁forøvrig	-10.7971
▁innspilt	-10.7971
▁inspirasjon	-10.7971
▁interessant	-10.7971
▁napoleon	-10.7971
▁sjeldne	-10.7971
▁european	-10.7971
▁progressiv	-10.7971
▁etablere	-10.7971
▁ovenfor	-10.7971
▁kjøtt	-10.7971
▁utsikt	-10.7972
▁sydney	-10.7972
▁embed	-10.7972
▁monroe	-10.7973
▁mineral	-10.7973
▁beskjed	-10.7973
▁kopier	-10.7973
▁oldtiden	-10.7975
planlegging	-10.7975
▁splitte	-10.7975
▁fienden	-10.7975
▁moderat	-10.7977
▁pierre	-10.7978
kobling	-10.798
▁forbruker	-10.7987
▁rykte	-10.799
siktig	-10.7998
▁forståelse	-10.8016
▁høydepunkt	-10.8031
▁variert	-10.8043
utgave	-10.8045
▁næringsliv	-10.8053
▁punk	-10.806
donald	-10.8099
vass	-10.8102
teknologi	-10.8122
divisjon	-10.8123
tilbud	-10.8125
lokale	-10.8126
▁verdenscup	-10.8131
kål	-10.8151
utstyr	-10.8161
▁nettsted	-10.8164
▁tjenestegjor	-10.8165
▁diplomatisk	-10.8186
skikk	-10.8219
▁qi	-10.8228
▁konstitusjon	-10.8274
▁cæsar	-10.8274
▁göteborg	-10.8274
▁kasakhstan	-10.8274
▁kommandant	-10.8274
▁lokomotiv	-10.8274
▁patriark	-10.8274
▁prestegjeld	-10.8274
▁vurdert	-10.8274
▁besittelse	-10.8274
▁identitet	-10.8274
▁operativsystem	-10.8274
▁fruktbar	-10.8274
▁fysikk	-10.8274
▁konstruert	-10.8274
▁unesco	-10.8274
▁opphørte	-10.8274
▁avviklet	-10.8275
▁beleiring	-10.8275
▁stadium	-10.8275
▁syria	-10.8275
▁lingvist	-10.8275
▁uenighet	-10.8275
kjøring	-10.8276
▁erstatning	-10.8276
▁florida	-10.8276
▁betydningsfull	-10.8276
▁smelte	-10.8277
▁regelmessig	-10.8277
▁reglene	-10.8278
▁bønder	-10.828
▁foregikk	-10.828
▁geologisk	-10.8282
▁tjue	-10.8282
▁kreis	-10.8282
▁avslutte	-10.8282
▁spreng	-10.8283
▁bryggeri	-10.8283
▁forenkle	-10.8285
▁barokk	-10.8285
▁koble	-10.8298
▁månen	-10.8299
▁bevare	-10.8303
▁søyle	-10.8311
▁nederst	-10.8315
graph	-10.8349
▁virkelighet	-10.8376
▁slippe	-10.8404
▁forplikte	-10.8408
▁folkeparti	-10.8413
amerikanske	-10.8487
▁overføre	-10.8519
skrekk	-10.8536
▁satse	-10.8561
▁oksygen	-10.8587
▁absolutt	-10.8587
▁asteroide	-10.8587
▁dirigent	-10.8587
▁drivstoff	-10.8587
▁fiendtlig	-10.8587
▁hongkong	-10.8587
▁identifisere	-10.8587
▁observato	-10.8587
▁okkupert	-10.8587
▁skandinavia	-10.8587
▁society	-10.8587
▁church	-10.8587
▁aktuell	-10.8587
▁landskamper	-10.8587
▁lewis	-10.8587
▁diameter	-10.8587
▁klippe	-10.8587
▁hjelm	-10.8587
▁flyktning	-10.8587
▁deutsche	-10.8587
▁kavaleri	-10.8587
▁haakon	-10.8587
▁systematisk	-10.8587
▁pistol	-10.8588
▁ørken	-10.8588
▁utforming	-10.8588
▁gratis	-10.859
▁metoder	-10.859
▁stanley	-10.859
▁sverre	-10.8591
rettighetene	-10.8591
▁elsker	-10.8592
▁sluppe	-10.8592
▁folkemusikk	-10.8593
▁nyhets	-10.8595
▁indikere	-10.8595
▁egil	-10.8597
▁misjons	-10.8599
▁klatre	-10.8603
▁kunngjor	-10.861
byrd	-10.8629
▁jødisk	-10.8632
▁grafisk	-10.8701
▁bakkropp	-10.8735
▁ørn	-10.874
redaktør	-10.8757
likevel	-10.8758
koloni	-10.876
konsert	-10.8762
stift	-10.8766
▁glede	-10.8769
▁innerst	-10.8782
spira	-10.8803
foretak	-10.8824
forbud	-10.8833
▁øygrupp	-10.8839
▁ideologi	-10.8867
▁undersøke	-10.8879
▁atlanterhavet	-10.8909
▁columbia	-10.8909
▁definisjon	-10.8909
▁fengslet	-10.8909
▁jugoslavia	-10.8909
▁matematikk	-10.8909
▁microsoft	-10.8909
▁millimeter	-10.8909
▁palestina	-10.8909
▁prøyssisk	-10.8909
▁research	-10.8909
▁rudolf	-10.8909
▁tsjekkisk	-10.8909
▁uttrykt	-10.8909
▁invitert	-10.8909
▁kvadrat	-10.8909
symptom	-10.8909
▁forbedring	-10.8909
▁taylor	-10.8909
▁alfabet	-10.8909
▁heinrich	-10.8909
▁østfold	-10.8909
▁forkortelse	-10.891
▁komplett	-10.891
▁domstol	-10.891
▁madrid	-10.891
▁prince	-10.891
▁sicilia	-10.891
▁finansiert	-10.891
▁lojal	-10.891
▁betjene	-10.8911
▁osmansk	-10.8912
▁stillehavet	-10.8912
▁støv	-10.8912
▁spyd	-10.8914
terminal	-10.8915
▁skygge	-10.8915
register	-10.8915
▁ytelse	-10.8915
▁vinterleke	-10.892
kommentar	-10.8923
fordeling	-10.8938
▁streik	-10.8945
▁undervist	-10.8951
konsulent	-10.9083
orkester	-10.9091
litteratur	-10.9091
transport	-10.9091
bølge	-10.9094
▁forhandle	-10.9175
▁arbeiderparti	-10.9177
fabrik	-10.9186
▁brygge	-10.9241
▁gerhard	-10.9243
▁heidelberg	-10.9243
▁konsentrert	-10.9243
▁skandinavisk	-10.9243
▁tsjekkia	-10.9243
▁øyeblikk	-10.9243
▁1874	-10.9243
▁bachelor	-10.9243
▁basketball	-10.9243
▁koalisjon	-10.9243
▁krystall	-10.9243
▁molekyl	-10.9243
▁tilstrekkelig	-10.9243
vurdering	-10.9243
▁hamilton	-10.9243
▁dublin	-10.9243
▁rosenborg	-10.9243
▁søndre	-10.9243
▁misjonær	-10.9243
▁bridge	-10.9243
▁germansk	-10.9243
▁josef	-10.9243
▁walisisk	-10.9243
▁underholdning	-10.9243
▁dvd	-10.9244
▁pastor	-10.9244
▁kristiansund	-10.9244
▁ekspert	-10.9245
▁imago	-10.9245
▁møller	-10.9245
▁redaksjon	-10.9246
▁rytter	-10.9246
▁oppfølger	-10.9246
givning	-10.9246
▁underveis	-10.9247
▁fuktig	-10.9247
▁nestleder	-10.9248
▁knust	-10.9249
▁verft	-10.9251
▁øvelsen	-10.9254
▁nedtegne	-10.9259
▁utarbeide	-10.9273
bevegelse	-10.9274
▁nerve	-10.9276
stryk	-10.9277
▁bakerst	-10.9278
▁henvise	-10.932
hydr	-10.9384
psykologi	-10.9418
aktivitet	-10.9436
tradisjon	-10.9436
▁utforske	-10.9447
bombe	-10.951
palasset	-10.9532
▁brødre	-10.9543
balanse	-10.9556
▁elektrisitet	-10.9588
▁forvandling	-10.9588
▁kommandør	-10.9588
▁leipzig	-10.9588
▁observasjon	-10.9588
▁propaganda	-10.9588
▁restaurert	-10.9588
▁ukrainsk	-10.9588
▁varaordfører	-10.9588
reservoar	-10.9588
▁utnevnelse	-10.9588
▁væpne	-10.9588
▁arbeidsgiver	-10.9588
▁innvandre	-10.9588
▁kristelig	-10.9588
▁latvia	-10.9588
▁essay	-10.9588
▁lagkonkurransen	-10.9588
▁colombia	-10.9588
▁fredsavtale	-10.9588
▁trykt	-10.9588
grunnsstasjon	-10.9588
▁innstiftet	-10.9588
▁utspring	-10.9588
▁charlotte	-10.9588
▁nelson	-10.9588
▁statsborger	-10.9588
▁chelsea	-10.9588
▁parallell	-10.9588
▁gabriel	-10.9588
▁fødselsår	-10.9588
▁clark	-10.9588
▁undertegnet	-10.9588
▁innenriks	-10.9588
▁verdensarv	-10.9588
▁kullkraftverk	-10.9589
▁axel	-10.9589
▁røtter	-10.9589
▁kalender	-10.9589
▁bbc	-10.959
▁fylkeskommune	-10.959
▁leilighet	-10.9591
▁foretatt	-10.9591
▁oppdager	-10.9592
▁forandring	-10.9592
▁hardanger	-10.9593
worth	-10.9594
▁napoli	-10.9595
bjørg	-10.9597
▁nazist	-10.9598
basseng	-10.96
▁operere	-10.9604
▁befeste	-10.9606
▁inneba	-10.9642
▁forbli	-10.965
akademi	-10.9738
revolusjonen	-10.9747
president	-10.9791
funn	-10.9793
automat	-10.9796
oppgjør	-10.9814
hockeyspiller	-10.9865
▁individuel	-10.9938
▁bulgaria	-10.9945
▁dekkvingene	-10.9945
▁etiopia	-10.9945
▁kontrovers	-10.9945
▁luxembourg	-10.9945
▁makedonia	-10.9945
▁omdøp	-10.9945
▁republikansk	-10.9945
▁romerriket	-10.9945
▁territorium	-10.9945
▁trondhjem	-10.9945
▁angivelig	-10.9945
▁stjørdal	-10.9945
▁ukraina	-10.9945
▁abraham	-10.9945
▁bystatus	-10.9945
▁ektefelle	-10.9945
▁linux	-10.9945
▁mektige	-10.9945
▁annerledes	-10.9945
▁gordon	-10.9945
▁begravelse	-10.9945
▁atlanta	-10.9945
▁snorre	-10.9945
▁bøndene	-10.9945
▁gjennomgår	-10.9945
▁tilbrakt	-10.9945
▁betydd	-10.9945
▁taiwan	-10.9945
▁naturreservat	-10.9946
▁guinea	-10.9946
▁gjentatt	-10.9946
▁massiv	-10.9946
▁samlealbum	-10.9946
▁social	-10.9948
▁flanke	-10.9948
▁relasjon	-10.9948
▁western	-10.995
▁nordligst	-10.9951
▁fossile	-10.9956
▁pumpe	-10.9961
▁edderkoppen	-10.9967
▁avskjed	-11.0007
bemerket	-11.0015
▁begynt	-11.004
hvelv	-11.0072
▁dobbel	-11.0078
▁fullføre	-11.0079
▁opprykk	-11.0115
▁konsul	-11.0122
finalen	-11.0137
▁representere	-11.0223
institusjoner	-11.0239
▁konsentrasjon	-11.0266
▁doktor	-11.0314
▁anthony	-11.0315
▁association	-11.0315
▁assosiert	-11.0315
▁business	-11.0315
▁legendarisk	-11.0315
▁mangfold	-11.0315
▁musikkvideo	-11.0315
▁parallelt	-11.0315
▁evakuer	-11.0315
▁favoritt	-11.0315
▁forgjenger	-11.0315
▁minoritet	-11.0315
▁våpenhvile	-11.0315
▁wergeland	-11.0315
▁åpningsseremoni	-11.0315
▁utendørs	-11.0315
▁quisling	-11.0315
begivenhet	-11.0315
▁kvalifiserings	-11.0315
▁landkreis	-11.0315
▁airlines	-11.0315
▁diskusjon	-11.0315
▁sebasti	-11.0315
▁faktum	-11.0315
▁haugesund	-11.0315
▁jersey	-11.0315
▁langvarig	-11.0315
▁korrekt	-11.0315
▁konsesjon	-11.0315
▁organisere	-11.0316
▁geistlig	-11.0316
▁andré	-11.0316
▁mount	-11.0316
▁kjennetegne	-11.0316
▁dødsfall	-11.0316
schaft	-11.0316
▁delstats	-11.0316
▁søsken	-11.0316
betjent	-11.0317
▁protein	-11.0317
mouth	-11.0317
▁forhandlinger	-11.0317
▁utmerket	-11.0317
▁tillatelse	-11.0317
▁poesi	-11.0318
▁avgjørelse	-11.0318
apparat	-11.032
▁undersøkt	-11.032
▁verdslig	-11.0322
▁tretti	-11.0333
gyldig	-11.0334
▁smitte	-11.0367
▁bringe	-11.0382
erklæring	-11.04
▁libr	-11.0413
student	-11.055
overføring	-11.0599
▁victor	-11.0685
▁academy	-11.07
▁begrensning	-11.07
▁forkroppen	-11.07
▁guddommelig	-11.07
▁hviterussland	-11.07
▁kroatia	-11.07
▁newcastle	-11.07
▁nøytral	-11.07
▁resolusjon	-11.07
▁carolina	-11.07
▁diagnose	-11.07
▁matematisk	-11.07
▁flaggbærer	-11.07
▁komplisert	-11.07
▁oppdatert	-11.07
▁midtøsten	-11.07
▁muntlig	-11.07
▁diskutere	-11.07
▁regulere	-11.07
▁begravet	-11.07
▁hovedpersonen	-11.07
▁zhang	-11.07
▁central	-11.07
▁contest	-11.07
▁seoul	-11.07
▁kjøpmann	-11.07
protokoll	-11.07
▁nobelprisen	-11.07
▁sibir	-11.0701
▁charlie	-11.0701
▁oppfordre	-11.0701
konsernet	-11.0702
▁parodi	-11.0703
▁sannhet	-11.0703
▁barnehage	-11.0704
▁programvare	-11.0705
▁syklist	-11.0705
▁kamera	-11.0768
▁vassdrag	-11.0777
asiatisk	-11.0778
bestemmelse	-11.0791
nnom	-11.0823
konstruksjon	-11.0947
resultat	-11.0948
kvalitet	-11.0948
▁forstyrre	-11.1075
kommanderende	-11.11
▁argentinsk	-11.11
▁bryllup	-11.11
▁holmenkoll	-11.11
▁kontinuerlig	-11.11
▁ludwig	-11.11
▁plutselig	-11.11
▁sanskrit	-11.11
▁uppsala	-11.11
▁billboard	-11.11
▁gerilja	-11.11
▁hospital	-11.11
▁jacque	-11.11
▁karosseri	-11.11
▁kjøkken	-11.11
▁meteorologi	-11.11
▁satellitt	-11.11
▁volleyball	-11.11
▁forberedt	-11.11
▁jupiter	-11.11
▁division	-11.11
▁public	-11.11
▁rockeband	-11.11
▁organismer	-11.11
▁regulert	-11.11
▁gylden	-11.11
▁ritual	-11.11
▁ulovlig	-11.11
▁benedikt	-11.11
metabol	-11.11
▁mountain	-11.11
▁skjebne	-11.1101
▁vegetasjon	-11.1101
▁fantasi	-11.1102
▁rakett	-11.1102
▁omdanne	-11.1103
▁cruise	-11.1104
▁presentere	-11.1105
▁blomstre	-11.1106
vilkår	-11.1107
▁stedsnavn	-11.1113
▁genetisk	-11.1115
▁håndtere	-11.112
kjenning	-11.1154
▁høvding	-11.1243
økonomi	-11.1293
ingeniør	-11.1364
nevner	-11.1371
skred	-11.1455
▁utøve	-11.1461
nevnte	-11.1476
▁overraske	-11.1511
illustratør	-11.1516
▁brandenburg	-11.1516
▁distribusjon	-11.1516
▁douglas	-11.1516
▁entertainment	-11.1516
▁evolusjon	-11.1516
▁fjorten	-11.1516
▁helikopter	-11.1516
▁identifisert	-11.1516
▁indonesia	-11.1516
▁innsbruck	-11.1516
▁joachim	-11.1516
▁mccartney	-11.1516
▁slovakia	-11.1516
▁særskilt	-11.1516
▁tilnærming	-11.1516
observatør	-11.1516
▁arrangør	-11.1516
▁overvåke	-11.1516
▁parlamentarisk	-11.1516
▁selvbiografi	-11.1516
▁utbredelse	-11.1516
▁oppvarming	-11.1516
▁foreløpig	-11.1516
▁apollo	-11.1517
▁margaret	-11.1517
▁jamaica	-11.1517
▁bjørk	-11.1517
▁overlevde	-11.1517
▁grekerne	-11.1517
▁arsenal	-11.1517
▁østersjøen	-11.1517
▁fremtreden	-11.1517
▁umulig	-11.1517
▁lennon	-11.1517
▁command	-11.1517
▁macao	-11.1517
▁christensen	-11.1518
▁forsvinne	-11.1518
▁class	-11.1518
▁spesifikk	-11.1519
▁styring	-11.1519
▁fiender	-11.152
▁bløt	-11.1521
▁fasade	-11.1522
▁spurte	-11.1523
▁befal	-11.1526
▁konkurs	-11.1549
horax	-11.1575
komite	-11.1609
kommunistpartiet	-11.163
løype	-11.1665
sykling	-11.1757
hovedstad	-11.1765
flagg	-11.1801
svømming	-11.1951
▁ammunisjon	-11.1951
▁apostolisk	-11.1951
▁britannia	-11.1951
▁council	-11.1951
▁engasjement	-11.1951
▁forfremmet	-11.1951
▁konklavet	-11.1951
▁konstantinopel	-11.1951
▁korrupsjon	-11.1951
▁minnesota	-11.1951
▁palestinsk	-11.1951
▁perspektiv	-11.1951
▁pyramid	-11.1951
▁synonym	-11.1951
▁vancouver	-11.1951
▁venezuela	-11.1951
▁1851	-11.1951
▁benjamin	-11.1951
▁ekvator	-11.1951
▁geometri	-11.1951
▁invadert	-11.1951
▁mandsju	-11.1951
▁vladimir	-11.1951
▁æthel	-11.1951
eksplosjon	-11.1951
▁alminnelig	-11.1951
▁krønike	-11.1951
▁undergrunnsbane	-11.1951
▁reaktor	-11.1951
▁katalog	-11.1951
▁utstrakt	-11.1951
inspektør	-11.1951
▁prestisje	-11.1951
▁louisiana	-11.1951
▁overvintre	-11.1951
▁halvbror	-11.1951
▁kypros	-11.1951
▁åpenbart	-11.1951
▁henrettelse	-11.1952
▁valentin	-11.1952
▁klient	-11.1952
▁utfordring	-11.1952
▁legion	-11.1952
▁narvik	-11.1952
▁stadiet	-11.1952
kommentator	-11.1952
▁manglet	-11.1953
▁automatisk	-11.1953
▁armenia	-11.1953
▁tokyo	-11.1953
▁skikkelse	-11.1953
▁facto	-11.1953
▁stefan	-11.1953
▁utfordre	-11.1954
▁bengal	-11.1958
▁forfølgelse	-11.1959
▁mystisk	-11.1962
ière	-11.1967
▁mannsnavn	-11.1968
vík	-11.1968
▁rifle	-11.1977
▁befan	-11.1978
▁harmoni	-11.1986
ngrid	-11.2034
gruppa	-11.2138
bourg	-11.2172
forhandling	-11.218
størrelse	-11.2254
studier	-11.2254
sammenheng	-11.2255
▁formidle	-11.2262
▁symboliser	-11.2303
▁økonom	-11.235
▁katastrofe	-11.2406
▁slalåm	-11.2406
emerkelsesverdig	-11.2406
kameratene	-11.2406
sjælland	-11.2406
▁aristokrat	-11.2406
▁avslørt	-11.2406
▁cambridge	-11.2406
▁genève	-11.2406
▁kvalifiseringen	-11.2406
▁massachusetts	-11.2406
▁meksikansk	-11.2406
▁metamorfose	-11.2406
▁orchestra	-11.2406
▁pronotum	-11.2406
▁ptolemaios	-11.2406
▁tórshavn	-11.2406
▁uruguay	-11.2406
▁vålerenga	-11.2406
▁claude	-11.2406
▁habitat	-11.2406
▁hjulpet	-11.2406
▁railway	-11.2406
▁sichuan	-11.2406
▁søknad	-11.2406
▁claudi	-11.2406
▁teoretisk	-11.2406
▁utgravninger	-11.2406
▁svekket	-11.2406
▁vannpolo	-11.2406
0	-11.824
