<unk>	0
<s>	0
</s>	0
.	-3.03891
s	-3.22076
e	-3.56961
▁	-3.62905
t	-3.95466
er	-4.11504
en	-4.12588
▁og	-4.35404
▁i	-4.46719
▁er	-4.67318
n	-4.73264
r	-4.73834
a	-4.7535
et	-5.00534
▁av	-5.20341
i	-5.25004
o	-5.32224
k	-5.39061
▁for	-5.39868
d	-5.44651
y	-5.54057
▁en	-5.57842
▁var	-5.63898
▁til	-5.68651
▁på	-5.7046
▁som	-5.71769
▁med	-5.75553
▁de	-5.77815
ne	-5.80794
g	-5.81295
m	-5.82722
ene	-5.84373
te	-5.85809
▁har	-5.9649
l	-6.05233
▁den	-6.07599
h	-6.08186
p	-6.08652
▁fra	-6.08934
in	-6.12033
f	-6.12345
u	-6.13126
b	-6.16503
c	-6.17064
de	-6.17779
us	-6.23895
an	-6.24725
re	-6.26639
es	-6.28055
▁s	-6.29786
ing	-6.31497
v	-6.32001
▁ble	-6.32368
▁a	-6.34495
le	-6.34974
al	-6.35179
▁be	-6.38666
▁et	-6.39633
▁det	-6.41567
ar	-6.48233
na	-6.48531
is	-6.51397
▁p	-6.52339
z	-6.5298
▁han	-6.53774
on	-6.61446
▁ved	-6.6157
▁the	-6.6264
▁m	-6.62999
▁ut	-6.64253
ter	-6.65231
▁også	-6.66742
▁eller	-6.66921
ia	-6.6966
▁to	-6.71647
w	-6.73034
ta	-6.73215
x	-6.73432
sk	-6.74433
▁kan	-6.75582
▁å	-6.7589
or	-6.7631
▁under	-6.76714
um	-6.78267
j	-6.78731
▁d	-6.78994
ri	-6.793
ch	-6.79501
el	-6.81852
4	-6.8515
▁f	-6.85222
5	-6.87202
3	-6.87729
▁opp	-6.89544
▁b	-6.89796
▁over	-6.90015
di	-6.9005
2	-6.90537
▁k	-6.91672
ck	-6.9273
ga	-6.93079
ma	-6.93824
8	-6.94125
▁om	-6.94837
ra	-6.95343
▁al	-6.9578
▁g	-6.95969
▁c	-6.96016
6	-6.97979
▁in	-6.98031
ke	-6.98856
▁h	-6.99358
ens	-6.99937
▁18	-7.00384
7	-7.00959
ng	-7.01032
ur	-7.01619
▁se	-7.02243
la	-7.02571
land	-7.02986
9	-7.04589
▁u	-7.06672
da	-7.06897
▁inn	-7.0712
▁andre	-7.0729
▁la	-7.07432
li	-7.08327
▁etter	-7.09659
il	-7.09951
▁da	-7.10182
ka	-7.10962
▁l	-7.11007
ler	-7.11025
é	-7.1324
▁an	-7.13395
ende	-7.138
der	-7.14969
isk	-7.151
nes	-7.16338
ver	-7.16804
1	-7.16815
ger	-7.17125
ge	-7.20993
to	-7.21335
▁v	-7.21372
▁n	-7.21792
ed	-7.22428
▁ligger	-7.22453
▁ha	-7.22805
▁and	-7.22999
▁of	-7.23965
ja	-7.24173
be	-7.25154
▁ro	-7.25487
▁t	-7.25868
at	-7.2745
den	-7.27589
▁na	-7.28903
ff	-7.29267
▁pa	-7.30004
▁le	-7.30096
▁co	-7.30485
øy	-7.30635
stad	-7.30731
ve	-7.31286
▁no	-7.3132
▁j	-7.31844
▁di	-7.32021
▁tre	-7.32409
▁he	-7.32992
ul	-7.33191
va	-7.33205
ig	-7.33973
▁re	-7.34436
lig	-7.34723
ad	-7.34792
as	-7.35211
mi	-7.35369
ut	-7.35525
ro	-7.37141
▁li	-7.37366
th	-7.37453
man	-7.37613
▁w	-7.37922
▁hoved	-7.37925
▁her	-7.38676
▁sa	-7.39043
os	-7.39169
▁r	-7.39243
ry	-7.3951
ko	-7.40566
ning	-7.40587
it	-7.40694
▁o	-7.41937
▁at	-7.42134
son	-7.42314
ce	-7.4355
ol	-7.43808
me	-7.44098
▁man	-7.44159
bo	-7.44195
▁bo	-7.44401
mo	-7.45125
▁nord	-7.45465
for	-7.45768
ti	-7.4596
▁blant	-7.46064
▁ca	-7.46372
lo	-7.46641
▁ma	-7.46731
nde	-7.46759
á	-7.46782
gen	-7.4679
ner	-7.46881
iske	-7.47569
ha	-7.47714
ker	-7.4784
▁mot	-7.4833
ic	-7.48863
id	-7.49126
▁ni	-7.49185
co	-7.49223
ell	-7.49278
▁do	-7.49562
▁hans	-7.49904
berg	-7.49988
▁lo	-7.50825
▁ta	-7.51442
ton	-7.51763
▁ra	-7.5192
kt	-7.56026
mann	-7.56128
am	-7.56174
▁vi	-7.56955
▁mar	-7.57406
▁st	-7.57413
dal	-7.57983
▁sp	-7.58436
▁ho	-7.58506
▁ka	-7.58567
▁el	-7.59054
▁du	-7.59127
ba	-7.59711
ske	-7.60345
ina	-7.60579
▁mo	-7.62684
▁sin	-7.62688
▁per	-7.62822
▁fa	-7.63102
vi	-7.63764
▁kalles	-7.63881
▁men	-7.63883
ly	-7.6397
vis	-7.63972
je	-7.65075
▁mellom	-7.65151
pe	-7.65366
▁stor	-7.65563
▁der	-7.65631
æ	-7.65709
▁bar	-7.65767
▁po	-7.65829
op	-7.65897
▁si	-7.66538
0	-7.66976
▁as	-7.67029
▁gjennom	-7.6736
ä	-7.67828
asjon	-7.6801
▁kinesisk	-7.68087
▁pi	-7.68232
od	-7.68474
ling	-7.68798
bu	-7.69152
ir	-7.69413
▁so	-7.69423
ov	-7.69531
no	-7.69795
vik	-7.69892
do	-7.70094
▁z	-7.70242
lige	-7.70333
un	-7.70494
ø	-7.70698
by	-7.70704
go	-7.71015
▁kon	-7.71416
▁me	-7.71418
kk	-7.72119
▁am	-7.7214
í	-7.72257
▁1	-7.72621
erte	-7.72654
▁tor	-7.72712
▁hadde	-7.73189
om	-7.73524
ci	-7.73633
bi	-7.73776
▁ko	-7.7383
▁car	-7.74014
ste	-7.74024
▁pro	-7.74095
ør	-7.74129
▁ny	-7.74575
▁or	-7.74678
▁ri	-7.74781
si	-7.75291
▁dette	-7.75384
ni	-7.75391
mer	-7.76172
▁by	-7.76705
▁su	-7.76972
io	-7.77186
▁seg	-7.78054
ven	-7.78084
▁lu	-7.78325
pa	-7.78649
ho	-7.78753
ll	-7.78904
▁ba	-7.78904
▁2	-7.79075
var	-7.7985
▁hun	-7.79854
ment	-7.80648
ant	-7.80693
▁jo	-7.81078
▁sch	-7.81405
▁16	-7.81539
▁va	-7.82577
ca	-7.83518
tter	-7.83672
pi	-7.83733
▁ti	-7.83837
å	-7.84437
mp	-7.85536
ist	-7.86155
▁te	-7.86242
▁bu	-7.8632
sjon	-7.86535
ó	-7.8679
im	-7.87247
po	-7.87415
▁flere	-7.87655
tra	-7.88275
▁mor	-7.88421
▁hu	-7.88678
itt	-7.88907
hu	-7.88969
iv	-7.89031
ster	-7.89265
▁fri	-7.89655
▁denne	-7.89892
sh	-7.90048
ie	-7.90121
▁con	-7.90207
▁ga	-7.90209
del	-7.90505
▁ikke	-7.90707
▁disse	-7.90741
▁del	-7.91077
au	-7.91249
▁min	-7.91454
▁gu	-7.91552
▁ar	-7.91746
tor	-7.91763
sta	-7.91882
▁ja	-7.92562
ik	-7.92662
▁ne	-7.92737
▁sol	-7.93624
gi	-7.93751
lin	-7.94304
ard	-7.94406
ring	-7.95567
tal	-7.95699
▁y	-7.96024
per	-7.96151
▁bi	-7.96154
▁sammen	-7.96246
▁født	-7.96258
▁fla	-7.96465
av	-7.96505
▁fikk	-7.96639
ü	-7.96845
▁første	-7.97332
▁x	-7.98304
sel	-7.99015
het	-7.99401
▁vest	-8.00136
▁15	-8.00564
▁ru	-8.00709
▁go	-8.01143
▁sør	-8.01267
gg	-8.01408
ong	-8.01435
ö	-8.01719
ium	-8.02211
else	-8.02375
▁alle	-8.03081
▁gi	-8.03262
ki	-8.034
erne	-8.03439
ian	-8.03513
skap	-8.03796
▁pre	-8.03949
ow	-8.04144
▁land	-8.04605
▁finnes	-8.05036
rett	-8.05225
pp	-8.05742
▁ju	-8.0589
▁tidligere	-8.05985
▁far	-8.06324
▁ch	-8.06443
ion	-8.06532
▁lag	-8.06751
▁sam	-8.06789
ær	-8.06874
▁san	-8.07012
▁bra	-8.07101
▁tilhører	-8.0717
▁pe	-8.07668
ā	-8.08167
hold	-8.08205
▁blir	-8.08597
▁mi	-8.08666
▁all	-8.08844
ok	-8.08982
▁øst	-8.096
kke	-8.09687
▁frem	-8.09706
▁19	-8.09713
ica	-8.09776
▁samt	-8.10052
ud	-8.10197
and	-8.10349
▁kommune	-8.10715
▁ge	-8.11166
ation	-8.11171
ung	-8.11303
▁mer	-8.11331
les	-8.11512
▁kalt	-8.11536
ph	-8.11537
vin	-8.11555
▁byen	-8.11683
men	-8.12117
gu	-8.1264
elle	-8.12646
▁ad	-8.12751
▁tra	-8.13047
dag	-8.13164
▁tri	-8.13293
▁omfatter	-8.13824
hi	-8.13922
ru	-8.13942
yl	-8.13988
▁17	-8.14178
ine	-8.145
▁navn	-8.14619
ou	-8.14749
▁kom	-8.15134
wa	-8.15814
▁ver	-8.15848
sted	-8.1618
▁3	-8.16255
ord	-8.16396
jo	-8.16586
о	-8.17439
ac	-8.17648
lag	-8.1769
ot	-8.17793
ber	-8.17928
stein	-8.18284
▁ag	-8.18866
hus	-8.19125
▁består	-8.19278
▁nå	-8.19555
▁hel	-8.19561
е	-8.19686
mb	-8.20554
em	-8.20687
▁ofte	-8.20722
tar	-8.20827
▁vann	-8.21043
▁ei	-8.21579
▁ned	-8.21876
ang	-8.21914
▁annet	-8.21988
over	-8.22078
bb	-8.22106
ag	-8.22783
▁navnet	-8.2279
len	-8.23397
▁on	-8.23483
mme	-8.23969
▁ab	-8.24131
▁nor	-8.24702
ering	-8.24708
▁bak	-8.24789
▁russisk	-8.24801
▁my	-8.24928
▁så	-8.2522
tu	-8.25263
▁5	-8.25363
ley	-8.25697
nd	-8.25751
za	-8.25976
▁par	-8.2613
▁tu	-8.26148
▁fo	-8.2642
▁br	-8.26508
ran	-8.26537
lu	-8.26564
år	-8.26706
▁cha	-8.26864
▁lang	-8.26937
ku	-8.26939
ken	-8.27011
▁heter	-8.27015
▁jan	-8.27258
и	-8.27444
▁tro	-8.27498
▁we	-8.27503
▁fly	-8.27512
▁wi	-8.27515
fa	-8.27554
tion	-8.27723
dre	-8.28012
▁fire	-8.28113
he	-8.28131
▁dag	-8.2844
▁fi	-8.28564
▁bro	-8.29104
▁følgende	-8.29173
sson	-8.29257
ren	-8.29407
ting	-8.2941
▁vil	-8.30323
▁val	-8.30522
▁sand	-8.30579
kel	-8.30707
▁ste	-8.30813
▁th	-8.30932
tan	-8.31149
▁sta	-8.31474
ier	-8.31571
▁kar	-8.31675
▁mange	-8.31884
▁col	-8.31934
heim	-8.31991
inyin	-8.31996
dalen	-8.3203
und	-8.32119
▁john	-8.32308
bel	-8.3231
verk	-8.32367
▁sal	-8.32567
▁norsk	-8.32661
▁mal	-8.32886
bar	-8.33017
tre	-8.33193
opp	-8.33215
ya	-8.33764
idae	-8.33765
mar	-8.34035
00	-8.34429
du	-8.34522
▁betyr	-8.34697
▁berg	-8.34726
kon	-8.3506
▁4	-8.35281
ju	-8.35286
sten	-8.35373
sti	-8.35429
▁tid	-8.35513
▁ki	-8.35638
▁wa	-8.36141
▁mens	-8.36932
ron	-8.36978
▁kirke	-8.37251
ak	-8.38322
▁år	-8.38476
▁før	-8.38649
▁stein	-8.38914
ab	-8.39025
▁ty	-8.39137
▁lever	-8.39268
▁store	-8.39361
▁com	-8.3938
ius	-8.3941
ty	-8.39459
sch	-8.39491
▁eks	-8.39614
▁ben	-8.39664
mor	-8.39768
form	-8.39966
▁høy	-8.40046
familien	-8.40148
▁mu	-8.40259
kor	-8.40483
à	-8.40671
▁mel	-8.4089
lands	-8.40984
zi	-8.41229
nings	-8.41337
▁8	-8.41369
▁største	-8.41601
▁moh	-8.41602
▁går	-8.41608
▁vel	-8.418
▁operatør	-8.41866
▁ku	-8.42026
▁mål	-8.4225
▁fe	-8.42253
▁hus	-8.42325
▁ur	-8.42469
▁hos	-8.4253
▁och	-8.42614
▁være	-8.4273
ede	-8.42872
ikk	-8.42902
с	-8.42969
▁ve	-8.43055
▁ol	-8.43126
▁2002	-8.43163
▁ski	-8.43516
▁ke	-8.43557
fi	-8.43574
▁små	-8.43672
▁skal	-8.43997
▁fin	-8.44255
▁liste	-8.44364
gang	-8.44384
▁pu	-8.44396
ans	-8.44414
mmer	-8.44498
if	-8.44567
ft	-8.44662
bro	-8.44726
▁fem	-8.4506
ug	-8.45077
hr	-8.45186
chi	-8.45351
▁bru	-8.45553
▁mat	-8.45888
▁sig	-8.45904
ji	-8.45962
▁død	-8.46327
min	-8.46501
▁rød	-8.4687
▁parti	-8.46975
mon	-8.4723
ola	-8.47344
▁syn	-8.47351
▁ex	-8.4762
q	-8.47918
tin	-8.48162
ú	-8.48275
kker	-8.48284
▁kr	-8.48409
til	-8.48762
kom	-8.48792
ham	-8.49109
ggbærer	-8.49305
pningsseremonien	-8.4945
▁kor	-8.49494
▁fu	-8.49565
▁fl	-8.49605
ny	-8.49606
vo	-8.4976
▁can	-8.5
▁chi	-8.50362
т	-8.50418
let	-8.50562
▁kunst	-8.50666
uk	-8.50725
tisk	-8.50777
▁sitt	-8.50854
res	-8.50955
stre	-8.51113
kar	-8.51168
ld	-8.5121
ator	-8.51253
we	-8.51509
▁skole	-8.5152
▁pan	-8.51559
▁leder	-8.51852
▁nu	-8.51992
▁nær	-8.52358
art	-8.52362
vet	-8.52419
ze	-8.52534
▁hal	-8.52616
▁film	-8.52934
är	-8.53041
ill	-8.53091
▁folketelling	-8.53228
▁mon	-8.53447
▁dr	-8.53676
tz	-8.53743
▁gra	-8.53755
ct	-8.53901
▁noen	-8.54014
▁senere	-8.54269
▁mest	-8.54436
▁innen	-8.54521
fjorden	-8.54641
▁brun	-8.54654
▁engelsk	-8.54684
▁ed	-8.5502
▁mag	-8.55137
ningen	-8.55165
burg	-8.55247
che	-8.55398
met	-8.55466
satt	-8.55819
▁af	-8.5584
▁new	-8.55886
gl	-8.56236
bil	-8.56651
ris	-8.56738
án	-8.56957
▁op	-8.57089
veien	-8.57151
borg	-8.57165
▁sc	-8.5757
yn	-8.57716
▁7	-8.57848
ach	-8.5785
tak	-8.57885
▁ak	-8.57981
▁bor	-8.583
▁fag	-8.58358
sp	-8.58413
▁van	-8.58428
▁sh	-8.58572
▁bok	-8.58646
▁vant	-8.58673
▁laget	-8.5871
▁kommunen	-8.58763
▁hol	-8.5883
ale	-8.58896
itet	-8.5934
siden	-8.59363
▁os	-8.59471
ek	-8.59536
est	-8.59708
vel	-8.59804
stand	-8.59868
fe	-8.59948
▁inneholder	-8.60012
▁kn	-8.60058
gar	-8.60238
а	-8.60248
▁div	-8.60387
ingen	-8.60451
ding	-8.605
▁ham	-8.60541
▁musikk	-8.60694
▁ska	-8.60779
▁må	-8.60919
ble	-8.61023
▁sønn	-8.61099
ice	-8.61178
▁art	-8.6118
ana	-8.61208
▁vo	-8.61417
ino	-8.61581
dd	-8.61601
▁9	-8.61788
ight	-8.61796
▁ob	-8.61936
▁gar	-8.61976
ari	-8.62061
log	-8.6213
ska	-8.6231
lan	-8.62476
▁folke	-8.62524
▁paul	-8.62794
▁gul	-8.62794
▁sm	-8.62848
bre	-8.62923
bruk	-8.62955
▁je	-8.63078
mat	-8.63285
senter	-8.63664
▁familien	-8.63773
▁selv	-8.63811
folkerepublikken	-8.63886
▁gjen	-8.63902
▁un	-8.64145
tte	-8.642
▁inkluderer	-8.64421
▁kjent	-8.64678
▁hvor	-8.6471
▁øy	-8.64795
▁god	-8.64828
▁gir	-8.64903
▁em	-8.65011
▁pr	-8.65011
inn	-8.65034
rik	-8.65047
▁10	-8.65052
▁langs	-8.65225
dyr	-8.65312
▁grunn	-8.65472
ð	-8.65953
ita	-8.66027
▁sk	-8.66033
dy	-8.66089
tten	-8.66223
kje	-8.66317
▁shi	-8.66409
vann	-8.67095
▁za	-8.67114
som	-8.67174
▁kjente	-8.67179
elsen	-8.67277
▁kommer	-8.6743
gren	-8.67446
fisk	-8.67498
ologi	-8.67578
▁red	-8.67593
par	-8.67598
kan	-8.67618
▁mai	-8.67733
▁12	-8.67829
š	-8.67983
▁spiller	-8.68028
gel	-8.68164
▁rom	-8.68255
▁sjø	-8.68319
▁skrev	-8.68404
▁fram	-8.68532
▁ac	-8.68598
far	-8.68908
▁au	-8.6898
▁und	-8.69185
▁peter	-8.69291
▁sj	-8.69366
▁ry	-8.69555
øya	-8.69619
▁vin	-8.69625
▁bil	-8.69788
▁juli	-8.69796
▁bas	-8.7037
▁von	-8.70422
▁fjell	-8.70555
▁sel	-8.7059
▁carl	-8.7102
tur	-8.71112
▁20	-8.71253
vær	-8.71305
ī	-8.71349
dan	-8.71426
ssen	-8.7146
▁hi	-8.71471
▁står	-8.71491
val	-8.71787
▁bjørn	-8.71789
ive	-8.71853
xi	-8.71895
mu	-8.71973
▁skog	-8.7224
bok	-8.72268
▁sv	-8.72311
slag	-8.72407
▁representert	-8.72415
ini	-8.72542
▁bal	-8.72557
isme	-8.72717
han	-8.72732
▁ren	-8.7287
▁ten	-8.72907
cu	-8.73031
inger	-8.73041
klubb	-8.73046
▁ly	-8.73403
α	-8.73429
▁gen	-8.73797
ah	-8.74022
▁rundt	-8.74027
kin	-8.74032
▁vei	-8.74096
mal	-8.74306
▁mus	-8.74341
▁kultur	-8.74386
ula	-8.74417
jø	-8.74439
д	-8.74695
▁verdens	-8.74737
▁hav	-8.74764
tel	-8.75186
▁tur	-8.75282
▁para	-8.7531
▁jord	-8.75476
▁grav	-8.75565
gård	-8.75576
▁dan	-8.75641
▁thor	-8.75669
▁mak	-8.75708
▁ord	-8.75834
▁innenfor	-8.75892
▁tysk	-8.76131
tro	-8.76232
ind	-8.763
▁vol	-8.76337
▁kv	-8.76416
▁bre	-8.76481
mål	-8.76527
▁fast	-8.76843
que	-8.76867
▁roman	-8.76884
my	-8.76989
sund	-8.77075
fer	-8.77076
▁kong	-8.77293
▁mil	-8.77306
mark	-8.77421
fly	-8.77443
ani	-8.77665
▁km	-8.77738
▁verk	-8.7778
▁kinas	-8.77816
▁gud	-8.77824
▁tar	-8.77838
è	-8.77889
▁norske	-8.77961
ap	-8.78354
fjord	-8.78368
▁martin	-8.78384
ther	-8.78437
lik	-8.78543
▁6	-8.78572
▁fiske	-8.78732
▁are	-8.78767
tsj	-8.7891
▁mc	-8.78963
ninger	-8.7918
▁gull	-8.79197
ath	-8.79242
▁dom	-8.79301
bl	-8.79312
stu	-8.79475
▁ji	-8.79493
▁mark	-8.79497
▁like	-8.79512
ör	-8.79514
sto	-8.79583
▁norge	-8.79591
▁band	-8.79594
▁plan	-8.79696
▁tom	-8.79705
▁cas	-8.79975
råd	-8.80039
rø	-8.80089
▁jeg	-8.80241
▁motor	-8.80296
net	-8.80301
▁kur	-8.8035
tikk	-8.80388
øn	-8.80545
ich	-8.80628
lek	-8.80636
ild	-8.8071
bra	-8.81011
▁hver	-8.81055
▁christian	-8.81116
▁kla	-8.81219
lia	-8.81233
▁landet	-8.81279
▁sø	-8.81448
▁die	-8.81511
jer	-8.81565
▁inter	-8.81691
▁vis	-8.81907
ara	-8.82039
eres	-8.82202
▁eu	-8.82457
gre	-8.82517
▁lind	-8.82557
▁post	-8.82637
▁innbyggertall	-8.82681
gh	-8.8277
▁kina	-8.82844
▁hovedstad	-8.82895
▁13	-8.82933
rig	-8.82964
alis	-8.8316
up	-8.8323
ppe	-8.83275
forening	-8.833
rom	-8.83319
▁lav	-8.83419
og	-8.83446
fo	-8.83467
▁alt	-8.83584
ps	-8.83688
skog	-8.83867
▁hy	-8.84011
ata	-8.8403
▁lå	-8.84049
gan	-8.8408
р	-8.84094
rid	-8.84167
▁rø	-8.84228
ski	-8.84421
▁ban	-8.84633
▁nasjonal	-8.84707
▁oslo	-8.84749
▁bur	-8.84963
▁you	-8.85047
kle	-8.85119
løp	-8.8519
▁robert	-8.85379
▁stat	-8.85389
shi	-8.85429
age	-8.8546
▁ul	-8.85568
▁anti	-8.85723
м	-8.85746
▁erik	-8.85773
kri	-8.85802
sky	-8.85813
▁nett	-8.85844
▁bø	-8.85845
▁brukes	-8.85868
hl	-8.85924
don	-8.8596
▁tv	-8.86
▁gift	-8.86003
10	-8.86234
▁ber	-8.86234
anger	-8.86478
у	-8.86635
▁dra	-8.86751
▁not	-8.86767
▁sub	-8.86882
▁för	-8.86953
stasjon	-8.87137
▁området	-8.87166
ū	-8.87309
▁august	-8.8731
tiske	-8.87372
har	-8.87405
▁bruker	-8.87454
rin	-8.87532
vei	-8.87541
ij	-8.87595
▁president	-8.8778
bø	-8.87956
▁spe	-8.88165
mas	-8.88187
anlegg	-8.88197
gge	-8.88202
▁pra	-8.88228
▁sha	-8.88275
▁mad	-8.88517
▁kl	-8.88648
ev	-8.88661
tid	-8.88693
hy	-8.88702
▁sine	-8.88789
nik	-8.88829
ford	-8.88932
▁mars	-8.88934
▁kra	-8.89025
▁bl	-8.89307
▁blå	-8.89409
▁gruppen	-8.89566
rang	-8.89635
▁http	-8.89708
pu	-8.89712
▁cor	-8.89785
▁karl	-8.89924
pan	-8.89993
▁21	-8.90107
▁mac	-8.90108
▁siden	-8.90118
su	-8.90132
ister	-8.90311
øl	-8.90421
▁vår	-8.90554
ella	-8.90596
▁xi	-8.90676
rud	-8.90897
▁språk	-8.91025
fall	-8.9117
gn	-8.91205
▁lik	-8.91289
▁vise	-8.91293
▁q	-8.91299
menn	-8.91497
▁25	-8.91516
▁bri	-8.91528
▁lys	-8.9159
ano	-8.91597
▁trans	-8.91736
▁selskapet	-8.91739
▁både	-8.91809
ida	-8.91832
▁distrikt	-8.91887
▁ap	-8.919
▁side	-8.91927
▁gran	-8.91944
▁ci	-8.92061
▁sen	-8.92112
ec	-8.92179
områder	-8.92389
▁hen	-8.9246
lev	-8.92501
kh	-8.92505
pen	-8.92745
▁dy	-8.92755
▁tal	-8.92926
spill	-8.92937
byen	-8.9294
▁seks	-8.92941
▁farge	-8.92992
▁class	-8.93022
▁radio	-8.93228
pre	-8.93229
л	-8.93246
sj	-8.93249
ova	-8.93444
▁stu	-8.93477
▁videre	-8.9363
fra	-8.93909
▁2006	-8.93957
▁mos	-8.94068
▁halv	-8.94325
mel	-8.94347
tall	-8.94471
▁tok	-8.94563
ix	-8.94729
▁fil	-8.94914
▁mod	-8.94986
▁natur	-8.95311
▁lyd	-8.95329
vil	-8.95331
aks	-8.9539
ay	-8.95391
▁opprinnelig	-8.95412
arbeid	-8.95734
▁via	-8.95734
▁hei	-8.95781
område	-8.95792
cy	-8.95911
▁slik	-8.95922
huset	-8.96194
▁norges	-8.9647
▁stra	-8.96473
▁distriktet	-8.96546
kken	-8.96557
▁tradisjonell	-8.96658
dra	-8.96818
jen	-8.96819
▁politi	-8.96854
iz	-8.96856
ika	-8.97055
▁hele	-8.97121
laget	-8.97158
▁ser	-8.97253
dals	-8.97259
isering	-8.97284
▁tekst	-8.97507
40	-8.97564
▁het	-8.97572
▁rett	-8.97629
lys	-8.97723
▁kamp	-8.97745
▁dem	-8.97919
▁sommer	-8.98204
pro	-8.98262
▁kun	-8.98382
navn	-8.98414
▁roll	-8.98452
▁gre	-8.98475
ære	-8.98482
▁form	-8.98499
▁cu	-8.98634
▁hell	-8.98664
organisasjon	-8.98694
▁administrasjons	-8.98707
▁yu	-8.98778
lla	-8.98854
▁hennes	-8.98863
▁lokal	-8.98908
▁liv	-8.98939
lene	-8.98972
▁ind	-8.99
▁30	-8.99037
vern	-8.99137
ving	-8.99174
▁christ	-8.99377
▁gresk	-8.99525
med	-8.99554
▁plat	-8.99637
nor	-8.99658
▁will	-8.99704
iti	-8.99718
▁david	-8.99968
lle	-9.00004
▁tr	-9.00052
itz	-9.00097
▁att	-9.00311
ub	-9.00334
▁sentral	-9.00452
▁tak	-9.00459
ip	-9.00645
▁midt	-9.00652
pper	-9.00734
▁jon	-9.00791
mm	-9.00815
sjoner	-9.00818
▁14	-9.00818
tic	-9.00848
pris	-9.009
▁ph	-9.00966
mester	-9.0097
▁beste	-9.0103
ν	-9.01074
▁kort	-9.01089
▁følger	-9.01116
▁ein	-9.0113
▁fred	-9.01149
ite	-9.01161
▁fransk	-9.01277
▁begge	-9.01338
▁mis	-9.01363
enes	-9.01405
▁når	-9.01456
▁arm	-9.01548
ō	-9.01757
▁sil	-9.01763
▁eier	-9.0179
oli	-9.01799
▁11	-9.01852
elli	-9.0196
▁johan	-9.01991
red	-9.02172
▁ya	-9.02189
▁small	-9.02273
ala	-9.02389
▁gjerne	-9.02429
skip	-9.02765
dig	-9.0295
ì	-9.03035
▁viktigste	-9.03053
ød	-9.03259
fin	-9.0339
▁west	-9.03396
▁eng	-9.03436
zo	-9.0359
lie	-9.03616
dde	-9.03656
к	-9.03711
elva	-9.03832
samling	-9.03834
▁0	-9.03938
▁stats	-9.04002
rum	-9.04057
spiller	-9.04092
▁kol	-9.04176
▁egen	-9.04222
▁georg	-9.04243
wi	-9.04265
▁24	-9.04296
▁luft	-9.04327
navnet	-9.04357
▁end	-9.0441
nu	-9.04423
ført	-9.04471
gj	-9.04573
▁william	-9.04633
sak	-9.04641
▁ifølge	-9.04676
ige	-9.0468
get	-9.04682
▁vært	-9.04801
ban	-9.04891
tri	-9.05027
skole	-9.05111
bus	-9.05176
banen	-9.0518
bor	-9.05265
leder	-9.05266
▁spilte	-9.05333
kant	-9.05334
lagt	-9.05464
bær	-9.05579
▁riks	-9.05646
▁pen	-9.0567
søk	-9.05737
▁www	-9.05847
▁qu	-9.05856
▁arne	-9.06026
▁sto	-9.06087
rop	-9.06097
▁valg	-9.06117
▁ulike	-9.06261
▁latin	-9.06564
▁organ	-9.06618
▁dal	-9.06642
dom	-9.06789
▁gy	-9.06831
området	-9.06974
bygg	-9.06982
▁spill	-9.06998
ider	-9.07132
ges	-9.07212
▁gamle	-9.07236
▁barn	-9.07349
▁ole	-9.07431
▁22	-9.07462
▁samme	-9.07469
▁lø	-9.07574
▁arabisk	-9.07575
stan	-9.0769
▁cla	-9.07692
senteret	-9.07812
▁gri	-9.07927
▁ring	-9.07945
▁kh	-9.07952
ura	-9.0799
▁jag	-9.08053
ringer	-9.08109
ity	-9.08131
sjef	-9.08218
tatt	-9.08268
oc	-9.08312
▁reference	-9.08321
▁kron	-9.08396
stilling	-9.08528
▁bli	-9.08629
▁industri	-9.08719
▁2007	-9.08742
▁data	-9.08944
▁that	-9.08949
kal	-9.09006
all	-9.09071
▁sang	-9.09176
▁deretter	-9.09225
▁ek	-9.09255
än	-9.09329
sjonen	-9.09355
на	-9.0944
pol	-9.09503
kast	-9.09525
kov	-9.0961
▁skolen	-9.09667
bert	-9.09697
ås	-9.09929
▁orden	-9.10054
ros	-9.10115
▁full	-9.10204
▁with	-9.10215
▁maria	-9.10245
▁tru	-9.10297
▁gro	-9.10355
▁meg	-9.10502
eri	-9.10518
hal	-9.10662
▁hovedstaden	-9.10681
drag	-9.10697
▁uten	-9.10735
▁port	-9.10938
ves	-9.10963
bin	-9.10966
▁knut	-9.1099
zz	-9.11042
▁usa	-9.11079
▁war	-9.11182
▁veg	-9.11224
gon	-9.11246
the	-9.11291
▁general	-9.11298
ish	-9.11303
tiden	-9.11324
▁arkitekt	-9.11331
▁barne	-9.11338
▁dia	-9.1135
nis	-9.11357
▁kje	-9.11405
cc	-9.11504
▁ram	-9.11578
▁provinsen	-9.11631
cha	-9.11665
cht	-9.11666
▁gal	-9.11666
▁dikt	-9.11815
ighet	-9.11898
▁bon	-9.12087
50	-9.12097
▁ingen	-9.12149
▁gr	-9.12159
▁dann	-9.12165
fon	-9.12196
▁arbeids	-9.12234
iet	-9.12364
rad	-9.12425
▁len	-9.12496
▁cap	-9.12598
▁thomas	-9.12623
▁fr	-9.12691
▁cal	-9.12832
▁topp	-9.13023
mod	-9.13077
▁nye	-9.13356
jan	-9.13371
▁blad	-9.13436
ket	-9.1352
lund	-9.13525
ål	-9.13528
▁bare	-9.13535
sal	-9.13556
▁skr	-9.13558
▁lin	-9.13601
▁les	-9.13696
kul	-9.13766
▁svensk	-9.1389
▁2005	-9.13903
▁2009	-9.13906
▁fotball	-9.14199
ym	-9.14219
jel	-9.14307
hn	-9.14332
▁wal	-9.14466
▁ang	-9.14512
▁plante	-9.14673
stil	-9.14675
▁kyst	-9.14832
▁foran	-9.14856
voll	-9.15037
▁rekke	-9.15038
ι	-9.15235
▁tj	-9.15262
▁she	-9.15302
bygd	-9.15327
▁tele	-9.15371
▁japansk	-9.15611
▁2010	-9.15707
ial	-9.15767
vers	-9.15777
rak	-9.15778
▁pin	-9.15795
utvikling	-9.1582
drift	-9.15854
▁100	-9.15979
▁web	-9.16168
▁23	-9.1618
▁hvit	-9.16194
verket	-9.16269
▁sky	-9.16272
van	-9.1633
▁ø	-9.16333
▁lar	-9.1643
ai	-9.16451
▁person	-9.16527
▁eksempel	-9.16536
båt	-9.16813
г	-9.16817
▁tillegg	-9.16929
▁spilles	-9.16954
▁lund	-9.17004
▁met	-9.17014
▁bør	-9.1706
▁lille	-9.17219
ori	-9.17285
▁bir	-9.1735
lus	-9.17371
jev	-9.17378
cia	-9.17379
syn	-9.17385
▁park	-9.17429
este	-9.17504
ky	-9.1761
stra	-9.17611
▁es	-9.17763
▁ball	-9.17766
▁litt	-9.17801
▁derfor	-9.17806
dro	-9.17869
▁ant	-9.17959
produksjon	-9.18051
▁28	-9.18157
▁energiselskape	-9.18252
▁deres	-9.18293
▁finn	-9.18297
▁26	-9.18347
ben	-9.18377
liv	-9.18411
▁imidlertid	-9.18417
▁sommerfugl	-9.18475
legg	-9.18503
н	-9.18561
▁amerikansk	-9.18634
▁mari	-9.18769
qui	-9.18773
▁camp	-9.18813
▁fal	-9.18813
20	-9.1882
▁frank	-9.18834
▁pri	-9.18844
zhou	-9.18904
sjøen	-9.18912
ance	-9.19022
▁lars	-9.19159
eller	-9.19166
▁son	-9.19179
fri	-9.19296
▁anne	-9.19346
▁2008	-9.19352
▁sak	-9.19409
▁whi	-9.19447
▁hor	-9.19543
▁militær	-9.19579
▁eg	-9.19793
▁eksempler	-9.19813
▁ze	-9.19815
▁don	-9.19896
ali	-9.1995
▁gitar	-9.20016
▁viktige	-9.20135
mund	-9.20139
▁est	-9.20142
tegn	-9.20169
в	-9.20212
qu	-9.20232
č	-9.20282
▁spesial	-9.20285
lede	-9.20354
sam	-9.20458
værende	-9.20513
▁sur	-9.20682
fl	-9.2074
▁hall	-9.20777
bas	-9.20792
tjeneste	-9.20805
▁pass	-9.20871
illa	-9.20898
én	-9.2094
rød	-9.20971
▁odd	-9.20987
elig	-9.21182
ón	-9.21187
mannen	-9.21202
▁bank	-9.21206
▁vanligvis	-9.21255
▁grenser	-9.21365
gruppen	-9.21393
stor	-9.21404
rike	-9.21409
▁bruk	-9.21463
▁kat	-9.21596
arter	-9.21643
▁fredrik	-9.21729
side	-9.21858
▁kir	-9.2192
▁system	-9.22015
▁bergen	-9.22041
▁egg	-9.22074
ade	-9.22099
løse	-9.22114
ologisk	-9.22243
ple	-9.22283
▁mol	-9.22355
▁døde	-9.22417
mus	-9.22437
▁gikk	-9.22526
▁ky	-9.22531
nett	-9.22541
▁datter	-9.22761
asje	-9.22771
kontor	-9.22846
ef	-9.22909
gaard	-9.22957
▁air	-9.23045
▁2004	-9.23156
▁lev	-9.23163
ria	-9.23199
▁særlig	-9.23203
▁studie	-9.23243
oid	-9.23249
▁tittelen	-9.23378
system	-9.23395
▁lands	-9.23405
▁bass	-9.23688
▁arter	-9.23733
landet	-9.23777
▁sw	-9.23799
ull	-9.23833
▁viser	-9.23863
▁hånd	-9.23943
bjørn	-9.2405
▁nils	-9.24086
▁kunne	-9.24098
▁inkludert	-9.24119
▁mur	-9.2413
▁jernbane	-9.24257
▁svart	-9.24278
ette	-9.24354
▁temp	-9.24366
dor	-9.24398
▁medlem	-9.24401
syre	-9.24412
▁rock	-9.24455
bane	-9.24475
systemet	-9.24476
▁mann	-9.24537
▁styre	-9.24557
ob	-9.24578
stol	-9.24728
gul	-9.24778
tun	-9.24992
▁strand	-9.25031
ib	-9.25087
▁michael	-9.25103
uc	-9.25103
minister	-9.25171
▁enn	-9.25231
kraftverk	-9.25275
nic	-9.25287
rør	-9.25318
▁finner	-9.25364
tek	-9.25413
▁kas	-9.25448
▁medie	-9.25501
▁utgjør	-9.25716
▁sir	-9.2591
▁31	-9.2591
▁imp	-9.25967
▁februar	-9.26095
▁1989	-9.26095
▁universitet	-9.26108
▁lov	-9.26162
vit	-9.2617
sett	-9.26212
stat	-9.26305
eks	-9.26394
ira	-9.26468
lang	-9.26746
▁mass	-9.26875
ão	-9.26912
▁elven	-9.2696
▁fer	-9.26995
rede	-9.27021
▁just	-9.2711
tti	-9.27112
lø	-9.27177
tis	-9.2744
pur	-9.27458
▁bj	-9.27474
▁dagen	-9.27537
stående	-9.27683
▁skulle	-9.27738
plan	-9.2776
▁rev	-9.27786
▁skrevet	-9.27899
▁kam	-9.27904
▁000	-9.2797
▁miljø	-9.28007
▁venstre	-9.28133
ott	-9.28216
stoff	-9.28217
▁cho	-9.28278
▁blo	-9.28305
ativ	-9.28491
▁familie	-9.28515
isert	-9.28654
handling	-9.28687
▁us	-9.28758
haug	-9.28798
isten	-9.2884
lis	-9.28846
fal	-9.28872
▁støtte	-9.28929
band	-9.28948
▁din	-9.29005
▁zu	-9.29062
vig	-9.29082
lighet	-9.29103
▁wo	-9.29118
tus	-9.29149
fag	-9.29157
▁mindre	-9.2924
ille	-9.29408
▁char	-9.29421
▁super	-9.29604
our	-9.29626
▁nærings	-9.29719
farge	-9.2973
lse	-9.29755
ér	-9.29824
▁blei	-9.29875
▁klubben	-9.29984
olo	-9.30016
lid	-9.30102
heng	-9.30151
▁max	-9.30165
▁innbyggere	-9.30167
tha	-9.30174
pl	-9.30229
▁power	-9.30233
▁region	-9.30254
hol	-9.30401
▁opera	-9.30417
▁siste	-9.30499
▁bio	-9.30527
▁cra	-9.30563
lat	-9.306
▁kre	-9.306
▁nowiki	-9.30688
▁george	-9.307
▁ter	-9.30719
▁gammel	-9.30725
are	-9.30767
aksjon	-9.30805
▁kraft	-9.3083
▁str	-9.30834
ias	-9.30884
▁gla	-9.30898
▁stil	-9.3091
▁james	-9.3092
▁besto	-9.30929
las	-9.30953
elser	-9.3099
bru	-9.3106
▁poly	-9.31102
ved	-9.3115
▁kilde	-9.31154
я	-9.31211
▁standard	-9.31213
▁student	-9.31218
▁2011	-9.31224
▁mik	-9.31236
nivå	-9.31261
retning	-9.31306
ledd	-9.31387
hall	-9.31408
low	-9.31415
▁liten	-9.31562
▁wei	-9.31574
▁ør	-9.31693
uch	-9.31716
▁grå	-9.31723
ρ	-9.31737
▁januar	-9.31739
▁herre	-9.31872
▁helse	-9.31883
våg	-9.3194
graf	-9.31949
aktig	-9.32021
▁båt	-9.32122
▁gav	-9.3216
▁с	-9.32197
▁slekt	-9.32225
selskap	-9.32237
▁versjon	-9.32356
▁kull	-9.32363
▁juni	-9.32369
▁slag	-9.32374
ati	-9.32447
▁tang	-9.32576
▁pol	-9.32595
king	-9.3261
▁kulturminner	-9.32798
bånd	-9.32809
▁kle	-9.32821
aceae	-9.32828
▁dar	-9.32872
▁ana	-9.32873
▁andreas	-9.33048
▁kap	-9.33102
▁vokal	-9.33112
▁redaktør	-9.33139
30	-9.33178
▁bern	-9.33187
▁ok	-9.33223
▁vind	-9.33355
▁kristian	-9.33355
▁bad	-9.33356
▁grønn	-9.33402
▁mun	-9.33414
▁mas	-9.33473
▁filmen	-9.33507
akt	-9.33628
qua	-9.33654
lå	-9.33679
▁sten	-9.33776
▁pat	-9.33793
rev	-9.33809
▁lett	-9.33865
▁høyeste	-9.33872
▁overtok	-9.33952
cheng	-9.33987
ose	-9.34056
lot	-9.34115
grad	-9.34136
▁større	-9.34181
▁long	-9.3443
▁olje	-9.34508
▁bred	-9.34569
▁haug	-9.34578
blad	-9.34579
▁vinter	-9.34751
▁serien	-9.34803
fugl	-9.34866
film	-9.34867
ische	-9.34908
▁konge	-9.3493
▁keiser	-9.34975
▁forskjellige	-9.35003
▁hon	-9.35037
følge	-9.35076
▁mont	-9.35099
▁luc	-9.35178
tta	-9.35205
▁gruppe	-9.35216
▁cre	-9.35243
▁syd	-9.35251
▁hin	-9.35258
▁gjør	-9.35302
▁sau	-9.35368
sberg	-9.35375
ama	-9.35397
▁blit	-9.35404
▁kunstner	-9.3544
▁lei	-9.35456
pin	-9.35476
▁svært	-9.35513
▁ger	-9.35523
ney	-9.35577
plass	-9.35706
kropp	-9.35711
ram	-9.35723
vogn	-9.35802
▁bror	-9.3588
dø	-9.35901
▁app	-9.36048
▁international	-9.36051
▁richard	-9.36052
punkt	-9.36178
før	-9.36185
▁europa	-9.36294
parti	-9.36299
grav	-9.3633
17	-9.36351
▁sve	-9.3643
ark	-9.3646
▁eid	-9.36478
gata	-9.36487
alt	-9.36488
veg	-9.36509
ān	-9.3655
▁samtidig	-9.36604
▁representerer	-9.36608
▁forenkle	-9.36621
▁unn	-9.3669
rus	-9.36765
▁arbeider	-9.3677
▁bill	-9.36789
▁får	-9.36791
▁sund	-9.36793
ball	-9.36805
▁historie	-9.3694
▁cam	-9.37061
gna	-9.37128
▁hovedsakelig	-9.37159
▁myr	-9.37172
ado	-9.37217
▁win	-9.37263
▁bygde	-9.37336
▁johannes	-9.37437
elt	-9.37588
ima	-9.37589
full	-9.37617
▁jean	-9.37702
belteasteroide	-9.37717
oni	-9.37742
bank	-9.37745
▁utenfor	-9.37808
▁mill	-9.37845
gy	-9.37846
▁oppført	-9.37862
skrift	-9.37908
inne	-9.37917
▁oc	-9.3792
gjør	-9.37933
▁regi	-9.37945
stå	-9.37949
dar	-9.37996
▁bygd	-9.38066
▁skrift	-9.38066
▁hø	-9.38077
▁dam	-9.38246
▁italiensk	-9.38279
▁fortsatt	-9.38299
firma	-9.38305
▁aust	-9.38352
▁skil	-9.38429
86	-9.3845
▁bol	-9.38568
ekte	-9.38575
az	-9.38663
▁rh	-9.38729
▁cy	-9.38755
▁ev	-9.38793
feld	-9.38799
car	-9.38966
wer	-9.39006
organ	-9.39022
iner	-9.39038
els	-9.39044
▁dø	-9.39064
▁fall	-9.39071
leg	-9.39164
gitt	-9.39233
▁bel	-9.39292
▁strøm	-9.39322
▁skjer	-9.39345
▁bat	-9.39346
▁mannskapet	-9.39421
field	-9.39503
ön	-9.39508
▁glo	-9.39508
ografi	-9.39514
▁tallet	-9.39597
▁sul	-9.39607
istisk	-9.39635
▁anna	-9.39636
▁gang	-9.39654
▁regn	-9.3966
▁tap	-9.39698
▁ep	-9.39847
▁bla	-9.39891
heten	-9.39914
ary	-9.39917
lar	-9.39945
▁world	-9.39984
▁kin	-9.39993
▁bay	-9.39996
rich	-9.40009
▁up	-9.40097
▁grand	-9.40116
▁energi	-9.40248
slav	-9.40364
▁prest	-9.40394
▁29	-9.40396
▁inge	-9.40421
kur	-9.40422
▁marc	-9.40609
▁angel	-9.4074
mes	-9.40807
chu	-9.40876
▁nar	-9.40952
▁forfatter	-9.41068
▁rein	-9.41102
▁gun	-9.41133
shan	-9.41155
dorf	-9.41221
of	-9.41336
▁50	-9.41432
lov	-9.4152
iserte	-9.41541
▁holm	-9.41578
▁vit	-9.41673
▁cer	-9.41684
yo	-9.41697
ē	-9.41718
▁dessuten	-9.41718
zy	-9.4177
▁dermed	-9.41803
▁old	-9.41879
dri	-9.41895
▁tam	-9.41942
▁left	-9.41963
▁il	-9.41997
▁laur	-9.4207
▁tilby	-9.42246
▁dato	-9.42327
pla	-9.42335
▁ungdoms	-9.42471
▁artikkel	-9.4256
▁blod	-9.42612
af	-9.42617
hel	-9.4277
▁avis	-9.42771
τ	-9.42891
fører	-9.42915
▁nevnes	-9.42977
80	-9.43097
▁uni	-9.4312
▁samarbeid	-9.43137
▁internasjonale	-9.43196
uf	-9.432
▁lege	-9.43205
▁im	-9.43264
rek	-9.43278
sko	-9.43293
▁vä	-9.43408
▁dyre	-9.43413
olog	-9.43445
▁ung	-9.43535
fy	-9.43557
ora	-9.43588
▁rest	-9.43611
▁but	-9.43668
strand	-9.43752
kra	-9.43789
▁året	-9.43874
yang	-9.43908
vold	-9.43915
lsen	-9.43935
fabrikk	-9.43965
▁slutt	-9.44008
▁felles	-9.44024
▁slekten	-9.44066
▁lufthavn	-9.44084
▁driver	-9.44134
øst	-9.44156
holm	-9.44196
▁comp	-9.44275
▁esp	-9.44285
▁frukt	-9.44292
ico	-9.44301
mid	-9.44355
▁punkt	-9.4436
lings	-9.44363
lon	-9.44371
hov	-9.44414
▁sted	-9.44447
skij	-9.44456
▁produsent	-9.44531
▁reg	-9.44578
▁sl	-9.44597
▁brenselkilde	-9.44677
fjell	-9.44731
▁may	-9.4479
▁180	-9.44816
▁serie	-9.44878
ence	-9.44932
▁star	-9.45086
▁27	-9.45187
▁gor	-9.45252
▁nr	-9.45269
ström	-9.4528
fot	-9.45329
▁spar	-9.45443
ansk	-9.45508
▁qua	-9.45667
▁anders	-9.45669
▁ordet	-9.45673
й	-9.45692
▁thi	-9.45777
▁sla	-9.45792
▁lange	-9.45805
▁gate	-9.45861
▁176	-9.45881
▁nan	-9.45881
▁bekrefte	-9.45921
kamp	-9.45944
zu	-9.45945
▁daniel	-9.45978
▁kategori	-9.46169
▁hansen	-9.4633
▁fre	-9.46429
ǎ	-9.46495
▁sølv	-9.46503
▁kalte	-9.46527
kjør	-9.46627
foreningen	-9.46645
▁nes	-9.46653
▁albert	-9.4672
▁ann	-9.46735
▁off	-9.46764
▁tall	-9.46844
▁sn	-9.46856
▁års	-9.46874
▁foss	-9.46936
▁tun	-9.46989
▁cl	-9.46996
▁zo	-9.47008
▁sim	-9.47053
λ	-9.47108
▁først	-9.47192
one	-9.47365
yu	-9.47456
ast	-9.4748
▁lan	-9.47513
▁fant	-9.47557
▁kode	-9.4756
ifisert	-9.47625
partiet	-9.47693
gress	-9.47695
ο	-9.47716
ε	-9.47726
▁november	-9.47726
▁produsert	-9.47726
▁idretts	-9.47748
▁pla	-9.47781
▁stemme	-9.47815
▁black	-9.47835
foss	-9.47861
▁fro	-9.47894
▁virke	-9.47947
▁harald	-9.48022
▁finsk	-9.48138
way	-9.48168
aya	-9.48207
б	-9.48241
▁artist	-9.4825
strøm	-9.48265
formet	-9.48272
18	-9.48278
▁ce	-9.483
økonom	-9.48318
▁stan	-9.48321
і	-9.48347
▁tilhørt	-9.48347
▁bakvingen	-9.48349
▁mottok	-9.484
▁kommunene	-9.48441
din	-9.48462
blomst	-9.48472
▁jer	-9.4849
▁qui	-9.48498
ald	-9.48555
▁dekk	-9.48579
cho	-9.48636
erende	-9.48749
språk	-9.48785
▁gam	-9.48863
▁minne	-9.48873
ín	-9.48901
▁hår	-9.48915
loven	-9.48966
▁april	-9.48974
con	-9.48976
renner	-9.49061
▁flo	-9.49124
▁kal	-9.49155
ical	-9.49212
øv	-9.49215
▁sko	-9.49215
tsu	-9.49218
▁bandet	-9.49231
stri	-9.49231
▁olsen	-9.4927
pha	-9.49274
com	-9.49283
trykk	-9.49302
▁plass	-9.49306
19	-9.49311
▁ran	-9.49321
can	-9.49412
▁por	-9.49443
▁has	-9.49457
ł	-9.49597
▁tredje	-9.49603
вич	-9.49606
ismen	-9.49609
nia	-9.49626
▁løv	-9.49651
▁res	-9.49677
▁hjerte	-9.49678
win	-9.49864
▁was	-9.49918
pr	-9.49958
ringen	-9.4999
▁ask	-9.49997
los	-9.50042
▁maur	-9.50057
vatnet	-9.50062
▁helge	-9.50073
▁stav	-9.50105
▁che	-9.50168
arm	-9.50171
fond	-9.50255
ов	-9.50335
▁sag	-9.50338
▁hå	-9.50403
sette	-9.50579
▁nev	-9.5068
▁skuespiller	-9.50724
gne	-9.50741
osa	-9.50744
13	-9.50764
▁høyre	-9.5077
▁sosial	-9.50779
▁tan	-9.5081
κ	-9.50871
▁louis	-9.50874
her	-9.50908
ith	-9.50927
mand	-9.50981
▁cro	-9.51012
stykke	-9.51014
▁india	-9.51027
▁antall	-9.51052
ulf	-9.51072
ár	-9.51139
stro	-9.51147
60	-9.51227
korps	-9.51348
ies	-9.51405
▁landsbyen	-9.5141
▁sverige	-9.51514
▁nam	-9.51538
▁gren	-9.5159
▁populær	-9.51632
▁rei	-9.51668
bygning	-9.51687
old	-9.51839
▁tidlig	-9.5195
hai	-9.51984
føring	-9.52031
▁hjelp	-9.52046
hua	-9.52071
▁komp	-9.52092
▁turn	-9.5218
setning	-9.52247
regjering	-9.52251
dahl	-9.52397
▁polsk	-9.52399
▁ö	-9.52542
ras	-9.52549
▁wu	-9.52575
▁stjerne	-9.52589
▁slike	-9.52606
fu	-9.52616
▁bærer	-9.52673
▁mah	-9.52695
▁vir	-9.52718
▁tilbake	-9.52818
▁isbn	-9.52819
jiang	-9.52827
forbundet	-9.52858
ordenen	-9.53
▁dj	-9.53024
▁sogn	-9.53033
lei	-9.53051
▁sti	-9.53095
lich	-9.53175
▁grad	-9.53195
nummer	-9.53219
ante	-9.53232
▁pot	-9.53232
etter	-9.53253
oner	-9.5329
▁hit	-9.53292
27	-9.53444
14	-9.53459
▁ras	-9.53461
▁2001	-9.53477
industri	-9.53492
▁modell	-9.53498
▁2000	-9.53515
▁178	-9.53626
mma	-9.53687
▁wen	-9.53731
▁ven	-9.53734
▁politisk	-9.53906
▁sab	-9.53928
▁eli	-9.53949
trekk	-9.54047
æl	-9.54099
ž	-9.54118
▁venn	-9.54212
▁mørk	-9.54307
sion	-9.54351
▁lær	-9.54471
▁arranger	-9.5448
▁tittel	-9.5448
▁ken	-9.54493
una	-9.54561
rå	-9.54586
▁samle	-9.54613
hav	-9.54631
▁dun	-9.54642
▁borg	-9.5472
▁delta	-9.54735
▁sy	-9.54757
▁ton	-9.54762
ă	-9.5478
▁national	-9.54783
▁såkalt	-9.54784
bedriftene	-9.54784
▁tha	-9.54836
▁auto	-9.54843
▁32	-9.54852
▁villa	-9.54868
▁erstatte	-9.54923
▁fugle	-9.54982
▁ledet	-9.55004
▁byer	-9.55062
▁dor	-9.55203
▁fylke	-9.55268
▁bry	-9.55335
unt	-9.55349
▁arn	-9.55358
▁klo	-9.55416
ez	-9.55422
́	-9.55447
ous	-9.55462
▁netto	-9.55513
▁sports	-9.55548
▁sett	-9.5556
klo	-9.55643
▁sun	-9.55695
▁hovedrollene	-9.55742
vid	-9.55853
▁årlig	-9.55908
▁spi	-9.55909
▁finland	-9.55922
▁from	-9.55924
tom	-9.55962
havet	-9.56008
møte	-9.5604
kro	-9.56042
under	-9.56081
▁2003	-9.5612
▁typisk	-9.56128
▁bolig	-9.56143
▁charles	-9.56169
▁ud	-9.5617
▁heste	-9.56185
▁que	-9.56192
kraft	-9.56249
▁bygge	-9.56258
▁monte	-9.56301
▁utgitt	-9.56326
▁teater	-9.56328
▁rund	-9.56379
eira	-9.56481
▁fylkes	-9.56487
lignende	-9.56582
▁salt	-9.56601
selskapet	-9.56672
▁type	-9.56777
▁ris	-9.56784
posisjon	-9.56806
magasin	-9.56818
arten	-9.56842
▁forsknings	-9.56875
90	-9.56891
▁cru	-9.56944
▁tegn	-9.57015
gua	-9.57049
bit	-9.5707
▁wil	-9.57082
▁tim	-9.57126
▁folk	-9.57201
folk	-9.57212
▁prosjekt	-9.57218
▁menneske	-9.5722
▁yo	-9.57255
▁elve	-9.57438
▁anton	-9.57463
ò	-9.57474
▁original	-9.57474
▁ukrainsk	-9.57474
▁olav	-9.57509
▁horn	-9.57617
▁japan	-9.57675
ique	-9.57699
▁kors	-9.57724
port	-9.57727
▁hører	-9.57757
jord	-9.57813
midler	-9.57887
forbund	-9.57936
cal	-9.58012
tårn	-9.5802
▁cent	-9.5811
23	-9.58123
bakken	-9.58128
▁kul	-9.58156
▁omkring	-9.58161
▁stasjon	-9.58161
▁sort	-9.58167
utdanning	-9.58196
▁island	-9.58252
vinger	-9.58273
▁henry	-9.58308
gard	-9.58323
▁pris	-9.58377
▁krigs	-9.58377
sport	-9.58386
jon	-9.58433
▁tettsted	-9.58441
▁partiet	-9.58452
▁flu	-9.58477
skolen	-9.58559
eier	-9.58562
▁80	-9.58689
▁rot	-9.58782
▁åtte	-9.58821
▁jens	-9.58837
ping	-9.58848
▁etablert	-9.58848
▁privat	-9.58856
▁albumet	-9.58871
▁start	-9.58916
▁elev	-9.58939
▁larvene	-9.59
museet	-9.59004
rup	-9.59011
▁elv	-9.59134
ept	-9.59176
▁berlin	-9.59283
▁north	-9.59332
▁170	-9.59362
sser	-9.59369
▁bort	-9.59388
▁benytte	-9.59417
▁mø	-9.59517
ы	-9.59543
▁gunnar	-9.59546
▁sangen	-9.59553
▁gass	-9.59612
▁andersen	-9.59639
▁kjell	-9.59651
hund	-9.59678
▁epi	-9.59685
ire	-9.60045
▁mørke	-9.60068
kla	-9.60143
▁hatt	-9.6017
ß	-9.60195
▁ordenen	-9.6024
▁2012	-9.60259
▁album	-9.60312
▁gru	-9.60339
▁handels	-9.60396
oks	-9.60398
▁bob	-9.60527
bia	-9.60544
▁bilde	-9.60567
▁hør	-9.6057
▁his	-9.60727
▁160	-9.60733
▁øya	-9.60775
ming	-9.60855
▁40	-9.6086
tyr	-9.60907
plassen	-9.60909
cl	-9.60925
▁oppkalt	-9.60952
▁igjen	-9.60985
▁landsforening	-9.6099
▁iso	-9.60998
medalje	-9.61005
▁ye	-9.61031
handler	-9.61082
▁song	-9.61104
▁russland	-9.61125
▁søster	-9.61221
mos	-9.61275
▁meter	-9.61289
▁out	-9.6136
▁uk	-9.6144
▁bygg	-9.61517
ios	-9.61527
▁have	-9.61565
22	-9.61586
bladet	-9.61598
dia	-9.61605
70	-9.61616
gt	-9.61645
ô	-9.61655
ù	-9.61655
▁wilhelm	-9.61655
▁kvinne	-9.61686
▁helt	-9.6169
▁nummer	-9.61701
▁sentrum	-9.61845
▁frø	-9.61856
ritt	-9.61967
aria	-9.61981
felt	-9.62016
▁hem	-9.62042
alder	-9.62104
wan	-9.6225
▁univers	-9.62357
▁hj	-9.62359
▁forsvar	-9.62404
orm	-9.62493
ferd	-9.62604
ada	-9.62687
▁cell	-9.62714
lim	-9.62733
øm	-9.62735
ago	-9.62757
debut	-9.6281
▁disk	-9.62875
▁pal	-9.62919
▁gje	-9.62954
gruppe	-9.62961
liste	-9.62979
▁larven	-9.63013
▁produserer	-9.63089
▁gui	-9.63112
▁mand	-9.63155
▁rå	-9.6316
kommune	-9.63386
ür	-9.63469
hode	-9.63477
▁spor	-9.63491
▁cur	-9.63598
11	-9.6365
kjempe	-9.63657
▁gård	-9.63764
motor	-9.63779
ς	-9.63806
▁sven	-9.63813
▁oktober	-9.63814
gra	-9.63843
▁river	-9.63854
▁startet	-9.63874
seth	-9.639
skjold	-9.63926
ander	-9.64003
spor	-9.64003
produkter	-9.64034
▁trond	-9.64043
bach	-9.64045
▁kraftig	-9.64141
formede	-9.64142
istiske	-9.64163
▁rik	-9.64238
▁172	-9.64383
▁hud	-9.64399
01	-9.64432
onia	-9.64506
▁styrke	-9.6456
▁egentlig	-9.64565
yuan	-9.6469
▁gjer	-9.64801
▁offisiell	-9.64826
mur	-9.6491
▁ark	-9.64928
▁rad	-9.64932
hin	-9.64963
▁elektro	-9.65031
atet	-9.6504
12	-9.65045
▁grev	-9.65076
▁syl	-9.65095
▁edderkopp	-9.65122
områdene	-9.6521
σ	-9.65279
▁informasjon	-9.65279
øyene	-9.65333
▁brann	-9.65343
▁klasse	-9.65353
▁hopp	-9.65386
ensis	-9.6542
ili	-9.65424
▁regnes	-9.65477
bakk	-9.65478
▁zi	-9.6551
▁dahl	-9.65536
▁geo	-9.65564
hild	-9.65568
▁otto	-9.65583
tale	-9.65619
▁sho	-9.65645
lem	-9.65661
last	-9.65674
oma	-9.65744
▁mir	-9.65779
▁aktiv	-9.65797
▁skul	-9.65807
gården	-9.65832
▁king	-9.65848
gal	-9.65926
▁hand	-9.65998
ч	-9.66014
▁spesielt	-9.6602
liggende	-9.6603
teknologi	-9.66031
▁rektor	-9.66049
wald	-9.66074
▁jern	-9.6611
▁matt	-9.66123
hei	-9.6622
▁150	-9.66455
ure	-9.66506
▁flor	-9.66569
16	-9.6657
▁arbeidet	-9.66579
▁jacob	-9.66694
lé	-9.66724
▁173	-9.66751
▁basert	-9.66764
ê	-9.66766
▁september	-9.66766
▁canada	-9.66796
▁gau	-9.66831
▁medlemmer	-9.66843
▁qi	-9.66912
▁franc	-9.66925
roll	-9.66927
▁156	-9.66966
perioden	-9.66969
sang	-9.67052
war	-9.67124
▁real	-9.67167
ко	-9.6719
▁hov	-9.67201
gue	-9.67232
feltet	-9.6736
▁grense	-9.67495
▁35	-9.67532
▁2014	-9.67538
tempelet	-9.67547
lä	-9.67574
skudd	-9.67714
▁mid	-9.67724
▁spilt	-9.67745
▁konst	-9.67775
▁nytt	-9.67786
▁stig	-9.67789
▁trykk	-9.67897
jar	-9.67937
fold	-9.67961
▁bind	-9.68001
▁få	-9.68172
▁våpen	-9.68173
hen	-9.68187
▁kontroll	-9.68246
▁rep	-9.68256
ë	-9.68275
▁studert	-9.68313
▁nest	-9.68338
▁jen	-9.6845
▁metall	-9.68457
ture	-9.68494
ville	-9.68559
▁vid	-9.68575
anske	-9.68672
▁hjemme	-9.68734
historie	-9.68743
▁cat	-9.68787
vor	-9.68797
▁museum	-9.68842
bjør	-9.68873
▁bety	-9.69047
▁autonom	-9.69048
▁utgav	-9.69082
▁rus	-9.69104
▁brukte	-9.69109
kreft	-9.69193
gå	-9.69198
▁fyr	-9.6921
bul	-9.69234
▁kara	-9.69246
▁hydro	-9.69261
▁dommer	-9.69292
butikk	-9.69397
▁flat	-9.69424
ç	-9.69448
stall	-9.6946
klubben	-9.69517
▁enkelte	-9.69518
▁stø	-9.69539
▁æ	-9.69655
kirke	-9.69665
▁01	-9.69679
hm	-9.69687
ikere	-9.6975
▁maskin	-9.69804
teknikk	-9.6981
▁johann	-9.6981
hed	-9.69814
▁cle	-9.69823
▁trondheim	-9.69834
lagstall	-9.69843
▁blue	-9.69854
enberg	-9.69857
demokrat	-9.69872
ello	-9.69879
voks	-9.69926
▁tsj	-9.69942
skapet	-9.69979
cker	-9.69996
▁kai	-9.70069
▁fang	-9.70125
▁mig	-9.70187
musikk	-9.70197
stø	-9.70231
jia	-9.70254
▁emil	-9.70322
▁press	-9.7035
krets	-9.70358
▁jim	-9.70377
▁samling	-9.7039
▁rosen	-9.70426
▁gard	-9.70485
gro	-9.70545
fil	-9.70562
▁desember	-9.70583
▁primær	-9.70668
medaljen	-9.70741
snegl	-9.70747
▁neu	-9.70799
▁elva	-9.70874
▁marine	-9.70879
▁multi	-9.70906
▁natt	-9.70915
sik	-9.70924
▁sju	-9.71
▁nasjonale	-9.71029
distrikt	-9.71092
▁hær	-9.71125
▁gall	-9.71253
▁leir	-9.71263
▁pop	-9.71272
▁lite	-9.71308
hof	-9.71363
ě	-9.71364
▁design	-9.71381
▁group	-9.71394
▁dre	-9.71396
ough	-9.71424
eide	-9.71476
▁nabo	-9.71518
sjø	-9.71525
ric	-9.71569
svik	-9.7158
lip	-9.71743
høy	-9.71777
cio	-9.71794
rekord	-9.71836
▁gil	-9.71876
▁skrive	-9.71927
▁sar	-9.7195
▁utviklet	-9.71953
anda	-9.71986
▁prosess	-9.72053
fest	-9.72106
▁1999	-9.72152
line	-9.72161
▁33	-9.72165
▁2016	-9.72171
▁selskap	-9.72202
▁råd	-9.72205
▁tildelt	-9.72214
prisen	-9.72272
▁middel	-9.72287
iva	-9.72315
atur	-9.72363
▁forhold	-9.72374
▁city	-9.7243
▁merke	-9.72485
nom	-9.72591
▁havn	-9.72633
з	-9.72638
▁pav	-9.72647
▁hard	-9.72665
brun	-9.72705
▁tai	-9.72793
▁institut	-9.72847
▁begynt	-9.72948
gram	-9.72993
▁167	-9.73003
▁34	-9.73056
stille	-9.73066
plasser	-9.7307
gir	-9.73073
litt	-9.73111
▁nova	-9.7322
departementet	-9.73257
▁ytter	-9.73273
▁enkelt	-9.73323
▁steve	-9.73364
▁gua	-9.73384
▁в	-9.73388
▁transport	-9.73414
▁hjem	-9.73438
▁snø	-9.73448
▁stedet	-9.73452
▁gjorde	-9.73499
▁ett	-9.73511
▁70	-9.73606
enhet	-9.73611
▁who	-9.73613
▁kro	-9.73619
lingen	-9.73649
pil	-9.73657
▁betydning	-9.73688
fjellet	-9.73696
▁hul	-9.73706
året	-9.73725
▁club	-9.73764
▁landskap	-9.73775
▁linje	-9.73827
holmen	-9.73839
▁felt	-9.73844
▁løper	-9.73865
▁lek	-9.73917
▁mulig	-9.73964
▁varme	-9.73989
▁eiendom	-9.73991
cus	-9.74123
▁rask	-9.74154
tok	-9.74169
▁einar	-9.74177
▁produkt	-9.74227
▁seil	-9.7428
fla	-9.74324
ра	-9.74327
stedet	-9.74362
▁leg	-9.74364
▁163	-9.74415
kultur	-9.74431
▁tung	-9.74457
▁osv	-9.74491
grep	-9.74499
▁kvar	-9.74511
▁olavs	-9.74514
▁foreldre	-9.74555
▁style	-9.74578
▁155	-9.74605
▁п	-9.74615
▁riksvei	-9.74624
▁forkorte	-9.74783
▁typer	-9.74844
liga	-9.74858
▁vor	-9.74879
sha	-9.74932
▁tett	-9.74966
kanalen	-9.75002
▁rand	-9.75029
well	-9.75126
▁169	-9.75181
▁service	-9.75365
pter	-9.75378
ро	-9.75444
▁munn	-9.75536
▁award	-9.75539
▁paa	-9.75553
▁lam	-9.75625
dige	-9.75637
valg	-9.75683
pel	-9.75779
iano	-9.75796
▁mye	-9.7584
zar	-9.75861
▁best	-9.75887
▁hil	-9.75889
▁indisk	-9.75889
▁omfattet	-9.75954
unk	-9.75962
▁oliv	-9.76014
▁45	-9.76023
▁60	-9.76034
▁time	-9.76045
teori	-9.76061
medisin	-9.76072
â	-9.76096
▁magnus	-9.76198
▁chu	-9.76207
▁hed	-9.76221
virkning	-9.76234
lønn	-9.76273
park	-9.7644
▁kjøre	-9.76456
▁sanger	-9.76463
ã	-9.76488
▁arten	-9.7654
▁36	-9.76542
ila	-9.76563
▁internasjonal	-9.76583
vart	-9.76606
200	-9.76609
▁nø	-9.76708
▁mei	-9.76709
jö	-9.76714
figur	-9.76936
middel	-9.7697
▁music	-9.76993
▁øverst	-9.77015
▁2013	-9.77034
skjell	-9.77054
▁kloster	-9.7707
▁pil	-9.77073
utgivelse	-9.77112
blom	-9.77143
▁ec	-9.77154
▁vill	-9.77188
på	-9.77228
▁eneste	-9.77265
▁74	-9.7732
iko	-9.77325
▁marie	-9.77334
▁mester	-9.77347
▁168	-9.77397
▁lau	-9.7744
▁henrik	-9.77489
▁verdi	-9.77496
▁42	-9.77608
▁fry	-9.77609
iserer	-9.77658
bol	-9.77716
ønne	-9.77819
▁direkte	-9.77846
▁vekt	-9.77938
▁ref	-9.77955
▁kost	-9.78011
▁buk	-9.7803
▁sjef	-9.78079
▁niels	-9.78113
▁glass	-9.78131
hjul	-9.78175
▁annen	-9.78176
▁kru	-9.78226
bilde	-9.7829
rot	-9.78291
▁petter	-9.783
▁svarte	-9.78305
▁steder	-9.78339
▁log	-9.78408
▁ara	-9.78446
▁troll	-9.78525
п	-9.78619
▁stammer	-9.78664
▁tyskland	-9.78667
uru	-9.78722
▁avdeling	-9.78737
▁rør	-9.7875
▁count	-9.78798
▁brit	-9.78839
▁159	-9.78847
▁till	-9.78942
▁right	-9.78966
saker	-9.78986
▁utgi	-9.79017
▁75	-9.79162
oksid	-9.79205
vekst	-9.79296
virke	-9.79348
funn	-9.7935
▁kil	-9.79354
▁bygget	-9.79355
løst	-9.79429
basert	-9.79447
kirken	-9.79452
▁larsen	-9.7951
▁delstaten	-9.79534
▁inngår	-9.79535
▁rolf	-9.79541
cent	-9.79562
hallen	-9.79571
rygg	-9.79621
▁vær	-9.79627
▁sivil	-9.7966
det	-9.79688
▁ordens	-9.79703
▁tit	-9.79714
flekk	-9.79758
tum	-9.79784
lli	-9.79803
▁syv	-9.79806
ona	-9.79826
▁russ	-9.79834
▁provins	-9.79899
pet	-9.80008
bein	-9.80052
▁reise	-9.80192
låt	-9.80215
▁staten	-9.80224
▁flyplass	-9.80342
▁2015	-9.80405
▁brukt	-9.80419
▁97	-9.80444
▁festival	-9.80455
▁kata	-9.80601
bet	-9.80623
finn	-9.80658
▁krist	-9.80671
▁morten	-9.80686
▁mikro	-9.807
programmet	-9.80775
▁kry	-9.80884
▁rod	-9.8093
lum	-9.80965
org	-9.80969
planter	-9.80969
▁klar	-9.81003
yan	-9.81015
▁jar	-9.81136
plante	-9.81216
▁ross	-9.81252
avdeling	-9.81255
bat	-9.81276
▁175	-9.81346
▁grunnla	-9.81375
gående	-9.81408
▁lærer	-9.81435
▁153	-9.81471
▁bis	-9.81487
▁stad	-9.81517
▁pont	-9.81531
orum	-9.81703
öl	-9.81829
▁uttale	-9.81842
delen	-9.8185
▁fjern	-9.81914
bare	-9.81969
historiker	-9.81973
▁hage	-9.81974
▁kirken	-9.81976
▁litteratur	-9.8198
▁82	-9.81993
rådet	-9.81998
▁stasjonen	-9.82004
▁this	-9.82022
▁betegne	-9.82057
ś	-9.82119
▁øvre	-9.82127
messig	-9.82142
▁verne	-9.8215
hjem	-9.82177
▁kim	-9.82224
bygging	-9.82229
▁bin	-9.82335
▁vanlige	-9.82347
▁luk	-9.82348
▁lengde	-9.82349
▁retts	-9.82415
▁trekk	-9.82575
▁sideelv	-9.82605
kammer	-9.82629
tang	-9.82774
ii	-9.82782
para	-9.82789
▁hill	-9.8281
handel	-9.82814
spinner	-9.82839
oth	-9.82852
olje	-9.82915
▁kyr	-9.82922
▁tin	-9.82984
▁fører	-9.82988
▁2017	-9.83022
▁ari	-9.83065
▁måtte	-9.83076
▁wall	-9.83141
▁vanlig	-9.83193
▁high	-9.83269
rick	-9.83333
lad	-9.83417
▁led	-9.83436
▁eva	-9.83444
aki	-9.83461
trær	-9.83469
▁sit	-9.83605
vesen	-9.83669
▁rem	-9.83702
næs	-9.83713
▁sea	-9.83748
▁boy	-9.83772
able	-9.83827
▁simon	-9.83879
▁tverr	-9.8388
μ	-9.83881
▁joseph	-9.83881
▁energy	-9.83894
brudd	-9.83921
▁én	-9.83975
▁godt	-9.83985
▁ron	-9.84011
▁б	-9.84032
▁finans	-9.84034
gikk	-9.84087
forsker	-9.84142
fart	-9.84229
▁arve	-9.84256
▁palm	-9.84265
løk	-9.84361
▁veien	-9.84389
slekten	-9.84448
åsen	-9.84496
zhi	-9.84554
▁sor	-9.84559
▁mit	-9.84567
horn	-9.84577
▁dannet	-9.84579
▁lib	-9.8458
ль	-9.84596
riket	-9.8462
elv	-9.84621
haugen	-9.84675
stid	-9.84699
▁sterk	-9.84711
64	-9.84729
▁är	-9.84754
sekretær	-9.84762
▁digital	-9.84775
▁university	-9.84789
▁egne	-9.84789
▁drama	-9.84811
▁naturgass	-9.84853
▁fj	-9.84863
prosess	-9.84874
▁für	-9.84916
head	-9.84923
▁johansen	-9.84929
▁sæ	-9.84937
mmel	-9.84945
▁utvikl	-9.85059
bal	-9.85061
typen	-9.85068
pal	-9.85073
slaget	-9.85078
▁pala	-9.85112
ál	-9.85179
giv	-9.85195
▁aur	-9.85213
▁professor	-9.85242
▁harry	-9.85253
▁løp	-9.85267
▁oh	-9.85286
▁fjord	-9.8529
▁slo	-9.85298
cca	-9.85326
kilde	-9.85332
▁feng	-9.85391
▁147	-9.85402
gruppa	-9.85457
▁utvide	-9.8546
hon	-9.85464
▁instrument	-9.85542
fyll	-9.85568
▁ola	-9.85581
▁inc	-9.85608
▁aas	-9.8562
х	-9.85674
▁administrativ	-9.85675
▁varierer	-9.85713
▁az	-9.85753
qi	-9.85791
våpen	-9.85799
▁skje	-9.85826
▁dyp	-9.85835
▁trener	-9.85852
ate	-9.85883
arafa	-9.85895
▁sær	-9.85915
▁ville	-9.85997
kamera	-9.86001
▁resultat	-9.86029
forskning	-9.86076
▁146	-9.86144
▁livs	-9.86274
▁00	-9.86294
▁ever	-9.86296
▁mm	-9.86343
▁drift	-9.86369
▁hannen	-9.86475
▁live	-9.86508
▁alternativ	-9.86584
▁betydelig	-9.86586
▁andré	-9.86594
▁turist	-9.86594
▁dverg	-9.86605
▁regionen	-9.86606
▁pur	-9.86621
▁trommer	-9.86623
▁jazz	-9.8667
løsning	-9.86705
▁direktør	-9.86816
▁pul	-9.86913
▁gram	-9.86946
▁aar	-9.8703
samfunn	-9.87048
trekning	-9.87075
▁ting	-9.87087
erud	-9.87099
▁feil	-9.87195
▁bevegelse	-9.87246
ledning	-9.87296
ан	-9.87359
▁moderne	-9.87401
▁90	-9.87407
▁blomster	-9.87473
▁gustav	-9.87504
▁produksjons	-9.87573
▁love	-9.87655
fang	-9.87677
wood	-9.87678
▁afrika	-9.87688
▁innsjøen	-9.87693
▁kjøpt	-9.8772
▁bh	-9.87737
katt	-9.87749
fjellene	-9.87757
krigen	-9.87775
merket	-9.87856
15	-9.87984
▁ple	-9.88022
sey	-9.88022
▁team	-9.88065
utstilling	-9.88118
grunn	-9.88136
▁act	-9.88169
▁ledes	-9.88179
▁jack	-9.88187
iana	-9.88223
▁bestod	-9.88323
▁sik	-9.88357
▁brand	-9.88371
ito	-9.88426
▁varaordfører	-9.88427
▁inneholdt	-9.88427
▁1996	-9.88427
▁norrøn	-9.88431
▁alexander	-9.88432
▁south	-9.88445
ер	-9.88507
▁svi	-9.88534
▁line	-9.88558
▁politiker	-9.88593
▁kongen	-9.8864
▁kha	-9.88703
▁165	-9.8872
▁damp	-9.88783
ар	-9.88894
▁fir	-9.88971
program	-9.88979
▁gö	-9.8903
▁spiss	-9.89033
▁nilsen	-9.89107
▁benyttes	-9.8911
▁indre	-9.89133
▁lad	-9.89148
▁dialekt	-9.89265
▁fett	-9.89313
▁try	-9.89334
▁vent	-9.89344
▁prof	-9.89359
▁utdype	-9.89364
tunnelen	-9.8937
ingeniør	-9.89373
innen	-9.89381
løpet	-9.89432
oto	-9.89439
▁skj	-9.8945
▁nordøst	-9.89457
▁figur	-9.89461
▁slott	-9.89478
botn	-9.8948
ington	-9.89487
▁rune	-9.89566
▁tyske	-9.89582
produsent	-9.8959
▁gle	-9.89593
▁hum	-9.89682
▁tau	-9.8969
▁saa	-9.89697
▁kristin	-9.89729
▁fest	-9.89744
▁musiker	-9.89771
▁formel	-9.89854
▁145	-9.89922
hard	-9.90017
▁chang	-9.90092
▁stod	-9.90109
▁mitt	-9.90138
vika	-9.90173
▁hä	-9.90252
▁tilknyttet	-9.90305
kommunikasjon	-9.90305
▁tolkien	-9.90312
▁deler	-9.90319
▁bronse	-9.9034
▁back	-9.90364
myr	-9.90368
formen	-9.90373
▁knytt	-9.90397
▁org	-9.90472
ward	-9.90524
ен	-9.90538
museum	-9.90567
▁klokke	-9.90698
▁union	-9.90709
hem	-9.90724
▁fan	-9.90738
▁bai	-9.90753
▁mono	-9.90794
▁154	-9.90833
▁endre	-9.90887
▁krets	-9.91053
bord	-9.91071
vald	-9.91097
▁pir	-9.91122
▁meta	-9.91125
kop	-9.91126
▁tank	-9.9115
▁gress	-9.91205
▁noe	-9.91233
▁øvrig	-9.91258
▁rec	-9.9126
▁middelalder	-9.91266
hunder	-9.91269
▁video	-9.91391
▁vinge	-9.91393
▁kari	-9.91423
gjorde	-9.91462
virksomhet	-9.91535
▁120	-9.91555
▁jam	-9.91588
▁lim	-9.91608
▁då	-9.91608
▁plu	-9.91649
ça	-9.91657
▁funksjon	-9.91706
mont	-9.9171
▁æres	-9.91721
syke	-9.91828
▁sav	-9.9183
▁histori	-9.91905
chester	-9.9198
klar	-9.91981
▁lære	-9.91998
▁eget	-9.92029
▁gården	-9.92064
▁dyn	-9.92113
gjort	-9.92132
▁alb	-9.92134
▁patri	-9.92139
varer	-9.92172
fugler	-9.92183
▁xu	-9.92184
▁kardinal	-9.92219
▁1994	-9.92219
▁1988	-9.9222
▁deutsche	-9.92222
▁sverre	-9.92248
▁tilhøre	-9.92295
parken	-9.92317
bridge	-9.92338
fre	-9.92339
▁italia	-9.92391
dannelse	-9.92393
amin	-9.92405
▁kalk	-9.92479
▁eldre	-9.92506
▁front	-9.92684
musik	-9.92713
▁mess	-9.92716
▁krig	-9.92814
prinsipp	-9.92847
▁vinner	-9.92858
▁sunn	-9.92923
ån	-9.92927
vall	-9.92945
vand	-9.92977
▁kok	-9.93002
vang	-9.93068
▁od	-9.9308
▁sum	-9.93106
▁polar	-9.93132
▁jørgen	-9.9319
▁1995	-9.9319
arbeider	-9.93208
▁kart	-9.93256
▁grunnlagt	-9.9327
▁michel	-9.93297
▁samfunns	-9.93318
▁skå	-9.93341
▁nasjonalpark	-9.93399
lære	-9.93431
▁jobb	-9.93446
▁verden	-9.9346
▁britisk	-9.93483
▁furu	-9.93489
▁mala	-9.93498
▁los	-9.93508
grupper	-9.93553
▁skips	-9.93586
▁historisk	-9.93663
▁stri	-9.93677
▁shu	-9.93678
▁55	-9.93712
fik	-9.93757
▁adam	-9.93816
byrå	-9.93822
▁hou	-9.93943
▁37	-9.93979
▁dynastiet	-9.94001
ка	-9.94053
friidrettsutøver	-9.9417
▁middelsstor	-9.94171
▁idrettslag	-9.94231
▁fleste	-9.94234
▁sykdom	-9.94252
▁trafikk	-9.94291
▁gansk	-9.94314
▁kjerne	-9.94453
▁gitt	-9.94468
▁gli	-9.94507
betegnelse	-9.94535
prosjekt	-9.94541
▁oversatt	-9.94584
▁spp	-9.94637
▁storm	-9.94637
▁drive	-9.94652
▁nesten	-9.94677
▁ost	-9.94718
▁personlig	-9.94756
▁green	-9.94777
▁þ	-9.9479
▁shan	-9.94831
pass	-9.94836
▁totalt	-9.94851
utdannet	-9.94854
verdig	-9.94892
▁borger	-9.9493
▁buss	-9.95016
▁wood	-9.95077
▁38	-9.95135
▁nærmest	-9.9517
▁referere	-9.95183
dong	-9.95204
▁1990	-9.95205
klær	-9.95206
▁157	-9.95216
▁betydninger	-9.95234
▁antonio	-9.95235
▁hir	-9.95294
▁lenge	-9.95335
stoffer	-9.95355
▁forekommer	-9.95387
▁betjener	-9.95433
▁gå	-9.95485
▁wade	-9.95486
ux	-9.95519
▁geir	-9.95549
▁ganger	-9.95617
▁svein	-9.95622
▁rygg	-9.9563
vekt	-9.95726
▁thu	-9.95751
▁wan	-9.95775
▁vold	-9.95776
▁lokale	-9.95871
▁skade	-9.95979
▁bokstave	-9.96016
▁bou	-9.96065
bispedømme	-9.9616
▁prefektur	-9.9616
myndighet	-9.96161
▁omtrent	-9.96161
▁stol	-9.96176
▁ordfører	-9.96189
▁mineral	-9.96196
spir	-9.96206
▁ot	-9.96214
▁pedersen	-9.96225
åpning	-9.96229
▁there	-9.96235
▁ull	-9.9627
▁bonde	-9.9634
▁stål	-9.96352
▁cath	-9.96399
▁behandling	-9.96402
▁wang	-9.96407
▁uttrykk	-9.96436
▁hjemmeside	-9.96457
▁alf	-9.96487
▁fol	-9.96526
▁gjeste	-9.96534
▁hoff	-9.96539
politikk	-9.96544
▁henne	-9.96701
stone	-9.96709
▁still	-9.96728
uz	-9.96736
▁phil	-9.96801
▁spansk	-9.96825
hor	-9.96897
▁149	-9.96912
▁bille	-9.97072
▁fylket	-9.97078
ί	-9.9717
advokat	-9.9717
▁friedrich	-9.9717
▁beskrev	-9.97171
▁align	-9.9721
▁human	-9.97221
▁betegnelsen	-9.97235
▁bjørk	-9.97265
dam	-9.97274
▁konsert	-9.97289
ful	-9.97378
▁dog	-9.97414
uni	-9.97434
▁svenske	-9.97488
▁wol	-9.97494
▁aldri	-9.9754
▁52	-9.97574
hydr	-9.97584
▁105	-9.97621
▁rose	-9.97705
later	-9.97732
vatn	-9.97768
moni	-9.97786
▁daglig	-9.97795
▁krysser	-9.97819
▁rub	-9.9783
▁omtale	-9.97849
▁karakter	-9.97862
▁ah	-9.97867
ltså	-9.97998
stjerne	-9.98004
▁konkurranse	-9.98015
▁bud	-9.98018
▁sentrale	-9.98034
▁danse	-9.98063
bud	-9.98068
ernes	-9.98178
▁jakob	-9.98193
▁eric	-9.98194
breen	-9.98202
ovitsj	-9.98216
systemer	-9.98238
soldat	-9.98276
▁top	-9.98279
▁dol	-9.983
▁alfred	-9.98302
▁kroppen	-9.98319
▁klima	-9.9839
▁lot	-9.98412
▁vig	-9.98419
▁rob	-9.98428
▁big	-9.98573
▁hö	-9.986
mbo	-9.98605
▁beskriver	-9.98697
▁tema	-9.98703
styrt	-9.98738
▁hammer	-9.98753
▁kaller	-9.98819
▁brenn	-9.9887
▁128	-9.98896
▁bit	-9.98923
▁test	-9.98927
▁symbol	-9.99096
▁santa	-9.99105
▁boken	-9.99133
▁dyr	-9.99183
▁shanghai	-9.99222
▁if	-9.99235
slutning	-9.99239
▁pl	-9.99289
▁110	-9.99315
▁fjær	-9.99328
▁selve	-9.99388
slet	-9.99395
▁bull	-9.99469
programmer	-9.99607
▁bell	-9.99617
▁gold	-9.99626
▁arbeid	-9.99678
▁ansvarlig	-9.99749
▁dong	-9.99751
▁akademi	-9.99778
folket	-9.99802
▁chan	-9.99927
▁beg	-9.99953
▁prop	-10.0001
▁bord	-10.0004
skjær	-10.0004
▁temperatur	-10.0004
vitenskap	-10.0026
γ	-10.0026
▁1992	-10.0026
▁1998	-10.0026
▁tabellen	-10.0026
kandidat	-10.0027
▁york	-10.0028
levende	-10.0032
kes	-10.0034
▁174	-10.0036
▁foruten	-10.004
prøve	-10.0041
▁fed	-10.0044
▁roger	-10.0049
ор	-10.0051
lista	-10.0054
aktiv	-10.0058
acci	-10.0063
▁dør	-10.0068
oppgave	-10.0071
bon	-10.0072
▁arc	-10.0072
▁bølge	-10.0077
funksjon	-10.0082
amerikansk	-10.0083
▁fler	-10.0087
āng	-10.0092
person	-10.0094
merke	-10.0097
▁vik	-10.0103
lege	-10.0104
mming	-10.0121
▁administrere	-10.0132
▁tydelig	-10.0132
▁biskop	-10.0133
▁statsminister	-10.0134
▁text	-10.0135
rill	-10.0135
▁filip	-10.0142
▁dansk	-10.0145
▁satt	-10.0145
▁terje	-10.0149
klasse	-10.0151
▁adel	-10.0161
elius	-10.0162
▁cd	-10.0163
ва	-10.0165
▁dur	-10.0165
▁bryst	-10.0165
sol	-10.0169
▁påvirke	-10.0174
meter	-10.0176
ischen	-10.0203
▁faren	-10.0209
hui	-10.0215
▁syr	-10.0217
▁44	-10.022
mul	-10.0224
▁gjelder	-10.0226
stell	-10.0229
utstyr	-10.023
maleri	-10.0233
ǔ	-10.0238
▁stockholm	-10.0238
▁1997	-10.0238
▁herman	-10.0239
▁hurtig	-10.0239
▁tiden	-10.0242
▁tørr	-10.0244
▁angrep	-10.025
▁iii	-10.0251
hyll	-10.0252
▁jule	-10.0252
▁fru	-10.0264
utøver	-10.0267
▁109	-10.027
▁server	-10.0278
representant	-10.0286
flue	-10.0288
ally	-10.0293
▁moren	-10.0293
linjen	-10.0295
▁bach	-10.0296
▁had	-10.0296
▁stam	-10.0298
▁verneområde	-10.03
▁wel	-10.0303
kvalitet	-10.0305
▁bert	-10.0324
▁master	-10.0338
▁171	-10.0343
▁befolkning	-10.0346
▁egil	-10.0347
▁himmel	-10.0349
styre	-10.0354
air	-10.0357
vinner	-10.036
▁føde	-10.0362
▁stopp	-10.0365
▁persisk	-10.0366
ь	-10.0367
vä	-10.0368
▁spin	-10.0368
▁leon	-10.0372
▁mobil	-10.0375
▁mangler	-10.0386
ative	-10.0387
▁schw	-10.0391
▁last	-10.0397
▁belg	-10.0411
president	-10.0413
▁eik	-10.0414
▁nok	-10.0416
▁chris	-10.042
▁tone	-10.042
▁sco	-10.0442
tjenester	-10.0451
η	-10.0454
▁tilsvarende	-10.0454
▁1987	-10.0454
▁sigurd	-10.0454
▁play	-10.0457
▁lyst	-10.0464
▁streng	-10.0464
▁flytt	-10.0464
styret	-10.0472
▁blokk	-10.0473
▁spon	-10.0474
▁lyse	-10.0482
▁elektrisk	-10.0483
artikler	-10.0487
fred	-10.0506
▁akk	-10.0508
tilstand	-10.0508
tsch	-10.0509
▁lyn	-10.0514
spenning	-10.0516
jä	-10.0518
▁tann	-10.0524
▁148	-10.0534
▁grøn	-10.0535
▁offentlig	-10.0537
▁effekt	-10.0541
▁к	-10.0548
▁bland	-10.0553
▁vanligst	-10.0555
π	-10.0564
▁dobbelt	-10.0564
▁sovjetunionen	-10.0564
▁uavhengig	-10.0564
▁unicode	-10.0564
▁school	-10.0564
▁bod	-10.0565
▁forsvars	-10.0565
▁flertall	-10.0566
▁familiegruppen	-10.0566
▁efter	-10.0566
▁republikken	-10.0568
▁vokser	-10.0571
▁foto	-10.0572
▁pettersen	-10.0573
fabrikken	-10.0573
▁fylkesvei	-10.0574
trinn	-10.0583
▁stamme	-10.0597
måte	-10.0598
▁holder	-10.0601
eringen	-10.0608
▁forlag	-10.0614
kjede	-10.0621
bak	-10.0624
tveit	-10.0627
▁sport	-10.063
bygningen	-10.0635
hovedstaden	-10.0636
▁skriver	-10.0649
▁kath	-10.0655
▁sei	-10.0663
▁ferdig	-10.0674
institusjon	-10.0675
▁american	-10.0675
▁publisert	-10.0675
▁london	-10.0676
▁dronning	-10.0676
▁drammen	-10.0677
▁beat	-10.0681
forhold	-10.0682
▁mathi	-10.0684
▁saint	-10.0686
▁eie	-10.0693
▁sterkt	-10.0694
▁skyldes	-10.0698
▁artene	-10.0711
slått	-10.0711
▁open	-10.0717
▁é	-10.0718
▁64	-10.072
▁our	-10.0731
▁stiftet	-10.0732
kjøp	-10.0738
▁behandle	-10.0747
uba	-10.0757
strup	-10.076
▁brei	-10.0766
tog	-10.0777
δ	-10.0788
▁elisabeth	-10.0788
▁fulgte	-10.0788
▁tømmer	-10.0788
▁komponist	-10.0788
▁nedenfor	-10.0788
▁oblast	-10.0791
▁smith	-10.0791
▁pyr	-10.0792
▁likevel	-10.0795
periode	-10.0798
▁500	-10.0799
▁øde	-10.0802
▁forfatteren	-10.0802
▁brem	-10.081
beskytte	-10.0822
atus	-10.0823
ić	-10.0827
▁piano	-10.0827
▁delt	-10.083
▁life	-10.0838
▁disp	-10.0848
▁kryss	-10.0852
vikler	-10.0852
▁åpnet	-10.0854
▁rute	-10.0858
▁peder	-10.0862
29	-10.0871
▁naturlig	-10.0876
imi	-10.0877
festivalen	-10.088
istene	-10.088
▁billed	-10.0885
mini	-10.0888
komst	-10.0898
▁introduser	-10.0901
▁styrmann	-10.0901
▁records	-10.0901
▁papir	-10.0902
havn	-10.0903
▁anlegget	-10.0908
▁123	-10.0908
▁deltok	-10.0911
▁menighet	-10.0915
▁arkiv	-10.0917
▁term	-10.0919
▁forbindelse	-10.0919
kveld	-10.0921
▁forretnings	-10.0922
▁sukker	-10.0924
▁organisasjonen	-10.0925
stilte	-10.0934
▁even	-10.0941
▁139	-10.0942
bibliotek	-10.0943
▁walter	-10.0944
▁129	-10.0945
▁besøk	-10.0949
▁center	-10.095
▁operasjon	-10.0951
▁total	-10.0974
▁prisen	-10.0975
▁journalist	-10.0983
▁gw	-10.0985
▁personer	-10.0985
▁jarl	-10.0986
direktør	-10.0987
▁utstyr	-10.0987
▁73	-10.0999
bury	-10.1002
▁ånd	-10.1004
politisk	-10.1005
løft	-10.1009
provinshovedstad	-10.1015
▁religion	-10.1016
▁nordvest	-10.1018
▁frankrike	-10.1019
▁atlant	-10.1021
▁passerer	-10.1023
▁hvite	-10.1028
▁enhet	-10.1036
▁jevn	-10.1042
▁dig	-10.1058
mengde	-10.1064
verdi	-10.1067
lutt	-10.107
▁cup	-10.1073
▁103	-10.1076
ал	-10.1077
shire	-10.1085
▁39	-10.1097
▁benyttet	-10.1104
▁folket	-10.1105
▁israel	-10.1107
▁apo	-10.1122
▁133	-10.1125
▁well	-10.1128
▁byprefekturet	-10.1132
▁1968	-10.1132
▁1993	-10.1132
▁tå	-10.1135
lokk	-10.1139
post	-10.114
ould	-10.1144
tysk	-10.1144
▁bomb	-10.115
▁alm	-10.1152
▁akt	-10.1152
burn	-10.1156
plate	-10.1156
▁nak	-10.1158
▁prim	-10.1163
▁arg	-10.1163
vá	-10.1167
serie	-10.1168
▁tog	-10.1171
▁clo	-10.1176
karriere	-10.1178
▁ube	-10.1181
▁normalt	-10.1199
næring	-10.1202
▁audi	-10.1204
▁rau	-10.1205
▁korte	-10.1211
▁asia	-10.1212
fotograf	-10.1217
▁kall	-10.1218
▁sing	-10.1226
▁upp	-10.1226
▁48	-10.1234
rente	-10.1238
medlem	-10.1239
ligner	-10.1239
▁regional	-10.124
blå	-10.1241
eiro	-10.1245
▁corn	-10.1248
▁gabriel	-10.125
▁svømme	-10.125
▁sveits	-10.1251
ος	-10.1251
▁prosent	-10.1251
▁minst	-10.1254
▁1980	-10.1256
▁social	-10.1257
īn	-10.1264
▁major	-10.1265
olu	-10.1266
▁marit	-10.1269
støl	-10.1272
▁cri	-10.1276
▁gile	-10.128
▁fur	-10.1282
▁dro	-10.1282
▁hode	-10.129
▁asp	-10.1291
▁guang	-10.1295
▁møter	-10.1297
dikt	-10.13
scher	-10.1303
▁corp	-10.1306
henger	-10.1312
▁silke	-10.1315
▁rio	-10.1318
▁greg	-10.1318
▁nedre	-10.1319
linje	-10.132
▁kanon	-10.1322
gran	-10.1331
▁mary	-10.1332
та	-10.1348
▁heng	-10.1349
mond	-10.1351
▁spise	-10.1363
▁danske	-10.1365
▁øyene	-10.1365
▁deriblant	-10.1369
▁1979	-10.1369
▁company	-10.1369
▁episode	-10.137
▁frederik	-10.137
rapport	-10.137
▁orkester	-10.1371
▁klassisk	-10.1371
kunnskap	-10.1371
▁adresse	-10.1372
▁program	-10.1373
▁danmark	-10.1376
▁hvis	-10.1378
fortelling	-10.1381
▁verd	-10.1383
▁enten	-10.1395
▁emb	-10.1402
▁ytre	-10.1403
▁great	-10.1404
▁petr	-10.1407
▁holdt	-10.1415
print	-10.1417
▁sider	-10.1417
materiale	-10.1417
▁raj	-10.1418
▁hunnen	-10.1419
tilbud	-10.1421
▁ivan	-10.1427
▁koll	-10.1427
▁122	-10.1437
▁57	-10.144
▁skinn	-10.1445
▁linjen	-10.1449
▁grupper	-10.1449
ulær	-10.1454
▁bang	-10.1458
▁svar	-10.146
hagen	-10.1467
▁wid	-10.1467
▁pun	-10.1474
▁våg	-10.1482
▁høyde	-10.1489
ý	-10.149
▁teknisk	-10.149
▁tilsvarer	-10.1492
▁kjønn	-10.1492
▁1986	-10.1496
▁grov	-10.15
äm	-10.1503
▁opprett	-10.1504
▁fab	-10.1505
bour	-10.1505
▁tradisjon	-10.1506
▁khan	-10.1507
▁inte	-10.1511
▁kjøpe	-10.1518
▁41	-10.1522
▁ferr	-10.1528
lung	-10.1535
▁mennesker	-10.1536
▁delvis	-10.1539
▁bakke	-10.1543
▁mach	-10.1543
▁åpen	-10.1546
▁kristen	-10.1549
▁rek	-10.155
▁lyng	-10.1554
▁liber	-10.1554
▁him	-10.1556
▁free	-10.1557
▁åpne	-10.156
▁material	-10.1563
▁107	-10.1565
▁kau	-10.157
▁teksten	-10.1572
▁kali	-10.1576
▁slav	-10.1578
▁henri	-10.1579
ла	-10.159
idrett	-10.1593
▁vakt	-10.1595
trafikk	-10.1597
▁sna	-10.1604
▁47	-10.1606
legger	-10.1607
▁bom	-10.1611
ș	-10.1612
▁derimot	-10.1612
▁1984	-10.1612
▁sykehus	-10.1613
▁62	-10.1615
▁markerer	-10.1624
▁46	-10.1627
wick	-10.163
▁økt	-10.1636
▁09	-10.1642
ев	-10.1643
analyse	-10.1648
▁your	-10.1649
iya	-10.1656
▁pel	-10.1684
▁sykl	-10.1689
løv	-10.1692
▁kit	-10.1695
▁jensen	-10.1696
▁qing	-10.1703
▁frei	-10.1703
▁sku	-10.1707
▁nerv	-10.1708
ammen	-10.1709
▁85	-10.1709
▁nrk	-10.1715
▁signal	-10.1718
▁sz	-10.1723
▁slett	-10.1724
▁alpin	-10.1725
▁slu	-10.1726
ш	-10.1735
▁egypt	-10.1735
▁begrepet	-10.1735
▁hustru	-10.1735
▁programleder	-10.1736
▁edward	-10.1738
asso	-10.1738
▁bøker	-10.1741
▁høsten	-10.1745
long	-10.1745
▁dominere	-10.1746
▁portrett	-10.1746
herre	-10.1746
listen	-10.1747
▁alltid	-10.1748
▁nederland	-10.1749
▁115	-10.175
▁hai	-10.175
▁hellig	-10.1753
kjøn	-10.1767
cast	-10.1771
▁motta	-10.1779
▁136	-10.1779
▁divisjon	-10.1779
▁kald	-10.1782
▁43	-10.1794
▁bygningen	-10.1795
▁skjær	-10.1805
▁opprettet	-10.1811
zio	-10.1827
▁holde	-10.1828
▁seier	-10.1832
cchi	-10.1851
▁psyko	-10.1851
tjenesten	-10.1856
pati	-10.1857
ни	-10.1857
▁sara	-10.1859
▁storbritannia	-10.186
▁debutalbum	-10.186
giovanni	-10.186
▁parlament	-10.186
▁relativ	-10.186
chel	-10.186
▁work	-10.1865
▁oscar	-10.1866
▁brev	-10.1874
▁fv	-10.188
▁høyere	-10.1892
▁strid	-10.1893
hamn	-10.1896
▁sikte	-10.1905
▁landsby	-10.1915
▁02	-10.1924
▁68	-10.1934
klipp	-10.1939
▁virksomhet	-10.195
ario	-10.1952
▁starter	-10.1964
▁kval	-10.1967
skilt	-10.1971
kunst	-10.1979
▁kjær	-10.198
px	-10.1981
forbindelse	-10.1981
▁opprinnelse	-10.1987
spørsmål	-10.1987
▁1977	-10.1987
▁arthur	-10.1987
▁berømt	-10.1987
kommando	-10.1988
▁dårlig	-10.1989
▁college	-10.1991
▁hente	-10.1991
arkiv	-10.1992
▁scott	-10.1998
▁lapp	-10.1999
▁bydelen	-10.2002
▁53	-10.2007
▁sende	-10.2009
▁underlag	-10.2011
▁fc	-10.2014
maker	-10.2017
ōng	-10.2018
▁scene	-10.2026
galleri	-10.2026
▁lån	-10.2028
▁84	-10.204
▁myk	-10.2046
▁sankt	-10.2047
sentre	-10.205
▁kaptein	-10.2053
ittisk	-10.2056
nagar	-10.2061
ми	-10.207
alitet	-10.2071
▁65	-10.2072
øvelse	-10.2077
merker	-10.2078
abili	-10.2082
forkortelse	-10.2082
▁tran	-10.2083
hand	-10.2087
fartøy	-10.2087
motiv	-10.2087
▁bunn	-10.2088
▁rosa	-10.2089
▁euro	-10.2106
fekt	-10.2108
lapp	-10.2113
orkester	-10.2113
forfatter	-10.2113
design	-10.2115
▁aleksandr	-10.2115
▁1982	-10.2115
▁oversettelse	-10.2115
strå	-10.2115
▁korn	-10.2117
▁økonomisk	-10.2121
▁town	-10.2121
▁forvaltnings	-10.2121
▁invest	-10.2124
vakt	-10.2127
icus	-10.2129
▁float	-10.2135
▁alex	-10.2136
▁130	-10.214
ugh	-10.2142
▁kjøl	-10.2145
data	-10.2151
vision	-10.2151
▁bydel	-10.2155
▁jud	-10.2158
bryter	-10.2159
▁edi	-10.2173
møll	-10.2173
▁eide	-10.2177
skaja	-10.2183
▁grim	-10.2192
▁kreve	-10.2194
▁run	-10.2195
▁116	-10.2209
▁markeds	-10.222
ân	-10.2225
▁140	-10.2235
▁parken	-10.2235
▁slå	-10.2237
▁hebraisk	-10.2245
▁yrkes	-10.2245
▁shar	-10.2245
▁brasil	-10.2247
ópolis	-10.2248
▁bedre	-10.2251
▁hjerne	-10.2257
▁marin	-10.2259
▁atom	-10.2266
▁gott	-10.2271
▁did	-10.2272
roman	-10.2276
▁opphav	-10.2287
▁utføre	-10.2293
▁mongol	-10.2294
ologen	-10.2295
▁lill	-10.2298
▁skjel	-10.2301
▁pho	-10.2301
▁bag	-10.2304
▁bidra	-10.2308
▁størrelse	-10.2315
▁rag	-10.2316
ovic	-10.2318
▁årene	-10.2321
▁kåre	-10.2332
▁gruve	-10.2333
▁festning	-10.2337
▁ash	-10.2342
▁126	-10.2346
▁kjøtt	-10.2352
▁ramm	-10.236
▁kub	-10.2361
setningen	-10.2363
ppel	-10.2364
▁penge	-10.2366
▁fløy	-10.2374
▁ray	-10.2374
▁dirigent	-10.2376
▁fremdeles	-10.2376
▁verb	-10.2376
▁valuta	-10.2377
▁semi	-10.2378
tidsskrift	-10.238
terminal	-10.2381
kontroll	-10.2382
▁omtalt	-10.2382
▁gjenopp	-10.2388
table	-10.2388
▁drev	-10.2389
▁raf	-10.239
▁cel	-10.2397
▁cm	-10.2403
avgift	-10.2404
▁intern	-10.2409
▁olaf	-10.2419
▁deles	-10.2421
▁jonas	-10.243
▁sä	-10.244
mara	-10.2448
▁indo	-10.2452
▁bly	-10.2453
▁arch	-10.2468
▁54	-10.2469
▁jakt	-10.2473
nntil	-10.2474
▁single	-10.2477
▁way	-10.2478
▁63	-10.2482
somme	-10.2483
▁fjellet	-10.2484
zel	-10.2498
▁solo	-10.2505
bukta	-10.2507
▁tyrkisk	-10.251
▁1983	-10.251
▁nabokommunen	-10.251
▁ungarsk	-10.251
▁eldste	-10.251
▁fjerde	-10.251
▁united	-10.251
▁forteller	-10.2513
▁josé	-10.2513
▁öst	-10.2514
▁pierre	-10.2514
terapi	-10.2517
▁brown	-10.2518
effekt	-10.252
▁skipet	-10.2521
tropp	-10.2522
strøk	-10.2523
blomsterflue	-10.2523
flo	-10.2524
apparat	-10.2526
▁gaten	-10.2536
brand	-10.254
▁motstand	-10.2541
mesterskapet	-10.2545
▁forbunds	-10.2547
▁vitenskapelig	-10.256
▁glu	-10.2569
▁skapt	-10.2579
▁thom	-10.2587
▁kjenn	-10.2592
stokk	-10.2596
▁øker	-10.2598
▁sup	-10.2606
illo	-10.2614
ordning	-10.2615
▁latinsk	-10.2617
▁interesse	-10.2626
▁francis	-10.2627
▁dd	-10.2633
iktig	-10.2644
▁hviterussisk	-10.2645
▁ishockey	-10.2645
▁produseres	-10.2645
▁1975	-10.2645
▁katolsk	-10.2645
worth	-10.2647
▁popul	-10.2653
▁144	-10.2656
▁drikke	-10.2656
▁reserve	-10.2657
▁flø	-10.2658
▁johnny	-10.2662
▁ernst	-10.2663
▁prakt	-10.2665
▁norman	-10.2667
visning	-10.267
▁bog	-10.2672
gift	-10.2676
behandling	-10.2677
▁snakke	-10.2681
▁hodet	-10.2691
ður	-10.2693
▁viktig	-10.2693
▁hyper	-10.2695
▁län	-10.2695
▁viking	-10.27
▁normal	-10.2718
ruter	-10.272
▁ledelse	-10.2724
▁vall	-10.273
▁wolf	-10.2745
▁leif	-10.2749
▁kli	-10.2756
▁abb	-10.2767
▁kvit	-10.277
▁forbinde	-10.278
maskiner	-10.278
▁støtter	-10.2781
▁bulgarsk	-10.2782
▁millioner	-10.2782
▁kjærlighet	-10.2783
dommer	-10.2783
▁islam	-10.2784
▁royal	-10.2784
▁stavanger	-10.2785
▁tibetansk	-10.2786
▁jordbruk	-10.279
rip	-10.28
▁ltd	-10.2809
skift	-10.2823
▁lunge	-10.2824
▁fotballklubb	-10.2827
grønn	-10.2831
▁show	-10.2834
▁skifte	-10.2844
▁morgen	-10.2854
brev	-10.2856
▁reid	-10.2865
▁05	-10.2868
▁117	-10.2871
▁laks	-10.2877
▁mö	-10.2878
já	-10.2889
▁filosof	-10.289
▁busk	-10.2892
▁jin	-10.2901
▁qa	-10.2907
serien	-10.2908
▁1974	-10.2921
▁musikal	-10.2922
▁ker	-10.2923
▁benevn	-10.2923
▁tolv	-10.2926
▁stadion	-10.2928
▁demningen	-10.2929
psykologi	-10.2931
▁innsjø	-10.2935
▁språket	-10.2935
▁sikkerhets	-10.2936
▁regjeringen	-10.2936
▁131	-10.2941
instrument	-10.2941
evitsj	-10.2954
▁sound	-10.2955
registr	-10.2956
▁føl	-10.2957
▁schi	-10.2958
▁77	-10.2958
ætt	-10.2961
bøker	-10.2968
▁102	-10.2968
▁utført	-10.2969
▁spillerne	-10.2976
▁aktivitet	-10.2977
▁struktur	-10.2981
▁korea	-10.2986
▁sesongen	-10.2994
nøtt	-10.2994
typer	-10.2998
▁kjemi	-10.3001
styrke	-10.3005
barn	-10.3007
▁104	-10.3019
▁kw	-10.3024
▁grunnlegger	-10.3024
▁hotell	-10.3031
▁medlemmene	-10.3047
▁demokrati	-10.3049
▁skar	-10.3052
▁science	-10.3061
▁1978	-10.3062
▁sjelden	-10.3062
▁ukjent	-10.3062
problemer	-10.3062
▁church	-10.3062
▁petersburg	-10.3062
▁nicola	-10.3062
▁sørvest	-10.3062
▁insekt	-10.3063
▁inndelt	-10.3064
leir	-10.3064
▁håkon	-10.3067
▁tegnet	-10.3078
plattform	-10.308
▁øyvin	-10.3085
konkurranse	-10.3086
dynastiet	-10.3086
hjelp	-10.3087
▁bibel	-10.3089
▁junior	-10.3094
pping	-10.3095
▁east	-10.3105
▁panser	-10.3107
▁grund	-10.3109
▁stift	-10.3115
▁maj	-10.3118
bekk	-10.3122
punktet	-10.3124
го	-10.3132
▁59	-10.3141
▁europeisk	-10.3143
▁kjemisk	-10.3147
▁118	-10.3151
klin	-10.3157
▁valgte	-10.3158
jå	-10.3159
▁yan	-10.3167
ated	-10.3168
valget	-10.3187
▁svak	-10.3203
▁vladimir	-10.3204
▁katedral	-10.3204
▁vulkan	-10.3204
▁1961	-10.3204
▁regissert	-10.3205
pasient	-10.3208
▁what	-10.3209
▁hendelse	-10.321
▁internett	-10.3211
▁blank	-10.3213
▁ulv	-10.3213
magn	-10.3219
institutt	-10.3222
▁than	-10.323
▁kvinner	-10.3235
icul	-10.3248
▁legge	-10.3249
▁tradisjonel	-10.3253
▁heart	-10.3253
▁liberal	-10.3259
▁93	-10.3269
▁vokalist	-10.3272
▁lj	-10.3276
type	-10.3283
bekken	-10.3305
▁disc	-10.3307
▁51	-10.3313
▁spring	-10.3315
offiser	-10.3321
▁salg	-10.333
▁water	-10.333
graph	-10.3334
▁nevro	-10.3346
nytt	-10.3348
▁electric	-10.3349
▁sanskrit	-10.3349
▁bakkroppen	-10.3349
▁vokste	-10.3351
▁ønske	-10.3353
undersøkelse	-10.3356
▁høg	-10.3359
▁1950	-10.336
▁eksempelvis	-10.3365
tvedt	-10.3367
▁141	-10.3371
▁magnet	-10.3391
▁frode	-10.3402
▁malm	-10.3403
▁prins	-10.342
spiss	-10.3426
ddy	-10.3432
inndeling	-10.3443
▁utvalg	-10.3444
▁sørlig	-10.3451
▁mul	-10.3473
isse	-10.3489
gutt	-10.3492
ekspedisjon	-10.3496
▁arrangør	-10.3496
▁1991	-10.3496
▁padding	-10.3497
▁møtte	-10.3501
▁flagg	-10.3502
klassi	-10.3503
▁luther	-10.3519
▁bakover	-10.352
▁oppdrag	-10.3532
miljø	-10.3534
▁kvin	-10.3539
▁saga	-10.3545
▁young	-10.3546
▁04	-10.3547
▁hypo	-10.3549
▁hval	-10.355
▁bratt	-10.3551
▁night	-10.3552
▁regel	-10.3568
▁101	-10.3569
▁terra	-10.357
▁96	-10.3581
dommen	-10.3583
▁bau	-10.3631
▁krav	-10.3636
løytnant	-10.3646
▁1972	-10.3646
▁1976	-10.3646
▁1985	-10.3646
▁beijing	-10.3646
▁studio	-10.3646
▁hjort	-10.3647
▁stefan	-10.3649
▁telefon	-10.365
strategi	-10.3651
▁eksport	-10.3653
▁stadium	-10.3654
▁sverd	-10.3658
▁planten	-10.3662
løyp	-10.3666
▁bjerk	-10.3666
▁urdu	-10.3666
▁dvs	-10.3674
▁fritz	-10.3678
▁anderson	-10.3683
▁paris	-10.3685
bevegelse	-10.3688
▁johnson	-10.3696
▁present	-10.3702
▁arrangeres	-10.3715
▁call	-10.3716
linjer	-10.3718
gru	-10.3723
▁porto	-10.3733
▁frp	-10.374
back	-10.3741
▁kirk	-10.3751
gni	-10.3759
hopp	-10.3765
polis	-10.378
▁49	-10.3786
▁vic	-10.3786
pleie	-10.3794
▁fader	-10.3794
▁yizhi	-10.3797
▁fiktiv	-10.3797
▁95	-10.3798
▁forårsake	-10.3798
hastighet	-10.3798
prest	-10.3803
register	-10.3803
▁techn	-10.3806
▁straffe	-10.3806
▁jacobsen	-10.3812
våk	-10.3817
ship	-10.3818
▁rö	-10.3818
▁sendt	-10.3825
▁rulle	-10.3832
ruten	-10.3833
▁dannes	-10.3839
▁nordisk	-10.3839
▁56	-10.3847
aux	-10.3848
▁tony	-10.3852
▁good	-10.3856
▁irsk	-10.3857
▁skall	-10.3857
▁bryn	-10.3863
▁falk	-10.3871
▁bow	-10.3885
vendt	-10.3888
▁offisiel	-10.3891
▁cul	-10.3895
▁metro	-10.3896
▁134	-10.3908
▁125	-10.3909
▁driv	-10.3925
grå	-10.3937
gui	-10.3939
▁amerika	-10.3951
▁heinrich	-10.3951
▁fiolin	-10.3951
▁avslutte	-10.3953
▁josef	-10.3953
▁archive	-10.3953
▁fått	-10.3958
▁drept	-10.3959
▁røyk	-10.3963
▁137	-10.3965
zú	-10.3966
▁franz	-10.3967
▁muskel	-10.3968
▁måne	-10.3969
▁toll	-10.3972
cup	-10.3972
▁poli	-10.3986
regionen	-10.4003
zzo	-10.4014
▁alfa	-10.4015
▁kär	-10.4029
▁hjemmebane	-10.403
▁119	-10.4033
▁fritt	-10.4037
▁kommun	-10.4039
▁dà	-10.4043
fast	-10.4045
▁ungdom	-10.4047
▁87	-10.4048
biblioteket	-10.405
▁svan	-10.4097
▁rav	-10.4101
▁108	-10.4105
▁profesjonell	-10.4107
▁rudolf	-10.4107
▁tilgjengelig	-10.4107
▁tusenårssted	-10.4107
▁dekkvingene	-10.4107
▁fødsel	-10.4107
▁kristoffer	-10.4107
▁fattig	-10.4107
▁support	-10.4108
kontrakt	-10.4108
▁protein	-10.4109
▁golf	-10.4109
▁linux	-10.4109
▁ridder	-10.411
▁nkp	-10.4111
▁omfattende	-10.4111
▁styreleder	-10.4111
▁norway	-10.4114
faktor	-10.4118
▁aka	-10.4121
kysten	-10.4126
▁135	-10.4135
▁08	-10.4139
▁proto	-10.4143
lândia	-10.4148
▁legend	-10.4151
▁stabil	-10.4153
hånd	-10.4163
fabrik	-10.4164
redaktør	-10.4164
▁smak	-10.417
språklig	-10.4172
høgskole	-10.4173
quist	-10.4174
▁99	-10.4176
▁jury	-10.4178
▁trolig	-10.4183
▁samisk	-10.4184
▁intel	-10.4192
kall	-10.4205
▁ansvar	-10.4216
ин	-10.4219
iansk	-10.4224
▁krok	-10.4227
▁aud	-10.4232
▁ej	-10.4233
▁bosetning	-10.4244
▁skyld	-10.4248
▁glad	-10.4249
dekk	-10.4257
▁høst	-10.4263
▁christopher	-10.4266
▁sistnevnte	-10.4266
▁skulptur	-10.4266
▁pradesh	-10.4266
▁trygve	-10.4266
▁1981	-10.4266
▁sykkel	-10.4266
▁spesiell	-10.4266
▁etterfølger	-10.4266
▁yngre	-10.4267
▁karin	-10.4267
▁midgard	-10.4267
mønster	-10.4269
▁anvende	-10.4272
▁forvingen	-10.4275
▁romersk	-10.4276
stikker	-10.4278
▁uttalt	-10.4278
▁illustr	-10.4281
▁llc	-10.4282
▁stru	-10.4288
▁reaksjon	-10.4289
▁07	-10.4291
▁juan	-10.4292
▁brian	-10.4296
▁aksje	-10.4296
chang	-10.4314
owski	-10.4317
▁143	-10.4319
▁modern	-10.4321
forsvar	-10.4328
▁novo	-10.4332
markedet	-10.4348
▁reform	-10.4351
▁plassert	-10.4361
▁mä	-10.439
halvøya	-10.4399
▁142	-10.4403
▁72	-10.4407
årig	-10.4414
▁mega	-10.4418
υ	-10.4426
ская	-10.4427
▁brenselstype	-10.4427
▁etterfulgt	-10.4427
▁tilskuere	-10.4427
frekvens	-10.4427
regissør	-10.4428
▁global	-10.4429
hest	-10.443
kapital	-10.4433
▁1964	-10.4433
▁sørøst	-10.4437
▁skytter	-10.4443
▁asbjørn	-10.4446
▁kaffe	-10.4447
▁puppe	-10.4447
▁hindi	-10.446
▁eb	-10.4467
▁serra	-10.4471
▁bære	-10.4482
▁orient	-10.4489
▁castel	-10.4491
bæk	-10.4493
▁113	-10.4493
▁ekstra	-10.4501
mission	-10.4501
▁plo	-10.4502
▁inneha	-10.4503
▁nød	-10.4509
bunn	-10.4516
▁england	-10.4526
guan	-10.4532
gått	-10.4547
▁four	-10.4551
▁krog	-10.4561
sikkerhet	-10.4574
▁omhandle	-10.4576
krem	-10.4582
konstruksjon	-10.4591
▁begynner	-10.4591
▁1971	-10.4591
▁1954	-10.4591
▁eventyr	-10.4592
▁2018	-10.4596
▁bensin	-10.46
▁hamar	-10.4605
▁øystein	-10.461
▁eriksen	-10.4625
▁arkitektur	-10.4627
kritiker	-10.463
▁wild	-10.4636
cross	-10.4637
▁sym	-10.4638
▁jeff	-10.4644
samband	-10.4646
strakt	-10.4653
▁400	-10.4657
strømmen	-10.4657
▁solberg	-10.4662
døgnfluer	-10.4662
kasse	-10.4664
transport	-10.4664
▁chem	-10.4665
drakt	-10.4673
time	-10.4685
▁wind	-10.4691
wall	-10.4696
▁reich	-10.4701
fordeling	-10.4702
▁600	-10.4702
▁78	-10.4717
▁69	-10.4719
ли	-10.4727
▁munk	-10.4728
dokument	-10.4731
veps	-10.4741
▁ørn	-10.4745
▁public	-10.4758
▁ytterligere	-10.4758
▁positiv	-10.4758
▁alkohol	-10.4758
▁1965	-10.4758
▁moskva	-10.4758
pedagog	-10.4758
▁terror	-10.476
▁stortings	-10.476
kommisjon	-10.4764
▁møller	-10.4764
▁1970	-10.4765
▁66	-10.4765
▁fungere	-10.477
▁oppnå	-10.4773
▁lansert	-10.4773
marked	-10.478
▁street	-10.4783
▁smør	-10.4787
▁slip	-10.4793
abad	-10.4802
▁robin	-10.4826
akademi	-10.4837
▁bredd	-10.4866
▁124	-10.4867
▁krim	-10.4871
▁aksel	-10.4871
▁elias	-10.4871
▁linn	-10.4887
▁tell	-10.489
▁høi	-10.4896
sammenheng	-10.4903
▁300	-10.492
▁sving	-10.4921
▁naturreservat	-10.4927
▁sjeldne	-10.4927
▁1967	-10.4927
▁adolf	-10.4928
▁central	-10.4928
▁tidsskriftet	-10.493
▁undervisning	-10.4943
▁china	-10.4948
▁fyrste	-10.4953
▁67	-10.4956
▁crist	-10.4958
▁organisert	-10.4967
buch	-10.4968
ugle	-10.4972
inntekt	-10.4973
▁johnsen	-10.4985
▁klein	-10.4985
но	-10.4995
▁hotel	-10.5007
▁bodde	-10.5014
xiang	-10.5015
▁sesong	-10.5016
kunstner	-10.5024
▁homo	-10.5038
▁92	-10.5044
▁markert	-10.505
▁76	-10.5062
versjon	-10.5063
▁symboliser	-10.5071
▁color	-10.5078
kommen	-10.5085
▁nederlandsk	-10.5086
▁københavn	-10.51
▁publikum	-10.51
▁symptom	-10.51
▁australia	-10.51
▁systematikk	-10.51
▁østerrike	-10.51
▁redusere	-10.5101
▁igjennom	-10.5101
▁elektronisk	-10.5102
▁ingrid	-10.5103
▁nattfly	-10.5103
▁bundes	-10.5104
▁høyesterett	-10.511
▁meyer	-10.5112
▁miao	-10.5112
▁dokumenter	-10.5112
respon	-10.5113
beskrivelse	-10.5117
▁ledende	-10.5119
tromme	-10.5122
▁lengst	-10.513
fløyte	-10.5132
▁first	-10.5134
▁kommunal	-10.5158
parten	-10.517
▁barra	-10.5173
bregne	-10.5178
▁koloni	-10.5181
▁henning	-10.5185
▁kunde	-10.5202
▁skarp	-10.5207
view	-10.5215
▁71	-10.5217
▁baby	-10.5218
▁petro	-10.5247
▁plast	-10.5247
▁melke	-10.5265
biologi	-10.5267
▁bryggeri	-10.5275
▁1962	-10.5275
▁1955	-10.5275
▁tegneserie	-10.5275
ensemble	-10.5276
▁mekanisk	-10.5276
▁serbisk	-10.5276
veksling	-10.5276
▁hvilke	-10.5276
▁kobber	-10.5276
▁skjedde	-10.5278
stipend	-10.5279
palasset	-10.5279
▁werner	-10.5281
▁telemark	-10.5281
▁hvordan	-10.5287
▁hamburg	-10.5289
▁veldig	-10.529
▁vinnerlag	-10.5292
▁klatre	-10.5295
▁donau	-10.5303
▁operere	-10.5306
▁ferge	-10.5312
stripe	-10.5316
finalen	-10.5321
▁orgel	-10.5333
schaft	-10.5338
▁skaper	-10.5361
veggen	-10.5375
▁øke	-10.5377
bølge	-10.5384
fylt	-10.5405
drevet	-10.5408
▁tsjekkisk	-10.5454
▁ludvig	-10.5454
▁1969	-10.5454
▁1956	-10.5454
▁terreng	-10.5454
▁innskriften	-10.5454
▁skotsk	-10.5457
ibn	-10.5462
▁tommy	-10.5464
▁alban	-10.5466
▁down	-10.5474
▁manuel	-10.548
▁when	-10.5481
artikkel	-10.5481
laid	-10.5483
▁innført	-10.5495
▁03	-10.5498
▁grønland	-10.5499
hausen	-10.5499
▁philip	-10.5504
▁måned	-10.5508
bytte	-10.5521
▁138	-10.5537
skriver	-10.5543
styrken	-10.5552
struktur	-10.5557
aften	-10.5581
▁111	-10.5631
▁keyboard	-10.5635
▁revolusjon	-10.5635
▁sannsynlig	-10.5635
▁1963	-10.5636
▁1973	-10.5636
▁evangeli	-10.5636
▁generelt	-10.5636
betennelse	-10.5636
▁edvard	-10.5636
▁people	-10.5636
▁senior	-10.5637
elementer	-10.5637
▁generalsekretær	-10.5638
▁bakgrunn	-10.5641
▁mytologi	-10.5642
▁circ	-10.5646
▁francesc	-10.5646
▁protest	-10.5647
▁106	-10.567
▁kapp	-10.5673
bukk	-10.5676
▁integr	-10.5678
▁hekk	-10.5684
assa	-10.5684
vík	-10.57
støtte	-10.5728
▁dyrke	-10.573
stock	-10.5737
departement	-10.5748
▁nådd	-10.5751
▁gross	-10.5757
▁utnevnt	-10.577
▁drei	-10.5775
▁utenriks	-10.5783
glia	-10.5807
▁vingene	-10.5809
▁grø	-10.5821
▁fullstendig	-10.5821
▁studioalbum	-10.5821
▁guvernør	-10.5821
▁passasjer	-10.5821
▁foregår	-10.5821
▁inspirert	-10.5821
▁lørdag	-10.5821
▁således	-10.5821
▁komme	-10.5822
▁vanskelig	-10.5823
▁fremstille	-10.5829
▁francisco	-10.5829
▁novell	-10.5829
▁komposisjon	-10.5829
▁øks	-10.5829
▁bydistrikt	-10.5831
▁114	-10.5839
▁gjeld	-10.5848
▁diesel	-10.5848
▁söd	-10.5857
duct	-10.5869
tavle	-10.5872
blanding	-10.5873
▁domini	-10.5877
ий	-10.588
skade	-10.5883
▁singel	-10.5885
sjön	-10.589
knapp	-10.5893
utvalget	-10.5901
▁vidar	-10.5903
▁trø	-10.5912
▁bønn	-10.5922
høyden	-10.5938
aktivitet	-10.5941
vitenskapelig	-10.5943
ović	-10.5944
front	-10.5946
kompani	-10.595
ди	-10.5958
toft	-10.5967
tjern	-10.5976
▁observa	-10.598
pakk	-10.5996
▁religiøs	-10.6009
sentralbanksjef	-10.6009
▁godkjent	-10.6009
▁suksess	-10.6009
▁1966	-10.6009
▁1952	-10.6009
kapasitet	-10.601
▁thailand	-10.601
▁ragnar	-10.601
▁redusert	-10.601
▁prinsesse	-10.6011
▁registrert	-10.6012
▁ansatte	-10.6014
▁varianter	-10.6015
▁kallenavn	-10.6015
▁1960	-10.6019
▁jackson	-10.6023
▁poeng	-10.6027
▁utløp	-10.6027
▁hersker	-10.6028
▁ungdomsskole	-10.6028
▁fuji	-10.6037
variant	-10.6037
▁vandre	-10.6038
▁innsats	-10.6048
terrier	-10.6049
regiment	-10.6111
døgnflue	-10.6112
divisjon	-10.6134
setting	-10.6155
▁tusen	-10.616
▁regjer	-10.6165
ucci	-10.6171
kså	-10.6172
▁112	-10.6182
▁individ	-10.6202
▁ukraina	-10.6202
▁oppdatert	-10.6202
▁kjennetegn	-10.6202
▁natrium	-10.6202
kompetanse	-10.6202
▁fortsetter	-10.6202
▁special	-10.6202
älven	-10.6202
▁bjarne	-10.6202
▁bitumen	-10.6202
rådgiver	-10.6203
gjennomsnitt	-10.6203
▁foretrekke	-10.6209
bebyggelse	-10.6214
▁tibet	-10.6216
førsel	-10.6216
▁pistol	-10.6221
▁nevner	-10.6225
▁lasse	-10.6231
▁1900	-10.6231
stiftelse	-10.6233
▁statlig	-10.6235
styring	-10.6242
filosofi	-10.6245
▁silver	-10.6252
distanse	-10.6252
▁kongelig	-10.6259
▁tynn	-10.6262
▁other	-10.6265
▁islandsk	-10.6281
▁06	-10.6281
sidig	-10.6281
▁lamb	-10.6331
arkitekt	-10.6335
▁pip	-10.6374
▁søke	-10.6375
▁victor	-10.6383
grensen	-10.6384
ifikasjon	-10.6385
wich	-10.6389
▁jesuitt	-10.6398
▁mercedes	-10.6398
▁millimeter	-10.6398
▁washington	-10.6398
▁selvstendig	-10.6398
▁vunnet	-10.6398
▁1945	-10.6398
järvi	-10.6399
▁regulere	-10.6399
▁micro	-10.6399
▁arbeiderpartiet	-10.6401
▁nasjonalsang	-10.6402
▁embets	-10.6403
▁font	-10.6404
▁plateselskap	-10.6408
▁arvid	-10.641
▁dream	-10.6415
▁european	-10.642
▁kreert	-10.6425
eksamen	-10.6426
▁blind	-10.6439
▁arab	-10.644
▁automatisk	-10.6446
ghi	-10.6459
▁aero	-10.6478
flik	-10.6485
sypress	-10.6499
▁poll	-10.6502
spesifik	-10.6505
frukt	-10.6539
▁overflate	-10.6543
▁journal	-10.6543
▁philipp	-10.6545
▁91	-10.6548
▁kalv	-10.6583
forvaltning	-10.6588
blikk	-10.6593
▁orchestra	-10.6598
▁etterhvert	-10.6598
▁nikolaj	-10.6598
▁jacque	-10.6598
▁1959	-10.6598
▁kenneth	-10.6598
▁1957	-10.6598
kombinasjon	-10.6598
▁krydder	-10.6598
▁hjørne	-10.6598
kjøkken	-10.6598
▁komponert	-10.6598
▁fysisk	-10.6599
▁kontakt	-10.66
▁bløt	-10.66
▁fjernsyn	-10.66
▁fuktig	-10.6601
profil	-10.6601
kreps	-10.6604
▁hovedartikkel	-10.6605
▁leonard	-10.6606
▁margret	-10.6606
teater	-10.6607
▁astronom	-10.6611
▁varianten	-10.6612
▁ørken	-10.6612
produkt	-10.6618
givende	-10.662
▁samuel	-10.6622
▁skiller	-10.663
▁herfra	-10.6635
▁german	-10.6638
fysikk	-10.6647
▁61	-10.6654
▁visse	-10.6699
▁kvinnelig	-10.6705
fylke	-10.675
sentrum	-10.6755
kjerne	-10.679
▁kö	-10.6798
▁łód	-10.6802
▁litauisk	-10.6802
▁1951	-10.6802
▁1939	-10.6802
▁1953	-10.6802
▁svovel	-10.6802
leksikon	-10.6802
▁trompet	-10.6802
▁communi	-10.6802
▁alexandr	-10.6803
▁regelmessig	-10.6803
▁tørke	-10.6804
▁gråbrun	-10.6804
▁koreansk	-10.6804
▁claudi	-10.6804
rommet	-10.6805
▁spirit	-10.6806
betjent	-10.6807
▁medisinsk	-10.6807
▁axel	-10.6809
▁håndball	-10.6809
▁finnmark	-10.6809
▁viktor	-10.6814
▁snu	-10.6816
▁formula	-10.682
▁sammenlagt	-10.6821
▁moore	-10.6821
festival	-10.6824
▁report	-10.6825
▁gjennomført	-10.6827
▁johannessen	-10.6828
▁121	-10.6829
▁karakteristisk	-10.6832
▁forvalte	-10.6836
ière	-10.6841
▁barneskole	-10.6852
rykket	-10.6874
sentral	-10.6965
▁kill	-10.6965
duksjon	-10.6966
cycl	-10.6968
▁1000	-10.6999
▁aftenposten	-10.701
▁jomfru	-10.701
▁norwegian	-10.701
▁sebastian	-10.701
▁vedlikehold	-10.701
▁umiddelbar	-10.701
▁pattedyr	-10.701
▁utmerkelse	-10.701
▁symfoni	-10.701
skilpadde	-10.701
▁windows	-10.701
▁syndrom	-10.701
▁tvilling	-10.701
admiral	-10.701
▁oppstår	-10.7011
▁eventuel	-10.7011
▁stortinget	-10.7011
▁margaret	-10.7011
▁sergej	-10.7011
▁luigi	-10.7011
▁virgin	-10.7011
klub	-10.7012
▁diverse	-10.7013
▁bedrifts	-10.7015
▁direct	-10.7016
▁snart	-10.7024
▁barnehage	-10.7026
▁nepal	-10.7026
▁victoria	-10.7032
▁eirik	-10.7033
verktøy	-10.7036
▁susan	-10.7038
struct	-10.7042
▁ødelegge	-10.7045
▁utnytte	-10.705
fiber	-10.7051
redskap	-10.7074
▁81	-10.7087
lilje	-10.7088
▁europe	-10.7096
lengde	-10.7099
opera	-10.7126
▁blanc	-10.7137
forestilling	-10.7141
presse	-10.7153
▁kompleks	-10.7158
▁automat	-10.718
provins	-10.7181
stemte	-10.7214
republikk	-10.7215
bahn	-10.7216
stamme	-10.7217
▁hytte	-10.7222
▁vietnam	-10.7223
▁aleksander	-10.7223
▁münchen	-10.7223
forstyrrelse	-10.7223
▁douglas	-10.7223
▁ferskvann	-10.7223
▁kollektiv	-10.7223
▁kapittel	-10.7223
▁petroleum	-10.7223
▁asteroide	-10.7223
lokomotiv	-10.7223
▁kommentar	-10.7223
▁prince	-10.7223
▁zhang	-10.7223
ław	-10.7224
▁disney	-10.7224
▁definert	-10.7224
bestemmelse	-10.7229
▁import	-10.7229
▁stiftelsen	-10.723
▁division	-10.7234
orientert	-10.7235
▁moll	-10.7236
vytsj	-10.7236
straße	-10.7237
▁biografi	-10.7237
▁pepper	-10.7245
▁isteden	-10.7251
▁sosialistisk	-10.7254
▁bodø	-10.7256
▁hugh	-10.7266
▁angir	-10.7275
▁astro	-10.7278
▁bestemt	-10.7284
▁miste	-10.7308
hytta	-10.7313
▁vend	-10.7322
▁jøde	-10.733
▁oberst	-10.7342
▁gitarist	-10.7394
▁association	-10.744
▁ludwig	-10.744
▁valgdeltakelse	-10.744
▁sykepleie	-10.744
▁abraham	-10.744
▁capital	-10.7441
▁kritikk	-10.7441
▁detroit	-10.7441
▁beregne	-10.7441
▁tromsø	-10.7441
▁stephen	-10.7441
▁embeds	-10.7441
▁fjeld	-10.7441
rettigheter	-10.7442
▁spredt	-10.7443
▁airport	-10.7444
▁videregående	-10.7444
▁tropisk	-10.7444
▁nyhets	-10.7444
▁kanskje	-10.7444
▁beholdt	-10.7446
▁ekteskap	-10.7446
▁space	-10.7448
▁mohamm	-10.7451
▁command	-10.7451
forsikring	-10.7454
▁patrick	-10.7466
qiao	-10.7466
▁forsterke	-10.7472
skyting	-10.7474
▁feire	-10.748
▁skrå	-10.7487
▁slange	-10.7494
▁sovjetisk	-10.7508
ablo	-10.7518
▁karbon	-10.752
▁place	-10.7542
▁beskrive	-10.7552
▁dukke	-10.756
modellen	-10.7583
▁forklare	-10.7599
torget	-10.7622
historisk	-10.7627
ansvarlig	-10.7627
kirche	-10.7635
melding	-10.7643
▁nevnt	-10.7656
▁elizabeth	-10.7663
▁kontinental	-10.7663
▁lawrence	-10.7663
▁vilhelm	-10.7663
▁halvorsen	-10.7663
▁konstantin	-10.7663
▁1924	-10.7663
▁1934	-10.7663
▁grunnkretsen	-10.7663
▁registrering	-10.7663
▁innspilling	-10.7663
▁psych	-10.7663
zhuang	-10.7663
▁ungarn	-10.7663
▁oppdaget	-10.7664
▁alvorlig	-10.7664
▁kriminal	-10.7664
▁krystall	-10.7664
▁partner	-10.7665
▁bernhard	-10.7665
▁lewis	-10.7665
▁borgermester	-10.7665
▁abdul	-10.7665
▁wolfgang	-10.7666
▁sørensen	-10.7667
▁sykdommen	-10.7671
▁kjæreste	-10.7673
▁1919	-10.7674
▁hormon	-10.7675
avtale	-10.7677
▁kjetil	-10.7677
▁midtbane	-10.7686
fatning	-10.7686
kostnad	-10.7688
svermer	-10.7694
reise	-10.7697
▁nettsted	-10.7698
▁administrasjon	-10.7701
ground	-10.7707
familie	-10.7746
▁alpinist	-10.7749
från	-10.7766
kjøl	-10.7775
politi	-10.7796
uniform	-10.7818
sekund	-10.7861
▁gudinne	-10.7878
▁færøysk	-10.789
▁trommeslager	-10.789
▁øivind	-10.789
▁corporation	-10.789
▁forøvrig	-10.789
▁management	-10.789
▁symphon	-10.789
▁1904	-10.789
▁taylor	-10.789
▁1948	-10.789
▁vietnamesisk	-10.789
▁hyppig	-10.789
▁ålesund	-10.789
▁eivind	-10.789
▁opplysning	-10.789
▁væske	-10.789
▁kristiansand	-10.789
▁doktorgrad	-10.7891
▁antenner	-10.7891
▁theodor	-10.7891
▁ansikt	-10.7891
sylindre	-10.7891
▁funnstede	-10.7892
jīng	-10.7893
▁akutt	-10.7893
▁boston	-10.7897
▁partileder	-10.7902
▁detalj	-10.7902
▁short	-10.7906
guard	-10.7907
tilpasset	-10.791
▁mulighet	-10.7932
overflaten	-10.7954
seksjon	-10.7977
gnano	-10.8004
▁datterselskap	-10.8019
▁hovedrollen	-10.802
▁sammenligne	-10.8056
balanse	-10.8072
▁result	-10.808
▁kommunistisk	-10.8085
mongolsk	-10.8091
størrelse	-10.8097
sykdom	-10.8113
forretning	-10.8121
administra	-10.8122
▁hovedkvarter	-10.8122
▁innflytelse	-10.8122
▁manuskript	-10.8122
▁noctuidae	-10.8122
▁henholdsvi	-10.8122
▁tønsberg	-10.8122
▁håvard	-10.8122
▁hverandre	-10.8122
▁1942	-10.8123
▁amatør	-10.8123
▁charlotte	-10.8123
▁fernand	-10.8123
▁flerårig	-10.8123
▁brønn	-10.8123
▁nøkkel	-10.8123
sekvens	-10.8123
▁valentin	-10.8123
ński	-10.8124
▁christensen	-10.8124
situasjon	-10.8124
▁apotek	-10.8125
▁nestleder	-10.8126
▁skjønn	-10.8129
▁1929	-10.8129
▁turneringen	-10.813
▁monark	-10.8133
▁1920	-10.8138
▁henriksen	-10.8142
forsyning	-10.8168
▁earl	-10.819
▁kommunist	-10.8202
▁cooper	-10.8218
▁baksid	-10.8236
derav	-10.8257
foretak	-10.828
konsert	-10.8345
▁brødrene	-10.836
▁frankfurt	-10.836
▁buddhist	-10.836
▁kilometer	-10.836
▁konkurrere	-10.836
▁innbyggerne	-10.836
▁skottland	-10.8361
▁litauen	-10.8361
▁1928	-10.8361
▁betrakte	-10.8361
▁uigur	-10.8361
▁negativ	-10.8361
▁finskspråklig	-10.8362
▁where	-10.8362
feksjon	-10.8363
▁ulykke	-10.8366
▁two	-10.8367
▁lokalisert	-10.8371
▁diplomat	-10.8382
▁yngv	-10.8386
oversikt	-10.8395
hvelv	-10.8431
grunnlag	-10.8472
ribbe	-10.8477
▁equ	-10.8481
▁verdensmester	-10.8483
munn	-10.8487
▁flyselskap	-10.8499
satsen	-10.8516
vennlig	-10.855
▁afghanistan	-10.8604
▁ferdinand	-10.8604
▁langrennsløper	-10.8604
▁republika	-10.8604
▁vennskapsbyer	-10.8604
konservativ	-10.8604
▁business	-10.8604
▁skøyteløper	-10.8604
▁kennedy	-10.8604
▁pakistan	-10.8604
▁frazioni	-10.8604
▁chicago	-10.8604
▁1906	-10.8604
▁geometri	-10.8604
▁1946	-10.8605
▁1947	-10.8605
▁fenomen	-10.8605
▁ekstrem	-10.8605
▁forbedre	-10.8605
▁valutakode	-10.8605
▁raymond	-10.8605
▁haakon	-10.8605
▁grün	-10.8605
komité	-10.8606
▁nærmere	-10.8606
▁about	-10.8606
▁bærum	-10.8606
ledelse	-10.8609
▁1911	-10.8615
gjald	-10.8616
▁forbruker	-10.8616
▁xiao	-10.8617
▁1930	-10.8619
metoder	-10.8622
▁smalt	-10.8625
▁pall	-10.8626
▁icao	-10.8637
▁effektiv	-10.864
rrow	-10.8649
▁maritim	-10.866
▁fasci	-10.8669
▁befinne	-10.8707
▁vurder	-10.8741
▁grunnlov	-10.8772
▁grotte	-10.8792
▁skei	-10.8808
▁glatt	-10.8814
▁mangle	-10.883
ń	-10.8853
instruktør	-10.8854
publikasjon	-10.8854
ский	-10.8854
▁california	-10.8854
▁microsoft	-10.8854
▁favoritt	-10.8854
opplæring	-10.8854
▁innebærer	-10.8854
▁tyrkia	-10.8854
▁hybrid	-10.8854
▁project	-10.8854
▁xinjiang	-10.8854
▁1908	-10.8854
▁amundsen	-10.8854
▁1936	-10.8855
▁ovenfor	-10.8855
▁könig	-10.8855
▁1896	-10.8855
▁cirka	-10.8855
▁astrid	-10.8856
▁hertug	-10.8857
▁kråk	-10.8857
▁opptrer	-10.8857
trukket	-10.8857
▁risiko	-10.8858
▁frihets	-10.8858
▁programvare	-10.8858
▁ronald	-10.8858
▁litterær	-10.8859
▁trenger	-10.8863
▁søndr	-10.8864
▁1912	-10.8865
açu	-10.8867
▁avgrense	-10.8872
syklist	-10.8875
knopp	-10.8969
tagelse	-10.8973
▁varemerke	-10.8974
▁henrette	-10.8983
treff	-10.8995
resultatene	-10.9007
▁tolk	-10.9033
mottak	-10.9042
▁styremedlem	-10.9063
нов	-10.9072
▁forskjellig	-10.9089
▁aluminium	-10.9111
▁ortodoks	-10.9111
▁philadelphia	-10.9111
▁research	-10.9111
▁utelukkende	-10.9111
▁vingespenn	-10.9111
disiplin	-10.9111
▁ragnhild	-10.9111
▁tilsluttet	-10.9111
▁benjamin	-10.9111
▁synonym	-10.9111
▁piauí	-10.9111
▁nordsamisk	-10.9111
▁utbredt	-10.9111
▁absolut	-10.9111
▁colombia	-10.9111
▁kombinert	-10.9111
▁1949	-10.9111
▁1958	-10.9111
protokoll	-10.9111
▁1944	-10.9111
▁okkup	-10.9111
▁søndag	-10.9111
▁immun	-10.9112
▁storkommunen	-10.9112
▁über	-10.9112
løshet	-10.9113
▁control	-10.9114
▁fjellkjede	-10.9115
▁1915	-10.912
▁stryk	-10.9122
▁krevd	-10.9123
ferdighet	-10.914
▁nøtte	-10.9141
kalender	-10.915
▁ballett	-10.9163
▁grunnlegge	-10.9201
pumpe	-10.9286
måke	-10.9315
▁omfatte	-10.9355
gymnas	-10.9371
▁frilufts	-10.9374
▁sarpsborg	-10.9374
kommanderende	-10.9374
▁lillehammer	-10.9374
▁århundre	-10.9374
▁doktor	-10.9374
▁html	-10.9374
▁schwarz	-10.9374
▁1905	-10.9374
▁reklame	-10.9374
osfæren	-10.9374
▁konflikt	-10.9374
▁cappelen	-10.9374
leverandør	-10.9374
▁jødisk	-10.9375
▁sandefjord	-10.9375
▁stephan	-10.9375
assistent	-10.9375
mønstre	-10.9376
▁søvn	-10.9378
▁gerhard	-10.9378
köping	-10.9378
føderasjon	-10.9378
mouth	-10.9379
▁sissel	-10.9379
▁trasé	-10.938
gericht	-10.938
qvist	-10.938
▁donald	-10.938
europeisk	-10.938
▁anthon	-10.9381
▁columb	-10.9385
▁flåte	-10.9401
▁spyd	-10.9401
▁arrest	-10.9403
dyktig	-10.9407
sykling	-10.9415
▁hvile	-10.9459
▁overføre	-10.9496
sæter	-10.9536
karbonat	-10.9554
▁frels	-10.9561
optera	-10.9577
inspektør	-10.9644
▁infanteri	-10.9644
▁inskripsjon	-10.9644
▁mountain	-10.9644
▁portugisisk	-10.9644
▁gråhvit	-10.9644
▁keramikk	-10.9644
▁østerriksk	-10.9644
▁respekt	-10.9644
▁zhōng	-10.9644
rådgivning	-10.9644
▁frederick	-10.9644
▁1937	-10.9644
▁1925	-10.9644
▁parallell	-10.9644
▁wylie	-10.9644
▁fantasy	-10.9645
▁nedbør	-10.9645
▁1899	-10.9645
▁generasjon	-10.9645
komponent	-10.9645
ου	-10.9646
artilleri	-10.9646
▁mikael	-10.9646
▁sibir	-10.9646
▁sannhet	-10.9647
▁bomull	-10.9647
▁barnebarn	-10.9647
▁marianne	-10.9647
▁seinere	-10.9647
▁taiwan	-10.9647
▁tilsammen	-10.9647
▁arnold	-10.9648
▁dvd	-10.9651
▁nederst	-10.9655
jernbane	-10.9661
▁pryd	-10.9664
▁delstats	-10.9668
▁smitte	-10.9693
utenriksminister	-10.97
croi	-10.9702
▁plantefamilie	-10.9726
fogd	-10.9734
trygd	-10.9736
følelse	-10.9822
børste	-10.9825
vassdraget	-10.9922
▁barcelona	-10.9922
▁entertainment	-10.9922
▁psykiatri	-10.9922
▁rasmussen	-10.9922
▁society	-10.9922
▁göteborg	-10.9922
▁tilføyd	-10.9922
▁mexico	-10.9922
▁bystatus	-10.9922
▁1907	-10.9922
▁picture	-10.9922
▁sūtra	-10.9922
▁utdødd	-10.9922
▁1935	-10.9922
▁gælisk	-10.9922
▁montreal	-10.9922
▁radikal	-10.9922
▁kroatisk	-10.9922
▁rumensk	-10.9922
▁heavy	-10.9923
▁nemlig	-10.9923
▁kalsium	-10.9923
▁wagner	-10.9923
▁systematisk	-10.9923
▁nyheter	-10.9924
praksis	-10.9924
▁dollar	-10.9925
▁jonatha	-10.9926
▁kristelig	-10.9927
▁årsproduksjon	-10.9927
▁glenn	-10.9934
▁smelte	-10.9936
▁hemmelig	-10.9936
▁stedsnavn	-10.9938
vokter	-10.9966
relatert	-10.9995
▁fremstilt	-10.9996
vurdering	-11.005
▁erkebiskop	-11.0208
▁françois	-11.0208
▁generalmajor	-11.0208
▁mobiltelefon	-11.0208
▁müller	-11.0208
▁network	-11.0208
▁svalbard	-11.0208
▁færøyene	-11.0208
▁utgangspunkt	-11.0208
▁antagelig	-11.0208
▁anmelder	-11.0208
▁medvirkende	-11.0208
▁through	-11.0208
▁1938	-11.0208
▁overlevde	-11.0208
▁1933	-11.0208
▁geografisk	-11.0208
▁marilyn	-11.0208
▁nelson	-11.0209
▁second	-11.0209
▁utenlandsk	-11.021
▁kelly	-11.0212
▁manager	-11.0213
▁arendal	-11.0214
▁stråle	-11.0233
iformes	-11.0233
dialekt	-11.0239
▁praktisere	-11.0277
lokale	-11.0293
medlemmene	-11.0296
pølse	-11.0296
nevnte	-11.0309
skjegg	-11.036
▁diagnos	-11.0406
▁represent	-11.0443
turnering	-11.0494
▁pseudo	-11.05
▁academy	-11.0502
▁nintendo	-11.0502
▁oksygen	-11.0502
▁sjokolade	-11.0502
▁argentina	-11.0502
▁definisjon	-11.0502
▁konferanse	-11.0502
▁salvador	-11.0502
▁inspirasjon	-11.0502
▁wergeland	-11.0502
konsulent	-11.0502
▁utspring	-11.0502
▁1941	-11.0502
▁1943	-11.0502
▁toronto	-11.0502
▁1878	-11.0502
▁dimensjon	-11.0502
▁overvintr	-11.0502
statistikk	-11.0503
▁hvem	-11.0503
▁jørn	-11.0504
▁claude	-11.0504
▁monroe	-11.0505
mekanisme	-11.0507
▁uefa	-11.0507
▁snorre	-11.0511
▁hovedsete	-11.0511
▁slektsnavn	-11.0513
▁debatt	-11.0516
beskyttelse	-11.0519
▁romsdal	-11.0521
▁tilfelle	-11.0527
▁datamaskin	-11.0564
▁markedsføre	-11.0596
utdanne	-11.0617
▁høyhastighets	-11.0785
ective	-11.08
ć	-11.0804
▁anmeldelse	-11.0805
▁eksperiment	-11.0805
▁innbefatte	-11.0805
▁basketball	-11.0805
▁kongedømme	-11.0805
▁elefant	-11.0805
▁joachim	-11.0805
▁kvadrat	-11.0805
▁molekyl	-11.0805
▁oxford	-11.0805
▁angriper	-11.0805
▁1902	-11.0805
▁1921	-11.0805
▁eduard	-11.0805
▁kjersti	-11.0805
bransjen	-11.0805
▁juridisk	-11.0805
▁selvmord	-11.0805
▁1897	-11.0805
▁essay	-11.0806
▁hovedpersonen	-11.0806
▁slovensk	-11.0806
▁frivillig	-11.0806
▁bmw	-11.0808
▁flytende	-11.0808
▁moderklubb	-11.0809
▁buffa	-11.0809
▁hjemmekampe	-11.081
▁voksne	-11.081
▁armensk	-11.0811
referanse	-11.0812
▁klinisk	-11.0814
håndtering	-11.0815
flyging	-11.0819
▁alegre	-11.0823
▁dokumentar	-11.0832
litteratur	-11.0854
tradisjon	-11.0857
relasjon	-11.0892
signal	-11.0933
▁sovjet	-11.1021
▁barndoms	-11.1035
ampton	-11.105
▁distribusjon	-11.1117
geschichte	-11.1117
▁begynnelsen	-11.1117
▁democrat	-11.1117
▁hongkong	-11.1117
▁kinamisjonær	-11.1117
▁kronprins	-11.1117
▁leipzig	-11.1117
▁mjøndalen	-11.1117
▁vampyr	-11.1117
▁zìzhì	-11.1117
▁foundation	-11.1117
▁limited	-11.1117
▁konsernet	-11.1117
▁english	-11.1117
▁animasjon	-11.1118
▁opptrådt	-11.1118
grunnsstasjon	-11.1118
▁miguel	-11.1118
▁sophie	-11.1118
▁felix	-11.1118
▁torgny	-11.1118
▁minutter	-11.1118
▁oppbevare	-11.1118
▁1873	-11.1118
▁verdensarv	-11.1118
þ	-11.3783
ñ	-12.8556
