<unk>	0
<s>	0
</s>	0
.	-3.12672
s	-3.32924
e	-3.59903
▁	-3.76743
t	-4.05574
er	-4.05885
en	-4.07697
▁i	-4.11758
▁og	-4.1542
▁er	-4.58548
r	-4.69298
▁av	-4.847
n	-4.86328
et	-4.93251
a	-4.97376
▁for	-5.10993
▁en	-5.13213
▁som	-5.25722
▁til	-5.28665
▁på	-5.33938
▁med	-5.37385
i	-5.39366
d	-5.51954
▁var	-5.52066
o	-5.54195
k	-5.55924
▁de	-5.64313
▁den	-5.6575
ene	-5.67665
y	-5.68378
▁fra	-5.78511
▁har	-5.79148
ne	-5.8192
▁ble	-5.83548
m	-5.86096
g	-5.88001
te	-5.89069
▁det	-5.95613
▁et	-6.00068
in	-6.04697
l	-6.0894
f	-6.12108
p	-6.16245
de	-6.1916
▁han	-6.21454
h	-6.24813
▁ved	-6.28775
re	-6.29821
v	-6.30242
ing	-6.32008
▁s	-6.34168
▁å	-6.34298
es	-6.38922
▁be	-6.40725
▁også	-6.41226
u	-6.42862
c	-6.44156
an	-6.45193
▁eller	-6.47373
us	-6.47613
al	-6.49231
b	-6.49794
▁a	-6.50487
▁ut	-6.54096
le	-6.54532
▁under	-6.57063
na	-6.58153
▁kan	-6.60181
▁om	-6.62719
▁to	-6.63003
on	-6.68815
ter	-6.70851
▁the	-6.7223
▁m	-6.72642
▁over	-6.72991
▁etter	-6.74453
▁opp	-6.75184
ar	-6.75616
▁f	-6.76893
w	-6.79442
is	-6.8096
sk	-6.81494
▁at	-6.83947
ia	-6.85997
z	-6.86281
▁p	-6.86573
▁inn	-6.87712
▁da	-6.90284
▁d	-6.9084
j	-6.92106
ende	-6.94894
▁b	-6.95274
▁18	-6.96505
or	-6.98184
▁andre	-6.99111
um	-6.99975
▁c	-7.00041
▁la	-7.00152
▁al	-7.00663
x	-7.00739
land	-7.01942
ta	-7.02305
ch	-7.03321
ke	-7.03951
ur	-7.04274
ra	-7.04724
▁se	-7.0637
▁an	-7.06434
▁u	-7.0657
▁ligger	-7.06903
▁re	-7.07184
ck	-7.07354
el	-7.07487
ens	-7.08253
la	-7.09189
▁g	-7.11042
der	-7.11099
il	-7.13646
▁ha	-7.13729
ng	-7.13845
▁h	-7.15604
▁n	-7.1606
ma	-7.17257
▁k	-7.18265
▁men	-7.18615
▁tre	-7.19336
isk	-7.20023
ri	-7.20137
é	-7.2056
da	-7.2163
ka	-7.22286
ig	-7.22758
▁sin	-7.23267
4	-7.23501
▁mot	-7.23916
▁of	-7.24103
▁mellom	-7.24507
▁l	-7.25
be	-7.25177
▁hadde	-7.25731
at	-7.26171
ver	-7.2656
li	-7.26623
▁seg	-7.27459
ut	-7.27506
▁blant	-7.2765
▁hans	-7.2845
ga	-7.2892
▁in	-7.29919
ge	-7.29997
▁ca	-7.3059
▁1	-7.30622
ro	-7.30956
▁man	-7.30987
iske	-7.31774
ha	-7.32328
di	-7.32794
ler	-7.32865
lig	-7.33268
ning	-7.33399
lo	-7.34372
os	-7.34411
▁j	-7.34663
to	-7.34671
▁her	-7.35618
stad	-7.3757
▁hoved	-7.37595
nes	-7.38223
▁gjennom	-7.3846
ger	-7.39253
▁sa	-7.395
nde	-7.3983
▁nord	-7.39888
▁ka	-7.39973
▁v	-7.40303
ba	-7.40533
▁bo	-7.40721
6	-7.4075
ske	-7.41572
øy	-7.41669
id	-7.41787
▁ikke	-7.42063
▁li	-7.43117
den	-7.4358
▁co	-7.43825
▁le	-7.43871
2	-7.44352
▁st	-7.44883
▁dette	-7.46191
▁and	-7.46195
for	-7.47325
th	-7.4767
as	-7.47739
it	-7.47973
ja	-7.4806
▁mo	-7.48224
bo	-7.48384
▁født	-7.48473
▁w	-7.49916
▁t	-7.50119
▁he	-7.50127
ve	-7.50745
▁ro	-7.51299
ed	-7.51528
man	-7.51644
▁r	-7.51977
▁2	-7.52105
▁na	-7.52222
ad	-7.52452
▁der	-7.53571
▁kon	-7.5379
son	-7.54428
▁vi	-7.54675
je	-7.55289
ner	-7.55538
ff	-7.56001
ul	-7.56042
ic	-7.57099
va	-7.5714
▁første	-7.57217
▁sammen	-7.57294
ti	-7.57397
▁flere	-7.57857
▁denne	-7.57965
å	-7.58327
1	-7.58401
8	-7.58489
3	-7.59032
▁16	-7.5992
▁stor	-7.60034
ry	-7.60244
vi	-7.6051
▁ra	-7.60647
▁pa	-7.60769
▁di	-7.61425
▁o	-7.61468
ton	-7.61618
▁hun	-7.61701
▁5	-7.62082
á	-7.62086
dal	-7.62806
▁as	-7.62856
ste	-7.63211
asjon	-7.63673
▁ni	-7.64004
▁kinesisk	-7.642
▁fikk	-7.64408
co	-7.64423
ør	-7.64799
▁by	-7.65061
▁17	-7.6515
▁sp	-7.65706
ker	-7.65826
ik	-7.66095
me	-7.662
vis	-7.66457
▁lo	-7.67148
ling	-7.67453
▁no	-7.6827
berg	-7.68878
do	-7.68901
æ	-7.68908
kt	-7.69005
▁kom	-7.69379
7	-7.69582
ell	-7.69914
gen	-7.70058
▁ny	-7.70108
bu	-7.70453
▁15	-7.70469
▁blir	-7.70525
▁ti	-7.706
kk	-7.71009
het	-7.71095
▁du	-7.7134
▁3	-7.71367
▁po	-7.71397
ist	-7.71427
pe	-7.71432
tt	-7.71527
▁ta	-7.72014
▁ga	-7.72189
mo	-7.72275
ol	-7.72394
gi	-7.72653
mann	-7.72764
ær	-7.72819
ir	-7.72938
▁si	-7.73047
▁pi	-7.73162
ven	-7.73269
5	-7.74734
▁hu	-7.75174
by	-7.75262
bi	-7.75335
erte	-7.75671
▁per	-7.75722
mi	-7.76398
mer	-7.76604
op	-7.76652
▁y	-7.76682
▁sør	-7.76838
▁tidligere	-7.77085
▁tor	-7.77253
▁pro	-7.77428
▁ma	-7.77682
mp	-7.7828
ov	-7.78326
ly	-7.79219
▁7	-7.79604
ant	-7.79627
si	-7.79762
▁annet	-7.79783
▁disse	-7.80188
▁mor	-7.8032
▁do	-7.8048
▁bar	-7.80576
▁10	-7.80797
▁ba	-7.81026
▁sch	-7.81141
ina	-7.81675
▁am	-7.82036
▁fri	-7.82288
ø	-7.82658
gg	-7.83032
▁gu	-7.83043
▁alle	-7.83431
ö	-7.84199
ster	-7.84644
▁mar	-7.85373
lige	-7.86633
▁jo	-7.87182
▁so	-7.87272
▁ned	-7.87324
ang	-7.87331
ko	-7.87408
sh	-7.87821
▁samt	-7.87821
▁land	-7.87827
▁ho	-7.87892
ce	-7.87912
▁kalles	-7.88006
▁fa	-7.88155
▁kommune	-7.88264
▁ko	-7.88565
go	-7.88948
un	-7.89821
io	-7.91419
▁mer	-7.91425
▁kalt	-7.91575
om	-7.91724
av	-7.92311
▁su	-7.92351
▁sk	-7.92486
ni	-7.92819
▁or	-7.9285
▁mens	-7.93088
am	-7.93297
▁vest	-7.93324
▁el	-7.93399
ment	-7.93412
▁ofte	-7.93925
▁te	-7.9397
▁4	-7.93994
▁12	-7.94296
else	-7.95397
▁byen	-7.9545
ci	-7.9545
var	-7.95565
ho	-7.95758
ok	-7.95777
▁8	-7.9632
im	-7.96694
ion	-7.96772
▁bu	-7.96873
tra	-7.96903
▁navnet	-7.96919
▁me	-7.97172
▁ar	-7.97181
▁norsk	-7.97365
▁del	-7.97412
men	-7.97678
ak	-7.97715
▁mange	-7.9773
▁far	-7.97742
nd	-7.97915
▁øst	-7.9868
sjon	-7.99073
▁år	-7.99079
vik	-7.99181
no	-7.99951
pa	-8.00181
lin	-8.00846
▁lag	-8.01024
ns	-8.01167
erne	-8.01198
od	-8.01632
▁con	-8.01666
9	-8.01756
▁bi	-8.01888
ring	-8.02072
skap	-8.02375
au	-8.02605
▁sitt	-8.02811
ian	-8.03
gu	-8.03237
▁frem	-8.0327
▁ne	-8.03501
▁så	-8.03801
▁død	-8.04085
▁sol	-8.04394
rett	-8.0444
▁lu	-8.04504
▁9	-8.0463
ft	-8.04854
▁finnes	-8.05067
per	-8.05186
▁min	-8.05282
▁sam	-8.05339
ca	-8.05358
▁6	-8.05548
ou	-8.05821
sel	-8.05952
▁11	-8.06636
▁russisk	-8.06936
ü	-8.07569
pp	-8.07712
▁går	-8.07812
lag	-8.0787
▁14	-8.07895
ikk	-8.07967
▁13	-8.08032
ie	-8.08852
ord	-8.08977
år	-8.09048
▁store	-8.09211
▁senere	-8.09403
▁navn	-8.10447
▁ja	-8.10668
ó	-8.10923
▁pe	-8.10968
▁nå	-8.11165
▁ju	-8.11283
í	-8.1151
▁før	-8.11555
ium	-8.11747
▁hvor	-8.11838
▁tri	-8.11981
▁vil	-8.12011
▁ei	-8.12243
▁ri	-8.12542
▁tilhører	-8.12846
ering	-8.13779
ard	-8.14023
ow	-8.14473
tal	-8.145
hu	-8.15376
00	-8.15531
▁va	-8.15691
▁fire	-8.1575
▁består	-8.15779
▁ad	-8.1581
tter	-8.16379
vin	-8.16508
po	-8.16742
ber	-8.17126
mar	-8.17259
ä	-8.17301
▁dr	-8.17757
ld	-8.17874
▁ab	-8.1811
▁bak	-8.18114
▁car	-8.1855
stein	-8.18577
hi	-8.18677
itt	-8.18895
tisk	-8.19036
iv	-8.1919
ede	-8.19455
del	-8.20692
ting	-8.20977
ingen	-8.21035
▁skal	-8.21449
▁kjent	-8.21495
▁hos	-8.2153
ken	-8.21754
bar	-8.21762
ation	-8.21931
▁ch	-8.22067
▁mest	-8.22214
▁største	-8.22279
▁ru	-8.22422
ki	-8.22576
▁gi	-8.22664
ine	-8.22802
tte	-8.22934
▁dag	-8.2371
▁piny	-8.23716
dag	-8.24229
lu	-8.24504
les	-8.24595
▁x	-8.24706
sta	-8.257
▁san	-8.25733
len	-8.2598
elle	-8.26016
▁z	-8.26095
ung	-8.26352
▁vann	-8.26377
ud	-8.26463
▁ol	-8.27003
idae	-8.2704
▁john	-8.27143
▁lever	-8.27189
ac	-8.27293
opp	-8.27334
▁fly	-8.27516
▁grunn	-8.2768
ru	-8.27701
ag	-8.27719
▁mat	-8.27905
▁go	-8.27926
▁sine	-8.2806
pi	-8.28067
▁wi	-8.2828
▁fi	-8.28344
▁noen	-8.28518
▁vel	-8.28559
▁mål	-8.28735
art	-8.28781
tre	-8.28893
ny	-8.28977
sch	-8.29043
gang	-8.2914
ier	-8.29178
▁bro	-8.29434
▁eks	-8.29949
▁syn	-8.30059
▁lang	-8.30087
▁være	-8.30127
ill	-8.30207
▁20	-8.30229
sp	-8.30388
hus	-8.3041
▁fe	-8.3072
sted	-8.30766
yl	-8.30789
fa	-8.30826
ot	-8.31504
▁kirke	-8.31529
▁rundt	-8.3196
tu	-8.32056
▁kr	-8.32077
he	-8.32473
satt	-8.32516
▁innen	-8.32565
verk	-8.33036
over	-8.33219
▁skole	-8.33313
tak	-8.33449
▁både	-8.33463
▁0	-8.33661
▁film	-8.33736
▁selv	-8.33902
▁ski	-8.34024
ius	-8.34258
▁engelsk	-8.34301
ong	-8.34311
▁bra	-8.34512
▁kar	-8.3453
▁ste	-8.34645
mor	-8.3515
▁folke	-8.35237
mon	-8.35404
▁pu	-8.35562
▁pre	-8.36025
br	-8.36128
▁nor	-8.36471
ham	-8.36514
▁ham	-8.36617
▁ge	-8.36719
tiske	-8.37168
dalen	-8.37214
▁siden	-8.3737
tur	-8.37375
form	-8.37492
▁ki	-8.37732
ica	-8.3785
hold	-8.37893
▁my	-8.37957
▁langs	-8.38162
ator	-8.38221
sti	-8.38268
▁alt	-8.38389
stand	-8.38567
▁fram	-8.38751
ningen	-8.38778
▁all	-8.38895
ley	-8.38925
kke	-8.39186
tid	-8.39427
▁kina	-8.39461
▁hel	-8.39531
tor	-8.39534
▁tro	-8.3958
▁fjell	-8.3982
▁kunst	-8.39985
▁sand	-8.39989
jo	-8.4018
bruk	-8.40182
▁sønn	-8.40183
sten	-8.40244
▁leder	-8.40347
▁familien	-8.40367
▁par	-8.40411
siden	-8.4049
▁omfatter	-8.40801
▁th	-8.40803
▁øy	-8.41299
bb	-8.41377
▁mars	-8.41503
▁cha	-8.41779
familien	-8.41864
▁ver	-8.42347
inn	-8.42507
za	-8.42548
tar	-8.42661
ans	-8.42889
▁nær	-8.42908
▁bru	-8.42913
fi	-8.43107
▁små	-8.43355
mat	-8.43484
▁tra	-8.43551
▁vant	-8.43921
▁gir	-8.44242
let	-8.44293
▁gjen	-8.44511
▁laget	-8.44553
▁br	-8.44834
▁km	-8.44979
▁tid	-8.45027
tan	-8.45295
▁musikk	-8.45411
▁videre	-8.45415
sson	-8.45642
▁mi	-8.45756
gel	-8.46087
▁liv	-8.46271
▁kultur	-8.46277
▁val	-8.46356
▁ur	-8.46626
▁mel	-8.46886
▁fu	-8.46964
▁col	-8.47197
sse	-8.4744
▁norske	-8.47645
ku	-8.47682
▁må	-8.47777
ek	-8.47803
▁kommer	-8.47851
itet	-8.47861
и	-8.47908
▁provinsen	-8.484
ty	-8.48418
kker	-8.48738
▁mai	-8.48965
▁hav	-8.49211
dre	-8.49547
ā	-8.49721
▁ben	-8.49823
▁fo	-8.50083
fe	-8.50142
а	-8.50657
q	-8.50666
dy	-8.50708
yn	-8.50854
ron	-8.51108
▁chi	-8.51122
lan	-8.5114
tiv	-8.51517
▁ag	-8.519
▁betyr	-8.51928
▁slik	-8.52001
▁sta	-8.52384
▁brukes	-8.52407
wa	-8.52482
▁berg	-8.5272
▁stein	-8.5323
▁inneholder	-8.53266
▁gul	-8.53271
if	-8.53378
▁parti	-8.53424
▁fem	-8.5347
ska	-8.53483
tz	-8.53541
vet	-8.53571
est	-8.53701
▁ed	-8.53859
▁new	-8.53884
fly	-8.53903
▁ak	-8.54131
heim	-8.54288
burg	-8.54368
met	-8.54446
inger	-8.54582
lands	-8.54663
▁sal	-8.54832
▁wa	-8.54836
▁ku	-8.54889
ep	-8.54939
mmer	-8.55088
▁like	-8.55131
ug	-8.55161
▁juli	-8.55355
▁hen	-8.55433
ya	-8.55464
gh	-8.55522
ji	-8.55626
▁art	-8.55795
til	-8.55831
far	-8.55834
▁kor	-8.55844
mme	-8.56027
▁spiller	-8.56162
▁2002	-8.56289
▁følgende	-8.56339
elsen	-8.56355
▁samme	-8.56418
▁roman	-8.56424
▁pan	-8.56523
▁tv	-8.56648
▁hus	-8.56835
kon	-8.5691
▁af	-8.57111
ris	-8.57111
chi	-8.57233
und	-8.57404
borg	-8.57626
▁når	-8.57941
uk	-8.58
▁tok	-8.58107
par	-8.58285
ab	-8.58296
▁norge	-8.58338
▁gift	-8.58728
kel	-8.58831
lse	-8.58905
cu	-8.58991
che	-8.5906
▁gruppen	-8.59062
▁sh	-8.59274
du	-8.59302
folkerepublikken	-8.59733
▁skrev	-8.59775
▁oslo	-8.59801
▁bl	-8.5986
▁området	-8.5999
em	-8.60063
▁innenfor	-8.60083
▁hol	-8.60123
▁com	-8.60171
dd	-8.6025
▁nye	-8.60282
▁bok	-8.60358
▁moh	-8.60617
▁høy	-8.60622
vo	-8.60773
▁kjente	-8.60812
▁tu	-8.60818
ana	-8.60899
▁rekke	-8.61574
▁vært	-8.61659
▁gud	-8.61748
▁bor	-8.62089
ninger	-8.62304
ppe	-8.6238
zi	-8.6239
е	-8.62752
▁gikk	-8.62788
mål	-8.63115
▁mu	-8.63129
▁verdens	-8.63213
▁fransk	-8.63447
hr	-8.63513
ologi	-8.63545
о	-8.63574
▁bil	-8.63656
▁fin	-8.63669
vel	-8.63685
bl	-8.63725
▁hal	-8.63853
▁språk	-8.63867
▁august	-8.63874
følge	-8.63884
jø	-8.64107
▁enn	-8.64464
▁kl	-8.64549
tro	-8.64761
▁gresk	-8.64915
▁ke	-8.64992
▁ty	-8.64999
▁sjø	-8.6506
▁uten	-8.65095
ah	-8.6511
kken	-8.65169
▁hele	-8.65201
kom	-8.65269
▁fast	-8.65646
▁gl	-8.65761
▁jord	-8.6617
kor	-8.66202
▁fag	-8.66407
▁folketelling	-8.66736
▁we	-8.6682
gn	-8.66917
ari	-8.67004
stre	-8.67116
ll	-8.67119
▁ren	-8.67179
øya	-8.67326
▁jan	-8.67475
▁ulike	-8.67518
▁bare	-8.67585
we	-8.67633
dyr	-8.6779
ju	-8.68008
▁op	-8.68099
ret	-8.68128
ú	-8.68198
▁ord	-8.68281
ze	-8.68507
min	-8.68699
▁god	-8.68712
▁nasjonal	-8.68917
▁kommunen	-8.6947
▁rom	-8.69476
▁dem	-8.69525
ani	-8.69541
▁bas	-8.69682
▁lys	-8.69691
jer	-8.69752
▁vei	-8.69956
slag	-8.70011
ran	-8.70212
bro	-8.70216
▁plan	-8.70238
▁kj	-8.7035
▁un	-8.70515
mel	-8.7053
▁sig	-8.70551
kar	-8.7056
▁bruk	-8.70949
▁grav	-8.71032
øk	-8.71058
rik	-8.71129
▁os	-8.71217
▁kn	-8.71293
▁sv	-8.71293
▁mag	-8.71406
▁kong	-8.71412
▁von	-8.71602
bok	-8.71632
ps	-8.71635
▁hy	-8.71699
▁midt	-8.71713
dom	-8.71927
▁mil	-8.71951
▁sha	-8.72141
mm	-8.7219
▁heter	-8.72479
▁hennes	-8.72501
▁landet	-8.72517
▁spilte	-8.72565
▁bri	-8.72646
ice	-8.72671
nings	-8.72829
sett	-8.72923
▁sto	-8.7299
▁tar	-8.73132
▁anti	-8.73344
tion	-8.73356
▁sen	-8.73462
▁valg	-8.7351
ding	-8.73525
▁deres	-8.73606
mark	-8.73717
▁van	-8.73784
▁selskapet	-8.74274
fra	-8.74537
▁30	-8.74598
▁tysk	-8.74664
▁sommerfugl	-8.74922
▁rød	-8.74923
bin	-8.7495
▁bjørn	-8.75064
▁radio	-8.75152
spill	-8.75509
▁skulle	-8.75537
su	-8.75572
▁mon	-8.75595
▁19	-8.75847
án	-8.76019
▁on	-8.76023
ære	-8.76024
▁tur	-8.76103
▁kunne	-8.76176
kan	-8.7625
ach	-8.7628
▁barn	-8.76612
sto	-8.76638
▁ve	-8.76654
▁via	-8.76668
▁norges	-8.77018
▁begge	-8.77141
▁2007	-8.77203
▁halv	-8.77427
veien	-8.77428
▁lå	-8.7753
▁tallet	-8.77704
ola	-8.77746
blitt	-8.77802
▁vo	-8.7781
▁hi	-8.77845
▁rett	-8.77949
mester	-8.78265
tall	-8.78271
▁skog	-8.78386
är	-8.78413
▁2010	-8.78443
▁paul	-8.7853
▁meter	-8.78681
▁can	-8.78722
▁bur	-8.78784
og	-8.78843
▁tillegg	-8.78843
rakt	-8.79055
▁kv	-8.79123
van	-8.79188
enes	-8.7919
asj	-8.79277
▁opprinnelig	-8.79407
xi	-8.79503
▁kun	-8.79541
▁form	-8.79543
pper	-8.80122
▁gar	-8.80272
▁lokal	-8.80313
gård	-8.80334
▁kort	-8.80365
vid	-8.80369
▁luft	-8.80471
▁bruker	-8.80499
▁liste	-8.80506
ski	-8.80788
50	-8.8079
▁gull	-8.80842
bil	-8.80921
▁dy	-8.81135
ino	-8.81142
up	-8.81146
▁ky	-8.81372
▁ap	-8.81418
▁dikt	-8.81577
▁2006	-8.81762
▁egen	-8.81886
▁tele	-8.81922
▁nu	-8.81979
▁gra	-8.82023
fjorden	-8.82096
▁qu	-8.8217
▁president	-8.82222
isme	-8.82224
så	-8.82387
▁brun	-8.82579
▁motor	-8.8264
▁ry	-8.82745
ida	-8.82757
▁mindre	-8.82805
▁bre	-8.82905
▁ang	-8.82924
ph	-8.83014
ap	-8.83049
ight	-8.83112
heng	-8.83141
log	-8.83209
▁ser	-8.83225
som	-8.83277
è	-8.83393
ita	-8.83402
ī	-8.83441
▁side	-8.83465
▁flagg	-8.83469
▁hver	-8.83525
▁gjerne	-8.83555
▁vin	-8.83602
▁ly	-8.83647
▁bal	-8.83673
▁mont	-8.83702
▁christian	-8.8381
gar	-8.83884
▁pr	-8.84035
▁pol	-8.84065
▁pri	-8.84143
▁bli	-8.84152
▁vise	-8.84167
▁carl	-8.84301
▁sky	-8.84334
л	-8.84392
▁kur	-8.84492
▁you	-8.84533
▁je	-8.8456
▁arm	-8.84618
medalje	-8.84713
▁april	-8.84824
▁gamle	-8.84825
▁står	-8.84959
ct	-8.84981
▁mal	-8.85203
skog	-8.85234
tel	-8.85257
▁stat	-8.85366
▁farge	-8.85425
stil	-8.85432
▁lav	-8.85435
vær	-8.85496
utvikling	-8.85526
all	-8.85533
▁2008	-8.85891
▁gen	-8.85934
han	-8.86007
fjord	-8.86012
▁au	-8.86098
▁cla	-8.86174
▁ac	-8.86309
rø	-8.86609
▁særlig	-8.86622
unn	-8.86658
vann	-8.86668
tegn	-8.86817
leder	-8.87059
▁data	-8.87061
ich	-8.87123
vern	-8.87213
▁skrevet	-8.8723
▁imidlertid	-8.87288
har	-8.87298
net	-8.87388
senter	-8.87414
▁fred	-8.87704
▁derfor	-8.87895
stilling	-8.87902
▁seks	-8.87911
sund	-8.8797
▁peter	-8.88127
▁000	-8.88204
laget	-8.88208
tiden	-8.88215
val	-8.88268
ð	-8.88363
▁mac	-8.88447
▁verk	-8.88505
▁mark	-8.88633
▁natur	-8.88662
▁eksempel	-8.88675
and	-8.88719
ige	-8.88763
navn	-8.88914
▁datter	-8.88959
▁rø	-8.89274
▁ci	-8.89333
▁juni	-8.89455
▁sti	-8.89607
anlegg	-8.89823
▁blå	-8.89879
▁besto	-8.89934
▁pass	-8.90006
ighet	-8.90294
ika	-8.90439
fon	-8.90482
tus	-8.90579
▁tom	-8.90696
▁ul	-8.90999
▁za	-8.91281
▁shi	-8.91317
▁sc	-8.91365
system	-8.91524
øl	-8.91655
▁usa	-8.91658
▁januar	-8.9166
▁industri	-8.91668
pris	-8.91755
▁ring	-8.91755
▁2005	-8.91783
ving	-8.92103
▁bø	-8.92304
▁stra	-8.9232
drift	-8.92423
▁band	-8.92707
eres	-8.9283
ör	-8.92855
▁utgitt	-8.9293
que	-8.92953
▁barne	-8.92976
▁filmen	-8.93001
▁red	-8.93137
rig	-8.93161
▁startet	-8.93168
isering	-8.93169
▁energi	-8.93203
▁park	-8.93376
▁q	-8.93442
▁forskjellige	-8.93545
ini	-8.93686
ale	-8.93854
▁post	-8.93861
▁inkludert	-8.9392
▁vanligvis	-8.93951
▁svensk	-8.93959
▁tak	-8.93964
▁kal	-8.94007
▁politi	-8.94039
▁ingen	-8.94042
▁ex	-8.94144
rom	-8.94256
▁kinas	-8.94452
▁siste	-8.94573
▁ør	-8.94574
▁september	-8.94685
▁viktigste	-8.94716
fall	-8.94841
▁distrikt	-8.94852
▁hø	-8.94896
gan	-8.94911
ther	-8.94922
▁kla	-8.94952
▁spe	-8.95013
α	-8.95069
ann	-8.95295
mannen	-8.95348
ssen	-8.95633
▁foran	-8.95807
lek	-8.95847
kre	-8.95871
elig	-8.95906
▁døde	-8.95981
mal	-8.96104
▁fotball	-8.96127
▁skolen	-8.96188
▁mus	-8.96192
▁tekst	-8.96238
▁basert	-8.96357
skole	-8.96373
fer	-8.96376
▁mari	-8.96428
▁sub	-8.96708
▁arbeids	-8.96755
▁stil	-8.96773
isert	-8.97011
▁2009	-8.97029
iz	-8.97129
ros	-8.97146
▁vol	-8.97149
▁styre	-8.97234
gre	-8.97257
▁dan	-8.97259
forening	-8.97334
▁tilbake	-8.97417
selskapet	-8.97525
stående	-8.97551
▁gri	-8.97619
▁jeg	-8.97689
sjoner	-8.97699
▁stu	-8.97883
pen	-8.97901
▁eu	-8.97918
ano	-8.98048
▁noe	-8.98066
▁mad	-8.98083
30	-8.98123
▁uni	-8.98185
dø	-8.98215
▁inkluderer	-8.98262
bygning	-8.98263
tin	-8.98265
pro	-8.98653
ister	-8.98733
▁johan	-8.98762
bø	-8.98813
holdt	-8.98839
mu	-8.98843
▁lind	-8.98853
dan	-8.98886
lagt	-8.98975
stan	-8.98986
▁februar	-8.98999
hl	-8.99129
▁beste	-8.99202
▁operatør	-8.99232
kul	-8.99283
band	-8.99321
▁port	-8.99367
don	-8.99452
lett	-8.99613
▁tal	-8.99633
▁stats	-8.99661
ater	-8.99693
▁organ	-8.99784
▁william	-8.99804
nk	-8.99809
▁robert	-8.99876
mus	-8.99899
inne	-8.99954
ider	-9.00065
▁deretter	-9.00279
▁vis	-9.0031
modell	-9.004
▁gang	-9.00611
▁lyd	-9.00646
▁bandet	-9.00673
vil	-9.00802
▁fylke	-9.00915
▁west	-9.00932
▁ji	-9.00957
▁slekt	-9.00959
▁elven	-9.00969
▁not	-9.01017
▁24	-9.01109
▁thor	-9.01219
rid	-9.01256
ath	-9.01256
š	-9.01433
▁pal	-9.01528
▁slutt	-9.01542
▁para	-9.01573
▁lin	-9.01641
▁karl	-9.0175
▁fla	-9.01779
lev	-9.01817
▁lov	-9.01828
▁general	-9.01846
stu	-9.01953
oc	-9.01994
▁militær	-9.02258
▁25	-9.02333
▁sett	-9.02386
lia	-9.02423
▁først	-9.02451
løp	-9.0254
ara	-9.0257
ble	-9.02662
▁gro	-9.0268
▁kre	-9.02694
ford	-9.02733
side	-9.02952
stru	-9.02979
à	-9.03018
lys	-9.03182
pu	-9.03258
▁fil	-9.03306
▁xi	-9.03334
rum	-9.03441
▁sentral	-9.03449
ført	-9.0355
jev	-9.03663
landet	-9.03697
bor	-9.03708
▁mann	-9.03714
cc	-9.03754
10	-9.03763
▁mis	-9.03869
▁ska	-9.03926
▁gammel	-9.03929
▁igjen	-9.03956
▁bror	-9.04102
ial	-9.04109
banen	-9.04186
▁viser	-9.04231
▁kyst	-9.04305
▁innbyggertall	-9.0435
д	-9.0435
▁21	-9.04363
punkt	-9.04373
▁eier	-9.04402
▁sø	-9.04417
▁utenfor	-9.04448
▁innbyggere	-9.04774
▁lange	-9.04791
▁bred	-9.04848
res	-9.04905
eri	-9.04946
▁erik	-9.05002
navnet	-9.05119
fo	-9.05122
▁lands	-9.05175
fri	-9.05192
▁betydning	-9.052
▁følger	-9.05226
af	-9.05243
▁arbeider	-9.05285
ão	-9.05294
leg	-9.05433
ller	-9.05563
føre	-9.05635
▁person	-9.05717
▁representer	-9.05737
▁samarbeid	-9.05801
bel	-9.0591
bre	-9.0591
▁tradisjonell	-9.05981
▁samtidig	-9.06057
▁latin	-9.06402
▁les	-9.06493
huset	-9.06615
▁hor	-9.06715
▁medlem	-9.06724
▁ob	-9.06734
sak	-9.06778
▁22	-9.06785
værende	-9.06853
vers	-9.06921
▁riks	-9.06929
▁trans	-9.07034
bærer	-9.07197
legg	-9.07314
60	-9.07508
▁dagen	-9.07537
▁georg	-9.07614
▁fiske	-9.07682
▁kro	-9.07722
ømme	-9.07803
▁topp	-9.07843
40	-9.07861
stø	-9.0796
▁george	-9.07975
▁dann	-9.07979
gren	-9.08009
kal	-9.0807
▁forfatter	-9.08104
shi	-9.08154
▁keiser	-9.08238
▁bir	-9.0828
▁kra	-9.08281
▁mur	-9.08292
▁dia	-9.08323
fisk	-9.08342
▁kamp	-9.08375
▁em	-9.08438
▁cu	-9.08468
▁ber	-9.08534
▁fre	-9.08553
20	-9.08596
ix	-9.0864
▁tidlig	-9.08717
▁dal	-9.08734
▁får	-9.08795
lene	-9.0893
kin	-9.0896
▁helt	-9.08987
▁representerte	-9.09
las	-9.09011
▁martin	-9.09015
våg	-9.09042
▁sommer	-9.09078
▁rock	-9.09125
age	-9.09132
▁ger	-9.09148
▁støtte	-9.09202
▁dis	-9.09269
rus	-9.09417
klubb	-9.09542
▁november	-9.09557
bånd	-9.09562
sjef	-9.09573
с	-9.096
området	-9.09644
skje	-9.09669
lø	-9.09821
▁bon	-9.0986
cy	-9.09864
▁begynte	-9.10004
▁oktober	-9.10004
▁sang	-9.10017
▁domin	-9.10018
lat	-9.1009
øn	-9.10132
båt	-9.10222
▁lille	-9.10253
ull	-9.10274
▁cor	-9.10274
▁son	-9.10343
hal	-9.10576
med	-9.10651
▁konge	-9.10689
elt	-9.10749
▁fer	-9.10859
▁david	-9.11035
▁100	-9.11113
▁japansk	-9.11404
ferd	-9.11662
svært	-9.11665
▁plante	-9.11698
▁kol	-9.11788
▁sm	-9.1181
▁23	-9.12117
sky	-9.12119
▁sak	-9.12218
ata	-9.12245
▁studie	-9.12263
▁såkalt	-9.12269
▁2011	-9.1228
▁kron	-9.12305
ås	-9.12325
▁26	-9.12343
iet	-9.12493
▁sil	-9.12564
▁ball	-9.12607
▁ole	-9.12675
▁1989	-9.12725
▁mc	-9.12728
▁mas	-9.12935
film	-9.12952
▁och	-9.12976
▁kh	-9.12983
stra	-9.13028
tatt	-9.13054
▁rev	-9.13087
ula	-9.13152
▁mod	-9.13162
▁dermed	-9.13249
▁28	-9.13255
▁olje	-9.13296
▁war	-9.13372
my	-9.1342
▁hår	-9.13427
tok	-9.13539
▁gjorde	-9.13651
р	-9.13676
▁air	-9.13885
▁venn	-9.1389
▁system	-9.13978
▁hvit	-9.14007
ktig	-9.14068
▁teater	-9.14172
▁pla	-9.14186
▁tap	-9.14233
skrift	-9.14237
ologisk	-9.14316
▁tru	-9.14535
▁høyeste	-9.1458
ekte	-9.1462
▁und	-9.14654
bygd	-9.1497
haug	-9.14998
sal	-9.1503
▁full	-9.15376
▁liten	-9.15376
istisk	-9.1538
kri	-9.15425
▁litt	-9.15483
▁øya	-9.15498
▁grad	-9.15512
emi	-9.15576
▁grå	-9.15651
▁gre	-9.15663
rud	-9.15747
▁lett	-9.15776
▁kle	-9.1586
dals	-9.15875
ay	-9.16101
▁wal	-9.16127
▁gal	-9.16131
lie	-9.16141
▁ø	-9.16214
liv	-9.16402
▁ek	-9.16403
tive	-9.16405
fin	-9.16429
hy	-9.1646
pningsseremonien	-9.16473
byen	-9.16558
▁brukt	-9.16561
ves	-9.16568
▁het	-9.16581
▁type	-9.1665
▁don	-9.16683
▁finner	-9.16815
hn	-9.16907
▁sverige	-9.16952
lis	-9.16996
unt	-9.17011
▁bank	-9.1714
▁albumet	-9.17143
styre	-9.17284
▁produsert	-9.17298
▁ph	-9.17315
▁inter	-9.17504
nu	-9.17519
▁tr	-9.17668
stasjon	-9.17674
▁bergen	-9.17678
▁familie	-9.17734
▁serien	-9.17783
▁lik	-9.17896
▁dessut	-9.17918
port	-9.17924
▁fl	-9.17971
▁egg	-9.17999
organisasjon	-9.18172
▁tittelen	-9.18203
dra	-9.18206
rin	-9.18222
к	-9.18278
▁blod	-9.18285
tsj	-9.1835
zz	-9.18384
▁desember	-9.184
▁bill	-9.18437
ire	-9.18682
ij	-9.18696
gruppen	-9.187
▁gran	-9.18716
▁slag	-9.18762
▁året	-9.18818
▁oppkalt	-9.18891
▁større	-9.18921
ova	-9.19081
0	-9.19161
▁prest	-9.19222
menn	-9.19313
ι	-9.19378
▁populær	-9.19473
▁mm	-9.19478
▁christ	-9.1951
syn	-9.19636
rat	-9.19761
▁tredje	-9.19873
▁nett	-9.19925
selskap	-9.19968
▁utgjør	-9.19997
▁jon	-9.20159
▁dyr	-9.20166
heten	-9.20254
▁sel	-9.20259
tis	-9.20289
▁sur	-9.20318
ben	-9.20401
▁mun	-9.20532
ød	-9.20575
▁sted	-9.20668
systemet	-9.20688
sjøen	-9.20724
itz	-9.20805
get	-9.2093
formet	-9.20971
plass	-9.20998
▁super	-9.2101
▁opera	-9.21031
ali	-9.21092
cia	-9.2111
▁spilt	-9.2112
ild	-9.21155
havet	-9.21217
bus	-9.2127
▁vår	-9.21285
istiske	-9.21288
ub	-9.21302
lot	-9.21374
▁island	-9.21381
▁rot	-9.21431
ban	-9.21433
▁hovedstad	-9.21486
alis	-9.2153
▁gav	-9.21533
т	-9.21588
▁maria	-9.21727
▁arkitekt	-9.21755
▁ban	-9.21778
isten	-9.21833
▁fal	-9.21925
dar	-9.22051
ip	-9.22064
bygg	-9.22083
▁sw	-9.2209
▁vinter	-9.22118
bjørn	-9.22194
68	-9.22219
▁hovedsakelig	-9.22371
▁student	-9.22376
▁arter	-9.22417
stat	-9.22491
zo	-9.22533
85	-9.22546
▁kunstner	-9.22555
▁che	-9.22561
▁ze	-9.22693
elser	-9.2288
ér	-9.23102
slav	-9.23184
senteret	-9.23186
lle	-9.23206
▁serie	-9.23312
vei	-9.23504
▁regi	-9.23553
the	-9.23576
▁anne	-9.2366
▁regn	-9.23741
▁våpen	-9.23762
bra	-9.23856
▁spor	-9.23946
zhou	-9.2395
lighet	-9.24087
▁delta	-9.24173
råd	-9.24179
▁johannes	-9.2418
stri	-9.24246
▁gruppe	-9.24253
▁plass	-9.24351
▁strøm	-9.24364
▁cal	-9.24441
▁årene	-9.24556
eks	-9.24614
▁gitar	-9.2464
evne	-9.24699
tic	-9.24707
▁ram	-9.24763
▁2000	-9.2487
qui	-9.24899
ura	-9.24907
▁produsere	-9.24935
▁sølv	-9.2494
▁2001	-9.24974
▁fro	-9.2504
▁idretts	-9.25106
alt	-9.25137
▁thomas	-9.25147
ance	-9.25273
▁spesial	-9.25451
partiet	-9.25475
▁rus	-9.2553
▁hvert	-9.25563
arbeid	-9.256
▁pen	-9.25732
aks	-9.25748
gle	-9.25768
rike	-9.25836
mand	-9.25906
▁jens	-9.25941
▁29	-9.25977
у	-9.2598
▁fylkesvei	-9.26001
▁måtte	-9.26048
dor	-9.26051
▁skuespiller	-9.26054
▁aktiv	-9.26229
ón	-9.26231
▁helse	-9.26317
ische	-9.26393
80	-9.2643
▁historie	-9.26467
▁annen	-9.26467
▁stedet	-9.26474
ν	-9.26506
▁standard	-9.26508
▁arbeidet	-9.26606
minister	-9.2674
lsen	-9.26764
ace	-9.26872
▁svart	-9.26892
▁die	-9.26978
▁mye	-9.2699
▁italiensk	-9.27035
ов	-9.27078
▁sangen	-9.27112
▁syd	-9.27114
▁amerikansk	-9.27115
▁slekten	-9.27122
▁pra	-9.27208
▁aust	-9.27234
ria	-9.27481
ence	-9.2757
gående	-9.276
spiller	-9.27763
zh	-9.27769
nett	-9.27791
lå	-9.27833
▁pl	-9.27916
▁utviklet	-9.27961
▁ras	-9.27989
gj	-9.28019
produksjon	-9.28033
tale	-9.28042
▁minne	-9.2809
▁antall	-9.2811
▁27	-9.28271
gata	-9.28373
kov	-9.28382
▁års	-9.28389
▁lei	-9.28462
elva	-9.28502
▁russland	-9.28646
▁2004	-9.28682
▁us	-9.28795
▁blad	-9.28796
anger	-9.28809
ringen	-9.28863
▁imp	-9.29025
stro	-9.29028
organ	-9.29037
äl	-9.29041
▁viktige	-9.2909
▁komp	-9.29091
ì	-9.2918
▁international	-9.2918
▁lund	-9.29318
▁overtok	-9.29339
▁få	-9.29475
▁40	-9.29544
▁thi	-9.29552
▁vir	-9.29557
gaard	-9.29723
▁salt	-9.29753
lar	-9.29758
▁31	-9.2981
plan	-9.29836
▁grønn	-9.29857
sjonen	-9.29964
ram	-9.29974
▁nytt	-9.30007
▁tang	-9.30066
▁holm	-9.30199
▁menneske	-9.30233
are	-9.30258
в	-9.30278
way	-9.30322
sam	-9.3051
▁klubben	-9.30547
▁anders	-9.30574
▁krigs	-9.30575
▁administrasjons	-9.30622
▁fall	-9.30629
oni	-9.30636
▁skjer	-9.30655
▁myr	-9.30679
▁arne	-9.30679
ec	-9.30681
bert	-9.30706
gitt	-9.30765
м	-9.30765
press	-9.30799
bane	-9.31036
▁dom	-9.31042
kle	-9.3109
▁grenser	-9.31099
iserte	-9.31125
▁auto	-9.31325
trykk	-9.3135
▁omkring	-9.31374
▁vit	-9.31378
▁distriktet	-9.31384
ib	-9.31395
▁album	-9.3141
▁kraft	-9.31474
vare	-9.31484
▁styrke	-9.315
anske	-9.31518
▁satt	-9.31565
område	-9.31576
lei	-9.31602
▁felles	-9.31647
▁kvinne	-9.31664
ming	-9.31695
jen	-9.31711
▁versjon	-9.31845
handler	-9.31886
stykke	-9.31966
▁selskap	-9.31994
▁knut	-9.32061
ish	-9.32124
fører	-9.32197
▁pat	-9.32222
▁bort	-9.32223
jan	-9.32308
olog	-9.32335
poli	-9.32368
▁est	-9.3237
▁terr	-9.32422
▁ep	-9.32495
▁venstre	-9.32502
ai	-9.32539
▁miljø	-9.32559
▁herre	-9.32577
▁res	-9.32605
▁tyske	-9.32608
ssa	-9.3264
▁james	-9.32663
løse	-9.32737
områder	-9.32755
kjør	-9.32781
ket	-9.32806
of	-9.32835
vatnet	-9.32854
▁sosial	-9.32877
kamp	-9.32898
king	-9.3293
▁bygge	-9.3293
erende	-9.32994
▁zu	-9.33031
fal	-9.33063
▁orden	-9.33145
▁ordenen	-9.33201
mun	-9.33218
ansk	-9.33267
▁eneste	-9.33367
▁sanger	-9.33397
gard	-9.33483
▁lars	-9.3349
▁ordet	-9.33537
kket	-9.33568
pan	-9.33615
▁finn	-9.33618
rek	-9.33683
▁åtte	-9.33736
arm	-9.338
kant	-9.33811
▁veg	-9.33839
cha	-9.33885
▁len	-9.33886
ity	-9.339
▁gr	-9.33902
dde	-9.33905
▁sau	-9.34028
mod	-9.34029
▁sn	-9.34048
qu	-9.34061
ora	-9.34141
fag	-9.34178
ρ	-9.34181
▁arabisk	-9.34182
▁privat	-9.34188
kilden	-9.342
utdanning	-9.34211
▁kam	-9.34242
ore	-9.34317
▁punkt	-9.34326
pl	-9.34345
pol	-9.3443
lang	-9.34443
▁tj	-9.34449
rak	-9.34472
▁tildelt	-9.34601
▁skrift	-9.34602
▁hånd	-9.34657
kro	-9.34679
tun	-9.34699
än	-9.34738
ū	-9.34739
▁spesielt	-9.34752
mund	-9.34783
▁lek	-9.34791
aksjon	-9.34873
abel	-9.34944
bru	-9.35174
ott	-9.35202
gul	-9.35404
▁kull	-9.35413
▁flo	-9.35484
lus	-9.35487
▁180	-9.35494
kka	-9.35574
gjør	-9.35583
kur	-9.3559
▁hjelp	-9.35662
▁best	-9.35692
▁internasjonale	-9.35692
▁bygget	-9.35719
▁stemme	-9.35734
ografi	-9.35744
▁poly	-9.3576
nom	-9.35814
▁will	-9.35828
prosess	-9.35868
belteasteroide	-9.35905
▁michael	-9.35905
▁mørk	-9.35961
▁spilles	-9.35963
90	-9.35995
yk	-9.36026
▁ledet	-9.36029
▁deler	-9.36084
▁arten	-9.36117
full	-9.36226
tti	-9.36262
▁jern	-9.3645
▁høyre	-9.365
▁egentlig	-9.36502
aceae	-9.3655
syre	-9.3656
asjonen	-9.36606
rit	-9.36635
▁es	-9.36653
lov	-9.36681
▁eksempler	-9.3669
farge	-9.36713
ade	-9.36724
ella	-9.3682
grad	-9.36939
▁skje	-9.36945
ō	-9.36983
▁stort	-9.37022
▁driver	-9.37174
▁lite	-9.3725
99	-9.37254
▁hind	-9.37296
oli	-9.37411
▁ken	-9.37446
hel	-9.3745
39	-9.37509
valg	-9.37577
▁jernbane	-9.3762
wi	-9.37662
▁cy	-9.37685
øst	-9.37768
lund	-9.37895
ies	-9.37987
▁50	-9.38106
▁win	-9.38132
ismen	-9.38132
con	-9.38213
akademi	-9.38253
87	-9.38258
▁sir	-9.38315
17	-9.38406
48	-9.38449
▁bør	-9.38648
▁spille	-9.38662
▁hjem	-9.3867
▁yu	-9.3869
▁bio	-9.38716
▁vanlig	-9.38753
jøn	-9.38779
▁ett	-9.38845
▁stjerne	-9.38859
bia	-9.38869
▁sim	-9.38936
ori	-9.38965
musikk	-9.3901
▁with	-9.39172
ο	-9.3944
▁klar	-9.39456
rich	-9.39475
▁motto	-9.39536
▁frank	-9.39595
dt	-9.39662
▁eid	-9.39698
pel	-9.39717
ky	-9.39761
stor	-9.39777
▁bel	-9.39845
▁wol	-9.39934
▁louis	-9.40049
hand	-9.4005
tta	-9.40093
▁tids	-9.40208
▁just	-9.40219
ive	-9.40265
▁kilde	-9.40274
▁tegn	-9.40385
well	-9.40392
▁gje	-9.4041
cell	-9.40447
orm	-9.4045
▁dra	-9.40499
lon	-9.40542
▁luc	-9.40547
▁bilde	-9.40644
▁direkte	-9.40655
▁national	-9.40656
▁kontroll	-9.40791
▁hatt	-9.40802
▁bygd	-9.40889
▁bind	-9.40923
▁lev	-9.41166
arter	-9.41214
vakt	-9.41404
▁tilby	-9.41462
låt	-9.41469
▁kors	-9.41535
folk	-9.41577
▁nils	-9.41583
▁ya	-9.417
▁tiden	-9.41803
▁brensel	-9.41858
▁stasjon	-9.41861
språk	-9.41891
69	-9.41894
▁2003	-9.41911
loven	-9.41916
▁universitet	-9.41924
▁fle	-9.4195
▁klasse	-9.42011
▁cam	-9.42041
98	-9.42079
▁för	-9.42087
▁vid	-9.42325
▁handels	-9.42523
▁bol	-9.42555
able	-9.42565
▁mak	-9.42591
etter	-9.42607
det	-9.42613
▁div	-9.42727
grense	-9.42782
kast	-9.42797
▁smal	-9.42807
▁mik	-9.42875
67	-9.42879
skij	-9.42952
▁ein	-9.42954
▁region	-9.43023
▁hit	-9.43044
samling	-9.43071
▁funksjon	-9.43119
ille	-9.43123
▁folk	-9.43123
46	-9.43167
parti	-9.43174
ges	-9.43181
▁søster	-9.43189
на	-9.43209
alder	-9.43255
felt	-9.43256
▁egne	-9.43286
▁finsk	-9.4329
▁she	-9.43342
strøm	-9.43379
nivå	-9.43415
▁zo	-9.43434
▁eli	-9.4345
▁mes	-9.43497
▁enkelte	-9.43609
stoff	-9.43626
▁gate	-9.43633
motor	-9.43648
low	-9.43682
▁ville	-9.43713
▁kategori	-9.43741
liggende	-9.43748
▁hei	-9.43841
▁moderne	-9.43847
▁lan	-9.43928
▁nok	-9.43979
mid	-9.43988
▁kir	-9.44005
gua	-9.44022
▁bla	-9.44092
▁mol	-9.44156
teori	-9.44177
▁pin	-9.44186
▁stan	-9.44236
forbund	-9.44244
fl	-9.44306
hol	-9.44311
б	-9.44369
▁oppført	-9.44546
jel	-9.44661
▁franc	-9.44669
▁hall	-9.44674
veg	-9.4471
▁hovedstaden	-9.44737
▁utgav	-9.44766
ati	-9.44805
▁mørke	-9.44977
▁løper	-9.44989
▁spar	-9.44998
samisk	-9.45029
▁mid	-9.45057
▁nærings	-9.45064
hund	-9.45174
vig	-9.45186
mot	-9.45268
▁bad	-9.45302
▁drama	-9.45322
maskin	-9.45372
▁godt	-9.45401
▁sten	-9.45421
▁metall	-9.45548
her	-9.45569
field	-9.45617
▁kristian	-9.45633
▁world	-9.4564
▁delstaten	-9.45658
▁haug	-9.45671
▁riksvei	-9.4569
▁odd	-9.45735
▁gansk	-9.45807
▁rolle	-9.4588
▁flat	-9.45882
▁old	-9.45883
▁uk	-9.45913
45	-9.45928
▁up	-9.46
▁larvene	-9.46111
ledd	-9.46195
▁nabo	-9.46248
▁1990	-9.46298
kere	-9.46344
86	-9.46393
elli	-9.46417
dige	-9.46457
▁eget	-9.46476
jord	-9.46529
▁are	-9.46569
bær	-9.46616
▁cho	-9.46638
▁bygg	-9.46679
▁ganger	-9.46762
▁blei	-9.46771
▁forsvar	-9.46781
dorf	-9.46793
▁årlig	-9.46836
70	-9.46847
▁berlin	-9.46851
sol	-9.46918
▁char	-9.46962
▁gitt	-9.47007
▁partiet	-9.47062
føring	-9.47063
▁nesten	-9.47109
skip	-9.47164
lla	-9.47227
н	-9.47241
periode	-9.47318
▁løv	-9.47392
ob	-9.47477
▁turn	-9.47496
▁trekk	-9.4753
win	-9.47549
▁lær	-9.47581
▁trondheim	-9.47588
▁hjerte	-9.47618
▁grunnlagt	-9.47631
ney	-9.47704
can	-9.4772
▁enkelt	-9.47853
▁ev	-9.47867
▁råd	-9.47868
lling	-9.47903
fest	-9.47905
▁sl	-9.47939
områdene	-9.48003
midler	-9.48026
▁fortsatt	-9.48121
vert	-9.48169
▁brukte	-9.48194
▁europa	-9.48197
▁enhet	-9.48206
▁il	-9.48338
43	-9.48338
gikk	-9.48345
▁ferdig	-9.48421
nik	-9.48453
▁eng	-9.48485
last	-9.485
▁regionen	-9.4863
mos	-9.48641
▁elva	-9.48661
▁kul	-9.48676
▁borger	-9.48678
skudd	-9.48679
▁fyr	-9.48685
▁maskin	-9.48693
▁app	-9.48734
▁gass	-9.48796
kjenn	-9.4889
▁spansk	-9.48892
▁mill	-9.49047
gon	-9.49052
blad	-9.49069
▁amerikanske	-9.49081
▁forsknings	-9.49148
▁rund	-9.49196
▁time	-9.49329
▁sj	-9.4938
▁arbeid	-9.49388
▁dannet	-9.49456
▁hell	-9.49464
▁opprettet	-9.49532
38	-9.49568
ala	-9.49592
iner	-9.49596
mis	-9.4968
stikk	-9.49743
▁hører	-9.49837
▁reise	-9.49844
▁linje	-9.49847
▁blo	-9.4993
▁spill	-9.50001
▁henrik	-9.50004
▁dar	-9.50063
▁por	-9.50105
gna	-9.50122
▁hed	-9.50148
▁anna	-9.50297
roll	-9.50307
▁wo	-9.50394
▁trykk	-9.5042
▁hå	-9.50471
kol	-9.50521
manns	-9.50571
▁lege	-9.50601
▁museum	-9.50739
▁tittel	-9.50846
▁bygde	-9.50883
г	-9.50885
▁2012	-9.50912
fabrikk	-9.50927
oth	-9.50947
tyr	-9.50955
▁fv	-9.51116
▁gjør	-9.51156
49	-9.51207
▁lø	-9.51259
jar	-9.51268
vol	-9.51318
stedet	-9.51358
drag	-9.51358
samfunn	-9.51403
▁produsent	-9.51428
▁sag	-9.51521
й	-9.51562
▁transport	-9.51568
▁hard	-9.51607
▁eiendom	-9.51619
▁rei	-9.51676
▁løp	-9.51683
▁cas	-9.51697
▁hjemme	-9.51798
verket	-9.51804
ppen	-9.51816
▁ant	-9.51844
▁eg	-9.5186
▁polsk	-9.51867
oll	-9.51953
▁sku	-9.52056
▁that	-9.5208
▁80	-9.5214
lik	-9.52177
▁bakvingen	-9.52245
▁richard	-9.52247
▁johann	-9.52249
▁32	-9.52261
grav	-9.52276
krets	-9.52299
▁medlemmer	-9.52319
brun	-9.52367
ico	-9.52372
bet	-9.52508
▁munn	-9.52611
▁tverr	-9.527
▁nes	-9.52703
▁søk	-9.52741
stol	-9.52765
ima	-9.52843
konkurranse	-9.52882
▁1996	-9.52927
▁betydelig	-9.52928
ick	-9.52973
▁kongen	-9.52975
voll	-9.52977
uc	-9.53035
oksid	-9.53047
pla	-9.53054
cent	-9.53066
▁design	-9.53078
bladet	-9.53108
ith	-9.53141
voks	-9.53249
▁fant	-9.53297
▁ten	-9.53306
fatte	-9.5333
▁gla	-9.53414
ical	-9.53438
▁tyskland	-9.53472
merke	-9.53577
λ	-9.53617
▁sentrale	-9.53696
com	-9.53725
▁tsj	-9.53749
▁maur	-9.53803
▁klo	-9.53862
▁hon	-9.53914
lede	-9.54041
bygging	-9.54055
shan	-9.54057
ult	-9.54103
graf	-9.5422
19	-9.54222
▁staten	-9.54239
́	-9.54311
▁byprefekturet	-9.54311
▁omtrent	-9.54311
fugl	-9.54312
▁typisk	-9.54318
▁fleste	-9.54385
uf	-9.54438
forbundet	-9.54541
▁én	-9.54558
▁mulig	-9.54573
departementet	-9.54579
▁sund	-9.5466
på	-9.54667
▁svarte	-9.54704
enberg	-9.54714
▁elev	-9.54833
▁utdanne	-9.5485
søk	-9.54981
č	-9.55011
▁1993	-9.55011
18	-9.55045
▁charles	-9.55046
▁elve	-9.55077
led	-9.5508
▁jobb	-9.55146
pho	-9.55153
sport	-9.55227
▁dam	-9.5523
▁press	-9.55268
brudd	-9.55272
▁class	-9.55314
ernes	-9.55374
▁elv	-9.55391
old	-9.55431
▁ara	-9.55455
▁bass	-9.55496
▁regnes	-9.5551
dia	-9.55564
kunst	-9.55591
▁grense	-9.55598
▁kroppen	-9.55731
▁2014	-9.55735
▁ungdoms	-9.55804
røy	-9.55875
▁tam	-9.55921
▁figur	-9.55931
trop	-9.55973
▁strand	-9.55974
ez	-9.56008
▁bay	-9.56101
63	-9.56145
gruppe	-9.56169
▁web	-9.5622
▁natt	-9.56333
▁edderkopp	-9.56366
▁sykdom	-9.56407
yan	-9.56411
▁sentrum	-9.56445
▁informasjon	-9.56473
vogn	-9.56496
▁angrep	-9.56502
▁black	-9.56522
rør	-9.56543
▁jesu	-9.56645
▁long	-9.56663
▁star	-9.56672
ough	-9.56696
▁nam	-9.56752
▁gru	-9.56763
nis	-9.56777
løper	-9.56855
▁svenske	-9.56938
▁aks	-9.56989
az	-9.57029
▁syk	-9.57074
▁tung	-9.57102
▁vekt	-9.57108
▁sko	-9.57134
posisjon	-9.57136
medlem	-9.57146
▁knytte	-9.57148
ama	-9.57166
▁vold	-9.57178
zy	-9.57182
▁angel	-9.57226
▁slike	-9.57247
tog	-9.57254
▁dor	-9.57264
▁los	-9.57328
▁historisk	-9.57347
▁qui	-9.57369
▁tim	-9.57459
øyene	-9.57529
liste	-9.57549
ved	-9.57549
løpet	-9.57639
ål	-9.57747
▁santa	-9.57748
▁forsøk	-9.57813
▁tilsvarende	-9.57858
▁finland	-9.57876
▁lar	-9.57885
▁harald	-9.57892
kraft	-9.5792
▁redaktør	-9.5793
gy	-9.57935
▁politiker	-9.58007
strand	-9.58185
▁ana	-9.58262
▁virke	-9.58313
fang	-9.58381
▁cap	-9.58433
▁verdi	-9.58442
▁cre	-9.58534
▁frø	-9.5855
▁sort	-9.58571
kommune	-9.58573
▁lufthavn	-9.58593
▁meg	-9.58595
▁studert	-9.58614
79	-9.58638
▁off	-9.5871
▁viktig	-9.58742
▁renner	-9.58774
ritt	-9.58888
▁foss	-9.58962
sis	-9.59001
yang	-9.59025
▁interesse	-9.59055
sang	-9.59104
▁nest	-9.59132
delt	-9.59142
illa	-9.59222
din	-9.59254
mes	-9.59296
industri	-9.59297
15	-9.59337
▁varme	-9.59377
▁albert	-9.59454
▁olav	-9.59466
osa	-9.5948
▁besøk	-9.59503
▁sogn	-9.59538
▁hest	-9.59673
retning	-9.59758
▁river	-9.5982
▁behandling	-9.59844
▁jag	-9.5985
ras	-9.59852
▁ok	-9.59866
hjul	-9.59942
hall	-9.59992
22	-9.60082
▁leg	-9.60091
59	-9.60096
▁70	-9.60112
▁nordøst	-9.60128
ite	-9.60205
pur	-9.60205
vinger	-9.60283
vold	-9.60286
▁plat	-9.60299
▁gård	-9.60321
grunn	-9.60367
one	-9.60427
ár	-9.60461
▁cro	-9.60495
12	-9.60563
▁hør	-9.6059
▁andreas	-9.60619
▁drift	-9.60639
▁anton	-9.60641
▁hvite	-9.60685
▁vokal	-9.60688
▁provins	-9.60691
klo	-9.60725
▁dokument	-9.60788
▁nowiki	-9.60788
▁gor	-9.60818
▁økonomisk	-9.60819
lam	-9.60828
▁fjern	-9.6083
▁resultat	-9.6088
▁kirken	-9.60885
▁pop	-9.60924
▁rein	-9.60945
▁uttrykk	-9.60987
fond	-9.61041
rad	-9.61128
dels	-9.61137
▁kris	-9.61152
▁kraftverk	-9.6122
skolen	-9.61232
▁lak	-9.61234
▁tha	-9.61239
▁gy	-9.61252
ston	-9.61363
35	-9.61399
▁snø	-9.61419
bein	-9.61425
mma	-9.61462
▁kall	-9.61503
demokrat	-9.61527
▁kjenne	-9.6153
ç	-9.61535
vind	-9.61565
medisin	-9.61573
▁personer	-9.61575
▁seil	-9.61636
▁lengde	-9.61667
feltet	-9.61677
▁kjerne	-9.61691
▁pris	-9.61691
▁60	-9.61748
▁nasjonale	-9.61756
▁merke	-9.61816
▁forbindelse	-9.61934
▁tjeneste	-9.61988
▁grand	-9.62008
merket	-9.62014
▁nevnes	-9.62063
▁fylkes	-9.62103
▁rad	-9.62132
▁bom	-9.62134
▁hær	-9.6216
▁kari	-9.62165
65	-9.62191
▁dyre	-9.62195
▁gun	-9.62212
▁fredrik	-9.62263
ette	-9.62264
ô	-9.62286
▁north	-9.62341
▁produksjon	-9.62391
▁university	-9.62392
▁variant	-9.62397
▁skatt	-9.62442
▁indisk	-9.62468
▁reg	-9.62474
bilde	-9.62576
▁leir	-9.62725
▁daglig	-9.62795
▁flor	-9.62884
▁wei	-9.62898
komme	-9.62992
fjellet	-9.62994
▁stre	-9.63041
▁ask	-9.63091
løst	-9.63113
ios	-9.6334
▁cra	-9.63366
▁indre	-9.63434
▁epi	-9.63486
én	-9.63503
▁dato	-9.63515
▁åpnet	-9.63553
61	-9.63609
▁litteratur	-9.63624
▁borg	-9.63654
vitenskap	-9.63663
▁havn	-9.63734
ān	-9.63751
▁zi	-9.63773
messig	-9.63849
løs	-9.63928
▁eldre	-9.63934
▁bern	-9.64142
▁samle	-9.6416
▁veien	-9.64183
plassen	-9.64204
feld	-9.6448
▁offentlig	-9.64487
ias	-9.64547
σ	-9.64577
▁1991	-9.64577
▁service	-9.64577
▁neu	-9.64578
cher	-9.64689
▁slo	-9.64701
▁king	-9.64729
▁kommunene	-9.64755
pha	-9.64756
mas	-9.64935
mba	-9.65116
▁vinner	-9.65169
▁dansk	-9.65184
samlingen	-9.65185
▁utstyr	-9.65297
▁høyt	-9.65331
â	-9.65349
τ	-9.65352
▁1995	-9.65352
▁bolig	-9.65379
holm	-9.6539
▁nar	-9.65484
▁start	-9.65499
▁mø	-9.65524
▁may	-9.65574
ux	-9.65578
kop	-9.6559
elige	-9.65608
flu	-9.65619
▁instrument	-9.6573
▁song	-9.65844
▁sli	-9.65897
▁jean	-9.65898
▁horn	-9.65923
▁kost	-9.65965
▁lærer	-9.65972
▁hvis	-9.66016
spor	-9.66124
▁gard	-9.66129
▁musiker	-9.66129
▁1988	-9.66133
▁skade	-9.66137
▁sterkt	-9.66139
▁forenkle	-9.66158
▁jazz	-9.66185
topp	-9.66198
riket	-9.66207
▁møte	-9.66263
▁out	-9.66265
▁finans	-9.66265
pal	-9.66437
saker	-9.66442
▁fest	-9.66486
ordenen	-9.6652
oner	-9.66528
formede	-9.66529
▁program	-9.66582
dam	-9.66629
▁ran	-9.66729
wan	-9.66732
▁felt	-9.66748
formen	-9.66825
ifisert	-9.6686
▁stav	-9.66911
▁middelsstor	-9.66921
▁rå	-9.66934
▁1999	-9.66942
▁power	-9.66945
▁frukt	-9.67022
▁camp	-9.6704
kraftverk	-9.67109
▁35	-9.67174
▁lokale	-9.67174
trekk	-9.67183
kanalen	-9.67233
▁tank	-9.67236
vekst	-9.67248
▁båt	-9.67248
▁løs	-9.6726
▁love	-9.67276
cl	-9.67314
▁laur	-9.67341
▁fugle	-9.67388
ping	-9.67412
uch	-9.67413
under	-9.67454
rie	-9.67499
ili	-9.67568
▁landskap	-9.67579
▁erstattet	-9.67627
▁temperatur	-9.67632
▁elektro	-9.67696
dri	-9.67704
ε	-9.67714
▁derimot	-9.67715
▁ris	-9.67774
bare	-9.67774
▁daniel	-9.67814
fart	-9.67896
museum	-9.679
foss	-9.67907
aktig	-9.67994
47	-9.68026
▁personlig	-9.68064
produkter	-9.68074
gler	-9.6813
ativ	-9.68165
delen	-9.68195
▁esp	-9.68208
▁blomster	-9.68308
snitt	-9.68477
eier	-9.68542
▁danmark	-9.68551
▁sul	-9.68633
snes	-9.68688
▁ref	-9.68699
▁tall	-9.68717
▁wil	-9.68732
▁virksomhet	-9.68847
▁sju	-9.68877
løsning	-9.68976
▁typer	-9.69051
▁nan	-9.69056
dannelse	-9.69132
▁fot	-9.69197
▁vä	-9.69258
ark	-9.69288
▁nærmest	-9.69325
cheng	-9.6933
▁nordvest	-9.69331
▁sommeren	-9.69333
▁1986	-9.69341
▁1998	-9.69342
▁2016	-9.69349
▁konsert	-9.69368
▁att	-9.69447
nie	-9.69468
våpen	-9.69544
▁buss	-9.69546
▁offisiell	-9.69573
yll	-9.69584
▁komponist	-9.69607
kos	-9.69614
hof	-9.69934
bord	-9.69939
▁boken	-9.69941
aria	-9.70043
program	-9.70085
я	-9.70134
▁uavhengig	-9.70134
prisen	-9.70161
åsen	-9.70184
▁vinge	-9.70191
▁rosen	-9.70213
dis	-9.7038
▁hage	-9.70572
▁dyp	-9.70703
▁din	-9.70766
▁hellig	-9.70853
gri	-9.70884
▁sjef	-9.70936
atur	-9.70942
ù	-9.70953
▁1997	-9.70953
teknikk	-9.70955
▁london	-9.70955
▁ton	-9.70962
mond	-9.70981
▁2015	-9.70987
ball	-9.7102
vekt	-9.71034
▁dj	-9.71113
▁skapt	-9.71118
▁mikro	-9.71166
artikler	-9.71189
▁sho	-9.71222
ич	-9.71228
element	-9.71272
rup	-9.71328
▁kin	-9.7133
skapet	-9.71359
▁kode	-9.71364
▁nummer	-9.71456
komst	-9.71465
oide	-9.71613
mil	-9.71617
sand	-9.71635
svik	-9.71727
▁japan	-9.71747
▁minst	-9.71761
ł	-9.71778
▁joseph	-9.7178
▁malt	-9.71805
▁2013	-9.71806
▁larven	-9.71832
lad	-9.71852
ulf	-9.71881
fortelling	-9.71919
present	-9.71952
▁direktør	-9.72051
prosjekt	-9.72059
▁real	-9.72192
▁log	-9.72253
▁sco	-9.72423
ctor	-9.72494
hai	-9.72572
cht	-9.72585
ryd	-9.72598
slutning	-9.7262
▁1980	-9.72638
▁blue	-9.7266
▁avdeling	-9.72689
sia	-9.72727
vision	-9.72733
▁korte	-9.72892
middel	-9.72969
24	-9.72994
25	-9.73045
grep	-9.7311
ín	-9.73264
året	-9.73364
litt	-9.7343
klubben	-9.73442
▁stiftet	-9.73454
▁øvre	-9.73466
▁1970	-9.73474
▁anlegget	-9.73494
▁festival	-9.73497
▁90	-9.73509
firma	-9.73531
kjede	-9.7354
politikk	-9.73554
trær	-9.73599
▁bj	-9.73639
sberg	-9.73652
▁drev	-9.73703
dro	-9.73749
historie	-9.7377
ander	-9.73845
▁india	-9.73962
bol	-9.74064
øve	-9.74096
yuan	-9.74104
37	-9.74197
▁gram	-9.74221
▁45	-9.74231
▁kulturminner	-9.74301
▁wilhelm	-9.74301
ström	-9.74301
▁beskrev	-9.74301
▁mannskapet	-9.74316
▁1985	-9.74327
▁spi	-9.74451
▁kil	-9.74526
▁sports	-9.74561
▁vind	-9.74659
16	-9.74679
▁olsen	-9.7469
umb	-9.74764
▁bøker	-9.74824
▁vær	-9.74829
▁økt	-9.74865
▁his	-9.7493
▁landsbyen	-9.74975
▁cm	-9.75012
▁tett	-9.75013
qua	-9.75077
emb	-9.75084
▁bud	-9.7509
▁israel	-9.75157
▁middelalder	-9.75163
▁sja	-9.75203
løft	-9.75252
▁beskytte	-9.75268
▁forhold	-9.75286
▁lot	-9.75289
linjen	-9.75301
tag	-9.75332
11	-9.75339
▁samfunns	-9.75362
▁rygg	-9.7547
▁nr	-9.75477
▁dynastiet	-9.75484
▁påvirke	-9.75494
▁small	-9.75523
▁matt	-9.75634
varer	-9.75747
lem	-9.75805
▁intern	-9.75815
basert	-9.75825
▁legge	-9.75856
san	-9.75863
kirke	-9.75959
▁biskop	-9.76024
▁xiàn	-9.76029
▁betegne	-9.76044
▁varierer	-9.76059
▁perioden	-9.76066
▁høsten	-9.76185
bakk	-9.76198
▁steder	-9.76224
rådet	-9.76279
▁lyse	-9.76412
gram	-9.76454
▁inndel	-9.76567
▁turist	-9.76594
nummer	-9.76595
amin	-9.76708
▁met	-9.76843
▁fjær	-9.76892
▁autonom	-9.76902
▁1987	-9.7691
▁group	-9.7692
virkning	-9.76934
▁skriver	-9.76969
handel	-9.76971
▁klubb	-9.76973
tjeneste	-9.77067
▁fortsatte	-9.77075
▁sendt	-9.77089
▁marg	-9.77131
75	-9.77139
▁kata	-9.77228
▁с	-9.77238
▁grunnla	-9.77242
▁multi	-9.77252
▁trafikk	-9.77302
ville	-9.77355
krigen	-9.77371
▁inge	-9.77405
▁hannen	-9.77444
▁etablert	-9.77644
▁jacob	-9.77685
ward	-9.77755
ς	-9.77756
▁stammer	-9.77763
▁kilometer	-9.77765
▁bokstav	-9.77775
avdeling	-9.77783
▁statsminister	-9.77786
▁kjell	-9.77816
▁mah	-9.77884
▁meget	-9.77884
▁nav	-9.77926
▁sider	-9.7796
▁høyde	-9.77969
▁hovedrollene	-9.78023
▁holde	-9.78045
▁utført	-9.78074
▁comp	-9.78076
▁pun	-9.78077
gor	-9.78117
▁gjøre	-9.78153
▁delt	-9.78162
▁æ	-9.78193
▁ube	-9.78219
▁aur	-9.7831
13	-9.78369
fu	-9.7845
▁heng	-9.78548
▁iii	-9.78583
▁avis	-9.78588
▁1992	-9.78649
▁bryst	-9.78652
▁norrøn	-9.78653
▁observ	-9.78654
▁bronse	-9.78671
▁ønske	-9.78672
awa	-9.78674
vinner	-9.78685
▁skips	-9.78754
▁etablerte	-9.78771
▁slott	-9.78816
▁gården	-9.78833
typen	-9.78957
▁gau	-9.79033
▁andersen	-9.79071
uz	-9.79103
plasser	-9.79144
▁kalte	-9.7916
zu	-9.79247
spinner	-9.79261
klasse	-9.79348
kjøp	-9.7937
▁kart	-9.79389
▁rob	-9.79411
▁wu	-9.7945
▁makt	-9.79467
innen	-9.79519
κ	-9.79542
▁primær	-9.79544
▁eldste	-9.79544
▁york	-9.79547
▁italia	-9.79585
▁kalk	-9.79624
▁brann	-9.7965
▁deltok	-9.79659
▁bob	-9.79739
▁rute	-9.79839
fjell	-9.7989
skytter	-9.79914
sjö	-9.79924
▁mono	-9.79946
stripe	-9.79967
distrikt	-9.7998
▁ind	-9.79986
bank	-9.7999
▁tau	-9.80006
▁niels	-9.80075
▁utgi	-9.80098
▁henne	-9.8016
▁stasjonen	-9.80192
▁klima	-9.80194
sko	-9.80217
lé	-9.80327
vesen	-9.80367
▁lau	-9.80369
off	-9.80439
▁rektor	-9.80446
ric	-9.80447
▁allerede	-9.80451
▁produkt	-9.80455
▁ordfører	-9.80473
▁whi	-9.80502
▁adel	-9.8051
▁gall	-9.80635
rekord	-9.80659
fot	-9.80714
▁vanlige	-9.80743
▁total	-9.80823
▁170	-9.80843
▁has	-9.80856
▁jim	-9.80862
▁jule	-9.80863
▁nordlig	-9.80898
gli	-9.80927
vre	-9.80944
▁adam	-9.80985
▁middel	-9.81132
hem	-9.81215
plante	-9.8129
▁original	-9.81349
ekspedisjon	-9.81352
▁relativ	-9.81354
▁mala	-9.81365
▁enten	-9.81377
▁helge	-9.81429
▁vill	-9.8144
▁linjen	-9.8146
▁orkester	-9.81529
▁gå	-9.81561
lapp	-9.81563
▁maler	-9.81591
▁fåt	-9.81622
kirken	-9.81624
bunn	-9.81631
▁professor	-9.81737
▁hunnen	-9.81786
▁teksten	-9.81808
hua	-9.81824
▁marine	-9.81879
virksomhet	-9.8189
▁holder	-9.8193
▁200	-9.81948
▁hill	-9.82183
▁verden	-9.82186
iger	-9.82218
ona	-9.82235
▁benyttet	-9.8227
▁1994	-9.8227
▁http	-9.82273
▁qū	-9.82292
spis	-9.82297
hard	-9.82325
▁mobil	-9.82443
▁lede	-9.82451
▁hul	-9.82455
▁totalt	-9.82465
▁glass	-9.82486
hode	-9.82554
▁flu	-9.82573
▁rep	-9.82591
ön	-9.8266
▁begrepet	-9.82776
▁mester	-9.82827
▁politisk	-9.82911
▁test	-9.82978
mbo	-9.83028
32	-9.83081
park	-9.83083
▁paa	-9.83111
parken	-9.83121
▁øverst	-9.832
▁prosent	-9.83204
▁oblast	-9.83212
▁2017	-9.83235
▁verne	-9.83266
mul	-9.83364
▁artikkel	-9.83386
▁organisasjonen	-9.83471
21	-9.83514
▁formel	-9.83547
▁shan	-9.83594
former	-9.83709
historiker	-9.83734
head	-9.83747
▁dialekt	-9.8378
cker	-9.83799
▁kim	-9.83825
hjem	-9.8384
▁hud	-9.8397
rød	-9.83992
▁grev	-9.84029
dahl	-9.84034
vika	-9.84047
▁ce	-9.84077
▁cri	-9.84088
gården	-9.84092
▁syr	-9.84109
ž	-9.8413
▁millioner	-9.84131
▁tilhørte	-9.84132
▁gunnar	-9.84133
▁pave	-9.84146
▁gil	-9.84165
▁tan	-9.84168
▁effekt	-9.84251
▁stopp	-9.84323
▁but	-9.84374
▁kai	-9.84414
▁disk	-9.84522
▁scene	-9.84611
▁oliv	-9.84659
▁ting	-9.8468
▁plu	-9.8468
forbindelse	-9.84747
▁music	-9.84827
▁euro	-9.84844
▁prosjekt	-9.84907
▁dun	-9.84937
gav	-9.85027
▁øvrig	-9.85062
▁benyttes	-9.85074
▁nattfly	-9.851
ев	-9.85105
▁likevel	-9.85141
lser	-9.85333
▁leon	-9.85391
▁asia	-9.85458
▁dro	-9.85459
oma	-9.8546
▁hj	-9.85496
maleri	-9.85514
somme	-9.85622
▁phil	-9.85664
▁ric	-9.85678
bakken	-9.85705
▁samling	-9.85742
▁gren	-9.85753
▁sun	-9.8577
legger	-9.8578
▁karakter	-9.85813
▁tradisjon	-9.85906
▁hem	-9.85913
bul	-9.85982
▁gjelder	-9.85985
ǎ	-9.86026
▁alternativ	-9.86026
istene	-9.86028
▁frankrike	-9.86042
▁sesongen	-9.86062
▁sivil	-9.86147
àn	-9.86177
▁aldri	-9.86215
▁city	-9.86277
▁nasjonalpark	-9.86307
mont	-9.8632
bach	-9.86348
▁motstand	-9.86359
▁fører	-9.86389
▁ledd	-9.86399
▁ter	-9.86415
▁grupper	-9.86476
lich	-9.86521
chu	-9.86529
▁marie	-9.86667
▁sar	-9.86689
figur	-9.86704
▁stoff	-9.86733
cal	-9.86733
▁tilhøre	-9.8676
sey	-9.86769
▁danse	-9.86798
lak	-9.86853
onia	-9.86855
▁tann	-9.86908
fell	-9.8693
▁1984	-9.86988
▁publisert	-9.86988
▁club	-9.86989
▁drept	-9.86996
▁south	-9.86999
33	-9.87033
▁solgt	-9.87124
▁bærer	-9.87299
▁innsjøen	-9.87373
▁arn	-9.87374
▁fett	-9.87375
▁petr	-9.87385
▁buk	-9.875
yu	-9.87517
▁bille	-9.87532
▁front	-9.87546
ato	-9.87549
▁lim	-9.87587
marked	-9.87736
brød	-9.87949
ē	-9.87958
▁friedrich	-9.87958
▁omfattet	-9.87962
▁kjøpte	-9.87966
▁canada	-9.87971
▁tørr	-9.8803
fartøy	-9.88033
▁markeds	-9.88067
levende	-9.88074
pin	-9.88115
27	-9.88124
town	-9.88195
▁bygningen	-9.88204
fil	-9.88207
tjenester	-9.88245
▁faren	-9.88259
▁harry	-9.88259
▁fat	-9.88267
byrå	-9.88268
▁trond	-9.88295
▁problem	-9.88303
▁høye	-9.88323
car	-9.88348
▁gode	-9.88352
▁motta	-9.88354
▁hva	-9.88383
arbeider	-9.88454
▁tema	-9.88512
rygg	-9.88601
▁pap	-9.88682
▁spiss	-9.88714
kontor	-9.88729
▁luk	-9.88737
skipet	-9.88864
▁selve	-9.88893
▁roma	-9.88899
▁stol	-9.88905
ledning	-9.88919
▁idrettslag	-9.8892
▁livs	-9.88926
ò	-9.88939
▁smith	-9.88959
▁familiegruppen	-9.8896
▁1979	-9.8896
▁referere	-9.88965
kjel	-9.88966
▁betegnelsen	-9.88969
▁kryss	-9.89003
▁krigen	-9.89051
▁500	-9.89079
▁delen	-9.89085
shire	-9.89149
sjø	-9.89189
▁syv	-9.89262
▁rik	-9.89338
▁magne	-9.89389
tom	-9.89393
▁brand	-9.89509
▁vent	-9.89524
▁åpen	-9.89527
▁from	-9.89566
▁ordens	-9.89582
▁boy	-9.89664
strek	-9.89693
▁indi	-9.89726
▁dommer	-9.89741
▁fisk	-9.89773
▁mart	-9.89823
▁åpning	-9.89899
▁vik	-9.89922
advokat	-9.89929
▁religion	-9.89929
▁benytter	-9.8993
▁følge	-9.89983
▁bydistrikt	-9.89983
▁gjeste	-9.90061
nntil	-9.9007
parten	-9.90105
▁cur	-9.90112
▁az	-9.9022
▁kvar	-9.90236
▁villa	-9.9025
▁sunn	-9.90278
▁morten	-9.9029
▁damp	-9.9033
▁yi	-9.90334
▁krig	-9.90352
▁kraftig	-9.90395
31	-9.90447
▁feil	-9.90522
23	-9.90597
▁ari	-9.90731
▁område	-9.90742
▁gjer	-9.90819
hør	-9.90836
ira	-9.9088
ß	-9.90921
▁reference	-9.90929
▁fjerde	-9.9093
▁uttale	-9.90933
▁stavanger	-9.90943
bit	-9.90968
▁fjorden	-9.90992
▁kreft	-9.91027
▁flertall	-9.91027
▁europeisk	-9.9107
ique	-9.91109
▁rang	-9.91137
ww	-9.91143
▁henry	-9.9116
▁ånd	-9.91223
debut	-9.91231
▁operer	-9.91269
▁underlagt	-9.91288
trinn	-9.91303
▁retts	-9.91315
▁mit	-9.91368
▁rør	-9.91422
▁plassert	-9.91471
▁kontor	-9.91472
▁ork	-9.91483
▁operasjon	-9.91508
▁naturlig	-9.91509
▁prisen	-9.91533
høy	-9.91622
▁cli	-9.9173
fjellene	-9.91749
post	-9.91761
▁fjord	-9.91864
linje	-9.91874
▁prop	-9.91937
institusjon	-9.91939
μ	-9.91939
▁ukrainsk	-9.91939
▁1983	-9.91939
▁opprinnelse	-9.91939
▁klassisk	-9.91943
▁naturgass	-9.91949
▁produksjons	-9.91957
▁stod	-9.91962
▁bølge	-9.92004
elv	-9.92005
▁kloster	-9.9201
▁inngår	-9.92017
▁byer	-9.92028
▁alltid	-9.92055
▁regjeringen	-9.92058
▁foruten	-9.92092
▁ull	-9.9217
▁bach	-9.92208
▁skrive	-9.92243
▁wen	-9.92251
▁hode	-9.92301
▁korn	-9.92352
▁æres	-9.92368
▁ud	-9.92386
▁jack	-9.9243
itter	-9.92433
▁bou	-9.92549
bøl	-9.92553
pri	-9.92576
▁mini	-9.92585
▁bane	-9.92613
▁fremme	-9.92617
▁unge	-9.92619
▁sve	-9.92619
hei	-9.92683
14	-9.92687
▁simon	-9.92725
wald	-9.92733
▁langt	-9.92773
trafikk	-9.92787
▁tai	-9.9281
▁aas	-9.92851
▁rose	-9.92868
▁hopp	-9.92875
▁flyplass	-9.92908
▁fol	-9.92951
▁elektrisk	-9.92959
▁egypt	-9.92959
▁afrika	-9.92963
▁nikola	-9.92963
▁sikkerhets	-9.93032
▁trommer	-9.93056
erud	-9.93063
▁trener	-9.93095
▁organisasjon	-9.93138
▁ven	-9.93149
▁kjøpe	-9.93173
42	-9.93183
▁retning	-9.93201
sdatter	-9.93212
▁patri	-9.93338
▁kjøre	-9.93368
▁oc	-9.93459
▁lyst	-9.93465
▁troll	-9.93553
▁kast	-9.93616
▁fc	-9.9362
▁teknisk	-9.93696
▁175	-9.9371
▁syl	-9.93768
ison	-9.93804
▁eva	-9.9381
▁36	-9.93836
26	-9.93878
holmen	-9.93878
▁cer	-9.93919
▁sannsynlig	-9.9399
▁1982	-9.9399
▁tydelig	-9.93996
▁bat	-9.94019
▁grunnlegger	-9.9402
▁tog	-9.94031
▁aktivitet	-9.94067
uri	-9.94096
▁bit	-9.94132
▁danske	-9.94147
▁single	-9.9421
▁bakke	-9.94211
▁begynner	-9.94245
36	-9.94282
▁tenn	-9.94287
▁regjerings	-9.94291
▁mei	-9.94296
spekt	-9.94451
▁artist	-9.94471
▁symbol	-9.94499
▁åpne	-9.94529
▁iso	-9.94644
▁п	-9.94692
▁sær	-9.94847
▁paris	-9.9486
▁vet	-9.95007
▁177	-9.95009
▁1962	-9.95032
▁33	-9.95034
▁inneholdt	-9.95041
høgskole	-9.95089
▁mennesker	-9.95117
▁drive	-9.95129
▁arve	-9.95145
▁ung	-9.95164
fugler	-9.952
▁fan	-9.95235
▁gold	-9.9535
slaget	-9.95351
hed	-9.95385
person	-9.95399
▁150	-9.95454
▁bevegelse	-9.95465
jæ	-9.95499
vor	-9.95524
▁krets	-9.95547
▁hoff	-9.95568
▁nrk	-9.95578
anda	-9.95617
▁dog	-9.95709
▁hil	-9.95732
▁cle	-9.95757
▁kvinner	-9.95828
▁røde	-9.95857
▁forkorte	-9.95871
▁ansvar	-9.95884
▁forskjell	-9.96081
▁records	-9.96084
▁magnus	-9.96093
▁melodi	-9.96104
zhi	-9.9615
▁в	-9.96169
▁stål	-9.96191
bal	-9.96227
▁masse	-9.96283
▁hodet	-9.96307
▁forsvars	-9.96328
gift	-9.96446
▁petter	-9.96474
▁160	-9.96492
▁high	-9.96531
▁ey	-9.96576
skift	-9.96635
▁gyl	-9.96749
▁chang	-9.9675
▁klokke	-9.96881
sanger	-9.9695
▁fler	-9.96973
havn	-9.97006
miljø	-9.97103
▁opphav	-9.97123
▁1976	-9.97149
▁jørgen	-9.97149
▁regissert	-9.9715
▁spesiell	-9.9715
▁nedenfor	-9.97157
strål	-9.97172
▁mir	-9.97195
▁ark	-9.97266
▁forvingen	-9.97277
▁geo	-9.97281
▁nederlandsk	-9.97309
▁forretnings	-9.97412
dagen	-9.97472
▁britiske	-9.97523
▁høyere	-9.97578
ensis	-9.9765
28	-9.97663
olje	-9.97665
▁fløy	-9.977
▁tonn	-9.97735
▁lyn	-9.97806
tilbud	-9.97901
akh	-9.97924
▁kru	-9.97926
▁skifte	-9.98041
eira	-9.98069
▁festning	-9.98082
festival	-9.98168
▁forlag	-9.9818
▁københavn	-9.98224
▁flyttet	-9.9823
▁united	-9.9823
▁rolf	-9.98235
▁betjene	-9.98239
▁sit	-9.98316
▁34	-9.98352
▁gis	-9.98357
▁streng	-9.98367
▁forfatteren	-9.98464
▁stamme	-9.98504
▁bydelen	-9.98529
soldat	-9.98544
stille	-9.98586
▁trolig	-9.9862
▁former	-9.98645
▁led	-9.98679
▁fry	-9.98689
serie	-9.98699
▁union	-9.98768
zj	-9.98781
plikt	-9.98808
▁spre	-9.98838
▁sønnen	-9.98838
▁stri	-9.98866
▁gon	-9.98867
▁starter	-9.98881
▁dahl	-9.98969
▁internasjonal	-9.99062
▁sum	-9.99143
▁prøve	-9.99155
▁was	-9.99197
▁størrelse	-9.99201
▁krav	-9.99288
foreningen	-9.99291
sekretær	-9.99298
næs	-9.99304
▁administrativ	-9.99311
▁1981	-9.99311
▁inspirert	-9.99311
▁kjemisk	-9.99312
ος	-9.99321
▁jevn	-9.99397
▁gjenopp	-9.99433
kilde	-9.99456
verdig	-9.99475
▁måte	-9.9955
cho	-9.99561
▁stadig	-9.99573
▁fylket	-9.99592
▁england	-9.99673
▁gjort	-9.99693
▁team	-9.99704
war	-9.99803
▁kok	-9.99814
rey	-9.99958
▁dekk	-10.0002
▁sideelv	-10.0004
▁rike	-10.0004
▁ts	-10.001
▁wood	-10.0013
sfjorden	-10.0015
▁fur	-10.0024
▁kanon	-10.0025
▁brenn	-10.003
horn	-10.003
befolkning	-10.0039
▁deriblant	-10.0041
▁1972	-10.0041
▁bekrefte	-10.0041
▁berømt	-10.0041
styrke	-10.0042
▁sørvest	-10.0042
▁stadion	-10.0042
▁frederik	-10.0042
▁valgte	-10.0044
▁møtte	-10.0046
▁vokser	-10.0047
▁video	-10.0048
lai	-10.0054
▁kampen	-10.0056
itor	-10.0057
oppgave	-10.0058
funksjon	-10.0059
▁opprør	-10.0061
inntekt	-10.0071
▁aar	-10.0075
▁prefektur	-10.008
▁ført	-10.0082
▁vokst	-10.0082
▁plate	-10.0084
▁larsen	-10.009
▁hom	-10.0094
slekten	-10.01
55	-10.0106
▁eie	-10.0117
arbeidet	-10.0118
mennene	-10.0118
▁journalist	-10.0122
▁hunde	-10.0124
kysten	-10.0125
▁sæ	-10.0136
▁sterke	-10.0142
forsvar	-10.0147
і	-10.0152
▁representant	-10.0152
▁beijing	-10.0152
▁amerika	-10.0152
▁sveits	-10.0152
▁hurtig	-10.0152
friidrettsutøver	-10.0152
▁alexander	-10.0152
▁noctu	-10.0153
hastighet	-10.0153
▁dobbelt	-10.0155
kompleks	-10.0155
▁wall	-10.0157
▁olavs	-10.0161
▁max	-10.0164
vald	-10.0166
vannet	-10.0171
▁politiske	-10.0175
vikler	-10.0176
▁normal	-10.018
▁inc	-10.0188
▁75	-10.019
▁rollen	-10.0192
bler	-10.0194
handling	-10.0199
arten	-10.0201
▁kara	-10.0202
▁tusen	-10.0208
▁geir	-10.0217
▁gruve	-10.0225
myr	-10.0231
▁tale	-10.0232
alitet	-10.0235
analyse	-10.0237
hunder	-10.024
▁ledelse	-10.0241
▁lignende	-10.0247
house	-10.0249
ко	-10.025
ii	-10.0254
▁områder	-10.0256
aya	-10.0261
▁nilsen	-10.0263
▁varaordfører	-10.0264
▁beskriver	-10.0265
▁digital	-10.0265
▁school	-10.0265
▁dronning	-10.0265
▁vanskelig	-10.0266
▁edward	-10.0267
▁akk	-10.0271
▁otto	-10.0273
mengde	-10.0274
▁ron	-10.0276
▁islam	-10.0276
▁hustru	-10.0277
grupper	-10.0277
▁bibliotek	-10.0282
▁dekker	-10.0286
tem	-10.0288
▁forsker	-10.0288
utøver	-10.029
▁kommuner	-10.0293
▁eik	-10.0294
▁tettsted	-10.0304
magasin	-10.0304
▁fjellet	-10.0311
▁sven	-10.0318
▁rand	-10.0346
verdi	-10.0347
linjer	-10.0349
▁trak	-10.0353
▁grøn	-10.0357
▁dur	-10.0367
▁temp	-10.0367
▁ov	-10.0375
▁1978	-10.0378
▁tilgjengelig	-10.0378
▁pasient	-10.0378
▁kjønn	-10.0378
▁dårlig	-10.0379
▁konstant	-10.0379
▁fordi	-10.038
▁papir	-10.038
▁1968	-10.0382
ello	-10.0383
▁hjerne	-10.0386
▁sørøst	-10.0387
▁avisen	-10.0395
strøk	-10.0395
▁sammenheng	-10.0395
▁corn	-10.0398
vang	-10.0405
tunnelen	-10.0407
▁material	-10.0415
▁pil	-10.0421
lä	-10.0421
▁neste	-10.0423
▁drag	-10.0424
▁senter	-10.0427
▁rosa	-10.0428
▁line	-10.0433
▁regel	-10.0437
▁gress	-10.044
ary	-10.0441
▁hammer	-10.0443
▁wel	-10.0444
gått	-10.0446
bak	-10.0452
▁hov	-10.0452
tind	-10.0455
▁fulgte	-10.0456
▁utga	-10.0463
▁lån	-10.0465
tek	-10.0477
▁tatt	-10.0479
▁stam	-10.0486
▁seier	-10.0487
▁37	-10.049
▁cup	-10.0493
ă	-10.0493
з	-10.0493
▁komponert	-10.0493
▁für	-10.0494
▁stig	-10.0498
klare	-10.0499
▁endret	-10.05
▁solo	-10.0501
forfatter	-10.0503
▁føde	-10.0505
▁celle	-10.0507
▁lære	-10.0508
katt	-10.0511
eide	-10.0517
▁koll	-10.0519
forhold	-10.0535
▁overfor	-10.0537
stjerne	-10.0539
▁arc	-10.0545
hallen	-10.0546
fyr	-10.0558
▁regjering	-10.0559
▁isb	-10.0561
▁viste	-10.057
▁exp	-10.0577
seth	-10.0579
▁dager	-10.0584
▁normalt	-10.0588
kelsen	-10.059
▁skip	-10.0596
sket	-10.0599
▁listen	-10.0602
▁skipet	-10.0604
▁tø	-10.0605
utgivelse	-10.0608
▁stille	-10.0608
ě	-10.0609
▁arrangert	-10.0609
▁religiøs	-10.0609
▁alkohol	-10.0609
▁01	-10.061
▁royal	-10.061
▁1975	-10.0611
▁anvende	-10.0612
veis	-10.0612
blomst	-10.0618
▁64	-10.0618
▁metal	-10.0621
hånd	-10.0622
ía	-10.0626
▁skinn	-10.0626
▁lavere	-10.0632
ional	-10.0632
serien	-10.0633
▁svak	-10.0637
▁svein	-10.0642
▁graf	-10.0647
▁had	-10.0652
▁clo	-10.0653
▁jakt	-10.0654
dikt	-10.0664
▁forskning	-10.0665
▁white	-10.0673
cio	-10.0678
▁78	-10.0681
▁od	-10.0681
▁folket	-10.0692
▁europe	-10.0693
▁tun	-10.0706
▁skjær	-10.0706
▁pur	-10.071
▁strid	-10.0711
▁irsk	-10.0711
▁utføre	-10.0712
▁artene	-10.0714
▁sara	-10.0721
økonom	-10.0724
π	-10.0727
▁medlemmene	-10.0728
▁skjedde	-10.0729
▁dverg	-10.0731
▁1960	-10.0731
▁mytologi	-10.0732
▁omtalt	-10.0732
roman	-10.0733
▁vor	-10.0733
lid	-10.0734
▁major	-10.0736
▁opptre	-10.0738
offiser	-10.0739
▁sammenlign	-10.074
▁atom	-10.0744
▁é	-10.0748
▁award	-10.075
gra	-10.075
▁gh	-10.0751
▁lagt	-10.0764
▁ross	-10.0771
▁huset	-10.0774
▁cel	-10.0775
leir	-10.0777
▁mitt	-10.0786
▁båten	-10.0788
finne	-10.0788
▁oversatt	-10.0797
hild	-10.0816
▁green	-10.0817
▁run	-10.0824
▁bell	-10.083
▁penge	-10.0834
jun	-10.0835
næring	-10.0842
▁raskt	-10.0844
later	-10.0844
konstruksjon	-10.0846
▁storbritannia	-10.0846
▁utnevnt	-10.0846
▁1973	-10.0846
▁kardinal	-10.0846
järvi	-10.0846
▁hvilke	-10.0846
mur	-10.0847
▁tolv	-10.0849
▁internett	-10.085
▁skape	-10.0851
▁poeng	-10.0856
øvelse	-10.0858
▁scott	-10.0862
▁eksempelvis	-10.0862
forskning	-10.0864
møte	-10.0873
▁innført	-10.0876
▁areal	-10.0884
▁bestemme	-10.0889
styrt	-10.0895
minne	-10.0907
▁nivå	-10.0912
▁saga	-10.0915
▁fyrst	-10.0917
brev	-10.0926
▁jam	-10.0926
▁historien	-10.0927
▁00	-10.093
vatn	-10.0931
ić	-10.0933
▁artister	-10.0936
▁tunnel	-10.0937
▁alfa	-10.0938
▁museet	-10.0944
materiale	-10.0953
▁myk	-10.0955
29	-10.0955
▁55	-10.0957
konsern	-10.0958
▁forbi	-10.096
▁fange	-10.0961
halvøya	-10.0966
η	-10.0966
▁tilknyttet	-10.0966
▁befolkningen	-10.0971
▁michel	-10.0973
▁pul	-10.0974
▁saint	-10.0979
▁spenn	-10.0983
▁bod	-10.0988
▁slått	-10.0989
skjær	-10.0989
▁dersom	-10.099
ла	-10.0994
▁teknologi	-10.0998
korps	-10.0999
▁korea	-10.0999
cca	-10.0999
▁rod	-10.1
møll	-10.1004
▁tegnet	-10.1006
kjempe	-10.1007
▁kammer	-10.1008
kort	-10.1008
▁gutt	-10.1017
merker	-10.1017
ál	-10.1017
▁178	-10.1025
▁osv	-10.1025
▁heller	-10.1041
▁markert	-10.1041
bygget	-10.1048
hydr	-10.1051
▁kraftige	-10.1053
▁mcc	-10.1057
▁nordisk	-10.1058
▁herman	-10.1059
bevegelsen	-10.1065
▁storm	-10.1066
▁leve	-10.1066
▁rune	-10.1068
▁kval	-10.1068
▁emil	-10.1072
gress	-10.1074
▁miste	-10.1075
▁sats	-10.1076
▁handling	-10.1087
▁administrere	-10.1088
▁australia	-10.1088
spørsmål	-10.1088
▁1977	-10.1088
▁katolsk	-10.1088
▁suksess	-10.1089
▁sekund	-10.1089
▁institutt	-10.1092
▁nådd	-10.1094
▁republikken	-10.1095
▁snakk	-10.1099
▁romersk	-10.11
▁kristen	-10.1101
▁arg	-10.1106
▁johansen	-10.1108
produsent	-10.1113
▁bety	-10.1114
lignende	-10.1124
▁sørlige	-10.1131
▁delvis	-10.1132
▁indian	-10.1133
▁busk	-10.1136
▁viking	-10.1138
▁ost	-10.1138
betegnelse	-10.114
▁eide	-10.1142
▁beina	-10.1142
▁human	-10.1151
▁kommunikasjon	-10.1154
▁våren	-10.1156
▁bedre	-10.1161
▁menn	-10.1169
hopp	-10.1183
▁beat	-10.1185
▁kjempe	-10.1188
▁egil	-10.119
virke	-10.1207
▁etterfulgt	-10.1212
▁trøndelag	-10.1212
▁vingespenn	-10.1212
ś	-10.1212
▁1966	-10.1212
▁parlament	-10.1212
▁mongol	-10.1213
▁adresse	-10.1214
▁motiv	-10.1214
▁hotell	-10.1214
▁65	-10.1215
▁britisk	-10.1216
▁philip	-10.122
▁bibel	-10.1222
psykologi	-10.1223
plate	-10.1223
phy	-10.1227
mesterskapet	-10.1231
▁liber	-10.1231
▁krever	-10.1235
▁struktur	-10.1236
▁menighet	-10.1239
▁xu	-10.1244
▁deles	-10.1245
▁ytre	-10.1249
▁brei	-10.125
forsker	-10.125
▁shu	-10.125
kjent	-10.1252
gran	-10.1253
sønn	-10.1258
▁utstilling	-10.1263
konge	-10.1269
▁sikte	-10.1274
▁koloni	-10.1278
▁føl	-10.1281
01	-10.129
▁jarl	-10.1291
rente	-10.1294
aktige	-10.1294
redning	-10.1299
▁gitarist	-10.1301
▁roger	-10.1305
kapit	-10.1321
▁nederland	-10.1323
▁back	-10.1326
mini	-10.1326
▁42	-10.1328
▁nedre	-10.1328
språklig	-10.1336
▁ungdom	-10.1337
arrangement	-10.1337
ê	-10.1337
kapasitet	-10.1337
▁sykehus	-10.1339
▁komme	-10.1339
▁stortings	-10.134
▁sverre	-10.134
▁øyene	-10.1342
▁programmet	-10.1345
▁hvordan	-10.1347
▁hevde	-10.1348
▁fortsette	-10.135
▁sab	-10.1352
vall	-10.1358
ovitsj	-10.1358
▁hundre	-10.1365
museet	-10.1375
kultur	-10.1377
delingen	-10.1378
botn	-10.1383
▁spise	-10.1384
▁ettersom	-10.1389
▁kaptein	-10.1393
▁fli	-10.14
▁spp	-10.1403
▁verket	-10.1403
▁foreldre	-10.1406
▁47	-10.1407
▁peder	-10.1411
pot	-10.1412
endring	-10.1414
runde	-10.1433
▁bombe	-10.144
▁prosjektet	-10.1443
▁wang	-10.1448
tolk	-10.1449
norsk	-10.1452
▁one	-10.1457
▁planter	-10.1458
▁etterhvert	-10.1463
▁avslutt	-10.1464
frekvens	-10.1464
▁sigurd	-10.1464
▁forårsake	-10.1465
▁andré	-10.1465
▁oscar	-10.1466
▁lengre	-10.1468
▁qua	-10.1469
▁lansert	-10.1472
herre	-10.1472
▁brown	-10.1472
▁ray	-10.1473
▁krysser	-10.1481
▁svar	-10.1496
▁free	-10.1497
regionen	-10.1498
▁innhold	-10.15
▁bygda	-10.1503
▁vig	-10.1507
▁oh	-10.1509
sundet	-10.1518
▁samlet	-10.1521
▁øke	-10.1522
▁blokk	-10.1523
▁filosof	-10.1539
▁steve	-10.1542
▁41	-10.1546
▁resten	-10.1547
kum	-10.1548
▁utvikler	-10.1548
▁meta	-10.1563
omi	-10.1564
bred	-10.158
▁pont	-10.1587
▁company	-10.1592
▁drammen	-10.1592
▁måned	-10.1592
▁landsby	-10.1593
▁ansatte	-10.1595
▁1940	-10.1596
gymnas	-10.1598
▁sverd	-10.16
▁antonio	-10.1602
feng	-10.1604
▁mangler	-10.1605
▁arkiv	-10.1605
setningen	-10.1606
▁sukker	-10.1612
▁grov	-10.1619
▁län	-10.162
▁ferge	-10.1621
▁dør	-10.1622
▁bære	-10.1623
▁kjøl	-10.1624
▁finale	-10.1628
▁arv	-10.1638
fotograf	-10.164
▁top	-10.164
▁nettverk	-10.1641
▁jiang	-10.1661
▁latinsk	-10.1668
▁offisiel	-10.1681
▁ash	-10.1682
▁hente	-10.1693
slipp	-10.1711
▁kvalitet	-10.1721
▁cirka	-10.1722
▁yngre	-10.1722
▁dannes	-10.1724
▁1967	-10.1725
ledende	-10.1726
▁karriere	-10.1739
finalen	-10.174
jal	-10.1742
▁polar	-10.1744
▁vitenskapelig	-10.175
tallet	-10.1753
▁organisert	-10.1761
wood	-10.1762
bell	-10.1763
ст	-10.1795
▁palm	-10.1798
▁tran	-10.183
▁who	-10.1835
▁400	-10.1844
jia	-10.1846
avtale	-10.1849
ь	-10.1852
▁studio	-10.1853
▁millimeter	-10.1853
▁sovjetunionen	-10.1853
▁1974	-10.1853
▁omfattende	-10.1853
▁passasjer	-10.1853
▁kunnskap	-10.1853
pedagog	-10.1853
▁insekt	-10.1854
▁mineral	-10.1856
▁slank	-10.1858
▁pierre	-10.1858
▁svømme	-10.1858
▁sete	-10.1858
▁fungere	-10.1861
▁hö	-10.1862
▁pad	-10.1867
▁jonas	-10.1882
п	-10.1896
▁butikk	-10.1903
kveld	-10.1906
▁emb	-10.1917
▁skall	-10.1924
▁furu	-10.1927
▁nevne	-10.1931
▁møter	-10.1931
▁lønn	-10.1933
▁regional	-10.1947
flekk	-10.1948
▁statlig	-10.1949
▁wade	-10.1951
▁marin	-10.1951
fabrikken	-10.1953
▁henri	-10.1954
▁undervisning	-10.1964
ро	-10.1974
▁dol	-10.1985
ра	-10.1985
▁debutalbum	-10.1986
▁deutsche	-10.1987
▁arthur	-10.1987
▁modern	-10.1987
▁ekteskap	-10.1988
▁bakterie	-10.1989
▁1930	-10.1992
▁big	-10.1993
▁vannet	-10.1995
▁rat	-10.1996
▁social	-10.1996
elius	-10.1998
▁programmer	-10.1998
▁kommunist	-10.1999
ät	-10.2001
▁bow	-10.2003
eksamen	-10.2004
▁norman	-10.2005
plattform	-10.2007
▁carol	-10.2008
holdsvis	-10.2032
skjold	-10.2036
▁ever	-10.2039
▁grim	-10.2044
▁kg	-10.2047
▁giles	-10.2049
▁reform	-10.2052
▁kåre	-10.2063
▁tilfelle	-10.2069
▁tråd	-10.2072
bukta	-10.2078
▁bakkroppen	-10.2099
▁støttet	-10.2103
▁korps	-10.2111
▁verneområde	-10.2118
uru	-10.2118
ан	-10.2121
▁profesjonell	-10.2122
▁sistnevnte	-10.2122
▁1964	-10.2122
▁hverandre	-10.2122
▁objekt	-10.2122
▁sjelden	-10.2122
▁nevnt	-10.2122
▁fremdeles	-10.2122
▁himmel	-10.2122
▁østerrike	-10.2122
▁innspilling	-10.2122
▁eventyr	-10.2122
▁elektronisk	-10.2123
▁myndighet	-10.2123
▁tømmer	-10.2124
▁josé	-10.2124
▁tilsvarer	-10.2125
▁kristin	-10.2129
▁popul	-10.2134
tekst	-10.2136
kritiker	-10.2136
▁gaten	-10.2147
▁einar	-10.2152
▁acc	-10.2153
▁gli	-10.2156
▁walter	-10.2164
fred	-10.2166
årig	-10.2173
stasjonen	-10.2177
bury	-10.2181
▁bestemt	-10.2189
▁ramme	-10.2192
brand	-10.2202
▁internasjonalt	-10.2203
▁ulv	-10.2203
strup	-10.2213
▁tettstedet	-10.2216
▁master	-10.2224
▁bull	-10.2224
▁hin	-10.2228
høyskole	-10.2229
▁american	-10.2236
▁prins	-10.2238
egne	-10.2239
▁innsjø	-10.225
▁signal	-10.225
ful	-10.2254
▁universitetet	-10.2255
▁netto	-10.2258
▁økonomi	-10.2258
▁stockholm	-10.2259
▁jakob	-10.2259
▁tropp	-10.2262
▁ansvarlig	-10.2263
▁integr	-10.2263
▁lengst	-10.2263
▁hval	-10.2264
▁alfred	-10.2268
▁stabil	-10.2268
▁street	-10.227
▁vanligste	-10.2272
galleri	-10.2272
▁skjell	-10.2279
▁då	-10.2287
▁sving	-10.2289
▁panser	-10.2299
▁debuter	-10.2303
▁enkle	-10.2306
▁bin	-10.2306
▁anta	-10.2311
▁120	-10.2316
▁femte	-10.2318
▁morgen	-10.2322
▁histori	-10.2323
lista	-10.2328
hvit	-10.233
tilstand	-10.2331
▁utløp	-10.2332
leng	-10.2341
▁try	-10.2347
versjon	-10.2348
▁platen	-10.235
▁kjær	-10.2378
▁hydro	-10.2379
tjenesten	-10.2386
▁1956	-10.2397
opplæring	-10.2397
▁episode	-10.2398
▁kjærlighet	-10.2398
▁kontakt	-10.2399
▁utnytte	-10.2399
▁divisjon	-10.2399
▁1955	-10.24
▁1969	-10.2401
▁uttalt	-10.2409
▁east	-10.2412
▁kel	-10.2412
▁reaksjon	-10.2421
▁arkitektur	-10.2422
fabrik	-10.2425
▁nød	-10.2426
▁måne	-10.2436
▁tradisjonel	-10.2444
staten	-10.2446
▁audi	-10.2447
▁verb	-10.2449
typer	-10.2449
stell	-10.245
jå	-10.2452
▁bydel	-10.2455
zel	-10.2455
▁silke	-10.2462
gass	-10.2463
behandling	-10.2466
▁selge	-10.2476
▁skiller	-10.2476
▁vass	-10.2483
▁kha	-10.2487
▁begrep	-10.2489
▁inneha	-10.2491
ч	-10.2491
▁vert	-10.2494
▁salg	-10.2498
▁sik	-10.2504
▁rio	-10.2515
▁gruppa	-10.2521
går	-10.2532
āng	-10.2534
▁brem	-10.2534
▁sjeldne	-10.2538
▁1971	-10.2538
▁tabellen	-10.2539
▁tyrkisk	-10.2539
▁fysisk	-10.2539
▁oppdaget	-10.2539
▁etterfølger	-10.2539
▁1965	-10.2541
▁1946	-10.2542
undersøkelse	-10.2547
▁thom	-10.2556
▁oversettelse	-10.2564
▁bau	-10.2572
bund	-10.2579
▁kvit	-10.2581
▁foreningen	-10.2584
▁verd	-10.2584
▁bord	-10.2595
hjelp	-10.2599
▁slaget	-10.2602
▁victor	-10.2622
▁malm	-10.2628
▁bang	-10.2634
trykt	-10.2639
kommen	-10.2653
▁aksje	-10.2655
▁kald	-10.2657
▁even	-10.2667
▁kandidat	-10.2667
styrken	-10.2671
▁styrmann	-10.2681
▁fiolin	-10.2681
▁funnet	-10.2682
▁sentralbank	-10.2683
▁fremført	-10.2692
▁jordbruk	-10.2693
▁luther	-10.2695
▁canadi	-10.2698
▁eksistere	-10.2698
studier	-10.2704
▁mynt	-10.2705
▁vist	-10.2706
▁oppdrag	-10.2707
▁liga	-10.2708
tittel	-10.2755
misjon	-10.2757
▁bag	-10.2764
▁kapell	-10.2772
cast	-10.2779
sammen	-10.2783
cula	-10.2787
▁chris	-10.2806
ен	-10.2821
▁registr	-10.2822
▁utgjorde	-10.2826
▁forekommer	-10.2826
▁fengsel	-10.2826
▁valuta	-10.2827
▁golf	-10.2827
▁beregne	-10.2828
snegl	-10.2829
▁gustav	-10.283
▁1945	-10.283
▁1920	-10.2831
▁frihet	-10.2833
▁sym	-10.2837
▁portrett	-10.284
▁82	-10.2847
▁ingeniør	-10.2848
▁vokalist	-10.2853
▁mau	-10.2859
▁term	-10.2861
kål	-10.2861
▁kap	-10.2868
▁97	-10.2881
dommer	-10.2894
▁ll	-10.2896
▁utvalg	-10.2898
front	-10.2903
▁bjørk	-10.2911
▁skjold	-10.2918
▁metro	-10.2919
▁hovedrollen	-10.293
jon	-10.2938
blom	-10.2946
▁300	-10.296
politisk	-10.2969
▁peri	-10.2971
zon	-10.2973
ер	-10.2973
▁1951	-10.2973
▁shanghai	-10.2973
▁fødsel	-10.2973
▁josef	-10.2974
▁college	-10.2974
▁nærmere	-10.2974
▁600	-10.2974
▁forteller	-10.2974
▁foregår	-10.2975
terminal	-10.2975
rettigheter	-10.2976
▁firmaet	-10.2976
▁skotsk	-10.2976
▁1963	-10.2976
▁ishockey	-10.2977
▁håkon	-10.2978
stemme	-10.2978
▁game	-10.298
▁pedersen	-10.2981
▁chu	-10.2982
ative	-10.2983
▁verksted	-10.2996
▁sankt	-10.302
▁little	-10.3025
▁mary	-10.3033
▁maj	-10.3034
▁server	-10.3042
instrument	-10.305
▁bog	-10.3051
▁vend	-10.3054
▁sesong	-10.3055
lønn	-10.3081
stab	-10.3082
▁oppstå	-10.3082
▁plast	-10.3093
▁hop	-10.3097
masse	-10.3102
rapport	-10.3109
▁symptom	-10.3122
▁1957	-10.3122
▁dekkvingene	-10.3122
▁færøyene	-10.3122
▁kjøtt	-10.3122
▁mekanisk	-10.3123
kompetanse	-10.3123
▁jødisk	-10.3123
▁redusere	-10.3123
▁1938	-10.3126
▁1950	-10.313
▁bevart	-10.3133
▁blank	-10.3134
▁center	-10.3139
▁nova	-10.3147
stamme	-10.3149
drevet	-10.3154
▁nordland	-10.3164
▁lyng	-10.3166
▁tempel	-10.3176
icus	-10.3185
ка	-10.3188
album	-10.3205
▁preg	-10.3207
▁159	-10.321
▁skarp	-10.3221
ин	-10.3225
bøker	-10.3226
planter	-10.3261
ни	-10.3264
forvaltning	-10.3266
▁skulptur	-10.3274
▁artilleri	-10.3274
▁kongedømme	-10.3274
▁ungarsk	-10.3274
▁utmerkelse	-10.3275
sekvens	-10.3275
▁hertug	-10.3275
ль	-10.3276
amerikanske	-10.3276
▁fjernsyn	-10.3276
▁programleder	-10.3277
▁sykkel	-10.3278
▁kapp	-10.3278
▁bakgrunn	-10.328
▁dig	-10.3285
▁ridder	-10.3285
▁spir	-10.3286
▁mul	-10.33
▁mig	-10.3305
tysk	-10.3307
sentre	-10.3313
▁rid	-10.3314
ition	-10.3321
▁show	-10.3322
▁leif	-10.3323
▁aff	-10.3324
utstyr	-10.3359
▁44	-10.336
▁skyte	-10.3361
president	-10.3363
▁qing	-10.337
jiang	-10.3397
▁grensen	-10.3402
▁vingene	-10.341
veggen	-10.3416
▁øker	-10.3427
▁kath	-10.3427
▁arrangerer	-10.3428
▁washington	-10.3428
▁bispedømme	-10.3428
▁fullstendig	-10.3428
▁edvard	-10.3428
▁geometr	-10.3428
▁redusert	-10.3428
▁definert	-10.3429
▁efter	-10.3429
▁omtales	-10.343
▁høst	-10.3431
alisme	-10.3432
▁hersker	-10.3443
terje	-10.3446
▁hyper	-10.3448
▁drikke	-10.345
rommet	-10.3451
reise	-10.3456
▁good	-10.346
▁persisk	-10.3461
▁57	-10.347
▁johnson	-10.3474
administrasjon	-10.3483
▁pensjon	-10.3484
filosofi	-10.3491
kran	-10.3491
krig	-10.3493
▁thu	-10.3502
graph	-10.3503
setting	-10.3512
født	-10.3525
▁forbinde	-10.3528
▁falk	-10.3538
▁lenger	-10.3544
▁bert	-10.3545
▁hou	-10.3558
▁elisabeth	-10.3584
▁windows	-10.3584
▁1954	-10.3584
▁tidsskriftet	-10.3584
▁selvstendig	-10.3584
▁århundre	-10.3584
førsel	-10.3584
▁alvorlig	-10.3584
▁bridge	-10.3585
▁finskspråklig	-10.3585
komité	-10.3586
▁individ	-10.3587
▁1961	-10.3587
▁medisinsk	-10.3589
▁down	-10.3599
▁ltd	-10.3601
▁legend	-10.3602
▁johnny	-10.3607
▁nerv	-10.3613
▁ernst	-10.3619
▁bidrag	-10.3625
▁rub	-10.3649
▁tyr	-10.3659
▁sender	-10.3662
profil	-10.3664
▁preget	-10.3679
ington	-10.3684
brett	-10.3689
▁155	-10.3691
magasinet	-10.3692
▁lill	-10.3698
▁water	-10.3709
bregne	-10.3713
pass	-10.3713
▁tildele	-10.3726
skrive	-10.3727
prøv	-10.3732
▁arrangeres	-10.3743
▁introdusert	-10.3743
▁publikum	-10.3743
▁trommeslager	-10.3743
▁science	-10.3743
▁christoph	-10.3743
▁eventuel	-10.3743
worth	-10.3745
▁henholdsvis	-10.3745
evangeli	-10.3746
▁energy	-10.3746
vand	-10.3746
data	-10.3753
▁eksport	-10.3754
avgift	-10.3761
▁piano	-10.3764
▁røyk	-10.3766
ōng	-10.3767
visning	-10.3794
▁olympisk	-10.3798
flate	-10.38
▁spring	-10.38
▁alban	-10.3805
▁spillerne	-10.3809
▁qa	-10.3813
▁skar	-10.3829
▁overgang	-10.3841
▁kino	-10.3851
bæk	-10.3856
▁utover	-10.3863
tempelet	-10.3863
seksjon	-10.3867
institut	-10.388
▁sikre	-10.3884
komedie	-10.3885
▁oval	-10.3889
▁giovanni	-10.3904
▁tsjekkisk	-10.3904
▁innflytelse	-10.3904
▁pakistan	-10.3904
▁diplom	-10.3904
▁vunnet	-10.3904
▁yrkes	-10.3905
▁utbredt	-10.3905
▁kropps	-10.3905
▁batteri	-10.3905
▁novell	-10.3908
vitsj	-10.391
▁overflate	-10.3912
apparat	-10.3914
▁konkurransen	-10.3915
▁slu	-10.3915
▁spesifik	-10.3915
▁lisens	-10.3917
▁markerer	-10.392
bryter	-10.3921
▁lord	-10.3925
vegetasjon	-10.3925
▁dvs	-10.3928
relatert	-10.393
▁spin	-10.3931
fokus	-10.3936
bedrifter	-10.3938
▁77	-10.394
▁grønland	-10.3944
▁ekstra	-10.395
▁lamb	-10.3961
▁nyere	-10.3964
▁baby	-10.3966
▁forkortelse	-10.3975
laug	-10.3988
gjort	-10.3995
▁gross	-10.4008
problem	-10.401
▁ulik	-10.402
▁bidra	-10.4046
▁hir	-10.4048
▁hjemmebane	-10.4049
▁kunde	-10.4051
▁800	-10.4054
gjeng	-10.4058
tavle	-10.4067
▁corporation	-10.4068
▁ytterligere	-10.4068
▁central	-10.4068
▁generelt	-10.4068
▁ekstrem	-10.4068
▁ytterst	-10.4068
▁brasil	-10.407
mønster	-10.407
▁what	-10.4072
▁2018	-10.4074
▁komposisjon	-10.4079
▁tell	-10.4079
▁1900	-10.4082
▁inte	-10.4091
tveit	-10.4091
▁corp	-10.4092
forestilling	-10.41
▁tekstil	-10.4104
▁utkom	-10.4113
▁karbon	-10.4123
▁play	-10.4124
▁08	-10.4126
grå	-10.4127
▁khan	-10.413
▁trenings	-10.4133
▁status	-10.4154
duk	-10.4156
▁hamar	-10.4161
▁liberal	-10.4172
direktør	-10.418
butikk	-10.4181
▁bodde	-10.419
▁raf	-10.4192
kredit	-10.4197
▁revolusjon	-10.4222
▁glad	-10.4222
▁fritt	-10.4226
republikk	-10.4228
▁wild	-10.4231
▁fau	-10.4233
maker	-10.4234
▁gabriel	-10.4235
▁mexico	-10.4235
▁sanskrit	-10.4235
▁tegneserie	-10.4235
▁fiktiv	-10.4236
▁kryp	-10.4236
▁håndball	-10.4236
▁musikkalbum	-10.4237
▁avledet	-10.424
strategi	-10.4243
▁protest	-10.4244
▁høyesterett	-10.4247
▁veldig	-10.4253
▁alex	-10.4257
▁bratt	-10.4258
▁ligne	-10.426
▁reserve	-10.4278
▁junior	-10.4278
▁krim	-10.428
▁life	-10.4289
passet	-10.4297
▁lunge	-10.4305
fylt	-10.4327
▁road	-10.4342
▁strekk	-10.4351
avisen	-10.4364
▁dio	-10.4373
ар	-10.4378
▁smak	-10.439
ifiser	-10.4394
▁kub	-10.4396
▁lenge	-10.4398
infeksjon	-10.4404
▁parallell	-10.4404
▁kombinert	-10.4404
konferanse	-10.4404
tårnet	-10.4405
▁protein	-10.4406
▁work	-10.4411
▁jackson	-10.4414
▁snart	-10.4416
▁ukjent	-10.4417
idrett	-10.4418
dekket	-10.4418
▁smør	-10.4425
▁isteden	-10.4431
▁orgel	-10.4435
▁jeff	-10.4436
▁musikal	-10.4443
▁foto	-10.4444
▁young	-10.4445
▁fotballklubb	-10.445
▁tynn	-10.4451
flo	-10.4462
▁fantes	-10.4477
▁bredd	-10.4483
▁grei	-10.4511
spir	-10.4511
▁hypo	-10.4513
▁sovjetisk	-10.4517
▁rulle	-10.4523
grønn	-10.4528
stigning	-10.4542
odden	-10.4544
▁grend	-10.4549
kall	-10.4557
▁psyko	-10.4562
ск	-10.4567
▁republik	-10.4572
▁1941	-10.4577
▁hebraisk	-10.4577
▁positiv	-10.4577
▁hjørne	-10.4577
▁egenskaper	-10.4577
▁axel	-10.4577
▁barnehage	-10.4577
▁hjort	-10.4578
redskap	-10.4579
▁1942	-10.4579
▁linux	-10.458
▁1959	-10.458
schaft	-10.4583
stipend	-10.4583
▁hovedkontor	-10.4588
thon	-10.4591
▁nordsamisk	-10.4593
board	-10.4595
sort	-10.461
▁sä	-10.4618
bind	-10.462
▁metode	-10.4622
▁great	-10.4639
то	-10.4649
▁tenk	-10.4666
gjøring	-10.4678
▁öst	-10.4687
teknologi	-10.4691
register	-10.4699
▁emp	-10.4701
▁pels	-10.4702
historisk	-10.4707
▁plateselskap	-10.4708
▁brag	-10.4713
ã	-10.4713
▁first	-10.4713
▁07	-10.4727
jong	-10.4728
stemte	-10.4741
▁association	-10.4752
▁restaurant	-10.4752
▁1952	-10.4752
▁konkurrere	-10.4752
▁ludvig	-10.4752
▁heinrich	-10.4752
bataljon	-10.4752
▁brønn	-10.4752
▁alexandr	-10.4752
▁symfoni	-10.4752
▁skildre	-10.4753
▁naturreservat	-10.4753
▁kobber	-10.4754
▁1928	-10.4755
▁1937	-10.4755
▁import	-10.4755
▁billed	-10.4756
▁1948	-10.4757
dømt	-10.4759
▁sålede	-10.4761
▁flekker	-10.4764
▁kaffe	-10.4766
▁franz	-10.4767
▁plassering	-10.477
▁effektiv	-10.4771
ection	-10.4772
▁trekant	-10.4777
▁flykte	-10.4784
kamerat	-10.4785
▁gott	-10.4789
▁registrert	-10.48
▁mathi	-10.4817
▁rav	-10.4818
▁62	-10.4852
▁sterk	-10.4852
▁our	-10.4855
kommisjon	-10.4886
effekt	-10.4889
▁opprette	-10.4895
bill	-10.4896
ruter	-10.4896
utvalg	-10.4911
blå	-10.4916
▁microsoft	-10.4931
▁systematikken	-10.4931
▁1958	-10.4931
▁1944	-10.4931
▁beslekte	-10.4931
▁vulkan	-10.4931
▁tolkien	-10.4931
▁moskva	-10.4931
▁kommando	-10.4931
▁ovenfor	-10.4931
▁unntak	-10.4931
▁negativ	-10.4931
▁1927	-10.4934
terapi	-10.4935
▁viklere	-10.4941
wick	-10.4951
abad	-10.4955
fysikk	-10.4966
▁mulighet	-10.4984
▁muskel	-10.4985
▁kommun	-10.4994
forbud	-10.4996
▁landslag	-10.5005
▁riv	-10.5019
efinner	-10.5036
kontroll	-10.5052
design	-10.5075
▁regjer	-10.5091
▁geit	-10.51
▁95	-10.5101
vitenskapelig	-10.5112
lidelse	-10.5112
▁keyboard	-10.5112
▁abraham	-10.5112
▁asteroide	-10.5112
▁support	-10.5112
▁cappelen	-10.5112
▁ansikt	-10.5113
▁1921	-10.5115
▁oberst	-10.5116
▁tørke	-10.5116
▁programvare	-10.5117
▁nettsted	-10.5117
▁definere	-10.5117
▁1939	-10.5117
▁monark	-10.5118
sykdom	-10.5121
▁verdenskrig	-10.5122
fenomen	-10.5123
▁biografi	-10.5124
radio	-10.5126
▁landsforening	-10.5127
▁gjeld	-10.5129
▁diesel	-10.513
▁knud	-10.5131
▁arkeolog	-10.5131
▁kå	-10.5138
ри	-10.5149
▁still	-10.5153
▁kilo	-10.516
skaja	-10.5164
▁vestlige	-10.5166
▁bosetning	-10.5168
hår	-10.5175
artikkel	-10.5177
stokk	-10.5188
▁endelig	-10.5193
▁vev	-10.5195
▁foreldrene	-10.5196
bring	-10.52
▁snu	-10.5202
faglig	-10.5223
turnering	-10.5232
▁rau	-10.5241
▁1800	-10.5249
type	-10.5252
▁virkelig	-10.5255
struktur	-10.5262
orkester	-10.5262
▁09	-10.5282
▁larve	-10.5285
sikkerhet	-10.5286
løytnant	-10.5298
▁bulgarsk	-10.5298
▁tortricidae	-10.5298
▁1953	-10.5298
▁regissør	-10.5298
▁skottland	-10.5298
▁geografisk	-10.5298
▁nemlig	-10.5298
assistent	-10.5298
▁1918	-10.5302
▁krevd	-10.5304
følgende	-10.5306
▁straffe	-10.5306
▁formula	-10.5307
▁telemark	-10.5307
▁pistol	-10.531
▁emm	-10.5311
▁anledning	-10.5315
▁jacobsen	-10.5315
▁eirik	-10.5317
skjerm	-10.5322
▁forbunds	-10.5337
▁bryn	-10.5337
▁karakteristisk	-10.534
▁right	-10.534
▁night	-10.5352
kull	-10.5357
▁homo	-10.5379
▁tykk	-10.5384
▁salme	-10.5392
▁skille	-10.5424
▁utenriks	-10.5448
bibliotek	-10.5457
▁østlig	-10.546
▁140	-10.548
▁vindu	-10.5481
▁konflikt	-10.5486
▁aleksandr	-10.5486
▁electric	-10.5486
▁elizabeth	-10.5486
▁brødrene	-10.5486
▁global	-10.5486
▁people	-10.5486
▁church	-10.5486
katalog	-10.5486
▁oversikt	-10.5487
▁innsats	-10.5487
▁doktorgrad	-10.5487
▁kjøretøy	-10.5487
▁micro	-10.5487
▁stortinget	-10.5487
▁drap	-10.5491
overflaten	-10.5491
faktor	-10.5493
▁fru	-10.5496
▁kvinnelige	-10.55
opplysning	-10.55
▁nobel	-10.5508
ière	-10.5513
▁fasci	-10.5521
▁maxim	-10.5524
pati	-10.5526
▁kommunal	-10.5532
▁nordover	-10.5545
▁grund	-10.555
▁reich	-10.5565
følelse	-10.5569
▁four	-10.5571
▁grevskap	-10.5578
▁hekk	-10.5581
▁låten	-10.5582
skyting	-10.559
▁delgruppe	-10.5603
▁tromsø	-10.5615
▁slå	-10.5623
▁110	-10.563
▁omhandle	-10.5631
sending	-10.5636
▁glu	-10.5641
▁fair	-10.5644
ingeniør	-10.565
dynastiet	-10.565
ма	-10.5654
drive	-10.5657
fløy	-10.5672
▁alpin	-10.5678
▁california	-10.5679
▁portugisisk	-10.5679
▁kjøkken	-10.5679
▁nødvendig	-10.5679
▁grunnleggende	-10.5679
▁utelukke	-10.5679
▁kritikk	-10.5679
vassdraget	-10.5679
▁situasjon	-10.5679
grunnsstasjon	-10.5679
▁væske	-10.5679
▁muslim	-10.5679
▁grün	-10.5679
▁serbisk	-10.5679
▁originaltittel	-10.5679
▁utdype	-10.5679
▁senior	-10.5679
▁betrakte	-10.568
▁belgisk	-10.568
▁stefan	-10.5681
▁voksne	-10.5681
ensemble	-10.5681
▁skøyte	-10.5682
▁1933	-10.5682
▁1943	-10.5683
▁fotballspiller	-10.5683
▁bensin	-10.5688
▁kapital	-10.569
▁allmenn	-10.5693
bebyggelse	-10.57
▁unico	-10.5709
setninger	-10.5714
▁fyll	-10.5735
▁jury	-10.5744
▁erstatte	-10.5745
pakke	-10.5789
stav	-10.5792
▁prima	-10.5804
▁klippe	-10.5822
lengde	-10.5834
prest	-10.585
resultat	-10.585
karriere	-10.5851
ophi	-10.5852
forsterke	-10.5873
helikopter	-10.5875
▁initiativ	-10.5875
▁maksimal	-10.5875
▁country	-10.5875
veksling	-10.5875
▁anerkjent	-10.5875
▁thailand	-10.5875
▁begynnelsen	-10.5875
▁walisisk	-10.5875
▁opplags	-10.588
▁hydrogen	-10.5882
▁kallenavn	-10.5883
komiteen	-10.5883
▁nevro	-10.5883
▁møller	-10.5884
vandring	-10.5885
▁bjerk	-10.5891
▁støv	-10.5896
kostnad	-10.5903
▁likhet	-10.5905
▁prinsipp	-10.591
▁manuel	-10.5911
▁hellas	-10.5914
▁invest	-10.5916
makten	-10.5923
▁sandvik	-10.5936
▁rou	-10.5938
støl	-10.5952
▁hjemmeside	-10.5961
terrier	-10.5983
llus	-10.5991
departement	-10.5997
sidig	-10.6009
owski	-10.6018
▁musikalsk	-10.6029
▁temple	-10.6042
melding	-10.6042
▁krag	-10.605
balanse	-10.6052
redaktør	-10.6054
▁afghanistan	-10.6075
▁ukraina	-10.6075
▁ytterkant	-10.6075
▁1906	-10.6075
budsjett	-10.6075
▁valgdelta	-10.6075
sylindre	-10.6075
▁prince	-10.6075
hospital	-10.6075
▁donald	-10.6075
▁studioalbum	-10.6075
▁praktisk	-10.6077
▁utenlandsk	-10.6077
▁frå	-10.6077
▁1923	-10.6078
▁1924	-10.6078
▁koreansk	-10.6079
▁1915	-10.6079
▁hovedkvarter	-10.6081
▁finnmark	-10.6081
▁styreleder	-10.6082
▁1910	-10.6082
▁lokalisert	-10.6082
▁nærheten	-10.6084
▁point	-10.6091
fast	-10.6092
▁donau	-10.6096
▁prosessen	-10.6098
recht	-10.6103
forsyning	-10.6126
stått	-10.6132
tjern	-10.6133
klipp	-10.6139
kjøl	-10.6141
time	-10.6179
yama	-10.6181
▁irland	-10.619
▁flyge	-10.6229
▁visse	-10.6243
▁toll	-10.6252
regiment	-10.6274
▁aleksander	-10.6279
▁ferskvann	-10.6279
▁oksygen	-10.6279
▁vladimir	-10.6279
▁guvernør	-10.6279
▁1908	-10.6279
▁tønsberg	-10.6279
▁1934	-10.6279
▁1896	-10.6279
▁gustaf	-10.6279
▁risiko	-10.6279
▁tvilling	-10.6279
▁søndag	-10.6279
preg	-10.6279
admiral	-10.6279
▁haakon	-10.6279
▁skjul	-10.6279
▁domstol	-10.6282
▁1932	-10.6282
▁1947	-10.6283
▁oppnå	-10.6284
▁nkp	-10.6285
▁fremstille	-10.6286
▁elsker	-10.6287
▁pettersen	-10.6291
duksjon	-10.6303
ould	-10.6308
▁sound	-10.631
styring	-10.6311
▁susan	-10.6311
▁brunlig	-10.6338
veps	-10.6346
▁tallrik	-10.637
avhandlingen	-10.6376
koble	-10.6376
▁athen	-10.6382
givelse	-10.6384
strømmen	-10.6409
▁slette	-10.6412
▁intens	-10.6417
formasjonen	-10.6439
fordeling	-10.6457
forsikring	-10.6468
▁skrå	-10.6471
skade	-10.6475
▁dukke	-10.6476
▁undergrunnsbane	-10.6487
▁utgangspunkt	-10.6487
▁akershus	-10.6487
▁pradesh	-10.6487
orientert	-10.6487
▁vesentlig	-10.6487
▁sachsen	-10.6487
▁adolf	-10.6487
▁gjennomførte	-10.6488
▁afrikansk	-10.6489
▁innebærer	-10.6489
▁stadium	-10.6489
syssel	-10.6489
▁1929	-10.649
▁1926	-10.649
▁byfylke	-10.6491
▁barokk	-10.6491
▁endringer	-10.6494
▁plantefamilie	-10.6494
▁viktor	-10.6495
▁tegninger	-10.6495
▁turneringen	-10.6496
arkiv	-10.6496
▁fredrikstad	-10.6505
▁bispe	-10.6506
▁kongelige	-10.6512
▁bakover	-10.6518
▁fiskeri	-10.6533
▁kommunistisk	-10.6542
blomsterflue	-10.6549
▁smerte	-10.6563
høyden	-10.6575
bjørg	-10.6578
▁styrte	-10.6637
▁handle	-10.6674
▁lukke	-10.669
azar	-10.6693
aktivitet	-10.6693
frukt	-10.6693
tradisjon	-10.6694
programmet	-10.67
▁aluminium	-10.67
▁infanteri	-10.67
▁orchestra	-10.67
▁svalbard	-10.67
▁vedlikehold	-10.67
▁1905	-10.67
▁manuskript	-10.67
▁taylor	-10.67
▁nedbør	-10.67
▁fjeld	-10.67
▁utseende	-10.67
▁spania	-10.6701
▁seinere	-10.6701
▁generalsekretær	-10.6702
▁hemmelig	-10.6703
▁gråbrun	-10.6703
▁sjanger	-10.6704
▁1912	-10.6704
▁embets	-10.6708
▁samuel	-10.6709
▁meyer	-10.671
▁forvaltnings	-10.6712
liknende	-10.6713
▁demningen	-10.6719
▁skilt	-10.6725
▁rednings	-10.6725
▁klatre	-10.6725
▁sammenlagt	-10.6728
kjerne	-10.673
sentrum	-10.6732
▁eugen	-10.6737
syklus	-10.6745
▁divers	-10.6753
nathan	-10.6755
funk	-10.6767
trukket	-10.6771
▁sovjet	-10.6774
kvarter	-10.678
▁børste	-10.6797
▁victoria	-10.6803
▁urban	-10.6818
familie	-10.6818
та	-10.6825
▁blind	-10.6826
konsert	-10.6838
▁kriminal	-10.6857
▁rask	-10.6862
▁heid	-10.6883
hockey	-10.6911
myndighet	-10.6915
divisjon	-10.6915
▁douglas	-10.6917
▁mobiltelefon	-10.6917
▁forveksle	-10.6917
▁wergeland	-10.6917
▁francisco	-10.6917
konservativ	-10.6917
▁colombia	-10.6917
▁oppdatert	-10.6917
protokoll	-10.6917
▁generasjon	-10.6919
▁marcus	-10.692
▁1936	-10.6921
mouth	-10.6921
▁1925	-10.6921
▁airport	-10.6922
▁1919	-10.6922
nøtter	-10.6923
▁betong	-10.6924
▁vannkraftverk	-10.6925
▁terreng	-10.6925
▁norway	-10.6927
▁action	-10.6928
▁frykt	-10.6929
▁onkel	-10.6934
▁oppnådd	-10.6949
▁hvile	-10.6963
▁cross	-10.6973
▁trø	-10.6976
forretning	-10.6989
▁bjør	-10.6993
regning	-10.7004
hytta	-10.7012
hovedstaden	-10.7027
vinkel	-10.7031
▁journal	-10.7044
støtte	-10.7069
blikk	-10.7075
▁jente	-10.7077
investering	-10.7105
▁kamera	-10.7116
▁flyselskap	-10.7128
direktoratet	-10.7139
▁arrangør	-10.7139
▁erkebiskop	-10.7139
▁business	-10.7139
▁chicago	-10.7139
fundament	-10.7139
▁døgn	-10.7139
▁svovel	-10.714
▁erobret	-10.714
▁kjøpmann	-10.7141
▁prinsesse	-10.7141
▁regulere	-10.7141
▁kristiansand	-10.7142
▁behov	-10.7142
øvrig	-10.7142
syndrom	-10.7143
musiker	-10.7144
▁friidrett	-10.7144
▁1935	-10.7144
sentral	-10.7146
▁trenger	-10.7147
▁spredt	-10.7147
▁clark	-10.7148
seminar	-10.7151
▁vakre	-10.7158
▁henhold	-10.7161
måte	-10.7187
▁aqu	-10.7213
transport	-10.7216
▁troms	-10.7226
▁aero	-10.7271
foretak	-10.7286
▁agent	-10.729
▁lykke	-10.7293
▁font	-10.7294
▁geolog	-10.732
fiber	-10.7342
▁jenn	-10.735
forstyrrelse	-10.7367
psykiatri	-10.7367
▁molekyl	-10.7367
▁francesco	-10.7367
▁tyrkia	-10.7367
▁nevø	-10.7367
▁lørdag	-10.7367
rådgiver	-10.7367
▁frivillig	-10.7367
▁delstats	-10.7367
▁beskrives	-10.7368
▁campbell	-10.7368
▁lewis	-10.7368
komponent	-10.7368
▁partner	-10.7368
▁marianne	-10.7369
▁opptrådt	-10.7369
mekanisme	-10.737
▁godkjent	-10.737
▁bundes	-10.7374
størrelse	-10.7375
kobling	-10.7375
kvalitet	-10.7375
arkitekt	-10.7377
▁bernard	-10.7377
▁jernbanestasjon	-10.7385
▁vandre	-10.7395
▁håndverk	-10.7395
▁forvalte	-10.7397
▁maritim	-10.74
▁britis	-10.7404
▁moll	-10.7406
▁alpinist	-10.7409
▁bassist	-10.7467
indeks	-10.7476
svarte	-10.7492
▁drei	-10.7515
metoder	-10.7529
öll	-10.7535
▁utvikle	-10.754
▁katedral	-10.7541
нов	-10.7551
▁brent	-10.7572
▁okse	-10.7596
▁argentina	-10.7599
▁beseiret	-10.7599
▁erklært	-10.7599
▁guangdong	-10.7599
▁kvadrat	-10.7599
▁münchen	-10.7599
▁league	-10.7599
▁tilslutt	-10.7599
▁airlines	-10.7599
köping	-10.7599
leksikon	-10.7599
▁automatisk	-10.7599
▁produc	-10.7599
▁kommersiell	-10.76
▁theodor	-10.76
▁fantasi	-10.76
▁organisere	-10.7601
▁kristne	-10.7602
klinikk	-10.7602
▁enzym	-10.7603
▁gregor	-10.7604
▁ulykke	-10.7604
▁1949	-10.7605
▁søndr	-10.7605
▁disney	-10.7605
▁erfaring	-10.7608
▁avansert	-10.7609
▁stryk	-10.7611
papir	-10.7614
▁spyd	-10.7614
▁institute	-10.7624
pleie	-10.7662
lokale	-10.7664
▁universit	-10.7725
produkt	-10.7727
▁størst	-10.7803
▁skuespill	-10.7803
▁innerst	-10.7836
▁jomfru	-10.7837
▁network	-10.7837
▁prestegjeld	-10.7837
▁rudolf	-10.7837
▁łód	-10.7837
▁1907	-10.7837
▁benjamin	-10.7837
▁mediebedriften	-10.7837
▁public	-10.7837
▁sparebank	-10.7837
▁1895	-10.7837
▁referanse	-10.7837
▁nominert	-10.7838
▁monument	-10.7838
▁stephen	-10.7838
▁petersburg	-10.7838
regulering	-10.7838
▁operativsystem	-10.7838
straße	-10.7839
▁dollar	-10.784
▁patriark	-10.784
▁flytende	-10.784
▁akutt	-10.7841
▁manager	-10.7841
▁ingrid	-10.7841
▁våt	-10.7842
▁poesi	-10.7843
▁brenselstype	-10.7846
▁sirkel	-10.7846
▁bryggeri	-10.7847
signal	-10.7848
▁bidro	-10.7848
▁patron	-10.785
edderkopp	-10.7857
▁meteor	-10.7858
åpning	-10.7867
▁gamb	-10.787
▁sosialistisk	-10.791
▁oversette	-10.791
craft	-10.7916
▁kongress	-10.7965
sponsor	-10.8034
tvedt	-10.8071
▁definisjon	-10.8081
▁krystall	-10.8081
▁natrium	-10.8081
▁rekrutt	-10.8081
▁forkroppen	-10.8081
▁inspirasjon	-10.8081
▁1883	-10.8081
▁ragnar	-10.8082
▁hendelsen	-10.8082
mønstre	-10.8082
▁separat	-10.8082
▁1914	-10.8085
▁1931	-10.8085
▁mengder	-10.8087
▁paradis	-10.8087
▁generell	-10.8087
▁kongsberg	-10.8088
▁nyhets	-10.8089
▁tommy	-10.809
▁soldater	-10.809
▁skån	-10.8094
▁embeds	-10.8097
rått	-10.8101
▁misjons	-10.8102
▁rapporter	-10.8104
kandidat	-10.8106
temperatur	-10.8107
▁arrest	-10.8113
▁ungdomsskole	-10.8118
▁variert	-10.8169
brakte	-10.817
ribbe	-10.8198
▁klage	-10.8216
▁harmoni	-10.8266
▁vasa	-10.827
bevegelse	-10.8276
kasser	-10.8297
gruppa	-10.8301
▁ambassad	-10.8331
▁barcelona	-10.8331
▁konkurrert	-10.8331
▁sykepleie	-10.8331
▁innbyggerne	-10.8331
▁anmelder	-10.8331
▁verdenscup	-10.8331
▁barnebarn	-10.8332
▁essay	-10.8332
attraksjon	-10.8332
▁sprint	-10.8332
▁regelmessig	-10.8333
▁diamant	-10.8333
▁systematisk	-10.8333
▁taiwan	-10.8333
betjent	-10.8334
▁trasé	-10.8334
▁brygge	-10.8335
▁centre	-10.8336
▁werner	-10.8336
▁anklage	-10.8338
▁komplett	-10.8338
▁presentert	-10.8339
▁filip	-10.834
▁sergej	-10.8341
▁signert	-10.8343
kvartett	-10.8343
▁skaffe	-10.8346
▁europavei	-10.8355
løype	-10.8387
▁søyle	-10.8387
▁marcel	-10.8396
eiro	-10.8406
krav	-10.8458
astronom	-10.8486
grunnlag	-10.8501
gudinnen	-10.8517
▁motsetning	-10.8586
▁vietnam	-10.8587
ttoregistertonn	-10.8588
▁favoritt	-10.8588
▁færøysk	-10.8588
▁inklusiv	-10.8588
▁oppmerksomhet	-10.8588
▁særskilt	-10.8588
▁installert	-10.8588
▁1903	-10.8588
saksofon	-10.8588
▁utspring	-10.8588
▁texas	-10.8588
▁reklame	-10.8588
▁rogaland	-10.8588
▁kommentar	-10.8588
▁selvmord	-10.8588
▁overvintr	-10.8588
▁heavy	-10.8588
script	-10.8588
▁bitumen	-10.8588
▁forbedre	-10.8588
▁bærum	-10.8589
alliansen	-10.8589
▁dream	-10.8591
▁again	-10.8591
▁1916	-10.8593
▁litterær	-10.8593
▁fullført	-10.8594
▁sultan	-10.8596
▁reager	-10.8598
▁western	-10.8598
▁foretrekke	-10.8599
▁tropisk	-10.86
▁smelte	-10.8602
▁göt	-10.861
operativ	-10.8679
palasset	-10.8749
▁øygrupp	-10.8753
dobbel	-10.885
▁françois	-10.8851
▁hviterussisk	-10.8851
▁kronprins	-10.8851
▁østerriksk	-10.8851
▁buddhist	-10.8851
▁umiddelbar	-10.8851
▁arbeidsgiver	-10.8851
▁kennedy	-10.8851
▁østfold	-10.8851
▁göteborg	-10.8851
▁nøyaktig	-10.8851
▁1881	-10.8851
▁amatør	-10.8851
osfæren	-10.8851
▁margaret	-10.8852
▁astrid	-10.8852
teatret	-10.8852
▁finansiert	-10.8852
▁1913	-10.8856
▁1911	-10.8856
▁oppgaver	-10.8857
▁fasade	-10.886
▁frp	-10.8863
føderasjon	-10.8865
align	-10.8871
▁frederic	-10.8877
▁moderat	-10.8887
dolph	-10.8895
▁direct	-10.89
fraksjon	-10.8914
▁blomsten	-10.8916
provinshovedstad	-10.8976
▁palass	-10.8986
▁svekke	-10.9015
klub	-10.9048
ifikasjon	-10.9102
▁inskripsjon	-10.9121
▁academy	-10.9121
▁aftenposten	-10.9121
▁frankfurt	-10.9121
▁klassifisere	-10.9121
▁petroleum	-10.9121
▁research	-10.9121
▁virginia	-10.9121
▁lillehammer	-10.9121
▁sichuan	-10.9121
▁tibetansk	-10.9121
▁ødelagt	-10.9121
▁1902	-10.9121
▁trygve	-10.9121
▁antennene	-10.9121
▁antagelig	-10.9121
▁bystatus	-10.9121
▁beskrivelse	-10.9121
▁1873	-10.9121
▁utdødd	-10.9121
▁strekningen	-10.9121
▁unntatt	-10.9121
▁forsvant	-10.9121
traktaten	-10.9122
▁mikael	-10.9122
▁skrivemåte	-10.9122
▁kalsium	-10.9122
▁skjøt	-10.9122
▁symbolisere	-10.9122
▁innskriften	-10.9122
▁oppdagelse	-10.9123
▁medvirket	-10.9123
▁1901	-10.9125
▁massiv	-10.9125
▁arendal	-10.9125
▁sjette	-10.9126
▁næringsliv	-10.9126
▁techn	-10.9128
vík	-10.9131
▁mandat	-10.9144
dekning	-10.9163
svermer	-10.9168
regjering	-10.9174
ansvarlig	-10.9175
overføring	-10.9229
▁utarbeide	-10.9297
▁tilpasse	-10.9365
▁lokomotiv	-10.9399
▁distribusjon	-10.9399
▁elefant	-10.9399
▁gælisk	-10.9399
▁mountain	-10.9399
skvadron	-10.9399
▁forklaring	-10.9399
▁langrennsløper	-10.9399
▁management	-10.9399
▁gjøvik	-10.9399
▁mandsju	-10.9399
▁stridsvogn	-10.9399
betennelse	-10.9399
▁permanent	-10.9399
bransjen	-10.9399
▁special	-10.9399
▁firkant	-10.9399
▁snorre	-10.9399
▁konstruert	-10.9399
▁universal	-10.9399
▁ødelegge	-10.9399
▁radikal	-10.9399
▁ungarn	-10.9399
▁antenner	-10.94
▁bevisst	-10.94
▁rumensk	-10.94
statistikk	-10.94
▁stråling	-10.94
▁føderal	-10.9401
▁arnold	-10.9401
▁søsken	-10.9402
▁gjær	-10.9402
▁debatt	-10.9405
▁advent	-10.9407
▁utgivelsen	-10.9411
▁ibsen	-10.9412
▁stedsnavn	-10.9413
opplevelse	-10.9419
▁rytme	-10.9424
rederi	-10.9445
fylke	-10.9456
blokk	-10.947
▁olympi	-10.9585
▁ortodoks	-10.9685
▁publikasjon	-10.9685
▁reservoar	-10.9685
▁seremoni	-10.9685
ammunisjon	-10.9685
▁frilufts	-10.9685
▁joachim	-10.9685
▁litauisk	-10.9685
▁1909	-10.9685
▁beslutte	-10.9685
▁intervju	-10.9685
▁baptist	-10.9685
vurdering	-10.9685
▁gjennomsnittlig	-10.9685
leverandør	-10.9685
▁trompet	-10.9685
▁ålesund	-10.9685
konsulent	-10.9685
▁nelson	-10.9685
▁utnevne	-10.9685
▁prosessor	-10.9686
▁zhao	-10.9686
▁syklist	-10.9686
▁sosialdemokrat	-10.9688
▁optim	-10.9688
▁cecil	-10.9688
▁slange	-10.9693
▁andorra	-10.9694
▁text	-10.9695
dimensjon	-10.9697
plikasjon	-10.97
▁forvente	-10.9704
metoden	-10.9723
litteratur	-10.9754
europeisk	-10.9756
knapp	-10.9798
basseng	-10.9811
fellesskap	-10.9842
▁inneholde	-10.9883
ground	-10.9909
ская	-10.9979
▁authority	-10.9979
▁ferdinand	-10.9979
▁hongkong	-10.9979
▁innspilt	-10.9979
▁ludwig	-10.9979
▁luxembourg	-10.9979
▁matematikk	-10.9979
▁nintendo	-10.9979
▁sarpsborg	-10.9979
▁kristoffer	-10.9979
▁oxford	-10.9979
▁engasjert	-10.9979
▁miguel	-10.9979
▁kapittel	-10.9979
▁fungerte	-10.9979
differens	-10.9979
▁vietnamesisk	-10.9979
▁gjald	-10.9979
▁konvensjon	-10.9979
▁begravet	-10.9979
▁slovensk	-10.998
▁redigert	-10.998
▁project	-10.998
▁kjetil	-10.998
▁betaling	-10.998
▁online	-10.998
▁wessel	-10.9981
▁elleve	-10.9982
▁forgjenger	-10.9982
▁apollo	-10.9982
▁fangst	-10.9983
▁opplevd	-10.9985
▁herald	-10.9985
kollega	-10.9993
flåten	-11.0002
skrekk	-11.0002
▁nederst	-11.0012
vokter	-11.0016
▁america	-11.0029
undervisning	-11.0058
▁astronomi	-11.0098
kirch	-11.0141
besetning	-11.02
høj	-11.0222
▁billedhugger	-11.0282
▁absolutt	-11.0282
▁development	-11.0282
▁jurisdiksjon	-11.0282
▁konkurrent	-11.0282
▁mangfold	-11.0282
▁sebastian	-11.0282
▁zìzhìxiàn	-11.0282
ressurser	-11.0282
▁pattedyr	-11.0282
▁praksis	-11.0282
▁jacque	-11.0282
▁hordaland	-11.0282
▁1897	-11.0282
▁konsonant	-11.0282
▁1889	-11.0282
▁tilføyd	-11.0282
▁1892	-11.0282
▁1882	-11.0282
▁vertikal	-11.0282
▁overlevde	-11.0282
▁antarktis	-11.0282
▁langrenn	-11.0282
▁marilyn	-11.0282
▁zhong	-11.0282
▁utbredelse	-11.0282
▁kontinental	-11.0282
▁skjebne	-11.0283
▁ntnu	-11.0283
▁hvelv	-11.0283
▁christensen	-11.0283
▁sannhet	-11.0283
kirurgi	-11.0284
▁oppfølger	-11.0284
▁brøt	-11.0284
▁invasjon	-11.0284
▁pianist	-11.0285
▁hvete	-11.0286
▁avgjørelse	-11.0287
▁minorit	-11.0287
▁rhin	-11.0291
▁romsdal	-11.0293
vilkår	-11.0302
▁rifle	-11.0306
▁skygge	-11.0312
flyvning	-11.0336
▁hevn	-11.0356
produsert	-11.0367
universitetet	-11.037
teknisk	-11.0377
bombe	-11.0388
▁bløt	-11.0461
arrow	-11.0581
▁doktor	-11.0594
▁diagnosti	-11.0594
▁lawrence	-11.0594
▁norwegian	-11.0594
▁novgorod	-11.0594
▁parallelt	-11.0594
▁pronotum	-11.0594
▁puppeperioden	-11.0594
▁ragnhild	-11.0594
▁slovakisk	-11.0594
▁coverversjon	-11.0594
▁rasmussen	-11.0594
▁müller	-11.0594
▁1904	-11.0594
▁krydder	-11.0594
▁argument	-11.0594
▁litauen	-11.0594
▁torpedo	-11.0594
▁mikhail	-11.0594
▁pseudonym	-11.0594
▁jagerfly	-11.0594
▁utsikt	-11.0595
▁zhang	-11.0595
▁praktiser	-11.0595
▁detroit	-11.0595
▁hvem	-11.0595
planlegging	-11.0596
▁abdul	-11.0596
▁about	-11.0596
reaktor	-11.0596
▁castle	-11.0597
▁hjelm	-11.06
▁hjemmekampe	-11.0601
▁finansiere	-11.0602
▁parodi	-11.0602
▁earl	-11.0617
▁antyde	-11.0617
forandring	-11.0624
▁planteslekt	-11.0642
▁bakkropp	-11.0647
klima	-11.0739
▁blanc	-11.0757
trådte	-11.0772
▁dynasti	-11.084
forståelse	-11.0849
▁pseudo	-11.0917
▁bryllup	-11.0917
ский	-11.0917
▁bulgaria	-11.0917
▁chrysomel	-11.0917
▁democratic	-11.0917
▁illustrert	-11.0917
▁jerusalem	-11.0917
▁kringkasting	-11.0917
▁köln	-11.0917
▁tusenårssted	-11.0917
▁venezuela	-11.0917
▁alessandr	-11.0917
▁railway	-11.0917
▁manchester	-11.0917
▁anthony	-11.0917
▁sylinder	-11.0917
▁anvendt	-11.0917
▁1893	-11.0917
▁interiør	-11.0917
▁katalansk	-11.0917
▁juridisk	-11.0917
▁karakterisere	-11.0917
▁belgia	-11.0917
▁uvanlig	-11.0917
▁henrettelse	-11.0917
▁venezia	-11.0917
▁valentin	-11.0918
▁mission	-11.0918
▁where	-11.0918
▁begrenset	-11.0919
▁bmw	-11.0919
▁sophie	-11.0921
chéng	-11.0923
▁anatol	-11.0936
flyktning	-11.0936
▁utskil	-11.0942
▁satellitt	-11.0946
▁ми	-11.0991
ć	-12.1845
ñ	-13.0033
