<unk>	0
<s>	0
</s>	0
.	-3.03934
s	-3.22573
e	-3.59888
▁	-3.61335
t	-4.02982
er	-4.10213
en	-4.15654
▁og	-4.35047
▁i	-4.47686
r	-4.63304
▁er	-4.67705
a	-4.76126
n	-4.81047
et	-5.00098
▁av	-5.1977
i	-5.27378
o	-5.2816
d	-5.32441
k	-5.36804
▁for	-5.38725
y	-5.48338
▁en	-5.59017
▁var	-5.6568
▁til	-5.69432
▁på	-5.69512
▁som	-5.71359
▁med	-5.73989
ne	-5.74923
▁de	-5.76324
m	-5.77023
ene	-5.80836
te	-5.81143
g	-5.87338
l	-5.9643
▁har	-5.98535
p	-6.0258
c	-6.06764
▁den	-6.07511
f	-6.09391
▁fra	-6.1046
h	-6.10551
in	-6.17087
de	-6.17639
u	-6.18961
v	-6.19198
ing	-6.22555
es	-6.25256
us	-6.27856
re	-6.28927
an	-6.30169
▁ble	-6.30274
▁s	-6.30375
b	-6.36452
▁be	-6.36912
le	-6.40101
▁et	-6.40376
▁a	-6.414
▁det	-6.42374
al	-6.46419
na	-6.51393
▁han	-6.52858
on	-6.53767
▁p	-6.54864
z	-6.55379
ar	-6.56708
▁ved	-6.60915
is	-6.61165
▁the	-6.62149
▁eller	-6.64112
▁ut	-6.6414
j	-6.66568
▁også	-6.66679
0	-6.69778
▁m	-6.70321
um	-6.70329
▁to	-6.70358
ter	-6.70419
w	-6.7091
x	-6.72038
▁f	-6.72734
ri	-6.73391
▁under	-6.73831
▁å	-6.74085
▁k	-6.74817
sk	-6.75246
ia	-6.75425
ch	-6.75837
▁kan	-6.76236
▁d	-6.77358
3	-6.81006
el	-6.81289
4	-6.83509
ma	-6.83885
6	-6.87787
ke	-6.87939
▁b	-6.8916
5	-6.89303
2	-6.91551
ck	-6.91897
▁over	-6.91918
ra	-6.92519
ta	-6.92664
or	-6.9283
▁al	-6.92943
▁se	-6.93766
la	-6.94188
▁in	-6.95283
▁opp	-6.9567
▁la	-6.96378
ens	-6.98895
▁om	-6.99454
▁u	-7.00193
▁g	-7.00991
8	-7.01025
der	-7.01978
land	-7.02104
▁c	-7.02148
▁inn	-7.04612
7	-7.0476
é	-7.05208
di	-7.05599
il	-7.05812
9	-7.06294
▁andre	-7.06639
▁an	-7.07381
li	-7.08138
▁18	-7.08547
nes	-7.08705
da	-7.08897
ur	-7.09801
ka	-7.10169
▁etter	-7.11458
▁n	-7.11667
▁h	-7.11913
ende	-7.12075
ge	-7.13459
ga	-7.14116
▁da	-7.14948
▁ligger	-7.17157
1	-7.17565
▁l	-7.19323
ro	-7.19723
ger	-7.20238
ver	-7.20508
ve	-7.2104
be	-7.2159
▁and	-7.21893
ng	-7.22315
den	-7.22496
▁of	-7.22996
▁ha	-7.23736
ja	-7.24261
▁di	-7.25814
▁re	-7.26559
▁t	-7.27186
stad	-7.27522
▁co	-7.28056
▁v	-7.2869
mi	-7.29098
lig	-7.29669
ko	-7.29856
to	-7.30159
isk	-7.30317
ba	-7.3201
ha	-7.32044
ed	-7.32102
▁her	-7.32225
as	-7.32424
os	-7.33021
▁tre	-7.33412
ler	-7.33441
▁no	-7.3352
▁ca	-7.33634
▁na	-7.33939
man	-7.33959
me	-7.33975
▁he	-7.34093
th	-7.343
▁le	-7.34743
ker	-7.34941
▁li	-7.35508
it	-7.36028
▁ro	-7.36064
▁hoved	-7.3645
lo	-7.36918
ul	-7.38986
▁at	-7.39006
▁ma	-7.39631
ø	-7.3976
▁j	-7.40307
▁bo	-7.40638
son	-7.40817
▁man	-7.41519
ning	-7.41616
▁sa	-7.41778
nde	-7.41883
ner	-7.42628
▁nord	-7.433
ton	-7.43501
ig	-7.43766
ut	-7.43768
va	-7.44089
▁lo	-7.44977
at	-7.46024
▁sp	-7.46194
bo	-7.46327
øy	-7.46759
▁pa	-7.468
▁vi	-7.46954
▁ra	-7.47172
▁st	-7.47397
▁blant	-7.47522
iske	-7.47561
berg	-7.47744
▁o	-7.47922
▁r	-7.47955
gen	-7.4809
ør	-7.48481
▁hans	-7.48726
ad	-7.49298
ce	-7.4939
ff	-7.49696
▁w	-7.50713
for	-7.51548
co	-7.51677
▁do	-7.52398
id	-7.52524
mo	-7.52846
á	-7.53271
ol	-7.53381
ina	-7.55216
▁mot	-7.55328
vi	-7.56038
▁mo	-7.56837
▁ni	-7.56956
ling	-7.57248
▁pi	-7.58349
dal	-7.5849
ly	-7.59038
▁ba	-7.59378
▁ka	-7.59484
▁su	-7.59786
ic	-7.60314
go	-7.60414
▁du	-7.60731
▁so	-7.61101
▁ri	-7.61133
pe	-7.61687
▁men	-7.61797
gi	-7.61855
▁tor	-7.62385
ti	-7.62517
si	-7.63091
by	-7.63328
ry	-7.63785
▁gjennom	-7.63813
▁per	-7.63906
▁kon	-7.64208
do	-7.64599
▁as	-7.64645
ske	-7.64647
▁bar	-7.65607
▁ta	-7.65708
▁sin	-7.65767
▁si	-7.65845
▁ho	-7.65946
▁mar	-7.66239
▁kalles	-7.66413
bu	-7.66556
▁hadde	-7.66664
om	-7.67234
▁der	-7.67534
lige	-7.6768
ir	-7.68003
▁ko	-7.6832
▁mellom	-7.68354
▁am	-7.69232
erte	-7.69521
ste	-7.69904
bi	-7.70296
kt	-7.70971
▁kinesisk	-7.71707
å	-7.71897
▁el	-7.72265
no	-7.72364
▁1	-7.73096
am	-7.73182
▁dette	-7.73261
ä	-7.73558
▁po	-7.73683
ni	-7.74062
kk	-7.7407
ell	-7.7435
í	-7.75028
▁ny	-7.75038
▁by	-7.75562
ven	-7.75768
▁stor	-7.75989
io	-7.76
un	-7.7616
▁lu	-7.76276
æ	-7.76319
ö	-7.76402
▁me	-7.76519
▁bi	-7.7672
ho	-7.7674
ca	-7.77007
pa	-7.7736
▁or	-7.7741
▁19	-7.78652
het	-7.78721
op	-7.79581
var	-7.79681
mer	-7.79871
▁te	-7.79886
mp	-7.79897
▁ti	-7.80064
ov	-7.80072
▁ikke	-7.80553
▁mor	-7.80558
ll	-7.81116
vik	-7.81155
▁pro	-7.81703
▁seg	-7.82051
▁2	-7.82332
ci	-7.82419
gu	-7.82759
ment	-7.82828
ster	-7.83079
sjon	-7.83153
pp	-7.83197
ist	-7.83202
▁sch	-7.83625
je	-7.83762
mann	-7.83917
im	-7.85149
▁del	-7.86635
▁denne	-7.8719
po	-7.87274
sh	-7.87427
▁hu	-7.88461
▁hun	-7.88546
▁ga	-7.89201
▁jo	-7.8939
▁flere	-7.89411
lin	-7.89426
▁car	-7.89843
pi	-7.89872
od	-7.90108
tor	-7.90516
▁con	-7.90736
ó	-7.90843
▁fri	-7.90892
per	-7.9124
ant	-7.91327
▁17	-7.9142
au	-7.91519
▁disse	-7.91543
tal	-7.92025
skap	-7.92112
else	-7.92542
▁ja	-7.92759
▁bu	-7.92982
▁fa	-7.93783
▁y	-7.93858
ær	-7.94182
▁mi	-7.94341
tt	-7.94537
vis	-7.94607
▁ne	-7.95151
del	-7.95275
hold	-7.95455
▁sol	-7.95473
▁far	-7.95622
ik	-7.95724
▁fikk	-7.96363
▁min	-7.96366
tter	-7.96661
▁x	-7.96732
▁første	-7.96844
▁født	-7.96975
ki	-7.96986
▁z	-7.97038
tra	-7.97325
lu	-7.97438
▁gu	-7.97586
▁sør	-7.98608
▁ge	-7.98681
▁sammen	-7.98779
ation	-8.0046
▁tilhører	-8.00664
ica	-8.00748
▁gi	-8.00794
▁blir	-8.00907
av	-8.01531
ard	-8.01737
▁hel	-8.01811
ie	-8.0199
gg	-8.02113
and	-8.02676
erne	-8.03091
opp	-8.03124
sel	-8.03356
ium	-8.03634
▁ch	-8.04726
▁ar	-8.04773
▁ru	-8.05168
sta	-8.05297
ion	-8.0537
▁vest	-8.05558
ong	-8.05718
ring	-8.05723
ü	-8.06012
▁finnes	-8.06058
asjon	-8.06307
ikk	-8.06723
▁kommune	-8.06854
▁go	-8.06914
kke	-8.06992
ber	-8.07756
ot	-8.07762
▁sam	-8.07808
▁ju	-8.08258
men	-8.08409
▁øst	-8.08775
▁ad	-8.08793
ok	-8.08895
▁tra	-8.08937
itt	-8.08957
hu	-8.08972
▁samt	-8.09171
rett	-8.09223
nd	-8.09333
▁land	-8.09618
ag	-8.10152
▁alle	-8.1018
ord	-8.10287
▁kom	-8.10336
lag	-8.10576
▁ab	-8.10956
▁tri	-8.11218
idae	-8.11426
ak	-8.11493
▁15	-8.11606
▁tidligere	-8.11974
ac	-8.12135
ung	-8.12194
dag	-8.12379
▁byen	-8.13287
over	-8.13328
ine	-8.13461
▁navn	-8.13598
em	-8.13697
▁vann	-8.1381
▁lag	-8.13849
▁pe	-8.14006
vin	-8.14059
▁va	-8.14095
▁mer	-8.14524
▁bestå	-8.14533
wa	-8.14741
ā	-8.1485
ph	-8.15251
▁omfatter	-8.15616
▁bak	-8.15858
ny	-8.1614
е	-8.16189
min	-8.16205
ren	-8.16496
▁fly	-8.16922
ian	-8.17261
▁kalt	-8.17467
tu	-8.17632
▁kar	-8.17952
ou	-8.18071
▁san	-8.18141
za	-8.18223
▁så	-8.18244
ek	-8.18501
hi	-8.18576
ang	-8.18671
fa	-8.18767
ley	-8.18968
▁tu	-8.19386
▁wi	-8.19731
jo	-8.19798
ken	-8.19833
▁bety	-8.19867
yl	-8.19929
▁navnet	-8.20229
les	-8.20509
▁ofte	-8.20868
▁annet	-8.20972
▁my	-8.21183
hus	-8.21588
▁3	-8.22095
▁jan	-8.22386
ju	-8.22406
ede	-8.22711
▁br	-8.22979
▁ned	-8.2301
stein	-8.23068
tre	-8.23125
år	-8.23454
bb	-8.23803
elle	-8.24235
▁fe	-8.24372
ow	-8.24526
▁nå	-8.24574
▁bra	-8.24687
▁on	-8.2509
▁ei	-8.25745
и	-8.258
und	-8.26052
ud	-8.26178
tall	-8.26561
▁all	-8.26654
bar	-8.26808
ting	-8.26811
ku	-8.26848
kel	-8.27168
▁frem	-8.27783
sch	-8.28051
ld	-8.28067
sted	-8.28361
▁kirke	-8.28364
▁heter	-8.28372
sson	-8.28606
▁lang	-8.2871
▁ag	-8.29112
tar	-8.29211
▁bro	-8.29422
len	-8.29456
▁norsk	-8.29514
▁pre	-8.29567
▁dag	-8.29656
▁russisk	-8.29763
ks	-8.29865
▁ski	-8.30109
tan	-8.30233
▁ki	-8.30277
ham	-8.30339
art	-8.30506
▁følgende	-8.30656
mar	-8.3071
ier	-8.31139
▁mange	-8.31229
heim	-8.31236
mmer	-8.31982
▁cha	-8.32147
▁val	-8.32442
▁we	-8.32505
ru	-8.32666
chi	-8.32911
▁mu	-8.33391
iv	-8.33552
▁16	-8.3391
▁sk	-8.34049
▁mens	-8.34222
ologi	-8.34297
ft	-8.34941
▁tro	-8.34961
ering	-8.35308
jø	-8.35374
▁sand	-8.35438
▁john	-8.3564
▁fire	-8.35659
▁berg	-8.35772
▁før	-8.35927
▁ku	-8.35998
▁sal	-8.36047
dalen	-8.36253
mb	-8.36361
▁mal	-8.36363
▁eks	-8.36654
▁mel	-8.3676
lands	-8.37144
▁nor	-8.37168
▁ben	-8.37208
sp	-8.37298
du	-8.37565
tion	-8.37626
▁bl	-8.3824
▁være	-8.38371
inyin	-8.38577
▁ver	-8.38663
▁mat	-8.38852
sten	-8.38968
ran	-8.38974
▁kl	-8.391
tri	-8.39123
▁ham	-8.39131
▁sta	-8.39147
▁operatør	-8.39198
tin	-8.39219
▁lever	-8.39242
▁tid	-8.39369
▁2002	-8.3991
▁ak	-8.39965
familien	-8.40087
ab	-8.40236
til	-8.40337
▁pu	-8.40577
▁ac	-8.4059
q	-8.41024
▁store	-8.41118
▁vil	-8.41382
▁skal	-8.41477
ty	-8.41663
▁mag	-8.4168
▁går	-8.41753
fi	-8.42187
▁och	-8.42388
▁ur	-8.42521
▁fo	-8.42785
▁fi	-8.42908
mon	-8.43082
▁stein	-8.43391
▁syn	-8.43483
gang	-8.43495
▁com	-8.43498
sti	-8.43501
ú	-8.43776
är	-8.43874
kon	-8.44161
tid	-8.4434
▁liste	-8.44493
lik	-8.44519
▁hos	-8.44609
▁folketelling	-8.44656
▁bru	-8.44793
▁største	-8.44878
▁par	-8.44968
gar	-8.44991
▁ø	-8.45392
н	-8.45484
ska	-8.45757
ze	-8.45852
▁moh	-8.45962
ius	-8.46046
zi	-8.46138
▁rød	-8.46468
ya	-8.46594
▁flaggbærer	-8.46665
▁år	-8.46734
▁parti	-8.46767
▁4	-8.46796
▁sig	-8.46854
mor	-8.4696
nings	-8.47045
▁kor	-8.47219
▁ste	-8.47227
▁mål	-8.47444
he	-8.47536
pningsseremonien	-8.47571
▁fem	-8.47577
▁gra	-8.47644
ji	-8.48137
▁musikk	-8.48313
▁5	-8.48483
ī	-8.48484
▁langs	-8.48582
▁brun	-8.48651
senter	-8.48761
▁sitt	-8.48906
о	-8.49027
▁ke	-8.4918
▁familien	-8.49359
▁hus	-8.49406
▁engelsk	-8.49643
▁pan	-8.49822
▁bok	-8.50235
▁vel	-8.50237
▁can	-8.50388
ingen	-8.50423
tz	-8.5054
tisk	-8.50686
ola	-8.5095
siden	-8.51002
ug	-8.51008
▁små	-8.51022
▁gir	-8.51532
▁alt	-8.51688
ningen	-8.51708
vo	-8.51804
▁au	-8.52119
che	-8.52318
verk	-8.52487
▁folke	-8.52557
▁7	-8.52665
ret	-8.52859
▁fjell	-8.52863
elsen	-8.52877
▁sø	-8.52927
fly	-8.52938
ator	-8.52987
we	-8.53
inger	-8.53315
▁kommunen	-8.5363
tel	-8.53675
▁senere	-8.53745
tak	-8.54081
▁sh	-8.54109
burg	-8.54221
▁ol	-8.54648
▁leder	-8.54796
vel	-8.54833
han	-8.54982
▁noen	-8.55062
▁spilt	-8.55171
▁død	-8.55225
▁mon	-8.55336
mme	-8.55391
▁hol	-8.55451
dre	-8.55896
hr	-8.56015
án	-8.56061
bro	-8.5609
▁th	-8.56833
ana	-8.56903
▁bor	-8.56913
▁laget	-8.5697
ari	-8.57
borg	-8.5709
dy	-8.57122
dyr	-8.57311
inn	-8.57951
▁gar	-8.58018
▁mest	-8.58151
▁shi	-8.58381
ini	-8.58416
▁gul	-8.58535
gel	-8.58618
▁inneholder	-8.58706
ino	-8.58714
▁20	-8.58794
▁nær	-8.588
ron	-8.59171
▁verdens	-8.59203
▁chi	-8.59256
▁fram	-8.59357
▁red	-8.59414
veien	-8.59481
▁film	-8.59583
▁nu	-8.59743
sund	-8.60071
▁af	-8.60297
▁kunst	-8.60303
▁gud	-8.60447
▁vo	-8.60575
▁vant	-8.60781
kar	-8.6079
tten	-8.60884
▁høy	-8.61024
dra	-8.61044
▁op	-8.6105
▁lys	-8.6127
▁van	-8.61296
satt	-8.61349
▁gjen	-8.61405
▁za	-8.61432
▁col	-8.61592
▁new	-8.61711
▁hy	-8.61778
▁8	-8.61875
fjorden	-8.61954
▁bre	-8.62006
far	-8.62206
ach	-8.62233
▁inkluderer	-8.62249
▁god	-8.62289
ans	-8.62363
est	-8.6242
tte	-8.6258
▁wa	-8.62603
▁un	-8.62923
▁sc	-8.62994
lan	-8.63231
fe	-8.63393
ice	-8.63532
▁ul	-8.63797
▁kjente	-8.64247
vet	-8.64265
dd	-8.64413
form	-8.6451
bil	-8.64535
▁mod	-8.64618
som	-8.6479
è	-8.64876
▁fin	-8.64878
bok	-8.64932
▁div	-8.64933
gh	-8.65
▁selv	-8.65034
ah	-8.65169
ale	-8.65242
▁bil	-8.65463
▁rett	-8.65512
isme	-8.65683
▁art	-8.65965
▁innen	-8.66035
▁sj	-8.66321
laget	-8.66327
stand	-8.66654
ide	-8.66657
▁ty	-8.6679
su	-8.66903
▁ve	-8.67084
▁gen	-8.67096
folkerepublikken	-8.6711
▁mai	-8.67325
ich	-8.67352
▁skole	-8.67356
ill	-8.67699
hy	-8.67724
▁sha	-8.67771
▁von	-8.67977
res	-8.68076
sto	-8.68184
shi	-8.68248
ita	-8.68295
mat	-8.68325
par	-8.68465
▁kommer	-8.68557
▁fag	-8.68639
if	-8.68653
ð	-8.68691
yn	-8.689
▁ren	-8.68915
▁fiske	-8.69142
▁bjørn	-8.69416
▁ry	-8.69479
let	-8.69499
▁paul	-8.69641
uk	-8.69914
▁ap	-8.69934
net	-8.69935
▁hi	-8.70012
▁kort	-8.70088
rø	-8.70173
▁juli	-8.70217
stre	-8.70284
▁sjø	-8.70448
spill	-8.70513
▁bur	-8.70637
▁gal	-8.70752
▁tom	-8.70926
▁ed	-8.71089
sky	-8.7113
▁ex	-8.71135
vann	-8.71238
▁hvor	-8.71362
dor	-8.71488
▁kjent	-8.71539
fra	-8.71559
lia	-8.71683
▁landet	-8.71893
ris	-8.71929
tiske	-8.72048
tsj	-8.72218
▁10	-8.72345
▁bal	-8.72735
▁post	-8.72776
▁hen	-8.73223
▁vis	-8.73354
mester	-8.73502
slag	-8.73669
▁dan	-8.7368
▁innbyggertall	-8.73682
▁rom	-8.73776
met	-8.73901
van	-8.73937
bel	-8.7403
▁grunn	-8.74101
▁jord	-8.74167
og	-8.74181
▁mark	-8.74269
▁må	-8.7431
ps	-8.74316
▁cor	-8.74885
▁peter	-8.7489
▁ly	-8.7497
š	-8.75171
ani	-8.75365
▁pr	-8.75414
▁christ	-8.75526
▁roman	-8.7561
kan	-8.75631
kken	-8.75674
▁skrev	-8.75684
▁norge	-8.75755
ding	-8.75773
с	-8.75799
▁motor	-8.75902
▁tekst	-8.75927
▁fu	-8.75952
tur	-8.76149
br	-8.76171
ppe	-8.76185
bruk	-8.7619
▁vin	-8.76241
mål	-8.76415
▁12	-8.76432
▁skog	-8.7653
ath	-8.76691
cc	-8.76809
▁kje	-8.77009
mark	-8.77015
▁innenfor	-8.77053
▁tar	-8.77058
ninger	-8.77109
øya	-8.77333
▁ord	-8.7736
vær	-8.77487
▁thor	-8.77536
▁die	-8.77566
fisk	-8.77702
▁står	-8.77707
▁tur	-8.77826
itet	-8.78152
▁kur	-8.78152
▁sil	-8.78214
▁christian	-8.78256
bø	-8.78295
rik	-8.78412
▁kultur	-8.78517
leder	-8.78525
▁kinas	-8.78538
eg	-8.78578
▁kv	-8.78654
kom	-8.78656
▁stat	-8.78695
kor	-8.78841
mm	-8.78906
age	-8.78992
▁kra	-8.79133
lev	-8.79167
▁kri	-8.79237
▁kr	-8.79378
▁sub	-8.79388
ski	-8.7942
mu	-8.79583
▁rø	-8.7962
ata	-8.79894
fjord	-8.79967
xi	-8.79978
▁und	-8.79997
▁sine	-8.80021
ves	-8.80132
▁eu	-8.80275
red	-8.80294
ther	-8.80404
▁like	-8.8042
ssen	-8.80424
▁vei	-8.80443
ild	-8.80489
▁len	-8.80493
dan	-8.80655
ister	-8.8075
rom	-8.80919
▁sen	-8.80919
▁para	-8.81161
gård	-8.81276
que	-8.81371
▁sønn	-8.81426
▁hav	-8.81461
▁os	-8.81477
▁norske	-8.81486
▁martin	-8.81491
▁hovedstad	-8.81564
kle	-8.81582
▁fast	-8.81585
▁2006	-8.81676
▁ci	-8.817
▁hver	-8.81764
▁bruker	-8.8201
▁km	-8.82052
stan	-8.82073
▁brukes	-8.82198
ara	-8.82306
▁gre	-8.82565
▁vol	-8.82574
▁grav	-8.82589
ros	-8.82722
▁ya	-8.82795
▁anti	-8.82808
▁rundt	-8.82826
▁tv	-8.82838
▁oslo	-8.8306
л	-8.83485
val	-8.83486
sj	-8.83585
▁jeg	-8.83638
▁mas	-8.8395
▁fr	-8.84021
ano	-8.84226
don	-8.84314
а	-8.84398
▁mil	-8.84419
▁cu	-8.84438
▁cas	-8.84609
bygg	-8.8463
▁robert	-8.84674
ub	-8.84693
▁området	-8.848
tic	-8.8483
▁selskapet	-8.84896
▁sm	-8.85009
▁lokal	-8.85192
▁både	-8.85259
alis	-8.85291
gle	-8.85306
▁ob	-8.85319
▁sentral	-8.85417
kal	-8.85509
kh	-8.85539
▁stu	-8.8558
▁mac	-8.85706
▁mus	-8.85898
▁pra	-8.85908
▁gruppen	-8.86004
▁lav	-8.86102
▁het	-8.86123
▁6	-8.86154
▁lind	-8.86211
bl	-8.86246
α	-8.86258
▁videre	-8.86295
▁plan	-8.86347
my	-8.86409
ida	-8.86445
▁spiller	-8.86686
ova	-8.868
ette	-8.86912
▁kina	-8.87006
▁em	-8.87143
▁øy	-8.87188
rin	-8.87212
▁karl	-8.87363
gan	-8.874
pro	-8.87425
▁norges	-8.87453
▁gift	-8.8747
kje	-8.87573
skog	-8.87608
lys	-8.8776
hl	-8.87877
▁natur	-8.87966
fon	-8.87968
anlegg	-8.8798
▁you	-8.88045
▁jon	-8.88184
▁kun	-8.88186
▁för	-8.88406
zh	-8.8845
▁sommer	-8.88464
д	-8.88605
ford	-8.88661
lett	-8.89109
byen	-8.89279
▁mars	-8.89297
▁halv	-8.89608
▁port	-8.8976
▁slik	-8.89834
pen	-8.89865
▁erik	-8.89893
huset	-8.90018
▁21	-8.90157
ay	-8.9029
▁arm	-8.90308
pris	-8.90313
vei	-8.90483
▁class	-8.90506
bane	-8.90663
ula	-8.9075
setning	-8.9088
▁q	-8.91202
kin	-8.91248
▁gresk	-8.91277
isering	-8.91349
▁gull	-8.91382
▁je	-8.9143
nor	-8.91504
▁dr	-8.91757
sjef	-8.91761
mel	-8.9182
▁band	-8.91835
fall	-8.91868
fer	-8.91899
fo	-8.919
itz	-8.92081
▁distriktet	-8.92089
▁ger	-8.92095
▁mis	-8.92162
log	-8.92184
к	-8.92191
dom	-8.9224
▁war	-8.92273
wi	-8.92386
▁lyd	-8.92401
▁25	-8.92413
▁når	-8.92488
▁stra	-8.92515
▁språk	-8.92564
▁nasjonal	-8.92684
▁vise	-8.92752
up	-8.92784
ū	-8.92835
▁hal	-8.92857
▁trans	-8.92883
▁kong	-8.93083
ble	-8.93156
▁august	-8.93194
ige	-8.93206
▁inter	-8.9325
▁fl	-8.93265
ive	-8.93355
▁radio	-8.93414
▁http	-8.93554
▁kal	-8.93608
à	-8.93617
▁opprinnelig	-8.93914
▁følger	-8.93953
gre	-8.94044
ala	-8.94046
vern	-8.94355
▁via	-8.94395
▁mos	-8.94448
▁ber	-8.94508
▁representerte	-8.94568
▁ifølge	-8.94599
▁9	-8.94609
▁ska	-8.9464
ving	-8.94657
10	-8.9471
▁gri	-8.94867
▁siden	-8.95053
nk	-8.95113
pan	-8.9521
▁ør	-8.9523
▁tele	-8.9532
у	-8.95371
bank	-8.95439
legg	-8.95584
▁22	-8.95769
▁ban	-8.95777
stra	-8.95783
▁barne	-8.95827
ika	-8.95837
organisasjon	-8.96033
▁hell	-8.96067
▁mad	-8.9612
jev	-8.96217
▁dom	-8.96229
forening	-8.96236
▁hei	-8.96319
ij	-8.96363
▁sv	-8.96487
▁sel	-8.965
ella	-8.96557
▁tru	-8.96569
jen	-8.96652
▁don	-8.96728
stat	-8.96854
cy	-8.96856
▁blå	-8.96865
eri	-8.96878
▁politi	-8.9689
▁johan	-8.97177
områder	-8.97223
ect	-8.97265
▁president	-8.97355
bra	-8.97434
▁begge	-8.9744
kul	-8.97461
kri	-8.97474
▁side	-8.97563
lå	-8.97643
▁dem	-8.9766
▁hennes	-8.97755
øl	-8.97865
▁les	-8.97958
▁hele	-8.97983
spiller	-8.98063
rig	-8.98091
bor	-8.98108
zo	-8.98372
▁carl	-8.98401
ör	-8.98533
ura	-8.98573
stil	-8.98716
▁2005	-8.98731
ål	-8.98774
▁park	-8.9879
klubb	-8.98792
▁gjerne	-8.98908
▁qu	-8.98985
anger	-8.99068
syn	-8.99078
pu	-8.99244
▁tysk	-8.9939
▁midt	-8.99426
▁tok	-8.99519
este	-8.99555
the	-8.99602
▁distrikt	-8.99632
ire	-8.99658
▁seks	-8.9971
▁bas	-8.99712
р	-8.99816
▁100	-8.99888
▁spill	-8.99937
▁spe	-8.99996
så	-9.00014
▁riks	-9.00016
▁tradisjonell	-9.00022
▁fil	-9.00091
▁gran	-9.00093
ip	-9.00144
ō	-9.00181
▁kj	-9.00347
▁tak	-9.00443
▁barn	-9.00503
tiv	-9.00706
▁maria	-9.00803
▁farge	-9.01054
▁that	-9.01146
▁ven	-9.01159
bus	-9.01169
▁dikt	-9.0122
▁plat	-9.01244
▁with	-9.01289
▁plante	-9.01341
isert	-9.01366
▁ser	-9.01375
▁bill	-9.01401
▁kamp	-9.01436
▁sommerfugl	-9.01472
hn	-9.015
▁tr	-9.01736
▁not	-9.01777
▁vas	-9.01788
lekt	-9.01804
▁william	-9.01813
olog	-9.02175
▁dal	-9.02189
gj	-9.02349
bert	-9.02461
▁administrasjons	-9.0249
nu	-9.02566
▁bare	-9.02598
oc	-9.02658
▁kla	-9.02708
▁liv	-9.02715
ull	-9.02838
▁data	-9.02942
tig	-9.03027
navn	-9.03039
▁cla	-9.03045
▁verk	-9.03445
▁ram	-9.03451
iz	-9.03691
dde	-9.03722
ban	-9.03797
aks	-9.03813
▁viktigste	-9.03819
elli	-9.03829
▁roll	-9.03837
▁kir	-9.04045
bær	-9.04064
▁japansk	-9.04134
▁pat	-9.04211
▁vår	-9.04361
fin	-9.04373
▁will	-9.04375
isten	-9.04392
ep	-9.04466
område	-9.04472
▁industri	-9.04472
▁ball	-9.04486
▁yu	-9.04518
ære	-9.04551
rum	-9.0458
▁2009	-9.04592
ai	-9.04659
▁pol	-9.04683
▁fransk	-9.04782
▁ring	-9.04819
▁ingen	-9.05175
all	-9.05255
▁organ	-9.05271
▁pal	-9.05346
▁pen	-9.05348
jan	-9.05359
т	-9.05415
med	-9.05465
▁mc	-9.05489
cu	-9.05592
▁dy	-9.05651
▁fre	-9.05785
ighet	-9.05795
▁ein	-9.0585
▁topp	-9.05896
▁thomas	-9.05913
gge	-9.05923
▁ole	-9.06001
mal	-9.06079
hal	-9.0616
tis	-9.06618
prosess	-9.067
▁bli	-9.06812
ky	-9.06868
▁lå	-9.06955
▁mari	-9.06981
lene	-9.07009
▁small	-9.07109
stu	-9.07147
▁bør	-9.07226
sett	-9.07359
▁skolen	-9.0741
ider	-9.07459
området	-9.07478
eres	-9.07479
▁kol	-9.07608
▁gamle	-9.07614
▁fer	-9.0775
на	-9.07791
ν	-9.07863
▁www	-9.07864
▁2010	-9.07885
▁rekke	-9.07982
▁sur	-9.08024
banen	-9.08161
▁sto	-9.08178
▁att	-9.08258
nik	-9.08422
▁skr	-9.08612
▁fred	-9.08648
▁24	-9.08681
▁180	-9.08772
▁bon	-9.08775
▁david	-9.0878
gn	-9.08816
ight	-9.0889
elser	-9.08989
▁2007	-9.0912
ssa	-9.09144
kov	-9.09155
▁xi	-9.09165
än	-9.09182
▁provinsen	-9.09296
lis	-9.09342
▁bj	-9.09346
kant	-9.09444
ød	-9.09535
▁reference	-9.0954
▁regi	-9.09541
▁ang	-9.09637
▁30	-9.0964
ater	-9.09693
råd	-9.09697
navnet	-9.09742
▁vært	-9.09755
ap	-9.09818
▁ok	-9.09822
lagt	-9.09824
▁energiselskape	-9.09829
har	-9.09938
▁ze	-9.10002
▁form	-9.10136
▁foran	-9.10151
▁web	-9.10174
▁hall	-9.10209
▁derfor	-9.10232
zz	-9.10253
▁samme	-9.10404
▁jag	-9.10525
▁sang	-9.10625
▁lille	-9.10644
vid	-9.107
▁orden	-9.10739
▁she	-9.10804
bygning	-9.10832
bre	-9.10922
▁kyst	-9.10955
▁wo	-9.10962
▁knut	-9.1101
▁latin	-9.11111
mun	-9.11247
▁serie	-9.11262
oph	-9.1131
▁stats	-9.11572
▁ulike	-9.11686
lle	-9.11727
▁arne	-9.11851
asjoner	-9.11851
løse	-9.11856
▁gro	-9.11932
▁lands	-9.11948
vil	-9.1196
dals	-9.11973
øn	-9.1203
▁egen	-9.1216
▁luft	-9.12226
▁dra	-9.1236
lie	-9.12405
▁cal	-9.12453
▁johannes	-9.12478
ald	-9.12808
▁lars	-9.1281
slav	-9.12947
▁forskjellig	-9.12981
▁svart	-9.12986
▁enn	-9.13005
▁eg	-9.13032
▁ji	-9.13102
▁egg	-9.13175
▁ten	-9.13242
▁nye	-9.1327
▁es	-9.13291
▁son	-9.13321
▁mur	-9.13355
▁eksempel	-9.13382
ι	-9.1342
▁kat	-9.13428
▁general	-9.1343
▁gl	-9.13564
lot	-9.13604
▁arbeids	-9.1365
nis	-9.13749
▁spilles	-9.13899
skole	-9.139
lat	-9.13944
minister	-9.14039
▁pass	-9.14072
▁usa	-9.14079
▁valg	-9.14137
ografi	-9.14145
▁fotball	-9.14161
▁lin	-9.14241
mus	-9.14277
▁sl	-9.14337
▁odd	-9.14341
gren	-9.14492
qu	-9.1454
tiden	-9.1458
dig	-9.14684
▁produsere	-9.14747
▁mill	-9.14781
▁blod	-9.14863
ria	-9.14907
▁mol	-9.15039
utvikling	-9.15207
ller	-9.15237
zhou	-9.15249
ben	-9.15273
elig	-9.15273
▁grå	-9.15319
tus	-9.15321
kontor	-9.15369
▁wal	-9.15382
drag	-9.15383
▁stil	-9.15413
ish	-9.15487
в	-9.15498
▁meg	-9.15513
▁grenser	-9.15543
rid	-9.15641
▁ind	-9.15739
▁26	-9.15739
▁11	-9.15775
▁finn	-9.15849
ade	-9.15919
▁dann	-9.15945
old	-9.16127
▁lov	-9.16167
▁uni	-9.16225
▁bø	-9.16264
tegn	-9.16267
▁13	-9.16371
▁28	-9.16464
skje	-9.16473
▁eksempler	-9.16545
▁tittelen	-9.16563
▁fredrik	-9.16565
senteret	-9.17057
løp	-9.17098
▁arter	-9.17206
▁hvit	-9.1721
get	-9.17282
▁blad	-9.17319
▁skulle	-9.17472
lla	-9.17533
▁sak	-9.17585
ance	-9.17651
▁kron	-9.17657
sjøen	-9.17808
tale	-9.17861
▁cy	-9.17914
rak	-9.17985
20	-9.18
▁tal	-9.18099
én	-9.1818
▁pri	-9.18189
▁temp	-9.18239
▁lik	-9.18258
▁georg	-9.18521
▁23	-9.18563
▁får	-9.18585
▁us	-9.18607
▁gikk	-9.18643
▁gr	-9.18656
▁est	-9.18723
▁0	-9.18744
▁poly	-9.18832
cha	-9.18989
uch	-9.19073
▁eier	-9.192
▁george	-9.19207
mannen	-9.19273
fri	-9.19288
▁svensk	-9.19332
▁gammel	-9.19337
▁27	-9.19436
▁14	-9.19475
tti	-9.19523
værende	-9.19563
inne	-9.19579
fører	-9.1964
ico	-9.19702
ati	-9.19728
▁2008	-9.19773
ativ	-9.19789
▁arkitekt	-9.19818
uc	-9.19818
▁win	-9.19874
▁are	-9.19951
pur	-9.19991
▁super	-9.20083
▁hovedstaden	-9.20116
▁dar	-9.20123
▁anders	-9.20164
▁arabisk	-9.20242
▁deretter	-9.20306
▁bred	-9.20405
▁deres	-9.20439
▁sy	-9.2054
▁1989	-9.20713
▁samtidig	-9.20713
▁lev	-9.20733
▁elven	-9.2096
liv	-9.20973
▁bri	-9.20981
▁uten	-9.20996
lse	-9.21037
iti	-9.21038
ef	-9.21172
vit	-9.21222
▁cho	-9.21321
fl	-9.21488
▁skjer	-9.21555
▁slutt	-9.21579
▁frank	-9.21648
č	-9.21663
▁camp	-9.21735
▁eng	-9.21747
qui	-9.21785
bjørn	-9.21832
tatt	-9.21847
▁opera	-9.21906
lei	-9.21908
▁medlem	-9.22174
▁klubben	-9.22336
▁bank	-9.22426
▁person	-9.2244
11	-9.22449
▁michael	-9.22622
voll	-9.22633
▁datter	-9.22651
▁versjon	-9.22653
▁beste	-9.22678
▁cap	-9.229
stasjon	-9.22944
pol	-9.22948
▁herre	-9.22955
▁viser	-9.22978
båt	-9.23003
ture	-9.23013
▁tillegg	-9.23072
▁imidlertid	-9.23105
б	-9.23228
under	-9.2352
ity	-9.23656
lang	-9.23723
▁helse	-9.23753
▁mun	-9.23758
lede	-9.23764
tun	-9.23804
ås	-9.23857
▁ky	-9.23888
▁nils	-9.23891
nic	-9.239
trykk	-9.23919
gruppen	-9.23941
▁inkludert	-9.24078
▁lett	-9.24094
▁bad	-9.24127
selskap	-9.24279
gaard	-9.24297
stru	-9.24338
cia	-9.24372
▁system	-9.24395
ali	-9.24474
ram	-9.24477
▁nowiki	-9.24568
▁representerer	-9.24568
▁februar	-9.24568
▁power	-9.24627
dia	-9.24742
▁styre	-9.24766
▁zu	-9.24868
ão	-9.24899
19	-9.2492
samling	-9.24957
gul	-9.24988
▁2011	-9.25081
▁full	-9.25114
▁nærings	-9.25133
jer	-9.25206
ple	-9.25265
▁air	-9.25288
▁rev	-9.25321
▁ce	-9.25337
asje	-9.25358
▁anne	-9.25385
▁fal	-9.25524
▁innbyggere	-9.25556
▁2004	-9.25558
▁hor	-9.25766
▁komp	-9.25995
syre	-9.26027
▁vanligvis	-9.26079
vogn	-9.26089
▁start	-9.26316
side	-9.26406
▁west	-9.26423
rat	-9.26452
▁utgjør	-9.26554
▁nan	-9.26585
▁veg	-9.26624
retning	-9.26742
ori	-9.26856
arter	-9.26873
our	-9.26889
12	-9.27024
▁gjør	-9.2707
ial	-9.27156
▁slekt	-9.27158
oni	-9.27215
rud	-9.27255
▁lund	-9.27359
▁bir	-9.27564
sak	-9.27603
king	-9.27664
▁kilde	-9.27669
lighet	-9.277
▁døde	-9.27759
▁rock	-9.27893
▁hånd	-9.27932
▁sau	-9.28009
▁din	-9.28021
øst	-9.28022
▁kulturminner	-9.28069
lov	-9.28132
▁grønn	-9.28158
▁blitt	-9.28294
lund	-9.28317
▁harald	-9.28404
▁hår	-9.28426
▁international	-9.28579
kamp	-9.28796
ón	-9.28856
▁eli	-9.28861
▁ton	-9.2887
gna	-9.28871
▁nett	-9.28892
▁viktige	-9.28943
▁dessuten	-9.29092
▁myr	-9.29213
▁skrevet	-9.29297
▁støtte	-9.29386
▁blei	-9.29393
lus	-9.29556
systemet	-9.29608
car	-9.29663
▁familie	-9.29665
▁app	-9.29724
▁års	-9.2975
våg	-9.2975
▁gje	-9.29758
▁fla	-9.29764
▁pla	-9.2985
før	-9.29976
dar	-9.30035
▁spesial	-9.30045
м	-9.30107
iner	-9.30185
tha	-9.30318
▁cro	-9.30328
▁off	-9.30369
cheng	-9.30413
▁sku	-9.30437
▁redaktør	-9.30545
iserte	-9.30659
▁bel	-9.30736
▁sky	-9.30827
▁james	-9.30863
▁lege	-9.30892
▁vinter	-9.3094
stilling	-9.30951
olo	-9.31034
▁dagen	-9.31157
▁venstre	-9.31199
▁lau	-9.31216
ille	-9.31232
kket	-9.31238
vig	-9.31259
partiet	-9.31269
eid	-9.31293
▁filmen	-9.31314
▁gla	-9.31328
ix	-9.31396
mund	-9.31415
ved	-9.31576
▁anna	-9.31671
я	-9.31696
maskin	-9.31741
▁minne	-9.31782
ib	-9.31854
▁historie	-9.31854
18	-9.31875
▁kh	-9.3198
ama	-9.32041
zy	-9.32047
▁wei	-9.32096
kropp	-9.32207
ρ	-9.32225
▁militær	-9.32225
▁miljø	-9.32276
ledd	-9.32277
▁mont	-9.32293
jel	-9.32376
are	-9.32421
▁ung	-9.3243
▁sla	-9.32481
▁sul	-9.32527
▁europa	-9.32572
▁gav	-9.32575
▁sund	-9.32589
▁juni	-9.32593
▁studie	-9.32647
ann	-9.32697
▁høyeste	-9.32756
▁svært	-9.32767
ith	-9.32776
▁kristian	-9.3278
aceae	-9.32823
▁kull	-9.3283
aksjon	-9.32857
tta	-9.3286
heten	-9.32989
▁finner	-9.33004
▁konge	-9.33087
gata	-9.33129
▁regn	-9.33177
▁kunstner	-9.3318
las	-9.33196
▁000	-9.3321
г	-9.33269
qua	-9.33362
▁cra	-9.33387
ney	-9.3342
▁rot	-9.33436
▁hø	-9.33449
can	-9.33551
▁amerikansk	-9.33556
alt	-9.33564
▁gitar	-9.3363
▁max	-9.33678
▁29	-9.33708
▁dre	-9.3371
▁zi	-9.33723
con	-9.33785
й	-9.33823
field	-9.33897
▁mindre	-9.33914
▁kam	-9.33938
▁mann	-9.3403
▁80	-9.34064
▁cam	-9.34089
▁160	-9.342
hund	-9.34259
▁sw	-9.34315
▁2000	-9.34393
▁overtok	-9.34457
ér	-9.34523
▁siste	-9.34557
▁island	-9.34564
▁olje	-9.34656
rike	-9.34831
belteasteroide	-9.34913
oli	-9.34947
one	-9.34962
feld	-9.34989
▁gang	-9.35063
▁andreas	-9.35106
system	-9.35164
landet	-9.35182
▁oc	-9.35185
▁sten	-9.3528
eng	-9.35342
elva	-9.35406
plan	-9.35432
▁kin	-9.35451
▁januar	-9.35462
▁standard	-9.35462
15	-9.35582
grunn	-9.35584
søk	-9.35631
▁ant	-9.35661
▁nr	-9.35681
▁spar	-9.35775
gy	-9.35845
illa	-9.35915
manns	-9.35916
▁imp	-9.35965
pre	-9.3598
▁kunne	-9.36047
film	-9.36049
▁utenfor	-9.36087
lø	-9.36103
▁region	-9.36123
hall	-9.36269
rus	-9.36277
kraftverk	-9.36308
▁menneske	-9.36318
▁32	-9.36367
▁modell	-9.36398
▁sir	-9.36557
press	-9.36707
way	-9.36716
▁samarbeid	-9.36781
▁inge	-9.368
▁fle	-9.36838
uf	-9.36866
of	-9.36916
arbeid	-9.36946
rad	-9.37048
▁bruk	-9.37059
▁comp	-9.3707
▁hovedsakelig	-9.37117
▁pot	-9.37129
nie	-9.37137
nivå	-9.37139
▁tang	-9.37156
▁part	-9.37232
▁sho	-9.37238
▁bass	-9.37286
▁liten	-9.37381
graf	-9.37424
▁sogn	-9.37478
▁pin	-9.376
stoff	-9.37667
▁world	-9.37676
▁gam	-9.37724
wer	-9.37735
tro	-9.37741
ferd	-9.37758
▁lei	-9.37788
▁nam	-9.37873
▁holm	-9.37891
▁just	-9.37898
▁dam	-9.37901
▁unn	-9.37952
▁lø	-9.38042
▁gor	-9.38052
▁31	-9.38125
sjø	-9.38134
▁rein	-9.38154
fag	-9.38156
▁internasjonale	-9.38226
gra	-9.38229
ort	-9.38229
▁richard	-9.38239
▁dermed	-9.38317
▁tam	-9.38453
tive	-9.38485
▁nev	-9.38487
17	-9.38547
▁sko	-9.3859
▁ungdoms	-9.38696
▁arbeider	-9.3871
ira	-9.38794
τ	-9.38803
▁ev	-9.38817
▁dato	-9.38841
▁vind	-9.3886
▁særlig	-9.38888
røy	-9.38918
valg	-9.39044
▁startet	-9.39051
▁reg	-9.391
ì	-9.39164
▁was	-9.39169
vakt	-9.3917
tik	-9.39191
strand	-9.392
▁artikkel	-9.39265
▁brenselkilden	-9.39371
ora	-9.39401
ast	-9.39417
30	-9.39464
fugl	-9.39492
kra	-9.39514
▁vir	-9.39608
ici	-9.39629
kur	-9.39756
vold	-9.39773
▁end	-9.39784
▁ana	-9.39793
▁kro	-9.398
sal	-9.39807
lar	-9.39824
asjonen	-9.39877
ez	-9.39928
▁national	-9.39945
▁mannskapet	-9.39948
▁cre	-9.39995
▁ann	-9.39999
▁spi	-9.4008
▁litt	-9.40089
▁driver	-9.40155
grav	-9.40221
skij	-9.40279
▁179	-9.40324
▁178	-9.40348
▁vä	-9.40402
▁wen	-9.40422
▁il	-9.40518
▁slag	-9.40625
unt	-9.40636
full	-9.40694
pla	-9.40739
▁skrift	-9.40742
com	-9.40763
▁gun	-9.40769
kast	-9.40784
havet	-9.40804
▁antall	-9.40827
▁sim	-9.40881
din	-9.40903
▁åtte	-9.40911
▁up	-9.40928
low	-9.40973
▁bakvingen	-9.41097
pin	-9.41101
▁star	-9.41106
ming	-9.41171
bur	-9.412
▁im	-9.41201
unn	-9.41298
▁bay	-9.41358
punkt	-9.41359
▁større	-9.41414
iet	-9.41528
fjellet	-9.41541
kes	-9.41578
▁char	-9.41603
lær	-9.41671
▁but	-9.41731
▁oppført	-9.4177
▁che	-9.41796
▁bygde	-9.41818
▁wat	-9.41882
▁albert	-9.41893
▁energi	-9.4192
yu	-9.41978
▁hansen	-9.42085
vatnet	-9.42087
arm	-9.42095
grad	-9.42188
▁rest	-9.42199
regjering	-9.422
▁sverige	-9.42263
haug	-9.42291
▁strand	-9.42316
▁black	-9.4235
fjell	-9.4236
▁først	-9.42439
føring	-9.42573
▁tj	-9.42579
▁ek	-9.42616
▁kode	-9.42632
▁stan	-9.42636
mod	-9.42643
lsen	-9.42655
elt	-9.42665
▁jean	-9.42697
▁bio	-9.42698
zu	-9.42699
▁året	-9.42701
▁mand	-9.42839
shan	-9.42851
▁stav	-9.42853
band	-9.42895
strøm	-9.42905
▁ras	-9.42908
▁rh	-9.4291
fu	-9.42911
▁populær	-9.42965
▁rep	-9.43064
grense	-9.43123
▁168	-9.43123
▁arn	-9.43145
produksjon	-9.43159
rich	-9.43174
▁glo	-9.43228
able	-9.43318
▁tegn	-9.43331
hov	-9.43363
rup	-9.43367
▁170	-9.4341
▁produsert	-9.43441
▁lufthavn	-9.43448
▁lan	-9.43576
▁gate	-9.436
▁finland	-9.43644
ary	-9.43687
▁forfatter	-9.43696
enberg	-9.43699
▁båt	-9.43735
renner	-9.43751
blomst	-9.43752
aya	-9.43797
phi	-9.43814
▁esp	-9.43929
▁ara	-9.43983
ín	-9.44003
ström	-9.44037
org	-9.44045
kka	-9.44068
fal	-9.44093
▁que	-9.44099
ån	-9.44128
▁daniel	-9.44147
▁nevnes	-9.44147
ima	-9.44156
▁bror	-9.44199
▁salt	-9.44232
▁long	-9.44443
▁sett	-9.44524
bit	-9.44602
▁hin	-9.44713
ence	-9.44751
ische	-9.44815
▁thi	-9.44818
▁bergen	-9.44844
▁sort	-9.44901
▁por	-9.4491
skrift	-9.44987
▁stemme	-9.44999
blad	-9.45005
menn	-9.45008
▁mes	-9.4501
▁gruppe	-9.45077
akk	-9.45118
fest	-9.45137
ringer	-9.45232
▁strøm	-9.45389
▁universitet	-9.45494
▁turn	-9.45603
ick	-9.45671
middel	-9.45672
stikk	-9.45687
parti	-9.45808
▁type	-9.4582
handling	-9.45828
▁keiser	-9.45854
▁bekrefte	-9.45862
▁nest	-9.45878
▁grense	-9.45976
foss	-9.45981
plass	-9.4599
▁høyre	-9.45995
▁rad	-9.4605
hel	-9.46062
▁polsk	-9.46104
▁virke	-9.46131
ár	-9.46147
dahl	-9.46161
▁kraft	-9.46208
▁dun	-9.46261
ο	-9.46445
bånd	-9.46466
verket	-9.46466
gress	-9.46486
▁ph	-9.46553
▁tilby	-9.46553
cul	-9.46562
▁cer	-9.4661
yang	-9.46692
istisk	-9.46717
▁с	-9.46736
▁lar	-9.46752
▁besto	-9.46836
▁gau	-9.46867
organ	-9.46875
ies	-9.46947
gger	-9.4699
▁hon	-9.47004
14	-9.47012
følge	-9.47039
bin	-9.47066
▁helge	-9.47078
▁borg	-9.47088
ān	-9.4713
rop	-9.47142
▁elve	-9.47168
▁fall	-9.4726
ball	-9.47306
▁40	-9.47329
▁tap	-9.47372
stykke	-9.47398
ien	-9.47402
▁hjemme	-9.47408
forbund	-9.47483
▁louis	-9.47687
▁lange	-9.47692
▁foss	-9.47784
kro	-9.47809
klubben	-9.47932
▁politisk	-9.47989
erende	-9.48073
▁150	-9.4821
▁kommunene	-9.48257
▁60	-9.48267
▁mørk	-9.48296
з	-9.48305
13	-9.48412
▁wu	-9.48532
▁tha	-9.48576
▁grand	-9.4858
▁vokal	-9.48714
▁kre	-9.48737
▁dyre	-9.48773
▁jer	-9.48874
ε	-9.4893
liga	-9.48962
▁ö	-9.49036
▁bygg	-9.49037
▁bolig	-9.49089
▁old	-9.49107
▁dø	-9.49116
æl	-9.49135
formet	-9.49264
▁frukt	-9.49283
▁produsent	-9.49305
loven	-9.49327
orm	-9.49346
▁kalte	-9.49354
lon	-9.49384
▁syd	-9.49443
ført	-9.49472
▁stø	-9.49517
ł	-9.49554
▁forenklet	-9.4956
▁april	-9.49562
cal	-9.49566
▁ter	-9.4961
museet	-9.49629
▁qua	-9.49633
▁øya	-9.49731
▁has	-9.49736
▁maur	-9.49803
mid	-9.49817
▁nes	-9.49848
ping	-9.4996
styre	-9.49994
16	-9.49998
▁måt	-9.50028
▁tilbake	-9.50204
nummer	-9.50257
▁bandet	-9.50265
▁handels	-9.50311
▁166	-9.50315
az	-9.50316
▁tidlig	-9.50355
▁may	-9.50397
jiang	-9.5041
▁nar	-9.50418
samisk	-9.50627
▁ep	-9.50651
▁teater	-9.50683
▁olav	-9.50684
skytter	-9.50855
▁mø	-9.50869
▁hjerte	-9.5088
dis	-9.50995
▁mottok	-9.51066
holm	-9.5107
nia	-9.51071
foreningen	-9.5117
▁punkt	-9.51249
ön	-9.51306
▁king	-9.51319
sser	-9.51398
▁bærer	-9.51415
▁monte	-9.51435
ē	-9.5147
ǎ	-9.5147
▁privat	-9.51477
▁sølv	-9.51484
▁stre	-9.5152
▁yo	-9.51652
▁sve	-9.51677
▁omfatte	-9.51712
▁tettsted	-9.51726
▁have	-9.51729
omme	-9.51885
▁flo	-9.51887
mot	-9.51912
ite	-9.51988
▁hed	-9.52019
▁kas	-9.52101
▁wilhelm	-9.52115
▁rå	-9.52132
gruppe	-9.52236
▁tim	-9.5233
▁jernbane	-9.52385
los	-9.5241
heng	-9.52425
ado	-9.52442
▁70	-9.52463
▁ordet	-9.5248
ato	-9.52515
▁res	-9.52523
▁bort	-9.52724
▁kul	-9.5273
▁2003	-9.52768
▁prest	-9.5278
▁angel	-9.5279
▁charles	-9.52805
▁ari	-9.52844
▁erstatte	-9.52897
▁søster	-9.52898
wan	-9.53018
ctor	-9.53119
▁flat	-9.53128
▁gren	-9.53192
hard	-9.53257
▁hit	-9.53259
hua	-9.53281
ansk	-9.53307
▁rei	-9.53316
▁sag	-9.53322
cus	-9.5334
▁jens	-9.53381
50	-9.53384
af	-9.53386
▁sn	-9.53415
▁isbn	-9.53428
▁2012	-9.53443
▁india	-9.53457
▁gy	-9.53477
▁lær	-9.53521
uel	-9.53538
ente	-9.53617
21	-9.5364
ique	-9.53657
stående	-9.53661
abel	-9.53693
▁grad	-9.53756
▁enkelt	-9.53866
▁qui	-9.54031
́	-9.54076
▁skuespiller	-9.54077
bibliotek	-9.54077
▁bol	-9.54077
utdanning	-9.54114
▁larvene	-9.54115
leg	-9.54178
▁cur	-9.54196
▁hovedrollene	-9.54244
tag	-9.54252
▁slekten	-9.54283
22	-9.54394
ras	-9.54403
▁prosjekt	-9.54416
▁horn	-9.54445
▁175	-9.54445
▁meter	-9.54459
jern	-9.54579
▁september	-9.54739
λ	-9.54739
▁etablert	-9.54739
▁basert	-9.54909
gitt	-9.54955
▁utgitt	-9.54955
bakken	-9.54963
▁bilde	-9.55071
▁lek	-9.55155
▁fant	-9.55164
alder	-9.55218
vir	-9.55254
▁natt	-9.55324
yan	-9.55333
▁arrangere	-9.55406
▁elev	-9.55416
23	-9.55506
▁anton	-9.55511
▁venn	-9.55545
▁hest	-9.55652
▁ask	-9.55661
osa	-9.55682
▁hem	-9.55687
▁kraftig	-9.55725
ough	-9.55851
▁andersen	-9.55934
cho	-9.56059
ž	-9.56076
tek	-9.56185
▁hører	-9.56241
▁162	-9.56284
▁tan	-9.56429
▁out	-9.56435
ical	-9.56495
▁seil	-9.56542
▁løv	-9.56549
arten	-9.56559
▁cent	-9.56595
▁berlin	-9.56602
løs	-9.56622
▁sosial	-9.56658
selskapet	-9.56739
▁ordenen	-9.56743
▁kategori	-9.56752
▁omkring	-9.56754
lor	-9.56797
▁zo	-9.56803
bladet	-9.56846
forbundet	-9.56867
▁tallet	-9.56886
▁smal	-9.56896
ante	-9.5695
▁delta	-9.5695
▁museum	-9.5703
▁fugle	-9.57044
▁169	-9.57048
▁samle	-9.57096
▁serien	-9.571
▁slike	-9.57393
κ	-9.57432
▁italiensk	-9.57432
▁35	-9.57486
▁avis	-9.57521
sam	-9.57543
kommune	-9.57553
musikk	-9.57557
bon	-9.57615
stro	-9.57621
▁gru	-9.57651
▁ran	-9.57658
▁shan	-9.57721
▁hode	-9.57854
hjul	-9.57916
▁netto	-9.57927
▁from	-9.57938
▁vit	-9.58035
win	-9.58056
▁stjerne	-9.58075
▁design	-9.58084
▁gunnar	-9.58121
ffer	-9.58171
▁ref	-9.58205
sport	-9.58222
kla	-9.58286
bygd	-9.5842
▁mye	-9.58442
anda	-9.58471
▁grøn	-9.58518
▁bygge	-9.58645
tyr	-9.58665
hai	-9.58669
kol	-9.58715
bakk	-9.58755
▁2001	-9.58812
▁bern	-9.58814
▁bind	-9.58838
▁auto	-9.58852
▁fylke	-9.58893
evne	-9.58897
▁sangen	-9.58951
▁linje	-9.59021
▁transport	-9.59065
▁felles	-9.59075
korps	-9.59147
lich	-9.59189
▁north	-9.59215
▁krist	-9.59218
▁bla	-9.59248
aria	-9.59301
▁fylkes	-9.59302
gt	-9.59315
ă	-9.59501
▁november	-9.59501
mma	-9.59532
▁metall	-9.59594
▁pap	-9.59615
øyene	-9.5962
▁nummer	-9.59712
bat	-9.59743
opter	-9.59778
▁left	-9.59795
teori	-9.59854
port	-9.60042
fond	-9.60073
gard	-9.60073
istiske	-9.6016
mur	-9.60186
ô	-9.60201
▁club	-9.60217
▁tall	-9.60232
▁utgi	-9.60279
▁folk	-9.60325
▁henry	-9.60339
prisen	-9.605
▁rosen	-9.6051
gården	-9.60576
tom	-9.60624
bru	-9.60666
lad	-9.60677
fabrikk	-9.60826
▁såkalt	-9.6091
fil	-9.60923
tempelet	-9.60931
sik	-9.61049
▁167	-9.61219
▁gard	-9.61255
ekte	-9.6137
▁time	-9.61403
▁hå	-9.6141
▁tsj	-9.61472
▁byer	-9.61502
▁jern	-9.61503
▁trykk	-9.61513
skjold	-9.61616
▁2013	-9.61637
▁hydro	-9.61663
▁tildelt	-9.61667
ada	-9.61673
▁rund	-9.61689
▁skje	-9.61712
ringen	-9.61728
▁kari	-9.61752
poli	-9.61809
industri	-9.61825
▁90	-9.61838
▁gui	-9.61868
lem	-9.61877
▁middel	-9.61902
▁dj	-9.6197
fot	-9.62051
▁ken	-9.62175
linje	-9.62187
▁flor	-9.62207
▁finsk	-9.62285
▁neu	-9.62287
skip	-9.62292
▁hard	-9.6231
▁163	-9.62325
ë	-9.62328
σ	-9.62328
ко	-9.62431
her	-9.62434
▁partiet	-9.62457
gående	-9.62461
▁olsen	-9.62633
▁forsknings	-9.62677
▁klar	-9.62695
▁landsbyen	-9.6271
▁sted	-9.62752
hin	-9.62764
▁spor	-9.62766
▁ye	-9.62831
▁aktiv	-9.62892
rev	-9.629
kjenne	-9.6296
ritt	-9.6301
▁drift	-9.63015
nett	-9.63025
ua	-9.63043
▁desember	-9.63048
▁spesielt	-9.63048
▁klasse	-9.63097
▁sports	-9.6321
▁hud	-9.6323
felt	-9.63269
▁beskrive	-9.63279
cl	-9.63281
▁mid	-9.63337
▁fro	-9.63375
ulf	-9.63487
war	-9.63536
▁ud	-9.63539
arafa	-9.6354
▁mir	-9.63641
trekk	-9.63706
▁edderkopp	-9.63772
▁oktober	-9.63772
temperatur	-9.63777
ismen	-9.63806
tok	-9.63989
dt	-9.64048
butikk	-9.64054
▁hopp	-9.6412
gri	-9.64249
▁elva	-9.64275
▁råd	-9.64389
ò	-9.64502
▁verdi	-9.64632
▁japan	-9.64696
hei	-9.64811
▁marc	-9.6484
ges	-9.64934
▁nok	-9.64938
skudd	-9.64952
off	-9.64955
mos	-9.64971
▁dahl	-9.65001
200	-9.65006
▁hjelp	-9.65019
ç	-9.65046
▁hør	-9.65073
gikk	-9.65092
▁coll	-9.65108
stedet	-9.65167
▁helt	-9.65228
ù	-9.65238
▁tredje	-9.6524
▁met	-9.65246
▁36	-9.65274
▁mulig	-9.6529
▁krigs	-9.65293
▁cle	-9.65304
▁epi	-9.65342
▁brann	-9.65348
▁vanlig	-9.65466
▁bod	-9.65522
▁vor	-9.65536
vinger	-9.65608
holmen	-9.65618
▁kjell	-9.65623
ktet	-9.65639
jord	-9.65658
▁album	-9.65765
▁kost	-9.65776
▁mig	-9.6581
▁snø	-9.6584
▁uk	-9.6586
ox	-9.65875
▁trekk	-9.65897
▁årlig	-9.65912
▁jacob	-9.65912
▁kors	-9.65949
▁klo	-9.66007
dam	-9.66041
▁bob	-9.66055
▁medlemmer	-9.66055
midler	-9.66068
▁mit	-9.66164
▁ves	-9.66185
▁annen	-9.66252
kirke	-9.66261
▁leg	-9.66313
vol	-9.66322
▁einar	-9.66333
▁elv	-9.66377
vist	-9.66415
feltet	-9.66438
lid	-9.66475
▁stedet	-9.66535
ark	-9.66583
blom	-9.66616
▁tyskland	-9.66624
▁pris	-9.66652
▁offisiell	-9.66725
▁ukrainsk	-9.66725
▁jim	-9.66882
gli	-9.66978
▁ledet	-9.67166
▁marine	-9.67238
zhi	-9.6726
▁idretts	-9.67423
▁forsvar	-9.67459
bein	-9.67479
musik	-9.67488
▁az	-9.67491
▁egentlig	-9.67499
svik	-9.67503
▁river	-9.67511
▁landsforening	-9.67511
▁alf	-9.67514
▁igjen	-9.67522
▁kontroll	-9.67559
▁155	-9.6758
▁gjorde	-9.6759
lä	-9.67618
▁gjer	-9.67655
hed	-9.67698
handler	-9.6776
løper	-9.67765
▁matt	-9.67769
▁selskap	-9.67868
plassen	-9.67874
krigen	-9.67886
▁50	-9.67953
27	-9.68025
oner	-9.68031
ob	-9.68065
▁sar	-9.68072
▁sab	-9.6809
▁dis	-9.68202
teknikk	-9.68238
yuan	-9.68313
plasser	-9.68337
lønn	-9.68349
▁kha	-9.68359
▁johansen	-9.68374
â	-9.68379
▁trener	-9.68382
▁geo	-9.68428
cker	-9.68457
parken	-9.68474
kere	-9.68503
▁inc	-9.68528
▁stig	-9.68579
▁løper	-9.68702
ander	-9.68748
▁156	-9.68812
spor	-9.68829
løsning	-9.68978
på	-9.68988
▁benytter	-9.69
ili	-9.69006
▁für	-9.69112
▁best	-9.69151
▁dor	-9.69185
▁org	-9.69247
і	-9.6928
skipet	-9.69309
ktig	-9.69317
uru	-9.69389
åsen	-9.69398
▁larven	-9.69411
▁staten	-9.69419
kraft	-9.69471
jö	-9.69561
▁merke	-9.69589
mmen	-9.696
▁finans	-9.69628
▁vær	-9.69661
▁kloster	-9.69666
▁real	-9.69691
▁univers	-9.69758
ра	-9.69764
▁begynt	-9.69767
løy	-9.69905
motor	-9.69936
ст	-9.69944
▁johann	-9.69966
jar	-9.70196
ensis	-9.70242
▁120	-9.70279
▁oliv	-9.7029
▁hær	-9.70321
▁reise	-9.70357
▁sanger	-9.70406
▁ita	-9.70416
▁leir	-9.70439
▁albumet	-9.70537
▁typisk	-9.70551
▁eiendom	-9.70564
museum	-9.70564
bilde	-9.70576
gal	-9.70594
60	-9.70653
logen	-9.70662
▁fjern	-9.70721
rådet	-9.70758
▁enkelte	-9.70876
▁eneste	-9.70895
sberg	-9.70906
lé	-9.70929
basert	-9.70962
▁34	-9.71074
▁qi	-9.71076
▁paa	-9.71079
ville	-9.71094
rør	-9.71114
▁løp	-9.71138
▁exp	-9.7119
▁bestod	-9.712
▁styrke	-9.71207
▁plass	-9.71275
formen	-9.71304
ς	-9.71315
▁tilhørte	-9.71323
▁ec	-9.71333
liste	-9.71371
▁otto	-9.71385
▁våpen	-9.71391
well	-9.71494
▁nytt	-9.7157
▁hatt	-9.71595
▁funksjon	-9.716
▁kvinne	-9.71669
▁brukte	-9.71688
▁regnes	-9.71704
▁chu	-9.71711
▁thu	-9.71715
vekst	-9.71725
chen	-9.71816
▁hjem	-9.71881
delen	-9.71888
rang	-9.71901
▁pres	-9.71909
▁press	-9.71943
etter	-9.72008
▁institut	-9.72013
hode	-9.72019
▁sær	-9.72051
▁iso	-9.72095
teknologi	-9.72111
▁rektor	-9.72114
▁munn	-9.72119
hof	-9.72135
▁canada	-9.72142
brun	-9.72151
▁naturgass	-9.72183
atur	-9.72197
rekord	-9.72255
metode	-9.7226
▁maskin	-9.72291
▁russland	-9.72292
▁kru	-9.72427
▁multi	-9.72503
rød	-9.72517
▁frø	-9.7253
▁tittel	-9.72556
ledning	-9.72572
▁lam	-9.72589
▁song	-9.72615
▁math	-9.72637
▁stasjon	-9.72641
mf	-9.72643
▁buk	-9.72655
sang	-9.72662
▁vinner	-9.72698
▁los	-9.72705
dokument	-9.7279
anske	-9.72811
type	-9.72852
▁kap	-9.72876
▁varaordfører	-9.72904
▁original	-9.72904
▁cl	-9.72912
▁kjøp	-9.7297
▁vinge	-9.72999
▁moderne	-9.73026
▁hul	-9.73084
▁indisk	-9.73106
▁fjord	-9.73121
▁nova	-9.73166
▁led	-9.73201
kilde	-9.73229
▁vekt	-9.73247
ка	-9.7326
▁hov	-9.73374
▁sti	-9.73398
eier	-9.73398
▁kara	-9.7345
wald	-9.73475
▁arve	-9.73492
▁utviklet	-9.73497
▁music	-9.73642
ê	-9.73704
вич	-9.73709
▁direkte	-9.73711
liggende	-9.73713
uri	-9.73717
▁sun	-9.73741
▁informasjon	-9.73764
▁jam	-9.73807
hor	-9.73851
sis	-9.73923
post	-9.73965
ã	-9.73967
▁33	-9.73995
roll	-9.7401
seth	-9.74039
trop	-9.74099
distrikt	-9.74244
arbeider	-9.74277
▁nasjonale	-9.74289
tron	-9.74313
finn	-9.74322
▁cell	-9.7434
▁varierer	-9.74545
▁brit	-9.74562
▁aas	-9.7459
▁buss	-9.74594
▁primær	-9.74616
▁hou	-9.74639
▁nrk	-9.74706
▁alpin	-9.74737
▁felt	-9.74771
▁plu	-9.74772
snegl	-9.74939
▁arten	-9.7508
▁sju	-9.75091
▁174	-9.75189
▁fat	-9.75192
▁havn	-9.75194
▁rus	-9.75205
▁173	-9.75245
▁tung	-9.75305
▁ett	-9.75312
▁dommer	-9.75319
▁rik	-9.75322
▁rolf	-9.75333
▁kim	-9.75336
▁vanlige	-9.75341
▁group	-9.75351
▁larsen	-9.75383
▁kata	-9.75449
bach	-9.75474
ito	-9.75513
▁vid	-9.75552
▁franc	-9.75612
▁01	-9.75659
▁fyr	-9.75702
▁38	-9.75796
▁ron	-9.75821
gå	-9.75991
▁villa	-9.75993
avdeling	-9.75996
posisjon	-9.7612
ы	-9.76134
▁offentlig	-9.76144
▁lite	-9.76158
▁2017	-9.76172
▁grunnlegge	-9.76207
gram	-9.76241
disk	-9.76243
▁sven	-9.76274
lic	-9.76377
▁this	-9.76398
▁viktig	-9.76416
vers	-9.76417
▁aur	-9.76435
▁glass	-9.76436
▁ivar	-9.76465
▁dyr	-9.76517
▁bygget	-9.76616
▁45	-9.76625
eira	-9.76631
ikere	-9.76713
▁simon	-9.76739
bekk	-9.76893
ál	-9.76962
▁1999	-9.7697
▁syl	-9.7697
▁1994	-9.7697
divisjon	-9.76991
▁test	-9.77003
▁marg	-9.77016
▁lærer	-9.77095
▁drama	-9.77143
▁elektro	-9.77219
stø	-9.77231
▁grunnla	-9.77276
aktivitet	-9.77388
▁rør	-9.77485
fold	-9.77496
▁bud	-9.77531
▁regionen	-9.77615
▁osv	-9.77645
gon	-9.77667
områdene	-9.77713
▁autonom	-9.77805
stille	-9.77823
▁south	-9.77824
oth	-9.77835
språk	-9.7784
▁blue	-9.77876
▁vill	-9.77883
▁russ	-9.77896
mbo	-9.7792
▁high	-9.77954
hol	-9.77968
ов	-9.77984
▁kjerne	-9.78008
▁besøk	-9.78078
▁rand	-9.78121
sha	-9.78141
▁sik	-9.78219
kirken	-9.78233
onia	-9.7832
ро	-9.78357
▁hunde	-9.78365
▁who	-9.78378
▁mester	-9.78386
▁mm	-9.78401
gjorde	-9.78403
▁bygd	-9.78406
brudd	-9.78407
▁hum	-9.78426
▁sea	-9.78472
sion	-9.78514
▁avdeling	-9.78521
▁egne	-9.78536
▁bry	-9.78548
▁typer	-9.78576
▁1998	-9.78644
▁utdype	-9.78646
▁delstaten	-9.78646
▁student	-9.78649
▁oppkalt	-9.78651
▁style	-9.78673
▁mørke	-9.78711
▁jazz	-9.78721
ammen	-9.78759
▁rask	-9.7877
▁hill	-9.7882
produkter	-9.78989
▁gård	-9.79016
utgivelse	-9.79086
▁emil	-9.79105
merket	-9.79177
lingen	-9.792
▁oh	-9.79221
▁kval	-9.79278
▁kvar	-9.7928
▁æ	-9.79283
▁harry	-9.79296
▁green	-9.79401
▁service	-9.79491
iebedriften	-9.79551
kat	-9.79566
hild	-9.79611
▁innsjøen	-9.79662
kanalen	-9.79689
▁politiker	-9.79699
bell	-9.79719
gro	-9.79822
▁noe	-9.7986
iva	-9.79922
▁jesu	-9.79949
▁159	-9.79956
▁produkt	-9.79992
▁sterk	-9.80006
usjon	-9.80031
trær	-9.80064
▁rune	-9.80075
cio	-9.80112
▁82	-9.80146
ona	-9.8025
våpen	-9.80273
▁aust	-9.80283
▁blomster	-9.80293
▁hj	-9.80312
▁fang	-9.80316
àn	-9.80317
ś	-9.80346
bran	-9.80383
▁direktør	-9.80392
▁stasjonen	-9.80422
▁steder	-9.80436
▁tai	-9.80509
elv	-9.8051
▁sideelv	-9.80566
kamera	-9.80574
▁city	-9.80615
dige	-9.80662
bia	-9.80678
klasse	-9.80828
▁od	-9.80986
eksjon	-9.81068
▁steve	-9.8109
▁ris	-9.81141
▁gass	-9.81203
representant	-9.81208
▁1990	-9.81208
▁foreldre	-9.81211
rot	-9.81211
messig	-9.81223
▁opplags	-9.81229
▁stri	-9.81255
▁betydning	-9.81264
▁olavs	-9.8127
▁angrep	-9.81278
ii	-9.8137
light	-9.81421
▁få	-9.81446
▁samling	-9.81509
▁historisk	-9.81556
▁fest	-9.81557
formede	-9.81643
▁varme	-9.81717
▁kai	-9.81729
▁marie	-9.81783
forsker	-9.81819
medisin	-9.81827
▁hau	-9.81882
næs	-9.81931
gate	-9.81965
▁line	-9.82036
hval	-9.8206
forskning	-9.82077
▁joseph	-9.82094
▁chang	-9.82168
▁riksvei	-9.82249
landskap	-9.82305
bal	-9.82316
▁bou	-9.82417
programmet	-9.82469
▁satt	-9.82506
▁nilsen	-9.82557
snitt	-9.82584
▁flu	-9.82701
▁aar	-9.82722
▁spiss	-9.82732
året	-9.82751
vor	-9.82903
▁till	-9.8291
ан	-9.82926
▁betydelig	-9.82964
▁magnus	-9.82965
▁2016	-9.82982
cher	-9.82986
▁studert	-9.83007
▁had	-9.83027
merke	-9.83072
spinner	-9.83076
▁slott	-9.83109
▁dro	-9.83118
ва	-9.83156
▁97	-9.83206
▁drag	-9.83217
pal	-9.83286
bol	-9.83292
bul	-9.83327
▁ever	-9.83409
▁jar	-9.83468
▁kart	-9.8354
▁syv	-9.83563
▁troll	-9.83566
▁pel	-9.83577
▁svarte	-9.83588
folk	-9.83591
▁gua	-9.83597
▁front	-9.83615
▁sav	-9.83642
▁utgav	-9.83657
▁henrik	-9.83675
ifisert	-9.83739
pel	-9.83747
ß	-9.83802
departementet	-9.83821
stol	-9.83833
▁middelsstor	-9.8384
▁1996	-9.8384
▁sykl	-9.83903
▁gil	-9.83903
sar	-9.83938
▁42	-9.8396
▁mei	-9.84027
horn	-9.84077
gin	-9.84124
▁forkorte	-9.84141
pil	-9.84158
vang	-9.84176
zon	-9.84202
▁musiker	-9.84206
bare	-9.84211
ür	-9.84232
▁wall	-9.84241
▁tau	-9.84283
▁sentrum	-9.84295
rygg	-9.84357
ward	-9.84387
▁borger	-9.84436
fang	-9.84443
▁geir	-9.84495
▁feil	-9.84514
▁hannen	-9.8458
farge	-9.84582
▁arbeidet	-9.84597
litt	-9.84633
head	-9.84661
▁cri	-9.84672
▁mitt	-9.8471
μ	-9.84732
friidrettsutøver	-9.84732
▁university	-9.84744
▁gö	-9.84746
gue	-9.84751
▁trondheim	-9.84756
drift	-9.84756
kultur	-9.84838
krets	-9.8497
skolen	-9.85005
mont	-9.85051
try	-9.85064
▁mah	-9.85124
medaljen	-9.85154
▁try	-9.85203
▁157	-9.85231
▁55	-9.85261
flue	-9.85275
iana	-9.8529
ats	-9.85297
skilt	-9.8535
▁ah	-9.85355
▁prop	-9.85442
▁svi	-9.85527
kap	-9.85581
vitenskap	-9.85619
▁fortsatt	-9.85627
▁tydelig	-9.85637
▁cru	-9.8568
iano	-9.85706
figur	-9.85709
▁kil	-9.85738
▁165	-9.85768
▁ordens	-9.85821
haugen	-9.85931
▁rygg	-9.8595
▁storm	-9.85974
▁svein	-9.85998
▁lengde	-9.86178
dong	-9.86218
mand	-9.8625
bygda	-9.86318
typen	-9.86362
oppgave	-9.86371
pet	-9.86376
▁nesten	-9.86477
▁figur	-9.86479
▁personlig	-9.8649
▁forsvars	-9.865
▁fry	-9.86536
▁sigurd	-9.86544
▁nærmest	-9.86549
ios	-9.8655
ль	-9.86554
▁smith	-9.86571
▁kok	-9.86586
bry	-9.86604
forhold	-9.86656
▁award	-9.86739
▁tett	-9.86742
▁furu	-9.86753
▁skriver	-9.86755
▁tiden	-9.86784
▁konsert	-9.86837
▁oversatt	-9.86897
handel	-9.86902
▁luk	-9.86903
vision	-9.86993
▁lie	-9.8704
byrå	-9.87101
lend	-9.87146
▁indre	-9.87211
▁fot	-9.87257
▁spansk	-9.87318
flekk	-9.87336
х	-9.8746
▁digital	-9.87462
▁saa	-9.87473
▁ordfører	-9.87492
▁2015	-9.87493
▁philip	-9.87509
bridge	-9.87556
stjerne	-9.87709
▁bai	-9.87715
▁gress	-9.87732
▁pl	-9.87813
klar	-9.87815
grupper	-9.87826
▁dol	-9.87958
▁37	-9.87971
▁deler	-9.87977
▁petter	-9.88015
▁ganger	-9.88018
▁funn	-9.88022
▁prof	-9.88037
▁live	-9.88043
▁bit	-9.88044
▁fau	-9.88164
dannelse	-9.88277
former	-9.88288
lege	-9.88301
▁jørgen	-9.88386
▁gjelder	-9.88387
maleri	-9.88393
▁antonio	-9.88455
▁samfunns	-9.88515
ful	-9.8855
myr	-9.88556
▁eldre	-9.88581
▁nabo	-9.8859
▁sco	-9.88595
▁italia	-9.88595
▁64	-9.88622
▁fol	-9.88622
▁festival	-9.88638
▁tin	-9.88654
styrke	-9.88709
▁bin	-9.88735
▁pul	-9.88778
▁his	-9.88848
64	-9.89036
▁lære	-9.89065
▁pic	-9.89091
▁rose	-9.8914
▁dur	-9.89179
plante	-9.89231
vall	-9.89234
▁knu	-9.8924
▁bland	-9.89258
orum	-9.89305
ě	-9.8932
▁benyttes	-9.8932
▁inneholdt	-9.89321
▁1995	-9.89321
▁1993	-9.89321
▁øverst	-9.89326
▁statsminister	-9.89345
insk	-9.89354
▁brand	-9.89377
bak	-9.89384
fjellene	-9.89404
oksid	-9.89451
mond	-9.89473
▁disk	-9.8948
▁mala	-9.89481
▁shu	-9.895
▁ferdig	-9.89536
▁grev	-9.89619
▁æres	-9.89686
tjeneste	-9.89698
▁aldri	-9.89708
▁rod	-9.89737
▁trond	-9.89749
▁love	-9.89829
▁158	-9.89866
slip	-9.89867
▁pop	-9.89878
varer	-9.89954
barn	-9.89961
▁ledes	-9.90052
▁в	-9.9008
▁arbeid	-9.90139
slått	-9.90164
▁65	-9.90222
▁cath	-9.90242
slekten	-9.90262
▁formel	-9.90263
▁øvrig	-9.90264
▁tilknytte	-9.90264
▁1997	-9.90264
▁1988	-9.90264
▁ple	-9.90283
▁veien	-9.90297
▁betegnelsen	-9.90323
▁daglig	-9.90347
▁endre	-9.90354
utstilling	-9.90374
▁kroppen	-9.90387
kler	-9.90454
▁wel	-9.90466
høy	-9.90479
▁kalk	-9.90515
▁pur	-9.9054
saker	-9.90547
▁ross	-9.90799
park	-9.90846
▁karakter	-9.90849
▁143	-9.90876
▁omtale	-9.90967
havn	-9.90982
▁polar	-9.91137
konkurranse	-9.91169
▁resultat	-9.91183
town	-9.91197
▁akt	-9.91201
▁idrettslag	-9.91207
π	-9.91216
▁litteratur	-9.91263
▁tverr	-9.91285
sol	-9.91302
▁bjør	-9.91353
▁right	-9.91419
▁stammer	-9.91439
▁dir	-9.91474
▁én	-9.91475
▁tann	-9.91494
▁sæ	-9.91494
▁demokrat	-9.91494
▁verne	-9.91498
▁krets	-9.91531
▁bom	-9.91552
▁104	-9.91567
▁ville	-9.91581
▁tat	-9.91597
iserer	-9.91656
▁provins	-9.91659
innen	-9.91676
ordenen	-9.91714
utdannet	-9.918
aktig	-9.91842
▁skade	-9.91907
▁base	-9.91909
rap	-9.91947
chester	-9.9201
row	-9.92036
løft	-9.92114
▁eget	-9.92118
kjell	-9.9213
▁kau	-9.92133
▁eva	-9.92162
▁kardinal	-9.92178
▁london	-9.92181
▁nikola	-9.92183
▁godt	-9.922
▁orkester	-9.92205
virkning	-9.92229
▁inngår	-9.92251
atet	-9.92277
▁trommer	-9.92319
▁mono	-9.92386
virksomhet	-9.92433
▁rec	-9.92496
▁økt	-9.92529
▁ull	-9.92536
▁kjær	-9.92567
areal	-9.92716
▁voks	-9.92717
tropp	-9.92792
hem	-9.92844
▁israel	-9.92845
▁jack	-9.92894
▁kristin	-9.92945
▁boken	-9.92975
samfunn	-9.93015
systemer	-9.93037
▁trafikk	-9.93119
▁instrument	-9.93149
▁øvre	-9.9315
▁energy	-9.93163
▁boy	-9.9317
▁sverre	-9.93174
▁betegne	-9.93176
gjort	-9.93186
tang	-9.93208
▁michel	-9.93234
▁hage	-9.93295
tsen	-9.9337
▁tema	-9.93405
ч	-9.93405
▁skips	-9.93459
▁artene	-9.93459
chu	-9.9348
▁tank	-9.93499
▁tyske	-9.9352
▁mr	-9.93593
deling	-9.93667
▁fan	-9.93728
▁henne	-9.93766
ally	-9.9377
▁75	-9.93804
▁brukt	-9.93852
▁skip	-9.93858
ischen	-9.93893
linjen	-9.94007
▁gyl	-9.94137
▁mikro	-9.94199
▁klima	-9.94203
▁filip	-9.94209
▁papir	-9.94253
ello	-9.94291
gno	-9.94388
▁underlagt	-9.94422
▁wang	-9.94478
klipp	-9.94486
hagen	-9.9454
▁asp	-9.94557
ux	-9.94573
istene	-9.94615
▁gram	-9.94629
▁sjef	-9.94658
hev	-9.94699
▁chan	-9.94714
▁а	-9.94716
▁fett	-9.94757
▁stort	-9.94767
▁pil	-9.94922
firma	-9.9495
mmel	-9.95007
▁kirken	-9.95034
kommunikasjon	-9.95119
▁alternativ	-9.95119
myndighet	-9.95119
▁andré	-9.95134
▁gansk	-9.95142
▁gustav	-9.95156
fart	-9.95174
▁behandling	-9.95298
▁då	-9.95311
▁palm	-9.95355
pass	-9.95388
▁back	-9.95392
analyse	-9.95395
kjøn	-9.95415
vald	-9.95475
medlem	-9.9555
▁oss	-9.95601
▁gon	-9.95613
▁tjeneste	-9.95614
riket	-9.95666
▁illustr	-9.95667
▁center	-9.95722
▁slo	-9.95747
bedrift	-9.95771
plate	-9.95807
inus	-9.95905
▁meta	-9.95936
last	-9.95938
▁yng	-9.96028
planter	-9.96038
▁totalt	-9.96097
▁500	-9.96103
ί	-9.96119
▁sukker	-9.96134
▁york	-9.96137
mir	-9.96171
▁eik	-9.96172
olje	-9.96174
▁danmark	-9.96177
▁foruten	-9.96231
▁kongen	-9.96261
▁forlag	-9.96263
▁ola	-9.96274
▁eide	-9.96309
festivalen	-9.96343
løst	-9.96461
hallen	-9.96597
politikk	-9.96711
▁enhet	-9.96835
▁herman	-9.96844
▁alb	-9.9688
▁dru	-9.96948
▁lim	-9.96961
ific	-9.9703
▁skrive	-9.97062
▁ey	-9.97071
misjon	-9.97072
▁selve	-9.97072
▁dynastiet	-9.97103
η	-9.97129
▁gjeste	-9.97129
▁omtrent	-9.97129
sey	-9.97133
▁alexander	-9.97133
▁stopp	-9.97136
▁flyplass	-9.97137
ingeniør	-9.97143
▁signal	-9.97162
▁saint	-9.97228
ington	-9.97253
▁bomb	-9.97268
▁147	-9.97324
▁jobb	-9.97361
ça	-9.97365
▁human	-9.97386
bud	-9.97405
▁118	-9.97428
▁adel	-9.97451
magasin	-9.97456
hui	-9.97474
▁betjener	-9.97481
produsent	-9.9754
historie	-9.9755
tittel	-9.97583
▁gold	-9.97602
spenning	-9.97624
lian	-9.97718
▁syr	-9.9786
▁hvite	-9.97908
▁brenn	-9.97928
eller	-9.98037
▁vig	-9.98062
▁europe	-9.98089
debut	-9.98143
▁sveits	-9.98155
kunnskap	-9.98178
shire	-9.98181
▁2014	-9.98182
▁pedersen	-9.98209
▁høsten	-9.98275
bour	-9.98301
jon	-9.98315
▁140	-9.98397
botn	-9.98406
▁hoff	-9.9843
▁there	-9.98432
▁00	-9.98465
▁hjemmeside	-9.98497
▁luc	-9.98558
▁eids	-9.98559
▁144	-9.98567
▁rem	-9.98578
album	-9.98625
stav	-9.98646
▁gå	-9.98653
▁union	-9.9869
▁schw	-9.98757
▁hals	-9.98801
▁still	-9.98847
▁carlo	-9.9891
▁gutt	-9.99088
▁danse	-9.99102
sekretær	-9.99169
▁stockholm	-9.9918
▁friedrich	-9.99181
▁fjær	-9.99183
▁episode	-9.99183
▁dverg	-9.99203
▁produksjon	-9.99231
▁tilhøre	-9.99236
▁anlegget	-9.9924
▁iii	-9.99247
▁knytte	-9.99249
▁deltok	-9.99277
▁fylkesvei	-9.99278
▁operasjon	-9.99283
▁alfred	-9.99286
▁dyp	-9.9929
▁terje	-9.99309
▁antenne	-9.99311
▁alm	-9.99394
aktiv	-9.99444
komst	-9.9946
▁britisk	-9.99461
▁morten	-9.99525
▁är	-9.99533
▁symbol	-9.99539
tveit	-9.99571
▁lokale	-9.99571
▁dekker	-9.99611
▁produksjons	-9.99624
▁bell	-9.99681
▁personer	-9.99774
ät	-9.99803
▁rob	-9.99831
▁hä	-9.99852
spira	-9.99854
strå	-9.99867
▁52	-9.99867
▁mobil	-9.99924
▁adam	-9.99948
▁vokser	-9.99982
bygging	-9.99988
brød	-9.99992
møte	-10.0006
▁egil	-10.0018
▁religion	-10.0022
▁mangler	-10.0023
ος	-10.0023
lokk	-10.0024
▁college	-10.0027
qi	-10.0032
▁sentrale	-10.0033
▁sterkt	-10.0034
▁dog	-10.0036
▁cd	-10.0038
▁pont	-10.004
▁hir	-10.0043
▁dialekt	-10.0045
▁fler	-10.0045
bord	-10.0055
▁108	-10.0056
▁program	-10.0056
soldat	-10.0065
▁turist	-10.0066
▁drive	-10.0066
▁sva	-10.0067
align	-10.0073
prosjekt	-10.0073
▁fir	-10.0087
▁total	-10.0088
▁virksomhet	-10.01
▁mary	-10.0103
▁klubb	-10.0104
▁årene	-10.0114
▁tilsvarende	-10.0127
▁1992	-10.0128
▁tabellen	-10.0128
levende	-10.0128
ovitsj	-10.0131
isse	-10.0134
mesterskapet	-10.0135
п	-10.0138
▁roger	-10.0138
▁hil	-10.0145
vatn	-10.0146
▁137	-10.0148
acci	-10.015
▁bygningen	-10.0151
vinner	-10.0151
skapet	-10.0152
▁119	-10.0158
nettverk	-10.0163
▁effekt	-10.0167
▁upp	-10.0178
amerikansk	-10.0182
▁kyr	-10.0184
▁problem	-10.0193
▁ost	-10.02
▁provinshovedsta	-10.0206
sykdom	-10.0229
γ	-10.0234
kommando	-10.0235
ли	-10.0242
▁motta	-10.0243
▁bach	-10.0248
▁master	-10.0249
▁149	-10.0254
▁høyt	-10.0255
▁bonde	-10.0259
breen	-10.0263
ла	-10.0265
▁klokke	-10.0266
▁130	-10.0271
tjenester	-10.0272
▁wil	-10.028
▁artister	-10.0291
kort	-10.032
▁bevegelse	-10.0323
▁1987	-10.0341
▁påvirke	-10.0343
▁himmel	-10.0345
▁biskop	-10.0346
serien	-10.0348
▁blokk	-10.0354
▁nordøst	-10.0354
fabrikken	-10.0356
▁whi	-10.0357
▁our	-10.036
▁term	-10.0368
▁walter	-10.0379
sentre	-10.0384
▁110	-10.0384
▁professor	-10.0396
gjeng	-10.0397
▁sing	-10.04
▁team	-10.0401
▁manus	-10.041
▁dannet	-10.042
fugler	-10.0423
▁livs	-10.0425
gruppa	-10.0427
dikt	-10.0433
▁forsøk	-10.0434
▁even	-10.0448
▁fulgte	-10.045
▁shanghai	-10.045
▁styrmann	-10.045
advokat	-10.045
▁1991	-10.045
▁1986	-10.045
▁observ	-10.045
erud	-10.0453
▁asia	-10.0455
▁invest	-10.0457
▁pettersen	-10.0458
▁prim	-10.0458
▁grunnlagt	-10.0458
▁play	-10.0461
▁fun	-10.0465
iya	-10.0465
▁foto	-10.0467
▁fleste	-10.0468
▁verd	-10.047
vika	-10.0471
▁arg	-10.0474
▁bryst	-10.0474
▁stamme	-10.0474
▁kryss	-10.048
▁123	-10.048
mul	-10.0485
▁day	-10.0488
▁lyn	-10.0491
то	-10.0492
▁kjøpte	-10.0498
▁vik	-10.0499
programmer	-10.0507
▁finale	-10.0511
arkiv	-10.0512
verdi	-10.0514
▁naturlig	-10.0516
▁fylket	-10.0517
▁arc	-10.0525
person	-10.0535
▁inndel	-10.0542
▁betydninger	-10.0554
▁semi	-10.0556
▁american	-10.056
▁tolkien	-10.056
▁administrativ	-10.056
▁nedenfor	-10.0561
prinsipp	-10.0561
▁middelalder	-10.0561
▁log	-10.0561
▁føde	-10.0574
▁п	-10.0576
▁stål	-10.0579
▁video	-10.0579
mengde	-10.058
▁hjerne	-10.058
betegnelse	-10.0591
▁forekommer	-10.0594
▁streng	-10.0596
tog	-10.0603
▁begrepet	-10.0606
▁47	-10.0609
lapp	-10.0612
▁ivan	-10.0619
▁ube	-10.0621
▁strid	-10.0629
▁haug	-10.0639
▁rute	-10.0641
▁chris	-10.0664
▁øyene	-10.0669
▁administrere	-10.0671
▁byprefekturet	-10.0671
▁frederik	-10.0672
▁familiegruppen	-10.0673
▁wade	-10.0678
▁likevel	-10.0678
▁uavhengig	-10.0679
▁115	-10.0679
▁scott	-10.0681
▁single	-10.0683
▁adresse	-10.0686
▁svenske	-10.0691
artikler	-10.0696
▁phil	-10.0699
▁dansk	-10.0702
▁utstyr	-10.0704
▁åpnet	-10.0711
▁show	-10.0711
▁57	-10.072
▁leon	-10.0726
▁rang	-10.0727
eringen	-10.0731
▁jevn	-10.0739
forbindelse	-10.0743
funksjon	-10.0744
president	-10.0744
▁life	-10.0747
▁pet	-10.0748
▁154	-10.0748
kvalitet	-10.0757
▁santa	-10.0759
▁sit	-10.076
▁legge	-10.076
▁dong	-10.0761
visning	-10.0766
jia	-10.0767
▁damp	-10.0777
▁enten	-10.0778
ь	-10.0782
▁delt	-10.0782
▁sovjetunionen	-10.0783
▁publisert	-10.0783
▁jakob	-10.0784
▁intern	-10.0784
avisen	-10.0786
▁text	-10.0788
▁brown	-10.0792
▁vold	-10.0796
▁ting	-10.0801
▁fru	-10.0801
▁malm	-10.0802
zel	-10.0803
▁frei	-10.0804
hyll	-10.0811
▁wood	-10.0817
serie	-10.082
▁tale	-10.0821
gift	-10.0825
ppel	-10.0826
▁sara	-10.083
▁well	-10.0833
karriere	-10.084
▁39	-10.0845
stone	-10.0847
▁masse	-10.0849
▁kaller	-10.0854
interesse	-10.0858
skjær	-10.086
elius	-10.0863
▁stol	-10.0867
000	-10.0869
▁heng	-10.0874
▁verden	-10.088
skop	-10.088
selva	-10.0881
▁mini	-10.0886
▁þ	-10.089
▁eie	-10.0892
syke	-10.0894
▁edi	-10.0894
δ	-10.0897
▁unicode	-10.0897
▁benyttet	-10.0897
▁school	-10.0897
▁norrøn	-10.0897
▁46	-10.0898
▁dronning	-10.0898
▁gli	-10.0898
strup	-10.0899
āng	-10.09
▁oscar	-10.0902
▁tørr	-10.0904
▁fått	-10.0906
▁liber	-10.0908
▁stam	-10.0918
lind	-10.0924
▁verneområde	-10.0926
▁solo	-10.093
▁stoff	-10.0932
▁bord	-10.0934
▁68	-10.0935
▁piano	-10.0937
▁127	-10.0938
▁forbindelse	-10.0938
agon	-10.0946
▁låt	-10.0948
srud	-10.0949
▁bau	-10.0951
▁beskrev	-10.0952
folket	-10.0954
▁54	-10.0958
▁artist	-10.096
▁stiftet	-10.0967
▁stab	-10.0974
▁peder	-10.0979
vá	-10.0982
▁paris	-10.0982
▁bydelen	-10.0984
▁tun	-10.0987
aki	-10.0987
▁carol	-10.0996
▁media	-10.0997
đ	-10.1012
▁dobbelt	-10.1012
▁skille	-10.1014
▁kåre	-10.1017
▁43	-10.1022
▁make	-10.1024
▁folket	-10.1027
▁vers	-10.1032
▁forretnings	-10.1032
lutt	-10.1033
ōng	-10.1036
▁sivil	-10.1037
▁jr	-10.104
▁tå	-10.1042
tunnelen	-10.105
▁kjøl	-10.1052
▁lyst	-10.106
▁mcc	-10.106
▁skå	-10.1076
trinn	-10.1077
▁kristen	-10.1081
▁størrelse	-10.1081
forfatter	-10.1097
program	-10.1097
▁forfatteren	-10.111
▁struktur	-10.1116
▁bunn	-10.1121
▁ark	-10.1121
▁ash	-10.1123
▁kjempe	-10.1126
▁top	-10.1126
▁records	-10.1128
▁company	-10.1129
▁flertall	-10.1131
▁ligne	-10.1132
▁referere	-10.1132
▁kjønn	-10.1132
▁server	-10.1136
våk	-10.1141
▁seier	-10.1141
▁fv	-10.1157
▁cm	-10.1162
▁114	-10.1164
▁spp	-10.1169
arna	-10.1169
meter	-10.1173
ection	-10.1177
▁material	-10.1178
▁53	-10.1179
▁hauge	-10.1186
▁fur	-10.1187
▁prisen	-10.1192
▁deutsche	-10.1195
▁113	-10.1198
▁våg	-10.12
▁minst	-10.12
sket	-10.1203
▁henri	-10.1204
pati	-10.1216
▁gitt	-10.1216
▁holder	-10.1217
▁stod	-10.1219
▁jule	-10.1221
▁open	-10.1229
▁rau	-10.1229
▁tone	-10.1242
alitet	-10.1244
▁beijing	-10.1246
▁hurtig	-10.1246
▁kommunist	-10.1246
▁opprettet	-10.1246
▁kjemisk	-10.1247
▁what	-10.1249
▁drev	-10.1254
▁popul	-10.1254
▁dominere	-10.1255
▁run	-10.1257
▁lapp	-10.1263
▁nasjonalpark	-10.1271
▁cel	-10.1272
vning	-10.1281
▁lyng	-10.1285
▁stift	-10.1297
▁lill	-10.13
▁your	-10.1328
data	-10.1333
▁registr	-10.1334
kunst	-10.1336
▁rub	-10.135
cula	-10.1358
befolkning	-10.1362
fartøy	-10.1363
biller	-10.1365
▁deriblant	-10.1365
▁gabriel	-10.1365
▁hebraisk	-10.1365
▁1983	-10.1365
▁studenter	-10.1365
▁arthur	-10.1365
ić	-10.1366
▁journalist	-10.1368
holt	-10.1369
aktige	-10.1371
▁republikken	-10.1372
grep	-10.1379
▁møte	-10.1382
▁uttrykke	-10.1383
møll	-10.1387
▁kath	-10.1391
▁histori	-10.1391
ер	-10.1408
▁jonas	-10.1411
▁intel	-10.1421
▁ou	-10.1421
▁tran	-10.1427
▁audi	-10.143
lista	-10.1442
▁big	-10.1447
løpet	-10.1448
▁leif	-10.1452
wood	-10.1463
fre	-10.1463
▁teknisk	-10.1468
▁danske	-10.1474
▁historiker	-10.1476
▁tenn	-10.1485
ш	-10.1485
▁svømme	-10.1486
▁berømt	-10.1487
▁håkon	-10.1489
celle	-10.1493
▁73	-10.1493
▁passerer	-10.1494
▁141	-10.1495
bler	-10.1497
▁sä	-10.1497
▁139	-10.1509
▁74	-10.1512
▁mul	-10.1513
▁hva	-10.1514
▁134	-10.1515
gran	-10.1518
går	-10.1525
▁akademi	-10.1528
▁arkiv	-10.1543
▁hai	-10.1551
▁way	-10.1552
azar	-10.1562
▁jensen	-10.1568
▁sport	-10.1571
▁krysser	-10.1575
▁skinn	-10.1576
▁rap	-10.1582
skift	-10.1584
▁noter	-10.1587
ý	-10.1607
ц	-10.1607
▁egypt	-10.1607
▁klassisk	-10.1608
kandidat	-10.1609
▁social	-10.1612
▁fortsatte	-10.1612
arisk	-10.1612
▁mineral	-10.1615
stell	-10.1617
▁corn	-10.1622
sdatter	-10.1623
▁regional	-10.1623
▁xu	-10.1624
▁atom	-10.1629
eiro	-10.1636
▁ansvarlig	-10.1642
▁høyde	-10.1643
brua	-10.1645
drakt	-10.1652
▁sankt	-10.1653
▁77	-10.1658
næring	-10.1665
▁svar	-10.1666
tikken	-10.1667
▁bøker	-10.1675
jå	-10.1676
▁sønnen	-10.1678
▁kjenn	-10.1679
maker	-10.1682
▁gaten	-10.1682
▁grov	-10.1682
skatt	-10.1685
▁gården	-10.1688
▁clo	-10.1694
▁wan	-10.1695
blå	-10.1699
farget	-10.17
tjenesten	-10.17
tysk	-10.171
▁86	-10.1722
▁num	-10.1722
▁makt	-10.1725
økonom	-10.1726
journal	-10.1728
øvelse	-10.173
▁elisabeth	-10.1731
▁katedral	-10.1731
▁prefektur	-10.1731
▁united	-10.1732
▁tilsvarer	-10.1733
valget	-10.1733
▁efter	-10.1733
▁stavanger	-10.1734
vurder	-10.1741
▁portrett	-10.1744
▁markerer	-10.1745
▁raf	-10.1746
▁125	-10.1753
▁skjel	-10.1761
▁sesongen	-10.1764
flo	-10.1775
▁124	-10.1776
▁59	-10.1784
▁hunnen	-10.1787
▁feli	-10.179
▁gw	-10.1793
skrive	-10.1795
▁41	-10.1804
▁scene	-10.1804
▁emb	-10.1805
løv	-10.1806
tilstand	-10.1823
▁markeds	-10.1827
▁bert	-10.1832
▁bow	-10.1834
▁bog	-10.1851
▁nedre	-10.1855
institusjon	-10.1856
▁begynner	-10.1856
▁electric	-10.1856
▁1972	-10.1856
▁1982	-10.1856
▁studio	-10.1856
kompleks	-10.1856
▁nattfly	-10.186
behandle	-10.186
hjem	-10.1861
▁sider	-10.1861
▁ungdom	-10.1864
▁hustru	-10.1866
▁spise	-10.1867
▁major	-10.187
▁brei	-10.1871
bøker	-10.1871
▁menighet	-10.1872
modell	-10.1873
▁fab	-10.1874
▁organisasjonen	-10.1883
bred	-10.1885
▁utført	-10.1885
▁133	-10.1886
▁vall	-10.1887
▁109	-10.1894
▁107	-10.1895
▁02	-10.1898
▁grim	-10.1903
kling	-10.1915
lung	-10.193
▁126	-10.1934
▁hammer	-10.1935
▁44	-10.1948
▁05	-10.1963
konsern	-10.1968
▁pad	-10.1977
▁utga	-10.1978
▁hviterussisk	-10.1982
▁kjærlighet	-10.1984
▁programleder	-10.1984
▁royal	-10.1985
kontroll	-10.1988
▁jud	-10.1992
▁sikkerhets	-10.1997
atus	-10.1998
▁krever	-10.2001
▁ltd	-10.2001
▁utføre	-10.2009
▁last	-10.2014
▁sendt	-10.2015
endring	-10.2028
▁kammer	-10.203
▁gile	-10.2035
▁mennesker	-10.204
▁pave	-10.2042
▁bag	-10.2048
stasjonen	-10.2048
▁flam	-10.2051
bury	-10.2054
▁kali	-10.2061
▁bakke	-10.2062
▁føl	-10.2067
▁bydel	-10.2068
▁landsby	-10.207
▁wol	-10.2076
▁kjøtt	-10.2078
▁gott	-10.2079
▁festning	-10.2087
icus	-10.2088
▁afrika	-10.2092
▁hvis	-10.21
fik	-10.21
direktør	-10.2104
trafikk	-10.2104
▁lån	-10.2105
▁naturreservat	-10.2111
▁1980	-10.2111
▁eldste	-10.2111
▁hjort	-10.2113
format	-10.2113
▁perioden	-10.2116
▁him	-10.2117
undersøkelse	-10.2117
▁forvingen	-10.212
arbeidet	-10.2127
▁linjen	-10.2127
idrett	-10.2127
▁bibel	-10.2131
▁marit	-10.2137
▁dekk	-10.2138
▁99	-10.2147
ður	-10.2153
speil	-10.2153
▁arch	-10.216
ated	-10.2161
▁normal	-10.2165
▁åpen	-10.217
▁tour	-10.2173
medalj	-10.2184
▁jin	-10.2185
▁kanon	-10.2197
▁146	-10.2205
▁brev	-10.2215
▁metro	-10.2217
▁schi	-10.2219
brev	-10.2236
orkester	-10.2237
miljø	-10.2238
løytnant	-10.2241
▁bulgarsk	-10.2241
▁science	-10.2241
▁fjerde	-10.2241
▁fremdeles	-10.2241
objekt	-10.2242
▁sykehus	-10.2243
utstyr	-10.2245
▁omtalt	-10.2246
konkurransen	-10.2247
▁smak	-10.2247
reaksjon	-10.2249
▁europeisk	-10.2249
▁skatte	-10.2249
▁lignende	-10.2251
▁103	-10.2252
▁alltid	-10.2257
▁formann	-10.2262
▁koll	-10.2264
▁arkitektur	-10.2266
▁vu	-10.2267
▁straffe	-10.2271
▁nielsen	-10.2275
herre	-10.2279
▁east	-10.2281
▁verket	-10.2282
lignende	-10.2284
▁skjær	-10.2284
▁guang	-10.2285
▁bølge	-10.2285
ømt	-10.2286
▁tegnet	-10.2286
▁vet	-10.2289
mission	-10.229
▁vitenskapelig	-10.2301
▁call	-10.2302
▁plassert	-10.2315
▁95	-10.2317
▁sna	-10.2317
duk	-10.2329
▁beat	-10.2331
styrt	-10.2332
▁jarl	-10.2334
demokra	-10.2334
▁norman	-10.2334
▁131	-10.2338
illi	-10.234
matisk	-10.2343
▁åpne	-10.2346
trof	-10.2355
▁dig	-10.2362
▁bøk	-10.2364
▁145	-10.2369
instrument	-10.2372
▁1968	-10.2372
▁kaptein	-10.2372
▁tyrkisk	-10.2372
▁forårsake	-10.2373
mønster	-10.2374
kontrakt	-10.2375
prest	-10.2376
ми	-10.2379
vekt	-10.238
▁verb	-10.239
▁cup	-10.2391
▁bang	-10.2392
▁persisk	-10.2394
galleri	-10.2398
▁internasjonalt	-10.2399
ск	-10.2401
▁tradisjon	-10.2406
▁good	-10.2412
bind	-10.2426
ри	-10.2426
domstol	-10.2427
▁48	-10.2434
▁korn	-10.2438
▁rosa	-10.2441
para	-10.2444
materiale	-10.2449
▁busk	-10.2458
▁normalt	-10.2458
fell	-10.2465
▁ferr	-10.2476
▁85	-10.2477
▁pyr	-10.2492
▁opprinnelse	-10.2505
▁1979	-10.2506
▁1976	-10.2506
▁1973	-10.2506
▁medie	-10.2506
dynastiet	-10.2509
▁brødre	-10.2509
▁work	-10.2512
▁eksempelvis	-10.2517
▁mach	-10.2524
▁105	-10.2526
▁skyldes	-10.253
▁72	-10.2531
▁pho	-10.2536
▁09	-10.2539
▁08	-10.2541
▁thy	-10.2545
illo	-10.2547
cast	-10.2555
▁kontra	-10.2556
nøtt	-10.2556
▁bull	-10.2557
politisk	-10.2569
ordning	-10.2574
▁driv	-10.2576
▁prege	-10.2585
tilbud	-10.2591
▁great	-10.2592
kysten	-10.26
▁ledelse	-10.2611
▁ansvar	-10.2614
▁122	-10.2617
bjørg	-10.2621
▁kvinner	-10.2622
▁corp	-10.2625
▁tårn	-10.2635
▁amerika	-10.264
▁dirigent	-10.2641
▁derimot	-10.2641
▁spesiell	-10.2641
▁nordvest	-10.2642
▁stadion	-10.2643
▁oblast	-10.2643
▁bakterie	-10.2644
▁tibetansk	-10.2644
▁josé	-10.2644
▁drammen	-10.2645
▁1964	-10.2647
▁atlant	-10.2647
terapi	-10.2647
▁språket	-10.2648
design	-10.265
grå	-10.2652
▁øyvin	-10.2656
▁høg	-10.2659
▁bakover	-10.2667
▁forvaltnings	-10.2674
▁kvit	-10.2679
▁heart	-10.2693
▁jeff	-10.2695
ар	-10.2697
▁kall	-10.2708
wick	-10.2708
▁spring	-10.2716
▁jun	-10.2717
▁tog	-10.2717
▁kreft	-10.2722
fred	-10.2734
▁møter	-10.2735
kjempe	-10.2736
tap	-10.2736
tårn	-10.2744
▁silke	-10.2745
fyr	-10.275
▁136	-10.2756
▁jä	-10.2769
▁kit	-10.2774
▁ishockey	-10.2778
▁nabokommunen	-10.2778
▁mytologi	-10.2778
▁drept	-10.2783
▁møtte	-10.2783
merker	-10.2784
▁china	-10.2784
▁56	-10.2788
▁markert	-10.2789
▁ramme	-10.2795
korn	-10.2805
dress	-10.281
▁dannes	-10.2812
▁flø	-10.2817
▁frode	-10.2822
▁yi	-10.2823
▁fotballklubb	-10.2825
▁liberal	-10.2825
▁euro	-10.2836
▁84	-10.2838
▁sunn	-10.284
▁101	-10.2843
støl	-10.2849
avhengig	-10.2853
▁slu	-10.2853
perioden	-10.2855
▁135	-10.2873
▁qing	-10.2874
bytte	-10.2876
▁bispedømme	-10.2889
▁hente	-10.2893
stripe	-10.2902
▁introdusert	-10.2916
▁avgjør	-10.2917
pul	-10.2917
▁golf	-10.2918
▁stefan	-10.292
▁clark	-10.2923
fried	-10.2926
struktur	-10.2931
▁urdu	-10.2935
▁smør	-10.2941
zio	-10.2944
▁junior	-10.2944
behandling	-10.2949
▁07	-10.2952
▁young	-10.2955
▁117	-10.2956
▁elektrisk	-10.2959
▁ytre	-10.2959
▁spillerne	-10.2974
▁hyper	-10.2979
▁opphav	-10.2984
ario	-10.2988
trolig	-10.2988
▁hjemmebane	-10.2995
ев	-10.3002
▁plast	-10.3003
▁utvikler	-10.301
bukta	-10.302
▁prakt	-10.3022
ischer	-10.3025
▁økonomisk	-10.3028
▁khan	-10.3029
▁62	-10.303
tromme	-10.3038
regionen	-10.3048
▁latinsk	-10.3049
▁bronse	-10.3052
▁støtter	-10.3056
arrangement	-10.3057
▁vulkan	-10.3057
▁1970	-10.3057
▁kryp	-10.3059
▁fiktiv	-10.3059
▁ønske	-10.3062
▁åpning	-10.3063
guan	-10.3067
plattform	-10.3084
▁eriksen	-10.3086
▁dør	-10.3096
▁beau	-10.3096
▁129	-10.3098
▁johnson	-10.3104
▁skifte	-10.3116
▁grupper	-10.3116
▁grund	-10.3119
▁vend	-10.3131
rill	-10.3143
nytt	-10.3154
▁penge	-10.316
▁selge	-10.3162
▁sym	-10.3196
▁brasil	-10.3197
▁københavn	-10.32
▁parlament	-10.32
▁alkohol	-10.32
▁relativ	-10.32
▁global	-10.3202
stipend	-10.3203
▁sverd	-10.3209
versjon	-10.321
та	-10.321
recht	-10.3213
print	-10.3217
avtale	-10.3218
▁johnny	-10.3223
▁rav	-10.3227
▁høyere	-10.3229
ruter	-10.3243
▁fremste	-10.3247
▁korea	-10.325
▁87	-10.3254
avgift	-10.3261
cent	-10.3262
▁49	-10.3263
abili	-10.3265
uit	-10.3267
▁kapp	-10.3272
▁font	-10.3273
▁plo	-10.3273
kasse	-10.3284
▁maj	-10.3284
▁pub	-10.3284
▁siv	-10.3287
▁nick	-10.3292
tain	-10.3292
link	-10.3304
ма	-10.3304
ttle	-10.3308
ddy	-10.3337
▁integr	-10.3346
▁systematikk	-10.3346
▁jakt	-10.3346
▁allerede	-10.3347
▁stadium	-10.3347
▁import	-10.3351
▁internett	-10.3351
▁blank	-10.3358
▁franz	-10.3362
▁tho	-10.3362
▁wid	-10.3369
fabrik	-10.3372
resultat	-10.3373
redaktør	-10.3373
▁økonomi	-10.3381
inntekt	-10.3381
▁92	-10.3382
▁sound	-10.3386
distanse	-10.3395
▁ekspedisjon	-10.3411
▁billed	-10.3413
▁tell	-10.3418
▁106	-10.3434
rykk	-10.3446
back	-10.3452
▁gruve	-10.3452
verdig	-10.3452
veps	-10.3452
vikler	-10.3455
▁internasjonal	-10.3465
▁frp	-10.3466
▁psyko	-10.3474
▁vladimir	-10.3492
▁debutalbum	-10.3492
▁tilgjengelig	-10.3492
▁katolsk	-10.3492
▁petersburg	-10.3493
▁fiolin	-10.3493
▁kontakt	-10.3493
prøv	-10.3495
▁gjenopp	-10.3496
▁tolv	-10.3497
terminal	-10.3498
▁høst	-10.35
▁63	-10.3508
egnet	-10.351
▁street	-10.3526
▁98	-10.3537
salg	-10.3539
brand	-10.3541
trekning	-10.3542
▁flytte	-10.3545
▁øker	-10.3545
▁hop	-10.3549
▁tyr	-10.3549
▁111	-10.3565
▁400	-10.3567
formasjon	-10.3577
▁petr	-10.3581
zzo	-10.3585
turnering	-10.3585
▁raj	-10.3593
▁kald	-10.3606
▁fader	-10.362
▁reid	-10.3621
▁motiv	-10.3623
forkortelse	-10.363
▁terra	-10.3635
▁ove	-10.3636
▁toll	-10.3639
▁arrangør	-10.3641
▁etterfulgt	-10.3641
▁profesjonell	-10.3641
giovanni	-10.3641
▁tømmer	-10.3641
▁1984	-10.3642
▁1965	-10.3642
▁yizhi	-10.3642
▁public	-10.3642
▁prosent	-10.3643
▁element	-10.3643
tidsskrift	-10.3645
▁rid	-10.3646
▁hotell	-10.3646
▁drikke	-10.3651
▁disc	-10.3653
▁reserve	-10.3655
▁102	-10.3658
blomsterflue	-10.3662
▁148	-10.3672
▁motstand	-10.3672
▁bryn	-10.3674
▁dvs	-10.3674
▁krim	-10.3679
▁aksel	-10.3683
gjær	-10.3684
▁olaf	-10.3687
ре	-10.3689
brett	-10.3708
▁skar	-10.3712
▁regel	-10.3721
bryter	-10.3737
språklig	-10.3739
▁gross	-10.3763
komponist	-10.379
▁sannsynlig	-10.3793
▁offisielt	-10.3793
▁rudolf	-10.3793
▁sanskrit	-10.3793
▁1981	-10.3793
▁1961	-10.3793
▁1975	-10.3793
▁ukjent	-10.3793
▁church	-10.3793
▁central	-10.3794
▁noctu	-10.3794
▁archive	-10.3795
▁stortings	-10.3796
▁jordbruk	-10.3801
▁bydistrikt	-10.3801
▁lunge	-10.3804
offiser	-10.3805
▁bodø	-10.3806
▁down	-10.3808
▁llc	-10.3809
▁ernst	-10.3811
▁ånd	-10.3813
▁float	-10.3815
▁lauren	-10.3824
▁138	-10.3825
tvedt	-10.3826
▁mega	-10.3826
bestemt	-10.3828
▁nederland	-10.3829
chang	-10.3833
hånd	-10.3834
grønn	-10.3835
regn	-10.3842
▁saga	-10.3853
sønn	-10.386
▁ulv	-10.3862
▁aff	-10.3864
▁viking	-10.3865
spiss	-10.3877
▁løk	-10.3895
▁mé	-10.3898
▁qa	-10.391
▁falk	-10.3915
▁sørlig	-10.3922
roman	-10.3925
▁brenselstype	-10.3947
spørsmål	-10.3947
▁łód	-10.3947
▁support	-10.3947
▁således	-10.3947
ensemble	-10.3947
▁ungarsk	-10.3947
▁forteller	-10.3949
▁frankrike	-10.395
▁edward	-10.395
▁vanligste	-10.3959
▁regjeringen	-10.3964
▁undervisning	-10.3964
▁count	-10.3967
▁klein	-10.3971
▁forbunds	-10.3976
▁aksje	-10.3976
▁mike	-10.3982
abad	-10.3984
voks	-10.3985
▁verksted	-10.3986
▁tynn	-10.3991
hjelp	-10.3995
▁swa	-10.3998
▁white	-10.4
▁ekstra	-10.4
▁than	-10.4001
studier	-10.4004
bevegelsen	-10.4007
▁78	-10.4013
▁58	-10.4017
▁francis	-10.4025
▁dyn	-10.4028
▁morgen	-10.4034
skaja	-10.4036
▁skall	-10.4039
cup	-10.404
▁legend	-10.4041
▁indo	-10.4048
magasinet	-10.4058
stokk	-10.4078
▁kå	-10.408
▁kvin	-10.4095
▁fib	-10.4096
▁pha	-10.4097
▁vingene	-10.4102
▁individ	-10.4103
▁storbritannia	-10.4103
▁1985	-10.4103
▁sjelden	-10.4103
▁edvard	-10.4103
▁østerrike	-10.4103
▁forbinder	-10.4104
▁skøyte	-10.4105
▁tidsskriftet	-10.4105
▁kveld	-10.4106
▁jia	-10.4107
440	-10.4107
logi	-10.4108
væske	-10.4108
▁befolkningen	-10.4109
▁uttalt	-10.4117
▁marin	-10.4122
mennene	-10.4123
▁wild	-10.4129
quist	-10.4135
▁kö	-10.4144
strømmen	-10.4149
▁128	-10.4152
▁delvis	-10.4154
kommen	-10.4154
forsvar	-10.4158
vík	-10.4166
▁vokalist	-10.4168
▁mö	-10.417
▁mongol	-10.4179
▁olga	-10.4181
marked	-10.4182
markedet	-10.4185
▁luci	-10.4189
høv	-10.4195
høgskole	-10.4196
▁mä	-10.4203
ætt	-10.4211
▁nevro	-10.4225
▁bha	-10.4239
▁61	-10.4249
ruten	-10.425
▁krf	-10.4258
▁1956	-10.4262
▁islam	-10.4264
punktet	-10.4267
setting	-10.4269
▁bakgrunn	-10.427
▁sørøst	-10.4273
▁jacobsen	-10.4277
▁forvalte	-10.4277
▁muskel	-10.4278
fotograf	-10.4278
▁prins	-10.428
▁asbjørn	-10.4281
▁susan	-10.4289
utøver	-10.4291
▁yngre	-10.4296
▁67	-10.4312
ambi	-10.4315
▁öst	-10.4317
xiang	-10.4319
fløyte	-10.4323
bæk	-10.4323
▁robin	-10.433
ân	-10.433
▁fløy	-10.4334
▁jung	-10.4336
minert	-10.4339
▁300	-10.4342
▁dyrke	-10.4342
festival	-10.4343
komite	-10.4349
▁sikte	-10.4363
▁crist	-10.437
pakk	-10.4373
finalen	-10.4381
forvaltning	-10.4383
▁bedre	-10.4385
▁ej	-10.4403
▁filosofi	-10.4404
▁sats	-10.4411
ittisk	-10.4416
▁windows	-10.4423
▁heinrich	-10.4423
▁1978	-10.4423
frekvens	-10.4423
▁pasient	-10.4423
▁bakkroppen	-10.4423
▁people	-10.4423
ópolis	-10.4423
▁valuta	-10.4423
▁medlemmene	-10.4424
bryggeri	-10.4424
▁henholdsvis	-10.4424
▁protein	-10.4425
▁linux	-10.4425
▁skjedde	-10.4426
▁kallenavn	-10.4427
sykdommer	-10.443
▁1960	-10.4432
▁romersk	-10.4433
▁oversettelse	-10.4436
▁flagg	-10.4438
▁puppe	-10.4443
▁hindi	-10.4449
▁krav	-10.4449
▁mynt	-10.4461
▁alex	-10.4463
▁first	-10.4467
▁komme	-10.447
▁69	-10.4474
teater	-10.4479
front	-10.4492
▁skarp	-10.4515
▁motto	-10.4517
▁nordisk	-10.452
но	-10.4531
▁bratt	-10.4537
▁astro	-10.4538
laug	-10.4545
▁england	-10.455
aux	-10.458
▁fødsel	-10.4587
▁tilskuere	-10.4587
reise	-10.4587
▁1977	-10.4587
▁1967	-10.4587
▁1974	-10.4587
▁serbisk	-10.4587
▁prøve	-10.4588
▁sørvest	-10.4588
▁insekt	-10.4589
▁ingrid	-10.459
▁linn	-10.4591
▁bundes	-10.4592
▁pierre	-10.4594
positiv	-10.4594
▁norway	-10.4594
▁møller	-10.4596
ди	-10.46
▁metal	-10.4617
▁fritz	-10.4626
▁96	-10.463
schaft	-10.4633
▁län	-10.4642
▁93	-10.465
▁diff	-10.4653
▁josef	-10.4662
▁76	-10.4664
▁slå	-10.4678
sypress	-10.4685
sentral	-10.4687
▁måne	-10.4692
▁sving	-10.4692
iansk	-10.4694
▁lamb	-10.4698
▁rö	-10.47
▁utkom	-10.4706
amba	-10.4709
▁omhandle	-10.4711
▁læ	-10.4721
▁irsk	-10.4727
bunn	-10.4734
▁alban	-10.4743
υ	-10.4753
▁godkjent	-10.4754
▁sistnevnte	-10.4754
▁tusenårssted	-10.4754
▁passasjer	-10.4754
▁fengsel	-10.4754
▁landbruks	-10.4754
▁tegneserie	-10.4754
▁communi	-10.4756
worth	-10.4758
▁skotsk	-10.4758
▁styreleder	-10.4759
▁novell	-10.4762
rapport	-10.4762
kjører	-10.4765
▁ridder	-10.4769
▁lansert	-10.4772
▁fuji	-10.4779
▁snakke	-10.4788
▁lasse	-10.4793
▁republik	-10.4797
▁røyk	-10.4798
▁victor	-10.4804
▁04	-10.4805
jì	-10.4815
lengde	-10.4818
▁rulle	-10.4822
halvøya	-10.4837
▁glad	-10.4837
▁disp	-10.4841
døgn	-10.4844
preg	-10.4849
▁blind	-10.4863
▁statlig	-10.4867
▁novo	-10.4869
time	-10.4871
▁fritt	-10.4891
▁frihet	-10.4892
▁snu	-10.4893
▁mario	-10.4899
▁jiu	-10.4901
▁06	-10.4904
▁skyld	-10.4907
▁bære	-10.4913
▁chem	-10.4914
▁ytterkant	-10.4923
▁fortsetter	-10.4923
▁bjarne	-10.4923
▁eventyr	-10.4924
apparat	-10.4931
▁wolf	-10.4934
▁hö	-10.4936
▁1930	-10.4936
▁protest	-10.4936
▁oppnå	-10.4939
▁fyll	-10.4941
dommer	-10.4941
lidelse	-10.4942
▁jose	-10.4946
▁112	-10.4958
▁oppdrag	-10.4961
▁tråd	-10.4971
▁johnsen	-10.4978
▁little	-10.4988
▁88	-10.499
kreft	-10.5001
fylke	-10.5004
problem	-10.5005
kjøp	-10.5006
▁måned	-10.5025
▁reich	-10.5032
▁hekke	-10.5035
▁davis	-10.5037
▁tunnel	-10.5039
aften	-10.5045
▁arb	-10.5048
▁begrep	-10.5049
по	-10.5054
▁nederlandsk	-10.5059
▁were	-10.506
variant	-10.5086
▁ytterligere	-10.5096
▁kilometer	-10.5096
▁symptom	-10.5096
▁washington	-10.5096
▁trygve	-10.5096
kapasitet	-10.5096
▁1962	-10.5096
▁1966	-10.5096
▁diplom	-10.5096
▁1940	-10.5096
▁bitumen	-10.5096
▁fysisk	-10.5096
opplæring	-10.5097
▁sekund	-10.5099
institutt	-10.5117
psykologi	-10.5117
▁lengst	-10.5127
▁barnehage	-10.5131
samband	-10.5134
▁66	-10.5138
▁nød	-10.5142
▁tradisjonel	-10.5148
▁panser	-10.5152
▁singel	-10.5157
▁hög	-10.5163
utvalget	-10.517
▁australia	-10.517
▁ibn	-10.5175
sentrum	-10.5182
▁book	-10.5182
▁142	-10.5184
melding	-10.5193
ogene	-10.5195
▁petro	-10.5204
ault	-10.5214
fast	-10.5241
▁dà	-10.5243
▁arena	-10.5243
▁utøve	-10.5265
▁1955	-10.5271
▁søndag	-10.5271
▁mekanisk	-10.5271
▁regissert	-10.5272
▁know	-10.5272
▁solgte	-10.5273
▁ansatte	-10.5273
▁koreansk	-10.5273
▁avslutte	-10.5273
▁two	-10.5275
▁period	-10.5275
▁tommy	-10.5281
▁brian	-10.5285
▁gjennomført	-10.5286
▁vinnerlag	-10.5287
▁utenom	-10.5293
ière	-10.53
▁karakteristisk	-10.5301
▁zhu	-10.5313
▁night	-10.5318
nntil	-10.5323
▁trenings	-10.5331
▁homo	-10.5331
▁eb	-10.5333
bjørk	-10.5347
ugle	-10.5348
▁munk	-10.5358
▁klaus	-10.5362
▁orient	-10.5371
turbin	-10.5396
sidig	-10.5403
▁51	-10.5406
rommet	-10.5406
▁sandvik	-10.5408
▁four	-10.5413
sikkerhet	-10.5429
sending	-10.5438
▁tusen	-10.544
ская	-10.545
▁forøvrig	-10.545
▁fullstendig	-10.545
▁pradesh	-10.545
▁1969	-10.545
▁kommentar	-10.545
veksling	-10.545
▁adolf	-10.545
pedagog	-10.545
▁cirka	-10.545
▁fokus	-10.5452
▁vanskelig	-10.5452
▁finnmark	-10.5456
▁plateselskap	-10.5458
▁132	-10.546
▁when	-10.5462
▁omfattende	-10.5468
▁hong	-10.5468
gått	-10.5469
▁fungere	-10.5478
▁poeng	-10.548
▁melke	-10.5481
▁kho	-10.5483
▁niels	-10.5487
▁stadig	-10.5489
▁domini	-10.5492
sjön	-10.5498
▁emp	-10.5498
hest	-10.55
stamme	-10.55
▁krog	-10.5515
▁81	-10.5517
▁sovjetisk	-10.5524
hovedstaden	-10.5541
effekt	-10.5548
frukt	-10.5548
▁koloni	-10.555
vitenskapelig	-10.5554
▁vokste	-10.5557
universitetet	-10.5558
kunstner	-10.5562
blanding	-10.5569
treng	-10.5577
▁elias	-10.5578
▁nettsted	-10.5603
▁lü	-10.5605
▁salme	-10.563
▁kommunal	-10.5631
▁kristoffer	-10.5631
betennelse	-10.5632
▁symfoni	-10.5632
▁sympho	-10.5632
▁tromsø	-10.5632
▁hvilke	-10.5632
rettigheter	-10.5633
▁midgard	-10.5633
▁foregår	-10.5633
▁terror	-10.5634
▁eksport	-10.564
▁varianten	-10.5643
▁pistol	-10.5643
▁miao	-10.5644
▁tykk	-10.5645
▁klatre	-10.5652
▁nasjon	-10.5654
▁kapell	-10.5658
▁innført	-10.566
▁71	-10.5671
konstruksjon	-10.569
▁jury	-10.5696
fylt	-10.5698
▁bush	-10.5718
▁nerve	-10.5752
▁116	-10.5793
▁03	-10.5811
ndorf	-10.5814
▁dekkvingene	-10.5817
protokoll	-10.5817
▁innbyggerne	-10.5817
▁1971	-10.5817
▁parallell	-10.5817
▁brønn	-10.5817
▁ovenfor	-10.5817
▁strategi	-10.5817
▁fjeld	-10.5817
▁thailand	-10.5817
▁innskriften	-10.5817
▁komponert	-10.5817
artilleri	-10.5818
ław	-10.5818
▁generalsekretær	-10.5819
forsikring	-10.5819
▁padding	-10.582
▁dårlig	-10.582
▁foretrekke	-10.5821
▁nyhets	-10.5822
straße	-10.5822
▁telemark	-10.5825
monument	-10.5825
familie	-10.5826
▁jackson	-10.583
▁nepal	-10.583
▁øystein	-10.5833
▁ungdomsskole	-10.5836
▁circ	-10.5841
afrikansk	-10.5845
▁nettside	-10.5852
▁hundre	-10.5855
duct	-10.586
▁kaffe	-10.5861
▁organisert	-10.5867
▁kreert	-10.588
▁aero	-10.5888
▁thom	-10.5894
foretak	-10.59
iseres	-10.5909
historisk	-10.5929
▁fair	-10.5943
▁edel	-10.5946
ablo	-10.5967
ional	-10.5975
▁fyrste	-10.5978
▁sammenlign	-10.5983
▁reform	-10.5999
direktorat	-10.6005
▁association	-10.6005
▁millimeter	-10.6005
▁vedlikehold	-10.6005
▁regissør	-10.6005
▁jacque	-10.6005
▁kenneth	-10.6005
▁terreng	-10.6006
▁kristiansand	-10.6006
▁poll	-10.6006
▁etterfølger	-10.6006
dimensjon	-10.6006
hastighet	-10.6007
▁prinsesse	-10.6007
▁slanke	-10.6007
▁håndball	-10.6011
▁høyesterett	-10.6017
tavle	-10.602
▁point	-10.6021
▁vandre	-10.6025
ovic	-10.603
▁overflate	-10.6031
▁luther	-10.6034
bregne	-10.6034
▁skrå	-10.6049
ти	-10.6059
forsyning	-10.606
▁hilde	-10.6074
▁henning	-10.6079
▁vidar	-10.6088
gods	-10.6095
▁kongelig	-10.6108
näs	-10.6116
wall	-10.6138
ifikasjon	-10.6168
▁kongedømme	-10.6198
▁skulptur	-10.6198
▁asteroide	-10.6198
▁etterhvert	-10.6198
▁initiativ	-10.6198
▁evangeli	-10.6198
▁utmerkelse	-10.6198
▁1959	-10.6198
▁generelt	-10.6198
▁1954	-10.6198
▁costa	-10.6198
produkt	-10.6199
▁ansikt	-10.62
▁kobber	-10.62
▁space	-10.6203
▁demningen	-10.621
▁meyer	-10.6211
▁sammenlagt	-10.6214
▁eirik	-10.6215
▁allmenn	-10.6218
▁91	-10.6224
▁opprør	-10.6225
radio	-10.6232
toft	-10.6251
flåte	-10.6266
lândia	-10.6273
bahn	-10.6295
▁inneha	-10.6296
▁castel	-10.6299
▁blanc	-10.6311
▁fish	-10.6315
akademi	-10.6325
transport	-10.6326
▁sesong	-10.635
▁victoria	-10.6352
forstyrrelse	-10.6394
▁doktorgrad	-10.6394
▁utnevnt	-10.6394
kompetanse	-10.6394
▁1957	-10.6394
▁1952	-10.6394
▁1936	-10.6394
konferanse	-10.6394
älven	-10.6394
▁zhang	-10.6394
▁regulere	-10.6395
▁senior	-10.6395
▁gråbrun	-10.6396
▁firmaet	-10.6398
▁disney	-10.6398
▁medisinsk	-10.6399
▁micro	-10.6401
▁komposisjon	-10.6401
egenskaper	-10.6401
▁moore	-10.6402
▁hormon	-10.6404
▁sammenheng	-10.6404
▁hvordan	-10.6405
vegetasjon	-10.6407
▁xiao	-10.6409
høyden	-10.641
ucci	-10.6419
▁report	-10.642
qiao	-10.6421
styring	-10.6422
zhuang	-10.6422
▁diesel	-10.6423
▁automatisk	-10.6423
støtte	-10.6438
▁gill	-10.6457
▁vincen	-10.647
▁aqu	-10.6489
▁kvinnelig	-10.6492
pleie	-10.652
rydd	-10.6532
bølge	-10.6539
▁utenriks	-10.6555
sletten	-10.6589
▁aleksandr	-10.6594
▁infanteri	-10.6594
▁sjeldne	-10.6594
vassdraget	-10.6594
▁ukraina	-10.6594
▁airlines	-10.6594
▁taylor	-10.6594
▁1945	-10.6594
nøkkel	-10.6594
▁eventuel	-10.6594
▁grün	-10.6594
▁stephen	-10.6594
▁studioalbum	-10.6594
▁jødisk	-10.6594
▁skildre	-10.6594
▁redusert	-10.6595
▁axel	-10.6595
▁skjønn	-10.6595
▁bmw	-10.6595
▁bærum	-10.6595
▁redusere	-10.6596
▁kriminal	-10.6596
▁lakse	-10.6597
mouth	-10.6597
▁stiftelsen	-10.6597
▁inndelingen	-10.6599
▁werner	-10.6599
faktor	-10.6603
▁bernard	-10.6605
▁lisens	-10.6616
▁which	-10.6617
▁ledende	-10.6619
▁kevin	-10.6629
biologi	-10.6652
▁other	-10.6653
▁revers	-10.666
fødte	-10.6685
▁otta	-10.6711
▁gitarist	-10.6714
▁kill	-10.672
arkitekt	-10.6738
konsert	-10.6741
chuan	-10.675
høyskole	-10.6753
ytelse	-10.6757
▁utløp	-10.6761
▁hovedkvarter	-10.6798
▁trøndelag	-10.6798
▁syndrom	-10.6798
▁alexandr	-10.6798
▁pepper	-10.6799
▁hypot	-10.6802
▁avledet	-10.6802
▁fremstille	-10.6804
▁fremført	-10.6807
▁lengre	-10.6808
▁wilson	-10.6811
▁1950	-10.6812
førsel	-10.6813
drevet	-10.6822
▁utnytte	-10.6823
▁skygge	-10.6851
owski	-10.6885
▁barneskole	-10.6885
forestilling	-10.6902
▁palass	-10.6942
face	-10.6968
▁trø	-10.7006
▁publikum	-10.7006
▁suksess	-10.7006
▁ludvig	-10.7006
▁fenomen	-10.7006
▁1939	-10.7006
▁1963	-10.7006
▁krydder	-10.7006
rådgiver	-10.7006
▁ragnar	-10.7006
sekvens	-10.7007
▁utbredt	-10.7007
▁tørke	-10.7009
▁spredt	-10.7009
▁tibet	-10.7012
▁viktor	-10.7018
▁snart	-10.7021
▁isteden	-10.7029
qvist	-10.7032
▁oberst	-10.7034
▁angir	-10.7036
▁hugh	-10.7037
▁spesifik	-10.7039
eksamen	-10.704
fysikk	-10.7068
▁medalje	-10.7085
lilje	-10.7117
▁registrert	-10.7117
mongolsk	-10.7121
▁marcel	-10.716
бо	-10.7164
orientert	-10.7215
▁mountain	-10.7219
▁research	-10.7219
▁utelukkende	-10.7219
konservativ	-10.7219
▁litauisk	-10.7219
▁musikalsk	-10.7219
▁douglas	-10.7219
▁pattedyr	-10.7219
▁abraham	-10.7219
bataljon	-10.7219
▁1941	-10.7219
▁maksim	-10.7219
▁vietnamesisk	-10.7219
▁prince	-10.7219
▁theodor	-10.722
▁oversikt	-10.722
▁batteri	-10.722
holdsvis	-10.7221
▁brent	-10.7223
betjent	-10.7223
▁embets	-10.7224
▁varianter	-10.7225
▁2018	-10.7227
▁francisco	-10.7227
▁salix	-10.723
▁intens	-10.7232
▁hendelse	-10.7234
døgnfluer	-10.7235
balanse	-10.7235
▁bønn	-10.7242
▁dokumentar	-10.7251
▁bedrifts	-10.7262
ground	-10.7282
▁place	-10.7332
▁harmoni	-10.7347
fordeling	-10.7373
▁hovedrollen	-10.7381
pumpe	-10.7396
dialekt	-10.7397
▁automat	-10.7414
dekket	-10.7415
▁knop	-10.7418
schau	-10.7419
▁favoritt	-10.7436
▁inspirert	-10.7436
▁microsoft	-10.7436
▁satellitt	-10.7436
▁corporation	-10.7436
▁orchestra	-10.7436
▁utdødd	-10.7436
▁buddhist	-10.7436
▁oppstår	-10.7436
▁amundsen	-10.7436
▁1929	-10.7436
▁1938	-10.7436
▁charlotte	-10.7436
▁stortinget	-10.7437
▁valentin	-10.7437
▁brigade	-10.7437
▁hjelm	-10.7437
infeksjon	-10.7438
▁claudi	-10.7439
▁elektronisk	-10.7439
▁arbeiderpartiet	-10.744
trådte	-10.7441
▁departement	-10.7441
▁fuktig	-10.7443
▁leonard	-10.7444
▁nkp	-10.7446
▁landskapet	-10.7448
verktøy	-10.7451
kjøl	-10.7452
▁dream	-10.7458
▁tilpasse	-10.7469
▁hvile	-10.7476
▁samuel	-10.7481
мо	-10.7494
oidea	-10.7505
ribbe	-10.7518
▁symbolisere	-10.7527
▁beregne	-10.7535
derav	-10.7537
gnano	-10.7539
ović	-10.7576
▁filosof	-10.7585
▁jøde	-10.7592
bilitet	-10.7623
tekst	-10.7639
skilpadde	-10.7658
▁kollektiv	-10.7658
▁münchen	-10.7658
▁norwegian	-10.7658
▁religiøs	-10.7658
▁vingespenn	-10.7658
▁aleksander	-10.7658
▁færøyene	-10.7658
▁kennedy	-10.7658
▁selvstendig	-10.7658
▁hverandre	-10.7658
▁1928	-10.7659
▁grunnkretsen	-10.7659
▁sykdommen	-10.7659
▁gymnas	-10.7659
▁betrakte	-10.7659
gjøring	-10.7659
▁ekstrem	-10.7659
▁über	-10.766
▁definert	-10.766
pryd	-10.766
▁gregor	-10.7661
▁akutt	-10.7661
▁våt	-10.7663
▁country	-10.7666
▁command	-10.7666
▁donald	-10.7667
▁francesc	-10.7671
▁formula	-10.7673
kostnad	-10.7682
▁hersker	-10.7683
knapp	-10.7684
spreng	-10.7738
della	-10.7761
flate	-10.7781
▁austral	-10.7793
republikk	-10.7811
utgaven	-10.7827
politi	-10.7831
▁hytte	-10.7847
kansler	-10.7859
måke	-10.7879
▁petroleum	-10.7886
▁litauen	-10.7886
▁håvard	-10.7886
▁könig	-10.7886
▁1948	-10.7886
▁eivind	-10.7886
▁special	-10.7886
▁bokstaven	-10.7886
▁moskva	-10.7886
▁opererer	-10.7886
ου	-10.7887
▁hvem	-10.7887
▁nyheter	-10.7887
▁spania	-10.7887
script	-10.7887
komité	-10.7887
▁opptrer	-10.7888
▁tildeles	-10.7889
▁nasjonalsang	-10.7891
▁kongsberg	-10.7891
▁arkeolog	-10.7892
järvi	-10.7892
▁express	-10.7893
▁debutert	-10.7897
kvartett	-10.7903
▁henriksen	-10.7903
▁rapporter	-10.7908
syssel	-10.7914
▁viklere	-10.7916
▁sosialistisk	-10.7919
▁flyselskap	-10.7938
måte	-10.7944
pølse	-10.7947
masse	-10.7978
periode	-10.7981
størrelse	-10.8008
▁sovjet	-10.8021
krem	-10.8027
▁nådd	-10.8034
sæter	-10.8056
нов	-10.8074
beskrivelse	-10.8077
▁vietnam	-10.8118
▁innbefatte	-10.8118
▁ludwig	-10.8118
▁guvernør	-10.8118
▁mexico	-10.8118
▁admiral	-10.8118
▁1935	-10.8118
▁1953	-10.8118
▁kapital	-10.8118
▁alvorlig	-10.8119
▁capital	-10.8119
▁embeds	-10.8119
assistent	-10.8119
▁control	-10.812
kjøring	-10.8121
▁taiwan	-10.8121
▁nærmere	-10.8121
gericht	-10.8122
▁edmund	-10.8127
▁nederst	-10.8131
▁trenger	-10.8131
▁stryk	-10.8132
▁bedriften	-10.8142
▁veldig	-10.8151
klokke	-10.8219
▁årsak	-10.8243
▁forklare	-10.8255
▁utvikle	-10.8282
▁nøtte	-10.83
▁kronprins	-10.8356
▁eksperiment	-10.8356
▁færøysk	-10.8356
▁langrennsløper	-10.8356
▁ragnhild	-10.8356
▁anvendes	-10.8356
▁identifiser	-10.8356
▁arrangert	-10.8356
▁frederick	-10.8356
▁natrium	-10.8356
▁overlevde	-10.8356
▁1937	-10.8357
▁patrick	-10.8357
▁1905	-10.8357
▁øivin	-10.8357
▁vunnet	-10.8357
▁strøk	-10.8357
▁valgdelta	-10.8357
▁fremstilt	-10.8357
jīng	-10.8358
▁sibir	-10.8358
ressurs	-10.8358
▁sannhet	-10.8358
▁colomb	-10.8359
▁bernhard	-10.8359
▁lewis	-10.8359
▁wolfgang	-10.8359
▁ekteskap	-10.836
▁xiàn	-10.836
▁airport	-10.836
▁hovedartikkel	-10.8361
▁kredit	-10.8363
relatert	-10.8366
▁monark	-10.8366
▁vestfold	-10.8366
vandring	-10.8374
smykke	-10.8382
korset	-10.8399
▁bestemme	-10.8419
▁maritim	-10.8444
hjørn	-10.8474
▁astronom	-10.848
fellesskap	-10.8519
grunnlag	-10.8558
▁title	-10.856
▁pseudo	-10.86
▁inskripsjon	-10.86
beskyttelse	-10.86
lokomotiv	-10.86
ский	-10.86
▁selvbiografi	-10.86
▁ferskvann	-10.86
▁referanse	-10.86
▁1958	-10.86
▁lørdag	-10.86
▁would	-10.86
leverandør	-10.8601
▁trompet	-10.8601
▁psych	-10.8601
▁project	-10.8601
▁finskspråklig	-10.8601
▁margaret	-10.8602
konsept	-10.8602
▁steffen	-10.8602
komponent	-10.8602
forretning	-10.8603
▁trasé	-10.8606
▁pastor	-10.8606
▁programvare	-10.8607
▁iversen	-10.8609
▁betong	-10.8612
▁tjener	-10.8621
▁bevart	-10.8622
▁plassering	-10.8632
▁earl	-10.8639
▁idrettsforening	-10.8642
▁oppleve	-10.8646
▁slange	-10.8648
hvelv	-10.866
▁administrasjon	-10.8668
givelse	-10.8689
▁larve	-10.8701
dyktig	-10.872
▁datterselskap	-10.875
че	-10.8782
høns	-10.88
▁hertug	-10.8832
litteratur	-10.8838
ansvarlig	-10.8838
▁sebastian	-10.885
▁mercedes	-10.885
territorie	-10.885
▁tilføyd	-10.885
▁xinjiang	-10.885
▁respekt	-10.885
▁tvilling	-10.885
▁wylie	-10.885
▁1946	-10.885
▁ålesund	-10.885
▁cappelen	-10.8851
▁situasjon	-10.8851
▁detroit	-10.8851
▁fjellkjede	-10.8851
▁geometr	-10.8851
▁regelmessig	-10.8851
▁where	-10.8851
▁strekningen	-10.8851
ński	-10.8852
▁christensen	-10.8852
mekanisme	-10.8853
▁styremedlem	-10.8853
▁arendal	-10.8855
▁serbia	-10.8856
▁boston	-10.8859
га	-10.886
▁krevd	-10.886
▁effektiv	-10.8871
utenriksminister	-10.89
▁etnisk	-10.8907
▁døgnflue	-10.8933
▁oversette	-10.8959
deutsch	-10.897
▁hjørne	-10.8982
følelse	-10.8995
▁frels	-10.9026
bestemmelse	-10.9067
▁aftenposten	-10.9107
▁aluminium	-10.9107
▁elizabeth	-10.9107
▁entertainment	-10.9107
▁ferdinand	-10.9107
▁olympisk	-10.9107
▁portugisisk	-10.9107
▁tønsberg	-10.9107
terapeut	-10.9107
▁business	-10.9107
▁malaysia	-10.9107
▁benjamin	-10.9107
▁chicago	-10.9107
▁amfibi	-10.9107
▁kombinert	-10.9107
leksikon	-10.9107
▁tyrkia	-10.9107
▁1942	-10.9107
▁1944	-10.9107
▁geografisk	-10.9107
▁köln	-10.9107
flaggermus	-10.9107
▁ungarn	-10.9107
konvensjon	-10.9108
▁muslim	-10.9108
▁systematisk	-10.9108
kombinasjon	-10.9108
▁kråk	-10.9108
▁søvn	-10.9109
▁funnstedet	-10.9109
▁groß	-10.911
açu	-10.9114
▁heinz	-10.9115
▁western	-10.9116
▁detalj	-10.9116
▁stedsnavn	-10.912
▁myhre	-10.9121
▁jernbanestasjon	-10.9124
▁sergej	-10.9127
▁nevnt	-10.9128
▁kritikk	-10.9162
glass	-10.9174
tilhenger	-10.9219
croi	-10.9232
skrevet	-10.9242
signal	-10.9256
efinner	-10.9304
kirche	-10.9356
▁lawrence	-10.937
▁network	-10.937
▁philadelphia	-10.937
▁tortricidae	-10.937
▁trommeslager	-10.937
▁oksygen	-10.937
▁joachim	-10.937
▁kapittel	-10.937
▁patriark	-10.937
▁wergeland	-10.937
▁antagelig	-10.937
▁molekyl	-10.937
▁hockey	-10.937
▁zhōng	-10.937
▁1951	-10.937
▁igjennom	-10.937
▁1904	-10.937
▁uigur	-10.937
▁1883	-10.937
▁wagner	-10.937
▁kroatisk	-10.937
▁apollo	-10.9371
▁essay	-10.9371
▁separat	-10.9371
▁diverse	-10.9373
ый	-10.9373
traktat	-10.9374
▁fullført	-10.9375
▁sofia	-10.9376
▁armensk	-10.9378
▁columb	-10.9378
▁smelte	-10.9384
▁anatol	-10.9385
▁tropisk	-10.9386
▁elsker	-10.9386
▁komponisten	-10.9389
▁regjere	-10.939
▁rifle	-10.9402
svermer	-10.9411
▁spyd	-10.9418
▁fasci	-10.9429
kalender	-10.944
region	-10.945
▁tilfelle	-10.9455
▁overføre	-10.9528
mottak	-10.9578
bevegelse	-10.9582
administra	-10.964
▁anerkjent	-10.964
▁jomfru	-10.964
▁medvirkende	-10.964
▁society	-10.964
▁tsjekkisk	-10.964
▁vennskapsbyer	-10.964
▁flerårig	-10.964
▁gråhvit	-10.964
▁salvador	-10.964
▁tilsluttet	-10.964
▁vilhelm	-10.964
▁selvmord	-10.964
▁erobret	-10.964
▁1947	-10.964
▁reklame	-10.964
▁1933	-10.964
presentasjon	-10.964
▁1899	-10.964
▁rumensk	-10.9641
▁stephan	-10.9641
▁risiko	-10.9641
▁zhong	-10.9641
▁astrid	-10.9641
▁innsats	-10.9642
▁tegl	-10.9643
▁føderal	-10.9643
▁abdul	-10.9644
▁again	-10.9645
▁generell	-10.9649
▁romsdal	-10.9653
vytsj	-10.9656
▁glenn	-10.9665
underholdning	-10.9665
▁varemerke	-10.9764
gudinnen	-10.9765
lavere	-10.9908
▁bokstavelig	-10.9918
▁keyboard	-10.9918
▁virginia	-10.9918
▁benedict	-10.9918
▁østerriksk	-10.9918
▁konkurrere	-10.9918
▁respons	-10.9918
▁akershus	-10.9918
▁limited	-10.9918
▁pakistan	-10.9918
▁kvadrat	-10.9918
▁html	-10.9918
▁hyppig	-10.9918
▁trondhjems	-10.9918
▁høyhastighets	-10.9918
▁fjernsyns	-10.9918
▁1949	-10.9918
▁1926	-10.9918
▁søndre	-10.9918
▁björn	-10.9918
▁1896	-10.9918
▁1844	-10.9918
▁skrivemåte	-10.9918
▁heavy	-10.9918
▁valutakode	-10.9919
▁slovensk	-10.9919
▁second	-10.9919
▁claude	-10.9919
▁valgspråk	-10.9922
▁elleve	-10.9923
▁spirit	-10.9923
þ	-10.9935
tradisjon	-10.9935
europeisk	-10.9936
▁brahm	-10.9955
vennlig	-10.9962
forsamlingen	-10.9971
▁plantefamilie	-10.9971
▁praktiser	-11.0088
ві	-11.0097
fatning	-11.01
▁aserbajdsjan	-11.0204
▁california	-11.0204
▁democrat	-11.0204
▁françois	-11.0204
▁kontinental	-11.0204
▁technology	-11.0204
▁nødvendig	-11.0204
▁lillehammer	-11.0204
▁synonym	-11.0204
▁intervju	-11.0204
▁definerer	-11.0204
▁raymond	-11.0204
▁bystatus	-11.0204
▁alfabet	-11.0204
▁svovel	-11.0204
▁testament	-11.0204
▁oxford	-11.0204
▁1907	-11.0204
▁1934	-11.0204
▁1891	-11.0204
▁marilyn	-11.0204
▁ødelegge	-11.0204
▁1882	-11.0204
▁1884	-11.0204
diagnose	-11.0204
pyramide	-11.0204
▁storkommunen	-11.0205
▁belgisk	-11.0206
▁litterær	-11.0207
▁kjørt	-11.0209
▁enzym	-11.0209
trukket	-11.0274
▁result	-11.0454
ń	-11.0496
▁frankfurt	-11.0498
▁frilufts	-11.0498
▁substantiv	-11.0498
▁tsjekkia	-11.0498
▁utgangspunkt	-11.0498
▁göteborg	-11.0498
▁involver	-11.0498
▁management	-11.0498
øyenstikker	-11.0498
▁waldemar	-11.0498
▁halvorsen	-11.0498
▁utspring	-11.0498
▁schwarz	-11.0498
▁league	-11.0498
▁1888	-11.0498
▁grammatik	-11.0498
▁1866	-11.0498
▁hovedpersonen	-11.0498
▁anerkjenne	-11.0498
▁sandefjord	-11.0498
▁utvidet	-11.0498
▁innenriks	-11.0498
▁jelena	-11.0499
materiell	-11.05
teatret	-11.05
▁bosetningen	-11.0501
▁biologisk	-11.0502
håndtering	-11.0508
▁hemmelig	-11.0509
tilsynet	-11.0515
▁birgit	-11.053
skjul	-11.0531
artiklene	-11.0552
▁grevskape	-11.057
finansiert	-11.0582
ć	-11.0606
lokale	-11.061
▁barokk	-11.066
▁betjene	-11.0695
kreps	-11.0733
utdanne	-11.0745
overflaten	-11.0773
instruktør	-11.0801
▁begynnelse	-11.0801
▁beseiret	-11.0801
▁konflikt	-11.0801
▁ortodoks	-11.0801
▁svalbard	-11.0801
▁rekrutt	-11.0801
▁elefant	-11.0801
▁installert	-11.0801
geschicht	-11.0801
▁frazioni	-11.0801
▁absolut	-11.0801
kommandant	-11.0801
kommandør	-11.0801
▁juridisk	-11.0801
▁gælisk	-11.0801
▁montreal	-11.0801
▁1924	-11.0801
▁texas	-11.0801
▁negativ	-11.0801
▁fellow	-11.0801
förbund	-11.0801
▁nemlig	-11.0801
regulering	-11.0802
sylindre	-11.0803
▁jørn	-11.0803
▁puerto	-11.0804
▁komedie	-11.0806
føderasjon	-11.0816
▁cruise	-11.0835
teknisk	-11.085
▁database	-11.0948
gjerd	-11.0955
inspektør	-11.1113
▁barcelona	-11.1113
▁distribusjon	-11.1113
▁innflytelse	-11.1113
▁jesuittordenen	-11.1113
▁kambodsja	-11.1113
▁klassifisere	-11.1113
▁pseudonym	-11.1113
konsulent	-11.1113
disiplin	-11.1113
▁advance	-11.1113
▁konstitu	-11.1113
▁fantasy	-11.1113
▁1908	-11.1114
▁gmbh	-11.1114
▁1900	-11.1114
▁1878	-11.1114
▁kombinere	-11.1114
▁mikael	-11.1114
ñ	-13.0552
