<unk>	0
<s>	0
</s>	0
.	-3.26327
s	-3.55715
e	-3.57736
▁i	-3.62862
▁og	-3.91144
▁	-3.96104
er	-4.15344
t	-4.15835
en	-4.23084
▁av	-4.3985
r	-4.52329
▁er	-4.58817
▁en	-4.59879
▁som	-4.64407
▁for	-4.7508
▁til	-4.77493
▁på	-4.87197
n	-4.93177
et	-4.99078
▁med	-5.0175
▁den	-5.07896
▁ble	-5.14173
▁var	-5.20316
▁det	-5.24015
▁de	-5.25901
▁fra	-5.42002
a	-5.46765
▁å	-5.49744
▁han	-5.50222
▁et	-5.55768
▁har	-5.59756
ene	-5.63498
ne	-5.82448
i	-5.8508
d	-5.89111
▁at	-5.94381
▁ved	-5.9728
k	-6.02121
o	-6.02393
▁om	-6.11041
y	-6.11129
te	-6.11834
▁etter	-6.15024
▁også	-6.15177
g	-6.19446
m	-6.24334
▁ut	-6.24452
re	-6.25265
p	-6.2782
▁under	-6.28444
de	-6.33792
▁men	-6.34869
l	-6.38159
f	-6.40287
▁eller	-6.41806
ing	-6.4767
▁over	-6.49128
▁to	-6.498
▁inn	-6.50156
▁da	-6.51118
▁seg	-6.51843
▁opp	-6.51976
v	-6.55307
▁kan	-6.56785
▁hadde	-6.56897
h	-6.59906
▁ikke	-6.61283
▁s	-6.62493
▁be	-6.65044
▁a	-6.65274
in	-6.6581
▁sin	-6.72419
▁andre	-6.74765
b	-6.75078
c	-6.77197
le	-6.80053
▁mot	-6.80999
us	-6.81285
▁18	-6.83401
an	-6.83476
▁mellom	-6.83812
▁født	-6.85532
is	-6.86399
al	-6.87498
▁f	-6.8775
sk	-6.88109
▁første	-6.89764
▁hans	-6.90465
▁hun	-6.90675
▁dette	-6.9078
on	-6.91486
ar	-6.92703
▁ha	-6.9278
u	-6.94143
▁bli	-6.96082
▁tre	-6.97728
▁the	-6.99278
ter	-7.00037
na	-7.01426
la	-7.02017
st	-7.03471
sen	-7.03814
▁m	-7.05287
▁1	-7.06947
lig	-7.07972
▁der	-7.08378
▁g	-7.09992
ende	-7.10143
▁sammen	-7.10352
z	-7.10794
▁nord	-7.10851
▁denne	-7.12654
blant	-7.12943
▁fikk	-7.1346
▁u	-7.16552
▁k	-7.16582
▁år	-7.17164
▁kom	-7.18699
▁flere	-7.18921
▁la	-7.19185
di	-7.20224
▁ligger	-7.21088
ri	-7.22011
w	-7.23159
▁2	-7.23369
ens	-7.23979
▁man	-7.2449
▁b	-7.25067
ia	-7.25243
ur	-7.25383
j	-7.26549
land	-7.2674
▁d	-7.26805
▁ca	-7.27683
um	-7.28921
▁se	-7.31377
▁del	-7.31695
▁3	-7.31862
ske	-7.3202
ma	-7.32084
ta	-7.32652
▁stor	-7.33014
▁her	-7.3364
ke	-7.34206
▁17	-7.34578
be	-7.34625
▁før	-7.34781
▁nå	-7.35071
▁gjennom	-7.35549
ra	-7.36591
or	-7.38001
▁død	-7.39036
ler	-7.39415
▁hvor	-7.39461
▁alle	-7.39772
nes	-7.40137
▁norsk	-7.40391
ck	-7.40841
▁of	-7.41084
li	-7.41702
▁mange	-7.41753
ch	-7.42189
▁re	-7.4269
▁c	-7.42813
x	-7.42879
▁an	-7.43644
øy	-7.43737
ng	-7.44181
as	-7.44207
vis	-7.44676
▁ny	-7.44841
▁5	-7.45191
iske	-7.45381
ig	-7.4551
nde	-7.45722
isk	-7.45985
▁så	-7.46049
el	-7.46846
▁h	-7.4742
▁kommune	-7.48206
▁mer	-7.48358
▁byen	-7.48635
lo	-7.49962
▁tidligere	-7.50598
▁al	-7.50627
os	-7.50727
ut	-7.50814
▁4	-7.50907
ton	-7.515
den	-7.51635
▁disse	-7.52211
il	-7.52351
ry	-7.5312
é	-7.53752
▁annet	-7.5413
ning	-7.5471
▁være	-7.54752
for	-7.54863
ver	-7.55728
▁kon	-7.5609
▁p	-7.56132
▁senere	-7.56488
lige	-7.5707
▁noen	-7.5748
kt	-7.57483
at	-7.58014
▁selv	-7.59379
▁sitt	-7.59386
▁sør	-7.59955
▁15	-7.60654
▁tallet	-7.61065
▁kjent	-7.61314
▁siden	-7.61539
▁t	-7.62152
der	-7.6244
ol	-7.62457
▁kr	-7.62496
it	-7.62718
▁sa	-7.63629
▁vest	-7.63673
ner	-7.63936
▁land	-7.64737
▁vi	-7.65445
ga	-7.65619
to	-7.65764
bo	-7.65851
▁ro	-7.6591
son	-7.65928
ve	-7.65939
ad	-7.66893
▁store	-7.66998
ul	-7.67266
▁norge	-7.67642
▁16	-7.68132
▁st	-7.68247
▁mens	-7.68584
ger	-7.68651
da	-7.68807
me	-7.69031
▁10	-7.70388
het	-7.70592
man	-7.70775
stad	-7.71194
▁rundt	-7.71374
▁ra	-7.71645
▁v	-7.72252
▁vil	-7.72995
▁le	-7.73104
▁by	-7.73195
▁hoved	-7.73384
▁he	-7.73715
erte	-7.75616
ff	-7.76034
mp	-7.76418
ge	-7.76431
▁sine	-7.76453
▁ofte	-7.76712
▁blitt	-7.7676
erne	-7.77161
th	-7.7747
▁vært	-7.77598
dal	-7.78009
▁6	-7.78574
▁ga	-7.78619
▁grunn	-7.78716
▁co	-7.79109
▁ol	-7.7913
ka	-7.79184
ll	-7.79336
▁navnet	-7.79531
▁mest	-7.79616
mann	-7.79881
▁både	-7.79896
▁ti	-7.79926
men	-7.79966
ro	-7.80047
▁samme	-7.80058
▁lag	-7.80064
▁li	-7.80547
id	-7.80654
å	-7.80803
▁øst	-7.80873
▁ham	-7.81369
mer	-7.81903
▁frem	-7.8207
▁dag	-7.82138
▁l	-7.82528
gen	-7.83301
ist	-7.83539
▁finnes	-7.84247
▁bo	-7.84266
▁pro	-7.84422
▁du	-7.84718
ø	-7.84891
▁tid	-7.84917
ba	-7.85381
▁kunne	-7.85623
ic	-7.86646
ste	-7.86786
▁8	-7.8722
▁kalt	-7.87467
▁ned	-7.87494
▁km	-7.87676
▁ni	-7.8783
▁fri	-7.87908
tor	-7.87918
ling	-7.8798
ja	-7.88003
▁7	-7.88218
▁di	-7.88397
mi	-7.88553
▁skal	-7.88596
▁12	-7.88675
sa	-7.8901
▁n	-7.89364
pp	-7.89807
▁fram	-7.8994
opp	-7.90142
▁nye	-7.90144
mo	-7.90182
▁j	-7.90231
▁navn	-7.90481
▁norske	-7.90716
op	-7.91114
▁enn	-7.91271
▁amerikansk	-7.91277
skap	-7.91745
▁noe	-7.92108
▁per	-7.92278
vi	-7.92291
▁gikk	-7.92602
▁tilbake	-7.92758
▁ba	-7.92905
▁mars	-7.93058
by	-7.93368
▁ta	-7.93476
▁fa	-7.93793
▁bak	-7.93957
▁w	-7.94006
berg	-7.94024
▁vant	-7.94159
▁bu	-7.94418
▁slik	-7.94978
▁bare	-7.95549
ker	-7.95617
ster	-7.95704
▁skulle	-7.95705
æ	-7.95736
ell	-7.95966
▁y	-7.96161
▁ho	-7.96166
ha	-7.96343
si	-7.96394
nd	-7.96978
▁mai	-7.97106
▁o	-7.97754
▁mor	-7.98269
▁in	-7.99006
un	-7.99115
▁januar	-7.99256
▁mo	-7.99404
co	-7.99499
▁no	-7.9955
rett	-7.99557
▁sp	-7.99562
pe	-7.99655
▁fire	-7.99813
sel	-7.9996
▁lo	-7.9997
av	-7.99982
kk	-8.00031
▁si	-8.00086
▁far	-8.00565
ør	-8.00929
▁mar	-8.01457
▁hos	-8.01993
▁pi	-8.02278
asjon	-8.02745
▁samt	-8.03138
▁største	-8.03199
ven	-8.0328
▁tok	-8.0328
▁går	-8.03293
▁el	-8.03321
go	-8.03375
▁juli	-8.03388
▁ei	-8.03503
ä	-8.03841
▁august	-8.042
▁kirke	-8.04549
▁oslo	-8.04593
am	-8.05297
po	-8.05402
ö	-8.05956
ir	-8.06375
år	-8.06645
▁as	-8.06699
▁gang	-8.06813
▁9	-8.07472
ang	-8.07984
▁hele	-8.08022
▁ka	-8.08044
▁po	-8.08696
ko	-8.08969
▁000	-8.09108
▁lang	-8.0927
vik	-8.09654
▁meter	-8.09769
▁bi	-8.09905
ti	-8.09964
▁rett	-8.09981
ok	-8.10007
▁film	-8.1026
▁14	-8.10345
▁mål	-8.10468
lse	-8.10494
hold	-8.10877
▁na	-8.10953
else	-8.1102
▁13	-8.11145
ær	-8.11529
om	-8.11545
▁ma	-8.1178
ant	-8.1201
▁gi	-8.12052
▁juni	-8.12064
va	-8.12295
▁20	-8.12341
▁tro	-8.1253
▁me	-8.13244
▁sk	-8.13323
▁go	-8.13519
ty	-8.13559
▁dem	-8.13635
bi	-8.14076
▁usa	-8.14108
gi	-8.14238
▁siste	-8.14749
▁november	-8.14887
▁utgitt	-8.14954
ce	-8.15235
au	-8.1531
ly	-8.15439
á	-8.16021
je	-8.16235
▁september	-8.16716
▁spilte	-8.16861
ering	-8.16865
▁su	-8.16885
▁ar	-8.17475
▁bar	-8.17609
do	-8.17616
ring	-8.17904
bu	-8.17979
pa	-8.18093
var	-8.18506
▁ri	-8.1852
tre	-8.18878
▁få	-8.18903
▁kl	-8.19104
▁igjen	-8.19426
▁fly	-8.19588
▁11	-8.19883
1	-8.19987
del	-8.20417
▁r	-8.20449
gang	-8.20814
▁april	-8.21334
▁2008	-8.21338
▁leder	-8.21983
▁2007	-8.21984
▁and	-8.22174
▁pa	-8.22382
▁or	-8.22449
▁musikk	-8.22513
▁vann	-8.22803
▁nær	-8.22865
▁skole	-8.2322
io	-8.23293
lag	-8.23375
▁sønn	-8.23644
▁tillegg	-8.23967
▁0	-8.24412
no	-8.24687
ns	-8.24727
ak	-8.24761
▁ru	-8.24782
▁deres	-8.24871
▁området	-8.25399
▁rekke	-8.25421
▁2010	-8.25511
od	-8.25577
▁so	-8.25796
ion	-8.26141
▁san	-8.26144
▁oktober	-8.26401
▁sol	-8.26439
▁spiller	-8.26842
gg	-8.26916
▁jo	-8.27222
per	-8.27326
sted	-8.27411
ru	-8.27573
▁ak	-8.27716
kker	-8.2801
ho	-8.28113
▁john	-8.28229
▁eks	-8.28351
▁fem	-8.28416
ov	-8.28446
▁uten	-8.28729
ans	-8.28796
sh	-8.29032
▁februar	-8.2985
▁består	-8.29865
▁form	-8.30133
▁lu	-8.30217
nt	-8.30321
▁innen	-8.30418
▁new	-8.30441
▁helt	-8.30599
kke	-8.30664
3	-8.309
▁begynte	-8.30916
▁ju	-8.31226
▁desember	-8.31263
▁må	-8.32118
ca	-8.32128
▁først	-8.32359
▁laget	-8.32594
▁brukes	-8.32855
▁mindre	-8.32953
▁tv	-8.32998
▁vanlig	-8.33032
▁imidlertid	-8.3318
▁små	-8.33238
▁tor	-8.33425
▁30	-8.33691
sta	-8.33977
len	-8.34122
ium	-8.34127
les	-8.34128
▁kinesisk	-8.34152
este	-8.34197
ni	-8.34302
ed	-8.34422
▁alt	-8.34722
siden	-8.34903
form	-8.34949
vin	-8.35034
▁2006	-8.35142
ina	-8.35221
▁landet	-8.35496
ow	-8.35583
itt	-8.35653
elle	-8.35679
▁hu	-8.35757
▁kong	-8.35803
▁hennes	-8.35892
▁gift	-8.3624
dag	-8.36273
▁satt	-8.36456
▁kunst	-8.36527
▁videre	-8.36634
▁sam	-8.36838
▁fl	-8.36886
▁mat	-8.37057
▁like	-8.37169
hu	-8.37602
▁fi	-8.37876
tter	-8.37996
ku	-8.38002
ard	-8.38014
ingen	-8.38372
ie	-8.38465
▁bra	-8.38557
ik	-8.38744
▁pe	-8.3891
▁døde	-8.39188
▁par	-8.39272
følge	-8.39297
▁do	-8.39303
gu	-8.39353
▁ski	-8.3939
▁øy	-8.3965
▁am	-8.3975
▁ki	-8.39802
gn	-8.39987
▁barn	-8.3999
▁skrevet	-8.4002
▁hver	-8.40055
▁ge	-8.40157
▁ulike	-8.40347
▁brukt	-8.40514
lin	-8.40531
tid	-8.40564
tra	-8.40612
▁x	-8.40738
▁kommer	-8.40936
▁bruk	-8.41105
▁fast	-8.4131
▁em	-8.41326
ord	-8.41431
▁all	-8.41512
▁høy	-8.41591
▁te	-8.41633
tur	-8.4197
▁mye	-8.42304
ft	-8.42326
▁langs	-8.4237
▁lys	-8.427
tal	-8.42787
▁deretter	-8.42864
dd	-8.43022
▁kun	-8.43086
▁2009	-8.43092
▁2005	-8.43093
▁russisk	-8.43094
ld	-8.43568
▁lov	-8.43596
▁sch	-8.43621
▁mi	-8.43776
ian	-8.44049
over	-8.44132
▁kultur	-8.44292
sp	-8.44433
burg	-8.44485
▁ko	-8.44926
ier	-8.44945
met	-8.45059
ek	-8.4507
▁va	-8.45193
▁con	-8.45336
▁større	-8.45407
ag	-8.45411
▁bl	-8.45592
ks	-8.45863
tak	-8.46126
▁medlem	-8.4631
▁gjen	-8.46504
▁filmen	-8.46609
iv	-8.46784
▁gu	-8.46836
yl	-8.46872
bruk	-8.46894
▁gamle	-8.46897
▁ne	-8.46943
mb	-8.47073
inn	-8.47314
tikk	-8.47353
slag	-8.47358
pi	-8.47514
▁folke	-8.47553
▁året	-8.47605
▁sett	-8.47661
ighet	-8.47852
▁skrev	-8.47868
▁lå	-8.47969
▁ab	-8.47997
min	-8.48006
ü	-8.4801
▁egen	-8.48036
bar	-8.48106
im	-8.48287
▁tra	-8.48357
ci	-8.48578
derfor	-8.49307
ot	-8.49394
verk	-8.49641
▁wa	-8.49837
sjon	-8.49928
▁engelsk	-8.50111
▁årene	-8.50207
hus	-8.50263
▁europa	-8.50289
▁ch	-8.5041
nder	-8.50481
▁fjell	-8.50521
▁språk	-8.50632
▁min	-8.50785
ment	-8.50932
▁sjø	-8.50946
lu	-8.50976
▁tyske	-8.51054
▁beste	-8.51234
ong	-8.51256
▁sv	-8.51294
▁pre	-8.51709
▁gud	-8.5177
▁gruppen	-8.51949
▁tidlig	-8.52295
▁plan	-8.52735
rik	-8.52749
satt	-8.5279
▁eksempel	-8.52837
art	-8.5298
and	-8.53247
▁seks	-8.53306
ius	-8.53389
▁sverige	-8.53786
▁ville	-8.53848
▁tri	-8.53934
▁innbyggere	-8.54083
▁2011	-8.54088
▁president	-8.54205
sse	-8.54226
▁bandet	-8.54274
▁kort	-8.54351
tiske	-8.54366
▁gjorde	-8.54381
▁samtidig	-8.54401
▁deltok	-8.54432
hi	-8.54539
▁kalles	-8.54548
itet	-8.55048
▁provinsen	-8.55175
▁liv	-8.55176
anske	-8.5524
ley	-8.55287
▁bok	-8.55377
▁kina	-8.55528
▁norges	-8.55584
ou	-8.55758
▁gir	-8.55885
▁svært	-8.5589
tten	-8.55952
▁plass	-8.56036
▁ver	-8.5617
▁særlig	-8.56233
▁vei	-8.56409
ud	-8.56765
ac	-8.56799
▁begge	-8.56889
lik	-8.57072
▁parti	-8.57438
stein	-8.5748
▁ingen	-8.57498
▁sommer	-8.57512
ting	-8.57834
▁ad	-8.5789
▁nasjonal	-8.57901
▁ja	-8.57992
ber	-8.5837
▁lever	-8.58384
ige	-8.58469
dom	-8.58744
mar	-8.58995
▁startet	-8.59158
▁dermed	-8.59317
▁hus	-8.59523
ug	-8.59695
2	-8.59839
▁god	-8.59854
sch	-8.59924
tisk	-8.5993
▁tiden	-8.59965
▁dr	-8.60364
ron	-8.60366
he	-8.60398
í	-8.6044
bb	-8.60517
▁2004	-8.60874
▁bre	-8.60999
▁stat	-8.61107
▁kar	-8.6165
▁bil	-8.6173
▁tysk	-8.61886
▁syn	-8.61891
ikk	-8.61899
▁sto	-8.61933
▁25	-8.62298
sten	-8.62396
▁hel	-8.62453
stan	-8.62685
mor	-8.62779
▁2000	-8.6314
fa	-8.6332
▁hi	-8.63371
▁pu	-8.63401
log	-8.63418
uk	-8.63438
ny	-8.63765
dre	-8.64085
stand	-8.64304
▁fleste	-8.64359
▁gresk	-8.6442
▁side	-8.64439
let	-8.64496
▁kjente	-8.64723
▁hvert	-8.64807
▁forskjellige	-8.64931
▁nor	-8.6496
▁general	-8.65138
ran	-8.65379
ki	-8.6544
▁ganger	-8.65749
vel	-8.65902
if	-8.65906
ningen	-8.65979
dalen	-8.66122
leg	-8.66147
▁sentral	-8.66158
kan	-8.66574
du	-8.66613
▁stort	-8.66739
bel	-8.66944
▁my	-8.67022
jo	-8.67087
landet	-8.67437
▁annen	-8.67458
isme	-8.67617
fjorden	-8.67638
▁samarbeid	-8.67714
▁måtte	-8.67805
isert	-8.67929
▁tyskland	-8.67964
▁ste	-8.68141
▁val	-8.68142
▁z	-8.68245
▁albumet	-8.68283
til	-8.68493
▁grad	-8.68555
▁tar	-8.68607
▁roman	-8.68993
▁dagen	-8.69173
borg	-8.69228
▁jord	-8.69334
▁konge	-8.69412
fe	-8.69532
▁car	-8.69833
▁ur	-8.69835
▁mag	-8.70006
▁lokal	-8.70455
tan	-8.70627
▁øya	-8.70829
▁vin	-8.70868
▁forhold	-8.70957
lands	-8.70964
før	-8.71018
▁fo	-8.71053
▁basert	-8.71163
▁os	-8.71577
▁frankrike	-8.71635
laget	-8.71798
▁bygget	-8.71854
ham	-8.71864
▁gull	-8.71865
▁bro	-8.71918
vo	-8.71939
▁arbeidet	-8.7203
▁midt	-8.7211
▁innenfor	-8.72433
▁ord	-8.72447
▁stein	-8.72519
fi	-8.72624
▁19	-8.72664
▁bergen	-8.72666
▁serien	-8.72706
ine	-8.72747
▁familien	-8.72968
▁person	-8.72986
stil	-8.73468
und	-8.73552
▁spilt	-8.73897
4	-8.73913
vei	-8.73961
▁tredje	-8.74093
ung	-8.74142
▁forfatter	-8.74156
▁selskapet	-8.74177
▁stedet	-8.74273
▁21	-8.74584
▁ty	-8.74756
▁flytte	-8.75127
▁viktig	-8.7534
wa	-8.75401
▁fotball	-8.75474
▁hen	-8.75533
ding	-8.75549
▁farge	-8.75657
vann	-8.75719
ologi	-8.76561
ninger	-8.76625
kel	-8.76693
▁pr	-8.76806
▁we	-8.76942
▁gitt	-8.76946
▁opprinnelig	-8.77308
▁verdens	-8.77491
ation	-8.77503
▁fu	-8.77546
▁2002	-8.77572
bl	-8.7767
5	-8.77768
▁betydning	-8.77861
▁fe	-8.77868
▁sangen	-8.77921
▁gjern	-8.78014
▁svensk	-8.78032
▁perioden	-8.78168
▁vise	-8.78205
▁ben	-8.78393
▁rød	-8.78462
▁kommunen	-8.78534
▁står	-8.78537
▁mulig	-8.78579
ister	-8.78617
▁23	-8.78643
van	-8.78692
▁fred	-8.78762
ede	-8.78803
▁olympisk	-8.78806
▁vel	-8.78876
▁sta	-8.79253
▁sand	-8.79273
▁fransk	-8.79291
dde	-8.7942
▁utenfor	-8.79483
▁24	-8.79757
tar	-8.79827
▁dikt	-8.79947
gel	-8.79973
▁klubben	-8.80006
tin	-8.80114
▁moderne	-8.80153
ph	-8.80326
▁gruppe	-8.80388
▁litt	-8.8067
lot	-8.80781
▁halv	-8.80786
▁tu	-8.80862
▁skog	-8.8089
▁fag	-8.80893
tiden	-8.80979
spill	-8.80995
▁elven	-8.8102
▁van	-8.81219
▁kn	-8.81257
▁hjelp	-8.81273
▁gammel	-8.81331
ica	-8.81813
▁hav	-8.81893
▁nytt	-8.81916
▁støtte	-8.82109
▁omkring	-8.8211
ju	-8.82152
▁karl	-8.82196
▁br	-8.82284
▁historie	-8.82445
▁2001	-8.82521
▁luft	-8.82545
▁natur	-8.82596
▁au	-8.82679
ket	-8.82734
▁arbeider	-8.82809
▁ser	-8.82867
tes	-8.8287
▁keiser	-8.82907
enes	-8.83026
nk	-8.83087
▁sosial	-8.83179
9	-8.83226
▁lav	-8.83255
▁art	-8.83294
idae	-8.83352
za	-8.83508
▁tatt	-8.83581
sson	-8.83644
▁cha	-8.8365
▁tekst	-8.83742
ill	-8.83825
han	-8.83888
▁deler	-8.83892
▁skuespiller	-8.84053
▁sj	-8.84126
iet	-8.84194
▁22	-8.84265
mål	-8.8427
▁slutt	-8.84333
bil	-8.84482
▁sted	-8.84487
eres	-8.84502
▁mann	-8.84579
▁barne	-8.8458
isering	-8.84624
ator	-8.84845
mme	-8.84917
▁bor	-8.84921
▁fre	-8.84982
▁rom	-8.85026
stående	-8.85061
▁mal	-8.8519
▁hol	-8.85198
▁kor	-8.85285
▁london	-8.85316
lene	-8.85347
▁fiske	-8.85372
ris	-8.85435
▁motor	-8.8546
ya	-8.85465
sett	-8.85554
gre	-8.85577
▁liten	-8.85638
elt	-8.85695
bok	-8.85711
▁ledet	-8.85733
▁100	-8.85942
▁mil	-8.86302
▁ed	-8.8644
▁hal	-8.86483
heim	-8.8662
rø	-8.86643
▁berg	-8.86656
ksjon	-8.86934
▁godt	-8.86939
▁spesielt	-8.86958
▁grav	-8.87139
▁lange	-8.87207
▁50	-8.87235
nings	-8.87248
▁tak	-8.87473
▁får	-8.87668
fly	-8.87834
▁gul	-8.87884
ab	-8.87937
kon	-8.88056
ska	-8.88565
▁england	-8.8865
▁delstaten	-8.88671
inger	-8.88691
▁familie	-8.88753
▁2003	-8.89067
▁viser	-8.8919
kom	-8.89231
▁kur	-8.8924
▁sal	-8.89286
mon	-8.89357
øya	-8.89359
lsen	-8.89498
plan	-8.89613
▁hatt	-8.89741
red	-8.90026
vet	-8.90034
elig	-8.90264
▁krigen	-8.90282
bane	-8.90345
▁nesten	-8.90534
tel	-8.90594
jør	-8.90775
▁bort	-8.90789
▁sha	-8.91205
tu	-8.91427
▁fortsatt	-8.91433
▁italiensk	-8.9162
ó	-8.91678
▁28	-8.91752
▁industri	-8.91922
▁ku	-8.92033
▁valg	-8.92072
▁paul	-8.9224
far	-8.92354
ken	-8.92388
spiller	-8.92441
tz	-8.92448
▁betyr	-8.92495
▁anti	-8.92497
▁gav	-8.92502
heten	-8.92513
dy	-8.92517
▁radio	-8.92531
sj	-8.92553
sti	-8.92554
fra	-8.92605
res	-8.92655
▁bru	-8.92689
▁kirken	-8.92738
▁lands	-8.92844
и	-8.9293
▁29	-8.92988
rak	-8.92995
føring	-8.93104
▁skolen	-8.93188
my	-8.9326
ære	-8.93308
bre	-8.93434
▁utviklet	-8.93442
▁start	-8.93587
▁lite	-8.93603
▁pla	-8.93654
tro	-8.93771
▁politiker	-8.93841
▁bruker	-8.93867
her	-8.93888
▁brun	-8.93908
bygg	-8.93945
▁svenske	-8.94074
gård	-8.94106
▁india	-8.94111
▁mu	-8.94156
▁slag	-8.94178
bygning	-8.94181
mat	-8.94187
▁von	-8.94207
▁riks	-8.94365
løp	-8.94451
ah	-8.94533
▁post	-8.94639
50	-8.9477
▁wi	-8.94806
▁bri	-8.94889
▁bror	-8.94926
▁band	-8.95101
▁sesongen	-8.95105
▁on	-8.95185
▁tur	-8.95514
▁regjering	-8.95589
▁1990	-8.9561
▁britiske	-8.95734
jel	-8.9588
senter	-8.96055
▁tilhører	-8.96055
▁1980	-8.96064
▁stats	-8.96085
iker	-8.96115
▁hjem	-8.96137
▁foran	-8.96171
▁ren	-8.96288
kken	-8.96392
▁gjør	-8.96461
▁prest	-8.96472
▁26	-8.96479
▁serie	-8.9655
▁orden	-8.966
▁stil	-8.9662
so	-8.96662
elsen	-8.96718
▁såkalt	-8.96971
▁q	-8.97125
kor	-8.97377
kul	-8.97405
lær	-8.97434
▁minne	-8.97535
▁bygge	-8.97596
råd	-8.97624
▁mont	-8.97671
istisk	-8.97707
vær	-8.97985
lå	-8.97997
film	-8.98146
▁russland	-8.98352
▁2012	-8.98363
▁én	-8.98408
▁pave	-8.98481
mester	-8.98567
▁spille	-8.98589
familien	-8.98641
▁langt	-8.98732
▁handels	-8.9874
▁full	-8.98779
anger	-8.9879
▁organ	-8.98809
▁forbindelse	-8.98849
sjøen	-8.99065
skole	-8.99083
▁verden	-8.99475
▁rolle	-8.99615
а	-8.99734
▁kv	-8.99738
sky	-8.99793
kal	-8.9984
system	-8.99873
▁ag	-8.99931
▁versjon	-8.99959
att	-8.99972
kamp	-9.00063
▁skade	-9.00154
▁inneholder	-9.00223
ida	-9.00286
▁krigs	-9.00323
ight	-9.00393
▁qu	-9.00429
▁ten	-9.00549
▁jan	-9.00681
zi	-9.00839
▁åpnet	-9.00955
▁medlemmer	-9.01095
▁danmark	-9.01181
▁vo	-9.01216
▁etablert	-9.01231
og	-9.01254
dan	-9.01257
område	-9.01273
kning	-9.01313
ater	-9.01347
▁resultat	-9.01397
mel	-9.01518
▁mari	-9.01565
▁carl	-9.01601
▁1999	-9.01658
▁com	-9.01785
▁opprettet	-9.01943
▁nett	-9.01949
▁christian	-9.02084
▁arm	-9.02094
▁lik	-9.02232
dyr	-9.02345
▁via	-9.02372
gge	-9.02458
▁internasjonale	-9.02605
▁militær	-9.02609
graf	-9.02763
▁27	-9.02835
▁bygd	-9.0304
ement	-9.03112
▁pris	-9.03149
▁viktigste	-9.03162
che	-9.03277
mark	-9.03278
▁personer	-9.03313
▁mis	-9.0334
▁angrep	-9.03414
ps	-9.0346
veien	-9.03522
▁fall	-9.03558
▁mennesker	-9.03606
▁fin	-9.03672
gh	-9.03838
▁enkelte	-9.03857
▁pan	-9.039
▁ke	-9.03938
▁fant	-9.03942
▁gjort	-9.03985
▁inkludert	-9.04078
▁felles	-9.0409
istiske	-9.04213
▁franske	-9.04252
bro	-9.0432
▁gre	-9.04351
ach	-9.04411
▁moh	-9.04456
▁fylke	-9.04532
▁christ	-9.04553
▁sak	-9.04619
▁mm	-9.04633
▁regnes	-9.04649
stilling	-9.04659
▁gate	-9.04669
språk	-9.04689
▁dom	-9.04778
asjonen	-9.04787
▁best	-9.04909
▁nok	-9.05071
▁datter	-9.05134
▁omfatter	-9.05202
▁høyre	-9.05226
▁lett	-9.05361
▁stemme	-9.0544
▁følgende	-9.05447
▁omtrent	-9.05565
▁gro	-9.05948
ppe	-9.0596
▁delen	-9.06222
kar	-9.06232
▁ul	-9.06251
▁produsert	-9.06252
mm	-9.06298
▁eu	-9.06423
par	-9.06438
yn	-9.06438
▁løpet	-9.0651
▁park	-9.06635
▁gjøre	-9.07188
bin	-9.07216
▁aktiv	-9.0727
▁peter	-9.07379
▁ber	-9.07398
▁liste	-9.07435
kast	-9.07574
▁sig	-9.07631
val	-9.07766
▁ras	-9.07824
mu	-9.07825
▁kal	-9.0783
▁jeg	-9.08043
så	-9.08094
▁sang	-9.08195
navn	-9.08212
▁rø	-9.08357
▁album	-9.0842
▁millioner	-9.08435
▁col	-9.08457
ika	-9.08502
8	-9.08556
sund	-9.08617
xi	-9.0865
▁partiet	-9.08706
▁bal	-9.08815
forening	-9.08834
▁pal	-9.09
gar	-9.09006
▁kje	-9.09022
▁tru	-9.09053
▁arbeids	-9.09121
▁måte	-9.09165
▁mark	-9.09174
fin	-9.09181
bra	-9.09281
▁jernbane	-9.09289
▁hvis	-9.09442
▁egne	-9.09476
▁minst	-9.09643
▁sm	-9.0973
asj	-9.09788
skog	-9.0986
▁produksjon	-9.09887
ide	-9.09921
ana	-9.09958
lek	-9.09982
som	-9.09985
▁kongen	-9.1002
▁arter	-9.10073
plass	-9.1013
▁italia	-9.10163
▁ett	-9.10165
lø	-9.10247
▁hø	-9.10279
leder	-9.10331
mmer	-9.10396
▁regionen	-9.10404
▁vinter	-9.10418
syn	-9.10552
▁1997	-9.10687
▁para	-9.1084
▁pl	-9.1087
▁vol	-9.10915
▁arbeid	-9.10975
merke	-9.11016
▁katolsk	-9.11207
▁1998	-9.11212
hl	-9.11252
ski	-9.11275
minister	-9.11296
vern	-9.1135
▁hy	-9.11524
▁universitet	-9.11554
▁william	-9.11735
rom	-9.1177
▁robert	-9.11787
▁verk	-9.1186
▁40	-9.11971
▁gri	-9.12061
▁hvit	-9.12079
▁strøm	-9.12115
▁ev	-9.12195
▁styre	-9.1225
▁tildelt	-9.12308
▁eldre	-9.12323
▁blod	-9.1235
▁regi	-9.12353
▁holdt	-9.12355
ds	-9.12418
▁mus	-9.12516
▁sentrum	-9.1252
▁pas	-9.12669
gruppen	-9.12752
▁1996	-9.12808
skip	-9.12919
ai	-9.12947
▁herre	-9.12948
ini	-9.12982
▁funnet	-9.13026
▁bur	-9.1304
▁west	-9.13041
ice	-9.13055
▁rock	-9.13109
▁staten	-9.13131
lys	-9.1314
chi	-9.13161
▁kraft	-9.13171
▁dannet	-9.13243
▁paris	-9.13264
ino	-9.13325
▁kvinne	-9.13388
iserte	-9.13468
▁folk	-9.13616
bygd	-9.13725
ale	-9.13726
ient	-9.13785
▁slaget	-9.13996
grad	-9.14026
ving	-9.14065
drift	-9.14183
cu	-9.14287
ath	-9.14303
▁sen	-9.14353
▁nu	-9.1438
▁lyd	-9.14398
▁henhold	-9.14472
▁ap	-9.14493
ys	-9.14559
▁grunnlagt	-9.14678
▁olje	-9.14737
▁hjemme	-9.14868
▁gran	-9.14923
▁biskop	-9.15195
▁pat	-9.15257
▁op	-9.15268
tion	-9.15369
▁tap	-9.15446
ari	-9.15447
ford	-9.15478
▁1988	-9.1553
jer	-9.15607
▁cor	-9.15888
navnet	-9.16063
▁kilometer	-9.16072
▁dal	-9.16163
setning	-9.16209
▁universitetet	-9.16273
ål	-9.16365
▁fer	-9.16371
▁sanger	-9.16375
▁mel	-9.16493
▁gar	-9.16592
▁spor	-9.16611
▁venstre	-9.16635
dømme	-9.16664
ria	-9.16698
▁berlin	-9.16714
ød	-9.1698
mot	-9.1709
▁je	-9.17181
▁1994	-9.17196
▁fått	-9.17251
▁uttrykk	-9.17377
▁tittelen	-9.1748
▁stu	-9.17566
7	-9.17727
с	-9.17748
▁spesial	-9.17749
▁1970	-9.17758
▁teater	-9.17787
▁ordet	-9.17833
samling	-9.17915
20	-9.17947
isten	-9.17986
▁drift	-9.17992
▁bjørn	-9.18125
▁bas	-9.18274
▁pri	-9.18288
har	-9.1829
▁representert	-9.18313
▁1960	-9.18322
▁ska	-9.18372
▁dro	-9.184
teori	-9.18439
▁blå	-9.1859
lighet	-9.18671
▁red	-9.18788
evne	-9.18791
▁gra	-9.18803
▁verdenskrig	-9.18937
▁lege	-9.19008
su	-9.19018
▁johan	-9.1915
▁venn	-9.19187
▁ex	-9.19209
▁31	-9.19223
▁reise	-9.19305
pro	-9.19345
fjord	-9.19356
▁grå	-9.19386
▁veien	-9.19395
▁1992	-9.19461
▁erstatte	-9.19479
▁romersk	-9.19492
▁vekt	-9.19582
året	-9.19588
▁kle	-9.19635
▁ly	-9.19654
▁menn	-9.19691
▁don	-9.19701
▁borger	-9.19737
loven	-9.19755
▁lin	-9.19799
fri	-9.19842
▁hall	-9.19869
▁ry	-9.19897
▁meget	-9.19899
▁eldste	-9.20028
messig	-9.20032
abel	-9.20036
▁slekt	-9.20105
gje	-9.20106
pen	-9.20156
▁ø	-9.20186
▁topp	-9.20249
king	-9.20253
▁slutten	-9.20416
▁politiske	-9.20426
▁rev	-9.20566
▁eget	-9.20577
▁thomas	-9.20606
▁allerede	-9.20612
▁valgt	-9.2062
▁th	-9.20657
▁xi	-9.20928
▁svart	-9.20936
▁flo	-9.21038
▁kamp	-9.21063
▁lokale	-9.21135
н	-9.21174
▁storbritannia	-9.21187
▁menneske	-9.21199
▁kvinner	-9.21224
▁kro	-9.21428
stra	-9.21509
▁turn	-9.21611
▁fylkesvei	-9.21785
asjoner	-9.21799
▁henne	-9.21804
banen	-9.21843
rud	-9.21878
▁aldri	-9.21899
▁tom	-9.21911
▁tjeneste	-9.22023
▁energi	-9.22026
inne	-9.22167
▁litteratur	-9.2218
▁studert	-9.2237
menn	-9.22443
▁cl	-9.22535
pris	-9.22646
▁virke	-9.22893
fl	-9.2292
fall	-9.2295
▁regjeringen	-9.2295
▁likevel	-9.22994
▁hovedsake	-9.23007
ferd	-9.23044
▁ferdig	-9.23049
▁delt	-9.23096
ros	-9.23104
▁elva	-9.23134
▁utvikling	-9.23495
▁betydelig	-9.23547
▁nordøst	-9.23592
▁interesse	-9.23802
▁blad	-9.23885
sto	-9.23904
heng	-9.24134
▁havn	-9.24135
▁gal	-9.24138
▁1989	-9.24152
▁sørøst	-9.24173
ial	-9.24344
▁ført	-9.24405
▁kraftig	-9.24442
▁befolkningen	-9.24596
▁holde	-9.24641
folk	-9.24644
▁munn	-9.24669
▁skrift	-9.24723
▁ob	-9.24829
huset	-9.24957
ze	-9.25087
ves	-9.25116
▁studie	-9.25303
▁brasil	-9.25376
▁kontroll	-9.25442
▁overtok	-9.25517
▁hva	-9.25574
tall	-9.25618
▁slo	-9.25676
▁inter	-9.2578
▁virksomhet	-9.25842
tsj	-9.25914
▁york	-9.25965
▁kroppen	-9.25974
▁direkte	-9.25986
ringen	-9.26005
▁løp	-9.26026
brudd	-9.26033
▁stjerne	-9.26077
▁bør	-9.26096
▁utgav	-9.26097
▁mon	-9.26115
ji	-9.26119
▁dansk	-9.26132
ap	-9.26218
▁tal	-9.26239
▁fortsatte	-9.26257
q	-9.26383
▁trykk	-9.26422
▁antall	-9.2655
▁university	-9.2658
stol	-9.26598
▁bø	-9.26613
▁følge	-9.2665
▁sogn	-9.26662
▁lei	-9.26665
▁spe	-9.26675
▁krig	-9.26693
▁ring	-9.26725
våg	-9.26745
▁sc	-9.26796
▁helse	-9.26853
▁politisk	-9.26867
är	-9.26875
krigen	-9.26897
▁enkelt	-9.26908
65	-9.27002
▁system	-9.27047
▁finne	-9.27075
▁pinyin	-9.27195
ismen	-9.272
ā	-9.27202
▁2014	-9.27204
▁standard	-9.27209
▁kul	-9.27257
området	-9.27422
ama	-9.27452
▁fro	-9.27519
we	-9.27522
▁arkitekt	-9.27542
vare	-9.27558
▁pen	-9.2756
▁you	-9.27563
▁sterkt	-9.27858
ich	-9.2788
▁linje	-9.27901
mannen	-9.27905
ms	-9.2792
hr	-9.27969
▁forsøk	-9.27985
▁fange	-9.28021
anlegg	-9.28042
▁hånd	-9.28139
kje	-9.28145
cc	-9.28424
tok	-9.28459
handler	-9.28516
▁olav	-9.28607
▁za	-9.28611
▁erik	-9.2875
øl	-9.28758
▁effekt	-9.2884
▁not	-9.28903
▁periode	-9.2898
mal	-9.28985
▁tan	-9.29021
▁afrika	-9.29059
▁drept	-9.2907
▁knytte	-9.29082
▁funksjon	-9.29104
lis	-9.29185
▁stasjon	-9.29253
styre	-9.29271
▁bill	-9.29326
▁shi	-9.29361
▁kir	-9.29557
▁kampen	-9.29592
▁kh	-9.29614
▁høsten	-9.29681
▁suksess	-9.29702
▁1984	-9.2971
skrift	-9.29724
▁cr	-9.29742
▁høyeste	-9.29763
▁møte	-9.29795
up	-9.29805
▁ven	-9.29897
▁museum	-9.2997
▁sub	-9.30092
▁lære	-9.30136
▁enhet	-9.30198
lev	-9.30216
▁lærer	-9.30258
▁vår	-9.3028
▁utgjør	-9.30288
р	-9.30331
▁oppkalt	-9.30344
▁1993	-9.30346
▁1982	-9.30351
▁port	-9.3038
▁makt	-9.30386
▁nest	-9.30433
selskap	-9.30464
▁200	-9.30542
▁opera	-9.30575
▁sy	-9.30597
▁tegn	-9.30622
kjenne	-9.30622
jø	-9.30657
▁viss	-9.30711
gitt	-9.30731
ay	-9.30738
gle	-9.30751
departementet	-9.30752
▁plante	-9.30935
▁amerika	-9.30972
ark	-9.31034
mun	-9.31116
folkerepublikken	-9.31119
sjef	-9.3144
▁mac	-9.31518
▁dessuten	-9.31626
▁utnevnt	-9.31626
▁cla	-9.31646
iz	-9.31658
▁råd	-9.31698
▁økt	-9.31701
nivå	-9.31732
▁ve	-9.31733
gan	-9.31882
port	-9.31884
havet	-9.31891
▁ettersom	-9.31936
▁japansk	-9.31973
kra	-9.32014
▁benyttet	-9.32059
stykke	-9.32128
▁renn	-9.3213
ografi	-9.32139
▁mur	-9.32185
▁1981	-9.32287
▁politi	-9.32295
▁nummer	-9.32511
▁neste	-9.32584
arbeid	-9.32606
▁kam	-9.32613
cy	-9.32661
▁maria	-9.3278
rat	-9.32819
▁oppført	-9.3283
▁sommeren	-9.32852
▁hit	-9.32909
е	-9.32926
▁informasjon	-9.32929
▁hvilke	-9.32929
▁vm	-9.32948
▁ledelse	-9.32948
▁1950	-9.32952
▁island	-9.32967
▁hvordan	-9.3302
▁180	-9.3305
▁års	-9.33136
▁sir	-9.33361
40	-9.33362
▁samling	-9.33444
▁skjer	-9.33457
liggende	-9.3346
▁bad	-9.33467
▁relativ	-9.33587
▁internasjonal	-9.336
ub	-9.3369
▁eier	-9.33722
▁kyst	-9.33807
lan	-9.33817
bert	-9.33902
▁design	-9.33938
▁dis	-9.33946
rin	-9.34032
è	-9.34125
fer	-9.3414
▁miljø	-9.34313
▁david	-9.34382
▁enten	-9.3449
▁chi	-9.34528
▁grensen	-9.34577
▁finner	-9.34599
rich	-9.34748
ekte	-9.34749
75	-9.34814
▁selskap	-9.34825
▁1945	-9.34925
▁1986	-9.34929
▁sla	-9.34935
rid	-9.34947
lie	-9.34947
▁af	-9.34978
▁ep	-9.34991
kommun	-9.35035
▁johannes	-9.35061
▁george	-9.35177
▁boken	-9.3519
▁dager	-9.35192
▁våpen	-9.35194
kin	-9.35204
▁ky	-9.3521
ita	-9.35221
lett	-9.35294
metode	-9.35439
▁sh	-9.35474
▁indre	-9.35512
▁dia	-9.35575
▁dronning	-9.35591
▁personlig	-9.35592
▁2013	-9.35597
itz	-9.3562
▁viste	-9.35763
▁steder	-9.35786
▁hard	-9.3582
▁danske	-9.35825
stat	-9.35853
▁sju	-9.35962
▁kunstner	-9.36005
▁lagt	-9.36025
retning	-9.36186
▁københavn	-9.36262
▁1995	-9.36273
▁1987	-9.36276
all	-9.36297
parti	-9.36362
stu	-9.36395
fal	-9.36429
områder	-9.36463
▁ci	-9.36587
elva	-9.36625
▁mc	-9.36632
▁seier	-9.36645
▁kron	-9.3668
bor	-9.36752
søk	-9.3676
ansk	-9.36777
▁lengde	-9.36919
ider	-9.3698
mund	-9.37048
▁verdi	-9.37133
▁klasse	-9.37148
▁kol	-9.37161
fart	-9.37194
▁maskin	-9.37201
▁valgte	-9.37256
▁middel	-9.37351
forsker	-9.37462
alt	-9.37545
о	-9.37615
▁oppnå	-9.37658
▁dyr	-9.37659
▁latin	-9.37821
strøm	-9.37836
▁mester	-9.37873
▁båt	-9.37875
▁produkt	-9.37892
▁gå	-9.38114
▁vik	-9.38196
get	-9.38243
▁los	-9.38245
▁dra	-9.38268
▁trondheim	-9.38317
▁beskytte	-9.38318
▁klar	-9.38318
▁prosent	-9.38328
lle	-9.38354
▁professor	-9.38469
▁iii	-9.38583
▁bank	-9.3865
▁son	-9.38744
▁wo	-9.3898
vil	-9.38994
▁sølv	-9.39005
▁super	-9.39013
▁finsk	-9.39039
valg	-9.39122
▁henrik	-9.39144
▁resten	-9.39195
tiv	-9.39244
37	-9.39526
▁opprør	-9.39625
▁offentlig	-9.39706
ð	-9.39711
▁tilsvarende	-9.39711
▁felt	-9.39737
ib	-9.39877
▁bedre	-9.39878
kant	-9.39881
fo	-9.39891
produksjon	-9.39921
kraft	-9.39973
▁plate	-9.40045
▁brukte	-9.40296
lede	-9.40409
▁samlet	-9.40462
▁lille	-9.40508
tende	-9.40543
▁roma	-9.40623
▁skje	-9.40637
▁kors	-9.40706
▁avdeling	-9.40726
▁regn	-9.40741
▁martin	-9.40749
▁jon	-9.40799
ies	-9.40804
▁syv	-9.40879
lem	-9.40893
bygging	-9.40905
▁brann	-9.41011
▁syd	-9.41098
▁karriere	-9.41104
▁århundre	-9.41125
old	-9.4113
slutning	-9.41135
ano	-9.41181
▁åtte	-9.41395
▁tung	-9.41429
▁tradisjon	-9.41432
▁off	-9.41449
lla	-9.4149
førte	-9.41539
▁område	-9.41573
▁sørlig	-9.41613
▁unge	-9.41635
gikk	-9.41746
▁stockholm	-9.41839
▁øverst	-9.41839
▁sørvest	-9.4184
▁begynnelsen	-9.41843
▁prosess	-9.41958
ey	-9.42103
▁dy	-9.42123
side	-9.42133
tus	-9.42202
▁smal	-9.42255
▁skip	-9.42361
musikk	-9.42505
kla	-9.42524
fag	-9.42547
vig	-9.42552
▁møtte	-9.42563
▁1985	-9.4257
▁1900	-9.42574
▁trekk	-9.42591
▁sivil	-9.42603
▁slått	-9.42622
▁følger	-9.42647
▁jens	-9.42664
▁jobbe	-9.42817
▁divisjon	-9.42951
▁spi	-9.43118
10	-9.43123
▁europeisk	-9.43182
ola	-9.43193
oc	-9.43204
▁slike	-9.43288
▁1975	-9.433
▁ind	-9.43377
hav	-9.43495
stasjon	-9.43549
organisasjon	-9.4358
30	-9.43596
▁høyere	-9.43601
▁fest	-9.4362
▁rund	-9.43725
▁natt	-9.43751
▁viktige	-9.43752
▁prege	-9.43812
▁konsert	-9.43857
00	-9.43894
ip	-9.44213
▁representant	-9.4429
▁seil	-9.44321
kro	-9.44382
▁varme	-9.44469
▁60	-9.4452
punkt	-9.44557
løs	-9.4462
▁kat	-9.44644
ott	-9.44652
▁vind	-9.44673
▁1991	-9.44756
▁james	-9.44787
▁bern	-9.44823
bud	-9.4487
formet	-9.44914
▁auto	-9.44964
▁trans	-9.4499
▁legge	-9.44993
▁sentrale	-9.45021
▁rot	-9.45158
båt	-9.45307
ås	-9.45403
las	-9.45404
systemet	-9.4548
55	-9.45481
▁1979	-9.45489
assi	-9.45544
▁union	-9.45607
▁regel	-9.45666
6	-9.45827
▁leng	-9.45853
kunst	-9.45864
▁styrke	-9.45868
styrke	-9.45876
▁data	-9.46006
▁historiske	-9.46033
▁gren	-9.46075
hall	-9.46079
▁grand	-9.46086
▁sykdom	-9.46086
▁merke	-9.46114
▁krav	-9.46122
que	-9.46152
▁gje	-9.46183
ör	-9.46187
▁britisk	-9.46201
▁gen	-9.46238
▁militære	-9.46244
▁statsminister	-9.46254
byen	-9.46275
▁dyp	-9.46385
åk	-9.46395
▁fulgte	-9.46427
▁test	-9.46468
stedet	-9.46624
▁wil	-9.46665
▁rh	-9.46704
løse	-9.46705
▁ør	-9.46719
▁svarte	-9.46738
fang	-9.46774
▁air	-9.46795
medalje	-9.46838
▁bilde	-9.46892
tog	-9.46945
erende	-9.46997
▁2015	-9.47006
▁can	-9.4712
▁thor	-9.4724
dra	-9.47311
▁egg	-9.47353
▁israel	-9.47468
don	-9.47472
rådet	-9.47491
▁sø	-9.47537
▁tall	-9.47555
▁forsvar	-9.47634
sia	-9.4765
▁500	-9.47665
▁kardinal	-9.47744
▁dårlig	-9.47746
▁1972	-9.47758
▁nådd	-9.47811
▁len	-9.47832
samisk	-9.47835
sak	-9.47889
elser	-9.47974
▁faren	-9.47975
▁arten	-9.48009
▁lenge	-9.48053
aksjon	-9.48164
ire	-9.48179
▁motstand	-9.48241
▁skapt	-9.4828
▁sterk	-9.48358
▁syk	-9.4842
▁lind	-9.48476
ette	-9.48492
variant	-9.48498
▁1978	-9.48523
ann	-9.48579
cia	-9.48594
nett	-9.48638
▁ac	-9.48736
▁80	-9.48809
▁tett	-9.48819
rike	-9.48941
rus	-9.48956
▁ii	-9.49014
▁flat	-9.49165
▁organisasjon	-9.49241
▁hverandre	-9.49277
magasin	-9.49285
▁tele	-9.49335
▁ære	-9.4936
ock	-9.49396
▁stra	-9.49442
▁skrive	-9.49494
▁hær	-9.49613
▁us	-9.49662
tatt	-9.49662
drag	-9.49668
▁distrikt	-9.49734
▁ordenen	-9.49735
ben	-9.49761
stoff	-9.49827
▁nordlige	-9.49866
nntil	-9.49907
▁drev	-9.49915
▁transport	-9.49987
▁aktivitet	-9.49988
mus	-9.5003
▁utdannet	-9.50052
▁holm	-9.50055
▁oppdaget	-9.50056
▁stavanger	-9.50062
▁vokst	-9.50063
▁mod	-9.50109
▁city	-9.50133
▁nrk	-9.50359
▁japan	-9.50434
▁slekten	-9.50452
▁grønn	-9.50498
▁ledd	-9.50548
▁rus	-9.50645
▁retts	-9.50719
▁1973	-9.50843
▁1976	-9.50846
▁poeng	-9.50859
▁cup	-9.5088
▁kra	-9.50993
56	-9.51023
▁utført	-9.51025
▁drama	-9.51027
▁høyde	-9.51053
▁koloni	-9.51076
47	-9.51142
fu	-9.51144
▁kraftverk	-9.51193
ali	-9.51261
▁lau	-9.51323
▁rike	-9.51332
▁lenger	-9.51363
78	-9.51556
▁gass	-9.51568
ú	-9.51621
▁nordvest	-9.51625
▁årlig	-9.51658
forbund	-9.5166
klar	-9.51697
lser	-9.51716
tegn	-9.51786
36	-9.5182
vid	-9.51828
brun	-9.5188
gift	-9.51909
▁skipet	-9.51931
▁sky	-9.5205
lia	-9.52054
▁miste	-9.52079
ara	-9.52079
▁scene	-9.52079
48	-9.5212
▁areal	-9.52241
▁hår	-9.52243
way	-9.5227
▁direktør	-9.52338
▁she	-9.52345
the	-9.52351
▁offisiell	-9.52414
▁veg	-9.52419
zhou	-9.52433
ativ	-9.52436
▁grense	-9.52479
▁1800	-9.52531
▁mad	-9.52635
▁sil	-9.52763
▁region	-9.52765
▁populær	-9.52803
ive	-9.52806
▁gru	-9.52808
▁hører	-9.52854
ming	-9.52892
skapet	-9.52922
▁utstyr	-9.52969
▁hovedstaden	-9.52996
ata	-9.53047
66	-9.53096
svis	-9.53161
▁fil	-9.53183
sekretær	-9.53214
▁world	-9.53215
▁vanskelig	-9.53225
▁1940	-9.53234
▁egentlig	-9.53243
▁søster	-9.5326
▁rad	-9.53343
▁mottok	-9.53371
▁bygningen	-9.53387
87	-9.53397
eier	-9.53556
▁cm	-9.53594
iver	-9.53607
▁temperatur	-9.53836
verket	-9.5396
øtt	-9.53962
værende	-9.53994
▁skyld	-9.54056
▁ze	-9.54135
▁fjorden	-9.54281
64	-9.54286
ix	-9.54371
▁hor	-9.54451
▁sendt	-9.54557
liv	-9.54572
still	-9.54574
▁fyr	-9.54622
▁totalt	-9.54747
▁eg	-9.54752
ula	-9.54781
▁samle	-9.5482
▁un	-9.54831
▁fjerde	-9.54834
▁fjern	-9.54845
▁fører	-9.54856
▁por	-9.54904
bø	-9.55003
▁gode	-9.55013
fil	-9.55031
lagt	-9.55042
alder	-9.55079
▁områder	-9.55098
gruppe	-9.55166
▁anlegget	-9.55243
bilde	-9.55409
▁karakter	-9.55412
hal	-9.55457
38	-9.55482
tjeneste	-9.5551
tive	-9.55511
▁plassert	-9.55542
▁fot	-9.55596
л	-9.55654
▁louis	-9.55654
▁kalle	-9.5566
▁1968	-9.55668
▁1964	-9.55669
ritt	-9.55673
▁fordel	-9.55778
midler	-9.55899
▁gla	-9.5592
ira	-9.55945
▁bøker	-9.56003
ish	-9.56041
▁løs	-9.56068
▁livet	-9.56112
▁modell	-9.56196
▁ban	-9.56216
virke	-9.56216
▁privat	-9.56245
skolen	-9.56285
▁jern	-9.56354
▁artene	-9.56355
▁daglig	-9.5638
▁drive	-9.56436
▁bind	-9.56454
orm	-9.56473
ain	-9.56531
▁black	-9.56533
gjøre	-9.56555
press	-9.56586
▁ønsket	-9.56682
▁punkt	-9.56717
▁produsent	-9.56749
▁het	-9.56759
74	-9.5682
▁hente	-9.56929
bevegelsen	-9.56965
trykk	-9.56995
86	-9.57239
fisk	-9.57268
▁sikre	-9.57323
▁musikkalbum	-9.57325
▁slott	-9.57367
▁bodde	-9.57404
▁eiendom	-9.57429
▁sommerfugl	-9.57442
77	-9.57448
▁mørke	-9.57456
▁vold	-9.57513
▁program	-9.57525
▁finans	-9.57562
felt	-9.57567
gående	-9.57588
▁uni	-9.57642
▁grenser	-9.5769
hø	-9.57758
▁les	-9.57794
▁engelske	-9.57815
▁stø	-9.57882
▁marine	-9.57914
lov	-9.57922
▁vit	-9.57954
▁stille	-9.58068
▁posisjon	-9.5809
▁naturlig	-9.58092
vinger	-9.581
▁voksne	-9.58154
▁kontakt	-9.58158
organ	-9.58202
▁70	-9.58209
▁bon	-9.58243
▁meste	-9.5831
▁wh	-9.58356
▁stod	-9.58412
▁hvite	-9.58472
▁raskt	-9.5849
án	-9.58494
age	-9.5855
▁styrker	-9.58571
vendt	-9.58599
cha	-9.58665
▁char	-9.58805
▁alder	-9.58862
gangen	-9.58903
ati	-9.58928
к	-9.58989
▁arrangert	-9.59001
▁samfunns	-9.59014
▁2017	-9.59017
▁1974	-9.59018
gården	-9.59035
▁grupper	-9.59058
field	-9.59063
shire	-9.59093
▁bruke	-9.59111
43	-9.592
▁asia	-9.59205
▁georg	-9.59256
▁heter	-9.59267
▁anne	-9.593
sal	-9.59317
ind	-9.59324
▁finland	-9.59388
▁stiftet	-9.59414
▁danne	-9.59488
▁hodet	-9.59497
▁type	-9.59536
▁heller	-9.59663
▁die	-9.59665
▁behandling	-9.59701
▁besøk	-9.59844
à	-9.59856
▁fotballspiller	-9.59888
▁nasjonale	-9.5992
of	-9.59939
▁foss	-9.60028
▁endt	-9.60059
▁war	-9.60091
ob	-9.60214
wi	-9.60344
62	-9.60421
34	-9.60561
39	-9.60592
▁etablerte	-9.60613
▁distriktet	-9.60668
nis	-9.60696
▁alternativ	-9.60718
▁religion	-9.60718
▁2016	-9.60741
▁pop	-9.60752
▁profesjonell	-9.60763
voll	-9.60793
ille	-9.60804
▁eli	-9.60813
▁oppgave	-9.60857
shi	-9.61079
▁bygde	-9.61084
qu	-9.61093
prisen	-9.6112
bus	-9.61127
▁anders	-9.61209
▁metall	-9.61279
▁delta	-9.61311
69	-9.61364
▁borg	-9.61379
mit	-9.61407
senteret	-9.6141
regionen	-9.61469
51	-9.6156
▁national	-9.61588
▁arabisk	-9.6159
▁kanskje	-9.61594
▁bakgrunn	-9.61613
vatnet	-9.61881
88	-9.61954
▁che	-9.61962
ence	-9.61977
ban	-9.61999
▁gård	-9.62025
band	-9.62034
82	-9.62045
part	-9.62052
nik	-9.62068
▁journalist	-9.62116
▁fortsette	-9.62202
▁sende	-9.62229
historie	-9.62359
▁høyt	-9.62387
▁fisk	-9.62413
▁international	-9.62465
▁1962	-9.62481
▁1969	-9.62481
virkning	-9.62486
▁stadig	-9.62528
▁kjempe	-9.62533
▁mas	-9.62729
68	-9.62921
▁historien	-9.62946
▁variere	-9.62995
▁nabo	-9.63021
zz	-9.63043
fest	-9.63054
gata	-9.63084
33	-9.63089
▁bolig	-9.63104
standen	-9.63173
dø	-9.63214
▁høye	-9.63301
▁gjelder	-9.63322
▁sund	-9.63347
▁hjerte	-9.63351
▁mos	-9.63382
▁akademi	-9.63395
af	-9.63438
▁gjenopp	-9.63469
▁knut	-9.63487
tun	-9.63514
med	-9.6359
▁bol	-9.63672
lund	-9.63706
itu	-9.63796
▁tross	-9.63829
42	-9.63839
nu	-9.63892
hel	-9.63892
▁komme	-9.6403
▁sports	-9.64072
▁bred	-9.64084
▁hei	-9.6409
54	-9.64103
▁nærings	-9.64167
trekk	-9.64194
▁original	-9.64242
▁typisk	-9.64246
▁1936	-9.6426
▁1948	-9.64261
kirke	-9.64285
▁sammenheng	-9.64367
▁anna	-9.64466
▁prøve	-9.64467
▁est	-9.64539
misjon	-9.64544
▁danner	-9.64556
▁undersøkelse	-9.6465
▁ball	-9.64655
▁nr	-9.64702
plasser	-9.64743
vekt	-9.64775
fører	-9.64776
strand	-9.64805
▁sesong	-9.64821
zo	-9.64859
▁redaktør	-9.64905
lip	-9.6495
krit	-9.64954
▁lø	-9.64964
70	-9.64997
▁hovedstad	-9.65131
▁1983	-9.65143
under	-9.65147
sjons	-9.6515
▁1946	-9.65158
▁1977	-9.65161
lang	-9.65206
59	-9.6531
grav	-9.65459
80	-9.65549
▁kontor	-9.65567
▁opprinnelige	-9.65568
▁sel	-9.6573
81	-9.65784
▁skape	-9.65788
samfunn	-9.65904
gy	-9.65957
fortelling	-9.65964
▁time	-9.6598
våpen	-9.66013
▁sku	-9.66024
tti	-9.66042
▁trøndelag	-9.66052
▁fremdeles	-9.66053
▁royal	-9.66055
▁fungere	-9.66069
▁skjedde	-9.66073
▁bel	-9.66078
▁omtalt	-9.66086
▁musiker	-9.66114
hvert	-9.66159
last	-9.66164
ild	-9.66169
58	-9.66308
▁bry	-9.66393
▁egypt	-9.66408
gren	-9.66451
▁edderkopp	-9.66464
fon	-9.66495
rum	-9.66554
▁fv	-9.66572
▁harry	-9.66582
▁dan	-9.66671
ammen	-9.66718
▁jobb	-9.66722
linjen	-9.66759
▁mørk	-9.66832
▁røde	-9.66847
rev	-9.66867
lon	-9.6687
tale	-9.66882
▁havet	-9.66895
▁united	-9.66971
▁canada	-9.66977
▁ter	-9.67008
▁operasjon	-9.6717
ved	-9.67171
sil	-9.67186
▁salt	-9.67187
▁svak	-9.67226
57	-9.67295
ani	-9.6736
▁mid	-9.67372
▁frank	-9.67395
feld	-9.67505
94	-9.67506
▁festival	-9.67535
▁alb	-9.67577
ført	-9.67606
fjell	-9.67708
▁fylkes	-9.67767
▁hæren	-9.67791
sjoner	-9.67841
▁størrelse	-9.67853
▁lars	-9.67885
▁hest	-9.67891
š	-9.67896
kjempe	-9.67944
▁lund	-9.68005
▁rose	-9.68073
▁representerer	-9.68129
▁endret	-9.68238
▁kanon	-9.68362
gjorde	-9.68379
rop	-9.6846
▁stilling	-9.68551
▁omtale	-9.68631
▁lan	-9.6868
ologisk	-9.68684
72	-9.68688
foss	-9.68719
▁kamper	-9.68766
▁sovjetunionen	-9.6883
▁richard	-9.68831
▁jag	-9.68834
▁sul	-9.68874
▁nåværende	-9.68905
▁dokument	-9.69139
▁gjennomført	-9.69145
▁strand	-9.69148
▁vestlig	-9.69155
ringer	-9.69215
▁reg	-9.69232
▁korte	-9.69266
▁dyre	-9.69313
▁forfatteren	-9.69376
dia	-9.69552
▁skips	-9.69572
▁gitar	-9.69589
▁sur	-9.69606
på	-9.69608
▁gården	-9.69725
▁grev	-9.69763
▁australia	-9.69774
▁foreldre	-9.69776
▁1963	-9.69784
arter	-9.6989
ville	-9.6994
ram	-9.70009
▁sterke	-9.70055
▁maler	-9.70088
▁kost	-9.70107
bank	-9.70159
▁bomb	-9.70165
▁ting	-9.70183
selskapet	-9.70184
▁glo	-9.70208
▁kilde	-9.70271
ball	-9.70421
▁stasjonen	-9.70425
jiang	-9.70486
▁arne	-9.7055
▁nivå	-9.70615
▁sjef	-9.70636
gul	-9.70643
▁pass	-9.7066
▁befolkning	-9.70676
mil	-9.70704
▁symbol	-9.70725
▁kombinert	-9.70726
▁1952	-9.70742
▁real	-9.70777
▁kart	-9.70821
▁bass	-9.70897
▁feil	-9.70906
49	-9.70926
▁led	-9.70952
▁geo	-9.70983
stall	-9.71048
▁landsbyen	-9.71067
▁zo	-9.71124
▁ram	-9.71125
kjer	-9.71147
67	-9.71161
▁begynner	-9.71197
win	-9.71224
▁fal	-9.71298
▁mw	-9.71309
▁ungdoms	-9.71413
oli	-9.71464
spor	-9.71586
korps	-9.71635
▁verne	-9.71661
▁elektrisk	-9.71688
ī	-9.71688
▁michael	-9.71688
▁selvstendig	-9.71688
▁fredrik	-9.71694
▁trak	-9.71695
▁1956	-9.71707
▁harald	-9.71712
▁tyr	-9.71798
▁tegnet	-9.71831
▁holder	-9.71879
▁jean	-9.7195
bare	-9.71965
▁reform	-9.72038
▁tema	-9.72043
▁fugle	-9.72207
▁øyene	-9.72214
kjøp	-9.72218
▁flu	-9.72437
▁student	-9.72478
▁up	-9.725
90	-9.72507
▁hopp	-9.7252
▁sw	-9.72603
▁hertug	-9.72657
▁berømt	-9.72659
▁tydelig	-9.72661
▁nordland	-9.72661
▁1965	-9.72683
▁fjellet	-9.72772
▁danse	-9.72842
▁forskning	-9.72875
▁ya	-9.72883
12	-9.72897
▁teknisk	-9.72985
▁ole	-9.73018
org	-9.73044
linje	-9.73104
verdig	-9.73104
▁sko	-9.73134
kirken	-9.73141
arbeider	-9.73167
85	-9.73178
▁bevegelse	-9.73182
driv	-9.73197
▁selve	-9.7323
analyse	-9.73236
▁vinner	-9.73324
▁sier	-9.73342
regi	-9.73487
▁retning	-9.73492
▁300	-9.73503
▁tour	-9.73512
▁35	-9.73514
dige	-9.73543
▁odd	-9.73554
▁sau	-9.73564
▁folketelling	-9.73639
kapasitet	-9.7364
▁østerrike	-9.73641
▁ordfører	-9.73659
høgskole	-9.73686
▁polen	-9.73708
▁ang	-9.73713
▁alltid	-9.73725
prosess	-9.73749
▁90	-9.73773
▁leir	-9.73829
▁tanke	-9.73834
gon	-9.73853
san	-9.73931
▁singel	-9.73977
▁typer	-9.73989
ith	-9.74106
▁ken	-9.7411
95	-9.74135
▁populære	-9.74145
person	-9.74162
▁hin	-9.74231
oth	-9.74294
▁rekord	-9.74385
▁masse	-9.74408
▁markeds	-9.74463
▁jorden	-9.7447
▁aust	-9.74499
jente	-9.74518
vitenskap	-9.74622
tis	-9.74623
▁dog	-9.74627
▁komponist	-9.74629
▁melodi	-9.74636
▁1920	-9.74658
▁video	-9.74667
▁eid	-9.74671
▁prosjekt	-9.74689
▁tittel	-9.74722
▁ek	-9.74783
kår	-9.74898
trinn	-9.74902
øyene	-9.74934
▁kunnskap	-9.74963
▁parlament	-9.74985
▁lib	-9.74989
▁driver	-9.75005
▁bla	-9.75013
▁stamme	-9.75038
▁utviklingen	-9.75079
▁klarte	-9.75092
▁besto	-9.75106
lid	-9.75112
▁tusen	-9.75132
52	-9.75147
aktig	-9.75163
plassen	-9.75187
▁figur	-9.75221
▁løv	-9.75238
▁utdanning	-9.75268
ij	-9.7529
▁rollen	-9.75291
ppen	-9.75292
▁hunnen	-9.75393
low	-9.75421
▁betegnelsen	-9.7543
▁klubb	-9.7552
▁1953	-9.75629
▁nærmere	-9.75635
▁bane	-9.75637
komme	-9.75648
▁revolusjon	-9.75652
fat	-9.75706
▁teksten	-9.7573
klubb	-9.75784
kjønn	-9.75791
▁finalen	-9.75816
well	-9.75829
▁presse	-9.75832
▁produksjons	-9.75848
▁peder	-9.75869
kraftverk	-9.7587
▁strid	-9.75887
▁innført	-9.759
oni	-9.75916
▁stoppe	-9.75931
▁vær	-9.75945
hard	-9.76037
▁sykehus	-9.76078
▁vist	-9.76168
▁cap	-9.76179
levende	-9.76223
▁åpne	-9.76313
▁larven	-9.76323
▁øke	-9.76357
makt	-9.76517
▁falt	-9.76533
▁meg	-9.76612
▁ishockey	-9.76639
▁øvrig	-9.76639
▁derimot	-9.7664
▁kristne	-9.7664
▁nærmest	-9.76645
▁vet	-9.76646
▁just	-9.76652
partiet	-9.76661
kov	-9.76668
▁charles	-9.76673
vor	-9.76675
▁lek	-9.76678
hjul	-9.76707
gaard	-9.76711
skifte	-9.76738
▁midten	-9.76755
▁jesu	-9.76765
▁helge	-9.76789
▁nederlandsk	-9.76836
▁bytte	-9.76863
▁rygg	-9.76898
▁hell	-9.76941
▁wal	-9.76967
▁østlig	-9.76995
zy	-9.77052
▁adel	-9.77065
▁ran	-9.77081
▁oppsto	-9.77089
▁økonomiske	-9.77112
▁nan	-9.77149
19	-9.77195
jev	-9.772
▁front	-9.77271
▁spansk	-9.7728
▁formann	-9.77314
▁vis	-9.77352
zh	-9.77387
▁rør	-9.77395
▁leve	-9.77422
▁fordelt	-9.77429
▁lot	-9.77468
76	-9.7754
▁kristian	-9.77588
▁1961	-9.7766
▁inkluderer	-9.7766
▁beijing	-9.7766
▁pol	-9.77672
▁jazz	-9.77683
gjort	-9.77737
▁økonomi	-9.77798
46	-9.77813
▁north	-9.77838
▁rang	-9.77857
farge	-9.77921
trær	-9.77989
▁støttet	-9.78068
▁finn	-9.781
riket	-9.78105
▁klassen	-9.78176
▁huset	-9.78207
motor	-9.78257
gal	-9.78341
▁irland	-9.78363
din	-9.78506
▁programmet	-9.78523
▁prisen	-9.7853
▁avisen	-9.78555
▁handling	-9.78568
kka	-9.7857
▁ung	-9.78647
▁400	-9.78679
▁ytterligere	-9.7869
▁1971	-9.78707
▁publisert	-9.78708
▁blue	-9.78709
▁1958	-9.78709
▁soldater	-9.7871
▁1955	-9.78712
▁korea	-9.78756
vind	-9.78771
hode	-9.78781
▁konkurranse	-9.78827
▁listen	-9.78833
prosjekt	-9.78897
60	-9.7891
▁benyttes	-9.78923
▁hage	-9.78964
kultur	-9.78981
▁måneder	-9.78981
▁fc	-9.78985
sion	-9.79003
▁solgt	-9.79009
▁ask	-9.79079
bær	-9.79168
71	-9.79185
▁bob	-9.79203
▁stoff	-9.79226
▁song	-9.79228
▁spanske	-9.79249
chu	-9.79347
▁kull	-9.79351
▁organisasjonen	-9.79356
▁bay	-9.79388
ledende	-9.79393
begrepet	-9.79501
▁foto	-9.79617
▁1941	-9.79732
▁regissert	-9.79733
▁norrøn	-9.79735
▁1918	-9.79745
▁1967	-9.7975
▁spania	-9.7976
marked	-9.79772
eksamen	-9.79815
▁avhengig	-9.79824
▁total	-9.79892
▁fylket	-9.7993
virksomhet	-9.79942
stasjonen	-9.79951
▁ytre	-9.79955
▁historisk	-9.79991
stått	-9.80001
▁våren	-9.80102
ordenen	-9.80145
vert	-9.80146
▁utstilling	-9.80153
▁jevn	-9.80169
haug	-9.8018
▁gjeste	-9.80248
▁ara	-9.80309
hov	-9.80387
▁sti	-9.80395
▁hou	-9.80415
▁troll	-9.8042
▁32	-9.80423
▁metal	-9.80441
lus	-9.80443
litt	-9.80468
rykket	-9.80478
▁king	-9.80499
▁mulighet	-9.80568
▁vitenskap	-9.806
dekk	-9.80602
▁stav	-9.80603
tom	-9.80655
dahl	-9.80668
▁kinas	-9.8069
ér	-9.80764
▁krets	-9.80778
ū	-9.80785
▁nevnt	-9.80785
▁flertall	-9.80786
▁dialekt	-9.80786
▁frederik	-9.8079
▁flagg	-9.8079
▁forsøkt	-9.80799
qui	-9.80804
▁1947	-9.80807
▁lansert	-9.80808
▁1930	-9.80809
▁vitenskapelig	-9.80837
▁heng	-9.80873
▁ube	-9.80953
▁utvalg	-9.81013
ledet	-9.81083
▁rep	-9.81121
sha	-9.81162
▁hoff	-9.81176
▁uker	-9.81262
▁cell	-9.81342
92	-9.81436
uc	-9.81439
▁politikk	-9.8153
lingen	-9.81607
▁dam	-9.81617
▁lignende	-9.81646
▁nils	-9.81758
▁cent	-9.81767
tjen	-9.81825
▁øvre	-9.81849
▁hurtig	-9.81851
▁1928	-9.81861
▁omfattende	-9.81865
▁historiker	-9.81882
▁jarl	-9.81918
atet	-9.81919
▁nærheten	-9.8192
▁løper	-9.81955
feltet	-9.82008
▁femte	-9.821
▁organisert	-9.82158
▁master	-9.82244
▁valget	-9.82284
▁maur	-9.82298
▁kroner	-9.82423
rene	-9.82428
▁mill	-9.82439
▁atom	-9.82484
▁studenter	-9.82551
▁bibliotek	-9.82555
veg	-9.82562
mennene	-9.82625
arbeidet	-9.82654
▁hill	-9.82673
dor	-9.82697
▁ce	-9.82701
ón	-9.8278
▁ansatte	-9.82843
▁åpen	-9.8285
▁normalt	-9.82868
mengde	-9.82869
▁debutert	-9.82903
▁opprinnelse	-9.82924
▁tilhørt	-9.82925
▁situasjon	-9.82926
▁klima	-9.82927
▁fokus	-9.82927
▁mak	-9.82947
etter	-9.82967
▁hevdet	-9.82984
▁sikkerhets	-9.83015
▁vid	-9.83065
▁nam	-9.83103
▁albert	-9.83137
▁thi	-9.83139
▁ji	-9.83157
▁utføre	-9.83221
▁spill	-9.83229
▁sort	-9.83307
▁grunnlag	-9.83418
▁idretts	-9.83444
▁dekk	-9.83461
▁pin	-9.83594
▁tettstedet	-9.8365
▁larvene	-9.83983
▁univers	-9.83988
▁sistnevnte	-9.84011
▁vunnet	-9.84011
▁wilhelm	-9.84011
▁service	-9.84011
▁passasjer	-9.84011
▁betrakte	-9.84011
▁arrangere	-9.84011
▁klassisk	-9.84011
▁college	-9.84018
▁flåte	-9.8402
▁sekund	-9.8402
▁lufthavn	-9.84023
▁1966	-9.84033
▁ungdom	-9.84153
øst	-9.84349
▁hundre	-9.84352
krets	-9.84408
▁tettsted	-9.84422
▁fabrikk	-9.84515
▁base	-9.84517
▁fremst	-9.84641
valget	-9.84688
kysten	-9.8472
▁sær	-9.84738
▁toppen	-9.84793
▁tang	-9.84879
gå	-9.84881
ova	-9.84898
▁win	-9.84918
kammer	-9.84938
▁marie	-9.84942
periode	-9.84976
▁cal	-9.84998
▁kvinnelig	-9.85061
▁hovedsak	-9.85088
▁joseph	-9.8511
ο	-9.8511
▁school	-9.8511
kandidat	-9.85115
▁tolv	-9.85119
▁sim	-9.8512
▁byprefekture	-9.85123
▁1959	-9.8513
▁kjerne	-9.85148
pan	-9.85204
▁ves	-9.85227
▁yngre	-9.85228
▁tilby	-9.85237
kh	-9.85241
▁rute	-9.85264
rick	-9.85273
▁johann	-9.85278
▁wei	-9.85295
pel	-9.85322
trolig	-9.85343
hild	-9.85352
uf	-9.85372
▁elve	-9.8549
▁fremme	-9.855
▁vannet	-9.85525
▁livs	-9.85529
kanten	-9.85563
▁poly	-9.85574
dagen	-9.85715
▁utøve	-9.85761
▁sent	-9.85774
mod	-9.85912
▁rå	-9.85971
▁overgang	-9.8604
tina	-9.86066
givelse	-9.86076
løpet	-9.86176
т	-9.86221
▁dynastiet	-9.86228
▁1949	-9.8624
▁betegne	-9.86243
▁salg	-9.8629
▁pra	-9.86313
▁star	-9.8635
▁undervisning	-9.86401
▁koll	-9.86475
vente	-9.8652
▁mol	-9.86569
bjørn	-9.866
møte	-9.86626
fylt	-9.86656
kol	-9.86707
▁årsak	-9.86734
følgende	-9.86868
▁rein	-9.86869
▁tale	-9.86914
▁menighet	-9.86931
▁hud	-9.86951
▁passer	-9.86987
▁kysten	-9.86995
▁blokk	-9.87015
spekt	-9.87098
▁sveits	-9.87208
▁vanlige	-9.87281
▁mik	-9.87285
kilden	-9.873
▁fengsel	-9.87344
д	-9.87345
▁spesiell	-9.87345
▁bevart	-9.8737
▁protest	-9.87377
▁veldig	-9.87395
▁opphav	-9.8743
▁kristen	-9.87448
▁kommet	-9.87454
▁kai	-9.87477
grupper	-9.87478
▁nar	-9.87482
klubben	-9.87542
▁ger	-9.87553
gra	-9.87605
▁tha	-9.87643
svarer	-9.87721
16	-9.87722
▁slå	-9.87757
▁trafikk	-9.87779
▁gruve	-9.87817
gard	-9.87906
▁viking	-9.87952
dorf	-9.88001
jar	-9.88022
▁dor	-9.88073
▁utvidet	-9.88121
mesterskapet	-9.88157
▁ris	-9.88335
gin	-9.8834
▁uavhengig	-9.88341
▁instrument	-9.8846
▁gard	-9.88474
▁redusert	-9.88482
▁medisin	-9.88482
▁forteller	-9.88485
▁offentlige	-9.88489
▁1944	-9.88495
▁1939	-9.88502
▁kjøl	-9.88563
rør	-9.88575
holm	-9.88614
▁stammer	-9.88634
▁formål	-9.88731
▁byer	-9.88759
▁stand	-9.88778
▁grø	-9.88817
løper	-9.88818
▁kryss	-9.88832
▁kommuner	-9.88847
anda	-9.88865
festival	-9.88926
rsom	-9.88933
tittel	-9.88954
▁kjøpe	-9.88966
▁liga	-9.88973
▁single	-9.88979
▁kaste	-9.89075
oble	-9.89079
▁camp	-9.8912
full	-9.89171
con	-9.89174
▁bio	-9.89207
▁astro	-9.8924
15	-9.89281
▁solo	-9.89308
ance	-9.89357
▁verket	-9.89389
▁offiser	-9.89415
45	-9.89448
α	-9.8963
▁league	-9.8963
▁kvalitet	-9.89638
▁fløy	-9.89643
▁bronse	-9.89649
▁behandle	-9.89686
▁kjøre	-9.89692
▁gjennomsnitt	-9.89695
▁publi	-9.89712
▁hed	-9.89725
snitt	-9.8978
ky	-9.89805
24	-9.89822
▁buk	-9.90018
kors	-9.90025
▁spiss	-9.90026
▁strekke	-9.90068
▁jule	-9.90181
▁vinge	-9.90247
▁synes	-9.90275
▁virkelig	-9.90353
forhold	-9.90391
▁horn	-9.90395
delen	-9.90419
▁sovjetisk	-9.90534
▁kas	-9.9054
ulf	-9.90568
saker	-9.9061
▁områdene	-9.90623
▁ph	-9.90711
▁california	-9.90793
▁installert	-9.90793
▁jacob	-9.90794
▁magnus	-9.90797
▁1957	-9.90814
faktor	-9.90825
▁sverd	-9.9085
▁skille	-9.90979
▁ref	-9.9098
fjellet	-9.90993
ament	-9.90994
▁hydro	-9.90994
▁oppdrag	-9.91018
▁150	-9.91019
▁jakt	-9.91026
sberg	-9.91063
▁bou	-9.91086
▁morgen	-9.91097
ney	-9.91134
▁dør	-9.91149
▁und	-9.91179
forfatter	-9.91267
figur	-9.91276
krig	-9.91279
hånd	-9.91289
▁opptil	-9.91301
▁sønnen	-9.91355
▁tapte	-9.91362
▁fjord	-9.91376
▁ramme	-9.91518
▁kontrakt	-9.91579
▁studier	-9.91593
▁kjøpte	-9.91646
▁økonomisk	-9.91655
▁medie	-9.9166
▁nederland	-9.91752
▁legend	-9.91912
▁etterfulgt	-9.91969
▁tilgjengelig	-9.91969
▁erklært	-9.9197
▁jødisk	-9.91971
▁episode	-9.91971
▁sun	-9.9199
hørende	-9.9204
jan	-9.92112
▁sålede	-9.92117
▁lavere	-9.92144
▁henry	-9.92166
sport	-9.92206
▁gold	-9.923
fot	-9.92486
oma	-9.92547
▁problem	-9.92548
▁lev	-9.92557
▁forsvars	-9.92567
▁elv	-9.92647
fred	-9.92704
▁systemet	-9.92816
ity	-9.92831
▁saken	-9.92844
▁tog	-9.92904
▁materiale	-9.93025
▁sco	-9.93134
▁forsknings	-9.93141
ō	-9.9316
▁nødvendig	-9.9316
▁alvorlig	-9.93161
▁län	-9.93162
▁nevnes	-9.93163
▁luther	-9.93166
▁stortinget	-9.93166
▁grunnla	-9.93185
▁endre	-9.9319
ledning	-9.93211
kutt	-9.93238
▁sider	-9.93257
▁prins	-9.93285
▁ekstra	-9.93301
▁landslag	-9.93358
▁riksvei	-9.93358
▁may	-9.93373
▁bryst	-9.93391
▁bonde	-9.93409
▁provins	-9.9353
▁gil	-9.93561
▁mala	-9.93604
▁glass	-9.93629
middel	-9.93672
hund	-9.93695
visning	-9.93714
▁søke	-9.93715
25	-9.93897
▁sten	-9.93911
▁motsetning	-9.9394
illa	-9.93986
stø	-9.93994
▁solgte	-9.94012
▁polsk	-9.94092
▁buss	-9.94098
99	-9.94198
▁nasjon	-9.94351
▁administrativ	-9.94365
▁introdusert	-9.94365
ν	-9.94365
▁publikum	-9.94365
▁hustru	-9.94367
▁kommunal	-9.94375
▁1935	-9.94381
▁unntak	-9.94384
▁diplomat	-9.94481
35	-9.94503
bein	-9.94536
bakken	-9.94572
staten	-9.94613
▁bydelen	-9.94661
grunn	-9.948
herre	-9.9488
distrikt	-9.94886
▁blei	-9.94931
mond	-9.95096
▁bord	-9.95104
97	-9.9515
halvøya	-9.95295
▁motiv	-9.95346
ric	-9.95353
▁intern	-9.95375
▁elev	-9.95396
gav	-9.9543
▁enda	-9.9554
▁studio	-9.95583
▁artikkel	-9.95584
▁hovedrollen	-9.95587
▁edward	-9.95592
▁oscar	-9.95602
▁1942	-9.95607
▁1937	-9.95613
▁konkurransen	-9.95635
▁jordbruk	-9.95659
▁forretnings	-9.95674
legger	-9.95696
▁high	-9.95743
▁haug	-9.95747
▁tråd	-9.95797
▁enkle	-9.95816
▁begrep	-9.95857
▁ana	-9.95979
▁bestod	-9.95988
▁tromsø	-9.9605
▁straffe	-9.96126
▁cu	-9.96155
▁ekspedisjon	-9.96183
skudd	-9.96183
▁angrepet	-9.96187
klassen	-9.96228
oksid	-9.96232
arkiv	-9.96393
▁streng	-9.96393
▁gau	-9.96487
▁utover	-9.96514
rim	-9.9659
ische	-9.96634
▁bestemt	-9.96634
com	-9.9667
kjær	-9.96679
▁innsjø	-9.96751
spenn	-9.96778
▁kop	-9.96819
▁tilknyttet	-9.96819
▁operatør	-9.9682
ов	-9.96824
prinsipp	-9.96827
▁innsats	-9.96829
▁brev	-9.96831
▁spredt	-9.96833
▁smith	-9.96834
▁skotsk	-9.96845
▁administrasjons	-9.96858
ios	-9.96866
rolle	-9.9693
▁likhet	-9.96976
grense	-9.97041
▁bit	-9.97044
▁gun	-9.9708
blad	-9.97095
ledd	-9.97257
▁problemer	-9.9727
▁bydel	-9.9731
▁damp	-9.97331
▁sle	-9.97358
▁old	-9.97387
fulle	-9.97417
setningen	-9.97549
dam	-9.97598
▁reist	-9.97654
gate	-9.97726
▁blomst	-9.97735
▁måned	-9.97737
skij	-9.97835
▁od	-9.97878
▁ønske	-9.97928
dri	-9.97938
▁hode	-9.97958
▁1905	-9.98069
▁himmel	-9.9808
▁ekteskap	-9.98085
▁1924	-9.98087
▁videregående	-9.98104
▁skilt	-9.98128
dannelse	-9.98158
▁flyplass	-9.98191
kkel	-9.98211
yang	-9.98241
▁rask	-9.98471
turnering	-9.98495
▁nes	-9.9851
▁banen	-9.98518
▁forbi	-9.98533
▁stig	-9.98617
▁handel	-9.98658
byrå	-9.98706
bul	-9.98736
▁landsby	-9.98863
ella	-9.98881
bakk	-9.98926
onia	-9.98989
mma	-9.99011
▁spørsmål	-9.99046
bladet	-9.99055
tage	-9.99088
▁føl	-9.99144
drevet	-9.99149
can	-9.99199
▁ok	-9.99304
▁innflytelse	-9.99329
ç	-9.99335
▁eksempler	-9.99335
▁primær	-9.99335
▁medlemmene	-9.99345
▁deriblant	-9.99346
▁mongol	-9.99349
▁1912	-9.99356
▁1943	-9.99358
▁liberal	-9.99365
▁folket	-9.99367
settes	-9.9942
sjø	-9.99459
▁lån	-9.99471
▁flykte	-9.99479
▁yu	-9.99523
bon	-9.99555
▁gått	-9.9974
▁human	-9.99765
post	-9.99793
ico	-9.99866
▁minutter	-9.99908
▁gutt	-9.99977
▁politiet	-9.99983
▁andreas	-10.0001
▁turist	-10.0002
bånd	-10.0002
▁kap	-10.0004
▁teknologi	-10.0005
▁bidra	-10.0022
fabrikk	-10.0024
▁kata	-10.003
▁rek	-10.0032
▁kjønn	-10.0041
▁myr	-10.0054
båter	-10.0057
▁inspirert	-10.0062
▁generelt	-10.0063
▁1951	-10.0064
ual	-10.0065
▁uttalt	-10.0069
▁bygninger	-10.007
▁kongens	-10.0078
▁arn	-10.008
▁plassering	-10.0081
▁bevis	-10.0082
06	-10.0084
lé	-10.0087
▁artister	-10.0091
▁frihet	-10.0091
27	-10.0093
▁stilt	-10.0097
▁reiste	-10.0101
▁linjen	-10.0103
pur	-10.0108
ulykke	-10.0111
konge	-10.0122
formen	-10.0129
▁republikken	-10.013
▁cro	-10.013
▁svar	-10.014
▁hannen	-10.0141
44	-10.0143
ltså	-10.0144
▁dj	-10.0144
▁arv	-10.0144
▁eva	-10.0161
▁opphold	-10.0162
▁south	-10.0162
ada	-10.0166
▁fremste	-10.0176
▁app	-10.019
▁fullstendig	-10.0192
▁innbyggertall	-10.0192
▁skottland	-10.0192
▁erobret	-10.0192
▁1932	-10.0193
▁1933	-10.0194
vinner	-10.0194
musik	-10.0196
▁reaksjon	-10.0203
▁klart	-10.0212
▁ankom	-10.0215
åpning	-10.0219
▁overført	-10.0223
▁syr	-10.0227
▁private	-10.0229
▁160	-10.0233
▁py	-10.0236
▁river	-10.0237
▁anim	-10.024
▁status	-10.0241
listen	-10.0245
▁fritt	-10.0255
▁beskrevet	-10.0256
▁spillet	-10.0261
havn	-10.0264
bak	-10.0267
▁lee	-10.0268
museum	-10.0268
deler	-10.0268
født	-10.0271
holmen	-10.0279
ordning	-10.03
▁bære	-10.0313
tede	-10.0314
▁nordisk	-10.0316
▁utgangspunkt	-10.0323
▁cirka	-10.0323
▁utbredt	-10.0324
▁tegneserie	-10.0324
komité	-10.0324
▁1926	-10.0325
▁finnmark	-10.0325
▁ukjent	-10.0329
▁angeles	-10.0329
▁tids	-10.0331
▁award	-10.0331
▁kg	-10.0333
trykt	-10.0335
▁foruten	-10.0341
artikler	-10.0343
▁uke	-10.0347
vold	-10.0349
▁fullført	-10.036
▁beskrivelse	-10.036
▁luc	-10.0371
nny	-10.0372
▁selge	-10.0382
▁bånd	-10.0384
▁sendte	-10.0385
▁utgi	-10.0388
▁amt	-10.0389
▁innsjøen	-10.039
cal	-10.04
stripe	-10.0403
produkt	-10.0405
▁beskriver	-10.0413
skriv	-10.0413
73	-10.0413
▁utvikle	-10.0417
▁prosjektet	-10.0422
▁landskap	-10.0425
tjenester	-10.0426
car	-10.0428
▁andersen	-10.0432
öl	-10.0433
▁middelalderen	-10.0438
forestilling	-10.0439
serie	-10.044
▁kvart	-10.0442
▁europe	-10.0449
▁objekt	-10.0456
▁records	-10.0456
▁stadion	-10.0457
▁dømt	-10.0457
▁hotell	-10.0458
▁1921	-10.0458
▁mytologi	-10.0458
▁1954	-10.0459
▁tryg	-10.0463
▁dvs	-10.0463
▁mø	-10.0465
▁otto	-10.0467
▁skjær	-10.0477
▁registrert	-10.0481
▁laste	-10.0492
stig	-10.0497
▁kva	-10.0498
▁hum	-10.0507
▁anta	-10.0507
▁arve	-10.0507
▁roger	-10.0512
▁green	-10.0513
000	-10.0514
▁log	-10.0515
▁unn	-10.0518
▁sport	-10.0519
▁typen	-10.0523
▁idrettslag	-10.0532
▁boy	-10.0538
trafikk	-10.054
elli	-10.0543
▁bakkroppen	-10.055
▁luk	-10.0559
18	-10.0571
▁bosetning	-10.0571
▁roll	-10.0573
dro	-10.0573
▁grunnlegge	-10.0587
kompleks	-10.0592
▁belgia	-10.0592
▁sjelden	-10.0592
▁gustav	-10.0592
▁1938	-10.0594
▁etterfølger	-10.0594
▁snakke	-10.0595
▁forholdsvis	-10.0595
▁klokke	-10.0595
▁phil	-10.0597
▁1700	-10.0604
▁bibel	-10.0604
▁utdannelse	-10.0613
▁møter	-10.0614
▁epi	-10.0617
32	-10.0629
områdene	-10.0631
▁deles	-10.0638
punktet	-10.0649
▁lese	-10.065
▁regional	-10.0657
▁fyrst	-10.0659
▁final	-10.0664
avdeling	-10.0679
▁kanal	-10.0682
bøker	-10.0686
▁nettverk	-10.069
akse	-10.0691
▁mary	-10.0695
pass	-10.0699
▁eide	-10.0708
31	-10.071
▁stri	-10.0722
▁rei	-10.0723
skipet	-10.0725
▁kommunikasjon	-10.0729
▁positiv	-10.0729
▁moskva	-10.0729
▁kritikk	-10.0729
▁america	-10.0729
▁fysisk	-10.0729
▁vii	-10.0733
▁kapell	-10.0734
▁nedlagt	-10.0736
▁detalj	-10.0736
▁programmer	-10.0739
later	-10.0752
foreningen	-10.0753
▁produsere	-10.0758
cul	-10.0758
▁mei	-10.0761
▁spar	-10.0763
▁dato	-10.077
▁170	-10.0774
iteten	-10.0775
▁dommer	-10.0775
▁adam	-10.0776
▁kaptein	-10.0785
▁kok	-10.0786
▁timer	-10.0802
▁cy	-10.0808
mont	-10.081
▁landskapet	-10.0812
▁slett	-10.0813
industri	-10.0814
atur	-10.0816
utvikling	-10.0817
program	-10.0818
parken	-10.0821
vekst	-10.0823
▁1000	-10.083
nummer	-10.0834
rommet	-10.0839
somme	-10.0846
▁markert	-10.0856
▁riket	-10.086
▁leker	-10.0866
▁milliard	-10.0867
▁anerkjent	-10.0868
▁1922	-10.0869
▁daniel	-10.0872
▁utnytte	-10.0875
renn	-10.0878
▁snø	-10.0879
▁forvingen	-10.0883
▁agder	-10.0885
▁latinsk	-10.089
▁bygda	-10.0891
▁ansvarlig	-10.0898
▁oppleve	-10.0904
▁vakt	-10.0905
▁verker	-10.0907
▁athen	-10.0908
▁utgivelse	-10.0908
▁overfor	-10.093
ania	-10.0937
▁oversatt	-10.0942
▁kongelige	-10.0954
96	-10.0958
park	-10.0959
produsent	-10.0963
▁kommunene	-10.0965
▁carol	-10.0966
politikk	-10.0967
▁dun	-10.0981
28	-10.0989
▁sete	-10.0994
▁sar	-10.1
fell	-10.1
▁nedre	-10.1004
▁kilder	-10.1004
▁trener	-10.1006
▁friedrich	-10.1008
▁lengst	-10.1009
▁ridder	-10.1009
▁1929	-10.101
▁club	-10.1011
▁france	-10.1011
▁papir	-10.1012
▁hemmelig	-10.1013
uch	-10.1013
▁advokat	-10.1014
▁hersker	-10.1017
▁lede	-10.1018
▁tradisjonelle	-10.1022
▁forskjell	-10.1025
▁føde	-10.1028
▁utvikler	-10.1028
▁tradisjonell	-10.1034
▁gyl	-10.1034
▁sankt	-10.1045
olo	-10.1047
▁kommando	-10.1061
▁villa	-10.1068
▁storm	-10.1071
▁arc	-10.1071
▁frø	-10.1072
▁endelig	-10.1079
▁utga	-10.1081
▁wien	-10.1082
bred	-10.1083
ridge	-10.1083
▁kald	-10.1086
▁tonn	-10.1087
▁korn	-10.1087
▁gall	-10.1106
▁dekket	-10.1112
▁salme	-10.1126
▁his	-10.1134
▁filosofi	-10.1136
▁niels	-10.1137
ough	-10.1143
▁kategori	-10.1151
▁østerriksk	-10.1151
▁nominert	-10.1151
▁terreng	-10.1151
▁dollar	-10.1151
▁brensel	-10.1151
▁inngår	-10.1152
innspilling	-10.1152
monument	-10.1153
▁premier	-10.1154
▁signert	-10.1155
bokstav	-10.1156
▁1600	-10.1159
84	-10.116
▁team	-10.1176
▁tradisjonel	-10.1179
▁tidspunkt	-10.1185
▁grov	-10.1193
▁press	-10.1218
▁nav	-10.1224
▁din	-10.1228
▁dobbelt	-10.1242
▁sideelv	-10.1247
▁skatte	-10.126
▁larsen	-10.1261
klasse	-10.1264
▁44	-10.1266
▁vinteren	-10.1271
▁bølge	-10.1275
▁kreft	-10.128
bryter	-10.1288
▁skiller	-10.1288
odd	-10.1289
▁brand	-10.129
▁nedbør	-10.1296
konferanse	-10.1296
▁major	-10.1296
▁inntekt	-10.1297
▁multi	-10.1297
liste	-10.1298
▁friidrett	-10.13
gått	-10.1303
▁andreplass	-10.1306
bebyggelse	-10.1309
▁sof	-10.1311
▁jøde	-10.1319
▁music	-10.1324
98	-10.1336
▁ansatt	-10.1339
▁regne	-10.1342
▁elever	-10.1343
▁mannskap	-10.1351
verdi	-10.1353
▁eventyr	-10.1353
▁bidrag	-10.1354
sikkerhet	-10.1355
▁snart	-10.1368
▁bilder	-10.1392
▁bestemte	-10.1394
maskin	-10.1404
cin	-10.1406
▁produserer	-10.1412
kjemi	-10.142
▁hevde	-10.1441
▁middelsstor	-10.1443
ström	-10.1443
▁forekommer	-10.1443
▁inneholdt	-10.1443
▁bispedømme	-10.1444
▁utenlandsk	-10.1444
▁1917	-10.1445
▁oblast	-10.1445
▁1931	-10.1445
▁bidro	-10.1447
idrett	-10.1447
▁skiftet	-10.1447
▁skaffe	-10.1448
▁scott	-10.145
▁arkitektur	-10.146
lærer	-10.1467
89	-10.147
▁effektiv	-10.1472
▁eksempelvis	-10.1474
▁white	-10.1474
▁avtale	-10.1479
▁pap	-10.1485
▁institutt	-10.1486
▁artist	-10.1486
▁vekst	-10.1495
▁manus	-10.1505
▁stål	-10.1507
▁blanding	-10.1516
▁bunn	-10.1519
▁stift	-10.1524
▁verdensmester	-10.153
▁vokser	-10.153
▁foreningen	-10.1532
▁gjeng	-10.1534
63	-10.1539
▁fn	-10.1539
hof	-10.1541
brutt	-10.1558
▁rob	-10.1561
▁nm	-10.1565
91	-10.1573
typen	-10.1573
▁styret	-10.159
▁offisielt	-10.1592
▁juridisk	-10.1592
admiral	-10.1592
▁redusere	-10.1593
▁klipp	-10.1593
▁melk	-10.1593
▁godkjent	-10.1594
▁kveld	-10.1594
▁1934	-10.1595
▁brøt	-10.1596
▁bekrefte	-10.1597
▁alex	-10.1597
▁gui	-10.1603
kostnad	-10.1607
▁behov	-10.1612
▁planter	-10.1617
▁spise	-10.1619
strekning	-10.1621
reise	-10.163
▁alpin	-10.1634
ruten	-10.1636
ary	-10.1637
▁tårn	-10.1643
▁religiøse	-10.1645
▁inge	-10.1649
▁forbundet	-10.1656
leie	-10.1672
▁anlegg	-10.1674
▁orkester	-10.1675
mur	-10.1675
▁paus	-10.1675
▁frukt	-10.1681
▁plateselskap	-10.1686
▁institut	-10.17
▁penger	-10.1704
ån	-10.1707
▁gy	-10.1712
▁statlig	-10.1714
▁sist	-10.1714
rent	-10.1737
▁1907	-10.1744
▁portugisisk	-10.1744
▁antagelig	-10.1744
▁erkebiskop	-10.1744
▁definert	-10.1745
▁bronsemedalje	-10.1745
▁litterær	-10.1746
▁1919	-10.1746
▁hellige	-10.1748
▁vannkraftverk	-10.1748
kompani	-10.175
▁grunnlegger	-10.1754
handel	-10.1756
▁normal	-10.1757
▁olsen	-10.176
stri	-10.1763
▁strak	-10.1765
▁terri	-10.1766
flu	-10.1767
▁mottatt	-10.1768
▁lønn	-10.1768
kortet	-10.1775
phy	-10.1777
▁hå	-10.1779
▁underlagt	-10.1781
▁tunnel	-10.1782
▁mangle	-10.1788
una	-10.1792
speil	-10.18
▁pul	-10.1809
regn	-10.1812
▁styrkene	-10.1818
▁mynt	-10.1819
gram	-10.1821
▁bredde	-10.1826
▁sunn	-10.1838
▁dokumenter	-10.1847
industrien	-10.185
▁begrenset	-10.1853
▁gener	-10.1854
▁sikker	-10.186
økonomi	-10.1865
▁struktur	-10.188
▁whi	-10.1888
▁bach	-10.189
▁drag	-10.189
ł	-10.1898
▁konkurrere	-10.1898
▁county	-10.1898
▁vulkan	-10.1898
▁oversikt	-10.1898
▁allierte	-10.1898
▁festning	-10.1898
konsept	-10.1898
▁ansett	-10.1898
▁1914	-10.1899
▁referere	-10.19
▁1925	-10.19
▁kjemisk	-10.19
▁tau	-10.1901
svømme	-10.1901
▁kanalen	-10.1902
▁east	-10.1903
▁eik	-10.1907
▁spenning	-10.1908
▁mikro	-10.1913
plate	-10.1915
▁bosatt	-10.192
▁gradvis	-10.1925
▁overleve	-10.1927
▁ali	-10.194
▁ansvar	-10.1949
bygget	-10.1959
▁saga	-10.196
rup	-10.1961
▁tj	-10.1961
▁filosof	-10.1966
passet	-10.1972
styrt	-10.198
▁sho	-10.198
▁avsluttet	-10.1981
▁skinn	-10.1985
▁score	-10.1995
gno	-10.1996
lj	-10.1996
▁utsatt	-10.2005
▁az	-10.2016
▁45	-10.2018
▁dø	-10.2021
▁sluttet	-10.2023
▁will	-10.2028
▁mangler	-10.2032
norsk	-10.2041
endring	-10.2042
▁bredt	-10.2043
▁600	-10.2051
ān	-10.2052
▁grei	-10.2053
friidrettsutøver	-10.2054
▁administrere	-10.2054
▁mexico	-10.2054
▁alexander	-10.2054
▁frykt	-10.2054
▁nektet	-10.2055
▁800	-10.2056
basert	-10.2057
▁turneringen	-10.2059
vald	-10.206
26	-10.2068
▁motstander	-10.207
▁vokalist	-10.2071
▁sveitsisk	-10.2073
▁with	-10.2079
▁antallet	-10.2082
▁jack	-10.2082
setting	-10.2096
▁ark	-10.2096
▁makten	-10.2097
▁slave	-10.2104
▁junior	-10.2107
▁qui	-10.2115
▁motsatt	-10.2116
put	-10.2117
▁insekter	-10.2125
høyskole	-10.2126
▁fjellene	-10.2138
▁skyte	-10.2139
▁lim	-10.2142
▁bakken	-10.2143
▁walt	-10.2155
▁levert	-10.2164
▁skriver	-10.218
dommer	-10.2181
▁cho	-10.2185
konkurranse	-10.2185
▁forsvaret	-10.2205
▁høst	-10.2211
▁hordaland	-10.2213
▁fattig	-10.2213
fysikk	-10.2213
▁invasjon	-10.2214
▁edvard	-10.2214
apparat	-10.2216
▁arena	-10.2224
▁oversettelse	-10.2225
▁play	-10.2229
▁overflate	-10.2231
▁term	-10.2237
▁för	-10.2237
▁velge	-10.2238
fond	-10.224
▁cand	-10.2243
▁lykke	-10.225
▁vg	-10.2252
▁fortalt	-10.2256
▁emil	-10.2269
kall	-10.2279
▁tvil	-10.2285
▁språket	-10.23
celle	-10.2309
▁drap	-10.2315
▁spring	-10.2321
wald	-10.2321
tunnelen	-10.2334
aktiv	-10.2335
23	-10.2335
handlet	-10.2355
elv	-10.2355
17	-10.2356
▁tilbud	-10.2359
▁vokal	-10.2362
▁fartøy	-10.2366
▁internett	-10.2371
▁eksperiment	-10.2374
▁guvernør	-10.2374
▁kjærlighet	-10.2374
▁company	-10.2374
▁tempel	-10.2374
▁kritiker	-10.2374
▁opptrådt	-10.2374
▁ungarn	-10.2374
▁sachsen	-10.2374
▁faktisk	-10.2375
▁anvende	-10.2375
▁myndighetene	-10.2375
aceae	-10.2376
▁påvirket	-10.2376
▁definere	-10.2377
▁jackson	-10.2379
▁elver	-10.2381
▁beskrive	-10.2384
▁1500	-10.2385
▁metro	-10.2397
▁vogn	-10.2399
▁stillingen	-10.24
▁petter	-10.2402
▁besøkt	-10.2408
▁sovjet	-10.241
serien	-10.2423
▁kjøpt	-10.2424
▁nordover	-10.2425
▁søkt	-10.2426
roman	-10.2428
▁schw	-10.2429
range	-10.2431
29	-10.2434
dyktig	-10.2434
▁jim	-10.2443
vika	-10.2447
ical	-10.2453
▁modellen	-10.2466
▁festningen	-10.2466
▁platen	-10.2497
forbundet	-10.2501
krever	-10.2506
▁max	-10.2513
angrep	-10.2517
▁wood	-10.2526
11	-10.2533
▁chicago	-10.2538
▁geografisk	-10.2538
▁bakvingen	-10.2539
▁programleder	-10.254
▁hul	-10.2541
▁1910	-10.2542
▁drammen	-10.2542
▁philip	-10.2543
▁rektor	-10.2543
▁sannsynligvis	-10.2544
▁formula	-10.2544
▁sagt	-10.2546
▁brede	-10.2548
▁gjeld	-10.2549
▁debut	-10.255
soldat	-10.2553
▁tredjeplass	-10.2564
▁gjenstand	-10.2566
able	-10.2571
▁motta	-10.2573
▁ost	-10.2574
▁nasjonalpark	-10.258
▁cur	-10.2583
bru	-10.2598
▁ordre	-10.2603
strup	-10.2605
▁och	-10.2606
22	-10.261
bille	-10.2626
▁beskrev	-10.2632
▁long	-10.2639
▁signal	-10.2642
bal	-10.2651
▁krysser	-10.2655
▁120	-10.2656
93	-10.266
tekst	-10.2664
▁tam	-10.2665
alisme	-10.2678
▁registr	-10.2679
maleri	-10.268
▁betegnelse	-10.2681
forskning	-10.2686
▁tai	-10.2687
modell	-10.2688
▁museet	-10.2689
▁sannsynlig	-10.2699
kontor	-10.2699
myndighet	-10.2701
▁teknikk	-10.2702
▁involvert	-10.2705
▁praksis	-10.2705
▁ludvig	-10.2705
▁krevde	-10.2705
▁hjerne	-10.2705
pedagog	-10.2705
▁studioalbum	-10.2705
▁håkon	-10.2706
▁1913	-10.2707
▁arbeiderpartiet	-10.2707
▁hindre	-10.2708
▁angripe	-10.2709
▁planlagt	-10.2709
▁beregne	-10.271
▁reserve	-10.271
strøk	-10.2718
▁steve	-10.2723
▁østover	-10.2731
▁blomster	-10.2735
▁telemark	-10.2737
▁brødrene	-10.2737
▁bell	-10.2738
▁pur	-10.274
▁norman	-10.2757
▁utløp	-10.277
▁omfattet	-10.2784
forsyning	-10.2794
▁lyn	-10.2799
▁skudd	-10.2799
komst	-10.282
▁bærer	-10.2822
▁vegg	-10.2825
▁kode	-10.2825
▁hastighet	-10.2831
▁euro	-10.2832
firmaet	-10.2832
▁penge	-10.2838
▁00	-10.2842
stjerne	-10.285
▁ønsker	-10.2852
▁løsning	-10.2856
sønn	-10.2859
øvelse	-10.2859
▁malm	-10.2869
institusjon	-10.2871
vogn	-10.2871
▁kloster	-10.2872
▁1909	-10.2874
▁beseiret	-10.2874
▁digital	-10.2874
▁verdenscup	-10.2874
▁terror	-10.2874
▁vingespenn	-10.2875
kampanje	-10.2877
▁anklage	-10.2877
▁town	-10.2882
▁portrett	-10.2884
▁1891	-10.2887
▁feire	-10.2887
ittisk	-10.2892
▁kjell	-10.2892
opplysning	-10.2893
▁fed	-10.2893
21	-10.2894
blom	-10.2903
▁molde	-10.2905
▁styrte	-10.2907
▁sørover	-10.2907
▁polar	-10.2908
▁lord	-10.2908
▁utbygging	-10.2923
hed	-10.2929
vard	-10.2932
næring	-10.2937
▁konstruksjon	-10.2938
▁bakke	-10.2956
▁lake	-10.2961
versjon	-10.2964
syre	-10.2984
▁unna	-10.2984
▁troms	-10.2995
▁ingeniør	-10.3
▁funn	-10.3016
▁kapp	-10.3026
▁medisinsk	-10.303
medlem	-10.3031
forbindelse	-10.3034
miljø	-10.3035
▁fødsel	-10.3046
manuskript	-10.3047
▁eksemplar	-10.3047
▁regissør	-10.3047
▁hendelser	-10.3047
▁arthur	-10.3047
▁ødelagt	-10.3047
traktaten	-10.3047
▁doktorgrad	-10.3047
▁stiftelsen	-10.3048
▁befinne	-10.3049
▁opptre	-10.305
▁tørr	-10.305
▁kim	-10.3052
▁filip	-10.3054
▁medaljen	-10.3055
▁deltaker	-10.3061
▁ec	-10.3061
dikt	-10.3063
▁show	-10.3069
politi	-10.3072
▁levde	-10.3075
▁rand	-10.3082
▁kalk	-10.3087
runde	-10.3088
▁fol	-10.3094
minne	-10.3096
▁nak	-10.3103
fjellene	-10.3112
▁myk	-10.3118
▁klosteret	-10.3121
▁ansvaret	-10.3128
grensen	-10.3154
▁ulik	-10.3174
▁hein	-10.3175
ique	-10.3187
▁fremført	-10.319
▁bevege	-10.3192
livet	-10.3192
▁verd	-10.3196
løsning	-10.3197
▁kru	-10.3201
akademi	-10.3213
administrasjon	-10.3216
▁kommunist	-10.3216
▁hem	-10.3221
belteasteroide	-10.3222
▁tilknytning	-10.3222
▁akershus	-10.3222
▁negativ	-10.3222
▁skihopp	-10.3222
▁etablering	-10.3222
funksjon	-10.3223
plattform	-10.3223
mønster	-10.3223
▁kjørt	-10.3224
ка	-10.3225
▁700	-10.3226
måte	-10.3227
▁ray	-10.3234
▁sammenligne	-10.3234
▁hitler	-10.324
▁modern	-10.3242
olje	-10.3248
▁andel	-10.325
▁tyskerne	-10.3254
▁simon	-10.3267
▁gitarist	-10.3274
▁kino	-10.3278
▁komedie	-10.3288
kommende	-10.3289
▁gruppa	-10.3299
▁spre	-10.33
tropp	-10.3315
komiteen	-10.3324
▁tilfeller	-10.3329
▁santa	-10.3347
base	-10.3359
▁oh	-10.336
▁zu	-10.3362
▁hellig	-10.3383
▁boka	-10.3392
▁pil	-10.3393
▁rune	-10.3394
øvd	-10.3398
prefektur	-10.3398
▁1908	-10.3401
▁afghanistan	-10.3401
▁tømmer	-10.3401
▁jakob	-10.3401
▁riktig	-10.3401
▁prinsesse	-10.3401
▁rolf	-10.3401
worth	-10.3402
▁brown	-10.3402
▁bakterie	-10.3402
▁sølvmedalje	-10.3403
▁bispe	-10.3403
▁samfunnet	-10.3403
▁group	-10.3404
▁street	-10.3404
sikring	-10.3406
høyde	-10.3408
▁alfred	-10.3409
▁bodø	-10.3409
▁billed	-10.3411
galleri	-10.3413
▁etappe	-10.3415
▁avtalen	-10.3416
▁1860	-10.3419
▁sikte	-10.342
▁armé	-10.3421
▁tverr	-10.3425
▁ferge	-10.3436
kongress	-10.3438
▁undergrunns	-10.3443
▁meta	-10.3443
nemlig	-10.3444
brua	-10.3451
▁home	-10.3452
▁cri	-10.3454
familie	-10.3462
▁departement	-10.3465
▁generell	-10.3465
hunder	-10.3468
▁gli	-10.3483
▁praktisk	-10.3487
▁musikalsk	-10.3488
▁prakt	-10.3507
▁anse	-10.3514
▁gress	-10.3522
kasse	-10.353
▁bull	-10.3532
▁baron	-10.3533
ppel	-10.3533
▁gramm	-10.3572
hjem	-10.3581
vakt	-10.3582
▁aleksander	-10.3582
▁arrangement	-10.3582
▁definisjon	-10.3582
▁midlertidig	-10.3582
▁ødelegge	-10.3582
▁kjennetegn	-10.3582
▁kombinasjon	-10.3582
▁belgisk	-10.3583
▁adresse	-10.3583
▁romsdal	-10.3584
▁tolke	-10.3592
▁respekt	-10.3593
drakt	-10.3594
▁orgel	-10.3597
▁håndverk	-10.3599
▁rulle	-10.3604
▁talent	-10.3604
▁tykk	-10.3609
▁generasjon	-10.3616
▁hamar	-10.3617
▁persisk	-10.3623
fyr	-10.3626
▁unik	-10.3634
▁statue	-10.3639
▁kunde	-10.3639
▁comp	-10.3645
▁vekk	-10.3664
▁benytter	-10.3669
verden	-10.3678
hem	-10.3679
▁tilfelle	-10.3693
tårnet	-10.3707
▁vingene	-10.372
▁wel	-10.3727
▁tiår	-10.3728
в	-10.3766
▁initiativ	-10.3768
kompetanse	-10.3768
▁nøyaktig	-10.3768
▁kjøtt	-10.3768
stråling	-10.3768
▁halvparten	-10.3768
▁tyrkia	-10.3768
▁foregår	-10.3768
▁mekanisk	-10.3768
artilleri	-10.3768
▁fjær	-10.3768
▁jørgen	-10.3768
▁overraske	-10.3768
▁mektig	-10.3768
▁kredit	-10.3768
▁michel	-10.3772
▁endringer	-10.3772
▁tell	-10.3773
bunn	-10.3775
▁atlant	-10.3778
spinner	-10.3784
redskap	-10.3784
▁petr	-10.3784
▁velger	-10.3789
▁tvang	-10.3791
13	-10.3793
▁angel	-10.3794
▁tildele	-10.3795
avtale	-10.3806
datter	-10.381
14	-10.3814
jord	-10.3823
rand	-10.3839
▁vokse	-10.3841
▁pga	-10.3857
▁tsje	-10.3878
endt	-10.388
slått	-10.3884
forståelse	-10.3885
seil	-10.3896
▁byggingen	-10.39
▁unngå	-10.3908
horn	-10.3922
▁utgivelsen	-10.3934
ordnet	-10.3942
▁forskjellig	-10.3945
▁mono	-10.3946
melding	-10.395
oya	-10.3951
▁okkupasjon	-10.3956
▁nowiki	-10.3956
▁pakistan	-10.3956
▁alkohol	-10.3956
▁færøyene	-10.3956
▁naturgass	-10.3956
▁vilhelm	-10.3956
▁ekstrem	-10.3956
▁reklame	-10.3956
▁kommersiell	-10.3956
▁autonom	-10.3957
legging	-10.3957
▁forbedre	-10.3957
▁presentert	-10.3957
▁bøkene	-10.3957
album	-10.3957
▁partner	-10.3957
▁oppløst	-10.3957
ovitsj	-10.3958
teknikk	-10.3959
instrument	-10.396
▁turbin	-10.3962
▁anledning	-10.3966
▁demningen	-10.3975
▁1890	-10.3977
▁1880	-10.3979
▁wu	-10.3982
kjel	-10.3998
tjern	-10.4018
skild	-10.4031
▁krim	-10.4036
▁road	-10.4037
kilde	-10.4041
sjö	-10.4045
▁sørge	-10.4046
dyrke	-10.4051
▁wall	-10.4052
▁slu	-10.4062
▁utenriks	-10.4066
▁alp	-10.4068
skyting	-10.4069
aux	-10.4071
▁homo	-10.4075
slutt	-10.4079
politisk	-10.4086
▁kari	-10.4087
botn	-10.4096
seth	-10.4098
ifisering	-10.4101
▁kongelig	-10.4119
▁skall	-10.413
▁messe	-10.4138
▁individ	-10.4149
▁katedral	-10.4149
▁skulptur	-10.4149
▁sigurd	-10.4149
▁hendelsen	-10.4149
▁separat	-10.4149
▁frivillig	-10.4149
▁beholdt	-10.4151
▁markedet	-10.4151
▁erfaring	-10.4152
▁britene	-10.4153
▁kritisk	-10.4154
▁hensyn	-10.4155
▁slank	-10.4158
▁hull	-10.4165
spiss	-10.4167
▁antatt	-10.4169
kamerat	-10.4169
▁prix	-10.4173
▁islam	-10.4182
▁furu	-10.4189
▁drepe	-10.4191
karriere	-10.4204
▁rau	-10.4211
formede	-10.4262
▁frakte	-10.4283
▁elektron	-10.4321
▁stam	-10.4323
▁kvalifisering	-10.4345
▁1902	-10.4345
▁1903	-10.4345
▁1904	-10.4345
▁sportsutøver	-10.4345
▁science	-10.4345
▁ansikt	-10.4345
▁nikola	-10.4345
▁sprint	-10.4345
▁global	-10.4346
▁dukket	-10.4346
▁manager	-10.4346
▁fjernsyn	-10.4347
▁1915	-10.4347
▁1916	-10.4348
▁fuktig	-10.4348
▁karbon	-10.4348
opplæring	-10.4351
▁studere	-10.4355
▁rapporter	-10.4356
▁väst	-10.4358
▁aksje	-10.4362
▁nød	-10.4362
▁indiske	-10.4364
▁gjennombrudd	-10.4365
▁hellas	-10.4366
▁neu	-10.4373
▁fortellingen	-10.4376
bury	-10.4379
strek	-10.4384
▁verksted	-10.4403
▁tidsskriftet	-10.4406
fugler	-10.4415
▁halvdel	-10.4418
▁betale	-10.4418
▁gjø	-10.4436
lich	-10.4438
▁observato	-10.446
alitet	-10.4472
▁urban	-10.4479
▁synge	-10.4479
▁etnisk	-10.4497
ytelse	-10.4502
▁verb	-10.4505
▁mobil	-10.4506
seid	-10.451
▁republikk	-10.4511
▁lyng	-10.4513
▁trø	-10.4517
lokomotiv	-10.4545
▁konstruert	-10.4545
▁millimeter	-10.4545
▁portugal	-10.4545
▁fenomen	-10.4545
▁vesentlig	-10.4545
seremoni	-10.4545
▁margaret	-10.4545
▁risiko	-10.4545
▁uvanlig	-10.4545
▁ytterst	-10.4545
▁utmerkelse	-10.4545
▁naturreservat	-10.4546
▁palass	-10.4546
▁forårsake	-10.4546
settelse	-10.4546
▁wolf	-10.4547
▁håndball	-10.4547
▁1911	-10.4547
▁røyk	-10.4548
stipend	-10.4549
▁rednings	-10.455
▁saint	-10.455
posisjon	-10.4551
▁komposisjon	-10.4552
▁innspillingen	-10.4553
▁fredrikstad	-10.4554
▁1898	-10.456
▁britis	-10.456
handlinger	-10.4564
▁uavhengighet	-10.4569
▁250	-10.4569
▁potter	-10.4571
▁fantes	-10.4578
▁uttale	-10.458
▁wales	-10.458
bukta	-10.4582
▁møre	-10.4582
▁sandnes	-10.4582
fartøy	-10.4586
▁statsråd	-10.459
▁utvidelse	-10.4591
▁chang	-10.4599
▁ull	-10.4602
▁intens	-10.4605
▁vedtatt	-10.4611
▁bau	-10.4623
▁låten	-10.4629
▁sara	-10.4631
balanse	-10.4642
▁oppfatte	-10.4671
▁coll	-10.4688
yuan	-10.4701
nntatt	-10.4703
▁kommunistisk	-10.4721
bombe	-10.4744
▁vietnam	-10.4746
▁jerusalem	-10.4749
▁umiddelbar	-10.4749
▁rådgiver	-10.4749
▁fungerte	-10.4749
▁individuell	-10.4749
▁adolf	-10.4749
▁walisisk	-10.4749
▁gunnar	-10.4749
▁golf	-10.4749
▁1923	-10.4751
▁dverg	-10.4751
▁francisco	-10.4751
▁inndelt	-10.4752
stråle	-10.4755
strid	-10.4758
▁1200	-10.4758
▁eksport	-10.4758
▁trommer	-10.4761
▁1896	-10.4765
▁web	-10.4765
relatert	-10.4765
▁forsterke	-10.4766
tradisjon	-10.4768
transport	-10.4769
direktør	-10.477
▁lettere	-10.4772
▁arrestert	-10.4774
▁stabil	-10.478
▁antennene	-10.4781
▁monark	-10.4785
lengde	-10.4797
▁teolog	-10.4819
skade	-10.4823
maker	-10.4827
vä	-10.4838
▁fett	-10.4843
▁redde	-10.4867
▁yng	-10.4869
▁straff	-10.4877
samband	-10.4882
▁religiøs	-10.4884
trener	-10.4885
▁cuba	-10.4887
▁larve	-10.4904
▁arkeologisk	-10.4905
▁snu	-10.4912
▁ulv	-10.4913
▁hval	-10.4914
▁bow	-10.493
▁sving	-10.4951
vassdraget	-10.4957
▁alfabet	-10.4957
▁kollektiv	-10.4957
▁oppmerksomhet	-10.4957
▁hensikt	-10.4957
▁identifiser	-10.4957
▁rogaland	-10.4957
▁kristiansand	-10.4957
▁kapital	-10.4957
▁grønland	-10.4957
▁hjal	-10.4957
▁debutalbum	-10.4957
▁dominert	-10.4958
▁arendal	-10.4958
▁oppdagelse	-10.4958
▁jurist	-10.496
▁myndigheter	-10.4961
▁vanligst	-10.4961
▁tropper	-10.4962
▁debatt	-10.4962
▁sjette	-10.4962
▁lidelse	-10.4964
▁stemt	-10.4966
trukket	-10.4966
▁lisens	-10.4973
▁jeff	-10.4976
struktur	-10.4981
medisin	-10.4981
wood	-10.4981
historisk	-10.4981
materiale	-10.4981
▁skutt	-10.4998
følelse	-10.4998
blikk	-10.5004
▁audi	-10.5009
▁smak	-10.5019
▁arkeolog	-10.5023
▁samtid	-10.5037
leir	-10.5039
▁life	-10.5052
slekten	-10.5073
kreft	-10.5083
▁satse	-10.5094
wick	-10.5115
burn	-10.5135
dynasti	-10.517
▁fakultet	-10.517
▁shanghai	-10.517
▁vellykke	-10.517
▁hjort	-10.517
▁søndag	-10.517
▁nicola	-10.517
veksling	-10.517
▁kvadrat	-10.517
▁josef	-10.517
▁selvmord	-10.517
regulering	-10.517
▁utseende	-10.517
▁novelle	-10.5171
▁oberst	-10.5171
▁power	-10.5172
kjøring	-10.5172
▁1906	-10.5172
▁1927	-10.5173
▁domstol	-10.5174
▁beslutte	-10.5178
▁demokratiske	-10.5178
▁stå	-10.518
▁fremmed	-10.5184
▁1889	-10.5186
sundet	-10.5186
▁kommunestyre	-10.5189
▁110	-10.5196
kontroll	-10.5197
hjelp	-10.5198
▁høre	-10.5199
▁victoria	-10.5202
museet	-10.5204
▁datert	-10.5209
▁estland	-10.5216
▁lunge	-10.5222
▁ernst	-10.5222
▁forvaltnings	-10.5239
støtte	-10.5256
▁mah	-10.5274
brev	-10.5274
cheng	-10.528
▁water	-10.528
▁olymp	-10.5281
▁130	-10.5282
▁helst	-10.5293
▁out	-10.5297
recht	-10.5313
▁pierr	-10.5338
vatn	-10.5346
▁skatt	-10.5374
evolusjon	-10.5382
▁140	-10.5384
vall	-10.5386
▁amsterdam	-10.5387
▁sjeldne	-10.5387
▁argument	-10.5387
▁australsk	-10.5387
▁xiàn	-10.5387
▁lyktes	-10.5387
▁embets	-10.5387
▁parallell	-10.5387
▁antarktis	-10.5387
▁hebraisk	-10.5387
▁central	-10.5388
▁nedenfor	-10.5388
▁opposisjon	-10.5388
▁vende	-10.5391
▁løfte	-10.5392
▁ørken	-10.5393
▁kåre	-10.5396
▁biografi	-10.5398
time	-10.5403
▁nederlag	-10.5405
▁allmenn	-10.5415
▁fru	-10.5416
▁munk	-10.5416
regjering	-10.5417
▁christiania	-10.542
problem	-10.542
bølge	-10.5423
▁næringsliv	-10.5424
▁morten	-10.5428
▁johansen	-10.5437
mble	-10.5439
mmel	-10.5451
utgave	-10.5453
▁begrense	-10.5479
▁begynne	-10.5498
forvaltning	-10.5538
▁poli	-10.5547
▁fulgt	-10.5552
▁mathi	-10.5552
▁avvist	-10.5557
▁lomme	-10.557
kjent	-10.558
▁regjer	-10.5592
▁stab	-10.5598
▁utelukke	-10.5609
løytnant	-10.5609
▁football	-10.5609
▁windows	-10.5609
▁gabriel	-10.5609
▁manchester	-10.5609
▁lørdag	-10.561
▁forsvant	-10.561
▁anerkjenne	-10.561
▁hørte	-10.5611
▁skøyter	-10.5611
▁import	-10.5611
▁spesifik	-10.5614
▁distanse	-10.5614
øft	-10.5614
▁tegninger	-10.5615
▁900	-10.5616
▁mandat	-10.5619
konsern	-10.563
▁german	-10.5631
▁skrå	-10.5635
▁middelalder	-10.5642
▁tynn	-10.5644
effekt	-10.565
▁hekk	-10.5663
▁seire	-10.5686
nick	-10.5702
▁jam	-10.5727
▁opprettelse	-10.575
bød	-10.5753
▁fase	-10.5762
▁etasje	-10.5765
▁bratt	-10.5782
▁ross	-10.5783
▁synlig	-10.579
▁mcc	-10.5815
ward	-10.5823
rapport	-10.5824
ologen	-10.5824
▁psyko	-10.5833
pningsseremonien	-10.5837
▁luxembourg	-10.5837
▁flaggbærer	-10.5837
▁forenklet	-10.5837
▁vestfold	-10.5837
▁hovedkvarter	-10.5837
▁eksisterer	-10.5837
teatret	-10.5837
▁ombord	-10.5837
▁avdøde	-10.5837
▁ektemann	-10.5838
▁innebære	-10.5838
▁einar	-10.584
▁ligner	-10.5841
siktig	-10.5845
▁antikken	-10.5846
▁meldt	-10.5847
▁idé	-10.5854
▁bruce	-10.5854
▁anlagt	-10.5855
▁cross	-10.5859
▁avholdt	-10.586
▁betjene	-10.5863
offiser	-10.588
▁nazi	-10.588
▁beliggende	-10.5883
programmet	-10.5884
aktivitet	-10.5889
lignende	-10.5893
▁hospital	-10.5897
▁avhandling	-10.591
▁kulturell	-10.5912
snegl	-10.5916
▁kunstig	-10.5928
▁kortere	-10.5932
forsamlingen	-10.5934
graph	-10.5935
eparten	-10.5951
▁chile	-10.5966
▁skjold	-10.5967
▁egyptisk	-10.5978
▁benytte	-10.5985
▁tidsskrift	-10.5998
▁bestemme	-10.6003
▁angi	-10.6015
fast	-10.6017
▁histori	-10.6019
▁menneskelig	-10.6062
▁engasjert	-10.6069
▁restaurant	-10.6069
▁vedlikehold	-10.6069
▁istedenfor	-10.6069
▁radikal	-10.6069
▁senior	-10.607
▁egenskaper	-10.607
▁larvik	-10.607
▁bedriften	-10.6072
▁institusjoner	-10.6073
▁smelte	-10.6074
▁tilsammen	-10.6076
▁onkel	-10.6079
▁piano	-10.6081
▁1893	-10.6085
▁kontinental	-10.6087
castle	-10.6089
▁1899	-10.609
▁falk	-10.6093
▁åttende	-10.6093
▁sammenlagt	-10.6095
▁1870	-10.6098
▁ungdomsskole	-10.6101
▁deltatt	-10.6102
▁nedover	-10.6105
europeisk	-10.6121
▁mannlig	-10.6124
brann	-10.6125
▁håp	-10.613
▁stang	-10.6131
▁karakteristisk	-10.6138
▁jud	-10.6145
▁million	-10.6152
▁fotballklubb	-10.6157
gutt	-10.6161
light	-10.6166
▁shu	-10.6173
▁forklare	-10.6196
forhandling	-10.6228
▁gjennomføre	-10.6234
▁henri	-10.624
bønn	-10.6243
▁forlate	-10.6305
▁asteroide	-10.6307
▁pseudo	-10.6307
▁argentina	-10.6307
▁frankfurt	-10.6307
▁frekvens	-10.6307
▁ortodoks	-10.6307
▁svalbard	-10.6307
▁washington	-10.6307
▁1879	-10.6307
▁returnert	-10.6307
▁innbyggerne	-10.6307
▁canadisk	-10.6307
▁ungarsk	-10.6308
▁etablere	-10.6308
▁tilskuer	-10.6308
▁mineral	-10.6309
▁aristo	-10.6309
▁afrikansk	-10.6312
▁trenger	-10.6313
▁mengder	-10.6313
▁skarp	-10.6314
▁forlenge	-10.6315
▁1100	-10.6316
▁hylle	-10.6317
▁åpenbar	-10.6318
▁skjell	-10.6319
▁røtter	-10.632
▁franz	-10.632
kjøretøy	-10.632
▁rival	-10.6323
▁down	-10.6325
▁delstat	-10.6325
▁lokalisert	-10.6325
▁palme	-10.6326
▁1895	-10.6334
▁fasci	-10.6348
skrevet	-10.635
▁månen	-10.6351
ière	-10.6352
▁elektro	-10.636
▁bevisst	-10.6361
utstyr	-10.6362
spørsmål	-10.6362
temperatur	-10.6363
amerikansk	-10.6363
konsert	-10.6365
▁firma	-10.6367
▁slektning	-10.6377
▁formell	-10.6378
▁thu	-10.6381
prøve	-10.6389
▁forstå	-10.6394
vitne	-10.6419
forandring	-10.6421
▁glad	-10.6424
▁kvit	-10.6438
▁størst	-10.6444
▁romme	-10.6464
bring	-10.6475
polis	-10.6491
utvalget	-10.6492
areal	-10.6525
▁usikker	-10.6533
overflaten	-10.6538
▁münchen	-10.6551
▁påbegynt	-10.6551
▁resultert	-10.6551
▁skjønt	-10.6551
▁vurdering	-10.6551
▁eventuel	-10.6551
▁sammenslåing	-10.6551
▁aktuell	-10.6551
▁beleiring	-10.6551
▁hvem	-10.6551
▁brigade	-10.6552
▁venezia	-10.6552
▁kobber	-10.6552
▁styremedlem	-10.6553
▁innviet	-10.6553
▁samuel	-10.6553
▁opplevd	-10.6554
▁antyde	-10.6554
tvunget	-10.6558
▁1400	-10.6562
▁strekningen	-10.6562
▁høyesterett	-10.6565
▁økende	-10.6566
▁tjener	-10.657
▁ibsen	-10.6573
▁eurovis	-10.6573
▁silke	-10.6584
hytte	-10.6601
▁book	-10.6604
▁romania	-10.6605
bekk	-10.6607
gripe	-10.6608
behandling	-10.6613
hastighet	-10.6614
▁flest	-10.6641
▁israelsk	-10.6642
▁georgia	-10.6644
tilbud	-10.6676
spreng	-10.6683
▁strategi	-10.6711
flate	-10.6712
▁huske	-10.6753
ifikasjon	-10.6797
▁barcelona	-10.6801
▁brønn	-10.6801
▁elisabeth	-10.6801
▁forhindre	-10.6801
▁frigjøring	-10.6801
▁jomfru	-10.6801
▁mangfold	-10.6801
▁1901	-10.6801
▁buskerud	-10.6801
▁1883	-10.6801
▁abraham	-10.6801
▁bystatus	-10.6801
▁meteorolog	-10.6801
▁referanse	-10.6801
▁sluppet	-10.6801
▁stafett	-10.6801
▁henrettelse	-10.6801
▁utbredelse	-10.6801
▁avgjørende	-10.6801
▁zealand	-10.6802
▁batteri	-10.6802
▁slippe	-10.6802
▁serbisk	-10.6802
▁datamaskin	-10.6803
▁foreslått	-10.6805
▁styreleder	-10.6807
▁gullmedalje	-10.6807
▁2018	-10.6807
▁yngste	-10.6807
▁langrenn	-10.6808
▁folketall	-10.6813
▁malerier	-10.6813
▁drikke	-10.6814
▁pistol	-10.6815
▁hypo	-10.6818
▁kristiania	-10.6819
▁1884	-10.682
▁1892	-10.6827
▁1885	-10.683
round	-10.6835
▁party	-10.6836
▁avisa	-10.6847
▁utvide	-10.6847
▁puppe	-10.685
▁agent	-10.6869
redaktør	-10.687
rekord	-10.6871
utenriksminister	-10.688
▁tallrik	-10.6892
▁brent	-10.6903
▁elektronisk	-10.6937
forekomst	-10.6947
ingeniør	-10.6956
▁mølle	-10.6962
▁trikk	-10.6971
▁kunstnerisk	-10.6979
▁intr	-10.7005
▁brødre	-10.7008
abili	-10.7015
▁islamsk	-10.7018
▁antenne	-10.7021
bestand	-10.7031
▁opprette	-10.704
▁dirigent	-10.7058
▁elizabeth	-10.7058
▁ferdinand	-10.7058
▁renessanse	-10.7058
▁society	-10.7058
▁trommeslager	-10.7058
▁komponert	-10.7058
▁avstemning	-10.7058
▁ovenfor	-10.7058
▁amatør	-10.7058
▁texas	-10.7058
▁evangeli	-10.7058
▁thailand	-10.7058
▁kristus	-10.7058
▁fiolin	-10.7058
▁hyppig	-10.7058
▁drømme	-10.7058
▁seksuell	-10.7058
▁haakon	-10.7058
▁embeds	-10.7058
▁marcus	-10.7058
▁bjerk	-10.7059
ев	-10.7059
▁kritisert	-10.7059
▁verdensrekord	-10.7059
▁erobring	-10.706
▁grevskapet	-10.706
orientert	-10.706
▁spyd	-10.7061
▁skildre	-10.7061
на	-10.7063
▁krise	-10.7064
▁biologisk	-10.7067
▁bydistrikt	-10.7067
▁1814	-10.7073
▁nederst	-10.7079
▁1897	-10.7081
▁young	-10.7084
▁turbo	-10.7088
▁skuespill	-10.7089
stemme	-10.7118
opprøret	-10.7128
▁strategisk	-10.7151
▁espe	-10.7193
▁sym	-10.7226
einere	-10.7227
krem	-10.7242
stigning	-10.7269
▁victor	-10.7281
▁omdanne	-10.7292
▁annonsert	-10.7321
▁lillehammer	-10.7321
▁patriark	-10.7321
▁varaordfører	-10.7321
▁church	-10.7321
▁verdensarv	-10.7321
▁igjennom	-10.7321
▁bærum	-10.7321
▁fiktiv	-10.7321
▁kreves	-10.7322
materiell	-10.7322
▁fjordane	-10.7322
▁klatre	-10.7322
eksisterende	-10.7322
▁elleve	-10.7322
▁barnehage	-10.7323
▁telefon	-10.7323
▁lukke	-10.7326
▁døtre	-10.7328
▁åpningen	-10.7328
▁tjue	-10.7332
▁flytende	-10.7334
▁rytter	-10.7334
▁terje	-10.7334
▁skygge	-10.7335
▁øks	-10.7335
▁hyper	-10.7337
▁1863	-10.734
▁klage	-10.7342
▁panser	-10.7349
▁søyle	-10.7351
▁oval	-10.7355
▁muslim	-10.7377
▁nerve	-10.7387
befolkning	-10.7402
litteratur	-10.7403
blokk	-10.7407
▁pund	-10.7442
fronten	-10.7446
▁treffe	-10.7457
▁teologisk	-10.7461
fallende	-10.7482
opera	-10.7495
▁harmoni	-10.7521
▁valle	-10.7521
▁muslimsk	-10.7534
▁inneba	-10.7545
▁francis	-10.7588
▁forstyrre	-10.7591
▁konstitusjon	-10.7591
▁laborator	-10.7591
▁akseptert	-10.7591
▁columbia	-10.7591
▁göteborg	-10.7591
▁helikopter	-10.7591
▁inspirasjon	-10.7591
▁konkurrert	-10.7591
▁nøytral	-10.7591
▁omdøpt	-10.7591
▁research	-10.7591
▁oxford	-10.7591
▁anmelder	-10.7591
▁taylor	-10.7591
investering	-10.7591
▁symfoni	-10.7591
▁kongedømmet	-10.7591
▁henrettet	-10.7591
▁tilhengere	-10.7591
▁bøndene	-10.7591
▁atmosfæren	-10.7592
▁samlealbum	-10.7592
automatisk	-10.7594
▁kanadisk	-10.7594
▁bayern	-10.7594
▁tropisk	-10.7595
▁kaffe	-10.7597
▁nyhets	-10.7597
▁hovedkontor	-10.7598
diagnose	-10.7599
▁sykkel	-10.7599
▁kreert	-10.7599
▁skytter	-10.76
▁nedtegne	-10.7601
▁foretatt	-10.7603
▁donau	-10.7607
foretak	-10.7617
▁engl	-10.7645
▁variert	-10.7666
▁bakkropp	-10.7675
arkitekt	-10.768
sykdom	-10.7681
kontrakt	-10.7682
medlemmer	-10.7688
møll	-10.7694
▁slit	-10.7702
nytt	-10.7722
▁barokk	-10.7736
▁sosialdemokrat	-10.7769
▁misjons	-10.7793
hage	-10.781
middag	-10.7836
▁ideologi	-10.7844
▁kontinent	-10.7848
bytte	-10.7853
▁dominere	-10.7864
▁aleksandr	-10.7869
▁antwerpen	-10.7869
▁bulgaria	-10.7869
▁favoritt	-10.7869
▁fremtredende	-10.7869
▁gjaldt	-10.7869
▁helsingfors	-10.7869
▁progressiv	-10.7869
▁vancouver	-10.7869
▁virginia	-10.7869
▁intervju	-10.7869
▁invitert	-10.7869
▁diskusjon	-10.7869
▁snorre	-10.7869
▁essay	-10.7869
▁beskjed	-10.7869
▁forkortelse	-10.7869
▁nevø	-10.7869
▁utspring	-10.7869
▁heavy	-10.7869
▁preussen	-10.7869
▁axel	-10.7869
▁oppfatning	-10.7869
▁telenor	-10.7869
▁nevner	-10.7869
▁seminar	-10.7869
▁sektor	-10.7869
▁hovedpersonen	-10.7869
mouth	-10.787
▁utforming	-10.787
▁døpt	-10.787
▁gregor	-10.7871
▁gasskraftverk	-10.7871
terminal	-10.7871
▁ressurser	-10.7871
▁kronologisk	-10.7872
psykologi	-10.7872
▁hedmark	-10.7872
▁action	-10.7873
▁stengt	-10.7874
▁nattfly	-10.7874
▁dominerende	-10.7875
▁fremstille	-10.7878
▁ltd	-10.7878
▁dagbladet	-10.7878
vesenet	-10.7879
▁patron	-10.788
▁opptreden	-10.7881
▁rifle	-10.7882
▁blank	-10.7883
▁operere	-10.7886
▁stalin	-10.789
▁forbunds	-10.789
ørret	-10.7914
stryk	-10.7928
bragt	-10.7964
bibliotek	-10.7966
▁gymnas	-10.7987
variasjon	-10.8001
▁datterselskap	-10.8008
▁musikal	-10.8016
streng	-10.8038
▁pels	-10.8058
▁plei	-10.8066
bæk	-10.8079
▁poll	-10.808
▁aluminium	-10.8155
▁kapittel	-10.8155
▁kronprins	-10.8155
▁observasjon	-10.8155
▁oksygen	-10.8155
▁særskilt	-10.8155
▁tønsberg	-10.8155
▁vladimir	-10.8155
▁litauen	-10.8155
▁permanent	-10.8155
▁fantasy	-10.8155
▁theodor	-10.8155
▁diameter	-10.8155
▁protestantisk	-10.8155
infeksjon	-10.8155
▁contest	-10.8155
▁kristin	-10.8156
▁stefan	-10.8156
omponent	-10.8156
▁fylkeskommune	-10.8157
▁titler	-10.8157
▁sviger	-10.8157
▁referert	-10.8158
▁oldtiden	-10.8159
▁nkp	-10.8159
kobling	-10.816
▁inndeling	-10.8161
▁kongsberg	-10.8162
▁maxim	-10.8164
▁mottaker	-10.8165
▁forbudt	-10.8165
▁senator	-10.8166
▁stykket	-10.8168
▁knud	-10.817
fragment	-10.8198
▁deutsche	-10.8243
næs	-10.8244
givende	-10.8251
▁beholde	-10.8255
fattet	-10.8258
utdanning	-10.826
edderkopper	-10.8315
▁allianse	-10.834
holt	-10.8366
▁kontrollert	-10.8368
▁avslutte	-10.8403
prest	-10.8404
▁utforske	-10.8406
svarte	-10.8417
▁napoleon	-10.8449
▁forøvrig	-10.8449
▁ludwig	-10.8449
▁maksimal	-10.8449
▁prøyssisk	-10.8449
▁psykisk	-10.8449
▁utslipp	-10.8449
▁kulturminner	-10.8449
▁identitet	-10.8449
anmeldelse	-10.8449
▁matematikk	-10.8449
▁florida	-10.8449
▁sandefjord	-10.8449
erklæring	-10.8449
▁monroe	-10.8449
▁für	-10.845
▁vakre	-10.845
▁fremstilt	-10.845
▁poesi	-10.8451
▁styring	-10.8451
▁velkjent	-10.8451
▁overlevd	-10.8452
▁konservative	-10.8452
▁medvirket	-10.8453
▁howard	-10.8453
▁hjemmekamp	-10.8455
▁svein	-10.8456
▁bedrifts	-10.8456
▁betalt	-10.8458
▁pumpe	-10.846
▁stedsnavn	-10.846
▁holdning	-10.8463
▁kriminal	-10.8465
▁fruktbar	-10.8466
▁tjenestegjor	-10.8469
▁manuel	-10.8477
bestemmelse	-10.8481
▁moderat	-10.8486
flyvning	-10.8511
vennlig	-10.8522
kansler	-10.8533
▁nevro	-10.8541
leigh	-10.8557
frukt	-10.8563
signal	-10.8566
avisen	-10.8616
brygge	-10.8628
▁sparta	-10.8653
▁demokrati	-10.8661
tavle	-10.8732
▁døgn	-10.8747
▁konsekvens	-10.8752
psykiatri	-10.8752
▁corporation	-10.8752
▁filippinene	-10.8752
▁kommandant	-10.8752
▁kommandør	-10.8752
▁liverpool	-10.8752
▁mountain	-10.8752
▁popularitet	-10.8752
▁republikansk	-10.8752
▁sørafrikansk	-10.8752
▁invadert	-10.8752
▁sicilia	-10.8752
▁komplett	-10.8752
▁avskaffe	-10.8752
▁regulert	-10.8752
▁serbia	-10.8752
▁regulere	-10.8752
▁symbolisere	-10.8752
▁tørke	-10.8752
▁lewis	-10.8752
▁brother	-10.8753
▁harrison	-10.8753
▁erstatning	-10.8753
fiction	-10.8753
▁utpekt	-10.8754
▁føderal	-10.8755
▁fylle	-10.8755
▁etterkommer	-10.8755
▁dylan	-10.8757
▁gratis	-10.8757
▁gravlagt	-10.8758
▁tennis	-10.8758
▁gjentatt	-10.876
▁koreansk	-10.8763
▁work	-10.8767
skøyte	-10.8769
▁koreograf	-10.877
smykke	-10.8813
▁uttalelse	-10.8847
▁overføre	-10.887
aften	-10.8897
bukten	-10.8903
▁messi	-10.8943
▁konvensjon	-10.8962
▁konsul	-10.8972
bransjen	-10.8992
direktoratet	-10.9064
protokoll	-10.9064
▁beslektet	-10.9064
▁cambridge	-10.9064
▁færøysk	-10.9064
▁narkotika	-10.9064
▁plutselig	-10.9064
▁trondhjem	-10.9064
▁ferskvann	-10.9064
▁nøkkel	-10.9064
▁selvbiografi	-10.9064
▁beordret	-10.9064
▁atlanterhavet	-10.9064
▁østfold	-10.9064
▁prince	-10.9064
▁nelson	-10.9064
▁ordinær	-10.9065
▁utsikt	-10.9065
▁ålesund	-10.9065
▁forberede	-10.9065
▁bjørk	-10.9065
▁skrog	-10.9066
▁space	-10.9066
▁forklaring	-10.9068
▁boston	-10.9068
▁enhver	-10.9068
ор	-10.9069
▁øvelsen	-10.9075
skrekk	-10.9082
cture	-10.9093
bevegelse	-10.9111
▁undertegne	-10.9126
▁angola	-10.9136
▁høydepunkt	-10.9167
▁voldsom	-10.9204
demokratisk	-10.9258
▁snar	-10.9278
▁energiselskape	-10.9279
▁arrest	-10.9374
ressurs	-10.9384
▁assosiert	-10.9387
▁douglas	-10.9387
▁heidelberg	-10.9387
▁microsoft	-10.9387
▁sarpsborg	-10.9387
▁satellitt	-10.9387
▁singapore	-10.9387
▁wergeland	-10.9387
▁könig	-10.9387
▁rudolf	-10.9387
▁kjønnsmod	-10.9387
▁linux	-10.9387
▁dublin	-10.9387
▁unesco	-10.9387
▁kommentar	-10.9387
▁frimurer	-10.9387
▁langvarig	-10.9387
▁benedikt	-10.9387
▁minnesmerke	-10.9387
▁misjonær	-10.9387
▁søvn	-10.9387
▁skjebne	-10.9388
▁betingelse	-10.9388
▁visepresident	-10.9388
▁bjørg	-10.9388
▁innvalgt	-10.9388
▁omstridt	-10.9388
reservat	-10.9388
▁osmansk	-10.9389
▁soldatene	-10.9389
▁søstre	-10.9389
craft	-10.9389
▁josé	-10.9389
▁arnold	-10.9389
▁sydney	-10.9389
▁planlegging	-10.939
▁flanke	-10.9391
▁bundes	-10.9391
▁bokstaver	-10.9394
▁lojal	-10.9394
bundet	-10.94
pølse	-10.9405
▁rykte	-10.9406
▁begrunne	-10.9413
vokter	-10.9423
skikkelse	-10.9428
løype	-10.9453
vík	-10.9498
▁anslå	-10.952
teknologi	-10.9531
lokale	-10.9541
▁undersøke	-10.9707
▁social	-10.9719
▁angelsaksisk	-10.972
▁bysantinsk	-10.972
▁distribusjon	-10.972
▁innvandrer	-10.972
▁låtskriver	-10.972
▁mccartney	-10.972
▁opphørte	-10.972
lovgivning	-10.972
▁matematisk	-10.972
köping	-10.972
▁1861	-10.972
▁katolikk	-10.972
▁stridsvogn	-10.972
▁tabellen	-10.972
▁kroatia	-10.972
▁landkreis	-10.972
▁haugesund	-10.972
▁høvding	-10.972
▁stephen	-10.972
▁charlotte	-10.972
▁andré	-10.9721
▁martyr	-10.9721
▁noensinne	-10.9721
▁streike	-10.9721
▁ekspert	-10.9722
▁feilaktig	-10.9722
▁suveren	-10.9723
terapi	-10.9724
▁verdslig	-10.9725
▁elsker	-10.9728
hytta	-10.9732
▁kalender	-10.9735
variable	-10.9755
slavisk	-10.9762
kvart	-10.9827
skjoldet	-10.9862
divisjon	-10.9871
forskjell	-10.9876
betegnelse	-10.9876
orkester	-10.9876
størrelse	-10.9876
frem	-10.9902
emmelig	-10.9985
nskripsjon	-11.0065
▁absolutt	-11.0065
▁allikevel	-11.0065
▁arrangør	-11.0065
▁bryllup	-11.0065
▁budsjett	-11.0065
▁country	-11.0065
▁kambodsja	-11.0065
▁lincoln	-11.0065
▁semifinalen	-11.0065
▁tsjekkia	-11.0065
▁dekkvingene	-11.0065
▁forveksle	-11.0065
▁arbeidsgiver	-11.0065
▁innendørs	-11.0065
▁operativsystem	-11.0065
▁teoretisk	-11.0065
▁angivelig	-11.0065
▁beatles	-11.0065
▁ulovlig	-11.0065
▁cappelen	-11.0065
▁parlamentarisk	-11.0065
▁fremtidig	-11.0065
▁avviklet	-11.0065
▁umulig	-11.0066
▁valuta	-11.0066
▁rumensk	-11.0066
▁konklav	-11.0066
▁eksistens	-11.0066
▁forfremme	-11.0066
▁dekorert	-11.0066
▁myrdet	-11.0066
hertugdømmet	-11.0067
▁avgjørelse	-11.0069
▁tegl	-11.0069
ingsrepresentant	-11.0071
mekanisme	-11.0072
▁utløst	-11.0073
dolph	-11.0075
▁foretrekke	-11.0079
direkt	-11.0081
oidea	-11.0082
hausen	-11.0093
▁modifiser	-11.0094
nnom	-11.0134
konsulent	-11.0173
▁ivareta	-11.0184
sesongen	-11.0234
design	-11.0234
sponsor	-11.0235
sentral	-11.0235
studier	-11.024
relasjon	-11.0246
▁minutt	-11.0261
▁insekt	-11.0262
ection	-11.0419
▁aftenposten	-11.0422
▁engasjement	-11.0422
▁fengslet	-11.0422
▁françois	-11.0422
▁keyboard	-11.0422
▁observert	-11.0422
▁kjøkken	-11.0422
▁parallelt	-11.0422
▁tibetansk	-11.0422
▁jacque	-11.0422
▁marokko	-11.0422
▁vertikal	-11.0422
▁innstifte	-11.0422
▁gustaf	-11.0422
▁senterpartiet	-11.0422
▁tilnærme	-11.0422
▁skjøt	-11.0423
▁veksle	-11.0423
▁fusjonert	-11.0423
▁corneli	-11.0423
▁tverrbånd	-11.0423
▁sibir	-11.0423
▁protein	-11.0423
apotek	-11.0423
▁stadium	-11.0424
▁massiv	-11.0424
▁innflytelsesrik	-11.0424
▁utfordre	-11.0425
▁plikt	-11.0426
▁øynene	-11.0428
fasaden	-11.043
▁beleire	-11.0432
▁befeste	-11.0439
vuo	-11.046
horax	-11.05
166	-11.0538
grønn	-11.06
bestemt	-11.0604
ettighetene	-11.0611
reglene	-11.0638
hydr	-11.0711
▁sjakk	-11.0716
historik	-11.0732
▁doktor	-11.0792
▁ødela	-11.0792
▁association	-11.0792
▁basketball	-11.0792
▁championship	-11.0792
▁electric	-11.0792
▁elefant	-11.0792
▁foundation	-11.0792
▁generalmajor	-11.0792
▁konsentrert	-11.0792
▁musikkvideo	-11.0792
▁orchestra	-11.0792
▁shakespeare	-11.0792
▁tsjekkoslovakia	-11.0792
▁væpne	-11.0792
▁cæsar	-11.0792
▁ukraina	-11.0792
▁billboard	-11.0792
▁krønike	-11.0792
▁innlemmet	-11.0793
▁langrennsløper	-11.0793
▁latvia	-11.0793
disiplin	-11.0793
▁overvåke	-11.0793
▁syndrom	-11.0793
▁tillatelse	-11.0793
▁arabia	-11.0793
▁fiendtlig	-11.0793
▁krypt	-11.0793
▁tolkning	-11.0793
▁redigert	-11.0793
begrensning	-11.0793
▁utfordring	-11.0793
▁guinea	-11.0793
▁systematisk	-11.0794
▁trengte	-11.0794
▁communi	-11.0794
▁cecil	-11.0794
▁nepal	-11.0794
▁forlatt	-11.0795
fyrstedømme	-11.0796
▁søndr	-11.0796
▁keltisk	-11.0803
▁vinterleke	-11.0806
▁genetisk	-11.0812
▁gyldig	-11.0825
komite	-11.0826
evitsj	-11.0829
nathan	-11.086
▁utnevne	-11.0861
▁slange	-11.0892
first	-11.0917
▁dobbel	-11.0934
▁artsbestemm	-11.0948
▁marcel	-11.0953
ekspedisjon	-11.0988
blanding	-11.099
samlede	-11.0998
radio	-11.1007
fabrik	-11.1119
▁hvile	-11.1175
landeveissyklist	-11.1177
årsjubileum	-11.1177
▁bekymring	-11.1177
▁guddommelig	-11.1177
▁jugoslavia	-11.1177
▁kristoffer	-11.1177
▁leipzig	-11.1177
▁okkupert	-11.1177
▁svømming	-11.1177
▁uteksaminer	-11.1177
flokkurin	-11.1177
▁hammerfest	-11.1177
▁innvilget	-11.1177
▁skjult	-11.1177
▁skøyteløper	-11.1177
▁kavaleri	-11.1177
▁pilegrim	-11.1177
▁vurdere	-11.1177
▁division	-11.1177
▁fordømt	-11.1177
▁taiwan	-11.1177
▁lagkonkurransen	-11.1177
inspektør	-11.1177
▁ytterkant	-11.1177
▁people	-11.1177
▁utsagn	-11.1177
koordinat	-11.1177
▁grekerne	-11.1177
▁statsborger	-11.1177
▁pensjonert	-11.1177
▁begravelse	-11.1177
▁oppstart	-11.1177
▁fødselsår	-11.1178
▁skåne	-11.1178
▁kjøpmann	-11.1178
▁russerne	-11.1178
▁vegetasjon	-11.1178
▁avskjed	-11.1178
▁optim	-11.1179
▁fritids	-11.1179
▁tokyo	-11.1179
▁bjarn	-11.118
vietnamesisk	-11.1183
▁napoli	-11.1184
▁havneby	-11.1186
▁benevn	-11.1298
▁omfatte	-11.1302
resultat	-11.1387
journalist	-11.1388
sentrum	-11.139
student	-11.1391
premie	-11.1485
grunnsstasjon	-11.1485
hormon	-11.1491
tetthet	-11.1516
▁diplom	-11.1538
reservoar	-11.1577
▁illustrert	-11.1577
▁jordskjelv	-11.1577
▁kristendommen	-11.1577
▁sebastian	-11.1577
▁aserbajdsjan	-11.1577
▁depresjon	-11.1577
▁illustrasjon	-11.1577
▁koalisjon	-11.1577
▁vampyr	-11.1577
▁foreløpig	-11.1577
▁investor	-11.1577
▁sylinder	-11.1577
▁airlines	-11.1577
▁colombia	-11.1577
▁jersey	-11.1577
▁odysse	-11.1577
▁svekket	-11.1577
▁bosnia	-11.1577
▁alminnelig	-11.1577
▁ragnar	-11.1577
innspilt	-11.1577
▁fornuft	-11.1577
▁svovel	-11.1577
▁wallace	-11.1577
▁ensemble	-11.1577
▁indirekte	-11.1577
▁firenze	-11.1577
▁sjangeren	-11.1577
▁rederiet	-11.1577
▁kjæreste	-11.1577
▁begravet	-11.1578
▁karakterisere	-11.1578
▁mistenkt	-11.1578
kommentator	-11.1578
▁pianist	-11.1578
▁tiltrådt	-11.1578
▁ntnu	-11.1578
▁oppfordre	-11.1578
▁finansiert	-11.1579
▁kelly	-11.1579
▁isolert	-11.1579
▁søsken	-11.1579
▁rettferdig	-11.1581
▁techn	-11.1582
stredet	-11.1583
▁margret	-11.1586
▁kunngjor	-11.1603
voksende	-11.1639
sprang	-11.1642
▁dreie	-11.1666
▁dimensjon	-11.1719
lytting	-11.172
deutsch	-11.1882
onrad	-11.1932
▁infanteri	-11.1987
instruktør	-11.1994
kommanderende	-11.1994
▁ambassade	-11.1994
▁argentinsk	-11.1994
▁bataljon	-11.1994
▁billedhugger	-11.1994
▁broadway	-11.1994
▁demonstrasjon	-11.1994
▁førstnevnte	-11.1994
▁hollywood	-11.1994
▁massachusetts	-11.1994
▁pedipalpene	-11.1994
▁potensiel	-11.1994
▁restaurering	-11.1994
▁sjokolade	-11.1994
▁skandinavisk	-11.1994
▁slovakia	-11.1994
▁railway	-11.1994
▁mandsju	-11.1994
▁stewart	-11.1994
▁1853	-11.1994
▁epigyn	-11.1994
▁klostre	-11.1994
▁populasjon	-11.1994
▁gjensidig	-11.1994
0	-12.2927
