<unk>	0
<s>	0
</s>	0
.	-3.23293
s	-3.46688
e	-3.55584
▁i	-3.74468
▁	-3.91369
▁og	-3.96368
t	-4.07845
er	-4.11474
en	-4.23123
▁av	-4.50768
▁er	-4.5837
r	-4.704
▁en	-4.70933
▁som	-4.78453
▁for	-4.84632
▁til	-4.87165
n	-4.91932
▁på	-4.98057
et	-5.00501
▁med	-5.07573
▁den	-5.21928
▁ble	-5.31681
▁var	-5.3234
a	-5.34136
▁de	-5.3557
▁det	-5.44808
▁fra	-5.50053
ene	-5.62308
▁har	-5.63029
▁et	-5.67963
▁han	-5.69973
▁å	-5.71429
i	-5.72058
d	-5.73342
ne	-5.74926
o	-5.84234
g	-5.89347
k	-5.89585
y	-5.92864
te	-6.01268
▁ved	-6.02924
m	-6.13109
▁at	-6.13217
▁også	-6.17179
p	-6.18253
f	-6.22404
re	-6.25865
▁om	-6.26563
de	-6.29727
▁etter	-6.29913
l	-6.31201
▁ut	-6.32408
▁s	-6.39661
▁under	-6.3981
▁eller	-6.42214
▁opp	-6.52902
▁to	-6.52949
▁kan	-6.53015
▁be	-6.55777
▁over	-6.57373
▁men	-6.58891
v	-6.60514
ing	-6.62655
b	-6.63377
▁a	-6.63562
c	-6.64225
h	-6.6478
u	-6.65028
▁inn	-6.65685
in	-6.65867
▁18	-6.66686
us	-6.66938
le	-6.67635
▁hadde	-6.71613
an	-6.71811
▁da	-6.72419
▁seg	-6.7251
ter	-6.7762
▁andre	-6.79758
▁ikke	-6.80002
al	-6.80979
na	-6.81493
is	-6.82008
▁sin	-6.85221
sk	-6.86247
ende	-6.88065
on	-6.8983
▁mellom	-6.91098
▁mot	-6.91678
▁født	-6.92527
▁the	-6.9258
ia	-6.96406
▁tre	-6.96696
▁m	-6.97104
z	-6.97182
w	-6.98418
▁1	-7.00032
▁ha	-7.00325
la	-7.01189
▁hans	-7.0743
▁dette	-7.07836
▁første	-7.09167
ta	-7.09533
▁an	-7.09698
▁der	-7.09992
▁hun	-7.10229
▁re	-7.11907
ri	-7.123
▁f	-7.12644
▁ligger	-7.14478
▁la	-7.15066
ar	-7.1524
or	-7.1531
lig	-7.15629
ke	-7.15722
sen	-7.15767
ur	-7.17886
▁u	-7.17894
land	-7.18031
▁blant	-7.1926
▁b	-7.19881
▁p	-7.21152
▁gjennom	-7.22016
▁k	-7.22118
▁se	-7.2275
▁fikk	-7.23754
nes	-7.23853
um	-7.24531
ma	-7.25271
▁man	-7.26891
▁denne	-7.26996
ch	-7.27455
ens	-7.28346
el	-7.28437
ra	-7.28526
▁ca	-7.2888
j	-7.29183
▁sammen	-7.29292
▁flere	-7.29848
▁d	-7.30445
▁nord	-7.31224
il	-7.31877
▁2	-7.32066
▁alle	-7.33742
nde	-7.3424
ver	-7.34513
ske	-7.3472
iske	-7.34911
der	-7.35225
at	-7.355
▁al	-7.35877
da	-7.36672
▁c	-7.37825
▁3	-7.37997
▁g	-7.38384
é	-7.38481
ro	-7.3855
å	-7.38683
isk	-7.38713
▁17	-7.38725
▁her	-7.39122
th	-7.39281
ck	-7.3939
▁år	-7.39414
vis	-7.39645
▁of	-7.39771
▁stor	-7.40324
ga	-7.43309
øy	-7.44267
ng	-7.447
ut	-7.45019
▁le	-7.45399
ning	-7.45603
as	-7.46148
▁kom	-7.46585
bo	-7.46684
▁ra	-7.46956
be	-7.47027
os	-7.47086
di	-7.47416
ner	-7.47509
▁hvor	-7.47648
▁blir	-7.47936
for	-7.48412
li	-7.49165
ig	-7.50087
▁by	-7.51195
▁del	-7.51383
to	-7.51495
▁tidligere	-7.51788
▁så	-7.51909
▁bo	-7.51994
ry	-7.52181
▁død	-7.52804
▁ny	-7.52914
▁hoved	-7.53156
den	-7.5316
▁vi	-7.53209
ger	-7.53934
ka	-7.54116
ler	-7.5518
▁før	-7.55327
▁kr	-7.55658
▁v	-7.55895
▁mange	-7.56021
▁norsk	-7.5608
ja	-7.56161
▁kommune	-7.562
▁mer	-7.56949
▁5	-7.57627
▁ro	-7.57734
▁disse	-7.58333
▁annet	-7.58392
me	-7.58676
▁15	-7.58831
▁h	-7.59021
stad	-7.59375
lo	-7.59632
▁st	-7.6037
▁4	-7.60769
▁senere	-7.60805
ve	-7.60954
ge	-7.61506
x	-7.61698
si	-7.63252
▁land	-7.63413
it	-7.63908
▁16	-7.64353
▁sa	-7.64613
▁li	-7.64987
▁kon	-7.65193
▁byen	-7.65382
ul	-7.65855
kt	-7.65936
ton	-7.66012
dal	-7.66372
het	-7.66612
▁sitt	-7.66797
▁ho	-7.67084
pp	-7.67124
ell	-7.67156
▁ta	-7.67426
ang	-7.68455
▁sør	-7.68679
▁t	-7.69102
▁l	-7.69877
▁siden	-7.70011
mo	-7.70057
▁mens	-7.70454
▁o	-7.71079
▁w	-7.7108
mann	-7.72418
▁di	-7.72425
lige	-7.73068
var	-7.73242
man	-7.73816
▁store	-7.74352
▁ti	-7.74361
▁noen	-7.74462
▁he	-7.74494
tt	-7.74636
▁ofte	-7.74719
ö	-7.7509
▁sp	-7.75367
son	-7.75376
▁selv	-7.75427
ff	-7.75532
▁ar	-7.76137
▁in	-7.76187
bu	-7.76437
va	-7.77319
▁10	-7.77422
▁være	-7.77573
▁pro	-7.77632
▁ga	-7.78175
▁kjent	-7.78349
▁ba	-7.79043
mi	-7.79073
▁na	-7.79346
ist	-7.79397
ti	-7.79533
kk	-7.79642
▁skal	-7.8029
▁pa	-7.80517
▁ned	-7.80692
ba	-7.80868
ste	-7.80938
id	-7.81848
▁ma	-7.81949
mp	-7.81958
ven	-7.82009
skap	-7.82049
▁vest	-7.8225
▁vil	-7.82254
pe	-7.82265
▁ri	-7.82715
▁j	-7.83159
gen	-7.83319
▁mar	-7.8393
▁n	-7.84222
ker	-7.84445
▁ka	-7.84664
▁co	-7.84917
▁sine	-7.84957
tter	-7.85036
æ	-7.85392
▁navnet	-7.85573
▁går	-7.85615
▁lo	-7.85687
▁12	-7.85725
by	-7.86527
▁as	-7.87255
▁7	-7.87331
▁dag	-7.87658
▁rundt	-7.87877
▁ni	-7.88264
▁6	-7.88311
▁per	-7.88419
sa	-7.88643
bi	-7.8866
ic	-7.88959
ik	-7.89099
▁du	-7.89169
▁finnes	-7.90102
ha	-7.90533
erne	-7.90571
mer	-7.91029
ce	-7.91175
ling	-7.91262
▁øst	-7.91361
ko	-7.91367
år	-7.91459
▁samt	-7.91713
▁pi	-7.91891
tal	-7.9198
▁and	-7.91998
au	-7.92872
▁8	-7.93052
▁navn	-7.93209
▁fri	-7.93221
▁fly	-7.93223
▁ei	-7.9333
ad	-7.93426
▁frem	-7.93459
▁grunn	-7.9358
ø	-7.9451
▁både	-7.94784
▁mest	-7.95146
▁far	-7.95272
▁bi	-7.95454
ed	-7.95473
od	-7.95481
▁lag	-7.9554
asjon	-7.95649
om	-7.95725
▁tid	-7.96003
ir	-7.96111
▁si	-7.96259
▁samme	-7.96757
▁blit	-7.96888
▁bu	-7.9701
ns	-7.97034
op	-7.97158
ant	-7.97262
▁mo	-7.97279
▁tallet	-7.97863
▁hver	-7.97923
ie	-7.98228
▁su	-7.98808
▁fire	-7.99017
erte	-7.99063
á	-7.99138
▁vært	-7.99149
vi	-7.99239
▁hos	-7.99378
sta	-7.99441
je	-7.99702
▁km	-7.99802
else	-8.00077
▁bak	-8.0009
▁kalt	-8.00202
gi	-8.00554
ol	-8.00705
av	-8.00731
▁fa	-8.00904
▁kinesisk	-8.0096
▁norge	-8.01004
co	-8.01287
▁no	-8.02013
▁fram	-8.02407
▁14	-8.02667
▁kunne	-8.03054
▁gikk	-8.03285
nd	-8.03565
ly	-8.0364
po	-8.03666
2	-8.04576
ina	-8.04868
tra	-8.04975
ment	-8.05049
im	-8.0529
berg	-8.05373
▁kirke	-8.05484
vik	-8.05907
▁august	-8.05944
▁ham	-8.05976
▁gu	-8.06159
▁y	-8.06218
▁norske	-8.06629
ster	-8.06767
ion	-8.06931
▁enn	-8.07
▁or	-8.07015
▁mål	-8.07024
▁når	-8.07299
am	-8.07448
▁mor	-8.07498
▁nå	-8.07708
▁lu	-8.07803
▁so	-8.07899
▁mai	-8.08007
▁amerikansk	-8.08115
▁mars	-8.0832
▁13	-8.08998
dd	-8.09424
▁r	-8.09513
▁po	-8.09653
▁ol	-8.09852
ok	-8.09933
sh	-8.09965
▁do	-8.09973
gu	-8.10188
▁film	-8.10314
▁11	-8.10577
▁vann	-8.10604
ru	-8.10637
ll	-8.10871
▁skulle	-8.11008
sel	-8.11142
les	-8.1158
▁sch	-8.11609
▁vant	-8.11721
tor	-8.11912
no	-8.1224
ør	-8.12305
▁gi	-8.12363
▁største	-8.12883
▁el	-8.1344
▁mi	-8.13519
pa	-8.14005
per	-8.14257
▁te	-8.14486
rett	-8.14494
go	-8.14706
▁nye	-8.14717
▁lang	-8.1552
▁juli	-8.15544
do	-8.15752
▁me	-8.15972
ho	-8.16126
▁jo	-8.16757
elle	-8.17096
▁oslo	-8.17157
▁hele	-8.17183
fa	-8.17202
▁9	-8.17409
▁hu	-8.17719
ä	-8.18159
▁noe	-8.18326
▁tok	-8.18454
lag	-8.1853
gang	-8.18609
min	-8.18825
lin	-8.1933
▁bare	-8.19368
nn	-8.19581
ier	-8.19644
▁ju	-8.19776
▁tro	-8.20274
▁go	-8.20333
▁bar	-8.20393
sted	-8.20415
▁består	-8.20539
mb	-8.20831
▁mat	-8.21161
opp	-8.21197
▁kultur	-8.21337
▁slik	-8.21342
ær	-8.21652
ring	-8.2179
▁va	-8.21858
▁ru	-8.22132
un	-8.22226
▁sol	-8.22348
lu	-8.22517
▁skole	-8.22808
ud	-8.23387
▁musikk	-8.23483
este	-8.2351
verk	-8.23689
▁ge	-8.23809
▁januar	-8.24052
▁tilbake	-8.24265
▁20	-8.24306
▁utgitt	-8.24776
▁pe	-8.25316
bar	-8.25621
▁små	-8.25637
ov	-8.25676
▁ak	-8.26262
▁bra	-8.26303
nt	-8.26874
bel	-8.26931
ord	-8.26945
▁nær	-8.27041
ü	-8.27053
▁området	-8.2715
ingen	-8.27338
hu	-8.27369
ard	-8.27846
▁laget	-8.28114
ium	-8.28283
pi	-8.28366
▁meter	-8.28411
▁0	-8.28413
▁alt	-8.28457
▁gang	-8.28715
▁kalles	-8.28777
ius	-8.2889
met	-8.29089
▁par	-8.29147
▁x	-8.29273
ty	-8.29368
over	-8.2939
▁juni	-8.29651
▁engelsk	-8.29704
▁langs	-8.29824
ku	-8.29828
▁innen	-8.29879
▁ja	-8.29974
▁leder	-8.30155
ni	-8.3021
▁rekke	-8.30307
▁kunst	-8.30368
▁sønn	-8.30423
ikk	-8.30633
▁tillegg	-8.30721
und	-8.30861
sjon	-8.31212
▁ad	-8.31311
▁like	-8.31408
▁deres	-8.31553
▁dem	-8.31888
▁eks	-8.31967
▁spilte	-8.31969
▁desember	-8.32418
ong	-8.32491
▁siste	-8.32637
▁ko	-8.32699
▁am	-8.32734
▁all	-8.32858
▁februar	-8.32878
í	-8.33076
▁må	-8.33322
▁john	-8.3377
ft	-8.33851
▁fem	-8.34192
▁april	-8.34272
▁2010	-8.34285
tid	-8.34322
kel	-8.34337
▁kong	-8.34464
ou	-8.34836
ings	-8.3491
men	-8.35053
▁ki	-8.35223
ca	-8.35492
ian	-8.35661
▁sam	-8.35665
▁tri	-8.35945
len	-8.3648
hus	-8.36678
iv	-8.36702
▁000	-8.36706
io	-8.36873
▁bl	-8.37057
▁30	-8.37329
stein	-8.37362
ningen	-8.37784
▁brukes	-8.3805
▁con	-8.38104
hold	-8.3822
ak	-8.38716
ot	-8.388
vin	-8.38816
ering	-8.38869
▁russisk	-8.39073
▁videre	-8.39081
kker	-8.39136
▁san	-8.39294
yl	-8.3941
▁høy	-8.39425
▁bli	-8.39454
▁først	-8.39454
siden	-8.39754
ci	-8.40078
▁lov	-8.40514
▁usa	-8.40644
▁min	-8.40712
▁september	-8.40796
▁lever	-8.40903
▁fi	-8.41559
itet	-8.41562
▁gift	-8.41578
▁lys	-8.41628
bl	-8.41637
ber	-8.41751
gg	-8.42131
▁sk	-8.42169
6	-8.42301
▁ch	-8.42381
▁ab	-8.42507
▁uten	-8.42514
ine	-8.42582
▁kun	-8.42603
▁oktober	-8.42814
▁tor	-8.43076
bre	-8.43316
▁gjen	-8.43342
▁mindre	-8.43603
▁rett	-8.43654
▁car	-8.43701
▁folke	-8.43738
▁2007	-8.43848
▁gir	-8.43988
ow	-8.44013
▁skrev	-8.44037
▁imidlertid	-8.44096
▁2008	-8.44105
▁få	-8.44578
▁barn	-8.44639
▁gamle	-8.4465
5	-8.44819
▁spiller	-8.45215
1	-8.45444
tak	-8.4556
▁pu	-8.45664
▁new	-8.45889
▁hennes	-8.45894
fe	-8.46833
em	-8.46926
▁syn	-8.47226
▁øy	-8.47411
til	-8.47499
ris	-8.47648
▁ulike	-8.47986
▁gre	-8.47997
▁tv	-8.48325
▁fo	-8.48474
▁bruk	-8.48563
▁begynte	-8.48582
▁ski	-8.4949
▁em	-8.49548
▁bil	-8.49559
▁kina	-8.49583
dig	-8.49604
▁hi	-8.49635
▁beste	-8.50015
▁fast	-8.5002
▁provinsen	-8.50081
tte	-8.50148
▁bok	-8.50338
▁kommer	-8.50423
▁innbyggere	-8.50765
▁bas	-8.51122
▁filmen	-8.51306
▁bro	-8.51391
▁hus	-8.51414
ska	-8.51444
▁kn	-8.51583
3	-8.5162
00	-8.51764
ki	-8.51866
▁igjen	-8.51874
▁november	-8.51875
▁ne	-8.51929
▁landet	-8.5217
▁brukt	-8.52191
ting	-8.52214
▁tra	-8.52326
▁sand	-8.52378
9	-8.52502
▁begge	-8.52529
tten	-8.52653
▁døde	-8.5266
stil	-8.52728
inn	-8.5287
ige	-8.52879
itt	-8.52883
mar	-8.52965
tiske	-8.5318
▁helt	-8.53219
dag	-8.53247
▁wi	-8.53251
ken	-8.53288
mm	-8.53356
ans	-8.53623
jø	-8.53666
▁wa	-8.54122
▁særlig	-8.54166
▁z	-8.54299
▁eksempel	-8.54354
▁ste	-8.54618
▁parti	-8.54846
slag	-8.54982
ag	-8.55034
▁form	-8.55084
▁hel	-8.55131
▁sett	-8.55477
let	-8.55644
tre	-8.55715
▁lå	-8.5578
lse	-8.55942
▁2009	-8.56156
dalen	-8.56315
▁au	-8.56358
dre	-8.56406
▁derfor	-8.56413
ologi	-8.56604
bb	-8.56848
tan	-8.56933
▁egen	-8.5698
▁gud	-8.57333
mor	-8.57398
▁bred	-8.57407
▁medlem	-8.57496
hi	-8.57504
▁art	-8.57521
tisk	-8.5771
▁tysk	-8.57767
▁vei	-8.58206
▁ver	-8.58416
bruk	-8.58477
▁my	-8.58482
ny	-8.58501
▁gruppen	-8.58548
est	-8.58574
kor	-8.58596
ksjon	-8.58609
▁bru	-8.58658
ley	-8.58948
burg	-8.58964
▁bandet	-8.59047
sch	-8.59251
nder	-8.59445
▁årene	-8.59464
▁president	-8.59547
▁startet	-8.59594
▁forskjellig	-8.59601
▁sjø	-8.59644
▁skrevet	-8.59646
▁kl	-8.5967
▁cha	-8.59953
▁deretter	-8.60032
▁innenfor	-8.60089
ninger	-8.60312
ede	-8.60379
▁stein	-8.60497
ó	-8.61061
▁plass	-8.61064
rø	-8.61365
tatt	-8.61508
gre	-8.61541
sto	-8.61564
▁selskapet	-8.61949
kom	-8.62138
▁språk	-8.6217
ks	-8.62752
ran	-8.62764
tur	-8.63166
▁kort	-8.63369
▁2006	-8.63401
▁god	-8.6359
▁kjente	-8.63845
ation	-8.63859
▁vel	-8.63953
а	-8.64308
▁ord	-8.64404
▁verdens	-8.64475
sten	-8.64488
ju	-8.64754
▁nor	-8.64924
▁mye	-8.64994
jo	-8.65063
elsen	-8.65148
▁25	-8.65237
fjorden	-8.65285
rede	-8.65299
mmer	-8.65505
▁norges	-8.65589
и	-8.65603
tall	-8.65774
stand	-8.66092
▁seks	-8.66188
del	-8.66342
svært	-8.66398
▁konge	-8.66499
ham	-8.66634
▁sj	-8.66681
ac	-8.66794
▁større	-8.6682
▁nasjonal	-8.66884
▁ur	-8.67076
▁dermed	-8.67259
▁mag	-8.673
▁året	-8.67349
isme	-8.67357
▁je	-8.67572
ab	-8.67627
▁fjell	-8.67686
bin	-8.67962
øya	-8.68036
ron	-8.68247
▁vin	-8.68249
▁side	-8.68328
▁gjorde	-8.68335
▁fransk	-8.68401
ller	-8.68567
forening	-8.68889
isering	-8.68899
art	-8.6894
lands	-8.68982
kan	-8.69325
▁roman	-8.69444
▁2005	-8.69532
fi	-8.69533
bil	-8.69641
løp	-8.69708
sson	-8.69965
▁midt	-8.69974
lot	-8.70225
▁2011	-8.70534
▁dan	-8.70717
▁tur	-8.70824
▁motor	-8.70926
▁gresk	-8.71027
▁tu	-8.71052
ren	-8.71117
tz	-8.71231
ide	-8.71613
vo	-8.71699
▁ty	-8.71777
inger	-8.7185
far	-8.71878
▁22	-8.71878
val	-8.71911
▁satt	-8.71926
ill	-8.71976
▁berg	-8.7198
ung	-8.72103
▁val	-8.72279
▁gjerne	-8.72565
▁fu	-8.72668
ica	-8.72707
▁via	-8.72821
▁samtidig	-8.72931
▁natur	-8.72951
tes	-8.73087
tar	-8.73258
he	-8.7333
lat	-8.73421
nk	-8.73505
▁pan	-8.7355
vei	-8.73629
vel	-8.73658
▁ten	-8.73676
▁albumet	-8.73748
▁tidlig	-8.73756
mål	-8.73878
▁familien	-8.73985
▁grav	-8.74074
▁2000	-8.7425
▁kommunen	-8.74354
ator	-8.74416
▁tyske	-8.74437
▁sal	-8.74447
▁dr	-8.7453
▁pinyin	-8.74644
▁gammel	-8.74661
▁mann	-8.7467
▁hol	-8.74714
▁kur	-8.74969
anger	-8.75067
▁sto	-8.75074
▁bruker	-8.75291
and	-8.75499
▁kar	-8.75731
og	-8.75747
▁betyr	-8.75778
my	-8.75778
▁pre	-8.75793
ek	-8.75867
▁gul	-8.76142
▁omfatter	-8.76149
▁th	-8.76249
if	-8.76322
▁spilt	-8.76401
▁lokal	-8.76458
▁ingen	-8.76486
▁rød	-8.76693
▁opprinnelig	-8.76751
som	-8.7688
tiden	-8.77109
isere	-8.77211
fjord	-8.77286
▁arbeids	-8.77343
▁står	-8.77439
▁ifølge	-8.77485
▁dagen	-8.77516
kon	-8.77564
bud	-8.77706
▁von	-8.77796
kul	-8.77851
▁ville	-8.77852
▁hy	-8.7789
jer	-8.77986
za	-8.77998
▁tar	-8.78131
▁hen	-8.78391
▁fag	-8.784
▁øya	-8.78504
wa	-8.7856
▁sted	-8.78667
▁mark	-8.7879
par	-8.78849
anske	-8.78882
▁basert	-8.78902
så	-8.79159
▁annen	-8.79287
▁2004	-8.79684
▁br	-8.79874
▁fotball	-8.79883
▁19	-8.79981
su	-8.80252
▁24	-8.80396
▁jord	-8.80487
ight	-8.80562
▁rom	-8.8059
jen	-8.80654
du	-8.80655
▁forfatter	-8.80767
▁luft	-8.80852
▁gull	-8.80891
▁21	-8.81024
▁person	-8.81082
stre	-8.81164
▁måtte	-8.81207
▁viser	-8.8151
▁farge	-8.81586
▁gar	-8.81633
isert	-8.81649
fly	-8.81768
▁støtte	-8.82115
eres	-8.822
dom	-8.82265
▁sang	-8.82341
fra	-8.82378
▁arbeidet	-8.82401
mat	-8.82466
▁svensk	-8.82609
▁mu	-8.82618
lene	-8.8262
q	-8.82683
▁sentral	-8.82827
stående	-8.82855
ding	-8.8286
▁ben	-8.82951
▁kor	-8.82952
▁hal	-8.83123
▁deler	-8.83126
▁politisk	-8.83145
▁bygget	-8.83179
▁grad	-8.8336
▁tiden	-8.83394
borg	-8.83556
skole	-8.83561
gel	-8.83572
senter	-8.83769
▁2002	-8.83824
▁halv	-8.83835
▁verk	-8.83978
▁ganger	-8.84148
▁betydning	-8.84192
▁on	-8.84335
▁os	-8.84374
dy	-8.84408
▁kje	-8.84435
elig	-8.84448
▁fred	-8.84467
ld	-8.84555
▁fre	-8.84622
▁gal	-8.84624
▁ber	-8.84995
van	-8.85012
▁we	-8.85058
uk	-8.85258
spill	-8.85402
▁europa	-8.85557
▁sen	-8.85563
istisk	-8.85607
che	-8.85847
▁bre	-8.85989
▁lange	-8.86064
▁bergen	-8.86174
tu	-8.86198
idae	-8.863
heten	-8.86343
▁com	-8.86484
ister	-8.86547
heim	-8.86623
▁brun	-8.86638
sti	-8.8668
▁rø	-8.8672
▁stats	-8.8683
▁lav	-8.86877
skrift	-8.86916
▁sverige	-8.86927
▁klubben	-8.87269
▁plan	-8.87343
ski	-8.87356
▁deltok	-8.87387
▁ø	-8.87395
▁stat	-8.87407
▁utenfor	-8.87423
▁fe	-8.87515
▁skog	-8.87544
▁sommer	-8.87836
lle	-8.87958
mon	-8.88131
kken	-8.88134
log	-8.88151
▁bor	-8.88173
sund	-8.88322
▁jan	-8.88435
stilling	-8.88519
plass	-8.88527
ari	-8.88542
tri	-8.8865
▁hav	-8.88847
▁mal	-8.88854
▁sosial	-8.88923
▁barne	-8.88946
▁pal	-8.89041
ino	-8.89048
▁inkludert	-8.89331
▁litt	-8.894
▁radio	-8.89467
tsj	-8.89719
▁23	-8.89813
▁prest	-8.89854
▁slekt	-8.89886
▁industri	-8.89966
handling	-8.90015
▁fylke	-8.90074
ble	-8.90125
▁pla	-8.9013
▁vanligvis	-8.90193
ay	-8.90245
▁stedet	-8.90343
▁band	-8.90419
▁liten	-8.9045
▁tilhører	-8.90451
kket	-8.90533
▁ed	-8.90888
▁orden	-8.90899
▁liv	-8.91015
bok	-8.91025
▁bri	-8.91091
▁følgende	-8.9114
vet	-8.91232
▁sta	-8.91419
kje	-8.91524
tel	-8.91526
▁hånd	-8.92026
▁bill	-8.92026
sett	-8.92045
dyr	-8.92148
▁serien	-8.92172
▁fin	-8.92202
figur	-8.92252
ika	-8.92298
▁gitt	-8.9253
veien	-8.92638
ya	-8.92875
▁van	-8.92912
ana	-8.92988
▁carl	-8.93019
▁peter	-8.9303
▁lands	-8.93079
▁inter	-8.9316
▁utviklet	-8.93163
▁elven	-8.93175
ale	-8.93249
▁nett	-8.93267
før	-8.93386
enes	-8.93396
▁forhold	-8.93444
▁2001	-8.93485
rid	-8.93516
▁sangen	-8.93565
▁vise	-8.93607
▁mon	-8.93708
▁rev	-8.9375
▁organ	-8.93776
▁anti	-8.93808
▁50	-8.93826
▁ledet	-8.93915
▁antall	-8.94016
vil	-8.94066
▁får	-8.94108
bra	-8.94118
▁inneholder	-8.94171
▁pr	-8.94171
▁mil	-8.94252
pro	-8.94346
▁styre	-8.94804
▁stra	-8.94822
pen	-8.9483
bygg	-8.94889
▁sh	-8.95113
▁fleste	-8.95241
▁riks	-8.95331
▁tyskland	-8.95418
▁rock	-8.95435
50	-8.95587
▁general	-8.95608
▁produsert	-8.95609
▁spesielt	-8.95609
▁offentlig	-8.9561
landet	-8.95802
▁data	-8.95895
о	-8.96023
ære	-8.96066
form	-8.961
yn	-8.96381
▁chi	-8.96457
bygd	-8.96667
▁foran	-8.96706
▁tom	-8.96771
▁tru	-8.96774
ds	-8.96781
▁park	-8.96886
ærende	-8.96983
▁karl	-8.97114
▁paul	-8.97161
▁kat	-8.97238
▁ag	-8.97244
р	-8.9734
inne	-8.97383
skog	-8.97465
▁31	-8.97484
▁gruppe	-8.97718
▁tredje	-8.97769
ttet	-8.97866
▁dikt	-8.98051
▁nytt	-8.9808
minister	-8.98185
lev	-8.98209
kar	-8.98262
tiv	-8.98437
▁tak	-8.98703
▁vis	-8.98711
ph	-8.98761
råd	-8.98818
▁jeg	-8.98881
▁28	-8.98915
ban	-8.99023
▁ve	-8.99062
▁russland	-8.99129
▁fylkesvei	-8.99145
fri	-8.99176
spiller	-8.99259
iet	-8.99362
▁moderne	-8.99411
▁start	-8.99498
▁familie	-8.99596
ze	-8.99645
▁100	-8.99763
▁partiet	-8.99798
øl	-8.99995
han	-9.00193
▁ci	-9.00207
▁handels	-9.00252
ah	-9.00374
sj	-9.0039
rik	-9.00396
▁nesten	-9.00409
▁ku	-9.00461
▁william	-9.00478
ida	-9.00607
imot	-9.00665
▁26	-9.00749
▁arbeider	-9.00831
res	-9.00891
▁system	-9.00914
▁såkalt	-9.00936
søk	-9.00955
▁you	-9.00962
tin	-9.01107
▁mel	-9.01154
ini	-9.01156
ji	-9.01194
▁perioden	-9.01213
banen	-9.01231
cu	-9.0131
mester	-9.01483
▁mm	-9.01519
▁slag	-9.01536
▁gra	-9.01576
mel	-9.01636
stan	-9.01736
▁2003	-9.0186
▁reise	-9.01861
ev	-9.01892
▁viktig	-9.01952
▁gen	-9.02161
▁keiser	-9.02337
▁mulig	-9.02349
▁valg	-9.02386
mal	-9.02423
dan	-9.02527
vann	-9.0253
▁godt	-9.02583
gård	-9.02712
▁london	-9.02772
▁full	-9.0285
▁ly	-9.03128
mun	-9.03174
nings	-9.03364
▁historie	-9.03515
▁christian	-9.03625
▁datter	-9.03671
▁omkring	-9.03705
▁frankrike	-9.03713
10	-9.03741
▁robert	-9.03748
▁én	-9.0378
▁vol	-9.03785
▁kv	-9.03817
ich	-9.03863
▁kol	-9.03867
▁nu	-9.03882
sjøen	-9.03917
fall	-9.04088
▁ren	-9.04108
▁sak	-9.04221
▁gav	-9.0434
▁besto	-9.04358
▁stil	-9.04428
▁blå	-9.04468
▁hjem	-9.04484
folk	-9.04566
▁kongen	-9.04597
▁mont	-9.04652
vær	-9.04653
▁can	-9.04836
▁aktiv	-9.04954
▁viktigst	-9.04968
kamp	-9.05122
asje	-9.05338
▁spille	-9.05371
▁medlemmer	-9.05589
zi	-9.05589
rak	-9.05614
rom	-9.05626
get	-9.05626
lan	-9.0577
▁slutt	-9.06086
que	-9.06305
ice	-9.06491
▁elva	-9.06492
ssen	-9.06519
▁fer	-9.06632
▁militær	-9.06695
qui	-9.06775
▁ap	-9.06846
film	-9.06868
liggende	-9.07043
ola	-9.07055
▁gjør	-9.0706
▁fortsatt	-9.07087
▁egne	-9.07248
▁opera	-9.07494
е	-9.07516
rike	-9.07517
folkerepublikken	-9.07523
▁italiensk	-9.07523
plan	-9.07717
▁vinter	-9.07753
▁lite	-9.07825
▁menneske	-9.07825
▁hatt	-9.0794
▁liste	-9.07957
▁minne	-9.08055
▁post	-9.08071
▁vo	-9.081
tegn	-9.08154
▁kal	-9.08242
skip	-9.08369
▁op	-9.08438
▁enkelte	-9.0845
▁lyd	-9.08489
▁1990	-9.0851
▁sig	-9.08544
området	-9.08625
▁ji	-9.08737
laget	-9.08807
▁tildelt	-9.08824
▁ry	-9.09061
istiske	-9.09133
ach	-9.09209
gar	-9.09216
▁bur	-9.09393
▁forbindelse	-9.09408
▁27	-9.0947
ð	-9.09488
▁millioner	-9.09489
▁johan	-9.09601
▁cla	-9.09735
▁moh	-9.09776
kal	-9.09817
skje	-9.09828
▁opprettet	-9.09853
satt	-9.09872
▁tids	-9.09895
▁bygge	-9.09896
▁delstaten	-9.10005
legg	-9.1006
▁sesongen	-9.10113
syn	-9.10134
▁hjelp	-9.10292
▁ex	-9.10344
ekte	-9.10401
▁dessuten	-9.10486
▁venstre	-9.10498
▁langt	-9.10578
▁kraft	-9.10583
▁mac	-9.10626
mannen	-9.1065
▁arter	-9.10664
fl	-9.10769
▁krigs	-9.10838
▁veien	-9.1085
▁erik	-9.10903
▁af	-9.10937
alt	-9.10979
lighet	-9.11
▁cor	-9.1124
▁fant	-9.1138
ien	-9.11386
▁gro	-9.1147
▁høyre	-9.11522
▁tatt	-9.11644
ori	-9.11651
▁album	-9.11725
▁spe	-9.11804
▁bror	-9.11828
▁skolen	-9.11886
grad	-9.11901
lsen	-9.1193
tro	-9.11965
▁bygd	-9.11974
chi	-9.12011
▁fordi	-9.12015
oc	-9.12193
▁fall	-9.1224
▁mus	-9.12408
elt	-9.12438
▁lars	-9.1244
▁tjeneste	-9.12491
arbeid	-9.12504
gitt	-9.12529
▁kirken	-9.1253
▁helse	-9.1254
ferd	-9.12573
▁eu	-9.12608
ā	-9.12659
▁stasjon	-9.12661
▁etablert	-9.1271
▁mod	-9.12952
▁eier	-9.13068
▁bø	-9.13097
▁franske	-9.13149
hr	-9.13176
▁arbeid	-9.13178
▁ser	-9.1319
ath	-9.13255
her	-9.13272
▁olympisk	-9.1328
▁nok	-9.13395
all	-9.13483
▁direkte	-9.1354
departementet	-9.13699
▁tittelen	-9.13779
selskap	-9.14173
▁bjørn	-9.14224
▁dis	-9.1425
lis	-9.14281
brudd	-9.14356
bro	-9.14424
▁lik	-9.14464
▁england	-9.14612
▁politi	-9.14639
▁sogn	-9.14681
▁stjerne	-9.14709
40	-9.14821
▁sky	-9.14864
▁åpnet	-9.14872
ick	-9.14907
fon	-9.15068
▁standard	-9.15113
året	-9.15291
rum	-9.15366
ix	-9.15397
▁sø	-9.15542
xi	-9.15552
è	-9.15565
▁stort	-9.15598
mu	-9.15644
▁arm	-9.15698
▁hø	-9.15698
▁david	-9.15752
kant	-9.15918
▁40	-9.15927
king	-9.15947
▁hvis	-9.15958
dra	-9.16002
▁spor	-9.1602
▁gate	-9.16042
▁grunnlagt	-9.16064
▁britiske	-9.16202
▁dannet	-9.16234
20	-9.16323
▁dom	-9.16486
▁gjøre	-9.16576
ros	-9.1671
▁åtte	-9.16725
▁bal	-9.16761
▁staten	-9.16769
▁renn	-9.1704
ip	-9.17219
▁omtrent	-9.17225
▁hovedsakelig	-9.17231
samfunn	-9.17253
lik	-9.17278
▁mc	-9.17296
byen	-9.17327
▁internasjonale	-9.17333
▁syd	-9.17469
kra	-9.17648
blad	-9.17704
slå	-9.1773
tok	-9.17754
▁mari	-9.17779
▁sanger	-9.17787
▁ke	-9.17907
olog	-9.17928
60	-9.17956
▁svart	-9.18024
stu	-9.18084
rin	-9.18106
▁pris	-9.18125
cc	-9.18139
ara	-9.18171
▁vanlig	-9.18231
stat	-9.18235
▁hjemme	-9.18285
▁spesial	-9.18304
▁knytte	-9.18319
▁fiske	-9.18339
ving	-9.18516
▁bort	-9.18579
aks	-9.18824
▁don	-9.18894
▁sv	-9.18965
oll	-9.18993
30	-9.19009
▁krigen	-9.19111
▁historisk	-9.19271
ct	-9.19274
ps	-9.19282
kre	-9.19344
▁danmark	-9.1941
leder	-9.1947
ita	-9.19521
▁ul	-9.19597
▁eid	-9.19624
ai	-9.19708
▁dansk	-9.19712
▁sentrum	-9.19716
▁regi	-9.19735
▁skjer	-9.19788
sky	-9.19816
familien	-9.19921
område	-9.20003
▁holdt	-9.20034
medalje	-9.20045
kast	-9.20152
▁utgjør	-9.20293
▁miljø	-9.20338
sjoner	-9.20364
port	-9.20428
ild	-9.2049
▁best	-9.20578
system	-9.20579
▁versjon	-9.20582
ologisk	-9.206
▁blod	-9.20615
lia	-9.20705
ket	-9.2077
navn	-9.20799
▁nordøst	-9.21082
▁bilde	-9.21102
▁eldre	-9.21111
▁skuespiller	-9.2117
mark	-9.21201
▁fått	-9.21204
band	-9.21333
huset	-9.21347
vern	-9.21381
▁thomas	-9.21609
▁1996	-9.21615
▁1994	-9.21619
kla	-9.21648
▁bank	-9.21676
▁lille	-9.21719
gul	-9.21737
dømme	-9.21764
tjeneste	-9.2182
▁løs	-9.21898
▁flyttet	-9.22087
fag	-9.2217
rat	-9.22196
▁ob	-9.22222
▁personer	-9.22449
▁pave	-9.22589
▁para	-9.22636
sjef	-9.22659
▁uni	-9.22676
pris	-9.2273
▁1989	-9.22742
ive	-9.229
▁topp	-9.22925
elser	-9.22996
▁island	-9.23014
anlegg	-9.23071
▁thor	-9.23215
gruppen	-9.23254
▁teater	-9.23319
ama	-9.23367
▁høyeste	-9.23374
▁hår	-9.23416
▁energi	-9.23426
▁plate	-9.23439
▁ev	-9.23508
▁gran	-9.23531
▁sc	-9.23563
▁våpen	-9.23578
▁student	-9.23602
▁dy	-9.23616
▁felles	-9.23639
▁herre	-9.23646
gra	-9.23663
forbund	-9.23715
▁lett	-9.23719
▁paris	-9.23745
н	-9.2384
▁sølv	-9.23868
▁folk	-9.23913
▁sendt	-9.23929
samling	-9.24031
rå	-9.24167
80	-9.24209
▁berlin	-9.24265
punkt	-9.24293
▁ført	-9.24397
▁29	-9.24476
▁universitet	-9.24508
▁minst	-9.24579
▁sha	-9.24582
▁uttrykk	-9.24628
▁grå	-9.24659
våg	-9.2466
fer	-9.24713
havet	-9.24732
don	-9.24934
rop	-9.24951
▁produsere	-9.25028
▁regnes	-9.25102
▁politiker	-9.25108
▁hvit	-9.25459
▁mur	-9.2548
▁ett	-9.25488
▁skade	-9.25575
▁skr	-9.2558
к	-9.256
ú	-9.25609
▁betydelig	-9.25609
▁1999	-9.25617
områder	-9.25737
▁økonomisk	-9.25791
▁air	-9.25834
▁mø	-9.25839
▁sir	-9.25907
▁flat	-9.25959
▁stu	-9.25966
ald	-9.26008
mmen	-9.26126
▁rik	-9.26203
▁2012	-9.2621
▁gl	-9.26266
▁tegn	-9.26266
▁enkelt	-9.2633
▁maria	-9.2635
hall	-9.26441
▁mis	-9.26546
hl	-9.26563
▁tekst	-9.26649
▁kvinne	-9.26674
ford	-9.26697
▁sm	-9.26755
▁sommerfugl	-9.26794
utdanning	-9.26812
▁aldri	-9.26825
cy	-9.26844
▁lin	-9.27005
trykk	-9.27031
føring	-9.27075
▁virke	-9.27095
▁gjort	-9.27096
merke	-9.27195
ano	-9.27198
▁fortsatte	-9.27339
▁1997	-9.27384
▁egg	-9.274
kro	-9.27407
▁romersk	-9.27414
▁xi	-9.27449
▁dyr	-9.27489
▁holde	-9.275
▁trans	-9.27535
▁verdi	-9.27537
bert	-9.27587
sak	-9.27641
▁selskap	-9.27755
▁regjeringen	-9.27767
37	-9.27798
▁son	-9.2788
▁ferdig	-9.27904
▁les	-9.27977
▁hard	-9.27991
▁bern	-9.28091
▁eget	-9.281
ider	-9.28146
▁skje	-9.28157
lla	-9.28246
▁tele	-9.28257
▁sterkt	-9.28388
▁fr	-9.28391
▁ac	-9.28403
▁studie	-9.28514
systemet	-9.28542
▁york	-9.28569
▁ring	-9.28576
▁1998	-9.28579
▁1992	-9.2858
▁jernbane	-9.28652
det	-9.28684
▁års	-9.28699
old	-9.287
▁følger	-9.28764
▁felt	-9.28782
▁utnevnt	-9.28795
stykke	-9.28835
▁funnet	-9.28858
▁kroppen	-9.29163
▁mad	-9.29204
ismen	-9.29227
oli	-9.29249
▁regionen	-9.29272
▁vekt	-9.29328
▁mennesker	-9.29351
▁kunstner	-9.29408
▁ball	-9.29491
är	-9.29519
▁slo	-9.29575
produksjon	-9.29607
▁len	-9.29627
▁vår	-9.29684
85	-9.29731
▁georg	-9.29744
▁es	-9.29872
menn	-9.29928
▁col	-9.30002
▁ordet	-9.30042
ves	-9.30057
musikk	-9.30095
▁kamp	-9.30189
▁lokale	-9.3022
løse	-9.3024
▁pat	-9.30242
▁latin	-9.30276
▁legge	-9.30288
kning	-9.30295
nske	-9.30356
▁motstand	-9.30377
▁fla	-9.30384
т	-9.30386
▁1980	-9.30402
ativ	-9.30582
▁danske	-9.30705
mas	-9.30736
▁finner	-9.30749
▁krig	-9.30872
▁mester	-9.30875
▁oppkalt	-9.31005
▁fylkes	-9.31057
▁jon	-9.31307
hy	-9.31318
▁rus	-9.3136
rus	-9.31485
har	-9.31495
leg	-9.31496
▁fil	-9.31514
▁za	-9.31553
▁dekk	-9.3158
с	-9.31607
▁eldste	-9.31618
▁slutten	-9.31689
▁gru	-9.317
heng	-9.31808
styre	-9.31826
▁uk	-9.3189
jel	-9.319
▁maskin	-9.31992
▁angrep	-9.32045
mengde	-9.3205
▁dager	-9.32062
▁1993	-9.32244
▁venn	-9.32247
zhou	-9.32267
atet	-9.32373
▁finans	-9.32458
▁brukte	-9.32483
▁hall	-9.32506
▁tall	-9.32514
▁blad	-9.32522
70	-9.32577
▁port	-9.32629
▁olje	-9.32642
▁frank	-9.32678
▁svenske	-9.32708
iz	-9.32724
ledes	-9.32772
bas	-9.32797
bø	-9.32799
▁sil	-9.32809
▁storbritannia	-9.32863
▁super	-9.32877
▁seil	-9.32998
age	-9.33114
▁professor	-9.33137
▁kinas	-9.33201
▁delt	-9.33244
ey	-9.33272
▁makt	-9.33506
▁viktige	-9.33579
▁che	-9.33693
ani	-9.33795
▁elev	-9.33821
▁verden	-9.33929
klubb	-9.34005
nivå	-9.34059
▁nev	-9.34074
▁samarbeid	-9.34137
navnet	-9.34151
▁verdenskrig	-9.34211
gan	-9.3425
snitt	-9.34265
▁die	-9.3431
▁besøk	-9.3433
tør	-9.34379
▁råd	-9.34449
▁heter	-9.34486
itz	-9.34501
▁serie	-9.34525
ins	-9.34535
gle	-9.34542
kin	-9.3455
selskapet	-9.34593
pu	-9.34631
▁trondheim	-9.34767
▁slike	-9.34801
▁utgav	-9.34858
▁kyst	-9.34909
▁rolle	-9.34948
▁sag	-9.34962
gren	-9.35168
▁litteratur	-9.3534
akt	-9.35377
▁university	-9.35406
sø	-9.35408
▁1988	-9.35411
akk	-9.35428
zz	-9.35471
▁trykk	-9.35481
ria	-9.35578
▁overtok	-9.35583
▁funksjon	-9.356
▁tap	-9.35686
pol	-9.35788
▁plante	-9.35798
▁dra	-9.35879
språk	-9.35969
▁national	-9.36048
▁1960	-9.36066
▁henrik	-9.3622
▁museum	-9.36232
▁rot	-9.36274
bane	-9.36403
▁middel	-9.36459
▁biskop	-9.36542
▁møte	-9.36592
pres	-9.36653
▁india	-9.36691
▁konsert	-9.36779
▁merke	-9.37065
kere	-9.37094
▁arkitekt	-9.37128
36	-9.37319
way	-9.37337
▁italia	-9.37372
▁informasjon	-9.37376
felt	-9.37388
ringer	-9.37408
▁martin	-9.37456
sker	-9.37496
▁samle	-9.37534
▁war	-9.37543
up	-9.3758
▁ledd	-9.37597
gge	-9.37693
▁region	-9.37789
▁shi	-9.37877
hav	-9.37949
zo	-9.37965
án	-9.37988
kraft	-9.38032
▁christ	-9.38044
elva	-9.38086
vid	-9.38181
▁løpet	-9.38199
fisk	-9.38308
▁metall	-9.38308
deling	-9.38497
▁grønn	-9.38582
▁meget	-9.38596
verdi	-9.38648
▁drept	-9.38672
▁studert	-9.38685
▁skille	-9.38763
jon	-9.38881
▁dro	-9.38887
▁finsk	-9.38908
▁tj	-9.38947
ugh	-9.3926
▁1984	-9.39351
partiet	-9.39357
▁japan	-9.39398
dia	-9.39493
pla	-9.39501
▁not	-9.39513
▁hei	-9.39532
▁menn	-9.39587
▁indre	-9.39589
gift	-9.39627
▁resultat	-9.39655
cia	-9.39674
tion	-9.39755
▁benyttet	-9.39762
▁sku	-9.39767
retning	-9.39796
▁delen	-9.39896
▁eg	-9.39945
▁fl	-9.39991
л	-9.39991
ō	-9.40009
▁1970	-9.40025
▁lengde	-9.40031
fy	-9.40068
stasjon	-9.40084
sjonen	-9.40111
vig	-9.40182
▁lege	-9.40207
gh	-9.40208
▁meste	-9.40213
▁gje	-9.40273
▁dal	-9.40373
liv	-9.40603
▁sub	-9.4061
bygning	-9.40643
▁skrift	-9.40695
▁george	-9.40748
▁gla	-9.40852
▁tal	-9.40862
lek	-9.40966
▁tank	-9.41016
▁stiftet	-9.41062
aktig	-9.41093
low	-9.41179
nett	-9.41182
▁q	-9.41292
nis	-9.41294
▁mos	-9.41333
senteret	-9.41432
▁ter	-9.41439
stro	-9.41479
▁universitetet	-9.41538
▁utvikling	-9.41584
▁fas	-9.41588
fin	-9.41599
▁mas	-9.41653
ført	-9.41657
▁kampen	-9.41658
ies	-9.41704
86	-9.41719
▁bad	-9.41753
organ	-9.41755
tyr	-9.41773
55	-9.4194
ction	-9.41969
▁kilometer	-9.4205
▁1986	-9.42065
▁fv	-9.42085
▁økt	-9.42163
▁skip	-9.42172
▁ram	-9.4219
▁afrika	-9.42193
▁produkt	-9.42389
95	-9.42398
▁svarte	-9.42466
▁gård	-9.4254
▁valgt	-9.42546
▁punkt	-9.42575
▁regn	-9.42595
▁transport	-9.42613
▁gy	-9.42639
ial	-9.42677
alder	-9.42745
▁1991	-9.42751
▁boken	-9.42794
ark	-9.42803
organisasjon	-9.4283
▁ep	-9.42891
▁lund	-9.42977
▁henne	-9.43053
▁krist	-9.43054
▁bir	-9.43162
▁seier	-9.43286
▁cl	-9.43345
ming	-9.43467
4	-9.43575
iserte	-9.43606
loven	-9.43653
38	-9.43703
▁bedre	-9.43801
66	-9.43849
wi	-9.43975
▁slekten	-9.44019
▁sports	-9.44029
▁kors	-9.44125
▁james	-9.4414
▁gren	-9.44143
▁steder	-9.44145
▁1995	-9.44149
▁smal	-9.44164
▁likevel	-9.44184
voks	-9.44198
▁west	-9.44282
▁klar	-9.44294
▁lærer	-9.44376
▁gri	-9.44527
▁løp	-9.44545
drag	-9.44634
rådet	-9.44683
▁jern	-9.44698
▁nummer	-9.44792
parti	-9.44797
▁strøm	-9.44802
▁høsten	-9.44807
pel	-9.44835
▁world	-9.44838
▁johannes	-9.44856
▁sørøst	-9.44865
▁variant	-9.44914
▁virksomhet	-9.44935
the	-9.45112
▁ansvar	-9.45236
▁periode	-9.45238
▁kron	-9.4528
▁pra	-9.45285
▁design	-9.45364
ås	-9.45397
gler	-9.454
▁lek	-9.45473
▁michael	-9.45547
tikk	-9.45747
▁representerte	-9.45772
44	-9.45916
kjøp	-9.45933
▁kraftig	-9.45939
▁tett	-9.4594
▁pol	-9.45978
▁høre	-9.45982
nik	-9.46068
▁distrikt	-9.46215
▁1972	-9.46261
virkning	-9.46274
▁britisk	-9.46376
▁kul	-9.46435
▁ære	-9.46465
▁kontroll	-9.46507
▁løv	-9.46609
▁kreve	-9.46634
▁samling	-9.46711
▁ze	-9.46844
▁linje	-9.46857
arm	-9.46862
▁lind	-9.46928
▁gå	-9.46953
▁syv	-9.47008
▁lær	-9.47023
▁knut	-9.47149
jev	-9.47162
mus	-9.47258
gruppe	-9.47277
▁fugle	-9.47332
▁komme	-9.47336
hel	-9.47405
▁borger	-9.47493
▁flo	-9.47602
ī	-9.47705
▁richard	-9.47706
▁1982	-9.47717
▁1987	-9.47718
▁1985	-9.47723
▁2014	-9.47725
▁syk	-9.47795
grunn	-9.47875
skolen	-9.47933
▁mill	-9.47948
vatnet	-9.48013
lus	-9.48038
verket	-9.48092
▁avdeling	-9.48122
gard	-9.48153
fugl	-9.48193
ite	-9.48227
▁stø	-9.48238
▁karriere	-9.48392
messig	-9.48432
▁begrepet	-9.48435
▁prosent	-9.48448
▁statsminister	-9.48459
rud	-9.4846
gal	-9.48534
rings	-9.48552
▁nordlig	-9.48569
ap	-9.48624
▁vokst	-9.48637
farge	-9.48703
▁grense	-9.48765
fo	-9.48837
▁natt	-9.48853
▁pl	-9.4894
rad	-9.48943
▁80	-9.49113
hn	-9.49144
▁symbol	-9.4917
▁2013	-9.49172
▁dronning	-9.49179
▁cap	-9.49206
57	-9.49228
▁riksvei	-9.49233
▁sammenheng	-9.49252
ky	-9.49259
▁hvordan	-9.49268
▁kam	-9.49345
▁hva	-9.49362
krigen	-9.49375
▁følge	-9.49478
▁slaget	-9.49523
▁un	-9.4958
41	-9.49823
▁kle	-9.49833
▁daglig	-9.49883
▁københavn	-9.49911
▁hvilke	-9.49912
lagt	-9.49923
▁1973	-9.49925
eks	-9.49957
▁bind	-9.50054
▁cent	-9.50081
▁danner	-9.50089
▁trekk	-9.50092
▁sel	-9.50176
39	-9.50283
bet	-9.50329
▁ska	-9.50342
▁høyde	-9.50386
▁win	-9.50445
▁grand	-9.50479
▁kart	-9.50494
asjonen	-9.50533
▁nærings	-9.5054
sol	-9.50607
▁skapt	-9.50611
▁fest	-9.5072
fest	-9.50861
fører	-9.50882
gata	-9.51006
▁ettersom	-9.51083
▁forsknings	-9.51153
▁kvinner	-9.51161
▁komp	-9.51266
▁sommeren	-9.51377
bilde	-9.51386
▁folketelling	-9.51409
▁wo	-9.51415
▁1978	-9.51424
▁pen	-9.51493
▁ytre	-9.51526
▁gass	-9.51549
▁200	-9.51612
kunst	-9.51719
▁sur	-9.5175
kommune	-9.51765
rør	-9.51803
▁stemme	-9.5193
iner	-9.51935
▁kh	-9.51945
stikk	-9.52036
▁hverandre	-9.52167
zh	-9.52289
vinger	-9.52299
▁olav	-9.5233
▁populær	-9.52337
34	-9.52356
▁rad	-9.52385
▁cm	-9.52449
▁høyere	-9.52538
▁dyre	-9.52583
fu	-9.52621
▁hovedstaden	-9.52657
▁ek	-9.5266
▁drev	-9.52802
62	-9.52812
78	-9.52833
gon	-9.52913
uc	-9.52914
▁fjerde	-9.5293
▁distriktet	-9.52946
▁myr	-9.52968
▁black	-9.52982
▁søster	-9.52987
field	-9.53006
▁retning	-9.53032
▁mottok	-9.53082
▁180	-9.53141
skapet	-9.53148
▁tha	-9.53255
maskin	-9.53274
▁nabo	-9.53291
▁bygde	-9.53319
▁idretts	-9.53321
hov	-9.53333
ringen	-9.53437
ence	-9.53464
▁munn	-9.53484
▁krets	-9.53607
isten	-9.53652
▁relativ	-9.537
▁egentlig	-9.53726
▁1950	-9.53726
▁kloster	-9.53735
gaard	-9.53761
non	-9.53794
▁behandling	-9.53866
▁delta	-9.53953
▁scene	-9.54038
industri	-9.54039
▁lau	-9.54061
formet	-9.54214
fart	-9.54279
spor	-9.54332
▁prosess	-9.54334
▁alb	-9.54354
92	-9.54468
ville	-9.54587
▁brann	-9.546
▁organisasjon	-9.54605
▁styrke	-9.54677
▁ordenen	-9.54695
▁varme	-9.54702
▁sund	-9.54743
▁unge	-9.5476
org	-9.54783
▁neste	-9.54789
▁bør	-9.54819
sal	-9.5489
▁dia	-9.54948
off	-9.54975
hal	-9.55012
rim	-9.55045
▁totalt	-9.55091
▁1979	-9.55266
▁inkluderer	-9.5536
67	-9.55396
▁opprør	-9.55417
▁type	-9.55427
win	-9.55428
▁bon	-9.55617
ull	-9.55639
▁finland	-9.55643
med	-9.55673
▁red	-9.55768
krets	-9.55774
90	-9.56018
ade	-9.5602
▁vid	-9.56039
▁religiøs	-9.56043
▁forsøk	-9.56059
▁hjerte	-9.56069
▁fange	-9.56089
▁klasse	-9.56096
▁veg	-9.56114
▁fremme	-9.56184
bare	-9.56207
qu	-9.56245
ansk	-9.56252
valg	-9.56283
gående	-9.56337
▁mørke	-9.56399
stille	-9.56439
▁skrive	-9.56467
▁livs	-9.56551
▁skipet	-9.56644
▁redaktør	-9.56646
▁ban	-9.56648
motor	-9.56659
▁offisiell	-9.5667
tus	-9.56702
ax	-9.56781
в	-9.56812
båt	-9.56891
▁borg	-9.56932
▁oppdag	-9.57017
fjell	-9.57044
▁pin	-9.57091
elige	-9.57173
▁sju	-9.57191
47	-9.57244
historie	-9.57252
våpen	-9.57252
84	-9.57298
saker	-9.57353
▁karakter	-9.57399
stoff	-9.57402
▁salt	-9.57463
▁time	-9.57517
korps	-9.5752
▁nordvest	-9.57643
▁1945	-9.57649
eier	-9.57771
▁hvite	-9.57777
midler	-9.57831
▁pop	-9.57836
pet	-9.57855
lær	-9.57917
▁klo	-9.57974
marked	-9.58003
▁tung	-9.58029
▁ken	-9.58115
▁påvirke	-9.58142
▁arten	-9.58336
▁profesjonell	-9.58443
▁tydelig	-9.58446
▁typisk	-9.58448
slutning	-9.58456
▁1983	-9.58456
▁stavanger	-9.58459
▁1967	-9.58459
▁2015	-9.58467
49	-9.58497
gna	-9.58514
▁metal	-9.58526
▁ungdoms	-9.58581
stol	-9.58663
▁anders	-9.58685
▁befolkningen	-9.58693
▁årlig	-9.58741
▁sentrale	-9.58744
person	-9.58765
▁leir	-9.58782
▁krav	-9.588
▁pri	-9.58816
lov	-9.58963
▁harald	-9.58975
▁ven	-9.59108
▁område	-9.59143
ér	-9.59185
▁stilling	-9.59197
▁japansk	-9.59207
rich	-9.59231
š	-9.59256
ekspedisjon	-9.59256
▁tilsvarende	-9.59256
▁louis	-9.59257
▁dyp	-9.59327
▁sivil	-9.59333
▁try	-9.59351
flu	-9.59454
▁cal	-9.59588
ografi	-9.59634
94	-9.5964
▁gården	-9.59654
tog	-9.59667
▁operasjon	-9.59682
▁auto	-9.59684
▁sjef	-9.59692
07	-9.59702
arter	-9.59871
▁elve	-9.59961
ish	-9.60007
gjorde	-9.60057
▁fot	-9.60078
▁nærmest	-9.60082
▁høye	-9.60132
▁city	-9.60189
▁she	-9.60269
▁roma	-9.60283
▁500	-9.60302
tun	-9.60459
lede	-9.60506
of	-9.60562
▁hodet	-9.60632
▁samlet	-9.60636
sser	-9.60689
satte	-9.60715
▁nest	-9.60724
▁båt	-9.60728
63	-9.60739
▁hest	-9.60888
д	-9.60902
▁passer	-9.60918
▁1920	-9.60926
▁åpen	-9.60932
vind	-9.60968
▁sikre	-9.60971
▁will	-9.60977
▁erstattet	-9.60996
▁modell	-9.61025
▁star	-9.61067
▁union	-9.61098
68	-9.61101
▁stan	-9.61125
▁utført	-9.61141
ib	-9.6119
▁raskt	-9.61211
stripe	-9.61257
98	-9.61261
ved	-9.61288
▁begynnelse	-9.61295
▁stod	-9.61305
▁pass	-9.61365
▁kull	-9.61445
▁holm	-9.61521
▁representant	-9.61553
▁bob	-9.61554
▁cr	-9.61596
haug	-9.61637
▁vær	-9.61718
manns	-9.61747
ance	-9.61769
▁sla	-9.61777
73	-9.61782
stedet	-9.61796
grense	-9.61798
▁effekt	-9.61855
▁slått	-9.61897
nom	-9.61921
46	-9.61931
▁jobb	-9.61941
▁fjorden	-9.62031
▁trolig	-9.62063
▁hoff	-9.62072
▁verne	-9.62101
slaget	-9.62103
omme	-9.62107
▁koloni	-9.62123
▁us	-9.62156
▁stre	-9.62223
▁ole	-9.62245
dorf	-9.62298
løsning	-9.62309
▁skape	-9.62315
▁organisasjonen	-9.62324
tic	-9.62353
▁forfatteren	-9.62368
▁60	-9.62426
▁hellig	-9.62469
▁divisjon	-9.62477
▁prosjekt	-9.62519
oner	-9.62544
▁edderkopp	-9.62588
▁måte	-9.62682
▁nivå	-9.62688
sberg	-9.62691
▁driver	-9.62729
bor	-9.62734
▁grupper	-9.62754
▁spill	-9.62809
▁privat	-9.62832
▁het	-9.62898
▁enten	-9.63003
▁danse	-9.63058
▁mørk	-9.63071
▁nils	-9.63078
▁anlegget	-9.6309
▁tema	-9.63174
▁mes	-9.63206
på	-9.6321
53	-9.63274
▁størrelse	-9.63371
▁kro	-9.63396
75	-9.63417
▁sørvest	-9.63427
utdannet	-9.6343
87	-9.63523
▁nr	-9.63547
▁betegne	-9.63562
▁betegnelsen	-9.63577
▁miste	-9.63588
▁dar	-9.63611
mid	-9.63694
enberg	-9.63741
▁mid	-9.63787
▁retts	-9.63895
77	-9.63907
▁horn	-9.63922
▁py	-9.63923
hm	-9.63944
▁prisen	-9.63955
▁faren	-9.6399
bjørn	-9.64005
▁zo	-9.64154
▁odd	-9.64157
▁foss	-9.64168
▁hed	-9.64213
à	-9.64214
kov	-9.64272
▁klassisk	-9.64278
▁dårlig	-9.64281
▁forsvars	-9.64295
▁just	-9.64308
wood	-9.64418
81	-9.6445
▁landsbyen	-9.64487
voll	-9.64695
▁rein	-9.64739
▁produsent	-9.64823
ella	-9.64847
▁ph	-9.64899
▁kap	-9.64975
▁høyt	-9.64983
▁tradisjon	-9.65028
ball	-9.65139
α	-9.6514
▁komponist	-9.65141
▁1976	-9.65153
▁1975	-9.65156
tti	-9.65229
▁administrasjons	-9.65234
nntil	-9.65253
elli	-9.65327
▁tegnet	-9.65366
wan	-9.65466
▁korte	-9.65479
▁los	-9.6551
▁gode	-9.65514
▁kjempe	-9.65514
▁beskrive	-9.65596
ón	-9.65605
▁ky	-9.6563
▁elv	-9.6564
▁flu	-9.65663
ney	-9.65752
▁hell	-9.65804
prisen	-9.65825
▁kamper	-9.65879
ura	-9.65907
vendt	-9.65932
▁drift	-9.6595
ille	-9.65965
▁vm	-9.65971
▁ce	-9.65983
gangen	-9.66011
▁endt	-9.66093
▁nåv	-9.66172
▁hopp	-9.66234
▁nan	-9.66235
sar	-9.66256
ua	-9.66263
▁larven	-9.66325
▁stav	-9.6635
▁opphav	-9.66426
▁kanal	-9.66592
gården	-9.66611
▁rå	-9.66772
bygging	-9.66774
▁nasjonale	-9.66787
løs	-9.66835
▁fredrik	-9.66867
jan	-9.66881
press	-9.66885
▁1971	-9.66902
▁bolig	-9.66913
▁res	-9.66919
▁jazz	-9.66923
▁møtte	-9.66929
▁stadig	-9.66952
▁lenge	-9.67016
▁drive	-9.67033
▁innført	-9.6707
arbeider	-9.67193
▁sørlige	-9.67227
▁kraftverk	-9.67288
ada	-9.67293
▁grenser	-9.67301
▁grensen	-9.6732
▁løper	-9.67326
▁larvene	-9.67355
▁skips	-9.67378
▁regjering	-9.67436
▁kristen	-9.67499
▁militære	-9.67513
▁rygg	-9.67541
▁røde	-9.67591
styrke	-9.6769
▁reist	-9.67693
ira	-9.6774
м	-9.67772
▁suksess	-9.67772
▁brasil	-9.67778
▁voksne	-9.67781
▁fulgte	-9.67791
▁led	-9.67793
97	-9.67796
▁bruke	-9.67848
▁epi	-9.67917
▁north	-9.68029
▁viste	-9.68101
▁nar	-9.68137
▁sort	-9.68208
▁områder	-9.68273
strøm	-9.68273
▁ger	-9.68302
ula	-9.68303
ova	-9.68316
levende	-9.68324
▁app	-9.68346
91	-9.68384
vitenskap	-9.68463
▁lyn	-9.68466
enhet	-9.68473
ub	-9.68481
▁arve	-9.68552
▁iii	-9.68563
plasser	-9.68565
▁ledelse	-9.68583
illa	-9.68597
25	-9.68639
▁parlament	-9.68657
▁etterhvert	-9.68665
▁tilgjengelig	-9.68665
▁wilhelm	-9.68665
▁kategori	-9.68665
▁norrøn	-9.68668
▁2016	-9.68687
▁forkorte	-9.68706
▁musiker	-9.68731
28	-9.68769
▁mente	-9.68787
▁eiendom	-9.68787
▁foruten	-9.68789
flekk	-9.6879
▁dam	-9.68822
linjen	-9.68834
▁oppført	-9.68866
▁meg	-9.68882
08	-9.68898
▁bestemt	-9.69049
▁est	-9.69127
▁bøker	-9.69221
▁delvis	-9.6923
los	-9.69232
82	-9.69289
plassen	-9.69303
▁yu	-9.6934
▁ønsket	-9.69397
butikk	-9.69432
▁plassert	-9.69508
▁1969	-9.69566
▁real	-9.69593
▁program	-9.69608
▁poeng	-9.6962
høgskole	-9.6962
▁marine	-9.69664
vesen	-9.69685
ges	-9.69732
▁vanlige	-9.69772
▁feil	-9.69781
▁may	-9.69888
▁gor	-9.69901
last	-9.69909
bru	-9.69991
▁ramme	-9.70002
gikk	-9.70064
▁teknisk	-9.70072
dø	-9.70125
klar	-9.70219
▁pot	-9.70252
ledning	-9.70252
▁uavhengig	-9.7034
periode	-9.70365
▁stasjonen	-9.70415
ische	-9.70456
▁international	-9.70475
▁fremdeles	-9.70475
▁foreldre	-9.70477
▁arabisk	-9.70478
61	-9.70504
ão	-9.70542
▁artene	-9.70595
74	-9.70613
under	-9.70632
71	-9.70652
hør	-9.70662
▁fører	-9.70786
▁mun	-9.70816
▁lære	-9.70869
side	-9.70997
kirke	-9.71021
▁beskytte	-9.71038
lie	-9.71095
▁grev	-9.71109
sam	-9.71121
▁avisen	-9.71152
iti	-9.7121
▁song	-9.71212
kjær	-9.71218
▁helge	-9.71251
▁gitar	-9.71286
▁lagt	-9.71301
▁finne	-9.71321
▁90	-9.7135
istene	-9.71387
▁publisert	-9.71392
▁vanskelig	-9.71406
65	-9.71416
lys	-9.71439
▁1900	-9.71443
▁lenger	-9.71565
▁sve	-9.71604
▁adel	-9.71604
▁albert	-9.7164
▁ung	-9.71642
▁fel	-9.71662
▁heller	-9.71675
▁slott	-9.71724
▁tverr	-9.71741
▁strand	-9.7177
▁70	-9.72124
▁omtale	-9.72148
▁ind	-9.72165
virksomhet	-9.72189
festival	-9.72273
▁kardinal	-9.72318
▁joseph	-9.72318
▁spesiell	-9.72319
▁1968	-9.72335
▁musikkalbum	-9.72341
▁spar	-9.72431
musik	-9.7248
▁klarte	-9.72608
svarer	-9.72625
gått	-9.72762
▁styrker	-9.72763
▁jean	-9.72775
cha	-9.72894
▁bel	-9.72897
▁teknologi	-9.73048
▁35	-9.73096
program	-9.73109
▁stig	-9.73113
▁trak	-9.73141
▁bla	-9.73198
▁vinner	-9.73236
ł	-9.73253
▁fokus	-9.73257
hastighet	-9.73259
▁1981	-9.73269
▁omfattende	-9.73271
løy	-9.73291
strand	-9.73307
ben	-9.73337
▁flagg	-9.73347
▁bane	-9.73406
▁israel	-9.73513
▁spi	-9.73603
▁ok	-9.73635
▁undersøkelse	-9.73646
▁cy	-9.73649
▁atom	-9.73707
▁dø	-9.73728
hol	-9.73739
54	-9.73748
delen	-9.73772
jiang	-9.73773
trekk	-9.73821
▁journalist	-9.73871
▁normalt	-9.73903
▁hor	-9.73948
sport	-9.74072
kler	-9.74092
regionen	-9.74105
▁sovjetunionen	-9.74196
▁århundre	-9.74196
▁penge	-9.74253
▁rose	-9.74254
▁turn	-9.74479
fabrikk	-9.74545
ata	-9.74558
well	-9.74565
▁euro	-9.74573
▁fle	-9.74589
▁kroner	-9.7469
83	-9.74691
▁anton	-9.748
klubben	-9.74851
▁sko	-9.74943
▁stammer	-9.74945
▁valgte	-9.74948
gger	-9.74971
▁mak	-9.75044
fortelling	-9.75095
▁arrangert	-9.75148
▁materiale	-9.75154
▁2017	-9.75171
▁charles	-9.75176
▁naturlig	-9.75214
vekt	-9.75251
▁hit	-9.75325
ado	-9.75468
58	-9.75516
ritt	-9.75536
▁hovedstad	-9.75537
▁aust	-9.75545
▁resten	-9.75559
gli	-9.75619
▁total	-9.75672
▁ran	-9.75702
▁jens	-9.75754
ping	-9.75783
din	-9.75795
▁fal	-9.7581
▁arne	-9.75849
▁eli	-9.75922
▁eva	-9.75965
▁svak	-9.76021
▁forsvar	-9.76045
▁united	-9.76113
▁syr	-9.76116
▁styrt	-9.76133
▁programmet	-9.7614
▁festning	-9.76188
▁regel	-9.76327
48	-9.76358
hin	-9.76363
▁32	-9.76539
▁lev	-9.76567
33	-9.76585
samisk	-9.76693
stopp	-9.76723
▁gam	-9.76756
▁fro	-9.76762
kirken	-9.76772
lang	-9.76816
▁poly	-9.76829
15	-9.7685
▁kalte	-9.76935
▁sønnen	-9.76941
14	-9.76942
▁areal	-9.76956
▁por	-9.76981
▁drama	-9.77034
bånd	-9.77039
▁administrativ	-9.77081
▁bokstav	-9.77083
▁bol	-9.77093
▁primær	-9.7715
▁eksistere	-9.77175
lund	-9.77251
▁grø	-9.77268
▁hill	-9.77384
park	-9.77419
▁akademi	-9.77443
eppe	-9.77474
▁lan	-9.7749
tum	-9.77514
▁selve	-9.77593
oni	-9.77603
▁sau	-9.77619
▁vinge	-9.77621
▁folket	-9.77663
▁dommer	-9.77734
gin	-9.77746
▁økonomi	-9.77795
▁hente	-9.77827
▁kilde	-9.7783
▁aktivitet	-9.77934
▁eksempler	-9.78061
▁publikum	-9.78061
▁sannsynlig	-9.78061
▁stockholm	-9.78061
▁frederik	-9.78066
▁vold	-9.78112
▁markeds	-9.78156
▁buss	-9.78184
hund	-9.78204
utgivelse	-9.78215
con	-9.7822
▁franc	-9.78222
▁off	-9.78223
kh	-9.78233
▁tråd	-9.78242
▁kvinnelig	-9.78307
ryk	-9.78322
▁klubb	-9.78409
▁nrk	-9.78494
ala	-9.78572
▁fordelt	-9.78575
lid	-9.78615
▁nordland	-9.78635
▁temperatur	-9.78673
▁hjelpe	-9.78687
▁bevis	-9.7871
▁din	-9.7874
hjul	-9.78753
ity	-9.78766
21	-9.78858
fang	-9.79002
▁alternativ	-9.79051
▁brensel	-9.79054
▁kva	-9.79057
▁1948	-9.79067
▁1949	-9.7907
vand	-9.79073
▁ya	-9.7915
▁reform	-9.79151
19	-9.79189
▁od	-9.79225
▁hage	-9.79262
▁nådd	-9.79318
▁ask	-9.79322
hag	-9.79336
▁1800	-9.79513
tropp	-9.7952
▁havet	-9.79557
ān	-9.79762
45	-9.79779
▁alder	-9.79837
forsker	-9.79852
▁katolske	-9.79872
▁hunnen	-9.79892
▁graf	-9.79914
▁produksjons	-9.79964
▁indisk	-9.80015
▁opprinnelse	-9.80051
shi	-9.8006
▁1974	-9.80068
▁canada	-9.80071
regjer	-9.80073
▁listen	-9.80095
møte	-9.80129
zy	-9.80134
▁glo	-9.80237
▁grunnlag	-9.80384
kilden	-9.80402
▁innehold	-9.80441
▁egypt	-9.80495
▁anne	-9.80495
▁hud	-9.80507
▁polen	-9.80543
▁bygningen	-9.80558
rup	-9.80575
standen	-9.80736
▁regjerings	-9.80781
▁velge	-9.80782
▁sterk	-9.808
▁historien	-9.808
▁mulighet	-9.80809
øm	-9.80853
igh	-9.80908
▁disk	-9.80909
kka	-9.80953
▁formann	-9.80987
▁hæren	-9.81026
distrikt	-9.81049
▁australia	-9.81061
▁trøndelag	-9.81061
▁berømt	-9.81063
▁bronse	-9.81092
grupper	-9.81135
ual	-9.8116
▁direktør	-9.8119
kamera	-9.81223
24	-9.81269
formen	-9.81272
ux	-9.81273
▁mol	-9.81274
▁lignende	-9.81301
▁vind	-9.81351
▁begynner	-9.8137
kysten	-9.81379
▁tettsted	-9.81396
▁single	-9.81402
▁støttet	-9.81515
18	-9.81561
▁anna	-9.81594
▁overfor	-9.81616
shire	-9.8164
atur	-9.81711
▁bio	-9.81726
kultur	-9.81728
unt	-9.81734
▁tittel	-9.81894
▁fyr	-9.81926
▁forskning	-9.81936
▁amt	-9.81996
house	-9.82016
▁fremste	-9.82076
▁innflytelse	-9.82082
▁tilhørte	-9.82084
▁kontor	-9.82092
▁lufthavn	-9.82095
▁1946	-9.82101
▁klima	-9.82106
▁blue	-9.82115
▁finalen	-9.82128
▁max	-9.82167
▁posisjon	-9.82172
▁alltid	-9.82194
▁kryss	-9.82209
mod	-9.82219
▁vitenskapelig	-9.82221
løst	-9.82278
▁teksten	-9.8237
▁nevnt	-9.82498
▁straffe	-9.82525
▁kop	-9.82529
byr	-9.82548
▁bay	-9.82606
drift	-9.82618
▁etablerte	-9.82712
▁problem	-9.82729
▁fir	-9.82756
tag	-9.82827
▁gun	-9.82853
øyene	-9.8286
▁leve	-9.82939
▁prøve	-9.82948
▁instrument	-9.8295
▁1959	-9.83113
▁1963	-9.83132
▁1930	-9.83142
parten	-9.83144
▁gjelder	-9.83226
wald	-9.83271
▁representerer	-9.8328
▁trener	-9.83346
▁maler	-9.8339
▁hær	-9.83427
dommen	-9.83447
▁huset	-9.83475
12	-9.83493
stø	-9.83583
brun	-9.83599
▁benytte	-9.83605
▁test	-9.83685
▁spiss	-9.83739
gram	-9.83757
bær	-9.83804
serien	-9.83805
▁cast	-9.83835
▁kjerne	-9.83846
feld	-9.83863
▁lø	-9.839
parken	-9.83991
▁solo	-9.84043
▁forskjell	-9.84061
▁frukt	-9.84081
▁old	-9.84084
eringen	-9.8409
grav	-9.84138
▁hovedrollen	-9.84155
▁øvre	-9.84171
▁1965	-9.84172
▁1977	-9.84173
▁lansert	-9.84181
▁bodde	-9.84181
nummer	-9.8419
▁ting	-9.84198
▁bevart	-9.84208
▁teori	-9.84236
▁skifte	-9.84236
skudd	-9.84271
▁avis	-9.84353
▁marc	-9.84428
▁ara	-9.84503
inntekt	-9.84504
▁ekstra	-9.84526
car	-9.84526
▁normal	-9.84527
▁ungdom	-9.84595
▁dog	-9.84636
64	-9.8464
arbeidet	-9.84655
▁villa	-9.84655
vision	-9.84671
dor	-9.84677
▁tradisjonelle	-9.84714
mund	-9.84859
▁elektrisk	-9.84934
▁produksjon	-9.84944
ød	-9.84975
▁utover	-9.8504
full	-9.85065
▁still	-9.85128
▁ansatte	-9.8516
▁nø	-9.85171
23	-9.85176
▁innbyggertall	-9.85207
▁ytterligere	-9.85207
▁school	-9.85208
kapasitet	-9.85208
▁nærmere	-9.85213
▁metode	-9.85244
▁forretnings	-9.85252
▁video	-9.85252
▁nevnes	-9.85298
▁award	-9.85306
▁polsk	-9.854
▁gold	-9.85439
misjon	-9.85468
▁organisert	-9.85469
plate	-9.85509
▁tusen	-9.85679
▁sent	-9.85692
avdeling	-9.85721
76	-9.85725
row	-9.85838
▁populære	-9.86032
▁kanon	-9.86061
peri	-9.86115
trekning	-9.86138
▁asia	-9.8619
møll	-9.86232
▁original	-9.86267
▁rund	-9.86268
▁ishockey	-9.86271
prinsipp	-9.8628
▁skotsk	-9.86299
fjellet	-9.863
▁fotballspiller	-9.86308
handler	-9.86308
▁snakke	-9.86329
hode	-9.86376
▁kjenne	-9.86431
▁bj	-9.86499
▁300	-9.86555
▁haug	-9.86755
▁glass	-9.86789
▁sar	-9.86819
▁jorden	-9.86929
▁landskapet	-9.8697
løpet	-9.87221
35	-9.87321
▁1952	-9.87346
▁middelsstor	-9.87346
▁hertug	-9.87348
▁operatør	-9.87367
▁ordfører	-9.87373
▁1940	-9.87378
▁opprinnelige	-9.87394
▁omtalt	-9.87408
43	-9.87409
▁bibliotek	-9.87418
▁bølge	-9.87451
▁fabrikk	-9.87458
▁fortsette	-9.87463
04	-9.87534
ordning	-9.8757
▁fremst	-9.87591
▁nederlandsk	-9.87671
mand	-9.87811
▁revolusjon	-9.87854
gress	-9.87925
▁troll	-9.87959
passet	-9.87979
▁up	-9.87984
27	-9.88065
▁dav	-9.88107
▁åpne	-9.88112
▁nes	-9.88128
▁forsøkt	-9.88138
fot	-9.8823
san	-9.88249
dagen	-9.88307
▁kristian	-9.88376
▁1966	-9.88457
▁regnet	-9.88484
16	-9.88485
▁falt	-9.88493
▁befolkning	-9.88507
prosjekt	-9.88635
▁front	-9.88664
pha	-9.88699
▁typer	-9.88721
vor	-9.8882
▁nam	-9.88876
▁sovjetisk	-9.89002
dio	-9.8906
virke	-9.89116
▁maur	-9.89124
▁cu	-9.89235
▁blomster	-9.89247
▁hind	-9.89282
hem	-9.89296
ith	-9.89441
▁blei	-9.89453
▁nasjon	-9.89521
kommunikasjon	-9.89532
▁hurtig	-9.89532
▁1964	-9.89548
▁islam	-9.8956
▁lengre	-9.89578
orm	-9.89627
▁snø	-9.89639
▁fjellet	-9.89647
▁sli	-9.89656
▁tale	-9.89714
oppgave	-9.8972
feltet	-9.89737
album	-9.89748
▁sun	-9.89784
kraftverk	-9.89806
▁kode	-9.89838
bedrift	-9.89901
▁flyplass	-9.89947
▁lån	-9.89951
linjer	-9.89992
▁provins	-9.89998
▁kjøpe	-9.90006
▁tapte	-9.90041
▁kas	-9.90074
ary	-9.90085
cal	-9.90112
▁gjeste	-9.90159
▁king	-9.90168
▁byer	-9.90197
▁stoff	-9.9029
▁utvidet	-9.90316
▁nederland	-9.90326
▁motiv	-9.90374
▁fc	-9.90421
▁kropps	-9.90501
▁cam	-9.90559
pan	-9.90584
økonom	-9.90598
▁selvstendig	-9.90643
▁records	-9.90643
▁vingespenn	-9.90643
▁smith	-9.90655
▁forteller	-9.90655
▁1942	-9.90657
▁1958	-9.90661
aceae	-9.90661
▁grunnlegger	-9.90667
▁interesse	-9.90684
▁bakgrunn	-9.90695
▁varierer	-9.90698
▁sterke	-9.90729
vu	-9.90736
▁saken	-9.90751
▁jevn	-9.90754
▁holder	-9.90756
finn	-9.90842
▁fylket	-9.90854
▁samfunns	-9.9086
▁bonde	-9.90862
▁stol	-9.90889
leng	-9.90937
▁internasjonal	-9.9095
▁sykehus	-9.91171
79	-9.91222
skift	-9.91417
▁vokal	-9.91579
▁kjøpte	-9.91607
mennene	-9.91658
ì	-9.91767
▁vunnet	-9.91767
ox	-9.91777
pho	-9.91848
▁rek	-9.91862
▁bou	-9.91907
klo	-9.91973
▁mw	-9.91987
▁gutt	-9.92009
vekst	-9.92089
▁with	-9.92099
▁vestlige	-9.92145
øv	-9.92149
▁sul	-9.92172
51	-9.92177
oppdaget	-9.92182
lett	-9.92194
▁ånd	-9.92212
▁konkurranse	-9.92222
ania	-9.92309
▁endret	-9.92326
▁kg	-9.92379
▁forholds	-9.92402
▁cup	-9.92485
pur	-9.92516
skij	-9.92624
▁spa	-9.92666
ernes	-9.92673
kammer	-9.92733
▁jobbet	-9.92747
▁qua	-9.92773
▁jule	-9.92774
▁univers	-9.92882
sekretær	-9.9289
▁deriblant	-9.92903
▁sistnevnte	-9.92903
▁multi	-9.92909
▁club	-9.92915
▁1924	-9.9292
▁1954	-9.92922
▁1961	-9.92922
▁sim	-9.92932
▁alfred	-9.92941
▁thi	-9.92969
▁tam	-9.93093
17	-9.931
▁luk	-9.9315
forbindelse	-9.93211
ios	-9.93246
▁hundre	-9.93265
▁tross	-9.93279
99	-9.93307
kontor	-9.93314
▁havne	-9.93324
▁kost	-9.9348
▁live	-9.93603
▁avsluttet	-9.93606
▁fritt	-9.9361
32	-9.93614
mmel	-9.93662
▁streng	-9.93683
▁human	-9.93723
▁amerika	-9.93758
byggingen	-9.93797
▁flor	-9.93845
▁dynastiet	-9.93855
vit	-9.93928
▁roll	-9.93955
▁historiker	-9.93994
ico	-9.94008
▁dør	-9.94021
▁landsby	-9.94037
г	-9.94053
▁kaptein	-9.94053
▁korea	-9.94057
▁studio	-9.9406
▁south	-9.94064
▁lengst	-9.9408
▁mytologi	-9.94093
▁deles	-9.941
▁gjenopp	-9.94133
▁behandle	-9.94186
hopp	-9.9422
▁dato	-9.94298
holm	-9.94328
forfatter	-9.94388
▁jøde	-9.94439
nnet	-9.94481
▁linjen	-9.94499
mont	-9.94505
▁steve	-9.94513
yang	-9.94583
▁våren	-9.94663
▁sco	-9.94772
ktig	-9.94794
▁øyene	-9.94816
▁trafikk	-9.94837
stig	-9.94924
▁lot	-9.94936
▁vekst	-9.94938
▁kreft	-9.95021
▁jacob	-9.95087
▁toppen	-9.95151
▁europeiske	-9.95186
giver	-9.95191
vinner	-9.95196
▁insekt	-9.95222
▁otto	-9.95251
▁saint	-9.95257
▁gjennomført	-9.95352
lege	-9.95399
▁400	-9.95429
▁henholdsv	-9.95451
▁måneder	-9.95483
▁fordel	-9.95552
utvikling	-9.95576
drevet	-9.95628
▁status	-9.9564
▁utviklingen	-9.95651
▁dj	-9.95661
▁bidrag	-9.9576
slav	-9.958
▁innhold	-9.95848
vold	-9.95859
dron	-9.95874
▁prins	-9.95928
▁wall	-9.96079
idrett	-9.9616
▁kommunene	-9.96217
▁lar	-9.96241
▁konkurransen	-9.96259
▁irsk	-9.96383
▁innsjøen	-9.96385
▁nowiki	-9.96392
▁ekteskap	-9.96411
▁femte	-9.96434
▁east	-9.9646
bakk	-9.9648
▁sider	-9.96483
▁åpning	-9.96496
▁bevegelse	-9.96507
mond	-9.96559
▁high	-9.96604
▁il	-9.96632
▁vers	-9.96652
▁fø	-9.96714
trafikk	-9.96777
▁endre	-9.9678
miljø	-9.96783
▁jakt	-9.96816
▁damp	-9.96841
▁møter	-9.96896
▁hum	-9.96978
ifisert	-9.97113
former	-9.97143
▁spillet	-9.97156
88	-9.97191
▁tettstedet	-9.97247
▁rute	-9.97254
firma	-9.97255
▁tonn	-9.97272
▁tradisjonell	-9.97303
▁fler	-9.97313
qua	-9.97323
▁bydelen	-9.97342
▁heng	-9.974
▁offiser	-9.97426
▁cra	-9.97449
tunnelen	-9.97549
▁vik	-9.97554
▁stadion	-9.9759
▁fungere	-9.97596
foss	-9.97604
▁områdene	-9.97615
▁videregående	-9.97617
▁motsetning	-9.97633
▁jarl	-9.97663
▁wal	-9.97774
stått	-9.97794
▁markert	-9.97824
▁eksempelvis	-9.97846
▁rollen	-9.97865
▁henry	-9.97888
▁vent	-9.97926
▁sesong	-9.97968
trinn	-9.98003
22	-9.98034
øst	-9.98041
▁wil	-9.98048
legging	-9.98062
▁preget	-9.98126
▁utstilling	-9.98128
ij	-9.98129
bed	-9.98181
ordenen	-9.98228
kommisjon	-9.98248
▁finn	-9.9825
▁irland	-9.98344
▁spansk	-9.98366
▁fisk	-9.9838
▁niels	-9.98406
▁dol	-9.98433
tek	-9.9844
botn	-9.98466
dannelse	-9.98487
▁kok	-9.98568
skipet	-9.9858
▁strid	-9.98656
́	-9.98787
▁byprefekturet	-9.98787
▁introdusert	-9.98787
▁pasient	-9.98787
▁betrakte	-9.98788
▁fengsel	-9.98788
▁kombinert	-9.98788
▁alvorlig	-9.98788
▁melodi	-9.98793
▁menighet	-9.98794
▁kontakt	-9.98796
▁debuter	-9.98803
▁flertall	-9.98806
▁1941	-9.98812
▁1957	-9.98812
▁klart	-9.98846
analyse	-9.98891
anser	-9.98896
▁forvingen	-9.98923
▁utføre	-9.98957
▁tørr	-9.98973
▁samarbeidet	-9.98984
▁ub	-9.98997
▁vokalist	-9.99024
▁overgang	-9.99033
▁offisiel	-9.99042
▁simon	-9.99078
▁kari	-9.99096
▁masse	-9.99104
▁filosofi	-9.9917
▁utstyrt	-9.99202
▁salg	-9.9923
produsent	-9.99233
mur	-9.99244
▁sho	-9.99251
▁vannet	-9.99272
▁midten	-9.99354
▁45	-9.99393
aktiv	-9.99407
▁soldater	-9.99418
▁camp	-9.99437
plikt	-9.99444
11	-9.99483
▁verket	-9.99673
▁runde	-9.99688
▁forsvaret	-9.99707
▁grunnla	-9.99737
lser	-9.9974
uch	-9.99988
▁politikk	-9.99988
▁inspirert	-10.0001
▁kjønn	-10.0001
▁moskva	-10.0001
▁royal	-10.0001
▁1947	-10.0003
▁1962	-10.0003
byrå	-10.0007
▁dvs	-10.0008
▁tilfelle	-10.0008
▁struktur	-10.0011
▁show	-10.0017
dam	-10.0019
▁33	-10.002
42	-10.0025
▁brand	-10.0033
▁tårn	-10.0034
▁viking	-10.0037
▁personlig	-10.0045
▁svi	-10.0049
▁situasjon	-10.0052
shan	-10.0059
bul	-10.006
politikk	-10.0062
havn	-10.0062
▁vakt	-10.0073
▁presse	-10.0075
▁produksjonen	-10.0076
▁stål	-10.0081
▁drag	-10.0083
▁malt	-10.0086
holmen	-10.0088
▁arn	-10.0089
▁cru	-10.0095
▁kjøre	-10.0097
▁landskap	-10.0098
▁vet	-10.0104
▁150	-10.0111
▁maleri	-10.012
▁oversatt	-10.0122
ν	-10.0124
▁1956	-10.0124
▁service	-10.0124
▁kritikk	-10.0124
▁innsats	-10.0124
▁xiàn	-10.0125
▁andersen	-10.0125
▁college	-10.0126
▁fullført	-10.0127
▁1939	-10.0127
▁spania	-10.0129
▁zu	-10.0129
▁vokser	-10.0133
▁veldig	-10.0133
▁anlegg	-10.0133
▁sten	-10.0137
▁shan	-10.0138
pass	-10.0144
▁neu	-10.0146
head	-10.0147
och	-10.0149
▁bord	-10.015
▁likhet	-10.0151
▁team	-10.0153
▁kysten	-10.0156
valget	-10.016
▁ranger	-10.0161
▁char	-10.0166
ulykke	-10.017
upp	-10.0176
▁75	-10.0176
sjø	-10.0181
krig	-10.0189
▁johann	-10.0194
▁orkester	-10.0196
▁kraftige	-10.02
▁hode	-10.02
▁brev	-10.0201
▁marie	-10.0205
driv	-10.0206
kap	-10.0208
▁private	-10.0211
rsom	-10.0222
▁kald	-10.0227
▁underlag	-10.023
▁republikken	-10.0239
magasin	-10.0249
▁anerkjent	-10.0249
▁passasjer	-10.0249
▁regissert	-10.0249
▁skjedde	-10.0249
▁hustru	-10.025
▁tegneserie	-10.025
▁1955	-10.0252
▁1936	-10.0252
▁fn	-10.0255
▁scott	-10.0258
bein	-10.026
eksamen	-10.0262
▁mangler	-10.0263
▁web	-10.0268
båter	-10.0272
▁overført	-10.0276
▁dun	-10.028
▁och	-10.0282
onia	-10.0285
▁foreningen	-10.0286
▁bispedømme	-10.0287
syre	-10.0293
▁beskrevet	-10.0297
chu	-10.0299
middel	-10.0307
31	-10.0311
▁omfattet	-10.0312
▁river	-10.0314
ulf	-10.0326
dels	-10.0331
▁skatte	-10.0332
▁harry	-10.0332
artist	-10.0335
▁tang	-10.0341
▁liga	-10.0348
▁planter	-10.0352
▁havn	-10.0353
▁tog	-10.0356
rygg	-10.0358
▁prosjektet	-10.0361
ū	-10.0375
▁nødvendig	-10.0376
ρ	-10.0376
▁skottland	-10.0376
▁generelt	-10.0376
▁jakob	-10.0376
▁dialekt	-10.0376
rekke	-10.0376
▁håkon	-10.0377
▁1919	-10.0378
▁oscar	-10.0378
▁himmel	-10.0378
▁tolv	-10.0381
▁sende	-10.0383
▁län	-10.0385
rød	-10.0386
områdene	-10.0388
▁øvrige	-10.039
▁bunn	-10.0406
▁und	-10.0406
▁furu	-10.0408
▁handler	-10.0415
com	-10.0415
▁institutt	-10.0423
▁rask	-10.0429
▁foto	-10.0431
▁tilhøre	-10.0432
hånd	-10.0434
▁ansvarlig	-10.0435
▁fjerne	-10.0437
▁øverste	-10.0447
skrev	-10.0458
delt	-10.0464
▁kjell	-10.0469
▁fyrst	-10.0472
oksid	-10.0473
▁selge	-10.0474
▁gil	-10.0476
hof	-10.0479
▁stamme	-10.0496
▁mary	-10.0501
ε	-10.0504
ι	-10.0504
у	-10.0504
▁ungarsk	-10.0504
ов	-10.0504
▁magnus	-10.0504
▁music	-10.0506
▁sier	-10.0508
▁papir	-10.0508
▁cur	-10.0509
▁uttale	-10.0509
▁mikro	-10.0511
▁slank	-10.0511
▁lavere	-10.0525
town	-10.0527
ahl	-10.0528
aya	-10.0529
▁sveits	-10.0531
spenning	-10.0548
▁wei	-10.0556
gjort	-10.0559
▁stift	-10.0561
lé	-10.0562
hjem	-10.0568
▁kvalitet	-10.0568
▁sunn	-10.0571
bøker	-10.0574
▁snart	-10.0579
▁føl	-10.0587
▁leon	-10.0588
▁gruve	-10.0591
▁manus	-10.0592
▁buk	-10.0592
▁spørsmål	-10.0595
▁long	-10.06
fulle	-10.0606
endring	-10.0621
â	-10.0634
▁akershus	-10.0634
▁fullstendig	-10.0634
▁erkebiskop	-10.0634
▁religion	-10.0634
▁østerrike	-10.0634
▁bakvingen	-10.0634
▁oblast	-10.0635
▁benyttes	-10.0635
▁1908	-10.0636
▁mongol	-10.0636
▁philip	-10.0636
▁1944	-10.0637
▁kjemisk	-10.0637
svømme	-10.0637
bestemmelse	-10.0638
▁rosen	-10.0644
▁kapell	-10.0648
▁korn	-10.0664
▁mini	-10.0665
▁hannen	-10.0676
zar	-10.068
rommet	-10.068
vika	-10.0684
▁former	-10.0692
▁master	-10.0702
hild	-10.0704
ektiv	-10.0707
96	-10.0711
▁bærer	-10.0712
▁fløy	-10.0712
▁kontrakt	-10.0713
▁bydel	-10.0717
▁andreas	-10.0721
ique	-10.0721
leir	-10.0723
riket	-10.0741
▁skyld	-10.0744
låt	-10.0745
▁grov	-10.075
formede	-10.0756
dekk	-10.0764
▁mexico	-10.0765
▁tilknyttet	-10.0765
▁jødisk	-10.0765
▁kveld	-10.0767
▁edward	-10.0767
tunnel	-10.0771
▁dokumenter	-10.0771
▁vitenskap	-10.0777
føringen	-10.078
▁utdannelse	-10.0785
ric	-10.0789
▁bombe	-10.0796
cul	-10.0797
▁laste	-10.08
▁spise	-10.0807
utøver	-10.0812
reise	-10.0812
än	-10.0814
на	-10.0819
▁blanding	-10.0828
▁sideelv	-10.083
produkt	-10.0833
▁tone	-10.0838
▁ull	-10.0846
gjøre	-10.0847
▁bidra	-10.0853
▁kommunist	-10.0853
▁bull	-10.0863
forbundet	-10.0865
89	-10.0865
forestilling	-10.0871
▁boy	-10.0871
blomst	-10.0879
▁vist	-10.0885
▁kaste	-10.0885
▁rh	-10.0893
myndighet	-10.0894
▁california	-10.0899
▁østerriksk	-10.0899
▁praksis	-10.0899
▁utbredt	-10.0899
▁kjærlighet	-10.0899
▁1943	-10.0901
▁olavs	-10.0901
herre	-10.0903
▁oppnådd	-10.0903
▁planet	-10.0904
▁portrett	-10.0906
▁skilt	-10.091
▁utnytte	-10.091
▁agder	-10.0922
7	-10.0926
▁oppdrag	-10.0927
▁gitarist	-10.0928
▁sankt	-10.093
▁stilt	-10.093
løk	-10.0936
▁phil	-10.0936
▁peder	-10.0938
dommer	-10.0944
▁middelalderen	-10.0947
▁comp	-10.0972
stasjonen	-10.0986
familie	-10.0988
spir	-10.0994
▁nyere	-10.1001
▁måned	-10.1006
▁henhold	-10.1016
▁solgt	-10.102
▁00	-10.1022
▁hotell	-10.1024
gor	-10.1025
▁handel	-10.1027
plante	-10.1027
▁utvikle	-10.1031
▁kim	-10.1032
▁individ	-10.1034
▁friedrich	-10.1034
▁utgangspunkt	-10.1034
▁gustav	-10.1034
▁ridder	-10.1035
▁dominere	-10.1038
▁nordisk	-10.1041
▁jordbruk	-10.1041
▁nærheten	-10.1043
▁vor	-10.1045
▁internett	-10.1046
cio	-10.1048
▁solgte	-10.1051
▁hovedsak	-10.1053
slutt	-10.1064
▁kommuner	-10.107
▁kil	-10.1073
▁språket	-10.1083
▁american	-10.1102
fil	-10.1105
forskning	-10.111
▁angel	-10.111
kilde	-10.1113
▁livet	-10.1122
liste	-10.1125
▁signal	-10.1127
29	-10.1127
▁nedre	-10.1128
▁cel	-10.1133
gno	-10.1137
▁ingeniør	-10.1141
▁press	-10.1143
▁olsen	-10.1147
▁systemet	-10.1161
ç	-10.1171
▁league	-10.1171
▁redusert	-10.1171
▁arrangere	-10.1171
▁fysisk	-10.1171
▁stortinget	-10.1171
▁objekt	-10.1171
▁1931	-10.1172
▁1951	-10.1173
▁sverd	-10.1175
▁slave	-10.1178
▁stortings	-10.118
kanten	-10.1188
▁ledende	-10.1189
▁kai	-10.1189
▁pap	-10.119
▁rod	-10.1192
▁beina	-10.1193
bakken	-10.1194
▁enkle	-10.1199
bol	-10.12
makten	-10.12
spis	-10.1201
▁nm	-10.1201
▁petter	-10.1204
▁stri	-10.1204
▁skjær	-10.1205
▁datteren	-10.1213
▁institut	-10.1214
▁turist	-10.1214
▁mobil	-10.1221
▁fotballklubb	-10.1226
vre	-10.123
▁museet	-10.1237
▁bland	-10.1241
lysning	-10.1252
museet	-10.1254
▁run	-10.1262
▁torg	-10.1271
norsk	-10.1273
▁wel	-10.1274
onym	-10.1279
26	-10.1283
olo	-10.1287
hai	-10.1288
war	-10.1289
givelse	-10.1289
▁programmer	-10.1293
▁bit	-10.1299
▁kyr	-10.1307
belteasteroide	-10.131
▁guvernør	-10.131
▁nominert	-10.131
▁josef	-10.131
▁inngår	-10.131
▁bryst	-10.131
▁coll	-10.131
▁konstant	-10.1311
ск	-10.1312
▁unntak	-10.1312
▁1937	-10.1313
artikler	-10.1317
▁bygninger	-10.1317
▁moren	-10.1317
▁drikke	-10.1318
hard	-10.1319
▁whi	-10.1324
ical	-10.1325
▁turner	-10.1326
fjær	-10.1327
▁bygda	-10.1327
▁studier	-10.1329
▁sven	-10.1332
▁oppstå	-10.1332
▁kongelige	-10.1335
▁bære	-10.1348
▁dor	-10.1349
▁formål	-10.1349
▁singel	-10.1354
komst	-10.1372
▁latinsk	-10.1374
kompani	-10.1376
▁forbundet	-10.1383
▁spanske	-10.1384
▁artikkel	-10.1385
▁dobbelt	-10.1388
dikt	-10.1395
▁formen	-10.1403
løft	-10.1406
▁dalen	-10.1407
▁stand	-10.141
▁42	-10.142
cca	-10.142
trær	-10.1424
▁kjøl	-10.1426
▁melk	-10.1428
▁utgi	-10.143
lyst	-10.1433
typen	-10.1434
rapport	-10.1437
▁street	-10.1439
▁brenn	-10.1439
▁skudd	-10.1445
ß	-10.145
ο	-10.145
▁alkohol	-10.1451
▁initiativ	-10.1451
▁installert	-10.1451
▁konflikt	-10.1451
▁utenlandske	-10.1451
▁beijing	-10.1451
▁premier	-10.1451
▁begrenset	-10.1451
▁för	-10.1452
▁autonom	-10.1452
▁1914	-10.1453
▁håndball	-10.1453
ograf	-10.1455
▁protest	-10.1455
▁kvalifiser	-10.1455
▁avledet	-10.1455
▁liberal	-10.1459
▁metro	-10.1464
▁yngre	-10.1465
▁unn	-10.1465
stitu	-10.147
▁dyrke	-10.1471
prosessen	-10.1477
▁mei	-10.1482
vannet	-10.1485
▁inge	-10.1497
▁timer	-10.1501
▁endelig	-10.1501
▁rør	-10.1501
▁innsjø	-10.1508
▁hevdet	-10.1512
▁undervisning	-10.1514
▁minutter	-10.1534
▁utstyr	-10.1539
▁regional	-10.154
født	-10.154
▁problemer	-10.1541
▁nettverk	-10.1545
▁120	-10.1552
▁tekster	-10.1572
alisme	-10.1593
molekyl	-10.1594
▁gunnar	-10.1594
▁avhengig	-10.1594
▁studioalbum	-10.1594
▁1925	-10.1596
▁bånd	-10.16
punktet	-10.16
galleri	-10.1609
▁tour	-10.161
▁nobel	-10.1616
▁magnet	-10.1622
klær	-10.1641
▁bosetning	-10.1643
▁fett	-10.1644
▁versjonen	-10.1655
kjemi	-10.1655
kjempe	-10.1661
▁sav	-10.1666
▁idrettslag	-10.1674
akademi	-10.1685
bukta	-10.1687
høyskole	-10.1687
bygningen	-10.1691
vogn	-10.1697
anda	-10.1703
handel	-10.1711
▁romanen	-10.1718
▁sikkerhets	-10.172
fjellene	-10.1734
kall	-10.1737
▁etterfulgt	-10.1738
▁digital	-10.1738
▁redusere	-10.1739
ström	-10.1739
▁1929	-10.174
▁mir	-10.174
▁1927	-10.174
▁skøyte	-10.1741
▁drei	-10.1742
▁kara	-10.1744
▁frihet	-10.1747
▁cri	-10.1747
able	-10.1749
▁stabil	-10.1751
▁oppnå	-10.176
▁sikte	-10.1762
▁pensjon	-10.1763
vegg	-10.1766
▁typen	-10.1774
▁morgen	-10.1777
stone	-10.1787
▁lyst	-10.1789
▁celle	-10.1794
▁skyte	-10.1804
næring	-10.1805
▁rent	-10.1807
▁esp	-10.1808
▁politiet	-10.1812
ledd	-10.1815
▁kristne	-10.182
feng	-10.1822
grensen	-10.1827
▁tradisjonel	-10.1831
ligner	-10.1836
▁kandidat	-10.1844
▁fol	-10.1845
roman	-10.1852
olje	-10.1853
▁storm	-10.1856
gjør	-10.1863
▁vingene	-10.1875
▁stemmer	-10.1882
redning	-10.1883
▁dekkvingene	-10.1885
▁company	-10.1885
▁cirka	-10.1886
▁fattig	-10.1886
▁kilder	-10.1886
▁episode	-10.1886
konferanse	-10.1886
▁arbeiderpartiet	-10.1888
▁rep	-10.1888
▁brygge	-10.1891
strøk	-10.1897
▁skyldes	-10.1897
maker	-10.19
linje	-10.1902
▁arkitektur	-10.1903
merker	-10.1908
▁nasjonalpark	-10.1918
▁dikter	-10.1925
▁klassen	-10.1938
▁dukke	-10.1939
mesterskapet	-10.1945
▁sport	-10.1955
▁gau	-10.1962
▁sluttet	-10.1964
▁kapp	-10.1973
følgende	-10.1986
▁800	-10.1992
▁tromsø	-10.1996
▁utløp	-10.2002
slett	-10.2002
afrikansk	-10.2004
måte	-10.2005
uck	-10.2022
▁børs	-10.2023
▁snu	-10.2024
▁europe	-10.2029
▁mah	-10.2031
▁zi	-10.2031
▁erobret	-10.2035
▁sjelden	-10.2035
▁bakke	-10.2035
▁finnmark	-10.2036
▁praktisk	-10.2036
▁kali	-10.2037
▁power	-10.2037
▁1953	-10.2037
monument	-10.2037
▁1938	-10.2038
zj	-10.204
▁daniel	-10.2041
▁effektiv	-10.2051
hø	-10.2061
▁hersker	-10.2062
▁banen	-10.2063
▁tau	-10.2066
▁spin	-10.2073
▁cand	-10.2081
▁forstå	-10.2084
▁bygger	-10.2096
▁vii	-10.2098
▁gjeld	-10.2101
▁hk	-10.2103
▁bakkroppen	-10.2103
▁vert	-10.2104
▁fjern	-10.2115
▁spring	-10.2122
rettighe	-10.2122
▁nød	-10.213
▁advokat	-10.2135
▁yi	-10.2136
rill	-10.2138
funksjon	-10.2147
▁utvikler	-10.2148
alitet	-10.2148
yuan	-10.2149
kanalen	-10.2157
93	-10.2166
▁sønd	-10.2172
▁krysser	-10.2172
▁involver	-10.2186
▁tilknytning	-10.2186
▁jørgen	-10.2186
stråling	-10.2186
▁ukjent	-10.2186
▁nedenfor	-10.2187
▁naturgass	-10.2188
▁betjene	-10.2188
▁fartøy	-10.2191
ship	-10.2192
▁hitler	-10.2196
▁hil	-10.2209
strup	-10.221
▁erstatte	-10.2215
▁båten	-10.2219
▁hevder	-10.2221
▁lord	-10.2231
▁østlige	-10.2233
▁rand	-10.2238
▁polar	-10.2238
▁sammenligne	-10.2248
▁plassering	-10.2248
▁statlig	-10.2254
▁wolf	-10.2257
▁fry	-10.226
▁khan	-10.2261
domstol	-10.2263
ward	-10.2282
▁inne	-10.2284
▁middelalder	-10.2286
▁final	-10.2286
skrive	-10.2288
konkurranse	-10.2295
kontroll	-10.2296
▁bakken	-10.2296
▁malm	-10.2307
lønn	-10.2323
▁santa	-10.233
▁jag	-10.2332
halvøya	-10.2334
▁medisin	-10.2338
▁administrere	-10.234
▁science	-10.234
▁oversikt	-10.234
▁frivillig	-10.234
friidrettsutøver	-10.2341
jord	-10.2341
listen	-10.2342
▁forårsake	-10.2342
▁litterær	-10.2342
▁1933	-10.2342
▁friidrett	-10.2344
museum	-10.2348
hunder	-10.2349
▁hul	-10.2353
▁inndelt	-10.2357
▁gli	-10.2364
▁hydro	-10.2364
bach	-10.2366
basert	-10.2368
cent	-10.237
▁kjøpt	-10.237
▁gyl	-10.2371
▁vill	-10.2377
▁white	-10.2377
▁ost	-10.2381
▁ansatt	-10.2391
▁pil	-10.2398
▁funn	-10.2402
▁kåre	-10.2413
▁vogn	-10.2414
▁motta	-10.2416
▁gress	-10.2425
▁sæ	-10.2429
▁medlemmene	-10.2432
▁tykk	-10.2442
▁elektron	-10.2443
serie	-10.2447
sdatter	-10.2454
sentre	-10.2458
▁avtale	-10.2459
tittel	-10.246
▁antikke	-10.2467
▁hamar	-10.2468
▁skjold	-10.2478
▁riket	-10.249
▁rekord	-10.2496
▁færøyene	-10.2496
▁eventuel	-10.2496
▁nøyaktig	-10.2496
▁belgia	-10.2496
▁referere	-10.2497
▁tømmer	-10.2498
▁1922	-10.2498
▁sverre	-10.2499
▁pierre	-10.2502
▁artister	-10.2509
▁grunnlegge	-10.2509
bevegelsen	-10.2513
tårn	-10.2518
▁luc	-10.2519
▁aksje	-10.2519
▁modellen	-10.2522
▁angrepet	-10.2523
▁katolsk	-10.2524
▁bladet	-10.253
▁oversettelse	-10.2532
▁johansen	-10.2537
▁kalk	-10.2542
▁interesser	-10.2547
bror	-10.2551
▁athen	-10.2554
effekt	-10.2558
▁kommando	-10.2559
▁adam	-10.2562
gass	-10.2568
▁bach	-10.257
▁frø	-10.2577
▁internasjonalt	-10.2579
▁føde	-10.2582
▁hval	-10.2594
▁unna	-10.2594
▁musikalsk	-10.26
▁kha	-10.2603
tain	-10.2605
▁skinn	-10.2608
hjelp	-10.2616
▁skriver	-10.2619
livet	-10.2629
▁overflate	-10.2631
▁demokratisk	-10.2632
▁utga	-10.2638
▁rulle	-10.2646
dokument	-10.2649
forhold	-10.2653
▁county	-10.2655
▁geografisk	-10.2655
▁nikola	-10.2655
▁definert	-10.2655
▁naturreservat	-10.2656
▁generasjon	-10.2656
mønster	-10.2658
▁komponert	-10.2659
▁myndigheter	-10.2659
▁strekker	-10.2661
referanse	-10.2661
klasse	-10.2661
kjøretøy	-10.2661
▁diplomat	-10.2662
logi	-10.2665
▁pur	-10.2673
▁young	-10.2676
▁elektr	-10.2678
staten	-10.2679
▁az	-10.268
▁tvang	-10.2683
▁forekommer	-10.2685
▁estland	-10.269
▁høst	-10.2696
▁nevne	-10.27
▁hve	-10.2703
kryp	-10.2712
lignende	-10.2716
▁skarp	-10.2721
▁ulik	-10.2729
▁konstruksjon	-10.2738
▁laks	-10.2739
▁hammer	-10.2742
▁stam	-10.2753
▁larve	-10.2755
▁sender	-10.276
▁medisinsk	-10.2775
▁visse	-10.2783
▁meta	-10.2783
formasjon	-10.2795
▁konkurrere	-10.2816
▁1913	-10.2816
▁kongedømmet	-10.2816
▁edvard	-10.2816
▁muslim	-10.2816
▁hemmelig	-10.2817
▁synes	-10.2818
▁1918	-10.2819
▁drammen	-10.2819
▁1928	-10.2819
▁brown	-10.2822
▁65	-10.2822
▁frykt	-10.2823
▁erklært	-10.2825
avtale	-10.2826
▁fotograf	-10.2837
▁skatt	-10.2844
▁morten	-10.2846
▁teknikk	-10.2847
element	-10.2848
lock	-10.2851
▁slette	-10.2858
elv	-10.288
avisen	-10.2883
▁lønn	-10.2883
▁trær	-10.2884
▁vegg	-10.2886
lä	-10.2887
▁virkelig	-10.2889
▁turneringen	-10.2889
▁betegnelse	-10.2902
▁600	-10.2912
▁ulv	-10.2912
▁oliv	-10.2921
bad	-10.2934
▁arkiv	-10.2935
▁rester	-10.2938
▁oppmerksomhet	-10.298
▁skulptur	-10.298
▁regissør	-10.298
▁ødelegge	-10.298
admiral	-10.298
▁yrkes	-10.298
▁karbon	-10.2981
komité	-10.2982
▁1912	-10.2983
plattform	-10.2983
▁rykket	-10.2985
▁fremført	-10.299
▁flåte	-10.2992
▁term	-10.2995
▁vanligste	-10.2996
▁tempel	-10.2996
▁isteden	-10.3011
8	-10.302
▁drap	-10.3023
▁dahl	-10.3031
▁ansett	-10.304
▁aas	-10.3047
setninger	-10.305
bund	-10.3065
▁160	-10.3073
▁sara	-10.3074
▁bein	-10.3082
▁myk	-10.3083
▁institusjon	-10.3087
▁redde	-10.3094
phy	-10.3099
▁mono	-10.3104
slekten	-10.3111
▁play	-10.3115
teknikk	-10.3115
arena	-10.3117
▁rase	-10.312
▁utøve	-10.3125
stjerne	-10.3126
▁kirk	-10.3126
duk	-10.3127
▁etterfølger	-10.3147
▁millimeter	-10.3147
▁krevde	-10.3147
▁vesentlig	-10.3147
▁ungarn	-10.3147
▁hendelsen	-10.3147
▁utseende	-10.3147
▁golf	-10.3147
vakt	-10.3149
▁firmaet	-10.3149
▁1916	-10.3149
▁1921	-10.3149
▁konsul	-10.315
▁1934	-10.315
▁filip	-10.3156
ello	-10.316
▁rapporter	-10.3164
▁serier	-10.3164
▁walter	-10.3168
▁bevegelsen	-10.3175
▁silke	-10.318
▁valget	-10.3186
dyktig	-10.3195
▁verksted	-10.3201
slått	-10.3204
matisk	-10.3208
▁lim	-10.3215
▁kritiker	-10.3217
▁sørge	-10.3243
▁sykdom	-10.3248
▁nordre	-10.3258
▁ferge	-10.326
▁wu	-10.3261
▁grunnlov	-10.3265
▁tann	-10.3284
modell	-10.3302
▁tø	-10.3307
▁1000	-10.3315
▁katedral	-10.3316
▁kommunal	-10.3316
▁registrert	-10.3316
▁dverg	-10.3317
▁cross	-10.3318
▁arc	-10.3318
▁unntatt	-10.3319
▁1923	-10.3319
▁prim	-10.332
konvensjon	-10.3322
▁bekrefte	-10.3322
▁lokalisert	-10.3324
▁resultatet	-10.3331
gni	-10.3336
▁franz	-10.3337
▁gjenstand	-10.3338
psykologi	-10.334
aria	-10.334
klassen	-10.334
speil	-10.3344
▁antennene	-10.3345
▁nerv	-10.3349
kasse	-10.3351
▁panser	-10.3356
▁befinne	-10.336
▁jack	-10.3362
▁ross	-10.3388
▁alta	-10.3395
▁back	-10.3401
bygget	-10.3404
▁utvalg	-10.341
vatn	-10.3411
▁gruppa	-10.342
▁øker	-10.3426
▁brem	-10.3427
språklige	-10.3433
▁trond	-10.3433
▁platen	-10.344
▁victor	-10.346
fylke	-10.3465
redskap	-10.3469
▁cho	-10.3469
▁salme	-10.3478
▁hem	-10.3488
▁beslekte	-10.3489
▁vulkan	-10.3489
▁beregne	-10.3489
▁foregår	-10.3489
▁individuell	-10.3489
▁reklame	-10.3489
▁bidro	-10.3489
▁ødelagt	-10.3489
▁arendal	-10.349
▁partner	-10.349
▁palass	-10.349
▁allianse	-10.3491
▁forbedre	-10.3491
▁stiftelsen	-10.3491
▁group	-10.3492
▁signert	-10.3493
tind	-10.3494
▁generell	-10.3494
▁angripe	-10.3494
▁feire	-10.3499
▁bodø	-10.35
▁operere	-10.3501
▁terje	-10.3502
▁rov	-10.3504
▁trening	-10.3507
start	-10.3508
▁heinric	-10.3509
▁deltaker	-10.3525
▁sær	-10.3534
▁slu	-10.3542
▁barb	-10.3542
▁fisker	-10.356
▁ankom	-10.3578
▁bow	-10.3586
▁overleve	-10.359
▁tony	-10.3594
▁vestre	-10.3594
▁fru	-10.3607
▁preg	-10.3611
hei	-10.3618
▁smak	-10.3622
tagelse	-10.3623
▁bell	-10.3629
▁øke	-10.364
direktør	-10.3642
▁nak	-10.3644
front	-10.3645
▁fødsel	-10.3664
▁patriark	-10.3664
▁konsept	-10.3664
▁positiv	-10.3664
▁alexander	-10.3664
▁kombinasjon	-10.3664
▁nicola	-10.3664
▁dollar	-10.3665
▁døgn	-10.3665
▁major	-10.3665
▁fjernsyn	-10.3666
▁1926	-10.3666
▁1917	-10.3667
▁anvende	-10.3667
▁definere	-10.3667
▁1500	-10.3667
▁telemark	-10.3667
▁formula	-10.3669
ittisk	-10.3671
indi	-10.3672
▁høyesterett	-10.3674
▁piano	-10.3676
profil	-10.3677
▁sikker	-10.368
▁petr	-10.3683
▁allmenn	-10.369
▁schw	-10.3691
▁ali	-10.3692
itch	-10.3708
▁intens	-10.3721
flate	-10.3727
▁arrangement	-10.3728
▁junior	-10.373
grå	-10.3735
▁stå	-10.3737
▁komedie	-10.3739
▁tildele	-10.3742
▁egyptisk	-10.3764
tysk	-10.3766
forsyning	-10.378
▁semi	-10.3784
▁tyr	-10.3786
▁sats	-10.3788
▁bah	-10.379
▁sving	-10.3798
▁psyko	-10.3818
setting	-10.382
administrasjon	-10.3823
konsert	-10.3825
▁kath	-10.3826
løytnant	-10.3843
▁1905	-10.3843
▁debutalbum	-10.3843
▁1906	-10.3843
▁negativ	-10.3843
▁prefektur	-10.3843
▁alexandr	-10.3843
▁allierte	-10.3843
▁faktisk	-10.3843
▁scoret	-10.3845
eremoni	-10.3845
▁1904	-10.3845
▁hovedkvarter	-10.3846
▁monark	-10.3847
▁skaffe	-10.3847
▁planlagt	-10.3847
▁jackson	-10.3848
▁bispe	-10.3848
▁vannkraftverk	-10.3848
▁hjerne	-10.3848
▁utgivelsen	-10.385
▁nedlagt	-10.3854
kode	-10.3855
komiteen	-10.3856
▁samtid	-10.3857
puls	-10.3868
▁victoria	-10.3873
▁knap	-10.3877
▁hull	-10.3879
▁wales	-10.3879
format	-10.3888
▁underfamilien	-10.3898
▁innlede	-10.3903
▁from	-10.3908
▁mjø	-10.3909
▁lykke	-10.3924
▁osv	-10.3931
▁avtalen	-10.3936
bord	-10.3942
▁roger	-10.3944
▁gaten	-10.3947
▁opphold	-10.3953
▁måten	-10.3954
øvelse	-10.3961
ан	-10.3962
ruter	-10.3964
posisjon	-10.4002
struktur	-10.4009
bølge	-10.4013
▁alpin	-10.4018
▁antagelig	-10.4025
▁svalbard	-10.4025
▁flaggbærer	-10.4025
▁forenklet	-10.4025
▁beseire	-10.4025
▁kritisert	-10.4025
▁sachsen	-10.4025
▁ytterst	-10.4025
▁belgisk	-10.4026
▁1935	-10.4027
▁einar	-10.4027
▁romsdal	-10.4028
fenomen	-10.4029
▁rektor	-10.403
▁debatt	-10.403
politi	-10.4032
blokk	-10.4033
▁fredrikstad	-10.4035
kampanje	-10.4039
▁kommunestyre	-10.404
gav	-10.4042
▁avholdt	-10.4043
▁qi	-10.4046
▁uavhengighet	-10.4052
kost	-10.4057
lich	-10.4059
▁brødrene	-10.4059
▁norman	-10.4061
▁sørover	-10.4064
opptak	-10.4066
▁kval	-10.4078
▁karakteristisk	-10.4079
strømmen	-10.4082
kjøring	-10.4085
▁sca	-10.4086
▁emil	-10.4089
▁øverst	-10.4106
▁liber	-10.4111
▁modern	-10.4113
▁europeisk	-10.4114
drakt	-10.4116
▁beskrivelse	-10.413
aire	-10.4145
sjö	-10.4147
bekk	-10.4149
kål	-10.4188
horn	-10.4196
bibliotek	-10.4197
historisk	-10.4198
▁godkjent	-10.421
▁trommeslager	-10.421
▁ovenfor	-10.421
▁kristiansand	-10.421
▁sigurd	-10.421
▁mekanisk	-10.421
pedagog	-10.421
▁valuta	-10.421
▁doktorgrad	-10.4211
▁seinere	-10.4211
▁hørte	-10.4212
▁1932	-10.4212
▁1915	-10.4213
opera	-10.4216
innspilling	-10.4218
▁rednings	-10.4223
litt	-10.4223
▁formelt	-10.4224
bebyggelse	-10.4235
kling	-10.4241
▁svein	-10.4244
▁behov	-10.4247
▁vennskap	-10.4261
▁kunde	-10.4275
▁ønsker	-10.4292
▁bang	-10.4293
▁vekk	-10.4332
▁skar	-10.4336
▁beskrev	-10.4347
▁900	-10.4362
følelse	-10.4372
▁saga	-10.4379
work	-10.4384
amerikansk	-10.4391
skyting	-10.4393
gevær	-10.4397
problem	-10.4398
pningsseremonien	-10.4398
▁association	-10.4398
▁pakistan	-10.4398
▁portugisisk	-10.4398
▁society	-10.4398
▁windows	-10.4398
▁østfold	-10.4398
▁risiko	-10.4399
▁dokumentar	-10.4399
▁fiolin	-10.4399
▁utmerkelse	-10.4399
▁tyrkisk	-10.4399
▁invasjon	-10.4399
▁brigade	-10.4399
▁hedmark	-10.4401
▁1911	-10.4401
kjør	-10.4403
opplæring	-10.4405
▁riktig	-10.4406
▁homo	-10.4419
▁tekstil	-10.4422
▁hj	-10.4426
▁valle	-10.4433
god	-10.444
▁170	-10.4442
vä	-10.4451
▁tyng	-10.4452
▁nordover	-10.4458
kongen	-10.4461
trenger	-10.4467
▁rosa	-10.447
ruten	-10.448
▁urban	-10.4489
konge	-10.449
polis	-10.4497
▁bosatt	-10.4502
▁klokken	-10.4512
▁omkom	-10.4512
▁hindre	-10.4519
▁familiegruppe	-10.4572
▁sex	-10.4573
medlem	-10.4582
gjørelse	-10.4589
vassdraget	-10.4591
▁afghanistan	-10.4591
▁hjørne	-10.4591
▁adolf	-10.4591
▁spredt	-10.4591
▁ekstrem	-10.4591
▁arthur	-10.4591
▁egenskaper	-10.4591
▁dominert	-10.4591
▁kobber	-10.4591
▁nektet	-10.4592
▁kredit	-10.4592
▁adresse	-10.4593
▁endringer	-10.4597
▁erfaring	-10.4597
▁festivalen	-10.4601
▁stab	-10.4601
▁angeles	-10.4604
▁detalj	-10.4604
førsel	-10.4606
▁fantes	-10.4607
▁bryn	-10.4612
▁skrå	-10.4624
▁christiania	-10.4631
▁1700	-10.4635
overflaten	-10.4635
▁tyskerne	-10.464
▁ungdomsskole	-10.4644
▁toll	-10.4644
teater	-10.4652
▁hå	-10.4655
▁variert	-10.4657
▁histori	-10.4663
skilt	-10.4672
▁kropp	-10.4681
▁løfte	-10.4707
▁demokrat	-10.4716
▁vitne	-10.4716
regiment	-10.4723
▁skuespill	-10.4732
tekst	-10.474
bryter	-10.4741
▁thu	-10.4764
materiale	-10.4786
▁elisabeth	-10.4787
▁manuskript	-10.4787
▁washington	-10.4787
▁1903	-10.4787
▁ludvig	-10.4787
▁antarktis	-10.4787
▁eventyr	-10.4787
▁juridisk	-10.4787
▁ansikt	-10.4787
▁grønland	-10.4787
▁fjellkjede	-10.4787
▁terror	-10.4788
▁qū	-10.4788
▁rådgiver	-10.4788
▁innebære	-10.4789
▁utsatt	-10.4791
▁komposisjon	-10.4793
▁1910	-10.4793
strid	-10.4795
▁studere	-10.4796
àn	-10.4801
▁anledning	-10.4806
▁trommer	-10.4806
▁hellas	-10.4807
høyden	-10.4815
▁munk	-10.4818
bød	-10.4823
aux	-10.4825
▁levde	-10.4829
▁helst	-10.4831
prakt	-10.4833
fast	-10.4848
▁road	-10.4858
▁kontinent	-10.4865
▁fli	-10.4871
fred	-10.4871
cheng	-10.4876
▁styrkene	-10.4887
støtte	-10.4892
▁låten	-10.4895
▁250	-10.4896
▁poli	-10.491
▁tidspunkt	-10.4911
filosof	-10.4924
▁antenne	-10.4958
▁dru	-10.4973
▁synge	-10.4973
▁ukrainsk	-10.4987
▁1902	-10.4987
▁gabriel	-10.4987
▁symptom	-10.4987
▁umiddelbar	-10.4987
▁tabellen	-10.4987
▁hensikt	-10.4987
▁parallell	-10.4987
▁poesi	-10.4989
▁opptrer	-10.4989
▁søndag	-10.499
redaksjon	-10.499
utvikle	-10.4991
▁mannskapet	-10.4992
ор	-10.4993
registre	-10.4993
▁sykkel	-10.4994
▁ordnet	-10.4994
▁michel	-10.4998
▁bydistrikt	-10.4998
fartøy	-10.5006
▁oppløst	-10.5018
▁1898	-10.5018
▁colo	-10.5021
▁gradvis	-10.5021
▁persisk	-10.5025
▁molde	-10.5028
▁mynt	-10.5032
▁næringsliv	-10.5034
▁vindu	-10.5036
other	-10.5052
▁grim	-10.5063
▁jente	-10.5064
jör	-10.5065
▁oval	-10.5093
▁cour	-10.5106
▁kino	-10.5106
▁frakte	-10.5115
▁besetning	-10.5126
▁anker	-10.5137
▁akter	-10.514
▁henri	-10.5144
harmoni	-10.5172
▁kub	-10.5174
▁atmosfære	-10.5191
▁forhindre	-10.5191
▁bjørk	-10.5191
orientert	-10.5191
▁canadisk	-10.5191
høvding	-10.5191
▁manager	-10.5193
▁programleder	-10.5193
▁samuel	-10.5193
givende	-10.5193
▁overlevd	-10.5194
▁eiendommen	-10.5199
▁økende	-10.5199
rekord	-10.5201
▁holdning	-10.5202
▁blank	-10.5203
▁reserve	-10.5203
▁fyll	-10.5205
▁legend	-10.5207
▁forsterke	-10.5207
▁republikk	-10.5208
▁1896	-10.5211
▁nederst	-10.5213
straff	-10.5223
▁1890	-10.5225
▁trapp	-10.5229
▁romerne	-10.5232
▁hypo	-10.5235
▁innerst	-10.5238
▁life	-10.5241
▁andel	-10.5245
▁qing	-10.525
▁akku	-10.5262
bringe	-10.5286
▁water	-10.5302
▁bestand	-10.5339
▁arkeologisk	-10.534
▁handle	-10.5348
▁ønske	-10.5352
▁sveitsisk	-10.5355
buss	-10.5386
▁motsatt	-10.5394
ς	-10.5399
▁jerusalem	-10.5399
▁undergrunnsbane	-10.5399
▁1909	-10.5399
▁konkurs	-10.5399
▁nedbør	-10.5399
▁kommersiell	-10.54
stipend	-10.54
▁føderal	-10.54
▁elementer	-10.5404
▁etappe	-10.5404
dimensjon	-10.5404
▁anklage	-10.5404
ал	-10.5405
▁nyhets	-10.5405
▁emi	-10.5406
▁tegninger	-10.5406
▁mineral	-10.5411
▁røyk	-10.5414
▁lisens	-10.5417
▁orgel	-10.5419
▁ombord	-10.5422
maleri	-10.5426
▁1600	-10.5436
brand	-10.5438
▁johnson	-10.5441
▁falk	-10.5443
▁sikkerhet	-10.5444
karriere	-10.5452
▁bush	-10.5452
▁billed	-10.546
▁troms	-10.5462
▁heav	-10.5468
▁musikal	-10.5474
rsdag	-10.5482
talende	-10.549
▁kortere	-10.5491
næs	-10.5493
▁geir	-10.5497
▁grevskape	-10.5498
▁who	-10.55
hydr	-10.5522
▁kvit	-10.5543
politisk	-10.555
▁kin	-10.5573
▁gjenv	-10.558
register	-10.5594
▁bevege	-10.56
0	-10.5605
▁vietnam	-10.5612
▁football	-10.5612
▁portugal	-10.5612
▁vedlikehold	-10.5612
▁tønsberg	-10.5612
▁vilhelm	-10.5612
▁rogaland	-10.5612
▁besluttet	-10.5612
▁selvmord	-10.5612
▁skildre	-10.5612
▁unngå	-10.5612
▁prinsesse	-10.5614
▁elleve	-10.5614
▁barnehage	-10.5614
▁bronsemedalje	-10.5614
▁novell	-10.5615
▁dømt	-10.5615
▁tell	-10.5621
▁biografi	-10.5622
▁muskel	-10.5625
▁elite	-10.5626
melding	-10.5631
tillatelse	-10.5631
finalen	-10.5631
▁pedersen	-10.5632
utstyr	-10.5633
▁avansert	-10.5635
▁jacobsen	-10.5636
▁inngikk	-10.5644
▁indianer	-10.5645
▁jonas	-10.5645
▁jeff	-10.5645
▁koreansk	-10.5646
▁utenom	-10.5648
▁leif	-10.5651
trener	-10.5653
celler	-10.5665
utgave	-10.5667
▁statsråd	-10.5695
▁pels	-10.5697
▁håp	-10.5715
link	-10.5732
▁hekk	-10.5749
▁representert	-10.576
bevegelse	-10.5768
▁øre	-10.5787
investering	-10.5793
forvaltning	-10.5799
tavle	-10.5803
▁plast	-10.5818
kansler	-10.582
▁konservativ	-10.5829
▁milliarder	-10.5829
▁hordaland	-10.5829
▁jesuitt	-10.5829
▁symfoni	-10.5829
▁kollektiv	-10.5829
veksling	-10.583
▁radikal	-10.583
▁haakon	-10.583
▁rettigheter	-10.583
fysikk	-10.583
▁nepal	-10.583
▁rolf	-10.583
assistent	-10.5832
▁antonio	-10.5838
▁verb	-10.584
▁kjørt	-10.5845
▁skjell	-10.5848
▁kristiania	-10.5849
▁hvile	-10.5851
tolk	-10.5851
litteratur	-10.5851
▁rytter	-10.5852
▁hamburg	-10.5853
▁vikler	-10.5856
hausen	-10.5861
▁styremedlem	-10.5867
nytt	-10.5867
▁invest	-10.5875
brutt	-10.5889
▁arkeolog	-10.5897
settelse	-10.5902
▁evig	-10.5918
▁lomme	-10.5943
▁ørn	-10.5944
▁tolke	-10.5948
fabrik	-10.5951
▁østsid	-10.5963
▁flytte	-10.598
▁wol	-10.599
▁brei	-10.6017
otta	-10.6019
kompleks	-10.603
▁gjennomføre	-10.605
▁barcelona	-10.6052
▁færøysk	-10.6052
▁konstruert	-10.6052
▁infanteri	-10.6052
▁kriminal	-10.6052
▁terreng	-10.6052
▁batteri	-10.6053
▁nordmenn	-10.6053
▁årsaken	-10.6053
▁massiv	-10.6054
▁josé	-10.6054
▁import	-10.6054
terapi	-10.6055
▁telefon	-10.6056
▁smelte	-10.6056
▁demningen	-10.6077
▁1899	-10.6077
skjold	-10.6077
historiker	-10.6078
▁fortellingen	-10.6078
divisjon	-10.6078
▁armé	-10.6079
▁talent	-10.6084
statue	-10.6092
brød	-10.6102
▁server	-10.6104
vandring	-10.6105
▁agent	-10.6106
▁bryte	-10.6116
hed	-10.6117
▁retur	-10.6121
▁walk	-10.6122
forsamlingen	-10.6123
beskyttelse	-10.6139
▁pont	-10.6154
kledd	-10.6182
donald	-10.6182
▁clo	-10.6183
▁blind	-10.6184
▁yng	-10.6186
▁bjar	-10.6194
▁fusjon	-10.6213
▁evne	-10.6214
▁israelsk	-10.6216
fyrste	-10.6246
vall	-10.6251
tveit	-10.6259
▁hjemmebane	-10.626
▁verdensmester	-10.6267
▁anerkjenne	-10.6279
▁asteroide	-10.6279
▁omdøpt	-10.6279
▁geometri	-10.6279
▁artilleri	-10.6279
▁stridsvogn	-10.6279
▁innbyggerne	-10.6279
▁permanent	-10.6279
▁uvanlig	-10.6279
▁hebraisk	-10.6279
▁embets	-10.6279
▁theodor	-10.6279
▁bærum	-10.6279
▁visepresident	-10.628
▁central	-10.628
▁colombia	-10.628
▁serbisk	-10.628
▁respekt	-10.628
▁klokke	-10.628
ovitsj	-10.628
▁beholdt	-10.6281
▁halvparten	-10.6282
▁francisco	-10.6282
▁disney	-10.6283
▁søkte	-10.6283
▁programvare	-10.6283
▁sølvmedalje	-10.6283
▁oppgaver	-10.6284
▁chris	-10.6287
plikasjon	-10.629
▁betalt	-10.6294
▁tjue	-10.6302
opplevelse	-10.6303
offiser	-10.6312
angrep	-10.6313
bæk	-10.6323
skyld	-10.6324
behandling	-10.6345
▁beholde	-10.6369
▁francis	-10.6374
hvit	-10.6382
▁elektronisk	-10.6386
▁olympi	-10.6395
▁mathi	-10.64
▁kontrollere	-10.642
▁forklare	-10.6432
departement	-10.6439
▁opprette	-10.6453
▁edel	-10.6454
anlagt	-10.6503
kommanderende	-10.6511
▁konkurrert	-10.6511
▁shanghai	-10.6511
▁øyeblikk	-10.6511
▁country	-10.6511
▁styrmann	-10.6512
▁tvilling	-10.6512
▁landkreis	-10.6512
▁embeds	-10.6512
▁matematisk	-10.6512
▁thailand	-10.6512
▁contest	-10.6512
▁bøkene	-10.6512
▁myndighetene	-10.6513
▁oppfatte	-10.6514
▁magasinet	-10.6514
medlemmer	-10.6515
▁divers	-10.6516
▁1907	-10.6516
▁2018	-10.6518
▁arrestert	-10.6521
apparat	-10.6523
▁eksport	-10.6524
▁mandat	-10.6526
▁1893	-10.6531
▁avdød	-10.6532
▁menneskelig	-10.6535
▁sammenlagt	-10.6535
▁lunge	-10.6537
relatert	-10.654
▁forbinde	-10.6542
instrument	-10.6549
▁østover	-10.6552
▁ernst	-10.6555
▁isbre	-10.6583
▁halvdel	-10.6603
▁klippe	-10.6604
▁fortalt	-10.6616
areal	-10.6621
▁utenriks	-10.6649
▁sammensatt	-10.6666
lån	-10.671
▁700	-10.6715
▁cuba	-10.6721
ladning	-10.6726
edderkopper	-10.6746
▁kommandant	-10.675
▁maksimal	-10.675
▁litauen	-10.675
▁prestegjeld	-10.675
▁vestfold	-10.675
▁nøkkel	-10.675
▁tyrkia	-10.675
▁separat	-10.675
▁aktuell	-10.675
▁global	-10.675
▁kvadrat	-10.675
▁flyktet	-10.675
▁kallenavn	-10.675
▁ørken	-10.675
▁spreng	-10.6751
▁strekningen	-10.6751
▁fangst	-10.6751
▁generalsekretær	-10.6752
▁nestleder	-10.6753
▁kronologisk	-10.6753
▁sultan	-10.6755
▁mektig	-10.6757
▁medførte	-10.6757
▁down	-10.6764
bille	-10.677
▁prix	-10.6771
▁1889	-10.6773
▁hjal	-10.6773
kommende	-10.6773
▁skygge	-10.6782
▁luci	-10.6786
flyvning	-10.6796
prøve	-10.6797
aktivitet	-10.6797
▁utvidelse	-10.6799
kreft	-10.6802
programmer	-10.6803
▁oberst	-10.6829
▁brent	-10.6854
▁betale	-10.6909
ition	-10.6922
iansk	-10.6934
▁rhin	-10.6937
▁akseptert	-10.6993
▁aluminium	-10.6993
▁midlertidig	-10.6993
▁münchen	-10.6993
▁forveksle	-10.6993
▁utelukke	-10.6993
▁jacque	-10.6994
▁verdenscup	-10.6994
vurdering	-10.6994
▁fiktiv	-10.6994
▁usikker	-10.6994
teatret	-10.6994
▁forberede	-10.6995
▁barokk	-10.6995
▁pastor	-10.6996
▁strategisk	-10.6996
▁døpt	-10.6996
betjent	-10.6996
ев	-10.6997
▁gravlagt	-10.6999
▁styreleder	-10.7
▁meyer	-10.7001
▁sykdommer	-10.7001
▁forrige	-10.7002
▁tørke	-10.7003
▁kreert	-10.7004
▁slipp	-10.7005
▁kaffe	-10.7008
▁biologisk	-10.7011
▁hyper	-10.7019
▁queen	-10.7021
▁forvaltnings	-10.7031
tradisjon	-10.7043
grønn	-10.7043
transport	-10.7043
sentral	-10.7049
▁jernbanestasjon	-10.7054
▁kommunistisk	-10.7078
lokale	-10.7082
▁ond	-10.7086
▁frost	-10.709
demokrati	-10.7114
▁etnisk	-10.7135
rhein	-10.7173
veps	-10.7237
▁doktor	-10.7243
▁aleksander	-10.7243
▁christopher	-10.7243
▁luxembourg	-10.7243
▁research	-10.7243
▁australsk	-10.7243
▁dirigent	-10.7243
▁okkupasjon	-10.7243
▁sjeldne	-10.7243
▁brønn	-10.7243
▁operativsystem	-10.7244
▁abraham	-10.7244
disiplin	-10.7244
▁opptrådt	-10.7244
▁etablering	-10.7244
▁zealand	-10.7244
▁særskilt	-10.7244
▁regulere	-10.7244
▁kjennetegne	-10.7244
▁nymfe	-10.7244
▁systematisk	-10.7245
▁opposisjon	-10.7245
▁beskjed	-10.7245
▁republika	-10.7245
▁erstatning	-10.7246
worth	-10.7246
▁dylan	-10.7251
▁hensyn	-10.7252
▁wilson	-10.7253
▁innspillingen	-10.7255
▁puppe	-10.7267
▁1888	-10.7271
▁lettere	-10.7271
ière	-10.7274
▁1864	-10.7274
▁ressurs	-10.7275
▁1848	-10.7277
▁koble	-10.7278
pumpe	-10.7288
ingeniør	-10.7299
representant	-10.7299
frukt	-10.7299
arkitekt	-10.7299
▁utvide	-10.7299
teknologi	-10.7303
▁drepe	-10.7315
foretak	-10.7355
▁inneha	-10.7363
▁bortset	-10.7369
▁klage	-10.7371
▁øvrig	-10.7471
▁inspirasjon	-10.7491
▁argentina	-10.75
▁engasjert	-10.75
▁kjønnsmodne	-10.75
▁krystall	-10.75
▁vladimir	-10.75
▁konsentrasjon	-10.75
▁skjønt	-10.75
▁taylor	-10.75
▁frigjøring	-10.75
▁church	-10.75
▁opphørte	-10.75
▁opptreden	-10.75
▁tilsammen	-10.75
grunnsstasjon	-10.75
▁sammenslåing	-10.75
▁langrenn	-10.75
▁overraske	-10.7501
gjær	-10.7503
▁borgermester	-10.7504
▁stoppet	-10.7505
▁bassist	-10.7505
▁yngste	-10.7506
▁smør	-10.7515
▁eirik	-10.7522
▁tilsyne	-10.7522
▁ibsen	-10.7523
▁amerikaner	-10.7529
▁personlighet	-10.753
▁britis	-10.7532
▁lidelse	-10.7533
▁oversette	-10.7561
redaktør	-10.7562
biskop	-10.7563
syklus	-10.7565
▁dramatisk	-10.7602
wei	-10.7616
▁spesifik	-10.7658
ribbe	-10.7728
semble	-10.7735
▁split	-10.7735
tempelet	-10.7738
svekke	-10.7753
▁kjæ	-10.7757
▁kronprins	-10.7763
▁progressiv	-10.7763
▁skjønn	-10.7763
▁hospital	-10.7763
▁ukraina	-10.7763
▁fungerte	-10.7763
▁katolikk	-10.7763
▁lørdag	-10.7763
▁fødselsår	-10.7763
▁nemlig	-10.7763
▁faktor	-10.7763
▁rasmus	-10.7764
traktaten	-10.7764
▁verktøy	-10.7764
schaft	-10.7765
▁regelmessig	-10.7765
mekanisme	-10.7765
▁gratis	-10.7765
▁arnold	-10.7765
▁kongeriket	-10.7767
▁igjennom	-10.777
▁hydrogen	-10.7771
▁larvik	-10.7772
▁stalin	-10.7788
utenriksminister	-10.7833
design	-10.784
▁kontrollert	-10.7853
osaur	-10.7893
▁forlenge	-10.792
vennlig	-10.7924
▁datterselskap	-10.7947
▁lukke	-10.7954
▁energiselskape	-10.8006
▁størst	-10.8021
▁napoleon	-10.8033
▁bryllup	-10.8033
▁forgjenger	-10.8033
▁innspilt	-10.8033
▁keyboard	-10.8033
▁matematiker	-10.8033
▁hendelser	-10.8033
▁ntnu	-10.8034
▁avgjørende	-10.8034
▁forsvant	-10.8034
▁ronald	-10.8034
▁automatisk	-10.8034
▁sophi	-10.8035
▁klatre	-10.8035
▁dekorert	-10.8035
▁foreslått	-10.8037
▁bensin	-10.8038
▁moore	-10.8039
▁øvelsen	-10.804
▁sykdommen	-10.8041
▁nederlag	-10.8045
▁ltd	-10.8047
▁flest	-10.8047
▁alex	-10.8049
▁blokker	-10.8049
ponert	-10.8049
▁tredjeplass	-10.8049
▁bedriften	-10.806
tromme	-10.806
▁komplekse	-10.8062
▁sokn	-10.8082
kandidat	-10.811
kjøl	-10.8123
ector	-10.8129
arkiv	-10.8148
▁sovjet	-10.8166
kvarter	-10.8195
funn	-10.8204
gripe	-10.8223
forsvar	-10.8272
▁sentralbank	-10.8276
▁avslutte	-10.8279
▁fulgt	-10.8305
▁allikevel	-10.8311
▁astronomi	-10.8311
▁bulgarsk	-10.8311
▁inskripsjon	-10.8311
▁oksygen	-10.8311
▁ortodoks	-10.8311
▁sanskrit	-10.8311
▁systematikken	-10.8311
▁1901	-10.8311
▁kennedy	-10.8311
▁utspring	-10.8311
▁argumente	-10.8311
▁henrettet	-10.8311
▁amatør	-10.8311
renessanse	-10.8312
▁hjort	-10.8312
▁presentert	-10.8312
▁für	-10.8312
▁monroe	-10.8312
lyktes	-10.8313
▁utpekt	-10.8313
▁fylt	-10.8315
▁nattfly	-10.8317
▁stykker	-10.832
▁viktor	-10.8321
▁ivareta	-10.8323
▁alpinist	-10.8326
▁forbruker	-10.8328
▁dialog	-10.8328
▁seksuel	-10.8329
▁forløper	-10.8331
▁bønn	-10.8351
misbruk	-10.8357
medisin	-10.8395
spørsmål	-10.8396
størrelse	-10.8396
kledt	-10.8422
forandring	-10.8426
▁minutt	-10.8431
fellesskap	-10.8446
bukten	-10.8453
▁nettside	-10.8498
utvalget	-10.8513
▁øygrupp	-10.8515
▁german	-10.8521
flokkurin	-10.8597
▁ferdinand	-10.8597
▁matematikk	-10.8597
▁sarpsborg	-10.8597
▁varaordfører	-10.8597
▁fakultet	-10.8597
▁rudolf	-10.8597
▁minoritet	-10.8597
▁hyppig	-10.8597
▁deutsche	-10.8597
▁stephen	-10.8597
▁skikkelse	-10.8597
▁zhang	-10.8597
▁etablere	-10.8597
▁utfordre	-10.8598
▁tirol	-10.8598
▁søvn	-10.8598
▁what	-10.8599
▁pluss	-10.86
▁stefan	-10.86
▁klaus	-10.8601
ови	-10.8601
▁fuktig	-10.8601
▁britene	-10.8604
▁gregor	-10.8605
▁enorme	-10.8606
▁ytelse	-10.8608
▁bedrifts	-10.8632
tetthet	-10.8654
institutt	-10.869
kjerne	-10.8761
▁domkirke	-10.8768
signal	-10.8787
▁snar	-10.8817
tjern	-10.8864
strategi	-10.8891
▁angelsaksisk	-10.8891
▁assosiert	-10.8891
▁frankfurt	-10.8891
▁hollywood	-10.8891
▁parallelt	-10.8891
▁utslipp	-10.8891
▁manglende	-10.8891
▁statistikk	-10.8891
▁eksisterte	-10.8891
▁fjordane	-10.8891
skribent	-10.8891
▁kriterie	-10.8891
▁public	-10.8891
▁utnevne	-10.8891
▁margaret	-10.8891
▁kontrast	-10.8891
▁walisisk	-10.8891
▁tilhengere	-10.8892
▁senior	-10.8892
▁axel	-10.8892
▁kombinere	-10.8892
▁protein	-10.8893
▁temple	-10.8893
▁komplett	-10.8893
▁verdensrekord	-10.8894
▁edmund	-10.8895
▁command	-10.8896
▁oldtiden	-10.8896
▁western	-10.8897
▁antyde	-10.8898
kobling	-10.8898
instruks	-10.8899
▁gullmedalje	-10.8899
▁reager	-10.89
▁skuespillerinne	-10.891
▁stemt	-10.8916
▁voldsom	-10.8951
▁begynne	-10.8958
▁omdanne	-10.8964
advokat	-10.8992
pleie	-10.8997
▁samsvar	-10.8999
pakke	-10.902
spektr	-10.9116
ramme	-10.9131
▁fundament	-10.9194
▁propaganda	-10.9194
▁angivelig	-10.9194
▁bulgaria	-10.9194
▁douglas	-10.9194
▁elizabeth	-10.9194
▁giovanni	-10.9194
▁låtskriver	-10.9194
▁mobiltelefon	-10.9194
▁oppfølger	-10.9194
▁sekundær	-10.9194
▁territorie	-10.9194
▁snorre	-10.9194
▁syndrom	-10.9194
järvi	-10.9194
▁kristoffer	-10.9194
▁texas	-10.9194
▁skihopper	-10.9194
leverandør	-10.9194
▁kommentar	-10.9194
▁statsborger	-10.9194
▁essay	-10.9194
▁ordinær	-10.9194
▁social	-10.9195
▁tempo	-10.9195
▁originaltittel	-10.9195
▁andré	-10.9195
▁lewis	-10.9195
▁opprettelsen	-10.9196
▁gerhard	-10.9196
▁sjette	-10.9197
▁gråbrun	-10.9197
kollega	-10.9197
▁grieg	-10.9197
▁alpene	-10.92
▁väst	-10.9202
▁bakerst	-10.9217
lemme	-10.9226
▁moderat	-10.9255
institusjon	-10.9305
snegl	-10.936
nekter	-10.9368
▁dynasti	-10.9434
▁brødre	-10.9448
▁ambassadør	-10.9506
▁argentinsk	-10.9506
▁corporation	-10.9506
▁favoritt	-10.9506
▁forøvrig	-10.9506
▁glasgow	-10.9506
▁hongkong	-10.9506
▁lillehammer	-10.9506
▁pseudonym	-10.9506
▁tsjekkisk	-10.9506
▁benjamin	-10.9506
▁soldatene	-10.9506
▁alminnelig	-10.9506
▁intervju	-10.9506
▁anmelder	-10.9507
▁venezia	-10.9507
▁uttrykt	-10.9507
leksikon	-10.9507
▁prince	-10.9507
▁regulert	-10.9507
▁vegetasjon	-10.9507
▁korrekt	-10.9507
▁diamant	-10.9507
▁konsernet	-10.9508
▁valgdelta	-10.9508
▁dream	-10.9508
▁abdul	-10.9509
gjald	-10.9509
▁forklaring	-10.951
▁clark	-10.9515
sendinger	-10.9517
▁særeg	-10.9517
▁smitte	-10.952
kvinne	-10.957
▁overføre	-10.9577
▁plei	-10.9578
▁lignin	-10.9595
variasjon	-10.9616
temperatur	-10.9628
sykdom	-10.9636
høyde	-10.976
▁jomfru	-10.9829
▁lincoln	-10.9829
▁interessant	-10.9829
▁konsekvens	-10.9829
▁liverpool	-10.9829
▁mangfold	-10.9829
▁mountain	-10.9829
▁nøytral	-10.9829
▁påbegynt	-10.9829
▁bataljon	-10.9829
▁kapittel	-10.9829
▁sichuan	-10.9829
▁1872	-10.9829
▁ferskvann	-10.9829
▁genitali	-10.9829
▁1869	-10.9829
▁løpebille	-10.9829
▁apotek	-10.9829
▁interiør	-10.9829
▁invitert	-10.9829
▁ytterkant	-10.9829
▁diskusjon	-10.9829
▁charlotte	-10.9829
▁rockeband	-10.9829
▁fremtidig	-10.9829
▁utgravning	-10.983
▁utsikt	-10.983
▁middle	-10.983
▁kjernekraftverk	-10.9831
▁bayern	-10.9831
▁maritim	-10.9831
▁spirit	-10.9831
▁søsken	-10.9831
▁charlie	-10.9832
▁sosialdemokrat	-10.9834
▁boston	-10.9835
▁blomstre	-10.9836
▁hawk	-10.9836
nevnte	-10.9837
▁guinea	-10.9842
▁genetisk	-10.9848
▁kunngjor	-10.9854
konsern	-10.9857
▁søyle	-10.9877
▁ødela	-10.989
gruppa	-10.9896
style	-10.9931
kontrakt	-10.9961
betegnelse	-10.9961
dynastiet	-10.9961
kirch	-10.9963
gyldig	-10.9978
fotograf	-11.005
▁diplom	-11.0149
▁aftenposten	-11.0162
▁engasjement	-11.0162
▁kontinuerlig	-11.0162
▁leipzig	-11.0162
▁meksikansk	-11.0162
▁observasjon	-11.0162
▁okkupert	-11.0162
▁lokomotiv	-11.0162
▁vurdert	-11.0162
▁utbredelse	-11.0162
▁champion	-11.0162
▁gjøvik	-11.0162
▁latvia	-11.0162
▁fantasy	-11.0163
▁dresden	-11.0163
▁stafett	-11.0163
▁forfatning	-11.0163
▁legendarisk	-11.0163
▁avskaffe	-11.0163
relieff	-11.0163
▁tilfeldig	-11.0163
▁http	-11.0163
▁kavaleri	-11.0163
kvartett	-11.0163
▁bmw	-11.0163
▁lingvist	-11.0163
▁brasiliansk	-11.0164
▁skjøt	-11.0164
▁returnert	-11.0165
▁titler	-11.0165
syssel	-11.0167
▁tribun	-11.0167
▁regent	-11.0169
▁stengt	-11.0172
▁foretrekke	-11.0179
▁gör	-11.018
utfordring	-11.018
▁tål	-11.0185
▁forvente	-11.019
▁keep	-11.0192
▁hevn	-11.0198
monopol	-11.0206
vík	-11.0212
▁forvalte	-11.0223
▁omfatte	-11.0236
▁rykte	-11.0256
medlemmene	-11.0306
orkester	-11.0306
sentrum	-11.0308
datering	-11.0353
▁sektor	-11.0498
▁amsterdam	-11.0507
▁gælisk	-11.0507
▁sebastian	-11.0507
▁virginia	-11.0507
reservoar	-11.0507
▁kommandør	-11.0507
▁skjult	-11.0507
▁infeksjon	-11.0507
▁kjøkken	-11.0507
▁krønike	-11.0507
▁raymond	-11.0507
▁bystatus	-11.0507
▁reaktor	-11.0507
▁romerriket	-11.0507
▁grün	-11.0507
▁stimul	-11.0507
▁preussen	-11.0507
▁referert	-11.0507
▁nelson	-11.0507
▁wagner	-11.0507
bransjen	-11.0508
▁beleiring	-11.0508
▁opplysninger	-11.0508
▁sandefjord	-11.0508
ος	-11.0508
▁innenriks	-11.0508
▁claude	-11.0508
▁eksistens	-11.0508
▁skjebne	-11.0508
▁omstridt	-11.0508
▁utforming	-11.0508
▁innvalgt	-11.0509
▁pianist	-11.0509
▁innviet	-11.0509
mønstre	-11.051
▁rakett	-11.052
▁presis	-11.0529
begravelse	-11.0531
flyktning	-11.0542
▁ekstern	-11.055
oppdrett	-11.056
▁kostnad	-11.056
brenning	-11.0574
hvelv	-11.0628
▁slange	-11.0636
hovedstad	-11.0637
germansk	-11.0638
forskjell	-11.0663
resultat	-11.0664
sesongen	-11.0667
teknisk	-11.0675
▁kosmo	-11.0737
▁utforme	-11.0809
▁forstyrre	-11.086
republi	-11.0862
▁buddhistisk	-11.0864
▁distribusjon	-11.0864
▁ekteparet	-11.0864
▁entertainment	-11.0864
▁evolusjon	-11.0864
▁generalmajor	-11.0864
▁göteborg	-11.0864
▁heidelberg	-11.0864
▁identifisere	-11.0864
▁jordskjelv	-11.0864
▁ludwig	-11.0864
▁narkotika	-11.0864
▁observator	-11.0864
▁orchestra	-11.0864
▁pedipalpene	-11.0864
▁salvador	-11.0864
▁elektrisitet	-11.0864
▁michigan	-11.0864
▁patrulje	-11.0864
▁petroleum	-11.0864
▁resultert	-11.0864
▁kroatia	-11.0864
▁identitet	-11.0864
▁oppfatning	-11.0864
▁1859	-11.0864
▁airlines	-11.0864
▁columbi	-11.0864
▁support	-11.0864
▁amundsen	-11.0864
▁bakterier	-11.0864
▁eidsvoll	-11.0864
▁erobring	-11.0865
▁africa	-11.0865
▁ålesund	-11.0865
kommentator	-11.0865
▁liknende	-11.0865
▁visuell	-11.0865
▁fremstilt	-11.0867
▁kalender	-11.0867
▁betaling	-11.0868
anstalt	-11.0868
▁honning	-11.0871
gynet	-11.0875
sektoren	-11.0875
▁planlegge	-11.0877
▁manuel	-11.0882
▁armensk	-11.0883
partei	-11.09
craft	-11.0942
▁journal	-11.1084
artikkel	-11.113
ressurser	-11.1201
▁academy	-11.1235
▁arrangør	-11.1235
▁fasettøyne	-11.1235
▁indirekte	-11.1235
▁microsoft	-11.1235
▁prøyssisk	-11.1235
▁skandinavisk	-11.1235
▁terrengsyklist	-11.1235
▁tórshavn	-11.1235
landeveissyklist	-11.1235
▁aleksandr	-11.1235
▁ambassade	-11.1235
▁babylon	-11.1235
▁innendørs	-11.1235
▁kambodsja	-11.1235
▁konsentrert	-11.1235
▁köln	-11.1235
▁tilstrekkelig	-11.1235
▁invadert	-11.1235
▁konstitusjon	-11.1235
▁selvbiografi	-11.1235
▁management	-11.1235
▁besittelse	-11.1235
▁hiphop	-11.1235
▁manchester	-11.1235
▁opprettholde	-11.1235
▁komponent	-11.1235
▁offensiv	-11.1235
▁pattedyr	-11.1235
▁hertugdømmet	-11.1235
▁diagnose	-11.1235
dynamisk	-11.1235
▁skuldre	-11.1235
▁haugesund	-11.1235
kromosom	-11.1235
▁terminal	-11.1235
▁innlemmet	-11.1235
▁diameter	-11.1235
▁verdensarv	-11.1235
▁ragnar	-11.1235
▁rumensk	-11.1235
forurensning	-11.1235
▁kroatisk	-11.1236
▁detroit	-11.1236
▁fernand	-11.1236
▁christensen	-11.1236
▁satire	-11.1237
▁missil	-11.1238
▁innskriften	-11.1239
▁majest	-11.1241
▁koreograf	-11.1244
oidea	-11.1246
▁tvunge	-11.1248
▁presentere	-11.1249
provinshovedstad	-11.1262
gudinnen	-11.1266
▁earl	-11.1275
sentralbanksjef	-11.1283
asiatisk	-11.1408
konstruksjon	-11.1418
soldater	-11.1418
student	-11.1421
gjeld	-11.1425
▁america	-11.1426
klipp	-11.1478
ferdighet	-11.1498
▁utforske	-11.1578
▁aserbajdsjan	-11.1619
▁fiendtlig	-11.1619
▁guddommelig	-11.1619
▁musikkvideo	-11.1619
▁nintendo	-11.1619
▁publikasjon	-11.1619
▁resolusjon	-11.1619
▁tsjekkoslovakia	-11.1619
▁westfalen	-11.1619
privilegie	-11.1619
▁anmeldelse	-11.1619
▁chicago	-11.1619
▁foundation	-11.1619
▁frilufts	-11.1619
▁sykepleier	-11.1619
▁buskerud	-11.1619
▁godkjenne	-11.1619
▁leopold	-11.1619
▁railway	-11.1619
perspektiv	-11.1619
▁carolina	-11.1619
▁svovel	-11.1619
▁vurdere	-11.1619
▁patrick	-11.1619
▁vertikal	-11.1619
▁tilnærme	-11.162
▁grammy	-11.162
ã	-11.2838
