<unk>	0
<s>	0
</s>	0
.	-3.28928
▁i	-3.45563
e	-3.71102
s	-3.73178
▁og	-3.82124
t	-4.22879
▁av	-4.26813
en	-4.29128
er	-4.34328
▁	-4.35948
▁en	-4.44161
▁som	-4.4446
▁er	-4.547
▁til	-4.59801
r	-4.6201
▁for	-4.66278
▁på	-4.69919
▁den	-4.88041
▁ble	-4.88709
▁med	-4.91867
▁det	-4.9213
▁var	-5.02064
et	-5.03352
▁de	-5.11367
n	-5.14041
▁han	-5.15648
▁å	-5.24227
▁fra	-5.31617
▁et	-5.4336
▁har	-5.50393
▁at	-5.61117
a	-5.6233
ene	-5.66118
ne	-5.91686
▁ved	-5.93249
▁etter	-5.981
k	-6.00428
▁om	-6.00477
▁også	-6.02738
▁men	-6.03966
d	-6.08764
▁ut	-6.13677
de	-6.14245
i	-6.15312
▁seg	-6.2108
▁under	-6.22127
te	-6.28128
▁hadde	-6.28171
▁ikke	-6.2984
▁da	-6.30222
o	-6.30246
▁over	-6.33277
y	-6.35892
▁to	-6.37703
▁opp	-6.41091
▁inn	-6.44229
▁eller	-6.44954
▁kan	-6.46208
l	-6.48043
g	-6.48438
m	-6.51222
f	-6.52314
▁andre	-6.52411
▁hun	-6.57452
▁første	-6.58569
▁sin	-6.5874
re	-6.60962
▁dette	-6.64948
▁mot	-6.65435
p	-6.67167
▁år	-6.73855
▁18	-6.7565
▁1	-6.76132
▁ha	-6.76205
ing	-6.76368
▁be	-6.77584
es	-6.7848
▁mellom	-6.79267
in	-6.79727
▁s	-6.80319
us	-6.84828
▁født	-6.8485
▁hans	-6.85905
h	-6.86103
v	-6.8982
▁fikk	-6.90818
▁der	-6.92047
▁tre	-6.92997
▁kom	-6.94223
▁a	-6.9427
al	-6.94348
u	-6.95289
c	-6.96923
▁flere	-6.97581
▁denne	-6.98457
▁man	-6.98965
an	-7.00017
▁hvor	-7.00987
ter	-7.01282
▁f	-7.02571
ri	-7.02743
le	-7.03464
ende	-7.06163
▁sammen	-7.08127
▁nord	-7.08375
sk	-7.0861
▁alle	-7.10361
la	-7.10447
▁c	-7.12036
b	-7.12414
▁2	-7.12449
▁så	-7.13183
▁blant	-7.13194
na	-7.13214
▁the	-7.14628
▁del	-7.15661
ia	-7.15866
sen	-7.16445
▁før	-7.17043
▁k	-7.18417
▁u	-7.19674
▁mange	-7.20839
lig	-7.22298
▁tallet	-7.23221
di	-7.25142
on	-7.25513
▁ligger	-7.2609
ur	-7.26136
▁stor	-7.26575
▁norge	-7.26603
z	-7.2726
▁norsk	-7.29104
▁død	-7.29315
▁nå	-7.29914
nde	-7.30218
is	-7.31089
▁3	-7.31303
▁ol	-7.3186
▁selv	-7.32511
▁senere	-7.32545
▁noen	-7.32714
▁siden	-7.33659
▁tidligere	-7.34001
ar	-7.34094
ens	-7.34272
▁17	-7.3459
▁være	-7.3535
▁disse	-7.35689
▁m	-7.35819
▁byen	-7.3592
land	-7.35976
▁sør	-7.36061
ere	-7.36638
tt	-7.37277
▁mer	-7.37694
▁b	-7.37703
▁4	-7.37893
▁la	-7.38368
▁blitt	-7.38799
▁blir	-7.41239
▁gjennom	-7.41675
vis	-7.41966
▁her	-7.42138
▁kommune	-7.42704
▁vært	-7.42912
▁se	-7.43028
w	-7.43796
ler	-7.44231
▁ny	-7.44426
ng	-7.44455
▁kjent	-7.44461
▁annet	-7.44697
▁p	-7.45124
isk	-7.463
▁samme	-7.46512
▁sitt	-7.47067
lo	-7.47306
▁ca	-7.47354
▁re	-7.47933
ul	-7.48056
▁store	-7.48166
▁vi	-7.48321
ch	-7.48414
iske	-7.49187
ske	-7.49593
or	-7.49758
▁bå	-7.50565
li	-7.50568
for	-7.50839
▁bo	-7.50898
der	-7.51032
il	-7.51163
j	-7.5191
ra	-7.5222
▁land	-7.52636
▁5	-7.52993
▁al	-7.53121
▁grunn	-7.53234
øy	-7.54075
▁noe	-7.5414
▁an	-7.54315
ma	-7.54613
um	-7.54767
▁g	-7.54814
▁ga	-7.55139
▁dag	-7.55762
▁gikk	-7.56222
ck	-7.56283
▁tid	-7.56865
▁kr	-7.56885
▁enn	-7.56931
▁rundt	-7.57716
os	-7.58628
ge	-7.5885
å	-7.59576
▁o	-7.6024
▁sine	-7.60535
▁frem	-7.60639
▁ra	-7.61237
▁15	-7.61776
▁sa	-7.61896
▁mens	-7.62933
▁16	-7.63118
▁ned	-7.63151
be	-7.63448
ry	-7.63689
▁of	-7.64165
▁h	-7.65419
▁ro	-7.66238
el	-7.66669
as	-7.66726
▁vant	-7.67285
▁oslo	-7.67538
▁skulle	-7.67655
ol	-7.67755
▁mest	-7.67984
▁tilbake	-7.68064
▁vest	-7.68337
▁10	-7.69542
▁bare	-7.69844
▁d	-7.71036
▁vil	-7.71228
ver	-7.71247
▁kunne	-7.71293
▁gang	-7.71966
▁ham	-7.72167
bo	-7.72372
▁km	-7.72383
ning	-7.7251
het	-7.73009
ig	-7.73032
▁by	-7.73205
▁norske	-7.73617
ro	-7.73709
den	-7.73963
ke	-7.74155
▁ta	-7.74262
▁skal	-7.74629
▁fire	-7.74669
ut	-7.74722
▁lag	-7.74839
ve	-7.74895
ta	-7.7498
▁6	-7.75245
nes	-7.75516
ner	-7.75538
▁tok	-7.76064
é	-7.76115
▁7	-7.76377
at	-7.76447
▁ba	-7.76688
id	-7.76746
▁t	-7.77081
▁navn	-7.77161
▁mo	-7.77857
▁pi	-7.78413
erte	-7.78705
▁nye	-7.7897
ad	-7.79172
▁meter	-7.7929
ert	-7.79528
x	-7.79649
nd	-7.79947
▁du	-7.80269
▁august	-7.80378
un	-7.81314
kk	-7.81414
▁usa	-7.81422
mi	-7.81686
erne	-7.81703
▁slik	-7.8202
da	-7.82079
ik	-7.82116
▁st	-7.82179
▁bli	-7.82646
ste	-7.82804
▁000	-7.82884
▁navnet	-7.82961
▁12	-7.83005
▁siste	-7.83189
to	-7.83437
▁øst	-7.83467
▁fram	-7.83719
ør	-7.84303
ga	-7.84583
▁he	-7.85007
▁januar	-7.85114
vi	-7.85315
▁mai	-7.85585
▁dem	-7.85855
▁mars	-7.85916
▁deltok	-7.85971
lige	-7.86232
ist	-7.8628
ger	-7.8694
▁ma	-7.87196
▁ni	-7.87293
ic	-7.8733
me	-7.87442
ton	-7.87695
▁hele	-7.87707
▁w	-7.87874
stad	-7.87906
▁8	-7.87933
mer	-7.88058
▁pa	-7.88225
▁ofte	-7.8825
▁finnes	-7.88663
son	-7.88957
th	-7.89024
▁n	-7.89126
ø	-7.89339
▁li	-7.8966
▁ti	-7.89798
▁få	-7.89949
▁landet	-7.90134
sa	-7.90504
mo	-7.91152
ff	-7.91589
mp	-7.92552
▁juli	-7.92793
ja	-7.92845
men	-7.92965
▁hoved	-7.9297
man	-7.93221
om	-7.93356
▁største	-7.93547
▁mål	-7.9371
▁in	-7.93742
kt	-7.94062
▁11	-7.94163
je	-7.95039
ster	-7.95295
▁le	-7.95429
ll	-7.96382
▁laget	-7.96631
si	-7.96839
ker	-7.97051
▁co	-7.97082
▁l	-7.9709
▁videre	-7.97143
▁kirke	-7.97229
bu	-7.97642
ti	-7.97987
▁går	-7.98107
var	-7.98225
▁igjen	-7.9823
▁20	-7.98397
▁bak	-7.98526
skap	-7.98679
▁pro	-7.98808
▁14	-7.98843
▁e	-7.99149
▁si	-7.99344
▁først	-7.9954
mann	-7.99635
▁kalt	-7.99752
ven	-7.99949
▁rekke	-8.00408
▁sp	-8.0079
▁2008	-8.01035
▁gi	-8.01181
pi	-8.01341
▁fri	-8.01875
▁lang	-8.02006
▁per	-8.0203
▁na	-8.02198
▁utgitt	-8.02441
ha	-8.02484
ell	-8.02534
ed	-8.02559
▁området	-8.02624
gen	-8.02992
▁v	-8.03548
▁lo	-8.03942
it	-8.04101
gi	-8.04469
▁plass	-8.04804
▁9	-8.05025
else	-8.05237
ka	-8.05242
va	-8.05432
pe	-8.0568
opp	-8.05813
▁spilte	-8.0596
▁2010	-8.06091
▁13	-8.06209
tal	-8.06481
asjon	-8.06798
år	-8.06872
av	-8.07334
ang	-8.07416
▁tiden	-8.07563
▁fly	-8.07716
▁årene	-8.07792
▁juni	-8.08667
ce	-8.08749
ba	-8.09191
▁fa	-8.0924
by	-8.09368
▁tillegg	-8.0948
▁go	-8.09851
▁vanlig	-8.09929
▁september	-8.10153
ion	-8.10447
dal	-8.10463
▁april	-8.10779
▁ho	-8.11581
▁2007	-8.1205
do	-8.12064
▁hos	-8.12082
▁rett	-8.1221
▁far	-8.12212
ring	-8.12658
▁tro	-8.13314
▁begynte	-8.13924
▁oktober	-8.13964
▁november	-8.14179
ir	-8.14313
rett	-8.1437
gang	-8.14542
bi	-8.1455
▁samt	-8.14838
im	-8.1519
berg	-8.15382
sjon	-8.15408
▁j	-8.15414
ho	-8.15486
▁brukt	-8.15706
4	-8.15933
▁form	-8.1595
▁imidlertid	-8.16145
▁eksempel	-8.16365
▁sk	-8.16381
ings	-8.16394
▁fem	-8.1658
▁europa	-8.16589
▁desember	-8.16808
▁do	-8.16963
go	-8.16983
▁fransk	-8.17075
▁ville	-8.17085
▁deres	-8.1729
▁ru	-8.17512
ment	-8.1768
▁po	-8.17728
co	-8.1781
▁sønn	-8.18078
▁ri	-8.18793
▁2009	-8.1883
▁mindre	-8.18839
▁kun	-8.19209
sel	-8.19587
ä	-8.19702
▁bruk	-8.19708
▁di	-8.19748
▁døde	-8.19861
▁no	-8.20156
▁bu	-8.20514
▁bestå	-8.20572
▁vann	-8.20625
▁leder	-8.20643
▁musikk	-8.20938
▁mye	-8.21091
ö	-8.21193
▁britisk	-8.21416
▁bi	-8.2221
ingen	-8.22249
▁2005	-8.22292
au	-8.22328
▁februar	-8.22518
▁beste	-8.2263
▁olympisk	-8.22753
▁tv	-8.22992
▁film	-8.23029
ko	-8.23322
▁ar	-8.23508
▁mar	-8.23562
▁nær	-8.24074
gg	-8.24161
▁ei	-8.24528
tor	-8.24566
itt	-8.24725
▁helt	-8.24742
▁lov	-8.24962
ft	-8.25218
op	-8.25632
ant	-8.2592
▁kina	-8.26062
▁deretter	-8.26122
▁medlem	-8.26328
▁sverige	-8.26351
▁egen	-8.26718
▁2006	-8.26852
▁new	-8.26912
lse	-8.26913
▁0	-8.27342
▁større	-8.27417
▁skole	-8.27812
kke	-8.27851
▁kon	-8.27988
▁hvert	-8.28161
ek	-8.28306
ie	-8.28428
▁like	-8.2854
sh	-8.28606
io	-8.28895
ks	-8.29086
ak	-8.29213
▁ka	-8.29389
▁sommer	-8.3004
▁ko	-8.3007
ling	-8.305
▁fi	-8.30581
itet	-8.30683
tak	-8.31121
▁y	-8.31519
▁mat	-8.31629
▁uten	-8.31673
▁spiller	-8.31676
▁tyske	-8.31709
▁tyskland	-8.31716
▁svært	-8.31874
▁em	-8.31969
▁su	-8.32061
pp	-8.32094
ard	-8.3242
▁gjorde	-8.3247
▁brukes	-8.32475
▁so	-8.32498
▁året	-8.32544
ns	-8.32866
rede	-8.32968
vik	-8.33323
▁innen	-8.3339
▁hennes	-8.334
sta	-8.33713
▁tatt	-8.33809
slag	-8.33979
bar	-8.34515
▁par	-8.34649
ag	-8.34937
▁kort	-8.35103
▁språk	-8.35289
▁filmen	-8.3539
▁kong	-8.35543
▁ad	-8.35668
▁barn	-8.35897
▁må	-8.35902
over	-8.35986
od	-8.36008
▁bygget	-8.36386
▁mor	-8.366
▁kunst	-8.36669
▁gu	-8.36853
ok	-8.36863
ans	-8.3696
ær	-8.37144
▁arbeidet	-8.37246
em	-8.37266
ering	-8.37339
ningen	-8.37354
▁måtte	-8.37466
▁eks	-8.37474
▁hver	-8.37618
sted	-8.3766
▁innbyggere	-8.37717
▁lå	-8.37734
▁kommer	-8.3784
▁særlig	-8.38011
dan	-8.38309
▁gift	-8.3836
▁kultur	-8.3838
▁30	-8.38481
▁seks	-8.38508
ier	-8.38591
▁ulike	-8.38665
▁me	-8.38784
▁ju	-8.38796
▁ingen	-8.39008
▁ganger	-8.39247
ov	-8.39354
▁startet	-8.39434
inn	-8.39626
▁høy	-8.39708
sp	-8.39719
▁plan	-8.39741
▁25	-8.39853
ld	-8.39979
▁ski	-8.40037
▁forhold	-8.40393
▁derfor	-8.40753
▁politisk	-8.40892
▁or	-8.40956
▁gitt	-8.4099
▁tidlig	-8.41295
1	-8.41672
tid	-8.41699
ca	-8.41854
tter	-8.42002
form	-8.42154
▁england	-8.42204
pa	-8.42556
▁engelsk	-8.42609
▁sch	-8.4274
dd	-8.42754
▁små	-8.42804
dre	-8.42862
▁sett	-8.42935
▁amerikanske	-8.42962
▁2011	-8.43063
▁satt	-8.43245
▁bra	-8.43292
▁and	-8.43448
nk	-8.43885
▁gjen	-8.44178
▁begge	-8.44221
▁sol	-8.44304
▁alt	-8.44429
▁gull	-8.4452
satt	-8.44646
▁skrevet	-8.4471
▁nasjonal	-8.44794
▁dermed	-8.44844
▁am	-8.45183
elle	-8.45391
inger	-8.45437
▁amerikansk	-8.45604
vin	-8.4563
▁verdenskrig	-8.45723
▁z	-8.45864
▁2004	-8.45999
▁bar	-8.46137
no	-8.46177
▁stort	-8.46272
▁albumet	-8.46419
▁pe	-8.46526
▁millioner	-8.46707
▁perioden	-8.46832
▁deler	-8.47229
▁sam	-8.47247
▁norges	-8.47587
▁frankrike	-8.47786
▁ch	-8.47849
▁fleste	-8.47899
▁grad	-8.48006
▁vm	-8.48031
▁hu	-8.4857
▁john	-8.48661
▁jo	-8.48848
art	-8.49007
lag	-8.49032
▁london	-8.49308
▁slutten	-8.4939
følge	-8.49497
▁etablert	-8.49616
▁hel	-8.49733
▁klubben	-8.49902
▁tor	-8.49917
▁lu	-8.50101
▁folke	-8.50641
▁pu	-8.51045
▁president	-8.51115
ina	-8.51123
▁gamle	-8.51169
▁tysk	-8.51289
▁øya	-8.51351
▁dagen	-8.5145
val	-8.51567
▁løpet	-8.51627
▁samtidig	-8.51818
▁2000	-8.51903
per	-8.51938
▁bergen	-8.52248
▁langs	-8.52363
▁ord	-8.52629
▁russisk	-8.52747
▁kv	-8.52883
ikk	-8.53243
▁hus	-8.53246
hus	-8.53362
dag	-8.53364
▁lever	-8.53428
▁as	-8.5343
siden	-8.53501
▁god	-8.53504
les	-8.5356
ot	-8.53573
ige	-8.53615
▁2002	-8.53714
▁skrev	-8.53991
▁kinesisk	-8.54349
sten	-8.54579
▁førte	-8.54593
▁slutt	-8.54701
▁annen	-8.54911
verk	-8.54929
▁gruppen	-8.55088
▁bandet	-8.55108
▁provinsen	-8.55261
▁el	-8.55562
▁sesongen	-8.55647
hu	-8.55756
stand	-8.5576
▁krigen	-8.55776
am	-8.56088
▁kommunen	-8.56447
▁nor	-8.56622
▁stedet	-8.56703
▁forskjellig	-8.56812
▁nytt	-8.56861
▁r	-8.56904
vo	-8.56958
▁ja	-8.56983
▁spilt	-8.57177
▁lys	-8.57177
ci	-8.57283
mb	-8.57657
▁sted	-8.57895
▁gammel	-8.57968
á	-8.58041
▁all	-8.58115
▁sv	-8.58155
sse	-8.58283
ius	-8.58321
lin	-8.58379
▁sjø	-8.58451
if	-8.58589
len	-8.59218
▁te	-8.59504
▁vei	-8.59522
▁fotball	-8.5954
isme	-8.59541
æ	-8.59838
▁san	-8.59872
▁fortsatt	-8.59951
▁fast	-8.60102
isert	-8.60176
▁støtte	-8.60489
▁hi	-8.60656
▁x	-8.6074
jø	-8.60777
▁familie	-8.60805
▁flytte	-8.61013
▁serien	-8.61081
ds	-8.61156
gu	-8.61168
▁verdens	-8.6122
▁21	-8.61258
▁grav	-8.61261
▁parti	-8.61335
hold	-8.61424
po	-8.61511
ren	-8.61584
ord	-8.61627
▁2001	-8.61735
ine	-8.61851
▁19	-8.619
▁bre	-8.61992
▁side	-8.62039
▁tredje	-8.62044
▁gir	-8.62064
▁ne	-8.62254
▁liv	-8.62282
▁mi	-8.6233
ü	-8.62419
burg	-8.62661
tur	-8.62762
▁gud	-8.62966
▁100	-8.63239
mon	-8.63377
▁gresk	-8.63613
mme	-8.63674
▁mann	-8.63679
▁2003	-8.63842
▁komme	-8.63991
mu	-8.64333
▁kl	-8.64385
3	-8.64402
▁1999	-8.64548
ly	-8.64555
tu	-8.64569
▁storbritannia	-8.64902
ny	-8.65001
tok	-8.65057
▁viktig	-8.6507
sett	-8.65236
▁danmark	-8.65267
tre	-8.65405
▁konge	-8.66418
▁bok	-8.66509
▁mulig	-8.66692
▁1990	-8.66719
▁va	-8.66781
ys	-8.6727
▁gre	-8.67588
▁stein	-8.67592
ni	-8.67652
▁delen	-8.67782
í	-8.67817
▁spesielt	-8.67817
▁24	-8.68143
plass	-8.6827
▁person	-8.68447
▁gruppe	-8.68487
▁tar	-8.68558
▁fo	-8.68603
▁22	-8.68738
▁syn	-8.68864
▁gjort	-8.69057
▁sentral	-8.69305
▁eneste	-8.69452
▁lokal	-8.69495
0	-8.70015
▁bil	-8.70162
2	-8.70273
▁vise	-8.70333
▁halv	-8.70423
▁rolle	-8.70546
ron	-8.70727
ium	-8.70751
gn	-8.70796
ian	-8.7087
▁jord	-8.70928
du	-8.70994
▁fjell	-8.71236
▁partiet	-8.71269
▁kar	-8.71415
▁bro	-8.71441
▁wa	-8.71472
ber	-8.71571
ister	-8.71582
▁fant	-8.71601
▁langt	-8.71657
▁kontroll	-8.71764
ken	-8.71819
til	-8.71868
▁tri	-8.71888
▁forbindelse	-8.7191
ley	-8.72293
ku	-8.72444
ud	-8.72568
ep	-8.72586
▁delstaten	-8.72859
▁stat	-8.72915
dig	-8.72929
▁hen	-8.72936
▁historie	-8.73047
▁godt	-8.73394
kor	-8.73405
tte	-8.73723
mor	-8.73772
▁kjente	-8.73837
▁utviklet	-8.74212
elsen	-8.7428
▁sangen	-8.74301
▁fred	-8.7452
tro	-8.74526
▁paris	-8.74543
▁verden	-8.74839
kel	-8.74867
lot	-8.75152
iv	-8.75226
uk	-8.7524
▁sto	-8.75483
▁valg	-8.75484
▁1970	-8.75904
▁militær	-8.761
▁con	-8.76197
▁innenfor	-8.76392
fe	-8.76603
▁ab	-8.76646
hi	-8.76652
▁opprinnelig	-8.76667
ow	-8.76714
lsen	-8.76833
heten	-8.76964
log	-8.76968
▁1980	-8.77117
▁lite	-8.77547
tra	-8.7757
▁selskapet	-8.77595
lands	-8.77636
vel	-8.77645
▁reise	-8.77672
▁min	-8.77703
▁liten	-8.77745
ty	-8.77879
▁ver	-8.77926
ip	-8.78091
▁opprettet	-8.78161
▁bygge	-8.7837
▁får	-8.78542
▁svensk	-8.78673
løp	-8.78855
▁basert	-8.79005
tiske	-8.7907
▁omkring	-8.79158
▁hatt	-8.79167
▁pre	-8.79294
und	-8.7951
▁kirken	-8.79511
tel	-8.79524
lagt	-8.7964
del	-8.79732
kker	-8.79746
nske	-8.79762
▁arbeider	-8.79948
▁universitetet	-8.80097
▁bort	-8.80201
▁kvinne	-8.80267
▁ge	-8.80429
▁forfatter	-8.80484
▁ren	-8.80487
▁utenfor	-8.80929
▁mag	-8.81057
▁roman	-8.81349
min	-8.81617
▁elven	-8.81686
▁medlemmer	-8.81743
ska	-8.81781
ham	-8.81932
▁valgt	-8.82018
fjorden	-8.82023
bb	-8.82089
sti	-8.82131
▁natur	-8.82259
mar	-8.82305
▁står	-8.82442
▁red	-8.8254
tiden	-8.82571
ble	-8.82803
▁50	-8.82895
mål	-8.8295
▁innehold	-8.8299
▁os	-8.83028
tiv	-8.83045
▁28	-8.83114
ski	-8.83168
ninger	-8.83219
▁familien	-8.83398
forening	-8.83414
▁luft	-8.83424
▁spille	-8.8355
net	-8.83558
wa	-8.83558
▁26	-8.83839
▁nok	-8.84001
ac	-8.84034
ill	-8.84091
▁gjøre	-8.84121
▁russland	-8.84254
fa	-8.84281
ou	-8.84361
▁spor	-8.84459
stein	-8.84468
▁my	-8.84535
ting	-8.84569
▁car	-8.84635
▁gr	-8.84708
▁midt	-8.84793
som	-8.84843
▁ku	-8.85121
▁bl	-8.85158
gr	-8.85231
▁meste	-8.85248
bre	-8.85384
▁utnevnt	-8.85681
▁gav	-8.85747
stre	-8.85764
▁full	-8.86206
▁lav	-8.86263
uten	-8.86265
▁vel	-8.86508
▁india	-8.86603
let	-8.86646
▁hjem	-8.8665
▁industri	-8.86657
ki	-8.86717
▁40	-8.86838
▁ak	-8.86908
ong	-8.8691
▁folk	-8.86937
▁vo	-8.87008
tikk	-8.87055
▁fått	-8.8712
▁holdt	-8.87135
▁mennesker	-8.87492
▁paul	-8.87534
est	-8.87544
▁moderne	-8.87628
▁datter	-8.87673
▁bred	-8.87776
▁1998	-8.87808
▁funnet	-8.88001
▁skolen	-8.88038
▁kamp	-8.88125
▁lange	-8.88219
▁én	-8.88284
spill	-8.88297
▁23	-8.88322
▁kalles	-8.88359
anske	-8.88375
▁dikt	-8.884
▁enkelte	-8.88713
▁ur	-8.88771
mm	-8.88792
▁kor	-8.88805
za	-8.89126
▁york	-8.89166
▁nesten	-8.89287
▁gjør	-8.89465
▁knytte	-8.89625
▁hol	-8.89633
▁aktiv	-8.89652
▁au	-8.89711
▁menn	-8.90242
▁ser	-8.90297
▁divisjon	-8.90344
▁italia	-8.90555
▁1988	-8.90556
gel	-8.90726
▁general	-8.91008
he	-8.91012
▁cha	-8.91119
▁ki	-8.91176
▁menneske	-8.91281
▁hva	-8.91396
▁slag	-8.91407
▁pr	-8.91507
isering	-8.91537
▁bruker	-8.91618
det	-8.91678
▁viser	-8.91726
▁1996	-8.91956
sson	-8.91969
▁sand	-8.92192
▁val	-8.92217
føring	-8.92336
ó	-8.92414
fly	-8.92525
▁ledet	-8.92538
▁sentrum	-8.92567
▁åpnet	-8.92633
▁serie	-8.92635
▁periode	-8.92682
▁gjern	-8.92723
▁album	-8.92964
▁vinter	-8.92998
▁kn	-8.93073
▁motor	-8.93074
▁skog	-8.93155
▁krig	-8.93159
bil	-8.93321
▁1994	-8.93378
▁regjeringen	-8.93458
▁staten	-8.93516
▁ty	-8.93529
▁delt	-8.93748
▁produksjon	-8.938
▁farge	-8.93856
▁tjeneste	-8.93865
stilling	-8.93875
anger	-8.93973
▁rom	-8.94168
▁sy	-8.94172
▁27	-8.94295
dde	-8.94313
▁betydning	-8.94331
▁betydelig	-8.94331
▁hevde	-8.94339
▁organ	-8.94427
▁regionen	-8.94627
elig	-8.94664
▁minst	-8.94666
▁tra	-8.9478
▁biskop	-8.94814
▁viktigste	-8.94875
▁stil	-8.95037
▁karl	-8.9514
▁brasil	-8.95301
▁begynnelsen	-8.95304
▁egne	-8.95361
heim	-8.95375
▁følgende	-8.9543
my	-8.95478
rak	-8.95491
▁verk	-8.95541
pu	-8.9557
lei	-8.95942
tan	-8.95965
fjord	-8.96017
vann	-8.96045
▁personer	-8.9607
jen	-8.96304
▁danske	-8.96341
isere	-8.96352
ede	-8.965
▁fag	-8.96586
▁rø	-8.96607
fi	-8.96639
▁afrika	-8.96772
▁eldre	-8.96805
▁fe	-8.96807
▁produsert	-8.96843
▁gul	-8.96984
bok	-8.97032
kon	-8.9709
▁nummer	-8.97097
and	-8.97159
ran	-8.97201
▁fortsatte	-8.97357
▁internasjonale	-8.97644
sch	-8.97697
plan	-8.97711
▁sj	-8.97745
kken	-8.97764
▁berlin	-8.97865
bruk	-8.97987
▁arbeid	-8.98022
▁dr	-8.98078
▁hjelp	-8.98083
▁arter	-8.98095
met	-8.98142
ation	-8.98218
hø	-8.98251
▁bor	-8.98322
▁befolkningen	-8.98382
▁bror	-8.98495
▁antall	-8.98635
▁bygd	-8.9867
skje	-8.98764
▁århundre	-8.98766
▁betyr	-8.98767
▁henhold	-8.9879
fra	-8.98903
ju	-8.99004
tz	-8.99049
▁ettersom	-8.99072
bel	-8.99225
▁henne	-8.9928
▁historisk	-8.99334
▁kvinner	-8.99482
▁forsøk	-8.997
▁hovedsakelig	-8.99785
▁1960	-8.99791
▁professor	-8.9986
▁tross	-8.99925
▁minne	-8.9995
▁sl	-9.00093
▁fiske	-9.00107
▁hav	-9.00115
▁ber	-9.00135
▁prest	-9.00282
▁sølv	-9.0029
▁29	-9.00366
▁wi	-9.00379
dyr	-9.004
spiller	-9.00526
▁peter	-9.00603
▁lands	-9.00658
▁såkalt	-9.00806
▁litt	-9.00851
▁åtte	-9.00931
▁dannet	-9.00961
van	-9.01027
setning	-9.01165
▁stra	-9.01207
ica	-9.01267
▁amerika	-9.013
▁aldri	-9.01324
mmer	-9.01328
▁2012	-9.01334
▁bestemt	-9.01445
▁felles	-9.01514
▁måte	-9.01527
▁fylke	-9.01827
▁riks	-9.0184
▁teater	-9.01858
▁fu	-9.01908
ph	-9.02012
▁van	-9.02109
▁eget	-9.02198
▁samarbeid	-9.02248
▁lei	-9.02407
▁kur	-9.02741
▁hy	-9.02771
▁skuespiller	-9.02849
kom	-9.02864
▁1920	-9.02889
asjonen	-9.02938
▁mal	-9.02968
yn	-9.03195
▁jeg	-9.03205
elt	-9.03269
▁band	-9.03288
▁tu	-9.03349
mark	-9.03354
▁foran	-9.0339
▁resultat	-9.03434
▁sak	-9.03467
▁skip	-9.03483
bin	-9.03512
▁art	-9.03695
▁com	-9.03898
▁direkte	-9.03934
▁1984	-9.03941
▁slaget	-9.03949
▁nordøst	-9.03968
han	-9.04104
▁politiker	-9.0412
▁kongen	-9.04335
▁arbeids	-9.04338
fall	-9.04453
sto	-9.04475
▁lagt	-9.04683
▁orden	-9.04724
her	-9.04737
bro	-9.04741
▁gra	-9.04822
▁vin	-9.04906
ab	-9.04916
▁mil	-9.04987
▁gå	-9.05075
øya	-9.05103
gående	-9.05178
▁radio	-9.05203
▁hvis	-9.05256
▁fremst	-9.05269
▁mark	-9.05398
vet	-9.05408
▁lik	-9.05495
▁drept	-9.05539
▁ska	-9.05544
▁ben	-9.05637
▁svenske	-9.05648
rik	-9.05788
stående	-9.05915
▁hånd	-9.06096
▁pan	-9.06116
løs	-9.0614
▁ett	-9.06184
▁bri	-9.06434
▁lett	-9.06435
▁veien	-9.06499
▁th	-9.06505
▁christian	-9.06559
ater	-9.06582
▁berg	-9.06618
▁tur	-9.06707
▁dess	-9.06713
▁dager	-9.06755
▁nett	-9.06842
▁keiser	-9.06879
bane	-9.06948
▁universitet	-9.07039
▁sendt	-9.07364
skole	-9.07379
sund	-9.07428
▁system	-9.07433
jer	-9.07521
▁handels	-9.07555
stan	-9.07627
borg	-9.0768
▁representert	-9.07718
▁styre	-9.07813
▁anti	-9.07947
▁via	-9.08053
▁arrangert	-9.08271
▁omtrent	-9.08271
▁eldste	-9.08271
▁følge	-9.08322
▁lille	-9.0833
▁råd	-9.08517
veien	-9.08558
▁meget	-9.08662
▁1945	-9.08833
▁eu	-9.08845
▁henrik	-9.08846
leg	-9.08893
▁spe	-9.09011
landet	-9.09032
▁hjemme	-9.0909
▁kamper	-9.09284
▁fall	-9.09329
ug	-9.09353
▁kla	-9.09381
▁1992	-9.09392
▁ø	-9.09454
kant	-9.09511
6	-9.09746
lan	-9.09751
ris	-9.09795
▁ag	-9.09832
▁tittelen	-9.10004
ros	-9.10074
leder	-9.10112
▁rød	-9.10213
▁sang	-9.10297
▁2013	-9.10524
▁stats	-9.10548
dalen	-9.10775
kal	-9.10844
che	-9.10908
▁lyd	-9.11017
vei	-9.11033
▁sterkt	-9.11068
▁suksess	-9.1108
▁gate	-9.11199
▁start	-9.11294
▁liste	-9.11296
▁rock	-9.11308
▁angrep	-9.11366
▁høyre	-9.11635
▁skade	-9.11651
▁we	-9.11726
▁on	-9.11728
lu	-9.1176
▁resten	-9.11809
▁mus	-9.11862
▁strøm	-9.11867
▁dansk	-9.12038
▁tildelt	-9.12123
▁opera	-9.12285
▁pave	-9.12349
lene	-9.12588
▁sosial	-9.12629
▁200	-9.12642
laget	-9.12766
▁1950	-9.12822
vær	-9.12901
▁holde	-9.12961
▁områder	-9.13016
▁von	-9.13044
▁lokale	-9.13101
▁endt	-9.13143
film	-9.1324
▁ste	-9.13331
dy	-9.13356
▁inkludert	-9.13386
▁led	-9.13404
50	-9.13543
legg	-9.13575
▁herre	-9.13614
inne	-9.1378
а	-9.13971
▁post	-9.13994
▁park	-9.14003
mester	-9.14069
tar	-9.14116
ull	-9.14241
par	-9.14252
▁omfatter	-9.14387
▁les	-9.14464
▁q	-9.14522
▁opprør	-9.14567
br	-9.14601
▁topp	-9.14636
ator	-9.14648
akt	-9.14738
rø	-9.14738
bygd	-9.14742
▁heller	-9.14763
▁ferdig	-9.14818
ach	-9.14848
▁pal	-9.14975
este	-9.15025
mal	-9.15063
▁makt	-9.15082
tegn	-9.15102
merke	-9.15147
▁william	-9.15151
far	-9.15296
svis	-9.15347
▁barne	-9.1538
▁utvikling	-9.15397
kan	-9.15472
▁europeisk	-9.15481
liggende	-9.15487
▁viste	-9.15587
▁1997	-9.15751
▁1995	-9.15753
▁regnes	-9.15825
▁1800	-9.15858
▁pris	-9.15864
gh	-9.15915
▁31	-9.15961
▁poeng	-9.15993
▁kraftig	-9.16008
▁inntil	-9.16009
ru	-9.16056
▁blå	-9.16194
9	-9.16205
▁grunnlagt	-9.16298
▁steder	-9.16367
grad	-9.16392
ps	-9.1643
jo	-9.16534
ighet	-9.16583
lle	-9.16659
▁tilhører	-9.16719
▁elva	-9.16851
▁møte	-9.1688
▁brun	-9.16901
▁høyeste	-9.16969
▁delta	-9.17101
▁ed	-9.1713
▁gal	-9.17202
▁leker	-9.17282
lys	-9.1747
regionen	-9.17498
▁dårlig	-9.17553
ji	-9.17701
▁viss	-9.1783
ah	-9.17991
▁roma	-9.18097
▁seier	-9.18118
▁kilometer	-9.18163
▁kal	-9.18196
▁bru	-9.18249
▁neste	-9.18401
sjøen	-9.18493
▁dro	-9.18581
▁rev	-9.18602
istiske	-9.18605
▁utgjør	-9.18634
▁ring	-9.18715
▁op	-9.18761
▁tekst	-9.18823
▁energi	-9.18832
▁lærer	-9.18834
▁litteratur	-9.19066
kar	-9.19273
▁venstre	-9.19405
▁1900	-9.19412
▁styrke	-9.19438
fl	-9.19444
▁dyr	-9.19627
banen	-9.19689
▁havn	-9.19697
pon	-9.19738
▁nest	-9.19805
▁tap	-9.19835
▁japan	-9.19852
00	-9.20007
▁canada	-9.20015
▁fin	-9.20047
▁enkelt	-9.2005
▁legge	-9.2017
▁helse	-9.2027
ino	-9.20358
▁seil	-9.20455
▁kraft	-9.20465
wi	-9.20541
▁60	-9.20672
▁500	-9.20724
▁våpen	-9.20825
▁best	-9.20878
▁slått	-9.21138
pper	-9.21144
▁kron	-9.21196
▁mu	-9.21251
lla	-9.21266
▁1993	-9.21269
▁1985	-9.21279
ai	-9.21307
gitt	-9.21358
▁fre	-9.21406
ung	-9.21487
▁krigs	-9.21561
▁ly	-9.21621
▁konsert	-9.21637
sky	-9.21667
brudd	-9.21809
reg	-9.21811
ket	-9.2186
▁1991	-9.21911
▁tak	-9.21918
ya	-9.21924
▁sørøst	-9.21932
▁robert	-9.21972
øn	-9.21995
▁flo	-9.22147
▁syv	-9.22155
▁sesong	-9.22161
ismen	-9.223
fri	-9.2244
▁trondheim	-9.22538
▁tilfelle	-9.22548
▁1986	-9.22551
▁1987	-9.22551
tin	-9.22561
yl	-9.22561
ide	-9.22567
▁uttrykk	-9.22712
▁klar	-9.22713
▁offentlig	-9.22784
▁areal	-9.22812
ey	-9.22843
▁finalen	-9.22877
mel	-9.22958
▁kjøp	-9.23131
ight	-9.23195
▁vekt	-9.2325
▁johan	-9.23395
▁blad	-9.23461
vern	-9.2353
værende	-9.23535
▁jan	-9.23567
▁qu	-9.23615
▁mont	-9.23714
▁slekt	-9.23758
bø	-9.23785
▁stockholm	-9.23825
▁karakter	-9.23825
▁vanskelig	-9.23826
ay	-9.2409
▁sommeren	-9.24194
▁tru	-9.24223
▁sanger	-9.24285
gård	-9.24286
rus	-9.24375
▁fr	-9.24449
▁sovjetunionen	-9.24474
▁kons	-9.24508
selskap	-9.2458
▁indre	-9.24623
res	-9.24972
▁livet	-9.24989
▁skje	-9.25017
tall	-9.2507
▁1964	-9.25141
▁syd	-9.25205
ologi	-9.25271
departementet	-9.2534
▁cor	-9.25411
områder	-9.25415
▁sm	-9.25543
▁je	-9.25568
▁los	-9.25593
ana	-9.25657
dømme	-9.25688
▁bur	-9.25768
▁prosent	-9.25807
▁hæren	-9.25849
▁fl	-9.25873
▁ger	-9.25991
▁sha	-9.26107
føre	-9.26156
▁miljø	-9.26224
get	-9.26275
og	-9.26368
elser	-9.26395
▁1948	-9.26457
▁plat	-9.26487
båt	-9.26564
punkt	-9.26615
området	-9.26695
fon	-9.26732
▁sen	-9.26761
q	-9.26793
▁vokst	-9.26822
▁kat	-9.26921
pl	-9.27007
zi	-9.27171
▁bruke	-9.27189
råd	-9.27268
▁sørlige	-9.27386
rat	-9.27437
▁bedre	-9.2778
▁1940	-9.27785
▁fjerde	-9.27786
▁1983	-9.27796
▁mester	-9.2788
styre	-9.28071
▁kjøpt	-9.28274
▁fest	-9.28351
▁island	-9.2843
▁2014	-9.28461
▁sannsynlig	-9.28461
▁moh	-9.28463
▁bronse	-9.28467
fer	-9.28482
ifisert	-9.2851
▁stasjon	-9.28551
lis	-9.28555
▁jernbane	-9.28646
▁tradisjon	-9.28655
tatt	-9.28705
▁af	-9.28859
cu	-9.28971
stat	-9.29137
▁1930	-9.29158
lev	-9.2918
▁interesse	-9.29273
istisk	-9.29278
ære	-9.29493
▁christ	-9.29569
samling	-9.29715
▁asia	-9.29799
▁selskap	-9.29815
▁1989	-9.29835
▁ønsket	-9.29839
menn	-9.29898
▁samling	-9.2992
ves	-9.29922
året	-9.30003
▁arm	-9.30149
▁sal	-9.30207
▁ry	-9.30226
skip	-9.3024
▁jobb	-9.3025
▁politi	-9.30317
heter	-9.30545
▁gården	-9.30805
▁fange	-9.30838
▁krav	-9.31011
ika	-9.31028
▁merke	-9.31047
▁erstattet	-9.31088
▁1981	-9.31219
▁1973	-9.31222
▁møtte	-9.31229
▁tom	-9.31338
▁ordet	-9.31414
▁engelske	-9.31597
▁ii	-9.31655
▁lenge	-9.31736
▁stod	-9.31797
bert	-9.31928
▁gran	-9.31944
▁maria	-9.31962
øl	-9.31974
▁benyttet	-9.32025
▁vol	-9.32031
vil	-9.32128
▁slekten	-9.3216
huset	-9.32185
fabrikk	-9.32196
▁lenger	-9.32246
▁militære	-9.32259
familien	-9.32331
▁ke	-9.32389
▁område	-9.32481
we	-9.3255
▁statsminister	-9.32623
imot	-9.32628
idae	-9.32742
hl	-9.32933
▁gode	-9.32971
all	-9.33074
▁stu	-9.33178
▁tapte	-9.33193
ien	-9.33249
ført	-9.33341
ald	-9.33371
▁slo	-9.33403
▁trak	-9.3348
▁bilde	-9.33495
ct	-9.33523
▁gro	-9.33617
område	-9.33635
▁svarte	-9.339
▁samle	-9.33953
▁relativ	-9.34038
▁1975	-9.34047
▁fulgte	-9.34106
▁faren	-9.34164
▁alder	-9.34173
▁finne	-9.34254
▁mod	-9.34326
gar	-9.34369
▁nordlige	-9.34428
▁oppdaget	-9.34484
▁tall	-9.34564
60	-9.34641
▁ter	-9.34704
и	-9.34757
▁hverandre	-9.34757
▁standard	-9.34778
ografi	-9.34803
syn	-9.34859
▁regel	-9.34897
▁løp	-9.34935
▁avdeling	-9.34991
▁ledelse	-9.35082
ferd	-9.35119
▁arten	-9.3515
▁versjon	-9.35188
▁trans	-9.35188
▁styrker	-9.35368
▁studie	-9.35372
30	-9.35439
▁olje	-9.35456
è	-9.35482
▁chi	-9.35482
▁1968	-9.35494
navn	-9.35513
▁oppnå	-9.35514
▁likevel	-9.35528
lar	-9.35647
▁sogn	-9.35666
stilt	-9.35671
▁sammenheng	-9.35689
system	-9.35721
▁hvit	-9.35748
krigen	-9.35778
▁koloni	-9.35784
▁grand	-9.35833
bygg	-9.35855
▁boken	-9.35907
▁finner	-9.3593
▁etterhvert	-9.36211
▁kroppen	-9.36216
▁1976	-9.36225
grunn	-9.36288
bedrift	-9.36386
king	-9.36454
▁representant	-9.36472
▁tegn	-9.36525
ari	-9.36527
▁kampen	-9.36619
skog	-9.36735
▁latin	-9.36944
▁don	-9.36958
▁cup	-9.37035
ben	-9.37052
asjoner	-9.37082
▁grensen	-9.37106
anlegg	-9.37153
▁lær	-9.37302
▁overtok	-9.37325
▁satte	-9.37362
ale	-9.37405
▁sta	-9.37445
ider	-9.37499
▁sterk	-9.37507
hy	-9.37636
jør	-9.37647
▁len	-9.37685
▁1924	-9.37695
▁2015	-9.37708
▁vår	-9.37882
språk	-9.37901
▁sel	-9.37927
▁funksjon	-9.38039
7	-9.38061
enes	-9.38073
▁unge	-9.38201
▁studerte	-9.38223
▁dra	-9.38291
▁nu	-9.38361
▁størrelse	-9.38363
▁sc	-9.38412
▁spesial	-9.38434
▁mon	-9.38454
▁endret	-9.38482
▁natt	-9.38676
▁carl	-9.3876
ms	-9.38763
▁mis	-9.38797
▁super	-9.38868
▁bill	-9.38875
▁ob	-9.38904
▁leve	-9.38954
▁miste	-9.38983
▁sø	-9.39095
▁øverst	-9.39186
▁lengre	-9.39187
▁city	-9.39239
▁valgte	-9.39296
itz	-9.39302
▁drift	-9.39316
▁midten	-9.39318
▁skipet	-9.39382
▁finland	-9.394
▁nrk	-9.39418
▁nivå	-9.39448
▁lengde	-9.39524
▁hundre	-9.39566
xi	-9.39734
▁iii	-9.39747
▁åpen	-9.39781
finale	-9.39952
▁ci	-9.39962
▁bodde	-9.40038
66	-9.40053
systemet	-9.40139
▁gen	-9.40187
folk	-9.40309
▁valget	-9.4036
▁høyere	-9.40368
▁hopp	-9.40378
▁stjerne	-9.40388
▁høsten	-9.40579
▁australia	-9.40707
▁thomas	-9.40707
▁mc	-9.40819
▁bank	-9.40856
hund	-9.40893
▁brukte	-9.40938
ita	-9.41084
▁katolske	-9.41109
▁klasse	-9.41182
▁sky	-9.4128
af	-9.41378
▁hvilke	-9.41477
▁1967	-9.41486
▁1978	-9.41487
▁1982	-9.41489
▁union	-9.41548
ial	-9.4156
asje	-9.41663
▁hal	-9.41679
▁japansk	-9.41695
▁vestlige	-9.41703
▁skrift	-9.41735
rådet	-9.41766
▁historien	-9.41838
▁mulighet	-9.41842
▁lege	-9.4187
rom	-9.41906
▁kraftverk	-9.42065
▁delvis	-9.42072
senter	-9.42159
port	-9.4217
▁punkt	-9.42186
ann	-9.42217
med	-9.4225
▁voksne	-9.42251
▁løs	-9.42272
▁sende	-9.4237
▁stemme	-9.42384
kast	-9.42389
▁oppført	-9.42434
▁design	-9.425
nings	-9.42545
blad	-9.4255
havet	-9.42561
pol	-9.42596
alder	-9.42616
▁ve	-9.42681
▁lin	-9.42703
stasjon	-9.42722
lighet	-9.4276
▁københavn	-9.43032
▁university	-9.43035
▁fylkesvei	-9.4304
▁anlegget	-9.43042
▁1979	-9.43044
▁ball	-9.43141
nett	-9.4316
▁havet	-9.43232
▁mur	-9.43318
pris	-9.43379
▁hit	-9.43492
▁skrive	-9.43492
▁kunstner	-9.43576
▁rike	-9.43632
▁dis	-9.4365
▁sh	-9.43762
▁felt	-9.43765
▁informasjon	-9.4382
▁oppkalt	-9.43824
▁raskt	-9.43833
▁fjorden	-9.43867
▁ul	-9.439
▁samlet	-9.43906
▁eier	-9.43926
▁regn	-9.43963
ze	-9.44037
album	-9.44106
▁sentrale	-9.44125
kraft	-9.44183
lett	-9.44198
▁retning	-9.44208
▁400	-9.44223
skapet	-9.4433
▁ana	-9.44365
▁ev	-9.44376
▁wal	-9.44429
▁bøker	-9.44438
gra	-9.44443
▁port	-9.44448
▁spania	-9.44614
▁1936	-9.44628
▁skilt	-9.44766
▁formel	-9.44777
▁tradisjonell	-9.44806
▁gård	-9.44865
▁olav	-9.44891
▁linje	-9.44936
sjef	-9.44962
▁personlig	-9.44974
▁egypt	-9.44989
▁dyp	-9.4504
▁can	-9.45137
▁soldater	-9.45257
ich	-9.45406
▁1974	-9.45413
▁2017	-9.45428
▁1971	-9.45429
navnet	-9.45445
trykk	-9.4574
▁totalt	-9.45749
▁ex	-9.45826
▁gl	-9.45868
▁trykk	-9.45881
stil	-9.45884
▁inter	-9.45909
arter	-9.4591
bli	-9.45916
▁stre	-9.45948
▁hør	-9.4603
park	-9.46193
▁sikre	-9.46228
▁stavanger	-9.46229
▁1972	-9.46233
▁brann	-9.46234
▁vist	-9.46321
▁høyde	-9.46338
▁hertug	-9.46436
formet	-9.4646
▁vold	-9.46462
▁mø	-9.4685
▁ac	-9.46903
▁polen	-9.46979
▁skjedde	-9.47051
▁kors	-9.47054
▁fla	-9.47062
tsj	-9.47068
▁jon	-9.47079
80	-9.47095
▁svart	-9.47111
▁region	-9.47129
▁arkitekt	-9.47145
▁måneder	-9.47206
▁artene	-9.47224
▁tung	-9.47227
ekte	-9.47264
tårn	-9.47278
▁flat	-9.47299
▁feil	-9.47301
rud	-9.47316
▁bal	-9.47321
lv	-9.47356
▁grupper	-9.47443
▁lære	-9.47596
▁lars	-9.47627
▁nederland	-9.47711
▁års	-9.47765
о	-9.4785
▁you	-9.47854
▁fremdeles	-9.47875
▁ytre	-9.47924
▁opprinnelige	-9.47925
▁økonomisk	-9.47947
▁skjer	-9.48208
▁vik	-9.48383
▁hall	-9.48415
69	-9.48444
▁ky	-9.48571
komme	-9.48592
up	-9.48616
▁befolkning	-9.48786
▁stille	-9.4879
▁politikk	-9.48828
mat	-9.48839
▁handling	-9.48892
ör	-9.48897
▁utvikle	-9.48897
ark	-9.48916
▁sterke	-9.48978
bær	-9.49237
▁hest	-9.49267
cia	-9.49385
37	-9.49488
▁kontakt	-9.49515
▁nordvest	-9.49518
magasin	-9.49525
▁1969	-9.49531
▁tett	-9.4954
▁israel	-9.49563
▁70	-9.49571
▁nåværende	-9.496
trolig	-9.49611
bygging	-9.49637
▁bør	-9.4965
▁athen	-9.49733
▁besøk	-9.49778
▁hovedstaden	-9.49866
middel	-9.49938
▁dia	-9.49981
▁skape	-9.50175
last	-9.50207
▁debut	-9.50264
▁romerske	-9.50294
▁virksomhet	-9.50341
▁trøndelag	-9.50353
virkning	-9.50355
▁david	-9.50357
▁fot	-9.50359
▁fotballspiller	-9.50384
▁motstand	-9.504
sku	-9.5042
▁plate	-9.50497
iver	-9.50498
forbund	-9.50511
▁pla	-9.50517
holm	-9.50552
▁rik	-9.50603
fag	-9.5085
tis	-9.50877
su	-9.50956
▁forsker	-9.50962
full	-9.51015
▁80	-9.51031
▁sju	-9.51078
▁jern	-9.51125
▁sykdom	-9.51179
▁utdannet	-9.512
▁1952	-9.51213
▁1977	-9.51214
▁egentlig	-9.51229
▁flagg	-9.51229
▁stortinget	-9.51239
▁privat	-9.51249
støt	-9.51363
aksjon	-9.51409
▁pass	-9.5153
mannen	-9.51584
▁museum	-9.5167
fisk	-9.51679
▁slå	-9.51679
loven	-9.5175
bra	-9.51781
▁reform	-9.51805
▁karriere	-9.51821
gruppen	-9.51869
▁følger	-9.51974
▁grønn	-9.52046
▁1966	-9.52075
▁stadig	-9.5215
▁kroner	-9.52206
▁brev	-9.52235
▁musiker	-9.52295
lik	-9.52323
▁utført	-9.52324
byen	-9.52372
▁årsak	-9.52445
▁posisjon	-9.52449
▁stiftet	-9.52674
▁xi	-9.52739
ð	-9.52917
н	-9.52917
▁dronning	-9.52921
arbeid	-9.52936
▁mac	-9.5297
▁bjørn	-9.52974
▁alltid	-9.52976
▁høyt	-9.52977
▁kol	-9.53103
▁nådd	-9.53135
ini	-9.53232
▁reg	-9.53257
▁viktige	-9.53278
▁real	-9.53375
kamp	-9.53435
▁teori	-9.53447
ite	-9.53475
standen	-9.53504
▁verdi	-9.53561
▁type	-9.53676
ix	-9.53725
▁symbol	-9.53786
▁bronsemedalje	-9.53792
holdt	-9.53796
▁klarte	-9.53856
▁solgt	-9.53905
pro	-9.53931
▁operasjon	-9.53976
▁økonomi	-9.54074
▁kyst	-9.54248
▁prøve	-9.54268
▁strid	-9.54341
▁ass	-9.54384
▁kryss	-9.54411
▁ledd	-9.54456
▁bolig	-9.54459
▁klubb	-9.54571
▁østerrike	-9.54665
▁1962	-9.5468
▁1939	-9.5468
▁hår	-9.54693
stra	-9.54693
▁økonomiske	-9.5471
▁spi	-9.54788
▁tanke	-9.54919
▁artist	-9.54935
▁sig	-9.54993
liv	-9.55007
parten	-9.5501
▁gje	-9.55021
▁øy	-9.55026
gangen	-9.55067
pel	-9.55095
▁wo	-9.55095
styrke	-9.55184
▁skyld	-9.55229
▁produkt	-9.55251
iz	-9.55257
▁kir	-9.55272
▁slike	-9.55278
▁maskin	-9.55421
▁ten	-9.55502
ā	-9.55548
▁skottland	-9.55549
▁plassert	-9.55602
55	-9.55643
▁mm	-9.55681
the	-9.55739
▁hodet	-9.55752
dagen	-9.55794
▁prisen	-9.55796
dals	-9.55888
alt	-9.559
▁utdanning	-9.55947
gikk	-9.56054
produksjon	-9.56063
mesterskapet	-9.56079
▁hvite	-9.56124
▁gass	-9.56134
▁grense	-9.56193
▁sub	-9.56212
▁para	-9.56242
▁fører	-9.56329
▁offisiel	-9.56349
▁spesiell	-9.56442
drag	-9.56518
10	-9.56525
sjonen	-9.56531
▁offisielle	-9.56534
felt	-9.56569
lser	-9.56635
▁regjering	-9.56666
▁italiensk	-9.56678
▁utviklingen	-9.56745
▁kilde	-9.5681
på	-9.56938
tjeneste	-9.56951
ford	-9.56978
ledes	-9.57063
retning	-9.57077
▁årlig	-9.5716
▁blod	-9.57262
▁regnet	-9.57284
▁stand	-9.57328
▁1932	-9.57354
▁ordfører	-9.57361
▁modell	-9.57389
▁søster	-9.57391
▁martin	-9.57406
▁klima	-9.5745
▁heter	-9.57485
pen	-9.57497
hav	-9.57566
▁plante	-9.57632
▁liga	-9.57724
▁us	-9.57859
▁kra	-9.57863
▁fil	-9.57884
▁reiste	-9.57931
▁mel	-9.57963
43	-9.58043
64	-9.58093
manns	-9.58103
▁kardinal	-9.58251
▁representere	-9.58251
▁bakgrunn	-9.58294
▁omfattende	-9.58298
▁sluttet	-9.58372
▁dy	-9.58416
▁johannes	-9.58428
ani	-9.58483
▁redaktør	-9.58493
▁smal	-9.5856
så	-9.58633
abel	-9.58694
▁35	-9.58714
▁listen	-9.58854
ologisk	-9.58889
elva	-9.58896
rop	-9.58917
▁sette	-9.59046
▁ep	-9.59047
▁runde	-9.59133
▁1956	-9.59169
▁fokus	-9.59171
▁ekteskap	-9.59174
chi	-9.59205
▁variant	-9.59235
midler	-9.59613
▁dal	-9.59617
▁col	-9.59631
20	-9.59635
way	-9.59644
86	-9.59692
▁avis	-9.59694
sal	-9.59723
strøm	-9.59752
nyin	-9.59762
▁ting	-9.59765
▁trafikk	-9.59912
39	-9.59962
ib	-9.59973
▁egg	-9.59976
▁selvstendig	-9.60095
▁melodi	-9.60096
▁forteller	-9.60098
ansk	-9.60101
▁1946	-9.60112
▁son	-9.60224
▁ansatte	-9.60264
ban	-9.60304
▁grå	-9.60387
cc	-9.60515
▁nasjonale	-9.60544
▁aktivitet	-9.60561
▁kro	-9.60579
▁idretts	-9.60715
hall	-9.60725
litt	-9.6078
▁italienske	-9.60782
vingen	-9.60815
▁preget	-9.60819
ap	-9.60878
minister	-9.60936
87	-9.61121
stru	-9.61123
▁problem	-9.61141
kra	-9.61163
▁klart	-9.61225
stol	-9.6125
våg	-9.61251
▁ven	-9.61282
▁bern	-9.61318
of	-9.61391
▁effekt	-9.61413
71	-9.61519
rike	-9.61602
▁venn	-9.61677
nivå	-9.61716
▁borg	-9.61729
▁teksten	-9.61776
band	-9.61844
▁uavhengig	-9.61853
▁tilsvarende	-9.61973
▁1963	-9.61988
▁skifte	-9.62029
▁angeles	-9.62045
▁stilling	-9.62144
▁anne	-9.62201
▁spre	-9.62226
▁hente	-9.62245
lov	-9.62277
▁virke	-9.62287
don	-9.62337
gjort	-9.62451
▁drev	-9.62542
skrift	-9.626
haug	-9.62684
ath	-9.62812
lekt	-9.62836
36	-9.62839
▁mari	-9.62843
▁fengsel	-9.62925
▁publisert	-9.62925
▁nærmest	-9.62928
ão	-9.62931
▁middelalderen	-9.62954
▁gjennomført	-9.63008
46	-9.63082
▁oppgave	-9.63083
▁motsetning	-9.63167
▁varme	-9.63176
▁stift	-9.63223
▁erik	-9.63254
▁krets	-9.63286
bet	-9.63333
▁øke	-9.63482
bilde	-9.63498
▁sil	-9.63532
▁kongens	-9.63536
76	-9.63611
▁naturlig	-9.63645
▁daglig	-9.63835
▁richard	-9.63887
▁1949	-9.63902
▁war	-9.63928
▁enten	-9.6393
▁sovjetisk	-9.6394
▁knut	-9.64007
egnet	-9.64105
▁vis	-9.64138
▁distrikt	-9.64208
▁bad	-9.6428
gjorde	-9.64303
qu	-9.6437
▁sund	-9.6442
fors	-9.64441
▁ung	-9.64456
▁adel	-9.64462
▁offentlige	-9.64483
stått	-9.64528
61	-9.6454
organisasjon	-9.64552
▁rose	-9.64689
plat	-9.64694
program	-9.64766
▁beskytte	-9.64771
▁rot	-9.64848
▁ytterligere	-9.64857
▁1928	-9.64869
▁2016	-9.64886
▁kommun	-9.64918
▁hær	-9.64943
▁renner	-9.64991
▁300	-9.65006
▁formann	-9.65007
▁gått	-9.6501
deling	-9.65041
tere	-9.65087
65	-9.65123
dor	-9.65123
▁bygningen	-9.65175
▁time	-9.6518
løpet	-9.65204
▁anders	-9.65315
▁sjef	-9.65448
våpen	-9.65548
▁odd	-9.65575
virke	-9.65603
▁plassering	-9.65725
eringen	-9.65763
▁kje	-9.65772
▁grenser	-9.65818
▁1947	-9.65838
▁beijing	-9.65838
▁folketelling	-9.65838
skolen	-9.65872
▁kapit	-9.65903
ød	-9.65926
▁1500	-9.65928
▁rollen	-9.66059
▁kull	-9.66078
▁thor	-9.66171
▁george	-9.66529
kraftverk	-9.66585
▁cu	-9.66683
plasser	-9.66728
ive	-9.66776
▁finans	-9.66785
▁anta	-9.66801
▁gar	-9.66833
▁1944	-9.66844
▁1912	-9.66846
▁altså	-9.66857
▁dom	-9.66887
62	-9.66933
bunn	-9.67069
heng	-9.67179
▁forsknings	-9.67184
▁senter	-9.67213
▁gutt	-9.67307
▁styrkene	-9.67348
▁behandling	-9.67397
slaget	-9.67479
pan	-9.67528
▁røde	-9.67579
▁dam	-9.67787
▁profesjonell	-9.67828
▁vunnet	-9.67828
▁kristne	-9.67829
▁1942	-9.67835
ås	-9.67858
▁musikkalbum	-9.67863
▁het	-9.67978
▁sikker	-9.67979
ding	-9.68069
▁falt	-9.68092
▁tunnel	-9.68141
▁folkerepublikk	-9.68143
▁za	-9.68148
▁test	-9.68149
fører	-9.68152
12	-9.68166
▁transport	-9.68199
▁fjellet	-9.68406
▁bø	-9.68419
▁riket	-9.68426
▁lek	-9.68512
▁distriktet	-9.68554
▁åpne	-9.68558
82	-9.68561
▁femte	-9.68607
▁pop	-9.68661
▁revolusjon	-9.6867
ål	-9.68689
oc	-9.68699
yk	-9.68702
▁single	-9.6871
grav	-9.68722
jern	-9.68762
▁bygning	-9.68778
▁sur	-9.68819
е	-9.68835
▁snakke	-9.6885
kle	-9.68879
▁black	-9.68885
eres	-9.68886
gjøre	-9.68957
▁veg	-9.68989
▁slott	-9.68999
▁nabo	-9.69086
▁res	-9.69093
hov	-9.69125
▁mørke	-9.6913
iet	-9.69184
svik	-9.69261
spor	-9.6938
▁fordel	-9.69392
▁programmet	-9.69424
messig	-9.6944
grense	-9.69575
▁vind	-9.69588
gruppe	-9.6959
88	-9.69684
▁1941	-9.69858
▁religiøs	-9.69858
▁pol	-9.69872
▁she	-9.69905
elige	-9.69921
▁eiendom	-9.69928
▁dan	-9.69964
▁nevnt	-9.70048
bru	-9.70062
▁tusen	-9.70096
▁program	-9.70111
arm	-9.70128
▁områdene	-9.70129
▁eid	-9.70159
linje	-9.70167
▁sku	-9.70188
▁polsk	-9.70188
▁lind	-9.7025
▁bind	-9.70281
sty	-9.70288
org	-9.70326
ain	-9.70356
▁irland	-9.70419
▁hei	-9.70428
▁tropp	-9.70563
▁forsvar	-9.7061
▁pra	-9.70612
▁korea	-9.70698
▁båt	-9.70706
handling	-9.70738
▁air	-9.70744
▁organisasjonen	-9.70776
▁nærings	-9.70829
▁konflikt	-9.70889
▁klassisk	-9.70891
▁journalist	-9.70891
▁bevart	-9.7091
▁betegne	-9.70917
▁festival	-9.7093
sam	-9.70977
kin	-9.70996
▁vitenskapelig	-9.71016
▁bane	-9.71106
▁stykke	-9.71109
▁regi	-9.7111
nis	-9.71208
ola	-9.71238
▁mw	-9.71244
▁byer	-9.71269
▁stoppe	-9.71361
▁ask	-9.71486
aktig	-9.71602
▁turneringen	-9.71636
nik	-9.71665
▁meg	-9.7173
▁total	-9.71764
▁hjelpe	-9.71793
▁bygg	-9.71852
lia	-9.71865
▁opprinnelse	-9.71931
▁tilgjengelig	-9.71931
▁national	-9.71931
skjold	-9.71932
▁tidspunkt	-9.71941
▁1965	-9.71951
▁jordbruk	-9.71966
▁turn	-9.71974
▁omtalt	-9.71981
▁bibel	-9.7199
▁frank	-9.72004
▁albert	-9.72021
▁scene	-9.7205
organ	-9.7208
▁debutert	-9.72106
fart	-9.72175
cy	-9.72226
gle	-9.72246
▁offiser	-9.72252
▁metal	-9.7233
▁begrepet	-9.72336
ball	-9.72372
gan	-9.7245
▁un	-9.72531
▁rute	-9.7255
ativ	-9.72557
gje	-9.72573
▁jorden	-9.72667
løse	-9.72677
▁lan	-9.72737
rich	-9.7276
▁data	-9.7276
ved	-9.72772
▁utvidet	-9.72802
▁met	-9.72819
▁kontor	-9.7283
slutning	-9.72871
bud	-9.72917
▁kanal	-9.72933
▁øvrig	-9.72984
▁betrakte	-9.72985
▁1958	-9.72999
▁erklært	-9.73011
▁jarl	-9.73028
▁rad	-9.73123
▁innført	-9.73229
stykke	-9.73263
▁spørsmål	-9.73319
68	-9.73331
▁forskning	-9.73402
▁direktør	-9.73415
▁trener	-9.73447
▁rang	-9.73554
▁90	-9.73672
▁fro	-9.73673
tog	-9.7368
▁kreve	-9.73695
fest	-9.73696
iti	-9.73877
▁front	-9.73882
▁metall	-9.73941
▁figur	-9.73968
▁ishockey	-9.74047
▁nødvendig	-9.74048
▁lund	-9.74053
▁1955	-9.74069
▁ukjent	-9.74082
kh	-9.74087
▁skatte	-9.74089
▁høye	-9.7412
▁tredjeplass	-9.74131
▁kjerne	-9.74151
▁tema	-9.74221
▁republikken	-9.74231
▁rykke	-9.74232
▁jakt	-9.74245
57	-9.74246
▁sports	-9.74308
▁sykehus	-9.74325
▁vinner	-9.74331
▁aa	-9.74356
▁forstå	-9.7438
▁undersøkelse	-9.74418
arbeider	-9.74422
▁gru	-9.74449
trekning	-9.74449
omme	-9.74458
▁bydel	-9.7448
▁problemer	-9.745
▁ram	-9.74751
▁avisen	-9.74753
▁stammer	-9.74778
gift	-9.74946
▁kysten	-9.74955
▁øyene	-9.74993
▁stan	-9.75008
▁original	-9.75123
▁louis	-9.75123
▁typisk	-9.75125
partiet	-9.752
▁aks	-9.75211
▁jesu	-9.75246
shi	-9.75324
verket	-9.75346
tta	-9.75386
▁kongelige	-9.754
▁tha	-9.75412
85	-9.75449
▁minutter	-9.75495
▁lot	-9.75506
selskapet	-9.75519
▁jobbet	-9.75596
▁metode	-9.75698
▁bonde	-9.7572
drift	-9.75766
▁oversatt	-9.7579
roll	-9.75849
ugh	-9.75855
▁gjelder	-9.75876
▁phil	-9.75951
ther	-9.75982
▁forsvars	-9.76023
▁utstyr	-9.76024
▁not	-9.76043
▁internasjonal	-9.76091
▁bel	-9.76104
ild	-9.76153
▁jødisk	-9.7621
▁institutt	-9.76217
▁base	-9.76241
▁huset	-9.76278
gne	-9.76295
▁vanlige	-9.76628
æl	-9.76665
▁aller	-9.76665
ille	-9.76766
▁andreplass	-9.76782
▁kost	-9.76788
▁skips	-9.76819
▁støttet	-9.76861
ire	-9.76892
▁kas	-9.76917
▁elev	-9.76944
▁toppen	-9.77117
▁bidra	-9.77152
▁shi	-9.77209
▁salg	-9.77262
▁utbredt	-9.77309
▁flertall	-9.77309
gren	-9.77315
▁øvre	-9.77316
rsom	-9.7742
▁korte	-9.77446
prisen	-9.77488
▁rapport	-9.77559
▁kam	-9.77609
lede	-9.77703
▁masse	-9.77745
rum	-9.77767
ara	-9.77823
▁dokument	-9.77832
ub	-9.77855
▁sent	-9.77874
rev	-9.77878
5	-9.77878
evne	-9.7789
▁kart	-9.77894
▁ran	-9.77909
▁bytte	-9.78005
▁synes	-9.78087
▁rygg	-9.78088
▁produsent	-9.78162
▁press	-9.78194
▁måned	-9.78198
▁utover	-9.78229
▁sveits	-9.78281
mund	-9.7829
▁just	-9.78329
▁west	-9.78365
▁oppdag	-9.78383
rød	-9.78391
jon	-9.78395
▁alternativ	-9.7842
▁mexico	-9.7842
▁sommerfugl	-9.78441
72	-9.78456
følgende	-9.78523
▁james	-9.7853
els	-9.78545
▁syk	-9.78555
ville	-9.78583
▁unntak	-9.78637
49	-9.78728
▁besto	-9.78783
▁forsøkt	-9.78861
ish	-9.78865
▁populær	-9.78928
▁king	-9.79013
▁akademi	-9.79109
period	-9.79119
zo	-9.79138
▁die	-9.79207
▁innsjø	-9.79241
▁handel	-9.79247
44	-9.79323
▁passer	-9.7936
historie	-9.79401
hånd	-9.79405
▁hj	-9.79512
az	-9.79513
øyene	-9.79514
▁selve	-9.79515
▁michael	-9.79543
▁charles	-9.79544
▁komponist	-9.79544
▁bokstav	-9.79545
▁sistnevnte	-9.79545
▁ansatt	-9.79552
▁holder	-9.79556
▁1957	-9.79563
▁1961	-9.79565
utgivelse	-9.79573
▁hed	-9.79594
snitt	-9.79622
har	-9.79629
▁konkurransen	-9.79653
linjen	-9.79675
zhou	-9.79676
▁elve	-9.79706
parti	-9.79745
▁oppdrag	-9.79755
▁angrepet	-9.79786
fat	-9.79841
▁historiker	-9.79858
▁kampene	-9.79896
▁fordelt	-9.79949
▁flyplass	-9.79966
▁anse	-9.80038
bas	-9.80063
▁erobret	-9.80075
fær	-9.80097
▁landskapet	-9.80099
side	-9.80105
▁temperatur	-9.80107
▁østlig	-9.80113
63	-9.80137
▁dør	-9.80138
dra	-9.80144
rene	-9.80151
low	-9.80214
▁danne	-9.80306
dikt	-9.80318
▁ordenen	-9.80485
▁aust	-9.80488
▁solgte	-9.80534
prosjekt	-9.80545
saker	-9.80549
▁kanon	-9.8055
▁fugle	-9.80572
sekretær	-9.80666
hard	-9.80673
▁friidrett	-9.80675
▁erkebiskop	-9.8068
▁praksis	-9.8068
▁stilt	-9.8068
▁cirka	-9.8068
▁allierte	-9.80681
▁brøt	-9.80682
▁1918	-9.80694
tic	-9.8071
▁primær	-9.80734
▁stasjonen	-9.80744
▁straffe	-9.80766
▁temp	-9.8078
▁trekk	-9.80789
poli	-9.80814
▁nordisk	-9.80832
▁georg	-9.80864
▁strand	-9.80895
gul	-9.80942
▁populære	-9.8095
▁uker	-9.80963
▁status	-9.80998
bri	-9.81021
▁saken	-9.81056
73	-9.81127
▁bla	-9.8117
▁tettsted	-9.8122
▁blo	-9.81318
▁tettstedet	-9.81377
stri	-9.81397
77	-9.81413
mid	-9.81535
▁jens	-9.81653
▁danner	-9.81755
▁hud	-9.81778
▁california	-9.81829
▁inspirert	-9.81829
▁arabisk	-9.8183
▁kunnskap	-9.8183
▁fungere	-9.81833
▁dialekt	-9.81839
▁markeds	-9.81843
▁1919	-9.81847
▁uttalt	-9.81921
▁lyn	-9.81927
▁gjenopp	-9.81944
▁landbruk	-9.81957
▁1700	-9.81959
kritiker	-9.81967
gard	-9.82015
▁ap	-9.82044
▁bosatt	-9.82051
ance	-9.82083
▁foss	-9.82318
vitenskap	-9.82331
07	-9.82343
▁mad	-9.82346
52	-9.82356
▁økt	-9.82418
▁samfunnet	-9.82447
▁nr	-9.82498
▁samfunns	-9.82537
lly	-9.82552
▁cap	-9.82586
91	-9.82649
▁konkurranse	-9.82654
fang	-9.82897
lus	-9.82899
▁tale	-9.82922
▁univers	-9.82966
▁innflytelse	-9.82987
▁utgangspunkt	-9.82992
▁league	-9.82992
▁publikum	-9.82992
▁world	-9.82992
▁jacob	-9.82993
▁oversikt	-9.82993
▁tydelig	-9.82996
▁1935	-9.83008
▁hustru	-9.83019
▁kjøre	-9.83044
▁nærheten	-9.83072
▁pet	-9.8315
▁utdannelse	-9.83151
▁levde	-9.83213
▁helge	-9.83228
▁prins	-9.83259
skudd	-9.83282
▁junior	-9.83322
stoff	-9.83404
cent	-9.83508
▁opphold	-9.83517
▁rekord	-9.83548
▁bidrag	-9.83551
▁bay	-9.83554
▁dømt	-9.83578
70	-9.83606
▁sau	-9.83647
▁leir	-9.83653
16	-9.83677
skriv	-9.83695
hm	-9.83705
▁ban	-9.83745
▁stav	-9.83751
▁sendte	-9.83766
▁forsvaret	-9.83776
▁nils	-9.83929
▁1000	-9.83963
stedet	-9.84067
isten	-9.84068
kjenne	-9.84099
54	-9.84127
lend	-9.84162
▁norrøn	-9.84171
▁lengst	-9.84174
▁800	-9.84191
gav	-9.84196
▁organisert	-9.84215
▁kristen	-9.8423
▁song	-9.8427
▁anton	-9.84298
▁eg	-9.84332
vinner	-9.84391
nor	-9.84406
▁gjenstand	-9.84455
▁skille	-9.84469
stripe	-9.84524
▁tilbud	-9.84641
▁lage	-9.84649
▁endelig	-9.84659
▁avtale	-9.84667
▁kontrakt	-9.84774
▁bakken	-9.84822
▁materiale	-9.84836
▁fremme	-9.84847
▁elv	-9.84888
▁vet	-9.84914
serien	-9.84937
▁kjenne	-9.8495
ram	-9.84996
▁filmer	-9.85006
▁hovedstad	-9.85115
▁student	-9.85224
▁south	-9.85256
▁benyttes	-9.8526
▁verne	-9.85262
bjørn	-9.85286
▁hunnen	-9.85326
▁administrativ	-9.85359
▁positiv	-9.85359
▁religion	-9.85359
▁situasjon	-9.8536
▁snart	-9.85363
istene	-9.8537
møte	-9.85374
valg	-9.85377
▁lansert	-9.8538
▁1943	-9.85382
▁bryst	-9.85412
▁islam	-9.85421
stall	-9.85428
▁dog	-9.85439
▁bevis	-9.85446
verdig	-9.85495
▁600	-9.85507
▁hellige	-9.85547
▁sw	-9.85548
▁cm	-9.85598
▁ekspedisjon	-9.85646
før	-9.85714
mod	-9.85733
▁sider	-9.8576
▁involvert	-9.85793
▁por	-9.85808
▁likhet	-9.85814
senteret	-9.85853
19	-9.8587
▁middel	-9.86013
▁holm	-9.86018
▁enda	-9.86134
kirke	-9.86151
▁danse	-9.86182
▁løv	-9.86228
79	-9.86259
▁domin	-9.86283
▁sørvest	-9.86417
distrikt	-9.86501
medlem	-9.8651
▁elektrisk	-9.86564
▁kongedømme	-9.86597
riet	-9.866
ordenen	-9.86616
▁vannet	-9.86638
▁deltaker	-9.86699
ual	-9.86909
feltet	-9.8693
▁bygde	-9.86938
▁lignende	-9.87024
▁vær	-9.87093
▁strekk	-9.8718
▁borger	-9.87229
83	-9.8731
▁lev	-9.87432
bare	-9.87499
lære	-9.87513
58	-9.87644
▁sir	-9.87672
mond	-9.87674
ios	-9.87679
ér	-9.8769
win	-9.87711
festival	-9.87735
▁hin	-9.87757
▁fredrik	-9.87784
▁united	-9.87784
▁sekund	-9.8779
▁1938	-9.87798
▁1921	-9.87798
▁1908	-9.878
▁fn	-9.87821
▁veldig	-9.8783
ob	-9.87833
▁hovedsak	-9.87842
▁jevn	-9.8793
▁fylkes	-9.87998
▁ungdoms	-9.88005
fo	-9.88023
▁sko	-9.88053
▁instrument	-9.88252
90	-9.88328
bank	-9.88339
gram	-9.88349
▁ført	-9.8837
▁stol	-9.88374
hal	-9.88402
▁uni	-9.88428
05	-9.88437
▁rør	-9.88438
klubb	-9.88527
fyll	-9.88559
▁dekket	-9.8857
▁vers	-9.88692
án	-9.88744
undervisning	-9.88856
▁bord	-9.8886
59	-9.88917
tun	-9.88925
bevegelsen	-9.8898
forfatter	-9.88989
▁win	-9.88994
trekk	-9.89016
▁1929	-9.89018
▁berømt	-9.89018
▁kvalifisering	-9.89018
▁teknisk	-9.89018
eksempler	-9.89018
▁yngre	-9.89018
▁himmel	-9.89019
▁län	-9.8902
▁college	-9.89021
▁faktisk	-9.89022
▁bispedømme	-9.89022
▁antenne	-9.89025
▁ridder	-9.89025
▁1951	-9.89036
▁32	-9.89059
▁dyre	-9.89068
gjør	-9.89073
under	-9.89145
hode	-9.89215
▁kaptein	-9.89219
▁nyere	-9.8928
▁pin	-9.89293
kene	-9.893
▁foruten	-9.89314
gården	-9.89384
▁medisin	-9.89416
▁oftest	-9.89432
▁teknologi	-9.89493
vekt	-9.89512
▁viking	-9.89521
▁tids	-9.89546
▁minister	-9.89549
▁bon	-9.89554
▁grev	-9.89563
▁svak	-9.89567
▁hor	-9.89613
51	-9.89683
▁virkelig	-9.89688
▁begynner	-9.89736
▁språket	-9.89767
▁harald	-9.89772
farge	-9.8983
gata	-9.89874
▁landene	-9.89924
▁munn	-9.90075
▁myr	-9.90134
samisk	-9.90135
▁tittel	-9.90144
▁finn	-9.90145
▁sti	-9.90169
▁benytte	-9.90176
myndighet	-9.90246
▁records	-9.90268
▁kjønn	-9.90268
▁ødelagt	-9.90269
▁frederik	-9.90271
▁invasjon	-9.90274
▁sølvmedalje	-9.90279
krets	-9.9028
ingeniør	-9.90284
vekst	-9.90285
▁skotsk	-9.90291
▁mun	-9.903
kunst	-9.90308
▁hell	-9.90359
visning	-9.90368
78	-9.90433
15	-9.90488
▁arne	-9.9049
▁stoff	-9.90494
ction	-9.90536
▁atom	-9.90538
▁ph	-9.9062
▁moren	-9.90721
▁kandidat	-9.90732
▁score	-9.90747
▁salt	-9.90792
▁pen	-9.90795
ura	-9.90812
▁gangen	-9.90975
06	-9.91011
▁cel	-9.91054
▁hører	-9.91068
søkte	-9.91107
▁mørk	-9.9119
▁sier	-9.91317
▁skiller	-9.91329
gått	-9.91335
▁anna	-9.91463
lim	-9.91467
▁rein	-9.91481
▁auto	-9.91509
samfunn	-9.91531
▁alvorlig	-9.91534
▁belgia	-9.91534
▁kritikk	-9.91535
▁premier	-9.91537
▁arn	-9.91539
▁finnmark	-9.91546
▁1954	-9.91553
▁1916	-9.91553
▁spa	-9.91577
▁slave	-9.91583
▁romersk	-9.91628
▁kg	-9.91675
motor	-9.91746
kirken	-9.91757
▁kapell	-9.91881
▁velge	-9.91979
que	-9.92036
enberg	-9.92066
▁folket	-9.9214
▁normal	-9.9233
▁fyr	-9.92361
▁1600	-9.9238
▁gruve	-9.92433
tha	-9.92501
▁dato	-9.92569
▁drive	-9.9263
mennene	-9.92648
▁landsby	-9.92649
▁regjerings	-9.92682
▁utføre	-9.92702
▁møter	-9.9272
▁ansett	-9.92729
▁tour	-9.92778
▁livs	-9.9279
▁fullstendig	-9.92816
▁school	-9.92816
▁vokser	-9.92817
virksomhet	-9.92833
▁vekst	-9.92838
▁snø	-9.92858
dorf	-9.92964
nz	-9.92966
▁hoff	-9.9308
98	-9.93101
▁tolv	-9.93108
35	-9.93131
rang	-9.93357
▁bass	-9.93423
sø	-9.93427
con	-9.93499
▁banen	-9.93499
▁hode	-9.93524
▁buss	-9.93537
ult	-9.93623
hel	-9.93635
▁will	-9.9364
▁vid	-9.93734
▁fal	-9.93791
▁motta	-9.93853
søk	-9.93865
delt	-9.93887
▁nan	-9.93911
▁larvene	-9.93917
sco	-9.94053
▁sportsutøvere	-9.94114
▁østerriksk	-9.94114
▁ungarn	-9.94115
▁forfatteren	-9.94118
▁medlemmene	-9.94123
▁tidsskrift	-9.94123
▁spredt	-9.9413
prosess	-9.94144
▁app	-9.94158
08	-9.94161
▁flåte	-9.94187
kjær	-9.94213
▁søke	-9.94233
høgskole	-9.94236
▁akt	-9.94245
▁ansvar	-9.94254
atet	-9.94288
gli	-9.9432
▁lau	-9.94339
▁sort	-9.94412
▁dynastiet	-9.94429
▁tråd	-9.94498
▁gy	-9.945
gelse	-9.94572
▁camp	-9.94576
▁samfunn	-9.94626
▁indisk	-9.94628
▁stig	-9.94645
▁nordland	-9.94854
▁økte	-9.94855
▁haug	-9.94886
▁mill	-9.9493
ernes	-9.94953
▁lån	-9.95043
fin	-9.95132
▁landsbyen	-9.95138
ky	-9.95184
▁tang	-9.95326
48	-9.95333
▁tele	-9.95339
▁studio	-9.95424
▁sjelden	-9.9543
teknikk	-9.9543
▁moskva	-9.9543
▁episode	-9.95431
hastighet	-9.95434
▁edvard	-9.95438
▁generasjon	-9.95439
▁1917	-9.95443
▁fullført	-9.95458
▁gjennomsnitt	-9.95501
▁hjerte	-9.95519
▁mid	-9.95523
▁leg	-9.95572
▁spansk	-9.95592
▁arv	-9.95621
▁forble	-9.95733
▁tonn	-9.95734
▁spiss	-9.95798
fugl	-9.95883
▁bryte	-9.95953
▁ris	-9.95963
▁beskrevet	-9.95973
▁star	-9.96194
▁troll	-9.96198
voll	-9.96211
▁prosjekt	-9.96216
▁avsluttet	-9.96234
▁spill	-9.96268
▁vendt	-9.96297
▁santa	-9.9633
tag	-9.9638
75	-9.96415
▁sist	-9.9646
▁uke	-9.96464
hjul	-9.96504
▁fle	-9.96506
▁grunnlegge	-9.96512
svarer	-9.96515
rukket	-9.9661
▁fødsel	-9.96763
staten	-9.96764
▁kombinasjon	-9.96764
▁1953	-9.96782
▁1959	-9.96783
▁skaffe	-9.96784
▁1910	-9.96791
▁saint	-9.96797
kultur	-9.9684
▁armé	-9.96848
post	-9.96908
▁bosetning	-9.9691
▁fyrst	-9.96931
▁uavhengighet	-9.96956
vig	-9.9696
▁vä	-9.96964
▁kha	-9.97095
▁slett	-9.97158
▁klo	-9.97169
▁malt	-9.97171
▁resultatet	-9.97185
▁sønnen	-9.97215
▁øyer	-9.97215
▁åpning	-9.97245
▁driver	-9.9725
fylt	-9.97259
kysten	-9.97265
lund	-9.97293
stille	-9.97307
veis	-9.97374
▁tromsø	-9.97378
ledning	-9.97426
▁wei	-9.97474
shire	-9.97777
▁turist	-9.97788
▁presse	-9.97807
▁trekke	-9.97866
▁ving	-9.97895
84	-9.97937
▁overgang	-9.9803
▁ek	-9.98033
▁jazz	-9.98115
▁ube	-9.98154
▁båten	-9.98162
▁tilhenger	-9.98182
skipet	-9.98197
53	-9.98203
96	-9.9821
▁riksvei	-9.98213
▁nedlagt	-9.98279
musikk	-9.98299
▁larven	-9.98326
▁formål	-9.98447
▁live	-9.98466
fjell	-9.985
▁timer	-9.98511
▁beseiret	-9.98517
▁flu	-9.98628
▁plu	-9.98661
▁bølge	-9.98694
▁studier	-9.98794
▁may	-9.9881
▁yu	-9.98828
▁struktur	-9.98972
øst	-9.98988
anda	-9.99012
kka	-9.99056
▁eli	-9.99094
jev	-9.9914
▁utvalg	-9.99175
ano	-9.99233
▁fylket	-9.99245
▁45	-9.9936
titu	-9.99449
▁vietnam	-9.99483
▁edward	-9.99485
▁anerkjent	-9.99485
▁blomster	-9.99485
▁nærmere	-9.99491
▁1933	-9.99499
kanten	-9.99557
▁planlagt	-9.99564
figur	-9.99593
▁forskjell	-9.99612
11	-9.9963
wood	-9.99642
▁unngå	-9.99699
▁arve	-9.99723
▁lø	-9.99743
▁gjeste	-9.99786
qui	-9.99795
99	-9.99835
bygning	-9.99835
sport	-9.99979
ence	-10.0006
hn	-10.0006
▁north	-10.0008
▁festning	-10.0014
▁betegnelsen	-10.0033
▁verket	-10.0036
▁amt	-10.0036
▁ferd	-10.004
▁penger	-10.005
▁omfatte	-10.0055
▁marine	-10.0056
flu	-10.0065
▁våren	-10.0075
▁rei	-10.0082
▁ankom	-10.0083
▁opphav	-10.0085
▁kone	-10.0086
à	-10.0087
▁nominert	-10.0087
▁hurtig	-10.0087
▁redusert	-10.0088
▁royal	-10.0088
▁registrert	-10.0088
▁eksistert	-10.0088
▁1934	-10.0089
▁protest	-10.009
▁etterfølger	-10.009
▁tegnet	-10.009
89	-10.0092
mand	-10.0093
▁arrestert	-10.0094
▁show	-10.0094
▁mobil	-10.01
field	-10.01
▁overflate	-10.0103
▁behov	-10.0104
vatnet	-10.0118
▁spillet	-10.0118
▁produsere	-10.0128
▁bygninger	-10.0133
92	-10.0136
▁dekker	-10.0165
▁ungdom	-10.0165
▁makten	-10.0171
▁sete	-10.0173
arbeidet	-10.0174
mur	-10.0176
ori	-10.0204
kop	-10.021
ott	-10.0217
▁horn	-10.0219
▁klokke	-10.0221
lid	-10.0221
▁installert	-10.0228
▁wilhelm	-10.0228
▁passasjer	-10.0228
▁award	-10.0228
kommunikasjon	-10.0229
▁hotell	-10.0229
▁1923	-10.023
▁blue	-10.0231
▁hellas	-10.0236
▁inkluderer	-10.0242
▁gla	-10.0253
▁harry	-10.0266
forhold	-10.0266
▁borgerkrig	-10.0269
▁bydelen	-10.027
▁plasser	-10.0272
▁fortalt	-10.0276
▁bibliotek	-10.0277
▁gau	-10.0281
▁bånd	-10.029
18	-10.0296
▁bakkroppen	-10.0301
oni	-10.0317
▁glo	-10.0323
▁penge	-10.0325
delen	-10.0325
kov	-10.0337
▁bol	-10.0343
▁nes	-10.0343
skyting	-10.0347
steder	-10.035
▁vitenskap	-10.0357
▁private	-10.0363
byrå	-10.037
▁international	-10.0371
▁kategori	-10.0371
▁kombinert	-10.0371
▁begrenset	-10.0371
▁stadion	-10.0371
folket	-10.0372
▁1927	-10.0372
▁pensjon	-10.0375
▁grønland	-10.0381
▁byene	-10.0381
medalje	-10.0383
halvøya	-10.0387
hjem	-10.039
▁kari	-10.0404
67	-10.0405
▁lavere	-10.0405
▁bestod	-10.0406
▁innsats	-10.0415
32	-10.0416
▁mary	-10.0417
25	-10.0417
▁ønske	-10.0418
▁sivil	-10.0421
bach	-10.0427
▁menighet	-10.043
▁avhengig	-10.0431
94	-10.0446
spring	-10.0447
type	-10.0455
▁rund	-10.0468
handler	-10.0473
▁scor	-10.0481
serie	-10.0483
klasse	-10.0485
person	-10.0486
▁endringer	-10.0487
▁bein	-10.0488
▁mik	-10.049
▁handler	-10.05
▁løper	-10.0506
▁nam	-10.0512
▁etterfulgt	-10.0516
▁arrangere	-10.0516
konstruksjon	-10.0516
▁oscar	-10.0516
kreis	-10.0518
▁invest	-10.0519
▁føde	-10.0521
ira	-10.0529
▁imot	-10.053
▁agder	-10.0532
▁mengde	-10.0533
▁skapte	-10.054
▁motstander	-10.054
▁klassen	-10.054
▁bry	-10.0541
▁tog	-10.0548
▁antatt	-10.055
lm	-10.0556
▁py	-10.0556
▁internasjonalt	-10.0567
▁overleve	-10.0575
kammer	-10.058
▁preg	-10.058
▁bob	-10.0588
▁graf	-10.0589
▁romanen	-10.0589
▁kil	-10.0611
▁bestemme	-10.0611
▁omtale	-10.0611
21	-10.063
▁jule	-10.0634
ado	-10.0636
▁trening	-10.0638
▁33	-10.0639
mma	-10.0639
flyttet	-10.0642
▁drama	-10.0651
▁vokal	-10.0651
▁individ	-10.0663
▁objekt	-10.0663
▁doktorgrad	-10.0663
▁fysisk	-10.0664
▁inntekt	-10.0664
▁blanding	-10.0664
▁video	-10.0665
▁filosofi	-10.0672
eksamen	-10.0674
▁arbeide	-10.0676
▁kvinnelige	-10.0677
▁stemmer	-10.068
▁foreningen	-10.0696
trinn	-10.0703
▁mak	-10.0704
kampen	-10.0713
▁sim	-10.0726
▁bredt	-10.0731
23	-10.0731
▁øye	-10.0734
grupper	-10.0734
▁poly	-10.0737
▁kreft	-10.0744
eppe	-10.0753
▁fritt	-10.0753
▁typen	-10.0758
38	-10.076
kamper	-10.0762
▁ya	-10.0763
▁foreldre	-10.0766
▁150	-10.0781
▁nasjoner	-10.0784
jan	-10.0791
▁forlag	-10.0796
deler	-10.0804
▁storm	-10.0804
▁bevegelse	-10.0804
runde	-10.0812
▁disk	-10.0812
▁alkohol	-10.0812
▁hvem	-10.0812
▁inngår	-10.0813
▁riktig	-10.0813
▁tegneserie	-10.0813
95	-10.0814
▁1937	-10.0816
▁kommunene	-10.0817
▁anledning	-10.0819
▁arkitektur	-10.0826
▁maleri	-10.0828
▁studenter	-10.083
▁markert	-10.083
dro	-10.0831
▁kilder	-10.0835
maskin	-10.0839
element	-10.0839
▁peder	-10.0846
▁master	-10.0847
rup	-10.0848
▁insekter	-10.085
▁mottatt	-10.085
▁rh	-10.0853
former	-10.0859
▁sosiale	-10.0869
▁ulykke	-10.088
▁produksjonen	-10.0892
klassen	-10.0893
ordning	-10.09
strand	-10.0902
misjon	-10.0904
lang	-10.0906
▁ønsker	-10.0916
▁styret	-10.0917
ata	-10.0917
▁drap	-10.0919
▁uttale	-10.0935
▁tilby	-10.0953
▁unn	-10.096
▁münchen	-10.0964
▁angripe	-10.0964
▁kjærlighet	-10.0964
▁hensikt	-10.0964
▁nektet	-10.0964
▁myndighetene	-10.0964
▁manager	-10.0965
▁monark	-10.0966
ón	-10.0966
▁politiet	-10.0969
skjell	-10.097
gende	-10.0972
▁utgave	-10.0974
▁befinne	-10.0978
gon	-10.0979
▁human	-10.0983
▁laste	-10.0987
▁ordre	-10.0989
jö	-10.099
▁wien	-10.0994
▁bit	-10.0995
▁administrasjons	-10.1
▁halvdel	-10.1
▁wales	-10.1005
▁kode	-10.1011
31	-10.1019
▁dobbelt	-10.102
part	-10.1025
▁løfte	-10.1025
messige	-10.1028
▁levert	-10.103
▁organisasjon	-10.1046
områdene	-10.1051
iger	-10.1072
▁finsk	-10.1079
▁korn	-10.1084
▁marie	-10.1085
riket	-10.1089
▁stamme	-10.1093
28	-10.1095
▁prosessen	-10.1096
▁vakt	-10.1108
▁sikkerhets	-10.111
▁radikal	-10.1118
▁drammen	-10.1118
▁nedbør	-10.1118
friidrettsutøver	-10.1118
▁romsdal	-10.1119
▁1906	-10.112
▁bidro	-10.1121
rommet	-10.1122
▁fastlandet	-10.1123
▁utstilling	-10.1135
▁henry	-10.1139
▁gitarist	-10.1141
▁music	-10.1142
front	-10.1147
81	-10.1153
▁overført	-10.1157
▁reist	-10.1166
▁tå	-10.1167
▁aksje	-10.117
fot	-10.1171
▁kommunistisk	-10.1172
kjede	-10.1177
▁kj	-10.1178
▁elever	-10.119
avdeling	-10.1198
▁flekk	-10.1212
▁funn	-10.1212
▁sammenligne	-10.1219
▁demokratisk	-10.1224
▁kapp	-10.1234
▁brand	-10.1238
elli	-10.1252
botn	-10.1254
▁cd	-10.1258
▁gitar	-10.1261
▁75	-10.1263
▁ære	-10.1263
▁systemet	-10.1266
▁midlertidig	-10.1274
▁vesentlig	-10.1274
▁definert	-10.1274
▁bærer	-10.1275
▁lufthavn	-10.1275
▁voksen	-10.1276
▁1905	-10.1276
▁programmer	-10.1281
▁byggingen	-10.1282
▁fan	-10.1285
▁versjonen	-10.1293
▁former	-10.1302
konkurranse	-10.1304
atisk	-10.1308
▁jean	-10.1314
▁kommuner	-10.1316
▁sporter	-10.1317
▁innhold	-10.1319
▁old	-10.1321
▁fotballklubb	-10.1324
▁normalt	-10.1339
▁andreas	-10.1339
forsamlingen	-10.134
▁eide	-10.134
▁intern	-10.1341
▁regional	-10.1348
▁solo	-10.1352
lingen	-10.1357
och	-10.1363
▁kloster	-10.1368
ksjoner	-10.139
▁finske	-10.1394
læ	-10.1398
listen	-10.1404
▁maler	-10.1414
uv	-10.1415
▁æres	-10.1428
ax	-10.1429
▁akershus	-10.1433
▁county	-10.1433
▁guvernør	-10.1433
▁tilhørte	-10.1433
▁club	-10.1433
▁uvanlig	-10.1433
▁liberal	-10.1433
▁magnus	-10.1433
▁belgisk	-10.1433
▁vinteren	-10.1434
▁1926	-10.1434
▁tømmer	-10.1434
▁arbeiderpartiet	-10.1435
▁hindre	-10.1436
▁forbundet	-10.1437
▁henrette	-10.144
drevet	-10.1444
▁økende	-10.1445
▁streng	-10.1447
kasse	-10.1448
▁prosess	-10.1451
▁morgen	-10.1455
bygget	-10.1456
▁tverr	-10.1456
▁irsk	-10.1459
▁brenn	-10.1465
født	-10.1468
klubben	-10.1474
▁nevnes	-10.1477
▁milliarder	-10.1477
firma	-10.1482
dam	-10.1485
dannelse	-10.1489
▁artikler	-10.1495
▁linjen	-10.1506
▁gun	-10.1507
45	-10.1508
fotograf	-10.1508
▁modern	-10.1509
▁katolsk	-10.1509
▁selge	-10.1512
▁vinne	-10.1513
▁johann	-10.1515
▁statlig	-10.1523
ische	-10.1536
norsk	-10.1539
valget	-10.154
ij	-10.1541
▁mesterskap	-10.1545
▁levende	-10.155
▁motiv	-10.1552
▁utsatt	-10.1554
sending	-10.1557
▁tradisjonel	-10.1568
▁38	-10.158
▁sovjet	-10.1585
▁kristian	-10.1586
▁villa	-10.1587
▁ark	-10.1589
▁utenlandsk	-10.1592
▁introdusert	-10.1594
▁regissør	-10.1594
▁terreng	-10.1594
▁papir	-10.1594
▁blokk	-10.1595
komité	-10.1596
▁1931	-10.1596
▁1925	-10.1596
▁erfaring	-10.1596
▁detalj	-10.1605
▁sunn	-10.1606
▁vokalist	-10.1613
▁beholdt	-10.1617
▁tekster	-10.1621
13	-10.1627
▁brit	-10.1627
kommune	-10.1629
blant	-10.1635
▁fjerne	-10.1637
▁kommunal	-10.1638
hild	-10.1639
▁gruppa	-10.1642
▁turner	-10.1643
▁hannen	-10.1643
▁lykke	-10.1649
foss	-10.1656
dels	-10.1666
illa	-10.1666
▁innsjøen	-10.1682
lam	-10.1689
▁musikalsk	-10.169
masse	-10.1691
lyst	-10.1706
▁tan	-10.1717
fil	-10.1723
aria	-10.1726
krig	-10.1729
▁frihet	-10.1729
▁bevege	-10.1736
▁alpin	-10.1737
▁landskap	-10.1738
▁kropps	-10.1756
institusjon	-10.1756
▁1914	-10.1758
▁shanghai	-10.1758
▁kristiansand	-10.1758
▁søndag	-10.1758
▁redusere	-10.1758
▁mongol	-10.1759
▁1913	-10.176
▁1911	-10.176
▁studere	-10.1762
▁meldt	-10.1762
34	-10.1769
kostnad	-10.1773
▁effektiv	-10.1775
▁rå	-10.178
▁typer	-10.179
▁fc	-10.1795
▁polar	-10.1795
produsent	-10.1796
komst	-10.1797
▁endring	-10.1799
minne	-10.1801
brun	-10.1804
▁behandle	-10.181
▁unna	-10.1812
bisk	-10.1814
▁sats	-10.1818
▁vedtatt	-10.1822
traff	-10.1824
tinget	-10.1827
▁verdensmester	-10.1836
▁dit	-10.184
vold	-10.1844
row	-10.1856
▁venner	-10.1857
▁andel	-10.1858
lte	-10.1858
▁utøver	-10.186
▁sum	-10.1861
industrien	-10.1862
▁stå	-10.1869
▁paus	-10.187
fjellet	-10.1881
▁etasje	-10.1881
▁hals	-10.1896
▁parken	-10.1901
▁65	-10.1902
▁gjer	-10.1906
gate	-10.1909
sosialistisk	-10.1913
▁europe	-10.1913
dahl	-10.192
▁elektro	-10.1923
▁antwerpen	-10.1925
▁konkurrere	-10.1925
▁tilknyttet	-10.1925
▁1901	-10.1925
▁spanske	-10.1925
▁lagkonkurransen	-10.1925
▁forekommer	-10.1925
▁frykt	-10.1925
▁frivillig	-10.1925
▁bodø	-10.1925
▁smith	-10.1926
▁scott	-10.1926
▁telemark	-10.1926
▁myndigheter	-10.1927
▁glass	-10.1928
▁bekrefte	-10.1928
▁nasjonalpark	-10.1929
bakken	-10.1934
▁løsning	-10.1935
▁signal	-10.1937
▁dyrke	-10.1937
▁tynn	-10.1938
▁hitler	-10.1938
▁hon	-10.1947
▁gard	-10.1949
▁tapt	-10.1951
▁cra	-10.1952
▁høst	-10.1961
▁tø	-10.1963
▁rob	-10.1963
utvikling	-10.1966
▁hovedrollen	-10.1966
▁fjernet	-10.1973
▁stål	-10.1974
▁gjeng	-10.198
▁tilhøre	-10.1994
▁sideelv	-10.1996
▁fortsette	-10.1996
▁flyktet	-10.2012
▁filip	-10.2014
▁stillingen	-10.2015
flate	-10.202
pass	-10.2028
▁provins	-10.2034
▁mono	-10.204
▁sivile	-10.2044
▁ulik	-10.2045
▁ligne	-10.2046
▁verker	-10.2065
▁innlede	-10.2075
▁lake	-10.2079
rekke	-10.2081
▁prinsipp	-10.2091
▁afghanistan	-10.2094
▁tilknytning	-10.2094
▁kvalitet	-10.2094
▁jakob	-10.2094
▁skjul	-10.2094
▁overraske	-10.2094
rådgiver	-10.2095
▁oversettelse	-10.2095
▁kveld	-10.2096
▁prix	-10.2097
▁tyr	-10.2097
▁halvparten	-10.2097
▁stabil	-10.2103
jiang	-10.2107
forbundet	-10.2107
▁landslaget	-10.2108
▁kommunestyre	-10.2109
politikk	-10.2119
▁lista	-10.212
▁kule	-10.2126
▁tyskerne	-10.2129
▁hendelser	-10.2131
▁måten	-10.2132
trafikk	-10.2138
▁besøkt	-10.2141
kontor	-10.2145
▁populært	-10.2147
bøker	-10.2149
▁epi	-10.2151
▁00	-10.2163
▁rase	-10.2164
▁sun	-10.2164
▁kim	-10.2164
▁kalde	-10.2165
▁bilder	-10.2165
▁begynne	-10.2165
▁enkle	-10.2169
▁trær	-10.2171
▁starter	-10.2177
▁varierer	-10.2178
▁ali	-10.2183
stø	-10.2183
▁34	-10.2187
▁spise	-10.2191
▁fortsetter	-10.2195
▁orient	-10.2196
legging	-10.2211
vakt	-10.2212
can	-10.2217
▁myk	-10.2219
▁lam	-10.2231
jord	-10.2234
▁kjempet	-10.2241
▁1909	-10.2266
▁innlemmet	-10.2266
▁ødelegge	-10.2266
▁regissert	-10.2266
▁forvaltning	-10.2266
▁dollar	-10.2267
▁utnytte	-10.2267
▁hemmelig	-10.2267
▁kjørt	-10.2268
▁godkjent	-10.2268
▁forårsake	-10.2268
▁administrasjon	-10.2269
▁tørr	-10.2273
▁reaksjon	-10.2279
▁1896	-10.2281
▁1890	-10.2283
stasjonen	-10.2292
innspilling	-10.2297
▁regime	-10.2301
▁gradvis	-10.2302
handlet	-10.2307
▁samtid	-10.2307
forbindelse	-10.2314
▁nedre	-10.232
cho	-10.2323
▁samarbeidet	-10.2326
▁thi	-10.2337
▁dj	-10.2337
▁max	-10.234
▁zo	-10.2341
▁fløy	-10.2344
▁bilen	-10.2345
▁lønn	-10.2349
fast	-10.2356
▁dokumenter	-10.2359
▁keiseren	-10.2363
▁troms	-10.2372
bak	-10.238
makten	-10.2393
slav	-10.2394
▁nak	-10.24
▁bud	-10.2402
roman	-10.2407
plikt	-10.2412
▁cal	-10.2413
▁kalk	-10.2428
▁wall	-10.2433
▁vente	-10.2433
▁tempel	-10.2437
▁zh	-10.244
▁innbyggertall	-10.2442
▁krevde	-10.2442
▁major	-10.2442
▁tyrkisk	-10.2442
▁opposisjon	-10.2443
▁påvirket	-10.2444
▁1915	-10.2444
▁gullmedalje	-10.2445
▁1907	-10.2445
▁brygge	-10.2447
▁portrett	-10.2449
▁stab	-10.2449
▁kjøl	-10.245
▁nederlag	-10.2451
▁1300	-10.2451
▁mikro	-10.2456
▁sankt	-10.2464
kampanje	-10.2469
▁strøk	-10.248
▁sørover	-10.2485
▁seire	-10.2489
▁erstatte	-10.249
▁damp	-10.2492
angrep	-10.2493
forskning	-10.2493
vre	-10.2494
måte	-10.2501
▁statsråd	-10.2505
▁geo	-10.2505
rute	-10.2506
▁grunnla	-10.2509
▁vekk	-10.2514
▁overta	-10.2516
▁tiår	-10.252
finn	-10.2526
gud	-10.2537
▁hull	-10.2538
▁fjern	-10.2538
▁modellen	-10.2541
▁tronen	-10.2544
▁salme	-10.2546
▁verdenscupen	-10.2549
▁medaljer	-10.2551
▁begrep	-10.2551
klipp	-10.2561
øvelse	-10.2564
tunnelen	-10.2565
▁snu	-10.2565
▁marg	-10.2569
▁kastet	-10.2572
▁hill	-10.2581
▁planter	-10.2582
33	-10.2597
▁malm	-10.2599
▁velger	-10.2599
24	-10.2602
▁lid	-10.2604
ith	-10.261
▁nasjon	-10.2614
▁alexander	-10.262
▁mektig	-10.2621
▁palestin	-10.2621
▁festningen	-10.2621
monument	-10.2622
▁debatt	-10.2622
▁hersker	-10.263
▁fremført	-10.2633
▁1898	-10.2637
▁skudd	-10.2642
gaard	-10.2643
blom	-10.2673
▁nettverk	-10.2677
▁statue	-10.2677
iel	-10.268
▁nederlandske	-10.2683
▁orkester	-10.2687
fyr	-10.2695
▁250	-10.27
▁fv	-10.2702
▁off	-10.2702
▁prosjektet	-10.2716
▁kino	-10.2717
▁nm	-10.2718
fjellene	-10.2727
celle	-10.2734
▁kjell	-10.2735
▁fartøy	-10.2737
ois	-10.274
▁fjellene	-10.2753
▁synge	-10.2756
▁mini	-10.2777
▁svar	-10.2787
▁helst	-10.2794
8	-10.2797
upp	-10.28
▁aleksander	-10.2802
▁joseph	-10.2802
▁juridisk	-10.2802
▁stafett	-10.2802
▁preussen	-10.2802
▁individuell	-10.2802
▁brensel	-10.2802
▁ekstrem	-10.2802
▁gustav	-10.2802
▁komponert	-10.2803
▁formula	-10.2803
▁estland	-10.2803
tillatelse	-10.2803
▁oppløst	-10.2804
▁house	-10.2805
vinne	-10.2806
▁otto	-10.2809
▁east	-10.2812
▁1200	-10.2816
▁styrte	-10.2819
▁hendelsen	-10.282
▁arkeolog	-10.2821
▁vite	-10.2829
▁østover	-10.283
▁dø	-10.2834
deles	-10.2835
▁utgi	-10.2862
▁advokat	-10.2866
▁rester	-10.289
kilden	-10.2892
▁bære	-10.2902
▁kortere	-10.2902
korps	-10.2903
22	-10.291
setting	-10.292
efant	-10.2925
▁flest	-10.2937
▁42	-10.2937
typen	-10.2942
redning	-10.2957
▁luc	-10.2968
well	-10.2969
▁okkupasjon	-10.297
turneringen	-10.2976
ity	-10.2978
▁middelalder	-10.2983
▁australsk	-10.2987
▁company	-10.2987
▁semifinalen	-10.2987
▁antagelig	-10.2987
▁generelt	-10.2987
▁ombord	-10.2988
▁bærum	-10.2988
▁referere	-10.2988
▁markedet	-10.2988
▁litterær	-10.2989
▁anklage	-10.2989
▁elementer	-10.299
▁generell	-10.299
▁overlevd	-10.299
▁verd	-10.2995
kompani	-10.2998
▁france	-10.3
▁sparta	-10.3007
▁skjær	-10.3008
forsyning	-10.3013
skij	-10.3023
▁bevegelsen	-10.3031
▁parlamentet	-10.3035
verdi	-10.3041
▁kommando	-10.3042
▁britene	-10.3043
bånd	-10.3047
▁nordover	-10.3048
▁din	-10.3051
▁gress	-10.3056
▁ansvarlig	-10.3057
▁bombe	-10.3067
liste	-10.3069
▁museet	-10.3072
høyde	-10.3075
▁sign	-10.3077
▁skriver	-10.3078
asj	-10.3084
skapasitet	-10.309
▁kjemisk	-10.3094
▁virket	-10.3095
▁dalen	-10.3109
▁nevne	-10.3134
▁signert	-10.3143
▁medisinsk	-10.3168
▁chicago	-10.3176
▁heidelberg	-10.3176
▁washington	-10.3176
▁ludvig	-10.3176
▁færøyene	-10.3176
▁innbyggerne	-10.3176
▁tjue	-10.3178
▁oblast	-10.3178
▁opptrer	-10.3178
▁mytologi	-10.3179
▁dvs	-10.318
▁hensyn	-10.3181
▁antikken	-10.3182
ledd	-10.3184
▁mangler	-10.3187
▁arkiv	-10.3188
▁enorm	-10.3193
psykologi	-10.3196
▁grunnlag	-10.3196
▁tell	-10.3197
▁medalje	-10.3198
▁rulle	-10.3199
bygningen	-10.3207
▁sær	-10.3209
▁allianse	-10.3215
▁river	-10.3226
slått	-10.3227
▁gjeld	-10.324
produkt	-10.324
▁idrettslag	-10.324
▁urban	-10.3247
▁bio	-10.3247
▁antallet	-10.3249
▁kjenner	-10.326
seier	-10.326
vald	-10.3261
▁jøder	-10.3276
▁jøde	-10.3278
redskap	-10.3296
ndring	-10.3297
▁beskrev	-10.3299
▁produserer	-10.3312
gler	-10.3313
▁betegnelse	-10.3317
▁dommer	-10.3317
onia	-10.3333
▁legen	-10.3333
▁nederlandsk	-10.3336
reise	-10.3336
17	-10.3341
kanalen	-10.3343
▁vanligst	-10.3353
▁vende	-10.3363
løytnant	-10.3368
▁engasjert	-10.3368
▁football	-10.3368
▁jerusalem	-10.3368
▁okkupert	-10.3368
▁svalbard	-10.3368
▁yngste	-10.3368
▁antarktis	-10.3368
▁geografisk	-10.3368
▁arthur	-10.3369
▁svømme	-10.3369
konferanse	-10.3369
▁sydney	-10.3369
▁håp	-10.3369
▁terror	-10.3369
▁golf	-10.3369
ов	-10.3369
▁utgivelsen	-10.3372
▁kritisk	-10.3372
▁reserve	-10.3374
▁prøvd	-10.3374
livet	-10.3374
▁internett	-10.3377
▁kristiania	-10.3378
▁team	-10.3384
▁brødrene	-10.3385
makt	-10.3388
bebyggelse	-10.3392
▁sveitsisk	-10.3393
▁high	-10.3393
▁euro	-10.3396
bevisst	-10.3398
▁simon	-10.3405
▁koll	-10.3405
▁sammenlagt	-10.3409
▁tilpasse	-10.3412
▁rettigheter	-10.342
▁frukt	-10.3421
▁grunnlegger	-10.3425
▁cuba	-10.3441
bal	-10.3444
▁tran	-10.3449
vogn	-10.3449
▁vingene	-10.3458
▁beskriver	-10.3461
alistisk	-10.3465
▁cre	-10.3465
▁singel	-10.3488
handel	-10.3488
politisk	-10.3497
▁hagen	-10.3502
havn	-10.3508
drakt	-10.3509
uch	-10.3529
▁organisasjoner	-10.3542
nummer	-10.3545
▁melk	-10.3563
▁argument	-10.3565
▁initiativ	-10.3565
▁prefekt	-10.3565
▁pakistan	-10.3565
▁oppstår	-10.3565
▁kongress	-10.3568
▁drøm	-10.3569
▁forbudt	-10.3569
▁daniel	-10.357
▁sagt	-10.3571
▁oppmerksomhet	-10.3572
▁latinske	-10.358
▁kåret	-10.3587
▁inge	-10.3595
▁medaljen	-10.3599
▁lettere	-10.3602
luk	-10.3609
27	-10.3615
▁hardt	-10.3618
▁kap	-10.3619
onym	-10.3623
▁faktor	-10.3625
▁blande	-10.3635
97	-10.3639
▁brutt	-10.3643
▁utgaven	-10.3643
gress	-10.3648
▁inndel	-10.3663
▁marinen	-10.3663
▁hekk	-10.3664
melding	-10.3665
▁kin	-10.3673
▁160	-10.368
▁øre	-10.3697
▁katedral	-10.3706
▁singelen	-10.3707
▁strak	-10.373
▁vg	-10.373
▁evne	-10.3735
▁delstat	-10.3742
▁1903	-10.3765
▁håkon	-10.3765
▁skjønn	-10.3765
▁konsept	-10.3765
▁embets	-10.3765
▁einar	-10.3766
▁østre	-10.3777
▁butikk	-10.3777
▁bystyre	-10.3778
▁700	-10.3787
▁betale	-10.3789
▁lord	-10.379
▁undervist	-10.3795
▁alfa	-10.3795
▁petter	-10.3804
▁opptatt	-10.3813
▁dyktig	-10.3814
ington	-10.3826
▁kompleks	-10.3829
kjøp	-10.3837
▁stemmene	-10.3839
struktur	-10.384
▁grov	-10.384
miljø	-10.3841
▁bakke	-10.3841
president	-10.3841
▁forlate	-10.3842
▁kalle	-10.3851
▁120	-10.3852
vendt	-10.3854
▁boka	-10.3863
▁frakte	-10.3865
▁ansvaret	-10.3872
▁buk	-10.3873
▁rammet	-10.3886
horn	-10.3892
grensen	-10.3892
start	-10.3898
▁mengder	-10.3905
atur	-10.3916
dommer	-10.3922
▁edderkopp	-10.3931
▁kjempe	-10.3938
▁karrieren	-10.3943
▁vegg	-10.3943
▁barna	-10.3948
▁arkeologisk	-10.3954
▁opprettelse	-10.3957
▁forretnings	-10.3959
formede	-10.3959
versjon	-10.3965
▁nowiki	-10.3969
ström	-10.3969
▁digital	-10.3969
▁fungerte	-10.3969
▁rogaland	-10.3969
pedagog	-10.3969
▁opplysning	-10.3969
▁sjette	-10.397
▁divers	-10.397
▁rykte	-10.3982
▁sies	-10.3985
▁gjennombrudd	-10.3988
▁nei	-10.3989
komiteen	-10.399
krit	-10.3998
▁christiania	-10.3998
▁arrangement	-10.3999
▁samtlige	-10.4007
utenriksminister	-10.4013
▁kok	-10.4017
▁deltatt	-10.4021
akademi	-10.4034
feld	-10.404
▁skinn	-10.4056
▁klosteret	-10.4059
forsker	-10.4063
fartøy	-10.4083
▁plateselskap	-10.4085
▁kaste	-10.4087
▁opplag	-10.4098
▁jente	-10.4109
▁spenning	-10.4115
ansett	-10.4118
▁paven	-10.4138
▁mølle	-10.4139
stråling	-10.4149
vard	-10.4173
▁sving	-10.4176
▁byprefekturet	-10.4177
▁eksemplarer	-10.4177
▁friedrich	-10.4177
▁hovedkvarter	-10.4177
▁middelsstor	-10.4177
▁avgjørende	-10.4177
▁whi	-10.4179
▁foreslått	-10.418
▁beslutte	-10.4182
▁bygda	-10.4185
▁feire	-10.4186
strid	-10.4192
kall	-10.4203
▁vestre	-10.4217
▁beskrive	-10.4218
▁american	-10.422
▁næringsliv	-10.4223
låt	-10.4227
bukta	-10.4237
▁ekstra	-10.4237
▁sult	-10.4243
▁homo	-10.4243
▁beskrivelse	-10.4252
karriere	-10.4252
▁town	-10.4255
blikk	-10.4257
▁jag	-10.4264
mengde	-10.4274
skyld	-10.4276
▁elite	-10.4277
næring	-10.4291
drive	-10.4299
ollen	-10.43
▁elske	-10.4303
▁900	-10.431
▁tykk	-10.4314
▁vogn	-10.4327
▁steve	-10.433
verden	-10.4341
▁skapt	-10.438
teori	-10.4389
▁amsterdam	-10.439
▁elisabeth	-10.439
▁portugal	-10.439
▁portugisisk	-10.439
▁skjønt	-10.439
▁sammenslåing	-10.439
▁anerkjenne	-10.439
▁kommersiell	-10.439
▁ungarsk	-10.439
▁automatisk	-10.439
▁plattform	-10.439
▁oberst	-10.439
▁global	-10.439
▁adresse	-10.439
▁innebære	-10.4391
▁skarp	-10.4393
▁drikke	-10.4394
▁tau	-10.4395
work	-10.4397
▁skytter	-10.4397
▁eksport	-10.4397
▁høyden	-10.4397
▁1899	-10.4408
▁takke	-10.4416
▁adam	-10.4421
▁følelse	-10.4428
yang	-10.4429
▁jam	-10.4453
▁cho	-10.4467
▁play	-10.4475
historisk	-10.4479
opera	-10.4482
aya	-10.4509
basert	-10.4511
rygg	-10.4521
rick	-10.4523
hei	-10.455
stemme	-10.4562
▁sho	-10.4563
▁frø	-10.4576
belteasteroide	-10.4607
▁argentina	-10.4607
▁astronom	-10.4607
▁elizabeth	-10.4607
▁administrere	-10.4607
▁service	-10.4607
▁1904	-10.4607
▁vilhelm	-10.4607
▁foregår	-10.4607
▁nemlig	-10.4607
▁jørgen	-10.4607
▁gunnar	-10.4607
▁hjørne	-10.4607
▁verdensrekord	-10.4609
▁molde	-10.4609
▁unnta	-10.461
familie	-10.4612
▁fredrikstad	-10.4614
▁onkel	-10.4614
▁komposisjon	-10.4615
▁ibsen	-10.4619
▁1889	-10.4626
▁republikk	-10.4628
▁170	-10.4634
▁ligge	-10.4635
▁johnson	-10.4636
▁sikte	-10.4636
▁kongelig	-10.4637
lipp	-10.4644
▁cand	-10.465
▁artikkel	-10.4653
▁øyne	-10.4675
▁rasen	-10.4689
▁angel	-10.4698
▁variere	-10.4706
▁grunnlaget	-10.471
▁øygrupp	-10.4716
kilde	-10.4723
▁etnisk	-10.4731
dekket	-10.4731
wald	-10.4749
phi	-10.477
▁utvide	-10.4771
▁kai	-10.4791
▁steg	-10.4794
▁fulgt	-10.4808
▁eik	-10.4809
vika	-10.4814
fattet	-10.4826
▁helsingfors	-10.4829
▁intervju	-10.4829
▁prøyssisk	-10.4829
▁vingespenn	-10.4829
▁hordaland	-10.4829
▁nøyaktig	-10.4829
▁manchester	-10.4829
▁avdøde	-10.4829
▁sprint	-10.4829
▁ansikt	-10.4829
▁utseende	-10.483
▁elleve	-10.483
▁utmerkelse	-10.483
▁arendal	-10.483
▁studioalbum	-10.4831
▁svekke	-10.4832
▁group	-10.4832
▁nicol	-10.4833
▁håndball	-10.4834
▁tvunge	-10.4836
▁arena	-10.4838
▁forbunds	-10.4839
▁høyesterett	-10.484
▁tolke	-10.4841
▁1100	-10.4842
oksid	-10.485
▁hjal	-10.4852
▁1870	-10.4852
▁beslutning	-10.4854
▁lukke	-10.4856
▁soldatene	-10.4859
▁avtalen	-10.4866
▁rand	-10.487
▁kapasitet	-10.487
▁eksil	-10.4875
▁oppsto	-10.4882
▁white	-10.4902
▁ytterst	-10.4912
▁long	-10.4924
materiale	-10.4928
divisjon	-10.4929
▁omkom	-10.493
programmet	-10.4932
bein	-10.4936
▁kjemi	-10.4938
▁oppfatte	-10.4959
▁gyld	-10.4995
▁ytter	-10.4996
▁hamar	-10.5005
levende	-10.5007
▁munk	-10.5019
▁bell	-10.5039
▁eksperiment	-10.5057
▁liverpool	-10.5057
skulptur	-10.5057
▁asteroide	-10.5057
▁kriminal	-10.5057
▁negativ	-10.5057
▁zealand	-10.5057
▁1814	-10.5057
▁lyktes	-10.5057
▁xiàn	-10.5057
▁risiko	-10.5057
▁sachsen	-10.5057
▁forklare	-10.5057
▁sektor	-10.5057
▁praktisk	-10.5057
▁kjøretøy	-10.5057
▁oppløsning	-10.5057
▁konservative	-10.5059
▁sykkel	-10.506
▁stemt	-10.5063
▁slippe	-10.5065
▁idé	-10.5069
▁panser	-10.5072
▁håndverk	-10.5073
vandring	-10.5076
▁knap	-10.5083
▁47	-10.5086
▁1880	-10.509
▁rosa	-10.5092
▁inneha	-10.5095
▁neu	-10.5118
brev	-10.5133
▁uro	-10.5135
▁histor	-10.5135
▁tenke	-10.514
▁grøn	-10.514
▁bringe	-10.5149
▁torg	-10.5149
skrevet	-10.515
▁verdenscup	-10.5151
museum	-10.5161
vokst	-10.5163
modell	-10.517
▁jin	-10.5172
▁intens	-10.5175
stjerne	-10.5175
næs	-10.5186
bell	-10.5194
▁mannlig	-10.5197
▁tidligst	-10.521
kledd	-10.5213
cheng	-10.5227
▁dru	-10.523
▁synlig	-10.5244
▁slektning	-10.5267
matisk	-10.5281
filosof	-10.5287
в	-10.5288
▁utelukke	-10.5289
svømming	-10.5289
▁fakultet	-10.5289
▁kvadrat	-10.5289
▁restaurant	-10.5289
▁seremoni	-10.5289
▁minoritet	-10.5289
▁opplæring	-10.5289
▁canadisk	-10.5289
▁josef	-10.5289
▁forsvant	-10.5289
▁usikker	-10.5289
▁indiker	-10.5289
▁buskerud	-10.529
▁mineral	-10.529
stipend	-10.5291
▁tjent	-10.5291
▁vestfold	-10.5293
▁røyk	-10.5296
▁rytter	-10.53
▁opptrådt	-10.5302
▁forsterke	-10.5303
▁rov	-10.5303
▁1884	-10.531
▁nordmenn	-10.5314
▁anlagt	-10.5321
lapp	-10.5322
▁tvang	-10.5325
▁persisk	-10.5336
▁møre	-10.5338
skjerm	-10.5349
▁mei	-10.5352
▁utbygging	-10.5352
▁tann	-10.5355
▁roger	-10.5362
klart	-10.5385
bring	-10.5393
rakte	-10.5397
problem	-10.5399
kjent	-10.5402
dratt	-10.5416
cup	-10.5418
kreft	-10.5419
▁utenriks	-10.5446
▁avvist	-10.5474
▁skyte	-10.5512
▁størst	-10.5523
skripsjon	-10.5527
▁definisjon	-10.5527
▁etableringen	-10.5527
▁manuskript	-10.5527
▁eventuel	-10.5527
▁fysikk	-10.5527
▁fjordane	-10.5527
▁konstruert	-10.5527
▁tyrkia	-10.5527
▁nikola	-10.5527
▁opplevde	-10.5527
▁autonom	-10.5527
▁utpekt	-10.5528
▁beskjed	-10.5528
▁dverg	-10.5528
▁utforming	-10.5529
▁konsekvens	-10.5529
▁senator	-10.5533
▁vannkraftverk	-10.5534
▁hylle	-10.5539
▁lokalisert	-10.5539
▁skuespill	-10.5541
▁ddr	-10.5542
▁koble	-10.5543
▁østlandet	-10.5545
▁beskyttelse	-10.5549
▁grim	-10.5554
vilkår	-10.5555
▁metro	-10.5557
▁saga	-10.5605
▁tvers	-10.5616
kongen	-10.5622
▁vitne	-10.5625
▁fru	-10.5627
▁fett	-10.5631
▁arch	-10.5631
▁baron	-10.5635
kryp	-10.5635
▁esp	-10.5638
▁stam	-10.5644
▁hydro	-10.5648
laten	-10.566
▁140	-10.5671
▁avslutte	-10.5677
vassdraget	-10.5688
▁departement	-10.5692
▁kran	-10.5734
▁oppleve	-10.5737
42	-10.5747
▁mord	-10.575
▁israelsk	-10.5756
▁country	-10.5771
▁1902	-10.5771
▁invitert	-10.5771
▁offensiv	-10.5771
▁litauen	-10.5771
▁stridsvogn	-10.5771
▁kritisert	-10.5771
▁fenomen	-10.5771
▁thailand	-10.5771
▁rektor	-10.5771
▁avviklet	-10.5771
▁presentert	-10.5771
▁karbon	-10.5772
▁forbedre	-10.5772
traktaten	-10.5772
▁ektemann	-10.5772
▁anvende	-10.5772
▁nedenfor	-10.5773
seminar	-10.5773
▁bayern	-10.5773
▁wolf	-10.5773
▁hedmark	-10.5774
▁luther	-10.5777
▁talent	-10.5778
▁komedie	-10.5778
▁foregikk	-10.5778
▁manglen	-10.5779
▁sverd	-10.578
▁moderat	-10.5785
▁1895	-10.579
▁oppstod	-10.5797
▁balanse	-10.5798
tavle	-10.5817
syre	-10.5825
▁markere	-10.5827
konge	-10.5831
avisen	-10.5834
▁palass	-10.5847
▁foreldrene	-10.5848
trener	-10.5884
utøver	-10.5891
kontrakt	-10.5893
hjelp	-10.5893
effekt	-10.5894
prest	-10.5898
▁sæ	-10.5901
▁farlig	-10.591
sida	-10.5926
syklist	-10.593
vervet	-10.5937
▁sara	-10.5953
fred	-10.5977
stue	-10.5994
▁vindu	-10.5999
▁hul	-10.6017
direktoratet	-10.6021
▁barcelona	-10.6021
▁symfoni	-10.6021
▁ukraina	-10.6021
▁jomfru	-10.6021
▁kommandør	-10.6021
▁anmelder	-10.6021
gymnas	-10.6021
▁selvmord	-10.6021
▁beordre	-10.6022
▁kongsberg	-10.6022
▁rolf	-10.6022
▁strekningen	-10.6022
▁osmansk	-10.6022
▁fjernsyn	-10.6022
krystall	-10.6023
▁gregor	-10.6024
▁sverre	-10.6024
▁yrke	-10.6028
▁billed	-10.6034
▁nerve	-10.604
▁ramme	-10.604
▁etappe	-10.6041
▁regler	-10.6048
▁server	-10.6055
▁colo	-10.6057
▁utenom	-10.6062
▁furu	-10.6079
▁stund	-10.6103
26	-10.6107
bakke	-10.612
mynt	-10.6147
dømt	-10.6149
temperatur	-10.6149
▁mitt	-10.616
▁opprette	-10.6161
▁vilje	-10.6165
▁dominert	-10.6183
turnering	-10.6191
▁vasa	-10.6222
▁styrt	-10.6254
▁aftenposten	-10.6278
▁akseptert	-10.6278
▁kronprins	-10.6278
▁maksimal	-10.6278
▁window	-10.6278
▁separat	-10.6278
▁texas	-10.6278
▁diameter	-10.6278
▁dominerende	-10.6278
▁dvd	-10.6278
terminal	-10.6278
▁oppheve	-10.6278
▁firmaet	-10.6279
▁brown	-10.628
▁østfold	-10.6282
▁jurist	-10.6282
▁fremmed	-10.6282
▁fortellingen	-10.6283
▁operere	-10.6284
▁stalin	-10.6285
▁rednings	-10.6288
stokk	-10.6294
fold	-10.6302
▁kult	-10.6308
▁lunge	-10.6311
▁åttende	-10.6316
▁georgia	-10.6326
ministre	-10.6345
slutt	-10.635
▁demokrati	-10.636
▁henge	-10.6375
▁mjø	-10.6381
▁bull	-10.6392
veggen	-10.6399
▁falk	-10.6414
▁trø	-10.6414
▁diplomat	-10.642
▁blind	-10.6441
metode	-10.6441
▁evig	-10.6468
utvalg	-10.6479
▁teologisk	-10.6506
▁psyko	-10.6513
industri	-10.6519
▁forbinde	-10.6531
legat	-10.6534
klær	-10.6536
▁columbia	-10.6541
▁ferdinand	-10.6541
▁kollektiv	-10.6541
▁konkurrert	-10.6541
▁vancouver	-10.6541
▁champion	-10.6541
▁nevø	-10.6541
▁resultert	-10.6541
▁sigurd	-10.6541
▁autoritet	-10.6541
▁beatles	-10.6541
▁haugesund	-10.6541
▁tilsammen	-10.6541
▁mekanisk	-10.6541
▁langvarig	-10.6541
▁sjakk	-10.6541
▁fjær	-10.6541
▁senior	-10.6541
teatret	-10.6541
▁barndom	-10.6541
▁erobring	-10.6541
▁syria	-10.6541
▁noensinne	-10.6542
▁stengt	-10.6542
▁antyde	-10.6543
▁bøkene	-10.6543
▁1922	-10.6543
▁tropisk	-10.6544
▁bispe	-10.6544
▁hydrogen	-10.6545
▁hovedkontor	-10.6546
▁profil	-10.6547
▁holdning	-10.6548
▁talt	-10.655
▁bakvingen	-10.6551
▁betalt	-10.6552
kommisjonen	-10.6553
▁avansert	-10.6557
▁mandat	-10.6558
▁britis	-10.6566
▁1885	-10.657
▁prim	-10.6577
▁vestover	-10.6588
▁chang	-10.6607
▁undertegne	-10.6617
▁pund	-10.662
▁unik	-10.6633
orientert	-10.6651
løv	-10.6654
økonomi	-10.6656
▁utvidelse	-10.6662
relasjon	-10.6664
europeisk	-10.6683
litteratur	-10.6683
funksjon	-10.6683
utstyr	-10.6684
▁kulturell	-10.6691
kontroll	-10.6694
givende	-10.6694
rekord	-10.6696
flokk	-10.67
▁brakt	-10.6738
▁parlament	-10.6741
ique	-10.6742
▁glad	-10.6772
▁spenn	-10.678
▁utøve	-10.6803
▁sosialdemokrat	-10.6811
▁ambassadør	-10.6811
▁bulgaria	-10.6811
▁hønefoss	-10.6811
▁jugoslavia	-10.6811
▁nøytral	-10.6811
▁referanse	-10.6811
▁sjeldne	-10.6811
▁tønsberg	-10.6811
fundament	-10.6811
▁jersey	-10.6811
▁church	-10.6811
vurdering	-10.6811
▁ovenfor	-10.6811
▁konvensjon	-10.6811
▁turbiner	-10.6811
▁plyndr	-10.6811
▁forventet	-10.6811
▁oppfatning	-10.6811
▁flyktning	-10.6811
▁umulig	-10.6811
▁uenighet	-10.6811
▁innvalgt	-10.6812
▁carolin	-10.6812
▁føderal	-10.6812
▁fortellinger	-10.6812
▁novell	-10.6813
▁distanse	-10.6813
▁francisco	-10.6814
▁tallrike	-10.6814
▁høydepunkt	-10.6814
▁trenger	-10.6816
▁from	-10.6816
▁alfred	-10.6817
▁mannskapet	-10.6818
apparat	-10.6819
▁knud	-10.6821
▁donau	-10.6823
▁tsar	-10.6825
▁1897	-10.6827
▁tilsyne	-10.6827
▁smak	-10.6828
▁drepe	-10.6833
▁forløper	-10.6834
høyskole	-10.6835
▁1848	-10.6835
▁ungdomsskole	-10.6841
▁beholde	-10.6843
▁øynene	-10.6848
▁jernbanestasjon	-10.6858
▁oval	-10.6861
▁marx	-10.6863
▁gjennomføre	-10.6879
▁silke	-10.6886
▁life	-10.6896
registr	-10.6927
posisjon	-10.695
scene	-10.695
regjering	-10.696
provins	-10.6961
behandling	-10.6974
fellesskap	-10.6985
▁skru	-10.7048
▁vev	-10.7076
▁basketball	-10.7089
▁oksygen	-10.7089
▁artilleri	-10.7089
▁etablere	-10.7089
▁naturgass	-10.7089
▁permanent	-10.7089
▁reklame	-10.7089
▁frigjøring	-10.7089
▁testamente	-10.7089
▁beslekte	-10.7089
▁kobber	-10.7089
▁valuta	-10.7089
▁vegetasjon	-10.7089
▁trengte	-10.7089
▁fangst	-10.7089
▁nepal	-10.7089
▁patriark	-10.709
▁bbc	-10.709
▁datamaskin	-10.709
▁forberede	-10.709
▁prinsesse	-10.709
▁import	-10.7091
▁innviet	-10.7091
▁telefon	-10.7091
▁betong	-10.7091
▁programleder	-10.7092
▁michel	-10.7092
vang	-10.7093
løkka	-10.7093
▁kreert	-10.7096
▁innspillingen	-10.7097
▁nøt	-10.7097
▁bønn	-10.7098
▁allmenn	-10.7098
▁verb	-10.7101
galleri	-10.7101
▁interessert	-10.7103
▁slapp	-10.7106
rått	-10.7107
▁sukker	-10.7107
▁trodde	-10.7108
▁søyle	-10.7109
økonom	-10.711
▁1867	-10.7112
▁1892	-10.7112
▁wild	-10.7114
▁1878	-10.7115
▁forlenge	-10.712
▁ferge	-10.713
▁greid	-10.7132
▁patri	-10.7136
▁dramatisk	-10.716
sluppe	-10.7163
▁personlighet	-10.719
▁tjenestegjor	-10.7196
▁musikal	-10.7206
▁jud	-10.723
▁coll	-10.7243
▁flykte	-10.7243
aktivitet	-10.7246
utdanning	-10.7247
▁huske	-10.7253
ulykke	-10.7253
▁teologi	-10.7265
▁franc	-10.7278
▁dynasti	-10.7305
▁web	-10.7306
trær	-10.7315
▁ulv	-10.7339
▁konstant	-10.7364
▁billboard	-10.7374
▁forhindre	-10.7374
▁kambodsja	-10.7374
▁mislykke	-10.7374
▁særskilt	-10.7374
▁vedlikehold	-10.7374
▁venezia	-10.7374
▁integrer	-10.7374
▁utbredelse	-10.7374
▁midtøsten	-10.7375
▁aktuell	-10.7375
▁disney	-10.7375
▁igjennom	-10.7375
▁oppfordre	-10.7375
▁gabriel	-10.7375
▁larvik	-10.7375
▁elektronisk	-10.7375
▁fuktig	-10.7376
▁enhver	-10.7377
▁poesi	-10.7378
▁medvirket	-10.7378
▁kongeriket	-10.7378
kjøring	-10.7379
▁øvelsen	-10.7379
▁smitte	-10.7379
▁piano	-10.7384
▁forrige	-10.7386
▁klatre	-10.7388
▁kunngjor	-10.7389
lengde	-10.7389
▁turné	-10.7391
▁trommer	-10.7392
▁akku	-10.7394
▁young	-10.7396
▁1894	-10.7398
▁morten	-10.7402
▁romerne	-10.7402
stadiet	-10.7403
▁with	-10.7405
▁potter	-10.7407
▁kupp	-10.7408
▁ressurs	-10.7409
▁begrunne	-10.7409
zzo	-10.7426
▁konsul	-10.7435
▁jim	-10.7439
domstol	-10.7447
▁variert	-10.7448
svarte	-10.7459
▁grevskape	-10.7498
▁låten	-10.7524
blå	-10.7548
vidt	-10.7593
▁oliv	-10.7615
regning	-10.7618
▁forfatterskap	-10.7621
▁filosofisk	-10.7654
trådt	-10.7663
▁annonsert	-10.7669
▁kristendommen	-10.7669
▁lillehammer	-10.7669
▁matematikk	-10.7669
▁mccartney	-10.7669
▁pasienten	-10.7669
▁society	-10.7669
▁uttrykt	-10.7669
▁wergeland	-10.7669
▁fortjenst	-10.7669
▁invadert	-10.7669
▁fengsle	-10.7669
▁statistikk	-10.7669
▁amatør	-10.7669
▁diskusjon	-10.7669
▁forkropp	-10.7669
▁wilson	-10.7669
▁castle	-10.7669
▁kontrast	-10.7669
▁dagbladet	-10.7669
▁tabellen	-10.7669
▁snorre	-10.767
▁isolert	-10.767
▁omstridt	-10.767
worth	-10.7671
▁smelte	-10.7671
▁forekomst	-10.7673
▁folkemusikk	-10.7673
▁francis	-10.7675
▁eiendommen	-10.7682
▁bruce	-10.7685
▁victoria	-10.7688
▁ordnet	-10.7691
▁vennskap	-10.7701
▁begynt	-10.7723
▁trygg	-10.7725
ivelse	-10.7729
▁nevro	-10.7748
▁fond	-10.7754
▁soldat	-10.7787
▁diplomatisk	-10.7806
▁driv	-10.7806
▁trent	-10.7821
▁nazi	-10.7821
museet	-10.7843
konsert	-10.7845
bølge	-10.7846
lønn	-10.788
▁borgerlig	-10.7942
▁respekt	-10.7945
▁ideologi	-10.795
areal	-10.7971
katastrofe	-10.7972
▁alexandr	-10.7972
▁cæsar	-10.7972
▁forgjenger	-10.7972
▁innspilt	-10.7972
▁konstitusjon	-10.7972
▁påbegynt	-10.7972
▁taylor	-10.7972
▁1893	-10.7972
▁adskilt	-10.7972
▁eksisterende	-10.7972
▁romerriket	-10.7972
▁parallell	-10.7972
▁kristus	-10.7972
▁statsborger	-10.7972
▁arsenal	-10.7972
vulkan	-10.7972
▁operatør	-10.7972
veksling	-10.7972
▁underholdning	-10.7972
▁erstatning	-10.7973
▁tendens	-10.7973
▁power	-10.7973
▁middelhavet	-10.7974
▁styremedlem	-10.7975
▁nyhets	-10.7975
▁gjenopprette	-10.7975
▁etterlatt	-10.7975
▁oppfølger	-10.7975
▁døgn	-10.7975
▁tilbrakt	-10.7976
▁misjons	-10.7979
▁avledet	-10.7979
kjemper	-10.7982
▁munningen	-10.7985
▁nød	-10.7986
▁fruktbar	-10.7988
▁3000	-10.7988
▁brent	-10.7993
▁sjanse	-10.7999
▁anslå	-10.7999
▁sørvestlig	-10.8011
▁egyptisk	-10.8136
▁erobre	-10.8143
▁kunstnerisk	-10.8149
direktør	-10.8156
▁million	-10.8158
tilbud	-10.819
▁messe	-10.8236
▁nettsted	-10.8244
pakt	-10.8248
▁cambridge	-10.8284
▁eurovision	-10.8284
▁lincoln	-10.8284
▁observert	-10.8284
▁popularitet	-10.8284
▁science	-10.8284
molekyl	-10.8284
▁1840	-10.8284
▁utfordring	-10.8284
▁assistent	-10.8284
▁referert	-10.8284
▁hebraisk	-10.8284
▁fiolin	-10.8284
▁protestantisk	-10.8284
▁ulovlig	-10.8284
▁kommentar	-10.8284
▁margaret	-10.8284
▁begravelse	-10.8284
▁maritim	-10.8285
▁bønder	-10.8285
▁lojal	-10.8285
▁pianist	-10.8285
fortelling	-10.8286
▁borgermester	-10.8287
▁svein	-10.8288
▁pierre	-10.8289
▁belønne	-10.8289
▁zhang	-10.829
▁2018	-10.8292
▁embete	-10.8292
▁stedsnavn	-10.8294
▁konstantin	-10.8297
▁tenkt	-10.8304
bytte	-10.8311
▁nederst	-10.8314
▁kirkegård	-10.8328
▁datert	-10.8334
▁bakkropp	-10.844
sesongen	-10.8479
grønn	-10.8479
blokk	-10.848
poeng	-10.8484
rennet	-10.852
forhandlinger	-10.8526
▁home	-10.8554
▁høgskolen	-10.8597
konservativ	-10.8603
sekvens	-10.8605
▁napoleon	-10.8607
▁infanteri	-10.8607
pningsseremonien	-10.8607
▁angelsaksisk	-10.8607
▁atmosfære	-10.8607
▁bataljon	-10.8607
▁færøysk	-10.8607
▁innsbruck	-10.8607
▁millimeter	-10.8607
▁naturreservat	-10.8607
▁slalåm	-10.8607
▁tilstrekkelig	-10.8607
▁westminster	-10.8607
▁bystatus	-10.8607
▁vurdere	-10.8607
▁blomstre	-10.8607
▁gjald	-10.8607
▁eidsvoll	-10.8607
▁lørdag	-10.8607
▁avskaffe	-10.8607
▁deutsch	-10.8607
▁begravet	-10.8607
▁kontinental	-10.8607
▁langrenn	-10.8607
▁seinere	-10.8607
jylland	-10.8608
▁partner	-10.8608
▁larver	-10.8609
▁slank	-10.8609
▁multi	-10.8609
▁landskamper	-10.861
▁generalsekretær	-10.8611
▁spurt	-10.8612
▁geologisk	-10.8613
▁styreleder	-10.8614
▁programvare	-10.8614
▁medførte	-10.8616
▁tegninger	-10.8617
artikler	-10.8652
▁barneskole	-10.8696
▁pels	-10.8703
asso	-10.874
kamerat	-10.8747
teknologi	-10.8798
instrument	-10.8812
løfte	-10.8816
sentral	-10.8819
utgave	-10.8831
prøv	-10.8861
▁føle	-10.8915
vatn	-10.8916
▁absolutt	-10.894
▁ambassade	-10.894
▁forøvrig	-10.894
▁innendørs	-10.894
▁konstantinopel	-10.894
▁ortodoks	-10.894
▁symptom	-10.894
▁trommeslager	-10.894
▁opprettholde	-10.894
▁returnert	-10.894
▁jackson	-10.894
▁vinterleker	-10.894
▁kavaleri	-10.894
▁linux	-10.894
▁identitet	-10.894
▁beleiring	-10.894
▁kvartal	-10.894
▁betydningsfull	-10.894
▁tvilling	-10.894
▁fiktiv	-10.894
mouth	-10.894
▁økning	-10.894
▁haakon	-10.894
▁protein	-10.8941
▁korpset	-10.8942
▁barokk	-10.8942
▁tennis	-10.8943
▁senatet	-10.8944
▁3166	-10.8945
▁femteplass	-10.8946
▁skuffe	-10.8952
▁hvile	-10.8958
▁regjeringstid	-10.8985
▁alpinist	-10.8989
revolusjonen	-10.8996
▁studert	-10.9037
▁folkeparti	-10.9064
▁inneba	-10.9088
basseng	-10.9105
head	-10.9125
orkester	-10.9156
kandidat	-10.9156
befolkningen	-10.9157
resultat	-10.9157
tradisjon	-10.9157
▁birg	-10.9168
▁hytte	-10.9202
▁romantisk	-10.9204
▁afrikansk	-10.9284
▁allikevel	-10.9285
▁angivelig	-10.9285
▁eventyr	-10.9285
▁fremtredende	-10.9285
▁illinois	-10.9285
▁larvestadiet	-10.9285
▁pasienter	-10.9285
▁skihopper	-10.9285
▁uteksaminer	-10.9285
▁favoritt	-10.9285
▁fiendtlig	-10.9285
▁forklaring	-10.9285
▁kommandant	-10.9285
▁libanon	-10.9285
▁komponent	-10.9285
▁frogner	-10.9285
▁hyppig	-10.9285
▁hovedpersonen	-10.9285
▁seoul	-10.9285
▁alminnelig	-10.9285
▁batteri	-10.9286
kommentator	-10.9286
▁definere	-10.9286
▁tørke	-10.9288
▁verdifull	-10.9288
▁profet	-10.9289
▁sirkel	-10.929
▁øystein	-10.9291
▁døtre	-10.9291
▁forlatt	-10.9292
▁dannelsen	-10.9294
▁utforske	-10.9299
▁respektiv	-10.9316
tempelet	-10.9316
▁forretningsmann	-10.9316
bundet	-10.9316
▁tretten	-10.9319
▁dreie	-10.9348
amerikanske	-10.9353
▁koreansk	-10.9376
▁innerst	-10.9379
▁ørn	-10.9393
▁hevn	-10.9411
opplevelse	-10.9414
representant	-10.9494
transport	-10.9514
yuan	-10.9519
reisende	-10.9553
▁database	-10.958
▁tryg	-10.9586
▁tsje	-10.9613
▁slange	-10.9615
institut	-10.9629
▁omdanne	-10.9631
▁academy	-10.9642
▁association	-10.9642
▁forfremmet	-10.9642
▁hongkong	-10.9642
▁interessant	-10.9642
▁kennedy	-10.9642
▁restaurert	-10.9642
▁shakespeare	-10.9642
reservoar	-10.9642
▁central	-10.9642
▁utdødd	-10.9642
▁oxford	-10.9642
▁stjørdal	-10.9642
▁evangeli	-10.9642
▁kulturminner	-10.9642
▁russerne	-10.9642
▁gjenvalgt	-10.9642
▁folketallet	-10.9642
▁dublin	-10.9642
▁unesco	-10.9642
▁ordinær	-10.9642
▁forandret	-10.9642
▁fremtidig	-10.9642
▁brigade	-10.9643
▁konsernet	-10.9643
▁drivstoff	-10.9643
▁bebodd	-10.9643
▁monroe	-10.9643
▁skjøt	-10.9643
ев	-10.9643
▁tokyo	-10.9643
▁betjene	-10.9643
▁titler	-10.9644
▁busker	-10.9645
▁western	-10.9645
rettighetene	-10.9646
▁institusjoner	-10.9646
aceae	-10.9646
▁balkan	-10.9648
▁ballett	-10.9653
▁særeg	-10.9658
atarina	-10.966
finansiert	-10.9687
▁burd	-10.9707
▁strå	-10.9727
utstillingen	-10.9769
skrekk	-10.9778
nevnte	-10.9807
krisen	-10.9817
town	-10.985
vennlig	-10.9852
▁kamera	-10.9876
advokat	-10.9884
bibliotek	-10.9884
▁basis	-10.9963
kontinent	-11.0012
tetthet	-11.0012
▁atlanterhavet	-11.0012
▁bryllup	-11.0012
▁dekkvingene	-11.0012
▁filippinene	-11.0012
▁fjorten	-11.0012
▁hollywood	-11.0012
▁jordskjelv	-11.0012
▁republikansk	-11.0012
▁territorium	-11.0012
▁warszawa	-11.0012
kommanderende	-11.0012
▁demonstrasjon	-11.0012
▁søknad	-11.0012
▁identifisert	-11.0012
▁florida	-11.0012
▁latvia	-11.0012
▁aspekt	-11.0012
kommunistpartiet	-11.0012
▁kontroversiell	-11.0012
▁dresden	-11.0012
▁matematisk	-11.0013
▁theodor	-11.0013
▁stephen	-11.0013
▁adolf	-11.0013
▁clark	-11.0013
▁bmw	-11.0013
▁firenze	-11.0013
▁tverrbånd	-11.0013
▁kontinentet	-11.0013
▁sibir	-11.0013
▁søsken	-11.0013
▁skrog	-11.0013
▁dødsfall	-11.0014
▁forhandlingene	-11.0014
▁hjort	-11.0014
▁kalender	-11.0014
▁velkjent	-11.0015
▁alpene	-11.0015
bakterier	-11.0016
væske	-11.0016
▁milano	-11.0017
▁følt	-11.0017
▁knust	-11.0017
▁kanadisk	-11.0018
▁konsulent	-11.0018
nwart	-11.0019
▁institute	-11.0023
▁operert	-11.0023
lignende	-11.0028
▁uklar	-11.0041
pråklig	-11.0048
▁domkirke	-11.0113
▁kallenavn	-11.0126
snegl	-11.0169
lån	-11.0195
▁forplikte	-11.0208
▁minutt	-11.0264
soldater	-11.0269
▁hovedrolle	-11.0304
bombe	-11.0343
▁victor	-11.0372
▁assosiert	-11.0397
▁bachelor	-11.0397
▁britannia	-11.0397
▁bysantinsk	-11.0397
▁dirigent	-11.0397
▁katolikker	-11.0397
▁kongsvinger	-11.0397
▁ludwig	-11.0397
▁luxembourg	-11.0397
▁makedonia	-11.0397
▁metamorf	-11.0397
▁parallelt	-11.0397
▁pronotum	-11.0397
▁tsjekkia	-11.0397
▁virginia	-11.0397
▁forveksle	-11.0397
▁quisling	-11.0397
▁gjøvik	-11.0397
▁innstifte	-11.0397
▁prince	-11.0397
▁tsjekkisk	-11.0397
▁vannpolo	-11.0397
▁hamilton	-11.0397
▁geometri	-11.0397
▁muslimsk	-11.0397
▁hvileperiode	-11.0397
▁contest	-11.0397
▁sandefjord	-11.0397
▁verdensarv	-11.0397
▁styring	-11.0397
▁utsikt	-11.0397
▁marcus	-11.0398
▁betydd	-11.0398
▁ørken	-11.0398
▁nigeria	-11.0398
▁døpt	-11.0398
▁abbed	-11.0399
ovitsj	-11.0399
▁pastor	-11.0399
▁mynter	-11.04
▁våt	-11.0401
attraksjon	-11.0402
▁rettssak	-11.0402
▁skrå	-11.0403
▁forenkle	-11.0405
hausen	-11.0434
hampton	-11.0437
gyldig	-11.0511
sdatter	-11.0538
kompleks	-11.0668
spørsmål	-11.0669
design	-11.0672
koloni	-11.0674
sykdom	-11.069
radio	-11.0698
spenning	-11.0699
▁brødre	-11.0761
▁beliggenhet	-11.0797
▁elektrisitet	-11.0797
▁etiopia	-11.0797
▁frankfurt	-11.0797
▁guddommelig	-11.0797
▁indonesia	-11.0797
▁konsentrert	-11.0797
▁köln	-11.0797
▁låtskriver	-11.0797
▁musikkvideo	-11.0797
▁opphørte	-11.0797
▁pilegrim	-11.0797
▁research	-11.0797
▁skandinavisk	-11.0797
instruktør	-11.0797
▁avslørt	-11.0797
▁emigrert	-11.0797
▁frekvens	-11.0797
▁vurdert	-11.0797
▁primitiv	-11.0797
▁regjerte	-11.0797
▁sicilia	-11.0797
▁mangfold	-11.0797
▁annerledes	-11.0797
▁cecil	-11.0797
▁gælisk	-11.0797
▁oldtidens	-11.0797
▁stortingsvalge	-11.0797
▁grundig	-11.0797
▁utstrakt	-11.0797
▁fødselsår	-11.0797
▁skåne	-11.0797
▁lennon	-11.0797
▁grekerne	-11.0797
▁middle	-11.0797
▁ålesund	-11.0797
▁brussel	-11.0797
▁skildre	-11.0797
▁dybde	-11.0798
▁søvn	-11.0798
▁seksuell	-11.0798
▁særdeles	-11.0798
▁bjørk	-11.0798
▁vakre	-11.0798
▁betingelse	-11.0798
▁utbruddet	-11.0798
▁utslipp	-11.0798
▁brasiliansk	-11.0798
▁arrest	-11.0798
▁fylkeskommune	-11.0798
▁rumensk	-11.0799
▁utfordre	-11.0799
▁uefa	-11.0799
mønstre	-11.0799
▁høg	-11.08
▁verktøy	-11.08
▁flytende	-11.08
▁bensin	-11.08
▁fasade	-11.0803
▁forelske	-11.0805
▁domstolen	-11.0805
▁tilfeldig	-11.0806
▁ferje	-11.0815
▁rifle	-11.0822
▁identisk	-11.0834
▁fastsl	-11.0892
▁stevn	-11.0965
spektr	-11.1063
frukt	-11.1085
faktor	-11.1085
innsats	-11.1085
offiser	-11.1085
sentrum	-11.1087
champ	-11.1114
▁undersøke	-11.1175
▁laborator	-11.1214
▁canterbury	-11.1214
▁engasjement	-11.1214
▁glasgow	-11.1214
▁göteborg	-11.1214
▁konføder	-11.1214
▁mississippi	-11.1214
▁observasjoner	-11.1214
▁prestegjeld	-11.1214
▁tanzania	-11.1214
▁tsjekkoslovakia	-11.1214
▁vålerenga	-11.1214
▁væpne	-11.1214
▁westfalen	-11.1214
▁benjamin	-11.1214
▁konkurrent	-11.1214
▁marokko	-11.1214
▁nøkkel	-11.1214
▁selvbiografi	-11.1214
▁spellemannpris	-11.1214
▁taiwan	-11.1214
▁oppdatert	-11.1214
▁istedenfor	-11.1214
▁tragedie	-11.1214
▁muslimer	-11.1214
▁massiv	-11.1214
▁sanskrit	-11.1214
disiplin	-11.1214
▁misjonær	-11.1214
▁kortvarig	-11.1214
▁heavy	-11.1214
▁nominasjon	-11.1214
▁opptreden	-11.1214
▁regulert	-11.1214
▁frimurer	-11.1214
▁eksistens	-11.1214
▁andré	-11.1214
▁skjebne	-11.1214
▁ledsage	-11.1215
▁spekter	-11.1215
▁forandring	-11.1215
▁bemerket	-11.1215
▁saturn	-11.1215
▁variasjoner	-11.1216
▁puppestadie	-11.1216
mekanisme	-11.1216
▁kaffe	-11.1216
kobling	-11.1217
▁sannhet	-11.1218
▁søndr	-11.1219
▁satellitt	-11.1233
syklus	-11.1277
▁formidle	-11.1282
▁bekjempe	-11.1334
▁skei	-11.1427
▁dobbel	-11.1487
gruppa	-11.1491
kommando	-11.152
studier	-11.152
politiker	-11.152
▁konsentrasjon	-11.1646
▁aluminium	-11.1648
▁birkeland	-11.1648
▁douglas	-11.1648
▁evolusjon	-11.1648
▁folkeavstemning	-11.1648
▁forvandling	-11.1648
▁legendarisk	-11.1648
▁normandie	-11.1648
▁skandinavia	-11.1648
▁sparebank	-11.1648
▁varaordfører	-11.1648
▁ferskvann	-11.1648
▁progressiv	-11.1648
▁shandong	-11.1648
▁felttoget	-11.1648
▁nidaros	-11.1648
▁teoretisk	-11.1648
▁isabella	-11.1648
▁forberedt	-11.1648
▁forstyrre	-11.1648
▁heinrich	-11.1648
▁konsonant	-11.1648
▁rasmus	-11.1648
▁sogneprest	-11.1648
koordinat	-11.1649
▁samuel	-11.1649
bransjen	-11.1649
metabol	-11.1649
sylindre	-11.1649
▁fascist	-11.1649
▁regulere	-11.1649
▁trussel	-11.1649
▁vulkansk	-11.1649
▁lewis	-11.1649
▁für	-11.165
▁deltakelse	-11.165
▁josé	-11.165
▁betaling	-11.1651
▁residens	-11.1651
shovedstad	-11.1651
infeksjon	-11.1653
▁krigsfange	-11.1654
▁farao	-11.1655
▁keltisk	-11.1657
trilogi	-11.1657
▁ladning	-11.1657
▁down	-11.166
▁öst	-11.1755
avhengighet	-11.1907
bukten	-11.1928
møll	-11.1941
▁hendelse	-11.1959
historiker	-11.1975
musiker	-11.1975
preget	-11.1976
▁filolog	-11.2049
kommissær	-11.2103
kvadratkilometer	-11.2103
▁absorber	-11.2103
▁anthony	-11.2103
▁argentinsk	-11.2103
▁byfylke	-11.2103
▁doktrine	-11.2103
▁edinburgh	-11.2103
▁electric	-11.2103
▁erkebispedømme	-11.2103
▁fattigdom	-11.2103
▁høvding	-11.2103
▁illustrert	-11.2103
▁individuelt	-11.2103
▁kasakhstan	-11.2103
▁langrennsløper	-11.2103
▁mislyktes	-11.2103
▁omdøpt	-11.2103
▁pennsylvania	-11.2103
▁skihopping	-11.2103
▁tilnærming	-11.2103
▁venezuela	-11.2103
▁begrensning	-11.2103
▁diagnose	-11.2103
▁litauisk	-11.2103
▁psykisk	-11.2103
köping	-11.2103
▁arabia	-11.2103
▁abstrakt	-11.2103
▁bjerke	-11.2103
▁prestisje	-11.2103
▁cappelen	-11.2103
▁instruksjon	-11.2103
▁løslatt	-11.2103
▁veksel	-11.2103
▁komplett	-11.2103
▁parlamentarisk	-11.2103
▁rugby	-11.2103
▁bøndene	-11.2103
▁serbia	-11.2103
▁sympati	-11.2103
▁innsikt	-11.2103
▁burgund	-11.2103
▁feiring	-11.2104
▁alaska	-11.2104
▁theatre	-11.2104
▁dream	-11.2104
▁harrison	-11.2104
▁innflytelsesrik	-11.2105
▁forfatning	-11.2105
▁dekorasjon	-11.2105
▁mikael	-11.2107
finansiering	-11.2115
gudstjeneste	-11.2117
▁ødela	-11.2117
▁manglet	-11.2122
▁avgjørelse	-11.2122
▁arktisk	-11.2223
republikken	-11.23
▁puppe	-11.2311
rettigheter	-11.2383
▁undersøkt	-11.2408
palasset	-11.2432
▁milliard	-11.2445
medisin	-11.2451
redaktør	-11.2451
hertug	-11.2451
åpning	-11.2456
misbruk	-11.2465
presse	-11.2551
▁innenriks	-11.2557
▁fasettøyne	-11.2579
perspektiv	-11.2579
▁geoffrey	-11.2579
▁inklusiv	-11.2579
▁originaltittel	-11.2579
▁resolusjon	-11.2579
▁rudolf	-11.2579
▁spanjolene	-11.2579
▁styrmann	-11.2579
▁toppscorer	-11.2579
▁uruguay	-11.2579
▁1856	-11.2579
▁brønn	-11.2579
▁dramatiker	-11.2579
▁komplisert	-11.2579
▁sylinder	-11.2579
▁taliban	-11.2579
▁uavgjort	-11.2579
▁albania	-11.2579
▁anskaffe	-11.2579
▁königst	-11.2579
publikasjon	-11.2579
▁airlines	-11.2579
▁norwegi	-11.2579
▁ntnu	-11.2579
▁division	-11.2579
▁protokoll	-11.2579
▁konkret	-11.2579
▁registrering	-11.2579
▁avsløre	-11.2579
▁fangenskap	-11.2579
▁triumf	-11.2579
▁bjarn	-11.2579
▁utsagn	-11.2579
▁vietnamesisk	-11.258
paragraf	-11.258
▁valdres	-11.258
▁stadium	-11.258
▁barnehage	-11.258
▁sophie	-11.258
▁detroit	-11.258
▁overordne	-11.2581
▁rimelig	-11.2581
▁majest	-11.2581
▁støp	-11.2582
▁dekorert	-11.2582
▁understreke	-11.2583
installasjon	-11.2584
▁havneby	-11.2584
▁axel	-11.2585
▁parodi	-11.2586
▁verdslig	-11.2586
gunstig	-11.2586
▁grind	-11.2589
▁fossile	-11.2596
ã	-13.0205
