<unk>	0
<s>	0
</s>	0
.	-3.26238
e	-3.58434
s	-3.61139
▁i	-3.62529
▁og	-3.91637
▁	-3.97337
t	-4.12935
er	-4.16505
en	-4.22328
▁av	-4.38878
r	-4.5444
▁en	-4.57328
▁er	-4.58313
▁som	-4.65031
▁for	-4.76532
▁til	-4.78669
▁på	-4.88797
et	-4.9771
▁med	-5.01696
n	-5.02836
▁den	-5.07432
▁ble	-5.12455
▁var	-5.20411
▁det	-5.2255
▁de	-5.30355
▁fra	-5.44162
a	-5.47504
▁han	-5.49883
▁å	-5.50051
▁et	-5.56725
▁har	-5.58253
ene	-5.62465
ne	-5.88767
i	-5.90886
▁at	-5.9112
o	-5.9189
▁ved	-5.95707
d	-5.97928
k	-6.04585
▁om	-6.11773
y	-6.12992
▁også	-6.15329
▁etter	-6.15399
te	-6.22531
m	-6.23757
▁ut	-6.24684
g	-6.26456
▁under	-6.31548
l	-6.32444
▁men	-6.36914
▁over	-6.39327
▁eller	-6.39556
f	-6.40266
re	-6.40433
de	-6.41675
p	-6.43962
▁da	-6.48798
▁to	-6.50206
▁kan	-6.51847
▁seg	-6.52664
▁hadde	-6.53247
▁opp	-6.54772
▁inn	-6.59008
h	-6.59446
v	-6.61858
▁s	-6.63055
▁a	-6.63204
al	-6.63485
▁ikke	-6.6402
▁f	-6.64239
es	-6.66073
ing	-6.68061
▁be	-6.71236
in	-6.71784
▁18	-6.72103
c	-6.72554
▁sin	-6.73333
▁andre	-6.74406
u	-6.76489
b	-6.7657
▁mot	-6.77891
us	-6.79385
▁født	-6.83925
ter	-6.84092
an	-6.84848
ende	-6.85787
▁1	-6.86716
▁mellom	-6.87062
▁dette	-6.89433
▁hun	-6.89689
▁ha	-6.90184
▁hans	-6.91765
▁første	-6.93808
sk	-6.94934
is	-6.96244
on	-6.96948
▁the	-6.98466
le	-6.98538
▁tre	-7.00296
ia	-7.01011
lig	-7.01871
ar	-7.02587
▁m	-7.03102
▁g	-7.04586
kk	-7.07242
z	-7.07573
▁man	-7.07903
na	-7.09417
▁år	-7.10163
▁denne	-7.13586
▁kom	-7.1377
▁blant	-7.14683
fikk	-7.14941
▁ligger	-7.15389
▁la	-7.15391
▁der	-7.17226
w	-7.18475
sen	-7.19173
▁hvor	-7.19472
land	-7.19519
ta	-7.19792
▁u	-7.2017
▁flere	-7.20888
el	-7.22244
▁re	-7.22621
um	-7.23337
▁2	-7.24503
ri	-7.25349
▁sammen	-7.25542
la	-7.27434
▁nord	-7.28015
il	-7.29082
▁b	-7.29233
▁se	-7.29544
or	-7.30156
▁del	-7.31459
ens	-7.31541
iske	-7.32413
▁ca	-7.32794
ke	-7.33154
▁of	-7.33785
be	-7.34081
▁k	-7.34127
▁p	-7.34351
▁gjennom	-7.34572
▁an	-7.3464
▁nå	-7.347
▁ro	-7.34861
j	-7.34962
da	-7.35948
▁3	-7.36103
▁død	-7.36204
at	-7.36372
▁stor	-7.36958
▁her	-7.38151
▁c	-7.38208
ch	-7.38767
isk	-7.39365
▁d	-7.40131
▁så	-7.40296
ur	-7.40558
ø	-7.40744
▁h	-7.40925
ske	-7.4097
øy	-7.41044
▁17	-7.41471
▁før	-7.41634
ver	-7.41955
▁mer	-7.42672
▁norsk	-7.43538
nde	-7.43716
▁alle	-7.44093
▁mange	-7.44448
ra	-7.44609
der	-7.45368
▁5	-7.46238
▁kommune	-7.46314
ler	-7.46702
ck	-7.46817
vis	-7.47115
▁tidligere	-7.47509
os	-7.47636
▁blir	-7.47678
x	-7.49353
å	-7.5065
▁annet	-7.50946
nes	-7.51714
▁bo	-7.52047
id	-7.52795
di	-7.53011
mann	-7.53331
▁16	-7.53362
▁ra	-7.53845
▁ny	-7.53902
for	-7.54064
ga	-7.54604
ut	-7.54605
▁disse	-7.54732
▁selv	-7.55054
▁4	-7.55647
ma	-7.55693
▁byen	-7.56008
▁senere	-7.56086
ker	-7.56491
ve	-7.5656
▁al	-7.56685
▁vi	-7.57449
ning	-7.57688
▁være	-7.58353
▁pi	-7.59256
▁sitt	-7.59273
den	-7.59452
▁tallet	-7.6006
▁siden	-7.60393
▁15	-7.60802
ner	-7.61105
mo	-7.61407
ng	-7.61897
lo	-7.61948
as	-7.6205
ul	-7.62257
é	-7.62333
▁noen	-7.62459
th	-7.62931
it	-7.63085
▁sør	-7.63745
▁kjent	-7.64144
ka	-7.64238
bo	-7.64546
▁store	-7.65182
ry	-7.6574
▁kr	-7.6594
son	-7.66013
ff	-7.66278
▁norge	-7.6643
ge	-7.66704
ig	-7.67182
ba	-7.68595
▁st	-7.68833
▁sa	-7.69146
▁frem	-7.69157
li	-7.69315
ro	-7.70051
▁ti	-7.70193
▁vil	-7.70594
het	-7.70624
▁by	-7.70925
▁rundt	-7.71057
▁ka	-7.71098
▁samme	-7.71105
▁hoved	-7.71351
man	-7.71621
▁mens	-7.72486
ti	-7.72562
▁dag	-7.72628
▁ned	-7.73349
▁slik	-7.73438
om	-7.73787
▁tid	-7.74325
ad	-7.74558
ha	-7.75034
▁vest	-7.75131
ger	-7.75264
▁li	-7.75375
▁10	-7.75423
▁pa	-7.75671
mp	-7.76427
ang	-7.76768
▁blitt	-7.76825
▁ba	-7.77068
ton	-7.77153
▁7	-7.772
vi	-7.77204
bi	-7.77473
▁sine	-7.77761
▁vært	-7.78087
▁he	-7.78114
asjon	-7.78487
▁ol	-7.78506
▁in	-7.7858
▁grunn	-7.78824
stad	-7.7902
▁navnet	-7.79068
to	-7.79256
▁navn	-7.79328
▁ta	-7.79391
▁n	-7.79503
▁di	-7.79663
ist	-7.79694
si	-7.7993
mi	-7.80307
▁enn	-7.81307
ert	-7.81523
kt	-7.81864
ell	-7.82072
▁mest	-7.82099
ven	-7.82386
▁spilt	-7.82721
▁ho	-7.82728
▁sp	-7.82796
▁øst	-7.8306
▁le	-7.83112
▁land	-7.83239
ja	-7.83335
▁na	-7.83526
▁båd	-7.83601
▁6	-7.83686
erne	-7.84129
ic	-7.84209
▁noe	-7.84455
▁kalt	-7.84578
by	-7.84682
▁l	-7.85047
▁ofte	-7.85735
▁ni	-7.85737
ør	-7.85788
erte	-7.86038
▁gikk	-7.86058
berg	-7.86071
skap	-7.86912
sa	-7.87172
▁kunne	-7.87251
▁lo	-7.88605
va	-7.8906
▁finnes	-7.89318
▁ar	-7.89462
ste	-7.8964
lige	-7.89745
▁co	-7.90216
▁skal	-7.904
dal	-7.90478
▁ham	-7.90832
▁går	-7.90889
▁si	-7.91311
ol	-7.9143
am	-7.91762
▁lag	-7.91956
▁mars	-7.92331
▁fri	-7.92338
▁mo	-7.92871
me	-7.93153
▁per	-7.9316
gi	-7.93237
▁skulle	-7.93343
▁km	-7.93938
▁fire	-7.94241
tre	-7.94852
▁du	-7.9502
▁as	-7.951
▁ga	-7.95287
gen	-7.95714
else	-7.95743
▁vant	-7.95877
▁august	-7.9698
▁norske	-7.97022
tter	-7.97158
av	-7.97186
ce	-7.97296
co	-7.97398
▁nye	-7.9746
ik	-7.97461
iv	-7.97532
▁v	-7.97759
▁samt	-7.97832
▁mai	-7.98423
▁ri	-7.98462
▁8	-7.98555
▁14	-7.98696
▁12	-7.98902
▁tok	-7.99613
tt	-7.99654
▁far	-7.99817
▁j	-7.99857
▁kirke	-8.00004
▁t	-8.00056
pp	-8.00314
▁fram	-8.00415
▁w	-8.0087
var	-8.01225
▁o	-8.01865
▁pro	-8.01999
je	-8.0208
▁hos	-8.02089
år	-8.02195
op	-8.02306
▁gang	-8.02589
▁11	-8.0279
▁no	-8.02944
▁9	-8.02946
go	-8.0301
▁lu	-8.03294
mer	-8.03361
▁tilbake	-8.0342
▁so	-8.03454
pe	-8.03678
▁el	-8.04122
ster	-8.04452
▁13	-8.0462
▁største	-8.04717
un	-8.04918
▁ko	-8.05049
ca	-8.05371
▁usa	-8.05427
opp	-8.05699
▁vanlig	-8.06213
▁ru	-8.06241
▁bak	-8.06324
ling	-8.06599
▁kon	-8.06603
ll	-8.06805
▁oslo	-8.06912
▁lang	-8.07709
▁bli	-8.0772
rett	-8.07741
▁juli	-8.08041
æ	-8.0869
▁and	-8.08705
▁bare	-8.08822
▁mål	-8.09058
▁januar	-8.09148
ko	-8.09217
ring	-8.09362
▁bu	-8.09508
▁ma	-8.09652
tal	-8.09943
ir	-8.10124
▁fa	-8.10731
▁y	-8.10931
▁dem	-8.11034
ho	-8.11486
▁000	-8.11838
▁20	-8.11845
ingen	-8.11935
ns	-8.12067
▁meter	-8.12232
▁hele	-8.12305
▁gi	-8.12322
▁juni	-8.13025
au	-8.13363
ok	-8.13522
io	-8.13602
sel	-8.13603
im	-8.1376
▁fly	-8.1411
▁sch	-8.14163
▁april	-8.14223
▁bi	-8.14318
▁mor	-8.14565
▁rekke	-8.15165
▁skole	-8.1523
ed	-8.15268
▁fransk	-8.15559
▁siste	-8.15842
ru	-8.15988
▁sol	-8.16359
vik	-8.16413
per	-8.16541
▁bestå	-8.16624
▁su	-8.16799
▁gjen	-8.16938
ina	-8.17502
▁mi	-8.17595
▁mar	-8.17848
ly	-8.18975
do	-8.19216
▁desember	-8.19568
▁musikk	-8.2028
▁do	-8.20452
▁innen	-8.21173
▁området	-8.21469
▁få	-8.21603
po	-8.21885
no	-8.21986
▁po	-8.22297
▁ver	-8.2267
á	-8.22697
ær	-8.22753
ard	-8.22802
▁leder	-8.22958
▁fl	-8.2329
▁utgitt	-8.23313
▁deres	-8.23647
▁me	-8.23997
▁mindre	-8.2412
tak	-8.24456
▁or	-8.24625
ering	-8.24636
tid	-8.24952
▁2008	-8.24998
sh	-8.25187
lin	-8.25279
ede	-8.2564
tur	-8.25672
ings	-8.25918
▁ne	-8.26263
▁2007	-8.26348
od	-8.26791
▁uten	-8.26792
▁like	-8.27045
▁bar	-8.27071
▁kun	-8.27234
sted	-8.27307
del	-8.27364
▁tillegg	-8.27581
▁ak	-8.27826
ian	-8.27888
este	-8.279
▁fem	-8.2794
men	-8.28064
ant	-8.28083
▁go	-8.28154
▁november	-8.28164
▁ski	-8.28298
▁først	-8.28374
▁2010	-8.28404
gang	-8.28665
▁ei	-8.287
ud	-8.28777
min	-8.28791
▁vann	-8.28906
▁gift	-8.29108
ion	-8.29162
▁februar	-8.29321
▁oktober	-8.29321
nd	-8.29668
▁john	-8.29795
sta	-8.29802
▁tro	-8.29847
▁må	-8.29898
▁begynte	-8.30395
▁langs	-8.30541
▁eks	-8.30708
▁laget	-8.30727
▁små	-8.30827
over	-8.30913
▁videre	-8.30972
inn	-8.3119
elle	-8.31356
2	-8.31421
▁nær	-8.31454
ag	-8.31572
▁new	-8.31594
ci	-8.32069
bar	-8.32083
▁språk	-8.32291
bu	-8.32415
dan	-8.32625
▁igjen	-8.32641
pi	-8.32841
1	-8.33051
▁september	-8.33117
tra	-8.33229
ö	-8.33261
▁bruk	-8.33345
midlertid	-8.33364
▁rett	-8.33487
▁tor	-8.33513
▁san	-8.33572
les	-8.33633
ie	-8.3379
▁opprinnelig	-8.33846
▁sønn	-8.33846
▁tv	-8.33928
ier	-8.34072
▁tra	-8.34424
len	-8.34524
▁landet	-8.34747
lag	-8.3476
gu	-8.34782
▁kunst	-8.34816
▁0	-8.34886
itt	-8.34923
ot	-8.35258
▁par	-8.35374
▁film	-8.35429
sjon	-8.35513
▁hennes	-8.35598
ken	-8.36062
▁2006	-8.36067
▁pe	-8.36247
▁30	-8.36349
▁ju	-8.36763
▁startet	-8.36862
▁barn	-8.36915
sett	-8.36939
▁helt	-8.36999
if	-8.3731
ak	-8.37605
▁lov	-8.3783
▁ville	-8.38381
▁kommer	-8.38454
hu	-8.38485
dag	-8.38647
▁fi	-8.38837
▁jo	-8.38855
▁mat	-8.38959
▁øy	-8.39054
▁wa	-8.39095
▁x	-8.39178
▁hel	-8.3967
▁skrevet	-8.39742
▁kong	-8.39934
▁årene	-8.39982
tor	-8.3999
▁brukt	-8.4006
▁folke	-8.40397
▁2009	-8.40398
▁ja	-8.40561
pa	-8.40782
▁sam	-8.40879
sp	-8.40967
▁egen	-8.40968
▁form	-8.41093
▁større	-8.41121
▁brukes	-8.4117
▁gir	-8.4141
▁hver	-8.41501
ment	-8.41577
vin	-8.41802
▁medlem	-8.41823
▁skrev	-8.42037
ningen	-8.42091
▁eksempel	-8.42167
ber	-8.42307
▁r	-8.42533
▁engelsk	-8.42668
▁beste	-8.43348
ty	-8.43902
▁bra	-8.4402
▁deretter	-8.44118
▁tri	-8.44415
art	-8.4442
siden	-8.44522
hus	-8.44738
tan	-8.44744
▁høy	-8.44848
▁begge	-8.45225
lu	-8.45279
ium	-8.45375
▁provinsen	-8.45414
▁gamle	-8.45484
▁spiller	-8.4552
▁lever	-8.45537
▁gjorde	-8.45665
hold	-8.45684
▁alt	-8.45743
▁satt	-8.45891
▁ad	-8.4595
▁særlig	-8.46317
dd	-8.4633
▁kultur	-8.46341
▁gruppen	-8.46477
ord	-8.46525
stein	-8.46527
lse	-8.46631
dig	-8.46659
ov	-8.46664
▁filmen	-8.46945
▁døde	-8.47138
▁te	-8.47328
let	-8.47628
ans	-8.47651
▁verdens	-8.47769
▁em	-8.47826
▁året	-8.47832
▁samtidig	-8.4795
í	-8.48231
▁2005	-8.48245
iser	-8.48269
▁sjø	-8.48273
verk	-8.48424
▁z	-8.48578
anske	-8.48833
fi	-8.48833
▁all	-8.49089
følge	-8.49174
▁kina	-8.49204
met	-8.49225
slag	-8.49561
mm	-8.49648
ld	-8.49714
tu	-8.49777
dre	-8.49857
▁hus	-8.50402
ü	-8.50507
▁dermed	-8.50544
itet	-8.50859
▁con	-8.51137
▁ab	-8.51353
and	-8.51681
▁president	-8.5181
▁deltok	-8.52039
▁mye	-8.52152
ny	-8.5224
▁bok	-8.52393
▁kort	-8.52487
ting	-8.52616
▁ulike	-8.52919
▁am	-8.53172
▁bil	-8.53376
mon	-8.5347
▁plass	-8.53941
▁svær	-8.54162
▁nor	-8.54289
▁kl	-8.54376
▁gud	-8.54445
uk	-8.54508
▁min	-8.54906
▁måtte	-8.54938
ron	-8.55272
ius	-8.55521
▁ki	-8.55671
▁car	-8.55719
▁kinesisk	-8.55801
▁europa	-8.56056
▁vei	-8.56151
mar	-8.56201
sson	-8.56345
▁parti	-8.56637
▁kjente	-8.56744
derfor	-8.56917
tten	-8.56975
▁fjell	-8.57066
▁sommer	-8.5708
▁kalles	-8.57089
tok	-8.57132
▁lå	-8.57324
▁bygget	-8.57359
ft	-8.57564
ku	-8.57579
▁nasjonal	-8.57744
ow	-8.58048
▁tiden	-8.58056
til	-8.58277
burg	-8.58486
▁amerikansk	-8.58617
▁bergen	-8.58747
stand	-8.5895
▁dagen	-8.5898
▁dr	-8.58992
▁fast	-8.59127
▁etablert	-8.59221
ac	-8.59326
▁bandet	-8.59395
res	-8.59471
und	-8.59498
▁innbyggere	-8.59536
ä	-8.59581
ikk	-8.59584
▁amerikanske	-8.5974
▁tyske	-8.59772
▁sett	-8.59788
log	-8.60015
▁tysk	-8.60177
▁forfatter	-8.60399
bel	-8.60541
tiske	-8.6058
▁sk	-8.60919
ek	-8.60934
dalen	-8.6094
▁politisk	-8.60985
▁ganger	-8.61187
▁bl	-8.61353
vel	-8.61531
▁albumet	-8.61889
sch	-8.61931
ley	-8.61957
gg	-8.62318
bb	-8.62463
inger	-8.62953
▁fag	-8.63119
▁hvert	-8.63195
▁vel	-8.63217
▁tidlig	-8.63597
▁tyskland	-8.63885
а	-8.64037
▁cha	-8.64509
▁konge	-8.64551
▁25	-8.64673
▁syn	-8.64765
▁22	-8.64789
▁innenfor	-8.64796
▁hi	-8.65152
form	-8.65364
▁2004	-8.65385
▁wi	-8.65481
ong	-8.65628
ksjon	-8.65715
▁ingen	-8.65733
ald	-8.6585
ine	-8.65969
ige	-8.66125
tatt	-8.66152
▁lys	-8.66319
▁forskjellige	-8.66424
▁mag	-8.66467
▁2011	-8.66725
▁fant	-8.66861
▁kar	-8.66969
▁cl	-8.67045
▁gull	-8.67137
▁sto	-8.67416
▁gu	-8.67434
ou	-8.67452
▁forhold	-8.67484
▁plan	-8.67739
ni	-8.67964
▁ten	-8.68069
isme	-8.68075
▁mann	-8.68232
▁stein	-8.68363
ska	-8.68409
▁gjerne	-8.68425
▁norges	-8.68476
kon	-8.68538
▁ch	-8.687
elsen	-8.68777
▁seks	-8.69012
▁ge	-8.69086
▁millioner	-8.69423
▁ord	-8.69475
ill	-8.69512
▁kommunen	-8.6954
▁ev	-8.6965
▁london	-8.6981
▁dikt	-8.70364
▁sand	-8.70387
▁perioden	-8.70634
lands	-8.70713
bud	-8.70813
▁sv	-8.70834
gn	-8.70851
▁selskapet	-8.70866
▁basert	-8.71042
▁arbeidet	-8.71061
▁lokal	-8.71139
▁person	-8.71153
red	-8.71267
8	-8.71334
▁støtte	-8.71387
▁stort	-8.71864
▁grad	-8.72004
kom	-8.72048
▁liv	-8.72137
ket	-8.72294
▁gammel	-8.72294
vo	-8.72318
kel	-8.72334
▁ren	-8.72666
▁stat	-8.7271
▁familien	-8.72728
▁gal	-8.72955
▁sal	-8.73137
▁sverige	-8.73363
▁2002	-8.73374
▁tar	-8.73398
▁my	-8.73445
▁24	-8.73461
tall	-8.73472
▁gul	-8.73534
▁gitt	-8.73736
▁21	-8.7389
▁grav	-8.7392
▁mon	-8.74016
▁bro	-8.7403
▁kv	-8.74327
▁hu	-8.74444
ator	-8.74502
ó	-8.74525
▁olympisk	-8.74634
▁berg	-8.7464
ran	-8.74732
▁datter	-8.74795
fa	-8.74988
▁serien	-8.75026
kul	-8.75091
▁omkring	-8.75188
▁2003	-8.75195
▁luft	-8.75232
▁roman	-8.75312
ju	-8.75349
▁bru	-8.75462
▁kn	-8.7547
▁stedet	-8.75517
las	-8.75537
▁2000	-8.75545
▁spor	-8.7562
▁pu	-8.75692
▁mulig	-8.7584
løp	-8.75869
▁ty	-8.75976
▁annen	-8.75996
ninger	-8.76032
▁rom	-8.76075
bre	-8.7613
ung	-8.76353
▁sted	-8.76505
▁deler	-8.76513
tiden	-8.769
▁side	-8.76991
▁midt	-8.77018
▁står	-8.77031
bruk	-8.77184
▁dis	-8.77216
▁nytt	-8.77261
▁ur	-8.77426
ppe	-8.77878
borg	-8.77937
mat	-8.78205
▁sosial	-8.78206
▁vinter	-8.78279
▁svensk	-8.78319
mor	-8.78373
jo	-8.78387
▁fotball	-8.78424
▁russisk	-8.78427
mål	-8.78482
▁19	-8.7853
▁va	-8.79032
▁utenfor	-8.79041
▁god	-8.79162
ologi	-8.79197
ister	-8.79301
▁ste	-8.79311
▁øya	-8.79324
▁motor	-8.79364
▁gruppe	-8.79427
▁tur	-8.79538
yl	-8.79686
ica	-8.79735
▁fo	-8.79895
▁jord	-8.79966
▁tredje	-8.80057
3	-8.80228
my	-8.80248
ya	-8.80305
▁tatt	-8.80444
▁delstaten	-8.80501
▁fleste	-8.80962
sten	-8.81177
dom	-8.81242
lan	-8.81463
wa	-8.81488
rik	-8.81603
▁kor	-8.81702
▁britiske	-8.81724
dor	-8.8174
tale	-8.8174
jø	-8.81758
heten	-8.81952
lle	-8.82027
fl	-8.82036
▁farge	-8.82079
tz	-8.8209
est	-8.82126
yn	-8.82158
▁sl	-8.82427
▁spesielt	-8.82442
▁we	-8.82477
▁elven	-8.82542
▁vise	-8.82571
mu	-8.82633
▁viktig	-8.82756
fly	-8.82833
ip	-8.82839
▁paul	-8.83078
▁com	-8.83096
▁slutt	-8.83344
▁klubben	-8.83413
tisk	-8.83415
bl	-8.83727
tikk	-8.83754
▁kongen	-8.83799
han	-8.83887
sse	-8.83899
ham	-8.84102
▁åtte	-8.84162
em	-8.84182
▁kal	-8.84317
ation	-8.84353
vei	-8.84358
▁general	-8.8444
▁hav	-8.84455
▁kons	-8.8451
▁hen	-8.8451
ris	-8.84652
hi	-8.84837
▁liten	-8.85125
▁col	-8.85229
▁2001	-8.85279
▁halv	-8.8544
▁mil	-8.85574
▁sesongen	-8.85808
tar	-8.8589
▁tu	-8.85903
▁sangen	-8.86051
landet	-8.8607
▁offentlig	-8.86072
▁danne	-8.86077
isert	-8.86078
▁hatt	-8.86325
heim	-8.86404
fe	-8.86414
▁england	-8.86502
▁pan	-8.86703
fra	-8.86714
▁ed	-8.86883
▁bre	-8.86895
▁nesten	-8.87039
▁pre	-8.87095
▁natur	-8.87205
▁27	-8.87279
ys	-8.87394
mmer	-8.87526
▁barne	-8.87713
ks	-8.87765
▁system	-8.87827
alt	-8.8791
ving	-8.8796
▁viser	-8.88178
dyr	-8.88267
▁spille	-8.88376
isering	-8.88419
ki	-8.88433
▁von	-8.8846
▁hol	-8.8864
▁antall	-8.88648
▁ber	-8.88714
▁on	-8.88825
du	-8.88853
▁fu	-8.88887
▁styre	-8.8891
bok	-8.88981
▁bruker	-8.8903
par	-8.89254
▁fre	-8.8937
и	-8.89409
▁får	-8.89495
▁28	-8.89723
ab	-8.89882
▁bort	-8.89892
val	-8.89988
▁handels	-8.9008
▁rød	-8.90092
inne	-8.90234
▁best	-8.90262
▁betydning	-8.90265
▁23	-8.90414
▁peter	-8.90467
▁kur	-8.90592
rø	-8.90657
▁1990	-8.90701
▁brun	-8.91131
elt	-8.91144
▁arbeid	-8.91251
▁100	-8.91295
▁gjøre	-8.9138
skole	-8.91389
ps	-8.91493
▁industri	-8.91545
6	-8.9156
▁radio	-8.91585
▁hal	-8.91585
▁lange	-8.91598
fall	-8.91709
▁dyr	-8.9175
▁lands	-8.91883
kan	-8.92005
uten	-8.92081
ien	-8.92101
▁forbindelse	-8.92105
▁serie	-8.92115
ther	-8.92214
▁opprettet	-8.92297
za	-8.92596
ach	-8.92614
tro	-8.92645
▁je	-8.9271
▁fortsatt	-8.92723
▁regn	-8.92789
gel	-8.92958
▁arbeider	-8.93136
▁flyttet	-8.93159
▁allerede	-8.93314
▁stats	-8.93367
▁via	-8.93409
▁utviklet	-8.93422
▁hjem	-8.9355
▁versjon	-8.93557
▁jeg	-8.93558
▁ser	-8.93662
▁minne	-8.93784
▁godt	-8.93809
dy	-8.93926
q	-8.93931
▁stil	-8.94154
▁sky	-8.94164
▁såkalt	-8.94196
▁foran	-8.94402
▁holdt	-8.94544
▁christian	-8.94664
▁karl	-8.94683
▁mari	-8.94686
▁internasjonale	-8.94854
tin	-8.94901
istiske	-8.95041
▁chi	-8.95053
tion	-8.95079
syn	-8.95113
▁historie	-8.9512
▁val	-8.95188
▁lite	-8.95446
▁full	-8.95486
▁fordi	-8.95495
▁betyr	-8.95544
leder	-8.95578
▁familie	-8.95727
sj	-8.95741
▁inneholder	-8.95745
▁henne	-8.95917
▁arbeids	-8.9612
▁verden	-8.9616
ph	-8.9624
▁førte	-8.9628
▁ben	-8.96292
leg	-8.96396
▁krigs	-8.96453
▁frankrike	-8.96454
▁gr	-8.96537
▁bor	-8.96849
▁folk	-8.96862
▁dom	-8.96895
▁gjort	-8.96903
▁1999	-8.96911
anger	-8.96923
folk	-8.96936
▁ø	-8.9703
▁langt	-8.97078
▁jan	-8.97092
satt	-8.97125
▁op	-8.9715
▁bror	-8.97437
▁krigen	-8.97475
▁skog	-8.97629
sky	-8.97705
ug	-8.97831
▁2012	-8.97837
▁pla	-8.97893
▁sm	-8.98054
lene	-8.98468
▁ledet	-8.98517
▁én	-8.98525
▁au	-8.98654
▁inkludert	-8.98752
▁fjern	-8.98763
ds	-8.98796
film	-8.98829
▁tekst	-8.98892
forbund	-8.98977
▁egne	-8.99024
▁sc	-8.99041
ah	-8.99077
spill	-8.99152
bro	-8.99189
ara	-8.99292
sjøen	-8.99381
▁sentral	-8.99442
▁militær	-8.99473
▁mu	-8.99546
▁måte	-8.99549
▁gav	-8.99566
▁tilhører	-8.99578
dt	-8.99632
▁moderne	-8.99636
▁mark	-8.9967
▁katolsk	-8.99689
far	-8.99698
▁sang	-9.0002
vær	-9.00084
bygd	-9.00245
asje	-9.00261
che	-9.00465
▁rolle	-9.00469
▁litt	-9.00637
forening	-9.00638
eri	-9.00747
▁åpnet	-9.00768
▁slekt	-9.00796
▁gjør	-9.00917
▁gra	-9.00938
▁post	-9.01108
▁ly	-9.01113
▁felles	-9.01129
▁plate	-9.01236
▁jernbane	-9.01254
▁lav	-9.01255
▁anti	-9.01291
▁universitet	-9.0133
▁mus	-9.01461
▁pr	-9.01584
føre	-9.01771
▁resultat	-9.01847
▁makt	-9.01874
gar	-9.01888
50	-9.01954
▁omfatter	-9.02056
anlegg	-9.0207
▁1980	-9.02078
▁india	-9.02109
▁mis	-9.02204
syk	-9.02278
▁kirken	-9.02338
▁26	-9.02412
▁orden	-9.02572
minister	-9.0259
▁staten	-9.02768
▁ku	-9.02774
▁arm	-9.02846
akt	-9.02905
▁direkte	-9.03039
ay	-9.03141
gl	-9.03164
ski	-9.032
▁stra	-9.03214
▁band	-9.0327
▁slutten	-9.03383
▁slag	-9.03407
▁ska	-9.03423
idae	-9.03499
▁art	-9.03624
▁produsert	-9.03668
▁nok	-9.03725
▁veien	-9.03759
▁skuespiller	-9.03777
ferd	-9.03994
р	-9.04016
▁park	-9.04092
ale	-9.04255
▁th	-9.04403
føring	-9.04426
fri	-9.04467
▁valg	-9.04526
lsen	-9.04559
dømme	-9.04595
▁personer	-9.04714
▁prest	-9.0472
hl	-9.04748
▁tildelt	-9.04889
plass	-9.04929
▁russland	-9.05005
▁sig	-9.05009
selskap	-9.05058
▁50	-9.05135
▁politiker	-9.05244
nk	-9.05252
▁delen	-9.05432
net	-9.05479
laget	-9.05686
▁følgende	-9.05796
skog	-9.058
stående	-9.05851
▁ry	-9.05857
familien	-9.05905
▁aldri	-9.05916
▁dannet	-9.05986
▁riks	-9.06049
stilling	-9.06079
▁plante	-9.06093
▁topp	-9.06103
ika	-9.06327
iet	-9.06545
▁kraft	-9.06594
ble	-9.06787
▁løpet	-9.06856
▁ke	-9.06953
▁fred	-9.06995
tsj	-9.07019
▁1970	-9.07022
mel	-9.07107
spiller	-9.0712
som	-9.07418
▁gre	-9.07516
kar	-9.07531
▁verdenskrig	-9.07576
stykke	-9.0758
øya	-9.07606
▁års	-9.07608
enes	-9.07671
▁vo	-9.07677
▁borg	-9.07695
▁mennesker	-9.07812
vet	-9.08011
▁danmark	-9.08036
▁fylke	-9.08395
lat	-9.0876
▁bal	-9.08771
veien	-9.08864
▁arter	-9.08941
sund	-9.09022
▁kamp	-9.09023
▁carl	-9.09043
▁york	-9.09056
liggende	-9.0913
▁ger	-9.09184
tes	-9.09243
ement	-9.09374
dde	-9.09411
all	-9.09465
ap	-9.09469
▁delta	-9.0948
▁hjelp	-9.09535
mester	-9.09539
▁partiet	-9.09556
zi	-9.09615
20	-9.09634
▁verk	-9.0968
▁af	-9.09787
▁regnes	-9.09811
lik	-9.09826
▁hy	-9.09924
mun	-9.09948
▁gresk	-9.10012
▁kla	-9.10185
▁hø	-9.10188
▁hovedsake	-9.10216
▁tittelen	-9.10274
▁os	-9.1031
▁universitetet	-9.10377
▁q	-9.10406
pu	-9.10455
ze	-9.10546
vann	-9.10726
▁bø	-9.10803
ana	-9.10896
ji	-9.10953
stilt	-9.11135
mark	-9.11154
30	-9.11164
bil	-9.11201
▁sta	-9.11221
ons	-9.11312
▁skolen	-9.11372
5	-9.11375
istisk	-9.11392
▁liste	-9.11436
▁ex	-9.11438
stasjon	-9.11465
▁bygge	-9.11566
▁vin	-9.11633
▁kontroll	-9.11756
▁aktiv	-9.11765
▁kraftig	-9.11912
iz	-9.1204
fjorden	-9.12078
lys	-9.12095
ismen	-9.12169
▁university	-9.12205
▁1994	-9.12211
▁1996	-9.12211
pol	-9.12212
▁høyre	-9.12278
rus	-9.12404
svis	-9.12405
▁blå	-9.12414
▁arkitekt	-9.12418
rom	-9.12517
▁lett	-9.1259
▁enkelte	-9.12611
▁sj	-9.12657
▁samarbeid	-9.12665
▁album	-9.12694
▁storbritannia	-9.1274
▁viktigste	-9.12799
▁følge	-9.12845
▁forsøk	-9.1285
drift	-9.12898
▁organ	-9.12963
mal	-9.12998
▁bas	-9.13082
▁eu	-9.13104
▁vis	-9.13201
▁rø	-9.13257
▁eldre	-9.13341
▁tru	-9.1338
cu	-9.13479
▁pri	-9.13487
▁br	-9.13614
su	-9.13643
▁historisk	-9.1365
▁minst	-9.13666
▁lokale	-9.13667
▁mm	-9.13809
▁studert	-9.13826
▁italia	-9.13834
▁31	-9.13842
jer	-9.13851
kast	-9.13863
▁bur	-9.13868
▁teater	-9.13873
▁utgjør	-9.14022
▁don	-9.14039
▁kvinne	-9.14128
▁sak	-9.14145
▁slaget	-9.14161
▁van	-9.14212
nyin	-9.14262
▁bygd	-9.14309
▁grunnlagt	-9.14392
▁ordet	-9.14492
▁29	-9.14505
▁fått	-9.14514
▁reise	-9.14545
ild	-9.1456
▁pris	-9.14735
о	-9.14903
▁utnevnt	-9.14908
skje	-9.1496
området	-9.14967
lek	-9.15015
▁ett	-9.15031
we	-9.15048
▁helse	-9.15177
▁dansk	-9.15316
▁medlemmer	-9.1535
▁william	-9.15458
▁knytte	-9.15459
▁henhold	-9.15489
▁les	-9.15575
▁kol	-9.1573
▁mel	-9.15927
▁betydelig	-9.1601
▁kroppen	-9.16013
byen	-9.16019
▁1997	-9.16022
ført	-9.16038
▁komme	-9.16094
gan	-9.16128
kro	-9.16201
pro	-9.16273
▁lyd	-9.16275
kant	-9.16494
▁representert	-9.16566
▁venstre	-9.16566
▁skade	-9.16608
nings	-9.16645
samling	-9.16947
▁ky	-9.17024
båt	-9.17041
▁slo	-9.17112
▁svenske	-9.17207
▁stasjon	-9.17354
tte	-9.17409
▁kvinner	-9.17426
▁dess	-9.17453
gitt	-9.17495
▁bred	-9.17536
ford	-9.17632
▁gro	-9.17642
så	-9.17708
▁nett	-9.17728
▁bri	-9.1777
▁meste	-9.1786
ding	-9.17865
▁tap	-9.17884
senter	-9.181
▁funnet	-9.18233
▁biskop	-9.18253
▁1998	-9.18259
råd	-9.18528
▁ci	-9.18593
▁rev	-9.18599
▁gran	-9.18603
ari	-9.18674
fer	-9.18728
▁jobbe	-9.18856
▁island	-9.18874
sto	-9.18999
▁fiske	-9.19056
▁bill	-9.19069
styre	-9.19083
▁likevel	-9.19118
tør	-9.19294
▁krig	-9.1936
▁eget	-9.19404
▁dra	-9.19481
▁stjerne	-9.1949
løs	-9.19491
▁mod	-9.19526
ære	-9.1954
▁pal	-9.19684
▁meget	-9.1973
▁40	-9.19793
ec	-9.19862
▁regionen	-9.19941
▁regjeringen	-9.19955
▁høyeste	-9.20023
▁skip	-9.20035
legg	-9.20091
▁samling	-9.20227
tel	-9.20299
▁rock	-9.20334
ros	-9.20465
▁can	-9.20488
▁1992	-9.20551
oc	-9.20553
▁solgt	-9.2057
▁fin	-9.20597
▁grå	-9.20731
rakt	-9.20781
ino	-9.20849
king	-9.20876
▁hvit	-9.20964
stil	-9.20965
lit	-9.20985
gård	-9.2099
bra	-9.2107
▁ferdig	-9.21138
▁menneske	-9.21172
rå	-9.21173
▁fall	-9.21241
kor	-9.2155
mannen	-9.216
fo	-9.21604
sjef	-9.21661
▁1993	-9.21715
▁gen	-9.21744
▁hjemme	-9.21761
skapet	-9.21783
▁energi	-9.21785
▁johan	-9.21851
▁hånd	-9.21874
navn	-9.2193
▁fortsatte	-9.21932
▁keiser	-9.21991
▁tom	-9.22039
▁turn	-9.22105
og	-9.22236
▁robert	-9.22359
way	-9.2255
selskapet	-9.22591
▁benyttet	-9.22613
▁nummer	-9.2262
▁politi	-9.22803
ved	-9.22846
▁xi	-9.22861
▁eldste	-9.2289
▁sentrum	-9.22897
▁erstatte	-9.2294
▁erik	-9.23019
plan	-9.23021
brudd	-9.23036
▁lin	-9.23088
▁lik	-9.23092
drag	-9.23165
skip	-9.2321
▁enkelt	-9.23223
40	-9.23377
pris	-9.23391
ep	-9.2342
▁angrep	-9.23421
▁omtrent	-9.23485
▁brasil	-9.23491
▁løs	-9.23493
▁1950	-9.23504
▁delt	-9.23532
vern	-9.23641
port	-9.23855
▁hvis	-9.23861
rat	-9.23894
▁gå	-9.23914
▁utvikling	-9.23928
▁tak	-9.23975
▁pave	-9.2408
▁konsert	-9.24105
▁mac	-9.24156
▁avdeling	-9.24216
grad	-9.24278
▁menn	-9.2439
▁sanger	-9.24412
▁overtok	-9.24429
kes	-9.24445
▁verdi	-9.24504
departementet	-9.24562
▁finner	-9.24604
figur	-9.24615
ås	-9.24616
▁moh	-9.24677
ark	-9.24685
lie	-9.2471
▁kjøpt	-9.24766
▁pol	-9.24792
▁paris	-9.24863
arbeid	-9.25019
▁trekk	-9.25132
asjonen	-9.25241
banen	-9.25289
▁trondheim	-9.25297
rike	-9.25354
▁christ	-9.25393
dra	-9.25437
lia	-9.25516
kning	-9.25548
▁lagt	-9.25768
system	-9.25777
▁cor	-9.25825
kjønn	-9.25903
▁1991	-9.2591
▁1960	-9.25915
he	-9.26035
▁olav	-9.26066
▁lars	-9.26075
iserte	-9.26224
▁flo	-9.26293
▁lærer	-9.2631
van	-9.26391
▁finans	-9.26585
▁sha	-9.26603
▁ap	-9.26722
▁felt	-9.26743
▁elva	-9.26769
▁ettersom	-9.26822
▁slekten	-9.26856
▁legge	-9.27043
øl	-9.27149
▁våpen	-9.27205
ola	-9.27452
▁neste	-9.27622
folkerepublikken	-9.27754
▁kilometer	-9.27754
▁1989	-9.27763
▁west	-9.27769
▁lege	-9.27785
▁data	-9.27861
pen	-9.27895
havet	-9.27972
▁lær	-9.28032
▁kul	-9.28156
gruppen	-9.28168
ini	-9.28202
▁sterkt	-9.28245
▁afrika	-9.28369
cc	-9.28384
fon	-9.28428
handler	-9.28507
▁herre	-9.2851
▁uttrykk	-9.28571
▁start	-9.28608
▁kyst	-9.28609
▁kre	-9.28736
områder	-9.2876
▁indre	-9.28776
ind	-9.28819
lett	-9.28995
fjell	-9.28997
▁thomas	-9.29008
▁1988	-9.29015
▁lille	-9.29085
70	-9.29144
▁anders	-9.29327
▁valgt	-9.29471
fjord	-9.29504
▁høsten	-9.29532
don	-9.2958
▁opprør	-9.29743
nett	-9.29744
rum	-9.29768
▁fange	-9.2978
▁ras	-9.29804
xi	-9.29806
▁skje	-9.2985
▁faren	-9.29871
▁høyere	-9.29902
▁maria	-9.29934
▁hva	-9.29958
▁olje	-9.30015
itz	-9.30111
nntil	-9.3015
ighet	-9.30224
tårn	-9.30231
▁hverandre	-9.30278
▁gate	-9.30351
værende	-9.30382
navnet	-9.30499
▁sh	-9.30558
▁bank	-9.3056
ringen	-9.30613
elser	-9.30709
▁ve	-9.30732
sjoner	-9.30742
▁svart	-9.30789
trykk	-9.30832
▁oppkalt	-9.30919
▁drept	-9.3092
▁1981	-9.30929
▁fylkesvei	-9.30932
huset	-9.30998
▁flat	-9.3104
▁finland	-9.31149
▁sø	-9.31237
▁ledelse	-9.3147
▁årlig	-9.31499
▁eid	-9.31504
▁eier	-9.31509
▁ul	-9.31526
ice	-9.31532
▁2013	-9.31577
▁sommerfugl	-9.31581
▁nordøst	-9.31608
▁viktige	-9.31641
bert	-9.31725
vil	-9.3175
ita	-9.31771
47	-9.31772
søk	-9.31773
▁mente	-9.31848
▁ball	-9.31946
▁vm	-9.32128
stat	-9.32214
▁1982	-9.32224
▁1985	-9.32227
bygg	-9.32267
fest	-9.32485
▁miljø	-9.32495
bilde	-9.32611
▁befolkningen	-9.32664
▁sen	-9.32761
▁super	-9.32973
▁za	-9.3298
▁bedre	-9.33018
▁følger	-9.33068
▁boken	-9.33252
▁kors	-9.33276
▁funksjon	-9.33415
▁tal	-9.33494
▁1987	-9.33538
ano	-9.33544
▁interesse	-9.3355
▁sørøst	-9.33557
▁tegn	-9.3359
lot	-9.33644
▁dager	-9.33663
▁motstand	-9.33735
▁grand	-9.33761
ansk	-9.33802
gikk	-9.33811
▁områder	-9.3382
▁dia	-9.33913
▁berlin	-9.34053
full	-9.34069
▁fører	-9.34287
▁kje	-9.34297
ani	-9.34466
ida	-9.34542
stol	-9.34561
▁steder	-9.34581
aks	-9.34586
age	-9.34669
sak	-9.34674
▁gar	-9.34703
tig	-9.34704
▁miste	-9.34704
▁danske	-9.34756
ric	-9.34779
hund	-9.34786
е	-9.34848
▁1995	-9.34869
▁vår	-9.34887
▁len	-9.34956
▁roma	-9.34988
▁seil	-9.35016
organisasjon	-9.3502
▁dro	-9.35033
65	-9.35097
bor	-9.35108
systemet	-9.35116
▁vekt	-9.35192
▁ring	-9.35206
deling	-9.3537
▁divisjon	-9.35375
▁møte	-9.35388
▁karriere	-9.35421
▁gje	-9.35436
▁studie	-9.35461
▁hall	-9.35493
ð	-9.35525
▁1973	-9.35535
bin	-9.35547
▁trykk	-9.35561
▁martin	-9.35588
▁trans	-9.35722
merke	-9.3576
ød	-9.35806
95	-9.35849
▁skjer	-9.3605
64	-9.36099
▁hår	-9.36132
▁bjørn	-9.36179
messig	-9.36206
▁linje	-9.3624
▁spe	-9.3625
▁nest	-9.3629
cy	-9.36332
▁bøker	-9.364
▁holde	-9.36618
10	-9.36638
ā	-9.36668
▁dy	-9.36694
▁ag	-9.3671
med	-9.36731
felt	-9.36844
▁jern	-9.36907
▁ac	-9.37109
▁stu	-9.37166
▁seier	-9.37276
▁litteratur	-9.37306
▁lei	-9.37444
▁åpen	-9.37507
▁1983	-9.37576
virkning	-9.37576
▁1986	-9.37576
stu	-9.3759
▁kat	-9.37836
▁red	-9.37986
kin	-9.38021
▁georg	-9.38183
▁sommeren	-9.38223
н	-9.38237
▁skrive	-9.38246
л	-9.38255
område	-9.38363
▁500	-9.38429
▁blod	-9.38448
▁engelske	-9.38491
ott	-9.38495
▁periode	-9.38545
kjenne	-9.38595
ich	-9.38653
led	-9.38661
▁kron	-9.38669
ls	-9.38683
▁ek	-9.38775
bø	-9.38852
▁kle	-9.38856
▁wh	-9.38902
▁dårlig	-9.38951
▁2014	-9.38963
▁para	-9.38976
▁professor	-9.39192
▁port	-9.39218
grense	-9.39221
det	-9.39323
atur	-9.3935
▁styrker	-9.39353
retning	-9.39396
musikk	-9.3954
▁vik	-9.39567
▁sølv	-9.39652
ight	-9.39655
▁1984	-9.39658
▁vol	-9.39767
▁dal	-9.39825
▁fil	-9.39886
▁sy	-9.39964
organ	-9.39985
our	-9.40011
▁nu	-9.40016
▁design	-9.40097
bus	-9.40239
elige	-9.40247
▁blad	-9.40291
ografi	-9.40301
▁you	-9.40333
▁stockholm	-9.40353
▁tett	-9.40353
▁prosent	-9.40361
rad	-9.40361
▁1948	-9.40363
▁standard	-9.4037
60	-9.40371
▁endret	-9.40397
▁thor	-9.40465
pl	-9.4047
wi	-9.40495
▁område	-9.40636
▁venn	-9.40653
skrift	-9.40685
▁hard	-9.40722
evne	-9.40869
ms	-9.40896
parti	-9.40981
ala	-9.41037
▁mur	-9.41051
que	-9.41146
▁qu	-9.41355
▁hei	-9.41377
▁sil	-9.41434
▁høyde	-9.41501
▁smal	-9.41508
55	-9.41519
▁viste	-9.41734
▁tilsvarende	-9.41777
▁vanskelig	-9.41781
▁statsminister	-9.41797
▁informasjon	-9.41805
▁strøm	-9.41909
▁frank	-9.41981
iner	-9.42057
▁wo	-9.42063
▁drift	-9.4208
regionen	-9.42098
ringer	-9.42143
▁bern	-9.42164
00	-9.42176
nu	-9.42349
▁suksess	-9.42496
▁vunnet	-9.42501
▁egentlig	-9.42523
▁60	-9.42526
ai	-9.42551
▁che	-9.42662
skri	-9.42681
▁bør	-9.4276
ativ	-9.42849
▁sir	-9.42851
gående	-9.42852
▁spi	-9.42862
▁latin	-9.42998
▁kampen	-9.4302
▁tjeneste	-9.43178
▁effekt	-9.43201
graf	-9.4321
▁dronning	-9.43225
▁1979	-9.43231
▁grense	-9.43266
chi	-9.43329
givelse	-9.434
kamp	-9.43419
kra	-9.43483
▁grensen	-9.43517
▁produkt	-9.43541
▁fulgte	-9.4355
▁sende	-9.43581
▁ter	-9.43658
85	-9.43681
▁cu	-9.43705
▁ledd	-9.43771
▁marine	-9.43777
▁virke	-9.43792
elva	-9.43831
tog	-9.43898
▁syd	-9.43905
fugl	-9.43907
nis	-9.43908
▁kall	-9.43942
▁david	-9.43954
▁1968	-9.43963
▁henrik	-9.43981
lev	-9.43999
▁sammenheng	-9.44018
▁bygningen	-9.44116
kle	-9.44311
her	-9.44417
satte	-9.44423
▁utgave	-9.4444
▁200	-9.44476
▁opera	-9.44579
▁stø	-9.44625
ori	-9.44625
▁rik	-9.44628
▁tross	-9.44637
▁1972	-9.44686
▁århundre	-9.44687
▁kunstner	-9.44689
▁1945	-9.44697
▁cm	-9.44741
▁samle	-9.44763
åpning	-9.44778
gått	-9.44797
9	-9.44835
▁johannes	-9.44914
▁stille	-9.4494
▁inter	-9.44957
old	-9.45006
▁syv	-9.45028
▁nordlige	-9.45034
▁modell	-9.45041
▁mester	-9.45072
▁stiftet	-9.45101
▁tele	-9.45313
97	-9.45367
▁kanon	-9.45382
▁totalt	-9.45385
eks	-9.45425
vig	-9.45543
▁vold	-9.45613
▁hvite	-9.45645
▁løp	-9.45852
▁hit	-9.45856
klubb	-9.45931
▁lengde	-9.46075
▁nærings	-9.46089
▁brukte	-9.46117
mund	-9.46144
▁båt	-9.46152
▁1963	-9.46184
▁valgte	-9.46195
dle	-9.46202
▁sogn	-9.46321
▁kam	-9.46324
ritt	-9.46357
handling	-9.46411
▁besøk	-9.46417
jen	-9.46589
▁shi	-9.46613
▁klar	-9.46622
▁skapt	-9.46677
▁lenge	-9.46724
korps	-9.46837
ben	-9.46849
▁arrangert	-9.46925
▁kardinal	-9.46925
▁2015	-9.46943
▁george	-9.47027
▁renner	-9.47083
of	-9.47134
▁svarte	-9.47194
formet	-9.47309
▁regi	-9.47326
▁enten	-9.4734
produksjon	-9.47362
▁klasse	-9.47405
kje	-9.47431
dals	-9.47539
▁blo	-9.4754
▁relativ	-9.47683
▁national	-9.47683
▁britisk	-9.47684
▁voksne	-9.47687
▁begynnelsen	-9.47687
▁type	-9.47689
▁formel	-9.47778
▁dersom	-9.47821
zz	-9.47833
arter	-9.47861
▁air	-9.47965
af	-9.4802
iti	-9.48031
▁militære	-9.48032
▁hopp	-9.48125
▁ph	-9.48156
program	-9.48161
▁skipet	-9.48204
under	-9.48408
tus	-9.48419
▁eg	-9.48424
▁festning	-9.48462
▁ran	-9.48627
året	-9.48667
fag	-9.4873
▁region	-9.4884
▁endt	-9.48965
▁pra	-9.49006
▁gård	-9.49041
▁museum	-9.49044
bane	-9.49062
skudd	-9.49073
▁stemme	-9.49119
rin	-9.49134
▁tung	-9.49197
gram	-9.49268
vekt	-9.4929
▁skatt	-9.49293
▁fest	-9.49336
stra	-9.49358
verket	-9.49384
▁bilde	-9.4941
valg	-9.49438
▁iii	-9.49469
▁student	-9.49539
mengde	-9.49549
heng	-9.49679
menn	-9.49686
▁areal	-9.49716
▁ob	-9.49727
è	-9.49819
▁arten	-9.49866
▁pass	-9.49915
kirke	-9.49979
▁øverst	-9.49991
▁mad	-9.50002
▁alltid	-9.50067
gangen	-9.50163
▁kraftverk	-9.50234
▁nabo	-9.50265
▁slått	-9.5035
78	-9.50383
▁grønn	-9.5039
▁livet	-9.50448
87	-9.50501
▁1800	-9.50532
66	-9.50541
▁råd	-9.50641
cia	-9.50646
oppgave	-9.50672
▁cup	-9.50722
▁1900	-9.50788
▁sur	-9.50791
▁2016	-9.50792
▁søster	-9.50818
up	-9.5084
field	-9.50847
▁sju	-9.50912
gy	-9.50925
▁innført	-9.50967
▁finne	-9.5107
▁heter	-9.51099
▁japan	-9.51138
▁japansk	-9.51211
▁transport	-9.51291
▁sub	-9.51308
▁redaktør	-9.51354
▁dan	-9.51379
▁not	-9.51384
side	-9.51426
▁gren	-9.51496
gna	-9.5152
▁ii	-9.51553
▁københavn	-9.51559
▁produsere	-9.51559
▁fjerde	-9.51559
▁1977	-9.51569
linje	-9.51575
egnet	-9.51575
▁1940	-9.51579
▁sivil	-9.51612
▁symbol	-9.5179
tek	-9.51812
▁krav	-9.51813
vor	-9.51936
▁un	-9.51939
▁rot	-9.51965
▁penge	-9.52029
vesen	-9.52092
▁ji	-9.52106
hvert	-9.5213
dar	-9.52148
▁drev	-9.52387
▁nordvest	-9.52392
▁ind	-9.52459
▁james	-9.52465
the	-9.52473
mit	-9.52499
▁fjorden	-9.52538
vare	-9.52638
▁egg	-9.5271
ras	-9.52792
ick	-9.52795
42	-9.52886
lem	-9.5289
voll	-9.52899
57	-9.5291
▁real	-9.52957
ix	-9.53048
hall	-9.53067
▁sn	-9.53132
skolen	-9.53145
▁fremdeles	-9.53189
37	-9.53316
gren	-9.5337
lighet	-9.53388
är	-9.53403
▁tradisjon	-9.53413
▁son	-9.53423
▁fot	-9.53439
▁war	-9.53445
▁merke	-9.53732
36	-9.53736
kunst	-9.5376
▁lind	-9.53777
▁forsvars	-9.53803
▁artene	-9.53857
▁just	-9.53932
eier	-9.53934
▁forteller	-9.53962
▁kontakt	-9.53963
▁1930	-9.53983
▁nivå	-9.5406
▁sjef	-9.54077
jon	-9.54152
lv	-9.54181
▁jens	-9.54269
yo	-9.54329
qu	-9.54331
▁lenger	-9.54394
rud	-9.54401
▁punkt	-9.54414
grunn	-9.54426
▁sku	-9.5444
▁raskt	-9.54476
lis	-9.54478
▁skrift	-9.54479
▁bel	-9.54566
▁oppdaget	-9.54568
holm	-9.54573
kraft	-9.54579
▁selskap	-9.54588
▁franc	-9.54597
▁koloni	-9.54768
▁klima	-9.54776
lad	-9.54784
▁midten	-9.54788
▁1964	-9.5479
▁sent	-9.54795
▁beskrive	-9.55
▁dyp	-9.55034
▁russiske	-9.55054
▁styrke	-9.55066
aktig	-9.55073
▁tema	-9.55099
▁skape	-9.55121
ledes	-9.55263
våg	-9.55264
▁ting	-9.55282
▁wal	-9.55348
fisk	-9.55361
▁rike	-9.55371
strøm	-9.55407
kjøp	-9.55413
▁høye	-9.55433
▁gården	-9.55499
▁romerske	-9.55569
к	-9.55585
▁lengre	-9.55595
▁1975	-9.55605
▁fotballspiller	-9.55617
▁het	-9.55678
▁variant	-9.55686
▁nådd	-9.55726
▁kreve	-9.55767
▁forsker	-9.56016
▁alb	-9.56017
ör	-9.56085
org	-9.56086
trolig	-9.56147
▁ære	-9.5615
▁sovjetisk	-9.56165
løse	-9.5619
prosess	-9.56307
▁sterke	-9.56375
▁stod	-9.56412
▁typisk	-9.56422
▁korte	-9.56426
▁1974	-9.56431
ub	-9.56437
▁bakgrunn	-9.5645
▁skyld	-9.56475
▁lan	-9.56539
▁regjering	-9.56715
ama	-9.56725
kh	-9.57002
▁aust	-9.57007
▁møtte	-9.57092
▁amerika	-9.57151
▁college	-9.57254
▁1967	-9.57266
▁bad	-9.57268
hy	-9.57296
mene	-9.57361
ann	-9.57379
▁70	-9.57385
▁daglig	-9.57402
▁bass	-9.57479
▁mc	-9.57505
▁kroner	-9.57507
▁sørlig	-9.57555
▁styr	-9.57592
▁artist	-9.57648
krigen	-9.57661
▁preget	-9.57661
▁char	-9.57852
43	-9.57864
historie	-9.5794
▁skr	-9.57973
app	-9.58037
▁representant	-9.58058
▁asia	-9.58063
wood	-9.5809
▁richard	-9.58092
▁scene	-9.58106
rådet	-9.58116
▁brann	-9.58127
▁munn	-9.5817
midler	-9.5818
dekke	-9.58212
▁tall	-9.58261
later	-9.58291
nik	-9.58411
▁prisen	-9.58528
bri	-9.58558
medalje	-9.58559
44	-9.58608
ull	-9.58661
lagt	-9.58664
▁hest	-9.5871
▁tha	-9.58911
▁hvilke	-9.58941
▁jarl	-9.58985
▁nils	-9.58986
▁fortsette	-9.58989
▁mal	-9.58997
på	-9.59022
▁samfunns	-9.59128
▁samlet	-9.5917
▁natt	-9.59203
atisk	-9.59228
▁begrepet	-9.59329
gle	-9.594
har	-9.59441
▁star	-9.59462
saker	-9.59471
ira	-9.59494
39	-9.59535
▁reform	-9.59577
▁hæren	-9.59622
get	-9.59628
▁produksjon	-9.59692
▁heller	-9.59742
▁rygg	-9.59793
▁hertug	-9.59797
▁vokste	-9.59798
▁1969	-9.59807
▁black	-9.5984
4	-9.59861
gri	-9.59915
▁hundre	-9.60105
▁distrikt	-9.60228
bakken	-9.60245
ins	-9.60328
▁grenser	-9.60335
▁80	-9.60336
▁kg	-9.60344
gge	-9.60356
▁sendt	-9.60475
▁myr	-9.60492
▁nan	-9.60513
▁posisjon	-9.60578
nivå	-9.60638
▁stavanger	-9.60669
▁1978	-9.60673
zhou	-9.60677
strand	-9.60695
▁bolig	-9.60709
▁bruke	-9.60734
▁mas	-9.60743
▁vas	-9.60822
lus	-9.60847
▁historien	-9.60885
▁temp	-9.60913
▁por	-9.61018
▁høyt	-9.6104
▁maskin	-9.61056
54	-9.61067
▁teksten	-9.6111
rek	-9.61123
▁finalen	-9.61176
ive	-9.61222
▁mørk	-9.61229
▁hovedstaden	-9.61238
liv	-9.61246
ib	-9.61339
▁rein	-9.61376
verdi	-9.61381
▁distriktet	-9.61411
våpen	-9.6144
band	-9.61474
▁pet	-9.61487
▁stav	-9.61488
с	-9.61518
ire	-9.61524
▁brev	-9.61582
▁nasjonale	-9.61583
▁veg	-9.61664
▁stadig	-9.6173
53	-9.61789
án	-9.61887
▁personlig	-9.62049
▁elve	-9.62078
loven	-9.62107
▁delvis	-9.62127
enhet	-9.6214
kjær	-9.62151
▁selve	-9.62183
grav	-9.62201
▁hodet	-9.6222
klar	-9.62232
▁avisen	-9.62336
▁pl	-9.62362
bygging	-9.62371
▁international	-9.62403
▁opprinnelse	-9.62403
▁religion	-9.62403
▁1920	-9.62432
▁metal	-9.62465
▁slott	-9.62548
ål	-9.62548
kort	-9.62552
▁leve	-9.62631
61	-9.6264
▁sag	-9.62661
▁elv	-9.62686
oper	-9.62754
stø	-9.62755
▁die	-9.62783
▁utviklingen	-9.628
▁sikre	-9.62875
▁grupper	-9.62948
punkt	-9.62954
62	-9.63023
▁90	-9.63023
press	-9.63152
▁ordenen	-9.63176
▁she	-9.63218
▁egypt	-9.6325
▁støttet	-9.63282
▁elektrisk	-9.63288
▁profesjonell	-9.63288
▁utdannet	-9.63288
▁bane	-9.63325
▁stammer	-9.63335
▁los	-9.63429
67	-9.63457
▁resten	-9.635
▁metall	-9.63572
▁forskning	-9.63613
▁produsent	-9.63641
▁grev	-9.6365
▁jon	-9.63687
brun	-9.637
din	-9.63704
▁cr	-9.63724
▁lund	-9.63726
▁journalist	-9.63734
▁politikk	-9.63752
qui	-9.63833
▁gjenopp	-9.63906
kirken	-9.63915
▁lignende	-9.63934
spor	-9.63949
▁unge	-9.64075
▁nederlandsk	-9.64122
ú	-9.6418
▁world	-9.64181
mus	-9.64236
haug	-9.64254
▁bomb	-9.64309
▁komponist	-9.64391
▁sund	-9.644
▁nrk	-9.64423
lang	-9.64428
museet	-9.64433
▁europeiske	-9.64588
68	-9.64625
gruppe	-9.64671
▁us	-9.64805
38	-9.64871
▁sko	-9.64903
05	-9.64948
▁sannsynlig	-9.65081
▁trøndelag	-9.65081
▁selvstendig	-9.65085
▁behandling	-9.65181
rimot	-9.65191
ologisk	-9.65246
▁produksjons	-9.65251
▁epi	-9.65253
rich	-9.6528
▁sesong	-9.65288
▁spesial	-9.65309
yngre	-9.6539
▁kh	-9.65422
▁win	-9.65431
▁sterk	-9.65463
istene	-9.65548
▁hær	-9.65562
▁hill	-9.65595
▁kart	-9.65628
▁sentrale	-9.65648
▁karakter	-9.65664
ban	-9.65734
▁gode	-9.65925
▁passer	-9.65938
à	-9.6599
т	-9.6599
▁snakk	-9.65996
▁1946	-9.66005
▁strid	-9.66141
tjeneste	-9.66159
▁stasjonen	-9.66185
ance	-9.66198
lov	-9.66278
▁anne	-9.66296
▁mørke	-9.66314
shire	-9.66349
▁kull	-9.6635
▁yu	-9.66436
▁offisielle	-9.66504
▁virksomhet	-9.66594
▁alder	-9.66619
▁glo	-9.66626
mas	-9.66644
ula	-9.66648
gjort	-9.66652
▁sul	-9.66768
▁cap	-9.66812
▁italiensk	-9.66871
▁hed	-9.66894
▁sovjetunionen	-9.66908
▁1976	-9.66922
industri	-9.66934
▁omtalt	-9.66952
ias	-9.67014
▁forsøkt	-9.67019
samisk	-9.67022
▁union	-9.67103
zo	-9.67164
▁finsk	-9.67176
▁salt	-9.67203
▁normalt	-9.67219
▁byer	-9.67223
▁hovedstad	-9.67509
▁bit	-9.67516
▁størrelse	-9.67586
▁spill	-9.67606
▁bygde	-9.67734
▁direktør	-9.67767
▁varme	-9.67772
▁bytte	-9.67831
▁australia	-9.67834
▁musikkalbum	-9.67851
tere	-9.67852
bjørn	-9.67864
▁stan	-9.67891
▁fjellet	-9.67898
▁kinas	-9.6802
▁oppført	-9.68076
voks	-9.68077
▁jakt	-9.68085
oni	-9.68119
▁dø	-9.68215
▁arabisk	-9.68221
▁handling	-9.68237
▁tonn	-9.68239
ata	-9.68305
▁teknologi	-9.68315
▁leg	-9.68334
makt	-9.68401
▁retning	-9.68549
▁uavhengig	-9.68574
▁unn	-9.68577
▁holder	-9.68614
gress	-9.68652
▁rad	-9.68712
▁utdanning	-9.68721
▁poeng	-9.6879
▁sørvest	-9.68801
univers	-9.6884
win	-9.68972
▁operasjon	-9.68987
56	-9.69014
elli	-9.69015
språk	-9.69067
▁hoff	-9.69095
75	-9.69151
▁lot	-9.6916
▁400	-9.69293
▁strand	-9.69321
▁adel	-9.69708
▁offisielt	-9.69712
▁østerrike	-9.69714
▁svak	-9.69718
▁1966	-9.69731
▁sider	-9.69736
vitenskap	-9.69767
hel	-9.6977
mand	-9.69796
▁gass	-9.69829
49	-9.69838
▁lø	-9.69867
▁fremst	-9.69871
▁strekk	-9.69951
fang	-9.6996
ish	-9.70022
▁ekspedisjon	-9.70029
butikk	-9.70036
▁ep	-9.70056
gift	-9.70071
fart	-9.70123
hn	-9.70153
▁holm	-9.7017
▁naturlig	-9.70199
shi	-9.70315
▁test	-9.70316
90	-9.70354
stro	-9.70393
▁sw	-9.70496
▁fugle	-9.70543
bank	-9.70569
pin	-9.70608
▁musikal	-9.70664
teknikk	-9.70665
▁fokus	-9.70667
▁publisert	-9.70672
trafikk	-9.70676
▁lengst	-9.70683
▁1965	-9.70686
▁2017	-9.70693
▁plassert	-9.70716
000	-9.70748
▁bodde	-9.7077
ity	-9.70803
▁dam	-9.7086
low	-9.70896
jev	-9.70899
▁gru	-9.71041
▁feil	-9.71154
mennene	-9.71224
▁livs	-9.71271
▁grunnla	-9.71271
73	-9.71285
86	-9.71308
senteret	-9.71331
litt	-9.71354
82	-9.71365
sol	-9.71379
▁ønsket	-9.71483
04	-9.71495
▁michael	-9.71626
▁unntak	-9.71654
▁anlegget	-9.71654
▁bevart	-9.71655
▁kinesiske	-9.71705
gården	-9.71709
▁led	-9.71717
▁prøve	-9.71721
▁city	-9.71739
▁uni	-9.7184
stått	-9.71898
nær	-9.71913
tha	-9.71929
▁forlot	-9.72031
▁institutt	-9.72107
▁gun	-9.72141
▁hører	-9.72297
fat	-9.72305
ial	-9.72385
ernes	-9.724
levende	-9.72428
▁forsvar	-9.72456
▁hud	-9.72538
▁havet	-9.72555
▁betegne	-9.72574
▁betrakte	-9.72598
▁foreldre	-9.726
▁øvre	-9.72607
▁skjedde	-9.72615
▁charles	-9.72628
▁gutt	-9.72656
arbeider	-9.72709
80	-9.72751
trop	-9.72808
▁vinner	-9.72979
▁filosof	-9.73002
▁idretts	-9.73059
standen	-9.73089
▁leir	-9.73144
07	-9.73175
46	-9.73183
sport	-9.7319
81	-9.73324
▁ok	-9.73421
gh	-9.73453
▁oppdag	-9.7346
▁øke	-9.73466
▁flyplass	-9.73559
▁luk	-9.73567
š	-9.73577
▁ytterligere	-9.73577
▁rapport	-9.73577
▁beijing	-9.73577
▁canada	-9.73579
▁hjerte	-9.73579
▁bronse	-9.73585
▁hor	-9.73622
▁omfattende	-9.73634
▁folket	-9.73639
▁fylkes	-9.73711
▁kamper	-9.73737
samfunn	-9.73754
52	-9.73765
blant	-9.73791
▁total	-9.73918
mes	-9.73964
slekt	-9.73974
well	-9.74041
kka	-9.74049
▁huset	-9.74107
76	-9.74129
krets	-9.74209
▁35	-9.74218
▁lære	-9.74238
▁300	-9.74266
▁instrument	-9.74281
▁polsk	-9.74353
▁ama	-9.74381
▁sel	-9.74426
▁musiker	-9.74471
▁ram	-9.74475
▁mun	-9.74496
skjold	-9.74568
▁bokstav	-9.74578
▁kvinnelig	-9.74581
▁1952	-9.74583
▁kapit	-9.74591
▁spiss	-9.74605
▁retts	-9.74613
bru	-9.74623
▁harald	-9.74691
usjon	-9.74785
tegn	-9.748
▁krets	-9.74898
arbeidet	-9.74899
▁haug	-9.74907
▁zo	-9.74999
▁tettstedet	-9.75106
▁verne	-9.75123
74	-9.75168
▁områdene	-9.75172
▁økonomiske	-9.75175
▁problem	-9.7523
▁dyre	-9.75232
▁hell	-9.75376
ova	-9.75389
rør	-9.75438
fører	-9.75455
▁teori	-9.75477
▁metode	-9.75488
lla	-9.75546
▁tilgjengelig	-9.75567
▁1955	-9.75587
▁spania	-9.75599
69	-9.75747
leng	-9.75749
▁tog	-9.75764
▁israel	-9.75815
▁bon	-9.7585
▁befolkning	-9.75878
▁psyko	-9.75892
▁program	-9.75905
▁sort	-9.75984
▁pen	-9.75986
grep	-9.76009
▁lage	-9.76051
ville	-9.76056
▁kontor	-9.76079
ence	-9.76101
▁reg	-9.7614
▁spørsmål	-9.76182
▁hunnen	-9.76206
▁selge	-9.76208
▁hå	-9.76297
▁py	-9.76306
komme	-9.76359
▁lek	-9.76392
tive	-9.76404
▁listen	-9.76488
89	-9.76492
øst	-9.76495
ugh	-9.76524
▁hjelpe	-9.7654
deles	-9.76561
▁nærmest	-9.76583
▁1962	-9.76595
byr	-9.76598
▁avhengig	-9.76619
cha	-9.76624
▁klarte	-9.76679
▁likhet	-9.76751
17	-9.7682
▁oppdrag	-9.76824
isten	-9.76938
gul	-9.7696
▁malt	-9.77025
41	-9.77056
▁aktivitet	-9.77184
hode	-9.77192
63	-9.77244
▁ze	-9.77284
hem	-9.77297
▁middel	-9.77331
▁valget	-9.77336
linjen	-9.77354
stedet	-9.77358
gra	-9.77377
ette	-9.7743
serien	-9.77464
▁skips	-9.77481
▁prosjekt	-9.77483
▁od	-9.77534
▁1959	-9.77598
▁nevnt	-9.77598
▁primær	-9.77598
▁jacob	-9.776
▁nåværende	-9.77702
▁buk	-9.77747
formen	-9.7781
▁østlig	-9.77823
periode	-9.77846
▁privat	-9.77849
▁mw	-9.7786
▁ramme	-9.77965
merket	-9.77965
kop	-9.78021
▁sau	-9.78025
enberg	-9.78088
▁fyr	-9.78152
▁cal	-9.78194
▁besto	-9.78245
▁rute	-9.78312
▁gitar	-9.78392
roll	-9.78424
lser	-9.78442
▁kreft	-9.78474
▁opphav	-9.78502
▁masse	-9.78556
museum	-9.78592
▁saken	-9.78593
slav	-9.78606
▁vent	-9.78609
▁joseph	-9.78629
▁kategori	-9.78629
▁records	-9.78629
kapasitet	-9.78629
▁stortinget	-9.78633
▁bol	-9.78634
▁økonomi	-9.78726
▁sti	-9.7873
▁riksvei	-9.78762
25	-9.78765
medlem	-9.78872
▁vind	-9.78914
01	-9.78925
kors	-9.7894
▁stamme	-9.78977
▁gam	-9.78987
▁tang	-9.79004
▁cro	-9.79142
feltet	-9.79144
▁sær	-9.79207
▁ungdoms	-9.79226
▁kongelige	-9.79226
delen	-9.79361
hard	-9.79386
▁bord	-9.794
▁røde	-9.79426
mod	-9.79433
▁time	-9.79529
▁beskytte	-9.79555
▁original	-9.79667
▁konflikt	-9.7967
▁1971	-9.79671
▁louis	-9.79671
hastighet	-9.79673
▁programmet	-9.79694
▁kjempe	-9.79708
dialekt	-9.79713
▁solo	-9.7973
▁sykdom	-9.7973
▁knut	-9.79804
▁sykehus	-9.79816
dagen	-9.7983
▁organisasjonen	-9.79849
nor	-9.7986
▁32	-9.79867
typen	-9.79874
gaard	-9.79908
eide	-9.79961
møte	-9.79964
▁johann	-9.79985
ona	-9.80029
▁est	-9.80041
løsning	-9.80074
lund	-9.80085
▁vestlig	-9.80104
▁ris	-9.80131
▁gjeste	-9.8017
foss	-9.802
hol	-9.80205
kla	-9.80219
▁lyse	-9.8022
▁begynner	-9.80244
▁marc	-9.80266
83	-9.80268
ura	-9.80398
▁mulighet	-9.80518
▁kj	-9.80582
48	-9.80653
▁larven	-9.80655
ios	-9.80678
▁edderkopp	-9.80723
ō	-9.80723
▁spesiell	-9.80723
▁ban	-9.80815
7	-9.80871
stoff	-9.80885
▁undersøkelse	-9.80889
▁up	-9.80896
artikler	-9.81027
middel	-9.8103
▁vær	-9.81044
▁rask	-9.81113
▁ole	-9.8116
▁vannet	-9.81199
▁ana	-9.81231
ische	-9.81514
skifte	-9.81522
▁camp	-9.81532
▁struktur	-9.8155
trekk	-9.81628
▁legen	-9.81687
slaget	-9.81691
▁bølge	-9.81738
▁salg	-9.81767
▁1958	-9.81787
▁øvrig	-9.81787
▁ridder	-9.81793
▁ansatte	-9.81795
klubben	-9.81854
▁award	-9.8188
cell	-9.81886
▁henry	-9.81928
▁nærmer	-9.81962
▁utga	-9.81975
øyene	-9.82101
gata	-9.82104
styrke	-9.82134
45	-9.82186
▁endelig	-9.82209
▁soldater	-9.8222
▁nasjon	-9.82252
motor	-9.82303
bry	-9.82336
ikere	-9.82374
▁fabrikk	-9.82429
parten	-9.82434
svik	-9.82502
▁tradisjonelle	-9.82578
▁reiste	-9.82626
somme	-9.82632
ball	-9.82772
▁trafikk	-9.82797
kammer	-9.82843
▁innflytelse	-9.82855
▁sim	-9.82858
▁berømt	-9.82862
▁folketelling	-9.82863
▁anerkjent	-9.82863
▁tegneserie	-9.82867
bladet	-9.82868
▁sønnen	-9.82871
▁kanalen	-9.82877
▁1956	-9.8288
farge	-9.82916
▁rå	-9.82968
endring	-9.83013
19	-9.83066
▁ytre	-9.83105
▁jorden	-9.83168
kov	-9.83193
▁presse	-9.83236
kultur	-9.83276
▁danse	-9.83326
▁greske	-9.83401
▁sette	-9.83423
▁mid	-9.83451
▁dog	-9.83464
▁motiv	-9.83477
ical	-9.83486
vind	-9.83491
▁problemer	-9.83517
▁oversatt	-9.83559
▁hente	-9.83569
▁innehold	-9.83672
ledning	-9.8368
▁havne	-9.8378
▁vid	-9.8382
▁larvene	-9.83823
avtale	-9.83933
▁melodi	-9.83951
▁antenne	-9.83959
▁akademi	-9.83974
▁club	-9.83974
hjul	-9.84004
▁drive	-9.84032
▁gjennomført	-9.84076
▁konkurransen	-9.84091
▁jøde	-9.84169
▁base	-9.84174
▁gyl	-9.8423
▁omfatte	-9.8424
kommune	-9.84348
▁heng	-9.84477
▁spansk	-9.84511
▁lån	-9.8452
fyr	-9.84545
▁økonomisk	-9.84556
løpet	-9.84626
con	-9.84667
▁landsbyen	-9.84758
part	-9.84766
syre	-9.84785
▁tour	-9.84866
trær	-9.84911
blad	-9.84953
▁fv	-9.84969
▁bla	-9.85043
α	-9.85048
ī	-9.85048
▁byprefekture	-9.85048
▁flagg	-9.85054
▁mytologi	-9.85082
▁snart	-9.85085
▁kristen	-9.85112
▁nærheten	-9.8512
▁internasjonal	-9.85126
▁high	-9.85147
▁ube	-9.85173
▁liga	-9.85212
▁provins	-9.85223
olo	-9.85242
plasser	-9.85266
▁ov	-9.85351
gger	-9.85353
ij	-9.85379
stor	-9.85393
virksomhet	-9.85425
▁stilling	-9.85428
▁utført	-9.8544
▁master	-9.85441
gjør	-9.85471
▁tittel	-9.85601
kysten	-9.85637
illa	-9.85716
▁poly	-9.85767
▁kil	-9.85771
▁regjerings	-9.8591
▁hode	-9.85929
▁revolusjon	-9.85947
▁may	-9.85955
▁vinge	-9.85988
▁republikken	-9.86024
▁ankom	-9.86032
▁benyttes	-9.8605
▁økt	-9.86113
parken	-9.86126
▁fredrik	-9.86152
▁nødvendig	-9.86159
▁teknisk	-9.86159
▁streng	-9.86163
▁rekord	-9.86167
▁auto	-9.8617
▁1961	-9.86178
▁1936	-9.8618
ulykke	-9.86196
▁jordbruk	-9.86204
firma	-9.86219
vand	-9.86238
▁deri	-9.86256
▁eksistere	-9.86261
▁pin	-9.86307
kanten	-9.86357
79	-9.86362
ith	-9.86386
▁tegnet	-9.86396
98	-9.86423
mesterskapet	-9.8643
▁regel	-9.8644
arkiv	-9.86449
lend	-9.86501
konkurranse	-9.86589
▁tapte	-9.86649
▁øyene	-9.86694
fjellet	-9.86715
kraftverk	-9.86761
▁rh	-9.86862
91	-9.8693
▁betegnelsen	-9.87008
▁mak	-9.87029
▁elev	-9.87035
gje	-9.87038
▁arve	-9.87056
▁north	-9.87221
▁sier	-9.87241
ã	-9.87283
▁edvard	-9.87283
▁flertall	-9.87284
▁nordisk	-9.87286
▁norrøn	-9.87286
vatnet	-9.87294
rettigheter	-9.87306
▁kloster	-9.87311
▁mobil	-9.87368
▁nordland	-9.87405
12	-9.87441
post	-9.87444
klassen	-9.8758
▁arne	-9.87601
forfatter	-9.87691
prosjekt	-9.8771
plate	-9.87851
▁typer	-9.87874
▁offiser	-9.88018
alis	-9.88028
▁indisk	-9.8808
▁overgang	-9.88094
▁vist	-9.88217
35	-9.88296
trinn	-9.88321
▁materiale	-9.88333
▁gjelder	-9.88354
stille	-9.88372
myndighet	-9.88383
в	-9.88399
sekretær	-9.88405
visning	-9.88409
▁sjelden	-9.88419
▁utbredt	-9.88419
▁situasjon	-9.88419
▁hurtig	-9.8842
▁allierte	-9.8842
▁united	-9.8842
▁klassisk	-9.88421
▁frederik	-9.88422
▁1953	-9.88439
▁1957	-9.88441
▁innsjø	-9.88451
fin	-9.88531
▁45	-9.88566
▁vet	-9.88615
▁tørr	-9.88621
grupper	-9.88644
▁måneder	-9.88668
▁kilde	-9.88691
▁jag	-9.88698
vinger	-9.8874
▁politiet	-9.88782
bær	-9.88795
84	-9.88813
▁ung	-9.88889
former	-9.89118
▁utvidet	-9.89142
holdt	-9.89148
16	-9.89263
▁klubb	-9.89267
▁rep	-9.89287
fond	-9.89466
pan	-9.89497
▁uke	-9.895
ordenen	-9.89509
ux	-9.89533
▁polen	-9.89551
▁fullstendig	-9.89568
zh	-9.89576
▁lansert	-9.89595
▁1947	-9.89596
▁grunnlegger	-9.89605
▁rollen	-9.89639
▁løv	-9.89641
rev	-9.89658
▁foruten	-9.89721
▁moren	-9.89746
▁behandle	-9.89766
driv	-9.89766
▁fjord	-9.89822
▁andreas	-9.89844
▁front	-9.8987
▁fremste	-9.89873
▁kjøre	-9.89918
ordning	-9.89974
aria	-9.90088
▁fisk	-9.90113
▁konkurranse	-9.90131
▁slå	-9.90236
▁plu	-9.90342
99	-9.90345
▁dokumenter	-9.90358
▁live	-9.90372
▁maur	-9.90378
▁ånd	-9.90417
▁kjerne	-9.90523
▁markert	-9.90533
▁kysten	-9.90535
▁tanke	-9.90582
▁bosatt	-9.90644
ammen	-9.90677
finn	-9.90695
▁kristne	-9.90736
▁1937	-9.90753
▁skotsk	-9.90759
▁straffe	-9.90766
▁blue	-9.90769
▁videregående	-9.90771
marked	-9.90784
eksamen	-9.90856
dommen	-9.90916
▁inkluderer	-9.90927
11	-9.90928
▁bay	-9.90978
▁fordelt	-9.91007
▁driver	-9.91011
tunnelen	-9.91018
▁oftest	-9.91078
rill	-9.91085
▁populære	-9.91085
▁handel	-9.91105
▁mol	-9.9113
▁finn	-9.91144
ltså	-9.91145
tis	-9.91181
▁kunnskap	-9.91184
▁falt	-9.91189
▁fan	-9.91226
legging	-9.91258
77	-9.91314
▁filmer	-9.91325
▁sten	-9.91356
▁irland	-9.91376
▁arn	-9.91376
▁kontrakt	-9.91382
▁runde	-9.91448
hopp	-9.91484
▁spanske	-9.91545
▁180	-9.91629
lling	-9.9168
▁sun	-9.9169
▁utover	-9.91721
▁forfatteren	-9.91804
▁nes	-9.91836
▁utgangspunkt	-9.91908
▁skottland	-9.91908
▁hovedrollen	-9.91912
▁magnus	-9.91913
▁1912	-9.91924
▁flekk	-9.91932
▁skiftet	-9.91942
▁otto	-9.91975
▁video	-9.91986
▁drama	-9.91998
▁korea	-9.92044
▁hevdet	-9.92049
▁single	-9.9216
▁representerer	-9.92209
gjøre	-9.92221
▁våren	-9.92243
▁hannen	-9.92308
lapp	-9.92339
▁fc	-9.92359
▁jean	-9.92371
▁vå	-9.92372
▁festival	-9.92469
hjem	-9.92496
▁stol	-9.92531
▁bj	-9.92596
▁nr	-9.92626
fyl	-9.92626
▁modellen	-9.9264
rekke	-9.92767
▁løper	-9.92843
▁bidra	-9.92844
hør	-9.92982
▁nam	-9.93067
▁odd	-9.93087
▁installert	-9.93098
▁tilknyttet	-9.93098
▁passasjer	-9.93098
▁ekteskap	-9.931
▁tydelig	-9.93101
▁jazz	-9.93135
plikt	-9.93261
war	-9.93287
hev	-9.93328
▁stoppe	-9.93389
▁angrepet	-9.93396
pass	-9.93418
▁formål	-9.93445
▁maler	-9.93467
partiet	-9.93486
▁sar	-9.93541
fu	-9.93678
vekst	-9.93699
jan	-9.93762
nummer	-9.9377
▁utføre	-9.93881
gin	-9.93902
▁gil	-9.93921
▁tå	-9.93993
handel	-9.94061
▁sluttet	-9.94126
▁stoff	-9.94158
foreningen	-9.94236
▁administrativ	-9.94303
▁1951	-9.94303
▁ishockey	-9.94303
▁redusert	-9.94304
▁daniel	-9.9432
▁1941	-9.94321
▁1954	-9.94324
▁ordfører	-9.94325
▁1944	-9.94325
▁stabil	-9.94387
▁landbruk	-9.94436
▁lavere	-9.94458
▁utgi	-9.94484
▁sankt	-9.94552
09	-9.94597
mming	-9.94732
▁150	-9.9476
▁dukke	-9.94767
▁populær	-9.94781
▁damp	-9.94782
krig	-9.94852
istan	-9.94928
snitt	-9.95046
formula	-9.95054
krit	-9.95096
▁song	-9.95125
▁bob	-9.95134
24	-9.95175
▁hage	-9.95237
▁fløy	-9.95249
▁fro	-9.95294
▁king	-9.95301
▁bunn	-9.9543
▁lev	-9.95448
▁ulik	-9.95452
92	-9.95479
trekning	-9.95483
▁fengsel	-9.95523
▁school	-9.95523
▁motsetning	-9.95523
▁royal	-9.95527
▁bispedømme	-9.95529
▁1949	-9.95542
▁bidro	-9.95551
▁markeds	-9.95599
sjø	-9.95651
▁wei	-9.95723
oid	-9.95764
sar	-9.95776
▁temperatur	-9.95805
15	-9.95851
▁human	-9.95874
▁old	-9.95939
▁hind	-9.95953
ön	-9.95962
▁try	-9.96006
▁beskrevet	-9.96137
gard	-9.96183
▁overfor	-9.96198
▁monte	-9.96355
vold	-9.96382
▁snø	-9.96424
lære	-9.96447
sats	-9.96505
plassen	-9.96512
ón	-9.96514
▁gau	-9.96602
forskjell	-9.96686
stasjonen	-9.9675
▁alternativ	-9.96757
▁inspirert	-9.96757
▁wilhelm	-9.96757
▁publikum	-9.96757
▁1924	-9.96773
vinner	-9.96773
▁etterfølger	-9.96776
▁debuter	-9.96779
stemt	-9.9678
▁1942	-9.9678
▁bekrefte	-9.968
▁fed	-9.96803
▁italienske	-9.96806
▁bind	-9.96849
språklig	-9.96918
▁fremme	-9.96922
sending	-9.96933
▁dokument	-9.97155
▁samarbeidet	-9.97257
▁mill	-9.97312
festival	-9.97413
klær	-9.97455
delt	-9.97556
▁historiker	-9.97587
▁music	-9.97588
▁enkle	-9.97629
følgende	-9.97699
▁private	-9.97702
cent	-9.97884
▁stand	-9.97886
▁åpne	-9.97891
komst	-9.97956
▁eksempler	-9.98007
▁oscar	-9.98008
▁spredt	-9.98013
▁pop	-9.98019
▁1918	-9.98021
▁mikro	-9.9808
▁flykte	-9.98128
dighet	-9.9813
▁bibel	-9.98132
kost	-9.98148
▁virkelig	-9.98223
▁femte	-9.98282
▁anna	-9.98288
▁sports	-9.98295
▁sendte	-9.98326
▁kaptein	-9.98374
▁will	-9.98442
▁innsjøen	-9.98499
▁planet	-9.98532
▁fordel	-9.98534
bakk	-9.9858
ér	-9.98624
▁kanal	-9.98635
▁systemet	-9.9866
vision	-9.98715
ikken	-9.98788
orden	-9.98907
forhold	-9.9895
▁vitenskap	-9.99053
▁vokal	-9.9909
▁bonde	-9.99092
▁inge	-9.9911
▁søke	-9.99129
▁bein	-9.99202
▁arts	-9.99252
▁forekommer	-9.99273
▁minutter	-9.99273
▁episode	-9.99274
▁bosetning	-9.99275
▁1933	-9.99288
▁1939	-9.99295
▁1943	-9.99296
▁green	-9.99371
▁irsk	-9.99373
▁nederland	-9.99375
▁forvingen	-9.99414
▁mini	-9.99431
▁gard	-9.99531
▁bestemte	-9.99537
▁eksempelvis	-9.99556
▁albert	-9.9959
▁toppen	-9.9959
▁spise	-9.99658
skij	-9.99659
▁singel	-9.99737
mba	-9.99748
jord	-9.9981
phi	-9.99835
▁internasjonalt	-9.99855
kopi	-9.99859
kåret	-9.99882
▁forlag	-9.99926
▁latinsk	-10.0002
forsvar	-10.0002
▁medisin	-10.0005
▁viking	-10.0011
halvøya	-10.0014
bygget	-10.0016
dannelse	-10.0019
gro	-10.0023
styrken	-10.0032
▁buss	-10.0034
▁trening	-10.0049
hm	-10.0054
▁moskva	-10.0056
▁arrangere	-10.0056
▁bryst	-10.0056
▁lufthavn	-10.0057
▁rund	-10.006
▁studenter	-10.0063
▁leker	-10.0066
ney	-10.0074
▁dekker	-10.0075
▁finske	-10.0075
▁spar	-10.0076
▁atom	-10.0082
▁skille	-10.0088
ulf	-10.0091
▁organisasjon	-10.0095
▁blei	-10.0098
▁river	-10.0102
▁dun	-10.0113
23	-10.012
▁landskapet	-10.0121
produkt	-10.0128
serie	-10.013
forskning	-10.0133
▁ungdom	-10.0138
▁utvikle	-10.0139
▁prosjektet	-10.0151
▁freds	-10.0155
▁måned	-10.0159
▁ref	-10.0167
lam	-10.0173
pur	-10.0174
м	-10.0185
▁erkebiskop	-10.0185
д	-10.0185
▁introdusert	-10.0185
▁jødisk	-10.0185
▁oversikt	-10.0185
▁bronsemedalje	-10.0186
▁medlemmene	-10.019
▁grunnlegge	-10.0195
▁lønn	-10.0196
▁agder	-10.0199
▁sikkerhets	-10.02
▁arkitektur	-10.0201
▁ledende	-10.0201
▁vakt	-10.0206
▁tråd	-10.0217
88	-10.0217
▁poet	-10.0219
▁overført	-10.0225
▁bidrag	-10.0227
▁status	-10.0229
▁bredt	-10.0239
▁maleri	-10.0245
▁insekter	-10.0248
▁long	-10.0256
prisen	-10.0258
▁trak	-10.0258
én	-10.0258
▁euro	-10.026
produsent	-10.0265
miljø	-10.0265
▁bilder	-10.0276
▁bevis	-10.0279
fabrikk	-10.0296
▁dynastiet	-10.0297
▁bærer	-10.0301
▁bestemt	-10.0305
ple	-10.0305
▁religiøse	-10.0309
konge	-10.0312
vre	-10.0312
▁slave	-10.0314
▁stift	-10.0314
▁eiendom	-10.0314
▁1908	-10.0317
▁nedbør	-10.0317
uch	-10.0317
▁dato	-10.0318
▁1928	-10.0318
row	-10.0319
▁kropps	-10.0321
strøk	-10.0324
blomst	-10.0325
▁score	-10.0327
kilden	-10.0333
▁økte	-10.0336
▁plassering	-10.0338
▁riket	-10.0339
▁organisert	-10.0351
▁dommer	-10.0353
sso	-10.0356
▁eli	-10.0357
▁bevegelse	-10.0363
kampen	-10.0364
▁bou	-10.0392
▁jule	-10.0392
▁34	-10.0393
33	-10.0394
distrikt	-10.0396
politikk	-10.04
▁stilte	-10.0405
kontor	-10.0406
▁tam	-10.0411
ico	-10.0411
▁havn	-10.0413
▁motta	-10.0425
skipet	-10.0431
kkel	-10.0433
▁bygg	-10.0434
▁sveits	-10.0434
bul	-10.0435
▁sunn	-10.0435
rute	-10.0436
belteasteroide	-10.045
▁astronom	-10.045
▁artikkel	-10.045
▁tilhørte	-10.0451
▁litterær	-10.0452
▁utøve	-10.0452
▁tilhenger	-10.0455
▁varierer	-10.0456
▁tidspunkt	-10.0458
▁1600	-10.046
▁1000	-10.0461
▁bygninger	-10.0466
▁forsknings	-10.0467
▁krysser	-10.0469
▁kapp	-10.0473
▁horn	-10.0475
▁last	-10.0478
22	-10.0479
▁stemmer	-10.048
▁bånd	-10.0481
▁kalk	-10.0481
▁kaste	-10.0484
▁nasjonalpark	-10.0489
logen	-10.0494
▁fel	-10.0501
slått	-10.0509
anda	-10.0516
▁tale	-10.0526
bukta	-10.0529
rige	-10.0545
rup	-10.0545
▁debut	-10.0545
▁800	-10.0546
▁starter	-10.0554
▁forsvaret	-10.0555
▁meg	-10.0557
dro	-10.0558
herre	-10.056
▁bio	-10.0565
▁føl	-10.0568
flo	-10.0575
forsker	-10.058
▁positiv	-10.0585
▁alvorlig	-10.0585
vurder	-10.0586
▁brensel	-10.0586
▁kritikk	-10.0586
traktaten	-10.0586
▁innspilling	-10.0586
▁stadion	-10.0586
▁protest	-10.0587
▁blomster	-10.0588
▁1910	-10.0589
▁saint	-10.0589
analyse	-10.0591
▁skilt	-10.0592
▁nedlagt	-10.0593
▁uttalt	-10.0596
▁1700	-10.0597
▁gy	-10.0598
18	-10.0606
yang	-10.0614
fylt	-10.0617
▁menighet	-10.0623
botn	-10.0624
▁tusen	-10.0633
▁sven	-10.0643
byrå	-10.0654
▁stål	-10.0655
▁utstyrt	-10.0655
▁aur	-10.0666
▁dj	-10.068
ania	-10.0708
bygning	-10.0709
punktet	-10.071
▁south	-10.071
spenning	-10.0718
▁kilder	-10.0721
▁konservativ	-10.0722
▁kjærlighet	-10.0722
▁inngår	-10.0723
▁faktisk	-10.0723
▁glass	-10.0723
▁1929	-10.0724
▁frihet	-10.0727
▁ukjent	-10.073
▁islam	-10.0733
▁gods	-10.074
▁vä	-10.0745
▁harry	-10.0749
park	-10.0763
▁bestod	-10.0765
awa	-10.0767
▁jevn	-10.0776
▁utstilling	-10.0777
distanse	-10.0778
▁brand	-10.0783
31	-10.0789
▁sammenligne	-10.0791
▁tettsted	-10.0792
▁bach	-10.0799
gler	-10.081
▁fritt	-10.0813
▁magasin	-10.082
▁overflate	-10.0834
▁stig	-10.0841
▁zu	-10.0843
▁600	-10.0848
▁kommunene	-10.0851
▁villa	-10.0856
▁eventyr	-10.0861
▁guvernør	-10.0861
▁katedral	-10.0861
▁kontinent	-10.0861
▁geografisk	-10.0861
▁oblast	-10.0861
▁cirka	-10.0861
▁major	-10.0861
▁fysisk	-10.0862
▁utnytte	-10.0862
▁erklært	-10.0869
▁1500	-10.087
▁press	-10.0874
▁innsats	-10.0877
▁turist	-10.0883
ella	-10.0883
virke	-10.0883
▁forretnings	-10.0886
▁liberal	-10.0887
▁cd	-10.089
▁ark	-10.0902
▁33	-10.0904
▁bydelen	-10.0913
▁roll	-10.0913
vest	-10.0917
▁tj	-10.0919
▁mono	-10.0922
bygningen	-10.0926
▁elever	-10.0926
▁styrkene	-10.0929
▁grunnlov	-10.0942
▁nedre	-10.0945
hånd	-10.096
▁kjøl	-10.0966
▁sørge	-10.0968
26	-10.097
kret	-10.098
▁ein	-10.0982
▁kryss	-10.0984
▁california	-10.1002
▁etterfulgt	-10.1002
▁hendelser	-10.1002
▁kristiansand	-10.1002
▁regissert	-10.1002
▁belgisk	-10.1003
▁finnmark	-10.1004
▁slank	-10.1004
▁hotell	-10.1004
▁1917	-10.1004
▁scott	-10.1005
▁romersk	-10.1007
▁middelalderen	-10.1019
▁prins	-10.102
▁kai	-10.102
▁tynn	-10.1023
▁ekstra	-10.1025
▁alf	-10.1027
▁tilhøre	-10.1034
▁underlagt	-10.1035
▁ansvar	-10.1046
type	-10.105
▁amt	-10.1053
▁administrasjons	-10.1055
▁frø	-10.1061
▁rør	-10.1062
▁romanen	-10.1074
kjent	-10.1076
stripe	-10.1088
▁oss	-10.1101
maskin	-10.1107
lid	-10.1114
▁geo	-10.1117
▁tau	-10.1118
▁utfor	-10.1121
▁sikker	-10.1122
13	-10.1123
▁hevde	-10.1144
▁studio	-10.1145
▁initiativ	-10.1145
▁innbyggertall	-10.1145
▁objekt	-10.1145
▁vulkan	-10.1145
▁kombinert	-10.1145
jal	-10.1146
▁telemark	-10.1147
▁håkon	-10.1147
høgskole	-10.1153
setting	-10.1154
▁alpin	-10.1155
▁dekket	-10.1158
▁ansvarlig	-10.1171
▁leon	-10.118
fekt	-10.1185
▁bygning	-10.1189
▁ö	-10.12
▁sentralt	-10.1208
än	-10.121
ary	-10.121
gav	-10.122
▁bakkroppen	-10.1221
▁lam	-10.1227
▁frukt	-10.1239
▁linjen	-10.124
▁spillet	-10.1242
▁studier	-10.1244
▁normal	-10.1247
sket	-10.125
problem	-10.1251
avdeling	-10.1258
tunnel	-10.1266
94	-10.1269
▁kari	-10.127
rommet	-10.1279
▁ali	-10.1283
▁eie	-10.1285
▁ull	-10.1286
▁middelsstor	-10.129
▁registrert	-10.129
▁invasjon	-10.129
▁1914	-10.1291
▁1921	-10.1291
▁1913	-10.1292
▁1923	-10.1292
▁1938	-10.1292
▁portrett	-10.1297
äl	-10.1298
alitet	-10.13
96	-10.1302
28	-10.1306
▁redd	-10.1307
▁dor	-10.1314
sfjorden	-10.1329
▁und	-10.1331
▁nettverk	-10.1346
▁andreplass	-10.1348
staten	-10.1349
▁ost	-10.1356
▁kode	-10.1359
▁signal	-10.1363
▁bevegelsen	-10.1368
økonomi	-10.137
▁phil	-10.1375
27	-10.1378
▁teologi	-10.1383
▁korn	-10.139
▁kandidat	-10.1393
▁mary	-10.1394
▁qui	-10.14
hei	-10.1401
▁tø	-10.1404
▁steve	-10.1412
▁ess	-10.1413
▁vii	-10.1413
▁fartøy	-10.1417
▁sist	-10.1429
▁statlig	-10.143
▁møter	-10.1431
▁antagelig	-10.1437
▁eksperiment	-10.1437
▁mexico	-10.1437
▁nevnes	-10.1437
▁praktisk	-10.1437
▁1932	-10.1438
▁sølvmedalje	-10.1438
▁smith	-10.1439
▁alfred	-10.1439
▁1919	-10.1439
▁1925	-10.1439
▁75	-10.1439
▁papir	-10.144
▁signert	-10.144
▁län	-10.1443
▁fylket	-10.1457
dyktig	-10.1457
▁bibliotek	-10.1461
▁oppnådd	-10.1465
▁landene	-10.1465
▁ansatt	-10.1471
▁athen	-10.1475
▁vogn	-10.1478
▁petter	-10.1484
▁populært	-10.1485
▁ya	-10.1485
▁klart	-10.1485
▁celle	-10.149
▁inntekt	-10.1498
▁verker	-10.1504
▁kir	-10.1506
▁final	-10.1509
▁banen	-10.1533
una	-10.1543
▁tromme	-10.1543
bånd	-10.1551
født	-10.1554
▁thi	-10.1555
▁hovedsak	-10.1565
▁az	-10.1569
▁dør	-10.1577
▁individ	-10.1584
▁konkurrere	-10.1586
▁vingespenn	-10.1586
▁praksis	-10.1586
▁referanse	-10.1586
▁orkester	-10.1586
▁terror	-10.1587
▁utenlandsk	-10.1587
hai	-10.1588
▁krevd	-10.1589
▁street	-10.1589
▁skaffe	-10.159
bebyggelse	-10.1599
▁kjøpe	-10.1602
▁utdannelse	-10.1609
▁kjell	-10.1609
▁team	-10.1613
duk	-10.1616
▁tverr	-10.1617
▁patr	-10.1619
▁billed	-10.1619
▁nordover	-10.1631
▁peder	-10.1631
▁former	-10.1633
▁uker	-10.1656
roman	-10.1666
▁anse	-10.1675
▁dobbelt	-10.1681
valget	-10.1688
▁flyet	-10.1696
album	-10.1703
front	-10.171
▁skiller	-10.1714
▁corn	-10.1721
▁vegg	-10.1725
21	-10.1729
▁barb	-10.173
▁utstyr	-10.1731
▁kim	-10.1735
▁county	-10.1738
▁eventuel	-10.1738
▁nøyaktig	-10.1738
▁science	-10.1738
▁service	-10.1738
▁kombinasjon	-10.1738
▁jakob	-10.1738
▁nominert	-10.1738
kompleks	-10.1738
▁hustru	-10.1738
▁premier	-10.1738
▁oversettelse	-10.1738
▁behov	-10.1738
▁generasjon	-10.1739
▁gustav	-10.1739
▁1927	-10.1739
▁1931	-10.1739
▁syr	-10.1741
▁wall	-10.1742
▁anledning	-10.1747
▁veldig	-10.1748
▁bakke	-10.1751
▁enorm	-10.1754
▁gua	-10.1759
▁levde	-10.1761
▁stam	-10.1767
▁cra	-10.177
vannet	-10.1778
▁foss	-10.1779
▁alene	-10.1781
▁drikke	-10.1782
▁tilfelle	-10.1785
▁båten	-10.1786
dikt	-10.1794
▁tone	-10.1797
▁american	-10.1801
▁utsatt	-10.1803
▁hellige	-10.181
▁esp	-10.1814
▁hon	-10.1815
▁gui	-10.1834
mber	-10.1838
▁asp	-10.1839
▁ulv	-10.1845
pakke	-10.1855
▁lyn	-10.1857
▁foreningen	-10.1859
▁funn	-10.1864
vogn	-10.1871
bøker	-10.1875
▁gruve	-10.1887
▁00	-10.1889
hon	-10.189
kilde	-10.189
▁sistnevnte	-10.1892
▁vesentlig	-10.1892
▁generelt	-10.1892
frekvens	-10.1892
▁tabell	-10.1892
▁palass	-10.1893
▁parallel	-10.1893
▁1926	-10.1893
▁referere	-10.1894
▁samfunnet	-10.1895
▁stå	-10.1896
14	-10.1909
▁vitenskapelig	-10.1909
▁effektiv	-10.1914
bak	-10.1917
▁vekk	-10.1919
▁avtalen	-10.1921
▁jack	-10.1923
▁ranger	-10.1925
▁modern	-10.1929
områdene	-10.1929
renn	-10.1936
▁fyrste	-10.1938
feld	-10.1943
▁produksjonen	-10.1947
▁skinn	-10.1947
▁tekster	-10.1947
dia	-10.1949
spillet	-10.1951
drevet	-10.1955
▁tjenester	-10.1969
▁bull	-10.1971
▁bære	-10.1975
bill	-10.1978
▁ønsker	-10.198
formasjon	-10.1987
▁elite	-10.2005
▁nm	-10.201
▁niels	-10.2012
ligner	-10.2015
utvikling	-10.2018
▁bydel	-10.2031
▁påvirket	-10.204
▁verket	-10.2041
▁neu	-10.2046
sikkerhet	-10.2046
▁kommunal	-10.2048
▁frivillig	-10.2048
▁ødelagt	-10.2048
▁kritiker	-10.2048
▁oberst	-10.2048
▁uttale	-10.205
▁1907	-10.205
▁bygda	-10.2054
▁yng	-10.2066
▁befinne	-10.2074
▁morgen	-10.2079
▁term	-10.2085
▁fisker	-10.2087
rim	-10.2088
▁regional	-10.2092
▁brenn	-10.2097
bevegelsen	-10.2107
▁stillingen	-10.2112
▁lake	-10.2114
▁mah	-10.2131
plante	-10.2135
▁keiseren	-10.2139
▁bygger	-10.214
▁advokat	-10.2144
▁kommando	-10.2148
▁eide	-10.215
light	-10.2151
▁vg	-10.2168
▁sekund	-10.2192
▁nowiki	-10.2207
▁tilknytning	-10.2207
▁erobret	-10.2207
▁hensikt	-10.2207
▁jørgen	-10.2207
friidrettsutøver	-10.2207
▁1935	-10.2209
▁1905	-10.2209
▁hemmelig	-10.2209
▁philip	-10.2211
▁histor	-10.2216
klasse	-10.2216
▁east	-10.2216
▁mangler	-10.2219
▁stab	-10.222
▁vokalist	-10.223
▁motsatt	-10.2234
▁uavhengighet	-10.224
▁bredde	-10.224
▁forbundet	-10.2248
omme	-10.2248
▁organisasjoner	-10.225
▁søkt	-10.2255
▁kru	-10.2258
▁irak	-10.2265
▁intern	-10.2267
norsk	-10.228
▁tempel	-10.2284
▁hammer	-10.2285
▁platen	-10.2287
▁gruppa	-10.2293
▁sideelv	-10.2294
▁aas	-10.23
▁tell	-10.2307
34	-10.2312
▁begrep	-10.2314
▁preg	-10.2326
▁reist	-10.2332
▁jin	-10.234
▁forble	-10.2343
nnie	-10.2347
forsyning	-10.235
▁olsen	-10.2357
▁troms	-10.2357
▁trener	-10.2359
▁friedrich	-10.2368
▁østerriksk	-10.2368
opplæring	-10.2368
▁alexander	-10.2368
▁ingeniør	-10.2368
▁mongol	-10.2369
▁synes	-10.2369
▁himmel	-10.2369
komiteen	-10.2371
▁riktig	-10.2372
▁sjanger	-10.2372
▁andel	-10.2375
▁fotograf	-10.2375
▁cam	-10.238
▁show	-10.2387
▁demningen	-10.2388
statue	-10.2399
▁velger	-10.2401
▁skjær	-10.2402
▁forholdet	-10.2402
▁tolv	-10.2402
▁gold	-10.2408
▁cho	-10.2409
stjerne	-10.2421
▁nordre	-10.2422
▁samisk	-10.243
▁hum	-10.2433
▁krim	-10.2436
▁vekst	-10.2454
▁mynt	-10.2455
▁larve	-10.2456
▁beskrev	-10.2458
▁nyere	-10.2463
▁tilfeller	-10.2482
forbindelse	-10.2499
▁internett	-10.2501
effekt	-10.2514
▁oppnå	-10.2515
havn	-10.2518
▁250	-10.2521
dommer	-10.2531
▁1906	-10.2532
▁eksemplar	-10.2532
▁digital	-10.2532
konferanse	-10.2532
▁konstant	-10.2533
▁håndball	-10.2533
▁kvalitet	-10.2535
kommisjon	-10.2535
▁planlagt	-10.2536
trukket	-10.2537
▁sverd	-10.2539
▁armé	-10.2549
▁føde	-10.2554
turbin	-10.2559
yll	-10.2571
▁tilpasse	-10.2575
▁svar	-10.2582
▁emil	-10.2591
feng	-10.2606
▁virker	-10.2607
▁møll	-10.2613
▁web	-10.2613
▁vingene	-10.2617
▁gaten	-10.2632
▁kommunist	-10.2632
ward	-10.2639
▁troll	-10.2662
sider	-10.2665
▁bestemme	-10.2669
▁comp	-10.267
▁styrte	-10.2697
▁sho	-10.2697
▁fødsel	-10.2698
▁færøyene	-10.2698
▁ødelegge	-10.2698
▁hjerne	-10.2699
▁doktorgrad	-10.2699
▁blanding	-10.27
▁oppløst	-10.27
▁anklage	-10.2701
▁operatør	-10.2701
▁skriver	-10.2703
▁endringer	-10.2704
▁vokser	-10.2704
teater	-10.2704
▁munk	-10.2711
kjøretøy	-10.2712
▁utgjorde	-10.2712
▁gjeld	-10.2714
▁angeles	-10.2718
own	-10.2722
▁walter	-10.2726
▁undervisning	-10.2727
fant	-10.273
32	-10.2734
29	-10.2748
gass	-10.2756
▁ytterst	-10.2757
▁junior	-10.2758
▁dømt	-10.2761
formede	-10.2762
▁besøkt	-10.2762
▁mottatt	-10.2767
▁och	-10.277
brød	-10.2777
▁grov	-10.2778
▁tradisjonell	-10.2781
▁anton	-10.2787
▁idrettslag	-10.2788
wald	-10.2833
▁sving	-10.2839
▁hul	-10.284
▁landskap	-10.284
tysk	-10.2844
yan	-10.2849
forestilling	-10.2852
sosial	-10.2855
▁artilleri	-10.2868
▁illustr	-10.2868
▁league	-10.2868
▁shanghai	-10.2868
▁ansikt	-10.2868
▁rogaland	-10.2868
▁ungarn	-10.2868
▁redusere	-10.2868
ström	-10.2868
▁reaksjon	-10.2868
▁utmerkelse	-10.2868
▁white	-10.2869
▁golf	-10.2869
▁edward	-10.2869
stipend	-10.287
▁tømmer	-10.287
▁arbeiderpartiet	-10.287
▁fullført	-10.2872
faktor	-10.2873
måte	-10.2878
angrep	-10.2882
▁grunnlaget	-10.2884
▁utvikler	-10.2886
▁pensjon	-10.2887
▁tilstand	-10.2887
▁vannkraftverk	-10.2888
▁trond	-10.289
able	-10.2896
▁trø	-10.2897
▁høre	-10.29
▁melk	-10.2901
▁aksje	-10.2904
▁tvang	-10.2905
▁utbygging	-10.2907
▁hellig	-10.2913
bedriften	-10.2917
ledd	-10.2923
▁benytter	-10.2929
▁kapell	-10.2942
▁feire	-10.2943
▁hindre	-10.2944
▁rand	-10.2958
▁innlede	-10.2974
93	-10.2985
▁opphold	-10.2992
strek	-10.3005
▁øre	-10.3008
▁medisinsk	-10.3009
▁unngå	-10.3013
com	-10.3026
materiale	-10.303
▁betegnelse	-10.3039
▁alkohol	-10.304
▁beseiret	-10.304
▁klokken	-10.304
▁frykt	-10.304
rød	-10.304
▁fiolin	-10.304
▁ekstrem	-10.3041
▁belgia	-10.3041
▁nemlig	-10.3041
▁rykket	-10.3041
▁opplysning	-10.3041
▁brøt	-10.3041
ск	-10.3042
lønn	-10.3047
▁alex	-10.3049
▁forsterke	-10.3052
▁overleve	-10.3054
▁velge	-10.3064
▁oppsto	-10.3066
økende	-10.3066
▁rulle	-10.307
tjenesten	-10.3079
▁kommunistisk	-10.3081
wick	-10.3084
høyskole	-10.3084
▁120	-10.3091
▁gitarist	-10.3096
▁timer	-10.3096
▁marx	-10.3098
masse	-10.3103
▁fjellene	-10.311
▁cri	-10.311
▁max	-10.3111
▁låten	-10.3112
tekst	-10.3114
▁cand	-10.3116
tagelse	-10.3118
▁kjemisk	-10.3123
▁formen	-10.314
▁blokk	-10.3158
▁cel	-10.3169
▁mose	-10.319
▁synd	-10.32
▁umiddelbar	-10.3216
▁akershus	-10.3216
▁avdøde	-10.3216
▁company	-10.3216
▁fattig	-10.3216
▁etterkommer	-10.3217
▁opplevd	-10.3218
▁1909	-10.3218
▁reserve	-10.3218
▁skøyte	-10.3218
▁skarp	-10.3218
▁detalj	-10.3225
▁town	-10.3228
▁hersker	-10.3228
frem	-10.3229
▁hitler	-10.3232
▁beholdt	-10.3237
▁tromsø	-10.3239
▁hellas	-10.3239
▁million	-10.3239
▁grønland	-10.3242
▁inneha	-10.3244
▁klassen	-10.3252
▁sørover	-10.3253
▁polar	-10.326
cup	-10.3271
▁verdensmester	-10.3273
▁fotballklubb	-10.3274
▁vitne	-10.3281
versjon	-10.3287
trid	-10.3293
▁angel	-10.3299
▁turneringen	-10.3322
▁unna	-10.3327
▁konstruksjon	-10.3335
▁avsluttet	-10.334
▁jun	-10.3341
livet	-10.3342
▁bladet	-10.3348
vang	-10.3354
øvelse	-10.336
▁paus	-10.3366
▁paven	-10.337
akademi	-10.339
▁myk	-10.3392
▁friidrett	-10.3394
▁restaurant	-10.3394
▁svalbard	-10.3394
▁regissør	-10.3394
▁vestfold	-10.3394
▁foregår	-10.3394
▁evangeli	-10.3394
▁fjær	-10.3395
▁valuta	-10.3395
ов	-10.3395
▁tilsvarer	-10.3395
▁studioalbum	-10.3395
▁begrenset	-10.3395
▁forårsake	-10.3396
▁godkjent	-10.3396
▁kjørt	-10.3405
▁humor	-10.341
liste	-10.3412
galleri	-10.3413
ique	-10.3414
strømmen	-10.3415
▁spenn	-10.3417
▁skall	-10.3419
▁brødrene	-10.3425
▁för	-10.3426
▁vig	-10.3445
koll	-10.3447
ān	-10.3451
beck	-10.3452
▁simon	-10.3453
▁strip	-10.3474
▁rod	-10.3474
▁fungerer	-10.3478
konsern	-10.348
▁angi	-10.3483
familie	-10.3489
▁påvirke	-10.3503
▁klosteret	-10.3514
▁storm	-10.3523
europe	-10.3523
▁boka	-10.3542
▁wol	-10.3543
▁mei	-10.3545
▁grøn	-10.3554
▁middelalder	-10.3555
▁administrasjon	-10.3561
▁utvalg	-10.3565
▁elisabeth	-10.3576
▁respekt	-10.3576
mønster	-10.3576
førsel	-10.3576
▁hendelsen	-10.3576
▁sachsen	-10.3576
▁nektet	-10.3577
▁bakvingen	-10.3577
▁adresse	-10.3577
▁utgivelsen	-10.3577
▁anvende	-10.3577
▁1911	-10.3579
▁telefon	-10.3579
▁generell	-10.3579
▁oppmerksomhet	-10.358
▁michel	-10.358
▁beslutte	-10.3581
▁monark	-10.3582
▁tradisjonel	-10.3583
modell	-10.3585
▁wil	-10.3589
▁gradvis	-10.3607
▁østover	-10.3608
▁bang	-10.3616
cla	-10.3622
head	-10.3624
▁adam	-10.3625
▁gymnas	-10.3633
▁khan	-10.364
▁karakteristisk	-10.3642
▁tun	-10.3647
▁jim	-10.365
▁back	-10.3656
▁landsby	-10.3658
▁vinne	-10.3672
▁etnisk	-10.3689
▁høst	-10.3692
▁from	-10.3695
▁institusjon	-10.3716
▁ordre	-10.373
▁hug	-10.373
▁kristian	-10.375
hof	-10.3755
fattet	-10.376
▁arrestert	-10.3761
▁hovedkvarter	-10.3761
▁tønsberg	-10.3761
▁australsk	-10.3761
▁xiàn	-10.3761
▁etablere	-10.3762
▁global	-10.3762
rådgiver	-10.3762
▁rektor	-10.3762
▁skildre	-10.3762
▁arendal	-10.3763
▁sykkel	-10.3763
avisen	-10.3764
▁1916	-10.3764
на	-10.3766
▁hovedkontor	-10.3768
▁eksport	-10.3771
▁fortellingen	-10.3774
▁nød	-10.3776
vald	-10.3789
▁gli	-10.3791
basert	-10.3797
▁torg	-10.3809
▁slette	-10.3839
▁tank	-10.3851
▁wu	-10.3852
▁roger	-10.386
▁ønske	-10.3871
▁innhold	-10.3879
▁pap	-10.3923
fortelling	-10.3948
▁komponert	-10.395
▁milliarder	-10.395
▁hordaland	-10.395
▁pakistan	-10.395
▁negativ	-10.395
seremoni	-10.395
▁angripe	-10.395
▁kritisert	-10.3951
▁nedenfor	-10.3951
▁1934	-10.3952
▁power	-10.3952
▁antyd	-10.3952
▁stiftelsen	-10.3953
▁programleder	-10.3953
▁erfaring	-10.3953
regjering	-10.3957
representant	-10.3958
vegg	-10.3958
▁høyesterett	-10.396
▁publi	-10.3967
▁saga	-10.3973
▁birk	-10.3975
▁grim	-10.399
▁kommunikasjon	-10.3995
▁verksted	-10.4005
▁fortalt	-10.4008
▁bell	-10.4012
▁urban	-10.4012
▁dahl	-10.4022
▁visse	-10.4036
▁involvert	-10.4038
▁diplomat	-10.4047
▁ansvaret	-10.405
registr	-10.405
▁sara	-10.4054
▁europeisk	-10.4055
▁fulgt	-10.4055
▁kha	-10.406
▁parlament	-10.4068
▁beskrivelse	-10.4089
grensen	-10.4096
▁strak	-10.41
cheng	-10.4103
▁mau	-10.4109
runde	-10.4129
▁170	-10.4135
▁aksjon	-10.4135
svømme	-10.414
▁kollektiv	-10.4142
▁dollar	-10.4142
▁autonom	-10.4143
▁arthur	-10.4143
▁tilskuer	-10.4143
▁definert	-10.4143
▁strekningen	-10.4143
▁føderal	-10.4143
▁myndighetene	-10.4144
▁jesus	-10.4144
plattform	-10.4144
▁individuel	-10.4145
▁britene	-10.4145
▁drammen	-10.4146
▁jackson	-10.4149
▁dvs	-10.415
▁franz	-10.4153
utdanning	-10.4153
▁byggingen	-10.4153
▁prosessen	-10.4154
▁hvile	-10.4155
bølge	-10.4156
spreng	-10.4158
▁fremført	-10.4158
▁anlagt	-10.4159
horn	-10.416
tillatelse	-10.4165
▁prix	-10.4166
▁shan	-10.417
behandling	-10.4171
kjeden	-10.4176
▁figuren	-10.4179
▁johansen	-10.4183
▁kino	-10.4189
kjøring	-10.4197
▁mannlig	-10.4208
▁begynne	-10.423
▁betale	-10.4254
▁pul	-10.4263
▁fett	-10.4266
▁kirk	-10.4287
seil	-10.4295
▁ytter	-10.431
▁kongelig	-10.431
▁skuespill	-10.4311
vakt	-10.4331
▁barcelona	-10.4338
▁okkupasjon	-10.4338
▁ressurs	-10.4338
▁ukrainsk	-10.4338
territorie	-10.4338
▁radikal	-10.4339
▁zealand	-10.4339
▁forsvant	-10.4339
▁gunnar	-10.4339
pedagog	-10.4339
▁1922	-10.4341
▁halvparten	-10.4341
▁egyptisk	-10.4347
direktør	-10.4353
næs	-10.4354
▁sikte	-10.4361
▁1880	-10.4363
▁inndelt	-10.4364
▁meta	-10.4387
stadie	-10.4392
▁tyskerne	-10.4393
gjørelse	-10.4394
▁smerte	-10.4396
▁krok	-10.4404
▁vende	-10.4407
▁parlamentet	-10.4415
▁molde	-10.4424
▁rester	-10.4436
▁bratt	-10.4437
▁demokratisk	-10.4453
filosofi	-10.4455
▁kjemi	-10.446
▁utenriks	-10.4461
bød	-10.4462
▁ey	-10.4486
▁konkl	-10.4488
▁smak	-10.4505
▁700	-10.4506
brev	-10.4508
▁regjer	-10.4511
▁kva	-10.4516
▁bevege	-10.4519
reise	-10.4535
løytnant	-10.4538
▁observer	-10.4538
▁heinrich	-10.4538
▁kjennetegn	-10.4538
orientert	-10.4539
▁ovenfor	-10.4539
▁konsept	-10.4539
▁kobber	-10.4539
▁debutalbum	-10.4539
▁beordre	-10.4539
▁larvik	-10.4539
▁vendt	-10.4541
▁1904	-10.4542
▁sjette	-10.4542
▁filip	-10.4544
▁myndigheter	-10.4544
kompani	-10.4544
▁brygge	-10.4545
posisjon	-10.4547
▁falk	-10.4548
▁utløp	-10.455
▁popul	-10.4551
▁studere	-10.4551
historisk	-10.4557
▁skyte	-10.4573
▁900	-10.4581
misjon	-10.4581
▁vanligst	-10.4586
oksid	-10.4587
▁tykk	-10.4589
▁snu	-10.4592
▁tidsskriftet	-10.4592
▁pont	-10.46
▁helhet	-10.4605
▁bryte	-10.4622
metode	-10.4684
preg	-10.4693
verden	-10.4693
kall	-10.4704
kurs	-10.4712
maker	-10.472
▁gjennomsnitt	-10.4722
▁russe	-10.4731
▁afghanistan	-10.4743
▁beslutning	-10.4743
▁manuskript	-10.4743
▁asteroide	-10.4743
▁juridisk	-10.4743
▁verdensrekord	-10.4743
▁oppstår	-10.4743
▁reklame	-10.4743
▁nikola	-10.4743
▁brigade	-10.4743
▁kriminal	-10.4743
▁alpene	-10.4745
▁thu	-10.4746
▁midlertidig	-10.4746
▁2018	-10.4747
politisk	-10.475
speil	-10.4758
▁lettere	-10.4764
hjelp	-10.4765
mission	-10.4769
▁play	-10.4772
▁oppstod	-10.4773
▁synge	-10.4777
▁drepe	-10.4782
▁synlig	-10.4784
▁mala	-10.4792
▁tann	-10.4802
▁agent	-10.4802
▁cuba	-10.4834
▁voksen	-10.4845
▁jones	-10.4847
▁visst	-10.4848
▁etappe	-10.4867
bevisst	-10.4871
trener	-10.488
▁jam	-10.4931
▁baron	-10.4936
▁vietnam	-10.4943
▁palm	-10.4945
▁definisjon	-10.4951
▁forhindre	-10.4951
▁francisco	-10.4951
▁napoleon	-10.4951
▁utslipp	-10.4951
▁risiko	-10.4951
▁uvanlig	-10.4951
kvalifisert	-10.4951
▁kommersiell	-10.4951
teatret	-10.4951
▁ungarsk	-10.4951
▁sprint	-10.4951
▁sportsutøver	-10.4951
▁utseende	-10.4951
▁manager	-10.4953
▁plast	-10.4954
▁bakterie	-10.4954
▁konkurs	-10.4954
▁rednings	-10.4955
▁kritisk	-10.4957
▁allmenn	-10.4958
rygg	-10.496
▁fei	-10.4963
▁hull	-10.4965
▁sammenlagt	-10.497
▁vennskap	-10.497
montert	-10.4973
▁volum	-10.4974
▁intens	-10.4982
bunn	-10.4984
▁bestand	-10.4985
▁forvente	-10.4988
▁departement	-10.4994
▁furu	-10.5019
▁foto	-10.502
▁løfte	-10.5022
▁arg	-10.5026
kutt	-10.5032
▁silke	-10.5034
teori	-10.5042
▁santa	-10.5049
kjede	-10.506
▁kulturell	-10.5061
▁forklare	-10.5073
▁kval	-10.5077
tempelet	-10.5084
▁fase	-10.5087
▁brei	-10.5098
▁drap	-10.5108
▁unik	-10.5113
▁jente	-10.5114
løft	-10.5118
mengden	-10.5122
▁rosa	-10.5129
▁menneskelig	-10.5131
▁takke	-10.5134
▁aleksander	-10.5164
▁cæsar	-10.5164
▁kvalifisering	-10.5164
▁millimeter	-10.5164
veksling	-10.5164
▁kjøtt	-10.5164
▁vilhelm	-10.5164
▁sigurd	-10.5164
▁opptreden	-10.5164
▁mekanisk	-10.5164
▁forbedre	-10.5164
▁overlevd	-10.5166
hjort	-10.5166
▁1901	-10.5167
▁sverre	-10.5168
▁brown	-10.517
▁tjener	-10.5171
▁kristiania	-10.5175
rakk	-10.5177
▁1896	-10.5182
▁sveitsisk	-10.519
kredi	-10.5191
▁great	-10.5196
bach	-10.5217
▁salme	-10.5243
høyden	-10.526
økonom	-10.5264
▁muslimsk	-10.5281
vidt	-10.529
▁brutt	-10.5292
listen	-10.5307
▁malm	-10.5319
▁romme	-10.5325
lä	-10.5344
kjør	-10.5344
▁forstå	-10.5347
▁mega	-10.5352
▁liber	-10.5359
▁tjenestegjor	-10.5363
▁skriftlig	-10.5365
▁administrere	-10.5381
▁elizabeth	-10.5381
▁1902	-10.5381
▁hjelm	-10.5381
▁minoritet	-10.5381
▁utbredelse	-10.5381
▁tyrkisk	-10.5381
▁thailand	-10.5381
▁elementer	-10.5381
▁visepresident	-10.5382
▁prinsesse	-10.5382
givning	-10.5383
komité	-10.5383
▁novell	-10.5383
▁svein	-10.5384
▁opptrer	-10.5385
▁tropisk	-10.5389
▁onkel	-10.5391
▁variasjon	-10.5395
kledd	-10.54
▁1888	-10.5402
▁amerikaner	-10.5407
▁panser	-10.5411
▁helgen	-10.5417
funksjon	-10.5418
▁skjell	-10.5418
▁1860	-10.5419
kanalen	-10.5419
tittel	-10.5421
▁antatt	-10.5425
▁lord	-10.5433
karriere	-10.5434
skyting	-10.5444
utenriksminister	-10.5449
fartøy	-10.5453
wich	-10.5454
lengde	-10.5468
mmel	-10.5481
burn	-10.5483
▁klippe	-10.5487
▁olymp	-10.5493
lidelse	-10.5502
▁nau	-10.5506
▁vestsid	-10.551
▁oh	-10.5512
▁helst	-10.5522
jong	-10.553
▁life	-10.5534
▁israelsk	-10.5548
kontroll	-10.5566
pati	-10.5568
lich	-10.5569
slutt	-10.558
▁spring	-10.558
pleie	-10.5593
▁messe	-10.5597
forvaltning	-10.5599
▁arrangement	-10.5603
▁ortodoks	-10.5603
▁society	-10.5603
▁alfabet	-10.5603
▁adolf	-10.5603
▁uansett	-10.5603
▁henrettet	-10.5603
▁mektig	-10.5603
▁bodø	-10.5604
▁naturgass	-10.5605
▁konsekvens	-10.5606
▁firmaet	-10.5606
aceae	-10.5606
▁nyhets	-10.5608
▁debatt	-10.5609
▁tegninger	-10.561
▁røyk	-10.5612
▁programmer	-10.5613
▁punk	-10.5614
▁kjenner	-10.5615
blikk	-10.5617
▁hotel	-10.562
▁lykke	-10.5622
▁ordnet	-10.5625
▁1877	-10.5626
▁republikk	-10.563
olje	-10.5638
▁hval	-10.5647
▁skutt	-10.565
utstyr	-10.5654
▁victoria	-10.5665
▁qing	-10.5668
stav	-10.5669
▁rhin	-10.5686
utvalget	-10.5686
0	-10.5691
årig	-10.5693
▁vev	-10.5699
▁spesialiser	-10.5703
▁elske	-10.5711
støtte	-10.5723
▁arena	-10.5725
▁arkeologisk	-10.5748
▁innvie	-10.575
▁opplag	-10.5767
troppen	-10.5772
hed	-10.5789
▁forbinde	-10.5814
▁argentina	-10.583
▁gjaldt	-10.583
▁hjørne	-10.583
▁lillehammer	-10.583
▁maksimal	-10.583
▁münchen	-10.583
▁portugisisk	-10.583
▁windows	-10.583
▁admiral	-10.5831
▁vellykke	-10.5831
▁argument	-10.5831
▁texas	-10.5831
kompetanse	-10.5831
▁terreng	-10.5831
▁josef	-10.5831
▁karbon	-10.5831
▁betjene	-10.5832
▁datamaskin	-10.5832
▁buskerud	-10.5832
▁bbc	-10.5832
ovitsj	-10.5833
▁1915	-10.5833
▁trenger	-10.5834
▁bispe	-10.5835
gutt	-10.5837
▁bydistrikt	-10.5838
▁hensyn	-10.5839
▁medaljen	-10.5839
kreft	-10.5844
▁meldt	-10.5845
▁tjue	-10.5846
▁orgel	-10.5847
▁night	-10.5849
▁piano	-10.5849
▁down	-10.5852
▁1892	-10.5853
▁kommunestyre	-10.5854
▁undervist	-10.5857
▁hamburg	-10.5858
skikkelse	-10.5867
følelse	-10.5868
▁opplevelse	-10.5869
▁utvidelse	-10.5875
fast	-10.5898
▁sovjet	-10.5901
▁innerst	-10.5902
▁with	-10.5902
▁fremmed	-10.5921
start	-10.5934
▁fungere	-10.5957
▁opprette	-10.5965
▁out	-10.5967
▁avslutte	-10.5969
▁home	-10.5971
utøver	-10.5983
forståelse	-10.6012
▁størst	-10.6019
▁prinsipp	-10.6021
▁institute	-10.6063
▁jerusalem	-10.6063
▁åpningsseremoni	-10.6063
▁flaggbærer	-10.6063
▁istedenfor	-10.6063
▁permanent	-10.6063
▁borgerkrigen	-10.6063
▁manglende	-10.6063
▁kongedømmet	-10.6063
▁presentert	-10.6063
▁anerkjenne	-10.6063
▁barnehage	-10.6064
▁josé	-10.6064
apparat	-10.6065
▁flytende	-10.6065
▁tallrike	-10.6066
▁betong	-10.6067
▁romsdal	-10.6067
▁gullmedalje	-10.6068
▁fredrikstad	-10.6072
▁nazi	-10.6084
▁klatre	-10.6085
▁1898	-10.6089
▁metro	-10.609
▁gudinne	-10.6097
▁demokrati	-10.6112
struktur	-10.6115
divisjon	-10.6116
▁mathi	-10.6117
bønn	-10.6122
▁queen	-10.6122
▁beholde	-10.6122
▁heks	-10.6128
▁kunstnerisk	-10.6134
▁nerve	-10.6138
▁seire	-10.6143
▁wales	-10.6146
biblioteket	-10.6148
bringe	-10.6152
▁mesterskap	-10.6235
▁oppfatte	-10.6246
▁arab	-10.626
▁brødre	-10.6261
▁inneba	-10.6274
kansler	-10.6281
▁allianse	-10.629
▁helsingfors	-10.6301
▁chicago	-10.6301
▁innbyggerne	-10.6301
▁testament	-10.6301
presentasjon	-10.6301
▁fungerte	-10.6301
▁florida	-10.6301
▁fenomen	-10.6301
▁opptrådt	-10.6301
▁semifinale	-10.6301
▁hyppig	-10.6301
▁senior	-10.6301
▁multi	-10.6302
▁dominert	-10.6302
▁fuktig	-10.6303
▁søndr	-10.6304
▁import	-10.6304
▁kristin	-10.6305
▁antonio	-10.6305
▁tørke	-10.631
▁fastlandet	-10.6313
▁jonas	-10.632
▁1894	-10.6321
▁kirkegård	-10.6322
▁ddr	-10.6326
▁geir	-10.6331
▁ernst	-10.6334
bombe	-10.6343
▁vestover	-10.6346
▁brent	-10.6347
gjorde	-10.6359
▁dramatisk	-10.6361
konsert	-10.6363
▁chang	-10.6371
kjerne	-10.6395
▁ferge	-10.6397
▁kvad	-10.6402
vassdraget	-10.641
▁hytte	-10.6457
samband	-10.6472
▁blind	-10.649
▁forskjellig	-10.6514
▁bryllup	-10.6545
▁elektronisk	-10.6545
▁fakultet	-10.6545
▁hollywood	-10.6545
▁identifisert	-10.6545
▁patriark	-10.6545
▁tyrkia	-10.6545
▁washington	-10.6545
▁antarktis	-10.6545
▁konvensjon	-10.6545
▁sluppe	-10.6545
løv	-10.6545
▁hebraisk	-10.6545
investering	-10.6545
▁etablering	-10.6545
▁igjennom	-10.6545
▁erstatning	-10.6546
▁monroe	-10.6546
▁svekke	-10.6547
▁techn	-10.6548
▁class	-10.6548
▁frakte	-10.6549
▁fortellinger	-10.6549
▁forvaltnings	-10.6551
kampanje	-10.6557
▁fossil	-10.6557
▁nederst	-10.656
▁fasc	-10.6562
▁landslaget	-10.6563
▁young	-10.6563
▁tolke	-10.6564
▁einar	-10.6564
▁lokalisert	-10.6567
▁foster	-10.657
▁gjennombrudd	-10.6572
▁regler	-10.6575
▁gjennomsnittlig	-10.6583
▁wild	-10.6588
redaktør	-10.6609
▁skrå	-10.6612
spiss	-10.6623
▁flytte	-10.6625
maleri	-10.6629
▁syke	-10.6631
▁eike	-10.6679
scene	-10.6687
veps	-10.6692
▁lyng	-10.6694
▁vindu	-10.6706
▁victor	-10.6726
▁tvers	-10.6762
▁fyrst	-10.6779
▁flest	-10.6793
▁dominere	-10.6795
▁nøytral	-10.6795
▁kjønnsmod	-10.6795
▁okkupert	-10.6795
▁sammenslåing	-10.6795
▁sarpsborg	-10.6795
▁assistent	-10.6795
▁engasjert	-10.6795
▁ukraina	-10.6795
▁ludvig	-10.6795
▁øyeblikk	-10.6795
▁væske	-10.6795
▁geometri	-10.6795
▁heavy	-10.6795
▁canadisk	-10.6795
▁bjørk	-10.6795
høvding	-10.6795
▁gabriel	-10.6795
▁eksistens	-10.6795
konsulent	-10.6795
▁seinere	-10.6796
▁protein	-10.6796
▁nymfe	-10.6796
▁dverg	-10.6797
▁mineral	-10.6798
▁group	-10.6799
▁foreslått	-10.68
▁gratis	-10.68
tolkning	-10.68
▁1200	-10.6801
▁cast	-10.6805
▁komposisjon	-10.6805
ylling	-10.6806
▁benevn	-10.6807
▁britis	-10.6807
▁tvunge	-10.6808
▁moore	-10.6808
bestemmelse	-10.6811
▁idé	-10.6812
▁1893	-10.6813
▁syria	-10.6815
▁hylle	-10.6815
▁sandvik	-10.6819
▁1848	-10.6822
▁beskyttelse	-10.6823
▁1890	-10.6827
▁material	-10.683
lignende	-10.6833
▁nordmenn	-10.6835
▁lunge	-10.6846
bau	-10.6849
skrevet	-10.6854
amerikanske	-10.6867
musiker	-10.6874
bæk	-10.6882
tjern	-10.6884
▁kontrollere	-10.6965
bryter	-10.7002
▁prost	-10.701
knapp	-10.7021
▁jesuitt	-10.7051
▁aluminium	-10.7051
▁ambassadør	-10.7051
▁country	-10.7051
▁dirigent	-10.7051
▁renessanse	-10.7051
▁tilsynelatende	-10.7051
▁kavaleri	-10.7051
▁embeds	-10.7051
▁innebærer	-10.7051
▁litauen	-10.7051
▁misjonær	-10.7052
▁deutsche	-10.7052
▁erobring	-10.7052
▁charlotte	-10.7052
▁slippe	-10.7052
▁bønder	-10.7052
▁tropper	-10.7052
▁utforming	-10.7053
ев	-10.7053
ови	-10.7053
▁forkortelse	-10.7054
▁hedmark	-10.7055
▁dominerende	-10.7058
▁death	-10.7058
▁falsk	-10.7061
▁lisens	-10.7066
▁hyper	-10.7068
▁eiendommen	-10.7072
▁operere	-10.7075
▁tredjeplass	-10.7076
▁1899	-10.7079
▁good	-10.7085
▁morten	-10.7092
▁kupp	-10.7092
▁estland	-10.7106
▁variert	-10.7109
▁mcc	-10.7115
instrument	-10.7126
kandidat	-10.7128
magasin	-10.7128
▁hydro	-10.7139
harmoni	-10.714
▁ligge	-10.7212
▁trodd	-10.7216
▁markere	-10.723
redskap	-10.7253
regime	-10.7295
balanse	-10.7302
▁1400	-10.7306
sekvens	-10.7312
▁angelsaksisk	-10.7315
▁prøyssisk	-10.7315
▁påbegynt	-10.7315
▁vladimir	-10.7315
▁infanteri	-10.7315
▁kommandør	-10.7315
▁søndag	-10.7315
▁lørdag	-10.7315
▁stephen	-10.7315
▁underholdning	-10.7315
▁sosialdemokrat	-10.7316
▁forklaring	-10.7317
▁sukker	-10.7317
forsikring	-10.7317
▁generalsekretær	-10.7318
▁stengt	-10.7319
▁disney	-10.7319
▁afrikansk	-10.7319
▁tilsammen	-10.732
▁familiegruppen	-10.732
▁langrenn	-10.732
vilkår	-10.7321
▁drøm	-10.7324
▁håndverk	-10.7325
▁koreansk	-10.7327
▁castle	-10.7327
kamerat	-10.7327
▁avansert	-10.7328
▁donau	-10.7331
▁puppe	-10.7332
▁nederlag	-10.7335
▁1814	-10.7335
▁statsråd	-10.7351
betaling	-10.7364
▁utvide	-10.7368
institusjoner	-10.7383
kloster	-10.74
▁hevn	-10.7426
▁arkeolog	-10.7428
hugg	-10.7449
▁terra	-10.745
snegl	-10.7487
▁rådhus	-10.7504
▁omdanne	-10.7541
lån	-10.7564
▁vannkraft	-10.7567
▁kontrovers	-10.7585
▁musikkvideo	-10.7585
▁psykiatri	-10.7585
▁association	-10.7585
▁football	-10.7585
▁forøvrig	-10.7585
▁prefektur	-10.7585
▁skjønt	-10.7585
▁virginia	-10.7585
▁portugal	-10.7585
▁oppdatert	-10.7585
▁verdenscupen	-10.7585
▁nevø	-10.7585
▁utsikt	-10.7585
▁fiktiv	-10.7585
▁bærum	-10.7585
▁seksuell	-10.7585
▁vegetasjon	-10.7585
▁utnevne	-10.7585
▁innlemme	-10.7586
betjent	-10.7586
▁massiv	-10.7586
▁opposisjon	-10.7587
▁sydney	-10.7587
▁regelmessig	-10.7587
▁antikken	-10.7588
▁point	-10.7589
▁gravlagt	-10.7591
▁elleve	-10.7591
▁smelte	-10.7591
▁programvare	-10.7592
▁biologisk	-10.7594
▁senator	-10.7596
▁betalt	-10.7596
▁biografi	-10.7597
▁center	-10.7597
▁kunstløp	-10.7603
▁rykte	-10.7615
▁trygg	-10.7616
stigning	-10.7628
▁brant	-10.7634
styrt	-10.7647
▁næringsliv	-10.7649
vennlig	-10.7662
konstruksjon	-10.7676
frukt	-10.7677
▁halvdel	-10.7679
debut	-10.7682
medlemmer	-10.7687
brett	-10.7726
motiv	-10.7738
azar	-10.7746
▁sparta	-10.7765
sjö	-10.7768
▁tidsskrift	-10.7789
stell	-10.7845
nøtt	-10.7857
▁oppleve	-10.7862
▁budsjett	-10.7863
▁absolutt	-10.7863
▁antwerpen	-10.7863
▁dekkvingene	-10.7863
▁heidelberg	-10.7863
▁jomfru	-10.7863
▁konkurrert	-10.7863
▁strategisk	-10.7863
▁særskilt	-10.7863
▁bekjempe	-10.7863
▁prøvd	-10.7863
▁1871	-10.7863
▁church	-10.7863
▁stridsvogn	-10.7863
▁embets	-10.7863
▁apollo	-10.7863
▁fysikk	-10.7863
▁lyktes	-10.7863
▁beslektet	-10.7863
▁verdensarv	-10.7863
▁skjøt	-10.7863
▁lewis	-10.7863
▁maritim	-10.7864
▁snorre	-10.7864
▁dvd	-10.7865
▁konstitusjon	-10.7865
▁årsaken	-10.7865
▁tilfeldig	-10.7866
▁atmosfære	-10.7866
publikasjon	-10.7866
▁grevskapet	-10.7866
▁nattfly	-10.7868
▁geologisk	-10.7869
▁styreleder	-10.7872
▁øvelsen	-10.7874
▁1300	-10.7875
schaft	-10.7877
▁mandat	-10.7878
▁møre	-10.7879
▁røtter	-10.7882
▁ibsen	-10.7883
cour	-10.7886
▁talent	-10.7891
▁europavei	-10.7895
▁bryn	-10.7909
prinsippet	-10.7914
aften	-10.7921
▁pels	-10.7939
treffe	-10.7947
▁setning	-10.7958
offiser	-10.7963
transport	-10.7963
kjøl	-10.7969
▁undersøke	-10.7969
enhver	-10.7991
▁nettsted	-10.8009
▁lavest	-10.8019
▁dynasti	-10.8074
bukten	-10.8115
▁hjemmebane	-10.812
▁ferdinand	-10.8148
▁færøysk	-10.8148
▁låtskriver	-10.8148
▁sjeldne	-10.8148
▁1903	-10.8148
▁kommandant	-10.8148
▁sogneprest	-10.8148
▁bystatus	-10.8148
▁separat	-10.8148
▁trommeslager	-10.8148
▁dublin	-10.8148
ensemble	-10.8149
▁axel	-10.8149
▁zhang	-10.8149
▁ulovlig	-10.8149
▁stråle	-10.8149
▁fragment	-10.8149
▁besetning	-10.8149
▁partner	-10.815
worth	-10.8151
▁kronologisk	-10.8151
▁kryp	-10.8152
▁oldtiden	-10.8153
▁profet	-10.8153
▁action	-10.8154
▁wilson	-10.8157
▁sykdommen	-10.816
▁pastor	-10.8161
▁forlatt	-10.8162
▁lojal	-10.8165
▁vandre	-10.8169
brenning	-10.817
▁søyle	-10.8173
▁prosesser	-10.8175
▁sekundær	-10.8179
▁persisk	-10.8213
kommando	-10.8256
historiker	-10.8256
litteratur	-10.8257
gjerning	-10.8259
design	-10.8259
strup	-10.8274
▁ideologi	-10.8275
prest	-10.8343
▁valle	-10.8362
▁observa	-10.8365
▁generalmajor	-10.8443
▁innspilt	-10.8443
▁inspirasjon	-10.8443
▁komponent	-10.8443
▁rekrutt	-10.8443
▁returnerte	-10.8443
▁frilufts	-10.8443
▁jersey	-10.8443
▁abraham	-10.8443
▁beleiring	-10.8443
konsentrasjon	-10.8443
▁utspring	-10.8443
▁frigjøring	-10.8443
▁registrering	-10.8443
▁katalog	-10.8443
▁komplett	-10.8443
▁prince	-10.8443
▁madrid	-10.8443
▁haakon	-10.8443
▁andré	-10.8443
▁serbisk	-10.8444
▁uefa	-10.8444
▁fangst	-10.8445
▁poesi	-10.8445
▁rolf	-10.8445
▁linux	-10.8445
▁hørte	-10.8447
▁samuel	-10.8448
▁bridge	-10.845
▁grafisk	-10.8457
▁rettferdig	-10.8457
▁genetisk	-10.8458
▁religiøs	-10.8461
▁beskjed	-10.8463
ridge	-10.8466
flyging	-10.8473
▁tidligst	-10.8497
areal	-10.8499
▁benytte	-10.8505
▁ungdomsskole	-10.8514
ault	-10.8543
▁nevro	-10.8544
spørsmål	-10.856
advokat	-10.8561
ifikasjon	-10.8565
krist	-10.857
▁muslim	-10.8581
▁statistisk	-10.8585
▁ørn	-10.8594
▁flue	-10.8611
▁frost	-10.8658
bevegelse	-10.8702
▁høgskolen	-10.873
skvadron	-10.8746
▁arrangør	-10.8746
▁douglas	-10.8746
▁fundament	-10.8746
▁skjult	-10.8746
▁utelukkende	-10.8746
▁vedlikehold	-10.8746
▁bachelor	-10.8746
▁nøkkel	-10.8746
▁progressiv	-10.8746
▁stråling	-10.8746
▁regulering	-10.8746
koalisjon	-10.8746
▁senterpartiet	-10.8746
bransjen	-10.8746
▁haugesund	-10.8746
▁gjennomgår	-10.8746
▁aktuell	-10.8746
▁ordinær	-10.8746
▁ektemann	-10.8746
▁flyktning	-10.8746
▁avviklet	-10.8746
▁opprettelsen	-10.8747
▁misjons	-10.8748
mouth	-10.8748
redaksjon	-10.8749
▁hydrogen	-10.875
▁fruktbar	-10.8751
▁døgn	-10.8751
▁isabel	-10.8752
▁utløst	-10.8752
▁forskjellen	-10.8767
▁observasjon	-10.8781
betingelse	-10.879
styring	-10.8805
demokrat	-10.8812
ferdighet	-10.8828
graph	-10.8854
turneringen	-10.8871
dynastiet	-10.8872
tradisjon	-10.8873
klipp	-10.8913
prøve	-10.8919
▁personlighet	-10.9013
▁jordskjelv	-10.9058
▁kronprins	-10.9058
kostnadene	-10.9058
▁atlanterhavet	-10.9058
▁avslutning	-10.9058
▁ferskvann	-10.9058
▁frankfurt	-10.9058
▁göteborg	-10.9058
▁katolikk	-10.9058
▁liverpool	-10.9058
▁plutselig	-10.9058
▁resolusjon	-10.9058
potensial	-10.9058
▁königs	-10.9058
▁sicilia	-10.9058
▁anmelder	-10.9058
▁frimurer	-10.9058
▁fiction	-10.9058
▁forvandling	-10.9058
▁svovel	-10.9058
▁söder	-10.9058
▁tvilling	-10.9058
▁betydningsfull	-10.9058
▁margaret	-10.9058
▁regulere	-10.9058
▁oppbevar	-10.9059
▁theodor	-10.9059
▁korrekt	-10.9059
▁trengte	-10.9059
▁tverrbånd	-10.9059
▁sibir	-10.9059
▁landslags	-10.9059
▁fjordane	-10.9059
▁flukt	-10.9059
▁efter	-10.906
▁definere	-10.906
recht	-10.906
▁nkp	-10.9061
▁leilighet	-10.9062
▁jurist	-10.9062
▁markedet	-10.9062
▁bensin	-10.9067
▁borgerlig	-10.9067
▁planlegge	-10.9068
▁smitte	-10.9068
▁bayern	-10.9075
haupt	-10.9079
▁nedtegne	-10.908
▁tjent	-10.9088
kirurg	-10.9088
▁høydepunkt	-10.9109
▁sykle	-10.9114
ière	-10.9128
▁avskjed	-10.9145
betegnelse	-10.9194
sesongen	-10.9196
lokale	-10.9202
middag	-10.9308
bragt	-10.931
▁adskilt	-10.9381
▁amsterdam	-10.9381
▁ektefelle	-10.9381
▁halveringstid	-10.9381
▁luxembourg	-10.9381
▁matematikk	-10.9381
▁pyramide	-10.9381
▁restaurering	-10.9381
▁skandinavia	-10.9381
▁taiwan	-10.9381
▁billboard	-10.9381
▁central	-10.9381
▁buddhist	-10.9381
▁hjalp	-10.9381
▁campbell	-10.9381
▁konsonant	-10.9381
▁automatisk	-10.9381
▁autoritet	-10.9381
▁colombia	-10.9381
▁beatles	-10.9381
▁protestantisk	-10.9381
▁oppfatning	-10.9381
▁selvmord	-10.9381
▁senatet	-10.9381
selskab	-10.9381
▁naturreservat	-10.9382
▁samlealbum	-10.9382
▁fylkeskommune	-10.9382
▁dream	-10.9383
▁medvirket	-10.9383
▁tilnærme	-10.9384
▁universet	-10.9385
▁chrys	-10.9385
krisen	-10.9386
▁spyd	-10.9386
syklus	-10.9386
▁meyer	-10.9386
▁apple	-10.9387
▁skrog	-10.9387
▁presentere	-10.9387
▁forenkle	-10.9389
▁blank	-10.9391
▁moderat	-10.9398
hytta	-10.9401
▁usikker	-10.941
▁manuel	-10.9413
kommis	-10.9425
flaten	-10.9436
aktivitet	-10.9507
kontrakt	-10.9528
studier	-10.9528
blokk	-10.9529
koloni	-10.9533
utgave	-10.9548
▁insekt	-10.9554
▁vassdrag	-10.9563
▁stevn	-10.9584
tavle	-10.9613
▁bulgaria	-10.9714
▁bulgarsk	-10.9714
▁ekspansjon	-10.9714
▁forgjenger	-10.9714
▁melbourne	-10.9714
▁michigan	-10.9714
▁prestegjeld	-10.9714
▁restaurert	-10.9714
▁sebastian	-10.9714
giovanni	-10.9714
▁ludwig	-10.9714
▁æthel	-10.9714
▁manchester	-10.9714
▁invitert	-10.9714
▁taylor	-10.9714
▁indikerer	-10.9714
▁support	-10.9714
mønstr	-10.9714
▁interiør	-10.9714
▁sparebank	-10.9714
▁stafett	-10.9714
▁landskamper	-10.9714
▁systematikk	-10.9714
▁kommentar	-10.9714
▁dresden	-10.9714
▁statsborger	-10.9714
▁langvarig	-10.9714
▁fremtidig	-10.9714
▁ålesund	-10.9714
▁kristus	-10.9714
▁skjebne	-10.9715
rettighetene	-10.9715
▁osmansk	-10.9715
stemmig	-10.9715
▁patrick	-10.9716
▁kristiansund	-10.9716
▁spinner	-10.9717
forandringer	-10.9718
▁vurdering	-10.9718
▁spektr	-10.9718
dolph	-10.9721
▁bjerk	-10.9723
▁venus	-10.9723
▁stedsnavn	-10.9728
▁ytelse	-10.9729
▁fylle	-10.9749
▁bundes	-10.9757
▁anslå	-10.9777
revolusjonen	-10.9779
hydr	-10.9789
horax	-10.9794
vrak	-10.9806
resultat	-10.9872
gruppa	-10.9872
størrelse	-10.9873
grønn	-10.9873
sentral	-10.9876
▁bakkropp	-10.9876
mynte	-10.9963
▁sjakk	-10.9977
regning	-10.9999
hefte	-11.0038
eiendommer	-11.0042
▁assosiert	-11.0059
▁leipzig	-11.0059
▁oksygen	-11.0059
▁resultert	-11.0059
▁shakespeare	-11.0059
▁symfoni	-11.0059
demonstrasjon	-11.0059
▁cambridge	-11.0059
▁innvilget	-11.0059
▁schwarz	-11.0059
▁hospital	-11.0059
▁landkreis	-11.0059
▁identitet	-11.0059
▁litauisk	-11.0059
▁opprettholde	-11.0059
▁midtøsten	-11.0059
▁mikael	-11.0059
▁terminal	-11.0059
▁elefant	-11.0059
▁utpekt	-11.0059
▁grammati	-11.0059
reservat	-11.006
sympto	-11.006
▁ørken	-11.006
▁kristendommen	-11.006
▁anatol	-11.0061
▁innflytelsesrik	-11.0061
▁svømmer	-11.0064
▁busker	-11.0064
kongressen	-11.0066
▁innstifte	-11.0067
▁isolert	-11.0068
stredet	-11.0069
▁bakerst	-11.0077
evitsj	-11.0079
▁operativsystem	-11.008
▁forvalte	-11.0094
stift	-11.023
arkitekt	-11.023
teknologi	-11.0231
▁america	-11.0267
▁doktor	-11.0415
perspektiv	-11.0416
▁aftenposten	-11.0416
▁engasjement	-11.0416
▁konsentrert	-11.0416
▁kontinuerlig	-11.0416
▁lincoln	-11.0416
▁mangfold	-11.0416
▁meksikansk	-11.0416
▁skandinavisk	-11.0416
▁warszawa	-11.0416
▁hongkong	-11.0416
▁hovedpersonen	-11.0416
▁1872	-11.0416
▁fiendtlig	-11.0416
▁forveksle	-11.0416
▁omstridt	-11.0416
▁symptomer	-11.0416
dynamisk	-11.0416
▁diskusjon	-11.0416
▁skihopper	-11.0416
▁claudi	-11.0416
▁spredning	-11.0416
▁skulder	-11.0416
▁begravet	-11.0416
▁utgravning	-11.0417
▁rivaliser	-11.0417
▁trussel	-11.0417
▁avgjørende	-11.0417
▁utfordring	-11.0417
▁originaltittel	-11.0417
▁stadium	-11.0417
▁christensen	-11.0418
▁virtu	-11.0418
▁forfatning	-11.0418
▁døpt	-11.0418
▁imago	-11.0419
search	-11.042
▁divers	-11.042
▁foretrekke	-11.0427
▁spurt	-11.0429
▁rytme	-11.0437
sprang	-11.0465
▁begrunne	-11.047
jörn	-11.0501
▁presis	-11.0535
president	-11.0599
institutt	-11.06
signal	-11.0682
direktoratet	-11.0786
▁academy	-11.0786
▁akseptert	-11.0786
▁aleksandr	-11.0786
▁fengslet	-11.0786
▁fremtredende	-11.0786
▁geoffrey	-11.0786
▁helikopter	-11.0786
▁inskripsjon	-11.0786
▁interessant	-11.0786
▁invaderte	-11.0786
▁kennedy	-11.0786
▁keyboard	-11.0786
▁microsoft	-11.0786
▁omdøpt	-11.0786
▁rudolf	-11.0786
▁tilflukt	-11.0786
kommanderende	-11.0786
köping	-11.0786
▁depresjon	-11.0786
▁kjøkken	-11.0786
▁shandong	-11.0786
▁matematisk	-11.0786
▁meteorolog	-11.0786
▁kulturminner	-11.0786
▁nidaros	-11.0786
▁anvendt	-11.0786
▁knudsen	-11.0786
▁fysiker	-11.0786
▁østfold	-11.0786
platået	-11.0786
▁unesco	-11.0786
▁kongsvinger	-11.0787
▁innovasjon	-11.0787
▁skåne	-11.0787
leverandør	-11.0787
▁avskaffe	-11.0787
▁bmw	-11.0787
▁walisisk	-11.0787
▁sektor	-11.0787
▁navy	-11.0787
▁innvalgt	-11.0788
▁vakre	-11.0788
▁embete	-11.0791
opolis	-11.0802
funnet	-11.082
kalk	-11.0974
▁diplom	-11.0975
student	-11.0989
møll	-11.0993
fogd	-11.0994
menneske	-11.0995
bundet	-11.1021
emmelig	-11.1045
temperaturen	-11.1081
fasade	-11.1095
pseudonym	-11.1171
▁corporation	-11.1171
▁langrennsløper	-11.1171
▁pedipalpene	-11.1171
▁sichuan	-11.1171
▁territorium	-11.1171
▁tsjekkia	-11.1171
▁diagnose	-11.1171
▁genitalie	-11.1171
▁intervju	-11.1171
▁petroleum	-11.1171
▁tilnærming	-11.1171
▁vatikan	-11.1171
▁ustabil	-11.1171
▁utdødd	-11.1171
▁1858	-11.1171
▁arbeidsgiver	-11.1171
▁gjøvik	-11.1171
▁trygve	-11.1171
▁innvandrer	-11.1171
▁metamorf	-11.1171
▁vedkommende	-11.1171
▁norweg	-11.1171
▁opphørte	-11.1171
▁rockeband	-11.1171
▁lastebil	-11.1171
▁preussen	-11.1171
▁fantasy	-11.1171
▁organismer	-11.1171
▁diameter	-11.1171
forurensning	-11.1171
▁bøndene	-11.1171
▁serbia	-11.1171
▁guinea	-11.1171
▁begravelse	-11.1171
▁jamaica	-11.1171
▁european	-11.1171
blomsterflue	-11.1172
▁bebodd	-11.1172
▁fødselsår	-11.1172
▁puerto	-11.1172
▁tirol	-11.1173
▁spesifikk	-11.1173
klassiker	-11.1173
▁streik	-11.1173
▁nigeria	-11.1174
▁claus	-11.1174
▁stryk	-11.1174
▁publisere	-11.1176
▁kanadisk	-11.1177
▁egenskapen	-11.1177
brands	-11.1178
bjørg	-11.1182
▁kunngjor	-11.1184
▁organisere	-11.1185
alliansen	-11.119
▁epoke	-11.1191
▁sjanse	-11.1195
500	-11.1255
▁dobbel	-11.1319
finalen	-11.1386
fotograf	-11.1388
▁kenya	-11.1395
leigh	-11.1443
▁guddommelig	-11.1571
▁integrert	-11.1571
▁intellektuell	-11.1571
▁lokomotiv	-11.1571
▁matematiker	-11.1571
▁tsjekkisk	-11.1571
▁uttrykt	-11.1571
▁væpne	-11.1571
monumentet	-11.1571
▁babylon	-11.1571
▁böhm	-11.1571
▁diskutert	-11.1571
▁etiopia	-11.1571
▁fjorten	-11.1571
▁innendørs	-11.1571
▁reflekter	-11.1571
▁sykepleier	-11.1571
▁teoretisk	-11.1571
▁holmenkoll	-11.1571
▁oxford	-11.1571
▁oransje	-11.1571
▁1851	-11.1571
▁flandern	-11.1571
▁angivelig	-11.1571
▁avstemning	-11.1571
▁utstrakt	-11.1571
▁dramatiker	-11.1571
▁benedikt	-11.1571
▁sanskrit	-11.1571
▁liknende	-11.1572
▁umulig	-11.1572
▁mount	-11.1572
▁tribun	-11.1572
▁speider	-11.1573
▁oppdrett	-11.1573
▁dybde	-11.1573
▁abbed	-11.1573
▁stefan	-11.1574
reaktor	-11.1574
fjeld	-11.1574
▁mystisk	-11.1582
▁hawk	-11.1583
▁keltisk	-11.1584
vokter	-11.1606
vunne	-11.1623
likevel	-11.1803
▁representere	-11.188
opptatt	-11.1926
svarte	-11.1945
▁ødela	-11.1987
distribusjon	-11.1988
landeveissyklist	-11.1988
▁anthony	-11.1988
▁gjengjeld	-11.1988
▁intelligen	-11.1988
▁katastrofe	-11.1988
▁løpebiller	-11.1988
▁network	-11.1988
▁palestinsk	-11.1988
▁popularitet	-11.1988
▁pronotum	-11.1988
▁propaganda	-11.1988
▁satellitt	-11.1988
▁skribent	-11.1988
▁synonym	-11.1988
▁thompson	-11.1988
▁kommersielt	-11.1988
▁sylinder	-11.1988
▁kollaps	-11.1988
▁søknad	-11.1988
▁torpedo	-11.1988
