<unk>	0
<s>	0
</s>	0
.	-3.28007
▁i	-3.53483
e	-3.65931
s	-3.71141
▁og	-3.85939
t	-4.13733
▁	-4.25674
er	-4.25931
en	-4.29546
▁av	-4.30285
▁som	-4.5142
▁en	-4.51874
▁er	-4.57787
▁til	-4.66152
r	-4.66638
▁for	-4.70374
▁på	-4.77312
▁den	-4.95102
▁med	-4.96536
n	-4.97556
▁ble	-4.97907
et	-4.98864
▁det	-5.0467
▁var	-5.09413
▁de	-5.13507
▁han	-5.29763
▁å	-5.30477
▁fra	-5.34731
▁et	-5.4719
▁har	-5.52859
a	-5.58354
ene	-5.62631
▁at	-5.74253
i	-5.82919
ne	-5.834
▁ved	-5.93849
d	-6.02536
▁etter	-6.03512
▁om	-6.04617
▁også	-6.06621
k	-6.08965
▁men	-6.16274
y	-6.17237
▁under	-6.19004
▁ut	-6.2001
o	-6.22738
te	-6.25462
▁seg	-6.31596
m	-6.34339
▁da	-6.37083
l	-6.37878
▁over	-6.38001
▁hadde	-6.39396
▁ikke	-6.41213
de	-6.41221
g	-6.4129
▁eller	-6.43297
p	-6.43865
▁opp	-6.44687
▁to	-6.46077
▁kan	-6.48679
▁inn	-6.56659
re	-6.5855
f	-6.61787
▁sin	-6.61841
▁andre	-6.63477
▁s	-6.66865
v	-6.68138
▁mot	-6.6978
ing	-6.71897
al	-6.7253
▁første	-6.72897
▁18	-6.7372
c	-6.74396
▁a	-6.75213
▁dette	-6.75554
▁be	-6.77893
▁hun	-6.7825
es	-6.8024
u	-6.80332
us	-6.82624
h	-6.83197
▁ha	-6.84048
▁år	-6.84703
b	-6.85239
▁mellom	-6.85619
▁født	-6.86965
ter	-6.88165
▁1	-6.88406
▁hans	-6.89361
▁der	-6.89542
in	-6.90752
▁tre	-6.97354
sk	-6.97468
▁f	-6.98143
is	-6.98982
le	-7.00425
▁denne	-7.00966
▁fikk	-7.01973
ia	-7.02178
▁flere	-7.02307
ende	-7.04351
▁kom	-7.06417
la	-7.06572
an	-7.06878
▁the	-7.08142
▁sammen	-7.10203
na	-7.10444
▁man	-7.10811
▁blant	-7.11657
z	-7.12739
▁2	-7.14506
▁nord	-7.17458
▁la	-7.18162
lig	-7.19169
▁før	-7.19469
ri	-7.19733
▁så	-7.20388
ar	-7.21052
▁ligger	-7.21392
▁hvor	-7.22937
▁del	-7.23267
▁u	-7.24928
▁m	-7.28346
ke	-7.28717
▁ca	-7.28868
▁c	-7.29901
▁3	-7.29911
sen	-7.30148
nde	-7.30166
ver	-7.3153
w	-7.3264
▁17	-7.32921
▁mange	-7.34516
▁stor	-7.3467
▁mer	-7.34719
▁se	-7.3472
ere	-7.35081
land	-7.35461
▁alle	-7.35864
on	-7.36008
j	-7.36446
for	-7.3646
▁død	-7.36617
▁norsk	-7.37932
or	-7.38253
▁gjennom	-7.38488
iske	-7.38515
▁tallet	-7.38929
il	-7.40161
▁senere	-7.40664
▁tidligere	-7.40682
vis	-7.40822
▁re	-7.41145
ra	-7.42228
▁disse	-7.42305
▁være	-7.42641
het	-7.42936
▁annet	-7.43088
▁4	-7.43257
▁byen	-7.43257
▁noen	-7.43834
▁5	-7.44423
▁an	-7.44472
▁selv	-7.44535
um	-7.44579
▁blir	-7.44716
ta	-7.45625
ma	-7.45873
as	-7.46458
▁al	-7.46644
▁b	-7.47446
▁her	-7.47617
▁siden	-7.47654
▁g	-7.477
▁ny	-7.47954
ig	-7.4848
▁store	-7.48865
der	-7.49426
▁sitt	-7.49489
tt	-7.49692
▁d	-7.49698
ut	-7.49887
▁kommune	-7.49981
▁blitt	-7.50202
kt	-7.51306
▁vi	-7.51383
▁norge	-7.51749
be	-7.52757
ning	-7.53093
ng	-7.5334
øy	-7.54099
▁15	-7.5484
ø	-7.55003
▁kjent	-7.55128
▁land	-7.55216
▁ga	-7.55527
ur	-7.55823
▁ro	-7.56004
ch	-7.56063
▁p	-7.5623
ul	-7.56309
ck	-7.56438
isk	-7.56594
▁t	-7.56811
▁sør	-7.56974
den	-7.57082
▁h	-7.57343
id	-7.58161
▁ra	-7.58499
▁samme	-7.58961
▁ol	-7.59191
▁sa	-7.59321
▁grunn	-7.59368
ske	-7.59468
▁16	-7.59506
x	-7.59656
▁vært	-7.59848
▁st	-7.60348
▁of	-7.60833
ens	-7.61406
é	-7.61586
▁noe	-7.62045
var	-7.62161
▁dag	-7.62458
▁v	-7.62895
at	-7.63197
ff	-7.63295
ry	-7.63559
▁gikk	-7.63899
da	-7.64196
▁ka	-7.64356
nes	-7.64358
▁vil	-7.64892
▁mest	-7.6507
▁ta	-7.65377
▁by	-7.65892
▁rundt	-7.66087
▁10	-7.66393
▁mens	-7.66572
th	-7.67079
▁både	-7.67127
lo	-7.67185
▁frem	-7.67528
▁tid	-7.67675
▁bo	-7.68115
▁vest	-7.68922
lige	-7.69244
▁ned	-7.69575
ad	-7.69606
ge	-7.6961
▁øst	-7.6975
kk	-7.69903
os	-7.69947
▁vant	-7.70163
el	-7.70843
▁kunne	-7.71331
▁li	-7.71965
ha	-7.72597
ve	-7.72624
▁enn	-7.72961
▁pi	-7.73428
▁skulle	-7.73499
▁skal	-7.73549
▁sine	-7.73658
▁6	-7.74107
▁k	-7.74817
▁e	-7.74842
li	-7.75497
▁di	-7.75561
ger	-7.75779
erte	-7.75949
▁ham	-7.76377
ker	-7.76428
▁bare	-7.76719
▁7	-7.76998
ste	-7.77168
▁navn	-7.77583
di	-7.77614
son	-7.77641
▁kr	-7.7775
ton	-7.78338
▁navnet	-7.79048
erne	-7.79868
pp	-7.80453
▁o	-7.8159
▁tilbake	-7.82272
man	-7.8289
▁norske	-7.83005
▁he	-7.83075
ic	-7.83114
ka	-7.83323
▁fram	-7.83611
▁n	-7.83752
ist	-7.83753
▁kon	-7.84151
ør	-7.8436
je	-7.84455
▁per	-7.84675
ro	-7.84917
me	-7.84938
ner	-7.85065
ler	-7.85258
▁8	-7.85324
by	-7.85383
to	-7.85452
▁pa	-7.8597
ba	-7.8605
si	-7.86246
▁tok	-7.86322
▁l	-7.8647
▁km	-7.8654
▁nye	-7.86551
▁hele	-7.86669
ell	-7.8707
bo	-7.87302
mer	-7.87619
sa	-7.87643
▁fire	-7.87767
mi	-7.88168
▁ofte	-7.88411
▁januar	-7.88575
gen	-7.88727
▁ti	-7.88968
▁meter	-7.89166
▁lag	-7.89212
stad	-7.8935
▁mars	-7.89537
▁hoved	-7.89677
skap	-7.90051
▁oslo	-7.9007
ga	-7.90174
▁slik	-7.90191
▁le	-7.90263
▁usa	-7.90275
ja	-7.90515
am	-7.9074
▁mai	-7.91387
▁bli	-7.91501
▁14	-7.91572
mann	-7.92468
▁mar	-7.93122
▁finnes	-7.93756
mo	-7.93837
▁gang	-7.93849
▁august	-7.94095
▁co	-7.94624
ier	-7.94676
▁dem	-7.94777
▁9	-7.94854
ol	-7.94883
▁do	-7.94923
▁siste	-7.95511
▁rekke	-7.95799
▁ar	-7.95869
▁brukt	-7.96658
▁samt	-7.96842
ce	-7.97157
ster	-7.97499
▁na	-7.9782
ik	-7.97945
å	-7.98171
▁far	-7.98183
▁ni	-7.9823
▁fri	-7.98494
un	-7.98513
▁bi	-7.98546
ang	-7.98563
▁12	-7.98572
dal	-7.98645
▁su	-7.98672
gi	-7.98825
▁du	-7.98902
▁få	-7.98905
ko	-7.98968
ven	-7.99066
ment	-7.99393
▁13	-7.99462
go	-7.99991
▁mål	-8.00029
▁2008	-8.00123
▁000	-8.00135
▁w	-8.00401
▁ba	-8.0043
▁nå	-8.00475
▁j	-8.00565
▁juli	-8.01171
tter	-8.01369
som	-8.01455
ak	-8.02132
▁20	-8.02353
▁når	-8.0261
▁største	-8.02644
▁området	-8.02655
▁først	-8.03406
else	-8.03529
▁hos	-8.03773
▁kalt	-8.04156
▁bu	-8.04449
▁as	-8.0476
▁bak	-8.04778
▁kirke	-8.05056
▁lang	-8.05119
▁fly	-8.06151
bu	-8.06245
op	-8.06825
rett	-8.07117
▁mindre	-8.07328
ks	-8.07376
▁si	-8.07794
▁pro	-8.08072
del	-8.08101
▁11	-8.0829
▁vanlig	-8.08311
▁sommer	-8.09182
▁går	-8.09272
ir	-8.09522
mp	-8.09963
ant	-8.10178
▁po	-8.10637
ring	-8.10737
▁desember	-8.1091
▁landet	-8.10912
ho	-8.11155
tal	-8.11211
it	-8.11236
▁deltok	-8.11372
▁utgitt	-8.11395
sel	-8.11402
dd	-8.11453
▁deres	-8.11473
tur	-8.11801
ns	-8.11847
▁ri	-8.12381
berg	-8.1239
▁alt	-8.12922
▁september	-8.13173
▁sp	-8.13302
▁2010	-8.13811
▁fa	-8.13855
4	-8.14437
▁juni	-8.15451
▁tv	-8.15473
▁bestå	-8.15483
▁in	-8.15637
▁laget	-8.1586
▁kultur	-8.15876
▁2007	-8.15881
▁leder	-8.16012
bi	-8.16203
▁fem	-8.16512
▁årene	-8.16576
▁igjen	-8.16579
▁lo	-8.16873
va	-8.16886
ær	-8.16948
ard	-8.17068
▁y	-8.17308
▁gi	-8.17624
▁spilte	-8.17812
▁tillegg	-8.18122
ling	-8.18317
▁mor	-8.18343
ca	-8.18423
▁ei	-8.18465
ö	-8.18519
vik	-8.18637
▁go	-8.18743
gang	-8.18837
sp	-8.18917
▁so	-8.19021
▁bruk	-8.19753
▁oktober	-8.19843
▁0	-8.20041
ll	-8.2007
▁and	-8.20202
▁november	-8.20737
▁april	-8.20737
sjon	-8.20863
▁skole	-8.20877
▁z	-8.21056
▁vann	-8.21336
▁uten	-8.21758
▁bar	-8.22083
▁te	-8.22095
▁bra	-8.22297
▁gjorde	-8.2238
nd	-8.224
▁2009	-8.22556
om	-8.22564
▁begynte	-8.22667
▁lov	-8.22741
▁film	-8.22935
ion	-8.23282
ie	-8.23297
▁musikk	-8.234
år	-8.23482
lag	-8.23494
▁nær	-8.23523
sta	-8.23706
▁kun	-8.24184
▁året	-8.24425
▁like	-8.24593
ku	-8.24609
á	-8.24636
▁kunst	-8.24745
ium	-8.2494
▁sønn	-8.24957
▁må	-8.25778
▁februar	-8.25801
av	-8.26177
▁egen	-8.2627
▁rett	-8.26457
▁tro	-8.26722
▁30	-8.26807
▁imidlertid	-8.26989
▁beste	-8.27053
▁mo	-8.28126
▁europa	-8.28196
▁no	-8.2829
▁ma	-8.28317
ot	-8.28347
pa	-8.28488
▁lu	-8.28605
no	-8.28717
stre	-8.28837
vi	-8.28848
▁ko	-8.2887
▁større	-8.28885
io	-8.29428
ed	-8.29551
ft	-8.29628
▁videre	-8.29675
▁tor	-8.29725
ag	-8.2976
▁sch	-8.29792
im	-8.29904
▁kina	-8.30033
▁new	-8.303
opp	-8.30406
▁gift	-8.30513
▁spiller	-8.30782
▁døde	-8.30858
asjon	-8.31051
▁john	-8.31141
▁mye	-8.31482
ti	-8.31514
▁ju	-8.3176
pe	-8.3205
▁mi	-8.3227
do	-8.32396
▁ville	-8.32545
▁tyske	-8.32862
ikk	-8.33083
▁helt	-8.33124
▁ru	-8.33396
▁tiden	-8.33448
▁fi	-8.33493
tak	-8.33664
▁form	-8.3367
gg	-8.3376
od	-8.3377
ering	-8.33797
▁medlem	-8.33857
▁kort	-8.33904
▁2006	-8.33923
co	-8.33966
▁barn	-8.34132
ina	-8.34288
ty	-8.3475
▁em	-8.35006
▁el	-8.35196
▁startet	-8.35501
▁svær	-8.35553
sh	-8.35591
▁gamle	-8.35723
2	-8.35764
▁or	-8.36526
▁min	-8.36529
▁deretter	-8.36792
▁va	-8.36837
▁mat	-8.36888
▁pre	-8.37006
ingen	-8.3714
▁ki	-8.37198
min	-8.37221
inger	-8.37603
▁ne	-8.37633
▁parti	-8.38087
▁2005	-8.38104
▁innen	-8.3814
▁olympisk	-8.38184
und	-8.38256
▁hennes	-8.38315
▁kong	-8.38772
lin	-8.39059
▁ho	-8.39095
▁sam	-8.39355
ow	-8.39575
ov	-8.39638
ber	-8.39735
▁sett	-8.39757
▁bandet	-8.39902
▁hver	-8.39906
▁lå	-8.39976
▁øy	-8.40162
kke	-8.40217
▁språk	-8.40425
itt	-8.40503
▁san	-8.40594
▁brukes	-8.40614
æ	-8.40762
art	-8.40828
ningen	-8.40873
ni	-8.40955
▁ab	-8.41078
▁små	-8.41151
▁plass	-8.41158
tor	-8.41234
mb	-8.41479
ok	-8.41617
siden	-8.41631
▁langs	-8.41752
▁ulike	-8.41791
form	-8.41896
▁ski	-8.41904
▁kinesisk	-8.42185
ud	-8.42223
▁r	-8.42346
dig	-8.42477
ings	-8.42594
over	-8.42793
▁tyskland	-8.42876
▁skrevet	-8.43156
ian	-8.43182
▁folke	-8.43354
▁særlig	-8.43586
rmed	-8.44405
ius	-8.44475
▁25	-8.44529
▁ingen	-8.44968
tra	-8.44999
ly	-8.45234
▁amerikanske	-8.45586
he	-8.45642
▁fleste	-8.45697
elle	-8.45707
løp	-8.45718
▁filmen	-8.45743
vo	-8.45798
bar	-8.45857
▁eks	-8.46135
▁engelsk	-8.46227
▁2004	-8.4646
▁kommer	-8.46629
▁bl	-8.46946
▁tysk	-8.46953
len	-8.46972
▁pe	-8.4711
▁sted	-8.4711
▁skrev	-8.47211
▁sverige	-8.47322
▁hus	-8.47375
stein	-8.47376
▁høy	-8.47478
▁ad	-8.47855
▁arbeidet	-8.47863
▁amerikansk	-8.47977
3	-8.48026
ron	-8.48782
ny	-8.48924
▁lys	-8.49021
▁x	-8.49147
tte	-8.49338
▁begge	-8.49396
met	-8.49448
▁kn	-8.49491
▁par	-8.49514
▁satt	-8.49795
lse	-8.49849
▁president	-8.49889
▁gull	-8.49949
▁england	-8.50305
▁tri	-8.50634
slag	-8.50762
▁bygget	-8.50812
▁ja	-8.51381
▁bok	-8.51483
▁samtidig	-8.51814
▁all	-8.51826
mmer	-8.51829
▁seks	-8.51976
▁gir	-8.52005
iv	-8.52265
▁forhold	-8.52319
▁hu	-8.5237
▁grad	-8.52407
dag	-8.52421
isme	-8.52576
▁eksempel	-8.52674
▁innbyggere	-8.52737
▁2011	-8.52744
følge	-8.52877
hold	-8.52954
gu	-8.53154
tiden	-8.5317
mm	-8.53186
▁sjø	-8.53239
sted	-8.53258
▁fo	-8.53275
▁jo	-8.53357
▁fast	-8.53899
ü	-8.54293
▁måtte	-8.54328
▁løpet	-8.5437
til	-8.54448
hu	-8.54522
▁perioden	-8.54529
▁russisk	-8.54609
9	-8.54777
▁nor	-8.54804
▁mulig	-8.5493
verk	-8.55052
▁pu	-8.55347
▁nasjonal	-8.55455
ret	-8.55525
▁tidlig	-8.55647
▁god	-8.5566
▁verdens	-8.55708
▁ganger	-8.55754
satt	-8.55817
▁ak	-8.55849
▁hi	-8.56019
ken	-8.56171
▁forskjellige	-8.56259
▁dagen	-8.56521
▁vei	-8.56726
▁stedet	-8.56805
gn	-8.56951
▁hen	-8.57181
▁2000	-8.57193
▁ført	-8.57253
▁me	-8.57363
hus	-8.57399
sett	-8.57457
▁nytt	-8.57499
tiske	-8.57522
▁støtte	-8.57652
fe	-8.57738
▁gu	-8.57747
▁bergen	-8.57761
les	-8.57809
per	-8.57848
▁serien	-8.57849
▁sk	-8.58573
ek	-8.58627
▁klubben	-8.58851
▁tra	-8.58861
derfor	-8.58866
00	-8.58944
au	-8.59024
ru	-8.59361
mar	-8.5942
▁deler	-8.59521
▁gruppen	-8.59755
elig	-8.59771
dre	-8.6024
▁sto	-8.60245
▁tatt	-8.60284
▁sol	-8.60372
po	-8.60436
inn	-8.60645
▁fjell	-8.60759
▁kommunen	-8.60774
ting	-8.60838
ong	-8.6087
and	-8.60896
▁gitt	-8.61033
1	-8.61147
men	-8.61207
og	-8.61594
▁ge	-8.61888
sse	-8.61987
▁frankrike	-8.62131
heten	-8.62289
▁hel	-8.62359
ige	-8.62723
▁øya	-8.62802
▁ty	-8.62817
tre	-8.62844
▁lever	-8.62967
▁liv	-8.62981
ill	-8.63043
lu	-8.63109
▁hvert	-8.63119
tid	-8.63131
▁bre	-8.63294
▁annen	-8.6335
tok	-8.63513
em	-8.63553
ley	-8.63666
▁we	-8.63684
lot	-8.63933
▁side	-8.64117
í	-8.64164
▁con	-8.6418
▁wa	-8.64294
ble	-8.64296
▁forfatter	-8.64522
▁kjente	-8.64614
▁albumet	-8.64645
sten	-8.64681
▁provinsen	-8.64948
▁gjen	-8.65158
▁ord	-8.65205
▁gammel	-8.65232
▁2003	-8.6525
▁halv	-8.65778
mon	-8.65982
▁london	-8.66643
ran	-8.66657
▁millioner	-8.66837
nings	-8.67053
▁fred	-8.6707
kon	-8.67122
▁stein	-8.67846
▁person	-8.67885
fa	-8.67976
▁fotball	-8.67983
ord	-8.6831
stilling	-8.68367
▁opprinnelig	-8.68373
▁eneste	-8.68548
tall	-8.68991
▁gresk	-8.68998
▁vel	-8.69112
▁2002	-8.69174
▁stort	-8.69223
▁gud	-8.69263
tiv	-8.693
▁innenfor	-8.69621
ans	-8.69676
▁verden	-8.69969
▁selskapet	-8.70152
est	-8.70153
▁fl	-8.70243
▁familie	-8.70267
▁sand	-8.70317
ator	-8.70813
ld	-8.70845
▁vise	-8.70916
par	-8.71066
kant	-8.71107
▁norges	-8.71161
ien	-8.71407
ninger	-8.71498
▁meg	-8.7155
ä	-8.71742
ren	-8.7177
▁tredje	-8.72068
▁gruppe	-8.72098
▁1990	-8.72124
▁langt	-8.72147
▁verdenskrig	-8.72167
my	-8.72432
▁22	-8.72669
bb	-8.72722
tisk	-8.72792
▁fordi	-8.72923
fi	-8.73129
▁delstaten	-8.73273
▁ch	-8.7329
▁basert	-8.73617
▁omkring	-8.73632
▁allerede	-8.73634
▁sendt	-8.7366
▁spilt	-8.73719
▁lite	-8.73754
▁100	-8.74005
▁viktig	-8.74105
▁19	-8.74205
▁motor	-8.74237
stand	-8.74312
▁my	-8.74374
▁spesielt	-8.74396
hø	-8.74477
▁fag	-8.74573
▁krigen	-8.74719
▁1999	-8.74785
▁kalles	-8.74863
▁bro	-8.74892
▁bas	-8.74905
▁styre	-8.74958
▁sangen	-8.75125
▁bru	-8.75167
▁får	-8.75249
▁slutt	-8.75253
5	-8.75269
▁syn	-8.75273
▁grav	-8.75419
▁24	-8.75425
▁liten	-8.75556
ci	-8.7563
▁bri	-8.75727
▁vm	-8.75763
▁historie	-8.75876
ede	-8.75942
▁sesongen	-8.7596
▁danmark	-8.7634
▁konge	-8.76559
ó	-8.76674
▁general	-8.76728
ou	-8.76819
▁litt	-8.76827
▁foran	-8.76859
kker	-8.76999
▁1980	-8.77126
vin	-8.77175
kle	-8.77213
▁fransk	-8.77352
ac	-8.77411
ki	-8.77412
så	-8.77451
▁2001	-8.77526
▁sentral	-8.77636
▁car	-8.77646
ris	-8.77671
vei	-8.77785
▁kongen	-8.77951
▁britiske	-8.78005
▁slutten	-8.7814
▁rom	-8.78284
▁arbeider	-8.78418
▁spille	-8.78801
fly	-8.78811
▁skolen	-8.78918
kan	-8.78952
▁tar	-8.79096
▁ledet	-8.79104
▁mennesker	-8.79131
▁lokal	-8.79139
▁holdt	-8.79146
▁gjern	-8.79257
lands	-8.79401
før	-8.79411
▁21	-8.79557
råd	-8.79741
itet	-8.79792
tar	-8.79808
▁innehold	-8.79933
▁dikt	-8.80151
bruk	-8.80385
▁midt	-8.80385
wa	-8.80546
bok	-8.8079
▁folk	-8.80978
▁plan	-8.80988
▁datter	-8.81139
▁val	-8.81155
▁kirken	-8.81209
ab	-8.81259
▁mann	-8.8157
anger	-8.81592
▁ser	-8.81725
▁nok	-8.81743
rak	-8.81825
▁familien	-8.81827
let	-8.81845
▁kar	-8.8187
▁50	-8.82041
ham	-8.82137
kom	-8.82156
▁sv	-8.82228
▁pla	-8.82231
bel	-8.82347
▁hol	-8.82385
▁skuespiller	-8.8239
▁eu	-8.82423
▁com	-8.82691
▁partiet	-8.82785
▁nesten	-8.82935
▁natur	-8.83324
▁utenfor	-8.8335
val	-8.83683
ologi	-8.83766
▁am	-8.83914
▁bygd	-8.83956
50	-8.84035
ya	-8.84231
▁elven	-8.84278
mål	-8.84287
▁kor	-8.84315
spill	-8.84363
▁veien	-8.84762
▁bil	-8.84844
▁arbeid	-8.84859
ds	-8.84915
▁ku	-8.8496
uk	-8.85072
▁kontroll	-8.85134
▁fortsatt	-8.85338
▁vo	-8.85351
borg	-8.8538
▁stats	-8.85651
dalen	-8.85686
nske	-8.85731
▁viser	-8.8582
▁ste	-8.85888
▁opprettet	-8.85981
kel	-8.86037
▁cha	-8.86057
za	-8.86075
▁én	-8.86232
▁band	-8.86317
▁universitetet	-8.8633
▁fant	-8.86474
rik	-8.8652
sch	-8.86532
ine	-8.86584
▁flyttet	-8.86586
hi	-8.8665
▁riks	-8.86696
▁ben	-8.86753
ller	-8.86847
▁farge	-8.86971
ale	-8.87007
▁utviklet	-8.87034
▁forbindelse	-8.87049
▁23	-8.87059
▁lav	-8.87088
▁serie	-8.87113
▁lett	-8.87123
▁orden	-8.87129
▁valg	-8.87226
▁art	-8.87344
▁kamp	-8.87375
▁india	-8.87465
▁sang	-8.87659
▁tur	-8.87692
elsen	-8.87811
sj	-8.87931
▁radio	-8.87969
▁aktiv	-8.87974
▁godt	-8.88226
ica	-8.88381
fjorden	-8.88444
tz	-8.88446
▁lange	-8.88604
▁mil	-8.88646
▁stil	-8.88661
▁os	-8.88956
▁franske	-8.8916
far	-8.89213
▁rø	-8.89263
skje	-8.89297
▁hjelp	-8.89418
▁delen	-8.89612
▁storbritannia	-8.89715
▁1970	-8.89722
▁ur	-8.89735
▁staten	-8.89783
isering	-8.89902
▁luft	-8.90213
▁ren	-8.90214
▁vinter	-8.90222
fugl	-8.90265
▁hal	-8.90301
▁gjør	-8.90341
▁hatt	-8.90371
▁knytte	-8.90615
bin	-8.90808
▁pave	-8.90891
graf	-8.90915
▁svensk	-8.9094
▁pan	-8.90993
▁italia	-8.91077
if	-8.91217
▁berg	-8.91347
dom	-8.91395
▁ed	-8.91409
▁bygge	-8.91645
▁pass	-8.91713
skole	-8.91754
tan	-8.91865
▁står	-8.91891
▁spor	-8.919
elt	-8.9193
vel	-8.92059
vet	-8.92165
▁jord	-8.92221
van	-8.92247
tro	-8.92288
▁betydning	-8.92436
burg	-8.92469
▁bror	-8.92539
▁gjøre	-8.92793
▁gjort	-8.93091
▁økonomisk	-8.93385
lys	-8.93606
▁au	-8.93636
▁mag	-8.9368
menn	-8.93772
ung	-8.93821
а	-8.93825
▁lands	-8.93826
▁jeg	-8.93908
leder	-8.93997
▁karl	-8.94031
▁paris	-8.94121
▁rød	-8.9418
▁skog	-8.9423
so	-8.94293
▁1960	-8.94303
jo	-8.94408
rå	-8.94465
unn	-8.94615
▁sosial	-8.94918
▁militær	-8.95049
▁ver	-8.951
▁råd	-8.95191
▁bor	-8.95383
ska	-8.9559
▁bruker	-8.95607
gh	-8.9562
▁kur	-8.95646
▁29	-8.9572
▁moderne	-8.95768
▁regjeringen	-8.95862
heim	-8.95883
▁fått	-8.95921
spiller	-8.96158
▁op	-8.96234
▁komme	-8.96253
▁funnet	-8.96446
▁åpnet	-8.96502
▁tilhører	-8.96521
▁26	-8.96538
▁teater	-8.96556
▁2012	-8.96673
sti	-8.967
bl	-8.96834
▁politiske	-8.96883
ister	-8.96917
▁tjeneste	-8.96938
res	-8.96954
▁31	-8.9706
ug	-8.97076
▁svenske	-8.97287
▁prest	-8.9729
sky	-8.97344
ære	-8.97386
▁regjering	-8.97455
mor	-8.97532
▁interesse	-8.97645
▁28	-8.97669
▁von	-8.97884
▁via	-8.97891
▁menn	-8.97921
▁våpen	-8.98008
▁27	-8.98053
▁hy	-8.98067
▁jan	-8.9811
▁rolle	-8.98111
▁sentrum	-8.98115
▁danne	-8.98124
▁kvinner	-8.98224
fall	-8.98225
▁antall	-8.98444
▁paul	-8.98507
▁sen	-8.98514
▁høyre	-8.98542
gj	-8.98563
▁russland	-8.98599
▁sj	-8.98628
▁industri	-8.98657
▁arter	-8.987
leg	-8.98826
plass	-8.98831
ana	-8.98842
pol	-8.98923
up	-8.99038
▁je	-8.99045
▁1996	-8.99095
▁nett	-8.9916
vann	-8.99195
ves	-8.99433
▁betyr	-8.99585
▁stat	-8.99587
isere	-8.99786
ding	-8.99866
▁reise	-8.99905
▁40	-9.00033
▁romersk	-9.00105
▁ke	-9.00112
▁gul	-9.00171
ju	-9.00178
▁dr	-9.00337
▁hav	-9.00412
her	-9.00416
▁mark	-9.00438
sjoner	-9.00493
rø	-9.00561
▁fe	-9.00632
▁følgende	-9.00639
film	-9.00673
▁kl	-9.00685
▁stra	-9.00812
fra	-9.00886
▁personer	-9.01066
▁sm	-9.01089
▁kv	-9.01092
ino	-9.0114
▁mus	-9.01146
veien	-9.0117
▁slag	-9.01188
▁arbeids	-9.0122
kning	-9.01232
sson	-9.01257
▁sh	-9.01294
lå	-9.01384
bane	-9.01492
che	-9.01537
▁eldste	-9.01578
▁york	-9.01578
▁best	-9.01677
▁åtte	-9.01704
▁egne	-9.01847
▁minst	-9.01858
▁eget	-9.01988
skip	-9.02085
▁medlemmer	-9.024
▁hjem	-9.02664
ps	-9.02948
▁samarbeid	-9.0299
bre	-9.03046
▁tekst	-9.0316
vern	-9.03166
▁internasjonale	-9.03264
▁full	-9.03344
▁van	-9.03364
iet	-9.03498
▁1994	-9.03621
landet	-9.03622
valg	-9.03629
plan	-9.03638
▁hjemme	-9.03909
▁angrep	-9.03953
▁slekt	-9.03961
▁gav	-9.04277
▁delt	-9.04343
▁kvinne	-9.04392
▁ø	-9.04552
▁drept	-9.04647
sto	-9.04872
bil	-9.05028
ket	-9.05089
svis	-9.05289
inne	-9.05368
▁ber	-9.05418
▁likevel	-9.05478
▁bur	-9.055
▁danske	-9.05782
▁tittelen	-9.05795
stående	-9.0585
gel	-9.06067
▁christian	-9.06147
forening	-9.06202
▁brasil	-9.06217
▁william	-9.06217
▁ferdig	-9.06241
▁drev	-9.06362
▁regnes	-9.06363
▁henne	-9.06404
▁ett	-9.06444
▁felles	-9.06451
▁skip	-9.06645
▁historisk	-9.06696
asjonen	-9.06705
▁inkludert	-9.06746
▁utnevnt	-9.06746
føring	-9.06888
▁hvis	-9.07031
▁barne	-9.07152
▁sak	-9.07179
▁plate	-9.07207
▁katolsk	-9.07278
▁privat	-9.07279
▁1997	-9.07288
▁etablert	-9.0731
▁slaget	-9.07366
øl	-9.07587
▁grunnlagt	-9.07758
▁omtrent	-9.07813
▁såkalt	-9.07818
▁studert	-9.0782
ay	-9.07906
▁utvikling	-9.07989
▁militære	-9.08023
ph	-9.08076
ika	-9.08176
▁krigs	-9.0824
organisasjon	-9.08299
lsen	-9.08356
▁poeng	-9.08363
▁afrika	-9.08498
▁stemme	-9.08528
du	-9.08583
laget	-9.08609
dømme	-9.0873
dy	-9.08746
▁enkelte	-9.08799
▁park	-9.09025
▁fu	-9.09113
br	-9.09149
▁omfatter	-9.09237
▁anti	-9.09308
bygd	-9.09319
▁1989	-9.09442
▁2013	-9.09448
▁fortsatte	-9.09459
▁liste	-9.09465
sund	-9.09489
ip	-9.09519
▁makt	-9.09591
▁on	-9.09681
▁divisjon	-9.09742
øya	-9.09871
▁keiser	-9.09959
dyr	-9.09976
▁italiensk	-9.09981
▁drift	-9.10079
vil	-9.10269
▁album	-9.10392
▁opprør	-9.10529
▁direkte	-9.10531
yn	-9.10846
▁universitet	-9.11044
▁sølv	-9.11079
▁1992	-9.11083
ins	-9.11087
q	-9.11145
▁ordet	-9.11152
anske	-9.11171
▁fall	-9.11195
▁th	-9.11242
▁forsøk	-9.11244
▁organ	-9.11303
rom	-9.11316
▁handels	-9.11385
dan	-9.11404
▁befolkningen	-9.11457
▁venn	-9.1148
ight	-9.1174
▁bedre	-9.11841
▁regi	-9.11893
▁krig	-9.11977
bro	-9.11988
▁periode	-9.11995
kre	-9.12017
▁dager	-9.12079
▁betydelig	-9.12197
▁representert	-9.12197
▁viktigste	-9.12266
▁jernbane	-9.12319
▁lyd	-9.12331
banen	-9.1237
▁gro	-9.12426
▁holde	-9.12455
▁johan	-9.12479
▁nummer	-9.12604
▁fremst	-9.12675
▁bjørn	-9.12922
▁seier	-9.13015
▁følge	-9.13056
▁ag	-9.13106
▁dansk	-9.13137
folk	-9.13232
▁års	-9.13267
▁regionen	-9.13273
▁gen	-9.13318
▁politiker	-9.13363
▁boken	-9.13415
stilt	-9.13474
▁ry	-9.13476
kal	-9.136
▁fiske	-9.13633
▁pal	-9.13674
▁verdi	-9.13707
▁post	-9.13755
▁aldri	-9.13905
▁venstre	-9.13915
mat	-9.13952
ah	-9.14007
tu	-9.14151
▁sanger	-9.14197
▁konsert	-9.14333
▁skade	-9.14351
mu	-9.14422
sjøen	-9.14462
▁2014	-9.14476
lla	-9.14504
▁eldre	-9.14508
▁spe	-9.14559
ation	-9.14663
▁herre	-9.14675
▁kraftig	-9.14704
▁benyttet	-9.14746
▁peter	-9.1479
full	-9.14796
▁arm	-9.14855
su	-9.14918
▁krav	-9.14969
▁larven	-9.15036
▁arrangert	-9.15038
▁1998	-9.15044
▁tildelt	-9.15096
legge	-9.15137
▁produsert	-9.15182
ringen	-9.15186
▁biskop	-9.15233
ji	-9.15253
▁mont	-9.15344
båt	-9.15416
▁modell	-9.15436
▁stjerne	-9.15512
hy	-9.15562
søk	-9.15591
▁sørøst	-9.15618
gruppen	-9.15665
▁klar	-9.15773
▁kra	-9.15833
▁linje	-9.15942
tene	-9.16016
▁tak	-9.1604
▁sig	-9.16101
▁verk	-9.162
▁måte	-9.16211
ferd	-9.16253
pl	-9.16278
▁olav	-9.16332
▁blå	-9.16391
▁hard	-9.1642
▁pris	-9.16462
▁pri	-9.16525
ført	-9.16529
cc	-9.16569
tel	-9.16569
▁ly	-9.16595
mel	-9.16637
▁kraft	-9.16652
ct	-9.16678
messig	-9.16784
▁1988	-9.1679
▁steder	-9.16868
▁slo	-9.16918
▁pl	-9.16936
▁ten	-9.16964
idae	-9.17053
▁sta	-9.17058
▁lagt	-9.1711
▁university	-9.17373
▁henhold	-9.17409
▁kons	-9.17443
▁fre	-9.17452
fri	-9.1749
8	-9.17539
fjord	-9.17596
▁hånd	-9.17774
▁dra	-9.17884
ater	-9.17922
este	-9.17956
▁dessute	-9.17967
mester	-9.17968
▁1995	-9.17971
rid	-9.18038
ving	-9.18077
▁lokale	-9.18169
▁tross	-9.18222
▁offentlig	-9.18343
brudd	-9.18384
▁havn	-9.18509
▁gre	-9.18515
▁1972	-9.18566
▁hva	-9.18741
▁cla	-9.18835
20	-9.18884
selskap	-9.18932
▁nu	-9.18965
▁gran	-9.1897
▁gl	-9.19122
▁canada	-9.19162
▁prosent	-9.19162
▁slått	-9.19178
isert	-9.19224
▁japan	-9.19292
liggende	-9.19348
▁fylke	-9.19428
▁roman	-9.19495
▁sc	-9.19501
han	-9.19523
▁grand	-9.1956
▁data	-9.1975
mannen	-9.19771
▁fin	-9.19808
▁valgt	-9.19866
▁kamper	-9.19876
stu	-9.20156
▁carl	-9.20167
ap	-9.20204
all	-9.20259
ach	-9.20272
▁island	-9.2028
▁viss	-9.20366
▁mm	-9.20404
▁lille	-9.2042
▁brun	-9.20428
▁christ	-9.20624
ara	-9.20626
sak	-9.20689
▁sy	-9.20764
▁mu	-9.20864
grad	-9.20966
▁tu	-9.20986
▁fylkesvei	-9.20996
▁jon	-9.21157
ms	-9.21297
10	-9.215
kar	-9.21535
merke	-9.21565
▁århundre	-9.21589
▁begynnelsen	-9.21594
ys	-9.21684
▁resten	-9.21764
▁bort	-9.21989
▁wi	-9.22032
▁ska	-9.22081
▁dis	-9.22158
▁hovedsake	-9.22171
▁energi	-9.22271
▁fer	-9.224
▁uttrykk	-9.22401
punkt	-9.22445
▁tom	-9.22487
▁gå	-9.22662
▁hall	-9.22673
liv	-9.22687
▁miste	-9.22784
▁start	-9.22801
▁britisk	-9.22813
imot	-9.22816
stil	-9.22821
▁sal	-9.22854
vær	-9.22867
port	-9.22922
▁reist	-9.23149
▁seil	-9.23324
mark	-9.23387
▁1991	-9.23462
▁professor	-9.23581
▁xi	-9.2359
▁utgjør	-9.23781
året	-9.23824
▁berlin	-9.23978
istisk	-9.24074
▁erik	-9.24116
evne	-9.24226
▁litteratur	-9.24337
rus	-9.24344
red	-9.24477
stat	-9.24569
tsj	-9.24673
▁suksess	-9.24714
▁nordøst	-9.24718
dra	-9.24779
▁rev	-9.24794
▁vin	-9.24932
▁skr	-9.24956
▁bestemt	-9.24979
▁mon	-9.24985
▁minne	-9.24998
▁syv	-9.25225
▁lær	-9.25254
ida	-9.2531
we	-9.25359
▁politisk	-9.254
lle	-9.25412
▁lærer	-9.25467
▁skjer	-9.25522
▁områder	-9.25541
departementet	-9.25558
▁west	-9.25558
▁finne	-9.25724
▁neste	-9.25821
▁sha	-9.25996
▁henrik	-9.26023
▁helse	-9.26024
▁valgte	-9.26026
▁ring	-9.26091
▁bør	-9.26093
▁dannet	-9.26193
▁menneske	-9.26234
▁nest	-9.26331
▁lenge	-9.26423
iner	-9.26466
grunn	-9.26499
▁system	-9.2654
▁besto	-9.26668
ismen	-9.2674
▁rock	-9.26755
styre	-9.26763
▁200	-9.26775
eres	-9.26831
▁møte	-9.26924
pen	-9.26933
pris	-9.26962
fal	-9.26978
▁område	-9.27098
▁høyde	-9.27243
▁pra	-9.27255
и	-9.27286
▁1986	-9.27299
▁1920	-9.27304
▁robert	-9.27347
pon	-9.27357
▁svarte	-9.27421
elser	-9.27453
▁vekt	-9.27531
▁gate	-9.27625
gått	-9.27631
trykk	-9.2765
▁nordlige	-9.2768
stan	-9.27844
fo	-9.27884
▁elva	-9.27918
▁1993	-9.2794
▁statsminister	-9.2795
▁topp	-9.27996
▁cor	-9.28012
setning	-9.28035
familien	-9.28099
▁finland	-9.28144
▁sil	-9.28174
▁bank	-9.28194
▁ledelse	-9.28355
▁miljø	-9.28601
gitt	-9.28667
ice	-9.28724
▁ball	-9.28877
▁løs	-9.28891
samling	-9.28905
▁finner	-9.28935
område	-9.29001
▁mester	-9.29031
▁studie	-9.2914
int	-9.292
fon	-9.2921
▁klasse	-9.29254
▁1985	-9.29269
bygging	-9.29339
▁mulighet	-9.29493
ark	-9.2951
ai	-9.29526
ford	-9.29585
▁gal	-9.29628
hl	-9.29641
▁samling	-9.29646
▁renn	-9.29726
▁museum	-9.29732
▁bill	-9.29818
anlegg	-9.29912
▁trondheim	-9.2993
lagt	-9.2999
▁hvit	-9.30001
▁hvordan	-9.3002
▁finalen	-9.30034
lev	-9.30099
▁finsk	-9.30152
havet	-9.3019
▁wal	-9.30407
▁endt	-9.30414
▁1945	-9.30605
▁stasjon	-9.30651
▁retning	-9.30691
▁fange	-9.30693
lene	-9.30745
har	-9.30756
▁grev	-9.30911
▁overtok	-9.30941
▁iii	-9.31035
vig	-9.31037
▁lik	-9.31046
▁hvilke	-9.31274
▁1964	-9.3128
▁1987	-9.31283
▁syd	-9.31436
▁virke	-9.31442
▁plassert	-9.31474
syn	-9.31474
▁indre	-9.31643
▁skrift	-9.31693
▁georg	-9.31757
▁politi	-9.31831
▁thomas	-9.31954
▁nordvest	-9.31962
▁strøm	-9.31966
▁2015	-9.31973
▁veg	-9.31979
▁ul	-9.3198
▁sogn	-9.32031
▁maria	-9.32067
▁enkelt	-9.32115
▁resultat	-9.32149
▁tele	-9.3215
enes	-9.32169
jen	-9.32294
sjonen	-9.32367
▁karriere	-9.32399
▁dårlig	-9.32639
▁60	-9.3265
▁1950	-9.32665
▁høyeste	-9.32669
ich	-9.32713
▁trykk	-9.32744
skog	-9.33032
▁dro	-9.3309
▁mod	-9.33183
▁mur	-9.33245
▁båt	-9.33288
▁1981	-9.33334
produksjon	-9.33337
▁eier	-9.33494
▁air	-9.33518
▁1800	-9.33577
▁selskap	-9.33601
▁bruke	-9.33775
▁amerika	-9.33914
▁port	-9.33957
▁punkt	-9.33984
rek	-9.3401
▁stockholm	-9.34023
zi	-9.34035
ved	-9.34116
jær	-9.34138
skapet	-9.34205
▁sterkt	-9.34242
med	-9.34455
▁svart	-9.3464
▁kal	-9.34677
р	-9.34722
▁tilsvarende	-9.34722
▁feil	-9.34829
▁mos	-9.34869
området	-9.35073
▁pol	-9.35127
▁kje	-9.35144
▁totalt	-9.35148
▁viktige	-9.35169
fl	-9.35226
▁stod	-9.35255
▁engelske	-9.35259
lit	-9.35356
▁kilometer	-9.35426
system	-9.35429
60	-9.35435
givelse	-9.35572
▁red	-9.35639
▁viste	-9.35676
regionen	-9.35687
▁q	-9.35739
▁mel	-9.35821
xi	-9.35872
▁hær	-9.35969
alder	-9.36026
ath	-9.36099
▁københavn	-9.36135
▁1968	-9.36147
▁samlet	-9.36172
▁sammenheng	-9.36183
hr	-9.36217
▁bred	-9.36267
66	-9.36302
▁nrk	-9.36383
lan	-9.36512
65	-9.36549
▁lek	-9.36657
▁500	-9.36665
▁kla	-9.36687
▁kors	-9.36765
▁kron	-9.36852
▁oppkalt	-9.36854
ial	-9.36909
▁region	-9.3691
▁sørlig	-9.36964
▁kryss	-9.37046
lighet	-9.37153
▁brann	-9.37153
▁hæren	-9.37199
▁versjon	-9.37436
gård	-9.37447
▁oppdaget	-9.37512
▁lengde	-9.37586
▁fest	-9.37605
▁skape	-9.37623
kin	-9.37732
▁merke	-9.37755
gan	-9.37789
▁tap	-9.378
▁trans	-9.37801
ive	-9.37871
▁roma	-9.3788
▁mad	-9.3795
kjenne	-9.37972
▁kle	-9.38069
▁you	-9.38165
det	-9.38199
▁sir	-9.3823
▁faren	-9.38233
▁bal	-9.38259
▁para	-9.38276
omme	-9.38284
▁1984	-9.38301
pro	-9.38306
▁chi	-9.38333
sjef	-9.38338
lser	-9.38353
fabrikk	-9.38445
jer	-9.38623
drag	-9.38638
▁asia	-9.38659
▁dyr	-9.38668
▁don	-9.38674
vid	-9.38676
▁gård	-9.38679
▁mac	-9.38906
gress	-9.38982
▁sommeren	-9.39035
▁1982	-9.39037
kommun	-9.39086
▁regel	-9.39115
olo	-9.39166
▁tegn	-9.392
▁kunstner	-9.39245
shire	-9.39313
gruppe	-9.39367
▁vol	-9.39447
▁los	-9.39462
ros	-9.39466
▁plante	-9.39506
▁not	-9.39529
▁løp	-9.39539
kast	-9.39615
▁arkitekt	-9.39705
▁voksne	-9.39759
▁møtte	-9.39782
▁sikre	-9.39812
▁tradisjonell	-9.39905
ledes	-9.39941
▁mente	-9.39944
huset	-9.40049
▁tradisjon	-9.40152
▁høsten	-9.40226
▁unge	-9.40347
▁real	-9.40359
▁formel	-9.40379
▁un	-9.40396
ativ	-9.40406
▁olje	-9.4046
▁ven	-9.40481
prosess	-9.40482
▁fjerde	-9.405
▁standard	-9.40521
40	-9.40734
▁pr	-9.40897
▁dan	-9.40903
loven	-9.40975
▁forsker	-9.41013
▁høyt	-9.41023
▁erstattet	-9.41063
▁spi	-9.41124
о	-9.41241
▁hverandre	-9.41246
▁1976	-9.41259
▁1900	-9.41282
lede	-9.41298
▁fulgte	-9.41424
▁za	-9.4143
gar	-9.41445
▁grensen	-9.41484
▁bø	-9.41522
▁høyere	-9.41643
▁alder	-9.41679
ola	-9.41745
nett	-9.41836
oc	-9.41896
rop	-9.41952
▁øverst	-9.41999
▁1975	-9.42008
▁1983	-9.4201
istiske	-9.42086
▁tru	-9.42094
bygning	-9.42125
zo	-9.42131
▁enten	-9.42183
ski	-9.42491
▁kardinal	-9.42755
▁selvstendig	-9.42755
е	-9.42756
▁bilde	-9.42832
▁stø	-9.42904
ama	-9.42967
▁design	-9.43024
▁les	-9.43048
stra	-9.43074
▁inter	-9.43132
▁bj	-9.43134
▁thor	-9.43339
bert	-9.43348
▁meste	-9.43495
▁vanskelig	-9.43522
▁1979	-9.4353
▁1969	-9.4353
▁fordel	-9.4359
rud	-9.43596
inntil	-9.43597
▁wo	-9.43671
tårn	-9.43702
▁gra	-9.43767
krigen	-9.43778
▁kro	-9.43931
områder	-9.4401
fest	-9.44036
▁type	-9.44073
of	-9.44085
ål	-9.44097
fag	-9.44119
▁reform	-9.44121
bas	-9.4413
▁sentrale	-9.44141
è	-9.44247
▁areal	-9.44306
▁livet	-9.44319
▁sterk	-9.44664
▁vokst	-9.44692
vend	-9.44771
ula	-9.44795
▁tapte	-9.44989
isten	-9.44998
ssen	-9.45001
▁lars	-9.45028
trekk	-9.45069
▁1965	-9.45081
itz	-9.45114
ini	-9.45133
senter	-9.45144
systemet	-9.4522
kje	-9.45225
▁can	-9.45239
▁funksjon	-9.45402
▁vår	-9.45413
▁skrive	-9.45517
▁grupper	-9.4556
▁flat	-9.45561
▁jobb	-9.45587
▁representant	-9.45711
▁1978	-9.45856
▁egypt	-9.45874
▁union	-9.45926
abel	-9.45981
gl	-9.45981
våpen	-9.46018
▁avdeling	-9.46027
▁sesong	-9.46082
▁sterke	-9.46092
▁natt	-9.46094
▁george	-9.46104
tjeneste	-9.46106
fer	-9.4623
▁oppdag	-9.46351
30	-9.46377
fyl	-9.46599
▁rik	-9.46641
▁1940	-9.46649
▁2016	-9.46654
▁slekten	-9.46888
▁sky	-9.469
▁distrikt	-9.46901
appe	-9.4692
ze	-9.47003
▁hei	-9.47025
▁borger	-9.47047
qu	-9.47106
king	-9.47127
▁slike	-9.47198
▁ønsket	-9.47333
▁mis	-9.47377
▁hvite	-9.47391
▁ci	-9.4741
mpe	-9.4742
sekretær	-9.47425
▁gri	-9.47428
linje	-9.4744
▁1930	-9.47442
▁enhet	-9.47519
▁koloni	-9.47528
▁utgave	-9.47613
▁ting	-9.47701
▁tall	-9.47743
▁raskt	-9.47754
▁dy	-9.47766
▁utdanne	-9.47936
fekt	-9.48018
▁skje	-9.48031
▁sø	-9.48052
55	-9.48152
▁vestlig	-9.48179
▁hår	-9.48205
▁sannsynlig	-9.48225
▁sovjetunionen	-9.48225
▁1948	-9.48237
ão	-9.4825
▁city	-9.48298
▁bøker	-9.48359
▁student	-9.48396
▁gren	-9.48413
▁stu	-9.48488
nivå	-9.48526
▁grønn	-9.48534
bilde	-9.48539
▁cup	-9.4871
▁ii	-9.48783
▁dom	-9.48843
▁klarte	-9.48853
▁latin	-9.48853
▁japansk	-9.48866
▁kol	-9.48892
▁lei	-9.48914
▁regn	-9.4892
▁kroppen	-9.48929
▁gode	-9.48985
▁sovjetisk	-9.49006
н	-9.49032
▁egentlig	-9.49066
▁krist	-9.49087
▁samle	-9.4911
▁blod	-9.49124
korps	-9.49127
▁david	-9.49228
▁leker	-9.49297
▁journalist	-9.49301
▁høre	-9.49317
våg	-9.49354
iti	-9.49369
▁kj	-9.4939
▁europeisk	-9.49397
▁hodet	-9.49484
lov	-9.49487
▁transport	-9.49513
▁skipet	-9.49557
▁utvikle	-9.4963
▁vind	-9.49743
pek	-9.49803
▁offisiell	-9.49845
▁informasjon	-9.49845
instrument	-9.49846
86	-9.49856
▁opera	-9.49865
▁israel	-9.49938
byen	-9.49984
▁endret	-9.50003
▁lege	-9.50103
▁forsvar	-9.50109
▁rike	-9.50112
▁styrker	-9.50121
ano	-9.50193
▁dyp	-9.50215
▁bygningen	-9.50287
orm	-9.50451
oli	-9.50464
▁sju	-9.50527
stoff	-9.50566
▁rot	-9.50617
▁dronning	-9.50669
▁debuterte	-9.50694
fø	-9.50743
▁fil	-9.50752
løs	-9.50768
▁bern	-9.51048
▁vis	-9.51048
▁stiftet	-9.51052
▁jern	-9.51064
bud	-9.51125
chi	-9.51141
▁fro	-9.51172
▁fremme	-9.51266
▁kost	-9.51331
▁ansatte	-9.5136
▁qu	-9.5136
blom	-9.51378
▁400	-9.51392
▁ex	-9.51437
▁1971	-9.51503
▁innført	-9.51708
old	-9.51709
ita	-9.51745
lik	-9.51784
▁kristne	-9.5186
bra	-9.52057
▁kyst	-9.52069
▁nivå	-9.52131
▁scene	-9.52146
▁fr	-9.52238
▁len	-9.52241
▁mø	-9.52294
к	-9.52325
▁fotballspiller	-9.52355
▁harald	-9.52361
field	-9.52364
▁hopp	-9.52383
▁super	-9.52399
ire	-9.5252
▁pat	-9.52545
▁arten	-9.52564
▁tett	-9.52571
saker	-9.52624
felt	-9.52678
▁midten	-9.52678
▁lenger	-9.52784
▁effekt	-9.52847
▁ph	-9.53017
▁heller	-9.53084
hund	-9.53093
▁nødvendig	-9.53165
▁hertug	-9.53167
rum	-9.53183
▁flo	-9.53187
▁skyld	-9.53191
lia	-9.53202
▁organisasjonen	-9.53216
▁opprinnelige	-9.53309
▁grense	-9.53311
side	-9.53321
gra	-9.53325
▁athen	-9.53342
fartøy	-9.5338
▁pen	-9.53431
▁anlegget	-9.5355
kra	-9.53637
midler	-9.53649
selskapet	-9.53665
▁vold	-9.53674
97	-9.53691
▁moh	-9.53719
under	-9.53766
▁ac	-9.53852
▁lind	-9.53867
standen	-9.53868
▁delta	-9.53876
▁borg	-9.53911
▁bad	-9.53919
tør	-9.53936
ari	-9.54008
▁80	-9.54012
▁1952	-9.54012
leng	-9.54073
▁sub	-9.54104
▁finans	-9.54119
▁ønske	-9.54141
▁stadig	-9.54152
57	-9.54271
▁hit	-9.54275
blokk	-9.54307
wi	-9.54539
gul	-9.54572
▁produksjon	-9.54708
▁personlig	-9.54749
way	-9.54847
▁1974	-9.54867
▁richard	-9.54867
▁skjedde	-9.54868
▁martin	-9.54903
▁leve	-9.55005
▁program	-9.55024
▁forsøkt	-9.55105
▁frank	-9.55206
▁aktivitet	-9.55247
▁marine	-9.55254
▁historien	-9.55327
▁utviklingen	-9.554
▁bolig	-9.5546
▁forsknings	-9.55464
▁tanke	-9.55493
▁produkt	-9.55564
mal	-9.55601
ikken	-9.55616
▁stykke	-9.5562
▁polen	-9.55621
▁australia	-9.55729
▁spania	-9.55729
▁kontakt	-9.55733
▁1973	-9.55742
navnet	-9.55818
▁mari	-9.55875
▁grå	-9.55914
gy	-9.55925
▁johannes	-9.55925
▁mal	-9.55968
sol	-9.55993
▁befolkning	-9.56005
▁problem	-9.56025
▁blad	-9.56026
kamp	-9.56085
▁falt	-9.56134
ix	-9.56147
las	-9.56195
▁posisjon	-9.56232
▁størrelse	-9.56243
▁regne	-9.56283
eringen	-9.56393
▁politikk	-9.56471
▁jens	-9.56507
▁besøk	-9.56538
▁fremdeles	-9.56599
▁sørvest	-9.56605
▁1967	-9.56611
▁omfattende	-9.5664
▁bomb	-9.56769
▁ind	-9.56787
▁oppført	-9.56847
▁handling	-9.56897
▁hundre	-9.56912
skrift	-9.56928
▁eg	-9.56987
82	-9.57091
▁spre	-9.57165
arbeid	-9.57251
▁son	-9.57299
jel	-9.57419
с	-9.57476
▁stavanger	-9.57489
▁kampen	-9.57538
age	-9.57571
▁egg	-9.57592
ink	-9.57617
▁metall	-9.57728
kraft	-9.5782
▁war	-9.57841
▁redaktør	-9.57911
skolen	-9.57925
▁mid	-9.57929
▁irland	-9.57969
minister	-9.58093
▁klart	-9.58202
39	-9.5823
lis	-9.5835
▁symbol	-9.58361
ā	-9.58361
▁sund	-9.58383
76	-9.58485
▁hevdet	-9.58537
▁nådd	-9.58568
▁gutt	-9.58607
▁trolig	-9.58646
able	-9.58702
rike	-9.58813
▁musiker	-9.58815
don	-9.58874
▁gru	-9.58961
▁hell	-9.59003
▁lin	-9.59031
▁spill	-9.59074
▁smal	-9.59121
skudd	-9.59211
▁michael	-9.59254
▁religion	-9.59254
▁arabisk	-9.59254
▁klassisk	-9.59255
▁ap	-9.59261
▁1956	-9.59266
▁1966	-9.59274
lon	-9.59331
gikk	-9.5941
sser	-9.59479
tion	-9.59528
▁ger	-9.59553
▁cm	-9.59584
rådet	-9.59652
parti	-9.59745
▁styrke	-9.59774
▁utdanning	-9.59814
cy	-9.59869
▁heter	-9.59948
▁gar	-9.60044
▁følger	-9.60051
ction	-9.60074
▁naturlig	-9.60081
ville	-9.60093
▁satte	-9.60099
fører	-9.60111
63	-9.60146
▁etterhvert	-9.60154
47	-9.60168
▁republikken	-9.60169
▁1962	-9.6017
▁1963	-9.60171
holm	-9.60214
lett	-9.60214
▁kroner	-9.60277
▁stille	-9.60306
▁hovedstaden	-9.60312
▁jakt	-9.60348
▁administrasjon	-9.6042
▁stilling	-9.60441
cia	-9.60451
gangen	-9.60459
▁huset	-9.60567
org	-9.60576
▁mc	-9.60625
mand	-9.6067
▁jorden	-9.60734
ky	-9.60741
▁uavhengig	-9.60775
▁ung	-9.60878
bru	-9.60908
▁bon	-9.60951
navn	-9.61023
ben	-9.6104
▁konflikt	-9.61063
▁300	-9.61065
▁lengre	-9.61067
nyin	-9.61067
▁figur	-9.61084
virkning	-9.61091
▁artist	-9.61174
▁solgt	-9.61218
bø	-9.6133
▁anne	-9.61494
▁eid	-9.61625
51	-9.61638
▁salt	-9.61688
▁col	-9.61782
▁nederland	-9.61839
▁opptre	-9.61862
▁sluttet	-9.61863
▁70	-9.61962
ð	-9.61981
▁produsere	-9.61981
▁relativ	-9.61981
▁het	-9.61982
▁james	-9.61987
▁fot	-9.62002
stru	-9.62007
▁vitenskapelig	-9.6202
▁grunnlag	-9.62119
▁mw	-9.62152
▁festning	-9.62189
lie	-9.62202
▁klubb	-9.62205
klubb	-9.62273
▁årlig	-9.62507
▁syk	-9.62527
▁win	-9.62595
▁kraftverk	-9.62613
▁revolusjon	-9.62788
▁prøve	-9.6285
▁rad	-9.62888
▁kart	-9.62905
▁profesjonell	-9.62907
▁flertall	-9.62908
▁ledd	-9.62909
asjons	-9.6295
▁lot	-9.63016
løsning	-9.63041
▁prins	-9.631
▁tj	-9.63137
▁dal	-9.6322
▁bel	-9.63246
▁gla	-9.63294
gående	-9.63357
61	-9.63362
hal	-9.6346
▁gass	-9.63463
organ	-9.63617
▁holm	-9.63664
ú	-9.63841
▁fokus	-9.63844
▁1912	-9.63852
▁maskin	-9.63887
▁bygg	-9.63903
▁180	-9.63915
slav	-9.63929
arbeider	-9.63946
▁lære	-9.63954
▁grenser	-9.64002
værende	-9.64003
▁representerer	-9.64051
▁spørsmål	-9.64117
▁kropp	-9.64176
▁utført	-9.64196
▁populær	-9.64254
▁avisen	-9.64292
▁krets	-9.64315
▁gården	-9.64363
iserte	-9.64479
▁folket	-9.64499
▁produksjons	-9.64578
plassen	-9.64591
62	-9.64595
▁høye	-9.646
stid	-9.64633
▁tilgjengelig	-9.64785
▁foreldre	-9.64787
▁ji	-9.64789
▁selve	-9.6479
▁1942	-9.64796
folkerepublikken	-9.64798
▁nevnt	-9.64807
▁slå	-9.64983
løse	-9.65005
▁ansatt	-9.65115
▁shi	-9.65122
▁ram	-9.6514
metode	-9.65178
▁begrepet	-9.65224
▁mas	-9.65272
språk	-9.65318
møte	-9.65337
▁strid	-9.65447
▁plassering	-9.65474
ekte	-9.65482
▁ang	-9.65496
▁korea	-9.65498
vit	-9.6559
är	-9.65663
▁united	-9.65738
▁folketelling	-9.65738
▁1961	-9.65754
83	-9.65776
▁bakgrunn	-9.65785
fil	-9.65807
lei	-9.6587
▁slott	-9.65912
▁lund	-9.65922
▁adel	-9.6593
musikk	-9.65935
ssa	-9.65945
▁nev	-9.66094
dals	-9.661
94	-9.66141
▁åpne	-9.66217
▁materiale	-9.66293
mil	-9.66306
▁sette	-9.66341
▁sel	-9.66343
aktig	-9.66363
▁teori	-9.66451
▁studenter	-9.66496
verket	-9.66515
▁star	-9.66555
▁opprinnelse	-9.66699
▁hjerte	-9.667
▁nærmest	-9.66702
▁bodde	-9.66708
▁søster	-9.66745
▁flykte	-9.66813
▁lage	-9.66927
ish	-9.67191
▁fordelt	-9.67208
▁pop	-9.67254
▁saken	-9.67262
▁leir	-9.6729
▁delvis	-9.67419
tegn	-9.67495
▁ok	-9.67587
rit	-9.67594
▁trøndelag	-9.6767
▁bronse	-9.67678
▁1928	-9.67679
▁1959	-9.67683
▁røde	-9.677
▁felt	-9.67769
▁us	-9.6794
▁kop	-9.6795
▁jevn	-9.6797
43	-9.67991
▁artene	-9.67994
well	-9.67994
▁ungdoms	-9.68139
ild	-9.68157
formet	-9.68208
itu	-9.6827
▁direktør	-9.68362
▁danse	-9.68397
▁populære	-9.68404
▁økt	-9.68439
▁brev	-9.6848
▁sul	-9.6854
▁uke	-9.68576
ind	-9.68579
stol	-9.68604
kapasitet	-9.6865
▁østerrike	-9.68652
▁1936	-9.68663
▁bevart	-9.68688
▁gjenopp	-9.68707
▁nærheten	-9.68731
▁mak	-9.68804
▁oppdrag	-9.68865
▁skips	-9.6888
dor	-9.6889
▁trakk	-9.68929
ub	-9.68973
▁wh	-9.69017
ani	-9.69077
que	-9.69087
gjort	-9.69139
iz	-9.69201
vitenskap	-9.69232
bladet	-9.69242
haug	-9.69368
▁påvirke	-9.69471
oppgave	-9.69506
▁motstand	-9.69629
▁innflytelse	-9.69636
▁beijing	-9.6964
▁komponist	-9.69641
▁spesiell	-9.69641
▁vunnet	-9.69641
▁typisk	-9.69644
▁rekord	-9.69644
▁1919	-9.69654
▁1977	-9.69656
▁1939	-9.69658
▁måneder	-9.6973
▁anders	-9.69732
▁konkurransen	-9.69882
manns	-9.6993
gren	-9.69949
park	-9.69973
dagen	-9.69981
▁lan	-9.70011
▁ce	-9.70108
▁vist	-9.70212
▁ob	-9.70241
hn	-9.7025
▁nabo	-9.70274
▁90	-9.70309
▁teksten	-9.70345
▁korte	-9.7037
kysten	-9.70379
hall	-9.70385
▁produsent	-9.70389
elva	-9.70425
▁legge	-9.70474
▁ep	-9.70544
▁utbredt	-9.7064
▁klima	-9.70642
▁virksomhet	-9.70647
tende	-9.70658
▁nåværende	-9.70676
▁black	-9.70678
▁sende	-9.70682
farge	-9.70721
▁kanon	-9.70723
▁listen	-9.70728
▁ytre	-9.70748
fart	-9.70758
68	-9.70998
delen	-9.71038
▁temperatur	-9.71079
vogn	-9.71083
▁støttet	-9.7109
rup	-9.71188
▁daglig	-9.71224
▁total	-9.71316
▁valget	-9.71326
ias	-9.71342
tus	-9.71366
bygg	-9.71614
▁situasjon	-9.71651
shi	-9.71657
▁1958	-9.71664
▁vinner	-9.71668
▁drive	-9.71675
77	-9.71734
hel	-9.71754
▁tale	-9.71765
▁stav	-9.71778
slaget	-9.71976
▁vitenskap	-9.72026
▁die	-9.72102
tch	-9.72105
91	-9.72141
mus	-9.72168
▁mørk	-9.72178
▁klo	-9.72184
▁time	-9.7219
ås	-9.7221
▁kjerne	-9.72287
▁øke	-9.72365
▁våren	-9.72468
▁trener	-9.72475
▁liga	-9.72476
▁havet	-9.72485
▁lign	-9.72511
▁inne	-9.72511
virke	-9.72519
▁akademi	-9.72541
rick	-9.72597
▁nærings	-9.72604
▁elv	-9.72625
▁holder	-9.72648
win	-9.72651
bor	-9.72667
▁louis	-9.72671
▁avhengig	-9.72672
▁lansert	-9.72689
▁front	-9.72718
▁sent	-9.72727
lus	-9.72762
▁hovedsak	-9.72798
tek	-9.72857
▁forskning	-9.72905
▁innsats	-9.72943
▁lau	-9.72976
▁tettsted	-9.73076
▁endelig	-9.73126
▁programmet	-9.73175
▁tema	-9.73247
▁mes	-9.73248
historie	-9.73328
strøm	-9.73331
▁femte	-9.73467
▁sti	-9.73481
▁tung	-9.73574
▁bind	-9.73608
▁livs	-9.73632
▁sjef	-9.73644
stedet	-9.73694
▁1944	-9.73702
▁berømt	-9.73702
▁jacob	-9.73702
teknikk	-9.73704
▁betrakte	-9.73704
▁stortinget	-9.73705
▁dynastiet	-9.73707
▁musikkalbum	-9.73722
▁toppen	-9.73729
▁tegnet	-9.7375
▁score	-9.73775
▁eiendom	-9.7381
▁cr	-9.73822
▁fjellet	-9.73826
▁nasjonale	-9.7391
▁likhet	-9.73949
37	-9.74064
▁arn	-9.74088
dekke	-9.74106
▁45	-9.7417
feltet	-9.74207
øvelse	-9.7421
gift	-9.74233
▁camp	-9.74261
phi	-9.74304
80	-9.74305
our	-9.74315
▁fjorden	-9.74353
▁elev	-9.74428
nik	-9.74508
▁trekk	-9.74518
▁distriktet	-9.74662
▁etablerte	-9.7468
ram	-9.747
stikk	-9.74706
▁dyre	-9.74708
▁øvre	-9.74744
▁kjempe	-9.74781
▁skilt	-9.74786
▁alltid	-9.74809
▁gjelder	-9.74825
▁nm	-9.74837
▁leg	-9.74852
▁vanlige	-9.74869
vekt	-9.74892
▁kull	-9.74906
▁motsetning	-9.74944
kka	-9.74971
▁benytte	-9.75009
san	-9.75016
▁stand	-9.75052
▁spesial	-9.75053
last	-9.7515
▁spansk	-9.75157
▁offiser	-9.75219
▁runde	-9.75231
▁foss	-9.75252
fisk	-9.75282
▁fører	-9.75437
▁løv	-9.75479
▁lø	-9.7548
ira	-9.75512
46	-9.75553
70	-9.75631
stått	-9.75716
▁california	-9.75796
▁passasjer	-9.75796
▁antenne	-9.75803
▁charles	-9.75815
grense	-9.7584
lund	-9.75888
flate	-9.75937
▁stoppe	-9.75944
senteret	-9.75972
ain	-9.75976
linjen	-9.76115
▁hor	-9.76147
▁kvinnelig	-9.76173
▁operasjon	-9.76267
▁sier	-9.76372
▁nasjon	-9.76396
▁ran	-9.76397
▁samfunns	-9.76411
▁ordenen	-9.7646
▁økonomi	-9.7655
78	-9.76551
▁enda	-9.76663
▁est	-9.76679
▁sla	-9.76751
▁ban	-9.76775
▁fullstendig	-9.7686
▁ytterligere	-9.7686
▁school	-9.7686
▁unntak	-9.76861
▁1946	-9.76876
▁veldig	-9.76928
▁rollen	-9.76944
▁formann	-9.76947
▁aust	-9.76973
▁riksvei	-9.76994
▁she	-9.77045
▁løper	-9.77087
ora	-9.77157
▁vær	-9.77169
▁soldater	-9.77188
▁insekter	-9.77212
handling	-9.77242
▁østlig	-9.77254
▁retts	-9.77398
▁områdene	-9.7754
▁stilt	-9.77546
▁spiss	-9.77585
▁hoff	-9.77621
jon	-9.77656
90	-9.77688
▁150	-9.77804
67	-9.77884
▁mexico	-9.77935
▁undersøkelse	-9.77938
▁1947	-9.77954
bygger	-9.78013
▁tidlige	-9.78112
▁af	-9.78205
▁verne	-9.78323
lingen	-9.78354
mas	-9.78446
▁mol	-9.78594
▁sveits	-9.78627
butikk	-9.78669
▁begynner	-9.78683
blant	-9.78784
krets	-9.78897
▁fortsette	-9.7896
▁prosjekt	-9.79002
▁publisert	-9.79022
▁ekspedisjon	-9.79022
▁friidrett	-9.79022
▁praksis	-9.79022
▁1954	-9.79037
▁lengst	-9.79043
oner	-9.79085
▁ledende	-9.7911
æl	-9.79124
▁gjennomført	-9.79147
ón	-9.79168
▁kvart	-9.79171
▁sur	-9.79202
▁internasjonal	-9.79254
ød	-9.7934
▁junior	-9.79351
voll	-9.79357
▁sykdom	-9.79368
▁fjern	-9.79461
fin	-9.79514
79	-9.79542
gna	-9.79595
forfatter	-9.79807
▁vid	-9.79889
73	-9.79918
▁fyr	-9.7994
21	-9.79966
styrke	-9.79993
bjørn	-9.79996
▁stammer	-9.79996
▁stasjonen	-9.80013
án	-9.80079
▁32	-9.80095
høgskole	-9.80123
▁element	-9.80125
▁metal	-9.80201
ori	-9.80264
▁kast	-9.80372
stro	-9.80424
program	-9.8046
▁nes	-9.80471
▁teknologi	-9.80493
▁heng	-9.8065
kur	-9.80678
rene	-9.80678
▁tog	-9.80694
gjorde	-9.80712
▁rå	-9.80747
bry	-9.80845
sberg	-9.80848
lling	-9.80879
bein	-9.80937
distrikt	-9.80938
▁andreplass	-9.8105
▁kristen	-9.81124
ball	-9.81174
▁imp	-9.81201
89	-9.81207
ritt	-9.81207
▁moskva	-9.81232
▁world	-9.81232
▁norrøn	-9.81235
▁bronsemedalje	-9.81237
▁1943	-9.8125
▁betegnelsen	-9.81253
▁2017	-9.81256
▁800	-9.81259
▁problemer	-9.8137
▁byer	-9.81409
skipet	-9.81412
▁bol	-9.8143
▁masse	-9.81514
▁hjelpe	-9.8155
sler	-9.81555
▁che	-9.81576
▁historiker	-9.81592
▁økte	-9.81605
▁presse	-9.81608
95	-9.8174
▁sku	-9.81742
▁stamme	-9.8176
▁idretts	-9.81855
▁arve	-9.82002
▁kandidat	-9.82042
ordning	-9.82065
▁utover	-9.82083
gon	-9.82092
▁øyene	-9.82097
▁turist	-9.82127
54	-9.82155
▁forskjell	-9.82286
▁prisen	-9.82332
▁univers	-9.82337
▁bispedømme	-9.82355
▁international	-9.82355
▁erkebiskop	-9.82356
▁kritikk	-9.82356
▁episode	-9.82357
▁ekteskap	-9.82362
▁1924	-9.82367
▁1941	-9.82369
▁jordbruk	-9.82393
▁alpin	-9.82411
▁forsvars	-9.82416
plikt	-9.82513
▁uker	-9.82523
▁1500	-9.82537
▁max	-9.82596
▁singel	-9.82691
partiet	-9.82789
▁jobbet	-9.82792
▁buss	-9.8284
ado	-9.82908
48	-9.8293
▁oversatt	-9.82967
▁polsk	-9.83008
▁uni	-9.83019
▁tids	-9.83061
▁studier	-9.83194
plasser	-9.8322
▁verket	-9.83234
▁euro	-9.83243
69	-9.83248
ough	-9.83263
▁tonn	-9.83286
grav	-9.83287
▁hode	-9.8332
gard	-9.83353
▁behandling	-9.8346
▁inspirert	-9.83492
▁kategori	-9.83492
▁vietnam	-9.83492
▁1932	-9.83505
▁ask	-9.83506
▁erklært	-9.83527
▁blue	-9.83527
▁snø	-9.83556
06	-9.8357
72	-9.83611
56	-9.83628
▁kam	-9.83632
▁kongelige	-9.8366
▁jarl	-9.83661
▁knut	-9.83708
▁tusen	-9.83782
▁magne	-9.83828
▁bevis	-9.83844
▁fugle	-9.83846
▁forfatteren	-9.83857
▁inngå	-9.83862
rakte	-9.8388
mod	-9.83888
▁viking	-9.83938
løst	-9.84015
qui	-9.84055
kjøp	-9.84057
▁odd	-9.84073
▁kjøl	-9.84093
▁ya	-9.8413
dle	-9.84131
▁vik	-9.84212
▁amt	-9.8426
barn	-9.84324
▁karakter	-9.84418
band	-9.8442
▁fylkes	-9.84478
slutning	-9.84525
07	-9.84543
▁600	-9.84571
▁systemet	-9.84573
▁alternativ	-9.84641
▁jazz	-9.84642
stasjon	-9.84642
▁royal	-9.84644
▁invasjon	-9.84647
▁snart	-9.84647
▁festival	-9.8465
▁fredrik	-9.84655
▁etterfølger	-9.84659
▁ordfører	-9.84665
▁frukt	-9.84677
16	-9.84679
▁straffe	-9.84683
øyene	-9.84814
▁ek	-9.84819
▁fal	-9.84823
▁sønnen	-9.8483
kirke	-9.84856
▁sports	-9.84875
71	-9.84879
flu	-9.84916
▁hovedrollen	-9.84964
▁varme	-9.84982
▁strand	-9.85001
ance	-9.85032
kop	-9.85035
▁tittel	-9.85035
▁ö	-9.85062
▁sykehus	-9.85077
▁rask	-9.85086
▁institutt	-9.85185
tti	-9.85217
cho	-9.85359
▁ken	-9.85374
▁mill	-9.85434
▁tettstedet	-9.85466
alis	-9.85546
▁gitar	-9.85598
▁fle	-9.85606
kraftverk	-9.85634
▁beskytte	-9.85646
▁brøt	-9.85767
gården	-9.85798
▁studio	-9.85801
▁administrativ	-9.85804
▁kaptein	-9.85804
▁offisielt	-9.85804
▁fungere	-9.85811
zhou	-9.85814
▁streng	-9.85815
▁1938	-9.85816
▁epi	-9.85823
▁1951	-9.85824
kos	-9.85835
▁omtalt	-9.85842
▁kysten	-9.85861
trinn	-9.85872
87	-9.85965
stripe	-9.86016
arm	-9.86024
▁sikkerhets	-9.86056
▁sau	-9.86088
▁vannet	-9.86092
▁malt	-9.86128
15	-9.86177
▁jean	-9.86177
75	-9.86235
atet	-9.86289
▁kommuner	-9.86411
▁py	-9.86445
stø	-9.8646
▁former	-9.86478
kov	-9.86556
▁haug	-9.86623
▁heste	-9.86652
▁ky	-9.86666
▁mun	-9.86719
rich	-9.86725
▁elve	-9.86739
trafikk	-9.86755
kunst	-9.86782
▁solgte	-9.86791
dels	-9.86798
▁rase	-9.86808
▁bidra	-9.86833
▁sikker	-9.86841
▁salg	-9.86842
sammen	-9.86842
▁zo	-9.86978
▁utgangspunkt	-9.86981
▁wilhelm	-9.86981
▁faktisk	-9.86985
▁tolv	-9.86994
▁sjelden	-9.87007
19	-9.87045
▁uttalt	-9.87052
serien	-9.87056
▁gard	-9.87078
▁utga	-9.87101
▁albert	-9.87129
▁normalt	-9.87159
▁fyrst	-9.87167
▁overgang	-9.87272
verdig	-9.87321
▁kontrakt	-9.87379
▁dog	-9.8741
▁nils	-9.87438
ada	-9.87477
▁edderkopp	-9.87498
blad	-9.87576
▁hud	-9.87577
▁skriver	-9.87579
▁kilde	-9.87584
▁rein	-9.87617
▁dato	-9.87628
drift	-9.87698
arbeidet	-9.87721
▁cro	-9.87726
▁synes	-9.8779
▁trafikk	-9.87898
gjøre	-9.87959
gata	-9.88002
ata	-9.88011
▁kjøpte	-9.88093
grupper	-9.88103
▁byggingen	-9.88124
▁åpen	-9.88132
▁helge	-9.88135
vente	-9.88144
▁installert	-9.88171
▁skottland	-9.88171
▁yngre	-9.88172
▁anerkjent	-9.88172
▁college	-9.88173
▁nærmere	-9.88177
▁preget	-9.88187
▁hustru	-9.882
▁bidro	-9.88205
▁markeds	-9.88214
▁angeles	-9.88268
▁romanen	-9.88286
enberg	-9.88389
forbund	-9.88449
▁bredt	-9.88498
85	-9.88562
▁forteller	-9.886
▁styrkene	-9.8868
▁tha	-9.88708
▁atom	-9.88744
▁dor	-9.88754
▁bibliotek	-9.88764
▁horn	-9.88791
▁landskapet	-9.88847
▁res	-9.88856
▁stad	-9.88869
▁cap	-9.88924
58	-9.88931
▁fylket	-9.88971
kors	-9.89025
lly	-9.89098
▁kg	-9.89201
36	-9.89297
▁riket	-9.89332
motor	-9.89358
▁hurtig	-9.89376
▁joseph	-9.89376
▁publikum	-9.89376
▁sportsutøver	-9.89376
▁østerriksk	-9.89376
▁objekt	-9.89376
▁national	-9.89376
▁positiv	-9.89376
▁protest	-9.89393
▁1957	-9.89399
klasse	-9.8941
▁hovedstad	-9.89442
▁bonde	-9.89493
eksamen	-9.89513
▁kh	-9.89519
stille	-9.89546
▁inkluderer	-9.89566
▁led	-9.89624
serie	-9.89665
25	-9.89681
▁indisk	-9.89686
▁munn	-9.89721
▁rykke	-9.89744
▁test	-9.89841
▁up	-9.89892
▁eva	-9.89907
▁sider	-9.89963
jev	-9.90022
ledning	-9.90178
▁bob	-9.90272
åpning	-9.90306
59	-9.90521
▁drama	-9.90585
▁dokumenter	-9.90595
▁tilknytte	-9.90595
▁himmel	-9.90596
▁liberal	-9.90596
▁1918	-9.9061
mund	-9.90644
▁kry	-9.90738
▁arne	-9.90759
▁may	-9.90775
klo	-9.90855
vatnet	-9.90893
▁oftest	-9.90897
▁phil	-9.91008
cha	-9.91015
jan	-9.91083
mmen	-9.91169
▁bay	-9.91249
gaard	-9.91401
kh	-9.91441
▁konkurranse	-9.91504
▁gall	-9.91612
byrå	-9.91799
▁middelalderen	-9.91817
в	-9.91822
▁magnus	-9.91835
▁tidsskrift	-9.91839
▁skotsk	-9.91846
▁anna	-9.91853
▁anledning	-9.91891
▁gruve	-9.91896
▁bit	-9.91937
snitt	-9.91951
▁bryte	-9.91956
▁old	-9.92159
▁benyttes	-9.92168
▁flyplass	-9.92277
tell	-9.92376
▁bygde	-9.92388
▁od	-9.92392
ios	-9.92509
▁tilfeller	-9.92548
ova	-9.92746
heng	-9.92792
▁gyl	-9.92815
▁kilder	-9.9287
▁rygg	-9.92885
avdeling	-9.92933
pel	-9.93045
▁introdusert	-9.9308
▁league	-9.9308
▁teknisk	-9.9308
▁generelt	-9.9308
▁regissert	-9.93081
▁melodi	-9.93082
▁tydelig	-9.93084
▁app	-9.93094
▁skiftet	-9.93103
▁kil	-9.93126
▁por	-9.93206
▁35	-9.93228
▁skapte	-9.93337
▁status	-9.93376
▁north	-9.93392
▁sort	-9.93414
▁eksempler	-9.93477
tog	-9.93478
dro	-9.93501
▁rute	-9.93515
områdene	-9.93522
▁offentlige	-9.93533
ansk	-9.93608
▁utøver	-9.93668
▁poly	-9.93701
▁elever	-9.93707
▁glo	-9.9371
▁mørke	-9.93715
▁magasin	-9.93775
▁forbund	-9.93833
▁skiller	-9.94051
dikt	-9.94089
ledd	-9.94108
stander	-9.94147
▁press	-9.94158
skriv	-9.9416
gs	-9.94161
ura	-9.94228
bøker	-9.94277
kjent	-9.94306
▁sivil	-9.94325
▁tilknytning	-9.94346
▁artikkel	-9.94346
▁øvrig	-9.94346
▁primær	-9.94346
▁gustav	-9.94346
▁allierte	-9.94347
▁flagg	-9.94349
▁lufthavn	-9.94357
▁signert	-9.94368
▁län	-9.94384
▁hed	-9.94469
mul	-9.9447
strand	-9.94546
▁overfor	-9.94735
▁motiv	-9.94754
brun	-9.94764
▁bane	-9.94782
▁debut	-9.94913
▁kjøpe	-9.94969
▁char	-9.94984
▁erobret	-9.95087
skifte	-9.9514
▁utvidet	-9.95202
▁lignende	-9.95217
▁irsk	-9.95263
post	-9.95331
▁nr	-9.95418
▁fc	-9.95455
one	-9.9554
▁innsjøen	-9.95598
▁fjord	-9.95615
à	-9.95628
▁1949	-9.95628
▁sistnevnte	-9.95628
▁fengsel	-9.95628
▁nominert	-9.95628
▁mikro	-9.95631
▁ridder	-9.95636
▁svak	-9.95636
▁oppnådd	-9.95663
▁dekket	-9.95745
medalje	-9.95773
forhold	-9.95781
▁single	-9.95874
▁slave	-9.95895
sport	-9.95928
▁overført	-9.96024
lang	-9.96042
▁song	-9.96122
uf	-9.96221
ity	-9.96271
spor	-9.96285
▁yu	-9.96337
▁turner	-9.96371
▁dekker	-9.96429
23	-9.9646
visning	-9.96467
▁språket	-9.96483
▁lyn	-9.96712
▁forsvaret	-9.9678
hild	-9.96845
hastighet	-9.96926
▁alvorlig	-9.96926
▁jødisk	-9.96927
▁frykt	-9.96927
▁fysisk	-9.9693
▁strekker	-9.96932
▁eksistert	-9.96933
▁sølvmedalje	-9.96938
▁nordisk	-9.96945
▁filosofi	-9.96955
▁daniel	-9.96957
▁planlagt	-9.96959
plate	-9.96961
▁high	-9.96987
bank	-9.97071
▁1600	-9.97077
▁wei	-9.97082
bord	-9.97109
▁senter	-9.97165
13	-9.97169
▁stab	-9.97225
▁salme	-9.97232
11	-9.97235
▁eventyr	-9.97236
▁kall	-9.97245
▁brenn	-9.97272
▁kjøre	-9.97323
▁mesterskapet	-9.97349
▁angrepet	-9.97467
41	-9.97535
▁rang	-9.97633
6	-9.97671
gal	-9.97725
▁hill	-9.97756
▁fn	-9.97801
▁tour	-9.97816
▁funn	-9.97834
▁fisk	-9.97892
88	-9.98046
▁bakken	-9.98066
▁gjeld	-9.98141
▁måned	-9.98142
▁ungdom	-9.98188
33	-9.98199
kontor	-9.98214
42	-9.98256
▁videregående	-9.98278
trukket	-9.98295
▁politiet	-9.98327
▁syr	-9.98333
▁glass	-9.9835
▁foruten	-9.98417
▁organisert	-9.98437
fang	-9.98443
▁live	-9.98463
▁kontor	-9.98541
▁behandle	-9.98567
▁lavere	-9.98597
▁tilhøre	-9.98685
▁kjønn	-9.98746
hard	-9.98757
▁utdannelse	-9.98885
▁regional	-9.98993
▁gruppa	-9.98994
dam	-9.99001
▁landsbyen	-9.99004
▁mannskap	-9.9905
▁nan	-9.9911
prisen	-9.99189
stasjoner	-9.99209
▁skille	-9.9932
▁hevde	-9.99359
▁stoff	-9.99406
ico	-9.99415
▁ole	-9.99434
rim	-9.99529
▁kvalifisering	-9.99576
▁elektrisk	-9.99576
▁cirka	-9.99576
▁kunnskap	-9.99577
▁oversikt	-9.99577
▁1933	-9.99592
staten	-9.99595
▁1955	-9.99602
▁fullført	-9.99606
faktor	-9.99611
▁ishockey	-9.99618
▁bosetning	-9.99673
▁kjøpt	-9.99692
18	-9.99699
▁bygninger	-9.99702
avtale	-9.99712
▁bosatt	-9.99775
fjellene	-9.99806
ér	-9.99811
▁kari	-9.99816
▁nar	-9.99819
35	-9.9985
▁virkelig	-9.99942
dommen	-10.0008
vå	-10.0008
▁ana	-10.0012
▁stål	-10.0017
99	-10.0019
pan	-10.002
▁utvalg	-10.0027
foss	-10.0036
▁roll	-10.0037
▁tilbud	-10.0038
▁opphav	-10.0042
lid	-10.0047
▁spanske	-10.0049
komst	-10.0058
▁log	-10.0058
▁driver	-10.0067
▁ansett	-10.007
▁hage	-10.0071
▁selge	-10.0075
elli	-10.0084
album	-10.0085
▁trekke	-10.0086
maskin	-10.009
▁original	-10.0092
▁1905	-10.0093
▁tilhørte	-10.0093
▁belgisk	-10.0093
▁planet	-10.0093
▁menighet	-10.0094
▁litterær	-10.0095
▁stadion	-10.0096
32	-10.0097
▁bevegelse	-10.0098
halvøya	-10.0098
angrep	-10.01
▁nevnes	-10.0101
▁nordland	-10.0101
▁sivile	-10.0103
▁levde	-10.0109
▁korn	-10.0109
▁1000	-10.011
▁formål	-10.0119
▁bygning	-10.0122
▁turn	-10.0131
▁harry	-10.0132
▁begynne	-10.0134
▁sten	-10.0134
▁villa	-10.0134
▁innsjø	-10.0138
▁beskrevet	-10.0139
▁rose	-10.0142
▁solo	-10.0144
▁borgerkrig	-10.0148
▁utføre	-10.0156
▁hve	-10.0159
nær	-10.0168
pin	-10.0175
hode	-10.0179
▁fløy	-10.018
27	-10.0181
▁prosjektet	-10.0184
▁gangen	-10.0192
▁markert	-10.02
person	-10.0202
▁00	-10.0208
▁vokal	-10.0217
rige	-10.0223
figur	-10.0227
▁pakistan	-10.023
▁dialekt	-10.023
▁digital	-10.023
▁medlemmene	-10.023
▁jesus	-10.0231
▁1917	-10.0231
▁1911	-10.0231
▁turneringen	-10.0233
▁dommer	-10.0239
▁hon	-10.0244
▁bunn	-10.0249
mur	-10.0253
▁fan	-10.0254
▁religiøse	-10.0256
fre	-10.0257
▁1700	-10.0257
▁bære	-10.0267
fotograf	-10.0268
▁maur	-10.0272
▁snakke	-10.0277
reise	-10.0281
kkel	-10.0283
wan	-10.0307
con	-10.0309
▁bånd	-10.031
▁penger	-10.0314
ræ	-10.0329
▁sko	-10.0331
▁tang	-10.0332
▁cal	-10.0336
▁normal	-10.0353
▁spillet	-10.036
▁luc	-10.036
▁kristian	-10.0363
brand	-10.0367
festival	-10.0367
virksomhet	-10.0368
miljø	-10.0368
▁1953	-10.0369
▁ludvig	-10.0369
▁redusert	-10.0369
▁blomster	-10.0369
▁dollar	-10.0369
▁south	-10.037
født	-10.0372
▁typer	-10.0374
▁føde	-10.0382
▁hul	-10.0388
▁vendt	-10.0392
▁undervisning	-10.0393
kamera	-10.0396
▁latinsk	-10.04
▁arkitektur	-10.0404
▁moren	-10.0406
▁sørge	-10.0419
▁filmer	-10.0421
▁minutter	-10.0423
▁cho	-10.0423
▁gun	-10.0429
wald	-10.043
▁munk	-10.0461
▁museet	-10.047
▁bord	-10.0472
▁æres	-10.0473
kort	-10.0481
▁hellige	-10.0488
handel	-10.0491
una	-10.0491
▁vet	-10.0494
▁levert	-10.0508
▁kontinent	-10.0509
▁milliarder	-10.0509
▁alexander	-10.051
▁tidspunkt	-10.0511
▁skøyte	-10.0511
▁1921	-10.0511
▁papir	-10.0514
▁tilhenger	-10.0515
▁prix	-10.0523
▁pap	-10.053
▁diplomat	-10.0541
steder	-10.0543
än	-10.055
▁endre	-10.057
96	-10.0571
▁dobbelt	-10.0582
▁slett	-10.0582
▁grunnla	-10.059
▁deri	-10.0592
▁ånd	-10.0594
▁verker	-10.0602
elv	-10.0606
▁rør	-10.061
gate	-10.0614
▁hunnen	-10.0622
orden	-10.0623
▁medisin	-10.0633
arter	-10.0634
kirken	-10.0642
krig	-10.0643
vind	-10.0647
26	-10.0649
▁thi	-10.065
▁antagelig	-10.0652
▁hemmelig	-10.0652
▁belgia	-10.0652
▁kongedømmet	-10.0652
▁premier	-10.0653
▁1935	-10.0654
▁1937	-10.0654
konkurranse	-10.0655
▁evne	-10.0657
▁arrestert	-10.066
hol	-10.0661
▁vakt	-10.0662
▁hellas	-10.0667
▁kanal	-10.0704
rommet	-10.0706
▁ankom	-10.071
alitet	-10.0726
▁sist	-10.0727
▁bølge	-10.0729
▁avsluttet	-10.0731
▁dør	-10.0732
▁tenn	-10.0742
▁gil	-10.0755
vold	-10.0759
▁kreft	-10.0762
syre	-10.0763
▁part	-10.0763
12	-10.0768
▁utstyr	-10.0769
▁damp	-10.078
▁pet	-10.078
▁skatte	-10.0781
▁bla	-10.0784
slekt	-10.0788
svarer	-10.0796
▁sim	-10.0796
▁lån	-10.0797
▁administrer	-10.0797
▁beseiret	-10.0797
▁forekommer	-10.0797
▁verdenscup	-10.0797
▁kommunikasjon	-10.0797
▁gjeste	-10.0798
▁islam	-10.0799
▁video	-10.0799
▁beslutte	-10.0801
▁unngå	-10.0801
▁gram	-10.0802
forbindelse	-10.0803
ppel	-10.0803
kultur	-10.0804
▁prosessen	-10.0806
▁ukjent	-10.0806
▁parken	-10.0808
▁vokalist	-10.0814
▁just	-10.0819
▁king	-10.0822
▁eksempelvis	-10.0826
skrev	-10.083
▁kapit	-10.0834
▁nedre	-10.0843
▁maleri	-10.0847
distanse	-10.0852
▁utstyrt	-10.0862
ith	-10.0866
ander	-10.087
▁omfatte	-10.0874
▁will	-10.0877
▁auto	-10.0882
▁hind	-10.0887
▁vinge	-10.0889
▁lønn	-10.089
▁effektiv	-10.0895
trener	-10.0895
▁æ	-10.0895
▁borte	-10.09
▁rh	-10.0902
riket	-10.0904
mesterskapet	-10.0905
listen	-10.0908
▁styret	-10.091
skyting	-10.0918
▁bevege	-10.0919
▁vekst	-10.0922
▁utgi	-10.0939
▁doktorgrad	-10.0944
▁1908	-10.0944
▁midlertidig	-10.0944
▁oscar	-10.0944
▁hotell	-10.0947
▁soldat	-10.0951
▁portrett	-10.0952
utvikling	-10.0952
▁terror	-10.0953
▁resultatet	-10.0954
▁hersker	-10.0954
▁dukke	-10.0959
øm	-10.0961
ifisert	-10.0964
▁myndighetene	-10.0965
▁betegne	-10.0966
▁henry	-10.0969
ruten	-10.097
▁provins	-10.0973
▁sankt	-10.0978
▁master	-10.099
▁eide	-10.0992
ologiske	-10.1002
45	-10.1013
fortelling	-10.1017
▁klassen	-10.1019
veg	-10.1023
fjellet	-10.1024
▁hindre	-10.1027
▁vinne	-10.1031
▁skjær	-10.1032
▁myr	-10.1039
▁green	-10.104
ische	-10.1056
▁off	-10.1065
▁gy	-10.1065
▁landskap	-10.107
▁celle	-10.107
pass	-10.1075
▁kampene	-10.108
▁fv	-10.1083
grep	-10.1092
▁elektro	-10.1093
▁etterfulgt	-10.1094
▁jakob	-10.1094
▁praktisk	-10.1094
▁frederik	-10.1094
▁tegneserie	-10.1094
▁romsdal	-10.1095
▁medaljer	-10.1095
▁1925	-10.1096
▁spredt	-10.1096
▁yrke	-10.1099
▁cu	-10.1102
▁forretnings	-10.1103
▁lykke	-10.1104
▁økende	-10.1104
▁oppnå	-10.1107
▁foreningen	-10.1107
▁demningen	-10.1115
▁sammenligne	-10.1115
▁banen	-10.1127
ux	-10.1136
ordenen	-10.1136
▁advokat	-10.1146
istene	-10.1149
fjell	-10.1157
▁myndigheter	-10.1159
17	-10.1163
▁internasjonalt	-10.1164
▁spise	-10.1165
bon	-10.1165
▁samfunnet	-10.1165
▁fantes	-10.1169
▁omtale	-10.1173
▁mary	-10.1173
▁lev	-10.1174
vinger	-10.1175
▁måten	-10.1175
▁coll	-10.1175
▁stig	-10.1184
gin	-10.1184
pur	-10.1195
▁endringer	-10.1201
▁ube	-10.1206
vald	-10.1217
▁motta	-10.122
▁landene	-10.1222
▁olsen	-10.1239
▁involvert	-10.1245
▁kjærlighet	-10.1245
▁registrert	-10.1245
sekvens	-10.1245
▁begrenset	-10.1245
▁utnytte	-10.1246
▁rob	-10.1246
▁1934	-10.1247
▁1913	-10.1247
▁skaffe	-10.1249
▁khan	-10.125
kompani	-10.1251
medlem	-10.1254
middel	-10.1257
gli	-10.127
▁vedtatt	-10.127
24	-10.1271
▁betale	-10.1279
▁inntekt	-10.1294
▁størst	-10.13
▁bell	-10.1301
gler	-10.1306
▁handel	-10.1306
▁marie	-10.1308
vinner	-10.1318
▁struktur	-10.1319
▁troll	-10.1324
▁stift	-10.133
▁beskriver	-10.1337
▁sw	-10.1337
▁fritt	-10.1342
▁jente	-10.1348
▁tradisjonel	-10.1352
▁samfunn	-10.1354
▁versjonen	-10.1356
34	-10.1366
▁populært	-10.137
▁music	-10.137
▁andel	-10.1371
rød	-10.1373
▁lese	-10.1374
klubben	-10.1388
▁institusjon	-10.1399
▁hensikt	-10.1399
▁ungarn	-10.1399
▁ødelagt	-10.1399
▁mongol	-10.1399
▁behov	-10.14
▁riktig	-10.14
▁drammen	-10.14
▁løfte	-10.1401
veksle	-10.1402
▁alfred	-10.1403
▁bekrefte	-10.1404
▁tvunge	-10.1406
▁rund	-10.141
på	-10.141
oid	-10.1412
historisk	-10.1414
▁deltaker	-10.1414
herre	-10.1415
▁maler	-10.1418
kilden	-10.1418
assi	-10.1423
▁ansvarlig	-10.1425
▁landsby	-10.1431
▁bidrag	-10.1434
fyr	-10.1436
▁anse	-10.1441
▁larve	-10.1442
▁anton	-10.1442
▁kalk	-10.1444
▁tverr	-10.1444
▁sli	-10.1446
▁dj	-10.1449
rev	-10.1452
▁36	-10.1455
▁hum	-10.1462
livet	-10.1464
jord	-10.1493
▁begrep	-10.1495
typen	-10.1506
▁paus	-10.151
komedie	-10.1514
ryd	-10.1538
makten	-10.1549
▁beskrive	-10.1552
▁planen	-10.1553
▁invest	-10.1554
▁records	-10.1555
▁territori	-10.1555
▁detaljer	-10.1555
▁nederlandske	-10.1556
▁anklage	-10.1556
▁vesentlig	-10.1557
▁700	-10.1557
▁arbeiderpartiet	-10.1557
yll	-10.1559
14	-10.1562
▁stabil	-10.1566
slått	-10.1575
▁isteden	-10.1578
språklig	-10.1581
havn	-10.1582
▁bass	-10.1582
▁keiseren	-10.1592
▁bydel	-10.1595
polis	-10.1605
▁underlagt	-10.1607
gro	-10.1609
▁solen	-10.161
▁snu	-10.1616
▁ansvaret	-10.1622
▁bevegelsen	-10.1625
trådte	-10.1626
▁dømt	-10.1627
bakk	-10.1628
▁båten	-10.1634
▁andersen	-10.1639
▁ari	-10.1647
▁hå	-10.1656
▁sete	-10.1657
▁plasser	-10.166
▁tromsø	-10.1662
▁boy	-10.1667
forbundet	-10.1667
▁søke	-10.1677
84	-10.1684
bygget	-10.1686
▁linjen	-10.169
▁møter	-10.169
▁ess	-10.1699
▁34	-10.1704
put	-10.1707
▁utgivelsen	-10.1715
▁1914	-10.1716
▁legger	-10.1716
▁otto	-10.1716
▁monark	-10.1717
▁studere	-10.1717
▁lokalisert	-10.1718
▁verdensmester	-10.172
▁antatt	-10.172
fattig	-10.1724
leir	-10.1727
▁vinteren	-10.1728
▁ekstra	-10.1728
finn	-10.173
▁telemark	-10.1737
▁cuba	-10.1737
▁timer	-10.1744
▁peder	-10.1751
foreningen	-10.1753
kritiker	-10.1755
høyde	-10.1756
▁bredde	-10.1757
▁cy	-10.176
▁formen	-10.1761
▁sco	-10.1763
▁uavhengighet	-10.1765
▁musikalsk	-10.1768
▁motsatt	-10.1778
▁prinsipp	-10.1778
stasjonen	-10.1784
▁innhold	-10.1788
▁antallet	-10.1792
dommer	-10.1793
bringe	-10.1796
▁stå	-10.1812
▁jule	-10.1817
▁qui	-10.182
▁term	-10.1828
lærer	-10.1834
▁kara	-10.1835
▁handler	-10.1841
▁redd	-10.1845
38	-10.1863
29	-10.187
▁fødsel	-10.1875
▁edward	-10.1875
▁kapell	-10.1875
▁bryst	-10.1875
▁skjønt	-10.1876
▁angripe	-10.1878
▁dvs	-10.188
▁mobil	-10.1884
▁programmer	-10.1884
▁scott	-10.1885
▁forvingen	-10.1887
akademi	-10.1896
behandling	-10.1906
stykke	-10.1906
▁team	-10.1908
▁pensjon	-10.1925
▁rapport	-10.1944
▁tilfelle	-10.1946
▁andreas	-10.1963
▁kjell	-10.1966
botn	-10.1969
liste	-10.1973
▁tapt	-10.1975
▁finn	-10.198
▁stillingen	-10.1984
▁starten	-10.1999
kamper	-10.2
▁foregå	-10.2006
▁kanalen	-10.2006
zy	-10.2007
grensen	-10.2023
iro	-10.2024
▁anlegg	-10.2028
betegnelse	-10.2029
republikk	-10.2034
▁frakte	-10.2036
▁akershus	-10.2039
▁middelsstor	-10.2039
▁county	-10.2039
▁påfølgende	-10.2039
▁kald	-10.2041
▁rio	-10.2041
krever	-10.2041
▁france	-10.2044
▁reserve	-10.2045
▁aksje	-10.2051
▁armé	-10.2053
nemlig	-10.2055
skij	-10.2059
ramme	-10.206
▁tvang	-10.2065
vekst	-10.2067
tatt	-10.207
▁gradvis	-10.2073
22	-10.2074
▁bou	-10.2077
▁tun	-10.2081
▁brø	-10.2081
▁besøkte	-10.2084
▁beregne	-10.2092
levende	-10.2093
▁konstruksjon	-10.2095
▁forholdet	-10.2103
forsamlingen	-10.2112
▁samarbeidet	-10.2112
▁orkester	-10.2118
▁storm	-10.2119
▁kjemisk	-10.2122
sider	-10.2123
▁opphold	-10.2125
isjon	-10.2127
▁inge	-10.2133
▁leon	-10.2135
▁kloster	-10.2139
64	-10.2144
▁utsatt	-10.2147
▁stol	-10.2155
▁planter	-10.2161
▁dalen	-10.2171
▁64	-10.2175
▁75	-10.2177
▁avtalen	-10.2183
▁dahl	-10.2186
▁wall	-10.2188
▁bortset	-10.2197
lipp	-10.2203
▁vers	-10.2205
▁1909	-10.2206
▁alkohol	-10.2206
▁oppmerksomhet	-10.2206
▁stafett	-10.2206
▁umiddelbar	-10.2206
▁resulter	-10.2206
▁kristiansand	-10.2206
▁global	-10.2206
▁edvard	-10.2206
▁nedbør	-10.2206
▁reaksjon	-10.2206
▁svømme	-10.2206
▁luther	-10.2206
▁finnmark	-10.2207
▁konstant	-10.2207
▁kvalitet	-10.2207
▁brygge	-10.2208
▁godkjent	-10.2208
maler	-10.2214
▁internett	-10.2216
forsyning	-10.2217
▁avholdt	-10.2219
▁hellig	-10.2219
preg	-10.2219
▁saint	-10.2223
representant	-10.2234
▁geografisk	-10.2236
▁variant	-10.2238
▁skyte	-10.2239
▁jag	-10.224
▁forvaltning	-10.2246
▁wales	-10.226
▁bydelen	-10.226
▁orient	-10.2261
▁tiår	-10.2275
▁verv	-10.2284
ugg	-10.2289
98	-10.2292
mond	-10.2296
▁varierer	-10.23
▁menneskelig	-10.2307
formula	-10.2311
▁flåte	-10.2324
styrt	-10.2332
▁33	-10.2332
▁170	-10.2337
▁statlig	-10.2348
▁avtale	-10.2355
▁hannen	-10.2365
▁wien	-10.2365
veld	-10.2367
▁bio	-10.2368
▁konkurrere	-10.2375
▁club	-10.2375
▁hendelser	-10.2375
▁ekstrem	-10.2375
▁vokser	-10.2375
komité	-10.2376
▁sekund	-10.2377
▁santa	-10.2379
▁organisasjoner	-10.2382
fatning	-10.2382
strekning	-10.2383
aria	-10.2387
▁tronen	-10.239
▁agder	-10.2395
▁johann	-10.2396
hin	-10.2396
regjering	-10.2406
forskning	-10.2407
▁parlamentet	-10.2416
dannelse	-10.2418
▁nordover	-10.2424
industrien	-10.2429
▁vindu	-10.2433
▁buk	-10.2434
▁tryg	-10.244
▁bilder	-10.2445
▁steve	-10.2447
▁ansvar	-10.2448
▁klosteret	-10.245
▁sunn	-10.2468
▁dø	-10.2471
▁opptrådt	-10.2474
▁utenriks	-10.2474
▁kata	-10.2475
▁etnisk	-10.2487
▁uttale	-10.2493
▁42	-10.2494
▁38	-10.2494
▁cra	-10.2497
▁penge	-10.251
▁motstander	-10.2515
▁metro	-10.2515
▁ære	-10.2521
hem	-10.2526
bevisst	-10.2531
▁demokratisk	-10.2538
▁oppfatte	-10.2539
marked	-10.2541
▁individ	-10.2548
▁initiativ	-10.2548
▁katedral	-10.2548
▁kollektiv	-10.2548
▁krevde	-10.2548
▁award	-10.2548
▁mektig	-10.2548
▁gunnar	-10.2548
▁grunnlegger	-10.2548
▁definert	-10.2548
dyktig	-10.2549
▁1903	-10.2549
▁ref	-10.2549
▁1916	-10.255
▁nasjonalpark	-10.2551
▁sverd	-10.2554
▁eksport	-10.2554
▁hval	-10.2555
▁nederlag	-10.2556
▁spenning	-10.2557
▁tilbyr	-10.2558
31	-10.2559
▁east	-10.2561
▁bilen	-10.2561
▁1896	-10.2562
▁geo	-10.2564
▁eli	-10.2567
▁konsul	-10.2568
▁tredjeplass	-10.2571
elsk	-10.2577
▁kulturell	-10.2578
produkt	-10.2581
tunnelen	-10.2594
bakken	-10.2598
▁makten	-10.2603
▁frø	-10.2612
▁alban	-10.2612
28	-10.2613
03	-10.2638
klipp	-10.2639
kampen	-10.2646
▁imot	-10.2647
vakt	-10.2648
▁mono	-10.2657
▁minister	-10.2661
komiteen	-10.2663
▁gjeng	-10.2665
▁arkeologisk	-10.2677
feld	-10.2679
bak	-10.268
▁gui	-10.2694
▁bærer	-10.2706
yang	-10.2707
vinne	-10.2713
▁portugal	-10.2723
▁tyrkia	-10.2723
opplæring	-10.2723
▁rogaland	-10.2723
▁arrangere	-10.2723
▁kombinert	-10.2723
▁beholdt	-10.2724
▁1931	-10.2725
▁debatt	-10.2725
▁1915	-10.2726
▁analyse	-10.2728
▁rammet	-10.273
▁1898	-10.2736
▁nedlagt	-10.2736
▁1895	-10.2742
▁mengde	-10.2742
▁oppstod	-10.2746
▁mottatt	-10.2746
▁with	-10.2748
▁karakteristisk	-10.275
skjold	-10.2759
stjerne	-10.2765
døde	-10.2773
legging	-10.2775
▁back	-10.2777
▁shan	-10.2788
▁produksjonen	-10.2792
▁niels	-10.2795
▁bakkroppen	-10.2801
▁akse	-10.2805
▁rod	-10.2822
▁grim	-10.2827
tysk	-10.2846
▁rep	-10.2849
klar	-10.2899
▁mala	-10.29
▁argument	-10.2902
▁helsingfors	-10.2902
▁skulptur	-10.2902
▁chicago	-10.2902
▁arthur	-10.2902
▁arendal	-10.2903
▁forårsake	-10.2903
duk	-10.2903
▁fjernsyn	-10.2903
galleri	-10.2903
▁1927	-10.2904
▁1906	-10.2904
▁1910	-10.2906
▁middel	-10.2907
▁sovjet	-10.2907
▁vekk	-10.291
▁show	-10.291
▁mangler	-10.2912
▁bull	-10.2915
politikk	-10.2915
▁adresse	-10.2916
▁nordre	-10.2917
▁bestemme	-10.2917
▁grøn	-10.2924
▁sammenlagt	-10.2926
▁samisk	-10.2931
▁besetning	-10.2935
▁utbygging	-10.2958
▁bach	-10.2967
▁ulykke	-10.2979
▁prost	-10.2985
konge	-10.2986
▁hjul	-10.2991
▁alb	-10.3003
styrken	-10.3004
vegg	-10.3008
▁kha	-10.3031
81	-10.3032
äl	-10.3039
▁ordre	-10.3044
▁kyr	-10.3045
handler	-10.3046
▁flytte	-10.3055
vika	-10.3055
▁varianter	-10.3058
▁israelsk	-10.3063
▁trak	-10.3068
▁okkupasjon	-10.3083
løytnant	-10.3083
▁guvernør	-10.3083
▁washington	-10.3083
▁utenlandske	-10.3084
▁juridisk	-10.3084
▁identifiser	-10.3084
▁sachsen	-10.3084
▁rektor	-10.3084
▁studioalbum	-10.3084
▁nedenfor	-10.3085
▁referere	-10.3085
▁håndball	-10.3085
▁manager	-10.3085
▁1929	-10.3085
hopp	-10.3086
▁1926	-10.3086
▁middelalder	-10.3086
▁michel	-10.3087
▁sle	-10.3089
▁philip	-10.3089
▁hentet	-10.3092
▁britene	-10.3092
▁oversettelse	-10.3098
▁anlagt	-10.3101
▁homo	-10.3112
▁velge	-10.3112
▁gold	-10.3114
ordnet	-10.3114
bol	-10.312
samfunn	-10.3127
hånd	-10.3127
▁driv	-10.3129
▁oppleve	-10.3135
måte	-10.3135
▁kommando	-10.3138
verdi	-10.3139
lukke	-10.315
▁idrettslag	-10.3176
▁tegning	-10.3185
▁kjemi	-10.3187
▁ulik	-10.319
dorf	-10.3203
▁byttet	-10.3222
▁flest	-10.3223
▁demokrat	-10.3226
▁skjold	-10.3231
▁tau	-10.3232
gav	-10.3264
roll	-10.3267
▁levende	-10.3268
▁1902	-10.3269
▁australsk	-10.3269
▁dokumentar	-10.3269
▁innbyggertall	-10.3269
▁konservative	-10.3269
▁portugisisk	-10.3269
ström	-10.3269
▁artikler	-10.3269
▁misjonær	-10.3269
konferanse	-10.3269
▁brensel	-10.3269
pedagog	-10.3269
▁terreng	-10.3269
▁oberst	-10.3269
▁allianse	-10.327
▁prinsesse	-10.3271
▁programleder	-10.3272
▁vannkraftverk	-10.3273
▁brødrene	-10.3293
send	-10.3294
▁lord	-10.3296
▁øl	-10.3301
▁nyere	-10.3301
▁drikke	-10.3304
▁sørover	-10.3305
▁oppsto	-10.3305
▁estland	-10.3308
▁fotballklubb	-10.3311
produsent	-10.3316
effekt	-10.3318
kreft	-10.332
▁halvdel	-10.3333
▁sveitsisk	-10.3337
▁long	-10.3355
tagelse	-10.3356
▁forbundet	-10.3357
typer	-10.3358
▁trær	-10.3365
▁jøde	-10.3367
▁grov	-10.3369
▁variere	-10.337
formede	-10.3375
▁amb	-10.3385
misjon	-10.3387
▁interne	-10.3393
egnet	-10.3401
▁wil	-10.3407
▁omgang	-10.3435
▁37	-10.3441
▁lake	-10.3449
▁truet	-10.3451
▁kim	-10.3455
▁1904	-10.3457
▁afghanistan	-10.3457
▁hordaland	-10.3457
▁svalbard	-10.3457
observasjon	-10.3457
▁plattform	-10.3457
▁service	-10.3457
▁zealand	-10.3457
▁monument	-10.3457
▁radikal	-10.3457
▁redusere	-10.3457
▁ressurs	-10.3458
dynasti	-10.3458
▁debutalbum	-10.3458
▁antikken	-10.3458
▁forklaring	-10.3458
▁kommunal	-10.3459
▁smith	-10.3459
▁institut	-10.3459
▁stortings	-10.3472
▁opptatt	-10.3476
▁morten	-10.3481
▁velger	-10.3483
▁deltatt	-10.3485
▁teologi	-10.3492
▁dyrke	-10.3496
▁forstå	-10.3496
▁drei	-10.3498
▁hunder	-10.3507
▁human	-10.3517
redskap	-10.3527
illa	-10.3529
▁bakke	-10.354
▁boka	-10.3575
▁drap	-10.3581
▁fjernet	-10.3584
itan	-10.3587
perioden	-10.359
▁hov	-10.3608
rock	-10.3626
øve	-10.3631
▁skatt	-10.3644
▁1901	-10.365
▁astronom	-10.365
▁færøyene	-10.365
▁münchen	-10.365
▁science	-10.365
friidrettsutøver	-10.365
▁regissør	-10.365
▁antarktis	-10.365
symfoni	-10.365
firmaet	-10.365
▁utelukke	-10.365
▁ull	-10.3651
▁generasjon	-10.3651
▁domstol	-10.3651
▁årsaken	-10.3652
▁søndag	-10.3652
▁kreert	-10.3653
▁sykkel	-10.3654
▁meldt	-10.3655
▁hensyn	-10.3656
▁partner	-10.3659
▁mytologi	-10.3659
▁sagt	-10.366
▁street	-10.366
▁kok	-10.3666
▁jack	-10.368
▁nederlandsk	-10.368
▁myk	-10.3683
▁spring	-10.3684
▁tyskerne	-10.3688
▁polar	-10.3693
▁håp	-10.3695
▁akt	-10.3696
▁synlig	-10.3697
ntin	-10.3702
kandidat	-10.3704
▁søkt	-10.3704
finalen	-10.3705
hjem	-10.3706
▁sporter	-10.3708
teater	-10.3719
▁bygda	-10.3726
tekst	-10.3729
klær	-10.3731
▁beskrivelse	-10.3733
▁town	-10.3735
▁neu	-10.3742
pha	-10.3747
ansett	-10.3765
bach	-10.3768
▁kode	-10.3771
▁wood	-10.3773
▁utløp	-10.3789
hof	-10.3801
▁gjer	-10.3818
tank	-10.3831
▁120	-10.3844
▁ferge	-10.3845
▁friedrich	-10.3846
▁definisjon	-10.3846
▁engasjert	-10.3846
▁intervju	-10.3846
▁vedlikehold	-10.3846
▁tyrkisk	-10.3846
▁individuell	-10.3846
▁etterkommer	-10.3846
▁forbedre	-10.3846
ов	-10.3847
▁stengt	-10.3848
▁import	-10.3848
▁1907	-10.3848
▁piano	-10.3856
sikring	-10.386
▁fremført	-10.3863
▁håndverk	-10.3864
teori	-10.3881
▁morgen	-10.3884
▁admiral	-10.389
kjør	-10.3895
▁seire	-10.3896
utenriksminister	-10.3902
direktør	-10.3904
museum	-10.3904
jern	-10.3907
▁signal	-10.3908
▁ever	-10.3924
▁rester	-10.3947
▁fru	-10.3947
opera	-10.3954
▁gaten	-10.3964
▁gjenstand	-10.3965
▁malm	-10.3972
▁saga	-10.3976
ical	-10.3978
kommende	-10.3981
bukta	-10.3984
gass	-10.3991
▁drag	-10.4
com	-10.4023
ulf	-10.4024
roman	-10.4037
▁antwerpen	-10.4046
▁eksperiment	-10.4046
▁nowiki	-10.4046
▁church	-10.4046
▁symptom	-10.4046
▁vulkan	-10.4046
▁thailand	-10.4046
▁frivillig	-10.4046
▁bøkene	-10.4046
▁brown	-10.4047
▁1922	-10.4048
▁håkon	-10.4048
▁1923	-10.4048
vandring	-10.4049
▁generell	-10.4049
▁jackson	-10.405
konvensjon	-10.4053
▁høyesterett	-10.4055
▁kjørt	-10.4056
▁kristiania	-10.406
▁blande	-10.406
▁falk	-10.4061
▁drepe	-10.4061
▁hamburg	-10.4065
ington	-10.407
masse	-10.4073
bedrift	-10.4081
▁møre	-10.4092
makt	-10.4094
▁tilpasse	-10.4096
▁kino	-10.41
▁arkeolog	-10.4101
▁gö	-10.4101
▁160	-10.4109
▁mcc	-10.4116
▁endring	-10.4121
rygg	-10.4121
▁klokken	-10.4122
▁ingeniør	-10.4129
nummer	-10.4131
▁elite	-10.4131
▁molde	-10.4135
utstillingen	-10.415
▁cur	-10.415
▁mengder	-10.4156
▁nettverk	-10.4171
▁fett	-10.4177
▁mesterskap	-10.419
troppen	-10.4209
▁egyptisk	-10.4242
direktorat	-10.425
▁eventuel	-10.425
▁jerusalem	-10.425
▁ortodoks	-10.425
▁utbredelse	-10.425
▁vingespenn	-10.425
▁atmosfære	-10.425
▁fenomen	-10.425
▁innlemme	-10.425
▁konsept	-10.425
▁nikola	-10.425
▁henrettet	-10.425
▁hendelsen	-10.425
▁golf	-10.425
▁overraske	-10.425
▁oblast	-10.4251
▁oppstå	-10.4252
▁stiftelsen	-10.4252
▁erfaring	-10.4254
▁medaljen	-10.4254
fred	-10.4255
bebyggelse	-10.4257
▁nød	-10.426
▁hitler	-10.4261
▁frihet	-10.4262
▁tørr	-10.4267
▁typen	-10.4268
▁1899	-10.4268
▁1880	-10.4274
brigade	-10.4283
▁østover	-10.4285
flekk	-10.429
vikler	-10.4299
landslag	-10.431
museet	-10.432
atisk	-10.4324
▁roger	-10.4331
▁kåret	-10.4336
▁urban	-10.4339
▁pont	-10.4347
▁jøder	-10.4354
▁skinn	-10.4361
▁forlate	-10.438
▁hull	-10.4384
▁vende	-10.4401
▁fulgt	-10.4408
bød	-10.4409
▁mangel	-10.4419
ifikasjon	-10.4443
slutt	-10.4449
▁angi	-10.4454
▁arrangement	-10.4458
▁millimeter	-10.4458
▁artilleri	-10.4458
▁nøyaktig	-10.4458
▁lørdag	-10.4458
▁canadisk	-10.4458
▁igjennom	-10.4458
▁utmerkelse	-10.4459
▁nektet	-10.4459
▁multi	-10.4459
▁foreslått	-10.4461
▁center	-10.4463
▁landbruks	-10.4463
apparat	-10.4463
▁innspillingen	-10.4464
▁onkel	-10.4465
▁fredrikstad	-10.4465
▁kveld	-10.4465
▁osv	-10.4466
▁tolke	-10.4468
▁young	-10.4474
▁1888	-10.4477
▁befinne	-10.4482
▁styrte	-10.4485
▁intens	-10.4486
ctor	-10.4486
▁beskyttelse	-10.4487
▁tynn	-10.449
▁unna	-10.449
enhver	-10.4491
▁gjennomføre	-10.4513
odden	-10.4531
president	-10.4531
▁forklare	-10.4531
▁kapp	-10.4539
▁erstatte	-10.4548
▁run	-10.4552
▁beina	-10.4558
▁vingene	-10.457
▁pund	-10.4571
industri	-10.4578
▁baron	-10.4597
▁melk	-10.4598
▁kvit	-10.4609
▁sosialistisk	-10.461
▁beskrev	-10.4615
▁kår	-10.4644
7	-10.4653
fattet	-10.4654
periode	-10.4655
▁aleksander	-10.4671
▁tønsberg	-10.4671
▁grunnleggende	-10.4671
▁øyeblikk	-10.4671
▁kjennetegn	-10.4671
▁eksemplarer	-10.4671
▁kombinasjon	-10.4671
▁usikker	-10.4671
▁kommersiell	-10.4671
▁bodø	-10.4671
▁ytterst	-10.4671
givende	-10.4673
▁einar	-10.4673
▁vestfold	-10.4674
▁cle	-10.4675
mønster	-10.4675
▁avledet	-10.4678
▁etasje	-10.4679
bevegelsen	-10.4679
▁victoria	-10.4685
hed	-10.4689
▁overtatt	-10.4694
▁steg	-10.4694
▁1890	-10.4695
▁ernst	-10.4698
▁sikte	-10.4704
▁tjenestegjor	-10.4719
▁gitarist	-10.4727
kjøring	-10.4729
prosjekt	-10.4746
▁river	-10.4747
karriere	-10.4747
▁krim	-10.4749
▁verd	-10.4752
strømmen	-10.4753
▁angel	-10.4754
sjø	-10.476
▁strategisk	-10.4765
▁talt	-10.4766
▁øre	-10.4769
▁american	-10.4785
▁rasen	-10.4786
▁medisinsk	-10.4802
▁rulle	-10.4809
▁chile	-10.4812
▁nak	-10.4819
▁bytte	-10.4841
▁religiøs	-10.4847
▁forskjellig	-10.486
▁hamar	-10.4862
▁skapt	-10.4878
avgift	-10.4883
▁filosof	-10.4884
møll	-10.4888
▁barcelona	-10.4888
▁halvparten	-10.4888
▁prøvd	-10.4888
▁manchester	-10.4888
kompetanse	-10.4888
▁innbyggerne	-10.4888
▁josef	-10.4888
▁avgjørende	-10.4888
▁mekanisk	-10.4888
▁ungarsk	-10.4889
▁separat	-10.4889
▁skildre	-10.4889
celle	-10.4889
▁nymfe	-10.4889
▁elleve	-10.4889
▁karbon	-10.4891
plei	-10.4892
▁oppgaver	-10.4892
▁tykk	-10.4892
settelse	-10.4892
▁lisens	-10.4897
▁house	-10.4897
▁kjenner	-10.4897
▁operere	-10.4899
▁nevner	-10.4901
▁anvende	-10.4902
kilde	-10.4903
▁romerne	-10.4916
▁grønland	-10.4918
▁oppløst	-10.492
▁johansen	-10.493
▁petter	-10.4938
pedi	-10.4941
▁dru	-10.4944
økonom	-10.4948
▁fortalt	-10.4951
flåten	-10.4956
▁stang	-10.4988
▁skjø	-10.5006
▁nazi	-10.5026
▁snakk	-10.5038
departement	-10.5038
orientert	-10.5039
mming	-10.5041
▁tunnel	-10.5051
kapital	-10.5055
▁terr	-10.5089
økonomi	-10.5103
▁amsterdam	-10.5111
▁byprefekturet	-10.5111
▁kompleks	-10.5111
▁kvalifisert	-10.5111
▁rettigheter	-10.5111
▁heinrich	-10.5111
▁litauen	-10.5111
▁vilhelm	-10.5111
▁forhindre	-10.5111
▁unntatt	-10.5111
▁sprint	-10.5111
▁fiolin	-10.5111
▁utseende	-10.5111
▁trengte	-10.5111
▁gregor	-10.5111
▁blanding	-10.5111
▁dverg	-10.5112
▁markedet	-10.5112
▁definere	-10.5113
▁tildeles	-10.5114
▁slank	-10.5114
▁gullmedalje	-10.5114
▁kirk	-10.5116
▁forbudt	-10.5117
▁våt	-10.512
▁humor	-10.513
▁gjennombrudd	-10.5134
kolleg	-10.5145
basert	-10.5161
▁lettere	-10.5167
▁forståelse	-10.5174
▁variert	-10.518
▁høst	-10.5196
utdanning	-10.5196
hjelp	-10.5197
▁130	-10.5201
ique	-10.5234
buss	-10.5234
▁kommunistisk	-10.5249
time	-10.5259
▁mah	-10.5281
▁from	-10.5296
gno	-10.532
start	-10.5327
hockey	-10.5331
▁argentina	-10.5338
▁manuskript	-10.5338
▁okkupert	-10.5338
▁oksygen	-10.5338
▁jesuitt	-10.5338
▁company	-10.5338
▁innebære	-10.5338
▁1892	-10.5338
▁kritisert	-10.5338
▁preussen	-10.5338
▁kjøretøy	-10.5338
▁komponert	-10.5338
traktaten	-10.5338
▁tropper	-10.5338
▁francisco	-10.534
▁wolf	-10.5341
fysik	-10.5342
▁hjerne	-10.5344
▁nedtegne	-10.5349
▁kjøtt	-10.5352
▁koble	-10.5362
eparten	-10.5364
▁audi	-10.5365
▁amerikaner	-10.5369
▁christiania	-10.5378
▁romania	-10.538
▁adam	-10.5392
▁statsråd	-10.5403
▁ennå	-10.5405
▁spar	-10.5407
▁ligge	-10.5414
▁vitne	-10.5417
konsert	-10.5429
▁kule	-10.5437
▁sideelv	-10.548
▁rug	-10.5482
▁fusjon	-10.5486
▁jim	-10.5502
▁nova	-10.5505
oksid	-10.5508
▁meta	-10.5526
▁mannlig	-10.5558
▁fakultet	-10.557
▁liverpool	-10.557
▁låtskriver	-10.557
▁seremoni	-10.557
▁taylor	-10.557
▁trommeslager	-10.557
▁ansikt	-10.557
▁eksisterer	-10.5571
▁forsvant	-10.5571
▁hørte	-10.5571
▁senior	-10.5571
▁bakvingen	-10.5571
kostnaden	-10.5572
▁arkiv	-10.5572
▁beordre	-10.5572
▁power	-10.5572
▁skarp	-10.5573
▁operatør	-10.5573
▁kritisk	-10.5573
▁talent	-10.5578
lock	-10.5578
▁seksjon	-10.5578
kasse	-10.5578
sentrert	-10.5579
▁metoden	-10.558
▁stalin	-10.5581
▁skytter	-10.5582
▁allmenn	-10.5582
▁franz	-10.5583
▁aksjon	-10.5584
forsker	-10.5588
vilkår	-10.5594
▁nordmenn	-10.561
▁vestover	-10.5611
▁persisk	-10.5616
▁synd	-10.5626
▁flor	-10.5639
wood	-10.5666
modell	-10.5676
▁semifinalen	-10.5677
▁beau	-10.5682
▁out	-10.5692
▁strategi	-10.5704
▁bang	-10.571
lignende	-10.5718
bevegelse	-10.5741
vall	-10.5748
▁qi	-10.5748
▁regjer	-10.5767
skade	-10.578
▁palm	-10.5788
dahl	-10.5799
▁angelsaksisk	-10.5808
▁elizabeth	-10.5808
▁gjaldt	-10.5808
▁hovedkvarter	-10.5808
▁renessanse	-10.5808
▁særskilt	-10.5808
▁vurdert	-10.5808
▁returnert	-10.5808
▁jørgen	-10.5808
▁referanse	-10.5808
▁forkropp	-10.5808
▁permanent	-10.5808
▁lyktes	-10.5808
▁etablere	-10.5809
▁dominert	-10.5809
▁presentert	-10.5809
▁kobber	-10.5809
▁forberede	-10.5809
▁hjørne	-10.581
▁naturgass	-10.581
stipend	-10.5811
▁utpekt	-10.5811
▁antyde	-10.5811
▁voksen	-10.5812
▁svein	-10.5813
▁wilson	-10.5814
▁strekningen	-10.5815
▁hovedkontor	-10.5815
▁spesialiser	-10.5817
▁feire	-10.5823
▁vanligst	-10.5824
▁1884	-10.5827
▁1870	-10.5836
▁queen	-10.5836
▁verksted	-10.5846
▁etterpå	-10.5847
▁great	-10.5853
▁wild	-10.5857
▁foto	-10.5858
▁grø	-10.5859
▁game	-10.5871
▁verb	-10.5884
▁ulv	-10.5891
transport	-10.5896
▁vennskap	-10.5898
posisjon	-10.5902
bånd	-10.591
▁synge	-10.591
materiale	-10.5911
lønn	-10.5922
bury	-10.5925
flo	-10.5942
▁koll	-10.5945
▁satse	-10.5948
samband	-10.5972
▁gjennomsnitt	-10.6012
▁mei	-10.6017
utvalget	-10.6023
▁espe	-10.6028
feng	-10.6029
▁modern	-10.6042
▁favoritt	-10.6052
▁lincoln	-10.6052
▁akseptert	-10.6052
▁invadert	-10.6052
▁bokstaven	-10.6052
▁landkreis	-10.6052
▁tømmer	-10.6052
▁nicola	-10.6052
▁fysikk	-10.6053
▁serbisk	-10.6053
▁tjente	-10.6053
▁frigjøring	-10.6054
▁fjellkjede	-10.6054
▁utøve	-10.6056
▁nyhets	-10.6057
▁misjons	-10.6058
▁skygge	-10.6059
▁hydro	-10.6063
▁hvile	-10.6068
▁slippe	-10.607
▁fortellingen	-10.607
▁mynt	-10.6073
▁kommunestyre	-10.6074
▁variasjon	-10.6075
▁arch	-10.6083
▁lunge	-10.6086
innspilling	-10.6088
▁britis	-10.609
▁filip	-10.6093
▁statue	-10.6101
▁cand	-10.6103
inndeling	-10.6106
▁party	-10.6113
▁nato	-10.6118
sjö	-10.6139
batteri	-10.6146
▁troms	-10.6149
▁sjel	-10.6155
▁innvie	-10.6157
gruppa	-10.616
divisjon	-10.6161
sønn	-10.6162
brev	-10.6197
stemme	-10.6201
▁140	-10.6227
strid	-10.6248
skjær	-10.625
avisen	-10.626
▁lyng	-10.628
▁landslags	-10.6289
▁trent	-10.6295
▁spark	-10.6296
▁skuespill	-10.6299
▁bryllup	-10.6302
▁country	-10.6302
▁hollywood	-10.6302
▁windows	-10.6302
budsjett	-10.6302
▁autonom	-10.6302
▁protestantisk	-10.6303
▁biografi	-10.6303
▁disney	-10.6303
▁overflaten	-10.6303
▁dvd	-10.6303
teatret	-10.6303
▁osmansk	-10.6303
relatert	-10.6303
▁fjordane	-10.6304
▁opplevd	-10.6305
▁åpenbar	-10.6308
▁takket	-10.6311
▁flytende	-10.6313
▁1881	-10.6319
▁tilsyne	-10.6322
▁bassist	-10.6323
▁1100	-10.6326
▁1848	-10.6329
▁fase	-10.6329
▁sønd	-10.6332
▁næringsliv	-10.6349
▁book	-10.6349
▁utvide	-10.6352
▁server	-10.6354
▁kongelig	-10.6365
▁nerve	-10.6377
magasin	-10.6417
samisk	-10.6431
wich	-10.6446
lif	-10.6463
syklist	-10.6478
▁finale	-10.6491
motiv	-10.6491
manuel	-10.6492
terrier	-10.6492
▁sving	-10.6503
okrati	-10.6531
▁unik	-10.654
▁ambassadør	-10.6559
▁forøvrig	-10.6559
▁konkurrert	-10.6559
▁nøytral	-10.6559
▁patriark	-10.6559
▁shanghai	-10.6559
▁verdensrekord	-10.6559
▁kommandør	-10.6559
▁midtøsten	-10.6559
▁nøkkel	-10.6559
▁ukraina	-10.6559
▁hjort	-10.6559
▁negativ	-10.6559
▁fungerte	-10.6559
▁beatles	-10.6559
▁napoli	-10.6559
▁hjal	-10.6559
▁langrenn	-10.6559
▁bibelen	-10.6559
▁flukt	-10.6559
▁ektemann	-10.656
▁sjette	-10.656
▁trodde	-10.656
▁elektronisk	-10.656
▁opposisjon	-10.656
▁datamaskin	-10.6561
▁tropisk	-10.6561
▁smelte	-10.6562
▁hydrogen	-10.6563
▁trenger	-10.6563
▁elsker	-10.6566
▁betalt	-10.6566
▁profil	-10.6568
▁stemt	-10.6568
▁down	-10.6569
▁idrett	-10.657
▁mandat	-10.6572
ière	-10.6573
▁datert	-10.6574
familie	-10.658
▁landslaget	-10.6581
▁beslutning	-10.6585
▁trond	-10.6598
▁tann	-10.6611
▁legend	-10.662
horn	-10.6659
likevel	-10.6681
▁million	-10.6684
politisk	-10.6684
tittel	-10.6687
studie	-10.6705
▁tempel	-10.6724
▁ødelegge	-10.676
▁kunstnerisk	-10.6821
vassdraget	-10.6822
▁bataljon	-10.6822
▁columbia	-10.6822
▁evolusjon	-10.6822
▁jomfru	-10.6822
▁matematikk	-10.6822
▁napoleon	-10.6822
▁opphørte	-10.6822
▁påbegynt	-10.6822
▁eksisterende	-10.6822
▁minoritet	-10.6822
▁giovann	-10.6822
▁adolf	-10.6822
▁uvanlig	-10.6822
▁tilskuere	-10.6822
mouth	-10.6822
▁streik	-10.6823
▁innledet	-10.6823
▁rolf	-10.6823
▁føderal	-10.6823
▁alpene	-10.6825
▁borgermester	-10.6825
▁group	-10.6828
▁fangst	-10.6828
▁flekker	-10.6829
▁sykdommen	-10.6829
▁komposisjon	-10.6831
▁lidelse	-10.684
wick	-10.684
sfære	-10.6845
▁smak	-10.6846
▁1885	-10.6849
▁1200	-10.685
▁kommunistparti	-10.6864
▁simon	-10.6864
kjerne	-10.6866
▁jernbanestasjon	-10.6873
▁psykolog	-10.6879
dress	-10.6881
kontroll	-10.6908
bølge	-10.6953
▁tretten	-10.6961
▁rand	-10.6969
▁disk	-10.6974
▁sparta	-10.698
støtte	-10.7031
▁inneba	-10.7066
▁elisabeth	-10.7092
▁ferdinand	-10.7092
▁forvandling	-10.7092
▁infanteri	-10.7092
▁kvadrat	-10.7092
▁asteroide	-10.7092
▁diameter	-10.7092
▁könig	-10.7092
▁embets	-10.7092
▁gymnas	-10.7092
▁diskusjon	-10.7092
▁evangeli	-10.7092
▁amatør	-10.7092
▁petersburg	-10.7092
▁statsborger	-10.7092
▁strøk	-10.7092
▁ørken	-10.7093
▁naturreservat	-10.7093
▁opprettelsen	-10.7093
▁felttog	-10.7094
▁svekke	-10.7094
▁inndelt	-10.7096
▁telefon	-10.7096
▁poesi	-10.7098
▁forlatt	-10.7098
▁holdning	-10.7099
▁stedsnavn	-10.71
▁antas	-10.7101
▁turné	-10.7103
▁hotel	-10.7105
▁arena	-10.7106
▁sending	-10.7107
▁ibsen	-10.7109
▁kunngjor	-10.7113
▁rykte	-10.7126
▁oval	-10.7127
▁beholde	-10.7128
▁utenom	-10.7128
▁ørn	-10.7151
▁kupp	-10.7185
reformen	-10.7201
▁erobre	-10.7209
▁biologisk	-10.7226
musiker	-10.7229
vokst	-10.723
prins	-10.7234
trær	-10.7279
næs	-10.7295
lektor	-10.73
mengde	-10.7335
pningsseremonien	-10.737
▁bekjempe	-10.737
▁forgjenger	-10.737
▁heidelberg	-10.737
▁koalisjon	-10.737
▁reklame	-10.737
▁sluppet	-10.737
▁kommandant	-10.737
▁identitet	-10.737
▁kavaleri	-10.737
▁tabellen	-10.737
▁lagkonkurransen	-10.737
▁geometri	-10.737
▁aktuell	-10.737
▁erobring	-10.737
krønike	-10.737
▁bønder	-10.7371
▁novell	-10.7372
▁beskjed	-10.7372
▁kongeriket	-10.7373
▁øynene	-10.7374
▁sverre	-10.7374
▁innendørs	-10.7379
▁tjue	-10.7381
▁regimet	-10.7383
▁manglen	-10.7387
▁1864	-10.739
▁fylt	-10.7392
▁900	-10.7393
▁panser	-10.7394
▁billed	-10.7432
▁kommunist	-10.744
▁angl	-10.7459
bibliotek	-10.7514
redaktør	-10.7514
kjøl	-10.7514
hjul	-10.7514
utstyr	-10.7526
▁helst	-10.7533
tavle	-10.7534
▁rust	-10.7535
▁thu	-10.7538
vesenet	-10.7568
▁kirkegård	-10.7599
▁keiserlig	-10.7627
▁republikansk	-10.7656
▁skandinavisk	-10.7656
▁kringkast	-10.7656
▁risiko	-10.7656
▁gjennomgår	-10.7656
▁alexandr	-10.7656
▁umulig	-10.7656
▁white	-10.7656
▁kronprins	-10.7657
▁vegetasjon	-10.7657
▁seinere	-10.7657
▁erstatning	-10.7657
▁tørke	-10.7658
▁mjø	-10.7659
▁østfold	-10.766
▁røyk	-10.7661
▁dominerende	-10.7662
▁moderat	-10.7662
▁uklar	-10.7668
▁regler	-10.7668
▁skjønn	-10.7671
▁skutt	-10.7678
rennet	-10.7686
▁blind	-10.7691
skikkelse	-10.7716
▁gjennomsnittlig	-10.7718
▁utvidelse	-10.7722
cheng	-10.7744
▁dramatisk	-10.7744
iansk	-10.7749
struktur	-10.7808
institutt	-10.7808
orkester	-10.7809
▁krise	-10.7811
fold	-10.7863
▁afrikansk	-10.7869
forretning	-10.7882
psykologi	-10.7887
▁avslutte	-10.7895
▁fortelle	-10.7915
▁døgn	-10.7931
▁victor	-10.7939
▁observato	-10.7946
kommanderende	-10.795
▁filippinene	-10.795
▁flaggbærer	-10.795
▁innspilt	-10.795
▁luxembourg	-10.795
▁meksikansk	-10.795
▁mislykke	-10.795
▁popularitet	-10.795
▁prøyssisk	-10.795
▁society	-10.795
▁vancouver	-10.795
demonstrasjon	-10.795
▁gabriel	-10.795
▁xiàn	-10.795
svømming	-10.795
disiplin	-10.795
▁hertugdømmet	-10.795
▁diverse	-10.795
▁fuktig	-10.795
▁invitert	-10.795
▁betydningsfull	-10.795
▁ulovlig	-10.795
▁prosessor	-10.795
▁tilfeldig	-10.795
▁beleiring	-10.795
▁castle	-10.795
▁seksuell	-10.795
ettighetene	-10.7951
▁forkortet	-10.7951
▁særeg	-10.7952
▁gerhard	-10.7952
▁utforming	-10.7952
redaksjon	-10.7952
▁väst	-10.7953
▁leilighet	-10.7953
▁handlet	-10.7955
▁gjenværende	-10.7955
▁tillatelse	-10.7956
▁foregikk	-10.7958
▁eiendommen	-10.7958
▁donau	-10.7961
▁fastlandet	-10.7962
▁orgel	-10.7965
spesifik	-10.7972
▁fabrikken	-10.7974
▁kult	-10.7978
rovision	-10.798
▁klokke	-10.7983
dyrking	-10.8014
▁furu	-10.8017
▁flyge	-10.802
▁omhandle	-10.8026
▁punk	-10.8053
▁vesen	-10.8078
register	-10.808
▁hyper	-10.8082
problemer	-10.8111
programmet	-10.8117
medlemmer	-10.812
▁yngs	-10.8132
▁kommisjon	-10.8135
salg	-10.8168
▁parlament	-10.8179
▁aluminium	-10.8253
distribusjon	-10.8253
▁engasjement	-10.8253
▁konstitusjon	-10.8253
▁maksimal	-10.8253
▁satellitt	-10.8253
kjøkken	-10.8253
▁innvandre	-10.8253
▁autoritet	-10.8253
▁bærum	-10.8253
▁parallell	-10.8253
▁hebraisk	-10.8253
▁beslektet	-10.8253
▁respekt	-10.8253
▁contest	-10.8253
▁konkurs	-10.8253
▁haakon	-10.8253
▁skjebne	-10.8253
▁utgravning	-10.8253
▁flyktning	-10.8253
▁larvik	-10.8254
▁dybde	-10.8254
▁middelhavet	-10.8254
▁overlevd	-10.8256
skille	-10.8257
vatn	-10.8259
▁kongsberg	-10.826
▁2018	-10.8261
▁tsar	-10.8264
recht	-10.8276
▁stanse	-10.8285
▁statistisk	-10.8313
▁hylle	-10.8325
▁pels	-10.8333
▁flue	-10.8371
▁montert	-10.8373
▁rangert	-10.8409
medisin	-10.8423
offiser	-10.8423
europeisk	-10.8424
størrelse	-10.8424
dømt	-10.8426
▁kriminal	-10.8484
▁sjakk	-10.8515
▁francis	-10.8563
▁major	-10.8564
▁ammunisjon	-10.8565
▁central	-10.8565
▁katolikk	-10.8565
▁republikaner	-10.8565
▁virginia	-10.8565
▁oxford	-10.8565
▁1852	-10.8565
▁anmelder	-10.8565
▁stråling	-10.8565
▁sigurd	-10.8565
▁theodor	-10.8565
▁margaret	-10.8565
▁fiktiv	-10.8566
▁bøndene	-10.8566
▁kontrast	-10.8566
▁trondhjem	-10.8566
▁barnehage	-10.8566
▁seoul	-10.8566
▁utsikt	-10.8566
▁nepal	-10.8566
▁automatisk	-10.8566
▁kristendommen	-10.8567
▁bbc	-10.8567
▁brasiliansk	-10.8567
▁hedmark	-10.8568
▁bensin	-10.8568
▁tallrike	-10.8568
▁oppfølger	-10.8569
▁bedrifter	-10.8569
mekanisme	-10.8569
▁gjentatt	-10.8569
▁spurt	-10.8572
▁organisere	-10.8573
▁lojal	-10.8574
▁alex	-10.8574
▁bedriften	-10.8576
▁klatre	-10.8582
schaft	-10.8589
▁brent	-10.8593
▁balanse	-10.86
▁skjell	-10.8618
▁hou	-10.8623
▁tillate	-10.8628
gripe	-10.8667
kjede	-10.8688
▁romantisk	-10.8716
aften	-10.8733
▁klage	-10.8745
edderkopp	-10.8746
temperatur	-10.8746
funksjon	-10.8746
▁rapportert	-10.875
tilbud	-10.8791
▁opprette	-10.8844
▁brødre	-10.8849
▁dominere	-10.8885
belteasteroide	-10.8888
▁academy	-10.8888
▁ambassade	-10.8888
▁anerkjennelse	-10.8888
▁colombia	-10.8888
▁frilufts	-10.8888
▁psykisk	-10.8888
▁rekrutt	-10.8888
▁restaurert	-10.8888
▁sarpsborg	-10.8888
▁skandinavia	-10.8888
▁ukrainsk	-10.8888
▁1874	-10.8888
▁besittelse	-10.8888
▁buskerud	-10.8888
▁fjorten	-10.8888
▁flandern	-10.8888
▁kollaps	-10.8888
▁texas	-10.8888
▁dublin	-10.8888
▁unesco	-10.8888
▁söder	-10.8888
▁testamente	-10.8888
▁turbiner	-10.8888
▁begravelse	-10.8888
▁sjeldne	-10.8888
▁sandefjord	-10.8888
▁kjøpmann	-10.8888
▁originaltittel	-10.8888
▁armenia	-10.8889
▁senterpartiet	-10.8889
▁linux	-10.889
▁utfordre	-10.889
▁samlealbum	-10.889
▁krypt	-10.8893
▁keltisk	-10.8894
▁døtre	-10.8895
▁vinkel	-10.8896
▁tillatt	-10.8897
▁tilbrakt	-10.8898
mission	-10.89
løv	-10.8901
▁domini	-10.8912
ekspert	-10.8935
bukten	-10.8947
▁innerst	-10.8958
▁barneskole	-10.8982
▁home	-10.9007
skjelett	-10.9012
▁myndighet	-10.9029
▁teolog	-10.9029
fellesskap	-10.9076
tradisjon	-10.9078
ulykke	-10.9082
yuan	-10.9109
▁musikal	-10.9109
▁treffe	-10.9135
komite	-10.9188
psykiatri	-10.9221
▁dekkvingene	-10.9221
▁fundament	-10.9221
▁omdøpt	-10.9221
▁adskilt	-10.9221
▁jersey	-10.9221
▁opprettholde	-10.9221
▁1893	-10.9221
▁abraham	-10.9221
▁bystatus	-10.9221
▁mangfold	-10.9221
▁people	-10.9221
▁ringerike	-10.9221
▁donald	-10.9221
▁verdensarv	-10.9222
▁færre	-10.9222
▁sektor	-10.9222
▁valuta	-10.9222
▁ålesund	-10.9222
▁gratis	-10.9222
▁delstats	-10.9222
▁vincen	-10.9223
▁josé	-10.9223
▁florida	-10.9223
▁varmekraftverk	-10.9223
komponent	-10.9223
▁bayern	-10.9224
worth	-10.9224
▁meyer	-10.9225
▁beretning	-10.9226
▁jurist	-10.9226
▁høydepunkt	-10.9227
▁foretatt	-10.9227
▁pirat	-10.9231
▁grafisk	-10.9232
▁regjeringstid	-10.9232
▁karakterisert	-10.9234
kammeret	-10.9235
▁avansert	-10.9239
▁bakerst	-10.9246
▁nederst	-10.9256
▁bryn	-10.926
▁ungdomsskole	-10.9273
▁undertegne	-10.9283
town	-10.9313
aktivitet	-10.9424
litteratur	-10.9424
debut	-10.943
ingeniør	-10.9457
fraksjon	-10.95
▁basketball	-10.9566
▁cambridge	-10.9566
▁folkeavstemning	-10.9566
▁football	-10.9566
▁jordskjelv	-10.9566
▁ludwig	-10.9566
▁muslimsk	-10.9566
▁styrmann	-10.9566
▁aggressiv	-10.9566
▁nynorsk	-10.9566
▁offensiv	-10.9566
▁vellykke	-10.9566
▁wergeland	-10.9566
▁ferskvann	-10.9566
▁göteborg	-10.9566
▁innstifte	-10.9566
▁airlines	-10.9566
▁dekorert	-10.9566
▁romerriket	-10.9566
▁stridsvogn	-10.9566
▁ntnu	-10.9566
▁utspring	-10.9566
▁gælisk	-10.9566
▁frederick	-10.9566
▁prince	-10.9566
▁stanley	-10.9566
▁serbia	-10.9566
▁regulere	-10.9566
▁sydney	-10.9566
▁fødselsår	-10.9566
▁trussel	-10.9567
▁walisisk	-10.9567
▁konsernet	-10.9567
▁apollo	-10.9567
▁detroit	-10.9567
▁monroe	-10.9567
▁utslipp	-10.9567
▁døpt	-10.9567
▁betjene	-10.9567
▁nkp	-10.9567
▁majoritet	-10.9568
▁charlie	-10.9568
▁fienden	-10.9569
▁claudi	-10.9569
skildring	-10.9569
▁myrdet	-10.9569
▁landskamper	-10.9569
▁year	-10.957
▁ivareta	-10.957
▁dylan	-10.9571
▁kronologisk	-10.9572
▁belønne	-10.9574
▁blank	-10.9576
▁spyd	-10.9576
▁ødela	-10.9577
▁fossile	-10.9579
▁ytelse	-10.9585
▁befeste	-10.9585
▁nøt	-10.9588
forhandlingene	-10.9623
▁ødeleggelse	-10.9648
syklus	-10.9671
prest	-10.9719
automat	-10.9737
sykdom	-10.9787
brann	-10.9788
▁hevn	-10.9832
▁pseudo	-10.9923
▁bysantinsk	-10.9923
▁fiendtlig	-10.9923
▁fortjenstorden	-10.9923
▁kontinuerlig	-10.9923
▁leipzig	-10.9923
▁plutselig	-10.9923
▁restaurant	-10.9923
▁tilnærming	-10.9923
▁babylon	-10.9923
▁utdødd	-10.9923
potensial	-10.9923
▁matematisk	-10.9923
▁registrering	-10.9923
infeksjon	-10.9923
▁sympati	-10.9923
▁heavy	-10.9923
▁hjelm	-10.9923
▁stephen	-10.9923
▁axel	-10.9923
▁selvmord	-10.9923
▁avviklet	-10.9924
▁kampanje	-10.9924
▁eksistens	-10.9924
▁stråle	-10.9924
▁noensinne	-10.9924
▁bemerket	-10.9924
▁underholdning	-10.9924
▁forandring	-10.9925
▁för	-10.9925
▁uefa	-10.9925
▁oliver	-10.9926
▁regent	-10.9926
▁vektklasse	-10.9926
▁samuel	-10.9927
▁embete	-10.9927
▁forhandlinger	-10.9928
▁avgjørelse	-10.9928
▁kiev	-10.9928
▁kreis	-10.9937
bjørk	-10.9945
▁kaffe	-10.9946
▁befolke	-10.9949
▁fylle	-10.9949
rhein	-10.995
galakse	-10.9952
▁trappe	-10.9955
løype	-11.0009
▁spenne	-11.0012
▁domkirke	-11.0016
tempelet	-11.0058
kommisjonen	-11.0082
summen	-11.0099
kjønn	-11.0135
▁minutt	-11.015
provins	-11.0152
bestemt	-11.0152
▁olymp	-11.0172
lokale	-11.0182
▁inspirasjon	-11.0282
▁fasettøyne	-11.0294
▁begivenhet	-11.0294
▁fremtredende	-11.0294
▁hypotese	-11.0294
▁illinois	-11.0294
▁individuelt	-11.0294
▁massachusetts	-11.0294
▁mccartney	-11.0294
▁parallelt	-11.0294
▁pennsylvania	-11.0294
▁tsjekkoslovakia	-11.0294
▁metamorf	-11.0294
▁tsjekkisk	-11.0294
▁leopold	-11.0294
▁uttrykt	-11.0294
høvding	-11.0294
▁patriot	-11.0294
▁diskutert	-11.0294
▁interiør	-11.0294
▁ovenfor	-11.0294
▁rosenborg	-11.0294
▁konstruert	-11.0294
▁hyppig	-11.0294
▁deutsche	-11.0294
▁gordon	-11.0294
▁zhang	-11.0294
▁legendarisk	-11.0294
▁nelson	-11.0294
▁ohio	-11.0294
katastrofe	-11.0294
▁guinea	-11.0294
▁fascist	-11.0294
▁anvendt	-11.0295
▁korrekt	-11.0295
▁flanke	-11.0295
▁innvalgt	-11.0296
▁systematisk	-11.0296
metabol	-11.0297
▁verdslig	-11.0298
hausen	-11.0299
aceae	-11.03
▁konsesjon	-11.0301
▁understreke	-11.0302
▁overlever	-11.0306
▁epoke	-11.0307
▁rifle	-11.0311
▁tildeling	-11.0324
sdatter	-11.0343
antonio	-11.0351
▁bøye	-11.0379
▁skanse	-11.0383
▁utforske	-11.0436
snegl	-11.0479
▁bakkropp	-11.0509
sykehus	-11.0536
misbruk	-11.0546
prøve	-11.0632
jørn	-11.0649
instruktør	-11.0678
▁aftenposten	-11.0678
▁anatolia	-11.0678
▁annonsert	-11.0678
▁bulgarsk	-11.0678
▁hviterussland	-11.0678
▁indonesia	-11.0678
▁observert	-11.0678
▁shakespeare	-11.0678
▁skribent	-11.0678
▁tilstrekkelig	-11.0678
▁tsjekkia	-11.0678
▁venezia	-11.0678
▁venezuela	-11.0678
jubileum	-11.0678
▁bachelor	-11.0678
▁petroleum	-11.0678
▁skjult	-11.0678
▁operativsystem	-11.0678
▁latvia	-11.0678
▁1849	-11.0678
▁howard	-11.0678
▁bosnia	-11.0678
▁taiwan	-11.0678
klassifisert	-11.0678
▁angivelig	-11.0678
▁dresden	-11.0678
▁organismer	-11.0678
▁chelsea	-11.0678
▁ordinær	-11.0679
▁lennon	-11.0679
▁alaska	-11.0679
leverandør	-11.0679
▁tyngde	-11.0679
▁sibir	-11.0679
▁für	-11.0679
▁verktøy	-11.0679
▁omstridt	-11.068
▁kalender	-11.068
fysiolog	-11.068
▁dream	-11.068
▁boston	-11.0682
▁moore	-11.0682
▁bjarn	-11.0683
opprøret	-11.0685
tolkning	-11.0691
liknende	-11.0702
▁rakett	-11.0708
▁barokk	-11.087
advokat	-11.0936
resultat	-11.0937
grønn	-11.0937
soldater	-11.0938
posit	-11.0944
design	-11.0949
fabrik	-11.0963
▁diplom	-11.0987
spellemannprisen	-11.1078
▁argentinsk	-11.1078
▁arrangør	-11.1078
▁association	-11.1078
▁assosiert	-11.1078
▁atlanterhavet	-11.1078
▁etiopia	-11.1078
▁forfremmet	-11.1078
▁generalmajor	-11.1078
▁guddommelig	-11.1078
▁hongkong	-11.1078
▁inskripsjon	-11.1078
▁sosialdemokrat	-11.1078
▁warszawa	-11.1078
▁indikerer	-11.1078
▁varaordfører	-11.1078
▁alminnelig	-11.1078
▁billboard	-11.1078
▁lillehammer	-11.1078
▁marokko	-11.1078
▁sparebank	-11.1078
▁søknad	-11.1078
▁progressiv	-11.1078
▁subjekt	-11.1078
▁depresjon	-11.1078
▁kroatia	-11.1078
▁forbrytelse	-11.1078
▁rovdyr	-11.1078
▁torpedo	-11.1078
▁komplett	-11.1078
▁imperiet	-11.1078
▁haugesund	-11.1078
▁russerne	-11.1078
▁seminar	-11.1078
▁skihopper	-11.1078
▁atlanta	-11.1078
▁følte	-11.1078
▁utfordring	-11.1078
grunnsstasjon	-11.1078
▁frimurer	-11.1078
▁begravet	-11.1079
▁forsterket	-11.1079
▁grunnleggelse	-11.1079
▁søvn	-11.1079
▁tverrbånd	-11.1079
▁redigert	-11.1079
▁bibelsk	-11.1079
▁forkortelse	-11.108
▁titler	-11.108
▁fylkeskommune	-11.108
▁sosiolog	-11.108
▁moralsk	-11.1081
▁søsken	-11.1081
▁referert	-11.1081
▁tokyo	-11.1082
▁kanadisk	-11.1083
▁gjenopprette	-11.1084
gudstjeneste	-11.1091
▁landevei	-11.1101
pølse	-11.1138
erklæring	-11.1175
▁koreansk	-11.1208
regnskap	-11.1272
stigning	-11.1332
kontrakt	-11.1353
biskop	-11.1354
teknologi	-11.1355
sesongen	-11.1358
▁hovedrolle	-11.1381
regime	-11.1394
▁representere	-11.14
▁forhandle	-11.1467
▁intelligen	-11.1495
▁aserbajdsjan	-11.1495
▁bokstavelig	-11.1495
▁brandenburg	-11.1495
▁corporation	-11.1495
▁cæsar	-11.1495
▁hønefoss	-11.1495
▁infrastruktur	-11.1495
▁kambodsja	-11.1495
▁keyboard	-11.1495
▁köln	-11.1495
▁melbourne	-11.1495
▁mountain	-11.1495
▁newcastle	-11.1495
▁nobelprisen	-11.1495
▁norwegian	-11.1495
▁resolusjon	-11.1495
▁sunnmøre	-11.1495
▁uppsala	-11.1495
köping	-11.1495
▁filippinsk	-11.1495
▁embeds	-11.1495
▁rettferdig	-11.1495
▁european	-11.1495
▁forberedt	-11.1495
▁snorre	-11.1495
▁hamilton	-11.1495
▁westfalen	-11.1495
▁firenze	-11.1495
▁kommentar	-11.1495
▁henrettelse	-11.1495
▁tåke	-11.1496
attraksjon	-11.1496
▁aspekt	-11.1496
▁stefan	-11.1496
▁temple	-11.1496
▁buenos	-11.1497
▁utlån	-11.1497
▁forestillingen	-11.1497
▁fantasi	-11.1498
▁omdanne	-11.1498
▁krigsfange	-11.15
▁kallenavn	-11.1502
▁presentere	-11.1506
▁søyle	-11.1511
▁sjanse	-11.1518
▁fattigdom	-11.1519
▁maritim	-11.1522
▁genetisk	-11.1523
bestyrer	-11.1534
▁fonte	-11.1554
mønstr	-11.1586
▁slange	-11.1591
▁harmoni	-11.1771
▁insekt	-11.1786
historiker	-11.1788
utgave	-11.1809
▁canterbury	-11.193
▁erkebispedømme	-11.193
▁fengslet	-11.193
▁færøysk	-11.193
▁helikopter	-11.193
▁illustrert	-11.193
▁jacque	-11.193
▁kongregasjon	-11.193
▁microsoft	-11.193
▁nintendo	-11.193
▁orchestra	-11.193
▁palestinsk	-11.193
▁prestegjeld	-11.193
▁ptolemaios	-11.193
▁roosevelt	-11.193
▁særdeles	-11.193
▁frankfurt	-11.193
▁gerilja	-11.193
▁gjøvik	-11.193
▁sanskrit	-11.193
▁uenighet	-11.193
▁carolina	-11.193
sentralbanksjef	-11.193
▁litauisk	-11.193
▁raymond	-11.193
eksplosjon	-11.193
▁komplisert	-11.193
▁løslatt	-11.193
▁kjønnsmod	-11.193
▁eidsvoll	-11.193
▁jamaica	-11.193
▁amundsen	-11.193
▁faktum	-11.193
▁sicilia	-11.193
▁dialog	-11.193
▁parlamentarisk	-11.193
▁prototyp	-11.193
bransjen	-11.193
▁kongsvinger	-11.193
▁minnesmerke	-11.193
▁cruise	-11.193
▁langvarig	-11.193
▁fremtidig	-11.193
▁lingvist	-11.193
▁sammenligning	-11.193
▁rekkevidde	-11.193
▁veteran	-11.193
forurensning	-11.1931
▁drømme	-11.1931
terapi	-11.1931
▁kombinere	-11.1931
▁stortingsvalge	-11.1931
▁sjokk	-11.1931
reservat	-11.1932
▁massiv	-11.1932
▁relasjon	-11.1933
dolph	-11.1935
▁lineær	-11.1936
▁forsinke	-11.1939
vík	-11.1958
skrekk	-11.1972
revolusjonen	-11.1987
basseng	-11.2079
meteorolog	-11.2168
▁eksempl	-11.2239
inntekt	-11.2243
signal	-11.2346
▁beliggenhet	-11.2384
▁britannia	-11.2384
▁bulgaria	-11.2384
▁championship	-11.2384
▁distribuert	-11.2384
▁dramatiker	-11.2384
▁forstyrre	-11.2384
▁innsbruck	-11.2384
▁intellektuell	-11.2384
▁interessant	-11.2384
▁konkludert	-11.2384
▁libanon	-11.2384
▁magazine	-11.2384
▁makedonia	-11.2384
ã	-11.5636
0	-12.2761
