<unk>	0
<s>	0
</s>	0
.	-3.18677
s	-3.41492
e	-3.57214
▁	-3.72774
▁i	-3.91305
▁og	-4.0522
er	-4.06285
en	-4.08753
t	-4.13654
▁er	-4.57549
r	-4.60334
▁av	-4.65754
▁en	-4.90055
n	-4.90948
et	-4.92356
▁for	-4.94741
▁som	-4.98724
▁til	-5.04958
a	-5.06716
▁på	-5.12846
▁med	-5.1701
▁den	-5.4221
▁var	-5.44243
▁de	-5.52439
i	-5.53808
▁ble	-5.56981
▁fra	-5.59252
ene	-5.63268
d	-5.6609
▁det	-5.68601
k	-5.69755
o	-5.71722
▁har	-5.71794
ne	-5.76232
▁et	-5.77835
y	-5.80681
▁han	-5.98537
te	-6.01151
▁å	-6.01515
m	-6.02497
g	-6.05666
f	-6.06143
▁ved	-6.13608
re	-6.25032
p	-6.25722
▁også	-6.25873
l	-6.26391
de	-6.2692
▁ut	-6.37919
▁om	-6.41099
▁eller	-6.43875
▁at	-6.45655
us	-6.45859
▁be	-6.46076
es	-6.4632
▁s	-6.4689
h	-6.46937
▁under	-6.46985
v	-6.48217
in	-6.49503
▁etter	-6.50557
an	-6.53306
u	-6.53679
▁kan	-6.54221
c	-6.54258
▁to	-6.54923
▁opp	-6.57462
le	-6.58928
b	-6.58952
▁over	-6.61947
ing	-6.64176
▁a	-6.67034
na	-6.73883
▁inn	-6.75871
sk	-6.76158
al	-6.76182
on	-6.79018
▁18	-6.81459
ter	-6.82699
ia	-6.83206
is	-6.83606
▁da	-6.83704
▁the	-6.86068
z	-6.86629
▁men	-6.86984
▁f	-6.88011
▁andre	-6.88906
ar	-6.90865
▁hadde	-6.91797
▁la	-6.96299
▁k	-6.9636
▁seg	-6.97749
ma	-6.98445
▁m	-6.98451
▁mellom	-7.0021
▁b	-7.01309
▁mot	-7.02333
w	-7.02407
ri	-7.0289
um	-7.03561
ende	-7.04688
la	-7.05137
ens	-7.06197
▁ligger	-7.07376
land	-7.08174
di	-7.08297
▁ha	-7.08333
ur	-7.08402
▁sin	-7.08615
ch	-7.08741
▁al	-7.08923
▁ikke	-7.09697
▁u	-7.09712
ta	-7.10068
j	-7.116
▁hans	-7.12836
▁d	-7.12841
▁tre	-7.12919
ck	-7.13073
▁født	-7.13757
lig	-7.14842
▁re	-7.1488
el	-7.15902
or	-7.15979
ning	-7.1698
x	-7.17135
be	-7.17342
▁1	-7.17549
▁p	-7.18514
▁se	-7.19226
blant	-7.19897
ke	-7.20191
li	-7.22177
il	-7.23244
▁g	-7.2364
vis	-7.24033
▁dette	-7.26736
▁første	-7.28778
▁der	-7.28862
ske	-7.2982
isk	-7.29989
den	-7.30502
nes	-7.30582
iske	-7.30775
da	-7.31562
▁gjennom	-7.31786
▁hun	-7.31996
st	-7.32711
▁of	-7.33505
▁c	-7.33629
▁man	-7.33718
ra	-7.34404
é	-7.34849
▁ca	-7.35893
nde	-7.36056
ng	-7.37607
▁flere	-7.37851
ul	-7.38201
ut	-7.38758
kt	-7.39901
▁le	-7.4017
▁sammen	-7.40391
▁17	-7.40798
▁her	-7.40849
as	-7.40898
▁2	-7.41015
▁fikk	-7.41086
▁denne	-7.41748
ner	-7.42252
1	-7.43596
▁nord	-7.44195
bo	-7.44227
os	-7.45866
der	-7.45971
ka	-7.4726
me	-7.47645
ig	-7.47832
for	-7.48129
▁h	-7.48313
▁kom	-7.48649
▁li	-7.48723
ga	-7.49341
ge	-7.49669
▁ro	-7.49804
▁by	-7.50409
▁t	-7.50553
øy	-7.51111
▁an	-7.52197
ad	-7.5255
ger	-7.52753
▁hoved	-7.53062
ler	-7.53223
am	-7.53348
▁l	-7.53894
▁stor	-7.5427
at	-7.54538
▁5	-7.5524
▁bo	-7.55308
▁blir	-7.55401
stad	-7.55503
id	-7.56021
ste	-7.56399
ør	-7.56507
▁in	-7.56544
▁ny	-7.56649
▁tidligere	-7.56659
▁co	-7.57561
▁3	-7.57775
▁he	-7.57866
ver	-7.58267
it	-7.58268
ell	-7.58369
▁na	-7.58554
mi	-7.58784
▁kr	-7.59504
▁ta	-7.59678
▁di	-7.60548
▁n	-7.61037
▁st	-7.61775
▁kon	-7.62223
pp	-7.62451
▁del	-7.6267
▁v	-7.62834
▁sp	-7.63335
▁sa	-7.63633
son	-7.63956
▁and	-7.64029
to	-7.6418
▁alle	-7.64447
ja	-7.65238
ro	-7.65358
lige	-7.65545
bi	-7.65755
ton	-7.65814
man	-7.65962
lo	-7.66215
▁kommune	-7.66228
ve	-7.66325
▁annet	-7.66698
▁disse	-7.66713
ed	-7.66801
ff	-7.67035
ol	-7.67708
ry	-7.67723
▁15	-7.67865
ker	-7.68229
4	-7.68268
▁4	-7.68912
th	-7.69072
ic	-7.69821
▁16	-7.70126
ling	-7.70204
▁j	-7.70427
▁norsk	-7.70446
▁du	-7.70632
▁si	-7.70769
dal	-7.71469
ll	-7.71966
▁kinesisk	-7.72254
▁pa	-7.72383
▁w	-7.72805
om	-7.73073
▁per	-7.73667
▁hvor	-7.74277
co	-7.74695
▁no	-7.74716
▁ni	-7.74838
▁o	-7.7559
▁ho	-7.75783
mo	-7.75913
▁ti	-7.76489
▁vi	-7.7658
si	-7.76643
▁mer	-7.76874
▁sør	-7.76983
▁år	-7.77116
▁mange	-7.77305
het	-7.7759
kk	-7.77603
va	-7.78113
▁fri	-7.78238
erte	-7.78263
mer	-7.78493
by	-7.78523
tt	-7.78853
▁ga	-7.79001
ø	-7.79007
skap	-7.79065
▁lo	-7.79409
pe	-7.79567
else	-7.79743
▁ru	-7.7985
▁byen	-7.80281
▁as	-7.80486
lu	-7.80538
▁død	-7.80965
▁senere	-7.81247
▁mens	-7.81453
berg	-7.81711
ce	-7.81916
tor	-7.82408
å	-7.82428
▁10	-7.8285
▁så	-7.82917
▁navnet	-7.83113
▁mor	-7.83654
var	-7.83681
▁før	-7.84187
▁ofte	-7.84227
vi	-7.84311
ist	-7.84429
ion	-7.84588
ko	-7.84654
je	-7.84747
▁vest	-7.8487
▁ri	-7.84922
▁su	-7.85459
gen	-7.85477
▁sitt	-7.86185
lag	-7.86771
mp	-7.87219
▁ned	-7.8733
mann	-7.87472
ment	-7.87721
▁samt	-7.88234
ly	-7.88745
▁ba	-7.89058
▁7	-7.89132
▁pro	-7.89236
▁lu	-7.89316
gi	-7.89346
bu	-7.89797
ster	-7.89936
▁pi	-7.90101
ik	-7.9037
ti	-7.90861
▁noen	-7.91039
3	-7.91106
▁finnes	-7.91591
▁store	-7.91652
▁land	-7.91899
iv	-7.92142
▁ra	-7.92836
▁være	-7.93104
▁6	-7.93139
sjon	-7.93285
vik	-7.93592
▁kalt	-7.94089
▁so	-7.94277
op	-7.94404
▁bar	-7.94425
tra	-7.94684
ir	-7.94691
▁navn	-7.95292
▁bu	-7.95327
erne	-7.95921
▁ma	-7.96075
pi	-7.96263
▁lag	-7.96265
▁går	-7.96277
vin	-7.96314
▁vil	-7.96391
per	-7.96419
▁do	-7.97164
ns	-7.9739
ang	-7.97464
ha	-7.97552
▁fly	-7.97588
▁mo	-7.98091
▁dag	-7.98175
▁øst	-7.98202
ær	-7.98884
opp	-7.99067
▁mar	-7.99112
▁kjent	-7.99116
ov	-7.99233
▁nå	-7.99291
ba	-7.99651
▁fire	-7.99782
▁skal	-7.99858
▁8	-8.00378
▁or	-8.00513
▁frem	-8.00656
▁hos	-8.00738
lin	-8.00876
▁bak	-8.01114
▁pe	-8.01439
▁ei	-8.01643
▁r	-8.0172
ok	-8.01904
go	-8.01973
▁12	-8.02181
gu	-8.02411
▁kl	-8.02649
▁0	-8.02899
un	-8.03039
▁grunn	-8.03933
ci	-8.03952
▁el	-8.04556
▁fa	-8.04696
jø	-8.04845
2	-8.04913
á	-8.05018
rett	-8.05103
▁sine	-8.05634
elle	-8.0629
▁selv	-8.06503
▁mest	-8.06601
ering	-8.06645
sel	-8.06817
pa	-8.0694
ven	-8.06961
ä	-8.07271
▁ko	-8.07429
itt	-8.07437
od	-8.07711
▁far	-8.07895
▁kirke	-8.07992
▁rundt	-8.08274
▁y	-8.08602
6	-8.08813
▁gu	-8.09129
▁ka	-8.09188
au	-8.09217
▁lang	-8.09247
ca	-8.09399
kke	-8.09508
▁9	-8.09571
▁me	-8.09686
ant	-8.09693
io	-8.09887
▁sch	-8.09914
tal	-8.1029
gg	-8.10309
ni	-8.10577
▁siden	-8.10939
▁tor	-8.11091
▁con	-8.12048
po	-8.12105
im	-8.1232
ö	-8.12502
▁bi	-8.12971
len	-8.13024
asjon	-8.1316
sh	-8.13459
▁båd	-8.13496
nd	-8.13818
gang	-8.13842
ü	-8.13845
▁største	-8.13868
▁jo	-8.13889
▁film	-8.13922
æ	-8.14164
no	-8.14226
▁po	-8.14459
▁14	-8.14862
ard	-8.14984
▁fo	-8.15098
ie	-8.15246
▁sol	-8.15251
▁ja	-8.15622
▁kalles	-8.16446
▁hel	-8.16484
art	-8.17092
▁sam	-8.17132
▁ab	-8.17148
tur	-8.17309
ag	-8.17584
ho	-8.17597
sted	-8.17787
▁11	-8.18056
▁te	-8.18218
▁am	-8.18709
ede	-8.18739
▁fram	-8.18888
ian	-8.18956
▁mars	-8.19221
ina	-8.19257
▁gjen	-8.19491
▁enn	-8.1955
do	-8.19643
▁fi	-8.20081
▁min	-8.20293
nt	-8.20329
▁gi	-8.20509
les	-8.20527
▁13	-8.20916
kker	-8.21195
år	-8.21205
▁tid	-8.21224
▁ad	-8.21354
▁mi	-8.21887
▁mål	-8.21997
▁norge	-8.22043
▁består	-8.22125
ud	-8.22305
▁va	-8.22624
▁ar	-8.22774
▁norske	-8.2299
av	-8.2307
ings	-8.23098
▁samme	-8.23208
und	-8.23438
▁san	-8.23813
hold	-8.23847
▁ol	-8.24045
men	-8.24397
5	-8.24835
▁innen	-8.25135
tter	-8.25212
▁skole	-8.26037
▁vært	-8.26068
sta	-8.26135
▁vann	-8.26367
00	-8.26381
▁vant	-8.26487
▁car	-8.27127
ber	-8.27192
▁tallet	-8.27207
vel	-8.27412
ot	-8.27476
▁sk	-8.27539
ium	-8.27938
▁musikk	-8.28095
▁hu	-8.28121
▁oslo	-8.28415
over	-8.2892
▁20	-8.28961
▁km	-8.292
▁kina	-8.29202
▁tri	-8.29242
ord	-8.29296
▁x	-8.29328
dag	-8.29335
▁skulle	-8.29641
▁når	-8.29812
▁mai	-8.29849
▁hen	-8.29866
hus	-8.29879
▁provinsen	-8.30025
▁eks	-8.30281
ak	-8.30501
▁bra	-8.30674
kel	-8.31145
sch	-8.31305
▁kunne	-8.31401
▁bare	-8.31595
▁wa	-8.32153
▁sønn	-8.32309
▁tra	-8.32504
▁vanlig	-8.32733
▁lever	-8.32846
▁all	-8.33163
▁blitt	-8.33369
▁alt	-8.33459
▁par	-8.33536
ft	-8.33561
ong	-8.3373
ingen	-8.34408
▁langs	-8.34594
▁august	-8.34618
ologi	-8.34659
▁gikk	-8.34727
▁go	-8.34771
▁tok	-8.34772
hu	-8.34933
ring	-8.3505
ó	-8.35089
▁små	-8.35243
mm	-8.35453
ou	-8.35579
ow	-8.35639
▁pinyin	-8.35734
▁kunst	-8.35824
▁ham	-8.36215
ac	-8.36785
9	-8.36809
itet	-8.36819
tak	-8.37064
▁russisk	-8.37221
tisk	-8.37228
▁hi	-8.38336
tid	-8.3847
▁slik	-8.38817
▁nye	-8.38942
ation	-8.39273
min	-8.39441
stand	-8.39478
mb	-8.39505
let	-8.39528
▁kommer	-8.39549
▁pu	-8.39586
▁juli	-8.39834
▁hele	-8.39835
stein	-8.39839
tan	-8.40024
▁laget	-8.40486
del	-8.40679
ans	-8.40785
▁tilhører	-8.40812
▁nær	-8.40888
ting	-8.40927
dan	-8.40987
▁ste	-8.41298
verk	-8.41522
▁spiller	-8.41596
▁området	-8.42124
siden	-8.42207
▁juni	-8.42257
▁pr	-8.42464
▁januar	-8.42465
▁brukes	-8.4248
8	-8.42502
▁kong	-8.42583
▁høy	-8.42708
sj	-8.42881
▁øy	-8.42903
stre	-8.42939
tre	-8.42967
▁nor	-8.43175
em	-8.43223
ius	-8.43377
ki	-8.43526
▁gift	-8.43553
fa	-8.43592
▁noe	-8.43705
▁bruk	-8.43814
▁like	-8.43945
▁ty	-8.44077
▁john	-8.44089
nder	-8.44318
ek	-8.44538
ier	-8.44659
and	-8.44767
▁val	-8.44789
▁fem	-8.44822
mar	-8.44865
fi	-8.44873
ken	-8.45163
rø	-8.45598
▁folke	-8.45627
ine	-8.45972
▁leder	-8.4615
▁sand	-8.46175
▁ak	-8.46326
▁ch	-8.4653
sten	-8.46572
ley	-8.46634
▁gruppen	-8.46734
ica	-8.46761
ningen	-8.46788
isme	-8.47209
í	-8.47254
ya	-8.47373
▁tro	-8.47514
tte	-8.47597
▁ge	-8.4763
▁new	-8.47709
▁tillegg	-8.47743
▁ki	-8.48067
▁engelsk	-8.48146
ung	-8.48333
▁bro	-8.48683
▁tv	-8.48767
mon	-8.4901
følge	-8.4927
▁fast	-8.49311
met	-8.4934
▁hus	-8.49667
idae	-8.49805
▁midt	-8.49815
▁bre	-8.49855
ku	-8.49868
▁my	-8.49967
bar	-8.50319
▁bru	-8.50404
mor	-8.50437
▁syn	-8.5052
▁egen	-8.50606
▁roman	-8.50768
▁gir	-8.50893
и	-8.51243
ph	-8.51303
▁uten	-8.51483
▁mag	-8.51483
▁wi	-8.5155
rik	-8.51598
▁kn	-8.5166
lan	-8.51747
par	-8.51876
dd	-8.52012
za	-8.52243
hi	-8.52281
▁ulike	-8.52523
▁rekke	-8.52695
▁kultur	-8.53023
▁ur	-8.53152
▁innenfor	-8.53175
▁spilte	-8.53175
▁kar	-8.53281
borg	-8.53502
▁siste	-8.53509
▁ord	-8.53555
▁rett	-8.53756
▁deres	-8.53924
▁bety	-8.54347
▁tysk	-8.54383
▁tilbake	-8.54443
▁kjente	-8.54475
heim	-8.54478
inn	-8.54588
▁ju	-8.54643
▁kun	-8.5466
▁vel	-8.5467
if	-8.54875
ill	-8.55048
▁sjø	-8.55301
slag	-8.55331
▁familien	-8.55459
vo	-8.55561
▁fjell	-8.55624
tar	-8.55694
▁må	-8.55694
ju	-8.55781
▁ku	-8.55848
▁dem	-8.55945
tiske	-8.56046
▁2010	-8.56086
ator	-8.56207
▁lå	-8.56226
▁z	-8.56318
▁berg	-8.56365
sp	-8.56507
bre	-8.56583
q	-8.56686
ug	-8.56824
▁mindre	-8.56931
▁barn	-8.56967
dy	-8.57039
▁pre	-8.57098
▁utgitt	-8.57286
kom	-8.57383
dalen	-8.57719
▁stein	-8.5775
lat	-8.57885
til	-8.58018
bel	-8.5808
▁mat	-8.58292
▁bli	-8.58608
▁språk	-8.58795
kan	-8.58832
▁desember	-8.58865
▁sto	-8.58972
▁usa	-8.592
ron	-8.59426
▁videre	-8.59453
▁nasjonal	-8.59463
he	-8.59604
▁september	-8.59717
▁landet	-8.59734
▁000	-8.59887
▁meter	-8.59928
yl	-8.59962
ap	-8.60081
▁bil	-8.60177
▁vei	-8.60636
ninger	-8.60754
▁30	-8.60936
▁pan	-8.61015
▁skrevet	-8.61026
▁skrev	-8.61276
ikk	-8.61318
tu	-8.61418
▁opprinnelig	-8.61444
ran	-8.61585
▁art	-8.61662
▁april	-8.61735
zi	-8.61776
tz	-8.61795
sson	-8.61882
sti	-8.61921
▁verdens	-8.61987
▁cha	-8.62108
▁2006	-8.62159
▁imidlertid	-8.62319
▁25	-8.62388
▁sj	-8.62417
elsen	-8.62429
▁com	-8.62544
▁hver	-8.62606
▁th	-8.62712
▁bok	-8.62964
bb	-8.63122
▁2007	-8.63207
lands	-8.63343
▁pla	-8.63394
▁eksempel	-8.63423
▁november	-8.63497
du	-8.6377
val	-8.63875
lse	-8.6406
lev	-8.64093
▁hol	-8.64286
jo	-8.64366
▁gul	-8.6461
▁hennes	-8.64788
ive	-8.65307
▁form	-8.65528
burg	-8.65614
▁fag	-8.65694
▁rom	-8.65738
▁selskapet	-8.65847
▁ski	-8.66024
▁rød	-8.66069
ham	-8.66092
▁gud	-8.66293
dre	-8.66459
▁tur	-8.66576
ige	-8.66761
▁2005	-8.6682
▁særlig	-8.66848
▁motor	-8.66933
▁on	-8.67001
▁chi	-8.67038
▁lov	-8.67137
uk	-8.67182
kon	-8.67352
ty	-8.67354
▁god	-8.67392
▁ed	-8.67589
ds	-8.67654
▁parti	-8.67791
▁tu	-8.6807
▁mon	-8.68369
▁kort	-8.68532
▁halv	-8.68566
▁von	-8.68624
folkerepublikken	-8.68665
7	-8.6867
bil	-8.6878
▁sal	-8.68857
▁bl	-8.6886
▁norges	-8.68871
▁derfor	-8.68918
▁ren	-8.69209
▁februar	-8.69291
▁omfatter	-8.69291
tro	-8.69299
kor	-8.69323
ny	-8.69334
▁sen	-8.69393
fly	-8.69506
▁sy	-8.69534
▁natur	-8.69548
▁konge	-8.69654
mål	-8.6966
▁ag	-8.69694
tall	-8.69785
▁begge	-8.69931
▁bandet	-8.69963
▁sv	-8.69989
▁op	-8.70183
▁oktober	-8.70237
log	-8.7032
▁gang	-8.70389
rå	-8.70503
tri	-8.70631
▁helt	-8.70654
▁hav	-8.70658
ich	-8.70725
tes	-8.70971
▁kor	-8.71134
▁em	-8.71138
▁we	-8.71294
▁bri	-8.7137
▁ver	-8.71558
▁vin	-8.71971
▁lys	-8.72066
▁filmen	-8.72108
▁ben	-8.72123
ab	-8.72381
▁sentral	-8.7269
▁først	-8.72719
▁mel	-8.72842
øya	-8.72874
ris	-8.73105
▁grav	-8.73236
tiden	-8.73368
van	-8.735
som	-8.73663
vei	-8.73813
▁2008	-8.7394
▁sta	-8.74017
▁gamle	-8.74117
▁je	-8.74123
▁inneholder	-8.7413
▁gjerne	-8.74204
veien	-8.74302
og	-8.74909
▁igjen	-8.74909
▁beste	-8.75005
ale	-8.75054
valg	-8.75102
bok	-8.75111
▁dr	-8.75186
▁døde	-8.75224
ks	-8.75333
▁president	-8.75354
far	-8.75408
▁brun	-8.75416
▁os	-8.75493
▁følgende	-8.75555
sto	-8.75744
▁2009	-8.75786
е	-8.75791
dyr	-8.75943
ble	-8.75999
ru	-8.76115
uten	-8.76261
▁lokal	-8.76339
▁kur	-8.76484
▁vise	-8.767
▁tar	-8.76809
gh	-8.7691
ps	-8.7696
▁datter	-8.76987
ana	-8.7714
▁deretter	-8.77182
▁stat	-8.77438
▁lands	-8.77469
mmer	-8.77471
▁dy	-8.77645
▁står	-8.77919
▁utenfor	-8.78235
▁tekst	-8.78387
▁2002	-8.78507
▁bor	-8.78734
о	-8.78771
▁kommunen	-8.78853
▁fred	-8.78905
wa	-8.7914
▁paul	-8.79261
ska	-8.79503
ach	-8.79567
chi	-8.79568
▁meg	-8.79609
inger	-8.79645
▁ingen	-8.7967
ros	-8.79791
▁stra	-8.7986
xi	-8.79886
ski	-8.79901
▁tidlig	-8.80015
▁få	-8.80033
løp	-8.80099
▁medlem	-8.80168
▁nu	-8.8019
▁ev	-8.80259
▁bruker	-8.8027
vet	-8.80405
nk	-8.80432
▁innbyggere	-8.80581
▁jord	-8.80673
▁skog	-8.80832
▁arm	-8.80899
bro	-8.8113
ini	-8.81265
▁sig	-8.81289
▁peter	-8.81332
▁ex	-8.81383
iet	-8.81473
mu	-8.81562
▁via	-8.81567
kar	-8.81648
skole	-8.81764
pre	-8.81775
▁nest	-8.82049
▁person	-8.82251
▁lav	-8.8238
▁luft	-8.82424
▁side	-8.82589
▁verk	-8.82614
▁sett	-8.82684
▁slekt	-8.82712
▁svært	-8.82715
▁sosial	-8.82843
▁startet	-8.82924
▁van	-8.82939
▁samtidig	-8.83072
figur	-8.83109
▁større	-8.83137
ji	-8.83298
▁begynte	-8.83432
nor	-8.83472
▁q	-8.83499
▁christian	-8.83516
gel	-8.83655
▁fylke	-8.83904
▁barne	-8.83987
▁bergen	-8.84047
forening	-8.84053
▁au	-8.84099
ld	-8.84147
▁2011	-8.84533
▁mu	-8.8464
anger	-8.84717
▁seks	-8.84769
▁gen	-8.84859
▁can	-8.85014
а	-8.8505
▁ke	-8.85086
tatt	-8.85095
▁fransk	-8.85098
▁dermed	-8.85307
senter	-8.85341
dig	-8.85462
▁dagen	-8.85528
ā	-8.85542
net	-8.85549
elig	-8.85847
▁hør	-8.85911
syn	-8.86039
▁dikt	-8.86208
▁bur	-8.86233
▁gull	-8.8638
50	-8.86389
▁pass	-8.8645
ice	-8.86473
▁rø	-8.86537
▁band	-8.86583
isering	-8.86636
olog	-8.86762
sky	-8.86892
▁tom	-8.86999
▁post	-8.87013
▁jan	-8.87018
▁årene	-8.87026
▁pri	-8.87096
▁keiser	-8.87122
▁gjorde	-8.87234
my	-8.87267
bruk	-8.87297
▁amerikansk	-8.87302
▁lange	-8.87465
▁mil	-8.87527
ding	-8.87662
kken	-8.87766
▁politi	-8.87899
vann	-8.87903
▁sel	-8.88012
up	-8.88042
▁fotball	-8.88139
▁basert	-8.88193
▁park	-8.88247
fjord	-8.88325
▁carl	-8.88385
est	-8.88401
ket	-8.88414
ay	-8.88499
form	-8.88565
fra	-8.88695
▁blå	-8.88946
▁don	-8.8899
▁industri	-8.89083
▁fre	-8.8911
▁you	-8.89159
ze	-8.89303
н	-8.8936
pen	-8.89432
▁svensk	-8.89478
▁gl	-8.8952
familien	-8.89527
▁fiske	-8.89588
▁litt	-8.89588
▁sommer	-8.89607
selskap	-8.89869
▁mus	-8.89953
mat	-8.90087
▁fin	-8.90165
▁omkring	-8.90165
▁klubben	-8.90329
▁mye	-8.90332
ath	-8.90337
▁spilt	-8.90438
▁liv	-8.90447
▁fer	-8.90583
▁24	-8.90677
▁albumet	-8.90693
lia	-8.90846
▁gar	-8.90929
mark	-8.91149
▁vo	-8.91149
ida	-8.91242
▁elven	-8.91256
ð	-8.91331
▁anti	-8.91374
▁plass	-8.91407
▁produsert	-8.91506
▁inkludert	-8.91723
stående	-8.91796
▁sø	-8.91857
ino	-8.92049
alt	-8.92102
asje	-8.92137
yn	-8.92199
▁radio	-8.92231
▁sh	-8.92282
▁mann	-8.92416
▁hjelp	-8.92647
▁ber	-8.92846
gre	-8.9294
▁red	-8.92956
▁gav	-8.93118
rak	-8.93125
enes	-8.93252
▁året	-8.9347
▁stil	-8.93624
▁ly	-8.93655
ving	-8.93786
hø	-8.93796
▁mont	-8.93796
▁forskjellige	-8.93801
che	-8.94122
ighet	-8.94196
system	-8.94253
▁bill	-8.94329
vær	-8.94409
satt	-8.94462
▁valg	-8.94468
ære	-8.94498
gård	-8.94505
▁nett	-8.94597
kle	-8.94613
▁ul	-8.94679
▁støtte	-8.94737
▁viser	-8.94771
▁fu	-8.94838
ari	-8.94897
pl	-8.951
▁cor	-8.95205
▁gammel	-8.95338
▁wal	-8.95558
▁øya	-8.95561
▁jeg	-8.95566
ita	-8.95629
bl	-8.95646
▁kyst	-8.95698
▁britisk	-8.95857
▁mm	-8.9586
ano	-8.9593
rom	-8.95986
gne	-8.9609
film	-8.96169
▁moh	-8.96202
øl	-8.9639
mester	-8.9661
ald	-8.96628
stan	-8.9663
ah	-8.96635
▁forfatter	-8.96805
▁får	-8.9681
eres	-8.9682
ister	-8.96885
▁ville	-8.96904
▁system	-8.96922
▁general	-8.96966
▁versjon	-8.96983
▁19	-8.97256
▁tyske	-8.97264
▁spe	-8.97322
▁sommerfugl	-8.97414
▁22	-8.97482
cu	-8.97564
føring	-8.97574
▁gresk	-8.97581
plan	-8.97757
▁delt	-8.97894
lys	-8.97938
fjorden	-8.97995
arbeid	-8.9818
fri	-8.9828
cc	-8.98476
bø	-8.98535
▁foran	-8.98538
▁dia	-8.98612
▁måtte	-8.98677
▁bal	-8.98701
banen	-8.98732
pro	-8.98733
lene	-8.98743
elser	-8.98787
▁ac	-8.988
sund	-8.98823
isert	-8.98896
▁kv	-8.99008
▁liste	-8.9913
▁arbeids	-8.99206
jer	-8.99255
▁mal	-8.99287
▁brukt	-8.99308
▁slutt	-8.99351
værende	-8.99426
▁gran	-8.99514
spill	-8.99517
р	-8.9958
hy	-8.99666
▁grad	-8.99785
skog	-8.99815
è	-8.99866
▁sangen	-8.99879
▁amerikanske	-8.99964
ip	-8.99991
▁gro	-9.00065
▁mark	-9.00076
drag	-9.00171
lek	-9.00391
▁tak	-9.00397
▁sang	-9.00478
▁dess	-9.00518
▁21	-9.00694
▁ganger	-9.00748
▁bjørn	-9.00837
▁bror	-9.00897
skip	-9.00978
▁europa	-9.00986
▁stats	-9.01002
▁såkalt	-9.01198
så	-9.01327
▁ry	-9.01348
▁kal	-9.01417
30	-9.01737
▁skuespiller	-9.01892
▁råd	-9.01931
ec	-9.0203
▁familie	-9.02057
lot	-9.02082
vil	-9.02163
▁hår	-9.02305
▁plan	-9.02326
▁2004	-9.02525
▁karl	-9.02547
dra	-9.02581
▁lett	-9.02635
▁ledet	-9.02812
▁sverige	-9.02939
▁west	-9.02966
dde	-9.03022
▁antall	-9.03042
tic	-9.03068
ide	-9.03113
bin	-9.0313
▁28	-9.03144
dom	-9.03175
▁skr	-9.03225
▁liten	-9.03244
▁para	-9.03245
är	-9.03312
▁za	-9.03606
ller	-9.03618
que	-9.03628
▁eu	-9.03701
landet	-9.03752
▁lei	-9.03804
▁erik	-9.03834
▁fleste	-9.03869
hr	-9.04003
▁ø	-9.04101
mal	-9.04103
grense	-9.04116
▁organ	-9.04151
▁ci	-9.04212
lighet	-9.04251
▁hal	-9.04271
▁af	-9.04302
vern	-9.0431
laget	-9.04838
kra	-9.05031
▁russland	-9.05161
▁mc	-9.05178
folk	-9.05212
▁sted	-9.05314
▁dis	-9.05325
gar	-9.05379
▁slag	-9.05612
elt	-9.05629
ther	-9.05652
▁dann	-9.05664
▁hy	-9.05712
▁gra	-9.05747
tin	-9.05904
▁mos	-9.05944
▁2000	-9.06122
han	-9.06142
bygd	-9.0619
▁thor	-9.06285
▁arbeider	-9.06329
▁fe	-9.06515
▁tal	-9.06517
ú	-9.06518
▁herre	-9.06535
▁trans	-9.06662
▁br	-9.06666
20	-9.06669
▁tiden	-9.06769
don	-9.06784
▁spor	-9.06914
rat	-9.0695
▁historie	-9.07032
▁skolen	-9.07039
tale	-9.07083
fon	-9.07091
▁minne	-9.07099
legg	-9.07197
▁sc	-9.07283
▁sm	-9.07407
▁spesielt	-9.07433
pu	-9.07471
▁farge	-9.07495
istisk	-9.0752
leder	-9.0786
stu	-9.07897
▁fylkesvei	-9.07912
mannen	-9.07961
▁serien	-9.08093
▁lars	-9.08112
we	-9.08185
sjef	-9.08187
▁tru	-9.08229
▁bø	-9.08231
▁full	-9.08287
▁styre	-9.08326
pris	-9.08384
rud	-9.08451
▁ser	-9.08743
inne	-9.08801
▁robert	-9.08887
▁jon	-9.08935
ativ	-9.08993
iz	-9.09081
▁bygget	-9.09116
▁arkitekt	-9.09161
▁kje	-9.09166
stra	-9.09173
sjøen	-9.0934
▁23	-9.09494
skje	-9.09565
gan	-9.09589
pol	-9.09727
styre	-9.09732
ssen	-9.09793
sett	-9.0982
▁100	-9.10018
▁ban	-9.10043
▁utviklet	-9.10154
▁hall	-9.10397
old	-9.10411
▁mac	-9.10428
ves	-9.10495
▁mod	-9.10568
▁gjør	-9.10613
▁gre	-9.10618
▁ring	-9.107
▁dom	-9.10716
▁xi	-9.10948
spiller	-9.10986
ola	-9.11019
råd	-9.11091
▁annen	-9.1132
▁følger	-9.11329
press	-9.114
▁olav	-9.11425
▁lin	-9.11433
▁rev	-9.11434
▁hor	-9.11634
▁lege	-9.11674
▁plante	-9.11839
ferd	-9.11852
vig	-9.11866
▁pal	-9.11908
stat	-9.11957
fall	-9.12049
lagt	-9.1206
▁kvinne	-9.12147
minister	-9.12227
huset	-9.12321
▁arbeidet	-9.12346
▁sl	-9.12459
▁nytt	-9.12459
▁eier	-9.12557
kal	-9.12575
ū	-9.12623
▁dra	-9.12698
▁fant	-9.12717
▁qu	-9.12718
res	-9.12819
▁start	-9.12878
▁data	-9.12964
tegn	-9.12974
skrift	-9.13111
án	-9.13194
▁hatt	-9.13269
▁topp	-9.13297
▁hvert	-9.13357
way	-9.1342
▁hvit	-9.13539
▁offentlig	-9.13597
▁27	-9.13727
mus	-9.13741
bane	-9.13914
▁sub	-9.13932
▁kinas	-9.13945
▁rock	-9.14017
▁vol	-9.14022
▁tele	-9.14108
kul	-9.14134
▁utvikling	-9.14143
▁31	-9.14157
▁port	-9.14181
dømme	-9.14391
rin	-9.14422
su	-9.14505
jel	-9.14512
▁tredje	-9.14549
▁krigs	-9.14583
liggende	-9.14691
▁grå	-9.14692
▁inter	-9.14782
▁felles	-9.14837
lle	-9.14861
age	-9.14917
▁militær	-9.15003
ani	-9.1501
▁william	-9.15075
▁standard	-9.15076
▁sha	-9.15094
navn	-9.15102
▁kron	-9.15106
rus	-9.15132
▁bank	-9.15169
▁mis	-9.15188
▁stort	-9.15229
▁egne	-9.15234
▁vinter	-9.15305
▁riks	-9.15359
har	-9.15499
▁orden	-9.1555
▁2001	-9.15609
▁johan	-9.15687
▁menneske	-9.15825
▁fil	-9.15928
▁sil	-9.16227
▁sag	-9.16265
▁fla	-9.1629
▁heter	-9.16336
▁båt	-9.16377
▁plate	-9.16437
navnet	-9.16457
lett	-9.16474
▁angrep	-9.16539
ms	-9.16595
▁2003	-9.16597
ix	-9.16652
▁india	-9.16676
kje	-9.16706
all	-9.16887
lå	-9.16955
▁stre	-9.17041
område	-9.17097
▁viktigste	-9.17142
ford	-9.17184
▁tradisjonell	-9.17184
ksjon	-9.17257
▁svart	-9.1726
▁ap	-9.17351
▁ph	-9.17362
▁deler	-9.17387
stilling	-9.1766
gruppen	-9.17689
ott	-9.17723
▁regi	-9.17782
heten	-9.17803
▁eneste	-9.17849
att	-9.17995
▁venn	-9.17997
л	-9.18079
lie	-9.18095
▁representert	-9.18097
ika	-9.18158
▁sky	-9.18235
plass	-9.18251
elva	-9.18336
båt	-9.18378
▁time	-9.18428
▁hjem	-9.18486
▁kunstner	-9.18487
tus	-9.18521
▁kirken	-9.18524
▁mari	-9.1859
▁martin	-9.18677
tikk	-9.18725
▁stu	-9.18751
▁arter	-9.18802
drift	-9.18821
menn	-9.18844
▁utgjør	-9.18844
området	-9.18949
kh	-9.1896
▁viktig	-9.1896
iti	-9.18974
▁samarbeid	-9.18998
α	-9.19126
vid	-9.19359
hl	-9.19403
▁tildelt	-9.19424
▁moderne	-9.19566
▁millioner	-9.19571
▁40	-9.19649
▁dan	-9.19655
▁maria	-9.19657
▁flagg	-9.19674
▁bygge	-9.19972
driv	-9.19989
ata	-9.20082
▁forhold	-9.20157
▁italiensk	-9.20164
kjær	-9.20173
▁latin	-9.20275
imot	-9.20318
ction	-9.20369
▁mulig	-9.20472
▁fortsatt	-9.20494
formet	-9.20627
▁bort	-9.20767
▁bilde	-9.20927
▁distrikt	-9.20975
▁ras	-9.21065
samling	-9.21088
sal	-9.21132
▁stedet	-9.21521
▁prest	-9.21565
king	-9.21569
klubb	-9.21671
▁len	-9.21694
messig	-9.21751
▁syd	-9.21753
▁venstre	-9.21763
▁deltok	-9.21835
byen	-9.21976
ai	-9.22
▁handels	-9.22061
oc	-9.22096
▁staten	-9.22099
▁lille	-9.22194
ansk	-9.22236
▁sak	-9.22383
setning	-9.22441
tru	-9.22445
▁col	-9.22504
▁teater	-9.22537
▁kongen	-9.22587
gl	-9.22593
▁tyskland	-9.22696
kast	-9.22726
▁lind	-9.2275
▁grunnlagt	-9.22854
red	-9.22918
grad	-9.2297
fest	-9.2313
oli	-9.23238
medalje	-9.23263
hall	-9.23309
▁london	-9.23349
▁energi	-9.23364
▁shi	-9.2338
▁gate	-9.2359
itz	-9.23643
pel	-9.2365
▁26	-9.23706
selskapet	-9.2372
ød	-9.23737
▁lik	-9.23851
▁inkluderer	-9.23888
▁lite	-9.23946
aks	-9.23966
▁hånd	-9.24132
▁opprettet	-9.24205
▁egg	-9.24247
▁lyd	-9.24303
▁bred	-9.24346
▁studie	-9.24382
▁enkelte	-9.24398
▁ordet	-9.24435
▁hovedsakelig	-9.24437
▁internasjonale	-9.24449
ider	-9.24451
ij	-9.24471
▁helse	-9.2454
aktig	-9.24599
▁kraft	-9.24613
▁pol	-9.24649
▁stjerne	-9.24672
▁vind	-9.24731
kamp	-9.2474
▁blod	-9.24753
fer	-9.2478
ved	-9.24781
▁selskap	-9.24819
▁skrift	-9.24888
▁serie	-9.2492
▁riksvei	-9.25018
▁grønn	-9.25027
▁blad	-9.25053
▁50	-9.25072
hal	-9.25194
▁gitt	-9.25309
fag	-9.25434
▁student	-9.25532
▁pris	-9.25642
60	-9.25724
▁spesial	-9.25755
tion	-9.25825
gitt	-9.2588
▁utgav	-9.25928
▁skjer	-9.25955
ob	-9.25984
▁sir	-9.26132
stol	-9.26161
▁war	-9.26193
▁david	-9.262
▁godt	-9.26208
ara	-9.26234
bas	-9.26307
las	-9.26309
▁mur	-9.26329
lis	-9.26369
▁stasjon	-9.26395
fo	-9.26405
▁un	-9.26539
områder	-9.2656
departementet	-9.26636
▁folketelling	-9.26636
▁eid	-9.26657
▁pat	-9.26672
▁flo	-9.26678
▁partiet	-9.26698
▁én	-9.26867
▁gruppe	-9.26903
sette	-9.26949
▁løv	-9.26995
▁sentrum	-9.27074
bjørn	-9.271
▁best	-9.27132
▁direkte	-9.27194
▁thomas	-9.27194
▁oppkalt	-9.27198
▁hard	-9.27338
▁die	-9.27472
80	-9.27532
▁wo	-9.27546
▁perioden	-9.27583
▁arbeid	-9.27587
▁ji	-9.27632
dels	-9.27716
▁not	-9.27733
▁vår	-9.27763
▁1999	-9.27765
▁regionen	-9.27837
▁medlemmer	-9.27864
tyr	-9.279
▁vik	-9.27956
bra	-9.27963
▁finsk	-9.2813
▁rolle	-9.28172
▁hvis	-9.28236
produksjon	-9.2824
▁delstaten	-9.28314
bud	-9.28359
▁nø	-9.28374
ater	-9.28444
retning	-9.28494
cy	-9.2857
stasjon	-9.28573
▁cla	-9.28649
▁elev	-9.28672
fl	-9.28756
punkt	-9.28776
86	-9.28781
mand	-9.28792
▁ten	-9.28799
istiske	-9.28813
▁blo	-9.2884
▁finner	-9.28857
stil	-9.29019
▁hjemme	-9.29079
▁dyr	-9.29082
get	-9.29179
▁sanger	-9.29185
førte	-9.29204
dring	-9.29209
tel	-9.29333
▁sul	-9.29385
▁bern	-9.29443
š	-9.29461
stilt	-9.2947
▁våpen	-9.29486
gren	-9.29513
▁cap	-9.29651
▁svenske	-9.29652
▁verden	-9.29695
kraft	-9.29889
wi	-9.29954
▁album	-9.29974
▁ør	-9.3004
elli	-9.30055
az	-9.30087
▁mad	-9.30128
▁bla	-9.30143
▁ind	-9.30148
senteret	-9.30156
stå	-9.30255
65	-9.30508
▁ek	-9.30518
▁betydning	-9.3062
bus	-9.30626
▁cu	-9.30656
▁ob	-9.30663
▁strøm	-9.30667
▁fv	-9.30676
last	-9.30737
side	-9.30807
▁flytte	-9.3084
zo	-9.3096
sak	-9.31027
▁vekt	-9.31082
dige	-9.31094
▁gansk	-9.31149
▁elva	-9.31192
▁1989	-9.31195
▁ce	-9.31223
deling	-9.31228
rop	-9.31332
▁overtok	-9.31336
78	-9.31352
handler	-9.31362
▁tjeneste	-9.31535
▁zh	-9.31545
▁veg	-9.316
▁kontroll	-9.316
mel	-9.31692
▁gal	-9.31722
jen	-9.31787
ban	-9.31823
▁forbindelse	-9.31842
▁rot	-9.31849
▁pave	-9.31916
anlegg	-9.31919
lik	-9.32023
anske	-9.32048
▁design	-9.32072
▁flat	-9.32074
med	-9.32084
▁george	-9.32136
lsen	-9.32181
▁politiker	-9.32183
▁slekten	-9.32295
▁ska	-9.3235
fisk	-9.32392
asjonen	-9.3241
▁åtte	-9.3244
▁universitet	-9.32469
▁enkelt	-9.32472
▁nok	-9.32503
rød	-9.32518
ance	-9.32628
▁ter	-9.32634
▁åpnet	-9.32701
abel	-9.32725
port	-9.32752
lov	-9.32799
▁dal	-9.32832
▁jernbane	-9.32895
▁tittelen	-9.3291
▁she	-9.32921
▁vis	-9.3294
organisasjon	-9.32978
▁ett	-9.3304
modell	-9.3306
kin	-9.33132
tør	-9.3328
rum	-9.33289
▁drift	-9.33298
▁bas	-9.33368
bor	-9.33387
▁29	-9.33417
▁gri	-9.33497
virke	-9.33519
▁aktiv	-9.33532
jev	-9.33564
▁studert	-9.3357
▁eget	-9.33586
▁myr	-9.3362
mun	-9.33734
▁lær	-9.33923
▁ram	-9.33931
▁trykk	-9.34009
▁kors	-9.34102
▁berlin	-9.34135
▁air	-9.34167
ов	-9.34215
▁finans	-9.3434
ori	-9.3442
▁reise	-9.3449
à	-9.34496
▁son	-9.34504
ish	-9.34643
bert	-9.3467
▁kir	-9.34702
д	-9.34756
▁kap	-9.34786
▁regnes	-9.34806
brudd	-9.34811
▁høyre	-9.34885
forsker	-9.34904
▁dø	-9.34989
▁olje	-9.35021
søk	-9.35036
lær	-9.35054
▁hed	-9.35061
▁johannes	-9.35112
▁les	-9.35194
qui	-9.35197
stykke	-9.35326
▁international	-9.35362
▁mottok	-9.35461
▁viktige	-9.35549
▁uni	-9.35554
▁cent	-9.3563
hel	-9.35668
tta	-9.35816
parti	-9.35876
systemet	-9.35896
tok	-9.35914
▁1991	-9.35972
▁1990	-9.35981
nivå	-9.36099
sberg	-9.361
▁års	-9.36101
dals	-9.36137
▁museum	-9.36147
zhou	-9.36186
▁makt	-9.36276
ische	-9.36343
▁satt	-9.36455
▁bad	-9.36468
havet	-9.36578
▁super	-9.3658
▁knytte	-9.36614
▁kul	-9.36667
grunn	-9.36696
▁etablert	-9.36798
ella	-9.36978
▁bør	-9.37002
▁verdi	-9.37033
▁fremst	-9.37057
▁langt	-9.37156
▁skje	-9.37157
▁georg	-9.37178
▁kol	-9.37188
▁omtrent	-9.37203
arm	-9.37359
fin	-9.37389
midler	-9.37466
alis	-9.3749
vogn	-9.37534
ffer	-9.37623
led	-9.37632
▁produksjon	-9.3764
ire	-9.37749
▁gla	-9.37779
▁høyeste	-9.37839
▁miljø	-9.37855
iserte	-9.37862
bri	-9.37867
▁hest	-9.37917
▁besøk	-9.37988
bilde	-9.3801
musikk	-9.38037
ismen	-9.38099
85	-9.38259
▁biskop	-9.38315
▁minst	-9.38358
▁eldste	-9.3845
▁pl	-9.38465
36	-9.38504
▁tett	-9.38543
erende	-9.38555
▁sterkt	-9.38678
▁fall	-9.38753
▁ole	-9.38829
gal	-9.38841
▁nærings	-9.38848
▁jean	-9.38852
loven	-9.38903
▁svarte	-9.38932
▁fro	-9.38979
▁opera	-9.39131
snitt	-9.39212
asjoner	-9.39227
▁linje	-9.39278
lund	-9.39336
bær	-9.39376
fabrikk	-9.39412
▁grev	-9.39474
▁hell	-9.39587
ör	-9.39937
▁munn	-9.39971
▁ve	-9.40088
linje	-9.40168
▁dannet	-9.40206
у	-9.40348
70	-9.40469
▁180	-9.40497
skapet	-9.40506
bygging	-9.40516
▁årlig	-9.40529
95	-9.40534
leg	-9.40545
våg	-9.40546
10	-9.40627
cia	-9.40825
▁litteratur	-9.40913
vinger	-9.40931
▁regn	-9.40945
kov	-9.4107
▁ferdig	-9.41167
▁smal	-9.41211
▁tall	-9.4126
▁fle	-9.4126
▁høyde	-9.41335
40	-9.41358
87	-9.41465
▁jern	-9.41516
▁odd	-9.41518
løse	-9.41577
▁mak	-9.4158
▁indre	-9.41582
▁internasjonal	-9.41613
▁informasjon	-9.4167
▁korte	-9.41701
▁søster	-9.41709
▁eli	-9.41714
bygning	-9.41752
▁finn	-9.41855
grav	-9.41873
▁økonomisk	-9.41913
rør	-9.41978
▁gård	-9.41989
▁nils	-9.41992
▁80	-9.42016
ktig	-9.42032
▁win	-9.42121
▁funksjon	-9.42157
gon	-9.42212
low	-9.42226
her	-9.42245
▁artist	-9.42246
▁richard	-9.42283
▁betydelig	-9.42287
▁fjern	-9.42291
▁danmark	-9.42303
▁eldre	-9.42362
▁dre	-9.42465
▁transport	-9.4247
of	-9.42591
dor	-9.42601
lar	-9.42627
▁produkt	-9.4264
▁avdeling	-9.42687
▁kamp	-9.42708
fører	-9.42769
pan	-9.4282
▁brann	-9.42872
▁national	-9.42937
▁trondheim	-9.42945
▁nordøst	-9.42985
qu	-9.43101
▁nan	-9.43111
året	-9.43131
samisk	-9.43139
▁program	-9.43256
din	-9.43265
▁borg	-9.43364
▁sogn	-9.43422
gata	-9.4348
voll	-9.43515
т	-9.43549
▁spansk	-9.43578
▁1993	-9.43604
stro	-9.43656
▁solgt	-9.43669
▁sten	-9.43682
68	-9.43683
felt	-9.43698
verket	-9.4371
▁sur	-9.43714
isten	-9.43753
▁slike	-9.43815
ī	-9.4384
▁lek	-9.43843
samfunn	-9.43849
▁danske	-9.4388
kant	-9.43952
67	-9.43961
liv	-9.43973
uc	-9.43979
▁kat	-9.44086
37	-9.44165
▁veien	-9.44213
▁kilometer	-9.44257
▁louis	-9.44258
▁1998	-9.44268
▁oppført	-9.4428
alder	-9.44406
▁uttrykk	-9.44474
▁dansk	-9.44526
bare	-9.44701
ala	-9.44733
47	-9.44782
▁xiàn	-9.44928
▁operatør	-9.44934
ås	-9.44936
▁2012	-9.44948
ira	-9.45018
▁kjøpt	-9.45029
▁ok	-9.45039
▁ana	-9.45101
lang	-9.45103
ato	-9.45148
trekning	-9.4518
▁gass	-9.45192
graf	-9.45311
bru	-9.45401
▁hovedstad	-9.45508
lei	-9.45571
▁james	-9.45607
▁egentlig	-9.45621
▁jens	-9.45819
▁brukte	-9.45863
▁høsten	-9.45872
gy	-9.45875
nik	-9.45883
rike	-9.45955
forbund	-9.46074
▁tegn	-9.46096
▁tids	-9.46118
vir	-9.46158
▁tilby	-9.4616
▁hud	-9.46166
39	-9.46191
▁representere	-9.4627
▁michael	-9.4627
▁2013	-9.46285
▁kristian	-9.46294
▁italia	-9.46302
▁knut	-9.46403
▁ang	-9.46406
jiang	-9.46426
▁cas	-9.46579
38	-9.46655
▁grenser	-9.46716
ming	-9.46723
▁cal	-9.46763
ula	-9.46796
arter	-9.46816
▁nummer	-9.46851
▁personer	-9.46886
▁1992	-9.46951
▁1994	-9.46951
▁resultat	-9.46952
▁1997	-9.46961
▁1996	-9.46961
▁england	-9.46985
▁het	-9.47015
▁salt	-9.47037
▁type	-9.4709
vent	-9.47136
hav	-9.47165
skudd	-9.47256
▁mid	-9.47287
trykk	-9.47291
strøm	-9.47333
▁bedre	-9.47348
76	-9.4739
62	-9.47412
ón	-9.47552
▁poly	-9.4759
nis	-9.47616
▁sølv	-9.47631
▁frankrike	-9.47644
▁1988	-9.47647
▁driver	-9.47695
▁økt	-9.47767
renner	-9.47775
bank	-9.47867
▁varme	-9.47927
▁samle	-9.47947
▁larvene	-9.47978
▁gje	-9.48033
▁just	-9.4805
▁tap	-9.48108
▁leg	-9.48156
ål	-9.48157
▁middelsstor	-9.48325
▁york	-9.4833
▁bon	-9.48399
▁idretts	-9.48487
▁konsert	-9.48525
ade	-9.48543
▁pen	-9.48554
▁fest	-9.48577
nett	-9.48711
ight	-9.48722
ille	-9.48856
▁gitar	-9.48858
▁anne	-9.49033
▁arne	-9.491
▁middel	-9.4911
▁fl	-9.49111
▁black	-9.49121
sikt	-9.49166
▁rh	-9.49183
▁fal	-9.49252
ringen	-9.49261
▁cro	-9.49296
▁inntil	-9.49352
▁fåt	-9.49359
ografi	-9.49395
ity	-9.49434
▁hvite	-9.49446
▁frank	-9.4946
eier	-9.49482
▁rund	-9.49501
▁adel	-9.4957
nom	-9.49628
▁bygd	-9.49692
▁1980	-9.49735
▁region	-9.49744
mund	-9.49881
ringer	-9.50038
▁henrik	-9.50112
ky	-9.50138
▁ledd	-9.50156
▁samling	-9.50225
sjoner	-9.50304
▁møtte	-9.50449
▁sendt	-9.50525
zz	-9.50584
org	-9.50603
▁ger	-9.50609
▁elv	-9.5066
▁slo	-9.50726
▁mørke	-9.5075
▁anders	-9.50753
▁gren	-9.50762
▁daglig	-9.50762
gjorde	-9.50861
▁møte	-9.50917
▁stiftet	-9.51093
høy	-9.51095
▁60	-9.51102
▁kjøre	-9.51114
▁grense	-9.51116
▁kroppen	-9.51139
▁1970	-9.51147
▁och	-9.51209
ial	-9.51409
▁ya	-9.51433
ias	-9.51481
▁distriktet	-9.51484
▁ordenen	-9.51556
merket	-9.51577
66	-9.51584
▁besto	-9.51589
▁yu	-9.51602
▁tung	-9.51609
▁tank	-9.51657
▁hå	-9.51727
mper	-9.51826
▁byprefektur	-9.51847
▁1984	-9.51859
▁hjerte	-9.51885
▁mol	-9.51887
▁vir	-9.5191
▁natt	-9.52007
▁skips	-9.52047
organ	-9.52072
satte	-9.52214
▁folk	-9.52219
▁ep	-9.52235
ney	-9.52263
fang	-9.52332
▁sesongen	-9.5237
iner	-9.52384
▁anna	-9.5252
løst	-9.5256
▁1960	-9.52583
▁klar	-9.52627
▁likevel	-9.52642
▁populær	-9.52643
▁problem	-9.52692
▁metall	-9.52713
▁holdt	-9.52755
▁und	-9.52815
jan	-9.5284
▁dar	-9.52845
▁arten	-9.5285
ora	-9.52914
på	-9.52916
▁japan	-9.52933
▁japansk	-9.52963
▁finland	-9.53052
▁kil	-9.53129
▁utstyr	-9.53271
▁offisiell	-9.53279
▁university	-9.53297
▁nordvest	-9.53299
▁strand	-9.53314
▁ze	-9.53342
48	-9.53418
44	-9.5343
ild	-9.53448
hund	-9.53502
gard	-9.53552
▁franske	-9.53692
dt	-9.53708
korps	-9.53722
▁sund	-9.53875
krets	-9.53884
▁enhet	-9.53935
▁stemme	-9.53984
м	-9.54006
nu	-9.54048
▁tilsvarende	-9.5405
▁sykdom	-9.54084
▁sau	-9.54162
ben	-9.54179
42	-9.54224
▁char	-9.54256
metode	-9.54272
▁boken	-9.54316
rev	-9.5446
58	-9.54502
bladet	-9.54548
bakken	-9.54598
industri	-9.54614
▁syv	-9.54767
▁1995	-9.54771
tun	-9.54775
dro	-9.54779
gruppe	-9.54812
▁lokale	-9.54941
one	-9.55018
▁steder	-9.55099
well	-9.5518
kro	-9.55181
dø	-9.5524
▁tang	-9.55247
▁est	-9.55382
ges	-9.55391
verdi	-9.55417
▁frukt	-9.55441
▁kraftverk	-9.55482
▁komponist	-9.55497
▁turn	-9.55501
в	-9.55513
▁statsminister	-9.55517
gående	-9.55568
ordenen	-9.55571
ér	-9.55578
field	-9.55603
▁spar	-9.55657
blad	-9.55747
▁bry	-9.55811
▁regjeringen	-9.55895
▁ungdoms	-9.56025
kjønn	-9.56132
▁stan	-9.56139
▁bel	-9.56179
▁bolig	-9.56206
belteasteroide	-9.56243
▁world	-9.56243
63	-9.56249
▁typisk	-9.5625
▁thi	-9.56318
▁styrke	-9.56345
ual	-9.56347
band	-9.56396
ins	-9.56443
▁arabisk	-9.56501
▁old	-9.56519
▁bygde	-9.56569
hard	-9.56601
98	-9.56602
▁bit	-9.56608
vare	-9.56627
styrt	-9.56643
tis	-9.56729
▁seil	-9.5675
aksjon	-9.56827
ras	-9.56897
▁hva	-9.56983
▁ball	-9.56997
▁hevde	-9.57024
kop	-9.57038
hand	-9.57065
▁ref	-9.57085
▁johann	-9.5709
▁real	-9.57104
▁bind	-9.57108
▁res	-9.57256
▁paris	-9.57293
ence	-9.57436
▁christ	-9.57441
88	-9.57501
▁virke	-9.57522
▁app	-9.57537
prosess	-9.57561
▁aust	-9.57607
feltet	-9.57615
▁skade	-9.57615
▁neste	-9.57669
kur	-9.57708
▁landsbyen	-9.57719
blom	-9.57727
▁tema	-9.57738
▁innbyggertall	-9.57752
teknikk	-9.57762
▁island	-9.57764
ão	-9.57808
stoff	-9.57861
▁slott	-9.57876
▁koll	-9.5789
gården	-9.57894
▁lø	-9.57917
▁universitetet	-9.57988
▁mik	-9.58031
▁rike	-9.58111
skolen	-9.58272
▁harald	-9.58362
manns	-9.58378
trekk	-9.58395
▁hit	-9.58426
ρ	-9.58516
▁1987	-9.58531
▁temp	-9.58553
▁vit	-9.58585
▁variant	-9.58596
▁administrasjons	-9.58624
▁gården	-9.58667
▁ære	-9.58746
▁regel	-9.58781
▁rein	-9.58823
▁sentrale	-9.58837
wan	-9.58856
▁pin	-9.58877
fjell	-9.59
▁sommeren	-9.59007
shire	-9.59041
84	-9.59045
▁mø	-9.59076
cha	-9.59089
▁hei	-9.59219
▁foss	-9.59239
▁2014	-9.59305
▁romersk	-9.59363
▁mas	-9.5941
gor	-9.59484
▁direktør	-9.5951
gul	-9.59606
bein	-9.5965
vatnet	-9.59671
▁holder	-9.59691
sport	-9.59832
▁måned	-9.59864
▁ran	-9.59868
57	-9.59932
the	-9.60015
▁suksess	-9.60061
▁øverst	-9.60062
▁hovedrollen	-9.60064
▁prosent	-9.60066
fart	-9.60126
▁søk	-9.6018
52	-9.60193
jar	-9.60211
ppen	-9.60278
▁forsknings	-9.60287
▁edderkopp	-9.60297
haug	-9.60347
hjul	-9.60365
▁fører	-9.60553
▁sw	-9.60617
▁frø	-9.60624
klar	-9.60653
kos	-9.60654
▁zo	-9.60683
▁ven	-9.60693
12	-9.60754
▁stav	-9.60797
ì	-9.60841
▁dronning	-9.60845
ite	-9.60884
▁franc	-9.60928
▁alltid	-9.6093
▁kull	-9.60938
▁ann	-9.60941
▁representant	-9.60957
plasser	-9.61075
trær	-9.61081
79	-9.61091
historisk	-9.61091
▁lengde	-9.61118
▁områder	-9.61141
▁will	-9.61222
klo	-9.61277
▁ledelse	-9.61297
99	-9.61347
▁sim	-9.61361
▁spille	-9.61363
redning	-9.61397
▁politisk	-9.61456
▁star	-9.61542
▁sli	-9.61555
kka	-9.61568
▁redaktør	-9.61573
96	-9.61595
▁eksempler	-9.61629
б	-9.61629
▁relativ	-9.61629
middel	-9.61655
▁bygg	-9.61737
▁måte	-9.61749
▁pot	-9.61765
▁unge	-9.61773
▁klasse	-9.61779
▁skip	-9.6179
▁fortsatte	-9.61957
▁løper	-9.61964
levende	-9.62048
plo	-9.62092
▁us	-9.62135
с	-9.62143
▁spiss	-9.62187
▁borger	-9.62215
▁gy	-9.62239
▁gor	-9.62326
▁vokste	-9.62429
▁felt	-9.62433
▁stavanger	-9.62438
▁200	-9.62494
gaard	-9.62506
delen	-9.62524
riket	-9.62559
mod	-9.6258
standen	-9.62613
▁jesu	-9.62629
▁forsøk	-9.62722
skilt	-9.62775
plassen	-9.62784
gra	-9.62819
▁kost	-9.62868
▁bass	-9.62889
skij	-9.62914
heng	-9.6295
▁krig	-9.62959
syre	-9.6299
▁sti	-9.63036
ova	-9.63058
▁skrive	-9.63079
elige	-9.63125
▁original	-9.63219
▁kategori	-9.63223
▁allerede	-9.63232
▁1986	-9.63241
▁gall	-9.63254
sang	-9.63278
▁grand	-9.63313
▁nes	-9.63363
▁festival	-9.6339
▁indisk	-9.63484
▁maskin	-9.63503
▁glo	-9.6355
▁vid	-9.63557
kammer	-9.63607
▁mennesker	-9.63632
▁privat	-9.6374
spor	-9.63826
▁totalt	-9.63844
pass	-9.63888
▁por	-9.63922
▁klima	-9.63964
ι	-9.64029
▁norrøn	-9.64033
▁interesse	-9.64127
25	-9.64127
▁sports	-9.64154
▁70	-9.6416
▁marie	-9.6418
kirke	-9.64348
▁ark	-9.64357
▁170	-9.64363
mit	-9.64365
rådet	-9.64367
vers	-9.64386
rio	-9.6443
▁ansvar	-9.64476
▁holm	-9.64519
▁kh	-9.64604
▁kart	-9.64703
▁mun	-9.64759
▁motstand	-9.64779
▁engelske	-9.64842
▁lufthavn	-9.64854
▁dyp	-9.6494
æl	-9.64991
språk	-9.65042
▁høyt	-9.65044
▁produsent	-9.65091
▁sla	-9.65157
▁kam	-9.65209
gt	-9.65234
▁laur	-9.65283
▁mørk	-9.65314
▁bøker	-9.6537
oni	-9.65383
▁gru	-9.65417
områdene	-9.65457
stikk	-9.65548
▁ken	-9.65594
farge	-9.65604
▁epi	-9.65642
й	-9.65662
́	-9.65662
▁øvre	-9.65662
▁1975	-9.65673
▁stift	-9.6573
▁sivil	-9.65761
▁bio	-9.65774
▁city	-9.65792
▁skapt	-9.65833
▁sko	-9.65842
▁arn	-9.65898
к	-9.65913
▁turist	-9.66154
ada	-9.66158
tøy	-9.66192
vit	-9.66292
▁politiske	-9.66354
full	-9.66361
▁1982	-9.66488
institusjon	-9.66488
▁1981	-9.66488
▁1983	-9.66488
▁klassisk	-9.66489
etter	-9.66503
▁stammer	-9.6656
▁gjort	-9.66561
lon	-9.66573
▁tj	-9.6661
ugh	-9.66613
illa	-9.66628
▁operasjon	-9.66628
▁lund	-9.66638
ledning	-9.6667
▁opprør	-9.66688
vold	-9.66736
sign	-9.66751
▁kampen	-9.66922
▁effekt	-9.6694
▁nar	-9.67005
▁henne	-9.67027
▁befolkningen	-9.67058
▁krigen	-9.67129
sol	-9.67196
▁erstattet	-9.67265
▁kommunene	-9.67306
▁stockholm	-9.67321
▁katolsk	-9.67322
▁kvinner	-9.67328
▁charles	-9.6736
▁havn	-9.67398
▁sjef	-9.67413
▁kreve	-9.67431
▁hovedstaden	-9.67614
nummer	-9.67617
▁høyere	-9.67703
▁helge	-9.67768
cul	-9.67785
▁pop	-9.67813
▁nabo	-9.67874
▁gram	-9.67883
▁virksomhet	-9.67982
ledd	-9.68004
bærer	-9.68052
øyene	-9.68159
▁skatte	-9.68161
▁fjerde	-9.68162
▁fredrik	-9.68163
▁sørvest	-9.68165
▁gun	-9.68242
▁punkt	-9.68271
▁fjorden	-9.68304
virksomhet	-9.68341
▁union	-9.68408
kirken	-9.68413
teori	-9.68431
eiendom	-9.68493
klasse	-9.68494
linjen	-9.68575
mid	-9.68583
▁cre	-9.68598
øst	-9.68647
finn	-9.68737
▁trekk	-9.68779
16	-9.68804
handel	-9.68844
▁hopp	-9.68865
▁fulgte	-9.68914
▁rad	-9.68931
▁nasjonale	-9.6894
▁utdanning	-9.68951
▁iii	-9.68976
▁innehold	-9.68986
▁horn	-9.68999
▁øvrig	-9.69009
▁publisert	-9.69009
▁2015	-9.69037
▁jazz	-9.69045
▁organisasjon	-9.69063
▁cm	-9.6909
▁leir	-9.69138
▁albert	-9.69149
▁manus	-9.69273
▁king	-9.6928
▁tradisjon	-9.69289
shi	-9.69293
▁trolig	-9.69329
▁kanal	-9.69337
brun	-9.69347
fugl	-9.69353
▁løs	-9.69365
tti	-9.69395
▁che	-9.69437
▁krist	-9.69485
▁betegne	-9.69508
▁retts	-9.69513
73	-9.69526
▁symbol	-9.6957
mil	-9.69627
▁stod	-9.69639
▁aktivitet	-9.69818
ν	-9.69864
▁betegnelsen	-9.69899
▁forsvars	-9.69985
▁sku	-9.69999
rapport	-9.70023
▁hul	-9.70063
▁musiker	-9.70079
▁stille	-9.7009
kommune	-9.70122
▁marc	-9.70185
▁tatt	-9.70189
▁gjøre	-9.70236
ith	-9.7025
▁lærer	-9.70283
▁bomb	-9.7035
▁mill	-9.70393
▁åpen	-9.70562
▁aldri	-9.70681
▁polsk	-9.70706
▁melodi	-9.70738
▁1968	-9.70742
▁bølge	-9.70767
▁delen	-9.70776
vikler	-9.70959
69	-9.71011
▁klubb	-9.71025
▁fugle	-9.71059
90	-9.71097
▁ky	-9.71099
▁innsjøen	-9.71166
ball	-9.71198
▁dager	-9.71264
slaget	-9.7149
ō	-9.71521
▁dato	-9.7158
▁2017	-9.71621
▁blue	-9.71649
park	-9.71655
stedet	-9.71681
▁temperatur	-9.71703
▁eg	-9.71736
ville	-9.71791
▁mester	-9.7184
feld	-9.71857
ön	-9.71871
stille	-9.71892
prisen	-9.71893
▁nrk	-9.7196
kultur	-9.71963
▁zu	-9.71986
97	-9.72044
win	-9.72081
▁gard	-9.72093
tha	-9.72221
rim	-9.72236
▁vold	-9.72293
▁unn	-9.72317
▁lan	-9.72351
▁nederlandsk	-9.72368
bygg	-9.72371
fat	-9.72462
ο	-9.72468
п	-9.72473
▁1971	-9.72473
▁bakvingen	-9.72477
▁middelalder	-9.72483
▁1979	-9.72487
barn	-9.7255
tch	-9.72655
▁bonde	-9.72687
▁retning	-9.72741
▁lyse	-9.72803
hov	-9.72887
▁personlig	-9.72925
vert	-9.72926
▁stø	-9.72932
▁gil	-9.72994
▁bol	-9.73017
kort	-9.7306
løsning	-9.73126
▁hon	-9.73138
▁dynastiet	-9.73145
person	-9.73151
car	-9.73305
▁music	-9.73345
▁alternativ	-9.73358
▁1974	-9.73358
▁bokstav	-9.73359
▁nærmest	-9.73361
▁andreas	-9.73362
▁bronse	-9.73363
▁nev	-9.73366
▁viste	-9.73397
▁kloster	-9.73398
try	-9.73428
▁dor	-9.73465
strand	-9.73468
▁mini	-9.73492
18	-9.73528
▁behandling	-9.73532
▁drev	-9.73552
▁prosjekt	-9.73574
▁rå	-9.73584
▁reg	-9.73627
gger	-9.73661
▁los	-9.73663
▁fyr	-9.73787
▁sort	-9.73849
san	-9.73885
non	-9.73912
▁benytte	-9.73948
19	-9.73974
yang	-9.73982
fu	-9.74073
▁plassert	-9.74092
▁divisjon	-9.74188
▁asia	-9.74202
fot	-9.74203
grupper	-9.74204
ante	-9.74212
▁blei	-9.74249
▁olympisk	-9.7425
jon	-9.74253
▁united	-9.74253
▁1985	-9.74269
▁1978	-9.7427
▁hund	-9.74283
tjeneste	-9.74304
49	-9.74304
▁penge	-9.74321
▁max	-9.74379
▁tverr	-9.74384
▁grensen	-9.74436
▁menn	-9.74601
▁test	-9.74684
▁vinner	-9.74768
▁tittel	-9.74785
ping	-9.74808
▁maler	-9.74854
rasjon	-9.74889
roll	-9.749
motor	-9.74904
▁dyre	-9.74916
▁32	-9.74987
ritt	-9.75005
▁py	-9.75041
▁single	-9.75045
hild	-9.75045
løs	-9.75046
vekt	-9.75048
▁nevnes	-9.75132
▁wilhelm	-9.75151
▁drept	-9.75167
▁sesong	-9.75265
▁luc	-9.7529
lid	-9.75342
▁nasjonalpark	-9.75372
▁forfatteren	-9.7554
▁akademi	-9.75635
▁løp	-9.75683
▁kj	-9.75703
innen	-9.75749
merke	-9.75793
under	-9.75805
▁prisen	-9.75805
▁kanon	-9.75821
▁jacob	-9.75994
▁storbritannia	-9.7606
▁1972	-9.76073
▁power	-9.76076
▁cra	-9.76155
11	-9.76185
▁karriere	-9.76222
▁tegnet	-9.7624
cal	-9.76267
▁elve	-9.76318
unt	-9.76406
produkt	-9.76476
▁kjerne	-9.76497
partiet	-9.76544
▁total	-9.76545
▁off	-9.76567
▁utnevnt	-9.76567
dagen	-9.76603
▁hin	-9.76668
▁spill	-9.76674
ies	-9.76728
▁rygg	-9.7674
▁følge	-9.76752
historie	-9.76764
▁benyttet	-9.76781
93	-9.76803
▁spilles	-9.76825
▁kode	-9.76867
▁hodet	-9.76897
▁europeisk	-9.76898
▁vingespenn	-9.76978
▁utdannet	-9.76978
▁kardinal	-9.76978
▁fremdeles	-9.76979
▁dårlig	-9.7698
▁hvilke	-9.7698
▁folket	-9.76986
▁high	-9.77055
▁selve	-9.77058
giver	-9.7712
▁formel	-9.7722
▁hode	-9.77339
program	-9.77385
▁bay	-9.77395
▁merke	-9.77466
▁human	-9.77503
▁may	-9.77524
evne	-9.77573
typen	-9.77614
▁karakter	-9.77619
assi	-9.77628
bunn	-9.77655
▁dør	-9.77768
formede	-9.77791
gler	-9.77847
▁holde	-9.77847
økonom	-9.7786
▁univers	-9.77886
▁pasient	-9.77904
▁school	-9.77905
vunnet	-9.77906
▁magnus	-9.7791
▁gjelder	-9.77938
▁snø	-9.7795
lem	-9.77973
▁award	-9.78002
▁kas	-9.78014
▁myndighet	-9.78019
▁gjeste	-9.78053
▁dam	-9.78056
gli	-9.78134
enberg	-9.78141
45	-9.78153
▁stoppe	-9.78191
▁web	-9.78196
▁verne	-9.78266
▁satte	-9.78486
▁qui	-9.78539
▁danse	-9.78556
▁jur	-9.78686
▁provins	-9.78703
▁vokal	-9.78715
▁bud	-9.78723
ura	-9.78748
oth	-9.78753
▁love	-9.78763
τ	-9.78839
▁primær	-9.78839
▁spesiell	-9.7884
75	-9.78854
▁ordfører	-9.78868
firma	-9.78936
▁landbruk	-9.78936
▁video	-9.78944
▁komme	-9.78946
▁dekk	-9.7898
▁ask	-9.78989
▁bob	-9.78997
▁base	-9.79016
▁final	-9.79022
▁ron	-9.79042
▁område	-9.79051
▁israel	-9.79062
ado	-9.79065
▁wu	-9.79106
▁with	-9.79132
▁utført	-9.79149
72	-9.79167
▁grunnla	-9.79206
▁raskt	-9.79231
▁metal	-9.7929
▁avis	-9.79297
33	-9.79305
ān	-9.79313
▁fremme	-9.79321
parten	-9.79394
▁auto	-9.79438
dorf	-9.79448
▁lagt	-9.79448
▁cl	-9.79516
▁vær	-9.79539
▁cy	-9.79573
▁ein	-9.79618
▁teksten	-9.79634
com	-9.79637
arbeider	-9.79724
▁foreldre	-9.79784
jal	-9.79793
gro	-9.79795
▁referere	-9.79806
▁hustru	-9.79823
▁drama	-9.79824
▁sørøst	-9.79832
▁presse	-9.79877
на	-9.79879
fyll	-9.79987
▁feil	-9.79998
▁vå	-9.80004
▁foruten	-9.80063
▁cho	-9.8009
saker	-9.80174
basert	-9.80218
bånd	-9.8028
▁instrument	-9.80289
▁mess	-9.80291
▁oppdaget	-9.80294
▁stasjonen	-9.8034
▁din	-9.80347
kontor	-9.80371
pin	-9.80384
voks	-9.80423
lapp	-9.80445
▁hannen	-9.8047
▁bydel	-9.80494
▁fjord	-9.80497
kilde	-9.80606
▁kilde	-9.8062
▁elektrisk	-9.80734
pningsseremonien	-9.80735
▁arrangere	-9.80735
▁2016	-9.80768
▁song	-9.80824
▁tørr	-9.8093
▁endret	-9.80985
▁34	-9.81061
▁larven	-9.81089
awa	-9.8114
▁professor	-9.81163
ax	-9.81168
▁atom	-9.81202
▁ettersom	-9.81252
▁teknisk	-9.81279
▁høye	-9.81313
møte	-9.81333
▁etablerte	-9.81363
osa	-9.81402
▁ris	-9.81449
▁intern	-9.81513
▁åpning	-9.81595
▁organisasjonen	-9.81606
▁rang	-9.81612
▁vä	-9.81681
ε	-9.81696
▁hurtig	-9.81697
▁royal	-9.81701
hastighet	-9.81701
▁handling	-9.81705
▁1963	-9.81713
▁sikre	-9.81721
▁lenger	-9.81758
▁harry	-9.81769
▁hente	-9.81823
sler	-9.81879
▁35	-9.81888
▁fylkes	-9.81953
▁ung	-9.81979
▁fyrst	-9.82023
▁slått	-9.82054
▁kjempe	-9.82067
hop	-9.82072
rek	-9.82092
77	-9.82169
roman	-9.82187
havn	-9.82203
59	-9.82233
▁jag	-9.82261
▁fot	-9.82419
▁dommer	-9.82429
15	-9.82445
▁løpet	-9.82507
▁kontor	-9.82539
▁festning	-9.82546
post	-9.82582
▁maur	-9.82636
▁tilhørte	-9.82667
▁club	-9.82669
▁østerrike	-9.8267
▁tydelig	-9.82672
▁historiske	-9.82793
▁typer	-9.82808
г	-9.8288
ati	-9.82907
▁gyl	-9.82937
plate	-9.82947
▁sju	-9.82966
henger	-9.82983
stjerne	-9.82995
▁heller	-9.83007
lj	-9.83009
▁up	-9.83079
bat	-9.83092
▁500	-9.83116
▁produksjons	-9.8313
vitenskap	-9.83251
▁kristen	-9.83324
skiftet	-9.83337
▁stoff	-9.83339
▁delvis	-9.83347
bal	-9.83348
▁hill	-9.83497
▁villa	-9.83517
fartøy	-9.83526
32	-9.83616
▁oc	-9.83634
▁afrika	-9.83637
▁blomster	-9.83644
▁roll	-9.83644
▁københavn	-9.83647
▁nowiki	-9.83647
▁observa	-9.83647
mennene	-9.83655
foss	-9.83677
stasjonen	-9.83743
▁daniel	-9.83769
pul	-9.83775
tjenester	-9.83926
▁lot	-9.83949
▁malt	-9.83953
14	-9.84083
▁samlet	-9.84217
holm	-9.84235
▁ola	-9.84252
▁beskytte	-9.84508
▁north	-9.84523
▁vanlige	-9.84557
feng	-9.84571
▁fange	-9.84592
▁tilhøre	-9.84613
▁opprinnelse	-9.84637
▁profesjonell	-9.84637
hagen	-9.84639
▁1964	-9.8465
▁1967	-9.84657
64	-9.84708
ikken	-9.84731
▁sven	-9.8474
krigen	-9.84763
inntekt	-9.84765
▁multi	-9.84908
▁krav	-9.84961
▁skipet	-9.85032
skipet	-9.85055
21	-9.85141
▁nådd	-9.85162
▁hunnen	-9.85219
▁øyene	-9.8524
▁økonomi	-9.85253
▁akt	-9.85317
analyse	-9.85335
ammen	-9.85341
▁ramme	-9.85423
gin	-9.85431
▁forskning	-9.85447
fjellene	-9.85481
kes	-9.85503
gate	-9.85561
▁greske	-9.85595
▁nam	-9.85606
▁parlament	-9.85637
▁gode	-9.85668
▁scene	-9.85673
▁bakgrunn	-9.85691
▁marine	-9.85702
▁alfred	-9.85714
▁uke	-9.85722
▁svak	-9.8574
▁90	-9.85767
▁sider	-9.85781
ux	-9.85875
hm	-9.85924
▁flyplass	-9.85955
▁enten	-9.85971
▁sankt	-9.86009
▁fan	-9.86085
▁lære	-9.86092
klubben	-9.86116
17	-9.86121
▁got	-9.86126
▁eva	-9.86171
▁størrelse	-9.86226
forskning	-9.86286
▁inge	-9.86303
maskin	-9.86326
▁gruve	-9.86398
▁seier	-9.86429
tog	-9.86448
▁buk	-9.86449
▁wei	-9.86496
kamera	-9.86608
▁administrativ	-9.86647
kandidat	-9.86653
gift	-9.86658
▁bygningen	-9.86671
▁fotballspiller	-9.86678
▁bevart	-9.86708
▁areal	-9.8677
▁ytre	-9.86836
55	-9.86903
▁viss	-9.86926
ison	-9.86957
▁150	-9.86997
▁hum	-9.87046
▁neu	-9.87059
▁russiske	-9.87078
ical	-9.87093
▁naturlig	-9.87135
eks	-9.87172
kysten	-9.87182
løpet	-9.87206
slav	-9.87289
▁åpne	-9.87313
produsent	-9.87356
trafikk	-9.87365
▁emb	-9.87448
ios	-9.87498
veg	-9.87637
skatt	-9.87654
ł	-9.87654
ô	-9.87668
λ	-9.87668
▁autonom	-9.87677
▁varierer	-9.8771
stø	-9.87759
parken	-9.87778
▁forvingen	-9.87799
▁struktur	-9.8782
▁opptre	-9.87821
▁bærer	-9.87824
town	-9.87853
▁för	-9.87854
▁gjennomført	-9.87857
fulle	-9.87981
▁sterke	-9.87996
▁ekspedisjon	-9.88003
▁klokke	-9.88011
▁cam	-9.88016
▁dj	-9.88017
anda	-9.88053
bevegelsen	-9.88065
▁adam	-9.88164
▁matt	-9.88214
▁stamme	-9.88291
disk	-9.88331
▁kim	-9.88368
museum	-9.88416
▁solo	-9.88451
▁kreft	-9.88563
mengde	-9.88569
▁vakt	-9.88592
▁mw	-9.88647
▁hverandre	-9.88699
▁oblast	-9.88716
▁1976	-9.88718
▁lengre	-9.88733
▁kai	-9.88741
▁omtalt	-9.88746
▁verdenskrig	-9.88789
▁klart	-9.88817
▁tha	-9.88865
▁livs	-9.88903
gjøre	-9.88929
▁hvorav	-9.8893
▁regjering	-9.88931
▁vinge	-9.88932
▁present	-9.88986
atet	-9.88989
åsen	-9.89032
▁ost	-9.89036
▁institutt	-9.89065
vinner	-9.89073
hor	-9.89082
oph	-9.89139
▁ey	-9.89187
▁anvend	-9.89189
▁motiv	-9.89213
▁grupper	-9.89226
jord	-9.8923
▁bestod	-9.89264
▁kroner	-9.89271
▁nordlige	-9.89275
▁slutten	-9.89298
con	-9.89366
somme	-9.89382
▁faren	-9.89393
▁roma	-9.89399
▁rør	-9.8943
ár	-9.89432
album	-9.89461
▁euro	-9.89481
hjem	-9.89512
▁femte	-9.89526
stripe	-9.89526
kraftverk	-9.89538
▁føde	-9.8954
nic	-9.89586
än	-9.89611
▁long	-9.89628
debut	-9.89684
ë	-9.8974
▁individ	-9.89741
▁sjelden	-9.89741
▁dialekt	-9.89743
▁hertug	-9.89746
▁kok	-9.89802
▁markeds	-9.89844
▁valgte	-9.89884
▁samfunns	-9.8993
▁zi	-9.90008
▁cur	-9.90082
ømme	-9.90195
ført	-9.90289
dannelse	-9.90306
▁opphav	-9.90434
▁beskriver	-9.90511
▁ari	-9.90531
▁vent	-9.90539
bakk	-9.90574
dam	-9.9058
▁legge	-9.90599
▁bygda	-9.90603
▁røde	-9.90619
sekretær	-9.9078
▁trak	-9.90791
κ	-9.90793
▁religion	-9.90793
▁canada	-9.90823
▁1950	-9.9083
▁funnet	-9.90831
▁otto	-9.90866
mond	-9.9089
▁gjenopp	-9.90983
▁bord	-9.90994
▁koloni	-9.91038
▁stadig	-9.91053
▁klo	-9.91087
▁familiegrupp	-9.91125
▁bibliotek	-9.91155
▁boy	-9.9118
▁torg	-9.91213
kjempe	-9.91318
▁resten	-9.91378
▁anlegget	-9.9144
▁american	-9.91454
demokrat	-9.91473
høgskole	-9.91478
▁front	-9.9158
▁ube	-9.91584
festival	-9.91635
▁live	-9.91695
▁haug	-9.91737
bol	-9.91807
▁ves	-9.9185
vor	-9.91855
▁sannsynlig	-9.91857
▁tilgjengelig	-9.91857
▁regissert	-9.91858
kapasitet	-9.91858
▁yngre	-9.91859
kommando	-9.91873
▁nordisk	-9.91996
▁hals	-9.9207
▁latinsk	-9.92079
vang	-9.9208
▁kraftig	-9.92119
ledende	-9.92122
▁petter	-9.9219
næring	-9.92222
▁jobb	-9.92269
▁il	-9.9227
eppe	-9.92405
▁ansatte	-9.92415
▁camp	-9.92447
▁rosen	-9.92451
▁landskap	-9.92481
▁leve	-9.92535
bygger	-9.92556
▁korn	-9.92595
hin	-9.92738
▁gå	-9.92747
▁fø	-9.92846
▁ting	-9.92913
væ	-9.92925
advokat	-9.92932
▁beijing	-9.92933
▁insekt	-9.92934
▁forteller	-9.92941
▁1973	-9.92948
▁1962	-9.92952
▁1940	-9.92954
aceae	-9.92993
liste	-9.93027
herre	-9.93032
forskjell	-9.93054
▁masse	-9.93062
▁forsvar	-9.93065
onia	-9.93182
▁prins	-9.93197
▁rute	-9.93199
▁alf	-9.93207
▁jevn	-9.93332
ín	-9.93365
ernes	-9.93384
bad	-9.93425
▁troll	-9.93437
én	-9.93583
▁produserer	-9.93603
▁polar	-9.93707
▁bell	-9.93718
▁jim	-9.93734
▁vet	-9.93765
språklig	-9.94014
▁prefektur	-9.94019
▁amerika	-9.94019
mur	-9.94022
▁1952	-9.94037
▁poeng	-9.94065
▁forretnings	-9.94074
▁nevnt	-9.94117
▁bibel	-9.94147
sha	-9.94159
▁bach	-9.94174
▁vm	-9.94178
▁periode	-9.94196
▁vitenskap	-9.94261
▁santa	-9.94292
▁flor	-9.94302
▁kari	-9.94369
▁bydelen	-9.94374
ulf	-9.94404
▁hj	-9.94413
▁mulighet	-9.94423
▁filosofi	-9.94531
▁begrepet	-9.94557
▁coll	-9.94717
▁skriver	-9.94728
▁livet	-9.94808
bry	-9.94839
ark	-9.94927
prosjekt	-9.94967
▁stig	-9.94981
rup	-9.94998
▁storm	-9.95014
sluttet	-9.95016
▁meste	-9.95074
▁arrangert	-9.95118
▁australia	-9.95118
▁brenselkilden	-9.95118
▁joseph	-9.95118
▁1948	-9.95137
skaffe	-9.95163
▁bestemt	-9.95165
▁bydistrikt	-9.95172
▁huset	-9.95206
holmen	-9.95256
▁aksje	-9.95268
hua	-9.95309
▁buss	-9.95372
▁hær	-9.95393
24	-9.95426
▁trafikk	-9.95448
▁fc	-9.95504
▁ordens	-9.95568
▁disk	-9.95706
35	-9.95729
oto	-9.95737
▁mah	-9.95839
▁yo	-9.95899
▁tsj	-9.96044
▁are	-9.96124
ко	-9.96133
▁fjellet	-9.96159
ς	-9.96223
▁administrere	-9.96229
▁jørgen	-9.96229
ич	-9.96243
▁dro	-9.96332
▁grunnlegger	-9.96337
0	-9.96363
▁south	-9.96379
byrå	-9.9639
▁hoff	-9.96397
▁våren	-9.96414
▁politikk	-9.96466
artikler	-9.9653
▁gui	-9.96538
lege	-9.9661
forhold	-9.96622
▁miste	-9.96646
▁fylket	-9.96669
▁team	-9.96676
flø	-9.96708
▁kjell	-9.96738
bukta	-9.96777
▁undersøkelse	-9.96787
▁kongelig	-9.96857
▁lyst	-9.96881
▁bakkroppen	-9.97073
▁alder	-9.97085
cio	-9.97155
▁kalte	-9.97222
utvikling	-9.97224
gjort	-9.97253
▁artikkel	-9.97264
▁whi	-9.97275
foreningen	-9.97292
istene	-9.97343
ß	-9.97345
▁religiøs	-9.97353
▁ytterligere	-9.97353
▁teknologi	-9.97357
kontrakt	-9.97361
▁voksne	-9.97362
▁1958	-9.97372
▁skotsk	-9.97384
▁sønnen	-9.97389
▁sverd	-9.9741
▁portrett	-9.97436
▁mente	-9.97658
aria	-9.97661
▁fotballklubb	-9.97662
▁mangler	-9.97695
▁ple	-9.97702
▁befolkning	-9.9771
▁begynner	-9.97717
▁oppdrag	-9.97731
▁tettsted	-9.9776
▁verd	-9.97794
▁cri	-9.97794
▁tau	-9.97832
▁amt	-9.97856
elv	-9.97886
▁master	-9.9793
pur	-9.97947
ique	-9.97979
▁rei	-9.97987
zy	-9.98042
can	-9.98052
▁ønske	-9.98054
fylt	-9.9813
gjeld	-9.98133
▁oversatt	-9.98167
▁stri	-9.98198
▁lyn	-9.98238
gno	-9.98287
▁bære	-9.98296
▁gis	-9.98346
fjellet	-9.984
row	-9.98411
wood	-9.98434
▁friedrich	-9.98489
▁1956	-9.98489
▁service	-9.98489
▁republikken	-9.98501
▁journalist	-9.98502
▁himmel	-9.98511
▁rob	-9.98524
▁hval	-9.98533
▁gau	-9.98712
▁korea	-9.98806
styrke	-9.98824
funn	-9.98825
▁sar	-9.98858
kanten	-9.98956
▁historien	-9.98993
▁havet	-9.99125
▁krets	-9.99155
trinn	-9.99197
▁spise	-9.99234
▁antenne	-9.99248
▁led	-9.99305
▁hundre	-9.99393
▁reform	-9.99425
▁utover	-9.99469
gått	-9.9949
hem	-9.99513
▁kraftige	-9.9952
distrikt	-9.99537
materiale	-9.9959
forbindelse	-9.99595
forfatter	-9.99596
▁tilknyttet	-9.99638
▁deriblant	-9.99649
▁brasil	-9.9965
▁kropps	-9.99651
▁cru	-9.99652
▁flertall	-9.99656
▁kjemisk	-9.99665
▁1930	-9.99673
▁dominere	-9.99705
▁omfattet	-9.99724
zj	-9.99725
▁45	-9.99741
▁sun	-9.99888
▁that	-9.99893
▁wel	-9.999
▁henry	-9.99918
▁mikro	-9.9992
▁offiser	-9.99937
▁160	-9.9997
▁patri	-9.99978
▁gitarist	-10.0005
▁normalt	-10.0007
▁tann	-10.0008
▁anta	-10.0014
▁foreningen	-10.0015
▁lignende	-10.0017
▁bånd	-10.0019
▁regjerings	-10.0022
▁lor	-10.0028
▁viking	-10.0037
pri	-10.0048
▁rand	-10.0051
▁33	-10.0058
13	-10.006
▁tog	-10.0067
▁hotell	-10.0072
▁populære	-10.0072
cheng	-10.0075
våpen	-10.0076
lokk	-10.0077
▁phil	-10.0077
▁ishockey	-10.008
▁omfattende	-10.008
▁sovjetunionen	-10.008
▁trøndelag	-10.008
▁eventyr	-10.008
▁1977	-10.0082
▁programmet	-10.0082
▁musikkalbum	-10.0083
▁scott	-10.0083
▁uttale	-10.0088
▁sammenlign	-10.0091
▁fler	-10.0091
▁innført	-10.0097
▁straffe	-10.01
▁skyldes	-10.0102
kjenne	-10.0108
▁lenge	-10.0109
uch	-10.012
serien	-10.0121
skift	-10.0124
▁sørlige	-10.0127
▁simon	-10.0127
▁olsen	-10.0129
▁avisen	-10.013
▁jarl	-10.0135
▁semi	-10.0136
yuan	-10.0137
▁soldat	-10.0141
▁nr	-10.0146
svømme	-10.0146
▁sideelv	-10.0158
▁55	-10.016
▁tettstedet	-10.0162
hei	-10.0173
▁bevegelse	-10.0176
▁kamper	-10.018
μ	-10.0198
▁company	-10.0198
▁deutsch	-10.0198
▁mytologi	-10.0198
▁forårsake	-10.0198
▁forkortet	-10.0199
▁betjene	-10.0199
▁sekund	-10.0199
▁1928	-10.0199
▁tolv	-10.02
▁smith	-10.02
moen	-10.02
▁1939	-10.02
livet	-10.0201
▁debutert	-10.0202
kompani	-10.0202
vekst	-10.0203
▁osv	-10.0205
▁papir	-10.0206
▁militære	-10.0215
▁streng	-10.0216
▁sca	-10.0217
plikt	-10.0218
▁class	-10.0225
▁morten	-10.0231
▁damp	-10.0239
▁sammenheng	-10.0251
▁pic	-10.0251
alitet	-10.0267
gikk	-10.0271
able	-10.0278
▁benyttes	-10.0279
mba	-10.0279
▁artene	-10.0282
kjemi	-10.0288
▁idrettslag	-10.0289
▁historiker	-10.0291
▁sterk	-10.0301
▁steve	-10.0302
▁uavhengig	-10.0305
▁virkelig	-10.0306
▁orkester	-10.0314
▁passasjer	-10.0317
▁islam	-10.0318
▁1969	-10.0319
▁1947	-10.0319
▁lansert	-10.0322
▁grøn	-10.0322
▁jordbruk	-10.0322
nettverk	-10.0323
miljø	-10.0326
avdeling	-10.0328
▁sikkerhets	-10.0329
▁esp	-10.0331
▁kapell	-10.0332
▁glass	-10.034
▁rest	-10.0341
▁underlag	-10.0344
▁arve	-10.0344
element	-10.0346
▁dog	-10.0357
22	-10.0365
▁term	-10.037
former	-10.0372
▁konkurranse	-10.0375
bøl	-10.0376
▁deles	-10.0379
▁listen	-10.0381
kjøp	-10.0383
▁cer	-10.0385
▁astro	-10.0389
▁с	-10.0391
▁valgt	-10.0393
31	-10.0397
▁materiale	-10.0398
sfjorden	-10.0405
▁landskapet	-10.0412
hode	-10.0415
▁berømte	-10.0417
rick	-10.0425
▁wall	-10.0426
kanalen	-10.0426
▁tam	-10.0427
vegg	-10.0433
▁kontakt	-10.0438
▁stadion	-10.0439
vannet	-10.0456
▁fordelt	-10.0457
familie	-10.046
34	-10.0462
behandle	-10.0462
▁pensjon	-10.0466
▁forekommer	-10.0477
▁private	-10.0481
▁jule	-10.0499
▁sats	-10.0509
▁od	-10.0512
▁kalk	-10.0514
flekk	-10.0514
▁niels	-10.0516
▁wen	-10.0516
▁geo	-10.0522
▁høst	-10.0523
prosessen	-10.0533
spinner	-10.0533
▁utføre	-10.0533
▁landsby	-10.0537
▁oppgave	-10.0538
▁avgjør	-10.054
▁vannet	-10.0543
▁ara	-10.0548
tain	-10.0549
▁planter	-10.0551
inae	-10.0551
▁snakke	-10.0555
â	-10.0559
▁tegneserie	-10.056
▁frederik	-10.056
▁mongol	-10.056
▁prøve	-10.056
▁1966	-10.0561
referanse	-10.0562
▁nova	-10.0563
▁syr	-10.0564
▁saint	-10.0564
styrken	-10.0574
▁planet	-10.0576
▁show	-10.0577
▁bodde	-10.0577
▁formann	-10.0581
▁strid	-10.0584
bred	-10.0586
▁tryg	-10.0587
▁østlig	-10.0587
▁gress	-10.0596
▁myk	-10.0597
▁kjøpe	-10.0599
▁server	-10.06
▁liberal	-10.0601
kasse	-10.0607
light	-10.0608
▁velge	-10.0615
▁chu	-10.0627
▁syl	-10.0628
▁anton	-10.0633
▁malm	-10.0634
bak	-10.0637
▁brede	-10.0641
▁statlig	-10.0642
▁utstilling	-10.0649
▁overgang	-10.0653
▁dobbelt	-10.0653
strid	-10.0659
▁årsak	-10.0678
oksid	-10.0679
▁studio	-10.0682
▁sæ	-10.0683
▁etterfulgt	-10.0683
▁inspirert	-10.0683
▁gunnar	-10.0683
▁1955	-10.0684
▁1957	-10.0685
▁håndball	-10.0685
▁bekrefte	-10.0686
botn	-10.0688
gende	-10.0689
▁east	-10.0693
▁ah	-10.0701
▁motsetning	-10.0704
▁lau	-10.0707
▁menighet	-10.0716
lich	-10.0718
▁mobil	-10.0729
dommen	-10.0737
aka	-10.0739
▁sho	-10.074
ifisert	-10.0748
▁rollen	-10.075
28	-10.0752
▁sykehus	-10.076
▁nedre	-10.0762
▁meta	-10.0766
hai	-10.0767
▁comp	-10.0769
▁tone	-10.0779
finalen	-10.0789
▁ull	-10.0794
▁cup	-10.0796
▁beina	-10.0797
mmel	-10.0798
▁saken	-10.0803
konstruksjon	-10.0808
▁kombinert	-10.0808
▁cirka	-10.0808
▁definert	-10.0808
▁episode	-10.0808
▁64	-10.0808
▁tan	-10.0809
▁naturgass	-10.0809
▁1959	-10.0809
▁edward	-10.0809
▁hjerne	-10.0815
▁butikk	-10.0817
målet	-10.0818
▁trommer	-10.0819
▁popul	-10.0827
▁irsk	-10.0832
formasjon	-10.0833
▁arkiv	-10.0835
▁trener	-10.0836
▁kara	-10.0851
▁fullført	-10.0851
slekten	-10.0851
▁scor	-10.0853
▁styrker	-10.0855
▁aur	-10.0869
▁vor	-10.0872
▁kyr	-10.0876
psyk	-10.0879
▁sna	-10.0881
▁kjenn	-10.0882
▁bin	-10.0882
holdsvis	-10.089
▁shan	-10.0896
▁former	-10.091
▁verket	-10.0911
▁kald	-10.0913
23	-10.0918
tårn	-10.0923
▁angel	-10.0923
▁eik	-10.0925
▁markert	-10.093
▁kast	-10.0931
▁utgi	-10.0933
ç	-10.0934
▁sistnevnte	-10.0934
▁alexander	-10.0934
▁jakob	-10.0934
▁ekteskap	-10.0935
forsikring	-10.0935
rommet	-10.0935
▁nedenfor	-10.0935
▁internett	-10.0935
▁ridder	-10.0935
iva	-10.0935
▁college	-10.0936
ев	-10.0943
▁brygge	-10.0952
▁stål	-10.0953
▁vokalist	-10.0955
født	-10.0958
▁ekstra	-10.096
▁pil	-10.0961
uz	-10.0961
▁fru	-10.0964
▁cd	-10.0966
▁75	-10.0967
stått	-10.0974
▁bryst	-10.0975
vard	-10.0975
leir	-10.0978
drakt	-10.0982
delt	-10.0983
▁from	-10.0985
formen	-10.0987
▁støttet	-10.0988
legging	-10.0989
renn	-10.0989
▁lån	-10.099
▁overfor	-10.0991
▁kaptein	-10.0992
kjør	-10.1
▁jøde	-10.1003
▁bou	-10.101
▁graf	-10.1012
▁rask	-10.1014
▁met	-10.1015
▁irland	-10.1016
betegnelse	-10.1017
head	-10.1018
▁kommuner	-10.1019
▁gjer	-10.1033
bygningen	-10.1034
▁dyrke	-10.1039
▁hov	-10.1047
format	-10.1052
▁fun	-10.1053
lay	-10.1062
▁registrert	-10.1063
▁inngår	-10.1063
▁studioalbum	-10.1063
▁brenn	-10.1064
▁vanskelig	-10.1064
▁nattfly	-10.1066
▁rag	-10.1068
næs	-10.1069
▁sær	-10.1075
▁polen	-10.1075
▁linjen	-10.1081
▁rep	-10.1083
▁svi	-10.1096
▁maleri	-10.1113
▁ønsket	-10.1113
▁medisin	-10.1123
gress	-10.1124
▁mei	-10.1124
▁gh	-10.113
▁klassen	-10.1134
▁adresse	-10.1137
▁vers	-10.1143
chester	-10.1145
shan	-10.1156
▁jobbet	-10.1157
▁stilling	-10.116
▁lønn	-10.116
dekk	-10.117
tilbud	-10.1182
dokument	-10.1183
▁dun	-10.1187
▁fn	-10.1188
▁færøyene	-10.1192
ström	-10.1192
▁etterhvert	-10.1192
▁betrakte	-10.1192
▁moskva	-10.1192
▁major	-10.1193
▁utvidet	-10.1193
▁stortinget	-10.1193
▁premier	-10.1193
gjøring	-10.1194
▁lengst	-10.1194
▁offisiel	-10.1194
▁1944	-10.1195
▁slank	-10.1199
▁dokumenter	-10.1202
ån	-10.1202
▁stortings	-10.1202
trådte	-10.1202
kostnad	-10.1204
ordning	-10.1205
▁fordel	-10.1213
▁enkle	-10.1216
▁poet	-10.1217
funksjon	-10.1219
effekt	-10.1221
olo	-10.1222
▁likhet	-10.1222
▁innsats	-10.1226
dikt	-10.1226
▁magnet	-10.1228
sjö	-10.1229
måte	-10.1244
▁jack	-10.1248
▁peder	-10.1248
▁jorden	-10.125
kunst	-10.1251
▁hammer	-10.1254
▁ankom	-10.1258
▁river	-10.1274
▁mir	-10.1274
▁øker	-10.1275
▁fli	-10.1283
▁endre	-10.1286
▁nivå	-10.13
▁brand	-10.13
▁møter	-10.1307
▁yi	-10.131
▁kha	-10.1314
▁had	-10.1317
reise	-10.1321
я	-10.1324
▁records	-10.1324
▁århundre	-10.1324
▁digital	-10.1324
▁spania	-10.1325
fiske	-10.1328
merker	-10.1334
olje	-10.1339
eksamen	-10.134
▁utdannelse	-10.1346
▁green	-10.1346
▁lavere	-10.1348
▁spillet	-10.135
konkurranse	-10.1353
ikere	-10.1359
museet	-10.136
fil	-10.1373
▁brev	-10.1378
▁kin	-10.1378
▁tross	-10.1386
▁ansvarlig	-10.1386
blokk	-10.1388
▁skjold	-10.1388
▁institut	-10.1392
▁bakke	-10.1399
aktiv	-10.1399
▁dahl	-10.1414
▁spørsmål	-10.1416
▁skiller	-10.1418
▁egypt	-10.1419
ál	-10.1426
lutt	-10.1428
▁krysser	-10.1443
▁betydninger	-10.1456
▁1946	-10.1457
▁objekt	-10.1457
▁selvstendig	-10.1457
▁generelt	-10.1457
▁hem	-10.1457
▁redusert	-10.1458
▁iso	-10.1463
▁slaget	-10.1468
▁wood	-10.1472
▁einar	-10.1475
▁ild	-10.1479
▁kilder	-10.1482
fred	-10.1493
utstyr	-10.1496
▁marin	-10.1498
▁300	-10.1512
▁utga	-10.1517
wald	-10.1517
▁schw	-10.1527
▁anlegg	-10.1529
▁foto	-10.1535
▁innhold	-10.1537
▁stemmer	-10.1539
markedet	-10.1545
▁arch	-10.1547
▁kval	-10.1551
▁anim	-10.1553
▁vert	-10.1555
isse	-10.1556
▁sende	-10.1556
makt	-10.1563
cel	-10.1575
▁gruppa	-10.159
▁fullstendig	-10.1592
▁ukjent	-10.1592
▁kjærlighet	-10.1592
▁forenklet	-10.1592
▁1945	-10.1594
▁1938	-10.1595
▁div	-10.1595
▁skjedde	-10.1595
▁oscar	-10.1596
▁1920	-10.1596
▁aar	-10.16
▁1900	-10.1601
▁ingeniør	-10.1603
▁eksistere	-10.1607
▁furu	-10.1611
▁vitenskapelig	-10.1617
öl	-10.1621
▁tonn	-10.1622
▁regnet	-10.1626
▁gold	-10.1628
▁fol	-10.1631
▁bidrag	-10.1634
▁posisjon	-10.1636
▁jakt	-10.1649
▁beskrevet	-10.1656
ward	-10.1657
▁stam	-10.1664
haugen	-10.1666
kall	-10.1671
▁back	-10.1675
▁snu	-10.1681
▁mary	-10.1691
▁forsvaret	-10.1693
tunnelen	-10.1694
polis	-10.1702
▁chang	-10.1706
▁dverg	-10.1713
horn	-10.172
avgift	-10.1721
▁1961	-10.1729
kompleks	-10.1729
friidrettsutøver	-10.173
▁vekst	-10.1731
▁mineral	-10.1731
▁1949	-10.1731
▁luther	-10.1743
▁svar	-10.1752
▁beskrive	-10.1752
▁kommunal	-10.1763
▁organisert	-10.1766
hyll	-10.1769
▁tusen	-10.1773
▁mala	-10.1773
▁120	-10.1774
▁gutte	-10.1784
▁avslutte	-10.1787
strømmen	-10.1788
▁avtale	-10.179
sdatter	-10.179
▁bispedømme	-10.1792
▁1800	-10.1805
fekt	-10.1807
▁gö	-10.1813
▁ånd	-10.182
▁skinn	-10.1823
histor	-10.1824
▁nordland	-10.1833
▁systemet	-10.1833
▁ferge	-10.1837
27	-10.1844
▁house	-10.1851
▁pap	-10.1851
▁400	-10.1855
▁sveits	-10.1861
▁hamar	-10.1862
▁arc	-10.1868
arrangement	-10.1868
▁elisabeth	-10.1868
▁1941	-10.1868
▁alkohol	-10.1868
▁konkurrere	-10.1868
▁således	-10.1868
ovitsj	-10.1869
▁redusere	-10.1869
▁golf	-10.1869
▁out	-10.187
▁1942	-10.1871
▁1965	-10.1871
▁håkon	-10.1872
situasjon	-10.1872
▁group	-10.1873
26	-10.188
▁liber	-10.1881
▁spenning	-10.1881
▁utnytte	-10.1881
▁sikte	-10.1883
▁reaksjon	-10.1884
▁hæren	-10.1892
▁formen	-10.19
▁eie	-10.1901
▁eksempelvis	-10.1903
punktet	-10.1904
▁sunn	-10.1907
regionen	-10.1914
▁arv	-10.1924
▁tilfelle	-10.193
▁kryss	-10.1956
▁tromsø	-10.1957
▁salg	-10.1957
fyr	-10.1962
▁utenriks	-10.1968
▁andersen	-10.1968
▁innspilling	-10.1972
▁falt	-10.1979
halvøya	-10.1981
gjen	-10.1991
▁skyld	-10.1992
▁sab	-10.1992
▁salme	-10.1999
utgivelse	-10.2007
▁millimeter	-10.2009
▁1953	-10.2009
▁1954	-10.2009
▁kjennetegn	-10.2009
▁fengsel	-10.2009
▁arthur	-10.2009
▁fattig	-10.2009
▁utenlandsk	-10.2011
mønster	-10.2011
▁top	-10.2011
▁generasjon	-10.2011
▁vokser	-10.2015
vika	-10.2018
invest	-10.2034
▁billed	-10.2044
▁kaller	-10.2045
▁kjøl	-10.2053
▁skar	-10.2058
▁henri	-10.2074
magasinet	-10.2084
ito	-10.2084
▁wil	-10.2085
▁forbundet	-10.2096
▁endt	-10.211
▁innsjø	-10.2119
▁tenk	-10.2123
ikasjon	-10.2136
årig	-10.2138
▁innflytelse	-10.2152
▁mexico	-10.2152
▁kunnskap	-10.2152
▁oversettelse	-10.2152
▁medlemmene	-10.2153
ла	-10.2156
▁tildele	-10.2157
▁nærheten	-10.2159
▁arkeolog	-10.2159
▁uttalt	-10.2164
▁fungere	-10.2165
▁bosetning	-10.2167
▁stabil	-10.2167
duksjon	-10.2167
▁kvart	-10.2168
hof	-10.2184
myr	-10.219
▁fotograf	-10.2191
▁oh	-10.2192
versjon	-10.2192
▁slå	-10.2202
amerikanske	-10.2206
forsvar	-10.2209
front	-10.2209
▁bag	-10.221
lønn	-10.221
▁hydro	-10.2218
▁jud	-10.222
bakterie	-10.2222
▁avhengig	-10.2226
▁ray	-10.2231
▁upp	-10.2237
▁skarp	-10.2238
vev	-10.224
▁republi	-10.2247
avtale	-10.2251
▁regional	-10.2265
fell	-10.2268
▁måne	-10.228
løk	-10.2288
▁østerriksk	-10.2297
▁komponert	-10.2297
▁nikola	-10.2297
▁gustav	-10.2297
▁fysisk	-10.2297
▁rolf	-10.2298
▁signal	-10.2299
▁philip	-10.2301
opplysning	-10.2308
▁veldig	-10.2318
▁herman	-10.2323
▁modellen	-10.2323
▁sukker	-10.2329
▁fløy	-10.2329
▁dol	-10.2332
▁singel	-10.2335
▁math	-10.2354
kontroll	-10.2355
hånd	-10.2356
politikk	-10.2357
stell	-10.2358
▁nei	-10.2361
marked	-10.2362
▁status	-10.2369
▁preget	-10.2371
koll	-10.2371
▁aas	-10.2378
▁orient	-10.2378
▁endelig	-10.238
▁fett	-10.2398
▁spin	-10.2406
▁hil	-10.2412
29	-10.2418
▁frihet	-10.2425
drevet	-10.2428
snegl	-10.2428
tsu	-10.2433
ь	-10.2443
▁tron	-10.2443
▁fødsel	-10.2444
▁nødvendig	-10.2444
▁debutalbum	-10.2444
▁eventuel	-10.2444
▁rektor	-10.2445
ressurs	-10.2445
▁edvard	-10.2446
▁henholdsvis	-10.2447
▁videregående	-10.2448
▁län	-10.2454
ington	-10.2454
▁nedlagt	-10.2457
▁vill	-10.2459
tjenesten	-10.246
▁vist	-10.2462
▁tråd	-10.2465
▁smak	-10.2477
▁legger	-10.2478
▁kulturminner	-10.2486
bygget	-10.2488
▁tapte	-10.2507
magasin	-10.2518
▁600	-10.2523
masse	-10.2523
forbundet	-10.2525
▁qing	-10.2526
▁rov	-10.2546
▁qua	-10.2547
gass	-10.2547
▁museet	-10.2569
▁dekket	-10.2583
profil	-10.2585
▁telemark	-10.2586
perioden	-10.2593
▁hebraisk	-10.2593
▁yrkes	-10.2593
▁geometri	-10.2593
▁mekanisk	-10.2593
▁global	-10.2594
▁omtales	-10.2596
▁endringer	-10.2598
▁rod	-10.2611
bryter	-10.2626
▁kåre	-10.2634
▁christi	-10.2635
▁boka	-10.2638
▁dru	-10.2653
▁ungdom	-10.2668
▁game	-10.2673
domstol	-10.2692
āng	-10.2702
▁palm	-10.2709
fugler	-10.2714
▁800	-10.2715
▁lykke	-10.2716
▁proto	-10.2722
▁vingene	-10.273
turnering	-10.2744
▁initiativ	-10.2745
▁1951	-10.2745
▁county	-10.2745
▁science	-10.2745
frekvens	-10.2745
▁ekstrem	-10.2745
▁fjær	-10.2745
▁begynnelsen	-10.2745
▁nærmere	-10.2746
▁grunnlegge	-10.2747
plattform	-10.2747
givning	-10.2747
▁oberst	-10.2747
▁1937	-10.2748
▁verb	-10.2748
▁dvs	-10.2758
▁reiste	-10.2758
▁kvinnelige	-10.2761
▁oppnådd	-10.2764
▁nederland	-10.2766
rygg	-10.2774
▁ulik	-10.281
instrument	-10.2816
akademi	-10.2816
▁kata	-10.2821
bukk	-10.2832
oid	-10.2833
bøker	-10.2835
▁blind	-10.2842
▁sender	-10.2843
▁spring	-10.2844
▁komedie	-10.2844
▁sovjetisk	-10.2847
▁bau	-10.285
▁trond	-10.2852
▁musikalsk	-10.2864
▁kvalitet	-10.287
administrasjon	-10.2877
▁medisinsk	-10.2878
▁intens	-10.2883
▁studier	-10.289
kommunikasjon	-10.289
▁introdusert	-10.2899
▁skottland	-10.2899
▁tyrkisk	-10.2899
▁sigurd	-10.2899
▁kobber	-10.2899
▁etterfølger	-10.29
▁1936	-10.2902
faktor	-10.2904
dommer	-10.2905
▁ash	-10.2906
bach	-10.2908
▁europe	-10.2916
▁jin	-10.2918
▁energiselskape	-10.292
▁birk	-10.2932
visning	-10.296
▁tradisjonel	-10.2967
▁skille	-10.2969
▁samarbeidet	-10.2978
skjold	-10.2979
tittel	-10.2981
▁utløp	-10.2997
▁tell	-10.3006
▁bang	-10.3007
▁vev	-10.3016
lock	-10.3018
▁sav	-10.3025
▁bidra	-10.3031
▁mach	-10.3034
▁undervisning	-10.3035
etten	-10.3037
▁dannes	-10.3044
▁elektro	-10.3045
setting	-10.3055
ος	-10.3056
▁deltaker	-10.3058
terminal	-10.3059
▁ligner	-10.306
▁komposisjon	-10.306
▁brown	-10.3061
▁johansen	-10.3075
▁amb	-10.3086
▁agder	-10.309
▁karakteristisk	-10.3091
▁konkurransen	-10.3101
▁ledes	-10.3107
▁befinne	-10.3108
▁morgen	-10.3108
▁vestlige	-10.3113
▁grim	-10.3115
vakt	-10.3117
▁begrep	-10.3136
sønn	-10.3138
▁krok	-10.3144
▁82	-10.3156
spiss	-10.3157
▁rulle	-10.3169
▁forsøkt	-10.3182
▁strekk	-10.3189
iserer	-10.319
▁tun	-10.3191
▁big	-10.3193
▁prosjektet	-10.3197
vatn	-10.3206
rykket	-10.321
▁katedral	-10.3214
▁umiddelbar	-10.3214
▁utgangspunkt	-10.3214
▁monument	-10.3214
sekvens	-10.3214
▁nicola	-10.3214
komité	-10.3215
▁arendal	-10.3215
▁blanding	-10.3215
▁fjernsyn	-10.3217
▁snart	-10.3218
typer	-10.3218
rettigheter	-10.3218
▁raf	-10.322
bebyggelse	-10.3221
▁social	-10.3222
▁life	-10.3226
▁hypo	-10.3229
▁german	-10.3232
▁gradvis	-10.3242
▁arkitektur	-10.3242
▁shu	-10.3244
▁kapp	-10.3245
ww	-10.3246
serie	-10.3255
melding	-10.3259
verden	-10.326
komst	-10.3266
▁egil	-10.3281
▁sara	-10.3282
regning	-10.3294
forvaltning	-10.33
▁vii	-10.3311
tunnel	-10.3312
vall	-10.3313
kelsen	-10.3314
hydr	-10.3322
sending	-10.3329
▁fritt	-10.333
▁elske	-10.3337
lignende	-10.336
mä	-10.3361
▁bull	-10.3362
orum	-10.3365
▁utvikler	-10.3372
▁krevde	-10.3375
▁minutter	-10.3375
førsel	-10.3375
▁belgia	-10.3375
pedagog	-10.3375
▁integr	-10.3375
▁beregne	-10.3375
▁mangle	-10.3378
▁definere	-10.3378
▁fry	-10.3378
▁michel	-10.3386
▁franz	-10.3386
▁hersker	-10.3387
▁metro	-10.3421
▁verksted	-10.3434
type	-10.3436
▁produsere	-10.3437
strup	-10.3459
stemme	-10.3462
politisk	-10.3471
forsyning	-10.3472
tekst	-10.3474
▁elektronisk	-10.3478
▁normal	-10.3488
tysk	-10.3501
▁kino	-10.3504
▁corn	-10.3533
▁bog	-10.3538
▁california	-10.3539
▁installert	-10.3539
▁publikum	-10.3539
▁trommeslager	-10.3539
▁1904	-10.3539
▁1943	-10.3539
▁dekkvingene	-10.3539
▁regissør	-10.3539
▁vulkan	-10.3539
▁kritikk	-10.3539
▁http	-10.3539
▁positiv	-10.3539
artilleri	-10.354
▁inndelt	-10.3556
▁henhold	-10.356
▁skaper	-10.3563
krutt	-10.3568
▁lyng	-10.357
▁forbunds	-10.3571
▁qi	-10.3601
▁emil	-10.3615
sentre	-10.3618
▁rap	-10.3621
ætt	-10.3624
øvelse	-10.3633
tårnet	-10.3643
▁pont	-10.3645
ittisk	-10.3649
teater	-10.3657
▁grov	-10.3664
▁mynt	-10.3674
dahl	-10.3678
tempelet	-10.3684
ер	-10.3686
hed	-10.3694
▁overflate	-10.3697
ч	-10.3703
gav	-10.3705
▁symptom	-10.3705
▁negativ	-10.3705
▁jødisk	-10.3706
▁kriminal	-10.3706
lista	-10.3707
▁linux	-10.3708
▁litterær	-10.3708
▁drammen	-10.3708
▁sverre	-10.3709
▁mannskapet	-10.371
▁svein	-10.3711
▁bidro	-10.3713
▁akk	-10.3719
▁piano	-10.3722
▁good	-10.3733
chang	-10.3737
▁oversikt	-10.3738
▁persisk	-10.374
▁tilsvare	-10.3746
▁fau	-10.3749
hvit	-10.3755
▁ufor	-10.3756
▁munk	-10.3759
▁arena	-10.3763
▁drikke	-10.3774
▁elektron	-10.3778
sundet	-10.3787
løft	-10.3794
▁xu	-10.38
skrive	-10.3808
īn	-10.3812
▁vekk	-10.3813
▁larve	-10.3818
utstilling	-10.383
seth	-10.3841
▁khan	-10.3844
▁vass	-10.3861
krig	-10.3865
▁kvit	-10.3867
kjerne	-10.3875
▁akershus	-10.3875
▁restaurant	-10.3875
admiral	-10.3875
▁avhandling	-10.3875
▁kommersiell	-10.3875
▁fortsetter	-10.3875
▁1927	-10.3877
▁mul	-10.3877
▁1934	-10.3877
▁datamaskin	-10.3877
▁1935	-10.3877
▁1924	-10.3877
▁1917	-10.3877
▁finnmark	-10.3879
▁lord	-10.3884
▁filip	-10.3884
ōng	-10.3888
nemlig	-10.3892
▁aero	-10.3893
pati	-10.3894
kolleg	-10.3899
▁plassering	-10.3901
gram	-10.3911
rough	-10.3914
mesterskapet	-10.3919
▁preg	-10.3919
▁tempel	-10.3919
▁erstatte	-10.392
▁who	-10.3921
▁innerst	-10.3941
▁begrave	-10.3942
brakt	-10.3947
utøver	-10.3964
▁kau	-10.3987
kunstner	-10.3994
bury	-10.4004
▁rosa	-10.4017
forestilling	-10.4037
▁verneområde	-10.4045
journal	-10.4045
▁anerkjent	-10.4047
▁windows	-10.4047
▁fenomen	-10.4047
▁sykkel	-10.4047
▁nedbør	-10.4048
▁slette	-10.4049
▁1932	-10.405
▁1911	-10.405
▁mølle	-10.4051
▁telefon	-10.4052
komiteen	-10.4054
▁sveitsisk	-10.4056
▁eksport	-10.4057
▁bodø	-10.406
▁diesel	-10.4061
▁hitler	-10.4062
▁beau	-10.4079
▁anse	-10.4086
▁nordover	-10.4098
▁marg	-10.4105
asso	-10.4111
bæk	-10.4111
▁hyper	-10.4118
▁platen	-10.4119
▁nevne	-10.4128
listen	-10.4128
áng	-10.4141
▁fantes	-10.4145
▁anker	-10.4153
▁katt	-10.4159
bibliotek	-10.4163
▁utkom	-10.4163
grønn	-10.4163
hjelp	-10.4164
▁gaten	-10.4166
▁nyere	-10.4172
burn	-10.4174
▁water	-10.4176
redskap	-10.4176
▁stilt	-10.4205
▁naturreservat	-10.4223
eksperiment	-10.4223
▁erkebiskop	-10.4223
▁erklært	-10.4223
▁ytterst	-10.4223
molekyl	-10.4223
▁oppstår	-10.4223
▁alvorlig	-10.4223
lengde	-10.4224
▁1922	-10.4225
▁firmaet	-10.4226
▁elementer	-10.4229
fysik	-10.423
relatert	-10.4231
▁1000	-10.4233
▁demningen	-10.4239
hjort	-10.4249
▁bredde	-10.4254
styring	-10.4257
▁flåte	-10.4271
▁ker	-10.4281
▁ove	-10.4291
▁underfamilien	-10.4295
àn	-10.4298
▁white	-10.4308
ра	-10.431
▁athen	-10.4311
ulykke	-10.4334
sosialistisk	-10.4336
posisjon	-10.4336
bord	-10.4347
▁audi	-10.435
▁tø	-10.4353
▁regjer	-10.4377
fortelling	-10.4386
støtte	-10.4389
løytnant	-10.4401
▁elizabeth	-10.4401
▁shanghai	-10.4401
▁skulptur	-10.4401
▁gymnas	-10.4401
▁konsept	-10.4401
▁sjeldne	-10.4401
▁league	-10.4401
▁tidsskriftet	-10.4401
▁skildre	-10.4402
▁batteri	-10.4402
▁psykologi	-10.4402
▁sprint	-10.4402
▁terror	-10.4403
▁radikal	-10.4403
▁antonio	-10.4407
▁jackson	-10.4409
gran	-10.4412
▁forsterke	-10.4419
▁orgel	-10.4421
▁delstat	-10.4424
▁victoria	-10.4424
brett	-10.4427
▁great	-10.4444
▁effektiv	-10.4446
▁smerte	-10.4451
▁utøve	-10.4453
▁pub	-10.4455
▁estland	-10.4461
▁antennene	-10.4466
▁fargen	-10.4478
kjøring	-10.4481
▁grei	-10.4489
verktøy	-10.4498
wick	-10.4505
utgave	-10.4513
▁busk	-10.4519
▁forklare	-10.4519
▁overført	-10.4521
fallende	-10.4522
tromm	-10.4523
▁bow	-10.4527
medisin	-10.4529
direktør	-10.453
▁karbon	-10.4539
løpere	-10.4542
ва	-10.4547
▁rav	-10.4551
▁revolusjon	-10.4555
kling	-10.4578
døgnflue	-10.4583
▁1909	-10.4583
▁electric	-10.4583
▁portugisisk	-10.4583
▁1905	-10.4583
▁australsk	-10.4583
komponent	-10.4583
bataljon	-10.4583
▁nominert	-10.4583
▁alexandr	-10.4583
vassdraget	-10.4583
▁doktorgrad	-10.4584
▁gabriel	-10.4584
▁utbredt	-10.4584
▁belgisk	-10.4584
▁rekord	-10.4584
▁faktisk	-10.4585
worth	-10.4586
▁stiftelsen	-10.4587
▁vannkraftverk	-10.4588
▁nasjon	-10.4588
flukt	-10.4589
▁wolf	-10.4593
løv	-10.4594
▁ansikt	-10.4599
▁skjell	-10.4599
▁ltd	-10.4601
▁kommunist	-10.4602
▁1500	-10.4608
stråle	-10.4614
▁reserve	-10.4616
periode	-10.4617
æg	-10.4617
▁geir	-10.4618
▁filosof	-10.4619
▁hovedsak	-10.4621
▁blande	-10.4623
▁ulv	-10.4631
▁innebære	-10.4657
▁skape	-10.4659
▁falk	-10.4659
▁praktisk	-10.4664
▁krim	-10.4689
register	-10.4693
sikkerhet	-10.4695
vendte	-10.4696
ruter	-10.4697
▁wang	-10.4701
▁kristne	-10.4702
▁skall	-10.4715
medlem	-10.4716
transport	-10.4719
konsert	-10.472
nytt	-10.4749
▁ansett	-10.4755
følgende	-10.4768
▁hovedkvarter	-10.4768
▁oppmerksomhet	-10.4768
▁forgjenger	-10.4768
▁ludvig	-10.4768
▁evangeli	-10.4768
▁kristiansand	-10.4769
▁frivillig	-10.4769
▁fjellkjede	-10.4769
▁fiolin	-10.4769
▁astronomi	-10.4769
▁utmerkelse	-10.4769
▁fysikk	-10.4769
▁für	-10.477
▁1929	-10.477
▁import	-10.477
▁josé	-10.4771
▁1918	-10.4771
▁norman	-10.4774
▁axel	-10.4775
bestemmelse	-10.4775
▁frykt	-10.4776
mission	-10.4777
▁øks	-10.478
▁alpin	-10.4782
▁diplomat	-10.4787
kongen	-10.4787
▁terje	-10.4788
▁1600	-10.4791
▁young	-10.4805
▁johnson	-10.4809
▁pall	-10.4822
▁sovjet	-10.4831
slått	-10.4832
▁46	-10.484
støv	-10.4841
tind	-10.4859
▁bratt	-10.4861
duk	-10.4862
▁clo	-10.488
▁sou	-10.4884
▁roger	-10.4885
redaksjon	-10.4894
flate	-10.4895
▁frei	-10.4902
▁700	-10.4908
▁mou	-10.493
▁brødrene	-10.4957
▁ukrainsk	-10.4957
▁1902	-10.4957
▁tønsberg	-10.4957
▁vesentlig	-10.4957
veksling	-10.4957
▁rogaland	-10.4957
▁skihopp	-10.4957
▁muslim	-10.4957
alfabet	-10.4959
▁1921	-10.496
▁anklage	-10.496
▁stefan	-10.496
▁hindre	-10.4962
opplæring	-10.4962
▁protest	-10.4962
▁signert	-10.4969
strøk	-10.4973
▁uavhengighet	-10.4979
▁behov	-10.4995
▁jernbanestasjon	-10.4995
melk	-10.5
gutt	-10.5011
▁tidspunkt	-10.5015
▁shar	-10.502
rico	-10.5037
▁troms	-10.5043
ст	-10.5049
lidelse	-10.5066
▁trekant	-10.5068
▁öst	-10.5068
▁beskrev	-10.5071
▁høv	-10.5107
▁victor	-10.5125
▁mitt	-10.5133
recht	-10.5142
▁vietnam	-10.5149
konservativ	-10.5149
▁corporation	-10.5149
nskripsjon	-10.5149
kompetanse	-10.5149
▁ungarsk	-10.515
grunnlaget	-10.515
▁spreng	-10.515
konvensjon	-10.5151
▁gråbrun	-10.5152
▁vanligst	-10.5153
▁1910	-10.5153
apparat	-10.5154
▁programvare	-10.5158
▁fremført	-10.5158
▁pedersen	-10.5158
▁hovedkontor	-10.516
▁ørken	-10.5161
▁fredrikstad	-10.5162
work	-10.5163
planter	-10.5166
▁nep	-10.5168
▁kommunikasjons	-10.5169
▁kristin	-10.5177
▁talent	-10.5177
oppgaver	-10.5179
▁angi	-10.5182
▁utvikle	-10.5183
▁markere	-10.5192
jä	-10.5192
▁ernst	-10.5206
▁besetning	-10.521
▁nerve	-10.5215
▁konstantin	-10.5217
▁oval	-10.5218
▁stab	-10.5225
▁lunge	-10.5226
ро	-10.5226
blå	-10.5228
▁small	-10.523
speil	-10.523
pekte	-10.5246
▁kunde	-10.5246
stigning	-10.5258
samband	-10.5267
behandling	-10.5307
▁bosatt	-10.5308
▁sving	-10.5341
ин	-10.5342
▁krystall	-10.5345
▁beseiret	-10.5345
▁byfylke	-10.5345
▁1906	-10.5345
▁francisco	-10.5345
▁reklame	-10.5345
▁antagelig	-10.5345
▁ytterkant	-10.5345
▁kritiker	-10.5346
▁respekt	-10.5346
▁juridisk	-10.5346
▁tilskuer	-10.5346
▁noctu	-10.5346
▁følelse	-10.5346
▁vestfold	-10.5347
▁1915	-10.5348
▁beholdt	-10.5348
▁programleder	-10.5349
▁radi	-10.5352
▁hemmelig	-10.5352
▁røyk	-10.5353
▁neo	-10.5353
zhi	-10.5354
hår	-10.5358
▁bygninger	-10.5358
rute	-10.5359
givelse	-10.5359
srekord	-10.5359
▁kommunistisk	-10.5361
▁nekte	-10.5364
▁ombord	-10.5364
▁kjørt	-10.5376
▁tynn	-10.5379
▁frakte	-10.5408
republik	-10.5413
▁eb	-10.5418
ogram	-10.5422
zza	-10.5422
fabrik	-10.5426
▁ansatt	-10.5488
▁kommun	-10.5497
offiser	-10.5511
problem	-10.5511
karriere	-10.5516
▁heid	-10.5517
avisen	-10.5522
kål	-10.5522
foretak	-10.5524
celler	-10.5532
▁barcelona	-10.5545
▁sanskrit	-10.5545
▁godkjent	-10.5545
▁praksis	-10.5545
konsulent	-10.5545
▁hyppig	-10.5545
grunnsstasjon	-10.5546
symfoni	-10.5546
▁terreng	-10.5546
▁josef	-10.5546
▁1933	-10.5548
▁1919	-10.5548
▁påvirket	-10.5549
▁1912	-10.5549
▁debatt	-10.5549
▁søndr	-10.5549
▁fuktig	-10.5551
▁tegninger	-10.5551
▁generell	-10.5552
▁biografi	-10.5555
▁rau	-10.5556
▁lokalisert	-10.5557
▁øke	-10.5564
skaja	-10.5581
▁forvalte	-10.5583
▁million	-10.5584
▁panser	-10.5594
seksjon	-10.5609
▁modern	-10.561
▁reich	-10.5625
▁georgia	-10.5643
▁psyko	-10.5645
▁urban	-10.5655
▁140	-10.5662
▁110	-10.5694
struktur	-10.5719
representant	-10.5719
▁konflikt	-10.575
▁midlertidig	-10.575
▁varaordfører	-10.575
seremoni	-10.575
budsjett	-10.575
▁permanent	-10.575
▁geografisk	-10.575
▁hjørne	-10.575
▁fiktiv	-10.575
▁heinric	-10.575
▁væske	-10.5751
▁forkortelse	-10.5751
▁tropisk	-10.5752
▁1916	-10.5753
▁monark	-10.5754
▁embets	-10.5755
▁unntak	-10.5755
▁pierre	-10.5755
▁2018	-10.5755
trukket	-10.5758
▁antikken	-10.5759
▁night	-10.5771
▁østover	-10.5784
schaft	-10.5787
▁kvad	-10.58
▁statsråd	-10.5806
▁lill	-10.5807
▁chris	-10.5808
▁egyptisk	-10.5809
▁musikal	-10.5812
▁inneha	-10.5828
▁silke	-10.5837
registre	-10.5846
▁islandsk	-10.586
statue	-10.589
▁slave	-10.5891
gudinne	-10.5911
myndighet	-10.5932
temperatur	-10.5932
ship	-10.5939
arkiv	-10.5949
▁aleksandr	-10.5958
▁konstruert	-10.5958
▁research	-10.5958
▁society	-10.5958
▁1908	-10.5958
▁undergrunnsbane	-10.5958
▁taylor	-10.5958
▁ødelegge	-10.5958
▁virkning	-10.5958
▁bjerk	-10.5959
▁1926	-10.596
▁tømmer	-10.596
▁arbeiderpartiet	-10.5961
▁trenger	-10.5963
▁bridge	-10.5965
▁samuel	-10.5972
protokoll	-10.5973
▁feire	-10.5974
▁hamburg	-10.5975
▁gjennomføre	-10.5977
vík	-10.5983
▁angeles	-10.6
▁hellas	-10.6001
▁jonas	-10.601
binding	-10.6017
▁børste	-10.6018
▁baby	-10.6041
▁brent	-10.6049
▁punk	-10.6077
føtt	-10.6077
▁intel	-10.6082
▁skikk	-10.6086
opptil	-10.6095
hawk	-10.6131
▁wild	-10.6136
stamme	-10.6138
▁misjons	-10.6142
regjering	-10.6149
møll	-10.6161
radio	-10.6164
▁hö	-10.6167
▁1907	-10.6171
▁ferdinand	-10.6171
▁vedlikehold	-10.6171
▁dirigent	-10.6171
▁østfold	-10.6171
▁ovenfor	-10.6171
▁risiko	-10.6171
konferanse	-10.6171
▁brigade	-10.6171
▁barnehage	-10.6172
▁1923	-10.6173
▁fangst	-10.6173
stipend	-10.6173
▁tallrike	-10.6174
▁gullmedalje	-10.6176
▁gravlagt	-10.6178
▁alpinist	-10.6189
▁inngikk	-10.6192
▁divers	-10.6199
lende	-10.62
syssel	-10.6202
▁kjønns	-10.6204
▁operativsystem	-10.6206
▁sørover	-10.6216
▁melke	-10.6228
▁hytte	-10.6242
▁variert	-10.6252
azar	-10.6254
▁kaffe	-10.6257
▁thu	-10.6258
bringe	-10.6263
▁britis	-10.6274
kommende	-10.6277
▁massa	-10.6324
▁geit	-10.6341
ingeniør	-10.6371
▁association	-10.6388
▁douglas	-10.6388
▁renessanse	-10.6388
▁vladimir	-10.6388
▁asteroide	-10.6388
▁pakistan	-10.6388
▁reference	-10.6388
▁antarktis	-10.6388
▁giovann	-10.6388
▁valuta	-10.6389
▁separat	-10.6389
▁tilpasset	-10.6389
▁partner	-10.6389
▁andré	-10.639
▁1914	-10.6391
▁smelte	-10.6393
▁koreansk	-10.6394
▁formula	-10.6396
montert	-10.6397
▁bevege	-10.64
▁trenings	-10.64
▁skytter	-10.6401
▁anledning	-10.6404
▁right	-10.6407
▁bønn	-10.6407
▁etappe	-10.6408
▁onkel	-10.641
▁håndverk	-10.6415
▁1890	-10.6416
▁sammenlagt	-10.6418
▁dramatisk	-10.6472
▁voksen	-10.6478
▁sørge	-10.6483
▁forvaltnings	-10.6492
aften	-10.6498
palasset	-10.6523
▁plast	-10.6533
fattet	-10.654
▁wol	-10.6555
▁israelsk	-10.6557
▁900	-10.6558
▁hä	-10.6558
prøv	-10.6565
medlemmer	-10.6569
▁henge	-10.6572
▁synge	-10.6587
▁sammensatt	-10.6588
▁skuespill	-10.6591
interesser	-10.6597
sentral	-10.6605
▁münchen	-10.661
▁buddhist	-10.661
▁guvernør	-10.661
▁1892	-10.661
▁komplett	-10.661
▁parallell	-10.661
▁søndag	-10.661
▁thailand	-10.661
▁kjøpmann	-10.6611
▁prinsesse	-10.6611
▁protein	-10.6611
konsernet	-10.6612
▁føderal	-10.6612
▁flytende	-10.6613
▁afrikansk	-10.6613
▁generalsekretær	-10.6613
▁avledet	-10.6613
▁skøyte	-10.6614
▁musik	-10.6618
▁tørke	-10.6621
▁høyesterett	-10.6622
▁allmenn	-10.6625
kampanje	-10.6625
▁nepal	-10.6626
▁alex	-10.663
▁maritim	-10.663
▁prosti	-10.6643
▁grønland	-10.6658
▁mau	-10.6672
forståelse	-10.6679
▁låten	-10.6699
▁arab	-10.6701
▁puppe	-10.6704
tveit	-10.6735
▁drepe	-10.674
skyting	-10.6758
▁konstant	-10.6759
▁forskjellig	-10.6784
sykdom	-10.6834
▁oppnå	-10.6835
▁lillehammer	-10.6837
▁oksygen	-10.6837
▁country	-10.6838
▁intervju	-10.6838
▁christopher	-10.6838
▁texas	-10.6838
▁kommentar	-10.6838
▁regulert	-10.6838
▁church	-10.6838
traktaten	-10.6838
regulering	-10.6838
▁vegetasjon	-10.6838
▁originaltittel	-10.6838
▁lewis	-10.6839
▁stadium	-10.6839
▁1931	-10.684
▁1913	-10.684
▁bedriften	-10.684
▁isbn	-10.6841
▁gratis	-10.6843
▁erfaring	-10.6843
▁mandat	-10.6851
▁lisens	-10.6853
▁johnny	-10.6856
▁forbinde	-10.6861
▁fabrikken	-10.6866
▁beskyttelse	-10.6868
▁grund	-10.6871
▁automatisk	-10.6871
▁manuel	-10.6871
▁colo	-10.6876
▁hotel	-10.6878
▁prinsipp	-10.6881
▁koble	-10.6883
ск	-10.6895
▁oppfatte	-10.6918
▁næringsliv	-10.6932
▁prakt	-10.6953
soldater	-10.6954
pleie	-10.697
▁nevro	-10.6991
▁basis	-10.7037
▁kontrollert	-10.7049
teknologi	-10.7069
▁verdensmester	-10.7069
resultat	-10.707
direktoratet	-10.707
▁akseptert	-10.707
▁jurisdiksjon	-10.707
▁milliarder	-10.707
▁washington	-10.707
▁1882	-10.707
▁sophie	-10.707
▁veksel	-10.707
▁adolf	-10.707
brønn	-10.707
▁forsvant	-10.707
▁eiendommen	-10.707
▁patriark	-10.7071
▁spredt	-10.7072
betjent	-10.7072
▁opposisjon	-10.7072
▁fungert	-10.7074
kobling	-10.7074
▁tennis	-10.7075
diagnose	-10.7075
▁igjennom	-10.7076
▁styreleder	-10.7076
lending	-10.7078
▁bispe	-10.7079
liknende	-10.7082
▁fuji	-10.7084
utvalget	-10.7087
▁nordsamisk	-10.7091
hausen	-10.7092
▁idé	-10.7094
overflaten	-10.7098
mottaker	-10.7144
▁bassist	-10.7146
brand	-10.7156
▁palass	-10.7164
▁klage	-10.7176
▁demokratisk	-10.7216
gruppa	-10.7281
▁arrangør	-10.7308
▁matematikk	-10.7308
▁spesifik	-10.7308
▁jersey	-10.7308
▁pseudonym	-10.7308
▁ødelagt	-10.7308
▁alminnelig	-10.7308
▁kavaleri	-10.7308
vurdering	-10.7308
▁heavy	-10.7308
▁central	-10.7309
▁regulere	-10.7309
▁pepper	-10.731
▁efter	-10.731
ма	-10.7313
orkester	-10.7313
▁disney	-10.7313
europeisk	-10.7313
▁energy	-10.7314
▁fortellinger	-10.7314
tradisjon	-10.7314
▁bensin	-10.7314
▁mengder	-10.7315
programmet	-10.7322
▁riktig	-10.7325
▁down	-10.7331
ière	-10.7332
▁ungdomsskole	-10.7342
▁hjemmebane	-10.7354
▁beskrivelse	-10.7355
kongress	-10.7372
▁agent	-10.7406
blikk	-10.7419
kritisk	-10.7423
kjøl	-10.7423
▁høg	-10.7434
▁etnisk	-10.7441
time	-10.7444
areal	-10.746
flåten	-10.7487
forsamlingen	-10.7501
▁aluminium	-10.7552
▁bulgarsk	-10.7552
▁guangdong	-10.7552
▁istedenfor	-10.7552
▁1881	-10.7552
▁amatør	-10.7552
leverandør	-10.7552
▁margaret	-10.7552
▁stephen	-10.7553
▁detaljer	-10.7553
▁allierte	-10.7553
▁oppstod	-10.7553
▁senior	-10.7553
statistikk	-10.7553
▁bedrifter	-10.7553
▁bevisst	-10.7554
▁monroe	-10.7554
▁beskjed	-10.7554
turbiner	-10.7556
▁1925	-10.7556
▁romsdal	-10.7557
evitsj	-10.7558
▁ideologi	-10.7559
▁wilson	-10.7561
▁valgdelta	-10.7562
▁turneringen	-10.7565
▁avansert	-10.7566
▁vandre	-10.7568
▁rytter	-10.7571
▁moderat	-10.7579
▁hvile	-10.7582
maleri	-10.7584
▁fasci	-10.7597
▁unngå	-10.7633
▁fortalt	-10.7634
vandring	-10.7639
та	-10.7698
▁løfte	-10.7714
▁utarbeide	-10.7751
emmelig	-10.7753
▁størst	-10.7773
▁akku	-10.7789
▁jente	-10.7792
▁klippe	-10.7793
▁friidrett	-10.7802
▁afghanistan	-10.7802
▁færøysk	-10.7802
▁involvert	-10.7802
▁definisjon	-10.7802
▁ferskvann	-10.7802
▁abraham	-10.7802
▁foregår	-10.7802
infeksjon	-10.7802
▁kombinasjon	-10.7802
▁grün	-10.7802
elefant	-10.7802
▁lørdag	-10.7802
köping	-10.7802
▁underholdning	-10.7802
▁kritisert	-10.7802
▁dokumentar	-10.7803
▁utvidelse	-10.7803
▁vakre	-10.7803
▁allianse	-10.7804
▁fylkeskommune	-10.7804
▁foreslått	-10.7805
▁elleve	-10.7805
▁dømt	-10.7806
▁oldtiden	-10.7808
▁opplevd	-10.7809
▁bbc	-10.781
▁hydrogen	-10.781
terapi	-10.781
▁meyer	-10.7811
monopol	-10.7814
bourne	-10.7816
▁stykket	-10.7818
divisjon	-10.782
redaktør	-10.782
utdanning	-10.782
▁benevn	-10.7821
▁jacobsen	-10.7821
vesenet	-10.7825
angrep	-10.7825
▁barneskole	-10.7883
pakke	-10.7893
▁ideal	-10.7902
▁anslå	-10.7909
artikkel	-10.7934
posit	-10.8016
regime	-10.8047
krem	-10.8047
▁disiplin	-10.8058
▁forøvrig	-10.8058
▁ludwig	-10.8058
▁observert	-10.8058
▁sammenslåing	-10.8058
▁vilhelm	-10.8059
▁etterkommer	-10.8059
▁innbyggerne	-10.8059
▁frilufts	-10.8059
▁tvilling	-10.8059
▁selvmord	-10.8059
▁ordinær	-10.8059
▁biologisk	-10.8059
▁skjebne	-10.8059
▁kallenavn	-10.806
ль	-10.806
▁larvik	-10.8061
▁klatre	-10.8061
▁hindu	-10.8064
▁angripe	-10.8065
sykler	-10.8065
▁clark	-10.8066
▁økende	-10.8067
▁ibsen	-10.807
▁frp	-10.8072
▁utgivelsen	-10.8075
▁arrest	-10.8077
▁fortellingen	-10.8079
▁avholdt	-10.8081
spect	-10.8081
arkitekt	-10.8083
▁teorien	-10.8084
aktivitet	-10.8088
svermer	-10.8089
▁meteor	-10.8102
▁material	-10.8154
orientert	-10.8178
tjern	-10.8188
▁dreie	-10.8236
го	-10.8264
▁automat	-10.8288
▁birg	-10.8289
▁bryllup	-10.8322
▁bulgaria	-10.8322
▁fakultet	-10.8322
▁frankfurt	-10.8322
▁konstitusjon	-10.8322
▁langrennsløper	-10.8322
▁microsoft	-10.8322
▁tsjekkisk	-10.8322
▁1901	-10.8322
▁portugal	-10.8322
▁ukraina	-10.8322
▁charlotte	-10.8322
▁hordaland	-10.8322
▁support	-10.8322
▁gustaf	-10.8322
▁verdenscup	-10.8322
▁opererer	-10.8322
▁flyktning	-10.8322
▁forbedre	-10.8322
▁walisisk	-10.8323
▁beordre	-10.8323
▁finskspråklig	-10.8324
▁arbeidsgiver	-10.8325
▁unntatt	-10.8326
▁operation	-10.8326
▁enhver	-10.8327
▁tilsammen	-10.8327
platå	-10.8334
▁forbruker	-10.8336
skrevet	-10.8338
svarte	-10.835
litteratur	-10.8353
oidea	-10.8353
▁ballett	-10.8355
opplevelse	-10.8359
▁revolusjonær	-10.8362
▁styremedlem	-10.8364
▁oppdagelse	-10.8372
kalender	-10.8377
vennlig	-10.8409
▁america	-10.8424
ка	-10.8464
▁database	-10.8503
▁demokrati	-10.8522
▁domkirke	-10.8544
institutt	-10.8546
▁overføre	-10.8549
▁harmoni	-10.8552
ladning	-10.8572
▁luxembourg	-10.8592
▁sichuan	-10.8592
▁1903	-10.8592
▁hiphop	-10.8592
▁syndrom	-10.8592
tolkning	-10.8593
▁rumensk	-10.8593
▁fantasi	-10.8593
▁serbisk	-10.8593
▁dominert	-10.8593
▁seinere	-10.8593
▁dollar	-10.8594
mekanisme	-10.8595
▁søvn	-10.8595
▁oppfølger	-10.8595
▁sølvmedalje	-10.8596
▁foregikk	-10.8597
▁first	-10.8597
▁bundes	-10.8597
▁squa	-10.8597
▁poesi	-10.8598
▁techn	-10.86
▁planlagt	-10.86
▁barokk	-10.8601
▁tjener	-10.8607
▁tredjeplass	-10.8609
▁krypt	-10.861
sprang	-10.8622
▁rifle	-10.8623
kreft	-10.8628
▁uniform	-10.8629
frukt	-10.8631
innskriften	-10.8636
brann	-10.864
▁øygrupp	-10.8651
utenriksminister	-10.8673
▁opprettelse	-10.8682
▁federa	-10.8688
katalog	-10.8691
▁opprette	-10.8698
ault	-10.8737
▁ligge	-10.875
ская	-10.887
▁academy	-10.887
▁orchestra	-10.887
▁skvadron	-10.887
▁tilknytning	-10.887
▁åndedrett	-10.887
▁columbia	-10.887
▁pattedyr	-10.887
▁uttrykt	-10.887
▁hybrid	-10.887
▁tilnærme	-10.887
▁colombia	-10.887
▁utdødd	-10.887
▁anerkjenne	-10.887
bjørg	-10.887
▁bærum	-10.8871
▁slovensk	-10.8871
straße	-10.8871
▁forklaring	-10.8872
▁døpt	-10.8873
▁airport	-10.8874
▁stryk	-10.8875
▁nkp	-10.8877
▁francesc	-10.8881
▁spyd	-10.8886
▁svekke	-10.8886
▁tsar	-10.8889
▁studere	-10.8892
gripe	-10.8908
▁arrestert	-10.8912
sesongen	-10.8917
face	-10.8918
house	-10.8924
åpning	-10.8927
ridge	-10.8939
▁nettside	-10.8942
lokale	-10.8946
ortsett	-10.8992
edderkopper	-10.9031
sonate	-10.9036
hefte	-10.9088
zhong	-10.9142
▁aleksander	-10.9155
▁gjaldt	-10.9155
▁sjokolade	-10.9155
▁slovakisk	-10.9155
▁systematikken	-10.9155
▁göteborg	-10.9155
territorie	-10.9155
▁fogderi	-10.9155
▁mikhail	-10.9155
▁vellykke	-10.9155
▁kennedy	-10.9155
▁kronologisk	-10.9155
▁nøyaktig	-10.9155
▁bystatus	-10.9155
▁gælisk	-10.9156
bransjen	-10.9156
▁ungarn	-10.9156
▁prince	-10.9156
▁theodor	-10.9156
▁ragnar	-10.9156
▁canadisk	-10.9156
▁muhamm	-10.9157
▁castle	-10.9157
▁riksvåpen	-10.9158
▁nyhets	-10.916
▁pastor	-10.916
▁parodi	-10.916
vilkår	-10.9161
klipp	-10.918
▁nederst	-10.918
▁holdeplass	-10.9191
▁søyle	-10.9207
musiker	-10.9223
kvinne	-10.9248
nevnte	-10.9277
▁treffe	-10.9278
basseng	-10.9288
▁inneba	-10.9299
motive	-10.9323
sparc	-10.9326
bevegelse	-10.941
▁fasettøyne	-10.9449
distribusjon	-10.945
▁eksemplarer	-10.945
▁innspilt	-10.945
▁satellitt	-10.945
▁tortricidae	-10.945
▁virginia	-10.945
▁petroleum	-10.945
▁anmelder	-10.945
▁respons	-10.945
▁könig	-10.945
▁natrium	-10.945
▁division	-10.945
▁arsenal	-10.945
syklus	-10.945
älven	-10.945
järvi	-10.945
▁svovel	-10.945
▁sachsen	-10.945
▁ektemann	-10.945
▁prosessor	-10.945
▁hvem	-10.945
▁snorre	-10.945
▁haakon	-10.945
▁hjelm	-10.945
▁avdøde	-10.945
▁kombinere	-10.9451
▁visepresident	-10.9451
▁optim	-10.9451
▁kullkraftverk	-10.9451
▁dekorert	-10.9451
▁betaling	-10.9452
▁bronsemedalje	-10.9453
▁bayern	-10.9455
▁teatr	-10.947
kvartett	-10.9513
kvalitet	-10.9514
sentrum	-10.9515
biskop	-10.9515
▁borgerkrig	-10.9522
historiker	-10.9522
▁sørsid	-10.9523
oppgjør	-10.9537
▁oppdage	-10.9542
provinshovedstad	-10.9547
skutt	-10.962
▁presis	-10.9634
kontinent	-10.9752
▁favoritt	-10.9753
▁legendarisk	-10.9753
▁låtskriver	-10.9753
▁maksimal	-10.9753
▁mobiltelefon	-10.9753
▁skjult	-10.9753
▁svalbard	-10.9753
▁business	-10.9753
▁forveksle	-10.9753
▁terrengsykli	-10.9753
▁tyrkia	-10.9753
kommanderende	-10.9753
▁chicago	-10.9753
▁skjønt	-10.9753
▁democra	-10.9753
▁jacque	-10.9753
▁prestegjeld	-10.9753
▁stridsvogn	-10.9753
▁ingrid	-10.9753
▁etablering	-10.9753
erklæring	-10.9753
▁innledet	-10.9753
▁intelligen	-10.9753
▁kontinental	-10.9754
teoretisk	-10.9754
▁særskilt	-10.9754
▁what	-10.9755
▁fasade	-10.9759
▁year	-10.9759
▁when	-10.9762
▁hovedsete	-10.9763
▁øvelsen	-10.9768
▁tolke	-10.9786
▁dobbel	-10.9825
størrelse	-10.9826
dynastiet	-10.9826
undervisning	-10.9827
studier	-10.9829
klima	-10.9832
bukten	-10.9855
nemnd	-10.9864
forekomst	-10.9865
reglene	-10.9902
krysset	-10.9912
tagelse	-10.9918
▁forekomme	-10.9943
▁sjakk	-10.9951
▁begynne	-10.9962
mynte	-10.9978
▁omhandle	-11.0015
▁operativ	-11.0017
▁inspirasjon	-11.0064
døyelsesorgane	-11.0065
plantningsorgan	-11.0065
▁football	-11.0065
▁fremtredende	-11.0065
▁generalmajor	-11.0065
▁illustrert	-11.0065
▁infanteri	-11.0065
▁mangfold	-11.0065
▁salvador	-11.0065
▁sarpsborg	-11.0065
▁wergeland	-11.0065
▁norwegi	-11.0065
▁müller	-11.0065
▁1894	-11.0065
▁styrmann	-11.0065
▁buskerud	-11.0065
▁nelson	-11.0065
avslutning	-11.0065
sylindre	-11.0065
▁innbefatte	-11.0065
▁henrettelse	-11.0066
▁uvanlig	-11.0066
▁korrekt	-11.0066
▁splitt	-11.0066
▁bmw	-11.0066
▁klaver	-11.0067
▁again	-11.0067
▁grieg	-11.0069
▁foretrekke	-11.0079
økologi	-11.008
drevne	-11.0085
▁rytme	-11.0087
mouth	-11.0088
▁fulgt	-11.0101
dolph	-11.0126
karbonat	-11.0143
president	-11.0148
innspilling	-11.0148
▁usikker	-11.0163
kryp	-11.0169
▁diplom	-11.0355
reservoar	-11.0388
▁basketball	-11.0388
▁etiopia	-11.0388
▁inklusiv	-11.0388
▁keyboard	-11.0388
▁kronprins	-11.0388
▁kvalifisering	-11.0388
▁lokomotiv	-11.0388
▁pradesh	-11.0388
▁shakespeare	-11.0388
▁benjamin	-11.0388
▁foundation	-11.0388
▁rudolf	-11.0388
▁overvåke	-11.0388
▁annonsert	-11.0388
▁kroatisk	-11.0388
▁krohn	-11.0388
▁1889	-11.0388
▁apotek	-11.0388
▁litauen	-11.0388
▁public	-11.0388
▁antyder	-11.0388
▁1853	-11.0388
▁airlines	-11.0388
▁interiør	-11.0388
▁vitamin	-11.0388
▁føroya	-11.0388
skjelettet	-11.0388
▁overlevde	-11.0388
kommandant	-11.0388
▁sandefjord	-11.0388
▁zealand	-11.0388
▁kalsium	-11.0388
▁hovedpersonen	-11.0388
▁detroit	-11.0388
▁utseende	-11.0389
▁trykt	-11.0389
▁utdype	-11.0389
▁tropper	-11.0389
jylland	-11.039
▁massiv	-11.0392
▁manager	-11.0393
▁space	-11.0394
▁skygge	-11.0412
▁tilfeldig	-11.0412
▁kreert	-11.0412
tilsynet	-11.0414
▁ivareta	-11.042
cliff	-11.0455
▁symbolisere	-11.0501
▁organisere	-11.0517
derav	-11.0606
▁beslutning	-11.0721
▁kognitiv	-11.0721
▁krydder	-11.0721
▁løpebiller	-11.0721
▁ortodoks	-11.0721
▁helikopter	-11.0721
▁hongkong	-11.0721
▁tibetansk	-11.0721
▁velkjent	-11.0721
▁nøytral	-11.0721
▁securit	-11.0721
▁innvandre	-11.0721
▁tolkien	-11.0721
▁hamilton	-11.0721
▁brasiliansk	-11.0721
betennelse	-11.0721
▁gospel	-11.0722
▁fusjonert	-11.0722
▁christensen	-11.0722
▁bolivia	-11.0722
irakler	-11.0724
▁claudi	-11.0724
▁yngst	-11.0724
▁titler	-11.0726
anstalt	-11.0726
▁hvete	-11.0729
▁pryd	-11.0734
▁forlenge	-11.0743
dekorasjon	-11.0752
▁antropo	-11.0756
▁ekstern	-11.0758
kirche	-11.0763
▁berømt	-11.0778
trombo	-11.0792
øgle	-11.0818
spørsmål	-11.0827
▁hekse	-11.0832
spesialist	-11.1056
hovedstaden	-11.1064
▁amsterdam	-11.1066
▁argentina	-11.1066
▁argentinsk	-11.1066
▁brenselstype	-11.1066
▁jomfru	-11.1066
▁konsentrasjon	-11.1066
▁slovakia	-11.1066
▁utelukkende	-11.1066
▁dynamisk	-11.1066
▁mountain	-11.1066
▁stjørdal	-11.1066
▁utslipp	-11.1066
afylki	-11.1066
▁matematisk	-11.1066
skribent	-11.1066
▁diskusjon	-11.1066
skrivning	-11.1066
▁drivstoff	-11.1066
▁frederick	-11.1066
▁nobelpris	-11.1066
▁senterpartiet	-11.1066
▁network	-11.1066
script	-11.1066
▁fantasy	-11.1066
▁marilyn	-11.1066
▁unesco	-11.1066
▁benedikt	-11.1066
▁testamente	-11.1066
▁barbara	-11.1066
▁eksistens	-11.1066
▁etablere	-11.1066
▁seksuell	-11.1067
▁fjeld	-11.1067
kommentator	-11.1067
▁invasjon	-11.1067
▁innlemme	-11.1067
▁micro	-11.1067
▁atmosfære	-11.1068
▁havneby	-11.1069
▁saturn	-11.107
▁andorra	-11.107
▁bjarn	-11.1071
▁product	-11.1073
håndtering	-11.1086
▁prøvd	-11.1088
▁karakterisere	-11.1092
forfølgelse	-11.1128
▁skanse	-11.1164
filosofi	-11.1185
nøtter	-11.1206
▁kulturminne	-11.1321
bourg	-11.1328
▁aftenposten	-11.1423
▁angelsaksisk	-11.1423
▁council	-11.1423
▁heilongjiang	-11.1423
▁jerusalem	-11.1423
▁novgorod	-11.1423
▁pennsylvania	-11.1423
▁sebastian	-11.1423
▁yunnan	-11.1423
▁forkroppen	-11.1423
▁kapittel	-11.1423
▁primitiv	-11.1423
▁hertugdømmet	-11.1423
▁stewart	-11.1423
▁1856	-11.1423
▁mozart	-11.1423
▁1871	-11.1423
▁1891	-11.1423
▁bosnia	-11.1423
▁dublin	-11.1423
fiendtlig	-11.1423
▁vietnamesisk	-11.1423
▁ålesund	-11.1423
▁bøndene	-11.1423
▁konsesjon	-11.1423
▁skåne	-11.1424
▁utforming	-11.1424
blomsterflue	-11.1425
ã	-11.4324
